!
"
#
##0
##1
##10
##11
##12
##13
##14
##15
##16
##17
##18
##19
##2
##20
##21
##22
##23
##24
##25
##26
##27
##28
##29
##3
##30
##31
##32
##33
##34
##35
##36
##37
##38
##39
##4
##40
##41
##42
##43
##44
##45
##46
##47
##48
##49
##5
##50
##51
##52
##53
##54
##55
##56
##57
##58
##59
##6
##60
##61
##62
##63
##64
##65
##66
##67
##68
##69
##7
##70
##71
##72
##73
##74
##75
##76
##77
##78
##79
##8
##80
##81
##82
##83
##84
##85
##86
##87
##88
##89
##9
##90
##91
##92
##93
##94
##95
##96
##97
##98
##99
$
%
&
'
(
)
*
+
,
-
.
/
0
00
000
0000
0001
001
0011
01
0100
02
03
04
05
06
0645
07
078733
08
09
090
1
10
100
1000
10000
1018
108
1082
109
11
110
1100
1101
115
118
11940
12
120
123
12345
123456789
125
128
13
130
135
1393
14
140
15
150
1520
1583
15924
16
17
170
1732
1758
1765
1768
1775
18
180
1800
1848
1855
1864
187
1877
1882
1889
19
1903
1908
1912
1913
1915
1916
1917
1919
1920
1922
1923
1926
1928
1929
1931
1934
1936
1938
1941
1942
1943
1947
1948
195
1950
1952
1957
1962
1963
1964
1965
1966
1970
1971
1973
1974
1976
1980
1982
1983
1984
1985
1986
1987
1988
1989
1990
1992
1993
1994
1995
1997
1998
1999
2
20
200
2000
2001
2002
2003
2004
2005
2006
2007
2008
2009
201
2010
2011
2012
2013
2014
2015
2016
2017
2018
2019
202
2020
2021
2022
2023
2024
203
2038
21
210
215
22
220
221
224
225
226
23
230
232
233
236
238
24
240
242
245
25
250
251
255
26
27
28
28500
29
298
3
30
300
301
31
31635
3166
32
320
32424
33
34
35
350
356
36
360
37
370
38
380
386
39
4
40
400
4000
41
42
43
44
45
450
4500
46
47
48
480
486
49
5
50
500
51
510
511
52
5253
53
531
54
55
555
56
57
58
59
6
60
600
60090
63
639
64
65
66
661
68
7
70
700
7070
72
720
74
75
77
7754
79
8
80
800
81
82
820
84
845
85
86
8601
87
88
9
90
91
92
95
950
96
97
978
979
99
9932
:
;
<
=
>
?
@
\
^
_
`
a
aa
aaa
ab
abacus
abbreviate
abbreviated
abbreviation
abbreviations
abc
abdullah
abilities
ability
abin
able
aboriginal
abort
aborted
about
above
abovebelow
abraham
absent
absolute
abstract
abuse
abusefilter
abusefilters
abusive
ac
academic
academy
accept
acceptable
acceptance
accepted
accepting
accepts
access
accessdate
accessed
accessibility
accessible
accidental
accidentally
accommodate
accomplished
accordance
according
accordingly
account
accounted
accounts
accurately
accused
achieve
achieved
acre
acronym
across
act
acting
action
actioncompleted
actionname
actions
activatedbyclick
activationmethodselect
active
actively
activities
activity
actoken
acts
actual
actually
actval
ad
adapt
add
addclass
added
addedone
addeventlistener
addhook
adding
addition
additional
additionally
additionalwork
additions
addpopupshortcut
address
addressed
addresses
adds
adhering
adjacent
adjust
adjusted
admin
administrative
administrator
administrators
admins
adminship
adminstrator
adoption
ads
advance
advanced
advancedsearch
advantages
advertise
advertisements
advertising
advice
advise
advocate
ae
af
afc
afd
affect
affected
affects
affiliate
affiliates
affiliation
afraid
africa
african
after
afterwards
afterword
again
against
age
agency
agenda
agent
ages
aggregate
aggregator
ago
agree
agreed
aharbal
ahead
ahref
ai
aiatsis
aiatsisname
aid
aids
aim
aims
airport
airports
airs
ais
aj
ajax
aka
akha
akka
akkusativ
aktiv
al
ala
albert
album
albums
alcohol
alert
alerts
alexander
algae
algebra
ali
alias
aliases
align
aligned
alignment
alike
alive
all
alleborgobot
alliance
allocate
allocation
allow
allowed
allowing
allows
allpages
alma
almost
alone
along
alongside
alpha
alphabet
alphabetic
alphabets
alphanumeric
already
also
alt
alter
alternate
alternative
alternatively
alternativemap
alternatives
although
altimage
altname
always
am
amazon
ambassador
ambassadors
ambiguous
ambox
amendment
america
american
americas
among
amount
amounts
amp
ampersand
an
analysis
analytical
anatomy
ancestor
ancestral
anch
anchor
anchors
ancient
and
android
andrzej
aneurysm
angela
angiosperms
angle
animal
animalia
animals
animation
annotation
announce
announced
announcement
announcements
announces
announcing
annual
anonymizing
anonymous
another
ansari
answer
answered
answering
answers
anthem
anthropology
antibiotic
any
anybody
anyhow
anyone
anything
anyway
anywhere
apart
apfel
apg
api
apiobj
apipath
apiwikibase
apologies
apologize
apostrophe
app
apparently
appeal
appealing
appear
appearance
appearing
appears
append
appendchild
appends
appendtext
applicable
applicants
application
applications
applied
applies
apply
applying
appointed
appreciate
appreciated
approach
appropriate
approval
approved
approximate
approximately
approximation
apps
april
ar
arab
arabic
arbitrary
arbitration
arc
archaea
architecture
archival
archive
archived
archivedate
archivelist
archives
archiving
arctic
are
area
areas
aren
args
arguably
argument
arguments
arial
arin
arises
arnold
around
arqamkhawaja
arr
arranged
arrangement
array
arrays
arrow
arrows
art
article
articlebase
articleinfo
articlepath
articles
artist
artistic
artists
arts
arxiv
as
asbox
ash
asia
asian
asiatic
aside
asin
ask
asked
asking
asks
asp
aspect
aspects
aspx
aspxhttps
assertion
assess
assessed
assessing
assessment
assessments
assign
assigned
assigning
assignment
assist
assistance
assisted
associated
association
assorted
assume
assumed
astacus
asterids
asteroid
astronomy
async
asynchronous
at
athens
athletes
athletics
atitle
atlantic
atom
attack
attacks
attempt
attempted
attempting
attempts
attend
attended
attention
attitude
attr
attribute
attributes
attribution
atypical
audience
audiences
audio
audios
august
australia
australian
author
authored
authorities
authority
authorlink
authors
auto
autoclick
autoclicktoken
autocommit
autocomplete
autoconfirmed
autoedit
autogenerated
autoimpl
automated
automatic
automatically
autonomous
autosummary
autovalue
availability
available
average
avoid
awa
awaiting
awami
award
awarded
awards
aware
awareness
away
az
azad
b
ba
babel
back
background
backgrounds
backlinks
backlog
backward
backwards
bacteria
bad
badge
badges
bahasa
balance
ball
ban
bands
banish
bank
banksia
banned
banner
banners
banning
bans
bantu
baptised
bar
baramulla
baranophrys
bare
barrier
barriers
bars
barset
base
based
baseline
baseurl
basic
basically
basics
basis
basitwanni
bassel
bat
baylor
baz
bb
bbbbbbbbb
bc
bce
be
beautiful
bebebe
became
because
become
becomes
becoming
been
beer
beethoven
before
began
begin
beginning
begins
begun
behalf
behavior
behaviour
behind
beijing
being
beliefs
believe
belong
belongs
below
benefit
bengali
ber
berlin
beside
besides
best
bet
beta
betawiki
better
betterment
between
beverage
beyond
bg
bhakta
bhasa
bi
bibcode
bible
bibliographic
bibliography
big
bigger
bil
bilalahmed
bilingual
bill
billion
bin
bind
binomial
biographical
biographies
biography
biological
biology
biorxiv
bird
birgit
birth
birthday
birthplace
bit
bitwise
black
blacklist
blacklisted
blank
blanked
blanking
blanks
blatant
blatantly
bleeding
block
blocked
blocking
blockquote
blocks
blog
blogs
bloomsbury
blp
blue
bn
bo
board
boards
bodies
body
boilerplate
bokma
bold
bolded
bolding
book
bookmark
books
boolean
booth
border
bordered
borderless
borders
bot
botanical
botany
botedit
botflags
both
botinterfacepath
botmaster
botmultichill
bots
bottom
bouterse
box
boxes
bpy
br
braces
brackets
brain
branch
brazil
break
breaking
breaks
breves
bridge
brief
bring
bringing
british
broad
broadcast
broadcasting
broadest
broken
bronze
brought
brown
browser
browsers
bs
bst
buddhism
buddhist
budget
bug
bugs
bugzilla
build
building
buildings
built
bulb
bullet
bulleted
bungling
bureaucrat
burial
business
busy
but
button
buttonlabel
buttonlink
buttons
by
bylaws
bypass
bytes
c
ca
cable
cac
cache
cached
cadastre
caesar
cairn
calculateposition
calculating
calculations
calendar
call
callback
callbackobj
callbackparameters
called
caller
callers
calligraphy
calling
calls
callsign
cambrian
cambridge
came
camel
camera
campaign
campanulids
camponotus
can
canada
canadian
canal
canberra
cancel
cancer
candidacy
candidate
candidates
candidatus
cannot
canonical
canorus
canreview
canselect
canusemwusertoken
canvas
capable
capacity
capita
capital
capitalization
capitalize
capitalized
capitalizepagenames
captcha
caption
captions
car
caravage
carbon
card
cards
care
careful
carefully
carl
carnivorous
carried
carry
cascade
cascading
case
cases
cat
catalan
catalogue
catch
categories
categorisation
categorise
categorised
categorises
categorization
categorized
categorizes
category
categoryeditor
catline
catlink
catlinks
cats
cattitle
cause
caused
causes
cautious
cc
ccc
ccd
ce
cease
ceb
celebrate
celebrations
cell
cells
census
censusindia
center
centered
centers
central
centralized
centre
century
ceo
ceremonies
ceremony
certain
certainly
cest
cewbot
cfds
cgi
chain
chaining
chair
challenge
challenges
chan
chance
chances
change
changed
changelinktargetlink
changes
changetag
changetags
changing
channel
chapter
chapters
char
character
characteristics
characters
charat
charge
charges
chart
charter
chat
che
check
checkbox
checkboxes
checked
checker
checking
checklist
checkmultiinput
checkpopupposition
checks
checkuser
cheers
chemical
chemistry
child
children
china
chinese
choice
chomsky
choose
choosing
chosen
christian
chrome
chromium
chu
chunk
church
cid
cidrstart
cids
circle
circumstances
circumvent
cis
citation
citations
cite
cited
citeref
citeseerx
cities
citing
citizenship
citoid
city
civil
civilised
civilization
ckoerner
clade
clades
cladus
claim
claimed
claiming
claims
clarify
clarity
class
classes
classical
classification
classis
classname
claude
clause
clean
cleaned
cleanedtext
cleaning
cleankey
cleanup
clear
clearer
clearinterval
clearly
cleartimeout
clerk
click
clickbutton
clicked
clickies
clicking
clickoption
clicks
client
clinical
clip
clock
close
closed
closely
closest
closing
closure
clubs
cm
cmbox
cmd
cmdbody
co
coat
cochrane
code
coded
codemirror
codes
coding
coexist
coffee
coherent
coined
coins
col
cold
collaborate
collaborating
collaboration
collaborative
collapse
collapsed
collapsible
collect
collected
collection
collections
cologneblue
colombia
colon
color
colors
colour
coloured
cols
column
columns
com
combination
combinations
combined
combining
come
comes
comfortable
coming
comma
command
commas
commelinids
commenced
comment
commented
commentedtext
commenting
comments
commercial
commission
commit
commitbutton
commitform
committee
committees
commodo
common
commonly
commons
communicate
communication
communications
communities
community
compact
company
compare
compared
comparelinestringorreg
comparison
compass
compat
compatibility
compatible
competition
complaint
complaints
complete
completed
completely
completes
completion
complex
complicated
comply
components
composed
composition
comprehensive
compromise
computable
compute
computer
computers
computing
concentrate
concept
concepts
conceptual
concern
concerns
conclusion
condescention
condition
conditions
conduct
conducted
conf
conference
confidence
confident
config
configurable
configuration
configure
configured
configures
confirm
confirmation
confirmed
conflict
conflicting
conflicts
conforming
confused
confusing
confusion
congress
conjunction
conlang
conlangs
connect
connected
connecting
conscience
consecutive
consensual
consensus
consequat
conservation
consider
consideration
considerations
considered
consistency
consistent
consisting
consists
console
consonants
constitute
constraints
constructed
construction
constructive
constructor
consult
consultation
consultations
contact
contain
container
containing
contains
contemporary
content
contentious
contentmodel
contents
contest
contests
context
contexts
continue
continued
continues
continuing
contrary
contribs
contribute
contributing
contribution
contributions
contributor
contributors
control
controlling
controls
controversial
controversy
convenience
convenient
convention
conventions
conversation
conversations
conversion
convert
converted
converter
converting
converts
convey
convicted
convinced
cookie
cool
coolest
cooperation
coord
coordinate
coordinates
coordinating
coordinator
copied
copiedtext
copies
copper
copy
copyright
copyrighted
copystructure
core
cores
corner
corporate
corporation
correct
corrected
correction
correctly
correspond
correspondences
corresponding
corresponds
corrupt
corrupted
cost
cot
could
couldn
count
counted
counter
countries
country
county
couple
course
courtesy
cover
coverage
covered
covering
covers
cr
crc
create
createcommitform
created
createelement
createoption
creates
createtextnode
createtextrange
creating
creation
creative
creativity
creator
credibility
credible
credibly
credit
credo
cricket
criminal
criminals
criteria
criterion
critical
croatia
cross
crosses
crossreference
crystal
cs
csd
cslist
csrf
csrftoken
css
cssclass
ct
ctrl
ctx
cu
cuisine
cultural
culture
cultures
cuneiform
cur
curl
curr
currencies
currency
current
currentarticleregexbit
currentcategory
currentexists
currentkey
currently
currenttooltip
cursor
cursorwaitcss
custom
customised
customize
cut
cv
cws
cx
cycle
cyrillic
d
da
dab
dabs
daily
dan
dance
dancers
dances
dark
darkmode
dash
dashes
data
database
databases
date
dated
datediff
dateformat
dates
dativ
datum
david
dawn
day
days
db
dchb
dd
ddd
dddd
ddddff
de
dead
deadline
deal
dealt
dear
death
debugdata
dec
deceased
deceive
december
decide
decided
deciding
decimal
decision
decisions
declaration
declared
declaring
decline
declined
declining
deconstructive
decoration
decrease
dedicated
deemed
deep
def
defamation
default
defaults
defer
define
defined
defines
defining
definitely
definition
definitions
deg
degli
degree
degrees
degruyter
del
delay
delayed
delayinput
delete
deleteapi
deleted
deletedcontribs
deletepage
deletes
deleting
deletion
deletions
delhi
deliver
delivered
deliverer
delivery
demand
demo
demonstrate
demonstrates
demospace
den
dendrobatidae
dendromyrmex
denial
denny
denote
density
department
depend
dependencies
dependent
depending
depicted
depicting
deploy
deployed
deploying
deployment
deployments
deposited
deprecated
depth
deputy
der
derivative
desc
descbox
descendant
describe
described
describes
describing
description
descriptions
descriptive
desert
design
designed
designs
desirable
desired
desktop
despite
destfile
destination
destroying
destructive
desysopped
detail
detailed
details
detect
detected
detection
detects
determine
determined
determines
deutsch
deutsches
deutschland
dev
devanaagari
devanagari
devanagri
devangri
develop
developed
developer
developers
developing
development
device
devices
devnagari
df
di
dia
diabetes
diacritic
diacritics
diagnosis
diagonals
dialect
dialects
dialog
dialogs
diameter
dictionary
did
didn
die
diet
diff
diffcur
diffdata
diffdatestablerow
differ
difference
differences
different
differential
differently
difficult
diffonly
diffs
digit
digital
digits
dim
din
dir
direct
direction
directional
directions
directly
director
directory
disable
disabled
disabledhelp
disablednote
disableoption
disables
disagree
disallowed
disambig
disambiguate
disambiguation
disambiguator
disappearance
disappeared
disappearing
disaster
disc
discarded
disclaimer
discontinue
discord
discouraged
discovered
discovery
discretion
discuss
discussed
discussing
discussion
discussions
discussiontools
disease
disguised
dismiss
dismissednotices
disorder
disparage
display
displayed
displaying
displays
displayurl
dispute
disputed
disputes
disrepair
disrupt
disrupting
disruption
disruptive
dissemination
disservice
distinct
distribute
distributed
distributes
distribution
distributor
div
diverse
diversity
divided
divisio
division
divisions
divname
divs
dl
dmbox
dms
dmy
dna
do
doc
docket
document
documentation
documented
documentelement
documents
does
doesn
doi
doing
dois
dollar
dollars
dom
domain
domestic
don
donate
donation
donations
done
donors
dont
dosut
dot
dots
dotted
double
doubled
doubt
down
download
downloaded
downloader
downloadsinprogressx
downward
dozens
dr
draft
draftified
drafting
drafts
draghandle
dragonbot
draw
drawing
draws
dream
drink
drinking
drop
dropdiv
dropdown
dropped
drug
dst
dt
dual
dubious
duda
due
duis
duplicate
duplicated
duplicates
duration
during
dutch
duty
dyk
dynamic
dynamiccontenthandler
dz
e
eaba
each
eagle
earlier
earliest
early
earn
earth
ease
easier
easily
east
easter
eastern
easy
eb
ebook
ebooks
ebsco
echo
economics
economy
ecosystem
ed
edge
edit
editathon
editbox
editcounterlink
edited
editform
editing
edition
editions
editlink
editmode
editmonobook
editnotice
editnotices
editold
editoldidstr
editor
editorial
editorn
editors
editprot
editrestriction
edits
editstr
editsummary
edittoken
eds
edt
educated
education
educational
eee
effc
effect
effective
effectively
effects
effort
efforts
eform
eg
egypt
ei
eight
eighth
einstein
eissn
either
el
elected
election
elections
electricity
electromagnetism
electron
electronic
electronics
element
elementarray
elementid
elements
eligibility
eligible
eliminate
elit
elitre
elp
elpname
else
elsevier
elsewhere
em
emad
email
emailuser
embed
embedded
embedding
emedicine
emi
emit
emits
emitted
emoji
empire
employer
emptively
empty
emptyfunction
emptyspanhtml
en
enable
enabled
enableoption
enables
enableselect
enabling
enclose
enclosed
enclosing
encode
encoded
encodeuricomponent
encoding
encounter
encountered
encourage
encouraged
encourages
encouraging
encyclopedia
encyclopedias
end
endangered
enddiv
ended
endfile
ending
endl
endnote
endorsement
ends
energy
enforce
enforceable
enforced
enforcement
engage
engaged
engagement
engaging
engine
engineering
enginename
engines
english
enhance
enhanced
enjoy
enlightenment
enough
enriching
ensure
ensures
enter
entered
entering
entire
entirely
entirety
entities
entity
entries
entry
environment
environments
enwiki
enwikipedia
eo
epagex
epagey
equal
equals
equates
equity
equivalent
equivalents
equivocal
era
erasing
errlog
error
errors
es
esc
escape
escaped
escapere
escaperegexp
eslint
espan
especially
essay
essays
essential
essentially
essere
est
established
establishes
establishing
estimate
et
etal
etc
ethnic
ethnologue
eu
euasterids
eudicots
eukesh
euro
europe
european
eurosids
evading
evaluate
evaluated
evaluation
even
event
eventroutine
events
eventtype
eventually
ever
every
everybody
everyday
everyone
everything
everytime
everywhere
evidence
evt
evtkeys
evtkill
ex
exact
exactly
example
examples
exams
exceeding
excellent
except
excepting
exception
exceptional
exceptions
exchange
excited
exclude
excluded
excludedcategories
excludedtemplates
excludes
exclusions
exclusively
excuse
exec
execute
executive
exempt
exercise
exercising
exil
exile
exist
existed
existent
existing
exists
expand
expanded
expanding
expands
expansion
expansions
expect
expectation
expected
expenses
experience
experienced
experiences
experiment
experimental
experiments
expertise
expiration
expire
expired
expiry
explain
explaining
explains
explanation
explanatory
explicit
explicitly
explorer
export
express
expressed
expression
expressions
ext
extant
extended
extendedconfirmed
extends
extension
extensions
external
extinct
extinction
extinctions
extiw
extra
extract
extraneous
extreme
extremely
eye
f
fa
fabids
fabricius
facebook
facilitate
facilitators
facility
fact
factor
factors
fade
fail
failed
failing
fails
failure
fair
fairy
faisal
faith
fake
fakelinks
fall
fallback
falls
false
falsely
fam
familia
familiar
families
family
familycolor
famous
fancy
faq
far
farsi
fashion
faster
fastest
father
fault
favor
favorite
fbfbfb
fc
fdc
fdfdfd
fear
feasible
feature
featured
features
feb
february
fee
feed
feedback
feel
fees
felis
fellow
fellowship
female
femininum
feminism
festivals
few
fewer
ff
ffdbdb
ffe
fff
fi
fiction
fictional
field
fieldlayout
fields
fieldset
fifth
figcaption
fight
fighting
figure
figures
figuretypeof
file
fileexporter
fileimporter
filename
files
filing
fill
filled
fillemptyspans
film
films
filter
filters
final
finally
finance
financial
find
findcatsre
findings
fine
finish
finished
finnish
fire
firefox
first
firstchar
firstchild
firstn
firstname
firsttime
fish
fit
fitness
fits
five
fix
fixed
fixes
fixing
fixme
flag
flagged
flaggedrevs
flags
flex
flexible
float
floated
floating
flood
floriade
floridiae
flow
flower
flowering
fmbox
fn
fnautosave
fncanusemwusertoken
fnloadsuccess
fnneedtokeninfoquery
fnpreflightchecks
fnprocesstriagelist
fnsaveerror
fnsavesuccess
focus
focused
folders
folk
folklore
folks
follow
followcrossnsredirect
followed
following
followredirect
follows
font
fonts
foo
foobar
food
foot
football
footer
footerlinks
footnote
footnotes
for
force
forced
forces
forcetoc
forcing
foreign
foreignapi
foresee
foreseeable
foreword
forget
form
formal
formally
format
formats
formatstr
formatted
formatting
formatversion
formcontainer
former
formerly
formica
forms
formula
formulas
forrester
fort
forth
fortschritte
forum
forward
forwarded
forwards
fossil
fossils
found
foundation
founding
fountain
four
fourth
fr
frac
fragment
fraktur
frame
framed
frameless
framework
franc
france
francis
free
freely
freezes
french
frequency
frequent
frequently
friday
friedrich
friendly
friendlycurrentarticlename
friendlyname
friends
from
fromanchor
fromrev
fromwikitext
front
fruit
frustrated
ft
fulfill
full
fullstops
fulltext
fully
fullyprotected
func
function
functionality
functionaries
functions
fund
fundamental
fundamentally
funding
fundraiser
fundraising
funds
fungi
funny
further
furthermore
future
fuzz
fuzzy
fy
g
ga
gadget
gadgets
gadgetslinkelement
galaxy
gale
galicia
galleries
gallery
gallerybox
game
games
gammarus
gap
gather
gave
gdp
gecko
gender
genera
general
generallink
generally
generalnavlink
generate
generated
generates
generation
generic
genetic
genetics
geniosus
genitiv
genius
genre
genres
genuine
genus
geo
geographic
geographical
geography
geohack
geologic
george
geosearch
geoshapes
german
germany
get
getday
getdayname
getdiffsincemyedit
getdismissednotices
getelementbyid
getelementlabelobject
getelementsbytagname
gethistory
gethistoryinfo
getlastcontrib
getmonth
getmonthname
getprefixedtext
getresponse
gets
getstate
gettime
getting
getty
getutcfullyear
getutcmonth
getutcmonthname
getvalueof
gfdl
gi
gibberish
gif
gini
git
github
give
given
gives
giving
gje
gleanings
global
globally
globals
globe
glotto
glottolog
glottopedia
glottorefname
glyphs
gm
gmt
go
goal
goals
god
goes
going
gold
gone
good
goodwill
google
got
gov
govern
governance
governing
government
governmental
gradient
grading
gradually
grammar
grammatical
grandparent
grant
granted
grants
graphein
graphic
grateful
gray
great
greater
greatgrandparent
greatgreatgrandparent
greatly
greece
greek
green
greetings
gregorian
gregory
grey
grfc
grierson
grounds
group
grouping
groups
grow
growth
guarantee
guess
guidance
guide
guideline
guidelines
guillaume
guru
guthrie
h
ha
habitat
hack
hackathon
had
half
hamza
hana
hand
handbook
handle
handled
handler
handles
handling
hangout
happen
happened
happening
happens
happy
harass
harassment
hard
harder
hardly
hardwork
harm
harmful
harv
has
hasclass
hasn
haspopupmenu
hatnote
hatnotes
have
haven
having
hc
hcard
hdi
hdl
he
head
header
headers
heading
headings
health
healthy
hear
heard
hearing
heart
heavy
hebrew
height
held
hello
help
helpcontents
helped
helper
helpful
helping
helps
hemisphere
hence
her
herby
here
hereby
heritage
hey
hh
hi
hidden
hiddencat
hiddencats
hide
hideref
hides
hiding
hierarchical
hierarchically
hierarchy
high
highbeam
higher
highlight
highlighted
highlighting
highlights
highly
him
hindi
hindu
hindustanilanguage
hint
his
hist
historia
historians
historic
historical
historically
histories
history
historystr
hit
hlist
hn
ho
hoax
hoaxes
hold
holder
holding
holiday
holidays
holocene
homarus
home
homo
honor
honorific
honors
honours
hook
hooks
hope
hopefully
hopping
horizontal
hospital
hospitals
host
hosted
hosting
hostname
hosts
hotcat
hour
hours
house
hover
hovercards
hovered
hovering
hoveroption
how
however
howmany
hr
href
hsb
ht
html
htmlelement
htmlescape
htmlformelement
htmlhttp
http
https
hu
hubs
hulged
human
humanities
humbly
hungarian
hunting
husband
hy
hydrogen
hyperlink
hyphen
hyphenated
hyphens
i
ib
ibn
icd
icn
icon
icons
ics
iczn
id
idea
idealab
ideally
ideas
identical
identification
identified
identifier
identifiers
identifies
identify
identifying
idnumber
ids
idx
ie
ieg
ietf
if
ifexpr
iflaq
ig
ign
ignore
ignored
ignores
ii
iii
il
illness
illustrate
illustrated
illustration
im
image
imagepage
imageright
images
imagesize
imagine
imbox
imboxes
ime
img
imgsize
immaterial
immediate
immediately
immense
impact
impacts
impaired
imperial
implausible
implement
implementation
implemented
implementing
implicit
implicitly
implied
implies
import
importance
important
imported
imposed
impossible
improper
improve
improved
improvement
improvements
improves
improving
imran
imranqazi
in
inactive
inactivity
inappropriate
incidence
incident
incidents
include
included
includes
including
inclusion
inclusive
incoherent
incomplete
incorporates
incorrect
incorrectly
increase
increased
increases
increasing
increment
incremented
indefinite
indefinitely
indent
indentation
indented
indenting
independent
independently
index
indexof
india
indian
indic
indicate
indicated
indicates
indicating
indication
indicator
individual
individuals
indonesia
infinite
infinity
inflation
inflections
influenced
influences
info
infobox
infoboxes
inform
informal
informally
information
informed
informing
infraclassis
infraorder
infraordo
infraphylum
infrastructure
infringement
infringements
infringing
inhabitants
inherit
inherits
init
initial
initialize
initialized
initially
initials
initiated
initiation
initiative
initiatives
inline
inner
innerhtml
inprop
input
inputexists
inputs
inputtype
inr
insert
insertbefore
inserted
inserting
insertpreviewnow
inserts
inside
insist
inspire
insta
instad
install
installation
installed
instance
instanceof
instances
instead
institute
institution
institutional
institutions
instructions
insufficient
insult
intact
integer
integrated
intend
intended
intent
intention
intentional
interact
interaction
interactive
interest
interested
interesting
interests
interface
interfere
interferes
interlanguage
intermediate
internal
internally
international
internet
interpretation
interpreted
interscript
interview
interviewer
interviews
interwiki
intimidate
into
intro
introduce
introduced
introducing
introduction
introductory
introto
introtosingle
intuitive
invalid
invented
investigates
investigating
investigations
invisible
invitation
invite
invited
invites
inviting
invoke
invoked
involved
involvement
involving
io
ion
ios
ip
ipa
ipuser
ipv
iran
iranian
iraq
irc
ircs
iron
is
isaddcategory
isarray
isbn
isbns
isinfinity
islam
islamic
island
ismn
isn
isnan
iso
isoexception
ison
ispageredirect
ispresent
isselected
issn
issue
issued
issues
ist
isvalid
isvisible
it
italian
italic
italicization
italicize
italicized
italics
italy
item
items
iteration
itn
its
itself
iu
iucn
iv
iya
j
ja
jahrbuch
jain
james
jammu
jan
jane
january
japan
japanese
javascript
jesus
jethrobt
jfm
jhsbot
jibberish
job
jobs
joe
johan
johann
johanna
john
join
joined
joining
joinpath
jose
journal
journals
jpeg
jpg
jquery
js
jsconfig
json
jst
jstor
jsurl
judaism
jul
julian
julius
july
june
junior
jupiter
just
justify
k
ka
kaagaz
kanashimi
kartographer
kashmir
kashmiri
kathmandu
katie
kaul
keegan
keep
keeping
keeps
keepspaces
kept
kern
kev
key
keyboard
keychange
keycode
keycount
keydown
keyframes
keys
keystrokes
keyup
keyword
keywords
khan
khawa
khwaja
khwarizmi
kill
kind
kindly
kingdom
km
kn
know
knowledge
knowledgeable
known
knows
korean
koshur
koshura
krishna
ks
ksh
kswiki
ku
kukil
kumjur
kurier
l
la
label
labelcell
labelelement
labels
labeltext
lack
lacking
lacroix
ladakh
lake
lamiids
land
landing
landscape
lang
langlinks
language
languages
large
larger
largest
last
lastcontrib
lastdesc
lastedit
lastedittime
lastindex
lastinput
lastkey
lastmod
lastmodified
lastn
lastrealinput
lastrevid
lasts
lastsavedexists
lastselection
lasttime
lat
late
later
latest
latf
latin
latitude
latter
laugh
launch
launched
law
lay
layout
laysummary
lb
lbrace
lc
lccn
ld
lea
lead
leader
leaders
leadership
leading
leads
leaflets
league
learn
learned
learning
learnings
learnmore
learnt
least
leave
leaves
leaving
led
left
legacy
legal
legend
legitimate
legitimately
len
length
lengthier
lens
leo
less
let
lets
letter
letters
letting
level
levels
lewandowski
lf
li
liaison
libel
libraries
library
license
licensed
licenses
licensing
life
lifetime
lifted
light
like
likely
likewise
liliaceae
limit
limitation
limitations
limited
line
linear
linebreaks
linecell
linediff
lines
linglist
linguist
linguistic
linguistics
link
linked
linking
linkn
links
linkspan
linkstyle
linnaeus
list
listas
listed
listen
listi
listing
listitem
lists
listsize
listusers
litcolor
lite
literalizeregex
literary
literate
literature
little
live
living
lk
ll
ller
lmo
lnum
lo
load
loadapi
loadapipreview
loaded
loader
loading
loadpreview
loadquery
loads
loadtime
lob
local
localedata
localisation
localization
localize
localized
locally
located
location
locationnote
locations
log
logged
logic
login
logo
logos
logout
logs
loinc
lon
london
long
longer
longitude
longtype
look
looking
looks
lookup
lookupcreation
lookupcreationapi
lookupnonredirectcreator
loop
loopend
loss
lost
lot
lots
lov
love
loves
low
lower
lowercase
lowest
lr
lt
lua
luck
lv
lydia
ləʈ
m
ma
mac
machine
macrolanguage
macrons
made
magazine
magazines
magic
magna
magnolia
magnoliids
mail
mailed
mailing
main
maindiv
mainlink
mainly
mainpage
mainspace
maintain
maintained
maintains
maintanence
maintenance
major
majority
make
makelinkspan
makeregexp
makes
making
mala
malformed
malicious
malvids
mammal
man
manage
managed
management
manager
mandatory
manipulating
manner
manual
manually
manufacturer
manuscript
many
map
mapalt
mapcaption
mapframe
mapping
mappings
maps
mapsize
maqsood
march
margin
marinus
mark
marked
marker
markers
markpatrolled
marks
marksize
markup
marriage
married
mars
martin
mask
masks
maskulinum
mass
massmessage
master
match
matches
matching
matchpos
mater
material
materials
math
mathematical
mathematics
mathematik
mathml
matter
matters
max
maxconflictretries
maximum
maxlength
maxretries
maxsize
may
maybe
mbox
mboxes
mc
mcdc
mdennis
mdy
me
mean
meaning
meaningful
meaningless
meanings
means
meant
meantime
measure
measurement
mechanical
mechanics
mechanisms
medal
media
mediaquery
mediawiki
medical
medication
medicine
medium
medlineplus
meet
meeting
meetings
member
memberof
members
membership
mental
mention
mentioned
mentorship
menu
menus
menutitle
mercury
mere
merely
merge
mergeable
merged
mergedbottomrow
mergedrow
mergedtoprow
merges
merging
meridian
message
messagebox
messageboxes
messagename
messages
messy
met
meta
metadata
metatemplate
meth
method
methods
metres
metropole
mexico
mf
mg
mi
microformat
microformats
microphylum
microsoft
mid
middle
middlename
might
migrate
migrated
migration
migratory
military
milky
million
milliseconds
min
mind
minerva
minimize
minimum
minor
minoredit
minoredits
minus
minute
minutes
mir
mirror
misc
miscellaneous
miscellany
misinform
misinformation
misleading
misnomers
missed
missing
mission
misspelling
misspellings
mistake
mistakenly
mistakes
misuse
mit
mix
mixed
mixes
mk
ml
mm
mn
mnadzikiewicz
mnext
mobile
mockups
mod
mode
model
models
modern
modes
modification
modifications
modified
modifier
modifierkeyhandler
modifierpressed
modifies
modify
modifying
module
modules
mody
moeda
moment
moments
mon
monday
monet
money
monitor
monitoring
mono
monobook
monocots
monospace
monotypic
montana
month
monthly
months
monuments
moon
more
morebits
moreover
mos
most
mostly
mother
motion
mountains
mouse
mouseleavingtime
mouseout
mouseovernavpop
mouseoverwikilink
move
moveapi
moved
movedestination
movement
movements
movepage
mover
movers
moves
movie
moving
moz
mp
mpg
mprev
mr
ms
msg
mt
mu
much
muhammad
multi
multichill
multicol
multiline
multilingual
multimedia
multiple
muse
music
musical
musicians
musikanimal
muslim
muslims
must
muzaffarabad
mw
mwe
mwnoticespopuptool
my
mylanguage
mylastedit
myself
mythology
n
na
nadeemulhaqmir
nafees
name
named
namely
names
namespace
namespaceid
namespaceregex
namespaces
naming
nan
nana
nanophylum
nap
narrow
nastaeeq
nastaleeq
nastaliq
nation
national
nationalism
nationality
nations
native
nato
natural
nature
navara
navbar
navbox
navboxes
navcontent
navframe
navigate
navigation
navigational
navigator
navlinks
navlinkstringtohtml
navlinktag
navpop
navpopup
nd
nds
ndtv
ne
near
nearest
nearly
neater
necessarily
necessary
need
needed
needing
needs
neelum
negative
neither
nepal
nessecarily
nested
nesting
net
network
neutral
neutrality
neutron
neutrum
never
new
newcomers
newdelay
newdesc
newdownload
newer
newexpiry
newline
newlines
newly
newoption
newrev
newrow
news
newsection
newsectionlink
newsectiontext
newsectiontitle
newsletter
newspans
newspaper
newspaperarchive
newspapers
newstate
newtarget
newton
newtxt
newurl
newval
newwin
next
ng
ni
nic
nice
nickname
nigeria
night
nin
nine
ninth
nl
nn
no
noam
nobel
nobody
nocat
nochange
node
nodename
nodetype
noeditsection
noflip
noinclude
noindex
nom
nomenclature
nominal
nominals
nominate
nominated
nominating
nomination
nominations
nominativ
nominator
nominee
nomobile
non
nondefault
none
nonempty
nonexistent
nonsensical
nonsimple
nonsimplepopupcontent
nopopup
nor
noref
normal
normalise
normalization
normalize
normalized
normalizedactval
normallinks
normally
north
northern
norwegian
nosection
nostalgia
nosuggestions
not
notability
notable
notation
note
noted
notes
nothing
notice
noticeboard
noticed
notices
notification
notifications
notified
notify
noto
notoc
notready
nov
novel
november
now
nowiki
nowrap
np
npov
ns
nscategoryid
nsi
nsimageid
nsre
nstab
nsuserid
nt
nth
nuclear
null
nulla
nulledit
num
number
numbered
numbering
numberinput
numberof
numberofactionsleft
numbers
numeral
numerals
numeric
nzst
o
obesity
object
objection
objections
objective
objects
obscene
obscure
observance
observances
observe
observed
observedby
obsolete
obtained
obtaining
obvious
obviously
oc
ocaasi
occasion
occasionally
occasions
occupation
occur
occurred
occurrences
occurring
occurs
ocean
oceania
oceans
oclc
oct
october
odd
odt
of
off
offer
offered
offering
offers
office
officer
official
offline
offset
offsetycorrection
often
ogg
oh
ohdear
ohter
ok
okay
ol
old
oldbuttonstate
oldedit
older
oldest
oldid
oldiddata
oldlabel
oldlines
oldrev
oldsubmit
oldtarget
oldtxt
ombox
ombuds
ombudsperson
omit
omitted
omitting
on
onbodyclick
once
onclick
ondeletefailure
one
oneclickarchiver
ones
onfailure
ongoing
online
onloadfailure
onloadsuccess
onlookupcreationfailure
only
onmovefailure
onoroff
onprotectfailure
onsavefailure
onsavesuccess
onset
onstabilizefailure
onstartevent
onsubmit
onsuccess
onto
onundeletefailure
onupload
onwindowresize
oo
oojs
oops
ooui
opacity
open
opened
opening
openlibrary
opens
opera
operate
operation
operations
operator
operators
opinion
opinions
opponents
opportunities
opportunity
oppose
opposed
ops
opt
opted
option
optional
optionally
options
optionx
or
orange
order
ordering
orders
ordinal
ordinarily
ordination
ordo
org
organisers
organism
organisms
organization
organizations
organize
organized
organizers
organizing
orientation
orig
origin
original
originalcategory
originalexists
originalhidden
originalkey
originally
originaltitle
originated
orphaned
os
osi
osti
ot
other
others
otherwise
otrs
ottoman
our
out
outcome
outcomes
outdated
outer
outlined
outlining
output
outputs
outreach
outside
over
overall
overflow
overlap
overlay
overlie
overridden
override
overrides
overriding
oversight
overview
overwrite
overwritten
owl
own
owner
oxygen
p
pa
pablo
pacific
package
pad
padded
padding
padlock
pag
page
pageexists
pageid
pageloaded
pagename
pagenamenorm
pagenameregex
pages
pagesection
pagestyles
pagetext
pagetextrevid
pagetime
pagetitle
pagetriage
pageviews
paid
painting
pair
paired
pakistan
pandits
panel
paneldisabled
panelsettings
paper
papers
paragraph
paragraphs
parallel
parallell
param
parameter
parameters
paramorder
params
paraphrasing
parensplit
parent
parentanchor
parentheses
parenthesised
parentnode
parents
parsable
parse
parsed
parseint
parseparams
parser
parsing
part
partial
partially
participants
participate
participated
participating
participation
particle
particular
particularly
parties
partisan
partner
partners
partnership
partnerships
parts
party
parvordo
pass
passed
passes
passing
passiv
passive
password
passwords
past
paste
path
pathoschild
paths
pathways
patrick
patrol
patrolapi
patrolled
patroller
patrolling
pattern
paul
paumier
pay
paywall
pc
pca
pd
pdf
pdfs
pdt
pe
peace
peculiar
penalty
pencil
pending
penguin
people
per
percent
percentage
perfect
perfectly
perform
performance
performed
performing
performs
perhaps
period
periodical
periodicals
periods
permanent
permanently
permian
permission
permissions
permitted
persian
persistent
perso
person
personal
personalize
personally
persons
perspective
perspectives
pfel
pg
phab
phabricator
phase
phases
phd
philosophers
philosophical
philosophy
phone
phonetic
photo
photograph
photographic
photography
photos
php
phrase
phylogenetic
phylum
physical
physics
pi
picture
pictures
pieces
pilot
pin
ping
pinging
pink
pintscher
pipe
pipep
pipepbot
pixel
pixels
pl
place
placed
placedby
placeholder
placement
places
placing
plain
plainlist
plainly
plan
plane
planet
planned
planning
plans
plant
plantae
plants
platform
platforms
plausible
plausibly
play
player
playing
plays
playstation
please
pleased
plural
plus
pluto
pm
pmc
pmcid
pmid
pms
pneumoniae
png
po
poetry
point
pointer
points
poland
policies
policy
polish
political
politics
poll
poor
poorly
pop
popdata
pope
popular
populated
populates
population
popup
popupdabsautoclick
popupdata
popupdiffcontextlines
popupdiffmaxlines
popupdraghandle
popupelement
popuperror
popupfixdab
popupfixredirssummary
popuphistorylimit
popupid
popupimage
popuplayout
popupmisctools
popupmodifier
popupmodifieraction
popupnavlinks
popupotherlinks
popuppostpreview
popupprepreviewsep
popuppreview
popuppreviewbutton
popuppreviewmore
popupredir
popupredirautoclick
popupredirdata
popupredirotherlinks
popupredirtitle
popupredirtoplinks
popupredlink
popups
popupsecondpreview
popupstring
popupstrings
popupstructure
popuptitle
popuptoplinks
popupuserdata
popupuserinfo
popupwarnredir
popupwatchdisambiggedpages
popupwatchredirredpages
port
portal
portals
porting
portion
portuguese
poscheckerhook
position
positional
positioned
positioning
positions
positive
possibility
possible
possibly
post
posted
poster
posteriori
posters
posthumous
posting
postponed
postscript
potato
potential
potentially
pound
pounds
power
powerful
pp
ppelberg
ppp
pr
practice
practices
prayer
pre
precede
preceded
preceding
precise
precision
predecessor
predefined
preemptive
pref
preface
prefer
preferable
preferably
preference
preferences
preferred
prefix
prefixed
prefixindex
prefsection
prehistoric
prehistory
preload
prepare
prepared
preparing
prepend
prependtext
present
presentation
presented
president
press
pressed
presumed
pretends
pretitles
prev
prevalence
prevent
preventdefault
prevented
preventing
prevention
prevents
preview
previewbox
previewing
previewmaker
previews
previous
previously
prevnext
prevpos
primarily
primary
print
printed
printing
prior
priorities
prioritize
priority
privacy
private
privilege
privileged
privileges
prize
prizes
pro
probably
problem
problematic
problems
procedure
procedures
proceed
process
processed
processes
processhistory
processing
prod
produce
produced
produces
producing
product
production
productive
products
professional
profit
program
programme
programmes
programming
programs
progress
progressive
project
projects
promise
promo
promote
promoted
promotes
promotion
promotional
pronounce
pronunciation
proof
prop
proper
properly
properties
property
proportion
proposal
proposals
propose
proposed
proposing
protect
protectapi
protectcreate
protected
protectedit
protectedtitles
protecting
protection
protectmove
protects
protocol
protolanguage
protolanguages
proton
prototype
prototypes
proven
provide
provided
provider
provides
providing
proxies
proxy
ps
pseudonym
pst
psychology
pt
public
publication
publications
publicationtitle
publicity
publicly
publish
published
publisher
publishers
publishes
publishing
pubmed
pump
pumps
punctuation
punjabi
puppet
purbo
purchase
purely
purge
purgepopups
purodha
purple
purpose
purposes
push
pushpin
put
puts
putting
puzzle
px
py
pyramidalis
python
pywikibot
pywikipedia
pywikipediabot
q
qalam
qid
qualify
quality
quarter
quarterly
quassia
quaternary
queer
queries
query
querykey
queryresult
questia
question
questionable
questions
queue
queued
quick
quickform
quickly
quiddity
quis
quite
quotation
quotations
quote
quotebox
quoted
quotes
qur
r
ra
race
radio
radiooptionwidget
radius
raheislam
rain
raise
raised
raja
rajiv
raman
ran
random
randompage
range
ranges
rank
ranked
rankings
ranks
ransetuptooltipsalready
rare
rarely
rate
rated
rates
rather
ratification
ratio
rationale
rationales
ravi
raw
ray
rbrace
rcid
rd
re
reach
reached
read
readability
readable
reader
readers
reading
readonly
ready
real
realise
realistic
really
reallyshow
reason
reasonable
reasonably
reasons
recalculating
recall
receive
received
receives
receiving
recent
recentchanges
recently
recipe
reclassified
recognised
recognition
recognizable
recognize
recognized
recommend
recommendation
recommendations
recommended
record
recorded
recording
recordings
recourse
recreate
recreated
recreation
recruiting
rect
recurrent
recursioncount
red
redir
redirect
redirected
redirecting
redirects
redirlink
redirmatch
redirtarget
redlink
reduce
reduces
redundant
redwarn
ref
refcode
refer
reference
referenced
referenceelement
references
referencetooltips
referencing
referendum
referred
referring
refers
refine
reflect
reflecting
reflects
reflist
refoffsettop
refrain
refresh
refreshed
refuse
regard
regarded
regarding
regardless
regards
regex
regexp
regexps
region
regional
regions
register
registered
registrant
registration
regnum
regular
regularly
reissued
rel
relate
related
relatedchanges
relatedto
relating
relations
relationship
relative
relatives
relativetimes
release
released
releases
relevant
reliability
reliable
reliably
relief
religion
religious
reload
rely
remain
remainder
remaining
remarks
remember
reminder
removal
remove
removechangetag
removeclass
removed
removes
removing
renaissance
rename
renamed
renaming
render
rendered
renders
rental
reorganizes
repealed
repeat
repeated
repeatedly
rephrasing
repl
replace
replaceable
replacebyblanks
replaced
replacement
replaces
replaceshortcuts
replacing
reply
report
reported
reporting
reports
repository
represent
representation
representative
representatives
represented
representing
represents
reproduction
republic
req
request
requested
requesting
requests
require
required
requirement
requirements
requires
requiring
res
research
reserve
reserved
reserves
reset
resign
resignation
resigned
resize
resized
resolution
resolve
resolved
resolvedname
resolving
resort
resorting
resource
resources
respect
respective
respectively
respiratory
respond
responded
response
responses
responsible
rest
resting
restore
restored
restr
restricted
restriction
restrictions
restricts
restructuring
result
resulting
results
ret
retain
retained
retaining
retargetdab
retargeted
retention
retries
retrieve
retrieved
retrieving
return
returned
returns
returnvalue
reupload
reuse
rev
reversal
reverse
reversed
reversion
revert
revertcurid
reverted
reverting
revertoldid
reverts
revertuser
revid
review
reviewed
reviewer
reviewing
reviews
revised
revision
revisions
revisionslider
revisionstring
revival
revived
revoke
revolution
rewarded
rewritten
rfa
rfc
rfcs
rgba
rhododendron
rich
richard
right
rights
riode
rishabhbhat
risk
risks
risus
river
rizmi
rk
rneutral
rng
ro
roa
road
robert
robot
rock
role
roles
roll
rollback
rollbackers
rolled
rolling
rollout
roman
romanization
rome
room
root
rosids
rotate
rotunda
rough
round
rounded
rounds
roundtable
routine
row
rows
royal
rschen
rss
rt
rterbuch
rtf
rtgs
rtl
ru
rudit
rule
rules
run
runa
running
runs
rupee
russia
russian
rvlimit
rvprop
rvsection
rvstartid
rya
s
sa
sad
safari
safe
safedecodeuri
safety
sagar
said
sakura
salt
salted
samachar
same
sample
sandbox
sandboxes
sanelinkcheck
sanitized
sanitizeipv
sans
sanskrit
sapien
sapiens
sasken
satellite
satifyig
satisfactorily
saturday
save
saveapi
saved
savedismissednotices
savedoldid
saveinprogress
saves
saving
saw
say
saying
says
sb
sbn
sbns
scale
scales
scan
scattering
schedule
scheduled
scheduling
scheme
schemes
scholarly
scholars
scholarship
scholarships
school
schools
science
sciences
scientific
scientists
scn
scope
scotland
scratch
screeds
screen
screens
screenshot
screenshots
script
scripted
scripting
scriptpath
scripts
scroll
scrollbox
scrolling
scrolltop
sdh
se
sea
seamless
search
searchbuttonlabel
searches
searching
seats
sec
second
secondary
seconds
secret
sectio
section
sections
sectiontitle
securepoll
security
see
seeing
seek
seeking
seeks
seem
seems
seen
sees
segoe
select
selected
selecting
selection
selectionend
selectionstart
selector
selects
self
semi
semicolon
semicolons
seminars
send
sending
sends
sense
sensitive
sent
sentence
sentences
sep
separate
separated
separately
separator
separators
september
sequence
sequential
serial
series
serif
serve
server
servers
servertime
service
services
serving
session
sessions
set
setattribute
setdisabled
setelementlabel
sethours
setinterval
setpage
setparent
setpopuphtml
sets
setselection
setselectionrange
setstate
settarget
setter
settimeout
setting
settings
settingsdialog
settingsdialogopening
settingslink
settingsstring
settlement
setup
setupcache
setuppopups
setuptimeout
setuptooltips
setuptooltipsloop
setwatchlist
setwatchlistfrompreferences
seven
seventh
several
severe
sex
sexual
sfn
sfrac
sgrabarczuk
sh
shadow
shakespeare
shape
sharada
sharda
share
shared
shares
sharing
shb
she
shift
shifts
shiju
shinto
ship
shooting
short
shortcut
shortcutboxplain
shortcuts
shortdesc
shortened
shorter
shorthand
shortly
shortmenus
should
shouldn
shouldshow
shouldshownonsimple
show
showing
shown
showrefargs
shows
showsuggestions
shraddhanjali
shrink
shuhul
si
side
sidebar
siebot
siebrand
sig
sigindex
siglum
sign
signal
signature
signatures
signed
significance
significant
signs
signup
signups
siko
sil
silver
similar
similarly
simple
simplenomore
simplepopupcontent
simplepopups
simpleprintf
simpler
simplesearch
simplewindow
simply
since
sinceme
sincerely
singers
single
singular
sir
sister
site
sitebase
siteinfo
sitename
sites
sitesupport
sitewide
situated
situation
situations
six
sixth
size
sizes
sizing
skills
skin
skins
skip
skyline
sl
slash
slice
slider
slightly
slow
slower
slowly
small
smallcaps
smaller
smartphone
smg
smith
snapshot
so
social
societies
society
sociology
sock
sockpuppetry
sockpuppets
socks
soft
software
solar
sole
solid
solution
solutions
solve
solved
some
someone
something
sometimes
somewhat
somewhere
song
soon
sopore
sorry
sort
sorted
sorts
sought
sound
sounds
source
sourced
sources
south
sovereign
sovereignty
sp
space
spaces
spacing
spain
spam
span
spanish
spans
sparingly
speak
speaker
speakers
speaking
speaks
special
specialized
speciallink
specialpage
species
speciesbox
specific
specifically
specification
specifics
specified
specifies
specify
specifying
speech
speed
speedily
speedy
spell
spelling
spend
spent
spheniscidae
split
splitted
splittedi
spoken
sport
spouse
spread
spurious
spurts
sq
square
sr
src
srinagar
ss
sslist
ssrn
sss
st
stabilize
stabilizeapi
stable
stack
stacked
stacklayout
staff
stage
staircase
stale
stamp
stand
standard
standardisation
standardization
standardized
standards
standpoint
star
start
started
startfile
starting
starts
starttime
starttimestamp
stat
state
stated
statement
statements
states
static
station
stations
statistics
stats
status
statuselement
statusspan
stay
step
steps
sterling
stevie
steward
stewards
stick
still
stipulated
stock
stones
stop
stopattrue
stopped
stopping
stoppopuptimer
stops
storage
storagekey
storagestate
store
stored
stories
story
str
straight
strategic
strategy
stratigraphic
street
strengthen
stress
strict
strictly
string
strings
strip
stripoutercommonlines
strodt
strong
strongly
structure
structured
structures
struggle
stub
stubs
studied
studies
studio
study
stuff
style
styled
styles
styling
su
suaveolens
sub
subcategories
subcategory
subclasses
subclassis
subdivision
subdivisions
subfamily
subgenus
subgroup
subgroups
subheader
subject
subjects
submission
submissions
submit
submitted
submitting
subnet
subnetmatch
suborder
subordo
subpage
subpages
subphylum
subs
subscribe
subscribed
subscription
subsections
subsequent
subsequently
subseries
subset
subspecies
subst
substantial
substantially
substantive
substcheck
substitute
substituted
substitutefactory
substitution
substr
substring
subtemplate
subtemplates
succeeded
success
successful
successfully
successor
such
sudden
suff
suffer
suffering
sufficient
sufficiently
suffix
suffixed
suggest
suggested
suggestedvalues
suggester
suggesting
suggestion
suggestionconfigs
suggestions
suggests
suhailkhan
suit
suitable
suited
sul
sulfur
sum
summaries
summarize
summarizes
summary
summer
sun
sunday
sunil
supercount
superdomain
superfamilia
superfamily
superfluous
superorder
superordo
superphylum
supertribus
supervision
supplied
supplies
supply
support
supported
supporting
supports
supposed
suppport
suppress
suppressed
suppressprotectwarning
supref
sure
surname
surprise
surrounded
survey
survived
suspect
sustainability
sustainable
sutherland
sv
svg
svn
sweden
swedish
sweetbay
switch
switcher
switching
switzerland
symbol
symbols
symptoms
sync
synced
synchronized
syncing
synonym
synonyms
syntax
synthebot
sysop
sysops
system
systematic
systems
systemschemenow
sər
sɨh
t
ta
tab
table
tables
tablets
tabs
tag
tagged
tagging
tags
tahoma
tail
tajamul
take
taken
takes
taking
tales
talk
talkheader
talking
talkpage
talks
tamil
tap
tara
target
targeted
targets
tari
task
taskforce
tasks
tatweel
taught
taxa
taxobox
taxoboxes
taxon
taxonomic
taxonomy
taylor
tbody
tc
td
tdil
te
tea
teach
teahouse
team
teams
tech
technical
technically
technologies
technology
teelement
tehref
telecast
telegram
telephone
telescope
television
tell
tells
telugu
temperature
template
templatebox
templatedata
templateeditor
templates
templatestyles
tempor
temporarily
temporary
temporarylabeltext
ten
tenth
teoffset
teoffsets
term
terminal
terminating
terms
teselector
test
testactions
tested
testing
tests
texhtml
text
textalign
textarea
textinput
textrng
texts
tf
tfa
tfd
tg
tgr
tgt
th
thai
than
thank
thanks
thankyou
that
the
theatre
their
them
thematic
theme
themes
themselves
then
theories
theory
there
therefore
theropoda
these
thesis
thewiki
they
thi
thing
things
think
thinking
third
this
thomas
thon
thoroughly
those
though
thought
thoughts
thousands
thread
threat
threaten
threatened
threats
three
threshold
through
throughout
throw
throws
thumb
thumbcaption
thumbinner
thumbnail
thumbnails
thumbs
thumbtime
thursday
thus
ti
tibet
tick
ticket
tied
till
time
timeless
timeline
timer
times
timestamp
timezone
tinucherian
tinucherianbot
title
titlebar
titlebase
titleblacklist
titleddifflink
titledwikilink
titles
titletail
titletoedit
tl
tld
tmbox
tmboxes
tnum
to
toadd
toc
toclevel
toclimit
tocright
today
todo
together
toggle
togglebasedonsystemcolourscheme
togglemode
toisostring
token
tokens
tokyo
told
tolowercase
tomorrow
tone
tongue
too
tool
toolbar
toolbars
toolbox
tools
toolserver
toolset
tooltip
tooltipcontent
tooltipinitiallypresent
tooltippedelement
tooltips
tooltipsforcomments
tooltipsforcommentscheckbox
tooltipsforcommentsfield
tooltiptail
tooltiptailleft
tooltiptailoffsetx
top
topic
topics
torelative
toremove
toresolve
tostring
total
touch
touchscreen
touchstart
towards
tower
town
towns
township
tprintf
tr
track
tracked
tracker
tracking
tracks
tract
trade
trademark
tradition
traditional
traditionally
traffic
trailing
train
trainer
trans
transclude
transcluded
transcluding
transclusion
transclusions
transferred
transform
transition
translatable
translate
translated
translates
translatewiki
translatey
translathon
translating
translation
translations
translator
translators
transliterated
transliterating
transliteration
transparent
transport
transwikied
trauma
travel
treat
treated
treatment
tree
tri
triage
triageapi
trial
triangle
tribe
tribus
tried
trigger
triggered
triggers
trinomial
trivial
trizek
trouble
trout
trow
true
truly
truncated
trust
trusted
trustee
trustees
truth
try
trying
ts
tsingle
tt
ttt
tu
tue
tuesday
tulipa
tulips
turkey
turkish
turn
turned
turning
tutorials
tv
tweaks
twice
twinkle
twitter
twl
two
txt
type
typeof
types
typesetting
typewriter
typical
typically
typing
typo
typographical
typography
typos
tz
u
ucoc
ucocproject
udate
uf
ufui
ugly
uhaas
ui
uk
ul
uls
ultimately
un
unable
unacceptable
unambiguous
unambiguously
unattested
unavailable
unaware
unbinder
unblock
unblocked
unbulleted
uncat
uncertain
unchanged
unclear
uncommon
unconfirmed
unconstructive
uncontroversial
undefined
undelete
undeleteapi
undeleted
undeletepage
undellink
under
undergoing
underline
underscore
underscores
understand
understandable
understanding
undertaken
undo
undoubtedly
unexpected
unfamiliar
unfit
unfortunately
unhide
unicode
unified
unilaterally
uninastaliq
unintelligible
uninvolved
union
unique
unit
united
unitmap
unitnorm
units
universal
universally
university
unknown
unless
unlike
unlikely
unnamed
unnecessary
unnessecary
unofficial
unorganised
unpopulated
unprotect
unprotected
unprotection
unranked
unregistered
unrelated
unsalvageably
unshift
unsourced
unspecified
unsubscribe
unsuccessful
unsupported
until
untill
unused
unusual
unwanted
unwatch
up
upcoming
update
updated
updates
updating
updownlinks
upgraded
upgrades
upload
uploaded
uploader
uploaders
uploadform
uploading
upon
upper
uppercase
upright
upto
uptotopparent
upwards
ur
uranium
urbanec
urdu
urgent
uri
url
urls
urlstring
us
usa
usability
usable
usage
usd
use
used
useful
uselang
useless
user
useragent
userboxes
userinfo
userisingroup
userissysop
username
usernames
userpage
userpages
users
userspace
usertalk
usertexteditcallback
uses
using
usual
usually
usurped
ut
utc
utf
util
utilities
utm
utrs
v
va
val
valid
validate
validation
valign
valley
valleys
valuable
value
values
van
vanc
vancouver
vandalised
vandalising
vandalism
vandalize
vandalizing
var
variable
variables
variant
variants
variation
variations
varies
variety
various
varma
varnent
varnum
vary
vast
vastly
vauthors
ve
vec
vector
vectortabs
veditors
venues
venus
verifiability
verification
verified
verify
vernacular
versa
version
versions
vertical
very
vi
via
vice
video
videos
vietnamese
view
viewed
viewer
viewing
viewporttop
views
vii
vikipi
village
violate
violating
violation
violations
virginiana
virus
viruses
visibility
visible
visit
visited
visual
visualeditor
visually
vls
vnormalized
vo
voice
vol
volker
volume
volumes
volunteer
volunteering
volunteers
von
vote
voted
voter
voters
votes
voting
vowel
vowels
vs
w
wa
wait
waiting
wall
wan
want
wanted
wanting
wants
war
warmly
warn
warned
warning
warnings
warring
warriors
wars
was
washington
waste
watch
watched
watchitemids
watchitems
watchitemsi
watchlist
watchlistcookieid
watchlistexpiry
watchlistoption
watchlists
watchstr
water
wav
way
wayback
ways
we
weak
weakest
weapon
wear
web
webarchive
weber
webfonts
webkit
webpages
website
websites
wednesday
week
weekday
weekly
weeks
weight
welcome
welcoming
well
went
were
west
western
wgaction
wgarticleid
wgarticlepath
wgcanonicalspecialpagename
wgcontentlanguage
wgcurrevisionid
wgformattednamespaces
wgnamespacenumber
wgpagename
wgs
wgscript
wgscriptpath
wgserver
wgusergroups
wguserlanguage
wgusername
what
whatamidoing
whatever
whatlinkshere
whatnext
when
whenever
where
whereas
wherever
whether
which
while
white
whitespace
who
whois
whole
whom
whose
why
wide
widely
wider
widespread
width
wife
wiki
wikibase
wikibooks
wikicode
wikiconference
wikidata
wikidatadesc
wikieditor
wikifunctions
wikilink
wikilinked
wikilinks
wikimania
wikimarkup
wikimedia
wikimedians
wikiminiatlas
wikipage
wikipagepath
wikipedia
wikipedian
wikipedians
wikipedias
wikiportals
wikiproject
wikiprojects
wikiquote
wikis
wikisource
wikispecies
wikisyntax
wikitable
wikitech
wikitext
wikitextblankorbidi
wikiversity
wikivoyage
wikpos
wikt
wiktionary
will
william
willing
win
window
windows
winners
wisest
wish
wishes
wishlist
witch
witches
with
withdraw
withdrawn
within
without
wizard
wk
wknum
wmde
wmf
wmflabs
wo
wolfgang
women
won
wonder
word
wordmark
words
work
workaround
worked
workflow
working
works
workshop
world
worldwide
worry
worth
would
wouldn
wp
wpb
wpbannermeta
wpdestfile
wpdiff
wpsave
wptextbox
wpwp
wrap
wrapped
wrapper
wrapping
write
writer
writers
writing
writings
written
wrong
wrote
wt
www
x
xeno
xfd
xls
xlsx
xmlhttprequest
xpz
xtools
xx
xxx
y
yahoo
yana
ye
year
years
yellow
yen
yes
yesterday
yet
ymd
york
you
youngest
your
yours
yourself
youtube
yue
yyyy
z
za
zaba
zabaana
zbl
zea
zealand
zentralblatt
zero
zeros
zh
zip
zone
zones
zoodivisio
zoological
zoology
zoom
zoosectio
zoosubsectio
zɨ
{
|
}
~

¡
¢
£
¤
¥
§
©
«
­
®
°
±
¶
·
»
¿
×
÷
ƒ
ə
ɨ
ʃ
ʃa
ʈ
ʒ
ʰ
ʲ
ʹ
ʿ
ˈ
ˌ
ː
̀
́
̂
̃
̄
̆
̇
̈
̊
̌
̓
̡
̣
̦
̧
̨
̮
̱
̸
͂
͡
α
η
θ
ρ
τ
ω
д
ִ
،
ؐ
ؑ
ؒ
ؓ
ؙ
؛
؟
ؠ
ؠتھ
ؠن
ؠک
ء
ا
اؠس
اؠٹ
اؠٹمی
اؠڈ
اؠڑ
اؠڑیٹ
اؠکسرے
اؠکٹ
اؠکہ
اؠکی
اب
ابراہیم
ابن
ابو
ابوالقاسم
ابڈامن
ابی
ات
اتحاد
اتھ
اتھی
اتہ
اثر
اثنا
احد
احمد
اخباری
اد
ادا
ادارہ
اداکار
اداکارا
اداکارہ
ادب
ادبس
ادبی
ادی
ادیتی
ار
اربعین
ارتی
اردو
اردوس
ارقم
اروشی
ارٲکی
ارچنا
اری
از
ازٲدی
اس
است
استعمال
استمال
اسقوپی
اسلام
اسلامن
اسلامک
اسلامی
اسلٲمی
اسم
اسماعیل
اسہ
اسی
اسیڈ
اش
اشرف
اشرفس
اصل
اصلی
اصو
اصول
اصولی
اع
اعداد
اعظم
اعلا
اعلان
اعلی
اعمال
اف
افلٲق
افی
اقبال
اقوام
اكھ
ال
الا
الاقوٲمی
الانوار
البتہ
الت
الث
الثانی
الجنان
الحارث
الحسن
الخط
الد
الدی
الدین
الر
الس
السلام
السلامن
الش
الشاشات
الع
العمود
الفاظ
الل
اللغة
الله
اللہ
الم
المحتوى
المختارة
المسلمین
المظفر
المقدمة
الن
اليوم
الگ
الہ
الی
ام
امام
امامت
امامن
امان
امت
امر
امری
امریتا
امریکن
امریکی
امس
امسند
امسنز
امن
امہ
امی
امیر
امیرا
امین
امیچ
امیک
ان
انؠ
انت
انجام
انجیل
اندر
اندورنی
انس
انسان
انساي
انصاری
انعام
انقلاب
اننتناگ
انوپم
انوپما
انٹ
انگريزی
انگری
انگریزی
انہ
اه
او
اوت
اور
اوزار
اوس
اوساما
اوسط
اول
اولاد
اومکار
اومینٹ
اون
اونہ
اوپن
اٮ
اپ
اپری
اپریل
اپلکشن
اڈ
اک
اکبر
اکتوبر
اکس
اکھ
اکھہ
اکہ
اگ
اگر
اگروال
اہ
اہربل
اہل
اہلبیت
اہم
اہمیت
اہناز
اہنز
اۄس
اۄمہ
اۆب
اۆس
اۆن
اۆگ
ای
ایبڈامن
ایران
ایرانس
ایرانک
ایرانی
ایربل
ایزایگ
ایس
ایسوین
ایش
ایشا
ایشوریا
ایشیاہ
ایف
ایل
ایلوا
ایلون
ایلیا
ایلین
ایلیک
ایم
ایمؠچ
ایمی
این
اینام
ایناٹمی
اینج
اینوڈ
اینٹی
اینڈ
اینی
ایوارڈ
ایوان
ایوڈین
ایوڑین
ایٹ
ایپ
ایچ
ایڈ
ایڈیس
ایڑ
ایڑٹ
ایک
ایکسٹرن
ایکش
ایکٹ
ایکہ
اے
ب
بؠمار
بؠمارؠ
بؠمارؠن
بؠماری
بؠمٲرؠ
با
باب
بابا
بابہ
باتھ
باد
بادشاہ
بادی
بار
بارت
بارس
بارہ
باسان
باغ
باق
باقؠن
باقر
باقری
باقی
بال
بالا
بالہ
بان
بانو
بانک
بانہ
بانی
باو
باونہ
باٹ
باپ
باپت
باپتھ
باڈ
باہ
باہن
بای
بایہ
بت
بحار
بحر
بد
بدار
بدارانہ
بدلہ
بدن
بدی
بر
برا
براو
برو
بروسہ
برون
برونک
برینکیوس
بزرگ
بزی
بس
بشار
بص
بصر
بصو
بطور
بغداد
بكسل
بل
بلبل
بلت
بلوچ
بلوچستان
بلکہ
بن
بنان
بناو
بناون
بناونہ
بنت
بندی
بنہ
بنیاد
بنیو
بو
بودھ
بورڈ
بول
بولان
بولنہ
بونہ
بوڈ
بي
بٲدی
بٲر
بٲغراونہ
بٲن
بٲنی
بٲو
بٲٹھؠ
بٹ
بٹریکس
بپتسمہ
بڈ
بڈس
بھ
بھارتی
بھایی
بھٹ
بھٹو
بھی
بہ
بہت
بہتر
بہجت
بۄ
بۄن
بۄنہ
بۄٹہ
بۄڈ
بۄکہ
بۆڈ
بی
بیات
بیان
بیاکھ
بیبی
بیبیج
بیت
بیتر
بیداری
بیدی
بیر
بیرو
بیرونی
بیس
بیسٹ
بیما
بین
بینظیر
بینک
بیٹا
بیک
بیگم
بیہ
بیی
بییس
بییہ
بێس
بێنہ
بێیہ
بے
ة
ت
تؠ
تؠن
تا
تاب
تابہ
تاج
تار
تارا
تارک
تاریخ
تازہ
تال
تام
تان
تانو
تاک
تاکہ
تاہ
تبدی
تبٲد
تتھ
تتہ
تحریک
تخلی
تدان
تدبی
تر
ترا
ترال
تراو
تراوان
تراون
ترج
ترجمہ
ترجیح
ترمی
ترٲو
ترپاٹھی
ترکی
تری
ترین
ترے
تس
تشیع
تعالی
تعداد
تعل
تعلق
تعمی
تعمیر
تـ
تفسیر
تقریبا
تقسیم
تقلید
تقی
تل
تلق
تم
تمام
تمس
تمن
تمو
تمہ
تن
تنسيق
تنظی
تنظیم
تنظیمہ
تهران
تو
توا
توتہ
تون
توٲری
توہی
تى
تي
تٲری
تٲریخ
تٲلی
تٲم
تھ
تھؠ
تھام
تھان
تھاو
تھاوان
تھاون
تھاونہ
تھاوو
تھایرای
تھر
تھزر
تھس
تھوریس
تھٲو
تھہ
تھۆد
تھی
تھے
تہ
تہند
تہندی
تۄہؠ
تۄہہ
تی
تیا
تیار
تیداد
تیز
تیلہ
تیم
تین
تیو
تێلہ
تێن
تے
ث
ثابت
ثار
ثال
ثالے
ثر
ثعلبہ
ثقفی
ثى
ج
جاب
جات
جاج
جاد
جادو
جادہ
جارج
جاز
جازت
جازتہ
جال
جام
جان
جاناوار
جاندار
جانشین
جانو
جانور
جانچ
جانکٲری
جاو
جاي
جاگر
جای
جایہ
جاے
جتوي
جد
جعفر
جغرافیہ
جلاس
جلال
جلدی
جلی
جماتھ
جماعت
جمع
جمعہ
جمو
جموں
جن
جناب
جنت
جنرل
جنو
جنوری
جو
جواب
جواد
جود
جوز
جوش
جوشی
جوع
جولاي
جوم
جون
جوڈ
جوڈنہ
جوکوو
جوہر
جوہی
جوی
جٲتؠ
جٲری
جٲمی
جٲن
جہ
جۄم
جۆم
جۆمہو
جۆنو
جی
جیا
جیریاہس
جیسمین
جیل
جیلانی
جین
جینیفر
جیک
جیکسن
جے
ح
حا
حابی
حاجنی
حارث
حاطب
حاف
حال
حالات
حالت
حالتھ
حالتھس
حان
حاور
حت
حث
حجت
حد
حدیث
حرام
حری
حزب
حزف
حساب
حسابی
حسن
حسین
حسینی
حص
حصل
حصو
حصہ
حصی
حضرت
حفو
حق
حقو
حقی
حقیقت
حقیقی
حل
حم
حمد
حملہ
حو
حوالہ
حوزہ
حٲص
حٲصل
حٲف
حٲنی
حک
حکومت
حکومتھ
حہ
حۆکو
حی
خ
خا
خاب
خاری
خاست
خاص
خاطر
خاطرہ
خالد
خام
خامناي
خامنہ
خان
خاند
خاندان
خانہ
خاکہ
خبار
خبرن
خت
ختلف
ختم
خدا
خدایہ
خدمات
خدمت
خر
خرس
خری
خس
خص
خصو
خصوصی
خصی
خط
خطر
خطیب
خلاد
خلاصہ
خلاف
خلافت
خلی
خلیفہ
خمینی
خو
خواجہ
خوبصورت
خوتہ
خود
خودکار
خوش
خولی
خوي
خٲت
خٲر
خٲطر
خٲظر
خٲل
خٲلف
خٲلی
خہ
خۄدکار
خۄشحال
خی
خیبر
د
دؠ
دؠد
دؠماغ
دؠن
دا
داتھ
دار
دارالحکومت
دارمدار
دارو
داس
دال
دان
داو
داوود
داکار
داکارہ
داہ
دای
دب
دبی
دتا
در
درام
درم
درو
درگاہ
دریاو
دریاي
دس
دسمبر
دعا
دفن
دل
دلان
دلاو
دلاونہ
دلٲو
دم
دمہ
دن
دنہ
دنیا
دو
دوان
دور
دوران
دوری
دوست
دوستان
دولت
دون
دوڈ
دوہ
دویم
دي
دٲخ
دٲخلہ
دٲری
دٲن
دٲنؠ
دٲیرہ
دٲیی
دپان
دگی
دھ
دھی
دہ
دۄد
دۄران
دۄن
دۄچھنؠ
دۄچھنہ
دۄہ
دۄی
دۅہ
دۅہہ
دۆہ
دۆی
دی
دیت
دیتھ
دیدار
دیش
دین
دیو
دیوار
دیوان
دیوانگری
دیوناگ
دیوناگری
دیوی
دیویا
دے
ذ
ذاتھ
ذدی
ذر
ذریہ
ذوالفقار
ذوبیر
ذٲتی
ذٲژ
ذکر
ذکی
ذہ
ذی
ر
رؠ
رؠت
رؠتھ
رؠر
رؠن
رؠے
را
راب
رات
راتھ
راتہ
راج
راجستھان
راح
راد
رادری
رادھیکا
رار
رارداد
راز
رازا
رازدٲنؠ
راض
رافع
رام
رامہ
ران
رانی
راو
راونہ
راي
راٹی
راہ
رای
رایعہ
رایے
راے
رب
ربو
ربٲنی
ربی
ربیع
ربیعہ
رت
رتاو
رتاوان
رتاونہ
رتھ
رتھؠ
رتھر
رتہ
رتی
رج
رجہ
رجی
رجیحات
رح
رحمت
رحمتہ
رخاست
رخاستھ
رخاستہ
رد
ردار
ردان
ردو
ردی
رر
رز
رزی
رس
رسم
رسول
رش
رشید
رض
رضا
رطان
رطٲنوی
رـ
رف
رفتار
رفہ
رفیس
رق
رقہ
رقی
رلان
رم
رما
رماہ
رمضان
رمی
رن
رنؠ
رنؠن
رنؠٹ
رنامہ
رنگ
رنہ
رو
روابط
روار
روج
روح
روحا
روحانی
رود
رودی
روری
روز
روزان
روزنامہ
روزنہ
روسہ
روشنی
روضہ
روع
رول
رولبیک
روم
رون
رونالڈو
رونٹیگن
روگراف
ري
رٲبطہ
رٲسؠ
رٲن
رٲچھؠ
رٲچی
رٲے
رٹ
رٹری
رٹریو
رپ
رپر
رپٹ
رچا
رچہ
رڈ
رژ
رک
رکار
رکاي
رکز
رکزی
رکوسٹل
رکونای
رکٲرؠ
رکٲری
رکٹ
رکھ
رکی
رگ
رگوش
رہ
رہبر
رہن
رہنما
رۄقبہ
رۄنا
رۄپھ
رۄپیہ
ری
ریا
ریاست
ریاستہ
ریاستی
ریاف
ریاو
ریتن
ریتھ
ریز
ریزونین
ریس
ریعہ
ریلوے
ریم
ریما
رین
ریو
ریڈی
ریڈیالجی
ریڈیش
ریڈیشن
ریڈیو
ریڈیوک
ریڈیوگر
ریڑیوگر
ریہ
رےگر
ز
زؠو
زا
زاد
زادی
زارا
زام
زامت
زامتی
زان
زانان
زانہ
زاو
زای
زاے
زب
زبا
زبان
زبانن
زبانہ
زر
زرگر
زمان
زمی
زن
زند
زندگی
زنہ
زو
زور
زٲتی
زٲدی
زٲژ
زکزاکی
زہ
زہر
زہرا
زہرہ
زی
زیاد
زیادہ
زیارت
زیبا
زید
زیر
زین
زیو
زیچھہ
س
سؠ
سؠسہ
سؠلواڈار
سؠٹھا
سؠٹھاہ
سا
ساب
سابہ
سات
ساتھ
ساتھہ
ساتہ
ساد
سار
سارا
سارن
سارو
ساروے
سارہ
ساری
ساز
ساس
ساسي
سافت
سافٹ
سافٹویر
سالانہ
سامرا
سان
ساي
ساک
سای
ساین
ساینس
سایٹ
سایک
سبت
سبھاش
ست
ستؠ
ستارے
ستان
ستانس
ستانک
ستاوی
ستاویز
ستخط
ستعمال
ستمبر
ستون
ستٲن
ستٲنؠ
ستٲنی
ستھ
ستھان
ستہ
ستی
سر
سربراہ
سرجری
سرزمین
سری
سرین
سرینگر
سسٹم
سط
سطح
سطہ
سعت
سعد
سعید
سقوپی
سل
سلا
سلام
سلامی
سلسلس
سلم
سلمان
سلمہ
سلٲمی
سلہ
سلیم
سم
سمارٹ
سمان
سمنان
سمندر
سمہ
سن
سنؠ
سنت
سنجنا
سند
سندی
سنز
سنہ
سنی
سو
سوال
سوالن
سودھا
سور
سورس
سورہ
سوز
سوزان
سوسایٹی
سوفی
سون
سونمرگ
سوپور
سوی
سٮ
سٲب
سٲتؠ
سٲتھی
سٲتی
سٲری
سٲزی
سٲن
سٲنی
سٲی
سٹ
سٹای
سٹر
سٹورڈ
سٹہ
سپ
سپد
سپدان
سپریم
سپٲن
سپٲنوی
سک
سکر
سکو
سکھ
سکیم
سکینر
سہ
سہار
سہروردی
سۄ
سۄرد
سۄرٲزؠ
سۄن
سۄنہ
سۆد
سۆکو
سی
سیاحت
سیاحتی
سیار
سیاست
سیاسی
سیت
سید
سیر
سیریل
سیرینگر
سیستانی
سیل
سیلیک
سیم
سین
سینا
سینڈنگ
سیو
سیوکین
سیٹھاہ
سیکریٹری
سیکین
سے
ش
شا
شاب
شاخ
شاد
شار
شارد
شاردا
شاردہ
شارٹک
شاعر
شاعری
شال
شام
شان
شاندار
شاٹ
شاگرد
شاہ
شای
شایع
شایعہ
شب
شبیر
شت
شتہ
شخ
شخص
شخصیت
شخی
شر
شردھا
شرس
شرط
شرف
شرما
شری
شریا
شریف
شریفس
شعب
شعبہ
شعرس
شقيقة
شمارندن
شمارندہ
شمارندی
شمالس
شمس
شمٲری
شمی
شنا
شو
شور
شوم
شوک
شوکت
شوگہ
شویتا
شٲع
شٲعر
شٲم
شٲمل
شٲی
شٹ
شک
شکل
شہ
شہاد
شہادت
شہر
شہرس
شہزاد
شہو
شہید
شۆرو
شی
شیخ
شیر
شیس
شیطان
شیعہ
شیعین
شیٹی
شېر
ص
صا
صاب
صاد
صادق
صبہ
صحیح
صد
صدر
صدی
صدیق
صر
صف
صفحہ
صفر
صفن
صفہ
صل
صلی
صنعت
صنوبر
صو
صوب
صوبن
صوفی
صوی
صٲب
صٲبس
صٲر
صٲرف
صٲرفہ
صہ
صۆرو
صی
ض
ضاح
ضاحت
ضافہ
ضاکار
ضبط
ضحاک
ضرو
ضل
ضم
ضمو
ضن
ضٲفی
ضۆرو
ضی
ط
طا
طاق
طاقت
طاقتور
طالب
طب
طبیب
طخ
طر
طرفہ
طری
طریقس
طل
طلاع
طلب
طو
طور
طورس
طوطہ
طٲب
طٲلوی
ظ
ظا
ظام
ظامؠ
ظر
ظریف
ظس
ظفر
ظمو
ظٲمؠ
ظٲمؠن
ظٲمی
ظٲہ
ظٲہر
ظہار
ظی
ع
عا
عار
عارضی
عاشورہ
عالم
عالمہ
عالمی
عالیہ
عام
عامر
عب
عبادت
عباس
عبد
عبدالقادر
عبدالله
عبداللہ
عبدالکبیر
عبدل
عبہ
عبید
عتبہ
عثمان
عددن
عدی
عراق
عراقس
عراقک
عرب
عربی
عز
عزاداری
عزیز
عسکری
عشری
عشریہ
عشق
عظ
عل
علاقن
علاقہ
علامہ
علاو
علاوہ
علم
علمی
علمیہ
علو
على
علی
علیہ
علیہا
علیہم
عمال
عمر
عمرو
عمل
عمیر
عن
عوام
عوٲمی
عٲل
عٲلم
عہ
عہد
عی
عیاز
عیسوی
عیسویس
عیسٲے
عیسی
غ
غا
غات
غار
غاز
غذا
غر
غرٲفی
غزلہ
غلام
غلط
غور
غٲب
غٲر
غٲرجٲنبدارنہ
غٲنؠ
غہ
غی
غیر
غیرجٲن
ـ
ف
فؠبر
فا
فارسی
فارم
فاروق
فاضل
فاط
فاطمہ
فاق
فاو
فایل
فت
فتاب
فتار
فتوی
فتہ
فر
فرات
فرانس
فرح
فرزند
فرقہ
فرما
فرماوان
فرن
فرو
فروری
فروع
فروکینسی
فری
فرید
فس
فصی
فضو
فظ
فقہ
فقیہ
فلاق
فلسفہ
فلم
فلمہ
فن
فننش
فو
فوج
فوربس
فون
فوٹو
في
فٲصلہ
فٲقی
فٲی
فٲیی
فٹ
فہ
فی
فید
فیس
فیلڈ
فیو
فیڈ
ق
قا
قابل
قابلہ
قادری
قار
قاسم
قام
قاي
قاہ
قایم
قب
قبال
قبزس
قبل
قبو
قبول
قت
قتادہ
قتہ
قد
قدر
قدرتی
قدیم
قرا
قرر
قری
قریشی
قس
قسام
قسم
قشہ
قص
قصبہ
قصد
قل
قلم
قم
قمی
قو
قوم
قومی
قونو
قوي
قوٲمی
قٲب
قٲمتی
قٲمی
قٲیم
قہ
قۄدر
قی
قیام
قیامت
قیس
ك
كا
كاربا
كثر
كشميري
كھ
كہ
ل
لؠ
لؠس
لؠن
لؠو
لؠکٹر
لؠکٹران
لؠکھ
لؠکھنہ
لا
لاد
لار
لارا
لاسفی
لاسہ
لاش
لاصہ
لاف
لاق
لاقہ
لال
لام
لامژ
لان
لانچ
لاو
لاون
لاونہ
لاوہ
لاک
لاکاتھ
لاکس
لاگ
لاگر
لاگنہ
لاگو
لاہور
لای
لب
لبرٹ
لبنہ
لبین
لت
لج
لح
لد
لدی
لز
لزام
لس
لسطی
لط
لطان
لطی
لع
لعین
لف
لفظ
لفظن
لفیٹ
لق
لقب
لل
لم
لمان
لمونیری
لمہ
لمی
لن
لنہ
لو
لور
لورو
لول
لومی
لون
لوو
لوک
لوکار
لوکن
لوکٹ
لوگو
لوہو
لوۄم
لٲط
لٲن
لٲڈؠ
لٲڑؠ
لٲڑی
لٲہ
لٹہ
لپٲشؠ
لچھ
لچہ
لک
لکشمی
لکھ
لکہ
لگ
لگام
لگان
لہ
لہیلم
لۄغ
لۄک
لۄکٹ
لۆو
لۆگ
لی
لیاقت
لیس
لین
لینگویج
لیو
لیٹ
لیچھ
لیچھم
لیچھمژ
لیچھمژہ
لیڈر
لیکھ
لیکھان
لیکھم
لیکھنہ
لیگ
لے
م
مؠ
مؠقناطی
مؠن
مؠنڈلیو
مؠو
مؠٹا
ما
مات
ماتھ
ماج
ماجہ
ماحو
ماحول
ماد
مار
مارتند
مارس
مارچ
مارک
ماریا
ماز
ماعت
مال
مالک
مالی
مام
مان
مانان
ماننہ
مانہ
مانے
ماچھ
ماک
ماگام
ماہ
ماہر
مب
مبارک
مبال
مبر
مبہ
مت
متؠ
متاز
متحدہ
متعلق
متلق
متن
متہ
متی
متین
مثالے
مثلن
مثنوی
مج
مجتہد
مجلسی
مجید
محبت
محبو
محرم
محفو
محل
محمد
محمود
محمول
محک
محی
مختار
مختارنامہ
مخدو
مخصوص
مد
مداد
مدتھ
مدد
مدر
مدرس
مدیر
مدینہ
مذہب
مذہبی
مر
مراجع
مراز
مران
مرثد
مرجع
مرد
مردم
مرنہ
مرکز
مری
مزید
مس
مسجد
مسلمان
مسلمانن
مسي
مسک
مسیح
مشرق
مشہو
مصطفی
مصنف
مضمون
مطابق
مطبوعہ
مطلب
مع
معاذ
معروف
معصوم
معصومن
معلو
معلی
معنی
معٲفی
معہ
معیار
معین
مغربی
مفاتیح
مفت
مقالة
مقام
مقبرس
مقبرہ
مقبول
مقدس
مقصد
مل
ملا
ملک
ملکک
ملہ
ملی
من
منازل
مناونہ
منتخب
مند
مندر
منر
منز
منٲسب
مو
مواد
موباي
موبایل
موبٲی
موت
موتی
موج
موجو
موجوب
موجود
موجودہ
مود
مودی
مور
موسسي
موسکی
موسی
موش
موضو
مول
مولا
مولانا
مولو
مولوی
مولہ
مومینٹ
مون
موو
موڈنہ
موہ
مویہ
مي
مٮ
مٲج
مٲجی
مٲل
مٲلؠ
مٲلی
مٲژ
مٲہ
مپ
مپنی
مپیو
مژ
مک
مکتب
مکی
مگر
مںز
مہ
مہاکال
مہدی
مہرازہ
مہربا
مہربٲنی
مہرین
مہندس
مۄحفو
مۄقلٲو
مۄل
مۄن
مۄٹی
مۄگ
مۄیہ
مۅکھہ
مۆجو
می
میا
میاد
میانہ
میانے
میج
مید
میذنٹرک
میر
میرا
میزبان
میشہ
میل
میلان
میلہ
مین
مینا
مینن
مینچیسٹ
مینگ
میو
میون
میٲیی
میٹ
میٹر
میچ
میڈ
میڈیا
میگن
میں
میہ
میے
مے
ن
نؠ
نؠب
نؠل
نؠماز
نؠن
نؠپال
نا
ناب
ناتھ
ناخ
ناد
نادرہ
نار
ناز
نازکی
ناساز
ناظم
نافہ
نالہ
نام
ناماوار
نامز
نامزد
نامس
نامو
نامور
نامہ
نان
نانہ
ناو
ناوان
ناوت
ناوجاے
ناوس
ناول
ناون
ناونہ
ناوک
ناي
ناکام
ناگ
نبی
نت
نتا
نتار
نتخ
نتخب
نتی
نج
نجات
نجام
نجف
نجم
نجی
نجین
ند
ندؠ
ندؠن
نداز
ندر
ندل
ندو
ندوستان
ندوستانس
ندوستانچہ
ندوستٲنؠ
ندوستٲنی
ندگی
ندھ
ندہ
ندی
ندین
نر
نز
نزدی
نس
نسان
نساکلوپی
نسایکلوپی
نسر
نسو
نسٲنؠ
نسٲنی
نش
نشان
نشانہ
نشہ
نص
نصاف
نصو
نصوب
نصوبہ
نظام
نظر
نظور
نظی
نعمان
نـ
نفر
نفیر
نفیکش
نقوی
نقی
نلای
نمرتا
نن
ننت
نند
ننہ
نو
نواز
نوان
نور
نورا
نوفل
نوم
نومبر
نوو
نوواک
نوٹ
نوی
ني
نٲتھ
نٲر
نٲس
نٲلؠ
نٲو
نٲی
نٲیتھ
نٹ
نٹراسٹ
نٹرفیس
نٹرن
نٹرنؠٹ
نچھ
نڈ
نڈی
نڈیش
نڈیشن
نک
نکار
نکول
نکونہ
نکہ
نکی
نگ
نگت
نگر
نگری
نگریزی
نگسٹن
نگل
نگھ
نہ
نۄقصان
نۆو
نی
نیا
نیاد
نیبر
نیر
نیران
نیرن
نیسٹ
نیشن
نیلم
نیو
نیوم
نیوٹر
نیٲدی
نیچ
نییرتھ
نییوو
نے
ه
هل
هم
هي
و
وؠ
وؠب
وؠتھ
وا
واب
وات
واتان
واتناو
واتناوان
واتناون
واتنٲو
واتنہ
واتہ
واج
واجب
واجن
واجنہ
واجی
واد
وادی
وار
واراہ
واریا
واریاہ
واریاہن
واز
واض
واضع
واعظ
واق
واقع
واقہ
واقی
وال
والؠن
والدہ
والہ
والی
والین
وان
وانوو
وانی
واپ
واپس
واہ
وای
وایٹام
وب
وتھ
وج
وجود
وجہ
وحدت
وحید
ود
ور
ورا
وران
ورتاو
ورس
ورلڈ
ورم
ورٲے
وری
ورین
وریہ
وزار
وزن
وس
وسان
وسلم
وسلمن
وسہ
وسی
وصی
وغیرہ
وفات
وفی
وقت
ول
ولاد
ولادت
ولایت
ولیاء
وم
ومشاريع
ون
ونؠ
ونان
ونن
وننہ
ونٹی
ونہ
وو
وور
وول
وومیدوار
ووٹ
ويكيبيديا
وٲت
وٲج
وٲح
وٲدی
وٲر
وٲری
وٲل
وٲلؠ
وٲلی
وٲمی
وٲن
وٲنؠ
وٲڈ
وٲیی
وٹان
وٹس
وپ
وچ
وچھیو
وکی
وگر
وہ
وہاب
وہب
وۄت
وۄستاد
وۄل
وۄمیدوار
وۄنؠ
وۄٹ
وۄپ
وۆن
وۆژھ
وی
ویب
ویت
ویر
ویلی
وین
وینا
وینوگر
وینٹریک
ویي
ویڈیو
ویکی
ویکیپیڈیاہس
ویہ
وییلو
وے
ى
ي
يسر
يمن
ين
ً
ٌ
ٍ
َ
ُ
ِ
ّ
ْ
ٓ
ٔ
ٕ
ٖ
ٗ
ٚ
ٛ
ٝ
ٟ
٠
٠٠
٠١
٠٢
٠٣
٠٤
٠٥
٠٦
٠٧
٠٨
٠٩
١
١٠
١١
١٢
١٣
١٤
١٥
١٦
١٧
١٨
١٩
٢
٢٠
٢٠١١
٢٠١٢
٢٠١٣
٢٠١٤
٢٠١٥
٢٠١٦
٢٠١٧
٢٠١٨
٢٠١٩
٢٠٢٠
٢٠٢١
٢١
٢٢
٢٣
٢٤
٢٥
٢٦
٢٧
٢٨
٢٩
٣
٣٠
٣١
٣٢
٣٣
٣٤
٣٥
٣٦
٣٧
٣٨
٣٩
٤
٤٠
٤١
٤٢
٤٣
٤٤
٤٥
٤٦
٤٧
٤٨
٤٩
٥
٥٠
٥١
٥٢
٥٣
٥٤
٥٥
٥٦
٥٧
٥٨
٥٩
٦
٧
٨
٩
٪
ٮ
ٰ
ٱل
ٲ
ٲخر
ٲخری
ٲر
ٲس
ٲسؠ
ٲسی
ٲن
ٲنؠ
ٲو
ٲٹھ
ٲژ
ٲژؠ
ٹ
ٹؠ
ٹؠسلا
ٹؠسٹ
ٹؠنس
ٹا
ٹارس
ٹان
ٹاو
ٹاون
ٹاونہ
ٹای
ٹبال
ٹر
ٹران
ٹرسٹی
ٹرنک
ٹری
ٹن
ٹنہ
ٹو
ٹومو
ٹوموگرافی
ٹون
ٹونی
ٹوو
ٹٮ
ٹٲو
ٹٲوم
ٹھ
ٹھؠ
ٹھا
ٹھو
ٹھی
ٹہ
ٹی
ٹیسٹ
ٹیل
ٹیلی
ٹین
ٹینا
ٹیو
ٹیوب
ٹیوٹ
ٹیگ
ٹیی
پ
پؠ
پؠتھ
پؠوان
پؠٹھ
پؠٹھہ
پؠکٹر
پا
پابلو
پارٹی
پاز
پاس
پاسہ
پال
پالسی
پان
پانس
پانڈے
پانژھ
پانہ
پانے
پاٹھی
پاپ
پاپل
پاک
پاکستان
پای
پایر
پایل
پایہ
پت
پتھ
پتہ
پختونخوا
پد
پدان
پر
پران
پربتی
پرتھ
پرزناونہ
پرستی
پرنہ
پروج
پرون
پرژھت
پرژھیو
پری
پریا
پریانکا
پریتھ
پریس
پریل
پز
پسند
پل
پلوڈ
پلوۄم
پلوی
پلہ
پلین
پن
پنجاب
پنجابی
پنن
پننس
پننہ
پننی
پنڈت
پو
پوجا
پور
پوش
پوشہ
پون
پونؠ
پونم
پى
پٮ
پٲتھؠ
پٲد
پٲدٲی
پٲغام
پٲن
پٲنی
پٲٹھؠ
پٲٹھی
پٲٹی
پٲک
پٲکؠ
پٲکستان
پٹ
پکٲو
پھ
پھؠر
پھوٹان
پھی
پھیران
پھیلک
پۄہ
پۆر
پی
پیداي
پیر
پیرامی
پیسٹ
پیش
پیشہ
پیغام
پیغمبر
پینکر
پیو
پیوان
پیٹ
پیٹھ
پیٹھہ
پیڈیاہ
پیی
چ
چؠ
چار
چارلز
چارٹ
چان
چاونہ
چاي
چاے
چترالی
چلان
چلاوان
چمژ
چن
چو
چودہ
چور
چونکہ
چوپڑا
چوک
چوہان
چوہدری
چي
چٹرجی
چھ
چھؠ
چھا
چھس
چھلن
چھم
چھن
چھنہ
چھو
چھہ
چھۄکہ
چھی
چھیر
چھے
چہ
چی
چیز
ڈ
ڈؠ
ڈا
ڈار
ڈال
ڈالی
ڈان
ڈاو
ڈاون
ڈاونہ
ڈاکٹر
ڈایافرام
ڈج
ڈجہ
ڈرافٹ
ڈس
ڈورو
ڈوگری
ڈوی
ڈگام
ڈی
ڈیا
ڈیانا
ڈیاو
ڈیاہ
ڈیبی
ڈیسکٹاپ
ڈیشاہ
ڈیو
ڈیوڈ
ڈیٹا
ڈیٹاہ
ڑ
ڑھ
ژ
ژار
ژان
ژم
ژن
ژو
ژودہ
ژور
ژھ
ژھار
ژھان
ژھاو
ژھن
ژھنہ
ژھٲرؠ
ژھہ
ژھۆٹ
ژۆٹ
ژے
ڙ
ک
کؠ
کؠن
کا
کات
کار
کارا
کارب
کاربٲرؠ
کارس
کارنامہ
کارک
کاسو
کاشت
کاشر
کاظم
کال
کالج
کالم
کالچ
کالی
کالیج
کام
کامل
کامٹ
کامہ
کامی
کامیاب
کامین
کان
کانہ
کاو
کاوا
کاپہ
کاپی
کاپیرایٹ
کاڈی
کاک
کاہ
کتاب
کتابن
کتابہ
کتو
کتھ
کدل
کر
کرا
کراروی
کرام
کران
کربلا
کرت
کرتھ
کردار
کرم
کرمژ
کرن
کرنس
کرنچ
کرنہ
کرنی
کری
کریا
کریم
کریہ
کزینڈر
کس
کسای
کسفورڈ
کسی
کسیج
کسیجن
کسیر
کش
کشمی
کشمیر
کشمیری
کشی
کشیر
کعب
کعبس
کل
کلام
کلو
کلومیٹر
کلکرنی
کلہ
کلیسا
کلینڈر
کم
کمس
کمل
کمپیوٹر
کمہ
کن
کناو
کناون
کناونہ
کنایو
کنٲو
کنٹراسٹ
کنہ
کنی
کنیت
کو
کواس
کود
کور
کورم
کورمت
کورون
کورٹ
کوز
کوسٹ
کوسٹل
کوش
کوشش
کوفہ
کوفی
کول
کولومبی
کولگوم
کوم
کون
کوڈ
کٲرؠ
کٲش
کٲشر
کٲم
کٲن
کٲنسہ
کٲے
کٹ
کٹر
کپور
کھ
کھؠن
کھؠنہ
کھا
کھات
کھاتہ
کھار
کھان
کھر
کھرجی
کھرن
کھم
کھن
کھنہ
کھوار
کھوتہ
کھور
کھول
کھوو
کھوور
کھٲتر
کھٲرؠ
کھڈا
کھہ
کھہو
کھۄتہ
کھۄراکھ
کھۄور
کھۄڈ
کھۅر
کھۆت
کھی
کھیر
کھیل
کھیی
کہ
کۄ
کۄر
کۄرور
کۄسہ
کۄلہ
کۄم
کۄن
کۄپوور
کۄک
کۄی
کۆر
کۆرم
کۆستو
کی
کیاز
کیاہ
کیر
کیروٹ
کیش
کیلہ
کیم
کین
کینسر
کینہہ
کیو
کیوری
کیٹ
کیٹھوڈ
کیپی
کێن
کے
گ
گؠ
گؠو
گا
گاتار
گادھ
گار
گاش
گال
گام
گاما
گامس
گامن
گامی
گامینٹ
گان
گاندربل
گاندھی
گاو
گاڈ
گر
گرام
گرو
گری
گریز
گریس
گرین
گرے
گزا
گزار
گس
گست
گفتگو
گل
گلی
گن
گنہ
گو
گوا
گوتم
گور
گوسوامی
گول
گولڈمیڈل
گوم
گوو
گوڈ
گوڈنیک
گوکھ
گٲلؠ
گٲم
گٲنؠ
گٲو
گٹ
گپتا
گژ
گژھ
گژھان
گژھن
گژھنہ
گژھہ
گھ
گہ
گۄ
گۄد
گۄڈ
گۄڈن
گۄڈنی
گۆو
گی
گیلانی
گیم
گیٹ
گیڈولین
گیہ
گیے
گے
ں
ھ
ھت
ھر
ھس
ھم
ھن
ھنہ
ھو
ھکھ
ھہ
ھی
ھے
ہ
ہؠ
ہؠتھ
ہؠدای
ہؠر
ہؠن
ہؠوان
ہؠک
ہؠکو
ہؠکہ
ہا
ہاب
ہابہ
ہاتف
ہاتما
ہار
ہان
ہاو
ہاوان
ہاوس
ہاون
ہاونہ
ہاي
ہاپ
ہاڑ
ہایڈروج
ہاے
ہت
ہجری
ہجو
ہدایت
ہذی
ہر
ہرس
ہرو
ہری
ہزی
ہس
ہفتہ
ہل
ہم
ہمدانی
ہمہ
ہمیشہ
ہن
ہند
ہندسیات
ہندو
ہندوستان
ہندی
ہنز
ہنزی
ہنہ
ہو
ہواي
ہولی
ہوم
ہون
ہوں
ہى
ہٲر
ہٲو
ہکن
ہہ
ہی
ہیر
ہیل
ہیلتھ
ہیمہ
ہینری
ہیو
ہیک
ہیکان
ہیکن
ہیکو
ہیکہ
ہێتھ
ہێچھناو
ہێک
ہێکہ
ہے
ۄ
ۄکھ
ۄہہ
ۅ
ۆر
ۆش
ۆن
ی
یؠم
یا
یاب
یات
یاد
یادگار
یار
یازی
یاس
یاست
یاسی
یاف
یال
یان
یاو
یاٹوگر
یاپسی
یاہ
یب
یبی
یت
یتؠ
یتھ
یتہ
یخت
یر
یروپین
یزید
یس
یش
یشوریا
یعنی
یعیات
یل
یلس
یم
یمن
یمو
یمہ
ین
ینورسٹی
ینہ
ینی
یو
یوا
یوان
یور
یوروگرام
یورپ
یوس
یوسف
یوسہ
یون
یونارڈو
یونٲنی
یونیورسٹی
یوٹ
یوٹا
یوگا
یوگر
یوگراف
یٲتی
یٲری
یٲسی
یٲضی
یٲنی
یٲی
یٲیی
یٹ
یژھان
یک
یں
یہ
یہند
یہندی
یہنز
یۄ
یۄس
یۄسہ
یۆس
یی
ییتھ
ییتہ
ییلہ
ییم
ییمہ
ییون
ییہ
یێلہ
یێم
یێمؠ
یێمؠس
یێمہ
یے
ۍ
ے
ےر
۔
ە
ۖ
ۗ
ۚ
ۡ
ۤ
ۥ
۪
۬
ۭ
۰۰۰
۱
۱۰
۱۰۰
۱۱
۱۳
۱۴
۱۵
۱۶
۱۸
۱۹
۱۹۱۸
۱۹۴۸
۱۹۶۱
۱۹۶۹
۱۹۷۰
۱۹۷۱
۱۹۷۶
۱۹۸۲
۱۹۸۹
۱۹۹۲
۱۹۹۳
۱۹۹۶
۱۹۹۷
۲
۲۰۰۱
۲۰۰۸
۲۰۱۴
۲۰۱۹
۲۰۲۰
۲۰۲۱
۲۱
۲۵
۲۸
۲۹
۳
۴
۵
۵۰
۶
۷
۸
۹
ހ
ވ
ދ
ި
ެ
ँ
ं
ः
अ
अक
अकबर
अख
अग
अज
अत
अद
अदब
अध
अन
अप
अफ
अब
अम
अमरन
अर
अल
अव
अवर
अश
अस
असण
असत
असतअम
अह
अहम
आ
आक
आख
आज
आण
आत
आद
आन
आब
आम
आल
आव
आवश
आस
आसल
आह
इ
इक
इत
इन
इम
इल
इश
इस
ई
ईप
ईश
उ
उक
उड
उडण
उत
उप
उर
उस
ऋ
ऎनक
ए
एक
एख
एन
एर
एल
एश
ऑक
ऑगस
ऑब
ऑस
ओ
ओक
ओन
ओस
औलम
क
कथ
कन
कब
कम
कय
कर
करण
करत
करन
कल
कव
कश
कस
कह
ख
खन
खम
खल
ग
गछ
गज
गत
गन
गम
गय
गर
गरम
गव
घ
च
चल
छ
ज
जद
जन
जनवर
जप
जपत
जम
जर
जल
जव
जस
झ
ञ
ट
टर
टरन
टव
ठ
ठभ
ड
डकर
डग
डन
डर
डस
ढ
ण
त
तक
तख
तथ
तन
तम
तय
तर
तल
तलफ
तस
तसव
तह
तहज
थ
द
दक
दप
दफ
दय
दर
दश
दस
ध
धर
न
नक
नगर
नगरस
नज
नड
नद
नन
नम
नय
नर
नव
नवर
नस
नह
प
पक
पट
पत
पथ
पद
पर
पश
फ
फन
ब
बअद
बक
बच
बज
बत
बदल
बन
बनवत
बय
बर
बल
बस
बह
भ
म
मक
मग
मगर
मज
मत
मतलब
मद
मध
मन
मनन
मनस
मय
मर
मल
मव
मश
मशह
मस
मह
य
यक
यठ
यत
यथ
यद
यन
यम
यय
यर
यव
यस
यह
र
रक
रज
रण
रत
रतस
रथ
रथम
रद
रध
रन
रप
रफ
रब
रम
रय
रल
रव
रस
रह
ल
लक
लग
लच
लड
लथ
लन
लफ
लय
लयन
लव
लस
लह
ळ
व
वक
वग
वज
वजन
वड
वत
वतन
वन
वर
वरकर
वरच
वल
वस
वह
श
शक
शख
शन
शम
शलन
शवर
शह
शहर
ष
स
सक
सग
सत
सतद
सद
सन
सप
सफ
सम
समग
समर
सय
सर
सरक
सल
सव
सस
ह
हक
हणज
हत
हतन
हद
हदग
हन
हब
हम
हमल
हर
हल
हलवत
हव
हस
हसह
ऺ
ऻ
़
ा
ि
ी
ु
ू
ृ
ॄ
ॅ
ॆ
े
ै
ॉ
ॊ
ो
ौ
्
ॏ
॒
ॖ
ॗ
।
०१
०२
०३
०५
०६
१
१०
११
१२
१३
१४
१५
१७
१८
१९
१९४८
२
२०
२००७
२००८
२००९
२०१०
२०११
२२
२३
२५
२६
२८
३
३०
४
४५
५०
५२
६
७
८
९
॰
ॳ
ॳक
ॴस
ং
ক
গ
ঙ
চ
জ
ট
ঠ
ণ
ত
থ
দ
ন
প
ব
ভ
ম
য
র
ল
ষ
স
়
া
ি
ী
ু
ে
্
ৗ
৪
৳
ਗ
ਘ
ਜ
ਤ
ਨ
ਪ
ਬ
ਰ
ਸ
ਾ
ਿ
ੀ
ੁ
ੂ
ੇ
ੰ
ગ
ત
ર
ા
ી
ુ
્
ଆ
଼
ି
ழ
ா
ி
ீ
்
గ
త
ద
న
మ
ల
ా
ీ
ు
ె
్
ಂ
ಈ
ಕ
ತ
ದ
ನ
ಲ
ಳ
ಸ
ಾ
ಿ
ು
ೂ
ೆ
್
ೕ
ം
ക
ങ
ജ
ത
മ
ര
ള
ാ
ി
ീ
േ
്
ං
ස
ි
อ
ี
฿
่
้
་
ཁ
ང
ད
ར
ལ
ས
ི
ོ
ྐ
ྫ
ྷ
စ
တ
န
ဘ
မ
သ
ာ
း
်
ြ
ၢ
ၵ
ႂ
ႆ
ខ
ភ
ម
រ
ស
ា
ែ
្
៛
ᨁ
ᨕ
ᨗ
ᨘ
​
‌
‍
‎
‏
–
—
‘
’
“
”
„
†
‡
•
…
′
″
‹
›
₠
₡
₢
₣
₤
₥
₦
₧
₨
₩
₪
₫
€
₭
₮
₯
₰
₳
₴
₵
№
™
ℳ
←
↑
→
↓
↔
↷
−
∞
≈
≤
≥
⋅
③
④
⑦
☐
☑
☒
☾
♂
♠
♣
♥
♦
♭
♮
♯
✍
✓
✗
⟨
⟩
⺀
⺄
⺆
⺈
⺊
⺌
⺕
⺝
⺸
⺼
⿰
⿱
⿲
⿳
⿴
⿵
⿶
⿷
⿸
⿹
⿺
⿻
。
〢
゚
オ
ク
コ
タ
チ
ッ
ヒ
マ
ユ
リ
ワ
ン
ー
㇁
㇂
㇄
㇇
㇈
㇉
㇓
㐁
㐄
㐅
㐌
㐫
㐬
㐭
㐮
㐱
㑒
㒵
㒸
㒼
㓁
㓞
㔾
㕛
㕣
㖾
㘝
㚅
㚇
㚔
㚘
㝉
㝡
㝴
㝵
㞋
㞢
㞷
㠩
㠭
㠯
㡀
㡭
㡿
㢲
㢴
㣇
㣺
㥯
㪅
㫄
㫐
㫒
㫺
㬅
㬎
㬥
㬰
㲋
㳄
㷠
㸒
㸚
㸦
㼌
㼲
㽞
㿟
䀠
䂞
䍃
䏍
䒑
䖍
䖒
䖝
䖵
䙴
䚻
䜌
䝿
䡛
䧹
䪞
一
丁
丂
七
丄
丅
丆
万
丈
三
上
下
丌
不
与
丏
丐
丑
专
且
丕
世
丘
丙
业
东
丞
丢
丣
两
严
並
丨
丩
个
丫
丬
中
丮
丰
丱
串
丵
丶
丷
丸
丹
为
主
丽
丿
乀
乂
乃
久
乆
乇
么
义
之
乌
乍
乎
乏
乐
乑
乔
乖
乗
乘
乙
乚
乛
乜
九
乞
也
习
乡
乳
乾
亀
亅
了
亇
予
争
事
二
亍
于
亏
亐
云
互
亓
五
井
亘
亚
亜
亞
亟
亠
亡
亢
交
亥
亦
产
亨
亩
享
京
亭
亮
亯
亰
亲
亳
亶
亷
人
亻
亼
亾
仁
今
介
仌
从
仐
仑
仒
仓
仕
他
付
仝
代
令
以
任
企
伊
伏
伐
休
会
伯
但
位
何
佘
余
作
佥
使
來
侈
侌
侖
侯
侵
便
保
俞
信
修
倉
倍
候
倠
備
僉
僕
儿
兀
允
兂
元
兄
充
兆
兇
先
光
兊
克
兌
免
兑
兒
兓
兔
党
兜
兟
入
全
兩
兪
八
公
六
兮
兰
共
关
兵
其
具
典
兹
兼
冀
冂
冃
冄
内
冈
冉
冊
冋
册
再
冎
冏
冐
冒
冓
冖
冗
冘
军
农
冝
冡
冥
冫
冬
冷
几
凡
凢
凵
凶
凷
凸
凹
出
函
凾
刀
刁
刂
刃
刄
刅
分
切
刍
刑
刕
刖
列
刘
则
初
別
利
别
到
制
刺
則
削
剌
前
剡
剽
劉
力
功
加
劦
助
劫
劳
劵
勃
勇
勉
勒
動
務
勞
勤
勹
勺
勻
勾
勿
匀
匂
包
匆
匈
匊
匋
匍
匕
化
北
匚
匝
匡
匪
匱
匸
匹
区
医
匽
匿
區
十
卂
千
卄
卅
卆
升
午
卉
半
卌
华
卑
卒
卓
单
卖
南
卜
卝
卞
占
卡
卢
卣
卤
卦
卩
卪
卬
卯
印
危
即
却
卵
卷
卸
卻
厂
厃
厄
历
厈
厉
厌
厓
厘
厚
原
厤
厥
厨
厭
厲
厶
厷
厸
去
厼
厽
叀
参
參
叅
又
叉
及
友
双
反
叐
发
叒
叔
叕
取
受
叚
叜
叟
口
古
句
另
叩
只
召
可
台
叱
史
右
叵
号
司
叹
吂
各
吅
合
吉
吊
吋
同
名
后
吏
向
吕
君
吝
吞
否
含
启
吳
吴
吹
吾
呂
呆
呈
告
员
呙
周
命
咅
和
咎
咠
咢
咨
咸
咼
哀
品
哉
員
哥
哲
唐
商
啇
問
啚
啬
啻
善
喜
喬
單
喿
嗇
噩
嚴
囊
囗
囘
囙
囚
四
回
囟
因
囧
囬
困
囱
囷
固
国
圂
圅
國
圍
圓
土
圡
圣
圥
在
圭
地
圶
圼
坐
坒
坚
坴
垂
垔
垚
埀
埋
埶
執
基
堂
堅
堆
堇
堯
塞
墨
壘
士
壬
壯
声
壳
壴
壹
壺
壽
夂
处
夅
夆
备
夊
夋
夌
复
夏
夒
夕
外
夗
夘
多
夜
夢
大
夨
天
太
夫
夬
夭
央
失
夲
头
夷
夸
夹
夻
夾
奂
奄
奇
奈
奉
奎
奏
奐
契
奓
奔
奚
奞
奠
奢
奥
奭
女
奴
奻
好
如
妄
妙
妟
妥
妻
妾
姑
委
姜
威
娄
婁
婴
嬰
嬴
子
孑
孔
孕
孖
字
存
孚
孛
孝
孟
季
孤
学
孫
孱
學
宀
宁
宂
它
宅
宇
守
安
宋
完
宏
宓
宗
官
定
宛
宜
宝
客
宣
室
宮
宰
害
家
容
宾
宿
寄
寅
密
富
寒
察
寧
審
寫
寬
寮
寸
对
寺
寻
寽
対
寿
封
尃
射
将
將
專
尉
尊
尋
尌
對
小
少
尒
尓
尔
尖
尗
尚
尞
尢
尣
尤
尧
尨
尭
就
尸
尹
尺
尻
尼
尽
尾
尿
局
居
屈
屋
屎
屏
屑
展
屖
屚
属
屠
屡
屬
屮
屯
屰
山
屵
屾
岁
岂
岑
岡
岩
岳
岸
峯
島
崇
崑
崔
崖
崙
崩
嵬
嶲
巂
巛
川
州
巟
巠
巢
巤
工
左
巧
巨
巩
巫
差
己
已
巳
巴
巷
巸
巽
巾
巿
帀
市
布
希
帚
帛
帝
带
師
席
帶
常
干
平
年
幵
并
幷
幸
幺
幻
幼
幽
幾
广
広
庄
床
底
店
庚
府
度
庫
庭
庶
康
庸
廉
廌
廛
廣
廩
廴
延
廷
建
廾
廿
开
弁
弃
弄
弇
弋
式
弓
弔
引
弗
弘
弜
弟
弥
弦
弱
張
強
强
彊
彌
彎
彐
彑
当
彔
录
彖
彗
彡
形
彥
彦
彧
彭
彳
役
彼
往
待
律
徒
得
徙
從
復
微
徵
心
忄
必
忌
忍
志
忝
忠
忩
快
念
忽
忿
思
怠
急
怱
恆
恒
恩
恭
息
悉
患
悤
悲
悶
惠
惡
惢
愁
愈
意
愛
感
慈
慧
慮
憂
憲
應
戀
戈
戉
戊
戋
戌
戍
戎
成
我
戒
戔
或
戚
戠
戢
截
戲
戶
户
戹
戼
戾
房
所
扁
扇
手
扌
才
打
托
执
承
折
拉
拜
拿
据
掌
推
描
提
摩
支
攴
攵
收
攸
改
放
政
敄
敏
敕
敖
敗
敝
敞
敢
散
敦
敫
敬
数
敷
數
斂
文
斉
斊
斗
斤
斥
斩
斬
斯
新
方
於
施
斿
旁
旋
族
无
旡
既
旣
日
旦
旧
旨
早
旬
旱
旲
时
旾
昆
昇
昌
昍
明
昏
易
昔
昗
昜
星
春
昬
是
昱
昴
昷
显
時
晃
晋
晏
普
景
晶
智
暑
暴
曇
曩
曰
曲
曳
更
曷
書
曹
曼
曾
替
最
朁
會
月
有
朋
服
朔
朕
朗
望
朝
木
朩
未
末
本
札
朮
术
朱
朵
朶
朿
杀
杏
杜
束
条
来
東
杲
杳
松
析
林
枚
果
枝
枲
枼
某
柔
查
柬
柰
柴
栄
栗
桀
桑
桼
梁
條
梟
梨
棘
棠
棥
森
楚
業
楽
榮
樂
樊
欠
次
欣
欮
欲
欶
欽
款
歆
歇
歛
止
正
此
步
武
歨
歪
歮
歯
歰
歲
歴
歷
歸
歹
歺
死
殳
段
殷
殸
殹
殺
殻
殿
毋
毌
母
每
毒
比
毕
毚
毛
毳
氏
氐
民
气
氣
水
氵
氶
氷
永
氺
氾
求
汝
汞
江
沃
沓
沙
沝
泉
法
波
泣
泥
泰
洛
洪
活
派
流
浦
浪
浮
淡
淮
清
渚
渠
湯
滿
漸
火
灬
灭
灰
灵
灷
炅
炎
炏
炗
炙
炭
為
烈
烏
烝
焉
無
焦
焱
然
煞
熊
熏
燕
營
燮
爪
爫
爭
爯
爰
爱
爲
爵
父
爻
爽
爾
爿
片
牙
牚
牛
牜
牟
牢
牧
牪
牽
犀
犬
犭
犮
狂
狄
狊
独
狺
猋
猒
猪
献
獻
玄
率
玉
王
玟
玨
珎
班
琴
瑟
瑩
瓜
瓦
甘
甚
生
産
用
甫
甬
田
由
甲
申
电
甶
男
甸
甹
画
甾
畀
界
畏
畐
留
畜
畟
畢
畧
畨
番
畫
異
畱
當
畺
畾
疊
疋
疌
疑
疒
疾
癶
癸
癹
登
發
白
百
皀
皃
的
皆
皇
皋
皐
皕
皮
皷
皿
盃
盆
盇
盈
益
盍
盎
监
盒
盖
盛
盡
監
盤
盧
目
直
相
盾
省
眇
眉
看
眔
眞
真
眷
眼
眾
着
睘
睪
睿
瞏
瞢
瞿
矍
矛
矞
矢
矣
知
矦
短
石
破
碎
磊
磨
示
礻
礼
祟
票
祭
禀
禁
禸
禹
禺
离
禽
禾
禿
秀
秃
秉
秋
科
秝
秦
移
稟
穀
穌
穴
究
穹
空
穿
突
窄
窒
立
竒
竜
竝
竟
章
童
端
竹
笑
笠
筆
等
答
箕
算
箴
節
篤
篭
米
粉
粛
粟
粤
粦
粲
糞
糸
糹
系
約
納
素
索
紫
累
細
絜
絫
絲
続
維
綿
縣
繁
繇
纍
纟
维
编
缶
网
罒
罔
罕
罗
罙
罡
罢
罪
署
罷
羅
羊
羌
羍
美
羔
羕
羗
羞
羡
羣
群
義
羲
羸
羽
翁
翏
習
翕
翟
翠
翼
老
耂
考
者
耆
而
耎
耑
耒
耳
耴
耶
耷
聂
聊
聖
聚
聶
聿
肀
肃
肅
肉
肖
肙
肥
肩
肯
育
肴
胃
背
胡
胥
能
脊
脩
膚
臣
臤
臧
自
臬
臭
臯
臱
至
致
臺
臼
臽
臾
臿
舀
舂
舄
與
興
舉
舌
舍
舛
舜
舞
舟
般
艮
良
色
艸
艹
艾
芒
芔
芬
芮
花
芳
芺
芻
苔
苗
苟
若
苦
英
茶
茸
荅
草
荒
荣
荼
莆
莧
莫
莽
菆
菊
菐
華
萬
落
葉
著
葛
董
葵
蒙
蒦
蒼
蓋
蓬
蓺
蔑
蔡
蕉
蕭
薄
薛
薦
薰
藍
藏
藥
蘭
虍
虎
虐
虒
虔
處
虖
虗
虘
虚
虛
虜
虞
虫
虽
蚤
蚩
蜀
蜜
蟲
蠡
血
行
衍
衛
衣
衤
表
衮
衰
袁
袞
褭
褱
襄
襲
襾
西
覀
要
覃
見
規
覓
覧
親
覽
见
角
解
言
訁
訇
計
詹
語
誩
諸
讠
读
谷
豆
豈
豊
豐
豕
豖
豙
象
豦
豩
豪
豸
貇
貝
貞
貟
負
貢
貧
貪
貫
責
貳
貴
買
費
賁
資
賈
賏
賓
賔
賛
賞
賢
賣
質
賴
贊
贝
贡
责
贯
贲
贵
赖
赞
赤
赦
走
越
足
路
蹇
身
躬
車
軍
軎
軟
輦
车
辑
辛
辜
辟
辥
辰
辱
農
辵
辶
边
达
过
近
进
连
述
迷
追
退
送
逆
逐
通
速
造
逢
連
逮
進
遀
遂
過
道
達
遣
適
遷
遺
邊
邑
邕
那
邦
邪
郎
部
郭
都
鄉
酉
酋
配
酓
釆
采
里
重
野
量
金
釒
錢
钅
長
镸
长
門
閃
閉
開
閏
閑
閒
間
閔
閵
閻
闌
门
间
闷
阅
阑
阜
阝
阿
降
陳
隆
隊
隋
隡
隨
隱
隶
隹
隺
隻
隼
隽
难
雀
雁
集
雈
雋
雍
雐
雔
雙
雚
雜
雝
離
難
雨
雩
雪
雲
零
雷
需
霍
霜
霝
霞
霸
靈
靑
青
非
靡
面
靣
革
韋
韦
韭
韯
韱
音
頁
頃
項
須
頗
頡
頻
顛
页
顶
風
风
飛
飞
食
飠
養
饣
首
香
馬
馮
駦
马
骨
高
髟
鬥
鬯
鬲
鬼
魚
魯
鮮
鱼
鲁
鳥
鳳
鸟
鹵
鹿
麃
麗
麥
麦
麻
黃
黄
黍
黎
黑
黒
黨
黹
黽
黾
鼎
鼓
鼠
鼻
齊
齋
齐
齒
齿
龍
龙
龜
龟
龠
龰
龱
龴
龵
龶
龷
龸
龹
ꞓ
ꯂ
ꯃ
ꯇ
ꯟ
ꯣ
ꯤ
ꯩ
者
艹
ﮧ
ﮭ
ﯿ
ﷺ
️
ﺀ
ﺁ
ﺄ
ﺅ
ﺆ
ﺋ
ﺍ
ﺎ
ﺏ
ﺐ
ﺑ
ﺒ
ﺓ
ﺔ
ﺕ
ﺖ
ﺗ
ﺘ
ﺜ
ﺟ
ﺠ
ﺢ
ﺣ
ﺤ
ﺧ
ﺨ
ﺩ
ﺪ
ﺬ
ﺭ
ﺮ
ﺯ
ﺰ
ﺱ
ﺳ
ﺴ
ﺵ
ﺷ
ﺸ
ﺻ
ﺼ
ﺽ
ﺿ
ﻀ
ﻁ
ﻃ
ﻄ
ﻇ
ﻈ
ﻊ
ﻋ
ﻌ
ﻎ
ﻏ
ﻐ
ﻒ
ﻓ
ﻔ
ﻕ
ﻖ
ﻗ
ﻘ
ﻙ
ﻚ
ﻛ
ﻜ
ﻝ
ﻞ
ﻟ
ﻠ
ﻡ
ﻢ
ﻣ
ﻤ
ﻥ
ﻦ
ﻧ
ﻨ
ﻩ
ﻪ
ﻫ
ﻬ
ﻭ
ﻮ
ﻯ
ﻰ
ﻱ
ﻲ
ﻳ
ﻴ
ﻻ
ﻼ
（
）
，
：
？
￼
𑀅
𑀓
𑀲
𑁄
𑆤
𑆥
𑆫
𑆱
𑇀
𒂠
𒅆
𒅴
𒇷
𒉈
𝄪
𝄫
🌸
👍
👎
👩
💖
📲
🚀
𠀁
𠀃
𠀆
𠀉
𠀎
𠀐
𠁁
𠁣
𠂆
𠂇
𠂈
𠂉
𠂊
𠂋
𠂎
𠂒
𠂔
𠂛
𠂡
𠂢
𠂤
𠂬
𠂭
𠂹
𠃊
𠃋
𠃌
𠃍
𠃎
𠃑
𠃓
𠃔
𠃜
𠄌
𠄎
𠄠
𠄢
𠆢
𠆥
𠇍
𠈌
𠌵
𠓜
𠔉
𠔥
𠔼
𠔽
𠔿
𠕀
𠕁
𠕋
𠘧
𠘨
𠙻
𠙼
𠚏
𠚒
𠚤
𠚪
𠣏
𠤎
𠤕
𠥓
𠦄
𠦑
𠦝
𠧒
𠧗
𠧪
𠩺
𠪚
𠫓
𠫔
𠫤
𠬛
𠬝
𠬞
𠬢
𠬤
𠬶
𠮛
𠮦
𠮷
𠯑
𠱠
𠳮
𠷎
𡈼
𡉀
𡉵
𡌥
𡍮
𡏳
𡕒
𡕩
𡕰
𡖅
𡗗
𡗜
𡘆
𡘤
𡧱
𡨄
𡩧
𡬠
𡭽
𡰣
𡰥
𡰪
𡰯
𡰱
𡷈
𡸁
𡿨
𡿩
𡿪
𡿺
𢀖
𢀛
𢀩
𢁙
𢆉
𢆰
𢆶
𢇁
𢇇
𢉖
𢌬
𢌿
𢏚
𢑑
𢑚
𢖻
𢙣
𢛳
𢦏
𢦒
𢧵
𢼄
𢾕
𣁋
𣄼
𣅀
𣅽
𣍘
𣎳
𣎵
𣏋
𣏼
𣗥
𣥂
𣥖
𣦵
𣦼
𣧄
𣪊
𣪠
𣬉
𣳾
𣶒
𤇾
𤊽
𤐫
𤓰
𤔔
𤕨
𤣩
𤰇
𤰔
𤰞
𤴓
𤴔
𤽄
𥁑
𥁕
𥃦
𥃩
𥃭
𥇡
𥑟
𥘅
𥘈
𥝢
𥫗
𥱡
𦈢
𦉪
𦉬
𦉼
𦍌
𦍒
𦎧
𦐇
𦓔
𦔮
𦘒
𦙃
𦚏
𦣝
𦣞
𦣻
𦥑
𦥔
𦥯
𦨉
𦭝
𦰩
𧆞
𧈧
𧘇
𧰨
𧴪
𧴮
𧵩
𧾷
𨸏
𨾴
𩙿
𩠐
𩫏
𩵋
𪉷
𪜀
𪟽
𪠲
𪩲
𫇦
𫔭
𫜸
𫝀
𫠣
𫠩
𫢉
𫥞
𫩏
𫩠
𫪡
𫲽
𫶧
𬀷
𬐘
𬗌
𬙙
𬛸
𬜯
𬟩
𬯁
𬴘
𬺻
𬼉
𬼖
𭀰
𭁈
𭁨
𭅰
𭑈
𭕄
𭗼
𭤨
𭥫
𭻾
𮅕
𮊿
𮍌
𮍏
𮓗
𮥼
𮧮
廾
𰀁
𰀄
𰀈
𰀉
𰀕
𰀠
𰀡
𰀢
𰀪
𰁜
𰃮
𰆊
𰆘
𰋙
𰕎
𰢴
𰧭
𰯲
00--
01--
03--
07--
10--
13--
14--
15--
16--
17--
18--
19--
20--
21--
24--
25--
26--
31--
32--
33--
39--
52--
55--
6--
7--
8--
9--
a--
ab--
ac--
accom--
activation--
ad--
add--
ae--
af--
al--
am--
an--
anon--
ap--
ar--
arc--
as--
at--
aut--
auto--
b--
ba--
back--
bag--
bam--
bar--
base--
bbbbbbbbb--
be--
bha--
bi--
bla--
bo--
bom--
br--
bre--
brow--
bs--
bur--
c--
ca--
calc--
capt--
cat--
cc--
ce--
cel--
celeb--
chi--
cho--
chol--
chr--
cli--
clus--
clut--
co--
col--
com--
con--
conclu--
cons--
consequ--
conser--
consti--
cont--
copy--
cor--
cr--
creat--
cu--
cy--
d--
da--
date--
days--
de--
decode--
default--
defaultpopup--
di--
diff--
disa--
dist--
do--
dont--
dr--
du--
dy--
dyna--
e--
ed--
edit--
el--
ele--
em--
emot--
en--
encyclo--
end--
eng--
epi--
equat--
erro--
es--
et--
evolut--
ex--
exam--
expl--
f--
fa--
ferme--
ff--
fi--
file--
fla--
flo--
flu--
fn--
fnprocess--
for--
fr--
free--
from--
g--
ga--
gementorship--
gene--
geo--
get--
getpage--
getutc--
gla--
go--
gra--
gro--
gu--
h--
ha--
he--
hesi--
hete--
hi--
hide--
him--
ho--
hor--
hotcat--
html--
hu--
hy--
i--
if--
im--
image--
in--
indus--
infect--
influ--
inspi--
integ--
inter--
intervent--
inve--
ip--
is--
iso--
it--
j--
ja--
je--
js--
ju--
jump--
k--
ka--
key--
kill--
kin--
kn--
ko--
kos--
ku--
l--
la--
lastsaved--
le--
li--
lo--
load--
m--
ma--
mag--
magic--
maha--
make--
manipulat--
map--
mar--
match--
max--
me--
medi--
meta--
mi--
micr--
micro--
min--
mis--
mo--
mode--
moh--
mol--
mon--
mot--
move--
mu--
my--
n--
na--
nac--
nav--
ne--
new--
ni--
nn--
no--
non--
not--
ns--
ny--
o--
obiet--
on--
opp--
opt--
option--
or--
organisat--
ot--
out--
over--
p--
pa--
par--
pe--
per--
perma--
pg--
phy--
pi--
pl--
po--
popup--
popupdab--
popupedit--
popuplinks--
post--
pr--
practi--
pre--
prerequi--
princ--
pro--
protect--
psyc--
psycho--
pun--
q--
qu--
quickform--
r--
ra--
radio--
raw--
rc--
re--
ref--
reg--
remove--
respo--
rev--
ri--
ris--
ro--
ru--
s--
sa--
salv--
satis--
scr--
se--
set--
sh--
shi--
show--
si--
sib--
sil--
simp--
site--
sl--
sla--
sma--
smoo--
so--
some--
sop--
sp--
spell--
st--
ste--
su--
sub--
super--
sur--
swa--
syna--
t--
ta--
tag--
te--
tele--
text--
the--
ti--
time--
to--
toc--
tol--
tor--
total--
tr--
trans--
ts--
tu--
tur--
u--
uk--
ul--
un--
undo--
up--
url--
us--
v--
va--
ve--
ver--
vi--
view--
vir--
vo--
w--
war--
watch--
water--
we--
web--
wg--
whe--
wiki--
window--
wo--
wor--
work--
wp--
x--
y--
z--
za--
zh--
ʃ--
ʒ--
ؠ--
ا--
اب--
ابت--
ابو--
اث--
اج--
اد--
ار--
از--
اس--
اسم--
اش--
اط--
اعت--
اف--
ال--
الا--
الع--
الم--
ام--
ان--
انت--
انو--
او--
اپ--
اک--
اۆ--
ای--
این--
ایو--
ایپلی--
ب--
بؠ--
با--
بای--
بد--
بر--
بس--
بل--
بن--
بو--
بٲ--
بڈ--
بھ--
بہ--
بۄ--
بی--
ت--
تؠ--
تا--
تر--
تص--
تم--
تن--
تو--
تھ--
تہ--
تی--
ث--
ثقل--
ج--
جان--
جن--
جو--
جہ--
جی--
ح--
حا--
حم--
حن--
حو--
حک--
حی--
خ--
خا--
خر--
خط--
خو--
خۄ--
خی--
د--
دؠ--
دا--
دب--
در--
دس--
دل--
دو--
دھ--
دۄ--
دۆ--
دی--
دیو--
ذ--
ذر--
ذی--
ر--
را--
راج--
راز--
رت--
رج--
رح--
رس--
رش--
رف--
رم--
رن--
رو--
رٹ--
رک--
رگ--
رہ--
رۄ--
ری--
ز--
زا--
زب--
زر--
زن--
زو--
زی--
س--
سؠ--
سا--
ساع--
ست--
سر--
سفی--
سل--
سم--
سن--
سو--
سون--
سٲ--
سٹ--
سپ--
سک--
سہ--
سۄ--
سی--
ش--
شاہ--
شت--
شر--
شرو--
شو--
شک--
شہ--
شی--
ص--
صا--
صح--
صف--
صو--
ض--
ضم--
ط--
طا--
ظ--
ظا--
ع--
عا--
عب--
عبد--
عل--
علیہا--
عن--
عی--
غ--
غر--
غی--
ف--
فت--
فر--
فو--
فی--
ق--
قا--
قد--
قلم--
قٲ--
قی--
ك--
ل--
لؠ--
لا--
لب--
لف--
لن--
لو--
لٲ--
لک--
لۄک--
لی--
م--
مؠ--
ما--
مب--
مت--
مج--
مح--
مد--
مر--
مزا--
مس--
مسع--
مظ--
مع--
مل--
من--
مو--
مٲ--
مپ--
مک--
مہ--
مۄ--
مۆ--
می--
میر--
میڑ--
مێ--
ن--
نؠ--
نا--
نت--
نج--
نز--
نس--
نش--
نع--
نو--
نٹ--
نگ--
نۄ--
نی--
نیکو--
نێ--
ه--
و--
وؠ--
وا--
وار--
وج--
ور--
وس--
ول--
ون--
وو--
وچ--
وہ--
وۄ--
وی--
ي--
١٩--
ٲ--
ٹ--
ٹر--
ٹو--
ٹھ--
ٹی--
ٹیکن--
پ--
پا--
پت--
پد--
پر--
پرو--
پل--
پن--
پو--
پٲ--
پٹ--
پھ--
پھٲ--
پۄ--
پۆ--
پی--
پیٹو--
پۯ--
چ--
چمپ--
چن--
چو--
چھ--
چھا--
چی--
ڈ--
ڈا--
ڈو--
ڈی--
ڑ--
ژ--
ژھ--
ژۄ--
ک--
کا--
کار--
کان--
کر--
کرش--
کس--
کش--
کل--
کم--
کن--
کو--
کٲ--
کٹ--
کھ--
کھو--
کہ--
کۄ--
کی--
کیم--
گ--
گا--
گر--
گز--
گس--
گل--
گن--
گو--
گھ--
گۄ--
گی--
ھ--
ہ--
ہا--
ہر--
ہس--
ہل--
ہم--
ہن--
ہو--
ہٲ--
ہی--
ۄ--
ۆ--
ی--
یا--
یم--
ین--
یو--
یٲ--
یہ--
یۆ--
یێ--
ێ--
ے--
۱--
۱۹--
۲--
۲۰--
۲۰۰--
۳--
۴--
۵--
۶--
۷--
۸--
۹--
अ--
अन--
आ--
इ--
ई--
उ--
ऍ--
ए--
ऑ--
ओ--
क--
कमप--
ख--
ग--
च--
छ--
ज--
ट--
ड--
ण--
त--
तह--
थ--
द--
न--
नस--
प--
ब--
भ--
म--
मन--
य--
र--
ल--
व--
श--
ष--
स--
सर--
ह--
०--
१९--
२--
२०--
३--
४--
५--
ॳ--
--0
--00
--1
--13
--2
--3
--4
--5
--6
--61
--67
--69
--7
--78
--8
--83
--9
--93
--a
--abbrev
--able
--ably
--age
--ah
--aic
--al
--ally
--alt
--an
--ana
--ance
--ang
--ange
--anic
--ant
--api
--ar
--ard
--are
--aries
--art
--article
--ary
--as
--ate
--ated
--ation
--ations
--ative
--b
--bh
--ble
--box
--button
--by
--c
--cal
--cat
--ce
--ch
--ci
--cing
--ck
--cle
--code
--cript
--cy
--d
--da
--dab
--data
--date
--day
--de
--ded
--delete
--des
--diff
--dis
--do
--doc
--ds
--dy
--e
--ea
--eam
--ear
--ect
--ection
--ed
--eep
--ef
--el
--elector
--element
--els
--en
--ence
--end
--ene
--ent
--er
--ern
--ers
--ery
--es
--ese
--ess
--est
--et
--ets
--ey
--ez
--f
--fe
--ff
--fied
--forge
--ful
--fy
--g
--ge
--ger
--go
--gue
--h
--hash
--he
--hi
--hic
--hidden
--hing
--hint
--hip
--html
--i
--ia
--ial
--ian
--ic
--ica
--ical
--ice
--id
--ide
--ie
--ied
--ies
--ile
--im
--in
--inal
--ination
--ine
--info
--ing
--ion
--ions
--ir
--ise
--ised
--ish
--ism
--ist
--ists
--it
--item
--ities
--ition
--ity
--ium
--ivate
--ive
--ix
--iz
--ization
--ize
--ized
--izing
--j
--k
--key
--kh
--l
--la
--label
--ld
--le
--led
--left
--lem
--length
--ler
--les
--ley
--li
--link
--links
--lism
--list
--listhint
--lls
--log
--loghint
--ly
--m
--ma
--map
--mb
--ment
--menu
--message
--mic
--mo
--n
--na
--name
--navpoptask
--nce
--ncing
--ne
--ned
--ness
--ng
--ngs
--ni
--nia
--no
--ns
--nt
--ntly
--ny
--o
--obj
--od
--of
--og
--ogy
--ology
--om
--on
--only
--ons
--op
--or
--ormation
--ors
--os
--ous
--ously
--out
--oy
--p
--page
--ped
--phies
--phy
--preview
--que
--query
--r
--ra
--raktur
--rali
--re
--revertsummary
--ri
--ria
--ric
--ring
--row
--rr
--rry
--rs
--rt
--rum
--ry
--s
--se
--sed
--sh
--short
--sk
--sm
--son
--ss
--ssummary
--st
--stood
--success
--summary
--t
--ta
--te
--ted
--ter
--tes
--text
--this
--tic
--ting
--tion
--title
--tium
--tle
--tly
--to
--tor
--tr
--tring
--tructure
--ts
--ty
--tyle
--type
--tz
--u
--ual
--ub
--uccess
--ud
--ue
--uit
--ular
--um
--ummary
--un
--up
--ur
--ura
--ure
--url
--us
--user
--users
--ution
--v
--ve
--vi
--w
--widget
--width
--x
--y
--yn
--ys
--z
--za
--ɨ
--ؠ
--ؠس
--ؠن
--ء
--ا
--اء
--ات
--اتی
--اج
--اح
--اد
--ار
--از
--اص
--اق
--ال
--ام
--ان
--انی
--او
--اي
--اپ
--اگ
--اں
--اہ
--ای
--ب
--با
--بر
--بل
--بن
--بی
--ة
--ت
--تا
--تس
--تک
--تھ
--تہ
--تی
--ث
--ج
--جی
--ح
--حمن
--خ
--د
--دا
--دت
--در
--دی
--ذ
--ر
--را
--رس
--رسن
--رن
--رو
--رہ
--ری
--ز
--س
--سا
--ست
--سر
--سن
--سی
--ش
--شا
--شن
--ص
--ض
--ط
--طہ
--ظ
--ظم
--ع
--عت
--عہ
--غ
--ـ
--ف
--ق
--قن
--قہ
--قی
--ك
--ل
--لا
--لہ
--لی
--م
--ما
--مت
--مہ
--می
--ن
--نا
--ند
--نس
--نچ
--نک
--نکر
--نہ
--نی
--ه
--و
--وا
--وج
--وجی
--ور
--وز
--وس
--وش
--ول
--ون
--وو
--وٲے
--وٹ
--وپ
--وں
--وہ
--وی
--ى
--ي
--٠
--ٲتی
--ٲل
--ٲم
--ٲنی
--ٲی
--ٲیی
--ٲے
--ٹ
--ٹر
--ٹس
--ٹن
--ٹھ
--ٹی
--پ
--پی
--چ
--چا
--چھ
--چہ
--ڈ
--ڈا
--ڈن
--ڈی
--ڑ
--ڑا
--ڑر
--ژ
--ژر
--ژھ
--ک
--کا
--کر
--کس
--کو
--کٲری
--کھ
--کہ
--کی
--گ
--گر
--گی
--ں
--ھ
--ھا
--ھو
--ھی
--ھیا
--ہ
--ہا
--ہس
--ہن
--ہک
--ۄ
--ی
--یا
--یت
--یتا
--ید
--یر
--یس
--یش
--یشن
--یل
--یم
--ین
--یو
--یي
--یڈ
--یکا
--یہ
--ێ
--ے
--۰
--۰۰
--۱
--۲
--۴
--۵
--۶
--۷
--۷۷
--۹۵
--क
--ख
--ग
--च
--ज
--ड
--ण
--त
--द
--न
--प
--फ
--ब
--म
--य
--र
--ल
--व
--स
--ह
--०
--६६
--८
--९७
