!
"
#
##0
##1
##10
##11
##12
##13
##14
##15
##16
##17
##18
##19
##2
##20
##21
##22
##23
##24
##25
##26
##27
##28
##29
##3
##30
##31
##32
##33
##34
##35
##36
##37
##38
##39
##4
##40
##41
##42
##43
##44
##45
##46
##47
##48
##49
##5
##50
##51
##52
##53
##54
##55
##56
##57
##58
##59
##6
##60
##61
##62
##63
##64
##65
##66
##67
##68
##69
##7
##70
##71
##72
##73
##74
##75
##76
##77
##78
##79
##8
##80
##81
##82
##83
##84
##85
##86
##87
##88
##89
##9
##90
##91
##92
##93
##94
##95
##96
##97
##98
##99
%
&
'
(
)
*
+
,
-
.
/
0
00
000
001
01
01415
015
02
025
03
04
05
06
064
0645
067
07
0700747104
08
09
1
10
100
1000
1001
102
1023
103
1030
1034
104
105
106
1060
1070
1073
108
1085
109
11
110
112
113
114
1145
1147
115
1150
1151
116
117
1172
118
12
120
1200
122
123
1248
125
1258
126
1269
1270
129
13
130
1304
1325
1332
134
136
1368
137
139
14
140
1406
141
1435
144
1450
1452
1453
146
1460
1465
1466
147
1470
1472
1473
1475
1476
1477
148
1480
1481
1482
1485
1488
149
1490
1494
1498
1499
15
150
1500
1502
1503
1505
1506
1507
1508
1513
1516
152
1520
1521
1525
1526
153
1536
154
1540
1544
155
1550
1554
1560
1563
157
158
16
160
1600
1603
161
163
1635
1649
1659
1666
167
1670
1684
17
170
171
173
17372199
1738
1749
175
1772
1777
1787
1789
179
1795
18
180
1800
1802
1805
181
1814
1817
1818
1821
1822
1823
1824
1825
1826
1827
1828
1828706
1829
183
1830
1831
1832
1833
1834
1835
1837
1838
1840
1843
1844
1846
1848
1849
185
1850
1852
1853
1855
1856
1857
1858
1859
1861
1862
1865
1866
1868
1869
1870
1871
1872
1873
1874
1875
1876
1877
1878
1879
1880
1881
1882
1883
1885
1886
1887
1888
1889
1890
1891
1893
1894
1895
1896
1897
1898
1899
19
190
1900
1901
1902
1903
1905
1906
1907
1909
1910
1911
1912
1913
1914
1915
1916
1917
1918
1919
192
1920
1921
1922
1923
1924
1925
1926
1928
1929
193
1930
1932
1933
1934
1935
1936
1937
1938
1939
1940
1941
1942
1944
1945
1946
1947
1948
1949
1950
1951
1952
1953
1954
1955
1956
1957
1958
1959
1960
1961
1962
1963
1964
1965
1966
1967
1968
1969
1970
1971
1972
1973
1974
1975
1976
1977
1978
1979
1980
1981
1982
1983
1984
1985
1986
1987
1988
1989
1990
1991
1992
1993
1994
1995
1996
1997
1998
1999
2
20
200
2000
2001
2002
2003
2004
2005
2006
2007
2008
2009
201
2010
2011
2012
20120414212524
2013
2014
2015
20151117
2016
2017
2018
2019
202
2020
2021
2022
203
205
206
207
208
21
210
2100
211
217
219
22
220
221
223
225
23
230
235
236
2379
238
239
24
240
241
243
244
245
247
248
249
25
250
2500
252
254
255
256
257
258
259
26
261
262
264
265
266
267
269
27
270
271
273
274
277
28
280
2824188271160
284
285
288
29
292
296
2961
2968
297
2971
299
3
30
300
3000
307
31
310
312
315
317
319
32
322
325
328
329
33
330
3304
34
347
348
35
350
3500
351
35270
357
3577
36
360
361
37
373
374
375
377
38
381
382
383
384
387
388
39
395
396
4
40
400
4000
41
415
4167
42
420
423
4286
429
43
433
44
440
447
45
450
46
47
473
475
48
49
5
50
500
5000
504720
508
51
510
52
520
521
53
54
540
55
550
5527
555
56
57
58
59
6
60
600
6004
61
610
6128
62
6236
63
632
6354
638186
639
64
65
650
66
665
67
68
69
7
70
700
7000
71
710
72
720
72777
73
7384
74
740
742
744
7475
75
750
756
767
77
78
780
786
789
79
8
80
800
8000
81
811
82
83
830
831
84
84630
85
854
86
868
869
87
875
88
89
89645
9
90
900
9000
906659
91
910728
92
9207
93
94
942
946
95
96
97
976
978
98
981
989
99
9954
9981
:
;
<
=
>
?
@
\
^
_
`
a
aa
aaa
aan
aat
aatt
ab
aba
abadan
abaddaz
abadu
aballaɣ
abaraw
abaraz
abarbari
abarizi
abasbur
abazin
abaɛmran
abaɣuɣ
abbas
abbu
abcci
abd
abda
abdallah
abddad
abddur
abdeaitali
abdel
abdelaziz
abdelhadi
abdelkrim
abdellah
abdelmalek
abdelouahed
abdoulmohamine
abdullah
aber
abi
abib
abid
abijju
abin
abir
abirilyum
abkhazia
abla
ablbac
abldi
ablil
ablkiman
ablo
ablon
ablona
ablonas
ablono
ablulu
abn
abnkal
abou
about
abr
abrahmiy
abrid
abril
abrit
abrlaman
abrnus
abrray
abrt
abrtqqizi
abrunz
abrɣas
absence
absolu
abt
abu
abubbaz
abud
abudrar
abukad
abuniq
abuniqi
abuqal
aburi
abxazya
abyla
abzag
abɣaynuz
abɣur
ac
acade
academia
academy
acadie
acaqqur
acawr
accawen
accepted
acces
accueil
ace
acfud
ach
achab
aciban
acid
acimi
acini
acinwi
ackn
acku
aclh
acluh
acnti
acnyal
acnyul
acoustic
acrobat
across
acrqi
act
actaeon
actes
actif
action
active
activite
actkan
actualiser
actuk
actukn
acɛirya
ad
ada
adabu
adad
adagh
adahbi
adak
adal
adam
adams
adan
adanbala
adarissa
adas
adax
adaɣ
add
addad
addag
addagn
addahbi
addal
adday
addfirstcategorydate
addi
addiss
addjnt
addran
addu
addur
addyabit
adfel
adffuy
adfl
adhaybi
adi
adida
adigan
adil
adimuqr
adis
adit
aditan
adj
adjectif
adlis
adlli
adllis
adlsan
admin
administration
adminship
admman
adn
adoption
adr
adrar
adraz
adrbaɛl
adrfi
adrn
adt
adu
aduktur
aduku
adumas
adur
adustur
advanced
adwar
adwas
adwwar
adyu
adzayri
adɣar
adɣirni
adɣran
adɣrni
adɣs
ae
af
afa
afad
afadan
afadd
afalkay
afar
afares
afaris
afarnu
afars
afasi
afaw
afawwu
afaylu
afaylus
afbeelding
afd
afellay
afen
aferzi
affa
affaires
affichage
affiche
afficher
afgan
afggag
afi
afidyu
afilusuf
afiluzuf
afin
afirus
afit
afiyyac
aflat
aflla
afllay
aflsuf
afn
afna
afnin
afnsu
afr
afra
afrak
afrans
afransawi
afransis
afraran
afrd
afrdis
afri
africa
africain
africaine
africaines
african
afrika
afriqi
afrique
afris
afro
afroasiatic
afrruy
afrux
afsad
afsnan
afssas
afssay
aft
aftas
after
afud
afukan
afulay
afulki
afulkiy
afullus
afurkel
afus
afuz
afɣ
afɣanistan
ag
agadir
agadiz
agafa
agafay
agalim
agama
agaman
agancuc
agaraw
agaru
agayu
agayyu
agaz
agaɣri
agd
agdal
agdez
agdig
agdud
agdudan
agdur
agdwagdagn
agdz
ageldan
agellal
agellid
agelmam
agemmay
agence
agensu
agerd
agg
aggu
aggugn
aggugɣ
aggur
aggurn
agh
agha
agham
aghanim
agharas
aghbalu
aghyul
agi
agis
agit
agizul
agjdan
agjdi
agjja
aglagal
aglam
aglawi
aglawu
aglawwu
aglay
agldan
agldun
agllid
aglmam
aglutin
agmam
agmar
agmmad
agmmay
agmmud
agmud
agn
agnaou
agnaw
agndid
agnsan
agnsu
agr
agrakal
agrandir
agraw
agraɣlan
agrd
agri
agriculture
agrik
agriki
agrour
agrram
agru
agrur
agrzam
agst
agt
agtful
agudi
aguer
aguman
agummu
aguns
agur
aguzul
aguzulh
agwdal
agzzum
ah
aha
ahaggar
ahanu
ahe
ahidous
ahidrujin
ahijri
ahilyum
ahim
ahindi
ahir
ahl
ahmad
ahmar
ahmed
ahmer
ahnaqqar
ahouach
ahr
ahras
ahukagi
ahwac
ahwach
ahya
ahyyad
ai
aich
aicha
aide
aikhenvald
ain
ainsi
air
aire
ais
aise
aises
aisne
ait
aix
aj
aja
ajapuni
ajawji
ajddig
ajdir
ajgun
ajhg
ajin
ajit
ajj
ajji
ajjig
ajjitn
ajjiɣ
ajjukr
ajmak
ajmil
ajn
ajoute
ajouter
ajoutez
ajumman
ak
aka
akabar
akal
akar
akataluni
akateski
akayya
akbur
akc
akccud
akccum
akd
akec
akessab
akid
akil
akilugram
akilumitr
akimi
akimyan
akk
akka
akkan
akkanin
akken
akksmith
akkuc
akkw
akli
aklim
aklu
akm
aknaray
aknari
aknul
aknunnay
aknyaw
akounad
akr
akruran
akrwas
aksay
aksil
akssæb
aksum
akswat
akttay
akuc
akucam
akuci
akud
akumidi
akunad
akur
akuray
akurdi
akuttr
akw
al
ala
alah
alamagn
alami
alan
alant
alat
alatin
alatini
alawin
alay
alb
albanie
albanya
albert
alberta
albitn
albnsir
album
aldo
aldu
ale
aleb
aleh
alemagne
alemanha
ales
alesso
alex
alexander
alexandra
alexandre
alexis
alge
alger
algeria
algiers
alh
ali
alia
alib
alibi
alibu
alif
alig
align
alignbars
alih
aliksandr
aliktr
alil
alilan
alili
alim
aliman
alin
alink
aliska
alit
alityum
aljibr
alkam
alkursi
all
alla
allah
allal
allan
allant
allas
allaɣ
allemagne
allemand
allen
alli
allier
allig
allil
allit
alliwin
alliɣ
alln
allow
allsn
allun
almani
almans
almansur
almanya
almdin
almmud
almohade
almohades
almond
almoravide
almuggar
almuqaddima
almur
almɛdr
aln
alns
alpes
alpha
alphabet
alphonse
alquds
already
als
alsace
alsah
alssi
alsɣ
alt
altar
altarpic
altri
altu
alugan
alugaritm
alugn
alugu
alut
alwiwad
alya
alyan
alyani
alyanit
alyaniyn
alyant
alɛt
alɛyud
alɣu
am
ama
amad
amadalamazigh
amadan
amadday
amaddud
amadlan
amagut
amah
amakr
amal
amalad
amalaw
amalu
aman
amanar
amar
amara
amard
amarg
amarir
amaruyidir
amaruz
amasih
amassan
amata
amatay
amattu
amattuy
amatu
amawal
amawas
amaway
amawi
amawsas
amay
amayas
amaynu
amaz
amazan
amaziane
amazic
amazigh
amazighe
amazighnews
amazighs
amazighworld
amazir
amaziɣ
amazzal
amaɣnit
ambox
amd
amda
amddud
amdh
amdlu
amduc
amdya
amdyaz
ame
amecwar
amed
amedya
amedyaz
ameggaru
ameh
amenz
amenzu
ameqran
amer
america
american
amermed
amezruy
amezwaru
amezza
amgaru
amgdul
amggaru
amggrd
amgrad
amgraw
amguran
amh
ami
amid
amidi
amin
amina
amir
amirikani
amis
amit
amiwan
amiz
amizi
amjahdi
amjjay
amk
amkan
amkkuz
amknas
amkr
amkras
amksa
amla
amlal
amllal
amlu
amlwi
amm
amma
ammad
ammadu
ammak
ammal
ammas
ammasn
ammln
ammouri
ammu
ammussu
amn
amna
amnad
amnala
amnar
amnay
amnid
amnkad
amnni
amnru
amntag
amntil
amntul
amnukal
amnz
amnzu
amnɣi
amour
amqqr
amqqran
amqr
amqran
amr
amrara
amraw
amrec
amrouche
amrruk
amrruki
ams
amsasfar
amsawal
amsdaw
amsddam
amseddam
amsgra
amsideg
amsiwl
amskar
amslay
amsli
amslm
amsmun
amsnils
amssan
amssu
amssuds
amssufɣ
amstan
amsterdam
amsɣiws
amt
amtiwg
amttcu
amtti
amttul
amtwal
amuc
amucc
amud
amuddu
amudr
amuh
amukris
amul
amulli
amun
amunen
amunt
amur
amurakuc
amurar
amuri
amuriy
amuslm
amusnak
amusnakt
amussnaw
amussu
amut
amuttr
amux
amuzzur
amuɣli
amwan
amya
amyag
amyan
amyanaw
amyas
amyawas
amyiwen
amyiwn
amz
amzaray
amzaz
amzday
amzgun
amzil
amzn
amznz
amzraw
amzray
amzruy
amzwar
amzwaru
amzyan
amɐ
amɣar
amɣdar
amɣnad
amɣnas
amɣr
amɣribi
amɣuz
an
ana
anabawi
anabi
anafgan
anaflla
anafuk
anagraw
analyse
analysis
anamk
anammas
anamun
anamur
anaruz
anas
anat
anatomie
anatuli
anaw
anawad
anaway
anawen
anawn
anaz
anazur
anaɣri
anbad
anbbad
anbdad
anbdu
anccad
ance
ancien
ancienne
anciens
ancient
anck
anct
and
anda
andalus
andorra
andoza
andr
andre
andrea
andrews
andriyya
andrw
andunisya
andura
andy
anemmal
anen
anezgum
aneɣ
anfa
anfaɣru
anfgan
anflah
anflla
anflus
anfn
ang
anga
angad
angal
ange
angeles
angers
anggaru
angh
angiwin
anglais
angliz
anglizi
anglus
angmar
angraw
angyari
ani
animated
animation
anin
anini
anipiri
anir
anit
aniyn
aniyt
anja
anjis
anjou
anjr
ank
anki
anli
anlli
anlmad
anmala
anmhal
anmmas
anmuggar
anmun
anmuqqar
anmzray
anmɣur
ann
anna
annabaɛl
annag
annar
annay
annayat
annaz
anne
anneau
annexion
anni
annin
annodato
annonce
annote
annt
annuaire
annunciation
anrar
anrɣi
ans
ansa
ansis
ansisit
ansist
anslm
ansmad
ansmakan
ansmassu
anssixf
ant
antalas
antarktika
anthology
anthropologie
anti
antigua
antilopes
antique
antiquite
antoine
antonia
antonio
anu
anud
anumid
anus
anut
anwal
anwrir
anwwac
anya
anyalkam
anz
anzar
anzgum
anzi
anzway
anzwi
anzzarfu
anɛibar
anɣ
anɣmas
anɣmis
aomar
aoste
aou
aoulouz
aoura
apant
apologia
app
apparai
apparaitre
appel
appele
appeler
apple
applegate
application
applied
applique
apprenons
approval
apre
april
apule
apuleius
apuleus
apulu
aq
aqar
aqbayli
aqbil
aqbur
aqccab
aqdim
aqeran
aqhwi
aql
aqn
aqnqab
aqq
aqqa
aqqan
aqqar
aqqayn
aqqbur
aqqcur
aqqelayn
aqqran
aqran
aqs
aquitaine
aqulil
aqur
ar
ara
arab
arabe
arabes
arabia
arabic
arabion
arabo
arabs
aradikali
arakal
aram
aramyar
aran
aras
arat
aray
araɣ
arba
arbor
arbre
arc
arcac
archaeological
archaeology
architecture
archive
archived
archives
ard
arde
ardenne
ardennes
are
arekmane
aren
arf
arfud
arg
argan
argana
arganier
argay
argaz
arguments
ari
ariadne
aridal
arie
arif
arig
arih
arimɣr
arin
arinas
ariq
aristuqrat
arkan
arkivo
arkiɣ
arkun
arles
arm
armas
arme
armen
armes
arminya
armiti
arms
arn
arnobe
arnt
arnu
arouf
arqqas
arra
arram
arratn
arraw
arrie
arrif
arrn
arrondi
arrondissements
ars
arse
arsmuk
art
arti
article
articlecount
articles
artisanat
artiste
artn
arts
arttinin
arukas
arum
arumi
arun
aruri
arusrid
arwass
aryal
arz
arzuges
arzzu
as
asa
asad
asafar
asafu
asagm
asagur
asakni
asakud
asala
asalan
asammr
asamu
asan
asanay
asant
asanyya
asarag
asaru
asattuy
asays
asaɣur
asb
asbuɣlu
asd
asddi
asdurri
asegg
aseggan
aseggas
aseggwas
asegzawal
aselkim
aselmad
asen
asengam
asent
aserdon
asertan
aserɣin
aseskl
asfi
asfrd
asfsr
asfuglu
asg
asgawan
asgd
asgdan
asgg
asggan
asggas
asggwas
asgman
asgmi
asgnaf
asgt
asgzawal
asgzl
ash
asi
asiathe
asiatic
asiatique
asid
asidd
asidit
asie
asif
asiggl
asijji
asili
asilli
asimo
asimu
asin
asinag
asinan
asinus
asira
asit
asiɣ
asiɣaɣ
askaray
askatlandi
askka
askkif
askkil
askkin
askkud
askkur
asklan
asklu
asksl
asktiɣmr
asktur
askuren
aslal
aslgn
aslif
aslkim
aslmad
aslmd
aslway
asma
asmaqql
asmata
asmawan
asmd
asmel
asmi
asmil
asmkl
asmktan
asml
asmlal
asmmaql
asmmud
asmnid
asmras
asmrs
asmsacka
asmun
asmuttg
asmutti
asmuttr
asmzazal
asn
asnallun
asnbad
asnfar
asnfel
asnfl
asnflul
asnful
asngar
asnmala
asnmalay
asnmarra
asnmassu
asnmkta
asnml
asnqd
asnser
asnsr
asnsu
asnt
asnuh
asnulfu
asnuml
asnus
asnɣms
asp
aspinion
aspinus
asqamu
asqqim
asqqsi
asqqul
asqsi
asr
asrdas
asrdasan
asrdun
asrs
asrtan
asrtu
asrɣin
ass
assa
assad
assay
assaɣ
assaɣn
assembly
asserdoune
assid
assif
assilah
assit
asskti
asslmd
assmrs
assnkr
association
assudn
assudr
assufeɣ
assufɣ
assumption
assumr
assun
assunnyya
assuɣel
assuɣl
ast
astal
astci
astranumika
astre
astronautique
astronome
astronomie
astum
astun
asuds
asuf
asufɣ
asuk
asul
asun
asurif
asurs
asusi
asusiy
asusru
asussn
asutr
asuttu
asuɣl
aswan
aswingm
aswir
aswuri
aswwuri
asya
asyafu
asyut
asɛdi
asɣar
asɣim
asɣiws
asɣiwsan
asɣl
asɣzf
at
atalyani
atanɣ
ataram
atargi
atawan
atay
atbir
atg
ati
atig
atigan
atign
atik
atili
atin
atiqniy
atlante
atlantique
atlantiques
atlas
atlass
atn
atnt
atrar
atrms
atsn
att
atta
attay
attayen
attayn
attayoub
attendu
attent
attention
atteste
attig
attmsawaln
attn
attnt
attuynin
aturki
aturkiy
atwargi
au
aucun
aude
audio
august
augustin
aujourd
auparavant
aurait
aure
aussi
australie
aut
auteur
author
auto
automa
automatic
automatiquement
automne
automobile
autonomous
autorite
autour
autre
autres
autriche
auvergne
aux
av
avana
avant
avec
avertissement
avertissements
aveyron
avidyu
avirus
avisos
avoid
avril
aw
awa
awad
awal
awallu
awan
awanak
awanek
awank
awann
awant
awar
awari
away
awbrunz
awd
awddi
awed
awen
awes
awey
awgal
awgnz
awgustus
awi
awid
awihad
awikipidyan
awin
awint
awinu
awit
awiɣ
awk
awlaf
awlah
awlak
awluz
awm
awn
awngm
awnɣan
awqqas
awr
awraba
awras
awraɣ
awrir
aws
awsat
awsaɣ
awsn
awsnt
awssar
awt
awtay
awtil
awttas
awum
awxxa
awyat
awz
awzal
ax
axatar
axawayn
axel
axidus
axmuc
axnif
axnnuc
axnuc
axs
axucan
axuti
axxam
axyam
axyyat
ay
aya
ayad
ayafu
ayan
ayann
ayat
ayazid
ayaɣ
ayd
ayda
aydatn
ayddares
ayddars
ayddid
aydi
aydrisi
ayeddars
ayelli
ayelliɣ
ayen
ayenna
ayer
ayf
ayfa
ayfs
ayg
ayga
aygan
aygun
ayh
ayhayya
ayid
ayk
aylal
aylaln
aylimas
ayliɣ
aylkm
aylli
aylligh
aylliɣ
aym
aymman
aymmi
ayn
aynanaz
aynas
ayndi
aynin
aynn
aynna
ayour
ayouz
ayr
ayrni
ays
aysin
aysland
aysrayili
aysrayli
ayt
aytbaha
aytma
aytmas
aytmatn
ayttawari
ayugan
ayur
aywak
aywant
aywwul
ayya
ayyan
ayyarn
ayyaw
ayyawn
ayyedi
ayyi
ayyis
ayyur
ayyurn
ayzddig
ayzri
ayɣer
ayɣli
az
aza
azag
azagz
azal
azalan
azamul
azar
azarug
azatim
azawad
azawagh
azawan
azayku
azayyi
azayz
azazwu
azaɣar
azdawan
azday
azduud
aze
azeggwaɣ
azegzaw
azekka
azem
azemz
azenza
azerf
azgg
azggaɣ
azgn
azgzaw
azgzl
azi
azilal
aziz
azkka
azkur
azllum
azlmad
azlmza
azm
azmar
azmmur
azmmuz
azmz
aznaɣri
aznkd
azr
azrak
azrf
azrfan
azrg
azrmzruy
azru
azu
azufri
azuggaɣ
azukka
azuknni
azul
azur
azuzwu
azuzzr
azwaq
azwaru
azwaw
azwawaɣ
azwil
azwir
azwl
azzar
azzayn
azzaɣ
azzel
azzgr
azzgzl
azzigz
azzl
azzulan
azɣenɣan
aɛ
aɛaqqay
aɛarwi
aɛibri
aɛmam
aɛn
aɛr
aɛrab
aɛun
aɛutmani
aɛzri
aɣ
aɣad
aɣal
aɣanim
aɣar
aɣaras
aɣatar
aɣawas
aɣaz
aɣbalu
aɣbar
aɣidda
aɣilas
aɣlabya
aɣlal
aɣmat
aɣn
aɣnja
aɣr
aɣrab
aɣrbaz
aɣrd
aɣrda
aɣrf
aɣrfan
aɣri
aɣrib
aɣrrabu
aɣrum
aɣt
aɣuln
aɣulnt
aɣwy
aɣyul
aɣyyul
aɣzzaf
b
ba
bab
baba
babak
babam
babas
babatsn
babbage
babelmed
bac
baca
bacchus
background
backing
bad
baddouj
baddu
badduj
badis
baga
bah
baha
bahra
bak
bakji
bakr
bakri
bakunin
bala
baldovinetti
baliza
ball
ballades
ballon
ban
band
bandeau
bandeaux
bandera
bandllo
bani
baniy
banju
banner
bantam
banu
banya
baptist
baq
bar
barbar
barbarie
barbe
barcelona
baris
bariz
bark
barre
bas
basado
base
baseline
bases
basilica
basilika
baslam
basque
basset
bassin
bastiano
basɛid
bat
bataille
bathing
baths
battista
bauche
bawji
baxus
bay
baynt
bayr
bayɛn
baɛmran
baɛqil
baɣuɣ
bb
bba
bbachn
bbad
bbasin
bbc
bbi
bbin
bbint
bbu
bbuyat
bc
bce
bcl
bd
bdan
bdant
bdda
bddn
bddnt
bddun
bdlkrim
bdrn
be
beau
beaux
bec
bedda
beeldetiket
been
before
begin
bela
belai
belaid
belarhzali
belge
belgique
belgium
belize
beljika
belle
below
ben
bendetto
benhaddou
beni
bennour
ber
berb
berbe
berber
berbera
berbere
berbero
berbers
berberske
berberski
berberu
berger
berhil
berkan
berkane
berlin
bernard
berra
berries
berry
bersee
besanc
bestiaux
beta
between
bezzaf
bg
bgayt
bh
bi
bib
bibcode
bibi
bibliothe
bibn
bibt
bidd
biddn
bien
big
biggurdan
bigordi
bihaxadaca
bihi
bijarti
bijju
biksn
bil
bilarusya
bildo
billedmærke
bilmawn
bin
binaire
bing
binomial
biographie
biography
biologie
birds
birlin
birlman
birmanie
birura
bis
bisaw
bismi
bismillah
bissau
bit
bitci
bizakarn
bla
black
blal
blandr
blas
blaz
blench
blender
bleus
blica
bljika
bllaɣɣu
blli
blob
block
blocs
blog
blogspot
blɛid
blɣariya
blɣnja
bm
bms
bn
bnadem
bnadm
bnan
bnebin
bnf
bnh
bni
bnimllal
bnin
bnt
bnu
bnun
bnyulit
bnyuliyn
bnyult
bob
bocchus
body
bogue
boi
bois
bolivia
bologhin
boltraffio
bon
bonheur
bons
bonsack
boogert
book
books
bordeaux
border
bordure
bordures
botanique
both
botones
bots
botticelli
botticini
bottom
bou
boubakdi
bouches
boujdour
boukous
boulemane
boulifa
boum
boumalk
boumalne
boumisser
bounfour
bouquet
bourbonnaise
bourgogne
bouzid
box
bpy
bqasm
br
bra
brahim
branche
brayr
brayyim
brazil
bre
bread
break
bref
bretagne
brief
brik
brill
brit
britannica
britannique
brittanje
brive
brkan
browsebar
brqa
brra
brrk
brrkat
brtqqiz
bruksil
bruno
brunswick
bruxelles
bs
bt
bu
bub
bubkr
buc
bucan
buccan
buck
budnib
bug
bugafr
bugfix
bugld
buglib
bugrmuh
buh
building
buisson
bujdur
bujumbura
bukkus
bukus
bulletin
bulman
bulunya
bulyana
bumal
bumh
bumzruy
bun
bunny
bunyakovsky
buqnadel
bur
burdja
burg
burgrag
burkina
burundi
bus
business
buslam
busɛid
but
butawsna
butfunast
butler
butrufin
butrus
button
butussna
buwafi
buwmzruy
buya
buylmawn
buytli
buzid
buzya
buɛyac
buɣlan
buɣr
bxayr
bxr
by
byir
byugra
byzantin
byzantine
bzaf
bzzaf
bzzez
bzziz
bɛd
c
ca
cabab
caballus
cable
cabo
cache
cacnak
cadre
caen
caesar
cafa
cafiq
cahiers
cai
cala
calais
calassanti
calculateur
calcule
cale
california
call
calla
cambodge
cambridge
caminandes
camps
can
canada
canaries
canique
cannae
cannes
cannons
cantons
canxarra
cap
capitaine
capital
capitale
capitoline
car
caracte
cardano
carl
carlz
caroline
caron
carra
carre
cart
carte
cartella
cartes
carthage
cartographie
cas
casablanca
cascina
case
cases
cast
castle
cat
catalan
catalogue
cate
categorie
category
catherine
catubrya
cauchy
caution
cavallo
cawk
caɛban
cc
ccamx
ccan
ccawiyya
ccawn
ccayx
ccc
ccd
ccerg
ccil
ccin
ccinwa
ccita
ccix
cciɣ
cclh
ccn
ccnna
ccrbil
ccrif
ccrifa
ccttab
ccəlh
ccɛb
cdot
cdots
ce
ceb
cedrus
cela
cell
celle
celui
cembre
cen
center
central
centre
centrederechercheberbere
centres
cents
century
cependant
ces
cessaire
cession
cessite
cet
cettan
cettant
cettaɣ
cette
ceux
cf
ch
cha
chabab
chafik
chai
chaker
challamel
challenge
chamaerops
chambre
chamito
champ
champagne
champs
change
changer
chansons
chante
chanteuse
chants
chaoui
chaouia
chaouis
chapel
chapter
chaque
charente
charentes
charge
charif
charles
charrue
chawia
che
chef
cheikh
chemin
cherbourg
chez
chichaoua
chiffres
child
chimie
chinese
chkiri
chleuh
chleuhs
choisir
choose
choses
chottin
chouar
choukri
chris
christ
chrome
chronique
chu
ci
cicawa
cicng
cid
cie
ciel
cifie
cigan
cile
cimal
cin
cini
cinq
cint
cinwa
cio
cioni
cipiyuni
circular
circumcision
cision
cisions
cisneros
cit
citakan
cite
cithakan
cits
city
civilisation
cix
ckaria
ckb
cke
ckkan
cl
claf
clair
class
classe
classes
classical
classics
classification
claude
clav
clavier
cle
clear
cleopatra
cles
clh
climatologie
clowan
clr
club
cluh
cm
cmn
cngit
cnn
cnrs
co
coda
code
codelist
codes
coefficients
cohen
col
cole
colin
coll
colle
collectie
collections
college
colline
cologie
cologne
colombie
coloniales
colonnaded
color
colore
colors
cols
column
columnas
columns
com
combat
commandes
comme
commence
commencera
common
commons
commun
commune
communion
company
comparaison
comparative
comparison
comple
complexe
comportant
compose
compte
compter
comptes
computadoras
computer
comte
con
conception
condamne
conduire
confirme
confirmed
confraternity
congo
congre
conjugaison
connu
connue
conomie
conomique
conque
consacre
conseil
consonants
constantine
constellation
constitution
consulate
consulte
contains
conte
contemplations
contemporain
content
contenter
contenu
contes
contient
continuum
contraintes
contre
contribute
contribution
convention
conversion
convertir
coord
coordonne
coq
core
coronavirus
corps
corpus
corre
correctement
correspond
correspondance
correspondant
corse
cos
cosimo
cosmopole
cosse
cou
couche
couleur
couleurs
count
coupe
courant
cours
couverte
covid
cqqanin
cre
creados
create
cret
creuse
crif
criture
crivain
crivant
croise
crosse
cruz
crystal
cs
csidi
css
cttan
ctuka
cu
cubillo
cuckoo
cuh
cuhad
cukri
culture
culturel
culturelle
culturelles
cultures
cum
cumaxr
cunninghame
cup
curite
curva
cutanbir
cv
cwlad
cy
cycle
cœur
cɛibya
d
da
dad
dadd
dadda
dades
dads
dag
dagh
dahab
dais
dak
dakar
dakhla
dakrur
dakutin
dal
dam
damas
dame
damya
dan
dancing
danimark
danmark
dans
dansgroep
danzu
dar
dares
dari
darija
dark
darm
darn
darnɣ
dars
darsen
darsn
darsnt
dart
darun
darwin
darɣ
das
dat
date
dateformat
dattier
david
davide
dawd
dawdi
dawdiyyat
dawud
dax
day
dayak
dayana
daylights
daytime
daɣ
daɣen
dc
dcayra
dd
dda
ddad
ddan
ddant
ddar
ddarija
ddat
ddaw
ddaws
ddaxla
ddell
ddi
ddin
ddiɣ
ddren
ddrhm
ddrn
ddrnin
ddrst
ddrɣ
ddu
dduh
ddula
ddun
ddunit
ddunt
ddut
dduzdar
dduɣ
ddzayr
ddɣ
de
death
debido
dec
december
decine
default
deffir
deg
degna
degre
dei
dejeux
dek
del
dela
delaporte
dell
della
dem
demain
demnat
den
dendo
dendrologie
dendron
denis
dent
dentaires
deny
depuis
der
derivable
derive
dern
dernie
dernier
des
description
descriptive
desde
design
dessous
dessus
destacado
destaing
destine
details
deu
deux
development
devrait
deze
df
dffir
dfir
dg
dglai
dh
di
dia
diachronie
dialect
dialectales
dialecte
dialectes
diana
diary
dibur
dichtkunst
dictionary
dictionnaire
did
didi
didk
dids
didsn
didu
die
died
dieu
difaa
diffe
diftirya
diger
digne
digs
digsn
dihan
dihiya
dihya
dik
dikart
dikumanus
dil
dillama
dilus
dim
dima
dimension
din
dina
dinar
dinosaures
dinoto
diodore
diodorus
diq
dir
dire
direct
directement
direction
dis
discours
discourse
discuss
disease
disen
disn
disnt
display
displaystyle
disponible
disten
disud
dit
diterrane
diti
dition
ditions
div
diverses
diversity
divise
diwan
diwana
dixie
dixon
diyana
diyid
diɣ
dj
djabal
djarallah
djebel
djemaa
djibuti
djurdjura
dl
dlen
dln
dm
dmin
dmnat
dms
dn
dna
dnin
do
doc
docname
doctoral
doctorat
document
documentation
documenter
documents
doi
doigt
doine
doit
doivent
dokumentation
dologie
domenico
dominique
dona
donald
donatello
donc
donne
donner
dont
dordogne
dossier
dot
douard
doubs
douceur
doum
down
download
downtown
dr
dra
draa
drama
dran
dranin
drant
drapeau
drapeaux
drar
drarga
drawings
drhm
driouch
dris
driss
driwec
drn
drnin
dro
droit
droite
drrit
drun
drusn
drusnin
drusnt
drwic
drɛa
ds
dsb
dt
du
duane
dufan
duit
dujanbir
dular
dumarg
dumu
dunes
dunit
dur
dusnin
dut
dutch
dv
dwa
dwar
dwid
dwrn
dx
dymitr
dynamicpagelist
dynastie
dz
dzayer
dzayr
dzayt
dɛ
dɣ
dɣa
dɣi
dɣya
e
ea
earliest
early
east
eastern
eau
ebbi
ebib
ebsi
eclipse
ecole
economie
ed
eddine
eddun
edisud
edit
edited
edition
edmond
eds
edu
edward
edłoga
edłoha
een
ef
effectue
effet
egypte
egyptian
eh
eicon
ek
el
elaborate
elba
element
elements
elhait
eliminar
elimus
elle
elmad
elmedlaoui
eln
elt
em
emda
eme
emed
emile
emm
emmed
empereur
empire
emploi
emtghren
emɛ
en
enag
encabezado
encabezados
encg
enclos
encore
encountering
encyclope
encyclopedia
encyclopedie
encyclopædia
encyclupidi
end
endrika
english
enlaces
enn
enna
enne
ennin
ens
ensa
ensemble
ensign
ensist
ent
enterre
entie
entier
entre
entrer
entretien
environment
eo
equation
equilibrando
equus
er
erbay
erbiyt
erg
eri
ern
ernest
errachidia
erran
errant
errimen
erz
es
esc
espace
espacement
espagne
espan
especial
espoir
esquisse
essai
essais
essaouira
essays
essonne
est
esta
et
etal
etc
ethnologue
ethnonyme
etiket
etiketo
etoile
etude
etudes
eu
euclide
euge
euloge
eure
europa
europe
european
evaluation
evening
everyone
evidence
ex
example
excepte
exception
exclus
exemple
exemples
existe
existence
exp
expert
explicitement
exposant
expression
expressions
ext
extension
exterior
extre
eyes
eyyeb
ez
f
fa
fabur
fac
face
facebook
facultatif
fad
fadd
fai
failur
faire
fait
faits
fal
falis
fall
family
fan
faouzi
far
faraj
faris
farka
farn
fart
fas
faso
fassi
fat
fatema
fath
fatima
fatma
fattah
faut
fay
faysbuk
fazyu
fc
fd
fe
febrayer
february
fecture
fek
felgh
fell
fella
fellak
fellanɣ
fellas
fellasen
fellasent
fellasn
fellawn
fellaɣ
felɣ
femmes
fen
fenseur
fer
ferh
feriene
ferk
fernas
ferroviaire
fes
festival
feu
feuille
feuilles
feuilleton
ff
ffalat
ffaln
ffaɣn
ffaɣnt
fff
ffffff
ffin
ffir
ffp
ffr
ffuɣn
ffɣen
ffɣn
fi
fiance
fibrayr
fiche
fichier
fiction
fifa
fig
figig
figure
fikt
filali
file
files
filist
fille
film
fils
fin
fina
final
finir
finiste
finition
finlandya
fint
finus
fir
firnas
firrari
firru
first
fisbuk
fishing
fissaɣ
fit
fixe
fiyt
fizaz
fjjijn
fk
fkan
fkant
fkat
fkin
fkiɣ
fkn
fl
flag
flan
flandre
fleur
flex
fll
flla
fllak
fllanɣ
fllas
fllasn
fllasnt
fllati
fllaɣ
flli
fln
flnt
float
floatleft
floatright
flottant
flottants
flt
flurinsa
fm
fn
fna
fnaa
fnideq
fo
foarloage
focus
fofna
foie
fois
folk
folktales
fonction
fond
fondateur
fonds
font
fontaine
fontana
fontsize
football
footer
for
forall
force
forcetoc
ford
fore
format
formation
forme
former
formula
formule
fort
foucauld
foum
four
fourni
fournie
fox
foy
fqih
fr
fra
frac
frah
frameless
fran
franc
francais
france
francesco
franche
francis
francisco
frank
frankfurter
franklin
frans
fransa
frantcisku
fre
free
freemorocco
french
fresco
frh
friedrich
friends
frkus
frn
froid
from
front
frp
frr
frsco
frscos
fruit
fruits
frurin
fsnat
fssrnt
fssusnin
ft
ftan
fttun
fttuɣ
ftun
ftunt
ftuɣ
fukkun
fuku
fulkin
fulkinin
fumier
fund
funti
fur
furmila
fus
fusayfisa
fusion
fut
fuwa
fuɣnin
fy
fzzan
g
ga
gabes
gabriel
gabriyil
gaddan
gaetuli
gag
gaius
gal
gala
galand
galement
galili
galilyu
gallimard
galwa
game
gamma
gan
gana
ganga
gangzhu
ganimid
ganin
gant
gantn
gantnt
gar
gara
garden
garhou
garland
garonne
gas
gate
gauche
gawrn
gay
gaya
gayus
gazelle
gd
gdp
ge
gedichte
gelijk
gen
gendaire
gende
gendes
gene
general
genet
geo
geographic
geography
geometric
george
georges
geq
ger
gerbe
germaniavex
gers
gespra
geuthner
gg
ggamin
ggammin
ggan
ggart
ggawrn
ggis
ggiwrnt
ggiwrɣ
ggranin
ggu
ggudin
gguran
gguten
ggutn
ggutnin
ggutnt
gh
gha
ghadbane
ghar
ghas
ghass
ghemyen
ghilli
ghirlandaio
ghomara
ghrb
gi
giaconda
gibraltar
gid
gigan
gigh
gigu
gik
gillul
gim
gimignano
gin
gina
ginin
gint
gion
gions
giorgio
giovanni
giralda
girolamo
gironde
girra
gis
gisen
gisent
gisn
gisnt
gissu
gistn
git
gitengh
gitenɣ
github
giti
gitnɣ
gitsn
gitsnt
gitun
giwen
giwn
gix
giɣ
gje
gjuha
gl
glace
gladiator
glafyra
glin
glmim
glosbe
glossaire
glossar
glottal
gma
gmas
gmm
gmrn
gn
gnawa
gnt
gnu
god
goeje
goire
google
googlehack
gorge
gorie
gories
goriser
got
gov
government
gr
gra
graham
grains
gram
grammaire
grammar
grammatical
grammatik
gran
grand
grande
grandes
graphique
graphiques
grasn
grasnt
grat
gratsen
gratsn
gratsnt
gratun
gray
graygat
grd
gre
great
grec
green
grenier
grenoble
gridcolor
gro
group
groupe
groupes
grrun
grun
grut
gruyter
gu
guanta
guatemala
gue
guedmioua
gueliz
guelmim
guerre
gueux
guide
guild
guine
guinee
guitar
gulan
gulmima
gurara
guru
gurugh
guss
guterre
guttn
guugl
guyana
gv
gw
gwatanamu
gwatimala
gwen
gwran
gyptienne
gyyd
gzzuln
gzzulnin
gɣ
h
ha
habitants
hachette
had
haddou
hadj
hadjadj
hadrami
hafside
hai
haie
hak
halacun
hall
hamam
hamburg
hamid
hammad
hammam
hammou
hamouda
hamra
hamza
han
handakutin
handbuch
hands
hann
hanna
hannibaal
hannibal
hannouche
hans
haouz
haqq
har
harazem
harmattan
harry
harun
harvard
has
hasan
haskala
hassan
hassania
hat
hati
hatinn
haut
haute
hautes
hauteur
hauts
have
hawza
hay
hayyi
haɛibrit
haɛicana
hcp
hd
he
head
header
headline
health
healthy
heaven
hebrew
height
heine
helli
hello
help
henry
her
hercules
herd
here
heritage
herkulis
hernani
herru
hespe
hesperides
hespress
het
heureux
hey
heyyant
hi
hicam
hiempsal
hif
high
hijrya
hiktar
hills
him
himbsal
hinan
hinata
hinrichs
hir
hiragana
hiraql
hirtzil
hirzigubiniya
his
hist
histoire
historical
historique
historiques
history
hitt
hiver
hizkuntza
hjmn
hler
hlli
hma
hmad
hmmu
hmza
ho
hockey
holy
hommage
homme
homo
homosapiens
hongrie
honneur
horizontale
hors
hound
house
hover
how
hp
hpgl
hr
hrcnin
hsb
ht
htm
html
http
https
hu
hugh
hugo
hugu
hui
huland
hulanda
humain
humaines
human
humilis
hun
hund
hurayra
hwar
hwara
hy
hya
hyatus
hyun
hyuni
hyunit
hyuniyn
hyya
i
ia
iav
ib
iba
ibad
ibadl
iband
ibar
ibarek
ibawen
ibawn
ibayen
ibayn
ibba
ibbas
ibbi
ibbin
ibd
ibda
ibdan
ibdd
ibdda
ibddn
ibdr
ibdrn
ibedden
ibid
ibidagugiyn
ibidagujiyn
ibidd
ibiddn
ibin
ibis
ibiyyn
ibiz
iblis
iblkimn
ibm
ibn
ibna
ibnan
ibnu
ibr
ibrahim
ibrdan
ibri
ibridn
ibrin
ibrir
ibriszimow
ibrit
ibriyen
ibrnas
ibrnusn
ibrraniyn
ibrt
ibrtqizn
ibrtqqizn
ibt
ibubbaz
ibuka
ibula
ibur
iburtuɣaliyn
ibuxxucn
ibuɣas
ibuɣlan
ibuɣlu
ibxxuyn
ibɣurn
ica
icakan
icark
icawiyn
icbbr
icbilya
icc
icca
iccan
iccig
iccin
iccu
icddadn
iceland
icelh
iceqqan
icetta
icettan
icfln
ich
ici
icid
icinubiyen
icinwiyn
icirran
iciɛiyn
iclah
iclh
icnan
icnga
icnubbucn
icnubc
icnubcn
icnyal
icnyaln
ico
icomos
icon
icona
icqqa
icqqan
icr
ict
ictta
icttan
icumac
icwan
id
ida
idabur
idammen
idammn
idamn
idamsann
idaw
idawbaɛqil
idawltit
idawtanan
idd
idda
iddal
iddan
iddem
idder
iddm
iddnkay
iddr
iddrn
iddu
iddukkl
iddun
iddzn
iddɣ
ide
idek
idels
identite
idgl
idh
idi
ididaktikiyn
idin
idinann
idir
idirn
idis
idisken
idit
idlisn
idllisn
idln
idls
idlsann
idmarn
idn
idqqi
idr
idra
idran
idrar
idraran
idraren
idrarn
idrimen
idrimn
idris
idrizn
idrnan
idrura
idrus
idrusn
ids
idsen
idsn
idsnt
idu
idukan
idum
idunt
idur
iduran
idurar
idus
iduska
idusn
idust
iduwwarn
idwarn
idwasn
idwl
idwr
idɣaren
idɣarn
idɣriyn
ie
ier
ierla
if
ifaddn
ifalan
ifalkayn
ifan
ifaqs
ifasen
ifasn
ifassen
ifassn
ifaw
ifawn
ifayrarn
ifckan
ifd
ifek
ifel
iferxan
iff
iffal
iffaln
iffaɣ
iffaɣd
iffaɣn
iffeɣ
iffi
iffouɣ
iffr
iffrn
iffu
iffuglutn
iffus
iffusn
iffuɣ
iffuɣn
iffɣ
iffɣn
ifgann
ifggagn
ifhm
ifi
ififl
ifil
ifili
ifilmn
ifilu
ifiniqin
ifiniqn
ifiniqqiyn
ifirusn
ifis
ifjjijn
ifk
ifka
ifkan
ifki
ifkrad
ifl
iflayn
ifliciyn
ifllah
ifln
ifls
iflt
iflu
iflwan
ifn
ifni
ifr
ifran
ifrane
ifransawiyn
ifransisen
ifransisn
ifrawen
ifrawn
ifrax
ifrd
ifrdisn
ifrg
ifrgan
ifri
ifrig
ifriqya
ifrisn
ifrk
ifrki
ifrsn
ifruritn
ifruriyn
ifrxan
ifrxs
ifrɛunen
ifrɛunn
ifsr
ifss
ifssa
ifssusn
ift
ifta
iftan
iftasn
ifttu
ifttun
iftu
ifulki
ifulkin
ifullusn
ifunasn
ifunimn
ifus
ifuɣas
ifx
ig
iga
igad
igadazn
igadda
igaddan
igaliliyn
igamann
igamiwn
igan
igarawn
igas
igat
igatt
igcan
igd
igda
igdazaln
igdl
igduden
igdudn
igen
igenna
igenwan
iger
igezzumen
igg
iggan
iggawr
iggaɣn
iggi
iggig
iggiz
iggmayn
iggr
iggul
iggummi
iggura
igguran
iggurn
iggut
igguten
iggutn
iggwran
iggz
igh
igha
igherman
ighirdem
ighrm
igi
igiddi
igider
igidr
igigil
igigiln
igin
igitn
igiwr
igiz
igizuln
igjda
igjdan
igjdi
igldan
igldunn
iglgiz
igli
iglidn
iglin
iglli
igllidn
igllin
iglmamn
igma
igmamn
igmmad
igmmayn
igmmn
ign
ignarn
ignawin
ignna
ignnu
ignsas
ignwan
igr
igran
igrawliyn
igrawn
igraɣlann
igrikiyn
igrikn
igrzamn
igt
igudar
igugiln
igugl
igum
igumma
igunsiwn
iguran
igutn
iguyya
iguzuln
igwanciyn
igz
igzayn
igzda
igzi
igzman
igzza
igzzuln
igzzumn
ih
iha
ihahan
ihd
ihdumen
ihdumn
ihe
ihi
ihiln
ihiyya
ihkm
ihlaln
ihrc
ihrcn
ihu
ihud
ihul
ihwacn
ihyyad
ihyyan
ii
iii
ij
ijallacn
ijawwan
ijddign
ijddr
ijdr
ijeddigen
ijen
ijhdn
ijir
ijj
ijja
ijjan
ijji
ijjign
ijjin
ijla
ijlan
ijr
ijra
ijran
ijyugrafn
ik
ika
ikad
ikagiten
ikaliwn
ikalln
ikanatn
ikar
ikccem
ikccm
ikccmn
ikccumn
ikcem
ikcim
ikcm
ikcmn
ikellef
ikellu
ikerf
ikermen
ikerrmen
ikfa
ikfan
ikid
ikiked
ikiker
ikikr
ikimayn
ikk
ikka
ikkad
ikkan
ikkat
ikkaten
ikkatin
ikkatn
ikkattin
ikkattinn
ikkes
ikki
ikkit
ikklan
ikkrz
ikks
ikksn
iklan
ikli
iklitikn
ikllf
iklli
ikllu
iklu
ikmml
ikmmln
iknemtiwgen
ikniwn
iknna
ikon
ikona
ikone
ikonsepten
ikr
ikra
ikrd
ikrmn
ikrurann
ikrwan
ikrz
ikrzn
iks
ikssa
iktarn
ikti
iktlan
iktur
ikullu
ikur
ikurdiyen
ikurdiyn
ikut
ikwlan
ikwti
il
ila
ilad
ilafn
ilaha
ilal
ilalmaniyn
ilaln
ilan
ilaq
ilat
ilatiniyen
ilaw
ilawn
ilbitn
ilbnsirn
ild
ildi
iledjigen
ilef
ilel
ilelli
ilellin
ilemma
iles
ilf
ilg
ilgamn
ilgmad
ili
ilibiyn
iligh
ilih
ilikitn
ililan
ilin
ilinken
ilinkn
ilint
iliɛiz
iliɣ
ilkem
ilkim
ilkkm
ilkkmn
ilkm
ilkmn
ill
illa
illan
illant
illas
illasn
illi
illin
illinois
illis
illiɣ
illu
illul
illuln
illustration
ilm
ilma
ilmawn
ilmd
ilmdn
ilmed
ilmma
ilmtunn
ilmz
iln
ilnin
ils
ilsan
ilssa
ilt
ilu
ilugan
ilugann
ilugaritm
ilugnn
iluh
ilul
ilula
iluln
ilwan
ilyanuf
ilɛb
ilɣ
ilɣi
ilɣiwen
ilɣiwn
im
ima
imaal
imad
imaddaren
imaddarn
imaddudn
imadliwn
image
imagecaption
images
imagesize
imaginaire
imah
imal
imalas
imalass
imallayn
iman
imann
imaran
imaratn
imarawn
imarinen
imarinin
imariniyn
imariren
imarirn
imarratn
imasa
imasayen
imasayn
imasih
imasiliyn
imasn
imassan
imassanen
imassann
imassn
imattutn
imawaln
imawasen
imawasn
imawayen
imawen
imawin
imawn
imayn
imaynutn
imaynutnin
imazid
imazighen
imazighn
imaziliyn
imaziɣ
imaziɣen
imaziɣiyn
imaziɣn
imaziɣt
imazzaln
imaɣ
imbddadn
imbrat
imcacka
imcayd
imcgigiln
imd
imdann
imdaɣ
imddukal
imddukk
imddukkal
imddukwal
imdi
imdla
imdn
imdyaten
imdyatn
imdyazn
imdɣasn
ime
imeddukal
imeddukkal
imedla
imegdi
imeklawen
imeksawen
imelyunen
imen
imendi
imensi
imeqquren
imeqranen
imermucen
imez
imezdaɣ
imezdaɣen
imezwura
imfd
img
imggayn
imggr
imggura
imglfkkiwn
imgr
imgrad
imgradn
imgurann
imh
imi
imidiwan
imik
imikk
imikr
imil
iminag
iminagn
iming
imink
imintanut
imiqq
imir
imirann
imirn
imis
imiss
imitrikn
imizi
imiɣ
imjjayn
imjr
imjri
imk
imkin
imkinna
imklawn
imkn
imkr
imkrazn
imksawn
iml
imla
imlal
imlala
imlan
imlil
imlulluyn
imlwaɣen
imlyunen
imma
immaculate
immaggar
immal
immala
immalan
immaln
immaqqar
immaqqarn
immas
immateriel
immatti
immattin
immaɣ
immet
immi
immiggir
immim
immimn
immis
immqqurn
immr
immrkks
immrkksn
immrwas
immrwasn
immt
immu
immudda
immuddu
immurzm
immussutn
immut
immuti
immutn
immutti
immutty
immɣayn
imnadn
imnayn
imndi
imnidn
imnnitn
imnsi
imntagn
imnud
imnuda
imnz
imnza
imnzayn
imnɣan
imnɣi
imnɣitn
impe
implications
important
imprimerie
improve
imqqimn
imqqran
imqqrann
imqqur
imqquren
imqqurn
imqrann
imr
imrabd
imrabt
imran
imritln
imrmidn
imrsi
imrza
imrzutn
imrzzutn
ims
imsadaɣn
imsar
imsarn
imsasa
imsasan
imsasatn
imsasfarn
imsawaln
imsazagen
imsiggiln
imsisli
imsislitn
imsiwln
imskarn
imsli
imslican
imslicann
imslid
imslitn
imslmaziɣn
imslmn
imslɛr
imsmigln
imsnilsn
imsnzruyn
imssiwln
imssufaɣ
imssugar
imssuɣln
imstitn
imswan
imswura
imt
imtad
imtiwgen
imtiwgn
imttawn
imud
imuda
imudal
imudar
imuddu
imuddutn
imufrarn
imugas
imugayn
imuh
imuhaɣ
imuidar
imukan
imukrisn
imula
imumnen
imumnn
imun
imunn
imuran
imurar
imurarn
imurig
imuriyn
imurs
imursn
imurwakucin
imuskirn
imuslmn
imusnakn
imusnawn
imussnawn
imussuten
imussutn
imustawn
imuwah
imuz
imuzar
imuzayn
imuzaɣ
imuzzar
imwah
imwwuh
imxxarn
imyagn
imyallan
imyar
imyaren
imz
imzarayn
imzdagh
imzdaɣ
imzdaɣn
imzdi
imzgan
imzgi
imzi
imzirg
imzirgn
imzrawn
imzrayn
imzuren
imzwag
imzwagn
imzwiɣ
imzwura
imzwwra
imzzutn
imɣan
imɣaren
imɣarn
imɣayn
imɣi
imɣnasen
imɣnasn
imɣr
imɣrabin
imɣrabiyn
imɣran
imɣri
imɣribin
imɣribiyn
imɣyan
in
ina
inaddaln
inadn
inafaln
inafllatn
inafuɣn
inagan
inalco
inamun
inamunn
inamurn
inas
inaw
inawn
inaz
inazu
inazuren
inazurn
inaɣan
inaɣritn
inbad
inbbad
inbd
inbdadn
inbgiwn
including
inclus
inclusion
inconnue
increment
incubator
ind
inde
index
india
indiana
indic
indication
indics
indique
indr
indre
induzal
ine
inebbad
ineghmisen
inelmaden
inen
ines
inew
inezgane
ineɣmasen
ineɣmisen
infd
infed
infl
inflas
infln
influence
info
infobox
infokas
information
informations
informatique
informkesto
infotaula
infrayn
infty
infusn
ing
ingabaln
ingara
ingd
inge
inger
ingg
ingi
ingliz
ingliziyn
ingmamn
ingmaren
ingr
ingratsn
ingrawn
inherit
ini
inict
inid
inigi
inimann
inin
inint
initiation
iniɣ
injil
inkan
inkarn
inker
inkliyn
inknafn
inkr
inkraf
inkrn
inline
inlmadn
inmaggar
inmala
inmalan
inmudda
inmuggarn
inmuqqarn
inmuran
inmuzun
inmyarn
inmzrayn
inmzruyn
inmɣun
inmɣur
inmɣurn
inn
inna
innal
innam
innan
innas
innat
innayer
innayr
inni
innovative
innra
innultan
innurz
inor
input
inqqan
inqqr
inqqrn
inr
inra
inran
inrɣin
ins
insayen
insayn
insbaɣurn
inscrite
inse
inset
insi
inside
insimann
insolite
institut
institute
instituut
instructions
insurrection
int
inte
interior
international
internet
intervalle
interwiki
intitule
intramuros
introduction
intrusifs
intrviw
intti
inttl
intugga
intuitif
inu
inuba
inuh
inula
inumak
inumiden
inumidn
inuz
inventer
inw
inwan
inz
inzan
inzggan
inzgi
inzitn
inzzan
inɣ
inɣa
inɣan
inɣdn
inɣmas
inɣmisn
inɣuban
io
ipa
iq
iqan
iqant
iqar
iqarid
iqart
iqawmiyn
iqbaylin
iqbayliyn
iqbiln
iqbrn
iqburen
iqburn
iqdimn
iqn
iqnn
iqnɛn
iqqaman
iqqan
iqqand
iqqar
iqqaridn
iqqazen
iqqbiln
iqqbur
iqqburn
iqqcran
iqqen
iqqenn
iqqes
iqqim
iqqjdr
iqqn
iqqnen
iqqnn
iqqr
iqqrs
iqqur
iqqurn
iqrbn
iqrt
iqsh
iqt
iqut
ir
ira
irabbi
irad
iradikaliyn
irafan
irak
irakaln
iran
irar
irarn
ircam
irden
irdn
ire
irgayn
irgazen
irgazn
irggl
irggs
irgl
irgn
irgzn
irh
iri
irifi
irifiyen
irifiyn
irim
irimen
irimn
irin
irint
irir
irirɣ
iritya
irk
irkan
irkyulujitn
irl
irlanda
irlande
irm
irmawn
irmi
irn
irna
irnan
irnit
irnu
irqqasn
irrigation
iru
iruh
irul
irumaniyn
irumiyn
irummiyn
irur
irura
irwa
irwan
irwas
irwasn
irwel
irwl
irwln
irxa
irxan
irz
irzm
irzzutn
irɣan
irɣel
is
isa
isad
isadurn
isafaren
isafarn
isafen
isaffen
isaffn
isaggn
isagmn
isagurn
isala
isalan
isan
isaqsa
isarmn
isarn
isarutn
isasan
isat
isawal
isawalen
isawaln
isawel
isawl
isawld
isawln
isawwal
isawwaln
isaɛdiyn
isaɣuln
isbbaben
isbbabn
isbdd
isbid
isbidd
isbidn
isblyunawal
isblyuniyn
isbn
isbr
isbrrak
isbuɣla
isd
isddi
isde
isdidn
isdurri
ise
isefrisen
isegg
iseggasen
iseggwasen
isekkilen
isekraf
iselman
isem
isemgan
isemlalen
isen
iseqsa
isers
isett
isfaw
isfayd
isffaɣ
isfka
isflid
isfra
isfrisn
isfɣ
isgadda
isgdan
isgg
isggan
isggann
isggas
isggasen
isggasn
isggizt
isggurad
isggwasn
isgin
isgnafn
isgwasn
isgzawaln
ish
isi
isid
isiggel
isiggil
isiggiln
isiggl
isinagn
isinutlayn
isinyastiyn
isiruw
isisfiwn
isistmn
isitn
isiwan
isk
iskan
iskar
iskaren
iskarn
iskcam
iskcm
isker
iskerkis
iskern
iskiln
iskkilen
iskkiln
iskkin
iskkinn
iskkirn
iskkudn
iskkus
iskla
iskr
iskraf
iskrkisn
iskrn
isktan
isku
iskurn
isla
islam
islamic
islan
islande
islay
islgan
isli
islkamn
islla
isllan
isllwi
islmadn
islman
islulla
ism
isma
ismaln
isman
ismann
ismas
ismawen
ismawn
ismd
ismdya
ismgan
ismglt
ismiln
isml
ismlaln
ismma
ismmigln
ismmz
ismrks
ismrksn
ismun
ismuna
ismunn
ismuqqul
ismuqul
ismurig
ismussu
ismussun
ismɛil
isn
isnal
isnaln
isnamk
isnamkn
isnbad
isndaln
isnfal
isnfaln
isnfarn
isnfiln
isnfl
isnflul
isnfluln
isni
isnifiln
isniln
isnmal
isnmala
isnml
isnnan
isnnann
isntal
isntayn
isnti
isntln
isnubbucn
isnubg
isnuh
isnulfa
isnulfu
isnumkn
isnɣms
isnɣritn
iso
isqqal
isqsa
isqsan
isqsitn
israe
israel
israg
isragn
israil
israyil
isrdas
isrdasn
isrg
isrgn
isrs
isrsn
isrtan
isrtann
iss
issa
issafn
issak
issan
issann
issar
issaran
issarn
issaɣ
issaɣn
issbɣs
issd
issdus
issekni
issen
issfal
issffɣ
issfld
issflid
issgdl
issgman
issh
issi
issid
issifid
issikzn
issin
issinn
issird
issiwid
issiwidn
issiwrri
issiwrrit
issk
issktr
isslkamn
isslkm
isslkmn
isslkn
isslmad
issmras
issmrasn
issmrs
issmɣr
issmɣur
issn
issnfaln
issnkrn
issnn
issnta
issntan
issnti
issntin
issnz
issr
issrsl
issrɣ
issu
issudan
issudu
issue
issufuɣ
issufɣ
issufɣn
issufɣt
issugr
issugzn
issum
issumkn
issuneɣ
issunɣ
issusm
issusmn
issusmt
issusmtnt
issuteln
issutl
issutln
issutr
issutul
issuɣl
ist
ista
istahlla
istaqr
istawhman
istawhmma
istawhmman
istay
istayn
istcin
isti
istin
istis
istit
istma
istuhmman
isu
isufa
isufan
isufn
isufɣ
isugam
isugduyn
isugrn
isul
isulf
isulilen
isuliln
isuln
isumr
isunad
isunfu
isunniyn
isura
isurarn
isusiyn
isutar
isuwwray
isuyas
isuɣdn
iswak
iswan
iswd
iswingim
iswingimn
iswingm
iswirn
iswuri
iswurin
iswurri
iswuruyn
iswuttu
iswwrayn
iswwuri
isxdm
isyafa
isyafatn
isɛdiyn
isɣ
isɣa
isɣann
isɣarn
isɣawsa
isɣawsan
isɣnutn
it
itabɛan
itaci
itahl
itahln
italicum
italie
italy
itanya
itargin
itarwans
itawi
itawsan
itbayyan
itdda
item
items
iten
itenɣ
itfarn
itffi
itfr
itggan
ith
itihal
itilfunn
itin
itini
itkkan
itlmad
itluh
itmma
itmun
itn
itnusru
itran
itrarn
itri
itrra
itrs
itrsn
its
itsen
itsent
itskr
itsn
itsnt
itsutul
itsutuln
itt
itta
ittack
ittacka
ittackan
ittad
ittaf
ittagan
ittaggwa
ittagmn
ittajja
ittajjan
ittak
ittakr
ittales
ittals
ittamz
ittannay
ittara
ittaran
ittarm
ittaru
ittasi
ittasin
ittawi
ittawin
ittaws
ittawsan
ittawsn
ittawssan
ittawssann
ittawyn
ittaylalen
ittaz
ittazal
ittazzal
ittaɣ
ittaɣul
ittbr
ittbuɣlu
ittca
ittct
ittd
ittddr
ittddrn
itteddu
ittelmad
ittemnid
ittenned
ittffi
ittffuɣn
ittga
ittgensas
ittgga
ittggan
itth
ittidras
ittigut
ittiks
ittili
ittilih
ittilin
ittimɣur
ittini
ittinig
ittinin
ittinni
ittiri
ittirin
ittirir
ittirirn
ittiwskar
ittiz
ittkka
ittkkan
ittklfn
ittlmad
ittmattay
ittmaɣ
ittmqqur
ittmtat
ittmuddu
ittmuddun
ittmun
ittmunan
ittmurruy
ittmussu
ittmussun
ittmuttuy
ittmz
ittmɣay
ittmɣin
ittnbad
ittnd
ittnfaln
ittnunnt
ittnunuyn
ittqql
ittqzzaz
ittr
ittrar
ittrz
itts
ittsalan
ittu
ittubd
ittubdarn
ittubna
ittufka
ittufkan
ittug
ittuga
ittugan
ittugma
ittugna
ittuh
ittukcim
ittukllaf
ittuman
ittumd
ittuqɛun
itturar
itturarn
itturd
itturgl
itturnu
itturri
ittus
ittusann
ittusawaln
ittusgaddan
ittusiggzn
ittuskan
ittuskar
ittuskarn
ittuskir
ittuskirn
ittuskrn
ittusmaynun
ittusmras
ittusmrasn
ittusnis
ittusnɣln
ittusrem
ittussan
ittussann
ittusta
ittusun
ittuswttan
ittusɣz
ittut
ittuten
ittutn
ittuxlan
ittuyanna
ittuyassann
ittuybna
ittuymd
ittuynna
ittuysan
ittuysawaln
ittuyskar
ittuyskarn
ittuyssan
ittuyssann
ittuysxdamn
ittuyz
ittuyzdaɣ
ittuyzra
ittuz
ittuzdan
ittuzmmam
ittuɣal
ittwajjen
ittwaklun
ittwassan
ittwassn
ittwassnen
ittwassnn
ittwattasn
ittwazlamn
ittwssann
ittyafa
ittyafan
ittyagaln
ittyagas
ittyagasn
ittyakarn
ittyakkan
ittyamaz
ittyamz
ittyara
ittyaran
ittyaskar
ittyassn
ittyawbna
ittyawh
ittyawkla
ittyawnnan
ittyaws
ittyawskar
ittyawskarn
ittyawssan
ittyawssanen
ittyawssann
ittyawssnmalan
ittyawɛdaln
ittyazmmam
ittyskar
ittyura
ittyuran
ittyurnan
ittyusawaln
ittyuskar
ittyuskarn
ittyussan
ittyussann
ittyuzmmam
ittyuzmmamn
ittyuɛdal
ittyuɣal
ittyuɣra
ittz
ittzdaɣ
ittzdaɣen
ittzdaɣn
ittɣama
ittɣmmamn
itun
itunsiyn
iturkiyn
itussan
ituyssan
itwargiyn
itwassan
itwikifya
itxdamn
ityawssan
itz
itzdaɣ
itɛnayn
iu
iuga
iv
ivan
ivba
ive
ivirgrand
ivoire
iw
iwa
iwakal
iwala
iwalakn
iwalan
iwaliwen
iwaliwn
iwalli
iwankn
iwat
iwckan
iwd
iwdan
iwddjan
iwetta
iwi
iwin
iwindaln
iwis
iwiz
iwizn
iwiɣ
iwl
iwn
iwngimn
iwnnan
iwnnitn
iwqqasen
iwr
iwra
iwrat
iwraɣn
iwriken
iwrri
iwrrid
iws
iwsimn
iwsn
iwssarn
iwsɛa
iwt
iwtta
iwttas
iwttasn
iwunak
iwutta
iwwi
iwwis
ix
ixassa
ixatarn
ixatren
ixatrn
ixccn
ixcnn
ixdm
ixef
ixf
ixfawen
ixfawn
ixfns
ixlan
ixlq
ixlu
ixmr
ixmucen
ixrban
ixs
ixsan
ixsn
ixssa
ixulan
ixwan
iy
iya
iyafutn
iyelli
iyen
iyfu
iyi
iyin
iyn
iyna
iynfuln
iynin
iys
iysan
iysmg
iyt
iyu
iyya
iyyd
iyyi
iyyid
iyyin
iyyirn
iyyn
iyyurn
iz
izag
izakarn
izammarn
izan
izayd
izaykutn
izaɣarn
izd
izda
izdar
izdayen
izdayn
izdaɣ
izddar
izddign
izdeɣ
izdi
izdin
izdɣ
izdɣn
ize
izem
izenz
izenza
izerfan
izga
izgaln
izgan
izgarn
izgg
izggaln
izgzawn
izi
izid
izig
iziker
izikr
izil
izimmer
izimmr
izimr
izlan
izli
izlmd
izm
izmaz
izmmim
iznagn
iznasn
iznassn
iznaɣritn
iznk
iznkad
iznz
iznza
izr
izra
izratrarn
izray
izrayn
izrf
izrfan
izrfann
izri
izrin
izrrin
izrzr
izrzrn
izu
izubdan
izug
izugaz
izugn
izur
izuran
izurn
izuyd
izuydn
izuzwa
izuzzr
izuzzur
izuɣar
izwal
izwan
izwar
izward
izwaren
izwarn
izwer
izwilen
izwiln
izwiɣ
izwl
izwur
izz
izza
izzan
izzd
izzgan
izzgar
izzgarn
izzigiz
izzlmd
izznz
izznza
izzray
izzrayn
izzri
izɛd
izɣran
iɛ
iɛalawiyn
iɛammarn
iɛawd
iɛawn
iɛdawn
iɛdln
iɛerrimen
iɛibriyn
iɛmmr
iɛr
iɛrabn
iɛrrimn
iɛzriyn
iɛzza
iɣ
iɣa
iɣal
iɣaln
iɣama
iɣaman
iɣarasn
iɣatarn
iɣawasn
iɣawsn
iɣayen
iɣban
iɣbula
iɣcetr
iɣd
iɣef
iɣer
iɣerban
iɣerda
iɣerm
iɣersiwen
iɣezzifen
iɣf
iɣfawn
iɣi
iɣil
iɣilasn
iɣin
iɣir
iɣiy
iɣlalen
iɣlaln
iɣli
iɣman
iɣmatn
iɣmisn
iɣnan
iɣr
iɣra
iɣran
iɣrban
iɣrdayn
iɣrem
iɣrfan
iɣriben
iɣritn
iɣrm
iɣrman
iɣrmann
iɣrs
iɣsan
iɣss
iɣtes
iɣts
iɣud
iɣudan
iɣulidn
iɣusen
iɣusn
iɣwi
iɣwra
iɣz
iɣzifen
iɣzifn
iɣzran
iɣzwr
iɣzzafn
iɣzzif
iɣzzifen
iɣzzifn
iʃtta
j
ja
jabal
jack
jackson
jacques
jadda
jadida
jaj
jamaa
jamaika
jamais
jamal
james
jamɛ
janbiyyi
janti
janvier
japan
japon
japun
jar
jargal
jastinyan
jazuli
jazyk
jbala
jbel
jbn
jbril
jddis
jdid
jdida
je
jean
jebel
jemaa
jerada
jesus
jettou
jeune
jeunesse
jeux
jezika
jezikk
jibril
jimhi
jims
jin
jir
jirman
jiti
jjabun
jjanin
jjappun
jjenb
jjim
jjin
jju
jjun
jlal
jlan
jlun
jo
joel
john
jordan
joseph
jour
jourdan
journal
jours
jpeg
jpg
jr
jrada
js
jstor
juba
jubitir
judas
jugurtha
juin
julius
july
jun
june
juniperus
jupiter
jura
jurf
jurjya
jusqu
justice
justify
justinard
jut
juzayy
juzif
jv
jyuvanni
k
ka
kab
kabit
kabyle
kabyles
kabylie
kad
kaddour
kafr
kaguya
kahina
kairouan
kakaci
kalifurnya
kaligula
kamal
kaminand
kamn
kamp
kan
kanad
kanada
kansas
kant
kantin
kapu
kar
kardano
kardyan
karia
karim
karl
kart
kas
kasbah
kasra
katakana
kateb
katn
kawin
kay
kaygat
kaysar
kaz
kazan
kazzu
kb
kbd
kccmn
kcm
kcmat
kcmn
kcmnd
kcmnt
kcmɣ
kebdana
kel
kelaa
kelly
kem
kemmi
kemmin
ken
kenneth
kersit
kest
kevin
key
keyyi
keyyin
kfan
kg
kh
khai
khaldoun
khaldu
khalid
khamed
khe
khouribga
kibanu
kid
kidal
kidsnt
kigan
kigezo
kili
kilimangaru
kilugram
kilumit
kilumitr
king
kingdom
kinus
kinya
kis
kit
kita
kitab
kiwan
kiwin
kiwt
kiyin
kiyyi
kiɣ
kk
kka
kkaf
kkan
kkanin
kkant
kkantt
kkatn
kkatnt
kkin
kkiɣ
kkr
kksn
kkusan
kkuz
kleopatra
klincksieck
klm
klub
klyupatra
km
kmmi
kmmin
kmn
kn
ko
kommons
kongo
koord
korea
kosovo
kossmann
kosta
koutoubia
kpc
kr
kra
krad
kran
krat
kraygat
kraygatt
krc
kridi
krim
kruz
krzn
ks
ksar
ksh
ksima
kt
kti
kttin
ktuber
ktubr
ku
kuba
kubik
kubillu
kud
kudd
kudnna
kul
kulci
kulltn
kullu
kullut
kullutn
kulmma
kulu
kulunya
kumraw
kun
kundun
kunuha
kur
kurara
kurdish
kurdistan
kurdu
kursi
kurukuru
kuruna
kurunafirus
kurunavirus
kusinus
kusta
kustantin
kutama
kutubiya
kuvid
kuyan
kuyat
kuz
kv
kw
kwartik
kwtiɣ
ky
kyiv
kyyin
kzr
l
la
laa
laayoune
labas
label
labud
lac
lad
ladɣa
laf
lafkioui
laflam
laflan
lagouira
laguna
lah
lahbib
lahe
lai
laine
laisser
lakhdar
lakhsas
laksab
lal
lala
lalla
lallas
lalman
lalqab
lam
laman
lamanyu
lameen
lamrani
lan
landalus
lande
landes
landscape
lanfry
lang
langage
lange
langes
langle
langu
language
languageicon
languages
langue
languedoc
langues
lanin
lanka
lann
lannen
lant
lanti
laoust
laquelle
larbi
large
largeur
larose
laryah
las
lasi
laspalmas
lasri
last
laswis
lat
lata
late
latif
latin
latins
latitude
law
lawan
lawh
lawn
lawras
lawrence
laws
laxs
laxsas
lay
laya
layat
layn
layqin
layt
laz
laɛwwad
lb
lba
lbab
lbac
lbaca
lbad
lbahim
lbanju
lbank
lbar
lbaraka
lbarakat
lbari
lbarud
lbat
lbawakir
lbaz
lbenj
lbh
lbhaym
lbidaya
lbit
lbiɛta
lblaka
lbni
lbr
lbrih
lbrj
lbu
lbucwari
lbuh
lbur
lbɛd
lc
ldin
ldiyamt
ldllt
ldots
le
lea
leading
lebh
lectronique
lecture
left
legend
legionnaire
leh
lehna
leiden
leipzig
lejdid
lema
lemdint
leo
leonardo
leq
leqbayel
lerifain
leroux
les
lesestu
lesquelles
less
letter
lettre
lettres
leuh
leur
levant
lexieam
lexilogos
lexique
lexiques
lez
leɛyun
lfakit
lfalur
lfamila
lfayda
lfilm
lfiqh
lfiraj
lfit
lfjuj
lfna
lfuqaha
lfxxar
lgarru
lgaz
lgddam
lgerc
lghrbiya
lgirra
lglawi
lgrga
lgur
lh
lha
lhaj
lhal
lhd
lhddaj
lhe
lhi
lhif
lhit
lhmm
lhmza
lhna
lhnd
lhnna
lhoussine
lhuki
lhul
lhusayn
li
lib
liban
liberte
libertine
librairi
librairie
library
libre
libres
libya
libyan
licence
lid
lidam
lidar
lidaɛa
lie
lien
liens
lieu
life
lig
ligne
ligue
lih
liksus
lillah
lille
lim
limite
limiter
limoges
limousin
limpar
lin
lincom
line
linear
lingliz
lingua
linguistic
linguistics
linguistique
linguistiques
linguo
linin
link
links
lins
linux
lion
lionel
lipitsk
lisa
lislam
list
listas
liste
listen
listiɛmal
listiɛmar
lit
litcin
literary
lithium
litihal
litte
littihal
littlefield
livernaj
living
lixert
lixraj
lixrt
liyin
liyn
liyt
liz
liza
liɛlan
liɣ
ljabr
ljahr
ljamɛ
ljarida
ljazayr
ljdid
ljic
ljiha
ljir
ljnt
lk
lkarim
lkas
lkatri
lkaɛba
lkbir
lkemnt
lkemɣ
lkiɣd
lkkmn
lkmen
lkmn
lkmnt
lknist
lknz
lksida
lkst
lkttan
lkunt
lkuntis
ll
lla
llah
llama
llamigos
llan
llanin
llant
llay
lli
llid
llif
llig
lligh
llin
llinin
llint
llis
llisan
llit
lliɣ
lliɣd
lliɣt
lluz
lm
lma
lmacariɛ
lmad
lmadani
lmadina
lmah
lmakan
lmakla
lmal
lmalak
lmand
lmariniyyin
lmas
lmasih
lmasunya
lmawad
lmazɣi
lmaɣrib
lmcmac
lmcr
lmd
lmdars
lmdina
lmdint
lmdn
lmdrst
lmed
lmendaf
lmeɣrib
lmh
lmidya
lmiksik
lmilad
lmim
lmkh
lmktb
lmlh
lmllah
lmo
lmqddm
lmr
lmrruk
lmrs
lmrsa
lms
lmskin
lmsɛudi
lmt
lmubin
lmud
lmuh
lmukarrama
lmulud
lmunt
lmur
lmus
lmuslsal
lmut
lmutu
lmuxtar
lmxzn
lmz
lmɛarif
lmɛruf
lmɣr
lmɣrib
ln
lo
localization
localize
loeb
logarithm
logiciels
logique
logo
logos
loir
loire
loiret
lonard
lonardo
london
longitude
longmapsto
longue
lorenzo
lorraine
lors
lorsque
los
lost
lot
louis
lounis
louvain
louvre
low
loze
lpark
lpartya
lpnu
lq
lqa
lqad
lqahir
lqarar
lqasim
lqayd
lqbayel
lqbayl
lqblt
lqena
lqhwa
lqir
lqirawan
lqis
lqist
lqliɛa
lqnd
lqq
lqqblt
lqqers
lqqist
lqr
lqrufi
lqs
lqt
lquds
lquran
lqusuni
ls
lsat
lssan
lsymyyy
lt
lu
lua
lubnan
luca
lucius
lud
ludovico
luh
lui
luini
lujniki
luk
luke
luksmburg
lumie
lumineux
lunas
lunast
lund
lundun
lune
lupira
luqt
lur
lus
lut
lutric
lutte
luvakiya
luvr
luzinat
lv
lvatican
lwad
lwah
lwalid
lwalidayn
lwalidin
lwaqiɛ
lward
lwat
lwennas
lwib
lwis
lx
lxarij
lxbib
lxd
lxil
lxir
lxla
lxmis
lxnct
lxr
lxuf
lyaman
lyazid
lynx
lyon
lyre
lyun
lyunardu
lyyu
lyyun
lɛabdari
lɛadad
lɛafit
lɛammt
lɛaqel
lɛaql
lɛaqql
lɛar
lɛarbi
lɛbid
lɛezz
lɛibadat
lɛid
lɛilm
lɛin
lɛiraq
lɛit
lɛiz
lɛizz
lɛjint
lɛlwi
lɛmr
lɛr
lɛrayc
lɛs
lɛsri
lɛutmani
lɛwwad
lɛyun
lɣerb
lɣerd
lɣllat
lɣna
lɣre
lɣumari
m
ma
maarten
mac
maca
macan
macc
maccan
mace
machine
maci
macid
mad
mada
madagascar
madagaskar
madani
madaniyya
madaɣ
madd
madi
madonna
madrid
madɣis
maf
mafaman
magazine
maghre
maghreb
maghress
maghrib
magique
magz
mah
mahir
mahrazi
mai
main
mainardi
maine
maintenance
mais
maison
maisonneuve
mak
maka
makka
makkiya
maks
maksimus
mal
malade
malay
male
malek
mali
malik
malk
mall
mallal
malline
mallow
malt
malta
mam
mamduda
mamenk
mami
mamin
mamk
mammu
mamnk
mamt
mamu
man
manag
manaya
mani
manid
manik
manimk
manin
manitoba
mank
manka
manmk
mann
mano
mans
mansour
mansouria
mansur
manta
manu
manuel
manuscripts
manuscrit
manuscrits
manwa
manwil
manza
map
mapnews
mapnewscovid
mapsto
maqs
mar
mara
marche
marco
maren
marg
margin
mari
mariage
marie
marikan
marin
marina
marine
maritime
maritimes
mark
marko
markt
markunda
marley
marn
marne
maroc
marocain
marocaine
marocaines
marocains
marocco
marokko
marouane
marrakech
marruecos
mars
marsam
marseille
marsh
martil
martin
martyrdom
maryam
maryus
mas
masaesyli
masaysyli
masd
mashttp
masin
masinisa
masinissa
masnsn
masqueray
masra
masrgph
mass
massa
massif
massih
massinisa
massinissa
masst
massylii
mast
master
mat
matalan
math
mathbb
mathbf
mathe
mathematical
mathematicien
mathematics
mathematiques
matie
matikanin
matin
matiques
matn
matta
matto
maure
mauritanie
mawritanya
max
maximale
maximum
maxx
may
maya
mayad
mayadd
mayan
mayd
mayenne
mayram
mays
maysara
maytinin
mayu
mayyu
mazagan
maziɣ
maziɣn
mazoɣ
maɛt
maɣ
maɣa
mbar
mbarek
mbark
mc
mcb
mck
md
mdden
mddn
mddur
mdin
mdni
mdrar
mdu
me
mecia
mecta
med
medden
medecin
media
mediawiki
medici
medieval
medina
medni
mednin
meghighda
meilleure
mekli
mekne
meksiko
mel
melin
mellab
mellal
melloul
members
memoire
men
mena
menace
menara
menck
menguellet
mennaw
mennawt
ment
mentaire
ments
menu
meqar
meqqar
meqqurnin
mer
merchant
mercier
merra
merruk
mers
mes
meskin
mesmunawal
message
met
meta
mettant
mettre
metz
meule
meunie
meyya
mez
meziani
mezzi
mf
mg
mgabalnin
mgaddan
mgal
mggrn
mgild
mgl
mgt
mh
mhnni
mhr
mhz
mi
micc
michael
michel
michelle
michigan
michlanglo
micil
micipsa
mick
micmacs
micna
mid
midar
midden
middle
middn
midelt
miden
midi
midisinilma
midlt
midn
midyawiki
miel
migawat
mikanik
mikiwsn
miksik
miksiku
mil
milan
milano
mile
milieu
militarev
military
mill
miloud
milun
mimoun
mimun
mimuna
min
mine
minerva
minimum
minin
ministe
ministre
ministry
minute
minutes
minya
mirikan
mirkur
mirleft
mirlft
mis
mise
misr
misra
miss
mission
missions
mist
misur
mit
mita
mite
mitilus
mitique
mitiques
mitr
mitru
miwin
miyya
miz
mjjawi
mk
mka
mkan
mkann
mkka
mkli
mklli
mknas
mknna
ml
mla
mlad
mlan
mlant
mlih
mlin
mllal
mllul
mln
mlyar
mlyun
mlɣ
mm
mma
mmad
mmadya
mmaggaren
mmalan
mmalant
mmaln
mmalnt
mman
mmant
mmar
mmart
mmatin
mmay
mmayen
mmayn
mmaɣen
mmaɣn
mmaɣnin
mmd
mme
mmed
mmgdanin
mmi
mmid
mmimnin
mmir
mmis
mmit
mmmsmd
mmr
mmrksnin
mmrn
mmrwasn
mmrwasnt
mmrwin
mmsm
mmtn
mmu
mmuri
mmuten
mmuteɣ
mmutn
mmutnin
mmutɣ
mmuz
mn
mnara
mnaw
mnck
mnid
mnin
mnnaw
mnnawt
mns
mnt
mnɣiwt
mo
mobilesearch
mobility
mod
mode
model
modello
modelo
modern
moderne
modernes
modification
modifie
modifier
module
modules
mogador
mogen
moha
mohamd
mohamed
mohamedou
mohamme
mohammed
mohand
mohmed
moi
moire
moires
mois
mon
mona
monde
mondeberbere
mondial
mondiale
monobook
monroy
monsters
montagne
montana
monte
montpellier
montre
more
moro
moroccan
morocco
moroccomarrakech
morphologie
mort
morvan
mosaic
mosaico
moschee
moskva
mosque
most
mot
moteur
mother
mots
motylinski
moulay
moulie
moulin
mouloud
mouloudia
mountains
mountassir
mourigh
moussa
mouvement
movie
moyen
mqar
mqart
mqqar
mqqur
mqquren
mqqurn
mqqurnin
mr
mra
mraw
mrawt
mrebbi
mrh
mrin
mrirda
mririda
mrirt
mrn
mrnic
mrrakc
mrruk
mrt
mrwan
mrwasn
mrwasnin
mrɣad
ms
msasan
msgina
msidi
mskin
msmun
mt
mtir
mu
muc
mud
mudel
mudell
mudi
mudn
mugadir
mugadur
muh
muha
muhammad
muhammd
muhammed
muhmmad
muka
mul
mulana
mulay
multiples
mulud
muluya
mummu
mummy
mumn
mun
munaku
munat
munatas
mund
munen
municipalite
munin
munn
munnin
munnt
munt
muqaddima
mur
murakuc
murit
muritanya
murran
murrukc
mus
musa
museum
music
musicien
musique
musku
muslim
muss
mussu
must
mustapha
mustawi
muster
musulman
musulmane
muxtar
mw
mwl
my
myallanin
myarn
mythe
myunix
myya
mz
mzab
mzal
mzarayent
mzarayn
mzaraynin
mzn
mzwar
mzyan
mzzin
mzɣ
mɛ
mɛa
mɛemmri
mɛmmri
mɣ
mɣur
n
na
nabije
nabulyu
nad
nadia
nador
nadur
nadya
naf
nafi
nag
naga
nagement
nagg
nagn
nagt
nah
nai
nait
najah
najib
najm
nak
nakka
name
named
namespace
namibiya
namir
namo
nan
nancy
nansi
nantes
nap
napir
napoli
naqqra
naqs
nar
nara
naravas
nas
nasa
nasir
nasn
nasr
nat
natale
nationaal
national
nationale
nations
native
natives
nato
natural
nature
naturel
naturelles
nauru
naval
nave
navigation
nawi
naws
nayt
nba
nbd
nbder
nbdr
nbi
ncca
ncrk
nctta
nd
nda
ndar
ndda
nddih
nddr
nddu
nder
ndhir
ndru
nds
nduy
ne
near
nebd
nederlands
neffuɣ
nefk
nefl
neg
nega
negatif
neggiz
negh
neh
neige
nek
nekcem
nekchem
nekka
nekki
nekkin
nelkem
nem
nemachiyo
nement
nenna
nenni
neo
neobjavljen
nergie
nes
nesen
nesn
nessa
nessin
net
netta
nettafa
nettan
nettat
nettentin
nettini
nettlɛab
nettmnid
nettni
nettu
neucha
new
news
newton
nez
nezri
neɣ
nfel
nfk
nfka
ng
nga
ngaran
nger
ngli
ngr
ngrasn
nh
nhaja
nhe
nhu
ni
nibtun
nibun
nican
nice
nico
nicolas
nid
nie
niet
nietzsche
nifra
nig
nige
niger
nij
nijer
nijir
nik
nikki
nil
nili
nin
nini
niri
nisan
nisin
nit
nitni
niveau
niw
niwi
niws
niya
niyu
niz
niɣ
niɣd
niɣt
njar
njit
nk
nkad
nkcem
nkcm
nkd
nkk
nkki
nkkin
nkkni
nkkrn
nkkur
nkrn
nksud
nl
nlkm
nlla
nlmd
nm
nmaggarn
nml
nmmal
nmun
nn
nna
nnabha
nnabi
nnad
nnag
nnan
nnant
nnaqus
nnat
nnawah
nnawt
nnayr
nnaɣ
nnbi
nnd
nne
nnegh
nnek
nnem
nnes
nnesen
nneɣ
nnfi
nngliz
nni
nnid
nnig
nnigh
nnih
nnijr
nnil
nnin
nnizwir
nniɣ
nnk
nnm
nnqqrt
nnqrt
nnru
nns
nnsen
nnsent
nnsn
nnsnt
nnss
nnst
nnun
nnur
nnɣ
no
noard
noble
nobr
node
nodyn
noeditsection
noinclude
noir
nom
nomades
nombre
nomme
noms
non
none
nord
normal
normalement
normandie
norme
north
northern
norve
nos
not
notamment
notation
notations
notcategory
note
notes
notez
notice
notoc
notre
nous
nouveau
nouveaux
nouvelle
nouvelles
november
novembre
now
nowrap
nqid
nqq
nqqr
nra
nrar
ns
nsa
nsame
nsamh
nsan
nsant
nsawal
nsawl
nsawwal
nsen
nsent
nsiggil
nsiggl
nskr
nsmun
nsn
nsnfali
nsnfl
nsnir
nsnt
nsour
nsrs
nss
nssaɣ
nssen
nssid
nssimɣur
nssin
nsskti
nssld
nsslkm
nssn
nssudr
nssufɣd
nssugt
nsul
nswurri
nswwray
nt
ntadda
ntafa
ntam
ntama
ntan
ntara
ntat
ntgga
nth
ntini
ntjja
ntmallayt
ntmazirt
ntn
ntsbbabt
ntta
nttafa
nttals
nttan
nttannay
nttara
nttasi
nttat
nttd
nttelɛab
nttini
nttiri
nttiz
nttni
nttnin
nttnti
nttslla
nttu
ntuzzumt
nu
nucka
nucleus
nud
nuevo
nufa
nufi
nugga
nuit
nukz
nul
number
nume
numeracio
numerals
numerar
numides
numidia
numidie
numidya
nun
nupidya
nur
nurddin
nurri
nusi
nutni
nuwambir
nuwanbir
nuz
nwanbir
nwas
nwwan
nwwur
nymph
nyu
nyut
nyutun
nz
nzant
nzd
nze
nziggiz
nzrib
nzwur
nzzan
nzzd
nɛd
nɣ
nɣal
nɣan
nɣawl
nɣd
nɣdd
nɣin
nɣiy
nɣr
nɣwi
o
oasis
objet
obligatoire
obligatoires
observed
obtenue
oc
occident
occidental
occupe
oce
oclc
october
octobre
odes
odin
of
ofella
offerts
official
officiel
officiellement
og
ogg
oggion
ographie
ois
oise
oiseau
ol
old
ologie
ologismes
olympique
om
omar
ombrage
ombres
ome
omnia
omorphologie
on
oncle
one
online
only
onn
onset
onssa
ontario
ontologie
oosten
ooui
opcio
ope
open
opera
opold
optionnel
optionnels
oq
or
oran
ordenadas
order
ordermethod
ordinateur
ordinatrice
ordonnateur
ordre
ore
oren
org
organisation
orge
orgie
orient
oriental
orientale
orientales
orientalistes
orientation
origin
original
origine
origines
orion
orle
orne
orologie
orphan
orthography
os
osorkon
other
othmane
ou
ouardigha
ouarzazate
oublier
oued
ouest
ouezzane
oufella
oujda
oulad
ould
oum
oumar
oumguil
ounissi
oussaih
out
outanane
ouvrage
ouvrages
over
overrightarrow
oxford
oxyntas
oznaka
p
pa
pacification
padding
padron
page
pages
pagina
pain
paire
pakistan
palace
palais
pale
palmier
pam
panama
panorama
panoramio
panoramique
paolo
pape
paptri
par
para
paragraphe
paraguay
parame
parc
parcours
parent
parents
parigi
paris
park
parle
parler
parlers
parmi
part
partements
particolare
particulie
particulier
partie
partir
pas
pascon
passage
passer
patrick
patrimoine
patro
patrom
patron
patrono
paul
paulette
pavya
pays
paysage
pb
pdf
pdflink
pe
peace
peeters
penchoen
people
per
percussion
percy
period
periodic
permanents
permet
permis
pernet
perspective
peru
perugino
perwer
pete
peter
petit
petite
peuple
peuples
peut
peuvent
phe
philosophie
philosophy
phoenicea
phoenicia
phone
phonetic
phonological
phonologie
phonology
photos
php
phys
physicien
physics
physique
pi
pib
picardie
pie
pied
piero
pierre
pint
pis
pitaguras
pixels
pjd
pl
place
placer
plaine
plainlist
plant
plante
plantes
planti
plantilla
plantilya
platini
playing
plin
pliny
plotarea
plotdata
pluriel
plurielle
plus
plusieurs
pmc
pmid
pnas
pnb
png
podeur
poe
point
points
poitou
poke
pola
politique
politiques
polynome
pompay
pona
ponte
pope
populaire
population
populations
poque
por
port
porta
portada
portail
portails
portal
portale
portalen
portals
porte
porteuse
portrait
portugaise
portugal
position
possible
post
poste
pouchkine
pour
pousse
pouvez
pouvoir
power
pp
ppe
pr
prantilla
prasse
pratique
pre
prec
precision
predefinic
predloga
predloz
preferencias
prefsection
premie
premier
premiers
prenoms
president
presque
press
presse
prince
principe
printemps
prise
prison
prix
pro
probabilite
proble
proceedings
proche
prod
production
produit
progetti
programmable
programmation
programme
project
projects
projet
proportions
propos
propose
proposition
propositions
prote
protecteur
protection
proto
provence
province
provinces
prt
ps
psv
pt
ptole
ptr
publ
publg
publication
publications
publie
publique
published
publishers
puissance
puissant
pulandya
pullus
pulunya
punique
puscule
px
pxlink
pyre
q
qa
qad
qadiman
qalaa
qantara
qar
qart
qat
qayrawan
qayser
qbel
qbl
qnit
qq
qqah
qqarn
qqazn
qqimen
qqimn
qqimnin
qqinn
qqizi
qqizn
qqizt
qqn
qqnn
qr
qrt
qs
qsar
qsent
qu
quad
qualite
quatre
que
quelconque
quelle
quelques
quemado
query
question
qui
quiet
quipe
quitout
quivalent
qur
quran
qurayc
qurnin
qust
r
ra
rab
rabat
rabiɛa
rables
rabn
rabt
rachafatcinema
rachid
racid
racine
racines
rad
radd
radio
radius
radyu
raf
rag
rah
rahu
rai
rainer
raison
raja
rajan
ral
ramdane
ran
rand
rangle
ranin
rant
rapport
rar
raren
rarn
ras
rast
rasul
rasulu
rat
ratar
ration
rations
ratt
rature
ratures
rault
rawi
ray
rayn
rayon
rayons
rays
rban
rbat
rbbi
rbh
rbi
rbia
rbil
rc
rchen
rd
rdin
re
really
reanalysis
rebbi
rebels
rebha
recensement
recherche
recommande
reconstructed
rectangle
recueil
recueillis
red
redir
reel
ref
reference
reflexes
regard
region
regions
regrouper
reid
reims
reine
relatif
relief
religion
religions
rem
rement
remplace
remplacer
ren
renaissance
renard
rence
rences
rencontre
rend
rendering
rendre
rendu
rendus
rene
rennes
rent
renvoit
reparto
repeat
report
repre
repu
republic
republika
republyk
request
rer
res
resim
respecter
respectives
responsive
reste
results
retour
retourne
retrieved
revendication
review
revolution
revue
rex
rexa
reykjavik
rez
rf
rfanin
rfi
rg
rgan
rgba
rgin
rgph
rgphentableaux
rh
rhin
rho
ri
riadi
riales
ribab
riblz
ric
ricaine
richey
rid
ridouane
rie
riel
rien
rienne
rieures
rif
rifain
righ
right
rightarrow
rigin
rigt
rih
rika
rin
rini
rinides
riodique
rique
riques
rir
ris
risk
risn
ristiques
rit
rite
river
rivie
riyn
riyt
riz
riɣ
rja
rk
rkan
rm
rman
rmd
rmy
rn
rnan
rnu
rnun
ro
roa
robert
rocher
roi
roller
roma
romain
romaine
romains
roman
rome
ronald
ronautique
rooster
ros
rouen
rouergue
rouge
rougon
rouicha
roumanie
roussillon
routes
routledge
roux
rowman
royal
royaume
royuwaay
rqiya
rqqiyya
rqyya
rr
rra
rracidiya
rracidya
rradyu
rragn
rrah
rram
rramn
rramt
rran
rras
rrasm
rrays
rraysa
rrbad
rrbat
rrbiɛ
rrecwa
rrh
rribab
rric
rrif
rrih
rrus
rrways
rsa
rsan
rt
rtim
ru
rubirt
rubut
rucd
ruche
rudant
rue
ruft
rugby
ruh
ruined
rules
ruma
run
runant
runi
running
rupture
rur
rural
rurale
ruray
ruren
rurn
rusla
russia
russie
rusya
ruy
ruyn
rwa
rwah
rwal
rwalt
rwan
rwasn
rways
rwica
rwln
rwlɣ
rwwint
ryal
ryðja
rz
rze
rzmɣ
rzun
rɣ
s
sa
sab
sable
sablon
sabn
sacramnt
sacristy
sad
saddn
saden
sadi
sadik
sadn
sadqi
safi
saguenay
sah
sahara
saharan
sahel
sai
said
saint
saison
sakia
sakra
saksa
salah
salai
salan
salant
salaɣ
sale
salem
salih
salim
salm
salmon
salvador
sam
same
samh
sami
samraw
san
sand
sang
sans
sant
santa
sante
santimitr
sapiens
sar
sarasa
sarkozy
sars
sarthe
sas
saskatchewan
saski
sassetti
saswa
sat
satn
satnt
saturn
sauf
saute
sauter
savoie
savoir
sawal
sawaln
sawalnin
sawalnt
sawel
sawelgh
sawl
sawld
sawln
sawlnt
sawwaln
saydna
sayn
sayni
saz
saɛd
saɛid
saɣru
sbanya
sbddn
sbid
sbiddn
sbinsr
sblyun
sbta
sbu
sburtif
sbzzizn
sbzziznt
sc
scalemajor
schablon
schabloun
sche
schilh
schilhischen
schluh
schulu
schwa
schwarz
sci
science
sciences
scientia
scientifique
scientifiques
scn
sco
screen
scribd
script
scripts
sculpteurs
sculptor
sculpture
sculptures
sd
sdurriyen
se
sea
search
seasons
seau
seccio
second
seconde
secondes
secret
section
sections
see
sefru
seg
segangan
segment
sein
seine
sekren
sela
selene
sellaɣ
semara
semmus
sen
sence
seneca
senegal
sengaranagh
senhaja
sens
sent
sentant
sentation
sentences
senter
sept
september
septentrionale
septime
ser
sera
sergh
series
sers
sert
serve
service
ses
seslem
set
settat
seul
seule
seulement
seventh
sextus
sexual
sfaska
sfiyycn
sforza
sfru
sfuglan
sfuglun
sfumato
sg
sgaddan
sgaddiy
sgan
sgis
sgisn
sgitsen
sgitsnt
sgluliynt
sgsm
sh
sha
shablono
shadow
shakespeare
shaking
sheshonq
shi
shilha
shillah
shiwikipedia
shluoch
short
show
showing
si
siculus
sid
sida
sidi
sie
sierra
sies
sifaks
sifaw
siggiln
siggl
signe
signification
signifie
signoria
sigsnt
sih
sijilmassa
sikavno
sil
silini
sillon
sim
simboli
simitik
simple
simraw
sin
sina
sinay
sini
sinigal
sinima
sinn
sint
sintal
sinus
sirbya
siridat
sirta
sirwa
sis
sisen
sisn
sisnt
sistance
sister
sit
site
sites
siti
situ
situe
sityus
siwa
siwrrin
six
size
siɣ
sjabloon
sk
skabelon
skantlyn
skar
skaren
skarn
skarnt
skcmn
skern
skernt
skerɣ
ski
skin
skkiwsn
skr
skren
skrn
skrnt
skrɣ
sksu
skubbrn
skwilat
sl
sla
slah
slahi
slam
slane
slawan
slawann
slawant
slawantt
sleeping
slgn
slike
sliman
slimane
slint
sliɣ
slkmn
sllan
sllaɣ
slmn
sm
sma
small
smanen
smass
smaɛil
smd
smdn
smdnt
smer
smersen
smimu
smlal
smman
smmus
smmust
sms
smunan
smunaɣ
smunn
smurign
smus
smzazal
smzl
sn
snat
sned
snfln
snið
snmalan
snous
snow
snrt
snt
snuh
snulfun
snus
so
social
sociale
sociales
socie
society
socio
socioculturelles
sociolinguistique
sociologie
soit
sol
solaire
solar
solid
solidaire
solo
solution
somme
sommet
son
sonja
sons
sont
sort
souab
souag
souhaite
souifi
souk
souls
soummam
source
sourceid
sources
sous
souss
south
southern
souvent
soviet
space
spanish
spanya
spartel
spe
special
spinosa
sport
sportif
sports
sppanya
spra
springer
sprog
sq
sqrt
square
sr
srayr
sraɣna
sres
srgb
sri
srs
srsn
srsnin
srsnt
srusn
ss
ssa
ssabt
ssah
ssak
ssan
ssaɛdi
ssaɛdiyyin
ssaɛudiyya
ssaɣ
ssaɣen
ssaɣn
ssbab
ssebt
ssekkar
sserbis
ssfaln
ssfldn
ssgmun
ssgrfɣ
ssi
ssibab
ssid
ssida
ssif
ssimɣuren
ssin
ssinima
ssinɣ
ssiɛr
ssjrt
sskar
sskkar
sskr
sslah
sslam
sslayn
sslkmn
sslmadn
sslsn
sslt
ssmara
ssmrasn
ssmrs
ssmrsn
ssn
ssnfl
ssnin
ssnkrn
ssnn
ssntan
ssntin
ssntint
ssnulfu
ssnunt
ssnwan
ssnwant
ssnɣ
ssrɣan
ssudan
ssudrn
ssufuɣ
ssufuɣn
ssufɣn
ssun
ssuq
ssur
ssurh
ssurrin
ssusi
ssutln
ssutlnt
ssutrn
ssɣlin
ssɣruccn
st
sta
stade
stampa
stan
standard
standing
stands
stanford
staqrn
star
start
state
states
statistieken
statistiques
stawhmmanin
ste
step
steps
sti
still
stin
stipe
stirling
stone
stop
story
stq
strabu
strasbourg
stream
street
stricker
stroomer
structure
stt
sttan
sttat
sttin
studi
studies
study
studyuwat
stumme
style
styles
su
sub
sublime
subtemplates
sud
sudan
sue
suffit
suis
suisse
suivant
suivante
suivre
sul
sulla
suln
sultans
sultat
sum
sume
sumer
sumr
sun
sup
superficie
superior
supple
support
suppresserrors
suppression
supprime
suq
sur
surf
surface
surprised
survey
surya
sus
susa
suss
suzan
suɣ
sv
svg
sw
swa
swab
swahili
swid
swingem
swingmn
swis
swisra
swurin
swurinin
swuriɣ
swurrin
swuruyn
sxdamn
sxddmn
syafan
syat
syllables
symbol
symbole
syntaks
syntax
syntaxe
syntaxique
syphax
syste
system
systems
sz
szablon
szl
sɛid
sɣ
sɣruccn
sɣur
sɣuyyun
t
ta
taa
taal
taba
tabadut
tabarka
tabaɛmr
tabaɛmrant
tabbayt
tabdirt
tabiblyugr
tabiblyugrafit
tabldit
table
tableau
tableaux
tabletas
tabr
tabrat
tabratt
tabrnacl
tabrtqizt
tabrtqqizt
tabrza
tabuniqt
tabunt
tabzbizt
tabɣa
tacawit
tacelh
tacfin
tachelh
tachelhit
tachelhite
tachelhiyt
tachfin
tacinwit
tackan
taclh
taclhiyt
tacmlalt
tacnwit
tacutcu
tad
tadabut
tadala
tadallit
tadamsa
tadamumt
tadawsa
tadawt
tadbirt
taddagin
taddagt
taddangiwin
taddart
taddgt
taddjart
taddminin
taddut
tadduyt
tade
tadfrt
tadgg
tadimugrafit
tadimuqr
tadla
tadlist
tadllist
tadlsa
tadlsant
tadmsa
tadmsant
tadrart
tadrawt
tadrfit
tadrfitn
tadslant
tadukli
taduli
tadunt
tadusant
tadusi
tadzayrit
taf
tafada
tafalkayt
tafaln
tafan
tafasit
tafaska
tafat
tafawwut
tafegga
taffa
taffnsut
tafforeau
taffugla
tafgga
tafggant
tafidiralitn
tafilalet
tafilalt
tafim
tafirt
tafiyyuct
tafizikt
tafkka
tafllah
taflsaft
taflst
taflsuft
taflwit
tafr
tafrans
tafransist
tafransit
tafraout
tafrart
tafrawt
tafrikt
tafriqt
tafrist
tafrka
tafrrah
tafrusyawit
tafruxt
tafsut
taft
taftist
tafugla
tafukt
tafullust
tafult
tafunast
tafuyt
tafuɣalt
tafuɣla
tafyyuct
tag
tagadda
tagadirt
tagafayt
tagamant
taganin
tagant
tagara
tagargrnt
tagat
tagd
tagda
tagdiwin
tagduda
tagdudant
tagenda
tagerst
tagg
taggayin
taggayt
taggazt
taggug
taggugt
taggurt
taggut
tagitart
tagizult
tagjdant
taglayt
taglda
tagldant
tagldit
tagldunt
taglizt
taglla
tagllatt
tagllidt
tagmamt
tagmart
tagmat
tagmert
tagmmayt
tagmrt
tagmud
tagnawit
tagnsant
tagrawla
tagrawlla
tagrawt
tagraɣlant
tagrikt
tagrst
tagrumma
tagruppit
tagrzamt
tagrɣlant
tagtiz
tagud
tagudi
tagur
tagura
taguri
tagurt
tagut
tagwa
tagwancit
tagwanciyt
tagwi
tagwmrt
tagwntaft
tagzirt
tagzzumt
tah
tahaggart
tahar
tahl
tahla
tahln
tahra
tahramt
tahrt
tahruyt
tahrwit
tahuland
tahulandit
tai
taient
tail
taille
tailles
taine
tait
taiwan
tajanat
tajapunit
tajddigt
tajelt
tajirsit
tajja
tajjt
tajmilt
tajr
tajumma
tak
takadimit
takadimiyt
takar
takard
takat
takatin
takatulikt
takccud
takelma
takeswatt
takfarinas
takimit
takka
taklasikt
taklut
taknarit
takniwt
takr
takrih
takrura
takrurant
takrza
takuct
takunfidiralit
takurayt
takurbiyt
takurdit
takurmanjit
takurt
takuyasst
takuyast
takwanit
tal
tala
talalit
talalmanit
talat
talati
talatinit
talatint
talb
talbitin
talbnsirt
talburjt
taleb
tales
talgamt
talggut
talgit
talh
talib
talibit
talikt
taliktr
talimant
taliwin
talk
talkmamat
talla
tallasin
tallast
tallat
tallaɣt
talli
tallit
talluht
tallunt
talmanit
talon
tals
talsint
talsn
taltmsn
talugaritm
taluluct
taluzet
taluzit
talxatmt
talyan
talɣa
talɣat
talɣatin
talɣiwin
tam
tama
tamaccut
tamad
tamaddast
tamaddudt
tamagit
tamagt
tamagutt
tamahaq
tamajaq
tamakt
tamallayt
tamallaytad
tamalt
tamamkt
taman
tamanar
tamanaret
tamanart
tamanaɣt
tamara
tamart
tamasayt
tamashek
tamasheq
tamasih
tamassant
tamatart
tamatayt
tamattayt
tamattut
tamattuyt
tamatult
tamawast
tamawayt
tamawit
tamawt
tamaynut
tamayuft
tamaz
tamazart
tamazgha
tamazi
tamazight
tamazighte
tamazir
tamazirt
tamaziɣin
tamaziɣt
tamazrayt
tamazunt
tamazɣa
tamaɛcur
tamaɣt
tambrat
tamda
tamdayt
tamdda
tamddurt
tamdint
tamdintad
tamdrawt
tamdult
tamdyazt
tame
tameddurt
tamellalt
tameqrant
tames
tamettu
tamezwarut
tamggarut
tamghra
tamgudt
tamgurant
tamguri
tamhawcant
tamhazt
tamhla
tamhlt
tamikanikt
tamimt
tamirandit
tamirikanit
tamis
tamiwant
tamiz
tamkta
tamlalt
tamlh
tamlilt
tamllalt
tamllayt
tamlmadt
tammallayt
tammara
tammayt
tamment
tammnt
tammurɣi
tamnad
tamnart
tamnat
tamnbad
tamnkda
tamnt
tamntilt
tamntit
tamnukda
tamnzut
tamqqrant
tamqrant
tamr
tamrarut
tamraɣt
tamri
tamrikt
tamriɣt
tamrrukiyt
tams
tamsalt
tamsart
tamsasfart
tamsdagt
tamsddurruyt
tamsilɣt
tamsksalt
tamsmunt
tamsna
tamsrrh
tamssagurt
tamssudut
tamssugurt
tamssurt
tamsswit
tamsuddst
tamsult
tamt
tamtta
tamttant
tamtti
tamttit
tamu
tamucct
tamud
tamuda
tamudemt
tamudmt
tamukrist
tamuni
tamunt
tamurt
tamurwakucit
tamurɣi
tamuslmt
tamusnakt
tamussant
tamust
tamuttrt
tamuwah
tamuz
tamyadast
tamyiwnt
tamyurt
tamz
tamzarayt
tamzazt
tamzgunt
tamzrayt
tamzruyt
tamzwarut
tamzɣa
tamɛmmrit
tamɣart
tamɣnast
tamɣra
tamɣrabit
tamɣribit
tamɣribiyt
tan
tanafgant
tanafllant
tanafllat
tanafut
tanalt
tanammast
tanamunt
tanamurt
tanan
tanawayt
tanaz
tanaɣa
tanbad
tanbat
tanbbad
tand
tandalusit
tandra
taneggift
tanfalit
tanfgant
tanflayt
tanflit
tanflust
tanfransist
tanfrut
tanfusit
tanfust
tanga
tangalt
tangaltimun
tanger
tanggarut
tanggift
tangiwin
tanglizit
tanglizt
tangmud
tanie
tanila
tanimant
tanirin
tanirlandit
tanirt
tanja
tanmmirt
tanmyz
tanna
tannayin
tannayt
tannayyin
tannirt
tanqqid
tanqqit
tans
tansa
tansbaɣurt
tansift
tant
tantala
tantalant
tantalayin
tantalayt
tantaliwin
tantlayin
tantlayintamzarayt
tantliwin
tanur
tanut
tanwalt
tanyaft
tanz
tanzbayt
tanzeggant
tanzggit
tanzruft
tanzzarfut
tanɣa
tanɣmast
taounate
taourirt
tappeto
tapulandit
taqbaylit
taqbilt
taqburt
taqdimt
taqjdawt
taqqa
taqqar
taqqayin
taqqayt
taqqbilit
taqqbilt
taqqbur
taqqburt
taqqnid
taqqur
taqqurt
taqr
taqs
taqssist
taqubbanit
taqubt
taqut
tar
tara
tarabbut
tarabot
tarabut
taradikalit
tarakal
tarakalt
taramayt
taran
tarat
tarayt
tarbaɛt
tarbiɛt
tardasin
tarfrdisin
targa
targadda
targalt
targant
targist
taridirt
tarif
tarifit
tarifiyt
tarigt
tarik
tarikt
tariq
tarix
tarkyulujit
tarmi
tarminit
tarmit
tarmiwin
tarn
tarnnawt
taroudant
tarragt
tartaglia
tartart
tartit
taru
taruct
tarudant
tarumit
tarumiyt
tarusit
tarusiyt
tarwa
tarwans
tarwas
tarwayt
tarwuri
taryast
tas
tasa
tasaft
tasafut
tasamiyt
tasargalt
tasartut
tasarut
tasasfrt
tasatmt
tasawrt
tasawt
tasbbabt
tasblyunit
tasd
tasdawit
tasddast
tasddawit
tasdlist
tasdugmt
taseddast
tasengama
tasenselkimt
tasentrit
tasertant
tasertit
taserɣint
tasffift
tasfift
tasfrist
tasga
tasgawant
tasgdant
tasggant
tasgiwin
tasgnaft
tashelhiyt
tashlhiyt
tasi
tasid
tasiggzt
tasila
tasilant
tasimalt
tasimant
tasinakt
tasinimatuɣrafit
tasirbit
tasit
tasiwit
task
taskflt
taskiwin
taskkurt
taskla
tasklant
tasklut
tasknit
taskra
tasld
taslit
taslmadt
taslt
tasmayyunt
tasmirit
tasmkta
tasmlalt
tasmunt
tasmɣur
tasmɣurt
tasna
tasnaddagt
tasnadrt
tasnaggurt
tasnakalt
tasnalɣa
tasnamd
tasnametti
tasnamkt
tasnamunt
tasnaz
tasnbd
tasnd
tasndit
tasngama
tasnijjit
tasniwin
tasnmd
tasnmslit
tasnmɣayt
tasnniɣt
tasnudert
tasnudrt
tasnurayt
tasosiologt
tasragt
tasrdast
tasrdunt
tasrtant
tasrtit
tasrɣint
tass
tassadit
tassasin
tassast
tassaɛin
tassaɛt
tassfift
tassgnit
tassmi
tassukt
tassurt
tasugert
tasukt
tasulant
tasult
tasurart
tasus
tasusit
tasusiyt
tasusyulujit
tasut
tasuta
tasutin
tasutlt
taswingmt
taswingt
taszrft
tasɣart
tasɣlt
tasɣnt
tasɣunt
tat
tata
tatalyanit
tatgart
tath
tatiknit
tatirmudinamikt
tatoeba
tatrart
tats
tatsrrt
tattayt
tattuy
tattuyt
tatunsit
tatunsiyt
tatwargit
tatyana
tawada
tawal
tawala
tawalt
tawaltt
tawankt
tawargit
tawckint
tawd
tawda
tawes
tawessart
tawest
tawfkiwin
tawi
tawid
tawikit
tawila
tawilant
tawilayt
tawinst
tawit
tawiza
tawja
tawjiwin
tawjja
tawjjut
tawla
tawlaft
tawlkt
tawllammt
tawmasih
tawnat
tawngimt
tawnnad
tawraɣt
tawrglat
tawri
tawrirt
tawruft
taws
tawsit
tawsna
tawssan
tawssart
tawssna
tawssniwin
tawst
tawt
tawtmant
tawtmt
tawuri
tawwargit
tawwri
tawwukt
tawwuri
tawz
tawzizt
taxatart
taxsayt
tayafut
tayd
tayda
tayddict
taydrt
tayfst
tayib
tayl
taylalin
taylalt
taylalut
taylor
tayma
taymmat
taymunt
taynit
tayniwt
tayri
tayrza
taysi
tayssa
tayssi
tayuga
tayyad
tayyawt
tayyizt
tayyniwt
tayyuamukris
tayyuga
taz
taza
tazagurt
tazanin
tazart
tazaykut
tazbayt
tazd
tazdawant
tazdayt
tazddagt
tazdiwin
tazduyt
tazduzt
tazdwit
tazeggwaɣt
tazeroualt
tazerwalt
tazgawt
tazgg
tazggaɣt
tazgmmut
tazgmut
tazgrart
tazgzawt
tazgzut
tazi
tazit
tazla
tazllumt
tazlmzat
tazlɣa
tazmammart
tazmart
tazmilt
tazmrt
taznagt
taznatit
taznaxt
tazrart
tazratrart
tazrawt
tazrfant
tazrut
tazrwat
tazuni
tazuri
tazwart
tazwawt
tazwdit
tazwiri
tazzal
tazzanin
tazzant
tazzel
tazzela
tazzit
tazzla
tazzulant
tazzulin
tazzult
tazzwit
taɛas
taɛibrit
taɛr
taɛrabt
taɛutmanit
taɣ
taɣadant
taɣaldt
taɣamt
taɣamut
taɣara
taɣarast
taɣarimt
taɣarin
taɣarst
taɣart
taɣawsa
taɣazut
taɣbalut
taɣd
taɣdimsit
taɣdimst
taɣiwant
taɣjijt
taɣlalt
taɣlaɣalt
taɣlft
taɣmert
taɣnja
taɣnnant
taɣrdayt
taɣrfant
taɣrma
taɣrmant
taɣtast
taɣtst
taɣufi
taɣul
taɣulin
taɣumarit
taɣuri
taɣuyyit
taɣwalt
taɣweznt
taɣyyult
taɣz
taɣzi
taɣzut
taɣzzaft
tbadut
tbadutin
tbayn
tbayyan
tbayɛt
tbbaqqi
tbbi
tbbin
tbbit
tbd
tbda
tbdd
tbdr
tberteqqizt
tbh
tbidd
tbody
tbr
tbrat
tbratin
tbridt
tbrnat
tbrrkt
tbrza
tbrziwin
tburjutin
tcad
tcarlz
tcawit
tcelh
tcirniguf
tcizari
tclh
tctta
td
tdamsa
tdda
tddem
tddid
tddr
tddu
tddut
tde
tdel
tdfrt
tdgg
tdil
tdlsa
tdlsiwin
tdmsa
tdr
tdra
tdrawt
tdrfit
tdrfiyin
tdru
tdrus
tdukli
tduli
tdurabbut
tdus
tdusi
tdwl
tdwr
te
tears
tebbi
tecc
technique
technologies
teddu
tedite
tedjid
teffaɣt
teffuɣ
tefk
tefka
tefr
tefransist
tefriqt
tefrxin
teftu
tefuɣ
teg
tega
tegduda
tegi
teglda
teglizt
tegmmi
tegrawin
tegt
teh
tei
teimple
tejder
tekka
tekkat
tekki
teklut
teksu
tel
telkem
telkmen
tella
tellamt
telle
telli
tellit
temdint
temger
temghra
temhelt
temla
temmri
temmut
tempe
templat
template
templates
temple
temps
temptation
temrawant
temxxart
temyurin
temz
temɣarin
temɣart
ten
tenbad
tend
tendance
tenfust
tenna
tennit
tensift
tent
tente
teqbaylit
teqbilt
teqqbilin
tera
terabbut
terar
terga
terme
terqid
terrain
terre
terrible
territoires
terweltiyi
terz
tes
tesawel
tesaweld
teskar
tesker
teskert
tesmaxut
tesnagurt
tesse
tessenti
tessutul
test
tet
tetgart
tetiknulujiyt
tetrart
tetserret
tetsrrt
tettawd
tettaws
tettawssan
tettemcacka
tettgensas
tettgiwirm
tetti
tettili
tettilim
tettini
tettiri
tettrs
tettubd
tettubdar
tettufka
tettufsar
tettuga
tettumann
tettur
tetturar
tetturruy
tettus
tettusawal
tettusileɣ
tettuska
tettusmid
tettusmma
tettusmras
tettusnulfa
tettussan
tettusum
tettuwssan
tettuymla
tettuys
tettuysan
tettuysawal
tettuysflad
tettuyskar
tettuytmtaln
tettuzmmam
tettuzmmem
tettwassn
tettyafa
tettyara
tettyawskar
tettyawssan
tettyubna
tettyufka
tettyukkas
tettyura
tettyusan
tettyusawal
tettyuskar
tettyussan
tettɣnnaj
tewja
tewlaft
tewnist
tewrerrayt
texas
text
textcolor
texte
textes
texts
textstyle
tez
tezmer
tezrawin
tezrawt
tezri
tezwiri
teɛr
tfadiwin
tfaska
tfaskiwin
tfawt
tfel
tfelsuft
tfelwin
tfelwit
tferkiwin
tferxin
tffaɣ
tffugla
tffugliwin
tffuɣ
tffuɣt
tffɣ
tffɣm
tfganit
tfgga
tfidir
tfilalt
tfinaɣ
tfinnaɣ
tfirin
tfiyyi
tfizikt
tfk
tfka
tfkka
tfl
tfllah
tflsaft
tflst
tflsuft
tflt
tflwin
tflwit
tfr
tfransist
tfras
tfrawt
tfriqt
tfrit
tfrka
tfrkiwin
tfrnsist
tfrru
tfruxt
tfrxin
tfsi
tfsir
tfsna
tfsr
tfss
tfssi
tfsut
tfta
tftu
tfugla
tfugliwin
tfukt
tfulki
tfullust
tfunasin
tfunast
tfuniqt
tfyyi
tg
tga
tgadirin
tgadirt
tgariwin
tgat
tgawr
tgduda
tgdudant
tgelditin
tgella
tgemmi
tgga
tggan
tggant
tggawr
tggiwr
tggurt
tggut
tgi
tgid
tgira
tgit
tglay
tglda
tgldanin
tglday
tgldit
tgldiwin
tglizt
tglla
tgllidt
tgllint
tgllit
tgmi
tgmma
tgmmaw
tgmmi
tgmrt
tgn
tgnawit
tgnnut
tgrawla
tgrawt
tgrikt
tgrst
tgrtilt
tgrumma
tgrummawin
tgrummiwin
tgrumsna
tgt
tgud
tgudi
tgul
tgula
tgulla
tguri
tguriwin
tgzirin
tgzirt
tgzmin
tgzza
tgzzumt
th
thai
thami
thank
that
the
their
theorem
theory
thesis
this
thomas
three
thrones
thuland
thumb
ti
tia
tibd
tibins
tibitas
tibr
tibratin
ticamente
ticka
ticlh
tid
tida
tiddas
tiddi
tiddukkla
tiddukla
tidet
tidett
tidfrin
tidi
tididaktiyin
tidiklt
tidjiwr
tidli
tidlsanin
tidmsanin
tidt
tidtt
tidu
tidwsanin
tie
tienne
tiers
tifadiwin
tifawin
tifawt
tiffugna
tifi
tifilin
tifilt
tifinagh
tifinaɣ
tifiras
tifirin
tifiyi
tifiyyi
tifiyyict
tiflillisin
tiflillist
tiflut
tiflwin
tifras
tifrdisin
tifrkiwin
tifrusyawiyin
tifrxin
tifugliwin
tifulin
tifwin
tifyyi
tig
tigamanin
tigariwin
tigawt
tigaɣranin
tigda
tigemmi
tigga
tiggas
tiggawin
tiggt
tiggura
tiggurma
tigi
tigigilt
tigira
tigiriwin
tigjdanin
tiglay
tigldanin
tigllint
tigmi
tigmid
tigmma
tigmmi
tigmud
tigniwt
tigrawin
tigrummawin
tigtfulin
tigurarin
tiguriwin
tigz
tigzi
tigzirin
tigzirt
tigzmin
tigzmt
tih
tihad
tihirrit
tihya
tijanatin
tijddigin
tijdens
tikal
tikanariyin
tikd
tikerkas
tikid
tikit
tikiwt
tikkal
tikkelt
tikki
tikklit
tikklt
tikli
tiklit
tikliwin
tiklt
tiknariyin
tikniwn
tiknnayyin
tikrt
tikruranin
tiks
tikti
tiktiwin
tikwal
tilalt
tilawat
tilawt
tilelli
tili
tilibizyun
tilifun
tilila
tililli
tilimt
tilin
tilintit
tiliskup
tilist
tilit
tiliɣr
till
tillal
tillas
tillawt
tilli
tillili
tillirin
tillirt
tillugna
tilluna
tilmect
tilmsan
tilsaritin
tilɣit
timad
timaddudin
timasih
timassanin
timatarin
timawasin
timawayn
timaynutin
timayufnin
timaz
timaziɣin
timazzalin
timbuktu
timd
timdinin
timdyazin
timeaxis
timedyazin
timeless
timelsa
timents
times
timgganin
timggura
timh
timhal
timid
timijglt
timijja
timilli
timirikanin
timitar
timizar
timktit
timlsa
timlsit
timmad
timmri
timmuzɣa
timmuɣra
timnad
timntal
timntawin
timnyugarin
timqqa
timqqranin
timqranin
timri
timrnit
timrsal
timrslt
timsislit
timsislitn
timskirin
timskrt
timsmunin
timssirdin
timssurin
timsswit
timtta
timttawin
timtti
timud
timukrisin
timuqqranin
timura
timurranin
timusnakin
timyurin
timz
timzarayin
timzgadiwin
timzgid
timzgida
timzgit
timzguida
timzgunin
timziɣin
timzray
timzrayin
timzwura
timɣarin
timɣribiyin
timɣrin
timɣrt
tin
tinadɣarin
tinafllatin
tinafukin
tinagmad
tinamunin
tinamurin
tinariwin
tinawin
tinawt
tinaz
tinbrak
tinduf
tinfaliyin
tinfardjas
tinfas
tinfganin
tinfulin
tinfur
tinfusin
tingis
tinglizit
tinglizt
tingmi
tini
tinid
tinidlisn
tinin
tiniri
tinirin
tinit
tinlɣanin
tinmal
tinmel
tinml
tinmmal
tinn
tinna
tinnes
tinnin
tinqqacin
tins
tintlayin
tinu
tinulfa
tinunnac
tinwutci
tinxar
tinz
tinzikk
tinzrufin
tinɣi
tinɣir
tiq
tiqabbucin
tiqbilin
tiqburin
tiqq
tiqqbilin
tiqqbur
tiqqburin
tique
tir
tirabbutin
tiram
tirat
tire
tiremt
tireɣi
tirgal
tirgalin
tirgin
tirgit
tiri
tirimɣrin
tirisa
tirit
tirkmin
tirlli
tirmiwin
tirmt
tirra
tirrugza
tirruysa
tirsal
tirubba
tirufin
tirz
tirɣi
tis
tisamiyin
tisdawiyin
tisengamin
tisent
tisfifin
tisgdanin
tisggiwin
tisgiwin
tisgiyin
tisgnit
tisint
tisitan
tiskla
tisklanin
tiskrt
tiskt
tisktuɣmirin
tislit
tisme
tismmamin
tisnajyanin
tisnat
tisnfgananin
tisniwin
tisnsi
tisnsit
tisnsitin
tisnt
tisntutin
tisrɣinin
tiss
tissan
tissas
tissfifin
tissi
tissit
tissnat
tissumga
tistmatin
tisunniyin
tisura
tisurarin
tisusiyin
tisuɣal
tiswak
tisɣan
tisɣi
tisɣnin
tisɣunin
tit
titargiyin
titgarin
titikniyin
title
titolo
titrarin
titre
titrit
tittaf
tiwal
tiwan
tiwd
tiwdi
tiwes
tiwfrikin
tiwi
tiwikipidyatin
tiwikippidyatin
tiwinas
tiwisi
tiwit
tiwiwin
tiwizi
tiwlafin
tiwn
tiwngimin
tiwnt
tiwtlin
tiwtmanin
tiwtmin
tiwuriwin
tiwwargiwin
tiwwriwin
tiwwura
tiwwuriwin
tiwwutc
tiwwutci
tixatarin
tixnyun
tixsi
tixyat
tiyad
tiyid
tiyit
tiyiti
tiyni
tiysas
tiysura
tiyt
tiyyad
tiyyat
tiyyt
tiyyti
tiz
tizelmt
tizi
tizikt
tizlatin
tizlfin
tizlit
tizmkin
tizmkt
tiznatiyin
tiznirt
tiznit
tizr
tizrawin
tizrfanin
tizult
tizurgan
tizuzaf
tizwarnin
tizwiri
tizwuri
tizzla
tizzwa
tizzwit
tiɛibriyin
tiɛr
tiɛɛurma
tiɣarasin
tiɣawsiwin
tiɣbula
tiɣh
tiɣlaf
tiɣmi
tiɣmriwin
tiɣmrt
tiɣr
tiɣrad
tiɣrdin
tiɣremt
tiɣri
tiɣrmanin
tiɣrmin
tiɣrmt
tiɣrmun
tiɣula
tiɣuriwin
tiɣza
tiɣzi
tiɣziwin
tjapunit
tjja
tjjabunit
tjla
tjr
tjumma
tk
tkard
tkattin
tkccm
tkccud
tkcim
tkcm
tkd
tkelma
tkerkas
tkid
tkimit
tkirid
tkk
tkka
tkkad
tkkal
tkkan
tkkat
tkkatin
tkkatt
tkki
tkkis
tkklit
tkkr
tklit
tklut
tkmml
tkna
tknarit
tkr
tkrrayt
tkrrazt
tkrza
tks
tktur
tkurayt
tkurbit
tkurdit
tkurt
tl
tla
tlalayt
tlalit
tlallit
tlatinit
tlatint
tld
tldi
tlgamt
tli
tlimant
tlkkm
tlkm
tlkmd
tlkmt
tlkuwt
tlla
tlli
tllit
tlm
tlmd
tlmsan
tls
tlsarit
tlslalit
tlssa
tluh
tlul
tluluct
tlummaz
tlusi
tlwat
tlɣa
tlɣat
tlɣiwin
tlɣnja
tm
tmacahut
tmackut
tmad
tmaddasin
tmaddast
tmaddit
tmadrsgnaft
tmadunt
tmagit
tmagunin
tmagurt
tmallayt
tmamekt
tmamkt
tman
tmara
tmasayt
tmassagurt
tmassanin
tmassant
tmatarin
tmatart
tmawast
tmaxirt
tmaynut
tmaz
tmazirt
tmazirtns
tmaziɣt
tmazzalt
tmazɣa
tmaɛcur
tmaɣunt
tmbr
tmd
tmda
tmdayt
tmdinin
tmdint
tmdrawt
tmdyazin
tmdyazt
tmelsa
tmes
tmet
tmettant
tmeɣra
tmgganin
tmggit
tmgr
tmgudt
tmguri
tmhla
tmi
tmid
tmijglt
tmita
tmitar
tmizar
tmktit
tml
tmlda
tmldawin
tmlilliy
tmllayt
tmlsa
tmlsit
tmmal
tmmala
tmmara
tmmatti
tmmaɣ
tmmt
tmmut
tmmuɣra
tmnad
tmnadt
tmnbad
tmnd
tmnkda
tmnr
tmnt
tmntal
tmntilt
tmpra
tmqqa
tmqqit
tmqqur
tmrawin
tmriɣt
tmrniwt
tmrragin
tmrsal
tmrslt
tms
tmsart
tmsasa
tmsdagt
tmsirt
tmsislit
tmsiya
tmskirt
tmskrt
tmsmunin
tmsmunt
tmsnilst
tmssa
tmssagurt
tmssi
tmssugurt
tmssurt
tmsult
tmswitin
tmtta
tmttant
tmtti
tmttiwin
tmud
tmukrisin
tmukrist
tmula
tmun
tmunan
tmunn
tmunt
tmura
tmurs
tmurt
tmuslmt
tmusni
tmussu
tmust
tmutt
tmuɣli
tmuɣliwin
tmyaqqanin
tmyaqqant
tmyurin
tmyurt
tmz
tmzaray
tmzarayin
tmzarayt
tmzgadiwin
tmzgid
tmzgida
tmzgunin
tmzgunt
tmzin
tmzwagt
tmzwarut
tmɣar
tmɣarin
tmɣart
tmɣnast
tmɣra
tmɣriwin
tmɣunt
tn
tnafut
tnafutin
tnagrit
tnamunt
tnana
tnaz
tnaɣa
tnba
tnbad
tnbat
tnbbad
tnbd
tnbdadt
tnd
tneqqid
tnfalit
tnfas
tnflit
tnflust
tnfulin
tnfust
tnggift
tngiwin
tnglizit
tnglizt
tngwmrt
tnifiln
tnin
tniri
tniyyact
tnkr
tnkra
tnmasart
tnna
tnnit
tnnur
tnqqad
tnrz
tns
tnt
tntala
tntaliwin
tntlayin
tnuccugn
tnunnt
tnz
tnzbayt
tnzggit
tnzruft
tnɣ
tnɣa
tnɣuba
to
tobago
toc
toe
toiles
tok
toki
tolstoy
tom
tome
tomes
tommaso
tonga
top
toponyme
toponymie
tosna
total
touan
touare
touareg
touaregs
touhami
toujours
toulouse
toure
tourisme
tours
tous
tout
toute
toutes
tower
tqbaylit
tqbilin
tqbilt
tqbur
tqjdawt
tqndurt
tqqbilin
tqqbilt
tqqen
tqqim
tqql
tqqn
tqqnt
tqqur
tqriban
tqrrb
tqs
tqubbanit
tr
tra
trabbut
trabbutin
trabut
traces
trad
tradition
traditional
traditions
traduction
traduit
trah
trakalt
tram
transfe
translate
translation
translations
transliteration
translitteration
transparent
transport
transports
trar
trarit
travail
travailleurs
travaux
trbatin
trbit
tre
tree
treize
tres
trga
trgal
trgalin
trgl
trglin
tri
tribu
tribus
trid
trie
trifit
trifiyt
trira
trit
trms
trna
trnnawt
trois
tropenmuseum
tropole
trouve
trs
trsal
trtib
trubba
trudant
true
trur
truri
trusit
trusiyt
trust
trwas
trwi
trwl
trxawt
trzmt
trɣ
trɣa
trɣi
ts
tsala
tsanayt
tsarut
tsarwa
tsastalt
tsawal
tsawalt
tsawert
tsawl
tsawlt
tsawrt
tsbaynt
tsbbabt
tsbhd
tsbk
tsd
tsdawin
tsdawit
tsdawt
tsddawit
tsdlist
tsekkurt
tsekla
tsen
tseqqimin
tseqqimt
tsertit
tsfalkay
tsfaɣ
tsfifin
tsfistiyi
tsfrisin
tsga
tsgg
tsggiwin
tsggwit
tsgiwin
tsgwin
tsh
tsid
tsiggil
tsiggilt
tsila
tsimant
tsiriw
tsk
tska
tskar
tskart
tskcm
tskflt
tskiwin
tskkurt
tskkus
tskla
tsklut
tskr
tskrt
tsktant
tskwfal
tslaym
tsld
tslit
tsliyt
tsman
tsmd
tsmrkst
tsmun
tsmuna
tsmurig
tsmuzza
tsmɣurin
tsmɣurt
tsn
tsna
tsnalɣa
tsnalɣavan
tsnamk
tsnaz
tsnfal
tsnflt
tsnijjit
tsnitrit
tsnnd
tsnniɣt
tsqqar
tsqqimt
tsragin
tsragt
tsrdast
tsrs
tsrtit
tsrtiyin
tsrɣint
tssa
tssdus
tssen
tssent
tssenti
tssfal
tssfifin
tssgdl
tssgnit
tsskcm
tssllamm
tssmras
tssn
tssns
tssnt
tssnta
tssnti
tssrus
tssrɣa
tssuda
tssufd
tssufɣ
tssusm
tssutl
tssutr
tst
tsu
tsugar
tsukt
tsul
tsuntimin
tsut
tsuta
tsutin
tsutlt
tsutulnin
tsuɣant
tsuɣlt
tswa
tswak
tswingmt
tswingt
tswuri
tswwuri
tsɣawsa
tsɣnt
tsɣunin
tsɣunt
tt
tta
ttacka
ttackan
ttad
ttadjan
ttadjin
ttafan
ttagg
ttahl
ttak
ttalb
ttalls
ttaln
ttals
ttalsn
ttamz
ttannayn
ttaqalid
ttaqddum
ttara
ttaragh
ttaran
ttarint
ttarix
ttaru
ttasi
ttasin
ttasint
ttaweynin
ttawh
ttawin
ttawint
ttawrat
ttaws
ttawsn
ttawssan
ttawssann
ttaz
ttazzaln
ttbayan
ttbr
ttbur
ttd
ttddrn
tte
ttffin
ttffint
ttffuɣn
ttfrakn
ttgga
ttggan
ttggant
tth
tti
ttid
ttidirn
ttidrus
ttiknulujya
ttikunulujit
ttili
ttilifizyun
ttilin
ttilint
ttimɣur
ttin
ttini
ttinin
ttinint
ttiniɣ
ttirin
ttirint
ttirir
ttirirn
ttit
ttiyat
ttiɣzifn
ttjjin
ttjr
ttkkan
ttkkisn
ttllin
ttlmadn
ttlmadnin
ttmaɣn
ttmi
ttmslayn
ttmunan
ttmunnt
ttnbad
ttnur
ttr
ttraran
tts
ttsutuln
ttswik
ttt
tttyafa
ttubd
ttuff
ttumanent
ttumanet
ttumann
ttun
ttunnant
tturar
tturarn
tturk
tturrayn
ttus
ttusflad
ttuskar
ttuskarn
ttusnfln
ttussan
ttussanent
ttussann
ttussid
ttustan
ttuygaddan
ttuysawal
ttuyskar
ttuyskarn
ttuyssladn
ttuz
ttuɣ
ttuɣran
ttwal
ttwaslmdnt
ttyafan
ttyaflent
ttyara
ttyaran
ttyawskarn
ttyawssan
ttyawssanin
ttyawssannin
ttyaz
ttysrasnt
ttyufan
ttyumlan
ttyura
ttyuran
ttyuskar
ttyuskarn
ttyussan
ttz
ttɛr
ttɣama
tu
tuareg
tubqal
tucka
tuckad
tuckit
tud
tudart
tudayt
tuddist
tuddma
tuddrt
tuddsa
tuddurt
tude
tudemt
tudert
tudes
tudit
tudma
tudmawant
tudmawin
tudrin
tudrt
tuf
tufa
tufam
tuffayin
tufi
tufit
tufrayin
tuga
tugduda
tugg
tugga
tuggas
tugget
tuggkal
tuggt
tuggugt
tuggut
tugha
tugi
tugit
tugna
tugniwin
tugr
tugt
tugtt
tugurt
tuja
tujad
tujja
tujji
tujjut
tujjutin
tujrart
tukart
tukkimt
tukkit
tukkr
tukyiwin
tukza
tukzin
tulafin
tulal
tulayt
tules
tuli
tulkinin
tulkint
tullisin
tullist
tullsa
tulstuy
tulut
tulɣa
tulɣiwanin
tumant
tumast
tumayt
tumert
tumi
tumlilt
tumliwin
tummidt
tummla
tummrt
tumnigt
tumrt
tumy
tumz
tumzi
tumzin
tunart
tunaruz
tunes
tunfit
tunfust
tunisie
tunnunt
tuns
tunsi
tunst
tunuɣt
tunɣilin
tunɣilt
tuottaja
tuqqna
tuqqut
tur
tura
turage
turagt
turarin
turarn
turart
turartt
turd
turda
turin
turing
turkish
turkmenistan
turkya
turmitin
turquie
turri
turrut
turtit
turtitin
turu
turuft
tus
tusdadin
tusdadt
tusdat
tusdidin
tusdidt
tusi
tusid
tuskanya
tuskiwin
tuslimt
tusna
tusnakt
tusnilsit
tusnisin
tusridin
tusridt
tussan
tussda
tussidt
tussimt
tussna
tussnant
tussniwin
tussnta
tussutin
tusut
tusutin
tut
tutca
tuti
tutlayant
tutlayin
tutlayt
tutlaytad
tutlayyin
tutrimin
tutrimt
tutt
tuttra
tuttuyt
tuwat
tuwuri
tuwuriwin
tuxmirt
tuyskar
tuyssan
tuz
tuzduɣt
tuzdɣt
tuzlt
tuzumt
tuzzel
tuzzumin
tuzzumt
tuɣa
tuɣac
tuɣal
tuɣnijinin
tuɣnijt
tv
tvutiw
twada
twal
twala
twalit
twallin
twalt
twargat
twassan
twat
twayya
twessart
twila
twilatin
twilayin
twilayt
twinas
twisi
twizi
twja
twjiwin
twjja
twlafin
twlaft
twngimin
twngimt
twnnad
twnnit
two
twrglat
twrirt
twtmin
twtmt
twuri
twuriwin
twwargit
twwargiwin
twwriwin
twwuri
twwuriwin
txantiloi
txddamin
txmmj
txs
txsayt
txsi
ty
tya
tyafut
tyafutin
tyawskar
tyawssan
tyddict
tyffart
tylgi
tymologie
type
tyrza
tysi
tyubna
tyumi
tyuran
tyussan
tz
tzd
tzdart
tzdayin
tzdayt
tzdgi
tzdi
tzdugi
tzdɣ
tze
tzenzelt
tzga
tzgawt
tzgmmut
tzgzut
tzlatin
tzlit
tzlmin
tzlɣa
tzm
tzmmar
tznit
tzrawin
tzrawt
tzrft
tzri
tzrirt
tzrit
tzuknnit
tzur
tzuri
tzuzaf
tzwar
tzwiri
tzwuri
tzzd
tzzf
tzzigiz
tzzray
tzzri
tzzugra
tɛccic
tɛddan
tɛibrit
tɛr
tɛrabt
tɣ
tɣama
tɣamat
tɣara
tɣarasin
tɣarast
tɣariwin
tɣawsa
tɣawsiwin
tɣazut
tɣdimst
tɣe
tɣezi
tɣiwanin
tɣiwant
tɣlaf
tɣlaɣalin
tɣlaɣalt
tɣli
tɣmrin
tɣmriwin
tɣmrt
tɣmsa
tɣnbut
tɣnja
tɣnnant
tɣnnijin
tɣnsa
tɣr
tɣra
tɣrad
tɣri
tɣrma
tɣrmawin
tɣrmin
tɣrmiwin
tɣrmt
tɣrmtt
tɣrsi
tɣssa
tɣtast
tɣuda
tɣufi
tɣumma
tɣur
tɣurdin
tɣuri
tɣuriwin
tɣuyyit
tɣzamt
tɣzi
tɣzut
u
ub
uba
ubaba
ubama
ubaraz
ubayyur
ubaɣuɣ
ubb
ubba
ubbil
ubcci
ubddad
ubddur
ubeddur
uberrah
ubhad
ubijju
ubis
ubitu
ubkkid
ublast
ubleɣ
ubluz
ubn
ubniq
ubnkal
ubnnu
ubr
ubrahim
ubrbrid
ubrgmmi
ubrid
ubrni
ubrnus
ubrunz
ubt
ubuqal
uburkan
uburz
ubuy
ubuzya
ubuɣlu
ubɣir
uc
uca
uccan
uccen
uccil
uccn
uckan
uckand
uckigh
uckukl
ucla
uclh
uclhi
ucn
ucnyal
uct
ud
uda
udabu
udadn
udanbala
udar
uday
udayn
udda
uddis
uddisn
uddur
ude
udem
udewwar
udfl
udfrir
udis
udjan
udlis
udllis
udm
udmawan
udmawen
udmawn
udmr
udrar
udraw
udraz
udrim
udris
udriyn
udrum
uduk
udus
udustur
uduwwar
uduzewiɣ
udwar
udwas
udwwar
udyu
udɣar
uf
ufan
ufaris
ufars
ufasi
ufasr
ufaɣ
ufella
ufen
uferdu
ufga
ufgan
ufggag
ufi
ufigh
ufilm
ufin
ufirus
ufiyyac
ufiɣ
uflay
uflla
ufn
ufna
ufnsu
ufqqir
ufr
ufra
ufrag
ufrak
ufran
ufrd
ufrdis
ufrnu
ufrru
ufruri
ufrux
ufssay
uft
uftas
ufud
ufulay
ufulki
ufullus
ufunas
ufur
ufus
ufuɣ
ufya
ug
ugadaz
ugadir
ugafa
ugafay
ugama
ugancuc
uganda
ugar
ugaraw
ugaru
ugayyu
ugaɣri
ugd
ugdal
ugdud
ugdz
uged
ugellid
ugezzum
ugg
uggar
uggern
uggrn
uggug
uggugn
ugguram
uggurn
ugguz
ugim
uginin
ugint
uglagal
uglam
uglay
uglif
uglim
ugllid
uglmam
uglutin
ugmam
ugmid
ugmmad
ugmmay
ugmmud
ugmud
ugnid
ugns
ugnsu
ugr
ugraw
ugri
ugrik
ugris
ugrram
ugrzam
ugucclman
ugudi
ugummu
ugunes
ugust
ugustan
ugwns
ugzzum
uh
uhablugrub
uhanu
uhe
uhidrujin
uhilyum
uhu
uhukagi
uhuy
uhyya
uhyyad
ui
uicpa
ujddig
ujdir
ujinir
ujiniral
ujja
ujjig
ujjin
ujjur
ujmak
ujnyur
ujway
uk
ukabar
ukan
ukaymdn
ukbar
ukcam
ukccud
ukccum
ukccumn
ukd
ukeccu
ukfay
uki
ukin
ukit
ukiy
ukiyn
uklid
uklu
ukm
uknari
uknsus
ukr
ukraf
ukraine
ukranya
ukrnt
ukrwas
uksijin
uksum
ukt
uktawyan
ukttur
uktubr
ukucm
ukuray
ukwan
ul
ula
ulac
ulad
ulah
ulampikiyn
ulan
ular
ulatin
ulawn
ulbnsir
uld
ulgwma
ulh
ulhaw
uli
ulili
uliman
ulimbus
ulla
ullah
ulli
ullus
ulmad
ulmmud
ulssi
ulsunt
ult
ultit
ultma
ultmas
ultras
ulugaritm
ulugn
ulugu
ulɣu
um
uma
umad
umada
umadal
umadan
umafus
umagut
umahellaw
umahllaw
umallay
umalu
uman
umanent
umani
umanit
umann
umanst
umant
umar
umara
umarag
umarg
umarir
umaris
umarra
umartin
umasgad
umasih
umassan
umata
umawal
umawas
umawiyyin
umayas
umaynu
umazan
umaziɣ
umazzal
umaɛcu
umaɣ
umaɣud
umbit
umd
umda
umdan
umddakkl
umdiɣr
umdya
umdyaz
umedlu
umedruz
umedya
umekla
umennuɣ
umezruy
umgaru
umggaru
umgiddi
umgljin
umgrad
umh
umi
umin
umit
umitru
umiy
umiyen
umiyin
umiyn
umiyt
umiyyn
umkla
umkr
umlal
umlan
umlil
umliln
umlu
umlulluy
umlyun
umm
ummal
ummid
ummidn
ummuddu
ummussu
umn
umnad
umnala
umnay
umnid
umnig
umnign
umnni
umntil
umnukad
umnz
umnzay
umnɣi
umqqun
umr
umrara
umras
umrig
umrr
umrruk
umrzu
ums
umsar
umsasa
umsasfar
umsawad
umsawal
umsmnid
umsnils
umsntam
umssudr
umssuds
umssunan
umstan
umt
umtcu
umtiwg
umttcu
umuc
umucc
umud
umuddu
umudr
umuggar
umukris
umulli
umun
umundyal
umur
umurar
umurnwakuc
umusa
umuslm
umusnak
umussu
umutti
umuɣ
umuɣli
umwan
umya
umyag
umyagga
umyawad
umyawas
umyz
umz
umzaray
umzaz
umzaɣ
umzdaɣ
umzgun
umzil
umzizzl
umzn
umzraw
umzru
umzruy
umzwaru
umɛin
umɛt
umɣar
umɣlil
umɣnas
umɣribi
umɣuz
un
una
unabi
unagraw
unamir
unamk
unamun
unaruz
unattested
unaz
unazur
unbad
unbbad
unbd
unbdad
unbdu
unbid
unck
unckk
unct
und
une
unebbad
unegraw
unesco
unessiɣef
unezwi
unezzarfu
unfiln
unfray
unfus
ungal
ungaln
ungamd
unggal
unggaru
ungi
ungisn
unglus
ungraw
unguz
uni
unicode
unil
unin
union
uniquement
unis
unisi
unit
unite
united
univ
univers
universal
universel
universite
university
uniya
unlli
unlmad
unmala
unmezruy
unmgal
unmuggar
unmuqar
unmuqqar
unmzray
unmɣur
unn
unna
unnid
unnig
unnuɣjf
unplugged
unqqr
unrar
uns
unsib
unsmassu
unssixf
unt
untam
unti
untim
untimn
untiyn
unuccg
unuh
unusual
unuɣ
unuɣn
unxdam
unya
unyalkam
unyu
unz
unzar
unzbay
unzgum
unziɣ
unzwi
unɣmas
unɣmis
unɣubu
up
upa
uppa
uppermost
upright
uprutin
uqarid
uqqr
uqryan
uqyanusya
uqɛan
ur
ura
uragh
uraglann
uram
uran
urant
uranus
urar
urarn
urarnt
urba
urbain
urbaine
urbains
urbun
urd
urdun
uren
urfyus
urgaz
urgiln
uri
urika
urin
urir
uriwin
uriyt
uriɣ
urkimn
urky
url
urma
urmas
urmid
urmn
urn
urqqas
urr
urrim
urrin
urrint
urriɣ
urt
urta
urtan
urti
uru
urubba
urumi
urunin
urunt
urupa
uruppa
urur
urwass
urzzu
urɣ
us
usa
usad
usafar
usage
usaggu
usagm
usak
usakud
usala
usalay
usammr
usanin
usarag
usarid
usartu
usaru
usati
usayes
usayn
usayrar
usayrur
usays
usbuɣlu
usd
usdaw
usddi
usddiy
usddnki
usdurri
usdurriy
usdurry
use
used
useddi
usefris
usefser
usegg
useggas
useggwas
usekkil
uselkim
usemmed
usemmi
usengar
useqsi
user
userdas
useɣres
usffuglu
usfi
usfris
usfrk
usfru
usfsr
usfuglu
usg
usga
usgadda
usgd
usgdan
usgg
usggan
usggas
usggwas
usgmi
usgwas
usgzawal
usgzl
ushwn
usid
usidd
usidn
usidres
usifd
usiggl
usigl
usikl
usima
usin
usinag
usinan
usint
usira
usiskn
usistn
usit
usiwd
usiwl
usiɣ
uskan
uskay
uskayn
uskir
uskk
uskkil
uskkin
uskkir
uskkud
usklu
usknaf
uslad
uslallu
usleɣmu
uslgn
usli
uslig
uslkim
uslli
uslmad
uslmd
uslway
usman
usmaynu
usmazɣ
usmd
usmdi
usmdya
usmkl
usml
usmlal
usmras
usmrs
usmsasa
usmun
usmusu
usmuttg
usmzazal
usnak
usnfar
usnfl
usnflul
usnful
usngar
usni
usnifl
usnmala
usnmarra
usnmili
usnmkta
usnml
usnt
usnti
usntl
usnubbc
usnuh
usnulfu
usnɣd
usnɣms
uso
usqqim
usqqsi
usqsi
usr
usrag
usrdas
usrdun
usrid
usrrad
usrtan
usrus
ussan
ussaɣ
ussaɣn
ussfld
ussid
ussidn
ussinw
ussiriw
ussissn
usslmd
ussmrs
ussnan
ussnfl
ussnkr
ussns
ussnti
ussqim
ussrsl
ussu
ussudr
ussudu
ussufɣ
ussuggy
ussurtey
ussutl
ussutn
ussutr
ussuɣl
ussyn
ussɣz
ust
ustay
ustci
ustiy
ustr
ustralya
usud
usuds
usuel
usuelle
usufu
usufɣ
usujji
usuk
usun
usunfs
usunfu
usurar
usurs
usus
ususru
usussn
usutti
usuwrruy
usuɣl
uswami
uswd
uswingem
uswingm
uswir
uswuddu
uswuri
usyafa
usyafu
usz
usɣar
usɣiws
usɣnzi
usɣrs
usɣzf
ut
utabut
utanan
utaram
utbir
utc
utci
utciha
utcimar
utf
utfl
utile
utilisant
utilisation
utilise
utiliser
utilite
utin
utint
utlmud
utrecht
utrim
utrms
utt
utu
utwal
uvidyu
uvirus
uwanir
uwank
uwcn
uwd
uwessar
uwettas
uwgdud
uwin
uwngm
uwraɣ
uwssar
uwtay
uwttas
uwttu
uxatar
uxeddim
uxs
uxsan
uxsay
uya
uyad
uyafu
uyda
uydi
uyenna
uyfus
uylli
uyn
uynna
uysa
uyt
uyyedi
uz
uzadur
uzal
uzaru
uzarug
uzatim
uzawan
uzawar
uzayku
uzazwu
uzaɣar
uzbg
uzday
uzdaɣ
uzddar
uzdduy
uzdduɣ
uzdir
uzdirn
uzegzel
uzemz
uzerg
uzezzu
uzgg
uzggal
uzggaɣ
uzgn
uzgzaw
uzgzl
uzi
uzilal
uzkka
uzkkur
uzlmad
uzmir
uzmmem
uzmmur
uzmummg
uzmz
uznk
uznn
uznz
uzr
uzrak
uzraw
uzrf
uzrg
uzru
uzuzwu
uzuzzr
uzwag
uzwaq
uzwinti
uzwir
uzwl
uzwu
uzyyn
uzzal
uzzgr
uzzray
uzzu
uɛ
uɛrrim
uɛrur
uɣ
uɣal
uɣanib
uɣanim
uɣaras
uɣawas
uɣbalu
uɣdjaj
uɣilas
uɣiluf
uɣlluy
uɣmis
uɣni
uɣnja
uɣr
uɣrab
uɣrbaz
uɣrda
uɣrf
uɣri
uɣrim
uɣrimn
uɣrrabu
uɣrud
uɣrum
uɣu
uɣus
uɣwwaɣ
uɣyul
uɣyyul
uɣzu
v
va
val
valais
valentin
valeur
valeurs
valign
valle
valletta
valley
value
van
var
variable
variant
variations
varie
vasari
vasilisa
vassilissa
vatikan
vaucluse
ve
vec
ved
veidne
vende
vent
ventre
ventuelle
vep
verb
verbes
verlag
verrocchio
verrouillc
vers
versailles
version
vert
verte
vertical
verticale
veut
vexillologique
vi
via
victor
victoria
vide
vie
vienne
vierge
vieux
view
vigie
vigne
vignette
vih
viii
villa
village
ville
villes
vincent
vinci
vinisya
vintci
violation
virgule
virroccio
virrukyu
vision
visite
visuel
viter
vitesse
vivant
viza
vls
vocabulaire
vocabulary
vocalisme
vocals
vocoi
voici
voir
voix
vol
voleurs
voltaire
volte
volubilis
volume
volumes
volution
von
voor
vorlage
vorlog
vosges
vossen
vote
votre
voue
vous
vowels
voyage
voyages
vre
vrier
vs
vue
vulubilis
vycichl
w
wa
wab
wac
wacc
wach
wacn
wacnt
wact
wactukn
wad
wada
wadaf
waddad
waddadn
waddag
waddagen
waddagn
waddal
waddud
waddur
wadrim
wadu
wafa
wafar
wafud
wafulki
wag
waggu
waggur
wagrikn
wah
waha
wahli
wahran
wahruc
wajn
wak
wakal
wakat
wakuc
wakud
wal
wala
walaf
walan
walay
walayni
walaynni
walbitn
wales
walet
walf
walid
walif
walik
walili
walim
waliman
waljibr
walking
wall
wallal
wallas
wallen
walli
walln
wallonie
wallun
walmas
waln
walsiwn
walt
walu
walugn
walyad
waman
wammak
wammakn
wammas
wammasn
wammaz
wamun
wamur
wan
wanan
wanaw
wanawen
wanawn
wanck
wandalus
wanfifn
wanitin
wann
wanna
wannad
wannar
wannay
wannaz
wannazn
wansa
wansifen
wansifn
want
wantimn
wantirnit
wanu
wanz
wanɣa
waqqa
waqqayn
waqqur
war
waram
warasgdiyin
waray
warayn
warda
wargan
warn
warra
warratn
warraw
warrawn
wartmi
warzazat
was
wasa
wasfi
washington
wasid
wasif
wass
wassa
wassad
wassay
wassaɣ
wassaɣn
wat
watay
watch
water
watig
watign
watlas
watta
wattayen
wattayn
waw
wawal
wawank
wawid
wawnk
wawrik
wawrir
wawtay
wawwal
waxid
waxxa
waxxam
way
wayad
wayawn
wayda
waydi
wayen
wayfs
waylal
waylaln
wayni
wayrni
ways
wayt
wayya
wayyad
wayyaw
wayyis
wayyur
wayyurn
waz
wazal
wazzan
wazzanen
wazzann
wazzar
waɛr
waɛrab
waɛrabn
waɣad
waɣar
waɣcut
waɣuct
wc
wd
web
webm
webrid
website
weight
welke
welkom
wemgaru
wen
wenni
wenz
wer
west
western
wetzstein
wezzu
wfgan
whatsapp
wheat
when
which
while
white
who
why
wi
wid
wida
widda
width
wiii
wijjan
wiki
wikibdr
wikicode
wikidata
wikidot
wikimazigh
wikimedia
wikimidya
wikimuddu
wikinɣmisn
wikipe
wikipedia
wikipidya
wikispecies
wikitasdawit
wikivoyage
wikman
wiktionnaire
wili
will
willi
william
willid
wilyam
win
winna
winns
winu
winun
wis
wiss
wissin
wit
with
wiyad
wiyya
wiyyad
wizman
wlad
wllah
wmussu
wo
women
wonou
word
worden
wordpress
words
work
works
world
would
wp
wrap
wrapper
writing
written
wrn
wrɣla
ws
wssrnin
wuccen
wucci
wuccn
wucn
wud
wuday
wudayn
wudi
wudm
wudmawn
wufuɣ
wuhan
wujda
wuksijin
wul
wulli
wunfus
wungal
wunti
wur
wurar
wureɣ
wurgh
wurti
wurɣ
wusman
wussan
wut
wutci
wuu
wuz
wuzzal
ww
wwar
wwd
wwqqcur
www
wydad
x
xadija
xal
xaldun
xalid
xalis
xaltis
xamengi
xas
xatrnin
xaybar
xayr
xdemn
xdmn
xdmnin
xef
xeldun
xes
xettad
xf
xi
xii
xiii
ximda
xir
xiralda
xirat
xiv
xix
xizzu
xklli
xlun
xmf
xmis
xnifra
xt
xta
xtad
xtid
xv
xvi
xvie
xviii
xwlan
xx
xy
xzart
y
ya
yabdas
yacine
yack
yacoub
yad
yadda
yadder
yade
yadelli
yaden
yadli
yadlli
yadn
yadna
yadni
yadnin
yaf
yafn
yafud
yag
yaga
yagan
yaggug
yaggugen
yaggugn
yagi
yaguren
yagurn
yagwem
yagwi
yah
yahoo
yahuda
yahya
yajddig
yajj
yak
yakk
yakka
yakkan
yaksul
yakuc
yakwi
yakz
yal
yall
yalla
yallah
yallfus
yals
yalsn
yam
yamar
yamarir
yame
yamn
yamu
yamun
yamz
yan
yanayr
yanf
yanin
yann
yanni
yannin
yant
yanɣ
yaqqra
yaqqran
yaqra
yaqub
yar
yara
yaran
yarbas
yari
yaru
yas
yasen
yasi
yasin
yasnaya
yass
yasyun
yat
yatn
yattuy
yattuyn
yawd
yawes
yawi
yawid
yawit
yawl
yaws
yawsn
yay
yayl
yayt
yaz
yazid
yazn
yazzel
yaɛqub
yaɛqubi
yaɣ
yaɣn
yaɣul
yaɣuln
ye
year
yebda
yeddukklen
yeg
yega
yegan
yeh
yekkan
yella
yellan
yemen
yen
yenna
yeqqim
yerna
yernu
yes
yeskar
yessnen
yeux
yewwi
yewy
yeɛzzan
yg
yga
ygan
yh
yi
yicqqu
yid
yidir
yidlisn
yidrarn
yidrign
yidurar
yidɣarn
yifassen
yifassn
yifd
yiffus
yifil
yifran
yifri
yifsus
yiftasn
yig
yignwan
yigr
yigran
yigut
yiguyya
yih
yijj
yikkin
yikurdiyen
yikurdiyn
yilel
yili
yilin
yill
yilli
yillis
yills
yilm
yils
yim
yimal
yiman
yimawin
yimawn
yimaziɣn
yimezdaɣen
yimh
yimhiwac
yimi
yimiɣ
yimlyunn
yimnɣan
yimnɣi
yimr
yimsli
yimudar
yimuggan
yimɣur
yin
yinaw
yinaz
yind
yineglusen
yinelmaden
yini
yinigi
yinlmadn
yinna
yinsi
yiqbayliyen
yirgazn
yirgn
yiri
yirid
yirn
yirucalayim
yirukuten
yisan
yisegg
yiseggasen
yisem
yisgg
yisin
yism
yismawn
yisn
yit
yitran
yits
yitti
yiwd
yiwel
yiwen
yiwet
yiwi
yiwid
yiwin
yiwis
yiwit
yiwl
yiwrri
yiws
yiwsn
yiwunak
yiwy
yixef
yixf
yixfawn
yiyn
yiysan
yiz
yizi
yizriran
yizumal
yiɣerban
yiɣil
yiɣrban
yl
ylla
yllan
ylli
ymma
ymmas
ymqquren
ymqqurn
yn
ynbd
ynna
ynnayr
yo
yonne
york
you
youcef
young
youssef
youssouf
youtube
yra
yruh
yrwasen
ys
yssnn
yssrxan
yt
yttmslayn
yu
yuba
yuc
yucka
yuckad
yuckan
yud
yuda
yudf
yudjan
yue
yuf
yufa
yufan
yufi
yufn
yufrarn
yugerten
yugga
yuggi
yugi
yugin
yugm
yugr
yugrtn
yugurtn
yujad
yujja
yujjan
yuki
yukrn
yukz
yuli
yull
yullid
yuls
yulyu
yulyus
yulyuz
yuma
yuman
yumer
yumez
yumi
yumrt
yumz
yumzn
yun
yunes
yunfn
yunikud
yunisku
yunyu
yur
yura
yuran
yurar
yurat
yurk
yurm
yurri
yurrid
yuru
yurun
yus
yusan
yusef
yusf
yusi
yusid
yusin
yussan
yussi
yusuf
yusufeyya
yusufi
yusɛan
yut
yuti
yutin
yutn
yutub
yuwi
yuwin
yuws
yuyl
yuzen
yuzn
yuzzl
yvelines
yy
yya
yyd
yyi
yyid
yyih
yyirn
yyit
yyl
yyyy
yz
yɛni
z
za
zaborski
zag
zagur
zagura
zahur
zai
zaiyn
zakariya
zaln
zama
zanifi
zat
zayane
zayani
zayd
zaydn
zaydnt
zayn
zayyu
zd
zda
zdar
zdaɣ
zdin
zdinin
zdint
zdwi
zdɣn
zdɣnt
ze
zedɣen
zeg
zem
zemmour
zen
zenaga
zenati
zenatia
zenczak
zerbiya
zerrad
zeɣ
zffar
zg
zgi
zgis
zgisn
zgisnt
zgitsn
zh
zi
zidan
zidane
zik
ziki
zikk
zin
zineddin
ziri
ziwin
ziyad
ziyyad
ziz
zizu
zkara
zkri
zlt
zman
zmmemn
zmmimn
zmummugn
zn
znata
znineg
zones
zoologie
zr
zra
zrayn
zri
zrin
zrinin
zrint
zrrug
zt
zu
zud
zugn
zugnt
zuhr
zujundar
zuku
zun
zund
zur
zwar
zwara
zwarn
zwarnin
zwin
zwun
zyad
zyada
zyyar
zzaqqum
zzaqum
zzawaya
zzaweyyat
zzawit
zzawiya
zzd
zzennan
zzerb
zzin
zzit
zzitun
zznzan
zzrayn
zzrb
zzrin
zzɣ
zɛir
zɛma
zɣ
{
|
}
~
£
¤
¥
¨
«
°
²
²⁴
³
·
¹
º
»
×
æ
ð
ŋ
ɐr
ɔ
ə
ɛ
ɛa
ɛabd
ɛabdllah
ɛabdllat
ɛabdrahman
ɛabdrrah
ɛabdrrahman
ɛabdullah
ɛacir
ɛad
ɛada
ɛala
ɛalawiyyin
ɛali
ɛas
ɛat
ɛaziz
ɛazzdin
ɛbbas
ɛbd
ɛbdallah
ɛbdelmalk
ɛbdlh
ɛbdllah
ɛbdr
ɛbdullah
ɛbidat
ɛblla
ɛd
ɛddu
ɛebbas
ɛeddu
ɛellal
ɛem
ɛemm
ɛetman
ɛica
ɛin
ɛiraq
ɛisa
ɛisi
ɛla
ɛli
ɛmar
ɛmmis
ɛmmur
ɛmmuri
ɛmr
ɛnan
ɛrus
ɛssu
ɛt
ɛtab
ɛudu
ɛumar
ɡ
ɣ
ɣa
ɣad
ɣadamis
ɣadban
ɣakud
ɣakudan
ɣakudann
ɣaman
ɣamant
ɣamaɣ
ɣana
ɣar
ɣarbi
ɣas
ɣass
ɣassa
ɣassad
ɣaya
ɣayad
ɣayadd
ɣayan
ɣayann
ɣayda
ɣaydd
ɣayli
ɣaylli
ɣayn
ɣaynna
ɣazn
ɣaɣ
ɣd
ɣef
ɣemkad
ɣemkan
ɣer
ɣf
ɣi
ɣid
ɣidd
ɣifs
ɣik
ɣikad
ɣikan
ɣikann
ɣikkad
ɣiklli
ɣil
ɣila
ɣilad
ɣilas
ɣilasnsen
ɣilla
ɣilli
ɣin
ɣinn
ɣinna
ɣinya
ɣir
ɣknna
ɣlasmussut
ɣli
ɣlin
ɣmk
ɣmka
ɣmkad
ɣmkann
ɣmklli
ɣr
ɣran
ɣrdaya
ɣrinin
ɣriɣ
ɣrs
ɣt
ɣu
ɣuct
ɣur
ɣurs
ɣusn
ɣusnin
ɣwad
ɣwat
ɣwid
ɣwin
ɣwmmunt
ɣɣ
ɪ
ʊ
ʐ
ʜd
ʝ
ʥ
ʲ
ʷ
ʻ
ʼ
ʿ
ˀ
ˁ
ˈ
ː
˚
ˠ
ˤ
̀
́
̂
̃
̄
̆
̇
̈
̉
̊
̌
̓
̔
̛
̣
̦
̧
̨
̪
̱
̲
͂
α
β
γ
ε
η
θ
ι
ν
ο
π
προ
ς
σ
τυπο
ϯ
а
ашаблон
в
василиса
г
гер
документация
загвар
и
ислам
калып
кевләр
куцкеп
кышкар
л
мира
н
нем
обра
по
портал
прекрасная
република
сиш
у
футболу
х
халыып
хуыз
чемпионат
ш
шабле
шаблон
шаблона
ьць
я
ҡалып
үлгі
ԑ
կ
կաղապար
ְ
ִ
ֵ
ֶ
ַ
ָ
ֹ
ׁ
א
ב
בילד
ד
ה
י
ל
מ
מוסטער
ע
צפה
קלעבל
ר
ש
ת
תבנית
תווית
،
؛
؟
ء
ا
ابن
ات
احمد
استقامة
اسلام
اطلع
ال
الا
الاستشفاي
الامازيغية
البحر
البوابات
البيضاء
التراث
الثقافي
الجامعي
الجديدة
الجزء
الجزاي
الجزيرة
الجمعية
الجمهورية
الحسن
الحضرمي
الدنيا
الديمقراطية
الدين
الرباط
الربيع
الرحمن
الرسمية
الس
السلام
السلطان
السن
الش
الشعبية
الشعر
الصاد
الصفحة
الضمة
العالم
العدد
العربية
الغماري
القاهرة
القرا
القرن
الكريم
الله
الم
المتجددة
المد
المركز
المسجد
المسعودي
المعارف
المعسول
المغرب
المغربي
المغربية
المملكة
المو
الميثولوجيا
الواو
الگو
انتاج
او
ایران
ب
باب
بابا
بالا
بالدار
بالمغرب
بتاريخ
بربري
بن
بني
بو
بوابة
بي
بين
ة
ت
تاريخ
تاغنجا
تاقورا
تحديد
تمزكدوين
تينمل
ث
ثلاثة
ج
جامع
جريدة
جمعية
جنوب
ح
حاسوب
حد
حروف
حمد
حمر
حواش
حوض
حول
خ
خلال
خلدون
د
دار
داي
داڕێژە
دب
دمسيرة
ذ
ر
رز
رشد
رشف
رية
زاي
زبان
زيد
س
سانچہ
سلام
سوس
سينا
سيناء
ش
شابلون
شجرة
شمال
شهادات
شهر
شيشاوة
ص
صفحة
صل
صلاة
صلاح
صندوق
صوات
صورة
ض
ضمن
ط
طاء
طلس
ظ
ع
عبد
عدد
عشر
عشرة
عظم
علم
علوم
على
علي
عليه
عمال
عن
غ
غابة
ـ
ـة
ــ
ــة
ف
فا
فريقيا
في
فيديو
ق
قا
قالب
قباي
قبيلة
قصر
قصى
قطرة
ك
كتاب
كلمة
كوكرا
ل
لا
لة
لجريدة
لغة
لف
للبحث
لمانيا
لمحمد
لى
لي
م
ماء
مارس
مازيغ
مازيغي
مازيغية
ماي
مجتمع
مجلة
محرك
محرم
محمد
مديغر
مطبعة
معلمة
مقال
مقالة
مقصورة
مكة
من
منشورات
مو
موسى
موقع
ن
نسان
نهر
ه
ها
هاء
هارون
هم
هو
و
وا
والا
والتبادل
والمغرب
ود
ورزازات
وصف
ول
وم
ون
ى
ي
ية
يت
يط
يقونة
يل
يم
ين
يه
يومي
ً
ٌ
ٍ
َ
ُ
ِ
ّ
ْ
ٓ
ٔ
ٕ
٢
٦
٪
٬
ٰ
ٱل
ڭ
۝
ۥ
ۦ
ۯ
ނ
ރ
އ
ވ
މ
ފ
ތ
ލ
ސ
ަ
ާ
ި
ު
ެ
ް
ँ
ए
च
ज
ञ
ढ
त
न
प
भ
म
र
ल
व
ष
स
ह
ा
ि
ी
ो
ौ
्
ঁ
ও
চ
জ
ঞ
ট
দ
ন
ফ
ব
ম
মপ
য
র
ল
স
়
া
ি
ু
ে
্
ৱ
ਾ
ં
ચ
ઢ
મ
લ
ા
ો
્
ଚ
ଛ
ଞ
ଟ
ମ
ା
େ
୍
ட
த
ன
ப
ம
ர
ல
ழ
வ
ா
ி
ு
ெ
ை
்
క
జ
ఞ
త
ద
మ
వ
స
ా
ి
ు
ూ
ే
్
ಂ
ಟ
ಪ
ಲ
ು
ೆ
್
ೕ
ം
ഫലക
ല
ാ
്
ං
ක
ඛ
ද
ය
ර
ල
ව
ස
්
ා
ැ
ි
กล
ม
ย
ล
ว
อ
ิ
ี
ู
แบบ
แม
่
้
์
ແບບ
ແມ
່
ပ
သ
ိ
ံ
္
თ
თარგი
სურათის
წარწერა
그림
꼬리표
틀
መለጠፊያ
ត
ទ
ន
ប
ព
ភ
ម
រ
រគ
ស
ា
ូ
ំ
់
៌
័
្
ᵗˢ
ᵚ
ᶣ
​
‌
‍
‎
‏
–
—
‘
’
‚
“
”
†
•
…
‫
‬
‰
′
″
⁴
⁵
⁶
⁷
€
ℝ
™
↑
→
↔
↷
⇒
−
√
∼
≈
③
④
⑦
─
└
├
☉
☾
☿
♀
♂
♃
♄
♅
♆
⛢
✘
⟨
⟩
ⲉ
ⲏ
ⲓ
ⲙ
ⲛ
ⲣ
ⲧ
ⲭ
ⴰ
ⴱ
ⴲ
ⴳ
ⴵ
ⴷ
ⴹ
ⴺ
ⴻ
ⴼ
ⴽ
ⴾ
ⵀ
ⵂ
ⵃ
ⵄ
ⵅ
ⵆ
ⵇ
ⵉ
ⵊ
ⵍ
ⵎ
ⵏ
ⵒ
ⵓ
ⵔ
ⵕ
ⵖ
ⵗ
ⵘ
ⵙ
ⵚ
ⵛ
ⵜ
ⵝ
ⵟ
ⵡ
ⵢ
ⵣ
ⵥ
ⵯ
⺀
⺄
⺆
⺈
⺊
⺌
⺕
⺝
⺸
⺼
⿰
⿱
⿲
⿳
⿴
⿵
⿶
⿷
⿸
⿹
⿺
⿻
。
〢
い
え
か
さ
た
の
は
も
ん
゙
゚
゛
゜
ア
コ
シ
テ
ト
フ
ヘ
モ
ユ
ラ
ル
レ
ン
ー
㇁
㇂
㇄
㇇
㇈
㇉
㇓
㐁
㐄
㐅
㐌
㐫
㐬
㐭
㐮
㐱
㑒
㒵
㒸
㒼
㓁
㓞
㔾
㕛
㕣
㖾
㘝
㚅
㚇
㚔
㚘
㝉
㝡
㝴
㝵
㞋
㞢
㞷
㠩
㠭
㠯
㡀
㡭
㡿
㢲
㢴
㣇
㣺
㥯
㪅
㫄
㫐
㫒
㫺
㬅
㬎
㬥
㬰
㲋
㳄
㷠
㸒
㸚
㸦
㼌
㼲
㽞
㿟
䀠
䂞
䍃
䏍
䒑
䖍
䖒
䖝
䖵
䙴
䚻
䜌
䝿
䡛
䧹
䪞
一
丁
丂
七
丄
丅
丆
万
丈
三
上
下
丌
不
与
丏
丐
丑
专
且
丕
世
丘
丙
业
东
丞
丢
丣
两
严
並
丨
丩
个
丫
丬
中
丮
丰
丱
串
丵
丶
丷
丸
丹
为
主
丽
丿
乀
乂
乃
久
乆
乇
么
义
之
乌
乍
乎
乏
乐
乑
乔
乖
乗
乘
乙
乚
乛
乜
九
乞
也
习
乡
乳
乾
亀
亅
了
亇
予
争
事
二
亍
于
亏
亐
云
互
亓
五
井
亘
亚
亜
亞
亟
亠
亡
亢
交
亥
亦
产
亨
亩
享
京
亭
亮
亯
亰
亲
亳
亶
亷
人
亻
亼
亾
仁
今
介
仌
从
仐
仑
仒
仓
仕
他
付
仝
代
令
以
任
企
伊
伏
伐
休
会
伯
但
位
何
佘
余
作
佥
使
來
侈
侌
侖
侯
侵
便
保
俞
信
修
倉
倍
候
倠
備
僉
僕
儿
兀
允
兂
元
兄
充
兆
兇
先
光
兊
克
兌
免
兑
兒
兓
兔
党
兜
兟
入
全
兩
兪
八
公
六
兮
兰
共
关
兵
其
具
典
兹
兼
冀
冂
冃
冄
内
冈
冉
冊
冋
册
再
冎
冏
冐
冒
冓
冖
冗
冘
军
农
冝
冡
冥
冫
冬
冷
几
凡
凢
凵
凶
凷
凸
凹
出
函
凾
刀
刁
刂
刃
刄
刅
分
切
刍
刑
刕
刖
列
刘
则
初
別
利
别
到
制
刺
則
削
剌
前
剡
剽
劉
力
功
加
劦
助
劫
劳
劵
勃
勇
勉
勒
動
務
勞
勤
勹
勺
勻
勾
勿
匀
匂
包
匆
匈
匊
匋
匍
匕
化
北
匚
匝
匡
匪
匱
匸
匹
区
医
匽
匿
區
十
卂
千
卄
卅
卆
升
午
卉
半
卌
华
卑
卒
卓
单
卖
南
卜
卝
卞
占
卡
卢
卣
卤
卦
卩
卪
卬
卯
印
危
即
却
卵
卷
卸
卻
厂
厃
厄
历
厈
厉
厌
厓
厘
厚
原
厤
厥
厨
厭
厲
厶
厷
厸
去
厼
厽
叀
参
參
叅
又
叉
及
友
双
反
叐
发
叒
叔
叕
取
受
叚
叜
叟
口
古
句
另
叩
只
召
可
台
叱
史
右
叵
号
司
叹
吂
各
吅
合
吉
吊
吋
同
名
后
吏
向
吕
君
吝
吞
否
含
启
吳
吴
吹
吾
呂
呆
呈
告
员
呙
周
命
咅
和
咎
咠
咢
咨
咸
咼
哀
品
哉
員
哥
哲
唐
商
啇
問
啚
啬
啻
善
喜
喬
單
喿
嗇
噩
嚴
囊
囗
囘
囙
囚
四
回
囟
因
囧
囬
困
囱
囷
固
国
圂
圅
國
圍
園
圓
土
圡
圣
圥
在
圭
地
圶
圼
坐
坒
坚
坴
垂
垔
垚
埀
埋
埶
執
基
堂
堅
堆
堇
堯
塞
墨
壘
士
壬
壯
声
壳
壴
壹
壺
壽
夂
处
夅
夆
备
夊
夋
夌
复
夏
夒
夕
外
夗
夘
多
夜
夢
大
夨
天
太
夫
夬
夭
央
失
夲
头
夷
夸
夹
夻
夾
奂
奄
奇
奈
奉
奎
奏
奐
契
奓
奔
奚
奞
奠
奢
奥
奭
女
奴
奻
好
如
妄
妙
妟
妥
妻
妾
姑
委
姜
威
娄
婁
婴
嬰
嬴
子
孑
孔
孕
孖
字
存
孚
孛
孝
孟
季
孤
学
孫
孱
學
宀
宁
宂
它
宅
宇
守
安
宋
完
宏
宓
宗
官
定
宛
宜
宝
客
宣
室
宮
宰
害
家
容
宾
宿
寄
寅
密
富
寒
察
寧
審
寫
寬
寮
寸
对
寺
寻
寽
対
寿
封
尃
射
将
將
專
尉
尊
尋
尌
對
小
少
尒
尓
尔
尖
尗
尚
尞
尢
尣
尤
尧
尨
尭
就
尸
尹
尺
尻
尼
尽
尾
尿
局
居
屈
屋
屎
屏
屑
展
屖
屚
属
屠
屡
屬
屮
屯
屰
山
屵
屾
岁
岂
岑
岡
岩
岳
岸
峯
島
崇
崑
崔
崖
崙
崩
嵬
嶲
巂
巛
川
州
巟
巠
巢
巤
工
左
巧
巨
巩
巫
差
己
已
巳
巴
巷
巸
巽
巾
巿
帀
市
布
希
帚
帛
帝
带
師
席
帶
常
干
平
年
幵
并
幷
幸
幺
幻
幼
幽
幾
广
広
庄
床
底
店
庚
府
度
庫
庭
庶
康
庸
廉
廌
廛
廣
廩
廴
延
廷
建
廾
廿
开
弁
弃
弄
弇
弋
式
弓
弔
引
弗
弘
弜
弟
弥
弦
弱
張
強
强
彊
彌
彎
彐
彑
当
彔
录
彖
彗
彡
形
彥
彦
彧
彭
彳
役
彼
往
待
律
徒
得
徙
從
復
微
徵
心
忄
必
忌
忍
志
忝
忠
忩
快
念
忽
忿
思
怠
急
怱
恆
恒
恩
恭
息
悉
患
悤
悲
悶
惠
惡
惢
愁
愈
意
愛
感
慈
慧
慮
憂
憲
應
戀
戈
戉
戊
戋
戌
戍
戎
成
我
戒
戔
或
戚
戠
戢
截
戲
戶
户
戹
戼
戾
房
所
扁
扇
手
扌
才
打
托
执
扩
承
折
拉
拜
拿
掌
推
提
摩
支
攴
攵
收
攸
改
放
政
敄
敏
敕
敖
敗
教
敝
敞
敢
散
敦
敫
敬
数
敷
數
斂
文
斉
斊
斗
斤
斥
斩
斬
斯
新
方
於
施
斿
旁
旋
族
无
旡
既
旣
日
旦
旧
旨
早
旬
旱
旲
时
旾
昆
昇
昌
昍
明
昏
易
昔
昗
昜
星
春
昬
是
昱
昴
昷
時
晃
晋
晏
普
景
晶
智
暑
暴
曇
曩
曰
曲
曳
更
曷
書
曹
曼
曾
替
最
朁
會
月
有
朋
服
朔
朕
朗
望
朝
木
朩
未
末
本
札
朮
术
朱
朵
朶
朿
杀
杏
杜
束
条
来
東
杲
杳
松
板
析
林
枚
果
枝
枲
枼
柏
某
柔
查
柬
柰
柴
栗
桀
桑
桼
梁
條
梟
梨
棘
棠
棥
森
楚
業
楽
榮
樂
樊
模
欠
次
欣
欮
欲
欶
欽
款
歆
歇
歛
止
正
此
步
武
歨
歪
歮
歯
歰
歲
歴
歷
歸
歹
歺
死
殳
段
殷
殸
殹
殺
殻
殿
毋
毌
母
每
毒
比
毕
毚
毛
毳
氏
氐
民
气
氣
水
氵
氶
氷
永
氺
氾
求
汉
汝
汞
江
沃
沓
沙
沝
泉
法
波
泣
泥
注
泰
洛
洪
活
派
流
浦
浪
浮
海
淡
淮
清
渚
渠
湯
滿
漢
漸
灣
火
灬
灭
灰
灵
灷
炅
炎
炏
炗
炙
炭
為
烈
烏
烝
焉
無
焦
焱
然
煞
熊
熏
燕
營
燮
爪
爫
爭
爯
爰
爱
爲
爵
父
爻
爽
爾
爿
片
牙
牚
牛
牜
牟
牢
牧
牪
牽
犀
犬
犭
犮
狂
狄
狊
独
狺
猋
猒
猪
献
獻
玄
率
玉
王
玟
玨
珎
班
琴
瑟
瑩
瓜
瓦
甘
甚
生
産
用
甫
甬
田
由
甲
申
电
甶
男
甸
甹
画
甾
畀
界
畏
畐
留
畜
畟
畢
畧
畨
番
畫
異
畱
當
畺
畾
疊
疋
疌
疑
疒
疾
癶
癸
癹
登
發
白
百
皀
皃
的
皆
皇
皋
皐
皕
皮
皷
皿
盃
盆
盇
盈
益
盍
盎
监
盒
盖
盛
盡
監
盤
盧
目
直
相
盾
省
眇
眉
看
眔
眞
真
眷
眼
眾
着
睘
睪
睿
瞏
瞢
瞿
矍
矛
矞
矢
矣
知
矦
短
石
破
碎
磊
磨
示
礻
礼
祟
票
祭
禀
禁
禸
禹
禺
离
禽
禾
禿
秀
秃
秉
秋
科
秝
秦
移
稟
穀
穌
穴
究
穹
空
穿
突
窄
窒
立
竒
竜
竝
竟
章
童
竹
笑
笠
筆
等
答
箇
箕
算
箴
節
篤
篭
米
粉
粛
粟
粤
粦
粲
糞
糸
糹
系
約
納
素
索
紫
累
細
絜
絫
絲
經
維
綿
縣
繇
纍
纟
缶
网
罒
罔
罕
罗
罙
罡
罢
罪
署
罷
羅
羊
羌
羍
美
羔
羕
羗
羞
羡
羣
群
義
羲
羸
羽
翁
翏
習
翕
翟
翠
翼
老
耂
考
者
耆
而
耎
耑
耒
耳
耴
耶
耷
聂
聊
聖
聚
聶
聿
肀
肃
肅
肉
肖
肙
肥
肩
肯
育
肴
胃
背
胡
胥
能
脊
脩
膚
臣
臤
臧
自
臬
臭
臯
臱
至
致
臺
臼
臽
臾
臿
舀
舂
舄
與
興
舉
舌
舍
舛
舜
舞
舟
般
艮
良
色
艸
艹
艾
芒
芔
芬
芮
花
芳
芺
芻
苔
苗
苟
若
苦
英
茶
茸
荅
草
荒
荣
荼
莆
莧
莫
莽
菆
菊
菐
華
萬
落
葉
著
葛
董
葵
蒙
蒦
蒼
蓋
蓬
蓺
蔑
蔡
蕉
蕭
薄
薛
薦
薰
藍
藏
藥
蘭
虍
虎
虐
虒
虔
處
虖
虗
虘
虚
虛
虜
虞
虫
虽
蚤
蚩
蜀
蜜
蟲
蠡
血
行
衍
衛
衣
衤
表
衮
衰
袁
袞
褭
褱
襄
襾
西
覀
要
覃
見
規
覓
覧
親
覽
见
角
解
言
訁
訇
計
詹
語
誩
諸
讠
语
谷
豆
豈
豊
豐
豕
豖
豙
象
豦
豩
豪
豸
貇
貝
貞
貟
負
貢
貧
貪
貫
責
貳
貴
買
費
賁
資
賈
賏
賓
賔
賛
賞
賢
賣
質
賴
贊
贝
贡
责
贯
贲
贵
赖
赞
赤
赦
走
越
足
路
蹇
身
躬
車
軍
軎
軟
輦
车
辛
辜
辟
辥
辰
辱
農
辵
辶
边
达
过
近
连
迷
追
退
送
逆
逐
通
速
造
逢
連
逮
進
遀
遂
過
道
達
遣
適
遷
遺
邊
邑
邕
那
邦
邪
郎
部
郭
都
鄉
酉
酋
配
酓
釆
采
里
重
野
量
金
釒
錢
钅
長
镸
长
門
閃
閉
開
閏
閑
閒
間
閔
閵
閻
闌
门
间
闷
阑
阜
阝
阿
降
陳
隆
隊
隋
隡
隨
隱
隶
隹
隺
隻
隼
隽
难
雀
雁
集
雈
雋
雍
雐
雔
雙
雚
雜
雝
離
難
雨
雩
雪
雲
零
雷
需
霍
霜
霝
霞
霸
靈
靑
青
非
靡
面
靣
革
韋
韦
韭
韯
韱
音
頁
頃
項
須
頗
頡
頻
顛
页
風
风
飛
飞
食
飠
養
饣
首
香
馬
馮
駦
马
骨
高
髟
鬥
鬯
鬲
鬼
魚
魯
鮮
鱼
鲁
鳥
鳳
鸟
鹵
鹿
麃
麗
麥
麦
麻
黃
黄
黍
黎
黑
黒
黨
黹
黽
黾
鼎
鼓
鼠
鼻
齊
齋
齐
齒
齿
龍
龙
龜
龟
龠
龰
龱
龴
龵
龶
龷
龸
龹
ꙁ
者
艹
ﮔ
ﺎ
ﻧ
ﻪ
）
？
￼
𐌰
𐌴
𐌹
𐌻
𐌼
𐌽
𐌿
𐍂
𐍃
𐍆
🔍
🜨
𠀁
𠀃
𠀆
𠀉
𠀎
𠀐
𠁁
𠁣
𠂆
𠂇
𠂈
𠂉
𠂊
𠂋
𠂎
𠂒
𠂔
𠂛
𠂡
𠂢
𠂤
𠂬
𠂭
𠂹
𠃊
𠃋
𠃌
𠃍
𠃎
𠃑
𠃓
𠃔
𠃜
𠄌
𠄎
𠄠
𠄢
𠆢
𠆥
𠇍
𠈌
𠌵
𠓜
𠔉
𠔥
𠔼
𠔽
𠔿
𠕀
𠕁
𠕋
𠘧
𠘨
𠙻
𠙼
𠚏
𠚒
𠚤
𠚪
𠣏
𠤎
𠤕
𠥓
𠦄
𠦑
𠦝
𠧒
𠧗
𠧪
𠩺
𠪚
𠫓
𠫔
𠫤
𠬛
𠬝
𠬞
𠬢
𠬤
𠬶
𠮛
𠮦
𠮷
𠯑
𠱠
𠳮
𠷎
𡈼
𡉀
𡉵
𡌥
𡍮
𡏳
𡕒
𡕩
𡕰
𡖅
𡗗
𡗜
𡘆
𡘤
𡧱
𡨄
𡩧
𡬠
𡭽
𡰣
𡰥
𡰪
𡰯
𡰱
𡷈
𡸁
𡿨
𡿩
𡿪
𡿺
𢀖
𢀛
𢀩
𢁙
𢆉
𢆰
𢆶
𢇁
𢇇
𢉖
𢌬
𢌿
𢏚
𢑑
𢑚
𢖻
𢙣
𢛳
𢦏
𢦒
𢧵
𢼄
𢾕
𣁋
𣄼
𣅀
𣅽
𣍘
𣎳
𣎵
𣏋
𣏼
𣗥
𣥂
𣥖
𣦵
𣦼
𣧄
𣪊
𣪠
𣬉
𣳾
𣶒
𤇾
𤊽
𤐫
𤓰
𤔔
𤕨
𤣩
𤰇
𤰔
𤰞
𤴓
𤴔
𤽄
𥁑
𥁕
𥃦
𥃩
𥃭
𥇡
𥑟
𥘅
𥘈
𥝢
𥫗
𥱡
𦈢
𦉪
𦉬
𦉼
𦍌
𦍒
𦎧
𦐇
𦓔
𦔮
𦘒
𦙃
𦚏
𦣝
𦣞
𦣻
𦥑
𦥔
𦥯
𦨉
𦭝
𦰩
𧆞
𧈧
𧘇
𧰨
𧴪
𧴮
𧵩
𧾷
𨸏
𨾴
𩙿
𩠐
𩫏
𩵋
𪉷
𪜀
𪟽
𪠲
𪩲
𫇦
𫔭
𫜸
𫝀
𫠣
𫠩
𫢉
𫥞
𫩏
𫩠
𫪡
𫲽
𫶧
𬀷
𬐘
𬗌
𬙙
𬛸
𬜯
𬟩
𬯁
𬴘
𬺻
𬼉
𬼖
𭀰
𭁈
𭁨
𭅰
𭑈
𭕄
𭗼
𭤨
𭥫
𭻾
𮅕
𮊿
𮍌
𮍏
𮓗
𮥼
𮧮
廾
𰀁
𰀄
𰀈
𰀉
𰀕
𰀠
𰀡
𰀢
𰀪
𰁜
𰃮
𰆊
𰆘
𰋙
𰕎
𰢴
𰧭
𰯲
00--
01--
02--
04--
05--
07--
08--
09--
10--
11--
12--
13--
14--
15--
16--
17--
18--
22--
23--
26--
27--
27475--
28--
31--
32--
33--
34--
36--
39--
40--
41--
43--
48--
49--
50--
54--
55--
56--
57--
65--
66--
70--
72--
75--
80--
81--
84--
85--
86--
87--
90--
91--
92--
93--
a--
aa--
ab--
aba--
abd--
abder--
abdes--
abr--
abu--
ac--
acc--
aceh--
ach--
ack--
ad--
ada--
add--
ade--
adr--
adu--
ae--
af--
afa--
afc--
afd--
afi--
ag--
agg--
agi--
agw--
ah--
ai--
aj--
ak--
aka--
aker--
akha--
akw--
al--
ala--
alb--
ale--
ales--
alit--
alja--
all--
alqa--
als--
alt--
alx--
alza--
alɛ--
am--
ama--
amd--
ame--
ami--
amn--
amr--
ams--
amt--
amussn--
amz--
amɣ--
an--
ana--
ane--
aned--
anes--
ang--
ani--
ann--
ans--
ant--
anti--
anz--
aou--
app--
apr--
aq--
aql--
aqq--
ar--
arab--
arf--
arg--
arm--
as--
asa--
asb--
asd--
ase--
asef--
aseg--
aser--
asg--
asi--
asmuz--
asn--
asq--
asr--
ass--
ast--
astro--
asx--
at--
aten--
ath--
att--
attri--
au--
aust--
av--
aw--
awj--
awn--
awt--
ax--
axx--
ay--
ays--
ayt--
az--
aza--
aze--
azr--
aɛ--
aɣ--
b--
ba--
bak--
bake--
bal--
bar--
bat--
bay--
bc--
bd--
be--
ben--
ber--
bere--
bh--
bi--
bil--
bin--
biog--
bit--
bja--
blan--
bll--
bloom--
bn--
bo--
bog--
bor--
bos--
bou--
br--
bra--
bs--
bu--
buc--
bug--
buh--
buj--
bul--
bur--
bus--
but--
buɛ--
by--
c--
ca--
calc--
cale--
can--
cap--
car--
cas--
caval--
cc--
ce--
cele--
cen--
cf--
ch--
cha--
che--
cho--
ci--
cl--
cm--
co--
col--
com--
con--
cou--
cro--
croa--
croi--
cu--
cy--
cɛ--
d--
da--
dan--
dar--
dat--
daw--
day--
dd--
dde--
ddu--
de--
dec--
dem--
der--
des--
deuts--
df--
dg--
dh--
di--
dia--
dic--
did--
dim--
dis--
div--
dj--
dl--
dm--
dms--
do--
doku--
domin--
douk--
dr--
dro--
ds--
du--
dur--
dz--
dɛ--
dɣ--
e--
ea--
ebs--
ech--
ed--
ef--
egg--
eh--
ek--
el--
elep--
em--
en--
end--
ent--
entre--
equ--
er--
es--
espa--
est--
et--
eth--
ethno--
etymo--
eu--
ex--
exp--
experi--
expli--
ext--
f--
fa--
fac--
fad--
faq--
far--
fat--
fd--
fe--
fer--
ff--
fh--
fi--
fil--
fili--
fin--
fir--
fk--
fl--
flor--
fn--
fo--
for--
found--
fr--
fur--
fus--
fy--
g--
ga--
gal--
gam--
gar--
gay--
ge--
ger--
gg--
gh--
gha--
gi--
git--
gl--
glo--
gn--
gou--
gov--
gr--
gra--
gre--
grenad--
gro--
gu--
guan--
gue--
gw--
h--
ha--
haf--
han--
hand--
har--
harro--
hay--
hd--
he--
helb--
her--
hex--
hi--
ho--
hono--
hr--
hu--
hun--
hy--
i--
ib--
iba--
ibc--
ibr--
ibrt--
ic--
ich--
icnu--
icu--
id--
ida--
idakw--
ident--
idi--
idr--
idu--
if--
ifejj--
ifer--
ifi--
ifl--
ifr--
ig--
iga--
igd--
igel--
igg--
igh--
igi--
ign--
igr--
igw--
igwi--
ih--
ihe--
ii--
ij--
ik--
ika--
ike--
iker--
ikk--
ikr--
iks--
ikw--
il--
ili--
ilm--
ilu--
ilɣ--
im--
ima--
imd--
ime--
img--
imh--
imi--
imk--
iml--
immg--
immi--
imn--
imna--
imp--
imr--
ims--
imt--
imuɣ--
imya--
imz--
imɣ--
in--
ina--
incu--
ind--
ine--
inf--
ing--
ingh--
ini--
inma--
inmu--
inn--
ins--
int--
inter--
inu--
inz--
inɣ--
io--
ipr--
iq--
iqq--
ir--
ira--
ire--
iru--
is--
isa--
isd--
ise--
isek--
isen--
isf--
isff--
isgu--
ish--
isi--
isk--
ism--
isn--
isqq--
iss--
issem--
issi--
isu--
isw--
isww--
isɣ--
it--
ite--
itf--
itga--
itgha--
ith--
itt--
itte--
ittek--
ittem--
itten--
itter--
ittms--
ittnz--
itts--
ittu--
ittx--
ittya--
ittyu--
ittɛ--
ityu--
itz--
itɛ--
iu--
iv--
iw--
iwa--
iwi--
iwt--
ix--
ixw--
iy--
iymɣ--
iz--
ize--
izg--
izm--
izz--
iɛ--
iɣ--
iɣw--
j--
ja--
jar--
je--
jer--
jir--
jj--
jo--
jou--
jr--
ju--
jug--
juri--
just--
k--
ka--
kab--
kali--
kam--
kan--
kar--
kas--
kaw--
kci--
kece--
ked--
ker--
kes--
kh--
khe--
kil--
kir--
kk--
kka--
kle--
km--
kn--
ko--
kr--
ks--
kt--
ku--
kud--
kul--
kun--
kur--
kw--
ky--
l--
la--
lad--
lah--
lam--
lan--
laq--
lar--
las--
lat--
law--
lax--
lb--
lba--
lbn--
lbr--
le--
lea--
lej--
leq--
lev--
lex--
lexi--
leɛ--
lf--
lfi--
lfr--
lfuq--
lgd--
lh--
lha--
li--
lib--
lim--
lin--
lingu--
lingv--
liqq--
lj--
lja--
lk--
ll--
lli--
lm--
lma--
lmu--
lmuj--
lmuɛ--
lmɛ--
ln--
lo--
lodo--
lq--
lqq--
ls--
lt--
lu--
luh--
lv--
lwi--
lx--
lɛ--
lɛa--
lɛd--
lɛt--
lɣa--
lɣd--
m--
ma--
mac--
mad--
mak--
mal--
mam--
man--
mar--
mas--
mascu--
mat--
mauri--
maw--
may--
mc--
md--
me--
med--
mej--
mekn--
mel--
men--
meqq--
mer--
meta--
mez--
mg--
mh--
mi--
mic--
micro--
mil--
min--
miss--
mix--
mk--
ml--
mm--
mme--
mmu--
mn--
mo--
moha--
moi--
mon--
monum--
mor--
moum--
mq--
mr--
ms--
mt--
mu--
muh--
muk--
mul--
mun--
my--
mz--
mɛ--
mɣ--
n--
na--
nar--
nay--
nd--
ne--
neg--
nej--
nem--
nes--
net--
new--
nez--
nf--
ng--
ngr--
nh--
ni--
nik--
nj--
nk--
nl--
nm--
nn--
nna--
no--
nom--
nord--
nou--
ns--
nss--
nsx--
nt--
nu--
nv--
nx--
nz--
nɣ--
o--
obt--
oc--
of--
ohlo--
ol--
oliv--
om--
on--
op--
opp--
or--
org--
orsan--
os--
oth--
ou--
oub--
ouer--
out--
ouz--
p--
pa--
pale--
pas--
pavi--
pe--
per--
phar--
phi--
philipp--
philo--
phr--
pi--
pl--
place--
po--
pois--
pol--
polit--
poly--
pom--
pon--
pos--
pou--
pr--
pre--
prin--
princi--
pro--
psych--
pun--
px--
q--
qa--
qer--
ql--
qq--
qs--
qu--
quae--
quo--
qust--
r--
ra--
raf--
rah--
rai--
ray--
re--
red--
rem--
ren--
rense--
res--
respec--
rf--
rg--
rh--
ri--
ric--
ris--
rk--
rm--
ro--
rous--
rq--
rr--
rre--
ru--
rwa--
rx--
rz--
rɣ--
s--
sa--
sab--
sah--
sam--
sanctu--
sar--
sat--
satel--
saɛ--
sc--
sci--
sd--
se--
sec--
semit--
sen--
ser--
sfiyy--
sg--
sh--
sha--
si--
sid--
sig--
sigg--
signifi--
sil--
sim--
simpl--
singa--
sk--
sl--
slo--
slove--
sm--
smmu--
sn--
snul--
so--
sol--
son--
sou--
souf--
sp--
spa--
spi--
sr--
ss--
ssa--
ssek--
ssel--
ssem--
ssi--
ssn--
ssum--
ssus--
st--
sta--
sti--
stɛ--
su--
sub--
sud--
sul--
sum--
sup--
sur--
surve--
sus--
sw--
swa--
sx--
sɣ--
t--
ta--
tab--
tabe--
tabi--
tabu--
tac--
tad--
taf--
tag--
tagg--
tagl--
tagri--
tah--
taj--
taje--
tak--
tal--
tala--
tallu--
talmr--
tam--
tama--
tamr--
tams--
tamu--
tan--
tanf--
tans--
taq--
taqq--
tar--
tas--
tasa--
tasd--
tasi--
tasnm--
tass--
tasun--
tat--
taw--
taww--
tax--
tayff--
tayn--
taz--
taza--
taɛ--
taɣ--
tb--
tbu--
tbuɣ--
tc--
tca--
td--
te--
tech--
tef--
teg--
tejja--
tek--
tekn--
tel--
tele--
tems--
ten--
term--
tes--
tesda--
tet--
tett--
tetty--
tew--
tex--
tez--
tf--
tfa--
tff--
tfi--
tfl--
tfn--
tfr--
tft--
tg--
tga--
tgh--
tgl--
tgw--
th--
the--
ti--
tid--
tif--
tiff--
tifgg--
tifl--
tig--
tigdu--
tigraɣ--
tik--
tikn--
til--
tilm--
tim--
timd--
timel--
timez--
timk--
timl--
timr--
tims--
timu--
timz--
tin--
tiq--
tir--
tirus--
tis--
tisda--
tisk--
tisrt--
tit--
tiw--
tiws--
tiz--
tiɣ--
tiɣu--
tj--
tk--
tkr--
tl--
tla--
tles--
tli--
tm--
tmd--
tmer--
tmk--
tml--
tmna--
tmra--
tms--
tmyad--
tmz--
tn--
tnd--
tne--
tnf--
tnz--
tnɣ--
to--
top--
touri--
tq--
tqq--
tr--
tra--
trans--
tri--
trz--
ts--
tsaɣ--
tsd--
tsff--
tsk--
tsn--
tss--
tsse--
tssi--
tssim--
tssu--
tsu--
tsɣ--
tt--
tta--
tte--
ttf--
tti--
ttiys--
ttl--
ttmy--
ttnyal--
ttr--
tts--
tturr--
ttut--
ttwas--
ttx--
ttyi--
ttɣa--
tu--
tuc--
tud--
tuf--
tuk--
tukk--
tul--
tuml--
tun--
tunz--
tuq--
tur--
turd--
tus--
tut--
tux--
tuy--
tuz--
tuɣ--
tw--
twa--
tws--
tx--
ty--
tya--
typ--
tyus--
tz--
tzd--
tzg--
tɛ--
tɣ--
tɣw--
u--
ub--
uba--
ubr--
uc--
ud--
udm--
uf--
ufer--
ug--
ugg--
ugr--
ugz--
uh--
uj--
uk--
uke--
ukk--
ukw--
ul--
ula--
um--
uma--
umd--
ume--
umes--
umj--
umm--
umn--
umr--
ums--
umt--
umz--
umɣ--
un--
una--
une--
uneɣ--
uni--
up--
uq--
uqq--
uqr--
uqu--
ur--
ure--
uri--
urr--
us--
usa--
usd--
use--
usf--
usn--
usseg--
ust--
usx--
usɛ--
ut--
utt--
utu--
uw--
uww--
ux--
uz--
uze--
uzr--
uɛ--
uɣ--
v--
va--
van--
vati--
ve--
verm--
vi--
vie--
vo--
voi--
w--
wa--
wab--
wad--
waf--
wag--
wah--
wak--
wal--
wan--
war--
waw--
way--
we--
web--
wej--
wek--
wel--
wem--
wi--
wiki--
win--
wis--
wna--
wo--
ws--
wud--
wug--
wuk--
wun--
ww--
x--
xem--
xi--
xl--
xni--
xt--
xx--
xy--
y--
ya--
yaf--
yaq--
yas--
yaɛ--
ye--
yes--
yett--
yez--
yg--
yi--
yig--
yim--
yin--
yirm--
yiw--
yiz--
yiɣ--
yiɣr--
yl--
ymd--
yn--
yo--
yqq--
ys--
yt--
yu--
yuw--
yya--
yz--
z--
za--
zay--
zd--
ze--
zelal--
zem--
zg--
zi--
zig--
zin--
zn--
zo--
zr--
zu--
zz--
zza--
zzg--
zzi--
zzu--
zɣ--
²--
ð--
ə--
ɛ--
ɛa--
ɛabd--
ɛabdel--
ɛbd--
ɛd--
ɛe--
ɛt--
ɣ--
ɣa--
ɣi--
ɣik--
ɣr--
ɣt--
ɣu--
ɣw--
ɣzzi--
β--
ε--
μ--
στ--
φιλο--
а--
берберск--
и--
н--
јаз--
ا--
اح--
اس--
اك--
ال--
الت--
الج--
الحس--
الد--
الز--
الط--
الق--
الك--
الم--
ام--
ب--
با--
بخ--
بد--
بر--
ت--
تا--
تت--
تح--
تص--
ث--
ثن--
ج--
جر--
جز--
جم--
ح--
حا--
خ--
خب--
خط--
د--
در--
ذ--
ر--
رس--
زن--
س--
سا--
سب--
سو--
سي--
ش--
شع--
شك--
ص--
صا--
صد--
ض--
طا--
ع--
عر--
غ--
ف--
فس--
ق--
قد--
ك--
كا--
كس--
كور--
ل--
لع--
لك--
لل--
للم--
م--
مج--
مح--
مد--
مر--
مس--
مش--
مط--
مع--
مغر--
مف--
مك--
مل--
ن--
ند--
نش--
نظ--
ه--
و--
وا--
ي--
อ--
--0
--00
--1
--14
--2
--25
--3
--30
--4
--5
--59
--6
--7
--76
--8
--9
--a
--aa
--ab
--able
--ac
--aca
--acr
--ad
--ae
--af
--ag
--aga
--age
--agh
--ah
--ahil
--ahu
--ai
--aid
--aire
--ais
--aj
--ak
--akin
--al
--ale
--alen
--ali
--aln
--alt
--am
--amu
--an
--ane
--ani
--ann
--ans
--anske
--ant
--aq
--aqa
--aqra
--ar
--ara
--ard
--aris
--art
--aru
--ary
--arya
--aryu
--as
--asn
--at
--ata
--ate
--aten
--ation
--au
--avit
--aw
--awn
--awt
--awy
--ay
--ayin
--ayl
--ayn
--ayt
--az
--azn
--aɛ
--aɣ
--aɣin
--b
--ba
--bal
--baln
--baz
--bd
--be
--bes
--bga
--bi
--bid
--bie
--bir
--birt
--bit
--biy
--bl
--ble
--bn
--bo
--bot
--br
--bt
--bu
--bur
--bya
--c
--ca
--cal
--ce
--ceae
--cer
--cf
--ch
--che
--cht
--ci
--ck
--cki
--cm
--cn
--co
--cr
--cs
--ct
--ction
--cu
--cus
--d
--da
--daf
--daq
--dar
--daɣ
--dd
--dda
--dder
--ddu
--de
--del
--den
--des
--di
--dig
--din
--dis
--dit
--diz
--dm
--dn
--dnt
--do
--dou
--dr
--drt
--ds
--dt
--du
--dukkutn
--dul
--dun
--dus
--duz
--duɣ
--dya
--dyu
--dɣ
--e
--ea
--eb
--eba
--ebt
--ec
--ect
--ed
--ef
--eg
--egh
--eh
--ei
--ein
--ek
--el
--elfna
--ell
--elli
--em
--ema
--emark
--ement
--emn
--emt
--en
--ena
--ence
--ene
--engh
--enje
--ent
--er
--era
--erd
--erk
--ers
--ert
--es
--ese
--et
--eur
--eurs
--eux
--ev
--ew
--ey
--ez
--ezje
--eɣ
--f
--fa
--fal
--fanin
--faɣ
--fd
--fe
--fel
--felt
--fen
--fet
--ffuɣ
--fi
--fid
--fin
--fire
--fl
--flah
--fld
--fn
--fr
--frk
--fru
--fs
--fsan
--ft
--ftay
--fu
--fuln
--fun
--fuɣ
--fuɣn
--fɣ
--g
--ga
--gal
--gam
--gan
--gat
--gaz
--gdal
--gdudt
--ge
--gen
--ger
--ges
--gg
--gga
--ggurt
--ggz
--gh
--ghen
--ghi
--ght
--gi
--gical
--gie
--git
--gl
--glam
--gle
--gln
--gm
--gmi
--gn
--gnaf
--go
--gr
--gs
--gt
--gton
--gu
--gua
--gur
--gurt
--gut
--gz
--gza
--gɣ
--h
--ha
--hal
--hala
--ham
--he
--hed
--hem
--hen
--hes
--hf
--hi
--hl
--hln
--hm
--hri
--ht
--http
--https
--hu
--hum
--hura
--hwa
--i
--ia
--ian
--iation
--ib
--ic
--ication
--ick
--ics
--id
--ie
--ied
--ien
--ier
--iers
--ies
--if
--ig
--iga
--ige
--ight
--ign
--igo
--ih
--ii
--ij
--ije
--iji
--ik
--iki
--iko
--ikt
--iku
--il
--ila
--ile
--iliyn
--iln
--ilo
--ilya
--im
--imn
--imt
--in
--ine
--ing
--ini
--inu
--io
--ion
--ional
--ions
--iq
--iqa
--ique
--ir
--ire
--irt
--is
--ische
--isfiw
--ish
--isio
--iske
--ism
--isme
--isn
--isset
--ist
--iste
--it
--ita
--ite
--ition
--itn
--ity
--ium
--ius
--ive
--iw
--ix
--iy
--iya
--iyi
--iyin
--iyn
--iyt
--iz
--iɣ
--iɣn
--j
--ja
--jan
--je
--jem
--ji
--jid
--jil
--jit
--jj
--jja
--jji
--jm
--jn
--jr
--jt
--ju
--jya
--k
--ka
--kal
--kam
--kan
--kar
--karen
--karn
--kat
--kc
--kct
--kd
--ke
--ker
--ket
--kh
--ki
--kil
--kin
--kir
--kit
--kk
--kkem
--kl
--kln
--klu
--km
--kmt
--kn
--kni
--ko
--kr
--ks
--ksn
--kt
--ku
--kuk
--kus
--kz
--l
--la
--lam
--lan
--lar
--lay
--layn
--lb
--ld
--le
--lem
--len
--les
--let
--ley
--lf
--lh
--li
--lia
--lik
--lin
--lit
--lius
--liwn
--liwt
--liy
--lk
--lka
--lkem
--lkim
--ll
--lle
--llen
--lles
--lli
--llu
--lm
--lmn
--ln
--lnt
--lo
--logie
--logy
--lon
--lou
--ls
--lt
--lu
--lul
--lun
--lux
--luz
--lwal
--ly
--lya
--lz
--lɣ
--lɣn
--m
--ma
--mad
--man
--mann
--mar
--md
--me
--mem
--men
--ment
--mi
--mic
--mim
--mir
--mirt
--mit
--miyn
--ml
--mli
--mm
--mma
--mn
--mnt
--mr
--mrs
--ms
--msa
--msad
--mt
--mu
--mut
--muz
--my
--mz
--mɣr
--n
--na
--nage
--nal
--nam
--nant
--naw
--nay
--naɣt
--nbul
--nc
--nce
--nces
--ncg
--nch
--nd
--nda
--ndre
--ne
--nel
--nen
--ner
--net
--nfal
--nfn
--nfu
--ng
--ni
--nia
--nic
--nin
--nir
--nis
--nit
--niyn
--nk
--nn
--nne
--nnt
--no
--nq
--ns
--nsn
--nt
--ntal
--nti
--nu
--nus
--nutn
--ny
--nya
--nz
--nɣ
--nɣa
--o
--oa
--od
--oe
--ogy
--ol
--olamo
--ole
--ology
--om
--omy
--on
--ona
--oni
--ons
--ony
--oo
--op
--or
--ora
--ore
--oric
--ors
--os
--ot
--ota
--ou
--ouan
--oui
--oul
--oun
--our
--ov
--ow
--p
--pa
--pe
--pes
--phie
--po
--ps
--pte
--q
--qal
--qd
--qes
--qi
--qin
--qir
--ql
--qn
--qqa
--qqan
--qqi
--qqid
--qql
--qqr
--qt
--qu
--que
--qul
--r
--ra
--raf
--rah
--ram
--ran
--rar
--raw
--rawn
--rawt
--raz
--raɛn
--raɣ
--rb
--rd
--rda
--rdn
--re
--reb
--ren
--ret
--rf
--rg
--rgit
--rh
--ri
--rib
--ribt
--rim
--rin
--rit
--rk
--rm
--rmt
--rn
--rne
--rni
--rnit
--rnt
--ro
--ron
--rot
--rr
--rri
--rs
--rsn
--rt
--ru
--ruf
--rugn
--ruk
--rumt
--rus
--rust
--rut
--ry
--rya
--rz
--rza
--s
--sa
--sal
--san
--sann
--sat
--say
--saɣ
--sd
--se
--sel
--sen
--seur
--sfr
--sh
--si
--sia
--sian
--sif
--sin
--sir
--sis
--sit
--siyn
--sk
--ska
--sm
--sme
--sn
--sna
--so
--son
--srn
--ss
--ssi
--ssides
--ssion
--st
--ste
--stein
--struction
--stuqrat
--su
--sufɣ
--sus
--sut
--swit
--t
--ta
--tan
--tas
--tay
--tayn
--tc
--te
--tel
--ten
--tenɣ
--ter
--tes
--teur
--teurs
--th
--ti
--tic
--tics
--ties
--tifs
--tik
--til
--tile
--tin
--tion
--tions
--tit
--tive
--tiy
--tl
--tn
--tna
--tnt
--to
--ton
--tor
--town
--tr
--tro
--ts
--tt
--tti
--ttp
--ttps
--ttuy
--tty
--tu
--tun
--tur
--tut
--ty
--u
--ua
--uc
--ud
--udi
--udin
--udn
--udt
--ue
--uel
--uen
--ues
--uf
--uff
--uft
--ug
--ugi
--ugt
--uh
--ui
--uin
--uj
--ujit
--uk
--uka
--ukn
--uksid
--ul
--ule
--uln
--uluji
--um
--un
--unt
--uq
--ur
--ure
--urer
--urf
--urs
--urt
--us
--usn
--ust
--ut
--utn
--uto
--uwh
--uwt
--ux
--uy
--uyen
--uyn
--uz
--uɛ
--uɣ
--uɣn
--uɣt
--v
--va
--ve
--ves
--vi
--w
--wa
--wal
--walt
--wanin
--was
--waɣ
--wd
--we
--wel
--wen
--wes
--wh
--wi
--wib
--win
--wir
--wit
--wiyn
--wl
--wln
--wlt
--wm
--wn
--wni
--wnt
--wr
--ws
--wsan
--wt
--wu
--wut
--wy
--wz
--wɣ
--x
--xa
--xr
--xs
--xt
--xu
--y
--ya
--yad
--yah
--yan
--yc
--yd
--yen
--yer
--yh
--yi
--yin
--yk
--ykh
--yl
--ylal
--yli
--ym
--yn
--ynt
--ynut
--yota
--yr
--ys
--yske
--yt
--yu
--yum
--yus
--yya
--yyin
--yyu
--yɣ
--z
--za
--zaf
--zal
--zalt
--zan
--zant
--zar
--zaɣ
--zd
--ze
--zel
--zen
--zer
--zf
--zi
--zit
--zl
--zm
--zn
--znt
--zo
--zr
--zt
--zu
--zult
--zz
--zza
--zzar
--zzift
--zzu
--zɣ
--zɣn
--ɛ
--ɛa
--ɛab
--ɛd
--ɛdi
--ɛi
--ɛid
--ɛr
--ɛs
--ɛt
--ɛun
--ɣ
--ɣa
--ɣal
--ɣan
--ɣay
--ɣd
--ɣen
--ɣi
--ɣl
--ɣla
--ɣlt
--ɣlu
--ɣlun
--ɣmu
--ɣn
--ɣr
--ɣra
--ɣrn
--ɣt
--ɣu
--ɣul
--ɣulen
--ɣun
--ɣut
--ɣz
--α
--ι
--κη
--ρι
--ς
--υ
--а
--и
--м
--і
--ја
--ء
--ا
--اء
--ات
--اد
--اس
--ان
--اي
--ب
--بة
--ة
--ت
--ج
--ح
--حة
--حي
--د
--دة
--دي
--ر
--رة
--ري
--ری
--ز
--س
--سي
--ص
--ض
--ط
--طقة
--ظة
--ع
--عة
--ف
--فة
--ق
--قة
--ك
--ل
--م
--مة
--مس
--ن
--نا
--نز
--ني
--ه
--ى
--ي
--ية
--يثي
--يد
--ير
