!
"
#
##0
##1
##10
##11
##12
##13
##14
##15
##16
##17
##18
##19
##2
##20
##21
##22
##23
##24
##25
##26
##27
##28
##29
##3
##30
##31
##32
##33
##34
##35
##36
##37
##38
##39
##4
##40
##41
##42
##43
##44
##45
##46
##47
##48
##49
##5
##50
##51
##52
##53
##54
##55
##56
##57
##58
##59
##6
##60
##61
##62
##63
##64
##65
##66
##67
##68
##69
##7
##70
##71
##72
##73
##74
##75
##76
##77
##78
##79
##8
##80
##81
##82
##83
##84
##85
##86
##87
##88
##89
##9
##90
##91
##92
##93
##94
##95
##96
##97
##98
##99
$
%
&
'
(
)
*
+
,
-
.
/
0
00
000
001
009
01
02
03
04
05
06
07
08
09
1
10
100
1000
1004
101
102
1025
1029
103
104
105
1050
106
107
108
1080
109
11
110
1100
111
112
1122
113
1130
114
115
116
117
118
119
12
120
1200
121
1210
122
123
124
125
1250
126
127
128
129
1290
13
130
1300
1309
131
1310
1312
132
1320
133
134
135
1350
136
137
138
139
14
140
1400
1405
141
142
143
144
145
1450
146
147
1470
148
149
15
150
1500
1510
1512
152
1520
153
1540
155
156
158
159
16
160
1600
161
163
164
165
1650
167
1670
168
1680
169
1690
17
170
1700
171
172
173
1730
174
1740
175
1750
1754
1758
176
1760
1770
1775
1776
1777
1778
178
1780
1782
1788
1789
179
1790
1791
1792
1793
1795
1796
1797
1799
18
180
1800
1801
1804
1805
1806
1808
1809
1810
1811
1813
1815
1816
1817
1818
1819
1820
1821
1822
1823
1824
1825
1826
1827
1828
1829
183
1830
1831
1832
1833
1834
1835
1836
1837
1838
184
1840
1841
1842
1843
1844
1845
1846
1847
1848
1849
185
1850
1851
1852
1853
1854
1855
1856
1857
1858
1859
186
1860
1861
1862
1863
1864
1865
1866
1867
1868
1869
1870
1871
1872
1873
1874
1875
1876
1877
1878
1879
188
1880
1881
1882
1883
1884
1885
1886
1887
1888
1889
189
1890
1891
1892
1893
1894
1895
1896
1897
1898
1899
19
190
1900
1901
1902
1903
1904
1905
1906
1907
1908
1909
191
1910
1911
1912
1913
1914
1915
1916
1917
1918
1919
192
1920
1921
1922
1923
1924
1925
1926
1927
1928
1929
193
1930
1931
1932
1933
1934
1935
1936
1937
1938
1939
194
1940
1941
1942
1943
1944
1945
1946
1947
1948
1949
195
1950
1951
1952
1953
1954
1955
1956
1957
1958
1959
196
1960
1961
1962
1963
1964
1965
1966
1967
1968
1969
197
1970
1971
1972
1973
1974
1975
1976
1977
1978
1979
198
1980
1981
1982
1983
1984
1985
1986
1987
1988
1989
199
1990
1991
1992
1993
1994
1995
1996
1997
1998
1999
2
20
200
2000
2001
2002
2003
2004
2005
2006
2007
2008
2009
201
2010
2011
2012
2013
2014
2015
2016
2017
2018
2019
202
2020
2021
2022
2023
2025
203
204
206
207
208
209
21
210
211
212
213
216
219
22
220
221
223
224
225
2250
226
227
228
229
23
230
233
234
236
237
238
239
24
240
241
242
243
245
247
249
25
250
251
253
254
255
256
26
260
263
27
270
276
277
28
280
282
284
285
286
287
288
29
290
292
295
296
298
3
30
300
3000
301
302
303
304
305
307
309
31
310
311
312
313
316
3166
32
320
321
322
323
329
33
330
34
340
343
345
347
35
350
36
360
365
37
370
371
376
38
380
384
387
39
393
395
4
40
400
404
405
409
41
415
416
42
420
429
43
430
44
440
441
443
45
450
46
47
475
476
48
480
49
490
499
5
50
500
5000
502
503
504
51
510
512
52
520
521
53
54
549
55
550
555
556
557
558
56
562
57
570
577
58
580
585
59
591
594
6
60
600
601
603
61
610
62
624
625
63
633
636
639
64
648
65
66
661
67
670
675
68
685
69
7
70
700
71
72
720
73
74
75
750
76
77
770
78
79
8
80
800
805
81
82
828
83
830
84
85
850
86
87
88
89
9
90
900
91
92
923
93
936
94
947
95
96
969
97
978
98
99
:
;
<
=
>
?
@
\
^
_
`
a
aa
aaa
aabo
aacocrinus
aado
aadota
aafin
aago
aajo
aaju
aala
aalo
aami
aanu
aare
aarin
aaron
aarun
aaya
aaye
ab
aba
ababa
abacavir
abacha
abajade
abakaliki
abala
abandoned
abania
abarapa
abasi
abass
abayomi
abba
abbas
abbey
abbl
abbr
abbreviated
abbreviation
abbreviations
abc
abcdef
abd
abdel
abdi
abdul
abdullah
abdullahi
abe
abel
abele
abeni
abeokuta
aberration
abi
abia
abidemi
abidjan
abigail
abike
abile
ability
abimbola
abinibi
abio
abiodun
abiola
abiso
abiyamo
abkhazia
able
ablo
ablon
ablona
ablonas
ablono
abo
abode
abojuto
abortion
about
above
abovestyle
abraham
abraka
abroad
abs
absent
abstract
abu
abubakar
abuda
abudu
abuja
abuke
abule
abundant
aburo
ac
academic
academy
accent
accept
acceptable
accepted
accepts
access
accessdate
accessed
accesskey
accident
accompanied
accordance
according
account
accountants
accounting
accounts
accra
accurate
accurately
ace
acerentomidae
acerentomon
acerentulus
achaemenid
achebe
achieve
achieved
achievement
achievers
acholi
acid
acp
acquired
acre
acronyms
across
acs
act
acting
action
actions
active
activist
activists
activities
activity
actor
actors
actress
actresses
acts
actual
actually
acute
ad
ada
adaba
adagun
adajo
adako
adalu
adam
adamawa
adams
adamu
adanida
adaora
adapo
adaptive
adari
adas
adayeba
add
added
adding
addis
addition
additional
additionally
addo
address
addresses
adds
ade
adebayo
adebayor
adebisi
adebowale
adeboye
adedeji
adefarasin
adegbite
adegboyega
adegoke
adehun
adekola
adekunle
adelabu
adele
adeleke
ademola
adenike
adeniran
adeniyi
adenuga
adeola
adeolu
adeosun
adeoye
aderemi
adesanmi
adesanya
adesina
adesokan
adesua
adesuwa
adetiba
adewale
adeyemi
adeyeye
adi
adichie
adie
adigun
adigunjale
adilla
adipo
adisa
adj
adjective
adler
admin
administration
administrative
administrator
administrators
admiral
ado
adogba
adolf
adolfo
adopted
adota
adrian
adrienne
adu
adua
adugbo
adulawo
adult
adults
adun
adunni
adura
aduwak
aduwawa
adv
advance
advanced
advancement
adventure
adventures
adverbo
advertising
advisor
advisory
advocate
adware
ae
aerial
af
afa
afara
afc
afe
afeez
afefe
afefeojuorun
affair
affairs
affect
affects
afg
afghani
afghanistan
afi
afihan
afijuwe
afikpo
afikun
afin
afirica
afirika
afiwe
afo
afolabi
afolayan
afonifoji
afowo
afraid
afri
africa
africaleurodes
african
africana
africans
africanus
afrika
afrikaans
afriko
afrique
afro
afrobasket
afrobeat
after
afu
ag
aga
agaga
again
against
agba
agbabo
agbaboolu
agbada
agbaje
agbajo
agbala
agbalagba
agbani
agbara
agbari
agbaye
agbayo
agbe
agbedemeji
agbega
agbegbe
agbejade
agbejo
agbejoro
agbeka
agbekale
agbelebu
agbelewo
agberin
agbese
agbewo
agbeyewo
agbo
agbofinro
agbogun
agbole
agbon
agboole
agbowo
age
aged
agege
agencies
agency
agenda
agent
ages
agi
aginju
agnes
agnieszka
ago
agodi
agogo
agolo
agreement
agricultural
agriculture
agu
aguiyi
agusti
agutan
agworok
ah
ahamo
ahead
ahh
ahl
ahmad
ahmadu
ahmed
aho
ai
aibikita
aid
aids
aigbe
aije
ailopin
aim
aimo
aims
ain
aina
aini
aipe
air
aircraft
aires
airlines
airport
airports
airtel
airways
ais
aisan
aise
aisha
aito
aiye
aiyeola
aj
aja
ajafitafita
ajagun
ajah
ajakale
ajakaye
ajala
ajale
ajasin
ajax
ajayi
aje
ajegunle
ajeji
ajereh
aji
ajibade
ajinde
ajo
ajodun
ajogun
ajogunba
ajoni
aju
ajumo
ak
aka
akaaboune
akada
akade
akademi
akan
akanbi
akanda
akande
akanni
akans
akara
akariaye
ake
akede
akegbe
akeko
akeredolu
akerele
akero
akewi
aki
akin
akindele
akinloye
akino
akinola
akintola
akinwunmi
akinyele
akinyemi
akitiyan
akiyesi
akkadian
ako
akobere
akoewi
akogun
akojo
akojopo
akoka
akoko
akole
akon
akoni
akoole
akoonu
akopo
akoran
akori
akorin
akosile
akoso
akotan
akowe
akowonjo
akpororo
akpos
akra
aku
akun
akungba
akure
akwa
akwanga
al
ala
alaafia
alaafin
alaaye
alaba
alabama
alabapin
alabara
alabas
alabi
alabojuto
alabugbe
aladani
aladawa
alade
aladun
alafaramo
alafia
alaga
alagba
alagbara
alagbase
alagbata
alagbawi
alagbeka
alagbero
alagedemeji
alaile
alain
alaini
alaisan
alaisi
alaja
alaje
alajo
alakada
alakija
alakitiyan
alako
alakobere
alakoko
alakoso
alami
alamo
alamu
alan
alao
alapere
alapin
alara
alariwisi
alaroko
alas
alase
alaska
alatako
alausa
alawada
alawo
alawodudu
alawujo
alaye
alb
alba
albania
albanian
albarka
albert
alberta
alberto
albion
album
albums
aldehyde
aldh
ale
alec
alefa
alejandro
alejo
alele
aleurocanthus
aleurocerus
aleuroclava
aleurodicus
aleurolobus
aleuromarginatus
aleuroparadoxus
aleuroplatus
aleuropleurocelus
aleurothrixus
aleurotrachelus
alex
alexander
alexandra
alexandre
aleyrodes
alfa
alfonso
alfred
alfredo
alge
algeria
algiers
alhaja
alhaji
ali
alias
alibo
alice
alicia
aligarh
align
aligned
alignment
alimi
alimosho
alive
aliyu
aljebra
alkali
all
allafrica
allah
allan
allen
alli
alliance
allied
allison
allotropes
allow
allowed
allowing
allows
alma
almost
alo
alobo
alohu
alominira
alone
along
alongside
alpha
alphabet
already
als
also
alt
alter
altered
alternate
alternative
alternatively
alternativemap
alternatives
although
alto
alu
alufa
aluko
alumni
alumo
alumoni
always
am
ama
amadi
amaka
amanda
amarachi
amata
amateur
amayederun
amazon
ambassador
ambode
ambrose
ame
ameh
amen
amendment
america
american
americans
americas
amerika
amerikaanse
amet
ami
amiko
amin
amina
amino
aminu
amioro
ammad
ammonia
amo
amofin
amohunmaworan
amojuto
among
amongst
amorphous
amos
amount
amounts
amoye
amp
amphientulus
amstel
amsterdam
amu
amulo
amunisin
amusement
amusin
amuwo
amvca
amy
an
ana
anabi
anafilasisi
analysis
analytical
analyzed
anambra
anastasia
anatomy
anc
anchor
anchorage
anchors
ancient
and
anderson
andorra
andre
andrea
andreas
andrew
android
andy
anfaani
anfani
ang
angel
angela
angeles
angels
angle
anglican
anglo
angola
anguilla
ani
anigunmeta
animal
animals
animation
anime
anini
aniocha
anita
anjorin
ann
anna
anne
annie
anniversary
announced
annual
ano
anonymous
another
anozie
anpp
ansah
ansar
ansari
answer
antarctic
antarctica
antau
anthem
anthology
anthony
anthropology
anti
antigua
antilles
antisense
anto
antoine
antonio
any
anyone
anything
anytime
anywhere
ao
ap
apa
apaariwa
apaguusu
apailaorun
apaiwoorun
apakan
apako
apakokoro
apanile
apapa
apapo
aparapo
apart
apartheid
apase
apata
apc
ape
apeere
apejo
apejuwe
apere
api
apile
apilese
apinfunni
apis
apo
apollo
apon
apor
aposteli
apostolic
apoti
app
appeal
appear
appearance
appearances
appeared
appears
appiah
apple
applicable
application
applications
applied
applies
apply
applying
appointed
appoints
approach
approaches
appropriate
approximate
approximately
april
ar
ara
araalu
arab
arabara
arabi
arabia
arabic
arabiki
arabinrin
arabu
arakunrin
aramada
aramaic
aramide
aran
arare
arawa
arc
arcade
archbishop
archibong
archipelago
architect
architects
architecture
archive
archived
archivedate
archives
archiveurl
are
area
areas
aremu
arena
arese
arewa
arge
argentina
argentine
argument
arguments
ari
arin
aringbungbun
arinlofurufu
arinrin
arinze
aririn
arise
aristocratic
ariwa
ariwailaorun
ariwaiwoorun
ariwo
ariyanjiyan
arizona
arkansas
arlington
arlywydd
arm
armas
arme
armed
armenia
armenian
arms
armstrong
army
arnold
aro
aroko
aropin
aropo
aroso
around
arranged
arrangement
arrival
arrived
arrow
arsenal
art
arte
arthur
article
articles
artificial
artificially
artist
artists
arts
arturo
aru
aruba
arufin
arugba
arun
arz
as
asa
asaba
asale
asan
asare
asayan
ascension
ase
asefisiksi
asekagba
aseku
aseoro
aseyori
ashanti
ashes
asi
asia
asialeyrodes
asian
asiko
asiri
asiwaju
ask
asked
asking
aso
asofin
asoju
asokan
asopo
asp
aspects
aspx
ass
assembly
asserted
assigned
assistant
associate
associated
association
assumed
assyria
assyrian
ast
asterobemisia
asteroidi
astronomers
astronomical
astronomy
asu
at
ata
atako
atanna
ate
athens
athlete
athletes
athletics
ati
atijo
atiku
atile
atilo
atipe
atkinson
atla
atlanta
atlantic
atlantiki
atlantis
atlas
atmosphere
ato
atojo
atoko
atokun
atom
atomic
atoms
atomu
atorawo
atp
attack
attempt
attempted
attention
attitudes
attorney
attribute
attributes
atu
atuko
atumo
atun
atungba
atunko
atuns
atunse
atunye
au
auchi
audio
audu
aug
augie
august
auguste
augustine
augusto
augustus
auley
aureus
austen
austin
austra
australentulus
australia
australian
austri
austria
austrian
austro
authentic
author
authorities
authority
authorlink
authors
auto
autobiography
autocollapse
automatic
automatically
autonomous
auxiliary
available
ave
avenue
average
aviation
avoid
avoided
avos
aw
awa
awada
awako
award
awarded
awards
awari
away
awe
awin
awka
awo
awokose
awolowo
awon
aworan
awori
awos
awosika
awu
awujo
awuyewuye
ay
aya
ayaba
ayafi
ayan
ayaworan
aye
ayefele
ayeijoun
ayelujara
ayeraye
ayewo
ayeye
ayi
ayika
ayinde
ayinla
ayipada
aymara
ayo
ayobo
ayodele
ayoka
ayori
az
azarenka
azerbaijan
azerbaijani
azikiwe
aztec
b
ba
baa
baale
baalu
baba
babafemi
babajide
babala
babalo
babalola
babangida
babatunde
babcock
babel
babes
babi
baby
babyface
babylon
babylonian
bach
bachelor
back
background
backlink
backup
backwards
bacteria
bacterial
baculentulus
bad
bada
badagary
badagry
bade
badejo
baden
badminton
badmus
badore
baeyer
bafta
bag
bahama
bahamas
bahia
bahrain
bai
bailey
baje
bajwa
bakan
bakana
bakanna
bakannaa
bakare
bakassi
baked
baker
bakiteria
bakori
bala
balance
baldwin
bale
balewa
ball
ballet
balo
balogun
baltimore
balu
bamako
bamboo
bamidele
ban
banana
band
banda
bandele
bands
bang
bangladesh
bani
banj
banjo
bank
banki
banking
bankole
banks
banky
banner
bantu
baptist
baptiste
bar
bara
barack
barbados
barbara
barber
barbuda
barcelona
bari
bariga
barnabas
baron
baroque
barrio
barrister
barry
barrymore
bars
bartoli
bas
basa
base
baseball
based
bases
basi
basic
basil
basilica
basin
basis
basket
basketball
baso
basque
bassa
bassam
bassey
bat
bata
batakan
battery
battle
battles
bauchi
bawo
baxandall
bay
bayelsa
bayern
bayero
bayi
bayii
bayo
bb
bbc
bbi
bbnaija
bc
bce
bcg
bcl
bd
be
beach
beans
bear
beard
beast
beat
beats
beautiful
beauty
bebe
became
because
become
becomes
becoming
bed
bee
been
beer
beere
beesini
before
began
begin
beginning
beginnings
begins
behave
behavior
behaviour
behind
bei
beijing
being
beji
bel
belarus
belgian
belgium
belief
believe
believed
belize
bell
bella
bellanaija
belle
bello
belongs
below
belowstyle
belt
bemis
bemisia
ben
bendel
beneath
benedict
benefit
bengal
bengali
beni
benin
benito
benjamin
bennett
benson
bensouda
bentley
benue
benz
berber
berberentulus
bere
berger
berkeley
berlese
berlin
berman
bermuda
bernard
berry
bertrand
best
bet
bethlehem
better
betty
between
beverly
beyonce
beyond
bfa
bfi
bg
bhutan
bi
biafra
bibe
bibeli
bibi
bible
biblical
bibliographies
bibliography
bid
bida
big
biggest
bii
biju
biki
bilgi
bilionu
bill
billboard
billie
billion
billy
bimbo
bin
bini
bink
binomial
binrin
binta
binu
bio
biochemistry
biographical
biographies
biography
biological
biology
biota
biotilejepe
bird
birds
birgitta
birin
birmingham
birnin
birth
birthday
births
bis
bishop
bisi
bisola
bissau
bit
bitch
biti
bitter
biyi
black
blackburn
blacklist
blacklisted
blacks
blackwell
blaise
blaize
blake
blame
blanche
blanco
blank
blast
blaze
bless
blessed
blessing
blica
blige
blind
block
blocked
blocks
blog
blogspot
blood
blossom
blow
blu
blue
blues
bms
bn
bo
boafo
board
boat
bob
bobby
bobo
bobrisky
bode
bodies
bodija
body
bodyclass
bodystyle
boeken
bogota
bois
boju
boko
bola
bolaji
bolanle
bold
bole
boli
bolivia
bomb
bombu
bomi
bon
bona
bond
bondage
bondar
bonded
bonds
bone
bonet
bongo
boni
boniface
boo
book
booker
books
boolu
boost
booth
bora
border
borders
bore
bori
born
borno
bornu
boro
bos
bosca
bose
bosnia
bosnian
boson
bosons
boss
boston
bot
botany
both
botile
botilejepe
botswana
bottom
bought
boulder
boundary
boushaki
bovi
bowe
bowen
box
boxer
boxes
boxing
boy
boya
boycott
boyd
boys
boyu
br
bra
brace
braces
bracket
brackets
brad
bradley
brady
brain
branch
branches
brand
brasil
brass
brave
bravo
brazil
brazilian
brazzaville
bread
break
breakfast
breaking
breast
breeze
brenda
bri
brian
bride
bridge
brief
brigade
brigadier
bright
brila
bring
bringing
bristol
britain
britani
britannica
british
brittle
broad
broadcast
broadcasters
broadcasting
broadcasts
broadway
broke
broken
bronze
brooklyn
brooks
broom
brother
brotherhood
brothers
brought
brown
browser
browsers
brtv
bruce
brunei
brussels
brute
bs
bu
buari
buburu
buchi
bucknor
budapest
buddha
budget
budo
bueno
buenos
buffalo
bug
buganda
bugs
buhari
build
building
buildings
built
bukky
bukola
bulgaria
bulgarian
bulk
bull
bulo
bumper
bun
bunch
bunyoro
bura
burden
bureau
burial
buried
burity
burke
burkina
burma
burn
burna
burning
burnt
burst
buru
burundi
bus
bush
business
businesspeople
but
buta
butler
butterfly
button
buwo
buy
buzz
bv
bwf
by
bya
bysen
byzantine
c
ca
cabinet
cady
caesar
caf
cafe
cairo
calabar
calabash
calculated
calculation
caleb
calendar
calibration
california
caliphate
call
calle
called
callie
calling
calls
calvary
calvin
cambodia
cambrian
cambridge
came
camelot
camera
cameron
cameroon
cameroons
camp
campaign
campbell
campus
can
canada
canadian
canal
cancel
cancer
candidate
candidates
cannes
cannot
cap
capable
capacity
cape
capital
capitalism
capitals
cappella
caps
captain
caption
capture
car
carbon
card
cardinal
care
career
carey
caribbean
carl
carlito
carlos
carnival
carol
carolina
caroline
carrie
carried
carry
carter
carvalho
carved
carver
casa
casablanca
case
cases
casey
cash
cassava
cassidy
cast
caste
castle
castro
cat
catalan
catalogue
catalonia
catch
categori
categoria
categorie
categories
categorisation
categorization
categorize
categorizes
category
catharine
cathedral
catherine
catholic
cats
catt
cauchy
caught
cause
caused
causes
causing
cave
cay
cbe
cbn
cbs
cc
cctld
cd
cdc
cdq
ce
cele
celebrates
celebration
celebrations
celebrities
celebrity
celeste
celestine
cell
cells
cellulitis
celtic
cemetery
cenozoic
census
cent
center
centered
centers
central
centre
centuries
century
ceo
ceremonial
ceremony
certain
certificate
ceuta
cf
cgis
ch
cha
chabas
chad
chadic
chagoury
chain
chair
chairman
challenge
challenger
chalukya
chamber
chambers
champaigne
champion
champions
championship
championships
chan
chance
chancellor
chances
chang
change
changed
changes
changing
changxing
channel
channels
chao
chapel
chapman
chappell
chapter
character
characteristics
characters
charge
charles
charlie
charlotte
chart
chartered
charts
chase
che
check
checked
checking
checkmate
cheick
cheikh
chelsea
chem
chembox
chemical
chemist
chemistry
chen
chengde
chengdu
chi
chicago
chicken
chidinma
chief
chika
chike
child
children
chile
chilean
chimamanda
chimpanzee
chin
china
chinedu
chinese
chinua
chinwo
chioma
chipewyan
chisholm
cho
chocolate
choice
chongqing
choose
chopin
chose
chosen
chris
christ
christian
christianity
christians
christie
christine
christmas
christopher
chronicle
chronicles
chronological
chronology
chu
chuck
chuks
chukwuma
chuma
church
churches
churchill
ci
cia
cibulkova
cidade
cine
cinema
cio
circ
circle
circuit
circumstances
cirrhosis
citakan
citation
citations
cite
cited
cithakan
cities
citing
citizen
citizens
citizenship
city
civic
civil
civilization
ckb
cl
clade
claims
claire
clara
clarence
clark
clarke
class
classes
classic
classical
classics
classification
classified
claude
clay
clean
cleanup
clear
clearly
clement
clerk
cleveland
click
clicking
clifford
climate
clinic
clinton
clock
cloris
close
closed
closely
closing
cloth
clothes
cloud
club
clubs
cm
cms
cn
cnn
co
coach
coal
coalition
coast
coastal
coastline
coat
coauthors
cockerell
cockerelliella
cocoa
coconut
cocos
code
coded
codes
cohen
cohic
cohicaleyrodes
coker
col
cola
cold
cole
coleman
colin
collaboration
collaborative
collapse
collapsed
collapsible
collection
collections
collective
college
collins
collision
cologne
colombia
colombian
colon
colonel
colonia
colonial
colonists
colonization
colony
color
colorado
colored
colors
colour
coloured
colours
columbia
columbus
column
columnist
columns
com
combination
combinations
combined
come
comedian
comedy
comes
comfort
comics
coming
comma
command
commander
commas
comment
comments
commerce
commercial
commission
commissioner
committee
committees
commodo
common
commonly
commons
commonwealth
commune
communication
communications
communism
communist
communities
community
como
comoros
compact
companies
companion
company
comparative
compare
comparison
compatibility
compatible
compete
competed
competing
competition
competitors
compilation
complementary
complete
completed
completely
complex
complexity
complicated
component
components
composed
composer
composite
composition
compound
compounds
comprehensive
comptroller
compulsory
computational
computer
computers
comte
con
concentration
concepcio
concept
concepts
concern
concerned
concerning
concerns
concert
concord
concrete
conde
condition
conditions
conduct
confederation
conference
confirm
confirmed
conflict
confluence
confused
confusion
congo
congress
congressman
conjunction
connacht
connected
connecticut
connection
connelly
conquest
conrad
conscience
consciousness
consensus
consequat
conservation
conservatory
consider
considered
consistent
consists
constant
constantine
constituency
constituent
constitution
constitutional
construct
constructed
construction
contact
contain
contained
container
containing
contains
contemporary
content
contents
context
contexts
continent
continental
continue
continued
contract
contrast
contribution
contributions
contributor
control
controlled
convent
convention
conventions
conversion
convert
converted
converts
cook
cool
cooper
cooperation
coor
coord
coordinate
coordinates
coordinating
copper
copy
copying
copyright
corbett
core
corn
cornelius
corner
corona
coronavirus
corporate
corporation
corps
correct
corrected
correctly
corresponding
corruption
cost
costa
costar
costs
cote
cotonou
could
couldn
coulibaly
council
counsel
count
counted
counter
counting
countries
country
county
coup
coupe
couple
courier
course
court
courts
cov
covalent
covenant
cover
covered
covers
covid
cr
craig
crash
crawford
crazy
crbc
create
created
creates
creating
creation
creative
creator
credit
cree
creek
crenidorsum
creole
cretaceous
crew
crime
crimes
criminal
crisis
criteria
critical
critically
criticism
critics
croatia
croatian
cross
crow
crown
crowther
crucifixion
cruz
cry
crystal
cs
css
cssc
ct
cu
cuba
cuisine
cult
cultural
culture
cunha
cup
curac
curie
currency
current
currently
curriculum
curtis
cusco
cushitic
custom
cut
cuzco
cv
cy
cycle
cynthia
cyprian
cyprus
cyrillic
czech
czechoslovakia
d
da
daa
daada
daadaa
daba
dabaa
dabi
dada
daddy
dagba
dagbasoke
dagestan
dahlberg
dahomey
dahun
daily
dailypost
dailytrust
dairo
daji
daju
daka
dakar
dakore
dakota
dala
dale
dali
dalian
dall
dallas
daly
dam
damage
damasus
damaturu
dame
dames
damijo
dan
dana
dance
dancer
dancing
dandan
dane
daneye
danger
dangerous
dangote
dani
daniel
daniela
daniels
danish
danjuma
danny
dans
danzig
dapo
dar
dara
daradara
darapo
dare
darey
dari
dark
darkness
darling
darrel
daru
daruko
darul
das
dash
dashed
dasile
dat
data
database
date
dates
dati
dating
dauda
daughter
daughters
davenport
david
davidi
davido
davies
davis
dawn
dawo
day
dayi
dayo
days
dazzling
dc
dd
ddddff
de
dead
deadly
deal
dean
dear
death
deaths
debate
deborah
debut
dec
decade
decay
december
decide
decided
decimal
decision
declaration
declared
decline
dede
dedicated
dee
deede
deeds
deen
deep
default
defaults
defeat
defence
defender
defenderhttps
defense
define
defined
definition
deg
degree
degrees
dehlawi
dehydrogenase
dek
del
delaware
dele
delegation
delete
deleted
deletion
delhi
delivered
delivery
delta
dem
demand
demandi
demandovorto
demands
dementia
demise
demo
democracy
democratic
democrats
demographics
demonstrate
demonstrated
demonstration
demospace
den
dena
dench
denis
denmark
dennis
denrele
density
denver
deoband
deobandi
department
departments
dependencies
dependent
depending
depends
deprecated
depth
deputy
der
derek
derived
des
desai
descent
describe
described
description
descriptions
desegregation
desert
design
designated
designation
designed
designer
desire
desired
desmond
desperate
despite
destiny
destroyed
detail
detailed
details
detect
detecting
detection
detects
determine
determined
determines
detroit
deu
deutsche
deutschland
deux
develop
developed
developer
developing
development
developments
device
devil
dey
df
di
dia
dialect
dialects
dialeurodes
dialeurodicus
dialeurolonga
dialeuropora
diamita
diamond
diamonds
diana
diane
diary
diaspora
diawara
dibo
diboyan
dick
dictionary
did
dida
didan
didara
didarajulo
didarajulohttps
didasile
dide
didi
didiboyan
didn
didun
die
died
diedie
diego
dies
diet
diff
differ
difference
differences
different
differs
difficult
diffraction
difinita
digit
digital
digits
dije
dikeh
dile
dima
dime
dimeji
din
dina
dinka
dinku
dinner
dino
dio
diocese
dioxide
dip
dipe
diploma
diplomat
diplomati
diplomatic
dipo
dipu
diq
dir
dirac
direct
directed
direction
directly
director
directors
dirty
disable
disabled
disambiguation
disambiguous
disappear
disaster
disbanded
disc
discipline
disciplines
discography
discovered
discoveries
discovery
discrimination
discuss
discussed
discussion
disease
diseases
dishes
disney
dispatch
dispatches
display
displayed
displaying
displays
dispute
disputed
disqualified
dissolved
distance
distant
distinct
distinction
distinguish
distinguished
distribution
district
districts
diti
div
diverse
diversity
divided
divine
division
divisions
divorce
diwo
dixon
diya
dj
djazairess
dji
djibouti
dm
dms
dna
do
doc
doctor
doctoral
doctorate
doctors
document
documentary
documentation
documented
documents
dodd
dodo
does
doesn
dog
dogba
dogrib
dogun
doherty
doi
doing
doju
dojuko
dokita
dollar
dollars
dolly
dolor
dolore
dolphin
dom
domain
domestic
dominant
domingo
dominic
dominican
dominika
dominiki
domo
don
donald
done
donga
doni
donkey
donna
dont
door
dopin
dora
dorcas
doreen
doris
dorothy
dos
dosunmu
dot
douala
double
doubles
doubt
douglas
douglass
dove
down
download
doyin
doyle
dozier
dp
dr
dragon
drama
dramatic
dramatists
draw
drawing
draws
dream
dreams
dress
drew
drews
drink
drive
driver
dro
drop
dropped
drug
drugs
drum
drummer
dry
drz
dsb
dstv
du
dua
dual
dubai
dubey
dublin
dubule
dudu
due
dufuna
dugbe
duis
duke
dukia
dull
dumbleton
dun
dunar
duncan
dunn
duplicate
dupo
duration
durban
durbar
during
durkheim
duro
durotoye
duru
dus
dust
dutch
dutse
duty
duwa
dv
dvd
dwarf
dworkin
dye
dynasty
dz
dza
e
ea
each
eagle
eagles
earl
earlier
earliest
early
earned
earth
earthquake
ease
easier
easily
east
eastern
easy
eat
eaten
eating
eazi
eba
ebe
ebele
ebenezer
ebi
ebola
ebony
ebonyi
ebonylife
ebu
ebun
ebute
ec
eclipse
eco
ecology
economic
economics
economist
economy
ecowas
ecuador
ed
eda
eddie
eddy
ede
edede
edeede
eden
edewor
edgar
edge
edinburgh
edison
edit
edited
edith
editing
edition
editnotice
editnotices
editor
editorial
editors
edits
edmund
edo
edochie
eds
edu
eduardo
educated
education
educational
eduro
edward
edwards
edwin
edłoga
edłoha
ee
eegun
eekaderi
eekanna
ees
eeyan
efe
effect
effective
effectively
effects
effort
efforts
efi
efik
efinifirini
efo
efon
efuufu
eg
egan
egba
egbe
egbeda
egbegberun
egberun
egbin
egbo
egbon
egbuson
egg
eggs
egipti
ego
egoli
egu
egun
egungun
egypt
egypti
egyptian
eh
ehi
ehoro
ehu
ei
eight
eileen
ein
einstein
either
eja
eje
ejenobor
eji
ejigbo
ejiofor
ejiro
ejo
eju
eka
eke
ekeinde
ekeji
eket
eki
ekiti
eko
ekpo
eku
ekuador
ekun
ekunrere
ekwensi
el
elaine
elbs
eldee
ele
eleanor
elebun
elected
election
elections
electoral
electric
electrical
electricity
electron
electronic
electronics
elede
elegbe
elegbogi
elegushi
elekeji
eleko
elektronu
element
elementary
elements
elena
elendu
elere
elero
elese
elesin
eleto
elevation
eleyi
eleyii
elia
elias
elimenti
eliogu
eliot
elit
elizabeth
ella
elle
ellen
elliot
ellis
elmer
elo
elomiran
eloy
else
elu
em
email
emancipation
embassy
emblem
eme
emedicine
emeji
emeka
emem
emergency
emezi
emi
emigrants
emil
emily
emir
emirate
emirates
emireti
emma
emmanuel
emmy
emotional
emperor
emphasis
empire
empires
empirical
employment
empowerment
empty
emu
en
enable
enck
enclosed
encyclopaedia
encyclopedia
encyclopædia
end
endangered
endeavour
ended
ending
endrika
ends
enebeli
enemy
energy
enforcement
enfranchisement
eng
engaged
engine
engineer
engineering
engineers
england
english
eni
enia
eniipo
enikan
enikeni
enimeji
eniola
eniti
eniyan
enjoy
enough
enradio
enrico
ensure
enter
entered
entering
entertainer
entertainment
entire
entirely
entities
entity
entrance
entrepreneur
entries
entry
enu
enugu
environment
environmental
enzyme
enzymes
eo
eosentomon
ep
epbc
epe
episode
episodes
epo
eps
equal
equality
equals
equatorial
equiano
equipment
equivalent
er
era
eran
eranko
ere
ereidaraya
erekusu
eri
eric
erica
erin
erinmi
eritrea
ernest
ero
eroja
erongba
error
errors
eru
eruku
es
esa
esan
escape
ese
esi
esin
esiri
eso
espan
especially
esperanto
espn
essay
essays
esse
essential
est
established
establishment
establishments
estas
estate
estelle
esther
esti
estiano
estifanos
estimate
estimated
estimates
estonia
esu
esun
et
eta
etc
ete
ethel
ethics
ethio
ethiopia
ethiopian
ethnic
ethnicity
eti
etim
etiodo
etiomi
etisalat
eto
eu
eucharia
eugene
eun
eurasia
euro
europa
europe
european
eurosport
eva
evans
eve
evelyn
even
evening
evenstyle
event
events
eventually
ever
every
everyday
everyone
everything
evidence
evil
evolution
evolved
ew
ewa
ewadun
ewe
eweko
ewi
ewing
ewo
ewon
ewu
ewure
ex
exact
exactly
examination
example
examples
excellence
excellent
except
exception
exchange
exclude
excluding
exclusive
executed
executive
exhibition
exist
existence
existing
exists
exit
expand
expanded
expanding
expansion
expected
expedition
expensive
experience
experimental
expert
expiry
explain
explained
explanation
explanatory
explicitly
explorer
exploring
explosion
export
exposed
expr
express
expressed
expression
expressway
exquisite
extant
extended
extension
extensive
extensively
extent
external
extinct
extinction
extra
extremely
eya
eyan
eye
eyes
eyi
eyikeyi
eyin
eyiti
eyo
eyokan
eyun
ez
eze
ezra
f
fa
faa
faagun
faaji
fabunmi
face
facebook
faces
facilities
fact
factbook
facto
factor
factors
factory
facts
faculty
fadaka
fagile
fagunwa
fail
failed
faili
failure
faint
fair
fairo
faith
fako
falae
falcons
fall
falling
falls
false
falz
fame
familia
families
family
famous
fan
fani
fanimo
fans
faq
far
fara
faragba
faraha
farahan
farakanra
faramo
faranse
farao
farapa
farawe
farm
farmers
fashek
fashion
fashola
fasiti
faso
fast
fat
fatai
fatal
fate
father
fatima
fatoumata
favour
fawehinmi
faye
fbref
fc
fct
fe
fear
feast
feat
feature
featured
features
featuring
feb
february
fed
federal
federalism
federalist
federation
federations
federer
federico
fee
feed
feel
feet
fela
felele
felicia
felipe
felix
fell
fellow
fellowship
felt
female
females
femi
feminine
feminism
feminist
feminists
femme
femmes
feran
ferdinand
fere
ferguson
fermi
fermions
ferna
fernando
ferry
fese
festac
festival
festus
fever
few
feyinti
ff
fi
fia
fiav
fiba
ficha
fiction
fid
fida
fidi
fidio
field
fields
fifa
fife
fifi
fifo
fifth
fifty
fifun
fig
figba
fight
fighting
figure
figures
figurine
fiha
fihan
fii
fiimu
fiisi
fiji
fiku
fila
file
filename
files
filipi
filipino
fill
filled
film
filmmakers
filmography
films
filmu
filo
fin
final
finally
finals
finance
financial
find
finding
fine
finish
finished
finland
finmu
finnish
finro
fipa
fipamo
fipo
firans
fire
firefox
firm
first
fis
fischer
fish
fisher
fisherman
fishfm
fisi
fisiksi
fisiyiki
fiso
fit
fitafita
fiti
fitiwia
fito
fits
five
fiwe
fix
fixed
fiye
fl
flag
flags
flame
flash
flashscore
flat
flavia
flavour
fleet
fleurbaey
flight
float
floating
floor
flora
florence
flores
florida
flour
flow
flower
flown
fly
flying
fm
fn
fo
foc
focus
focused
focuses
fodio
fogelman
fohu
foju
fojusi
folake
folashade
folawiyo
folk
follow
followed
following
follows
folu
foluke
fon
fono
fonseca
font
foo
food
fool
foot
football
footballer
footballers
footballkenya
footer
footnote
footnotes
fopin
for
forbes
force
forced
forces
ford
foreign
forest
forever
forget
fori
form
formal
formally
format
formation
formats
formatted
formatting
formed
former
formerly
forming
forms
formula
fort
forta
forth
forty
foru
foruko
forum
forward
forwardhttps
fos
fossil
foto
foucault
found
foundation
foundations
founded
founder
founding
fountain
four
fourth
fowler
fowo
fox
fr
fra
frac
fraction
frame
frameless
franc
franca
france
frances
francesca
francesco
franchise
francia
francis
francisco
franco
frank
frankfurt
franklin
fransi
franz
fraud
frauen
frcn
fre
fred
frederick
free
freedom
freeman
freight
french
frequent
frequently
fresh
freud
fri
friday
fried
friedrich
friend
friendly
friends
from
front
frontier
frp
frs
fruit
ft
fu
fuck
fufu
fuji
fula
fulani
full
fuller
fully
fun
functie
function
functionalism
functionalist
functioning
functions
fund
funeral
funfun
funk
funke
funmi
funmilayo
funni
funrarare
funsho
fur
fura
furansi
further
furthermore
furufu
fusion
futuna
future
fuurufu
fuzhou
g
ga
gaa
gaara
gaasi
gaba
gabon
gabriel
gaelic
gained
gaju
gajulo
gal
gala
galaxies
galaxy
gale
gallery
gama
gambari
gambia
game
games
gan
gana
gandhi
gang
gangan
gangohi
gani
ganiyu
gao
gaps
garage
garawa
garba
garci
garden
gardens
gari
garrison
gary
gas
gate
gates
gave
gay
gaye
gazette
gb
gba
gbaa
gbade
gbadun
gbafe
gbagbe
gbagbo
gbagede
gbagyi
gbaja
gbaju
gbajugbaja
gbajumo
gbale
gbalejo
gban
gbangan
gbangba
gbani
gbanini
gbara
gbaradi
gbaye
gbayi
gbc
gbe
gbega
gbejade
gbekale
gbele
gbemi
gbenga
gbera
gbere
gbero
gberu
gbese
gbeya
gbeyin
gbi
gbigba
gbigbe
gbigbo
gbigbona
gbile
gbimo
gbin
gbiyanju
gbo
gbobgo
gbodo
gbogbo
gbogbogbo
gbogboni
gbogboo
gbogboogbo
gbogun
gbohu
gboko
gbolahan
gbolohun
gbomo
gbon
gbona
gbongan
gbongbo
gboogi
gbooro
gboro
gbowo
gboya
gboye
gbu
gbufo
gbun
gbuuru
gc
gcmg
gd
gdp
ge
gebe
gede
gedegbe
gedeme
gee
geena
geere
geesi
gege
gegebi
gen
gender
gene
genera
general
generally
generate
generated
generates
generating
generation
generations
generic
genesis
genetic
geneva
genevieve
genius
genre
genres
gentleman
genus
geo
geodatos
geoffrey
geographic
geographical
geography
geologic
geological
geopolymer
georg
george
georges
georgia
georgian
ger
gerais
gerald
german
germany
get
gets
getting
gh
gha
ghana
ghanaian
ghanaweb
ghost
gi
giddens
gidi
gidigidi
gif
gift
giga
gigajulo
gigatonnes
gigun
gil
gilbert
gile
gilman
gio
giovanni
girama
giri
giriki
girl
girls
gist
giuseppe
give
given
gives
giving
giwa
gje
gl
gladys
glamour
glasgow
glass
globacom
global
globalsportsarchive
globe
globo
gloria
glory
glover
gmc
gnostic
gnu
go
goal
goalkeeper
goals
goalzz
goat
god
goddard
goddess
godfrey
gods
godwin
goes
going
goke
gold
goldberg
golden
goldie
goldman
golf
gombe
gomes
gomina
gon
gone
gongola
gonza
gonzalez
good
goodbye
goodluck
goodman
goods
google
goolu
gordon
gori
gospel
got
gotel
gotta
gov
government
governor
governors
govt
gowon
gr
gra
grace
gracilentulus
grade
graduate
graduates
graf
graham
grammar
grammy
grand
granda
grande
grant
graphic
graphite
grass
grave
gray
great
greater
greatest
greece
greek
green
greenberg
greenland
greensboro
gregorian
gregory
grenada
grew
grey
gri
griffin
griiki
griisi
grin
grind
groove
ground
group
groupn
groups
groupstyle
grove
grow
growing
growth
grubb
gs
gu
guadeloupe
guanches
guangxi
guangzhou
guarani
guarantco
guarantee
guaranty
guard
guardian
guatemala
gudu
guernsey
guessan
guest
guez
guiana
guidance
guide
guidelines
guild
guillermo
guinea
guinness
guitar
guiyang
gulf
gum
gun
gungun
gunle
gunta
gupta
gur
gurage
gurnah
gus
gusau
gusu
gutenberg
guusu
guusuilaorun
guusuiwoorun
guy
guyana
gv
gwich
gymnastics
gyroscopes
h
ha
habermas
habila
habilis
had
hadejia
hadera
hadith
hag
hah
haidrojin
haikou
hail
hainan
hair
haiti
haitian
hakeem
hale
half
halima
hall
halle
hamburg
hamid
hamilton
hamzat
han
hand
handbook
handle
handling
hands
hanging
hangzhou
hans
happened
happens
happiness
happy
haram
harambee
harbour
harcourt
hard
harlem
harmony
harold
harper
harriet
harris
harrison
harry
harsha
haruna
harvard
harvest
harvey
has
hasan
hassan
hate
hatnote
hattie
hau
hausa
have
haven
having
hawaii
hawn
hayes
hayworth
hazel
hb
hcard
hcards
hcv
he
head
header
headers
headies
heading
headings
headline
headquarters
heads
health
healthcare
hear
heard
heart
heartland
heat
heaven
heavy
heberu
hebrew
heckart
height
heinemann
heinrich
held
helen
helena
helicopter
helipad
helium
helix
hell
hello
helon
help
helped
helpful
helps
hem
hemisphere
hempel
hen
hence
henri
henrietta
henry
henshaw
hepatitis
her
herald
herbert
here
heritage
herman
hermann
heroes
herrialde
herself
herzegovina
hesperentomon
hey
hi
hib
hidden
hiddencat
hide
hiding
hif
higgs
high
higher
highest
highland
highlife
highly
highway
hilda
hill
hillary
hills
him
himself
hin
hind
hindi
hindu
hinduism
hindustani
hingis
hinna
hinti
hip
his
hispaniola
histo
historic
historical
history
hit
hits
hiv
hm
hn
ho
hockey
hold
holder
holding
holds
hole
holes
holiday
holidays
holland
hollandi
hollywood
holm
holy
home
homes
homo
hon
honduras
hong
honor
honorary
honour
honours
hons
hood
hop
hope
hopkins
horizons
horizontal
horn
horo
horse
horses
hospital
hospitals
host
hosted
hosts
hot
hote
hotel
hotels
hotspur
hour
hours
house
households
houses
housing
houston
how
howard
however
hr
hsb
hst
ht
htm
html
htmlhttp
htmlhttps
http
https
hu
hua
huang
hub
hubble
hubei
hubert
hudson
hugh
hughes
hull
human
humanitarian
humanities
humans
humphreys
hun
hunbi
hundo
hundred
hungari
hungarian
hungary
hunger
hunt
hunter
hurwitz
husband
husbands
hussain
hussein
hy
hydrogen
hypothesis
i
ia
iaaf
ial
ian
iata
ib
iba
ibadan
ibagbepo
ibaje
ibalopo
ibamu
ibanisoro
ibanuje
ibarae
ibarapa
ibas
ibasepo
ibatan
ibe
ibeere
ibeji
ibeju
ibere
iberu
ibi
ibibio
ibigbogbo
ibikan
ibiki
ibile
ibimo
ibise
ibiti
ibitooro
ibm
ibn
ibo
ibode
iboji
iboju
ibom
ibon
ibori
ibrahim
ibu
ibudo
ibugbe
ibujoko
ibukun
ibuso
ic
icao
icd
ice
iceland
icon
icons
id
ida
idaabobo
idaduro
idagbasoke
idahun
idaji
idajo
idakeji
idamo
idanilaraya
idanilo
idaniloju
idanimo
idanre
idanwo
idapo
idaraya
idari
idasi
idasile
iddo
ide
idea
ideally
ideas
idem
idemili
idena
identical
identification
identified
identifier
identifiers
identifies
identify
identity
idi
idiagbon
idibia
idibo
idiboyan
idije
idile
idimu
idimule
idinku
idipo
idiwo
idiye
idiyele
ido
idojuko
idoko
idol
idoma
idoti
idowu
idris
ids
idu
idumota
idunadura
iduro
iduros
ie
iel
ies
if
ifa
ifako
ifamo
ifarahan
ife
ifeajuna
ifeanyi
ifehonuhan
ifelodun
ifesi
ifi
ifihan
ifijis
ifilele
ifilo
ifilole
ifirans
ifo
ifojusi
ifoloke
iforuko
ifowo
ifowopamo
ifowosi
ifowosowopo
ifun
ig
iga
igala
iganga
igba
igbadie
igbadun
igbagbo
igbagbogbo
igbakeji
igbala
igbalode
igbana
igbaradi
igbasile
igbati
igbe
igbega
igbekale
igberiko
igbese
igbesi
igbesiaye
igbeyawo
igbi
igbimo
igbinedion
igbiyanju
igbo
igbobi
igbohunsafefe
igbona
igbonasi
igbonla
igbonwo
igboro
igboya
ige
igede
igekurupapo
ighodaro
igi
ignacio
ignore
ignored
igor
igu
iguana
igun
igwe
iha
ihamo
iheanacho
ihezuo
ihinrere
iho
ihuwasi
ii
iii
ija
ijabo
ijagun
ijakadi
ijala
ijamba
ijanikin
ijapa
ijapo
ijaw
ijaye
ije
ijebu
ijesa
ijesha
iji
ijidide
ijinle
ijinna
ijiroro
ijise
ijiya
ijiyan
ijo
ijoba
ijoko
ijora
ijosin
ijoye
iju
ik
ika
ikan
ikaniyan
ikanni
ikare
ikarun
ikawe
ike
ikechukwu
ikede
ikedieze
ikeja
ikeji
iketa
ikilo
ikiri
iko
ikojo
ikoko
ikole
ikopa
ikorira
ikorodu
ikosi
ikot
ikotun
ikowe
ikoyi
ikpe
iku
ikun
ikuna
il
ila
ilaje
ilaji
ilana
ilaoorun
ilaorun
ilara
ile
ileasofin
ilegeesi
ileoba
ileobaluaye
ilera
ileri
ilesa
ilese
ileto
ili
ill
illinois
illness
illustrate
illustrated
illustration
ilo
ilodi
ilominira
ilorin
ilosiwaju
ilu
im
imadate
image
imagefile
imageleft
imageright
images
imagesize
imagestyle
imaging
imam
iman
imdb
ime
imeeli
imf
imi
immediate
immediately
immigration
imo
imole
imota
imototo
imoye
impact
impaired
imperial
implement
implementation
implemented
importance
important
impossible
improve
improved
improvement
imu
imudaniloju
imudara
imukuro
imulo
imura
imuse
in
ina
inagi
inawo
inc
inca
inch
inches
incident
include
included
includes
including
inclusion
income
incorporated
incorporates
incorrect
incorrectly
increase
increased
increasingly
increment
indent
independence
independent
index
india
indian
indiana
indicate
indicated
indicates
indicating
indicus
indies
indigenous
indigo
indikvorto
individual
individuals
individuo
indo
indone
indonesia
indonesian
indoor
indus
industrial
industries
industry
inec
infantry
infection
infectious
influence
influenced
influences
influential
influenza
info
infoboks
infobox
infoboxes
infokas
infokutija
infopolje
information
informkesto
infotaula
infrared
infrastructure
inheritance
ini
inira
initial
initially
initiative
injury
inland
inline
inner
innocent
innovation
ino
input
inquiry
ins
insensitive
insert
inserted
inside
inspector
inspiration
inspired
instagram
installed
instance
instances
instead
institut
institute
institution
institutions
instituto
instruction
instructions
instrument
instruments
insurance
int
intane
integer
integers
integrated
integration
intelligence
intended
intention
inter
interaction
interactions
interchange
intercourse
interest
interesting
interior
intermediate
internal
internally
international
internet
interneti
interpreted
interview
interviews
interwiki
into
introduced
introduction
inu
inuarin
inuatomu
inuinnaqtun
inuktitut
inuvialuktun
invalid
invasion
inventor
investment
invisible
involved
io
ioc
iol
iom
ion
ioni
ionut
ios
iowa
ip
ipa
ipaaro
ipadabo
ipade
ipaja
ipaka
ipalara
ipamo
ipaniyan
iparapo
ipari
iparun
ipase
ipe
ipele
ipenija
ipese
ipetumodu
ipi
ipile
ipilese
ipin
ipinle
ipinnu
ipinpa
ipinsabe
ipinu
ipinya
ipo
ipolongo
ipolowo
iposi
ipsp
ipsum
ipv
ir
ira
irak
iran
iranlo
iranlose
iranlowo
iranran
irans
iranse
iranti
irapada
iraq
iraqi
irawo
iraye
ire
ireko
ireland
irelandi
irele
irene
irepo
iresi
ireti
iri
irin
irina
irinajo
irinkankan
irinna
irins
irinse
iriri
iris
irish
irisi
iro
irohin
irojinle
iroko
irokotv
iron
ironsi
ironu
irora
iroyin
iru
irufe
irugbin
irun
is
isa
isaac
isabella
isaiah
isakiyesi
isakoso
isale
isan
isanpada
isanwo
isare
isbn
ise
iseda
iseero
isegun
isejoba
iseju
isele
iselu
isere
iseyin
isheri
ishola
isi
isiaka
isiala
isimi
isin
isinku
isinmi
isiro
isise
isiseonina
isla
islam
islamia
islamic
island
islands
isle
ismail
isn
iso
isodipupo
isoentomon
isokan
isoken
isoko
isola
isolo
isong
isopo
isoro
isotope
isotopu
isowo
israel
israeli
iss
issn
issue
issues
isu
isubu
isujo
isuna
isunmo
isupo
it
ita
itage
itaja
itali
italia
italian
italic
italicized
italics
italy
itan
itankale
itanna
itara
ite
itelentele
item
itemo
items
itesiwaju
itf
itileyin
ito
itobi
itoju
itoka
itokasi
itorawo
its
itsekiri
itself
itu
itumo
itumosi
itura
itusile
iu
iucn
iupac
iv
ivanovic
ivoire
ivory
iwa
iwadi
iwadii
iwaju
iwari
iwariri
iwe
iweala
iwin
iwo
iwode
iwon
iwoorun
iwosan
iwoye
iwulo
iwuri
iwuwa
iwuwo
ix
iy
iya
iyaafin
iyale
iyalode
iyamah
iyan
iyanda
iyanri
iyanu
iyanya
iyara
iyaso
iyasoto
iyato
iyawo
iye
iyebi
iyen
iyepu
iyi
iyika
iyin
iyipada
iyipo
iyke
iyo
iyoku
j
ja
jabo
jack
jackie
jackson
jacob
jacobs
jacques
jade
jaga
jagun
jagunjagun
jaja
jaji
jaka
jakande
jakejado
jalade
jale
jalingo
jam
jama
jamaica
jamaika
jamani
james
jamia
jamiat
jammu
jan
jane
janeiro
janet
jankovic
january
japan
japanese
jara
jasi
jason
javier
jawe
jay
jaye
jazeera
jazz
jazzy
jc
je
jean
jeff
jefferson
jeffrey
jehovah
jelena
jemani
jemima
jen
jenifa
jennifer
jensen
jeografi
jeremiah
jero
jerry
jersey
jerusalem
jerusalemu
jesse
jessica
jesu
jesudasan
jesus
jet
jeun
jew
jewel
jewish
jews
jeyo
ji
jide
jie
jigawa
jigi
jija
jije
jiji
jijin
jijo
jim
jimi
jimmy
jimo
jimoh
jin
jina
jinde
jinle
jinna
jinzhou
jiopo
jiria
jiya
jiyan
jn
jo
joa
joan
joaqui
job
joba
joe
jogu
jogun
johann
johannes
johannesburg
johanu
john
johnny
johns
johnson
johnston
join
joined
joining
joins
joint
jojo
joju
joke
joko
jombo
jon
jonathan
jones
joo
jooju
jopo
jordan
joreen
jorge
jos
jose
joseph
josephine
joshua
joslyn
journal
journalism
journalist
journalists
journals
journey
joy
joyce
joye
jp
jpg
jr
jrc
js
jstor
ju
juan
judaism
jude
judge
judiciary
judith
judy
jug
juju
jules
julia
julian
juliana
julie
juliet
julio
julius
julo
july
jumoke
jump
jun
junction
june
jung
jungle
junior
junta
jupiter
jurassic
just
justice
justin
juu
juwe
jv
jwst
k
ka
kaa
kaadi
kaakiri
kaarun
kaba
kabaka
kabiyesi
kada
kadi
kaduna
kagga
kaj
kajola
kakiri
kale
kalenda
kalifo
kalifu
kalu
kambodia
kame
kameroon
kampala
kan
kana
kanada
kanayo
kandi
kandinlogun
kanem
kanga
kangun
kani
kanju
kanka
kankan
kankanc
kankane
kankanla
kankanlelogun
kanla
kanle
kanna
kannywood
kano
kanra
kans
kansas
kansi
kansoso
kant
kanu
kanuri
kanye
kara
karabakh
karahun
karbonu
kareem
karen
kari
kariaye
karibeani
karim
karl
karu
karua
karun
karundinlogbon
karundinlogun
kas
kashmir
kasi
kasino
kasu
kat
kate
katego
kategori
kategorie
kategorija
kathleen
kathmandu
katidira
katoliki
katsina
kawe
kay
kaye
kayode
kazakh
kazakhstan
kb
kbe
kc
ke
kebbi
kede
kedere
kee
keeling
keep
keeping
keeps
kefa
keffi
kehinde
keira
keith
keje
keji
kejidinlo
kejidinlogbon
kejidinlogun
kejila
kejilelogun
kejo
keke
kekeke
kekere
keko
kelani
kele
kelly
kemi
kemika
kemikali
kemistri
ken
kena
kennedy
kenneth
kennis
kent
kentucky
kenya
kenyan
kenyentulus
kept
kerala
kere
kerejulo
keresimesi
keri
kerin
kerindinlogbon
kerindinlogun
kerinla
kerinlelogun
kesa
kesan
kesh
keta
ketadinlogbon
ketadinlogun
ketala
ketalelogun
kete
ketekete
ketu
kevin
kewa
kewaa
key
keyamo
keyin
kg
kha
khaganate
khalil
khan
khanate
khmer
khoisan
khz
ki
kia
kiakia
kialo
kick
kid
kids
kiel
kifayatullah
kigezo
kii
kiini
kija
kika
kikan
kiki
kiko
kikun
kilasi
kill
killed
killing
kills
kilo
kilometers
kilometres
kilomita
kim
kin
kind
king
kingdom
kingdoms
kings
kingsley
kingston
kini
kinni
kintra
kio
kipru
kipyegon
kire
kiri
kiribati
kiss
kitiyan
kitts
kiu
kizz
kj
kk
klaus
kle
klein
km
kn
knife
knight
know
knowledge
known
ko
koch
kofar
kofi
kofid
kogi
koja
kojo
koju
koka
kokandinlogbon
kokandinlogun
kokanla
kokanlelogun
koko
kokoro
kola
kole
kollington
kollontai
kolombia
kolu
komi
komisona
komprenas
kompreni
komputa
komputilo
komunisti
kong
kongo
kongresi
koni
konstantinos
koo
koodu
kookan
koord
kopa
kora
kordofanian
korea
korean
korede
kori
koriko
korin
korira
koro
korona
kose
kosi
koso
kosofe
kosoko
kosovo
kosta
koto
koumadje
kowe
kowo
kri
kriste
kristeni
kristi
kristiani
kristie
kro
kroati
kroatia
kru
ksi
ksmc
ktro
ku
kuba
kudu
kuku
kukuru
kule
kulo
kumuyi
kun
kuna
kunbo
kunfa
kunkun
kunle
kunming
kunqu
kunrin
kurdish
kuro
kurt
kuru
kuta
kuti
kutukutu
kutusu
kuwait
kuwana
kuznetsova
kvanto
kvitova
kw
kwa
kwali
kwara
ky
kyrgyzstan
l
la
laa
laaka
laarin
laaye
labe
label
labels
labisi
labor
laboratory
labori
laboris
labour
labrador
labu
lack
ladi
ladies
ladipo
lado
ladoke
lady
lafayette
lafia
lafiwe
lagba
lagbara
lagbaye
lagelu
lagoon
lagos
lagosstate
lai
laiberia
lailai
laini
laipe
laisi
laja
laju
laka
lake
lakoko
lala
lambda
lamidi
lamido
lampert
lamu
lana
land
landdata
lande
landi
lands
landsdata
lane
lang
langba
language
languages
lanka
lanre
lanzhou
lao
laos
lapa
lapapo
lara
large
largely
larger
largest
larin
larry
larubawa
las
lasan
lasiko
lasisi
laspotech
last
lasu
lat
latara
latari
latd
late
lateef
later
latest
lati
latimes
latin
latini
latitude
latodo
latowo
latter
latvia
lau
laugh
launch
launched
launches
laura
laureate
laurence
laurent
law
lawal
lawan
lawo
lawrence
laws
lawson
lawujo
lawyer
lawyers
lay
laye
layer
layers
layout
lb
lc
lcc
lcda
ld
le
leachman
lead
leader
leaders
leadership
leading
leaf
league
learn
learning
least
leather
leave
leaves
leaving
leba
lebanon
lebanoni
lebe
lecture
lecturer
led
lede
lee
leeds
left
leg
legacy
legal
legba
legbe
legbegberun
legend
legendary
legislature
lehin
lehinna
leiar
leicester
leiden
leila
lejo
lekan
lekki
lele
lemo
length
lenu
leo
leonard
leone
leopold
lepa
lera
lere
lero
les
lesbian
lese
leslie
lesotho
less
lesser
let
leta
leti
leto
letter
letters
level
levels
leventis
lewaju
lewis
lewu
leyi
leyin
lez
lga
lgbt
lgbtq
lge
li
lia
liaison
liang
liao
lib
liberal
liberation
liberia
liberty
libraries
library
libro
libya
lica
license
lie
liechtenstein
lies
lieutenant
life
lifestyle
lifetime
lifi
lifisio
lifo
lift
lifted
light
lights
ligue
liigi
like
likely
lil
lile
lilian
lilo
lilu
lily
lima
limit
limitations
limited
lin
lincoln
linda
lindsay
line
linear
lines
lingua
linguistic
linguistics
lingvo
link
linked
linking
links
linnaeus
lio
lion
lipsum
lisa
list
lista
liste
listed
listen
listing
listn
lists
liststyle
lit
literary
literature
literatures
lithium
lithuania
lithuanian
litireso
little
liu
live
lived
liverpool
lives
living
lix
liz
lizards
lje
lji
lk
lke
ll
lle
lloyd
lmo
lmu
ln
lo
load
lobi
lobinrin
local
located
location
locations
locator
lock
locked
locomotive
locomotives
lode
lodi
lodo
lododun
lodoodun
lodun
log
logbon
logged
logic
logical
login
logo
logun
lojiji
lojoojumo
loju
loke
loko
lokoja
lola
lole
lolo
lomo
lomodogs
lomodogsfm
lon
lona
london
lonely
long
longd
longe
longer
longest
longitude
longjing
longyan
loni
lonibise
loo
look
looked
looking
looks
loop
loorekoore
loose
looya
lopez
lopin
lopo
lopolopo
lord
lords
lorem
lori
lorile
lorin
lorisirisi
loro
loruko
los
lose
loser
losi
losing
loss
lost
lot
lota
louis
louise
louisiana
love
lover
loving
low
lowa
lowe
lower
lowercase
lowo
lowolowo
loye
loyun
lp
lr
ls
lsa
lt
lta
ltd
lu
luanda
lucas
lucia
lucie
lucile
luck
lucky
lucy
ludwig
lugard
lugi
luhttps
lui
luis
luiz
luja
luka
luke
luku
lula
lule
lunch
luo
luther
luu
luxembourg
lv
lydia
lynn
lyon
lyrics
m
ma
maa
maapu
mabel
mac
macau
macaulay
macedonian
machine
mackinnon
macmillan
macro
mad
madaga
madagascar
madagaskar
madam
madani
maddison
made
madison
madonna
madrasa
madrid
maersk
maga
magasi
magazine
maggi
magi
magic
magna
magnitude
maha
maharashtra
mahmood
mahmud
mai
maiden
maiduguri
mail
maili
main
mainland
mainly
maintain
maintained
maintenance
maja
maje
majek
majemu
majestic
majid
major
majority
makanjuola
make
maker
makes
makinde
making
makinwa
makun
makurdi
mal
malagasy
malaika
malawi
malay
malaysia
malcolm
maldives
male
mali
malik
maliki
mall
mallam
malline
malone
malta
mama
mamet
mamluk
mamluks
man
management
manager
managers
manchester
mandarin
mandatory
mande
mandela
mang
manga
manhattan
maniero
manifesto
manner
manpower
mantra
manual
manually
manuel
manufactured
many
manyika
map
maps
mapsize
maputo
mar
marathon
marc
marcel
march
marcos
marcus
mare
margaret
margin
mari
maria
mariam
mariana
mariano
marie
marilyn
marina
marine
marino
marinus
mario
marion
marjorie
mark
markaz
marked
marker
markers
market
marketing
marks
marksize
marku
markup
marlene
marley
maroko
marriage
married
mars
marseille
marshal
marshall
martha
marti
martin
martina
martineau
martins
maru
marun
marundinlaadorun
marundinlogbon
marundinlogoji
marundinlogun
marvel
marvin
marx
marxist
mary
maryland
mas
mase
masiti
mask
maskell
mason
mass
massachusetts
massilieurodes
master
masters
match
matches
matching
mater
material
materials
maternity
math
mathematical
mathematician
mathematics
mathematiki
mathew
mathima
mathimatiki
matrix
matt
matter
matters
matteu
matthew
mau
maureen
mauresmo
maurice
mauritania
mauritius
maurya
mavin
mavins
mavis
mawlid
max
maximilian
maximum
maxine
maxwell
may
maya
mayen
mayflower
mayo
mayor
mayotte
mb
mba
mbaise
mbano
mbe
mbi
mbo
mbra
mc
mcdaniel
mcdonald
md
me
mean
meaning
means
meant
measles
measured
measurements
meat
mecca
mechanical
med
medal
medals
media
median
mediawiki
medical
medicine
medina
mediterranean
medium
mee
meedogun
meet
meeting
meets
mefa
mega
meganathan
meje
mejeeji
mejeji
meji
mejidinlaadota
mejidinlogbon
mejidinlogoji
mejidinlogun
mejila
mejilelaadota
mejilelogbon
mejilelogoji
mejilelogun
mejo
meksiko
melbourne
melo
melody
melting
melvin
member
members
memoirs
memorial
memory
men
mental
mentioned
mentor
menu
mercedes
merchant
mercury
mercy
meredith
meri
meridian
merin
merindinlaadota
merindinlogbon
merindinlogoji
merindinlogota
merindinlogun
merinla
merinlelogbon
merinlelogoji
merinlelogun
merit
merry
mesa
mesan
mesi
mesozoic
message
messages
met
meta
metadata
metadinlaadorun
metadinlaadota
metadinlogbon
metadinlogoji
metadinlogun
metal
metala
metalelogbon
metalelogoji
metalelogun
metaleurodicus
metali
metals
meter
meters
methane
method
methodist
methodology
methods
metres
metric
metro
metropole
metropolitan
metta
mewa
mewaa
mexican
mexico
meyer
mf
mfr
mg
mgbo
mhz
mi
mia
miami
mian
michael
micheal
michel
michelle
michigan
microformat
microformats
microlophus
micronesia
microsoft
mid
middle
mide
midfielder
midfielderhttps
midlands
might
miguel
mii
miiran
miji
mike
mikhail
milah
milan
mile
miles
milio
milionu
military
mill
mille
millennium
miller
millia
million
mills
milo
milton
mimi
mimo
mimu
min
minas
mind
mine
ming
mini
minimum
minin
mining
minisita
minister
ministers
ministries
ministry
minna
minnesota
minor
minority
minu
minus
minute
minutes
mir
mira
miracle
mirage
miran
mire
miriam
mirror
mirrors
misau
miss
missing
mission
missionary
missions
mississippi
missouri
mit
mita
mitchell
mix
mixed
mk
mko
ml
mli
mm
mn
mo
mobile
mobolaji
mode
model
modelo
models
modern
modernity
modi
modified
modify
module
modupe
moe
moenen
mofe
mohamed
mohammed
moi
moji
mojuto
mokandinlaadota
mokandinlogbon
mokandinlogoji
mokandinlogun
mokanla
mokanlelaadota
mokanlelogbon
mokanlelogoji
mokanlelogun
mokin
moldova
moldovan
mole
molecular
molecules
molk
moment
moments
momoh
mon
mona
monaco
monarch
monarchs
monarchy
monastery
monday
monde
money
mongol
mongolia
monica
mono
monrovia
mons
montana
monte
montefiore
montenegrin
montenegro
montgomery
month
monthly
monthname
months
montreal
monu
moon
moore
mora
more
moreno
morgan
morisi
morning
moro
moroccan
morocco
moroko
morris
morrison
mos
mosa
mosalasi
moscow
mose
moses
moshood
mosque
mossalassi
mossi
most
mostly
mother
motherhood
mothers
motion
moto
motor
motto
mound
mount
mountain
mountains
move
moved
movement
movements
movie
movies
moving
moyo
moz
mozambique
mozilla
mp
mpeg
mpi
mpili
mpu
mputa
mr
mrs
ms
msc
mt
mtn
mtv
mu
mubi
much
mudashiru
mudel
mudell
mufti
mughal
muh
muhammad
muhammadu
muhammed
mukhtar
mule
multi
multilingual
multimedia
multiple
mum
mummy
mumps
muna
munadoko
munich
municipal
municipalities
municipality
mura
murder
murphy
murray
murtala
mus
musa
muse
museo
museum
museums
museveni
mushin
music
musical
musician
musicians
musik
musiliu
musk
muslim
muslims
muson
must
mustafa
mustapha
musulumi
mutual
muyiwa
mv
mw
mwanza
my
mya
myanmar
myth
myths
mzn
n
na
naa
naacp
nacional
nadia
nadu
nadwatul
nadwi
naeto
nagije
nagorno
nah
nai
naigiria
naigiriahttps
naija
naijiria
naira
nairobi
nakahara
nakamura
naked
nam
name
named
names
namespace
namespaces
namibia
naming
nan
nana
nanautawi
nancy
nanda
nanjing
naomi
nap
napoleon
naptip
narrative
narrow
nas
nasa
nasarawa
nasir
nasty
natal
natalie
nathaniel
nation
national
nationale
nationality
nations
native
nativename
nato
natural
nature
natureserve
naval
navarre
navbar
navbox
navboxes
navigation
navigational
navigationsleiste
navy
nawo
nazi
nazim
nb
nba
nbc
nbe
nbi
nbo
nc
nchez
ncipe
ncnc
nd
nda
ndanitv
nde
ndebele
ndez
ndi
ndin
ndo
nds
ndu
ndun
ne
neal
near
nearby
nearest
nearly
nebraska
nebula
necessarily
necessary
neck
nedifinita
need
needed
needs
negative
negga
negro
neil
neither
nek
nelson
neni
neo
neocondeellum
neogene
neon
nepal
neptune
nested
net
netflix
netherlands
network
networks
nevada
never
nevertheless
nevis
new
newark
newcastle
newfoundland
newly
newman
news
newsletter
newspaper
newspapers
newton
next
nez
nfa
nfaa
nfani
nfe
nfi
nfo
nfu
ng
nga
ngan
ngba
ngbara
ngbe
ngbo
ngbohu
ngbu
nge
ngi
ngo
ngozi
ngu
ngwa
nh
nha
nhra
ni
nia
niava
nibe
nibi
nibiti
nibo
nica
nicaragua
nicholas
nichols
nick
nickelodeon
nickname
nicknames
nicola
nicolas
nicole
nida
nido
nie
nife
nig
nigba
nigbagbogbo
nigbakan
nigbamii
nigbana
nigbati
nigbe
nigbogbo
niger
nigeria
nigeriafilms
nigerian
nigerians
nigerias
nigga
niggas
night
nightingale
nights
nii
niis
nikan
nikaragua
nike
nila
nile
nilo
nils
nilu
nimo
nina
nine
nineteenth
ningbo
nini
niniola
ninla
ninu
nio
nip
nipa
nipase
nipe
nipinle
nipo
nipponentomon
nira
nireti
niro
nis
nisi
nisilini
niso
nit
nite
niti
nito
nitori
nitorie
nitorina
nitorinaa
nitoripe
nitosi
nitrogen
niu
niwaju
niwo
niwon
niya
niyanju
niye
niyi
nja
njagun
njanije
njc
nje
nji
njiya
njo
njoku
nju
nka
nkan
nkanju
nkankan
nke
nkechi
nki
nkiri
nkiru
nko
nku
nl
nla
nlade
nle
nlo
nlola
nlu
nm
nma
nmi
nmo
nmu
nn
nna
nnaji
nnamdi
nne
nneka
nnewi
nni
nnkan
nnnnnn
nnu
no
nobel
noble
nobody
nocat
nodyn
noe
noir
noise
nok
nollywood
nomba
nominal
nominated
nomination
nominations
nominee
nominees
non
none
nonso
nonviolent
nor
nord
norfolk
normal
normally
norman
norms
north
northern
northwest
northwestern
norton
norway
norwegian
nos
nosa
nose
nosek
not
notable
notably
notation
note
noted
notes
nothing
notice
notices
notoc
nouah
noun
nouveau
nov
nova
novel
novelist
novels
november
novo
now
np
npa
npe
npi
npinpin
npn
npo
nputa
nr
nra
nran
nrare
nre
nrere
nri
nrin
nro
nru
ns
nsa
nsaba
nse
nsi
nsit
nso
nsukka
nt
nta
ntagi
ntan
nte
ntgen
nth
nti
nto
ntu
nu
nuba
nubode
nuclear
nuclei
nude
nuhu
nukleotidi
null
nulla
number
numbered
numbers
numeric
numerical
numerous
numo
numtext
nun
nupe
nur
nuro
nurse
nursery
nuso
nuwo
nwa
nwankwo
nwaye
nwi
nwo
nwosu
nwu
ny
nya
nyara
nye
nyi
nyo
nyra
nysc
nytimes
nyu
nzeogwu
o
oa
oak
oakland
oas
oasis
oau
oba
obafemi
obalende
obaluaye
obama
obanikoro
obasa
obasanjo
obatala
obe
obey
obi
obinrin
obirin
obituary
object
objects
oblast
obo
oboh
oboli
obosi
obote
observances
observation
observations
observatory
observe
observed
observer
obsolete
obtained
obudu
oc
occasion
occasionally
occupation
occur
occurred
occurrence
occurs
ocean
oceania
oclc
oct
october
oda
odara
odaran
odd
oddstyle
ode
odeoni
odi
odidi
odo
ododo
odofin
odoodun
odu
oduah
oduduwa
odukoya
odun
oe
of
ofa
ofada
ofe
ofeefee
off
offa
offered
office
officeholder
officer
officers
official
officially
officials
offset
oficiala
ofin
ofo
ofr
often
ofurufu
og
oga
ogagun
ogba
ogbc
ogbe
ogbemudia
ogbeni
ogbin
ogbo
ogbomosho
ogbomoso
ogbon
ogbontarigi
oge
ogg
oghara
ogidi
ogiemwonyi
ogo
ogogo
ogoji
ogorun
ogota
ogu
ogudu
ogulu
ogun
ogundipe
ogunjo
ogunlo
ogunlogo
ogunsanya
ogunyemi
oh
ohio
ohu
ohun
ohunko
ohunkohun
ohunnkan
oil
oirats
ois
oja
oje
oji
ojise
ojo
ojogbon
ojoibi
ojooju
ojoojumo
ojosipe
ojota
oju
ojuami
ojude
ojuelegba
ojukwu
ojuojo
ojuomi
ojuorun
ojurere
ojuse
ojutu
ok
oka
okada
okafor
okan
okara
oke
okechukwu
okeere
okeho
okeke
okemesi
okene
okere
okereke
oki
okija
okiki
okitipupa
oklahoma
oko
okojie
okolo
okon
okonjo
okonkwo
okoo
okoolenigba
okoowo
okoro
okowo
okoya
okoye
okrika
oksijin
oksijini
oku
okudu
okun
okunfa
okunkun
okunrin
okuta
ol
ola
olabisi
oladele
oladipo
olagbegi
olaiya
olaju
olajumoke
olamide
olateru
olatunji
olav
olawale
olayinka
old
older
oldest
ole
oli
olimpiadi
olimpiiki
olimpiki
oliver
olivia
olo
olodi
olofin
ologba
ologbele
ologun
olohun
olojo
olokiki
olokun
ololufe
olomi
olominira
olona
oloogbe
olootu
olopa
olopaa
olopobobo
olori
olorin
oloro
olorun
oloselu
olowo
oloye
olsen
olu
olubadan
olubori
oluda
oludajo
oludamoran
oludari
oludasile
oludije
oludokoowo
olufemi
olugba
olugbe
olugbo
oluilu
oluko
olukoni
olukopa
olukowe
olumide
olumulo
olupese
olupile
olupolowo
oluranlo
oluranlowo
oluronbi
olus
olusare
olusegun
olusola
olutaja
olute
oluto
oluwa
oluwadi
oluwe
oluwo
oluwole
oluyaworan
oluyole
olympia
olympic
olympics
olympiki
om
oma
omalu
oman
omar
omawumi
ombox
omega
omi
omidan
omim
ominira
omiokun
omiran
omit
omitted
omo
omoba
omobi
omobinrin
omobirin
omode
omoku
omokunrin
omoni
omoniyan
omoorile
omose
omotayo
omotola
omotoso
omowe
omoyemi
omu
on
ona
onabanjo
onayemi
once
ondo
one
ones
oni
onibara
onibise
onibugbe
onidajo
onide
onigbagbo
oniipin
onijo
onikan
onile
onilu
onimo
onimookomooka
onimosayensi
onina
onipo
oniroyin
oniru
oniruuru
onis
onise
onisowo
onitanna
onitsha
oniwe
oniwosan
onjc
onje
onka
onko
onkowe
online
only
ono
ontario
onto
onu
onwenu
onyango
onyeka
onyenokwe
oo
oogu
oogun
ooni
oore
ooru
oorun
oos
ooto
op
opa
opagun
ope
open
opened
opening
opens
opera
operated
operation
operational
operations
opin
opinion
opo
opobo
opolo
opolopo
opopona
opportunity
opposed
opposite
opposition
oprah
optical
optics
option
optional
options
or
ora
oracle
oral
oran
orange
orbit
orchamoplatus
orchestra
order
ordered
orders
ordinal
ordinary
ordo
ore
oredegbe
orelope
org
organ
organic
organisation
organism
organisms
organization
organizational
organizations
organized
ori
oriental
orientation
origin
original
originally
originated
origins
origyear
oriki
orile
orilede
orileede
orileominira
orin
orinlenigba
oris
orisa
orisi
orisirisi
orisun
orita
oritage
orji
orlando
oro
oroiseona
orsl
orthodox
orthography
oru
oruka
oruko
orun
orundun
os
osa
osagie
osaka
osas
osborne
oscar
oscars
ose
oseania
oselu
osere
oshimili
oshin
oshinowo
oshodi
osi
osise
osita
oskar
oso
osogbo
ossetia
osu
osun
osunde
osupa
ota
otedola
other
otherparty
others
otherwise
oti
otito
oto
otooto
otto
ottoman
otu
otukpo
otun
otunba
otutu
ou
ouagadougou
oun
ounje
our
ousmane
out
outbreak
outer
outline
output
outside
outstanding
ova
oval
over
overall
overridden
override
overrides
overseas
overview
owa
owe
owen
owerri
own
owned
owner
owo
owoh
owonina
oworonshoki
owu
owuro
oxbow
oxford
oxidation
oxygen
oy
oya
oye
oyedepo
oyelami
oyi
oyin
oyinbo
oyingbo
oyinlola
oyo
oyu
oyun
oz
ozokwor
p
pa
paa
paapa
paapaa
pablo
pac
pace
pacific
pack
paco
pada
padanu
padding
pade
padlock
paeredi
pag
pagbe
page
pageant
pagename
pages
pagetype
pagi
pagos
pai
paid
pain
painter
pair
pairs
pajawiri
pajjiz
pak
paki
pakistan
pala
palace
palau
pale
paleogene
paleozoic
palestine
palette
palm
palmer
pam
pamela
pamo
pan
pana
panafrican
panama
pandemic
panel
pani
pano
panu
papa
paper
papers
papiamento
papo
papua
par
para
parada
parade
paradise
paragu
paraguay
paraleyrodes
paralympic
paralympics
param
paramaribo
parameter
parameters
paramount
parapo
pare
parent
parentheses
parenthetical
parents
pari
paris
parisi
pariwo
park
parker
parks
parliament
parliamentary
paro
parser
parsons
part
partial
participated
particle
particles
particular
particularly
parties
partner
partners
parts
party
parun
pas
pascal
pase
pasha
pashto
pasifiki
pass
passage
passed
passing
passion
password
past
paste
pasting
pastor
pat
pata
pataki
patani
patapata
pate
patent
path
pati
patience
patient
patients
pato
patoranking
patricia
patrick
patro
patrom
patron
patrono
pattern
patterns
patterson
paul
paula
pauliani
paulo
pawaniya
pawo
pay
payne
paypal
pays
paz
pbs
pc
pdf
pdflink
pdp
pe
peace
peak
pealius
pearl
pearson
pedro
peer
peere
pegede
peggy
pejo
pejulo
pele
pelebe
peller
pelu
pemba
pen
penalty
pendergrass
penguin
peninsula
pennsylvania
penny
people
peoples
pepper
pepsi
per
percent
pere
peregede
perfect
perform
performance
performances
performed
performing
perhaps
peri
period
periodic
periodical
periods
perkin
perkins
permanent
permian
permitted
perry
persia
persian
person
personal
personalities
personality
personnel
persono
persons
perspective
perspectives
peru
peruvian
pese
pet
pete
peter
peters
petra
petroleum
petrova
peye
pez
pg
ph
phanerozoic
pharaoh
pharmacy
phase
phd
phenomena
phil
philadelphia
philip
philippe
philippines
philips
phillip
phillips
philosopher
philosophical
philosophy
phoenix
phone
phosphate
phosphorus
photo
photography
photos
php
phrase
phyllis
phylum
phyno
physical
physicist
physics
pi
pianist
piano
pib
pick
picking
picture
pictures
pidgin
piece
pieces
pierre
pilatu
pile
pillars
pilot
pin
ping
pink
pinle
pinnock
pinnu
pinpin
pinti
pinu
pinya
pioneer
pipa
pipade
pipe
pipeline
pipin
pipo
pirates
pittsburgh
pius
pixels
pizarro
pjo
pl
pla
place
placed
placeholder
placement
places
placing
plain
plan
plane
planet
planetary
planeti
planets
planned
planning
plans
plant
planti
plantilla
plantilya
plants
plate
plateau
platform
platforms
platinum
plato
play
played
player
players
playhouse
playing
playmakerstats
plays
playwrights
plaza
plc
plcd
please
pleasure
plej
plenty
plexus
pli
plot
plural
plus
pluto
plymouth
pm
pmnewsnigeria
png
po
podatki
poe
poem
poems
poet
poetry
poets
pofo
point
pointing
points
poju
pol
poland
polandi
poli
police
policies
policy
polish
polishing
political
politician
politicians
politics
politik
politikus
polityk
poll
polo
polongo
poly
polynesia
polynomial
polytechnic
pon
pondicherry
poo
pool
poor
pop
pope
popu
popular
population
populations
por
pornography
port
portal
portion
porto
portrait
ports
portsmouth
portugal
portuguese
pos
posedanto
posi
position
positive
positivism
possible
possibly
post
postal
poste
postgraduate
postscript
pot
potato
potential
potogi
pounds
pour
poverty
powder
powell
power
powerful
pp
ppc
ppp
pr
practical
practice
practices
practitioners
pradesh
prague
praise
pre
prec
preceded
preceding
precious
precise
precision
predefinic
predloga
predloz
predsednik
predsjednik
pref
prefecture
prefer
preferably
preferences
preferred
prefix
prefixed
pregnant
premier
premium
premiumtimesng
prep
prepare
pres
presence
present
presentation
presented
presenter
presents
presidency
president
presidente
presidentes
presidential
presidents
press
pressure
pretoria
pretty
prevent
prevention
preview
previous
previously
pri
price
pride
priest
primari
primarily
primary
prime
primer
primetime
prince
princess
princeton
principal
principe
principle
principles
prinsloo
print
prior
priscilla
prison
private
prix
prize
pro
probably
problem
problems
proceedings
process
processes
processing
produce
produced
producer
producers
produces
producing
production
productions
products
prof
profaili
profession
professional
professionals
professor
profile
profiles
profit
program
programme
programmes
programs
progress
progressive
progressives
prohibition
project
projection
projects
prolific
prominent
promise
promising
pronounced
pronunciation
proper
properly
properties
property
prophet
proportion
proposal
proposals
proposed
prose
prostitution
protect
protected
protection
protectorate
protein
protentomon
protest
protestant
proto
protocol
proton
protura
proturan
proturentomon
proud
provide
provided
provides
providing
province
provinces
provincial
provisional
prs
pru
prussia
ps
pseudanisentomon
psychological
psychology
pt
pti
pu
pub
pubis
public
publication
publications
publique
published
publisher
publishers
publishing
puerto
puff
pull
pulse
punch
punchng
punctuation
puntland
pupa
pupo
pure
purge
purity
purple
purpose
purposes
push
pushed
pushpin
put
puts
putting
px
pyramid
q
qa
qasim
qatar
qi
qin
qing
qu
quaintance
qualifier
qualifying
qualitative
quality
quantitative
quantities
quantity
quantum
quarter
quarterfinals
quarterly
quarters
quaternary
que
quebec
quechua
queen
queens
queer
query
quest
question
questions
qui
quick
quickly
quilox
quincy
quintero
quis
quite
quotation
quote
quoted
quotes
qur
qurikancha
r
ra
raa
rabat
rabi
rabinrin
race
rachael
rachel
racial
racing
rada
radi
radiation
radical
radio
radius
radwan
rae
rafael
raga
rahama
raheem
rahman
rai
rail
railway
rain
rainbow
rainer
raised
raising
raj
raji
rajo
raju
raku
rale
ralph
rama
ramo
ramsey
ramu
ran
random
range
ranges
rani
rank
ranked
ranking
ranko
ranks
ranodu
rans
ranse
ransome
ranti
rao
rap
rape
raphael
rapid
rapper
rara
rare
rarely
ras
rasaki
rasheed
rashid
rat
rate
rates
rather
ratio
raufu
raw
rawo
ray
raya
raymond
raypower
rays
rbi
rbo
rc
rd
rdoba
re
reach
reached
reaching
reaction
read
reader
readers
reading
ready
reagan
real
reality
really
reason
reasons
rebecca
rebellion
receive
received
receives
recent
recently
recipient
recognised
recognition
recognized
recommended
record
recorded
recording
records
recovered
rect
red
redeemed
redemption
redio
redir
redirect
redirects
redstockings
reduce
reduced
reduction
reed
reekado
reel
ref
refbegin
refer
reference
referenced
references
referencing
referred
referring
refers
reform
refused
regarded
regarding
regeringschef
reggae
regime
regina
reginald
region
regional
regions
register
registered
registration
regnum
regu
regular
regulation
reign
rein
reinvented
rejected
reke
related
relation
relations
relationship
relationships
relative
relatively
relay
rele
release
released
releases
relevant
reliable
relief
religion
religious
reloaded
rema
remain
remained
remaining
remains
remarks
remember
remi
reminisce
remix
remo
remove
removed
renaissance
rename
renamed
render
rendered
rendering
renders
rene
repeat
replace
replaced
replacement
replaces
reply
report
reported
reporters
reports
represent
representation
representative
representatives
represented
represents
reprinted
reptile
repu
republic
republican
republics
republika
request
requested
require
required
requires
requiring
rere
res
research
researcher
reserve
reserved
residence
residents
resistance
resistant
resolution
resort
resource
resources
respect
respective
respectively
respiratory
response
responsibility
responsible
rest
restoration
restricted
result
resulting
results
reti
retired
retirement
retrieved
return
returned
returns
reuters
rev
revealed
revelation
revenue
review
reviewed
reviews
revised
revision
revival
revived
revolt
revolution
revolutionary
rewa
rewane
rey
rez
rf
rg
rgb
rhachisphora
rhodesia
rhythm
ri
ria
ribi
ribiribi
ric
rica
rican
ricardo
rice
rich
richard
richards
richardson
richmond
rico
ricordi
riddim
ride
rides
rie
riennes
right
rights
rihanna
rii
rika
rile
rima
rin
rindi
rindo
ring
ringbe
rings
rinja
rinla
rinle
rinlelogun
rio
riot
ripe
rira
riran
riri
riro
riru
ris
rise
risi
rising
risk
rita
ritre
river
rivers
riwo
rk
rki
rn
rna
rnd
rno
ro
road
roads
robert
roberta
roberto
roberts
robertson
robin
robinson
roboto
roc
rock
rocks
rodo
rodri
rodrigues
rogbodiyan
roger
rogers
rojo
roju
roko
role
roles
roll
rolling
roma
roman
romance
romania
romanian
rome
romu
ron
ronald
ronke
ronu
roof
room
roosevelt
root
roots
ropo
rora
roro
roru
rosa
rosalyn
rosary
rose
rosemary
rosia
ross
rothstein
rotimi
rough
roughly
round
rounded
rounding
rounds
route
routledge
row
rowland
rows
roy
royal
royalty
royin
rra
rtd
rtu
ru
rubella
rubin
ruby
rudolf
rufai
rufu
rufus
rugby
ruge
ruggedman
ruins
ruiz
ruko
ruku
rule
rules
ruling
run
rundun
runmi
runner
runners
running
runs
runso
runwa
runway
runways
rural
ruru
rusek
rush
russell
russia
russian
ruth
rutherford
rwanda
ryan
s
sa
saa
saaju
saare
saba
sabc
sabine
sablon
sabon
sacramento
sacred
sacrifice
sadau
sade
safari
safe
sag
sagamu
sage
sah
sahara
saharan
saheed
sahel
sai
said
saina
saint
saints
saka
sakara
saki
sala
salam
salami
salawu
salaye
sale
sales
sally
salma
salo
salt
salvador
salvation
sam
samantha
sambia
same
sami
samisi
samoa
sample
sampling
sampson
samuel
san
sana
sanctuary
sand
sandbox
sandra
sands
sang
sango
sani
sanjo
sankara
sanmi
sanni
santa
santiago
santo
santos
sanusi
sanwo
sanyi
sao
sapa
sapele
sapiens
sar
sara
sarah
saraki
sare
sarkodie
sarmiento
saro
sars
sarz
sasha
sassanid
sat
satellite
satellites
satu
saturday
saturn
saudi
savage
savanhu
savannah
save
saved
saw
saxony
say
saye
sayensi
says
sb
sbe
sc
scale
scandal
scattered
scene
schedule
scheduled
scheme
scholar
scholars
scholarship
school
schools
schwarze
sci
science
sciences
scientific
scientist
scientists
sco
scoan
score
scored
scotland
scots
scott
scottish
screen
screening
script
sculpture
sd
se
sea
seal
sean
search
searching
season
seat
seats
seattle
sebe
sec
second
secondary
seconds
secret
secretariat
secretary
secrets
section
sections
secure
security
sed
seda
sedasile
see
seed
seeds
seeing
seek
seeking
seeks
seen
seese
segregation
segun
sekondiri
seku
selasi
sele
select
selected
selecting
selection
seles
self
selling
seme
semi
semifinals
seminar
seminary
semitic
sen
senate
senato
senator
senatorial
senators
send
senegal
senior
sense
sent
sentence
sentinel
sep
separate
separated
separator
sepo
sept
september
sequence
sequences
serbia
serbian
sere
serena
sergeant
serial
serie
series
seriki
serve
served
server
serves
service
services
servicing
ses
sese
session
sessions
set
seto
sets
setting
settings
settle
settled
settlement
setumo
seun
seven
seventh
several
severe
sex
sexes
sexism
sexual
sexuality
seychelles
seyi
seyin
seyo
sg
sgp
sh
sha
shadow
shagari
shah
shaikh
shall
shang
shanghai
shape
sharapova
share
shared
sharia
sharif
sharing
sharon
sharp
shaw
she
sheet
shehu
sheikh
shekwo
shell
shelley
shelter
shen
shenzhen
sherwood
shettima
shi
shield
shift
shina
ship
shipbuilding
ships
shirley
shit
sho
shock
shola
shoot
shooting
shop
shopping
short
shortcut
shortened
shorter
shortly
shortwave
shot
should
show
showdata
showed
showing
showkey
shown
shows
shtml
shtmlhttps
shu
shuga
shut
shuttle
si
sia
sibe
sibesibe
sibi
sick
sid
side
sidebar
sident
sidi
sidney
sie
sierra
sign
signature
signed
significant
significantly
signs
sii
sikh
sikiru
sikolashipu
silaghi
sile
silence
silent
silicon
silva
silver
silverbird
silvestri
simbine
simenti
simi
similar
similarly
simmel
simon
simone
simple
simplified
simply
sin
since
sindh
sindhi
sing
singapore
singer
singers
singh
singhiella
single
singles
singular
sini
sinima
sinmi
sinsi
sinsin
sint
sinu
sio
sipo
sir
sire
siri
siria
siro
sis
sisan
sise
siseto
sisi
siso
sisoloruko
sistema
sistemu
sister
sisters
sit
sita
site
sites
siti
situation
siwa
siwaju
six
sixth
size
sizes
sjabloon
sk
ska
skabelon
skales
skeletal
skeleton
sketch
skew
ski
skills
skin
sko
skotlandi
skribi
sky
skyline
sl
sla
slam
slave
slavery
slavey
sleep
slightly
slim
slovak
slovakia
slovenia
slow
slowly
sm
small
smaller
smallimage
smallimageright
smalltext
smart
smell
smith
smithsonian
smooth
snake
snapshot
snell
snið
snoop
so
soap
sobi
sobowale
soccer
soccerway
social
socialism
socialist
societies
society
sociological
sociologist
sociologists
sociology
sode
sodo
sofia
sofieti
soft
software
sogbo
sojourner
soju
soke
soki
soko
sokoto
soku
soky
sola
solanke
solar
sold
soldier
soldiers
sole
solid
solo
solomon
solomoni
solution
somali
somalia
some
someone
something
sometimes
somewhat
somewhere
somkele
somo
somolu
son
song
songhai
songluo
songs
songwriter
sonrai
sons
sonu
sony
soobu
soon
sope
sophie
sopo
sora
sori
soro
sorrow
sorry
sort
sorted
sos
sosialisti
soso
sotho
soto
sought
soul
sound
soundcity
sounds
soup
source
sources
sousse
south
southeast
southern
southwest
sovereign
soviet
sowande
sowo
sowore
soyinka
sp
space
spacecraft
spaced
spaces
spacing
spain
span
spani
spanish
sparingly
spe
speak
speaker
speakers
speaking
speaks
special
specialized
species
specific
specifically
specified
specifies
specify
specifying
spectrograph
spectrum
speech
speed
speedy
spein
spelled
spelling
spencer
spender
spherical
spielberg
spin
spirit
spiritual
spitzer
split
spoken
sport
sporting
sports
spot
spouse
spread
spring
springs
sprout
sq
squad
square
sr
sra
sri
ss
ssr
st
sta
stable
stack
stacked
stadium
staff
stage
stampa
stand
standard
standardization
standardized
standards
standing
stanford
stanley
stanton
star
starlets
stars
start
started
starting
starts
stat
state
stated
statement
states
statesman
statewide
station
stations
statistical
statistics
statistiki
statue
status
stay
ste
steam
steel
stefania
steinem
stella
step
stephanie
stephen
steps
sterling
steve
steven
stevenson
stewart
sti
stick
stickerfm
still
sting
sto
stock
stockholm
stoke
stone
stones
stood
stop
storage
store
stories
storm
story
storytelling
stosur
straight
strand
stranded
strands
strange
strategic
strategies
strategy
stratification
stratigraphy
stravinsky
street
streets
strelia
strength
stress
stri
strike
strikex
string
strings
striping
strong
stronger
strongly
structural
structure
structures
struggle
struggles
sts
stsci
stuart
stub
student
students
studied
studies
studio
studios
study
studying
stuff
stuttgart
stwo
style
styles
su
sua
sub
subdivision
subdivisions
subgroups
subject
subjects
subpage
subpages
subramaniam
subsequent
subspecies
subst
substitute
substituted
substitution
subtemplate
subtemplates
subu
succeeded
success
successful
successfully
successor
such
sud
sudan
suddenly
sue
suffix
suffrage
sufikso
suga
sugar
sugbo
sugbon
suge
suggest
suggested
sui
suicide
suitable
suite
suites
sul
sule
suleiman
suleja
suleras
sulfur
sulfuru
sultan
sultanate
sultani
summarize
summary
summer
summit
sun
sundararaj
sunday
sunku
sunmo
sunnewsonline
sunni
sunny
sunset
sunshine
sunwo
super
superior
superscript
supper
supplied
supply
support
supported
supporting
supports
supposed
suppress
suppressed
supremacy
supreme
sur
sure
surface
suriname
surname
surrounded
surrounding
surulere
survey
susan
suyo
sv
svetlana
svg
svk
sw
swahili
swali
swap
swati
swaziland
swe
sweden
swedish
sweet
swi
swidin
swimming
swinton
swiss
switch
switcher
switzerland
sword
sworn
sydney
syed
sylvanus
sylvester
sylvia
symbol
symbolic
symbols
symphony
syndrome
synonym
synonyms
syntax
synthesis
syria
sysop
system
systematic
systems
szablon
szeptycki
t
ta
taa
taagepera
taara
tabelvorto
tabi
tabili
table
tables
tabo
tadi
tafa
tafawa
tag
tagba
tagblatt
tagged
tagi
tagle
tags
tai
taipei
taiwan
taiwo
taiye
taja
taji
tajikistan
takahashi
take
taken
takes
taking
tako
taku
takun
takuntakun
tala
tale
talent
talented
tales
talk
talked
talking
talks
talo
tam
tamil
tan
tana
tanaka
tang
tanganyika
tango
tani
tanna
tansania
tansian
tanzania
tao
tapa
tapo
tara
taraba
target
targets
tari
task
taste
tat
taught
tawo
tax
taxa
taxation
taxi
taxobox
taxon
taxonomic
taxonomy
taya
taye
taylor
tayo
tb
tbe
tbilisi
tbs
tc
tcd
tchaikovsky
td
te
tea
teacher
teachers
teaching
team
teambracket
teams
tears
tech
technical
techniques
technology
tedela
tedo
tee
teeth
tehsil
teimple
tejadesiwe
teju
tejuosho
tejuoso
tel
tele
telecommunications
telefisionu
telegraph
teleri
telescope
telescopes
teletele
television
telifisan
telifisonu
teliskopu
tell
telling
temi
temperature
temperatures
templat
template
templates
temple
tempo
tempor
temporarily
temporary
ten
tenerife
teni
tenis
tennessee
tennis
tere
teresa
term
terminal
terminus
terms
terra
terrestrial
territories
territory
terry
tesiwaju
test
testament
testcases
tested
testing
tests
tetanus
tete
tetraleurodes
texas
text
texts
tg
tgaines
th
tha
thai
thailand
than
that
the
theater
theatre
theguardian
their
them
themselves
then
thenationonlineng
theodor
theodore
theology
theophilus
theoretical
theories
theorists
theory
there
therefore
theresa
thermal
these
thesis
theta
they
thick
thika
thing
things
think
thinking
third
thirty
this
thisday
thisdaylive
tho
thomas
thompson
thomson
those
though
thought
thoughts
thousand
thousands
threatened
three
throne
through
throughout
throw
thumb
thumbnail
thunder
thus
ti
tia
tianjin
tiata
tibet
tibi
tica
tide
tie
tied
tiel
ties
tiger
tii
tijani
tijo
tile
tiles
till
tilo
tim
timaya
timbuktu
time
timeline
timelines
times
timescale
timi
timini
timo
timor
timothy
tin
tina
tini
tinsel
tinu
tinubu
tio
tip
tipa
tipase
tipatipa
tipe
tira
tiraka
tire
tired
tiro
tirop
tis
tit
tita
titaja
titan
tite
titele
titi
title
titlebar
titleclass
titled
titles
titlestyle
tito
titobi
titobijulo
titun
titunto
tiu
tiv
tiwa
tiwantiwa
tiwo
tiwon
tk
tko
tl
tm
to
tobago
tobi
tobijulo
toc
todarajulo
today
togajulo
together
togo
toju
toka
tokasi
toke
token
toku
tokunbo
tokyo
told
toll
tolu
tom
toma
tome
tomorrow
ton
tonga
tongliao
toni
tonto
tony
too
took
tool
tools
top
tope
topic
topics
toppdoma
tori
toriola
tornado
toro
toronto
toru
toseluarailu
tosi
tosin
tosyn
total
toti
totifeyinti
totobijulo
tottenham
touch
toun
tour
tourism
tourist
tournament
tournaments
towa
toward
towards
tower
towers
town
towns
towo
towry
toye
toyin
tp
tpi
tr
tra
track
tracking
trade
tradestrike
tradition
traditional
traffic
trafficking
tragedy
trailer
trailing
train
training
tranc
trans
transcluded
transcription
transcriptions
transfer
transgender
transit
transition
translated
translation
translations
translit
transliteration
transparent
transport
transportation
traore
trap
travel
tre
treasure
treated
treatment
treaty
tree
trees
tri
trial
trialeurodes
triangle
triassic
tribune
tribute
trick
tried
trim
trinidad
trinity
trip
triple
tro
troliers
troops
tropical
tropidurus
trouble
true
trumpeter
trust
truth
try
trying
ts
tsa
tsad
tsbs
tse
tseki
tsi
tsile
tsonga
tswa
tswana
tt
tu
tuberculosis
tucker
tucson
tumo
tumosi
tun
tunde
tune
tunisia
tunji
tunmo
tuntun
tura
turchin
turkana
turkey
turki
turkish
turkmenistan
turks
turn
turned
turner
turning
turns
tutor
tutu
tuxen
tv
tvc
twain
twelve
twentieth
twenty
twice
twin
twins
twisted
twitter
two
txantiloi
ty
tyler
type
types
typical
typically
typing
tyranny
tłi
u
uachtara
uba
ubangi
ubu
uche
ud
uda
uefa
ufuoma
ug
uga
uganda
ugbo
ughelli
ugo
uh
ui
uk
ukeje
ukraine
ukrainian
ukwa
ukwu
ul
ulama
uloom
ultimate
ultraviolet
um
umar
umaru
umayyad
umbrella
umuahia
un
una
unavailable
uncertainty
uncollapsed
und
undefined
under
underground
underneath
understand
understanding
understands
une
unesco
unexpected
unfa
unfortunately
ungbe
uni
uniben
unicef
unicode
unifa
uniform
unilag
union
unique
unit
unite
united
units
unity
universal
universe
universities
university
unje
unknown
unless
unlike
unlimited
unlo
unnamed
unnecessary
unpe
unranked
unreviewed
unsaba
unso
until
unu
unused
unwanted
up
upa
upc
update
updated
upgraded
upload
uploaded
upn
upon
upper
upright
ur
ura
uralic
uranus
urban
urdu
urea
urhobo
url
urls
uromi
uru
urugu
uruguay
us
usa
usage
usd
use
used
useful
user
userbox
username
users
uses
using
usman
usmani
ussr
usual
usually
ut
utc
utility
utrecht
uttar
uu
uwo
uyo
uz
uzb
uzbek
uzbekistan
uzo
uzochukwu
v
va
vaccination
vaccine
vaccines
val
valentine
valerie
valid
valley
value
values
van
vancouver
vanessa
vanguard
vanguardngr
vanuatu
var
varela
vargas
variable
variables
variant
variants
variations
varies
variety
various
vary
vat
vatican
vcard
vdots
ve
vec
vector
vegas
vehicle
veidne
velha
venda
venezuela
venue
venues
venus
vera
verb
verde
veri
verlag
vermes
vermont
veronica
verrucoentomon
version
versions
versus
vert
vertical
very
veterans
veturi
vi
via
vice
vicente
victim
victims
victor
victoria
victory
vida
vidal
video
vie
vienna
viennotaleyrodes
vietnam
view
viewed
viewers
viewing
views
vihiga
vii
viii
vijayanagara
viktor
villa
village
vin
vincent
viola
violence
violet
violin
virgin
virginia
virus
viruses
visible
vision
visit
visits
vista
visual
visually
vitae
viva
vivian
vo
vogue
voice
voices
vojvodina
vol
volleyball
vols
volta
volume
von
vorlage
vorto
vote
votes
voting
voyage
vs
vu
vulnerable
w
wa
waa
wade
wadi
waec
wages
wagner
wahab
wahala
wait
waiting
waje
waju
wakati
wake
wako
wale
wales
walk
walker
walking
wall
wallace
wallis
walls
walter
wamakko
wan
wande
wang
wanile
want
wanted
wants
wanzer
war
ward
ware
wari
warn
warner
warning
warrant
warren
warri
warrior
warriors
wars
warsaw
was
washington
wasiu
watch
watchlist
water
waters
watson
wave
wavelength
wavelengths
waves
way
waye
wayne
ways
waziri
wazobia
wc
we
weak
wealth
wearing
weather
weaver
web
weber
webkit
website
webster
wedding
wednesday
week
weekday
weekend
weekly
weeks
wei
weight
weimar
weisstein
welat
welcome
welfare
well
wellington
wells
wellsradio
welsh
wen
wendy
went
wentworth
wenzhou
were
werner
wesley
west
western
westminster
wewe
wf
wg
wharf
what
whatever
wheat
wheel
when
whenever
where
whereas
whether
which
while
whilst
white
whitney
who
whole
whom
whose
why
wi
wide
widely
wider
widespread
widow
width
widths
wien
wiesbadener
wife
wiki
wikidata
wikilink
wikilinked
wikilinks
wikimarkup
wikimedia
wikipe
wikipedia
wikipedialang
wikiproject
wikitext
wiktionary
wild
wilhelm
will
william
williams
williamson
willis
wilson
wimbledon
win
winchi
wind
window
windows
windsor
winfrey
wing
winner
winners
winning
wins
winston
winter
winters
wipe
wisconsin
wisdom
wish
witch
with
withdrew
within
without
witness
wives
wiwa
wiwari
wiwo
wiwu
wizkid
wnba
wo
woju
wole
wolf
woli
wolof
woman
womanhood
womankind
women
womens
womensworldcup
womersley
won
wonder
wong
wonse
wonyi
woo
wood
wooden
woolf
wopo
word
worded
wordpress
words
work
worked
workers
working
works
workshop
world
worldfootball
worlds
worldwide
worry
worship
worth
would
woye
wozniacki
wp
wrap
wrapped
wright
write
writer
writers
writing
writings
written
wrong
wrote
wta
wu
wuhan
wule
wulo
wundia
wura
wurld
wuyi
www
x
xhosa
xi
xia
xiamen
xico
xie
xii
xiii
xin
xinjiang
xiongnu
xpd
xu
xx
xxx
xy
xyz
y
ya
yaa
yaba
yabatech
yabo
yago
yahoo
yakubu
yala
yale
yam
yan
yang
yanju
yanranti
yanri
yans
yanturu
yanu
yaounde
yapa
yar
yara
yato
yawo
ybnl
yc
ye
yeah
year
years
yege
yele
yellow
yem
yemen
yemi
yemisi
yemo
yen
yenagoa
yerevan
yes
yesterday
yet
yetunde
yewa
yewande
yewo
yeye
yi
yii
yika
yin
yinju
yinka
yinyin
yio
yioku
yiowu
yipada
yipo
yiyan
yiyansipo
yiyo
ynaija
yo
yobe
yoku
yola
yoo
yooku
yor
yori
yorisi
york
yoru
yoruba
yoruboid
yosii
you
young
your
yours
yourself
youth
youtube
yu
yuan
yue
yugoslafia
yugoslavia
yul
yun
yunifa
yunifasiti
yuroopu
yusuf
yusufu
yvonne
yy
yyyy
z
za
zaf
zainab
zaire
zambia
zamfara
zango
zanzibar
zareco
zaria
zaruq
zealand
zeit
zenith
zero
zeroes
zeros
zetkin
zh
zhang
zhanjiang
zhao
zhejiang
zhou
zhu
ziki
zila
zimbabwe
zinsou
zion
zip
zlatan
zone
zoo
zu
zulu
zuma
zur
zy
{
|
}
~
¡
£
«
¬
°
±
²
´
µ
¶
·
¸
º
»
½
×
æ
÷
ø
þ
đo
ʻ
ʼ
ʿ
ˈ
ˌ
ː
̀
́
̂
̃
̄
̅
̆
̇
̈
̉
̊
̋
̌
̍
̓
̛
̟
̣
̦
̧
̨
̩
̱
̲
͂
͡
α
β
γ
δ
ε
η
θ
ι
λ
μ
μετρο
ν
ο
π
προ
ρ
ς
τ
τυπο
φ
америка
в
г
данни
за
загвар
застави
и
инфо
инфокутија
картка
категория
категорија
н
на
о
по
подаци
правитель
президент
с
страна
у
халыып
шабле
шаблон
ы
і
үлгі
կաղապար
ְ
ִ
ַ
ָ
ּ
אינטרנט
המדינות
טבלת
ל
סיומות
סיומת
ף
ר
תבנית
ا
الا
الگو
ت
جزايرس
د
داڕێژە
رده
س
سانچہ
شابلون
قالب
ل
مالومات
معطيات
معلومات
هېواد
و
ُ
ٓ
ٔ
ٕ
کينډۍ
ی
ނ
ވ
ފ
ތ
ަ
ް
ँ
ं
आ
क
कड
ख
ग
च
ज
ञ
ट
ड
ढ
ण
त
द
ध
न
प
ब
म
य
र
ल
व
श
ष
स
ह
़
ा
ि
ी
ु
ू
े
ै
ो
ौ
्
ঁ
ং
ক
গ
চ
জ
ট
ড
ত
দ
ন
প
ব
ভ
ম
মপ
য
র
ল
স
়
া
ি
ী
ু
ে
্
ਅ
ਡ
ਦ
ਨ
ਸ
਼
ਾ
ੀ
ੂ
ੇ
ੈ
ੰ
ં
ચ
ઢ
ર
ા
ી
ો
ଚ
ଛ
ଞ
ଟ
ମ
ା
େ
୍
க
கள
ச
சட
ட
டம
ண
த
தகவற
தகவல
தல
ந
ன
ப
ம
ய
ர
ல
ள
வ
வர
ஸ
ா
ி
ு
ெ
ே
ை
்
ం
క
జ
డ
త
న
ప
మ
ర
ల
శ
స
ా
ి
ీ
ు
ూ
ే
ో
్
ಂ
ಟ
ಪ
ರ
ಲ
ಸ
ಾ
ು
ೆ
್
ೕ
ം
ക
ഗ
ട
ത
ന
പ
ഫലക
മ
യ
ര
ല
ള
വ
സ
ാ
ി
ു
െ
േ
്
ක
ට
ත
දත
න
ප
බ
ම
ය
ර
රට
ල
ව
ස
්
ා
ැ
ි
ී
ු
ෙ
ก
กล
ด
ต
น
พ
ย
ล
ว
องข
อม
ั
ิ
ี
ื
ุ
ู
แบบ
แม
็
่
้
์
່
་
က
ဂ
င
စ
တ
န
ဗ
မ
ယ
ရ
ရင
လ
အင
ာ
ိ
ီ
ု
ူ
ေ
ံ
း
်
ွ
ှ
თარგი
ინფოდაფა
მონაცემები
ქვეყნის
정보
틀
መለጠፊያ
ក
គ
ច
ត
ទ
ន
នន
ប
ព
យ
រ
រគ
រទ
ល
ស
អ
ា
ិ
ី
ូ
េ
ៃ
ំ
៉
៊
់
័
្
​
‌
‍
‎
‏
–
—
―
‘
’
“
”
„
†
‡
•
…
′
″
‹
›
₦
€
←
↑
→
↔
↷
−
≥
⊗
③
④
⑦
■
►
◄
●
⺀
⺄
⺆
⺈
⺊
⺌
⺕
⺝
⺸
⺼
⿰
⿱
⿲
⿳
⿴
⿵
⿶
⿷
⿸
⿹
⿺
⿻
〢
す
の
゙
゚
ア
イ
オ
カ
キ
ク
ケ
コ
サ
シ
ス
ッ
ト
ナ
ハ
ヒ
フ
ホ
メ
ユ
ョ
リ
ル
ン
ー
㇁
㇂
㇄
㇇
㇈
㇉
㇓
㐁
㐄
㐅
㐌
㐫
㐬
㐭
㐮
㐱
㑒
㒵
㒸
㒼
㓁
㓞
㔾
㕛
㕣
㖾
㘝
㚅
㚇
㚔
㚘
㝉
㝡
㝴
㝵
㞋
㞢
㞷
㠩
㠭
㠯
㡀
㡭
㡿
㢲
㢴
㣇
㣺
㥯
㪅
㫄
㫐
㫒
㫺
㬅
㬎
㬥
㬰
㲋
㳄
㷠
㸒
㸚
㸦
㼌
㼲
㽞
㿟
䀠
䂞
䍃
䏍
䒑
䖍
䖒
䖝
䖵
䙴
䚻
䜌
䝿
䡛
䧹
䪞
一
丁
丂
七
丄
丅
丆
万
丈
三
上
下
丌
不
与
丏
丐
丑
专
且
丕
世
丘
丙
业
东
丞
丢
丣
两
严
並
丨
丩
个
丫
丬
中
丮
丰
丱
串
丵
丶
丷
丸
丹
为
主
丽
丿
乀
乂
乃
久
乆
乇
么
义
之
乌
乍
乎
乏
乐
乑
乔
乖
乗
乘
乙
乚
乛
乜
九
乞
也
习
乡
乳
乾
亀
亅
了
亇
予
争
事
二
亍
于
亏
亐
云
互
亓
五
井
亘
亚
亜
亞
亟
亠
亡
亢
交
亥
亦
产
亨
亩
享
京
亭
亮
亯
亰
亲
亳
亶
亷
人
亻
亼
亾
仁
今
介
仌
从
仐
仑
仒
仓
仕
他
付
仝
代
令
以
任
企
伊
伏
伐
休
会
伯
但
位
何
佘
余
作
佥
使
來
侈
侌
侖
侯
侵
便
保
俞
信
修
倉
倍
候
倠
倫
健
備
僉
僕
儿
兀
允
兂
元
兄
充
兆
兇
先
光
兊
克
兌
免
兑
兒
兓
兔
兖
党
兜
兟
入
全
兩
兪
八
公
六
兮
兰
共
关
兵
其
具
典
兹
兼
冀
冂
冃
冄
内
冈
冉
冊
冋
册
再
冎
冏
冐
冒
冓
冖
冗
冘
军
农
冝
冡
冥
冫
冬
冷
几
凡
凢
凵
凶
凷
凸
凹
出
函
凾
刀
刁
刂
刃
刄
刅
分
切
刍
刑
刕
刖
列
刘
则
初
別
利
别
到
制
刺
則
削
剌
前
剡
剽
劉
力
功
加
劦
助
劫
劳
劵
勃
勇
勉
勒
動
務
勞
勤
勹
勺
勻
勾
勿
匀
匂
包
匆
匈
匊
匋
匍
匕
化
北
匚
匝
匡
匪
匱
匸
匹
区
医
匽
匿
區
十
卂
千
卄
卅
卆
升
午
卉
半
卌
华
卑
卒
卓
单
卖
南
卜
卝
卞
占
卡
卢
卣
卤
卦
卩
卪
卬
卯
印
危
即
却
卵
卷
卸
卻
厂
厃
厄
历
厈
厉
厌
厓
厘
厚
原
厤
厥
厦
厨
厭
厲
厶
厷
厸
去
厼
厽
叀
参
參
叅
又
叉
及
友
双
反
叐
发
叒
叔
叕
取
受
叚
叜
叟
叢
口
古
句
另
叩
只
召
可
台
叱
史
右
叵
叶
号
司
叹
吂
各
吅
合
吉
吊
吋
同
名
后
吏
向
吕
君
吝
吞
否
含
启
吳
吴
吹
吾
呂
呆
呈
告
员
呙
周
命
咅
和
咎
咠
咢
咨
咸
咼
哀
品
哈
哉
員
哥
哲
唐
商
啇
問
啚
啟
啬
啻
善
喜
喬
單
喿
嗇
噩
嚴
囊
囗
囘
囙
囚
四
回
囟
因
囧
囬
困
囱
囷
固
国
圂
圅
國
圍
圓
土
圡
圣
圥
在
圭
地
圶
圼
坐
坒
坚
坴
垂
垔
垚
埀
埋
城
埶
執
基
堂
堅
堆
堇
堯
塞
墨
壘
士
壬
壯
声
壳
壴
壹
壺
壽
夂
处
夅
夆
备
夊
夋
夌
复
夏
夒
夕
外
夗
夘
多
夜
夢
大
夨
天
太
夫
夬
夭
央
失
夲
头
夷
夸
夹
夻
夾
奂
奄
奇
奈
奉
奎
奏
奐
契
奓
奔
奚
奞
奠
奢
奥
奭
女
奴
奻
好
如
妄
妙
妟
妥
妻
妾
姑
委
姜
威
娄
婁
婴
嫩
嬰
嬴
子
孑
孔
孕
孖
字
存
孚
孛
孝
孟
季
孤
学
孫
孱
學
宀
宁
宂
它
宅
宇
守
安
宋
完
宏
宓
宗
官
定
宛
宜
宝
客
宣
室
宮
宰
害
家
容
宾
宿
寄
寅
密
富
寒
察
寧
審
寫
寬
寮
寸
对
寺
寻
寽
対
寿
封
尃
射
将
將
專
尉
尊
尋
尌
對
小
少
尒
尓
尔
尖
尗
尚
尞
尢
尣
尤
尧
尨
尭
就
尸
尹
尺
尻
尼
尽
尾
尿
局
居
屈
屋
屎
屏
屑
展
屖
屚
属
屠
屡
屬
屮
屯
屰
山
屵
屾
岁
岂
岑
岡
岩
岳
岸
峯
島
崇
崑
崔
崖
崙
崩
嵬
嶲
巂
巛
川
州
巟
巠
巢
巤
工
左
巧
巨
巩
巫
差
己
已
巳
巴
巷
巸
巽
巾
巿
帀
市
布
希
帚
帛
帝
带
師
席
帶
常
干
平
年
幵
并
幷
幸
幺
幻
幼
幽
幾
广
広
庄
床
底
店
庚
府
度
庫
庭
庶
康
庸
廉
廌
廛
廣
廩
廴
延
廷
建
廾
廿
开
弁
弃
弄
弇
弋
式
弓
弔
引
弗
弘
弜
弟
张
弥
弦
弱
張
強
强
彊
彌
彎
彐
彑
当
彔
录
彖
彗
彡
形
彥
彦
彧
彭
彳
役
彼
往
待
律
徒
得
徙
從
復
微
徵
德
心
忄
必
忌
忍
志
忝
忠
忩
快
念
忽
忿
怀
思
怠
急
怱
恆
恒
恩
恭
息
悉
患
悤
悲
悶
惠
惡
惢
愁
愈
意
愛
感
慈
慧
慮
憂
憲
應
戀
戈
戉
戊
戋
戌
戍
戎
成
我
戒
戔
或
戚
戠
戢
截
戲
戶
户
戹
戼
戾
房
所
扁
扇
手
扌
才
打
托
执
承
折
拉
拜
拿
掌
採
推
提
摩
支
攴
攵
收
攸
改
放
政
敄
敏
敕
敖
敗
敝
敞
敢
散
敦
敫
敬
数
敷
數
斂
文
斉
斊
斗
斤
斥
斩
斬
斯
新
方
於
施
斿
旁
旋
族
旗
无
旡
既
旣
日
旦
旧
旨
早
旬
旱
旲
时
旾
昆
昇
昌
昍
明
昏
易
昔
昗
昜
星
春
昬
是
昱
昴
昷
時
晃
晋
晏
普
景
晶
智
暑
暴
曇
曩
曰
曲
曳
更
曷
書
曹
曼
曾
替
最
朁
會
月
有
朋
服
朔
朕
朗
望
朝
期
木
朩
未
末
本
札
朮
术
朱
朵
朶
机
朿
杀
李
杏
杜
束
条
来
杭
東
杲
杳
松
板
析
林
枚
果
枝
枲
枼
柏
某
柔
查
柬
柰
柴
栗
校
桀
桂
桑
桼
梁
梅
條
梟
梨
棘
棠
棥
森
楚
業
楽
榮
樂
樊
模
欠
次
欣
欮
欲
欶
欽
款
歆
歇
歛
止
正
此
步
武
歨
歪
歮
歯
歰
歲
歴
歷
歸
歹
歺
死
殳
段
殷
殸
殹
殺
殻
殿
毋
毌
母
每
毒
比
毕
毚
毛
毳
氏
氐
民
气
氣
水
氵
氶
氷
永
氺
氾
求
汉
汝
汞
江
沃
沈
沓
沙
沝
沪
河
泉
法
波
泣
泥
泰
洛
津
洪
洲
活
派
流
济
浦
浪
浮
海
淡
淮
深
清
渚
渝
渠
温
港
湘
湯
滨
滿
漳
漸
火
灬
灭
灰
灵
灷
炅
炎
炏
炗
炙
炭
為
烈
烏
烝
烟
焉
無
焦
焱
然
煞
熊
熏
燕
營
燮
爪
爫
爭
爯
爰
爱
爲
爵
父
爻
爽
爾
爿
片
牙
牚
牛
牜
牟
牢
牧
牪
牽
犀
犬
犭
犮
狂
狄
狊
独
狺
猋
猒
猪
献
獻
玄
率
玉
王
玟
玨
玲
珎
班
理
琴
瑟
瑩
瓜
瓦
甘
甚
生
産
用
甫
甬
田
由
甲
申
电
甶
男
甸
甹
画
甾
畀
界
畏
畐
留
畜
畟
畢
畧
畨
番
畫
異
畱
當
畺
畾
疆
疊
疋
疌
疑
疒
疾
癶
癸
癹
登
發
白
百
皀
皃
的
皆
皇
皋
皐
皕
皮
皷
皿
盃
盆
盇
盈
益
盍
盎
监
盒
盖
盛
盡
監
盤
盧
目
直
相
盾
省
眇
眉
看
眔
眞
真
眷
眼
眾
着
睘
睪
睿
瞏
瞢
瞿
矍
矛
矞
矢
矣
知
矦
短
石
破
碎
磊
磨
礎
示
礻
礼
祟
票
祭
禀
禁
福
禸
禹
禺
离
禽
禾
禿
秀
秃
秉
秋
科
秝
秦
移
稟
穀
穌
穴
究
穹
空
穿
突
窄
窒
立
竒
竜
竝
竟
章
童
竹
笑
笠
筆
等
答
策
箕
算
箴
節
篤
篭
米
粉
粛
粟
粤
粦
粲
精
糞
糸
糹
系
約
納
素
索
紫
累
細
絜
絫
統
絲
維
綿
編
縣
繇
纍
纟
红
线
缶
网
罒
罔
罕
罗
罙
罡
罢
罪
署
罷
羅
羊
羌
羍
美
羔
羕
羗
羞
羡
羣
群
義
羲
羸
羽
翁
翏
習
翕
翟
翠
翼
老
耂
考
者
耆
而
耎
耑
耒
耳
耴
耶
耷
聂
聊
聖
聚
聶
聿
肀
肃
肅
肉
肖
肙
肥
肩
肯
育
肴
胃
背
胡
胥
能
脊
脩
膚
臣
臤
臧
自
臬
臭
臯
臱
至
致
臺
臼
臽
臾
臿
舀
舂
舄
與
興
舉
舌
舍
舛
舜
舞
舟
般
艮
良
色
艸
艹
艾
芒
芔
芬
芮
花
芳
芺
芻
苔
苗
苟
若
苦
英
茂
茶
茸
荅
草
荒
荣
荼
莆
莧
莫
莱
莽
菆
菊
菐
華
营
萧
萬
落
葉
著
葛
董
葵
蒙
蒦
蒼
蓋
蓬
蓺
蔑
蔡
蕉
蕭
薄
薇
薛
薦
薰
藍
藏
藥
蘭
虍
虎
虐
虒
虔
處
虖
虗
虘
虚
虛
虜
虞
虫
虽
蚤
蚩
蜀
蜜
蟲
蠡
血
行
衍
衛
衣
衤
表
衮
衰
袁
袞
褭
褱
襄
襾
西
覀
要
覃
見
規
覓
覧
親
覽
见
角
解
言
訁
訇
計
許
詞
詹
語
誩
諸
謝
變
讠
计
谷
豆
豈
豊
豐
豕
豖
豙
象
豦
豩
豪
豸
貇
貝
貞
貟
負
貢
貧
貪
貫
責
貳
貴
買
費
賁
資
賈
賏
賓
賔
賛
賞
賢
賣
質
賴
贊
贝
贡
责
贯
贲
贵
赖
赞
赣
赤
赦
走
越
足
路
蹇
身
躬
車
軍
軎
軟
輦
车
辛
辜
辟
辥
辰
辱
農
辵
辶
边
达
过
近
连
迷
追
退
送
逆
逐
通
速
造
逢
連
逮
週
進
遀
遂
過
道
達
遣
適
遷
選
遺
邊
邑
邕
那
邦
邪
邯
郎
部
郭
都
鄉
酉
酋
配
酓
釆
采
里
重
野
量
金
釒
錢
钅
铁
铜
長
镸
长
門
閃
閉
開
閏
閑
閒
間
閔
閵
閻
闌
门
间
闷
阑
阜
阝
阳
阿
际
陇
降
陳
陽
隆
隊
隋
隡
隨
隱
隶
隹
隺
隻
隼
隽
难
雀
雁
集
雈
雋
雍
雐
雔
雙
雚
雜
雝
離
難
雨
雩
雪
雲
零
雷
需
霍
霜
霝
霞
霸
靈
靑
青
非
靡
面
靣
革
韋
韜
韦
韭
韯
韱
音
頁
頃
項
須
頗
領
頡
頻
顛
類
页
風
风
飛
飞
食
飠
飲
養
饣
首
香
馬
馮
駦
马
骨
高
髟
鬥
鬯
鬲
鬼
魚
魯
鮮
鱼
鲁
鳥
鳳
鸟
鹵
鹿
麃
麗
麥
麦
麻
黃
黄
黍
黎
黑
黒
黔
黨
黹
黽
黾
鼎
鼓
鼠
鼻
齊
齋
齐
齒
齿
龍
龙
龜
龟
龠
龰
龱
龴
龵
龶
龷
龸
龹
者
艹
﻿
（
）
／
：
？
￼
𞤢
𞤣
𞤤
𞤫
𞤭
𞤴
𠀁
𠀃
𠀆
𠀉
𠀎
𠀐
𠁁
𠁣
𠂆
𠂇
𠂈
𠂉
𠂊
𠂋
𠂎
𠂒
𠂔
𠂛
𠂡
𠂢
𠂤
𠂬
𠂭
𠂹
𠃊
𠃋
𠃌
𠃍
𠃎
𠃑
𠃓
𠃔
𠃜
𠄌
𠄎
𠄠
𠄢
𠆢
𠆥
𠇍
𠈌
𠌵
𠓜
𠔉
𠔥
𠔼
𠔽
𠔿
𠕀
𠕁
𠕋
𠘧
𠘨
𠙻
𠙼
𠚏
𠚒
𠚤
𠚪
𠣏
𠤎
𠤕
𠥓
𠦄
𠦑
𠦝
𠧒
𠧗
𠧪
𠩺
𠪚
𠫓
𠫔
𠫤
𠬛
𠬝
𠬞
𠬢
𠬤
𠬶
𠮛
𠮦
𠮷
𠯑
𠱠
𠳮
𠷎
𡈼
𡉀
𡉵
𡌥
𡍮
𡏳
𡕒
𡕩
𡕰
𡖅
𡗗
𡗜
𡘆
𡘤
𡧱
𡨄
𡩧
𡬠
𡭽
𡰣
𡰥
𡰪
𡰯
𡰱
𡷈
𡸁
𡿨
𡿩
𡿪
𡿺
𢀖
𢀛
𢀩
𢁙
𢆉
𢆰
𢆶
𢇁
𢇇
𢉖
𢌬
𢌿
𢏚
𢑑
𢑚
𢖻
𢙣
𢛳
𢦏
𢦒
𢧵
𢼄
𢾕
𣁋
𣄼
𣅀
𣅽
𣍘
𣎳
𣎵
𣏋
𣏼
𣗥
𣥂
𣥖
𣦵
𣦼
𣧄
𣪊
𣪠
𣬉
𣳾
𣶒
𤇾
𤊽
𤐫
𤓰
𤔔
𤕨
𤣩
𤰇
𤰔
𤰞
𤴓
𤴔
𤽄
𥁑
𥁕
𥃦
𥃩
𥃭
𥇡
𥑟
𥘅
𥘈
𥝢
𥫗
𥱡
𦈢
𦉪
𦉬
𦉼
𦍌
𦍒
𦎧
𦐇
𦓔
𦔮
𦘒
𦙃
𦚏
𦣝
𦣞
𦣻
𦥑
𦥔
𦥯
𦨉
𦭝
𦰩
𧆞
𧈧
𧘇
𧰨
𧴪
𧴮
𧵩
𧾷
𨸏
𨾴
𩙿
𩠐
𩫏
𩵋
𪉷
𪜀
𪟽
𪠲
𪩲
𫇦
𫔭
𫜸
𫝀
𫠣
𫠩
𫢉
𫥞
𫩏
𫩠
𫪡
𫲽
𫶧
𬀷
𬐘
𬗌
𬙙
𬛸
𬜯
𬟩
𬯁
𬴘
𬺻
𬼉
𬼖
𭀰
𭁈
𭁨
𭅰
𭑈
𭕄
𭗼
𭤨
𭥫
𭻾
𮅕
𮊿
𮍌
𮍏
𮓗
𮥼
𮧮
廾
𰀁
𰀄
𰀈
𰀉
𰀕
𰀠
𰀡
𰀢
𰀪
𰁜
𰃮
𰆊
𰆘
𰋙
𰕎
𰢴
𰧭
𰯲
00--
01--
02--
03--
04--
05--
07--
08--
123--
15--
16--
17--
18--
21--
23--
24--
25--
26--
27--
28--
29--
31--
32--
33--
35--
38--
39--
41--
42--
43--
44--
45--
46--
47--
48--
49--
51--
52--
53--
54--
56--
57--
58--
59--
60--
61--
62--
63--
64--
65--
66--
67--
68--
69--
70--
71--
72--
73--
74--
76--
77--
79--
80--
81--
82--
84--
85--
86--
87--
88--
89--
90--
91--
92--
93--
95--
96--
97--
978--
98--
99--
a--
aa--
ab--
aba--
abd--
abdul--
abe--
abi--
abo--
abs--
absor--
abu--
ac--
accom--
accommo--
act--
activ--
ad--
ada--
ade--
adequ--
adi--
adj--
ado--
adv--
advan--
adver--
ae--
aero--
af--
afa--
afe--
afi--
afo--
afu--
ag--
aga--
agba--
agbe--
agu--
ah--
aho--
ai--
aid--
air--
aj--
aja--
aje--
aji--
ajo--
aju--
ak--
aka--
aki--
akin--
ako--
aku--
al--
ala--
alb--
ale--
alek--
aless--
aleur--
ali--
all--
alleg--
alloc--
alo--
alt--
alu--
am--
ama--
ame--
amha--
ami--
amo--
amp--
amu--
an--
ana--
analy--
anarc--
anc--
and--
ang--
ani--
ann--
ano--
anth--
anti--
any--
ao--
ap--
apa--
ape--
api--
apo--
app--
appo--
appre--
aqu--
ar--
ara--
arbit--
arc--
archaeo--
arche--
are--
ari--
arin--
arm--
aro--
art--
as--
asa--
ase--
ash--
ask--
aso--
asp--
ass--
assum--
ast--
astro--
asu--
at--
ata--
ate--
ati--
ato--
atta--
au--
aure--
auto--
av--
ave--
aw--
awa--
awo--
ay--
aya--
ayan--
aye--
ayi--
ayo--
az--
b--
ba--
bact--
bad--
bai--
bakte--
bal--
balc--
ban--
bar--
bas--
base--
bat--
bau--
bay--
bb--
be--
beau--
bec--
bed--
bee--
bei--
bel--
ben--
ber--
berk--
bet--
bi--
bib--
biblio--
bien--
bin--
bio--
bis--
bla--
black--
ble--
blo--
bloo--
bo--
bon--
bor--
bot--
bou--
boul--
bour--
bow--
boy--
br--
bra--
brad--
bre--
bri--
brom--
bs--
bu--
buc--
bucky--
bug--
bun--
bur--
burg--
bus--
but--
by--
c--
ca--
cab--
cal--
calcul--
cald--
caled--
can--
cap--
car--
care--
cass--
cat--
cau--
cc--
ce--
cer--
ch--
cha--
char--
che--
chi--
cho--
chro--
chu--
ci--
city--
cl--
cn--
co--
cob--
col--
com--
comme--
commu--
compl--
con--
confu--
conser--
conve--
cope--
cor--
cord--
corn--
corres--
cosm--
cow--
cr--
cran--
cres--
cric--
criti--
cru--
cs--
cu--
cup--
cur--
cut--
cy--
cycl--
d--
da--
daa--
daily--
dam--
dan--
dar--
day--
de--
dec--
decom--
defe--
defi--
deh--
del--
dem--
demo--
den--
depen--
depl--
deput--
der--
des--
desce--
dha--
di--
dia--
dict--
did--
dida--
dig--
din--
dio--
dip--
dipht--
dir--
disam--
disc--
disg--
diso--
disp--
disr--
diss--
div--
dj--
do--
doc--
dok--
dom--
don--
dor--
down--
dr--
du--
dun--
dy--
dz--
e--
ea--
earn--
ec--
eco--
ed--
edit--
edu--
ee--
eff--
efun--
eg--
egbe--
eh--
ei--
eisen--
ek--
eke--
ekw--
ekzem--
el--
ele--
eli--
elisa--
elo--
em--
eme--
emph--
empl--
en--
enco--
end--
endor--
eng--
eni--
eo--
ep--
epis--
epistemo--
equ--
equi--
er--
ere--
eri--
ero--
es--
ese--
est--
et--
ete--
eti--
eu--
euph--
euro--
eva--
evalu--
evange--
evi--
ex--
exce--
exer--
exhau--
exhib--
expat--
expl--
extra--
ez--
eze--
f--
fa--
fab--
faci--
fair--
fan--
fanta--
far--
fara--
fat--
faus--
favo--
fc--
fe--
fed--
fer--
ferti--
fi--
fiche--
fifa--
fig--
fii--
film--
fin--
fire--
fis--
fitz--
fl--
flu--
flug--
fm--
fo--
folo--
fon--
for--
fos--
fou--
fowo--
fr--
fra--
fre--
free--
fri--
fu--
ful--
full--
fun--
fund--
fur--
g--
ga--
gal--
gan--
gar--
gas--
gaz--
gb--
gba--
gbe--
gbo--
gc--
ge--
gen--
geo--
ger--
gh--
gha--
gi--
gil--
giz--
gl--
glut--
go--
god--
gold--
good--
gor--
gr--
gra--
grand--
green--
gri--
group--
gru--
gu--
guang--
guer--
gun--
gur--
gy--
h--
ha--
hac--
hamm--
hamp--
han--
hand--
har--
hard--
has--
haw--
hay--
he--
head--
hect--
hen--
her--
hete--
hex--
hi--
high--
him--
hiro--
his--
hit--
ho--
hof--
hoff--
home--
homo--
hor--
hot--
house--
how--
hr--
hu--
hua--
hun--
hur--
hy--
hydr--
hydro--
hyper--
i--
ia--
ib--
iba--
ibe--
ibi--
ibu--
ic--
ida--
ide--
idi--
ido--
idu--
ie--
if--
ifa--
ifara--
ife--
ifi--
ifiwe--
ifo--
ig--
iga--
igba--
igbe--
igbo--
ii--
ija--
ije--
ijo--
ik--
ike--
iko--
il--
ila--
ile--
illum--
illus--
ilo--
ilu--
im--
imagi--
imi--
immuno--
imo--
imper--
imu--
in--
inaug--
inc--
indefin--
indo--
infe--
info--
inha--
ini--
ins--
inspi--
int--
inter--
inu--
inve--
investi--
investiga--
invocat--
io--
ip--
ipa--
ipin--
ipo--
ir--
ira--
iri--
iro--
iru--
is--
isa--
ise--
isi--
iso--
it--
ita--
itan--
ito--
itu--
iu--
iv--
iwa--
iwo--
iwu--
iya--
iye--
iyi--
iz--
j--
ja--
jade--
jam--
jan--
jar--
je--
jen--
jer--
jet--
jez--
ji--
jin--
jo--
ju--
jurisdict--
k--
ka--
kafan--
kal--
kala--
kan--
kar--
kare--
kas--
kat--
kaz--
kc--
ke--
kee--
ken--
ker--
key--
kg--
kha--
kho--
ki--
kid--
kin--
kir--
kiri--
kn--
knoc--
ko--
komo--
kose--
kou--
kra--
kre--
kri--
kro--
ku--
kun--
kur--
kw--
kwa--
ky--
l--
la--
laa--
lai--
lak--
lanc--
land--
lar--
las--
last--
lat--
lati--
lau--
lay--
le--
lee--
leg--
leo--
let--
leve--
li--
lib--
light--
lil--
lin--
line--
link--
list--
lit--
liu--
ll--
lo--
lock--
lod--
log--
lon--
long--
ls--
lu--
lv--
ly--
lyc--
m--
ma--
maa--
mac--
mad--
mag--
magd--
mah--
mai--
main--
make--
mal--
man--
manu--
map--
mar--
mas--
mass--
mate--
mau--
max--
may--
mb--
mba--
mc--
me--
measu--
med--
medic--
mejidin--
mejile--
mela--
men--
mer--
merc--
mere--
mess--
met--
meta--
metadin--
mi--
mic--
micr--
mid--
migra--
mimu--
min--
mini--
mit--
miz--
mm--
mn--
mo--
mobi--
mon--
mona--
mono--
mor--
more--
mp--
ms--
mt--
mu--
multi--
mur--
mus--
muz--
mw--
my--
n--
na--
nab--
nai--
nam--
nan--
nap--
nas--
nav--
navi--
naviga--
nb--
nc--
nd--
nda--
ndi--
ne--
neander--
neighb--
neighbor--
neo--
ner--
neut--
new--
news--
ng--
nh--
ni--
nico--
nig--
nis--
nit--
nji--
nkw--
nl--
nla--
nm--
nn--
nne--
no--
nomin--
non--
nor--
north--
not--
notifi--
now--
ns--
nsa--
nu--
nur--
nwa--
nwabu--
ny--
nya--
nz--
o--
oa--
ob--
oba--
obe--
obi--
obs--
obser--
obv--
oc--
occi--
ode--
odi--
odo--
odomo--
odu--
oe--
of--
off--
og--
oga--
ogo--
ogun--
oh--
ojile--
ojo--
oju--
ok--
okaya--
oke--
oki--
oko--
oku--
ol--
ola--
oli--
olo--
olu--
olus--
oluwa--
oly--
om--
omi--
omo--
omoro--
on--
ona--
oni--
ono--
onwu--
onye--
oo--
op--
opa--
opo--
or--
ora--
ore--
ori--
orile--
oro--
oru--
os--
osa--
osi--
oso--
osu--
ota--
ou--
out--
over--
oxi--
oye--
oz--
p--
pa--
pan--
par--
para--
pas--
pass--
pat--
pay--
pe--
pen--
per--
pet--
ph--
pharm--
pharmac--
phono--
photo--
physi--
physio--
pi--
pin--
pitc--
pl--
pla--
play--
pneum--
po--
poc--
pol--
poly--
pon--
pop--
por--
port--
pos--
post--
pot--
pr--
pre--
prez--
pri--
pro--
procl--
pru--
ps--
pseu--
psycho--
pt--
pu--
pueb--
pur--
purc--
py--
q--
qa--
qi--
qin--
qu--
quad--
que--
qui--
r--
ra--
radio--
rain--
raj--
ran--
rap--
ras--
raz--
rc--
rd--
re--
read--
rece--
red--
ref--
reg--
regu--
rein--
rek--
renko--
res--
resur--
rev--
rg--
rha--
rho--
ri--
rin--
ris--
ro--
roc--
rod--
rose--
rous--
row--
ru--
run--
ruth--
s--
sa--
sab--
saff--
sag--
sai--
sam--
san--
sanct--
sar--
sat--
sau--
saw--
sc--
sch--
scha--
sche--
sco--
screen--
scul--
se--
sea--
sebas--
sec--
see--
segreg--
sel--
semi--
sen--
sep--
ser--
set--
sh--
sha--
she--
shen--
shi--
sho--
show--
si--
sia--
sie--
sig--
silu--
simu--
sin--
sis--
sit--
sk--
sl--
slo--
sm--
sne--
so--
socio--
son--
sor--
sos--
sound--
sp--
spe--
spect--
sple--
sq--
squ--
sr--
ss--
st--
sta--
stabi--
stall--
star--
ste--
stre--
strept--
sty--
su--
sub--
sud--
suff--
sul--
summ--
sun--
super--
supp--
supple--
sur--
suspe--
sv--
sw--
sy--
sylv--
symp--
synth--
sz--
t--
ta--
tab--
taf--
tai--
talk--
tam--
tan--
tar--
tat--
tc--
te--
tel--
tele--
telom--
temp--
ten--
ter--
terro--
th--
the--
tho--
thri--
thur--
ti--
tia--
tic--
tie--
time--
tin--
tip--
tite--
tiwa--
tm--
to--
tom--
top--
tor--
tr--
tra--
trans--
tre--
tri--
tro--
ts--
tsa--
tt--
tu--
tubercul--
tun--
tur--
turk--
tv--
twi--
ty--
type--
u--
ud--
ug--
ugo--
uh--
uk--
ul--
um--
umu--
un--
una--
und--
under--
uni--
univer--
unu--
unve--
up--
ur--
ura--
us--
user--
ut--
uwa--
uz--
uzo--
v--
va--
vagi--
val--
valen--
van--
var--
ve--
veget--
vene--
ver--
vi--
vic--
virtu--
viz--
vo--
voca--
vol--
vor--
vu--
w--
wa--
war--
was--
water--
way--
we--
web--
wei--
wen--
west--
wf--
whit--
white--
wi--
wiki--
wil--
wild--
win--
with--
wo--
wood--
wor--
work--
world--
wu--
wy--
x--
xi--
xin--
xu--
xx--
y--
ya--
yam--
yan--
ye--
yi--
yo--
yu--
yun--
z--
za--
zen--
zh--
zhu--
zoo--
zu--
þ--
đ--
γ--
μ--
ν--
τ--
б--
в--
вик--
г--
држав--
и--
м--
мо--
н--
с--
север--
א--
ا--
ال--
ت--
س--
ل--
و--
--0
--00
--000
--01
--08
--1
--14
--2
--27
--3
--37
--4
--40
--45
--5
--6
--7
--8
--893
--9
--a
--aa
--able
--ably
--ac
--ach
--acio
--ad
--ada
--ade
--ae
--ael
--age
--ah
--ai
--ain
--aire
--aj
--ajo
--ak
--al
--ale
--ality
--ally
--am
--amp
--ams
--an
--ance
--ane
--ani
--ans
--ant
--ants
--anu
--ao
--ap
--ar
--ara
--ard
--ards
--are
--ari
--aries
--aro
--ars
--art
--ary
--as
--at
--ata
--ate
--ated
--ath
--ati
--ation
--ations
--atur
--au
--ay
--aye
--aza
--b
--ba
--back
--bal
--be
--bea
--ber
--berg
--bert
--bes
--bh
--bi
--biri
--ble
--bo
--bok
--bon
--bor
--bourg
--box
--boy
--bs
--bu
--burg
--by
--c
--ca
--cal
--cat
--ce
--ced
--ces
--ch
--cha
--chi
--chukwu
--chun
--ci
--cing
--cius
--ck
--cker
--cks
--cle
--co
--cp
--crat
--cs
--ct
--cted
--ction
--ctive
--cts
--cum
--cus
--cy
--d
--da
--dae
--dal
--dan
--dao
--date
--day
--db
--de
--ded
--deji
--den
--dence
--der
--des
--di
--dia
--die
--dilo
--dimu
--din
--dinlaadoje
--dinlaadorin
--dinlo
--dinlogojo
--dinlogorin
--dis
--dle
--do
--dor
--dore
--dou
--down
--dra
--ds
--dt
--du
--dun
--dus
--dy
--e
--ea
--ean
--eau
--eb
--ect
--ed
--ee
--ef
--ei
--ek
--el
--ela
--ell
--els
--em
--ema
--en
--ena
--ence
--ency
--ene
--enes
--enne
--eno
--ens
--ense
--ensis
--ent
--ented
--ento
--entomon
--entulus
--eo
--ep
--er
--ere
--eri
--ern
--ero
--ers
--ert
--ery
--es
--ese
--eshi
--ess
--est
--et
--ets
--ett
--ette
--eur
--eus
--ev
--ex
--ey
--eyrodes
--ez
--f
--fa
--face
--fe
--fer
--ff
--ffe
--ffi
--fi
--fied
--fm
--fo
--ft
--fu
--ful
--fy
--g
--ga
--gada
--gba
--gbe
--gbo
--ge
--ged
--ger
--ges
--gh
--ght
--gi
--gia
--gian
--gical
--gie
--ging
--gle
--gma
--gn
--gne
--go
--graph
--graphs
--graphy
--gs
--gu
--gue
--gul
--gun
--guo
--gwa
--gwe
--gwu
--gy
--h
--ha
--hai
--hal
--ham
--han
--hand
--har
--hara
--hart
--he
--head
--hed
--her
--hes
--hi
--hian
--hic
--hip
--hir
--hment
--ho
--hof
--hood
--hs
--ht
--http
--https
--hu
--hun
--hurst
--hy
--i
--ia
--iae
--iah
--ial
--ian
--ians
--ias
--ible
--ic
--ica
--ical
--ically
--ich
--icia
--ick
--ics
--icum
--id
--idae
--ide
--idia
--ie
--ied
--iella
--ien
--iensis
--ient
--ier
--ies
--if
--ification
--ified
--ify
--ig
--ight
--ign
--ih
--ii
--ik
--iki
--il
--ile
--im
--ima
--in
--ina
--inated
--inda
--ine
--ined
--ing
--ings
--ini
--ino
--io
--ion
--ions
--ios
--ious
--ip
--ique
--ir
--ira
--ire
--iro
--is
--ise
--ised
--ish
--ism
--ist
--ista
--isti
--istic
--isto
--ists
--it
--ita
--ite
--ities
--ity
--ium
--ius
--iva
--ive
--ivity
--ix
--iyya
--iz
--iza
--ization
--ize
--ized
--izing
--j
--ja
--je
--ji
--jn
--jo
--joba
--ju
--julo
--jumo
--juto
--k
--ka
--kan
--kar
--ke
--ked
--keji
--ker
--kes
--ket
--kh
--ki
--kiri
--kis
--ko
--kon
--kou
--kov
--kova
--koya
--koyi
--ks
--ksi
--kt
--ku
--kun
--kwe
--kwu
--ky
--l
--la
--labi
--lade
--lah
--lan
--land
--lar
--lard
--lary
--ld
--lda
--lde
--le
--lect
--lected
--lecting
--led
--lejo
--len
--ler
--les
--less
--let
--ley
--leye
--lf
--li
--lia
--lic
--line
--ling
--link
--lis
--lish
--lism
--list
--lity
--ll
--lla
--llah
--lli
--lling
--llo
--lls
--lly
--lo
--log
--logy
--lom
--lope
--lor
--lori
--lph
--ls
--lt
--lu
--lura
--lus
--luwa
--ly
--lyn
--m
--ma
--mah
--man
--mania
--mate
--mated
--me
--megwu
--meji
--men
--ment
--ments
--mer
--mes
--mey
--mi
--mic
--mie
--mir
--mma
--mmer
--mn
--mo
--mod
--mon
--motu
--mp
--ms
--mu
--my
--n
--na
--nage
--nal
--name
--nas
--nated
--nce
--nces
--ncia
--nco
--ncy
--nd
--nda
--nder
--ndi
--ne
--ned
--nell
--nem
--ner
--ners
--nes
--nese
--ness
--net
--news
--ney
--ng
--nga
--ngs
--ni
--nia
--nic
--nicus
--nik
--ning
--nis
--nium
--nk
--nla
--nlo
--nlogun
--nmi
--nn
--nna
--no
--ns
--nse
--nsis
--nt
--ntele
--ntly
--nts
--nu
--nus
--ny
--nza
--nzo
--o
--oa
--och
--ocha
--ock
--od
--oe
--of
--off
--oha
--oi
--oj
--oju
--ok
--ol
--ola
--ological
--ology
--om
--ome
--omon
--omu
--on
--ona
--ong
--ons
--onu
--oo
--oon
--op
--opi
--or
--ord
--ore
--oro
--ors
--os
--osi
--oso
--ot
--oti
--ou
--oud
--ous
--out
--ov
--ow
--ox
--oy
--oza
--p
--pa
--page
--pal
--pe
--ped
--peju
--pes
--ph
--phy
--pi
--pin
--po
--polis
--pped
--ps
--pt
--pto
--pu
--pupo
--pur
--puri
--py
--q
--que
--r
--ra
--rade
--radio
--rah
--ral
--ran
--rchy
--rd
--rds
--re
--red
--rel
--rella
--ren
--rera
--res
--ress
--reto
--rg
--ri
--ria
--rian
--rid
--ridge
--rie
--ries
--rik
--rin
--ring
--ris
--rite
--rity
--rium
--rk
--rl
--rly
--rm
--rma
--rn
--rne
--rns
--ro
--ros
--rot
--rp
--rr
--rry
--rs
--rt
--rta
--rte
--rto
--ru
--rum
--run
--rus
--rut
--rwa
--ry
--ryl
--s
--sa
--san
--sch
--se
--sed
--ser
--ses
--sh
--shan
--shed
--shi
--ship
--shire
--si
--sia
--sile
--sin
--sis
--sity
--sive
--sk
--sm
--so
--soke
--som
--son
--ss
--ssa
--sse
--ssi
--sson
--st
--stein
--ster
--ston
--stre
--stro
--sty
--style
--su
--sus
--sy
--sz
--t
--ta
--tal
--tan
--tar
--tas
--tat
--tch
--te
--ted
--teen
--ter
--ters
--tery
--tes
--text
--th
--the
--thm
--thy
--ti
--tic
--tics
--tiki
--tiko
--time
--ting
--tion
--tions
--tive
--tivist
--tle
--tly
--tmp
--to
--tola
--ton
--top
--tor
--tors
--tory
--tos
--toto
--town
--tree
--try
--ts
--tt
--tta
--tte
--tter
--tti
--tu
--tum
--ture
--tus
--tuta
--tv
--ty
--tyle
--tz
--u
--ua
--ual
--uan
--ub
--uch
--ud
--ude
--udeen
--ue
--uf
--ugh
--ugu
--uj
--uki
--ul
--ula
--ular
--uli
--ulo
--ult
--ulu
--um
--uma
--ume
--umo
--un
--une
--ung
--uo
--uous
--up
--ur
--ural
--ure
--ures
--urg
--uri
--uring
--url
--urs
--us
--usly
--ust
--ut
--uta
--ute
--uwa
--ux
--uz
--v
--va
--val
--vas
--vb
--ve
--ved
--ven
--ves
--vi
--vic
--vich
--vid
--ville
--vity
--vive
--vo
--vor
--vu
--vy
--w
--wa
--way
--we
--wi
--wick
--wicz
--wl
--wn
--wo
--won
--wood
--work
--world
--ws
--wu
--wumi
--wun
--x
--xe
--y
--ya
--yah
--yan
--yat
--ye
--yev
--yi
--yin
--yl
--yn
--yo
--yon
--yr
--yrodes
--ys
--yu
--yya
--z
--za
--zar
--zation
--ze
--zed
--zek
--zer
--zi
--zia
--zie
--zing
--zo
--zon
--zu
--zy
--zz
--zzi
--α
--ο
--ς
--υ
--ω
--а
--е
--и
--к
--ка
--л
--о
--п
--ы
--я
--ја
--ית
--ا
--ب
--ت
--ر
--م
--ن
--ه
--ي
--يا
--ی
