!
"
#
##0
##1
##10
##11
##12
##13
##14
##15
##16
##17
##18
##19
##2
##20
##21
##22
##23
##24
##25
##26
##27
##28
##29
##3
##30
##31
##32
##33
##34
##35
##36
##37
##38
##39
##4
##40
##41
##42
##43
##44
##45
##46
##47
##48
##49
##5
##50
##51
##52
##53
##54
##55
##56
##57
##58
##59
##6
##60
##61
##62
##63
##64
##65
##66
##67
##68
##69
##7
##70
##71
##72
##73
##74
##75
##76
##77
##78
##79
##8
##80
##81
##82
##83
##84
##85
##86
##87
##88
##89
##9
##90
##91
##92
##93
##94
##95
##96
##97
##98
##99
$
%
&
'
(
)
*
+
,
-
.
/
0
00
000
0000
01
02
03
04
05
06
07
078733
08
09
1
10
100
1000
101
102
103
104
105
106
107
108
109
11
110
111
112
113
114
115
116
117
118
119
12
120
121
122
123
1234
124
125
126
127
128
129
13
130
131
132
133
134
14
140
1450
146
15
150
1500
1501
1526
156
1596
16
160
1631
1650
169
17
170
1750
177
18
180
1800
1851
1856
1857
1859
1861
1865
1869
1875
1880
1885
1887
1891
1894
1895
1898
1899
19
1901
1902
1903
1905
1909
1910
1913
1914
1917
1918
1919
1920
1921
1922
1923
1924
1925
1926
1928
1930
1933
1934
1935
1936
1937
1938
1939
1940
1942
1943
1945
1946
1947
1948
1949
1950
1951
1952
1953
1954
1955
1956
1957
1958
1959
1960
1961
1962
1963
1964
1965
1966
1967
1968
1969
1970
1971
1972
1973
1974
1975
1976
1977
1978
1980
1981
1982
1983
1984
1985
1986
1987
1988
1989
1990
1991
1992
1993
1994
1995
1996
1997
1998
1999
2
20
200
2000
2001
2002
2003
2004
2005
2006
2007
2008
2009
2010
2011
2012
2013
2014
2015
2016
2017
2018
2019
202
2020
2023
21
219
22
220
221
224
23
230
234
24
240
25
250
26
264
27
270
273
275
278
28
287
29
298
3
30
300
3000
301
31
315
3166
32
33
330
34
345
345678
35
350
36
365
37
3793107
38
39
4
40
400
41
42
425
43
44
45
46
47
48
49
5
50
500
51
52
53
54
55
550
56
57
58
59
6
60
600
61
62
63
639
64
65
66
67
68
69
7
70
71
72
73
74
75
750
76
77
78
79
8
80
800
81
82
83
84
85
850
86
8601
87
88
89
9
90
91
92
93
930
94
95
96
97
975
978
9780978951702
9781787012394
9788123734859
9788170229681
9788179911068
9788183240468
979
98
99
:
;
<
=
>
?
@
\
^
_
a
aaa
abbr
abbreviated
abbreviation
able
ablo
ablon
ablona
ablono
about
above
abovebelow
aboveclass
abovestyle
absolutely
acceleration
accept
acceptable
accepts
access
accessdate
accessed
accompanying
according
accurate
acid
acre
acres
acronyms
across
acting
action
actual
actually
ad
add
added
adding
addition
additional
additionally
address
adds
adhir
adjacent
adjusted
admin
administered
administrative
administrators
adr
advanced
af
affects
africa
afrika
after
against
age
agency
ago
agriculture
agroha
aid
aids
aires
aj
ajuda
ak
al
albert
alcohol
alexander
alias
aliases
align
alignment
alkali
all
allow
allowed
allowing
allows
alloys
almost
along
alphabet
alps
already
als
also
alt
alternate
alternative
alternatively
alternativemap
alternatives
although
altogether
aluminium
alva
always
am
ama
amadeus
amazon
amazonas
amend
america
american
americas
amita
amitabh
among
amount
amp
ampersand
amundsen
an
analysis
anchor
anchors
ancient
and
andes
andhra
angeles
angkor
animal
anjali
another
anthem
anthropological
any
anything
api
appear
appearance
appears
appending
appends
applicable
application
applications
applied
applies
apply
applying
appropriate
april
ar
arabic
archaea
archimedes
archive
archived
archivedate
archiveurl
arctic
are
area
areas
args
argument
aristotle
arms
around
arsu
art
article
articles
articleshow
arxiv
aryabhatt
as
ascr
ashraf
asia
asian
asin
asks
aspx
assam
assembly
assign
assigned
assistance
associated
association
astronomical
astronomy
at
athens
atlantic
atom
atomic
attempt
attr
attribute
attributes
au
australia
australian
author
authorlink
authormask
authorn
authors
auto
autocollapse
automatic
automatically
autonomous
auxiliary
available
ave
average
avoid
avoided
awa
b
ba
bachchan
back
background
bacterium
baghdad
baha
baltic
bang
bangalore
bangkok
bangladesh
baptist
bar
barley
barrier
bars
based
basestyle
basic
bathymetry
bbc
bc
be
bean
bear
beautiful
because
becomes
been
beer
beerbal
before
beginning
begins
behari
behaves
beijing
being
believe
below
belowclass
belowstyle
beneath
ber
berlin
beside
best
better
between
bg
bhaktapur
bhaskar
bibcode
bible
bibliographic
bicycle
big
bihar
bihari
bill
biografi
biography
biology
biorxiv
biosphere
bird
birds
bjp
black
blair
blaise
blank
blindness
block
bloomsburg
blue
bn
bo
board
body
bodyclass
bodystyle
bogota
bold
boldly
bombay
book
books
boolean
border
bordered
borderless
boroughs
bose
bot
both
boto
bots
bottom
box
boxes
br
braces
brackets
brass
bread
break
breaks
bridge
brief
british
broadcast
broken
bronze
brothers
browser
browsers
bs
bt
bticona
buddhism
budget
buenos
build
builder
building
bullets
bureau
bush
business
but
button
by
c
ca
cabinet
cache
cadastre
caesar
cairo
cal
calcutta
calendar
california
call
called
calling
calls
camboya
camel
can
cancer
cannot
canyon
capita
capital
capitalization
caption
captionstyle
case
cases
cat
catalan
catalogue
categories
categorization
categorize
categorizes
category
cattle
cause
causes
cc
ccccff
cd
ce
cell
cells
census
center
centered
central
centre
certain
cetera
ch
chalk
chandra
change
changed
changes
changing
chapter
chapterurl
character
characteristics
characters
charles
chart
check
checked
cheese
chemical
chemistry
chennai
chhusang
child
china
chinensis
chinese
cholera
choudhury
chowdhury
christianity
christopher
churches
circumstances
citation
citations
cite
cited
citeref
citeseerx
cities
citing
city
civil
civilization
claimed
class
classes
classical
classification
clear
click
clickable
clicked
clicking
clinton
close
closed
closely
closing
cloud
cm
cma
cms
cnote
co
coat
coauthor
coauthors
coca
code
coded
codelist
codes
coding
coffee
coins
cola
coll
collaboration
collapse
collapsebutton
collapsed
collapsible
college
colon
color
colors
colour
coloured
columbia
columbus
column
com
combination
combined
combo
come
comma
commas
comment
comments
committees
common
commonly
commons
commonwealth
communism
communist
communities
community
company
compatibility
compatible
complete
complex
composite
compound
comprehensive
computed
computer
computers
concept
concepts
condition
conditional
confederation
conference
conform
congress
conjunction
consider
consistency
consisting
consonant
constantinople
constituencies
constituency
constitution
constructed
constructing
construction
contain
contained
container
containing
contains
contemporary
content
contents
contingut
contribution
contributor
contributors
control
controlled
controls
controversial
convenient
conversion
convert
converted
coor
coord
coordinate
coordinates
coords
copper
copy
copyable
copying
corner
corporate
corporation
correctly
corresponding
cotton
could
council
count
counter
countries
country
county
cov
cover
create
created
creating
creation
cricinfo
cricket
croatia
crops
crosses
cs
css
csstext
cultivation
culture
curly
currency
current
currently
cursor
custom
customization
cut
cy
d
da
dadra
dal
dance
darwin
das
dash
dashes
data
datastyle
date
dates
davant
david
day
daylight
days
dd
dddddd
ddddff
de
dead
deadurl
deafness
death
dec
december
decimal
decimalised
decimals
declared
decrease
dedicated
default
defaults
define
defined
defining
definition
deg
degree
degrees
del
delimiter
deliverer
demanded
democracy
demographics
demonstrates
demonym
demospace
den
denote
density
dental
department
depending
depends
deprecated
depth
der
des
desai
descartes
described
description
descriptions
designate
designed
desired
despite
destination
detailed
details
detect
detecting
detection
determined
determines
deutschland
development
df
dhaka
di
dia
dialect
diamond
diarrhea
dictionary
did
die
different
difficult
digit
digital
digits
dimensions
dir
direct
direction
directly
directors
disable
disambiguation
discouraged
discuss
discussion
disease
display
displayauthors
displayed
displaying
displays
displeasing
disputed
disruptor
distance
distinction
distinguish
distribution
distributor
district
districts
div
division
dl
dm
dms
dnh
do
doc
document
documentation
documented
does
doesn
dog
doi
doing
domain
don
done
double
doubled
down
download
downloadable
downloaded
dragon
draw
drinks
drz
dsb
dst
dt
due
dunam
dunams
duplicate
duplicated
durga
during
dvd
dynamics
dynasty
dysentery
e
each
eagle
earth
ease
easier
east
eastern
easy
eci
ecology
economic
economics
economictimes
economy
ed
edge
edison
edit
edited
editing
edition
editor
editorlink
editormask
editorn
editors
edmund
education
edłoga
edłoha
effect
eight
eighth
einstein
eissn
either
el
election
elections
electric
electricity
electron
electronic
elemantal
element
elements
elephant
elevation
else
em
embedding
emblem
emesco
emit
emperor
empire
empty
en
enables
enclose
enclosed
encoded
encyclopaedia
encyclopedia
end
endocrine
ends
england
english
enlightenment
ens
ensure
enter
entered
entire
entirely
entries
entry
eo
equal
equals
equipped
equivalent
error
errors
es
especially
espncricinfo
est
established
establishment
estimate
estimates
et
etal
etc
ethnic
etiqueta
eu
europa
europe
european
even
evenodd
evenstyle
event
everest
every
everything
evolution
ex
exact
exactly
examining
example
examples
except
exceptional
exclude
excluding
exclusive
exist
existing
exists
expand
expanded
expansion
expected
experience
expiration
explaining
explanation
explanatory
explicitly
explorer
explorers
express
expression
expressions
extend
extension
external
extinct
extinction
extra
extraclasses
extract
extraneous
f
fa
fact
facts
fail
fall
fallingrain
falls
false
fam
family
familycolor
fascism
fauna
fdfdfd
fe
feature
features
feb
february
fed
feel
feet
feminism
ferdinand
festivals
fetus
ff
fff
ffffff
fi
fibonnacci
field
fields
fifth
figure
figures
file
files
fill
filled
final
find
finding
fine
fire
first
firstn
firstname
fish
fit
fits
five
fix
fixes
flag
flags
flint
float
florida
flow
flower
fn
focus
folk
folklore
follow
followed
following
follows
font
fontcolor
foo
food
foot
football
footnote
footnotes
for
forbesganj
force
ford
foreign
forest
forks
form
format
formated
formats
formatted
formatting
former
formerly
forrest
forth
fortschritte
found
foundation
founded
founder
four
fourth
fr
frac
frame
frameless
frankb
free
freeform
french
frequently
friday
from
front
fruit
ft
fu
full
function
functionality
functions
fungus
further
future
g
ga
gabinete
gadli
galaxy
galilei
galileo
gama
game
games
gandaki
garo
gates
gauss
gaza
gd
gdp
ge
general
generally
generate
generated
generates
generating
generic
genetic
geo
geocode
geographic
geographical
geography
geojson
geoline
geology
geopolitical
george
geoshape
gerhard
german
germany
get
getattr
gibbon
gimp
gina
gini
give
given
gives
giving
gje
gl
glance
global
globe
go
goethe
going
gold
good
google
gospadu
gov
governance
governing
government
governor
govt
gps
grand
granite
graphics
gravity
gray
great
greater
greek
green
gregorian
grid
group
groupn
groups
groupstyle
groupwidth
growth
guide
gujarat
gurdon
gutenberg
guwahati
h
ha
hail
hand
handle
handles
handling
hanuman
hard
harder
harry
harv
harvard
haryana
has
hatnote
have
haveli
having
hawaii
hcard
hcards
hcov
hdi
hdl
he
head
headed
header
headers
headerstyle
heading
headquarters
health
heart
heat
hectares
height
help
helper
helpful
helpo
hemisphere
henry
her
here
hereafter
heron
hi
hidden
hide
high
higher
highly
highway
hilfe
hill
hillary
hills
himachal
himalayas
hindi
hindu
hinduism
hint
hirway
his
historical
history
hizkuntza
hja
hlist
ho
hold
home
hong
hoolock
hope
horizontal
horse
host
hours
house
hover
hovers
how
however
hr
hs
hsb
htm
html
htmlbuilder
http
https
hu
human
hundreds
hurricane
hyderabad
hyperlink
hyphen
hyphens
i
ia
iba
icon
icona
icons
id
idea
ideas
identical
identification
identifier
identifiers
identifies
identify
identity
ids
ie
if
ign
ignore
ignored
ii
iii
ik
illegal
illness
illustrated
illustration
ilo
image
imageclass
imageleft
imageleftstyle
imagerowclass
images
imagestyle
immediately
immigrants
impaired
imperial
implement
implementation
implied
important
improve
in
inactivedate
inadvisable
inappropriate
inc
inches
include
included
includes
including
inclusion
incorporated
incorrect
increase
independent
index
india
indian
indiatimes
indicate
indicated
indicating
indira
individual
indo
indonesia
infectious
info
infoboks
infobox
infoboxes
infokas
infopolje
information
infotaula
inhabitants
inherit
inhib
initial
initials
initiating
inline
inner
input
inputs
insect
insert
inserted
inserts
inside
installed
instance
instances
instead
institutional
instructions
insufficient
integer
intended
internal
internally
international
internet
interpreted
interwiki
intian
into
introduction
invalid
inventors
inverse
inverted
invisible
invocations
invoke
ip
ipa
ipairs
iron
irrfan
is
isaac
isabella
isbn
isi
islam
islamic
island
islands
ismn
iso
israel
issn
issue
issues
ist
istanbul
it
ita
italic
italicized
italics
italy
item
items
its
itself
iv
ix
j
ja
jacques
jadhav
jagdish
jahrbuch
jainism
jakarta
james
jammu
jan
janata
janeiro
january
japan
japanese
javascript
jefferson
jerusalem
jesus
jezik
jfm
jharkhand
jhum
jnu
johann
john
journal
jpeg
jpg
js
jstor
judaism
july
jupiter
jurisdiction
just
k
ka
kagbeni
kali
kalka
kalpana
karachi
karl
kartographer
kashmir
kashyap
kedar
keep
kerala
key
kg
khadpekar
khan
kilometer
kilometers
kind
king
kinshasa
kk
km
know
knowledge
known
ko
kokborok
kolkata
kong
korean
krishna
ku
kumar
kurukshetra
l
la
label
labels
labelstyle
lack
ladakh
lagos
lake
lakes
lal
land
landdata
lang
language
languages
lao
large
larger
largest
laser
last
lastn
lat
latd
later
latin
latitude
latm
lats
latter
law
laws
lay
laydate
layout
laysource
laysummary
lc
lccn
le
lead
leader
leaders
least
leave
leaving
left
legal
lele
length
leninist
leonardo
lepromatosis
leprosy
les
less
letter
letters
level
levels
li
library
life
light
like
likely
lila
lima
limited
line
linear
lines
lingua
link
linked
linking
linkn
links
linus
lion
list
listclass
listed
listing
listitem
listn
listnn
listnp
listnpp
listpadding
lists
liststyle
literary
literature
little
live
liverpudlian
living
ll
lln
lmo
lo
load
loads
local
localbodies
locality
locally
located
location
locations
locator
logic
logo
lon
london
lonely
long
longd
longitude
looked
looks
lord
los
love
low
lower
lowercase
lp
lt
ltd
lu
lua
luang
luther
luxemburg
lv
m
ma
macmillan
made
madhya
madison
magazine
magellan
magic
magnetism
magnitude
mahal
main
mainly
maintain
maize
major
make
makes
making
mal
malaria
mall
malline
malnutrition
malta
mammal
mandatory
mandir
manila
manipur
manual
manually
manuscript
many
mao
map
mapframe
mapping
maps
mapsize
march
margin
mark
marked
marker
markers
marks
marksize
markup
mars
martin
marxist
mary
mask
mass
match
matching
material
math
mathematical
mathematicians
mathematics
mathematik
max
maximum
may
mayor
mays
mc
mcmillan
me
meaning
meaningful
means
meant
mebon
mecca
media
mediawiki
mediawikis
medical
medication
medicine
mediterranean
medium
meghalaya
members
membership
mental
mercury
merge
merged
mergedrow
mergedtoprow
merges
merging
meridian
merriam
message
messages
meta
metabox
metaboxes
metacaixa
metadata
metals
metatable
meteorology
meters
method
methods
metric
metro
metropole
metropolitan
metsat
mexico
mg
mi
michelle
microformat
microformats
microsoft
middle
might
mile
miles
milk
milky
millimeters
min
mind
minerals
minerva
mini
minimum
minority
minute
minutes
mirrors
miscellaneous
mishra
missing
mississippi
mistnet
mittal
mk
ml
mm
mn
mnemonic
mode
modelo
modern
modified
module
molecule
molie
monaco
monarchy
monday
monsoon
month
monthname
months
moon
more
morni
mos
moscow
mosflag
most
mostly
motion
motto
mouse
move
moved
mozart
mp
mr
ms
mt
multilingual
multiple
mumbai
municipal
municipality
music
must
mustang
mutually
mw
my
mycobacterium
mylanguage
n
na
nadu
nagaland
nagamati
nagar
nagas
name
named
names
namespace
namespaces
narendramodi
nath
national
nations
native
nato
natural
nature
nav
navbar
navbox
navboxes
navegadors
navigation
navigational
nb
ncov
nd
nds
ne
near
necessary
need
needed
needs
negative
nehru
neither
neolithic
nepal
nepalese
neptune
nested
net
network
neutron
new
news
newspaper
newspapers
newton
next
niagara
nic
nickname
nicknames
nile
nin
nine
ninth
nl
nlmo
nnnnnn
no
nobel
noble
node
nodes
nodiv
nodyn
noeditsection
noflip
nokrek
nominal
non
none
nopp
normal
normally
north
northeast
norway
not
notable
notation
note
noted
notes
nothing
notice
notoc
nov
now
nowrap
np
num
number
numbered
numbering
numbers
numeral
numeric
numerous
o
oats
obesity
object
obtaining
obvious
oc
occur
occurrence
occurs
ocean
oceania
oceans
oclc
october
odd
oddstyle
of
off
office
official
offset
often
oil
ol
old
omit
omitted
on
once
one
ones
online
only
ontario
open
opened
opening
openstreetmap
operated
opposite
option
optional
options
or
orange
order
org
organic
organisation
organization
orig
original
orwell
os
osaka
osavaltio
osd
osm
osti
other
others
otherwise
our
out
outer
output
outside
over
overall
overlay
overridden
override
overrides
own
oxford
p
pa
pacific
padding
padmavat
padmavati
pag
page
pagename
pages
paint
pair
pak
pakistan
paper
papers
para
paragraph
paraguay
parakeet
parameter
parameters
paramorder
params
parent
parentheses
parenthesis
parenthetical
paris
park
parrot
parsable
parserfunctions
part
particle
particular
particularly
parts
party
pascal
pass
passed
passengers
passing
past
paste
patron
pattern
paulo
pdf
pennsylvania
people
pepsi
per
percent
percentage
period
periodic
periodical
periodicals
periods
permet
persian
person
perspective
peso
pestanya
pestanyes
peter
petersburg
ph
phase
philip
philosophy
phnom
photon
php
phthalate
physics
picture
pinpoint
pipe
piped
pipetrick
pixel
pixels
pl
place
placed
placement
placename
placenta
places
placing
plague
plain
planet
planning
plant
plantilla
plate
platform
plato
player
please
plus
pluto
pmc
pmid
png
podatki
podcast
point
points
pokhara
policy
political
politics
polity
pomoc
pop
pope
popular
population
portal
portals
porting
portuguese
posar
position
positioning
possible
possibly
post
postal
posted
posteriori
postscript
potti
power
pp
ppp
pr
prabang
practice
pradesh
prakashan
prasat
pre
preah
preceded
precision
predefinic
predloga
predloz
preemptively
prefer
preferable
preferably
preference
preferred
prefix
prefixed
prefixindex
pregnancy
prehistory
preload
present
press
prevents
preview
previous
primarily
primary
print
printed
prior
prize
pro
problem
problems
produce
produced
produces
production
professional
profile
profit
project
projects
pronunciation
prop
proper
properly
properties
property
proposals
propose
proposed
protect
protected
protection
protist
proton
provide
provided
provides
province
provinces
ps
psittacula
pt
public
publication
publications
published
publisher
publishing
pubmed
punctuation
purge
purple
purpose
purposes
pushpin
put
puts
px
pythagoras
q
quantum
quark
quartz
que
queen
query
question
questions
quite
quotation
quotations
quote
quoted
quotes
qur
r
ra
racism
radio
radius
rail
railway
rain
rajendra
ram
rama
ramakrishna
raman
ramanujan
range
ranges
rank
ranked
rapid
rare
rather
rationale
raw
re
reaction
read
readable
reader
readers
reads
ready
reason
reasons
recent
recognised
recommended
record
red
reddy
redirect
redirects
redirigir
redundant
reef
ref
refer
reference
referenced
references
referencing
referred
reflect
regardless
region
regional
regions
registration
regular
related
relative
relatively
relativity
relevant
relief
religion
religions
remain
remarks
remote
remove
removed
removes
rename
render
rendered
rendering
rene
repeating
replace
replaces
reply
report
represented
reproduction
reptile
republic
request
requests
require
required
requires
research
reserve
reservoir
resize
resources
respect
respective
respectively
restriction
result
results
ret
retrieval
retrieved
retroflex
return
returns
review
reviews
revised
revolution
reykjavik
rfc
rhino
rice
richard
right
rights
rings
rio
river
rivers
ro
road
roads
roald
roman
rome
root
round
rounded
rounding
rounds
row
rowclass
rowling
rows
roy
ru
rule
rules
running
rural
russia
russian
s
sablon
sadrz
saha
sahara
sahni
salt
same
sample
samples
sanctuary
sandbox
sandstone
sanskrit
sao
saturn
satyendra
save
savings
say
says
scale
scaled
schemes
school
science
sciences
scientific
scientist
scientists
screen
script
se
sea
seal
search
searched
seat
sec
secessions
second
secondary
seconds
section
sections
see
seeds
seen
sehwag
sel
selected
selection
self
selfclosing
selfref
semi
sense
sensing
sentence
seoul
separate
separated
separator
september
sequential
serial
series
serve
service
services
set
sets
setting
settings
settlement
settlements
seventh
several
shah
shakespeare
shanghai
shape
sharbat
share
shared
sharma
sheep
shield
shift
shifting
shillong
ship
short
shortcut
shortened
shorter
should
shouldn
show
showing
shown
shows
si
side
sides
sign
signed
sikhism
silent
silver
similar
similarly
simple
simplicity
simply
since
singh
single
sister
sit
site
sites
situation
situations
sixth
size
sized
sizing
sjabloon
sk
skabelon
skin
skyline
sl
slavery
slogan
small
smaller
smallpox
smith
snake
snow
so
soccer
social
socrates
software
solar
solid
solution
some
someone
something
sort
sorted
source
sourced
sources
south
southern
sovereignty
soya
space
spaces
spacing
spanish
speakers
special
specialized
specific
specifically
specification
specifics
specified
specifies
specify
specifying
spell
spelled
spelling
spellout
spelloutmax
split
spoken
sport
sq
square
sr
sreeramulu
sri
ssrn
st
stacked
staff
stampa
standalone
standard
standardization
start
starting
starts
starvation
state
statement
statename
states
station
statistics
statue
status
steel
still
stops
story
street
string
stripes
striping
stroke
structure
studies
study
style
styles
styling
su
sub
subdivision
subdivisions
subgroup
subgroups
subheader
subject
subjectlink
subpage
subpages
subscription
subsidiaries
subst
substitute
substituted
substitution
successor
such
suchbir
suffice
suffix
suffixed
suffixes
suggest
suggested
suitable
summary
sun
sunflower
superimposed
superscript
superseded
supersedes
supplied
support
supported
supports
suppose
suppress
suppressed
suppresses
suresh
surgery
suriname
surname
surrounding
survey
sustainable
sv
svg
swami
swap
switch
switched
switzerland
sword
syed
symbol
symbols
syntax
system
systems
t
ta
taal
tab
table
tables
tabs
tag
tagged
tagging
tagname
tags
take
taken
takes
talk
taluk
talukas
tamil
tanganyika
target
taronja
tata
taumadhi
td
te
tea
team
technical
technically
technology
tehran
tel
telangana
telephone
television
telugu
templat
template
templatedata
templates
temple
tenochtitlan
terminal
terminating
terminological
terrasse
territory
test
testcases
testing
text
th
than
thank
that
the
their
them
then
theory
there
thermodynamics
these
they
thing
things
think
third
this
thom
thomas
thornhagh
those
though
thousands
three
through
thumb
thumbnail
thus
tianjin
tidy
tie
tikkar
time
times
timesofindia
timestamp
timezone
tin
titicaca
title
titlebar
titleclass
titlegroup
titles
titlestyle
tl
tld
tnavbar
to
tobacco
toblank
toc
today
todemographics
together
toggle
tokyo
tole
tolkien
tony
too
tool
tools
top
topic
torvalds
total
totranslit
tourism
tournament
town
towns
tr
tracking
trailer
trailing
train
tran
trans
transcluded
transcludes
transcluding
transcription
transit
translated
translation
translations
translator
translators
translit
transliteration
transparent
treatment
tree
tribune
trick
trotsky
true
trust
try
tse
tsele
tt
tuberculosis
tung
turn
turned
turns
tweak
two
txantiloi
type
types
typically
typing
u
uk
ul
ulbharyana
un
una
unavailable
unclosed
uncommon
und
undefined
under
underneath
understand
understands
undesirable
unformatted
uniform
unimportant
union
unique
unit
united
units
university
unknown
unless
unlike
unnamed
until
up
upon
upper
uppermost
upright
ur
uranus
urban
urdu
url
urls
us
usa
usage
usar
use
used
useful
user
userbox
userboxes
users
uses
usha
using
usual
usually
ut
utc
utility
utm
uttar
v
vaccination
val
valid
valley
value
values
vanc
vancouver
vanish
vanishing
var
variable
variables
variant
variants
variety
various
vasco
vauthors
vbt
vcard
veditors
vegetable
vehicle
veidne
velocity
venus
verma
version
vertical
very
vi
via
video
videotape
vietnamese
view
viewed
viewer
village
villages
vinci
vindex
violence
viquipe
virender
virginia
visible
visual
visualeditor
visually
vivek
vodka
vol
volcano
volume
volumes
volunteers
von
vorlage
w
want
war
ward
wards
warming
warning
warsaw
was
washington
wasn
water
way
ways
we
web
website
webster
weeks
weight
well
were
west
western
what
whatever
whatlinkshere
whatsoever
wheat
when
where
whereas
whether
which
while
white
who
whole
whose
wide
width
wiki
wikidata
wikified
wikilink
wikilinked
wikilinks
wikimapia
wikimedia
wikiminiatlas
wikinews
wikipedia
wikiproject
wikiquote
wikis
wikisource
wikitext
wikitionary
wiktionary
will
william
windsor
wine
wish
wishes
with
within
without
wolfgang
wollstonecraft
women
won
word
words
work
working
works
world
would
wp
wrap
wright
write
writing
written
www
x
xls
xnview
xx
xxx
y
year
years
yellow
yes
yet
yi
yields
york
you
your
yourself
yue
yy
yyy
yyyy
z
zbl
zea
zentralblatt
zero
zeros
zh
zinc
zone
zones
zoom
{
|
}
~

¢
£
¤
¥
§
®
°
²
·
¹
º
×
æ
ł
ƒ
ɑ
ɖ
ə
ɛ
ɣ
ɽ
ʃ
ʈ
ʊ
ʒ
ʔ
ʲ
ʼ
ˈ
ː
̀
́
̂
̃
̄
̆
̇
̈
̉
̊
̌
̍
̓
̔
̛
̞
̣
̦
̧
̨
̪
͡
α
β
η
ι
λ
ο
προ
ς
τυπο
φ
д
и
картка
н
уикипедия
шаблон
я
үлгі
،
ء
ا
الا
الگو
ب
ت
ث
ج
جمادى
ح
خ
د
ذ
ر
ربيع
ز
س
ش
ص
ض
ط
ظ
ع
غ
ف
ق
قالب
ل
م
ن
و
َ
ُ
ّ
ٓ
ٔ
ٕ
ٹ
پ
چ
ڈ
ڑ
ژ
ک
گ
ھ
ہ
ی
ے
ँ
ं
ः
अ
अइतव
अइस
अइसन
अइसय
अईसन
अउर
अउरव
अऊर
अक
अकबर
अकसर
अख
अखब
अखर
अग
अगर
अगरतल
अगल
अगस
अघन
अङ
अच
अचल
अछ
अज
अजगर
अजन
अजय
अजरब
अञ
अट
अटल
अठ
अठव
अड
अण
अत
अतर
अथव
अद
अध
अन
अनन
अनम
अनस
अप
अपग
अपच
अपन
अपभ
अपम
अपर
अपल
अपव
अपस
अफ
अफग
अफज
अफजल
अफसर
अब
अबतक
अबह
अभ
अभय
अम
अमर
अय
अर
अरघ
अरण
अरन
अरप
अरब
अरबन
अरबपत
अरर
अरव
अरवल
अरस
अल
अलकन
अलग
अलङ
अलम
अव
अवगत
अवत
अवध
अवल
अवश
अवस
अवसर
अश
अष
अस
असत
असफल
असम
असर
असल
अह
अहन
अहम
अहमद
अहय
आ
आइ
आइक
आइङ
आइज
आइजक
आइन
आइनस
आइब
आइय
आइसल
आई
आईआईएम
आईआर
आईएसओ
आईट
आईड
आईप
आईस
आउ
आउट
आउब
आए
आएग
आओ
आक
आकर
आख
आग
आगमन
आगर
आच
आछ
आज
आजक
आजकल
आजमगढ
आजव
आट
आठ
आठव
आड
आत
आद
आदम
आदर
आध
आन
आनन
आप
आपक
आपकय
आपग
आपत
आपन
आपस
आफ
आब
आभ
आम
आमड
आमत
आय
आयक
आयतन
आयन
आयर
आयरल
आर
आरएनए
आरक
आरत
आरम
आल
आव
आवत
आवय
आवर
आवरण
आवल
आवश
आश
आष
आस
आसन
आसप
आसम
आह
आहन
इ
इईन
इए
इऑक
इक
इकट
इकद
इकय
इकल
इग
इच
इज
इजर
इट
इटल
इड
इडर
इडल
इण
इत
इतन
इथ
इन
इनक
इनकय
इनम
इनर
इनल
इनस
इप
इपर
इफ
इब
इबर
इबल
इम
इमन
इमर
इमल
इमश
इय
इर
इरफ
इरस
इल
इलब
इलम
इव
इश
इस
इसक
इसम
इसर
इसल
इसस
इह
ई
ईएम
ईओ
ईक
ईकल
ईग
ईज
ईट
ईड
ईथ
ईथर
ईद
ईन
ईप
ईब
ईम
ईय
ईयत
ईयर
ईर
ईल
ईव
ईश
ईस
ईसव
ईह
उ
उक
उख
उखर
उग
उच
उछ
उज
उजर
उठ
उठन
उड
उण
उत
उतन
उतर
उथ
उद
उदय
उदयप
उदयव
उध
उधम
उधर
उन
उनक
उनकय
उनकर
उनम
उनस
उप
उपक
उपकरण
उपग
उपच
उपज
उपत
उपद
उपन
उपनगर
उपभ
उपम
उपमह
उपय
उपर
उपल
उपलब
उपव
उपश
उपस
उपसम
उपह
उब
उभर
उम
उमर
उमस
उर
उल
उलट
उव
उष
उस
उसक
उसन
उसम
उसस
उह
उहय
ऊ
ऊग
ऊन
ऊप
ऊपर
ऊर
ऊल
ऊस
ऋ
ऋग
ऋणम
ऋत
ऋद
ऋष
ऋषभ
ऋषभद
ऍस
ए
एअर
एअरप
एअरल
एक
एकज
एकठ
एकत
एकद
एकम
एकर
एकल
एकसदन
एकह
एग
एच
एचओ
एचट
एज
एट
एटल
एटलस
एड
एडम
एण
एत
एतन
एतव
एथ
एद
एन
एनए
एनएफ
एनएसड
एनक
एनकय
एनड
एनब
एनय
एनर
एनस
एनह
एप
एफ
एब
एम
एमएएसड
एमज
एमट
एमन
एयर
एर
एल
एलन
एलर
एव
एवर
एश
एशन
एस
एसई
एसट
एसप
एसस
एह
एहक
एहकय
एहम
एहस
ऐ
ऐक
ऐडम
ऐत
ऐन
ऐम
ऐल
ऐलन
ऐवर
ऐस
ऐसन
ऑक
ऑट
ऑन
ऑनल
ऑपर
ऑफ
ऑर
ऑल
ऑस
ओ
ओए
ओक
ओकर
ओखलढ
ओछ
ओजस
ओझ
ओट
ओड
ओढ
ओत
ओद
ओन
ओनक
ओनकय
ओनह
ओप
ओपन
ओपनर
ओब
ओम
ओमप
ओर
ओल
ओलम
ओव
ओवर
ओवरस
ओश
ओस
ओह
ओहम
ओहर
औ
औग
औद
औपच
औपन
और
औल
औषध
औसत
क
कअप
कइ
कइक
कइकय
कइय
कइव
कइस
कई
कईक
कईय
कउ
कउन
कउव
कए
कक
ककथ
ककन
कग
कच
कछ
कज
कजर
कञ
कट
कटत
कटतम
कटन
कटर
कटवर
कठ
कड
कण
कणकर
कणहर
कत
कतन
कतम
कतर
कतवर
कथ
कथन
कद
कदम
कदर
कध
कन
कनक
कप
कपड
कफ
कब
कबड
कबह
कभ
कम
कमज
कमत
कमर
कमल
कमलप
कमलस
कय
कर
करक
करच
करण
करत
करद
करन
करब
करम
करमच
करय
करल
करव
करवत
करस
करह
कल
कलकत
कलत
कलन
कलप
कलश
कलस
कव
कवन
कवर
कवरत
कश
कस
कसभ
कह
कहकर
कहत
कहन
कहब
कहल
कऽन
ख
खक
खकर
खग
खगड
खज
खट
खड
खण
खत
खतम
खतय
खतर
खद
खन
खनन
खप
खपत
खब
खबर
खभ
खम
खय
खर
खरख
खरग
खरन
खरब
खल
खलन
खस
खहर
ग
गइय
गई
गउर
गए
गक
गकन
गख
गग
गगन
गङ
गच
गज
गट
गटई
गटन
गठ
गठन
गठब
गड
गडम
गढ
गण
गणत
गणतन
गणन
गणपत
गणर
गत
गतल
गथ
गद
गदर
गधर
गन
गप
गपत
गब
गबह
गभ
गम
गमइनस
गमत
गमन
गय
गर
गरण
गरम
गल
गलक
गलग
गलतबय
गलन
गलप
गलब
गलव
गव
गवत
गवर
गश
गस
गसब
गसल
गह
गहर
गऽन
घ
घक
घग
घट
घटन
घड
घन
घनत
घनन
घम
घर
घल
घव
घवप
ङ
ङर
च
चउथ
चक
चकत
चकमक
चग
चच
चट
चटन
चटर
चड
चढ
चढन
चण
चत
चतम
चतर
चथर
चद
चन
चनद
चनप
चप
चब
चम
चमक
चमग
चमड
चमत
चमह
चय
चयन
चर
चरख
चरण
चरम
चरव
चल
चलच
चलत
चलन
चलय
चलर
चव
चवर
चश
चस
चह
छ
छक
छठ
छठव
छड
छत
छन
छप
छपर
छम
छय
छर
छल
छव
छह
ज
जइस
जइसन
जइसय
जई
जक
जकत
जकर
जग
जगण
जगत
जगद
जगदग
जगन
जगह
जगहन
जङ
जट
जड
जडन
जत
जतन
जद
जध
जन
जनक
जनकप
जनग
जनगणन
जनज
जनत
जनतन
जनथल
जनद
जनपद
जनम
जनय
जनरल
जनल
जनव
जनवर
जनश
जनस
जनसङ
जनसत
जनह
जप
जपत
जफ
जब
जबक
जबन
जबलप
जभ
जम
जमदग
जमन
जमबर
जमश
जमहल
जय
जयत
जयद
जयन
जयप
जयम
जयश
जर
जरक
जरत
जल
जलडमर
जलढक
जलध
जलप
जलम
जलय
जलव
जलस
जव
जवन
जश
जस
जह
जऽय
झ
झज
झट
झटक
झड
झन
झर
झरन
झल
झलक
ञ
ञप
ञश
ञस
ट
टइ
टई
टक
टकक
टकम
टकर
टकऽन
टज
टड
टत
टन
टनक
टनगर
टप
टफ
टब
टबल
टम
टय
टर
टरन
टरब
टरम
टल
टलर
टव
टवन
टवर
टवल
टस
टसन
टहन
ठ
ठक
ठण
ठतम
ठन
ठभ
ठम
ठय
ठर
ठव
ठहर
ड
डक
डकर
डग
डच
डट
डड
डत
डन
डप
डब
डबव
डम
डमड
डमर
डर
डरबन
डरम
डरसन
डल
डलन
डव
डस
डहर
डऽन
ढ
ढक
ढल
ण
णक
णकट
णकर
णग
णत
णतय
णन
णप
णफ
णभ
णभट
णम
णय
णर
णव
णवत
णस
णह
त
तइय
तक
तकन
तकब
तकर
तकल
तग
तगड
तच
तज
तट
तटर
तड
तण
तत
ततत
तथ
तद
तध
तन
तनत
तनध
तनम
तनह
तप
तपर
तपस
तब
तभ
तम
तमब
तमय
तय
तर
तरक
तरण
तरत
तरद
तरन
तरप
तरपच
तरफ
तरम
तरर
तरल
तरव
तरह
तल
तलक
तलहट
तव
तवन
तवर
तश
तशत
तस
तसर
तह
तहट
तहत
तहर
तहस
तऽय
थ
थक
थत
थन
थनगर
थप
थम
थय
थर
थरस
थल
थलन
थलर
थव
थश
थस
थऽन
द
दइ
दई
दक
दकट
दकत
दख
दग
दड
दण
दत
दद
दन
दप
दफ
दब
दभ
दम
दमद
दमन
दमनक
दमनग
दय
दर
दरअसल
दरक
दरग
दरत
दरब
दरभ
दरल
दरव
दरसन
दल
दलदल
दव
दवत
दश
दशक
दशमलव
दशरथ
दशहर
दस
दसक
दसव
दह
दहव
दऽन
ध
धइ
धक
धग
धगद
धत
धतम
धन
धनक
धनस
धब
धभ
धम
धर
धरण
धरत
धरम
धरस
धल
धव
धवन
धवल
धश
धशतक
धस
न
नई
नईद
नए
नक
नकद
नकय
नकर
नकल
नख
नग
नगढ
नगर
नगरन
नगरप
नच
नज
नजद
नजर
नजरबन
नट
नड
नत
नतम
नद
नन
नप
नपर
नब
नबर
नभ
नभद
नम
नमद
नमन
नमस
नय
नयन
नयर
नर
नरक
नरम
नरव
नरस
नरहर
नल
नव
नवक
नवगठ
नवज
नवत
नवद
नवन
नवप
नवभ
नवम
नवर
नवरन
नवलपर
नवश
नवस
नश
नष
नस
नसन
नसभ
नसम
नसर
नह
नहर
नऽन
प
पइद
पइस
पए
पक
पकड
पकर
पकव
पख
पगढ
पच
पछ
पञ
पट
पटक
पटन
पटमद
पटर
पठ
पठन
पड
पडत
पढ
पण
पणश
पत
पतन
पतर
पथ
पथर
पद
पदध
पदम
पदमन
पन
पनव
पनस
पनह
पप
पब
पबन
पम
पय
पयद
पयर
पर
परक
परच
परज
परत
परद
परध
परन
परबत
परभ
परम
परमह
परय
परव
परश
परस
परह
पल
पलक
पलत
पलवल
पव
पवन
पवनह
पश
पष
पस
पसन
पसम
पह
पहच
पहर
पहल
फ
फइल
फइलत
फइलय
फक
फग
फड
फण
फत
फन
फफड
फर
फरनगर
फरप
फरबर
फरल
फरवर
फरसन
फल
फलस
फस
फसटन
फसल
फहर
ब
बइठ
बई
बक
बकत
बख
बग
बगद
बच
बचन
बचपन
बछर
बज
बजट
बझ
बट
बटन
बटव
बठ
बड
बडव
बडहन
बढ
बढत
बत
बद
बदल
बदलत
बदलन
बदलय
बध
बन
बनइ
बनकर
बनगर
बनड
बनत
बनन
बनप
बनब
बनय
बनल
बनव
बनवय
बनस
बप
बफ
बम
बय
बर
बरक
बरख
बरन
बरप
बरफ
बरम
बरमत
बरस
बल
बलभद
बलर
बलवन
बव
बस
बसत
बसन
बसय
बह
बहत
बहन
बहब
बहय
बहर
बहल
बहस
बऽन
भ
भइय
भईस
भए
भक
भग
भगत
भगव
भगवत
भगवद
भगवन
भज
भट
भटम
भण
भत
भद
भन
भय
भर
भरण
भरत
भरतप
भरप
भरव
भल
भव
भवत
भवन
भवर
भस
म
मई
मउक
मउत
मऊ
मक
मकथ
मकब
मकबर
मकर
मकरण
मकव
मख
मग
मगढ
मगध
मगर
मगरमच
मघ
मङ
मच
मचन
मचर
मछर
मछल
मज
मजद
मजब
मञ
मट
मठ
मड
मढ
मण
मणव
मत
मतद
मतभ
मतलब
मथ
मथल
मद
मदत
मदद
मदन
मध
मन
मनइ
मनइन
मनई
मनईन
मनक
मनगर
मनम
मनर
मनस
मप
मपत
मफ
मब
मभ
मम
ममत
मय
मर
मरक
मल
मलकर
मलन
मलय
मलर
मलसर
मव
मवत
मवर
मवल
मश
मशर
मशह
मस
मसमर
मसर
मसह
मह
महज
महत
महन
महब
महर
महल
महलन
महस
य
यइ
यउह
यक
यकत
यकन
यकर
यकल
यकस
यग
यगढ
यगर
यच
यज
यजन
यट
यटक
यटन
यड
यण
यणगढ
यत
यतन
यतय
यथ
यद
यदर
यध
यन
यनक
यनकय
यनकर
यनज
यनर
यनश
यनस
यप
यपद
यपर
यपश
यफ
यब
यबर
यबह
यभ
यभट
यम
यमग
यमन
यमनगर
यमम
यय
ययन
यर
यरड
यरत
यरफ
यरस
यल
यलय
यव
यवर
यवस
यवह
यश
यशतक
यशस
यस
यसभ
यसम
यह
यहप
यहम
यहर
यऽन
र
रआन
रइन
रई
रईन
रक
रकट
रकन
रकय
रकर
रकल
रकऽन
रख
रखण
रखत
रखन
रखप
रखरख
रग
रगञ
रगढ
रगत
रघ
रङ
रच
रचण
रचन
रचय
रचर
रचल
रचलन
रछ
रज
रजक
रजन
रजनन
रजभ
रठ
रड
रण
रणज
रणन
रणब
रणव
रत
रतक
रतन
रतम
रतल
रतवर
रथ
रथम
रद
रदर
रदरफ
रध
रधर
रन
रनगर
रनप
रनल
रप
रपट
रपत
रपर
रपश
रफ
रफल
रब
रबड
रबत
रबदल
रबन
रबर
रबल
रभ
रम
रमई
रमण
रमणक
रमद
रमन
रमभ
रमर
रमश
रमहल
रय
रयशक
रर
रल
रव
रवत
रवध
रवर
रश
रशस
रष
रस
रसन
रसम
रसर
रसरत
रह
रहण
रहत
रहन
रहब
रहमत
रहमप
रहमय
रहय
रहर
रहल
रहव
रहस
रऽन
ल
लइ
लइक
लइकय
लइज
लइन
लई
लईक
लउट
लक
लकड
लकण
लकन
लकय
लकर
लख
लखनऊ
लग
लगञ
लगढ
लगत
लगभग
लघ
लघर
लङ
लच
लचर
लचस
लज
लझ
लटक
लड
लढ
लण
लत
लद
लध
लन
लनऽन
लप
लपट
लपत
लब
लबर
लभ
लभर
लम
लमज
लमन
लमहर
लय
लयक
लयन
लर
लरक
लरस
लल
लव
लवक
लवण
लवन
लवर
लवस
लश
लस
लह
लहन
लहर
लहव
लऽन
ळ
व
वइ
वइस
वइसय
वक
वकप
वकर
वग
वघर
वङ
वच
वचन
वज
वजन
वजह
वट
वड
वण
वणक
वत
वतन
वतम
वतश
वद
वध
वधर
वन
वनक
वनकय
वनगर
वनड
वनन
वनम
वनस
वप
वफ
वफल
वभ
वभक
वम
वय
वर
वरक
वरण
वरन
वरम
वरर
वरव
वल
वलद
वलप
वलम
वलस
वव
ववर
वश
वशक
वस
वसन
वसह
वह
वहन
वहर
श
शक
शकन
शङ
शच
शटल
शत
शतक
शतश
शद
शध
शन
शनग
शनर
शनल
शनश
शप
शपथ
शब
शभक
शभर
शम
शमश
शय
शर
शरण
शरद
शल
शलम
शव
शवन
शवर
शश
शस
शह
शहर
शहरऽन
शऽन
ष
षक
षकर
षग
षचर
षज
षड
षण
षत
षद
षन
षनर
षप
षभ
षम
षमण
षमत
षय
षयक
षयन
षयर
षयवट
षयवस
षर
षरत
षरन
षव
षवर
षस
स
सई
सउद
सक
सकत
सकन
सकर
सकल
सख
सग
सगढ
सगर
सगरम
सघन
सङ
सङर
सच
सज
सञ
सट
सटन
सटर
सठ
सड
सडक
सत
सतक
सतप
सतर
सतल
सतलज
सतव
सतह
सथ
सद
सदन
सदरम
सदस
सन
सनक
सनर
सप
सपन
सफ
सफर
सफल
सफलत
सब
सबक
सबन
सबर
सबल
सबस
सभ
सम
समक
समझ
समझय
समत
समतल
समन
समय
समर
समस
सय
सर
सरक
सरग
सरज
सरण
सरत
सरद
सरय
सरल
सरलत
सरस
सल
सलम
सलव
सव
सवदत
सश
सशस
सस
सह
सहज
सहन
सहमत
सहय
सहर
सहरस
सहव
सहस
ह
हइ
हउ
हऋष
हक
हकय
हकल
हख
हग
हङकङ
हज
हजव
हजह
हट
हठ
हड
हण
हत
हतक
हतर
हथ
हथन
हद
हन
हनन
हनप
हनम
हनस
हप
हफ
हब
हभ
हम
हमक
हमद
हमर
हमल
हय
हर
हरग
हरजक
हरण
हरद
हरदम
हरनख
हरप
हरम
हरर
हरल
हरव
हल
हलय
हव
हस
हसन
़
ऽ
ऽन
ऽव
ऽहम
ा
ि
ी
ु
ू
ृ
ॄ
ॅ
ॆ
े
ै
ॉ
ॊ
ो
ौ
्
॑
॒
॓
॔
ॠष
ॢ
ॣ
।
॥
०
००
०००
०२
०३
०४
०५
०६
०७
१
१०
१००
१०००
१०७
११
११०
११३
११५
११७
१२
१२०
१२३
१२५
१३
१३०
१४
१४०
१५
१५०
१५३
१५४
१६
१७
१७०
१७३५
१७७९
१७९९
१८
१८०९
१८१४
१८४१
१८५
१८५७
१८६०
१८६३
१८७१
१८८२
१८८८
१८८९
१९
१९००
१९०१
१९०७
१९१०
१९११
१९१४
१९१७
१९१८
१९१९
१९२१
१९२२
१९२३
१९२७
१९२८
१९३०
१९३१
१९३३
१९३४
१९३५
१९३७
१९४५
१९४७
१९४८
१९५०
१९५१
१९५३
१९५४
१९५५
१९५६
१९५७
१९५९
१९६०
१९६१
१९६२
१९६४
१९६५
१९६६
१९६७
१९६९
१९७०
१९७१
१९७२
१९७४
१९७५
१९७६
१९७७
१९७९
१९८०
१९८१
१९८२
१९८३
१९८४
१९८५
१९८६
१९८७
१९८८
१९८९
१९९०
१९९१
१९९२
१९९३
१९९४
१९९५
१९९७
१९९८
१९९९
२
२०
२००
२०००
२००१
२००२
२००३
२००४
२००५
२००६
२००७
२००८
२००९
२०१०
२०११
२०१२
२०१३
२०१४
२०१५
२०१६
२०१७
२०१८
२०१९
२०२०
२०२२
२०६३
२१
२२
२३
२४
२५
२५०
२५००
२६
२७
२८
२९
२९८
३
३०
३०००
३१
३२
३२२
३३
३४
३५
३५०
३६
३७
३८
३८१
३९
४
४०
४००
४१
४२
४३
४४
४५
४५०
४६
४७
४८
४९
५
५०
५००
५०००
५१
५२
५३
५४
५५
५५००
५६
५७
५८
५९
६
६०
६००
६१९
६२
६३
६३५
६४
६४१
६५
६६
६७
६८
६९
७
७०
७००
७१
७२
७३
७४
७५
७६
७७
७८
७९
८
८०
८००
८१
८२
८३
८४
८५
८६
८६४
८७
८७५
८८
८९
९
९०
९००
९१
९२
९३
९४
९४०
९५
९६
९७
९७२
९८
९९
॰
ং
আম
আৰ
ই
উত
এখন
ক
খ
গ
গৰ
চ
ছ
জ
ঝ
ঞ
ট
ঠ
ড
ণ
ত
তৰ
তৰত
থ
দ
দক
ধ
ন
প
ব
ভ
ম
য
র
ল
শ
ষ
স
সৰ
হ
়
া
ি
ী
ু
ূ
ৃ
ে
ৈ
্
৭
৯
ৰ
ৱ
৲
৳
ਂ
ਜ
ਪ
ਬ
ਲ
ਵ
ਸ
਼
ਾ
ਿ
ੀ
ੂ
ੇ
ં
ચ
ટ
ઢ
ત
મ
ર
વ
હ
ા
િ
ી
ુ
ો
્
૭
க
ங
ச
ட
த
ந
ன
ப
ம
ய
ர
ல
வ
ஸ
ா
ி
ீ
ு
ூ
ெ
ே
ை
்
ం
క
గ
చ
జ
ట
డ
ణ
త
ద
ధ
న
ప
బ
భ
మ
య
ర
ల
వ
స
ా
ి
ీ
ు
ూ
ె
ే
ొ
ో
్
ಂ
ಟ
ಡ
ದ
ಪ
ಯ
ರ
ಲ
ವ
ಹ
ಾ
ಿ
ು
ೆ
್
ೕ
ം
ക
ച
ഞ
ഡ
ന
പ
ഫലക
യ
ല
വ
ാ
ി
ീ
ു
േ
്
ൺ
න
ු
ก
ช
ญ
ต
ธ
พ
ย
ล
ว
อ
ั
ิ
ี
ึ
ู
฿
แบบ
แม
็
่
้
ຊ
ອ
ື
ຼ
່
້
་
།
ད
ན
ལ
ོ
ྭ
თარგი
틀
ក
ជ
ត
ទ
ន
ប
ព
ម
យ
រ
ល
ា
ិ
ុ
ូ
ួ
ំ
៉
័
្
៛
​
‌
‍
‎
–
—
‘
’
“
”
†
•
…
‪
‬
′
›
₡
₣
₥
₦
₩
₪
₫
€
₭
₮
₱
₲
₴
₵
₹
℃
←
↑
→
↔
↷
−
③
④
⑦
█
▼
☉
☾
☿
♀
♂
♃
♄
♆
⛢
⺀
⺄
⺆
⺈
⺊
⺌
⺕
⺝
⺸
⺼
⿰
⿱
⿲
⿳
⿴
⿵
⿶
⿷
⿸
⿹
⿺
⿻
〢
の
゙
゚
ァ
ア
イ
コ
タ
ッ
ト
フ
ユ
ル
ロ
ワ
ー
㇁
㇂
㇄
㇇
㇈
㇉
㇓
㐁
㐄
㐅
㐌
㐫
㐬
㐭
㐮
㐱
㑒
㒵
㒸
㒼
㓁
㓞
㔾
㕛
㕣
㖾
㘝
㚅
㚇
㚔
㚘
㝉
㝡
㝴
㝵
㞋
㞢
㞷
㠩
㠭
㠯
㡀
㡭
㡿
㢲
㢴
㣇
㣺
㥯
㪅
㫄
㫐
㫒
㫺
㬅
㬎
㬥
㬰
㲋
㳄
㷠
㸒
㸚
㸦
㼌
㼲
㽞
㿟
䀠
䂞
䍃
䏍
䒑
䖍
䖒
䖝
䖵
䙴
䚻
䜌
䝿
䡛
䧹
䪞
一
丁
丂
七
丄
丅
丆
万
丈
三
上
下
丌
不
与
丏
丐
丑
专
且
丕
世
丘
丙
业
东
丞
丢
丣
两
严
並
丨
丩
个
丫
丬
中
丮
丰
丱
串
丵
丶
丷
丸
丹
为
主
丽
丿
乀
乂
乃
久
乆
乇
么
义
之
乌
乍
乎
乏
乐
乑
乔
乖
乗
乘
乙
乚
乛
乜
九
乞
也
习
乡
乳
乾
亀
亅
了
亇
予
争
事
二
亍
于
亏
亐
云
互
亓
五
井
亘
亚
亜
亞
亟
亠
亡
亢
交
亥
亦
产
亨
亩
享
京
亭
亮
亯
亰
亲
亳
亶
亷
人
亻
亼
亾
仁
今
介
仌
从
仐
仑
仒
仓
仕
他
付
仝
代
令
以
任
企
伊
伏
伐
休
会
传
伯
但
位
何
佘
余
作
佥
使
來
侈
例
侌
侖
侯
侵
便
保
俞
信
修
倉
倍
候
倠
備
僉
僕
儿
兀
允
兂
元
兄
充
兆
兇
先
光
兊
克
兌
免
兑
兒
兓
兔
党
兜
兟
入
全
兩
兪
八
公
六
兮
兰
共
关
兵
其
具
典
兹
兼
冀
冂
冃
冄
内
冈
冉
冊
冋
册
再
冎
冏
冐
冒
冓
冖
冗
冘
军
农
冝
冡
冥
冫
冬
冷
几
凡
凢
凵
凶
凷
凸
凹
出
函
凾
刀
刁
刂
刃
刄
刅
分
切
刍
刑
刕
刖
列
刘
则
初
別
利
别
到
制
刺
則
削
剌
前
剡
剽
劉
力
功
加
劦
助
劫
劳
劵
勃
勇
勉
勒
動
務
勞
勤
勹
勺
勻
勾
勿
匀
匂
包
匆
匈
匊
匋
匍
匕
化
北
匚
匝
匡
匪
匱
匸
匹
区
医
匽
匿
區
十
卂
千
卄
卅
卆
升
午
卉
半
卌
华
卑
卒
卓
单
卖
南
卜
卝
卞
占
卡
卢
卣
卤
卦
卩
卪
卬
卯
印
危
即
却
卵
卷
卸
卻
厂
厃
厄
历
厈
厉
厌
厓
厘
厚
原
厤
厥
厨
厭
厲
厶
厷
厸
去
厼
厽
叀
参
參
叅
又
叉
及
友
双
反
叐
发
叒
叔
叕
取
受
叚
叜
叟
口
古
句
另
叩
只
召
可
台
叱
史
右
叵
号
司
叹
吂
各
吅
合
吉
吊
吋
同
名
后
吏
向
吕
君
吝
吞
否
含
启
吳
吴
吹
吾
呂
呆
呈
告
员
呙
周
命
咅
和
咎
咠
咢
咨
咸
咼
哀
品
哉
員
哥
哲
唐
商
啇
問
啚
啬
啻
善
喜
喬
單
喿
嗇
噩
嚴
囊
囗
囘
囙
囚
四
回
囟
因
囧
囬
困
囱
囷
固
国
圂
圅
國
圍
圓
土
圡
圣
圥
在
圭
地
圶
圼
坐
坒
坚
坡
坴
垂
垔
垚
埀
埋
埶
執
基
堂
堅
堆
堇
堯
塞
墨
壘
士
壬
壯
声
壳
壴
壹
壺
壽
夂
处
夅
夆
备
夊
夋
夌
复
夏
夒
夕
外
夗
夘
多
夜
夢
大
夨
天
太
夫
夬
夭
央
失
夲
头
夷
夸
夹
夻
夾
奂
奄
奇
奈
奉
奎
奏
奐
契
奓
奔
奚
奞
奠
奢
奥
奭
女
奴
奻
好
如
妄
妙
妟
妥
妻
妾
姑
委
姜
威
娄
婁
婴
嬰
嬴
子
孑
孔
孕
孖
字
存
孚
孛
孝
孟
季
孤
学
孫
孱
學
宀
宁
宂
它
宅
宇
守
安
宋
完
宏
宓
宗
官
定
宛
宜
宝
客
宣
室
宮
宰
害
家
容
宾
宿
寄
寅
密
富
寒
察
寧
審
寫
寬
寮
寸
对
寺
寻
寽
対
寿
封
尃
射
将
將
專
尉
尊
尋
尌
對
小
少
尒
尓
尔
尖
尗
尚
尞
尢
尣
尤
尧
尨
尭
就
尸
尹
尺
尻
尼
尽
尾
尿
局
居
屈
屋
屎
屏
屑
展
屖
屚
属
屠
屡
屬
屮
屯
屰
山
屵
屾
岁
岂
岑
岡
岩
岳
岸
峯
島
崇
崑
崔
崖
崙
崩
嵬
嶲
巂
巛
川
州
巟
巠
巢
巤
工
左
巧
巨
巩
巫
差
己
已
巳
巴
巷
巸
巽
巾
巿
帀
市
布
希
帚
帛
帝
带
師
席
帶
常
干
平
年
幵
并
幷
幸
幺
幻
幼
幽
幾
广
広
庄
床
底
店
庚
府
度
庫
庭
庶
康
庸
廉
廌
廛
廣
廩
廴
延
廷
建
廾
廿
开
弁
弃
弄
弇
弋
式
弓
弔
引
弗
弘
弜
弟
弥
弦
弱
張
強
强
彊
彌
彎
彐
彑
当
彔
录
彖
彗
彡
形
彥
彦
彧
彭
彳
役
彼
往
待
律
徒
得
徙
從
復
微
徵
心
忄
必
忌
忍
志
忝
忠
忩
快
念
忽
忿
思
怠
急
怱
恆
恒
恩
恭
息
悉
患
悤
悲
悶
惠
惡
惢
愁
愈
意
愛
感
慈
慧
慮
憂
憲
應
戀
戈
戉
戊
戋
戌
戍
戎
成
我
戒
戔
或
戚
戠
戢
截
戲
戶
户
戹
戼
戾
房
所
扁
扇
手
扌
才
打
托
执
承
折
拉
拜
拿
掌
推
提
摩
支
攴
攵
收
攸
改
放
政
敄
敏
敕
敖
敗
敝
敞
敢
散
敦
敫
敬
数
敷
數
斂
文
斉
斊
斗
料
斤
斥
斩
斬
斯
新
方
於
施
斿
旁
旋
族
无
旡
既
旣
日
旦
旧
旨
早
旬
旱
旲
时
旾
昆
昇
昌
昍
明
昏
易
昔
昗
昜
星
春
昬
昭
是
昱
昴
昷
時
晃
晋
晏
普
景
晶
智
暑
暴
曇
曩
曰
曲
曳
更
曷
書
曹
曼
曾
替
最
朁
會
月
有
朋
服
朔
朕
朗
望
朝
木
朩
未
末
本
札
朮
术
朱
朵
朶
朿
杀
杏
杜
束
条
来
東
杲
杳
松
析
林
枚
果
枝
枲
枼
某
柔
查
柬
柰
柴
栗
桀
桑
桼
梁
條
梟
梨
棘
棠
棥
森
楚
業
楽
榮
樂
樊
欠
次
欣
欮
欲
欶
欽
款
歆
歇
歛
止
正
此
步
武
歨
歪
歮
歯
歰
歲
歴
歷
歸
歹
歺
死
殳
段
殷
殸
殹
殺
殻
殿
毋
毌
母
每
毒
比
毕
毚
毛
毳
氏
氐
民
气
氣
水
氵
氶
氷
永
氺
氾
求
汝
汞
江
沃
沓
沙
沝
泉
法
波
泣
泥
泰
泽
洛
洪
活
派
流
浦
浪
浮
淡
淮
清
渚
渠
湯
滿
漸
火
灬
灭
灰
灵
灷
炅
炎
炏
炗
炙
炭
為
烈
烏
烝
焉
無
焦
焱
然
煞
熊
熏
燕
營
燮
爪
爫
爭
爯
爰
爱
爲
爵
父
爻
爽
爾
爿
片
牙
牚
牛
牜
牟
牢
牧
物
牪
牽
犀
犬
犭
犮
狂
狄
狊
独
狺
猋
猒
猪
献
獻
玄
率
玉
王
玟
玨
珎
班
琴
瑟
瑩
瓜
瓦
甘
甚
生
産
用
甫
甬
田
由
甲
申
电
甶
男
甸
甹
画
甾
畀
界
畏
畐
留
畜
畟
畢
畧
畨
番
畫
異
畱
當
畺
畾
疊
疋
疌
疑
疒
疾
癶
癸
癹
登
發
白
百
皀
皃
的
皆
皇
皋
皐
皕
皮
皷
皿
盃
盆
盇
盈
益
盍
盎
监
盒
盖
盛
盡
監
盤
盧
目
直
相
盾
省
眇
眉
看
眔
眞
真
眷
眼
眾
着
睘
睪
睿
瞏
瞢
瞿
矍
矛
矞
矢
矣
知
矦
短
石
破
碎
磊
磨
示
礻
礼
祟
票
祭
禀
禁
禸
禹
禺
离
禽
禾
禿
秀
秃
秉
秋
科
秝
秦
移
稟
穀
穌
穴
究
穹
空
穿
突
窄
窒
立
竒
竜
竝
竟
章
童
竹
笑
笠
筆
等
答
箕
算
箴
節
篤
篭
米
粉
粛
粟
粤
粦
粲
糞
糸
糹
系
約
納
素
索
紫
累
細
絜
絫
絲
維
綿
縣
繇
纍
纟
缶
网
罒
罔
罕
罗
罙
罡
罢
罪
署
罷
羅
羊
羌
羍
美
羔
羕
羗
羞
羡
羣
群
義
羲
羸
羽
翁
翏
習
翕
翟
翠
翼
老
耂
考
者
耆
而
耎
耑
耒
耳
耴
耶
耷
聂
聊
聖
聚
聶
聿
肀
肃
肅
肉
肖
肙
肥
肩
肯
育
肴
胃
背
胡
胥
能
脊
脩
膚
臣
臤
臧
自
臬
臭
臯
臱
至
致
臺
臼
臽
臾
臿
舀
舂
舄
與
興
舉
舌
舍
舛
舜
舞
舟
般
艮
良
色
艸
艹
艾
芒
芔
芬
芮
花
芳
芺
芻
苔
苗
苟
若
苦
英
茶
茸
荅
草
荒
荣
荼
莆
莧
莫
莽
菆
菊
菐
華
萬
落
葉
著
葛
董
葵
蒙
蒦
蒼
蓋
蓬
蓺
蔑
蔡
蕉
蕭
薄
薛
薦
薰
藍
藏
藥
蘭
虍
虎
虐
虒
虔
處
虖
虗
虘
虚
虛
虜
虞
虫
虽
蚤
蚩
蜀
蜜
蟲
蠡
血
行
衍
衛
衣
衤
表
衮
衰
袁
袞
裕
褭
褱
襄
襾
西
覀
要
覃
見
規
覓
覧
親
覽
见
角
解
言
訁
訇
計
詹
語
誩
諸
讠
谷
豆
豈
豊
豐
豕
豖
豙
象
豦
豩
豪
豸
貇
貝
貞
貟
負
貢
貧
貪
貫
責
貳
貴
買
費
賁
資
賈
賏
賓
賔
賛
賞
賢
賣
質
賴
贊
贝
贡
责
贯
贲
贵
赖
赞
赤
赦
走
越
足
路
蹇
身
躬
車
軍
軎
軟
載
輦
车
辛
辜
辟
辥
辰
辱
農
辵
辶
边
达
过
近
连
迷
追
退
送
逆
逐
通
速
造
逢
連
逮
進
遀
遂
過
道
達
遣
適
遷
遺
邊
邑
邕
那
邦
邪
郎
部
郭
都
鄉
酉
酋
配
酓
釆
采
里
重
野
量
金
釒
錄
錢
钅
長
镸
长
門
閃
閉
開
閏
閑
閒
間
閔
閵
閻
闌
门
间
闷
阑
阜
阝
阿
降
陳
隆
隊
隋
隡
隨
隱
隶
隹
隺
隻
隼
隽
难
雀
雁
集
雈
雋
雍
雐
雔
雙
雚
雜
雝
離
難
雨
雩
雪
雲
零
雷
需
霍
霜
霝
霞
霸
靈
靑
青
非
靡
面
靣
革
韋
韦
韭
韯
韱
音
頁
頃
項
須
頗
頡
頻
顛
页
風
风
飛
飞
食
飠
養
饣
首
香
馬
馮
駦
马
骨
高
髟
鬥
鬯
鬲
鬼
魚
魯
鮮
鱼
鲁
鳥
鳳
鸟
鹵
鹿
麃
麗
麥
麦
麻
黃
黄
黍
黎
黑
黒
黨
黹
黽
黾
鼎
鼓
鼠
鼻
齊
齋
齐
齒
齿
龍
龙
龜
龟
龠
龰
龱
龴
龵
龶
龷
龸
龹
者
艹
ﮨ
ﮩ
﻿
？
￼
👇
🜨
𠀁
𠀃
𠀆
𠀉
𠀎
𠀐
𠁁
𠁣
𠂆
𠂇
𠂈
𠂉
𠂊
𠂋
𠂎
𠂒
𠂔
𠂛
𠂡
𠂢
𠂤
𠂬
𠂭
𠂹
𠃊
𠃋
𠃌
𠃍
𠃎
𠃑
𠃓
𠃔
𠃜
𠄌
𠄎
𠄠
𠄢
𠆢
𠆥
𠇍
𠈌
𠌵
𠓜
𠔉
𠔥
𠔼
𠔽
𠔿
𠕀
𠕁
𠕋
𠘧
𠘨
𠙻
𠙼
𠚏
𠚒
𠚤
𠚪
𠣏
𠤎
𠤕
𠥓
𠦄
𠦑
𠦝
𠧒
𠧗
𠧪
𠩺
𠪚
𠫓
𠫔
𠫤
𠬛
𠬝
𠬞
𠬢
𠬤
𠬶
𠮛
𠮦
𠮷
𠯑
𠱠
𠳮
𠷎
𡈼
𡉀
𡉵
𡌥
𡍮
𡏳
𡕒
𡕩
𡕰
𡖅
𡗗
𡗜
𡘆
𡘤
𡧱
𡨄
𡩧
𡬠
𡭽
𡰣
𡰥
𡰪
𡰯
𡰱
𡷈
𡸁
𡿨
𡿩
𡿪
𡿺
𢀖
𢀛
𢀩
𢁙
𢆉
𢆰
𢆶
𢇁
𢇇
𢉖
𢌬
𢌿
𢏚
𢑑
𢑚
𢖻
𢙣
𢛳
𢦏
𢦒
𢧵
𢼄
𢾕
𣁋
𣄼
𣅀
𣅽
𣍘
𣎳
𣎵
𣏋
𣏼
𣗥
𣥂
𣥖
𣦵
𣦼
𣧄
𣪊
𣪠
𣬉
𣳾
𣶒
𤇾
𤊽
𤐫
𤓰
𤔔
𤕨
𤣩
𤰇
𤰔
𤰞
𤴓
𤴔
𤽄
𥁑
𥁕
𥃦
𥃩
𥃭
𥇡
𥑟
𥘅
𥘈
𥝢
𥫗
𥱡
𦈢
𦉪
𦉬
𦉼
𦍌
𦍒
𦎧
𦐇
𦓔
𦔮
𦘒
𦙃
𦚏
𦣝
𦣞
𦣻
𦥑
𦥔
𦥯
𦨉
𦭝
𦰩
𧆞
𧈧
𧘇
𧰨
𧴪
𧴮
𧵩
𧾷
𨸏
𨾴
𩙿
𩠐
𩫏
𩵋
𪉷
𪜀
𪟽
𪠲
𪩲
𫇦
𫔭
𫜸
𫝀
𫠣
𫠩
𫢉
𫥞
𫩏
𫩠
𫪡
𫲽
𫶧
𬀷
𬐘
𬗌
𬙙
𬛸
𬜯
𬟩
𬯁
𬴘
𬺻
𬼉
𬼖
𭀰
𭁈
𭁨
𭅰
𭑈
𭕄
𭗼
𭤨
𭥫
𭻾
𮅕
𮊿
𮍌
𮍏
𮓗
𮥼
𮧮
廾
𰀁
𰀄
𰀈
𰀉
𰀕
𰀠
𰀡
𰀢
𰀪
𰁜
𰃮
𰆊
𰆘
𰋙
𰕎
𰢴
𰧭
𰯲
00--
01--
07--
13--
14--
15--
16--
17--
18--
19--
20--
22--
33--
36--
38--
43--
51--
61--
70--
77--
78--
80--
81--
90--
a--
abs--
ac--
ad--
ada--
affi--
ai--
ak--
al--
am--
an--
annu--
app--
ar--
as--
at--
ath--
atta--
au--
aug--
ayu--
b--
ba--
bak--
ban--
base--
be--
ben--
bene--
bi--
bo--
br--
bra--
budd--
bur--
c--
ca--
cam--
car--
ce--
ch--
cha--
chi--
chr--
cle--
clu--
co--
com--
con--
consi--
cop--
cor--
coro--
cr--
cra--
cre--
cyc--
d--
da--
dan--
de--
demon--
dev--
di--
dis--
disam--
do--
du--
e--
ea--
eat--
el--
ele--
em--
en--
eng--
ent--
ep--
es--
et--
eu--
ex--
exp--
expl--
f--
fa--
facili--
far--
fer--
fi--
fin--
flag--
foun--
fr--
funci--
g--
ga--
ge--
geo--
gi--
gl--
go--
gra--
gran--
gur--
h--
ha--
he--
hi--
high--
ho--
html--
hu--
i--
ia--
imm--
in--
ind--
indus--
inst--
inte--
integ--
inter--
ir--
j--
ja--
jo--
k--
ka--
kar--
kath--
ke--
key--
ko--
ku--
l--
la--
lan--
le--
legis--
li--
lin--
lo--
log--
m--
ma--
man--
map--
mar--
mb--
mc--
me--
mi--
mis--
mo--
mon--
mor--
mos--
moun--
mu--
mur--
mus--
my--
n--
na--
nap--
ne--
ni--
no--
nor--
o--
on--
opp--
or--
out--
over--
p--
pa--
pan--
par--
pe--
per--
ph--
physi--
pl--
po--
pol--
pr--
pre--
pri--
princ--
pun--
q--
qu--
r--
ra--
rati--
re--
rea--
reserv--
rest--
rever--
ro--
ru--
s--
sa--
sam--
san--
sc--
sch--
se--
see--
sha--
shan--
shi--
si--
sin--
sl--
sna--
so--
sp--
spe--
sri--
st--
ste--
stu--
su--
sub--
succ--
sud--
summ--
sur--
sy--
t--
ta--
talk--
te--
temp--
ter--
test--
th--
the--
time--
to--
tr--
trad--
tre--
tri--
tun--
tur--
u--
ue--
un--
uni--
up--
urdu--
use--
uti--
v--
ve--
ver--
verif--
vi--
vic--
vo--
vps--
w--
we--
wiki--
wil--
win--
x--
y--
z--
википе--
и--
ال--
خ--
سا--
ل--
م--
مس--
अ--
अव--
अश--
आइ--
आम--
आर--
इ--
इट--
ई--
उ--
उन--
ऊ--
ऍ--
ए--
एच--
एड--
एम--
एल--
एस--
ऐ--
ऑ--
ओ--
औ--
क--
कट--
कप--
कह--
ख--
खस--
ग--
गज--
गण--
घ--
घट--
ङ--
च--
चल--
छ--
ज--
जन--
जब--
जय--
झ--
ञ--
ट--
ठ--
ड--
ढ--
ण--
त--
तब--
थ--
थल--
द--
दर--
दल--
दश--
ध--
धन--
धर--
न--
प--
पन--
पर--
पल--
फ--
ब--
बम--
बर--
बल--
भ--
म--
मक--
मण--
मद--
मन--
य--
यक--
यण--
यन--
यब--
यम--
यव--
र--
रत--
रम--
रव--
रश--
रस--
रह--
ल--
व--
वन--
वर--
श--
ष--
स--
सम--
सर--
ह--
हन--
हर--
०--
१०--
११--
१२--
१३--
१४--
१५--
१६--
१७--
१८--
१९--
२०--
२६--
२७--
६--
ক--
চ--
জ--
ত--
ব--
ম--
র--
স--
க--
గ--
జ--
ద--
న--
వ--
--0
--1
--2
--3
--4
--5
--6
--7
--8
--9
--a
--ab
--ability
--act
--ae
--age
--ah
--ai
--al
--alism
--am
--an
--ance
--ang
--aries
--ary
--as
--ate
--ated
--ath
--ation
--ations
--ay
--b
--ba
--bad
--be
--bility
--ble
--c
--ce
--ch
--che
--cher
--cio
--ck
--ct
--cted
--d
--date
--de
--dom
--ds
--e
--ed
--ee
--ef
--ek
--ely
--en
--ent
--ep
--er
--eral
--eri
--ers
--es
--est
--et
--ever
--ew
--ey
--f
--ful
--g
--ga
--ge
--ger
--go
--gue
--h
--han
--hand
--hi
--hip
--i
--ia
--ial
--ian
--ians
--ic
--id
--ie
--ied
--ies
--il
--ily
--in
--ine
--ing
--ini
--init
--ins
--io
--ion
--ions
--ir
--is
--ise
--ism
--it
--ities
--ity
--ium
--ive
--ize
--ized
--j
--k
--ka
--kan
--ki
--l
--la
--label
--lar
--ld
--le
--li
--lin
--line
--ling
--link
--ll
--lm
--logy
--ls
--lt
--ly
--m
--ma
--ment
--mi
--mit
--mo
--n
--na
--name
--nce
--nd
--nda
--ne
--ness
--ng
--ni
--nia
--nium
--no
--ns
--nt
--nts
--o
--od
--of
--ok
--ology
--om
--on
--or
--ory
--os
--ot
--ous
--p
--pe
--pects
--ped
--phy
--platz
--q
--r
--ra
--ral
--rds
--re
--ri
--ria
--rium
--rk
--rs
--ry
--s
--sa
--se
--sel
--ses
--sh
--sium
--son
--ss
--st
--style
--t
--ta
--te
--ted
--ter
--th
--ti
--ting
--tion
--title
--tmp
--to
--ts
--tus
--ty
--u
--ue
--um
--ung
--uous
--up
--ur
--ure
--us
--ute
--v
--va
--ver
--ving
--vo
--w
--x
--y
--ya
--ys
--z
--za
--zz
--а
--и
--к
--ка
--ان
--ر
--عدة
--ل
--م
--ن
--इ
--ई
--उ
--ए
--ओ
--औ
--क
--कय
--ख
--ग
--गर
--घ
--ङ
--च
--चन
--चम
--छ
--ज
--ञ
--ट
--ठ
--ड
--ढ
--ण
--त
--थ
--द
--ध
--न
--प
--फ
--ब
--भ
--म
--मन
--य
--र
--ल
--व
--श
--स
--ह
--ऽन
--ऽय
--०
--००
--१
--२
--३
--४
--५
--६
--७
--८
--९
