!
"
#
##0
##1
##10
##11
##12
##13
##14
##15
##16
##17
##18
##19
##2
##20
##21
##22
##23
##24
##25
##26
##27
##28
##29
##3
##30
##31
##32
##33
##34
##35
##36
##37
##38
##39
##4
##40
##41
##42
##43
##44
##45
##46
##47
##48
##49
##5
##50
##51
##52
##53
##54
##55
##56
##57
##58
##59
##6
##60
##61
##62
##63
##64
##65
##66
##67
##68
##69
##7
##70
##71
##72
##73
##74
##75
##76
##77
##78
##79
##8
##80
##81
##82
##83
##84
##85
##86
##87
##88
##89
##9
##90
##91
##92
##93
##94
##95
##96
##97
##98
##99
$
%
&
'
(
)
*
+
,
-
.
/
0
00
000
002
005
007
01
011
016
02
020
025
03
030
032
035
038
04
040
041
05
050
051
057
06
060
07
070
08
080
086
09
090
098
1
10
100
1000
101
1012
102
103
104
105
106
107
108
109
11
110
111
1114
112
113
114
115
116
117
118
119
12
120
1200
121
122
123
124
125
126
127
128
129
13
130
131
132
133
134
135
136
137
138
139
14
140
141
142
143
144
145
146
147
148
149
15
150
1500
151
152
1524
153
154
155
156
157
158
159
16
160
161
162
163
164
165
166
167
168
169
1696
17
170
172
173
174
175
1754
176
177
178
1783
179
18
180
1809
181
1813
1821
1822
1825
183
184
1840
1841
185
186
187
1874
1879
188
1883
1884
1888
189
1890
1896
1898
1899
19
190
1900
1902
1903
1904
1905
1906
1907
1908
1909
191
1910
1912
1913
1914
1915
1916
1917
1918
1919
192
1920
1921
1922
1923
1924
1925
1926
1927
1928
1929
193
1930
1931
1932
1933
1934
1935
1936
1937
1938
1939
194
1940
1941
1942
1943
1944
1945
1946
1947
1948
1949
195
1950
1951
1952
1953
1954
1955
1956
1957
1958
1959
196
1960
1961
1962
1963
1964
1965
1966
1967
1968
1969
197
1970
1971
1972
1973
1974
1975
1976
1977
1978
1979
198
1980
1981
1982
1983
1984
1985
1986
1987
1988
1989
199
1990
1991
1992
1993
1994
1995
1996
1997
1998
1999
2
20
200
2000
20000
2001
2002
2003
2004
2005
2006
2007
2008
2009
201
2010
2011
2012
2013
2014
2015
2016
2017
2018
2019
202
2020
2021
2022
203
204
205
206
208
209
21
210
211
212
213
214
215
216
217
218
219
22
220
221
222
223
224
225
226
227
228
229
23
230
232
233
234
235
236
237
238
239
24
240
241
242
243
244
245
246
247
248
249
25
250
251
252
254
255
256
257
258
259
26
260
261
262
263
264
266
267
268
27
270
271
272
273
274
275
276
277
278
279
28
280
281
282
283
284
285
286
288
29
290
291
292
293
294
295
296
298
299
3
30
300
3000
301
302
303
304
306
307
308
309
31
310
312
313
314
316
317
318
319
32
320
321
322
323
326
327
328
329
33
330
331
332
333
334
335
337
338
339
34
340
341
342
344
347
348
349
35
350
351
352
354
355
357
358
359
36
360
362
363
364
367
368
37
370
371
373
374
375
376
377
378
379
38
380
383
384
385
386
387
388
389
39
390
391
392
394
395
396
397
398
399
4
40
400
401
402
403
404
406
407
408
41
410
412
413
414
415
419
42
420
421
423
424
425
427
43
430
433
435
436
437
438
44
440
442
443
446
45
450
451
452
459
46
460
462
463
467
468
469
47
470
474
48
480
484
485
487
489
49
493
495
498
499
5
50
500
501
506
507
508
51
510
511
512
515
516
517
518
52
520
521
523
524
526
527
528
53
530
533
537
538
54
540
541
542
543
544
55
550
553
556
56
560
562
569
57
575
577
578
579
58
580
581
583
585
586
59
590
592
593
594
596
597
598
6
60
600
6000
602
604
61
610
611
616
62
620
622
625
627
63
630
632
633
637
64
640
644
648
649
65
650
655
66
666
667
67
670
671
68
680
685
687
69
690
692
699
7
70
700
702
704
705
706
709
71
710
711
716
717
718
72
720
721
727
728
73
730
733
734
738
74
740
741
743
747
75
750
751
757
758
759
76
760
765
768
77
770
776
78
780
781
782
787
788
79
791
799
8
80
800
801
802
803
81
812
816
817
82
820
821
823
824
825
828
83
830
831
838
84
841
845
85
857
86
861
862
863
864
865
87
870
871
872
874
875
88
882
883
884
89
890
891
896
9
90
900
908
91
910
912
915
92
920
921
923
924
93
930
94
943
95
958
96
960
961
964
966
968
969
97
970
98
980
984
99
995
998
:
;
<
=
>
?
@
\
^
_
`
a
aa
aaa
aapaniya
aaron
aatawl
aba
abaw
abax
abbott
abbr
abc
abdel
abdelaziz
abdrabbuh
abdul
abdulla
abdullah
abel
abi
abl
able
about
above
abovebelow
aboveclass
abovestyle
abow
abraham
abrahams
abramovic
abrines
abtahi
abu
abuhan
abura
ac
academy
acc
according
aci
acker
ackerman
ackles
acovone
action
actor
actors
actual
actually
acun
acy
ad
adam
adama
adamas
adams
add
addabbo
addclass
added
addnewline
addo
addrow
adds
addtablerow
adebimpe
adetuman
adiri
adkins
adler
adomian
adrien
adsit
afa
afflalo
affleck
afghanistan
afih
africa
african
after
afuhan
afwerki
agal
agan
agar
agee
ageq
ager
agim
agnew
agong
aha
ahearn
ahmad
ahmadzai
ahmed
ahn
ai
aiello
aiken
ainge
aitch
aitken
ajaye
ajinc
ak
akayefu
aki
akihito
akin
akinnagbe
akins
aknting
akntiy
akognon
akufo
akya
al
ala
alabama
alaimo
alam
alan
alang
alaniz
alapanay
alapawan
alapo
alarie
alassane
alax
alazraqui
albania
albert
alberta
albertson
albright
albrizzi
alcaide
alcondez
alda
aldemir
aldrich
alejandro
aleksande
aleong
ales
alex
alexander
alexis
alford
algeria
ali
alias
aliases
align
alistito
aliyas
aliyev
aljungic
all
allan
alldone
allen
alliance
allinson
allison
allman
allowed
allows
allport
allred
almazbek
almeida
almond
alolong
alpaniya
alper
alpha
already
alrpisan
also
alston
alt
altman
alto
alu
alup
aluw
aluwa
alvarez
always
alyn
amaechi
amaya
amboyer
ameche
ameenah
amelika
america
american
amerika
ames
amini
amintobu
aminu
amir
amirik
amirika
amis
amos
amount
amplas
an
ana
anaga
anak
anan
anasolay
anastasiades
anay
ancoh
and
anderegg
anders
andersen
anderson
andes
andorra
andray
andre
andrej
andrew
andrews
andris
andrzej
ang
angarano
angcoh
angel
angeles
angkla
ango
angtika
ani
anielak
anifong
aniwan
anka
ankla
ankola
anli
anna
annable
annan
anne
anoa
anoh
another
ansara
ansari
ant
antaw
anteng
antetokounmpo
anthony
antigua
antis
anton
antonio
antony
anux
anxan
any
anything
ao
aoun
apal
apan
apapuro
apatow
apfel
apisan
appearing
appelman
applegate
applies
appropriate
april
apuhayrl
apuk
aqu
ar
ara
arab
arabia
arapo
aras
arbuckle
arbus
archange
archer
archibald
ard
arden
are
area
arenberg
arend
arg
argentina
argenziano
argindex
argnameandrealtitlearedifferent
args
argskey
argsv
argtables
argtableval
argument
arguments
ari
arias
aring
arisan
arison
arizona
arkansas
arkin
arledge
arlen
armenia
armetta
armisen
armitage
arms
armstrong
arnaz
arness
arnett
arnold
arnzen
aron
arquette
arr
arrants
array
arroyo
art
arthur
article
articles
artist
artitle
aruciriya
arumi
as
asa
asan
asanti
asey
ashraf
asi
asik
asiroay
asiya
ask
assad
assembleoutput
assign
associated
association
assume
asun
at
atambayev
atayal
atayan
atha
athletic
atlanta
atolan
atomo
atonan
attles
attr
attributes
atu
atuk
atuw
aty
au
augustin
austin
austing
australia
australian
austria
auto
available
avent
averitt
avery
avoid
avus
aw
award
awards
awco
awi
awitiri
awlipik
awlipiko
awmen
awmenpantaw
awpan
awpu
awsa
awska
awsyutiko
awtaliya
awtili
awtincya
awtiri
awzyuhuy
ay
aya
ayad
ayang
ayci
aymala
aymalc
aymaran
aymirl
aynoko
ayra
ays
aysaniya
ayupu
az
azati
azerbaijan
aziya
aziz
b
ba
baa
baba
babau
babaw
babay
babb
babo
babow
babwa
bachelet
bacingul
back
background
backtranslate
bacon
bad
bagah
bagal
bagan
bago
bah
baha
bahamas
bahat
bahrain
bai
bailey
bairstow
baker
bakir
bako
baku
bakurang
bala
balance
balaq
balat
balaw
balay
baldwin
baley
bali
balin
baliq
baliy
ball
ballet
balloon
balq
baltimore
balung
baly
bananarama
banaw
bang
bangaladesh
banggo
bangladesh
bango
banks
banner
banrong
banun
baq
baqaw
baqi
baqiy
baqun
bar
barbados
barbara
barbuda
bariy
barker
barkley
barksdale
barnes
barnett
barnhill
baron
barr
barrett
barron
barros
barrow
barry
barrymore
basestyle
bashar
bashir
basketball
bass
basu
basun
batbato
bates
bato
battle
batu
batul
batum
bawiq
bay
baybuzyuq
baybway
bayhuy
bayi
baynes
bays
bayu
baz
bazing
bbaliq
bbaqun
bbiran
bbiru
bblaq
bblhuy
bbnaqi
bbnkis
bbrwan
bbtunux
bbu
bbwan
bbzinah
bbziran
bc
bce
bcilung
bcyun
be
beach
beal
beard
beasley
bebway
because
beck
becker
becomes
bedell
been
before
beh
behaviour
behuy
beinan
being
beirut
beji
belarus
belgium
belize
bell
bellen
below
belowclass
belowstyle
belushi
ben
bender
benin
benjamin
benko
bennett
benoit
benson
bentil
benux
beqnux
berce
berdimuhamedow
beretta
berger
berry
berta
bes
best
bestval
beta
betunux
between
beverly
bgan
bgayaw
bgsyaw
bgurah
bgzil
bhacing
bhandari
bhci
bhi
bhlan
bhoyow
bhuniq
bhutan
bhuyow
bi
bianchi
bibby
bicyu
bidhya
biedrin
bielke
bigelow
biggs
bih
bikgan
bill
billboard
billups
billy
bilus
bin
bina
binah
binbahuw
bincyogan
bincyogun
bing
bingtaw
binh
binha
binheci
binhlan
binkesan
binkgan
binkisan
binnrwan
binrwan
binyaqan
binzyagan
biq
biqan
biqi
biqiy
bird
biri
biru
bishop
bismack
bissau
bisuw
bisya
biya
biyombo
biyux
bk
bkgan
bkis
bkisan
bkuy
black
blacklist
blacklisted
blacklisting
blackwell
blak
blake
blalock
blan
blangaw
blank
blaq
blatche
blay
blazers
ble
bleqaw
bleqi
blequn
blerim
bley
blhuy
blihul
blihun
bling
bliy
block
blocks
blount
blue
blues
bluku
blun
blurb
bnaqi
bnaqiy
bnay
bngciq
bngwan
bnheci
bniks
bniq
bniru
bnka
bnkis
bnkisan
bnran
bnrwan
bnux
bnwan
bo
bob
bobby
bockhorn
body
bodyclass
bodystyle
bogdanovic
bogues
bogut
bojan
bokusi
bold
boliq
bolivia
bolkiah
bologna
bolstorff
bonaw
bond
bongbong
bongo
bonner
bonniwell
booker
boolean
boone
booth
boozer
borchardt
border
borderischild
borut
bosh
bosnia
boston
boswell
botan
botangsya
both
botswana
bottom
boubacar
boudreau
boumtje
bounnhang
bouteflika
bouterse
boven
bowdler
bowen
bowie
bowling
bowman
box
boy
boyce
boyd
boykins
bqanux
bqbaqiy
bqni
brackets
bradds
bradley
brahim
bramlett
branaw
branch
brandon
brandonqaniy
brannum
braun
brazil
brbal
brbiru
break
brennan
brent
brewer
brian
brightman
british
britt
britton
bronx
brooklyn
brooks
brother
brown
bruce
brunei
bsilung
bslung
bsngan
bsuring
bsya
bsyaq
bsyaw
bsyawan
bsyowan
btakan
btaqan
btiyux
btunux
bu
bubu
bubun
bucks
budd
buddhism
buffer
buffhtml
bugun
buhari
build
builder
built
bujar
bujumbura
bukai
bukeykay
bukil
buklavu
bul
bulbul
bulgaria
bulit
bullets
bullion
bulls
bun
buner
bung
bunge
bunka
bunun
buq
buqul
buri
burkhalter
burkina
burma
burundi
busi
but
buta
butay
butch
buwan
buyun
buzyan
bwan
bwarung
bwax
bway
bwey
by
byacin
byacing
byagan
byaling
byan
byaqan
byaqanq
byaqun
byating
byori
byron
byte
byu
bzinah
bziran
bzirun
bzngah
bzngi
bzyacing
bzyagan
bzyok
bzyoq
bzyuwak
c
ca
cache
cadillac
caid
cal
calasiv
calavi
calay
calendarmodel
california
call
called
cambodia
cameron
can
canada
cang
cangsyeylyang
cani
canpisi
caption
captionstyle
capture
carapongay
cardinal
caribbean
carl
carlos
carmen
carolina
cartes
carvalho
case
cases
castro
cat
categories
category
catp
cats
cavak
cavaliers
cavs
cawcya
cawi
cay
cayamavana
cba
cbaqan
cc
ccaatteeggoorryy
ccat
ccquliq
cd
cdate
cealalupalantdlu
cedric
cehuy
ceko
cell
cellspacing
celtics
centan
center
central
century
cere
ceroh
cfg
cfgkey
chad
chamberlain
champion
championship
change
char
characters
charles
charlie
charlotte
check
checkfunc
checkhavechild
checktype
checktypemulti
checkvalue
chenggong
chet
chicago
child
childcontext
chile
china
chingan
chishang
chittagong
chn
chris
christian
christina
christopher
chuck
chucky
chui
chun
ci
cia
ciamengan
ciataw
cibao
cibarbaran
cibwanan
cicala
cici
cicin
cidatayay
cifuros
cihafayan
cihak
cihakay
cihalaay
cika
cikadaan
cikasuwan
cikay
cikeliwan
cikep
cikey
cikowa
ciku
cikuto
cikuy
cilafinan
cilakesay
cilalongay
cilamitay
cilapuk
ciliksay
cilo
cilpuw
cimtman
cimu
cin
cinaw
cinbaqan
cinbawnan
cinbcyan
cinbulan
cinbuxan
cinbuyux
cinbwanan
cincanghanko
cinci
cincinnati
cincungye
cinemnemay
cineya
cineyapiso
cinfu
cingan
cingaroan
cingasal
cingay
cinhikan
cinhmut
cinkenli
cinkhulan
cinklgan
cinkong
cinkrugan
cinkura
cinlalu
cinlangan
cinlingan
cinllwan
cinmi
cinminmon
cinmmyan
cinmuyaw
cinmuzyaw
cinngasal
cinpuqing
cinputan
cinqalang
cinqlangan
cinqqulih
cinqs
cinqsu
cinrhyal
cinrhzyal
cinringan
cinringang
cinrngan
cinsali
cinsbu
cinsoken
cintan
cinthken
cintma
cintman
cintqalang
cinun
cinza
cinzay
cinzsen
cinzzen
cipaq
cipawkan
cipeci
cipok
cipoq
cipuq
cipuqing
cipurungan
cipuwa
cipuypuyan
ciq
cirakayan
cirakesay
cirarokohay
ciripunan
ciriq
cirlcis
cirocan
cis
cisal
cisan
ciszawsin
citekudan
citing
citman
cito
citu
citucyaw
citutu
citutuw
city
ciupus
ciusinlun
ciwal
ciwas
ciwcia
ciwcya
ciwidiyan
ciwkangan
ciyakang
ciyibangcalay
cj
cjk
cka
ckaw
cla
claim
class
classes
claude
clean
clear
cleveland
cli
cliff
cls
club
cm
cmi
cminun
cmruw
cmyus
cn
cnloman
cnpngan
cnpuying
cnrux
cntman
cnyan
co
coco
code
codepoint
coit
col
colbodytr
cole
coleiro
colfooterkey
colheaderkey
colkey
collapse
collapsible
collapsiblelistrow
college
coln
colncell
colnfooter
colnheader
colnum
color
colorado
colrow
colspan
columbia
columbus
com
combination
comma
command
commons
commonsmedia
commonswiki
companion
compare
comparedisplay
comparelink
compareurl
compatibility
complex
compresssparsearray
con
concat
conde
conference
configuration
congo
congri
conjunction
connecticut
container
containing
contains
content
contenteqlist
contenthavechild
contentmodel
contenttitle
context
contextkey
control
conv
convert
cooper
coords
copy
corbin
corey
coronavirus
correa
corresponding
cory
costa
costello
cou
could
count
counter
country
course
covid
cow
cp
cpngan
cpung
cqa
cqani
cquliq
cqunun
cra
craig
create
createicon
createlink
createnavtableheader
cris
croatia
crop
cropped
crown
crux
cska
css
csstext
csu
cu
cuba
cui
cukuto
culiu
cun
cunbwanan
cunfe
cung
cungko
cunhangminko
cunhwaminko
cunhwazeminkunghko
cunhwazimin
cunhwazinmin
cunhwazinminlinhayan
cuniyung
cunko
cunkozinmin
cunli
cunmeco
cuno
cunsin
cuntung
cunyang
current
currenttitle
curtis
cuyi
cwans
cya
cyacing
cyalpi
cyalpihay
cyama
cyame
cyamin
cyan
cyana
cyanata
cyang
cyangce
cyasi
cyaw
cyawala
cyo
cyocuy
cyoli
cyoro
cyorokay
cyosa
cyprus
cyrus
cyu
cyuga
cyugak
cyugal
cyugan
cyugl
cyukamingkok
cyuko
cyukok
cyun
cyung
cyunga
cyusing
cyuw
cyux
czech
d
da
dacko
dadowacen
dai
daigaz
dakus
dalah
dalia
dallas
damascus
damayan
damone
dan
dana
danadanaw
dance
daniel
danilo
danny
darrell
darren
daryl
data
dataa
datab
datac
datacell
dataid
datastyle
datatype
datavalue
date
dauqpusan
dave
david
davugele
dawu
daya
dd
de
deal
deals
dean
debug
debuglog
dec
decat
decimal
decimalprecision
decimaltodms
decode
deepcopy
deer
default
defaults
define
defval
degree
del
democratic
denis
denmark
dennis
denver
depend
dependargname
dependencies
depending
dependsuffix
dependvalue
deprecated
der
derrick
des
desc
description
desi
destani
detected
detroit
development
devi
devin
df
dhaka
di
diaperpro
dick
did
didier
diego
diff
different
dihekoay
dikidiki
dinkam
dipit
directly
disp
display
displayed
displays
div
djelunavunavuk
djineljepan
djumulj
dl
do
doc
docname
docpage
docpagebase
docs
docspace
doctitle
documentation
dodon
does
doesn
dominica
dominican
don
donald
done
donepairs
donkuan
donnie
donotlink
dorama
dos
doug
dowmung
dowras
dprec
dragan
draki
dralendren
dramane
drekai
drita
dt
dtxt
dtype
duda
dudley
duplicate
duterte
dv
dwight
dyke
e
each
earl
ecin
ecuador
ed
eddie
edgar
ediq
edirne
edit
editlink
editonwikidata
editors
editsection
edmund
eduardo
edward
efi
efong
ega
ego
egypt
eh
eid
either
eki
el
elang
elbegdorj
element
elizabeth
ellen
elmer
else
elseif
em
emil
emirates
emjay
emmanuel
emomali
empty
emptycell
en
end
endbox
ended
eng
engi
english
enric
enrique
entity
entityid
env
envfuncs
environment
enwiki
eq
equal
equatorial
equivalent
erdog
eric
eritrea
ernest
ernie
error
errors
ers
es
escapebrackets
essebsi
estonia
etc
ethiopia
etolan
euro
euroleague
europe
european
ev
evaristo
even
evenodd
evenoddstyle
evo
example
exceptions
exist
existing
exists
expandtemplate
expected
expecttype
experiment
exponential
extension
external
eziputo
f
fa
factor
fafokod
fahol
failing
fajardo
fako
fakong
falangaw
fallback
false
fame
family
famname
fan
fanaw
fang
fangafangasan
fans
far
fargs
farouq
faso
faster
fata
fatima
fattah
faure
faustin
fayez
fb
fbtbl
fdate
fdfdfd
february
feco
felipe
felipin
fengbin
fenglin
fenici
ferna
fernando
ferocya
festival
fetchwikidata
ff
field
fieldname
fields
fiji
file
filespace
filip
filipe
filter
final
finals
find
findlang
finds
finland
first
fiu
fixchildboxes
flag
flags
flex
float
floor
florida
fmt
folalacay
fold
following
font
fontstyle
foo
footer
footerncell
footertr
for
force
forces
fordham
foreach
forest
form
format
formats
formatted
fort
forwards
found
four
fox
frame
frameless
frameonly
franc
france
francisco
frank
franklin
frankston
frans
franse
frashe
frd
fred
french
from
fuad
fuc
fudafudak
fuk
fukid
fula
fuli
full
fullurl
fullwidth
fulufuluan
fun
func
funcname
function
functionbuilder
functions
furans
furkan
fusan
fuxing
fwd
g
ga
gabon
gac
gadu
gag
gaga
gage
gak
gako
gakoka
gaku
galan
galang
galaun
gali
galiy
galun
galung
gam
gamaki
gambia
game
games
gamil
gan
gang
gani
gap
gaqutux
garing
gary
gas
gasolin
gasoring
gat
gatu
gaw
gawgan
gawng
gaygawng
gaygbyan
gaygyut
gbayang
gbenga
gbyan
gdp
geingob
geki
geloh
gencumincoku
gene
generate
generated
generates
genhe
genzyumin
genzyuminrok
geoffrey
george
georgetown
georgia
gerald
germany
get
getabovebelowcolspan
getallstatements
getarg
getargnums
getargs
getbeststatements
getcommonslink
getcontentlanguage
getcurrentframe
getcurrenttitle
getentityidforcurrentpage
getenvironment
getitemlangcode
getiteratortriplet
getlabelbylang
getlistnum
getmetatable
getmodulewikitext
getparent
gets
getsitelink
getsumofparts
gettitle
gettrackingcategories
getvalidtype
getvalue
getvaluebylang
getvaluebyqual
gfuncs
ggalan
ggalang
ggluw
ggwahan
ghali
ghana
ghani
ghap
ghyaq
ghzyaq
ghzyq
gi
gibul
giin
gikay
giko
gimu
ginbahan
ginbang
ginkgan
ginko
ginlgan
ginlhuyan
ginnbang
ginnoyaw
ginpawngan
ginyagan
giorgi
gipun
gipung
giqas
giran
girang
gisu
gita
given
giwal
giwan
giway
giy
giyut
gizi
gizit
gje
gjorge
glabang
glagan
glahang
glaing
glang
glen
gleng
glenn
glgan
glgang
glgiy
glgun
globalsiteid
globe
globeid
glu
gluban
gluw
gmatch
gmawzyaw
gmhap
gmisa
gmleng
gmlu
gmluw
gmnaw
gmoyaw
gmwayaw
gmwayow
gnaalu
gnalan
gnassingbe
gngayan
gni
gnisa
gnlgan
gnmilan
gnwayaw
gnwayow
gnwazyaw
go
gocyu
gogan
goho
gohogo
gohuga
gohugo
gokosyo
gold
golden
gong
got
government
gowryu
gpho
gphogo
gq
grabar
grammy
gramu
grandchild
granger
grant
gray
greatest
greece
green
greenland
greg
grizzlies
group
groupcell
groupclass
groupstyle
groupwidth
grybauskaite
gsub
gu
guangfu
guatemala
guguc
guillermo
guinea
gukut
guqoh
guquh
gurbanguly
gurib
guru
gustaf
guyana
gwagi
gwagiq
gwagiy
gwahan
gyahan
gyax
gyencumin
gyose
gyoseing
gyus
gyut
gyutun
gzil
gzyut
h
ha
haboeh
habuk
haca
haci
haciliwan
hacining
hacisya
hacisyo
had
hadi
haga
hagaparis
hage
haising
haiti
haitutuan
haji
hakaba
hakase
hal
hala
halan
halay
halili
hall
halus
halusipun
hamad
hamicho
hamid
hamilton
han
hanbizan
hang
hangse
hangul
hani
hank
hanko
hanli
hanpantaw
hans
hansin
hant
hantay
hanz
hanzen
hapyo
harald
harawan
harold
harry
haruhi
harvard
has
hasake
hasakecu
hasbackgroundcolors
hashim
hasisyo
hassan
hassanal
hata
hatay
have
havechild
haw
hawa
hawks
hawmi
hawngu
hawqan
hawsing
hay
hayal
hayan
haycun
hayhi
hayi
haylaw
hayli
haynasun
hayti
hayung
hayyo
hayzyu
hazi
haziy
hbk
hbkgan
hbku
hbun
hbuyaw
he
header
headerclass
headerid
headerncell
headerstyle
headertr
heading
headingstyle
heads
heat
hebang
heci
height
hekil
hekin
heking
heku
helaw
helow
henas
henri
henry
her
herbert
herder
here
herna
hery
herzegovina
hetay
heto
hga
hgci
hgtan
hh
hhalan
hhazi
hhlahuy
hhlauy
hhngawan
hhtgan
hi
hide
higgins
high
higher
highest
hikasiki
hikoki
hills
himoti
hinduism
hinkangi
hinqelang
hinqilan
hinriqan
hintagan
hintgan
hiriqan
his
history
historylink
hitay
hitaypayan
hitgan
hitocbo
hiya
hiyal
hiyan
hkangi
hkani
hkawan
hkin
hkngyan
hkuy
hla
hlahuy
hlapaw
hlaqi
hlaqiy
hlawan
hlhul
hlhun
hlist
hlxun
hma
hmali
hmawku
hmbku
hmci
hmenas
hmgiru
hminas
hmiri
hmiriq
hmit
hmkangi
hmkuw
hmkuy
hmngu
hmol
hmor
hmriq
hmswa
hmtiy
hmtuy
hmuluy
hmut
hmyapas
hmzinas
hn
hnasun
hnawran
hngagan
hngaw
hngawan
hngawang
hngiyang
hngwan
hngya
hngyaan
hngyang
hngzyang
hnkuy
hnuqil
hnway
hnyasun
hogal
hogan
hoin
hoing
hoinng
hoki
hoku
holang
holi
holit
hollande
hollywood
honduras
hong
hongu
hop
hopa
hopana
hoping
hopo
hoqan
horacio
hori
horip
horit
horizontal
hornets
hororok
hosay
hosing
hot
house
houston
how
howak
howard
hoyaw
hozil
hrhul
hriqun
hru
hrung
hruw
hsaykwema
hsaykwena
ht
htagan
htay
htgal
htgan
htgang
htgun
htin
html
htqan
http
https
htuw
htux
htuy
hu
hualien
hucaw
hugal
hugan
huge
hugh
huk
hungary
hunhungaz
huntulas
hupa
hupaw
hupu
huqil
husida
hussain
hussein
huyay
hwa
hwan
hwang
hwatieru
hwe
hwinuk
hy
hya
hyaga
hyal
hyan
hyaq
hyo
hyupan
hzyaq
i
ia
ian
iaz
ibrahim
ibuh
iceland
ici
iciban
icibang
icon
id
ideograph
ideographic
idriss
ids
idx
if
iga
ignoreblank
ignored
igor
ih
ihi
ihownang
ihu
ihwe
ii
iii
iingkay
ik
ikbu
ikekami
ikisya
ilan
ilausan
ilham
ilis
illinois
ima
image
imageclass
imageleft
imagenums
imagerowclass
imagestyle
imaorod
imaw
imi
implement
implemented
implements
in
ina
inarray
inblaq
inblayqun
inblequn
inbuyan
inbyaqan
includemetatable
index
indexed
india
indiana
indigenous
indonesia
indu
infobox
information
ing
ingalan
ingkay
inhtml
ini
ining
iniptnaq
init
initial
inkang
inkhulan
inko
inkyasan
inli
inline
inllungan
inlugan
inlungan
inlungang
innagan
innaras
innglung
ino
inowe
inoyi
input
inputvalues
inrasan
inringan
inrkyasan
insa
insert
inside
inst
instance
instead
instid
institute
insuna
integer
intended
inter
international
intian
intianini
into
intu
intunisiya
intuw
intuyang
inu
inuwe
invalid
invariant
invoke
inxalan
inyanux
iohannis
ip
ipa
ipairs
ipantekina
ipulasin
ipun
ira
iran
iranmeylek
iraq
iraraley
iratay
ireland
iro
irv
is
isa
isaetipan
isaias
isawalian
iserek
isfirst
isingan
islabel
islan
island
islang
islangcaw
islangcyaw
islangcyuaw
isn
isnan
isnotempty
isodd
isopiya
ispaniawlataw
ispanniya
israel
israyru
issoufou
isu
it
ita
itali
italian
italic
italictitle
italy
item
itemid
items
iter
iterable
iterate
iterator
its
iv
ivalino
ivanov
ivoire
iwan
iy
iya
iyal
iyan
iyat
iyik
iyil
iyt
iyu
iyugan
iyugun
iyung
iyuw
izetbegovic
izukan
izyat
izzaddin
j
ja
jaber
jack
jackman
jackson
jacob
jake
jamaica
james
jan
january
jason
jay
jays
jazz
jeff
jennifer
jensen
jerome
jerry
jersey
jesse
ji
jigme
jim
jimmy
jinping
jo
joan
joaquim
joe
joel
john
johnny
johnson
join
joinnode
joko
jon
jonathan
jong
jonis
jordan
jose
joseph
josh
jovenel
jpeg
jpg
jr
juan
judd
julian
just
justin
k
ka
kaaluan
kaba
kabalelradhane
kabila
kabore
kacedas
kacing
kaehkaba
kafe
kagame
kagi
kahaehaeoan
kahat
kahciday
kahkahoe
kahul
kahun
kaidi
kainisungan
kaka
kakawasan
kakay
kakey
kaki
kako
kal
kalahaay
kalala
kalaluran
kalam
kalamazoo
kalan
kalang
kalatadrang
kalibuan
kalifangar
kalisahan
kalito
kaliyawan
kaljulaid
kalokapuk
kalotong
kaluluwan
kalʉvʉnga
kamcing
kamila
kaminu
kamisatu
kamok
kamuk
kana
kanadun
kanahcian
kanailil
kanakanabu
kanaluk
kanao
kang
kangko
kangli
kani
kanian
kanko
kankomincu
kano
kanpiya
kansai
kansas
kapanan
kape
kapila
kara
karamemedesane
kari
karing
karlfu
karoroan
karow
kasa
kasavakan
kasuga
katanka
katatipul
kathmandu
katimala
kaviyangan
kawa
kawabata
kawaliwali
kawas
kaway
kawbu
kawlyang
kawra
kaws
kawsa
kay
kayak
kayal
kayan
kaybat
kaygi
kaygun
kaykay
kaykuwi
kaylaniy
kayu
kayway
kayyana
kazakhstan
kazangiljan
kb
kba
kbabow
kbalay
kbaley
kbaqeh
kbawiq
kbhu
kbhul
kbhulru
kbhun
kbhuzyun
kbibing
kblaq
kblayan
kblayu
kblayun
kblazyu
kblazyun
kbolung
kbsaq
kbsyaq
kbsyq
kcyuyacu
kdusan
ke
kebalan
keci
keeporiginalkeys
kei
keith
kekak
kekaq
kekong
kele
keli
kelinlang
kemp
ken
kenakli
keng
kengri
kenkyu
kenli
kenny
kenri
kent
kentucky
kenuy
kenya
kenyata
kenyatta
kepute
keri
kersti
keruma
kesacu
kesan
ketafe
ketak
ketilela
kevin
kewete
kexuy
key
keyak
keyaq
keys
kezay
kg
kgi
kgiran
kgiy
kgogan
khalifa
khama
khang
khangan
khaw
khesar
khiyaq
khmay
khmey
khokung
khoni
khopa
khpan
khtuy
khu
khuw
khuyan
khuzyan
ki
kian
kibahan
kihangan
kihmayan
kihopa
kiir
kikay
kiku
kil
kilabang
kilgal
kilinhkong
kilux
kilwagiq
kim
kimhgan
kin
kinanoka
kinayiman
kinbahan
kinbalay
kinbaq
kinbaqan
kinbaxan
kinbbaqan
kinbhci
kinbhgan
kinbkaysan
kinbkesan
kinbkisan
kinblaq
kinblay
kinblayan
kinblayqan
kinbleqan
kincingay
kinder
kineng
king
kinga
kingahul
kingbong
kingdalruwane
kingdom
kinghciyan
kinghyan
kinglabang
kingpay
kings
kingwagiq
kinhakul
kinhangan
kinhbci
kinhbuzyu
kinhbuzyun
kinhgcyan
kinhlagan
kinhmay
kinhmayan
kinhmgan
kinholan
kinhopa
kinhoyan
kinhrhur
kinhulan
kinilukuljan
kining
kinita
kinkhmay
kinkhmayan
kinki
kinkilux
kinklux
kinkrahu
kinkwara
kinlabang
kinlahang
kinlhang
kinlhangan
kinlhngat
kinluh
kinmhgan
kinmkilux
kinmuci
kinnahang
kinnal
kinnalay
kinnian
kinnita
kinnraw
kinnta
kinpay
kinpzyux
kinqbaqan
kinqruyux
kinqruzyux
kinqryuzyux
kinramat
kinraral
kinri
kinrrngu
kinryasan
kinryax
kinsat
kinshasa
kinshat
kinsraral
kinsuxan
kinsyugan
kint
kinta
kintan
kintehuk
kinthkan
kinthken
kinthuk
kintken
kintl
kintwahiq
kintzyux
kinulane
kinus
kinwagiq
kinwaqiq
kinwhci
kinwiqan
kinyawpan
kinz
kipu
kira
kiring
kiristo
kirk
kiro
kirok
kiruk
kisat
kiska
kisraral
kisya
kit
kita
kitarovic
kite
kiwagiq
kiwiqan
kiwit
kiy
kiya
kiyan
kiyumi
kk
kkayal
kkbalay
kki
kkian
kkilux
kklahang
kklbu
kklhan
kknayril
kkneril
kkska
kktan
kkumay
kkut
kkwara
kkyalan
kkyalang
kkyan
klabang
klahang
klahng
klang
klapay
klaus
klayan
klayun
klesan
klhang
klhangan
klhangang
klhun
kli
kling
klkah
kloaysiya
kloh
klokah
kluh
klunpu
km
kmahang
kmal
kmalay
kman
kmayal
kmayan
kmhgan
kmhhiku
kmihuy
kmkgiy
kmloh
kmon
kmraw
kmsya
kmucun
kmukan
kmun
kmut
kmuyaw
kmuyow
kmyap
kmyat
knahul
knahun
knaki
knal
knalay
knaley
knatan
knayal
knayan
knayril
knazi
knaziy
knba
knblayan
knbung
kneril
knerin
kngungu
knhangan
knhulan
kni
knicks
knita
knkahan
knkyan
knlaxan
knlibu
knloh
known
knownflag
knrrngu
knus
knwan
ko
koba
kobah
kobu
koci
kocicisang
kocyuw
kodic
kofan
kofang
kofuku
kogik
kohwe
koka
kokak
koki
kokka
koko
kokumin
kokuming
kokumito
kokurit
kolado
koli
kolinda
komin
kominginko
kominihwe
kon
kong
kongbu
kongc
kongko
kongli
konglu
kongmin
kongri
kongs
kongyang
kongyeun
kongyuanng
kongyun
kongz
konli
konluw
konrote
kons
kontay
konying
konyun
konz
kopu
kore
korea
kori
korinto
koro
koroma
kosdaq
kosi
kosiy
kosovo
kotas
kotaw
kowang
koyen
koyeng
koyo
kozyo
kperay
kpiyux
kpzyux
kr
kragan
kragi
krahu
krahuw
krakis
kramay
kraya
krayas
krayryax
krhu
kriflan
krryax
krtung
kruma
kryanan
kryax
kryaxan
ksa
ksipa
kska
ksli
ksobih
ksreng
kstalicya
ksu
ksunu
ksxun
ksya
ksyax
ksyuw
kta
ktalan
ktan
ktay
ktayux
ktonun
ku
kua
kuabar
kuang
kuangka
kuba
kucapungane
kuczynski
kudrengere
kugri
kuki
kukung
kuli
kuljaljau
kulu
kuluk
kumay
kumi
kun
kuna
kunbun
kung
kungadavane
kungkung
kungyan
kuni
kunitaro
kunkin
kunli
kunpa
kunuan
kupa
kupi
kura
kurisimas
kurllang
kurti
kus
kusa
kusunuki
kutan
kutun
kuwait
kuwali
kuwara
kuxan
kwa
kwagiq
kwalani
kwali
kwan
kwanci
kwang
kwangco
kwansi
kwara
kwarakya
kwas
kwatimala
kwato
kwe
kweyana
kwiqan
kwra
kya
kyahu
kyahuw
kyakay
kyaku
kyal
kyala
kyalaw
kyalun
kyan
kyapun
kyapung
kyaw
kyawal
kyeng
kyo
kyoik
kyoikbu
kyoikbucyo
kyokay
kyokya
kyopan
kyopang
kyoreng
kyoyibu
kyrgyzstan
kyu
kyupan
kyusanto
kznga
kzyan
kzyaw
kzyay
kzzik
l
la
labah
labang
label
labelid
labelorid
labelstyle
labing
labuwan
lacihakan
laeno
laert
laga
laha
lahan
lahaw
lahi
lahuy
laidazuan
lainla
laiyi
lake
lakers
lalauran
lalauya
lalekeleke
laliavan
lalu
lalumaang
lama
lamu
lamuan
lan
lananu
lance
laney
lang
langas
langcode
langlabel
langobj
langsasna
langu
language
languages
langun
languw
lanka
lanngdun
laos
lapas
lapulata
laqi
laqiq
laqux
larepaq
laro
larry
laso
last
lastheader
lasthtml
lasutan
lat
late
later
latestdatequalifier
latimeco
latoweya
latvia
laulauzan
lavulan
law
lawa
lawkah
lawn
lawqi
lawsayan
lawzi
lawziy
laxan
laxi
laxiy
lay
layan
laygi
layin
laylaqi
laypizweya
laysoto
lazily
lba
lbl
leading
league
lebanon
lebron
lee
left
lekeyaweke
lela
lelaqi
lemiyau
lemon
lemonto
length
lenhko
leo
leon
leone
lesa
lesotho
leste
letsie
leung
level
lewis
lex
lga
lgan
lgyah
lha
lhbaw
lhga
lhingan
lhlahuy
lhmiq
lhngan
lhoyan
lhuyan
lhyal
lhyan
li
lia
liam
liberia
libraryutil
libu
libya
licya
lidaw
liechtenstein
lietuva
lifante
lihoyan
lihuy
lihuyan
likau
likavung
like
likong
likuy
lilang
limit
limuk
lin
linahuy
linda
line
lingacay
lingay
lingpang
linhko
linhkong
linhloyan
linhoyal
linhoyan
linhoyang
linhoyansa
linhpyan
linhuyan
linhyan
link
linkbox
linked
linkedid
linkeditem
linkprefix
links
linksdata
linmon
linpan
linpang
linpgan
linyoyan
lionel
lipanan
lipanen
lipi
lipiya
lipoli
list
listcell
listclass
listclasses
listhavechild
listkeyname
listnum
listnums
listpadding
listrow
lists
liststyle
listtoset
lisuw
litaw
litawwan
lithuania
little
litu
liyawwan
lk
lkbuta
lkmayan
lkmbuta
lkmyabuh
lkotas
lkuxan
lkyux
ll
lla
llahuy
llalu
llamu
llangu
llaqi
llaw
llgan
llingay
llkus
llmu
llow
lloyd
llpyung
llukus
llung
llwan
llyun
llyung
llyuw
lma
lmahang
lmahing
lmaqux
lmeliq
lmga
lmiquy
lmnglung
lmon
lmosay
lmpuw
lmruw
lmuhing
lmuhuw
lmwan
lmyun
lnglingay
lo
loaddata
loaded
loader
local
locally
localval
location
locations
locyang
log
logreturnvalues
lohok
lokah
loma
lomana
lomatiko
lomun
long
lonsdale
look
looks
lookup
loop
los
losing
lotung
lou
louis
louise
louisiana
love
low
lowb
lower
loyi
lozi
loziy
lp
lpgan
lpgi
lpgun
lpi
lpiy
lpost
lpostfix
lpre
lprefix
lpyung
lqu
lquw
lripay
lru
lruw
ltuxan
lu
lua
luaargs
lubay
lubuw
ludja
luhay
luhi
luhing
luhung
luis
luka
lukashenko
luke
lukus
lukuw
lula
luluna
lung
lungan
lungu
lupakatj
lupi
lupo
lusenpaw
lusenpo
lusun
lutang
luther
lutheran
lutux
luxembourg
luye
lwa
lwan
lwax
lwey
lxaniy
lyang
lyaw
lyawko
lynn
lyuan
lyun
lyung
lyutux
m
ma
mabanan
mabatuan
mabi
mabuwakay
macao
macaran
macau
macedonia
maci
macklyn
macky
macri
macron
madagascar
madaljalu
madawdaw
maduro
maga
magal
magan
magic
magufuli
mah
maha
mahamadou
mahan
mahavun
mahmoud
maia
maibagah
maifor
main
mainsnak
maintemplatename
maithripala
majia
mak
maka
makazayazaya
make
makecategorylink
makeinvokefunc
makeinvokefunction
makeordinal
makes
makestartboxdata
makestartboxlinksdata
maketoolbar
makeurllink
makewikilink
makgadikgadi
maki
makiy
makotaay
makrahay
maku
malabang
malaloong
malavi
malawi
malax
malaxmisuq
malaysia
malcolm
maldives
maledep
malepa
mali
malik
malipa
malitiko
maliwang
maljipa
maljivel
malta
mama
mamahavunna
mami
mamnoon
mamu
man
mananigay
mang
mangacun
mangay
mangcelan
manhattan
mani
maniq
mansur
mansyu
manuel
many
manzyu
map
maqaw
maqut
maqux
mararo
maras
maray
marc
marcelo
march
marcus
mareeba
margin
margrethe
margvelashvili
mari
maria
maribasi
marie
marino
mario
mark
marker
marorok
marosan
marshall
martin
mary
maryland
masilid
masinghalan
masisi
masitoban
masoq
massachusetts
masu
masuhuaz
masum
masuq
masuw
matabalay
matadim
matan
matang
matanki
matas
matay
match
matches
matchestitle
matching
math
mathias
matt
mattarella
matthew
maurice
mauricio
mauritania
mavericks
mawpu
mawpuw
mawring
mawztung
max
maxvals
may
maya
mayah
mayardit
maybalay
maycyugal
mayhuman
mayhuw
mayklapay
mayl
maylipa
maylubung
maymaw
maysingaw
mayspaziq
maytayax
mayzbuq
mazi
mb
mba
mbahing
mbala
mbalay
mbasogo
mbazi
mbaziy
mbbiq
mbehuy
mbhuyaw
mbhuyow
mbhuywaw
mbi
mbii
mbik
mbinah
mbiyaq
mbkal
mbkis
mblaq
mbmix
mbpairs
mbselect
mbubu
mbuci
mbukut
mbul
mbyaq
mbzinah
mbziq
mbzyaq
mc
mcbaq
mcilyaq
mciriq
mcisal
mcisan
mciyaq
mclendon
mcpung
mcqun
mctid
mcya
mcyugal
md
mdy
me
means
mebalay
meco
mecu
mecyuw
mediawiki
medina
mehuman
mekarang
mekong
mel
melbourne
meloh
melubung
melukux
memaw
memoized
memow
memphis
menhwa
menten
mentoyu
mepuwal
mere
mergeargs
mesawlay
message
messagename
messages
mesuw
mesyue
meta
metaargs
metaargskey
metadata
metapay
metaq
metatable
meti
metta
metuiy
metyan
mexi
mexico
mg
mga
mgaga
mgal
mgasa
mgaw
mgay
mgayang
mgazyang
mgcyugal
mge
mgiin
mgiqas
mgkyoreng
mgleng
mgluw
mgyay
mgzyaw
mha
mhebung
mhenas
mhetay
mhetung
mhgun
mhgut
mhinas
mhkangi
mhlaqiy
mhmut
mhngan
mhngaw
mhoqil
mhotaw
mhoyin
mhrhul
mhtgan
mhtu
mhtuw
mhuqil
mhut
mhutow
mhuw
mhuziq
mi
miami
miaoli
mica
michael
michel
michelle
michigan
micista
micronesia
micu
might
mike
military
million
milos
milu
milwaukee
mima
miman
mimaw
min
minaki
minami
minaring
minblaq
minbzyaq
minciriq
mincu
mincyogun
mincyugal
ming
minhtu
minhtuw
minhuqil
mini
minkahul
minkbalay
minkensa
minkhangan
minkirok
minkok
minkoku
minluw
minmagal
minmqiru
minmspat
minnagal
minnaki
minnanak
minnatas
minnesota
minng
minnglung
minniru
minnki
minnqwas
minnraw
minnrwan
minnuya
minpanga
minpayat
minpbiru
minpira
minpkal
minpqol
minpusal
minqsu
minqutux
minqwas
minqyanux
minrok
minruk
minsangka
minsazing
minse
minsenkyo
minsing
minsk
minspayat
minsrhuw
minstwahiq
minsyu
minsyucui
mintang
mintaytzyul
mintsway
mintuyu
mintxal
mintzyu
mintzyuwaw
minxal
minzmagal
miq
miray
mirok
mirror
mirrorsummary
mirrorurl
miru
miruku
mirziyoyev
misa
misan
mise
missing
missouri
misu
misuw
mit
mita
mitu
mitxal
miyamay
miyiy
mizuhu
mk
mkal
mkangi
mkaraw
mkayal
mkbalay
mkgluw
mki
mkibuhw
mkilux
mkisit
mkita
mkkal
mkkayal
mkkita
mkkl
mkkura
mkkut
mklahang
mklapay
mklux
mkmatuy
mkmuyaw
mknahuy
mknanak
mknazi
mkrakis
mkraya
mkrkes
mkrroq
mks
mkslaq
mksobih
mksuzing
mktasi
mku
mkura
mkwagiq
mkyahu
mkzay
mkzihing
mkzyap
mkzyay
ml
mlabang
mlabuw
mlahang
mlahuy
mlaka
mlamu
mlata
mlawa
mleh
mlhngan
mlikuy
mlipa
mllagu
mllamu
mlt
mlu
mlukus
mluw
mlux
mluyak
mlyuak
mma
mmaras
mmawsa
mmlikuy
mmosa
mmqyanux
mmrhuw
mmrkyas
mmuhi
mmwah
mn
mnaga
mnagal
mnaki
mnanak
mnayang
mnbu
mnbuw
mngaygyut
mnglung
mngungu
mngyut
mnhawhway
mnhhuzyay
mnhhway
mnibu
mnka
mnkis
mnnanak
mnoyan
mntsway
mntta
mnwah
mnwayaw
mnxal
mo
modelargs
modern
module
modules
modulewikitext
moe
mohamed
mohammed
mohanmote
moi
moin
moise
moisiu
moissi
molalays
moldova
momah
mon
monaco
monating
mong
mongolia
monku
monolingual
monolingualtext
monroe
montenegro
montepaschi
mopu
mopuw
morakot
morales
more
moreargumentsexist
mornos
morocan
morocco
morris
mosa
moscow
mosik
mosiko
moske
mosoq
most
motux
mouw
move
moveprot
mowas
mozambique
mp
mpanga
mpataul
mpatul
mpatyul
mpayat
mpbbiq
mpbiru
mpbiruw
mpciriq
mpcisal
mpiray
mpiti
mpitu
mpituw
mpkal
mplquy
mplqy
mppqwas
mprraw
mpspung
mptzyu
mpu
mpusal
mpuw
mpux
mpuzyut
mpyat
mqalux
mqas
mqasu
mqaws
mqayat
mqbaq
mqbbaq
mqeru
mqerut
mqeruw
mqes
mqhut
mqhzyaw
mqiru
mqnazi
mqqasu
mqqol
mqqzyu
mqru
mqruzyux
mqu
mqumah
mquriq
mqutih
mqutux
mqwalah
mqwalax
mqwas
mqyanuh
mqyanux
mqyu
mqzinut
mqzinyut
mr
mra
mrawi
mrhow
mrhu
mrhuw
mrkays
mrkes
mrkyas
mrmaras
mrmurak
mrqwang
mrraw
mru
mrusa
mruw
ms
msa
msayux
msazing
msazyu
msbah
msbaley
msbehuy
msbinah
msblaq
msbley
msbuloq
msbuq
msbzinah
msenkyo
msesyu
msg
msgagay
msgamil
msglabang
mshiyu
mshriq
mshyu
mshzi
mshzyu
msibay
msin
msina
msinhloyan
msinqutux
mska
mskluw
mskongat
mskotung
mskura
mskyut
mslabang
mslaq
mslaqi
msli
mslisu
mslokah
mslpyung
msluy
mso
msobih
msoto
msparis
mspat
mspatul
mspay
mspung
msqsya
msqum
msqun
msqutux
msrangi
msrayas
msrihaw
msromul
msromun
mssahip
mssi
mssli
msspung
msswal
msswe
mssyuk
mstawput
msthay
mstnaq
mstranan
msttazil
msu
msuqi
mswati
msyam
msyaqih
msyaw
msyobay
msyow
mszik
mt
mtakuy
mtalah
mtalax
mtama
mtanak
mtaring
mtasaw
mtasiq
mtbalay
mtbazi
mtbaziy
mtbka
mtbuci
mtbugah
mtbuloq
mtbyaq
mtciriq
mtenah
mtgagay
mtgah
mtgbang
mtgih
mtgluw
mtgyut
mthelaw
mthoki
mthwiru
mtiri
mtisan
mtiyow
mtkari
mtkyay
mtkzay
mtkzyay
mtlaka
mtlkah
mtlokah
mtltuw
mtnak
mtnaq
mtoyu
mtpanga
mtqalang
mtqtqutux
mtqupu
mtqwah
mtsswe
mtsway
mtswe
mtta
mttuliq
mtuki
mtuliq
mtumaw
mtumow
mtuw
mtwagiq
mtxal
mtyaqih
mtyaw
mtyugiy
mtyuwaw
mtywaw
mtywawa
mtzyaw
mtzyu
mtzyuaw
mtzyul
mtzyut
mtzyuwaw
mtzywaw
mtzzik
mu
muah
muan
mubuy
muci
mucing
muciy
mugabe
mugah
muggsy
mugi
muhammadu
muhi
mukan
mukherjee
mulah
mulatu
mulinaga
muliyaw
multilingual
multiple
mulu
muluw
mumuk
mung
mungku
murillo
murisaka
murray
musa
musaq
museveni
music
muslim
muslin
must
mustang
mutharika
mutu
mutuw
mutux
muwah
muwain
muya
muyaw
muyax
muyux
muzi
mvp
mw
mwah
mwaha
mwalah
mwani
mwayaw
mwazyaw
mwfunck
mxal
my
mya
myan
myang
myanmar
myaqih
myasa
myawan
myu
myugi
myunaw
myup
myut
myuw
myuwi
mze
mzimal
mzingat
mzup
mzuy
mzwi
mzyay
mzyu
mzyugi
mzyunaw
mzyup
mzyuwaw
mzyuwi
mzyuy
n
na
nacional
nadan
naga
nagal
nagan
nah
naha
nahuy
nahyan
naia
naihunpu
naim
nakahama
nakahara
nakahila
nakanu
naki
nakoka
naku
nakun
nalan
nama
namak
namasya
name
named
namespace
namespaces
namgyel
namibia
namisan
namu
nan
nana
nanak
nanaq
nanau
nanawsaytiya
nanfe
nangnisalu
nango
nanhan
nanjuanges
nank
nanmeco
nanpancyu
nansiku
nanslafu
nansutan
nansyo
nanto
nanu
nanya
nanzhuang
napatay
naqi
naqu
naras
naro
narowan
nasa
nasal
nasi
naswe
natali
natawran
nate
national
nau
nauru
navbar
navbox
navboxcontext
navboxes
naveen
navtable
navtype
nay
naylopi
naylow
nayman
nazwe
nazyuwaw
nba
nbah
nbakis
nbkis
nblaq
nblayqun
nbu
nbun
nbuw
ncaa
nchez
ndez
ne
nebraska
need
needed
needs
needshorizontallists
neke
nenanu
neng
nepal
nerang
neril
net
netherlands
nets
never
new
newchild
newindex
newline
newobj
next
ng
nga
ngahi
ngangihaw
ngani
ngarux
ngasal
ngasan
ngaws
ngayan
ngayngay
ngiyat
nglung
ngngasal
ngngayal
ngngayan
ngngayang
ngngayen
ngo
ngowa
ngta
ngudra
nguema
nguesso
nguhux
ngungu
ngurus
ngyan
ngyaw
ngyut
nh
nha
nharu
nhriq
ni
niae
nibang
nicaragua
nici
nick
nicola
nicolas
nicos
nicosia
nieto
niger
nigeria
night
nigi
niinisto
niko
nikolic
nil
nilargs
nilargskey
nilok
nin
niniku
nipun
niqan
niqun
nisan
nishani
niwan
niy
niya
niz
nkis
nku
nkurunziza
nma
nnaga
nnanu
nnaqi
nnbkis
nnbun
nni
nniqan
nniqun
nnu
no
nocache
node
nodes
noevenoddstyle
nogyo
noicon
nokan
nolinks
nomin
non
none
noop
norm
normal
norman
norodom
north
norton
norway
nos
not
notempty
nothing
notice
notifying
notneedgroup
notneedimage
now
nowe
nowey
nowiki
nowrap
nq
nqa
nqani
nqu
nquw
nqwaq
nrawmul
ns
nu
nuggets
nuka
num
numargs
number
numbers
nums
nun
nusa
nux
nv
nwah
nwahan
nway
nwazyaw
nxal
nxan
ny
nya
nyaga
nyal
nyan
nyaya
nyosilan
nyu
nyusi
nyuw
nyux
nyuye
nz
o
oakland
obeh
obiang
obih
obj
object
objects
oc
oco
october
ocya
od
odd
of
off
official
often
ohay
ohio
ois
ok
oklahoma
okq
oku
okya
okyak
okyaq
ol
olalip
olang
olaw
olaway
old
oli
olimpija
olit
olive
olu
olympic
oma
omaha
oman
omar
omargs
omid
omom
omon
omong
on
ondimba
one
ones
ong
onga
onggaku
only
onlycat
onlysourced
onlysrc
op
opama
oponoho
ops
optional
options
oq
or
order
ordinal
ordsuffix
oregon
org
orig
origargs
origargsargname
original
orinpik
orlando
orleans
oro
ortega
os
osa
oscar
osd
osyuw
other
otherlistfunction
otherlistfunctiondivnotclose
otherwise
otobay
ouattara
ould
out
outfuncs
outidx
output
outputs
over
overcaption
overimage
overimagerowclass
overwritten
owas
oyat
oyun
p
pa
pablo
pabuisan
pacavalj
pacers
pacidal
pacing
pacistan
pacuya
padding
padrangigrang
paga
pagal
pagay
page
pagename
pages
pagetype
pagey
pahama
pahikukian
pahor
pailasan
pairs
pakala
pakara
pakaw
pakistan
pakung
pakurung
pakwari
pala
palakuy
palamitan
palau
palax
pale
palestan
pali
palinkaan
paljur
pan
panama
pancu
pang
panga
panggo
pangwi
panital
panlwan
panmenten
pantaw
pantu
pantuw
paongaongan
papa
papak
papakwaka
papakwaqa
papua
papulu
paputa
paqi
paqiy
par
para
parade
paraguay
param
parameter
parameters
paran
paras
paraset
parayapay
parent
parenthtml
parentnodes
parentt
parentv
pargs
paridrayan
paris
parius
parm
parse
parsedataparameters
parseinput
parseparam
parses
part
parts
parttbl
party
parupu
pas
pasawali
pasen
pasento
pasi
pasikau
pasing
pasongan
pass
passed
pasta
pasumaq
pasya
patas
patawlinan
paterungan
patista
patrice
patrick
patu
patul
patus
paudadan
paul
paumeli
pavlopoulos
paw
pawngan
pawsa
pawsun
pay
payat
payay
payljus
paymuta
paysyugan
payuwan
paywan
pazih
pazyat
pbiq
pbiru
pbkuw
pblaq
pbu
pbuci
pbuling
pbzyagan
pc
pcall
pcba
pcbaq
pciriq
pcisal
pcizyaw
pckan
pcpung
pcyagan
pcyagang
pcyagaun
pcyagun
pcyawgun
pcyus
pcyuwagan
pcyuwagun
pd
pe
peace
peci
pecin
pedro
peha
pehan
pekus
pelela
pelingu
pelis
pelquwi
pemeco
pen
pena
penan
pennsylvania
pennsylvanin
penux
peo
people
pepperdine
per
performance
peris
pertuan
peru
pete
peter
petro
petuin
peye
peyinan
peypu
peyugan
pgal
pgan
pgeki
pgiki
pglaing
pgleg
pgleng
pglgan
pglgi
pgluw
pgnaw
pgnawgan
pgwazyaw
pgyan
pgyay
phaga
phapuy
phaw
phawgun
phgup
phil
philadelphia
philip
philippe
philippines
phillip
phinas
phkngyan
phmut
phngiyang
phngyang
phoenix
phogun
phoqil
phpah
phpax
phswa
phtgun
phtu
phtun
phtuw
phtuy
phugun
phyup
phyupan
phzyup
pi
pibahuw
pibutingan
pick
pico
pid
pierre
pigih
pila
piling
pilis
pin
pinaski
pinbahu
pinbahuw
pinbang
pinbaqan
pinbaqi
pinbcyan
pinbcywan
pinbiru
pinbkgan
pinbku
pinblaq
pinbrwan
pinbuling
pincbaq
pincbaqan
pinciriq
pinciriqan
pincwagan
pincyagan
pincyagun
pincyogan
pincyogun
pincyugan
pincyuwagan
pinfang
pinfangkoli
pinfangkongli
pingaga
pingaygyutan
pingleg
pingleng
pinglgan
pingnawgan
pinhapuy
pinhaw
pinhkngyan
pinhknyan
pinhmut
pinhtgan
pinhtuw
pinhyun
pinkal
pinkatan
pinkbalay
pinkgan
pinkita
pinkkal
pinklahang
pinkta
pinkusan
pinkyalan
pinkyalang
pinlkan
pinlpgan
pinlqen
pinlukus
pinmuhi
pinmuya
pinnbaq
pinni
pinnraw
pinnwah
pinposa
pinqasu
pinqbaqan
pinqiri
pinqmahan
pinqsyugan
pinqwasan
pinqyuwan
pinqzyu
pinqzyuwan
pinraw
pins
pinsalan
pinsbaq
pinsbkan
pinsblaq
pinsenkyo
pinsgagay
pinsgayan
pinshriqan
pinskwan
pinslyan
pinsplang
pinspngan
pinspung
pinsqehan
pinsqtuxan
pinsqunan
pinsrangi
pinsrngyan
pinsrux
pinsspung
pinsurux
pinsyu
pinszyuwagan
pint
pintasan
pintaw
pintbcyan
pintbiran
pinthuk
pinthwiru
pintkaykay
pintke
pintrang
pintringan
pintriqan
pintrqan
pintyagan
pintyaqih
pintywaw
pintzyaw
pintzyuwaw
pinwagi
pinwah
pinwasan
pinxalan
pinyugan
pinzang
pinzi
pinzyugan
pinzyuwi
pipers
piqsyugan
pira
piray
piris
pisa
pisan
pisgayan
pisirian
piso
pisplang
pisrangi
pisrux
pistons
pitaw
pitero
pitriqan
pitu
pitung
pituw
piyang
piyasan
piyaway
piying
piyiy
piyoxo
piyuma
piyux
pizyugan
pjete
pkahang
pkaki
pkal
pkalay
pkaraw
pkayal
pkaykita
pkbalay
pkhngyan
pkita
pkkal
pklahang
pklahng
pkpyut
pkrahan
pkraw
pkrgi
pksyu
pktan
pktayux
pkuxun
pkuya
pkwagiq
pkyalan
pkyalang
pkyoik
pkzyup
places
plahan
plahang
plain
plainidx
plainlinks
plaka
plane
plaqux
player
players
please
plgan
plkan
plkawtas
pllpgun
pllpuw
plmukan
plmwan
plngawal
plnglung
plpgun
plpuw
plquwi
plquy
plurinacional
pm
pmhyan
pmhyun
pmumu
pn
pnanga
pnayluq
pnaynama
pnayt
pnba
pnbahu
png
pngran
pnguu
pnhkngyan
pnhyan
pnkyalan
pnmahan
pnongan
pnosa
pnqzyu
pns
pntasan
pntyagan
pnuhi
po
pocana
point
pokanta
pokasa
pol
poland
polang
poliwal
poliweya
polng
polo
pololan
poloti
polotihay
ponaway
pongan
pongodan
pori
poroshenko
port
portland
portrait
portugal
pos
posa
posimiya
posiniya
posko
posniya
possible
post
postfix
posun
potosi
poukung
powah
powu
pp
ppanga
ppaqut
ppatas
ppatus
ppcyagun
ppcyuwagan
ppgleng
pphgupan
pphpah
ppila
ppinsyuk
ppiray
ppiyan
ppkal
ppkayal
pplahan
pplahang
pposa
pposu
pposun
ppowah
ppqayat
ppqbaqan
ppqumah
ppquriq
ppqwas
ppraw
ppsbaq
ppsiyey
ppspngan
ppspung
pptke
pptyuwaw
pptywaw
pptzyuwaw
ppzian
ppzuy
ppzyuwi
ppzyuy
pqan
pqaniq
pqara
pqasu
pqasun
pqawlun
pqayat
pqbaq
pqbaqan
pqes
pqhut
pqilun
pqiway
pqmahan
pqmahun
pqnahan
pqniqan
pqol
pqqasu
pqsya
pqtaq
pqtaqan
pqtnaq
pqumah
pqutan
pqwas
pqwasan
pqwasn
pqwsan
pqxun
pqyatan
pqzyu
prahum
pranab
pratan
praw
pre
prec
preca
precision
preference
preferred
prefix
prefixargname
prefixedtext
prefixtable
preload
preprocess
preprocessargs
preprocesssinglearg
preprocessspecificstyle
present
president
presidente
presidential
prev
prevent
preview
previous
prevp
prevqid
price
prince
princess
principe
private
prkyas
processed
processing
professional
prokopis
prop
properties
property
propertyid
propertyvalueandquals
props
proptbl
propval
propvalue
prose
prosi
protected
protection
protectionlevels
prraw
ps
psani
psaniq
psatu
psbahan
psbaq
psbaqan
psbinah
psblaq
psekyo
psemon
psenkyo
psgayun
psglabang
psgsu
pshriq
psibay
psinpila
pskuw
pskwan
pskyut
pslabang
pslalu
pslkawtas
pslkotas
pslluhing
pslokah
pslpyungan
pslsul
pslyan
psmsun
psnan
psnsun
pspila
psplang
pspngan
pspngun
pspung
psqenut
psqunan
psqunun
psqutux
psrhuw
psru
psrun
psrux
psrxan
psrxun
pssatuw
psspngan
psspung
psswal
psulung
psurux
psyaqan
psyax
psyuk
psyunow
pszik
pszit
pszyunaw
pt
ptaring
ptasan
ptbaq
ptbazi
ptbaziy
ptbiran
ptbuci
ptciriq
ptehuk
ptgih
ptgyah
pthoki
pthuk
ptkbalay
ptke
ptkura
ptlkah
ptlokah
ptlu
ptlubuw
ptmari
ptmasoq
ptmawn
ptna
ptnaq
ptnaqan
ptnaqun
ptqalang
ptqehun
ptqihun
ptriqan
pttu
ptucing
ptuliq
pturaw
ptusan
ptwang
ptyagan
ptyagun
ptyaqih
ptyaw
ptzyaw
ptzyuwaw
pu
public
pubuy
pucing
pucunug
pudun
puerto
puging
puhi
pukpuk
pulak
pulan
pulays
puljekuwan
puljetji
pulongti
pulus
puna
punctuation
pung
pungan
pungudan
puni
puniq
punro
punto
pupuk
puqin
puqing
purge
purposes
pusal
pusan
pusing
pusong
pusuw
putan
putaw
putawya
putin
puting
puyuma
pval
pvalid
pwah
pwahun
pwasan
pwazyaw
px
pxxx
pyahaw
pyahow
pyanan
pyang
pyanga
pyangan
pyasan
pyatu
pyaway
pyu
pyugan
pyup
pyux
pzian
pzitan
pzyang
pzyangay
pzyu
pzyubi
pzyugan
pzyugaun
pzyugi
pzyugun
pzyuwi
pzyux
q
qa
qabang
qabax
qabay
qaboos
qabu
qaca
qahuy
qalan
qalang
qalangna
qalanq
qalaqng
qalax
qalipusungan
qaljapang
qaljecim
qalng
qana
qani
qaniq
qaniy
qapedang
qapu
qapuciu
qara
qargs
qas
qasa
qasu
qatar
qatu
qatux
qawli
qawqaw
qaya
qaynu
qayparung
qayqaya
qba
qbaq
qbaqan
qbaqi
qbhniq
qbiray
qbirux
qbsuyan
qbsyaq
qbubu
qbuci
qbuli
qbux
qci
qehuy
qelis
qenah
qenu
qeqaya
qerang
qeru
qes
qesu
qesuw
qesux
qetun
qhlun
qhoniq
qhungiq
qhuniq
qid
qids
qilis
qinbaqan
qinbuyang
qinhtan
qinlwahan
qinlwaxan
qinmasan
qinnhan
qinnxan
qinruxan
qinruzyux
qinryuxan
qinrzyux
qinrzyuxan
qinsugan
qinsyugan
qinuw
qinxan
qinyaqih
qinyatan
qiri
qlangan
qlcing
qlcode
qlqalang
qlwahan
qlwaxan
qlyan
qlyen
qlyu
qmaci
qmalup
qmamas
qmara
qmasan
qmasu
qmayah
qmayat
qmayeh
qmazeh
qmhut
qmici
qmihuy
qmimul
qmisan
qmiway
qmluw
qmocyan
qmol
qmpul
qmqway
qmsan
qmtux
qmu
qmubuy
qmul
qmuzi
qnabu
qnabuw
qnahi
qnai
qnau
qnawal
qnayat
qnazi
qngzyat
qnhan
qnhyun
qni
qnol
qnqyanux
qnragan
qnrang
qnul
qnumber
qnxan
qnxun
qnyat
qolan
qolang
qoli
qolit
qolu
qongu
qowgan
qoyat
qoyaw
qparung
qpatung
qphay
qpizing
qplist
qpuri
qpzing
qqalang
qqaniq
qqasu
qqaya
qqayat
qqbhniq
qqbzyangan
qqhoniq
qqhuniq
qqhut
qqmayh
qqnxan
qqsinu
qqsinuw
qqsya
qqualid
qqulih
qqyanux
qqyqnux
qrahu
qramay
qrqan
qruyux
qruzyux
qruzyx
qryum
qryun
qryuzyux
qsahuy
qsaq
qsinu
qsinun
qsinuw
qsinux
qsliq
qstr
qsu
qsugun
qsuliq
qsuyan
qsya
qsyaq
qsyugun
qthuy
qtnaq
qtype
qu
qual
qualid
qualifier
qualifiers
quals
quang
quantities
quantity
queen
queensland
quilh
quinlan
quito
qulih
quliq
qun
qung
quo
quotes
quri
qurip
qus
qusul
qutux
quw
quwis
qux
quzi
qv
qval
qvals
qvalue
qwalax
qwaq
qwara
qwas
qwasan
qwaw
qwayux
qwilan
qwirux
qwo
qyanux
qytux
qyunam
qyuws
qzimux
r
ra
radev
rafael
raga
rahaw
rahmon
rahu
raimonds
rajaonarimampianina
raka
rakis
ralph
ramat
rami
ramu
randy
rang
rangaw
rangay
range
ranges
rangesindex
rangi
rank
ranks
raral
raran
rareme
rasaw
rasi
rasun
rau
rauf
raw
rawequal
rawget
rawkeyself
rawsep
rawset
rawziq
ray
raygak
raygaku
raygaq
rayhyo
rayiyong
rayli
raymond
rayrak
rayrrawq
raysinay
raytay
razyo
re
read
reason
rebelo
rebuild
recep
record
redirect
ref
reference
references
regexp
regexps
rehay
rekat
reki
rekisi
rekyasan
rema
remengesau
remove
removeblanks
removeidx
render
renderaboverow
renderbelowrow
rendercollapsiblelistrow
rendercolrow
renderimages
renderitalictitle
renderlistrow
rendernavbar
rendernavtable
renderoverimage
renderrows
renders
rendersmallnavboxincollapsiblelistrow
rendersnak
rendersplitrow
renderstartbox
renderstartboxlinks
rendersubheaders
rendertitle
rendertitlerow
rendertrackingcategories
rengki
renki
renwa
repeat
replace
representing
repu
republic
reqranks
requested
require
required
res
resource
result
ret
return
returned
returns
returnvalues
reuven
reverse
reversehelper
rex
rey
reyas
reztunsten
rgayung
rgayx
rgiyx
rgrgyax
rgryax
rgyax
rgyx
rgzin
rhiyal
rhiyan
rhkey
rhyal
rhyan
rhyaq
rhyel
rhzyal
ri
rica
riccardi
rice
richard
richmond
rick
ricky
rico
ride
riga
right
rihay
rikisi
rikygun
rima
rimuy
rinahem
ring
ringan
ringun
rinpang
rio
rirensya
river
rivlin
rkinos
rkyas
rm
rmanga
rmaw
rmow
rmuru
rmuruw
rnagai
rnaw
rngin
rngu
rnnaw
rnrang
ro
robert
roch
rock
rockets
rod
rodney
rodrigo
roger
roland
roma
romania
romatiko
ron
root
rootnode
roottable
roq
ros
roscoe
ross
rouhani
rounded
roundto
row
rowargs
rowcellstyle
rowclass
rowid
rownums
rows
rowspan
rowstyle
royal
roziq
rpsan
rpusun
rqenas
rqyas
rr
rramat
rrawq
rrgax
rrgyax
rrhyal
rrhyan
rrhzyal
rrkan
rroq
rruma
rrusa
rryax
rsnat
rtung
ru
ruak
ruangwiwat
ruba
ruisui
rukay
ruku
rula
rulakes
rum
ruma
rumen
run
rusa
russell
russia
rutgers
ruw
rux
rwa
rwanda
rxan
rxun
ryah
ryan
ryaniq
ryax
ryaxna
ryohen
ryoko
rʉhlʉcʉ
s
sa
sabah
sabak
sacramento
sadipongan
sado
sadu
sagal
sagaran
sahala
sahara
sahat
sahuy
sai
said
saiku
saint
sakang
sakaw
sakawas
sakizaya
saku
sakuhan
sakur
sakuw
sala
salaw
sali
salinka
salinliw
salitung
sall
salman
salva
salvador
sam
same
sami
samo
samoa
samoya
samuluh
samuwel
san
sanbang
sancawco
sancis
sandbox
sandboxes
sandboxlinks
sandboxpreload
sandboxtitle
sande
sandra
sang
sangka
sanka
sanlika
sanmena
sanpiya
sansama
sansaru
sansu
santa
santiago
santimon
santing
santos
sanusicyaw
sao
sapat
saping
sapulju
sarad
sarajevo
saranawan
sargsyan
sariwsiw
sarlwato
sarraj
saruc
sasaljak
sasan
sasasezeman
sasaw
sasi
sassou
sat
satefo
sato
saudi
sauli
sautialapo
savannah
savarin
save
saviki
saw
sawanengan
sawbih
sawi
sawn
saxa
say
sayhuy
sayie
saying
saylayefu
saylweya
saynecyarl
saypoles
saypolus
saypules
saypulus
saysalonici
saysiyat
saysya
saysyat
saysyaw
sayun
sayux
sazi
sazin
sazing
sazinh
sbahul
sbahun
sbaley
sbaya
sbayan
sbayux
sbaziy
sbcyun
sbehuy
sbhul
sbi
sbihun
sbilan
sbilun
sbing
sbiq
sbiru
sble
sbox
sbtunux
sbu
sbun
sbunaw
sbus
sc
scale
school
scope
scott
scribunto
scu
se
sean
search
seattle
sebu
seci
second
sect
sedeng
see
seen
sefu
sehu
sehuw
sehuy
sekay
seki
sekinin
sekitang
sekoki
sekyo
select
selected
self
selfclosing
seljupetje
semong
sen
sena
senci
senegal
seneng
seng
sengan
sengkyo
senkyo
senmong
senmung
senring
sensyu
sensyuw
sentence
sep
separated
separator
seps
sepsk
seqalapit
seqeciin
sequence
serbia
sergio
seri
serzh
ses
sesing
sesingsyo
sesyaw
sesyo
set
setik
setmetatable
seto
setow
setranks
setting
settings
seveng
sexu
sey
sez
sezi
sfa
sfj
sgiaing
sginlabang
sgisa
sglaing
sgleng
sgnaw
sgsuw
shanghai
shankbone
shap
sharon
shavkat
shawn
she
sheikh
sheluq
shhya
shift
short
shortname
shoufeng
should
show
shown
shri
shtuy
shu
si
siafulungay
sianm
siapaluway
sibanya
sici
sicyang
sidi
siena
sierra
sifang
sife
sig
siga
sigluw
significant
sihamoni
sihodingan
sikay
siki
sikihiki
sikining
sikiy
sikoki
sikwang
sila
silangkong
sili
sililasay
siliq
siliya
siljevavav
silong
silung
silupatun
sima
simu
simuw
sin
sina
sinapalan
sinbahan
sinbalay
sinbilan
sinblang
sinblayan
sinbun
sinbung
since
sincik
sinciken
sinciku
sincikusya
sincikusyo
sincima
sincineya
sincyuk
sinevaudjan
sing
singapore
singaw
singbun
single
singsiya
sinha
sinhloyal
sinhloyan
sinka
sinkam
sinkang
sinkina
sinkwara
sinlaxan
sinllwa
sinllwan
sinlokah
sinlwan
sinmung
sinnbil
sinngusan
sinnhen
sinnhi
sinnhyan
sinnwalan
sinpang
sinpila
sinpite
sinpitu
sinpiyang
sinplan
sinplang
sinpngan
sinqaysan
sinqqas
sinqtuxan
sinqumi
sinqunan
sinse
sinsi
sinsiy
sinsman
sinsyuw
sintama
sintiyako
sintman
sintuqi
sinulax
sinuw
sinvi
sinwalan
sinxalan
sinya
sinzyunaw
sio
sipan
sipanya
sipanyataw
sipaya
sipazi
sipu
sirakesay
sire
sirisena
sirleaf
sisay
sisi
sisin
sisyuw
sitan
site
sitelink
siulang
siy
siya
siyliya
siyu
siyung
siyuyen
size
sk
ska
skahul
skahun
skaki
skal
skantinaweya
skaru
skayal
skayan
skbalay
skbaley
skblaq
ski
skidmore
skikun
skip
skipv
skita
sklokah
sklwan
skngungu
skoki
skotung
skrangi
sku
skun
skura
skut
skwan
slafu
slamaw
slaq
slaquh
slaqux
slaxan
sli
slink
sllwa
sllwan
slovakia
slovenia
slovenian
slpuw
slu
slwan
sm
small
smangus
smatu
smatuw
smbah
smbalay
smbbaq
smbu
smells
smhzi
smi
smiyey
smka
smku
smlalu
smli
smlokah
smnbu
smnhi
smoya
smpung
smqas
smqqas
smr
smral
smreyu
smrrhu
smru
smsum
smsun
smuling
smungus
smural
smuran
smwal
smwan
smwayal
smxu
smyatu
smyax
smyuk
smyus
smzyay
smzyunaw
sn
sna
snak
snaks
snaktype
snazi
snbil
snbilan
sng
sngusan
snhe
snhi
snhyan
sni
snihi
snku
snli
snlitan
snpung
snrhuw
snsiy
snuwing
snyan
snyaxan
so
sobih
socyo
sofu
sokan
soli
solid
solomon
somalia
somaliya
some
something
son
song
soni
sonics
sonny
sorl
sorrl
sort
sorted
sortkey
soto
sotow
sotu
sourced
sousa
south
southwest
soya
soyal
soyan
sp
spa
space
spacer
spacerside
spaces
spacing
spain
span
sparseconcat
spat
spayat
spazi
spazyang
special
specified
specify
specmbi
spf
spgluw
spiyang
spkal
spkayal
splawa
split
splitrowcolspan
spngan
spngu
spngun
spni
spnqzyu
spong
sports
spottiswoode
sptbaziy
spung
spurs
spwah
spwan
spyal
spyang
spyangan
spyangu
spyangun
spzyang
spzyugi
sq
sqa
sqabu
sqani
sqaniy
sqbwh
sqehut
sqhut
sqi
sqiy
sqoyaw
sqqas
squ
square
squilq
squkiq
squli
squliq
squliu
squliy
squn
squnun
squtux
squw
squzi
sqyanux
sqzyacing
sr
sramat
sraral
sraran
srasi
sraw
srhu
sri
srls
srnqwuy
srux
srxan
ss
ssawn
ssbqi
ssew
ssi
sskwan
sslalu
ssokan
ssquliq
ssulu
sswe
ssya
ssyan
st
stacey
stacis
staff
stama
stanford
stanley
start
startarg
startbox
state
stated
statement
statements
states
stats
stbazi
steinmeier
step
stephen
stepienrules
steve
still
stkahul
stluling
stman
stored
str
strahu
strange
street
string
strings
strip
strout
stuart
stwang
style
styleargname
styles
styletable
su
sub
subbox
subcells
subcellsk
subgroup
subheader
subheaderclass
subheadernums
subheaderrowclass
subheaderstyle
subject
subjectspace
subpage
subpages
subpagetext
subs
subus
success
such
sucre
sudadatan
sudan
suf
suffix
sukle
sulai
sulax
sulin
suling
sulungan
sum
summary
sumu
sumun
sun
suna
sung
suns
sunu
supersonics
supplement
supplementary
supplied
suppressfields
suqi
suqun
suriname
surrogates
suru
suruw
surux
susan
susu
sutan
suw
suweay
suweaylinpang
suyan
suzi
sval
swa
swal
swalan
swalang
swali
swan
swasal
swasiq
swayal
swaziland
swazyaw
sweden
switch
switzerland
swon
sxun
sya
syabutay
syaka
syakay
syam
syan
syang
syangcyaw
syangkang
syangsan
syangya
syanoh
syanox
syasing
syaw
syax
syen
syenchaw
syeng
syiliya
syllable
syo
syobay
syome
syon
syoo
syoto
syow
syracuse
syria
syu
syuaw
syuhong
syukun
syun
syung
syungyali
syunipay
syunya
syurin
syuw
sziq
szyon
sʉhlʉnganʉ
t
ta
tabare
tabilas
table
tablerowadded
tables
tabletools
tabletostring
tabota
tabuk
tafalong
tafugan
tag
taga
tagname
tahanminko
tahay
tahomay
tahwe
tai
taian
taifu
taimali
taimu
tainkose
taipei
taitung
taiwan
tajikistan
takamimura
takan
takanua
takaw
takay
take
takes
takidis
takimi
takinusta
tako
takofan
taku
takubuwan
takunan
takusi
talagay
talah
talam
talamakau
talampo
talax
taleb
talk
talking
talkpagetitle
talome
talon
taluk
talunas
taluw
tama
tamahu
tamalakaw
tamali
tamalon
tamaske
tamayo
tamazuan
tamim
tampya
tamun
tan
tana
tang
tangahang
tangcaytaw
tanguhla
tangut
tanmay
tansanniya
tanux
tanzania
tapang
tapangʉ
tapaq
tapowaray
taqu
tara
taracan
tarask
taray
target
tari
taring
tariq
taromak
tasa
tasiyang
tasiyung
tasutasunan
tatak
tatoba
tatu
tau
taukak
taur
tausa
tavila
taw
tawe
tawkan
tawpu
tawyi
tawyu
tay
taya
tayal
tayan
tayang
tayangco
tayax
taybu
taycu
taycyo
taycyong
taycyu
taygak
taygalu
tayglaing
tayhok
tayhuk
tayi
tayimari
tayinocu
tayko
taykow
taylor
taypinyang
tayrik
tayto
taywan
taywang
tayyip
tayyok
taznin
tbah
tbaku
tbakuw
tbasaw
tbaziy
tbcyan
tbihi
tbiran
tbirun
tbl
tbuci
tbulan
tbziran
tcinun
td
tdlu
te
team
tegami
tegan
tehabuk
tehok
tehoq
tehuk
tehuq
tekahul
teko
tekun
tekura
tekyopan
teldreka
telibi
telivi
telu
temer
temote
temp
tempdiv
tempele
template
templatelink
templates
templatestyles
templatetitle
tempmeta
temu
temurltiko
teng
tengsu
tennessee
tens
tenskyo
tensu
tensukyo
teodoro
tequtux
teribi
term
terrell
tesalonika
tesazing
teshome
teska
test
testcases
testcaseseditlink
testcaseslink
testcaseslinkdisplay
testcaseslinks
testcasespreload
testcasesrunlink
testcasesrunlinkdisplay
testcasestitle
testing
tesu
tesuru
tesyelinmpciriq
teta
texas
text
tezimu
tezzik
tezzit
tfuya
tgahan
tgamil
tgbin
tgiqas
tgleq
tgliq
tgluw
tglyiq
th
thac
thailand
than
thani
thao
thapuy
that
thau
thawki
thay
thayluw
thbu
the
their
thekan
thelaw
thelow
thelu
theluw
them
then
there
these
they
theya
thgahan
this
thkun
thoki
thomas
those
thoyay
thoyey
thozay
thozi
thozyay
three
through
thuk
thumb
thunder
thurl
thuyay
thuzyay
thwiru
thyakan
thyayan
thyayun
ti
tibang
tibet
ticunhay
tida
tidiedval
tidyval
tige
tiko
tiku
tili
tim
timberwolves
time
times
timor
timur
tin
ting
tingalaw
tinka
tins
tinskyo
tinsu
tinun
tipik
tirana
tisilan
titan
title
titlecell
titleclass
titlecolspan
titleformats
titlegroup
titlerow
titlestyle
titletext
tiyow
tiyu
tjacekes
tjacupu
tjadukudukung
tjaialev
tjailjaking
tjakuvukuvulj
tjalja
tjana
tjanavakung
tjaranauma
tjatjigel
tjavatjavang
tjaviljaul
tjavualji
tjinavanavalj
tjisaulem
tjuabal
tjuamanges
tjuaqau
tjuavanaq
tjudjaas
tjukuvulj
tjuletevetevek
tjulitjulik
tjuluuai
tjuruguai
tjusepayuan
tjusinlung
tjuvecekadan
tjuwaqau
tk
tkahul
tkara
tkasan
tkba
tkbaqan
tkijig
tkkoh
tko
tkran
tkrawn
tkron
tkura
tkyay
tkzay
tl
tlaka
tlaman
tlangan
tlaqiy
tlbugan
tlhuyan
tli
tlipoli
tliqan
tlkah
tlngayan
tlokah
tlqing
tltu
tltuw
tlu
tlubuw
tluling
tluqiy
tm
tmahuk
tmalam
tmalang
tmami
tman
tmangu
tmangux
tmarung
tmasoq
tmasot
tmasuq
tmcid
tmhabuk
tmi
tminun
tmkah
tmmari
tmmyan
tmnga
tmngasal
tmqalang
tmqsinuw
tmrang
tmring
tmsuqan
tmsuqun
tmuang
tmubox
tmubun
tmubux
tmucing
tmuhi
tmunan
tmutu
tmuya
tmwan
tmwang
tna
tnaq
tngan
tngasal
tngsa
tngugan
tninun
tntnaq
tnu
tnubux
tnuxan
tnwang
to
tobago
toc
toda
today
todd
toggles
togo
tohyo
tokar
tokusan
tom
tomas
tome
tominnicya
tomislav
tomiyac
tommy
tomok
ton
tong
tongan
tongh
tongpyen
tongsi
tonumber
tony
toolbar
top
topic
topimage
topu
toraku
torik
toronto
toruy
tose
tosen
toseng
tostring
totalcolspan
totalrowspan
touade
toweng
town
toye
toyen
toyohama
tp
tpihan
tpiray
tpucing
tpuqu
tpyahan
tqbaq
tqbaqan
tqinu
tqinuw
tqli
tqs
tqwiy
tr
tra
trace
tracking
trade
traded
tradesomething
trail
trailer
trailing
traka
trakis
tranan
trang
transcluded
translate
translatenext
transparent
trayan
treated
trevor
tries
trim
tringan
trinidad
triqan
trkis
true
truhung
truku
trump
truncate
truncated
truwan
try
tsai
tsakhiagiin
tska
tsobih
tszik
ttbihi
ttbuxan
ttekuy
tthoki
ttkran
ttman
ttnu
ttorak
ttrhwan
ttu
ttungan
ttuqi
ttuqiy
ttwangan
tu
tuapuu
tuba
tucker
tucye
tudrivuan
tufuga
tugal
tugan
tugi
tuman
tumantiko
tumay
tun
tunan
tunde
tunfe
tung
tungfe
tungnanya
tungpu
tungslafu
tunisia
tunux
tupoling
tuporing
tuq
tuqi
tuqiy
turkey
turkmenistan
turlci
turn
turu
turuy
tusi
tuvalu
tuwapun
tuxan
tv
tw
twahiq
twan
twanay
twang
twangan
twe
two
txal
txan
txtlang
tyaba
tyagan
tyal
tyler
type
types
typically
tyuku
tzyu
tzyul
tzzik
tzzit
u
ua
uabbr
uan
uba
ubah
ubuy
ucla
ucna
ugan
uganda
uhuru
uk
uka
ukang
ukanta
ukolang
ukraine
ul
ulah
ulaljuc
ulay
uli
ulivelivek
ulongti
ulung
uluw
umah
umi
umitan
umuk
un
unan
unat
unbuild
undoo
ung
ungak
ungat
unggak
uni
unified
union
unit
united
university
unknown
unless
unnamed
unpack
unro
unroing
unrokay
until
unu
unun
up
upb
upper
uqu
uraw
url
urow
uru
uruguay
uruw
urux
usa
usage
usd
use
used
user
users
uses
using
ustring
usual
usuw
ut
utah
utas
utu
utux
uw
uwah
uwow
ux
uy
uya
uyan
uyi
uyuk
uyux
uzbekistan
uzi
uziy
uzyuk
v
va
vahu
vajiralongkorn
vakangan
val
valana
valarray
valau
valid
valjulu
valkey
vallist
vals
valsv
value
valuekey
valuerow
values
valuetofind
van
vanuatu
var
varela
variable
vasili
vaughn
vaz
vc
vcard
ve
vecekadan
venezuela
ventures
version
vertical
vi
via
victor
victoria
vietnam
view
viewedithistorypurge
viljauljaul
vincent
virginia
viri
vis
vives
vladimir
vlist
vn
vorachith
vqualifiersv
vujanovic
vukide
vungalid
w
wa
wachirawit
waddaulah
wade
wagan
wagi
wagiq
wah
wahan
wahci
wahe
wahi
wahiy
wai
wakaba
wake
wakil
wal
walah
walker
wally
walo
walter
wan
wangchuck
wangko
wangku
wanglu
wangzaw
wani
wanrong
want
wanted
waqa
waqiq
war
warang
warriors
was
wasan
washington
wasiq
watan
way
waya
wayal
wayan
wayay
wayey
wayl
wayne
wazyay
we
weayla
weci
wecyepuske
wei
weight
welung
weman
wen
were
wesley
west
western
wetcyaw
wetoliya
weyena
weyun
weyung
weyunghwe
weyunhwe
wezeme
wezme
what
whci
when
where
whether
which
while
white
whitelist
whitelisting
whose
wi
widodo
width
wiki
wikibase
wikibitia
wikidata
wikidataib
wikipedia
wikitext
will
willem
william
willie
wilt
winnipeg
wiqan
wisconsin
wish
with
without
wiwal
wiwan
wiway
wiy
wizards
wolf
wolves
woody
work
world
would
wrapper
wrappers
wsilung
wtf
wu
wuhulu
wukanta
wusun
wutai
wuzpeke
wwahan
www
wzyagan
x
xe
xf
xhepa
xi
xincheng
xiryo
xisyo
xiulin
xu
xvi
xweco
xyo
y
ya
yaba
yabung
yaca
yacing
yaco
yahu
yaki
yakobu
yal
yala
yalaw
yalisanta
yama
yamasyu
yameen
yameniya
yami
yamil
yan
yancey
yang
yangaw
yani
yaniy
yanping
yanux
yany
yapit
yaqeh
yaqih
yaqix
yaqu
yaquw
yarmy
yasa
yasaypayzan
yasu
yat
yatin
yatux
yatuy
yaw
yawa
yawi
yaya
yayo
yazetay
ye
years
yehaymecyzme
yemen
yenan
yenana
yepakan
yes
yesu
yetan
ygril
yhe
yhyal
yi
yihul
yilan
ying
ymagal
yocyung
yohae
yohan
yokay
yona
york
yotay
you
young
your
yousef
yow
yoweri
yozyung
yu
yubang
yuchi
yugal
yugan
yugi
yugiy
yugun
yukan
yulang
yulaq
yuli
yulung
yuluw
yuma
yumin
yun
yunaw
yuncumin
yung
yungay
yungkilu
yuntun
yutak
yutas
yutay
yutaycyaw
yuw
yuwan
yuwaw
yuwhbun
yux
yuyenan
ywaw
z
zach
zahatayhanko
zaid
zambia
zan
zanraw
zasi
zasing
zaw
zawsin
zawsinpantaw
zayazayan
zayed
zbusux
zealand
zecishan
zeman
zencutan
zenla
zenpaw
zentan
zenzwen
zes
zezyaw
zezyuaw
zezyuwaw
zh
zhuoxi
zi
ziehing
zihing
zihung
zik
zikang
zikeng
zil
zilmtasiqtan
zimbabwa
zin
zing
zinpaw
zinpesi
zipun
ziray
zit
ziyuw
zizyu
zmagal
zmagan
zmangay
zmimu
zmingat
zmyax
zngi
zngyan
zningat
zo
zoku
zosi
zquez
ztaw
zuma
zunli
zwetin
zweyen
zwez
zyapu
zyaw
zyawa
zyawaw
zyay
zyuaw
zyugaun
zyugi
zyugun
zyulung
zyungay
zyupun
zyut
zyuwaw
zyuwawa
zyuzi
zyuzika
zywaw
zzihung
zzik
zzil
zzit
zzyaw
{
|
}
~
°
²
´
·
đa
ǝ
ʺ
ʻ
ˈ
ː
˙
˚
̀
́
̂
̃
̄
̆
̇
̈
̉
̊
̌
̣
̧
̨
̱
эдирне
ا
ادرنہ
ٔ
߬
एड
न
र
ि
े
्
ং
ত
দ
ব
র
ল
শ
া
ী
ে
্
ਿ
ੇ
ନ
ର
ି
େ
୍
ൈ
ൻ
්
ි
ค
ง
ช
น
ม
ร
ส
ั
ิ
ี
ุ
่
้
์
ີ
ဒ
န
မ
အ
ါ
ိ
ီ
ု
့
း
ြ
ឌ
ណ
រ
អ
ី
េ
​
‎
–
—
‘
’
‚
“
”
•
…
‧
′
″
℃
→
↔
↷
−
③
④
⑦
─
☉
☾
⺀
⺄
⺆
⺈
⺊
⺌
⺕
⺝
⺸
⺼
⿰
⿱
⿲
⿳
⿴
⿵
⿶
⿷
⿸
⿹
⿺
⿻
、
。
〈
〉
《
》
「
」
『
』
【
】
〝
〞
〢
カ
コ
シ
ヤ
ユ
ロ
・
ㄧ
㇁
㇂
㇄
㇇
㇈
㇉
㇓
㎝
㐁
㐄
㐅
㐌
㐫
㐬
㐭
㐮
㐱
㑒
㒵
㒸
㒼
㓁
㓞
㔾
㕛
㕣
㖾
㘝
㚅
㚇
㚔
㚘
㝉
㝡
㝴
㝵
㞋
㞢
㞷
㠩
㠭
㠯
㡀
㡭
㡿
㢲
㢴
㣇
㣺
㥯
㪅
㫄
㫐
㫒
㫺
㬅
㬎
㬥
㬰
㲋
㳄
㷠
㸒
㸚
㸦
㼌
㼲
㽞
㿟
䀠
䂞
䍃
䏍
䒑
䖍
䖒
䖝
䖵
䙴
䚻
䜌
䝿
䡛
䧹
䪞
一
丁
丂
七
丄
丅
丆
万
丈
三
上
下
丌
不
与
丏
丐
丑
专
且
丕
世
丘
丙
业
东
丞
丟
丢
丣
两
严
並
丨
丩
个
丫
丬
中
丮
丰
丱
串
丵
丶
丷
丸
丹
为
主
丽
丿
乀
乂
乃
久
乆
乇
么
义
之
乌
乍
乎
乏
乐
乑
乔
乖
乗
乘
乙
乚
乛
乜
九
乞
也
习
乡
乳
乾
亀
亅
了
亇
予
争
事
二
亍
于
亏
亐
云
互
亓
五
井
亘
亚
些
亜
亞
亟
亠
亡
亢
交
亥
亦
产
亨
亩
享
京
亭
亮
亯
亰
亲
亳
亶
亷
人
亻
亼
亾
亿
什
仁
仇
今
介
仌
从
仐
仑
仒
仓
仔
仕
他
付
仙
仝
代
令
以
仰
仲
件
任
份
企
伊
伍
伏
伐
休
会
传
伯
估
伴
伸
但
佈
位
低
住
佐
体
何
佘
余
佛
作
你
佥
佩
佳
使
來
侈
例
侌
侖
供
依
侯
侵
便
係
促
俄
俗
保
俞
信
修
俱
俾
倉
個
倍
們
候
借
倠
倫
假
做
健
傍
傑
備
傳
傷
傾
僅
僉
像
僕
僱
儀
儂
億
儒
優
儿
兀
允
兂
元
兄
充
兆
兇
先
光
兊
克
兌
免
兑
兒
兓
兔
党
兜
兟
入
內
全
兩
兪
八
公
六
兮
兰
共
关
兵
其
具
典
兹
兼
冀
冂
冃
冄
内
冈
冉
冊
冋
册
再
冎
冏
冐
冒
冓
冖
冗
冘
写
军
农
冝
冡
冥
冫
冬
冰
冷
几
凡
凢
凱
凵
凶
凷
凸
凹
出
函
凾
刀
刁
刂
刃
刄
刅
分
切
刍
刑
刕
刖
列
刘
则
初
判
別
利
别
到
制
刺
刻
則
削
剌
前
剛
剝
剡
副
剽
劃
劇
劉
力
功
加
劦
动
助
努
劫
劭
劳
劵
勃
勇
勉
勒
動
勘
務
勝
勞
勢
勤
勹
勺
勻
勾
勿
匀
匂
包
匆
匈
匊
匋
匍
匕
化
北
匚
匝
匡
匪
匯
匱
匸
匹
区
医
匽
匿
區
十
卂
千
卄
卅
卆
升
午
卉
半
卌
华
卑
卒
卓
協
单
卖
南
博
卜
卝
卞
占
卡
卢
卣
卤
卦
卩
卪
卬
卯
印
危
即
却
卵
卷
卸
卻
卿
厂
厃
厄
历
厈
厉
压
厌
厓
厘
厚
原
厤
厥
厨
厭
厲
厶
厷
厸
去
厼
厽
叀
参
參
叅
又
叉
及
友
双
反
叐
发
叒
叔
叕
取
受
变
叚
叜
叟
叠
叢
口
古
句
另
叩
只
叫
召
叭
可
台
叱
史
右
叵
号
司
叹
叻
吂
吃
各
吅
合
吉
吊
吋
同
名
后
吏
吐
向
吕
君
吝
吞
吟
否
含
启
吳
吴
吸
吹
吻
吾
呂
呆
呈
告
员
呙
周
味
呼
命
咅
和
咎
咠
咢
咨
咪
咸
咼
哀
品
哇
哈
哉
員
哥
哪
哲
唇
唐
唱
商
啇
問
啚
啬
啻
喀
善
喜
喪
喬
單
喳
喻
喿
嗇
嗎
嗡
嘉
嘎
嘟
嘴
器
噩
噯
噶
噸
嚴
囉
囊
囗
囘
囙
囚
四
回
囟
因
囧
囬
困
囱
囷
固
国
图
圂
圃
圅
圈
國
圍
園
圓
圖
團
土
圡
圣
圥
在
圭
地
圶
圼
坂
坎
坐
坑
坒
块
坚
坡
坦
坪
坴
垂
型
垔
垚
埀
埃
埋
城
埔
域
埠
埤
埶
執
培
基
堂
堅
堆
堇
堡
堪
堯
報
場
堺
塌
塑
塔
塘
塞
塱
塵
境
墓
增
墨
墩
墳
墾
壁
壓
壘
壞
壤
士
壬
壯
声
壳
壴
壹
壺
壽
夂
处
夅
夆
备
夊
夋
夌
复
夏
夒
夕
外
夗
夘
多
夜
夢
夥
大
夨
天
太
夫
夬
夭
央
失
夲
头
夷
夸
夹
夻
夾
奂
奄
奇
奈
奉
奎
奏
奐
契
奓
奔
奕
奚
奞
奠
奢
奥
奧
奭
女
奴
她
奻
好
如
妄
妙
妟
妥
妮
妹
妻
妾
姆
姊
始
姐
姑
姓
委
姜
姻
姿
威
娃
娄
娌
娘
娜
娶
婁
婆
婚
婭
婴
婻
媒
媽
嫌
嫩
嬰
嬴
子
孑
孔
孕
孖
字
存
孚
孛
孜
孝
孟
季
孤
学
孩
孫
孱
學
宀
宁
宂
它
宅
宇
守
安
宋
完
宏
宓
宗
官
定
宛
宜
宝
实
客
宣
室
宮
宰
害
家
容
宾
宿
寄
寅
密
富
寒
察
實
寧
寨
審
寫
寬
寮
寶
寸
对
寺
寻
导
寽
対
寿
封
尃
射
将
將
專
尉
尊
尋
尌
對
導
小
少
尒
尓
尔
尖
尗
尚
尝
尞
尢
尣
尤
尧
尨
尬
尭
就
尷
尸
尹
尺
尻
尼
尽
尾
尿
局
屁
居
屈
屋
屎
屏
屑
展
屖
屚
属
屠
屡
層
屬
屮
屯
屰
山
屵
屾
岁
岂
岑
岡
岩
岱
岳
岸
峯
峰
島
峽
崁
崇
崎
崑
崔
崖
崗
崙
崚
崩
崮
嵌
嵙
嵬
嶲
嶺
嶼
巂
巒
巛
川
州
巟
巠
巢
巤
工
左
巧
巨
巩
巫
差
己
已
巳
巴
巷
巸
巽
巾
巿
帀
市
布
希
帕
帚
帛
帝
带
師
席
帶
常
幕
幫
干
平
年
幵
并
幷
幸
幹
幺
幻
幼
幽
幾
广
広
庄
床
库
底
店
庚
府
度
座
庫
庭
庶
康
庸
廈
廉
廌
廖
廛
廠
廣
廩
廬
廴
延
廷
建
廾
廿
开
弁
弃
弄
弇
弋
式
弓
弔
引
弗
弘
弜
弟
弥
弦
弱
張
強
强
彈
彊
彌
彎
彐
彑
当
彔
录
彖
彗
彡
形
彤
彥
彦
彧
彩
彭
影
彳
役
彼
往
待
很
徊
律
後
徑
徒
得
徘
徙
從
復
循
微
徵
德
心
忄
必
忌
忍
志
忘
忝
忠
忩
快
念
忽
忿
怎
思
怠
急
性
怱
恆
恒
恩
恭
息
悅
悉
悟
悠
患
悤
您
悲
悶
情
惠
惡
惢
想
惹
愁
愈
意
愛
感
愷
慈
態
慕
慢
慣
慧
慨
慮
慶
憂
憲
憶
懂
應
懷
戀
戈
戉
戊
戋
戌
戍
戎
成
我
戒
戔
或
戚
戠
戢
截
戰
戲
戴
戶
户
戹
戼
戾
房
所
扁
扇
手
扌
才
扎
打
托
执
扬
扶
批
扼
找
承
技
把
投
抗
折
抬
拉
拋
拍
拒
拓
拔
拜
括
拳
拿
持
指
按
挑
挪
振
据
捷
掃
授
掉
掌
排
掘
掛
接
控
推
掩
描
提
插
揚
換
搖
搭
搶
摩
撈
撒
撞
撣
撥
播
擊
擔
據
擺
攜
支
攴
攵
收
攸
改
攻
放
政
敄
故
效
敏
敕
敖
敗
敘
教
敝
敞
敢
散
敦
敫
敬
数
整
敷
數
斂
文
斉
斊
斐
斑
斗
料
斤
斥
斩
斬
断
斯
新
斷
方
於
施
斿
旁
旅
旋
族
旗
无
旡
既
旣
日
旦
旧
旨
早
旬
旭
旮
旱
旲
时
旺
旾
昂
昆
昇
昌
昍
明
昏
易
昔
昗
昜
星
春
昬
是
昱
昴
昷
時
晃
晋
晏
晚
晝
晨
普
景
晴
晶
智
暈
暑
暖
暗
暮
暴
暹
曆
曇
曉
曩
曰
曲
曳
更
曷
書
曹
曼
曾
替
最
朁
會
月
有
朋
服
朔
朕
朗
望
朝
期
木
朩
未
末
本
札
朮
术
朱
朵
朶
朿
杀
杂
杉
李
杏
材
村
杜
束
条
来
杯
杰
東
杲
杳
杵
松
板
枉
析
枕
林
枚
果
枝
枲
枼
柄
柏
某
染
柔
柚
查
柬
柯
柰
柳
柴
柿
标
栗
校
样
根
格
桀
桃
框
案
桐
桑
桶
桼
梁
梅
條
梟
梧
梨
梭
梯
梵
检
棉
棍
棒
棕
棘
棠
棥
棧
森
棱
棲
植
椒
椰
楊
楓
楚
業
極
楽
概
榆
榔
榮
榴
構
槍
槓
槿
樂
樊
樑
樓
標
樟
模
樣
樸
樹
橋
橘
機
檢
櫓
櫚
櫻
權
欠
次
欣
欮
欲
欶
欽
款
歆
歇
歌
歐
歛
止
正
此
步
武
歧
歨
歪
歮
歯
歰
歲
歴
歷
歸
歹
歺
死
殊
殖
殳
段
殷
殸
殹
殺
殻
殿
毋
毌
母
每
毒
毓
比
毕
毗
毚
毛
毫
毳
氏
氐
民
气
氣
水
氵
氶
氷
永
氺
氾
汀
求
汎
汗
汝
汞
江
池
汪
汶
決
沃
沒
沓
沙
沝
没
河
油
治
沿
況
泉
泊
法
泛
波
泣
泥
注
泰
洋
洛
洞
津
洪
洲
活
洽
派
流
浡
浦
浪
浬
浮
海
浸
涅
消
涯
涵
涼
淆
淋
淖
淞
淡
淮
混
清
渚
減
渠
渤
港
湄
湖
湯
湳
源
準
溪
溫
溯
滅
滋
滾
滿
漁
漂
漏
演
漠
漢
漸
潘
潭
潮
澤
澳
濁
濕
濘
濟
濱
瀑
瀧
瀾
灣
火
灬
灭
灰
灵
灶
灷
災
炅
炎
炏
炗
炙
炭
為
烈
烏
烝
烹
焉
無
焦
焱
然
煙
煞
煤
照
煩
煮
熊
熏
熟
熱
燒
燕
營
燮
爪
爫
爬
爭
爯
爰
爱
爲
爵
父
爺
爻
爽
爾
爿
片
牌
牙
牚
牛
牜
牟
牡
牢
牧
物
牪
牲
特
牽
犀
犬
犭
犮
狀
狂
狄
狊
狗
狩
独
狺
狼
猋
猒
猛
猩
猪
献
猴
猶
獅
獎
獨
獵
獸
獻
玄
率
玉
王
玟
玨
现
玻
珀
珊
珎
班
現
球
理
琉
琴
瑙
瑚
瑞
瑟
瑤
瑩
瑪
瑯
璉
璋
璞
璦
環
瓊
瓜
瓦
甘
甚
生
產
産
用
甫
甬
田
由
甲
申
电
甶
男
甸
甹
画
甾
畀
界
畏
畐
留
畜
畟
畢
略
畧
畨
番
畫
異
畱
當
畺
畾
疆
疊
疋
疌
疑
疒
疾
痛
瘤
療
癌
癶
癸
癹
登
發
白
百
皀
皃
的
皆
皇
皋
皐
皕
皮
皷
皿
盃
盆
盇
盈
益
盍
盎
监
盒
盖
盛
盟
盡
監
盤
盧
目
直
相
盾
省
眇
眉
看
眔
眞
真
眠
眷
眼
眾
着
睎
睘
睛
睡
督
睪
睿
瞉
瞏
瞢
瞧
瞭
瞿
矍
矛
矞
矢
矣
知
矦
短
石
砂
砍
研
破
硝
碇
碎
碧
確
碼
磊
磨
磯
礁
礦
示
礻
礼
社
祀
祈
祕
祖
神
祟
祠
票
祭
祿
禀
禁
福
禮
禸
禹
禺
离
禽
禾
禿
秀
秃
秉
秋
科
秒
秘
秝
秦
称
移
稟
種
稱
稻
穀
穆
穌
穗
穴
究
穹
空
穿
突
窄
窒
窟
窩
立
竒
站
竜
竝
竟
章
童
端
竹
竺
笑
笛
笠
第
筆
等
筍
筒
答
策
筷
签
箕
算
管
箭
箱
箴
節
範
篇
築
篤
篩
篭
簍
簡
簧
簽
簿
籃
米
类
粉
粛
粟
粤
粦
粲
粹
糞
糠
糬
糸
糹
系
糾
紀
約
紅
紋
納
紐
級
紛
素
索
紫
累
細
紳
紹
終
組
結
絕
絖
絜
絡
給
絫
統
絲
經
綜
綠
維
網
綿
線
緣
編
緬
緯
練
縣
縮
縱
總
績
繁
繇
織
繞
繡
繪
繫
繼
續
纍
纟
约
纪
纽
组
络
维
编
缶
缺
网
罒
罔
罕
罗
罙
罡
罢
罪
置
署
罷
羅
羊
羌
羍
美
羔
羕
羗
羚
羞
羡
羣
群
義
羲
羸
羽
翁
翅
翎
翏
習
翔
翕
翟
翠
翡
翰
翼
耀
老
耂
考
者
耆
而
耎
耑
耒
耕
耳
耴
耶
耷
聂
聊
联
聖
聘
聚
聯
聲
聶
職
聽
聿
肀
肃
肅
肉
肖
肙
肚
股
肥
肩
肯
育
肴
肺
胃
背
胎
胡
胥
胰
能
脂
脈
脊
脩
脫
脾
腓
腦
腰
腳
腺
膚
膽
臘
臟
臣
臤
臧
臨
自
臬
臭
臯
臱
至
致
臺
臼
臽
臾
臿
舀
舂
舄
與
興
舉
舊
舌
舍
舒
舖
舛
舜
舞
舟
航
般
艇
艮
良
色
艸
艹
艾
芋
芎
芒
芔
芙
芝
芬
芭
芮
花
芳
芺
芻
芽
苓
苔
苗
苟
若
苦
苧
英
茂
范
茄
茅
茨
茲
茶
茸
荅
草
荊
荒
荔
荖
荣
荳
荷
荼
莆
莉
莊
莎
莧
莫
获
莽
莿
菆
菊
菐
菜
華
菲
菸
萄
萊
萌
萬
落
葉
著
葛
葡
董
葬
葵
蒂
蒙
蒜
蒦
蒲
蒼
蓄
蓋
蓬
蓮
蓺
蔑
蔓
蔡
蔥
蔬
蔻
蕃
蕉
蕎
蕗
蕭
蕾
薄
薑
薛
薦
薩
薯
薰
薾
藍
藏
藝
藤
藥
藩
蘇
蘭
蘿
虍
虎
虐
虒
虔
處
虖
虗
虘
虚
虛
虜
虞
號
虫
虹
虽
蚤
蚩
蛇
蛋
蛛
蛾
蜀
蜂
蜘
蜜
蜥
蜴
蝟
蝨
融
螢
蟲
蠅
蠡
血
行
衍
術
街
衛
衣
衤
表
衮
衰
袁
袖
袞
被
裂
裔
裙
補
裡
製
褭
褱
褲
襄
襾
西
覀
要
覃
覆
見
規
覓
視
覧
親
覽
觀
见
角
解
言
訁
訂
訇
計
訊
討
訓
訕
託
記
訪
設
許
詔
詞
詢
詩
話
該
詹
誌
認
語
誤
誩
說
誰
誼
調
談
請
論
諸
諾
謀
謂
謎
謙
講
謝
謨
證
識
譯
議
護
譽
讀
變
讓
讠
讨
记
论
词
试
话
该
读
谷
豆
豈
豊
豎
豐
豕
豖
豙
豚
象
豦
豩
豪
豬
豸
豹
貇
貌
貓
貝
貞
貟
負
財
貢
貧
貪
貫
責
貳
貴
買
費
貿
賀
賁
資
賈
賏
賓
賔
賛
賞
賢
賣
質
賴
賽
贈
贊
贝
贡
责
贯
贲
贵
资
赖
赞
赤
赦
赫
走
起
超
越
趣
足
跋
跟
跡
路
跳
蹇
蹈
蹤
蹲
躁
身
躬
軀
車
軍
軎
軟
較
輔
輕
輛
輝
輦
輩
輪
輯
輸
輿
轉
车
辑
辛
辜
辟
辥
辭
辯
辰
辱
農
辵
辶
边
达
过
迎
运
近
连
迦
迪
述
迷
追
退
送
适
逆
逐
途
這
通
速
造
逢
連
逮
進
遀
遂
遊
運
過
道
達
遜
遠
遣
適
遭
遮
遶
遷
選
遺
邁
還
邊
邏
邑
邕
那
邦
邨
邪
邵
郎
郡
部
郭
郵
都
鄂
鄉
鄭
鄰
酉
酋
配
酒
酓
酗
酸
醃
醫
釀
釆
采
里
重
野
量
金
釒
針
釣
鈦
銀
銳
鋒
鋤
鋯
鋼
錄
錢
錦
錫
鍾
鎢
鎮
鏡
鐵
钅
针
锚
長
镸
长
門
閃
閉
開
閏
閑
閒
間
閔
閣
閱
閵
閻
闌
闍
關
门
间
闷
阑
阜
阝
阮
阿
陀
陌
降
限
院
陣
除
陳
陵
陶
陸
陽
隆
隊
隋
隔
隘
際
隡
隧
隨
險
隱
隶
隹
隺
隻
隼
隽
难
雀
雁
雄
雅
集
雈
雋
雍
雐
雔
雙
雚
雜
雝
雞
離
難
雨
雩
雪
雲
零
雷
電
需
霍
霜
霝
霞
霧
露
霸
靈
靑
青
靜
非
靡
面
靣
革
靴
鞍
韋
韓
韦
韭
韯
韱
音
頁
頂
頃
項
順
須
頌
預
頓
頗
領
頜
頡
頭
頻
題
額
顛
類
顧
顯
页
项
题
颜
風
颱
风
飛
飞
食
飠
飯
飲
飾
養
餐
館
餵
饣
饰
首
馘
香
馬
馮
駁
駦
马
骨
體
高
髟
髮
髻
鬥
鬧
鬯
鬲
鬼
魁
魏
魚
魯
鮑
鮭
鮮
鯉
鯨
鰻
鱗
鱷
鱼
鲁
鳥
鳳
鴇
鴉
鴻
鵜
鵝
鵯
鶘
鶴
鶺
鶿
鷹
鷺
鸕
鸟
鹵
鹼
鹽
鹿
麃
麒
麓
麗
麟
麥
麦
麻
麼
黃
黄
黍
黎
黑
黒
默
黛
點
黨
黹
黽
黾
鼎
鼓
鼠
鼻
齊
齋
齐
齒
齿
龍
龐
龙
龜
龟
龠
龰
龱
龴
龵
龶
龷
龸
龹
ꭰ
ꭱ
ꮑ
ꮧ
者
艹
﹙
﹚
！
＂
％
（
）
，
－
．
／
：
；
？
］
～
｣
･
𐌰
𐌳
𐌹
𐌽
𐍂
🜨
𠀁
𠀃
𠀆
𠀉
𠀎
𠀐
𠁁
𠁣
𠂆
𠂇
𠂈
𠂉
𠂊
𠂋
𠂎
𠂒
𠂔
𠂛
𠂡
𠂢
𠂤
𠂬
𠂭
𠂹
𠃊
𠃋
𠃌
𠃍
𠃎
𠃑
𠃓
𠃔
𠃜
𠄌
𠄎
𠄠
𠄢
𠆢
𠆥
𠇍
𠈌
𠌵
𠓜
𠔉
𠔥
𠔼
𠔽
𠔿
𠕀
𠕁
𠕋
𠘧
𠘨
𠙻
𠙼
𠚏
𠚒
𠚤
𠚪
𠣏
𠤎
𠤕
𠥓
𠦄
𠦑
𠦝
𠧒
𠧗
𠧪
𠩺
𠪚
𠫓
𠫔
𠫤
𠬛
𠬝
𠬞
𠬢
𠬤
𠬶
𠮛
𠮦
𠮷
𠯑
𠱠
𠳮
𠷎
𡈼
𡉀
𡉵
𡌥
𡍮
𡏳
𡕒
𡕩
𡕰
𡖅
𡗗
𡗜
𡘆
𡘤
𡧱
𡨄
𡩧
𡬠
𡭽
𡰣
𡰥
𡰪
𡰯
𡰱
𡷈
𡸁
𡿨
𡿩
𡿪
𡿺
𢀖
𢀛
𢀩
𢁙
𢆉
𢆰
𢆶
𢇁
𢇇
𢉖
𢌬
𢌿
𢏚
𢑑
𢑚
𢖻
𢙣
𢛳
𢦏
𢦒
𢧵
𢼄
𢾕
𣁋
𣄼
𣅀
𣅽
𣍘
𣎳
𣎵
𣏋
𣏼
𣗥
𣥂
𣥖
𣦵
𣦼
𣧄
𣪊
𣪠
𣬉
𣳾
𣶒
𤇾
𤊽
𤐫
𤓰
𤔔
𤕨
𤣩
𤰇
𤰔
𤰞
𤴓
𤴔
𤽄
𥁑
𥁕
𥃦
𥃩
𥃭
𥇡
𥑟
𥘅
𥘈
𥝢
𥫗
𥱡
𦈢
𦉪
𦉬
𦉼
𦍌
𦍒
𦎧
𦐇
𦓔
𦔮
𦘒
𦙃
𦚏
𦣝
𦣞
𦣻
𦥑
𦥔
𦥯
𦨉
𦭝
𦰩
𧆞
𧈧
𧘇
𧰨
𧴪
𧴮
𧵩
𧾷
𨸏
𨾴
𩙿
𩠐
𩫏
𩵋
𪉷
𪜀
𪟽
𪠲
𪩲
𫇦
𫔭
𫜸
𫝀
𫠣
𫠩
𫢉
𫥞
𫩏
𫩠
𫪡
𫲽
𫶧
𬀷
𬐘
𬗌
𬙙
𬛸
𬜯
𬟩
𬯁
𬴘
𬺻
𬼉
𬼖
𭀰
𭁈
𭁨
𭅰
𭑈
𭕄
𭗼
𭤨
𭥫
𭻾
𮅕
𮊿
𮍌
𮍏
𮓗
𮥼
𮧮
廾
𰀁
𰀄
𰀈
𰀉
𰀕
𰀠
𰀡
𰀢
𰀪
𰁜
𰃮
𰆊
𰆘
𰋙
𰕎
𰢴
𰧭
𰯲
18--
23--
82--
99--
a--
aa--
ab--
ac--
ad--
adel--
af--
ak--
al--
ald--
ale--
ali--
ama--
ami--
an--
anz--
ap--
api--
app--
apu--
ar--
ara--
arc--
arg--
args--
arl--
as--
at--
au--
auto--
aw--
ay--
ayko--
b--
ba--
bah--
ban--
bar--
bat--
baw--
bb--
be--
bel--
ber--
bh--
bha--
bhu--
bi--
bk--
bl--
blu--
bnu--
bo--
bor--
bra--
bre--
bri--
bridg--
bro--
bu--
bur--
by--
bz--
c--
ca--
can--
car--
cat--
ce--
cen--
cenz--
cha--
check--
chi--
cho--
ci--
cimu--
cin--
cinmu--
cinq--
cint--
cir--
cm--
cn--
co--
col--
com--
commi--
con--
cong--
coordi--
cor--
cre--
cu--
cui--
cun--
cuy--
cy--
cya--
cyali--
cye--
cyu--
d--
da--
dal--
date--
de--
def--
di--
do--
doc--
du--
e--
ed--
edu--
el--
em--
en--
enti--
es--
ex--
exa--
ez--
f--
fa--
fe--
fel--
fen--
fi--
fol--
for--
furl--
g--
ga--
gac--
gam--
gamu--
gan--
gap--
gar--
gas--
gat--
gaw--
ge--
germ--
get--
gg--
gh--
gi--
gin--
gla--
gmi--
gml--
gmn--
gna--
go--
gr--
gu--
h--
ha--
han--
har--
hay--
he--
hen--
hg--
hh--
hi--
hil--
hin--
hk--
hlu--
hmc--
hmk--
hn--
hna--
ho--
hor--
hpu--
hu--
hun--
huw--
hw--
hwa--
hy--
i--
ik--
in--
inc--
inclu--
inf--
ing--
ini--
inlu--
inn--
is--
iv--
iy--
j--
ja--
je--
jo--
ju--
k--
ka--
kal--
kan--
kath--
kaw--
kay--
kb--
kbhul--
ke--
ken--
kg--
kh--
khe--
khu--
ki--
kih--
kil--
kim--
kin--
kinb--
king--
kinh--
kit--
kk--
kkz--
kl--
klo--
klu--
km--
kn--
kne--
kng--
knh--
knu--
ko--
koci--
koka--
komin--
kon--
kow--
kr--
kra--
krl--
kru--
ku--
kun--
kwa--
ky--
kyu--
kz--
l--
la--
lal--
lan--
lay--
le--
leg--
len--
les--
lg--
lga--
lhe--
li--
lic--
lin--
link--
liwon--
lk--
ll--
llu--
lly--
lmq--
ln--
lng--
lo--
lon--
lot--
lp--
lq--
lu--
lun--
luy--
ly--
lyu--
m--
ma--
make--
mal--
mali--
man--
mar--
mau--
maw--
may--
mb--
mbh--
mbho--
mc--
mci--
mcz--
me--
mg--
mgl--
mh--
mha--
mhh--
mhi--
mho--
mhoq--
mhuq--
mi--
mil--
min--
minps--
mins--
mint--
mirror--
mk--
mka--
mkh--
ml--
mn--
mna--
mng--
mo--
mon--
mos--
mp--
mpt--
mq--
mqu--
mr--
ms--
msay--
mshu--
msin--
msk--
msl--
msr--
mst--
msu--
mt--
mtb--
mtg--
mth--
mtkz--
mtq--
mtra--
mtu--
mu--
mw--
mwe--
my--
mz--
mzi--
n--
na--
nan--
nd--
ne--
nelin--
ng--
nga--
ngu--
nh--
nha--
ni--
nin--
no--
non--
not--
nqu--
nu--
ny--
nya--
o--
oba--
od--
on--
op--
or--
origargs--
os--
over--
oz--
p--
pa--
paf--
pan--
pas--
paw--
pay--
pb--
pbi--
pc--
pcy--
pe--
pen--
pg--
pgan--
ph--
phn--
pi--
pin--
pinb--
pink--
pinq--
pins--
pint--
pirl--
piz--
pk--
pkk--
pkr--
pl--
pla--
plk--
plq--
pm--
pn--
pna--
png--
po--
pp--
ppg--
ppz--
pq--
pqq--
pr--
pra--
pri--
pro--
prog--
protec--
ps--
psa--
psin--
psinz--
psp--
psq--
pt--
pth--
pu--
px--
py--
pya--
pz--
pzi--
q--
qa--
qala--
qaw--
qay--
qe--
qhn--
qin--
qinn--
qlu--
qma--
qmaz--
qmi--
qn--
qna--
qnh--
qnz--
qq--
qqa--
qr--
qsa--
qsu--
qu--
qz--
r--
ra--
raw--
ray--
re--
recur--
ren--
render--
ri--
rm--
ro--
ros--
rr--
ru--
ry--
ryax--
s--
sa--
sae--
sam--
san--
sandbox--
saq--
sar--
sat--
saw--
say--
sbi--
sc--
sci--
se--
semi--
sen--
sep--
ser--
sg--
sga--
sh--
sha--
share--
shi--
shn--
sho--
show--
si--
sin--
sinn--
sinz--
siy--
sk--
ska--
sl--
sla--
sli--
sll--
slo--
sm--
smi--
smr--
sn--
sna--
so--
sp--
spe--
spz--
sq--
sqa--
sqtu--
squ--
sr--
ss--
st--
str--
stu--
su--
sub--
sum--
sun--
swa--
swe--
sy--
sya--
sye--
syu--
szen--
t--
ta--
tai--
tan--
taw--
tay--
tba--
tbu--
te--
ten--
ter--
terr--
tes--
tg--
th--
thz--
ti--
tidyval--
tin--
ting--
tk--
tku--
tl--
tla--
tli--
tm--
tma--
to--
tong--
tp--
tq--
tqr--
tqu--
tr--
tra--
tre--
tt--
tta--
tu--
tun--
tung--
ty--
u--
ua--
uk--
ul--
un--
up--
ut--
uw--
v--
van--
ve--
vertical--
vi--
w--
wa--
wal--
wan--
war--
we--
werl--
wi--
wu--
x--
xf--
xi--
xu--
y--
ya--
yak--
yal--
yarl--
ye--
yen--
yon--
yos--
yu--
yun--
z--
zan--
ze--
zel--
zen--
zh--
zi--
zin--
zni--
zo--
zu--
zyu--
--0
--00
--1
--2
--3
--4
--5
--6
--7
--8
--9
--a
--aa
--ac
--ade
--afa
--ag
--aga
--ah
--ahuy
--ain
--ak
--aka
--al
--am
--ama
--an
--ana
--anci
--ang
--anu
--aq
--aqi
--ar
--arg
--args
--arl
--ary
--as
--at
--ata
--ate
--ato
--au
--aw
--awn
--ax
--ay
--ayrl
--b
--ba
--ban
--baw
--be
--bi
--biru
--blurb
--bo
--boq
--bran
--bu
--buw
--c
--ca
--can
--cat
--caw
--ce
--cey
--ch
--chu
--ci
--cin
--ck
--class
--co
--createurl
--cs
--cu
--cui
--cun
--cwi
--cy
--cya
--cye
--cyo
--cyu
--d
--da
--date
--de
--ders
--dge
--di
--display
--do
--ds
--e
--ea
--eastern
--ec
--ed
--editurl
--efu
--ehuk
--eimer
--el
--ela
--ell
--en
--ent
--ep
--er
--erl
--ern
--eru
--ery
--es
--ess
--est
--et
--eta
--ever
--ew
--ext
--ey
--eya
--f
--fa
--fe
--fi
--ft
--fu
--func
--fus
--g
--ga
--gah
--gal
--gan
--gat
--gay
--gci
--ge
--gey
--gi
--gli
--go
--gun
--h
--ha
--han
--hat
--hay
--he
--hes
--hi
--hing
--hiy
--hko
--ho
--hu
--huk
--hut
--huy
--hwa
--hwe
--hwo
--hy
--hya
--i
--ia
--ic
--ice
--id
--ie
--ifa
--ih
--ik
--ike
--iko
--il
--ilq
--in
--ine
--ing
--ins
--ion
--iq
--is
--ise
--ish
--ision
--iso
--it
--ive
--iy
--iya
--j
--ja
--k
--ka
--kah
--kan
--kay
--ke
--key
--ki
--kin
--ko
--kok
--koka
--kot
--ku
--kura
--kuw
--kuy
--ky
--kya
--kyo
--kyu
--kyuw
--l
--la
--lan
--lapa
--lar
--las
--lay
--le
--len
--les
--ley
--li
--lih
--lile
--link
--liq
--lis
--liya
--lle
--lli
--lmi
--lo
--lon
--loq
--lq
--lu
--lun
--luq
--luw
--luy
--ly
--lyn
--m
--ma
--maki
--man
--maw
--me
--med
--ment
--method
--mg
--mi
--mincu
--mo
--mu
--mus
--mzyup
--n
--na
--nan
--nanu
--nas
--naw
--nce
--nd
--nda
--ne
--nes
--ng
--ngan
--ngiy
--ngun
--nha
--ni
--nie
--nis
--nk
--nke
--nli
--nna
--no
--nq
--nqu
--ns
--nt
--nta
--nu
--nux
--nuya
--nya
--o
--oh
--oi
--ois
--ok
--ola
--om
--ombo
--on
--only
--ons
--oon
--oq
--or
--ors
--os
--ou
--ow
--oy
--p
--pa
--page
--pah
--paw
--pe
--ped
--pin
--piya
--po
--pt
--pu
--puh
--puw
--q
--qan
--qani
--qehan
--qeri
--qi
--qih
--qil
--qu
--que
--r
--ra
--ral
--ran
--ras
--rc
--rch
--rd
--re
--ren
--rence
--reng
--rgh
--ri
--rin
--rk
--rl
--rley
--rlte
--rly
--rn
--rne
--ro
--rs
--rt
--ru
--rw
--ry
--ryo
--s
--sa
--sal
--san
--sburg
--se
--seng
--sh
--ship
--si
--sian
--side
--sin
--siq
--so
--son
--source
--ss
--st
--sta
--ste
--ster
--style
--su
--sul
--sun
--suqan
--suy
--sville
--sy
--sye
--t
--ta
--table
--tahwe
--tal
--tan
--taring
--tas
--taw
--tay
--te
--ted
--text
--th
--ti
--tiko
--tin
--tion
--tiya
--tla
--to
--ton
--ts
--tt
--tti
--tu
--tun
--tungzencyaw
--tz
--u
--ua
--uh
--uhi
--ui
--ul
--um
--un
--ung
--uq
--uqi
--ur
--url
--us
--ut
--ute
--uw
--ux
--uy
--v
--val
--value
--ve
--ville
--vin
--vo
--voy
--w
--wa
--wagiq
--wan
--wang
--waw
--we
--well
--wn
--wo
--wp
--ws
--wt
--wun
--wx
--x
--xan
--xun
--y
--ya
--yan
--yaun
--yay
--ye
--yen
--yn
--yo
--ys
--yu
--yun
--yut
--z
--za
--zan
--ze
--zen
--zi
--zit
--zo
--zu
--zyu
--zza
--ว
