!
"
#
##0
##1
##10
##11
##12
##13
##14
##15
##16
##17
##18
##19
##2
##20
##21
##22
##23
##24
##25
##26
##27
##28
##29
##3
##30
##31
##32
##33
##34
##35
##36
##37
##38
##39
##4
##40
##41
##42
##43
##44
##45
##46
##47
##48
##49
##5
##50
##51
##52
##53
##54
##55
##56
##57
##58
##59
##6
##60
##61
##62
##63
##64
##65
##66
##67
##68
##69
##7
##70
##71
##72
##73
##74
##75
##76
##77
##78
##79
##8
##80
##81
##82
##83
##84
##85
##86
##87
##88
##89
##9
##90
##91
##92
##93
##94
##95
##96
##97
##98
##99
$
%
&
'
(
)
*
+
,
-
.
/
0
00
000
001
002
004
005
006
007
008
01
010
011
01688
02
022
023
024
03
031
034
0399
04
045
05
050
051
052
054
055
06
0632
07
070
072
077
08
086
087
089
09
090
093
1
10
100
1000
1001
101
1012
1016
102
1021
1024
103
1037
1038
104
1042
1048
105
1055
106
107
1071
108
1080
109
1096
11
110
1100
111
112
113
1138
114
115
1155
116
117
118
119
12
120
1200
1206
121
1210
122
1220
123
1236
124
1242
125
1250
1258
126
1260
127
1273
128
1284
1286
1287
129
1290
1294
1299
13
130
1300
1304
131
1313
132
1320
1321
133
1332
134
1341
1342
1347
135
1350
1351
136
137
1374
1375
138
1388
1389
139
1390
1393
1394
1398
14
140
1400
1402
1405
141
1413
1414
142
1421
1429
143
144
1444
1448
145
1451
1452
1453
146
1462
1467
147
1470
1473
1476
148
1483
1489
149
1490
1492
1494
15
150
1500
1501
1502
1506
151
1510
1513
1514
1515
1516
1517
1518
1519
152
1520
1521
1525
1526
1527
1529
153
1530
1531
1532
1533
1534
154
1540
1541
1543
1544
1546
1547
1548
155
1553
1556
1557
1558
156
1560
1561
1564
1566
157
1571
1572
1575
1577
1578
1579
158
1580
1581
1583
1585
1586
1587
159
1590
1592
1594
1595
1596
16
160
1600
1601
1603
1605
1606
1609
161
1610
1612
1614
1615
1616
1617
1618
1619
162
1621
1623
1624
1626
1627
1628
1629
163
1631
1632
1633
1638
1639
164
1640
1641
1642
1643
1644
1645
1646
1647
1648
1649
165
1650
1651
1654
1655
1656
1657
1658
1659
166
1660
1661
1662
1663
1664
1665
1666
1667
1668
1669
167
1670
1671
1672
1673
1674
1675
1676
1677
1678
1679
168
1680
1683
1684
1685
1687
1689
169
1690
1693
1694
1695
1696
1697
1698
1699
17
170
1700
1701
1703
1706
1707
171
1710
1712
1713
1718
172
1720
1725
1726
1728
173
1730
1731
1732
17323628
1733
1734
1735
1736
1737
1738
174
1740
1741
1742
1743
1744
1745
1746
1747
1748
1749
175
1750
1751
1752
1753
1754
1755
1756
1757
1758
1759
176
1760
1761
1762
1763
1764
1765
1766
1767
1768
1769
177
1770
1771
1772
1773
1774
1775
1776
1777
1778
1779
178
1780
1781
1782
1783
1784
1785
1786
1787
1788
1789
179
1790
1791
1792
1793
1794
1795
1796
1797
1798
1799
18
180
1800
1801
1802
1803
1804
1805
1806
1807
1808
1809
181
1810
1811
1812
1813
1814
1815
1816
1817
1818
1819
182
1820
1821
1822
1823
1824
1825
1826
1827
1828
1829
183
1830
1831
1832
1833
1834
1835
1836
1837
1838
1839
184
1840
1841
1842
1843
1844
1845
1846
1847
1848
1849
185
1850
1851
1852
1853
1854
1855
1856
1857
1858
1859
186
1860
1861
1862
1863
1864
1865
1866
1867
1868
1869
187
1870
1871
1872
1873
1874
1875
1876
1877
1878
1879
188
1880
1881
1882
1883
1884
1885
1886
1887
1888
1889
189
1890
1891
1892
1893
1894
1895
1896
1897
1898
1899
19
190
1900
1901
1902
1903
1904
1905
1906
1907
1908
1909
191
1910
1911
1912
1913
1914
1915
1916
1917
1918
1919
192
1920
1921
1922
1923
1924
1925
1926
1927
1928
1929
193
1930
1931
1932
1933
1934
1935
1936
1937
1938
1939
194
1940
1941
1942
1943
1944
1945
1946
1947
1948
1949
195
1950
1951
1952
1953
1954
1955
1956
1957
1958
1959
196
1960
1961
1962
1963
1964
1965
1966
1967
1968
1969
197
1970
1971
1972
1973
1974
1975
1976
1977
1978
1979
198
1980
1981
1982
1983
1984
1985
1986
1987
1988
1989
199
1990
1991
1992
1993
1994
1995
1996
1997
1998
1999
2
20
200
2000
2001
2002
2003
2004
2005
2006
2007
2008
2009
201
2010
2011
2012
2013
2014
2015
2016
2017
2018
2019
202
2020
2021
2022
203
204
205
206
207
208
209
21
210
211
212
213
214
2146
215
216
217
218
219
22
220
221
222
223
224
225
226
227
228
229
23
230
231
232
233
234
235
236
237
238
2382597
2382613
239
24
240
241
242
243
244
245
246
247
248
249
25
250
2500
251
252
253
254
255
256
257
258
259
26
260
261
262
263
264
265
266
267
268
269
27
270
271
272
273
274
275
276
277
278
279
28
280
281
282
283
284
285
286
287
288
29
290
292
293
294
295
296
297
298
299
3
30
300
3000
301
302
303
304
305
306
307
308
309
31
310
311
312
313
314
315
316
3166
317
318
319
32
320
321
322
323
324
325
326
327
328
329
33
330
331
333
334
335
336
337
338
339
34
340
341
342
343
344
345
346
347
348
35
350
351
352
353
354
355
358
359
36
360
361
363
364
365
366
367
368
369
37
370
371
372
373
374
375
376
377
378
38
380
384
385
387
388
389
39
390
392
393
394
395
397
39816686
399
4
40
400
4000
401
403
404
405
406
407
408
409
41
410
411
412
413
415
416
417
418
419
42
420
421
422
423
424
425
426
427
428
429
43
430
431
434
435
436
438
439
44
445
446
448
449
45
450
451
452
453
454
455
456
458
459
46
460
461
463
464
465
467
47
470
471
472
474
475
476
477
478
479
48
480
481
482
483
484
485
486
487
488
49
490
491
492
496
499
5
50
500
5000
501
502
503
504
505
506
508
509
51
510
511
512
513
514
515
516
517
52
520
521
522
524
525
527
528
53
530
532
537
54
541
543
547
55
550
551
552
553
554
557
558
559
56
562
563
564
565
567
569
57
570
571
572
573
574
575
576
578
58
580
581
582
583
584
585
588
59
590
591
593
596
598
599
6
60
600
6000
601
602
605
606
607
609
61
610
611
613
614
617
619
62
620
621
622
623
624
625
626
627
6278
628
629
63
630
631
632
633
634
636
637
638
639
64
641
642
643
644
65
650
651
652
653
654
656
66
661
666
667
668
669
67
670
671
674
675
679
68
680
682
683
688
69
690
691
696
697
698
7
70
700
7000
703
704
705
7090
71
711
713
716
719
72
720
723
727
73
730
731
733
734
739
74
741
744
745
747
75
750
751
752
753
755
758
76
761
765
767
768
77
770
772
774
775
78
780
78339
784
786
789
79
795
797
798
8
80
800
803
804
81
810
811
815
817
819
82
820
823
826
828
83
830
833
839
84
840
843
844
848
849
85
850
851
855
856
857
86
860
862
863
865
867
868
869
87
870
875
877
878
88
884
887
889
89
897
899
9
90
900
902
905
908
909
91
911
912
914
92
921
923
93
934
939
94
940
940997
942
944
945
949
95
950
951
955
96
962
963
964
965
966
967
968
969
97
970
971
972
975
976
978
979
98
980
983
984
986
987
988
989
99
991
992
997
998
99918
:
;
<
=
>
?
@
\
^
_
`
a
aa
aaron
ab
abad
abainville
aban
abaniye
abaucourt
abba
abbas
abbaye
abbe
abbey
abbreviation
abby
abc
abd
abdal
abdali
abdi
abdu
abdul
abdullah
abdurrahman
abdusamet
abe
abel
abelmoschus
abgeordnete
abgeordnetehttp
abi
abidin
able
ableuvenettes
ablon
ablona
ablone
abloni
ablono
aboncourt
about
above
abraham
abreschviller
abstract
abu
abur
abıriyayo
abıriye
abırneno
abırriya
abırriyao
abırriyay
abırriyayıs
abırriye
abırriyene
abırriyeno
abırriyo
ac
aca
academia
academic
academy
acadie
accepted
accepts
access
accessdate
accessed
according
ace
acemi
acentey
acha
achain
achebe
acheminement
acontista
acromantis
across
act
actes
acting
action
active
actual
actually
acı
ad
ada
adakl
adako
adalet
adam
adams
adana
adanalı
adaptasyon
adaptasyonan
adaptasyone
adaptasyoni
adaptasyono
adapte
adaptiv
adar
adare
adari
adası
add
added
adding
addition
additional
address
adds
ade
adelange
adelbertkiye
adele
adelphi
adem
ademi
adeo
adet
adete
adey
adeyan
adeyane
adeye
adeyi
adeyo
adi
adil
adile
adipisicing
adiyaman
adiye
adları
adler
administrative
administrators
adnan
ado
adolf
adompt
adrese
adrian
adrien
adriyatik
adriyatiki
adult
advanced
adventure
adventures
adı
adıgeki
adım
adını
adır
adıre
adıri
adıro
adıyaman
adıyla
ae
af
afak
afc
aferiyao
aferiyayıs
afeto
affect
affects
affet
affiche
afficher
affle
afganistan
afghan
afghanistan
afis
afluents
africa
african
afrika
afrikaanki
afrikao
afrikay
afrikaya
afriqa
afro
afroamerikan
afroamerikanan
afs
aftab
after
afyonkarahisar
afyonkarahisari
afyonkarahisaria
afzelius
ag
again
against
age
agency
agerayisi
ageyra
ageyreno
agnes
agnostisizm
agricola
aguilera
agusti
agutiy
ah
ahan
ahane
ahani
ahatlı
ahe
ahi
ahidimdir
ahin
ahini
ahmad
ahmed
ahmet
ahname
aho
ahriye
ahu
ahura
ai
aid
aidan
aide
aids
aignan
aiguillon
ail
aile
ailesi
ailey
aileye
aimer
ain
aincreville
aingeville
ainvelle
air
airan
airane
aire
aires
airi
airo
airport
ais
aise
aisha
aisne
aisney
aisneya
aisneyo
ait
aix
ajaccio
ajam
ajda
ajol
ak
aka
akademi
akademik
akademiki
akademiko
akademisyen
akademisyenan
akademisyene
akademisyeni
akademisyeno
akademiya
akademiye
akadki
akal
akalın
akan
akar
akarsu
akbayram
akc
akdag
akdeniz
akdog
akeno
akerd
akerde
akerdo
akerdıs
akhisar
akhisari
akhisaria
aki
akif
akkaya
akko
akları
akmak
akman
ako
akp
akpy
akpınar
akrep
aks
aksiyoni
aksoy
aksu
aktas
akti
aktif
aktiviste
aktor
aktore
aktoro
aktris
aktrisa
aktrise
aktuel
akustik
akyurt
akın
akır
akırcalı
al
ala
alabama
aladin
alaeddin
alain
alaincourt
alan
alani
alanya
alaplıya
alar
alas
alaska
alastre
alaydayeni
alba
albaida
albalat
albany
albert
alberta
albertaya
alberto
albrecht
albu
album
albumane
albume
albumi
albumo
albums
albun
alca
alcala
alchemy
alcu
ald
aldu
aldus
ale
alejandro
aleksandr
alem
alembert
aleme
alemi
alessandro
alet
alete
aleti
aleto
alev
alevi
alex
alexander
alexandre
alexi
alexis
alf
alfa
alfabe
alfabeo
alfabey
alfabeye
alfabeyo
alfara
alfonso
alfred
ali
alias
aliases
alice
align
aligned
alignment
alim
alime
aliqua
aliquip
alis
alive
aliya
aliye
alkerdıs
alkol
alkoli
all
alla
allah
allahaısmarladık
allahi
allamont
allan
alle
allen
allende
allentown
alliance
allier
allieri
allieriya
allieriyo
allma
allmusic
allondrelle
allow
allowing
allows
allthesky
allı
alm
alma
alman
almana
almanan
almane
almani
almanki
almankiye
almankiyo
almano
almanya
almanyao
almanyay
almanyaya
almanyayo
almost
alone
along
alp
alpan
alparslan
alpe
alpes
alpesi
alpha
alphabet
alpi
alpko
already
als
alse
also
alsophila
alt
alta
altan
altay
altered
alternate
alternatif
alternative
alternatively
alternativemap
although
alto
altocumulus
altostratus
altrippe
altun
altviller
altı
altın
altınc
altında
altınmes
altıok
alu
alucra
alucraya
always
alzette
alzing
alı
alıkus
alım
alıme
alımi
alıs
am
ama
amade
amadeus
amaene
amak
aman
amance
amand
amanda
amantis
amanty
amanvillers
amar
amardıs
amare
amari
amariyao
amariyene
amariyeno
amaro
amasya
amazon
amazoni
amba
ambacourt
ambaze
amber
ambere
amberi
ambero
ambleme
ambly
ambox
ame
amedi
amel
ameles
amelia
ameo
ameri
america
american
americans
amerigo
amerika
amerikaa
amerikae
amerikan
amerikana
amerikanan
amerikane
amerikani
amerikano
amerikao
amerikay
amerikaya
amerikaye
amerikayo
amerikayıc
amerikayıca
amerikayıci
amerikayıco
amet
amey
ameya
ameye
ameyi
ameyo
ameyıs
ami
amia
amigos
amin
amir
amirabad
amiri
amis
amlıbel
amlıdere
amlıhems
amlık
amman
amnan
amnane
amnani
amnania
amnano
amne
amo
among
amor
amora
amore
amori
amorphoscelis
amos
amount
amour
ampanya
ampiyon
ampiyone
ampiyoneya
ampiyoniya
ampiyoniye
amsterdam
amsterdami
amu
amurland
amy
amygdaloides
amın
an
ana
anadoli
anadoliya
anadoliye
anadolu
anagrama
anakc
anakkale
anakonda
anal
analitik
analiz
analize
analogous
analysis
anan
anane
anars
anatoli
anatolicus
anatoliya
anatoliye
anatomiya
anatomiye
anaxqele
anaxqeley
anaxqeleya
anay
anayi
anca
ance
ancemont
ancene
anceno
ancerville
anchor
anchors
anci
ancia
ancient
anciya
anciyao
anciyay
anciyaya
anciyaye
anciyayo
anciyene
ancy
ancılar
and
ande
anderberg
anderny
anders
andersen
anderson
andes
andi
andorra
andre
andrea
andreas
andrew
andrews
andrey
andromeda
andronikos
andrzej
andy
ane
aneno
aneya
ang
ange
angel
angela
angeles
angelesi
angelina
angelo
angels
anglemont
anglo
angola
angus
anhalt
anhalti
ani
anim
animal
animals
animasyon
animasyone
animasyoni
animasyonio
animasyoniye
animated
anita
aniya
aniye
anjir
anjou
ankara
ankaya
anker
ankus
anlar
anlat
anlı
anlıurfa
ann
anna
annake
anne
annem
anni
annie
ano
anoia
anoiaya
another
anould
anoux
anqara
anqıriye
ans
ansi
ant
anta
antakya
antalya
antalyaya
antarktika
ante
antene
anthology
anthony
anthropology
anti
antigua
antik
antikan
antike
antiki
antile
antilly
antinous
antinousi
antiques
antisekulerizm
antisemitizm
anto
antofagasta
antoine
antoloji
anton
antonio
antropolociya
antropolociye
antum
antıs
anu
anxaneya
anxaneye
any
anyan
anyani
anything
anzeling
anı
anıka
anıkan
anıke
anıki
anıstan
anıstani
anıstanio
ao
aog
aouze
ap
apa
apan
apart
apartman
apartmanı
ape
apec
apece
apeci
apertura
apkerdis
apkerdıs
apkın
aplicacions
apo
apollo
appear
appearance
appears
appended
apple
applicable
application
applied
applies
apply
approach
appropriate
approx
aprank
apremont
april
apur
apuri
apus
apxaney
aq
aqe
aqi
aqseraiye
aqserayiye
aqıl
aqıle
aqıli
ar
ara
arab
arabesk
arabi
arabian
arabic
arabica
aragon
aragoni
aragorn
aral
aralıg
aralık
aram
aramaic
aramki
aramızda
aran
arance
arancione
arane
ararat
ararati
aras
arash
arasında
arbor
arc
arcantin
arcantini
arce
archaeology
archer
arches
archettes
archimantis
architecture
archive
archived
archivedate
archives
archiveurl
arctan
arcus
ard
arda
ardahan
ardahani
arde
ardene
ardennes
ardennesi
ardennesiya
ardes
ardi
ardo
ardıs
are
area
areas
arena
arenas
arente
ares
areste
aret
arete
areye
arez
areze
arezekerdıs
arezey
arezeye
arg
argancy
argas
argonne
argumane
argumano
argument
arguments
ari
aria
arica
arie
ariel
arif
aristofanes
aristoteles
aristotelesi
aritmetik
ariya
ariyo
arizona
ark
arkadas
arkansas
arken
arkeolociye
arkeolog
arki
arktik
arkı
arkılar
arkıları
arkın
arkıs
arkısı
armag
arman
armeni
armenian
arms
armstrong
army
arn
arna
arnao
arnawudiye
arnawudki
arnayi
arnayis
arnayıs
arne
arnene
arneno
arniyay
arno
arnold
arnor
aro
aron
around
arousa
arraincourt
arrancy
arrente
arresti
arriance
arry
ars
arsenal
arsiv
arslan
art
arte
artes
arthur
article
articles
artillery
artist
artistiki
artists
artois
arts
arturo
artvin
artvini
artık
aru
arwan
arwe
arxiv
arya
aryaki
aryan
arzu
arı
arıstan
arıstane
arıstani
as
asa
asaf
asan
asano
asansor
asayıs
ase
asen
asena
asene
aseno
asenohttps
asfalt
asfalta
ash
ashley
asi
asia
asian
asimilasyono
asimile
asimilekerdıs
asin
asistane
ask
asker
askeri
aslan
aslani
aslaniya
aslı
asma
asme
asnaw
asnawkerdıs
asnawkeri
asp
aspach
aspx
ass
asse
assenoncourt
assessment
associated
association
astare
aste
astronaut
astronom
astronoman
astronomi
astronomiye
astronomo
asu
asuman
asur
asuran
asuri
asurki
asya
asyao
asyatiki
asyay
asyaya
ası
asım
asın
asıne
asıni
asır
at
ata
atacama
atak
atako
atalca
atan
ataol
atas
atasoy
atatu
atay
ate
ateist
ateistan
ateiste
ateisti
ateizm
ateizmi
ates
atheism
atheist
athletic
ati
atilla
atina
atiye
atlanta
atlantik
atlantiki
atlantikio
atlantikiya
atlantique
atlantis
atlas
atle
atletizm
atom
atomi
atro
atropurpurea
atsız
attack
attention
attigne
attigny
attila
attribute
attributes
atv
atı
atıf
au
aube
aubea
aubey
aubeya
aubigny
aubin
auboue
aubre
aude
audea
audey
audeya
audio
audun
auf
augny
august
auguste
augustin
augustus
aujon
aulnois
ault
aulx
aumont
aumontzey
aumur
aus
austen
austin
australia
australya
australyaya
australyayo
austroasyatiki
austrone
austurya
aute
author
authorlink
authormask
authors
autigny
autise
auto
autobiography
autocollapse
automatic
automatically
autre
autres
autreville
autrey
auvergne
auvers
auville
aux
auzainvilliers
auze
av
ava
available
avanki
avant
avare
ave
avec
aver
average
averi
avers
avesnes
avesta
avicii
avie
avijit
avillers
avioth
avni
avocourt
avoid
avold
avon
avrainville
avranville
avril
avrupa
avs
avuc
avukat
avus
aw
awa
awan
award
awards
away
awe
aweno
awi
awke
awo
awre
awrupa
awı
awıka
awıke
awın
awıstralya
awıstırya
awıstıryayıc
awıte
awıto
ax
axa
axi
axır
ay
aya
ayan
ayas
ayasofya
ayat
aybag
aycuma
aycumaya
aydemir
aydi
aydog
aydoilles
aydın
aydıni
aydıniya
aydınlar
aye
ayet
ayeta
ayetan
ayete
ayeti
aygu
ayhan
ayi
ayko
ayla
aylak
aylin
ayna
aynur
aynure
aynı
ayo
ayra
ayre
ayrılık
ays
aysel
ayten
ayvacık
ayı
ayır
ayıs
az
azad
azade
azadeo
azadi
azali
azannes
azarpe
aze
azel
azerbaycan
azerbaycane
azerbaycani
azeri
azerki
azi
azic
aziz
azmin
azminada
azoudange
azteki
b
ba
baa
bab
baba
babalar
babam
babamın
baban
babası
babek
babel
babet
babeta
babete
babeti
babi
babiji
babil
babili
babu
baby
bacar
bacare
bacari
bacaro
bace
bach
back
background
backing
bacon
bad
badawi
bade
baden
badger
badi
badme
bado
badonvilliers
baffe
bag
bages
bagesi
bagesiya
baggins
bagh
bagneux
baha
bahadır
bahama
bahar
bahc
bahde
bahdo
bahman
bahram
bahtiyar
bai
bailey
bailleul
baillon
bailly
bains
bainville
baix
bajare
bajari
bak
bakalım
bakanlıg
baker
baki
bakterie
bakteriyan
bakı
bakırko
bakıs
bal
bala
balaban
balabanan
balabanıci
balc
baldwin
bale
balf
bali
balina
balkan
balkani
ball
balle
ballon
bally
baltiki
baltıki
baltıstan
balzac
balıkesir
balıkesiri
bambi
bambiderstroff
ban
bana
banan
band
bandıra
bane
bang
bani
bank
banka
bankası
banks
bannay
banner
banners
bannoncourt
bano
banqa
banqay
bantheville
bantia
bao
baptiste
baqıl
baqılo
bar
bara
barack
baraj
barakovic
baran
barbados
barbara
barbe
barber
barbey
barbie
barboure
barbuda
barbuise
barcelona
barcelone
barchain
bard
bare
bari
barisey
barney
baro
baroches
baroncourt
baronville
barre
barret
barrio
barrois
barry
bars
barse
barselona
barst
barthe
bartın
bartıni
barut
barville
barzani
barıs
bas
base
baseball
based
basel
basic
basit
basketball
basketbol
basketboli
basketbolie
basketboliyo
baski
baskı
basle
baslemont
baslieux
bass
basse
bassigny
bastien
basım
bataklı
batilly
batman
batmani
battal
battle
battles
batum
batur
batı
baudelaire
baudigne
baudre
baudricourt
bauer
baulny
baume
bava
bavyera
bawer
baweri
baweriya
baweriye
bawerkerdog
bawerkerdıs
baxc
baxterki
bay
bayan
bayar
bayat
bayburt
bayburti
baydar
bayecourt
bayern
bayezid
baykal
baykali
bayon
bayram
bayramı
bayındır
baz
bazailles
bazar
bazare
bazari
baze
bazegney
bazeilles
bazen
bazi
bazincourt
bazoches
bazoge
bazoges
bazoilles
bb
bbc
bbco
bbcyo
bc
bcml
bd
bdp
be
beach
bear
bears
beas
beast
beat
beatles
beauce
beauclair
beaufort
beaufremont
beaulieu
beaume
beaumont
beaupre
beauregard
beausite
beautiful
beauty
beauvoir
beaux
bebek
bec
because
beciya
beciyo
beck
becker
beckett
becomes
bedel
bedeli
beden
bedene
bedeni
bedexs
bedford
bedi
bedirhan
bedirxan
bedirxani
bedri
bedu
been
beethoven
before
beg
began
bege
begi
begin
beginners
beginning
begne
bego
behai
behave
behaviour
behc
behind
behonne
behram
behramog
behren
behreyn
behs
behse
behzat
bei
being
beka
bekc
beki
bekir
bekle
beklenen
bektas
bekır
bel
bela
belarus
belası
belc
belde
beldey
bele
belediya
belediyane
belediyay
belediyaya
belediye
belediyesi
belediyey
belediyeye
belen
belgesel
belgrad
beli
belin
belize
belki
belkia
bell
bella
belle
bellefontaine
bellegarde
belleray
belles
belleville
bellevue
belli
bellini
belmont
belo
below
belrain
belrupt
beluc
belucan
beluci
belucki
belucıstan
belval
belvitte
belwon
ben
bena
bend
bendawe
bende
benden
bendi
bene
benedictus
beneluxi
benet
beney
bengal
bengali
bengalki
benglades
beni
benim
benin
benito
benjamin
bennett
beno
benoi
benoist
benoite
benth
benu
benz
ber
bera
beran
berberi
berberki
berd
berda
berde
berdi
berdo
berdıs
bere
bereket
bereketi
berg
bergama
berger
bergu
bergueda
beri
berkay
berkeley
berli
berlin
berlini
berliniya
bern
bernard
bernhard
bernhardt
bero
berry
bersviller
bert
bertha
berthele
bertolt
bertrand
bertrimoutier
berviller
berya
berz
berza
berzan
berzbiyayıs
berze
berzi
berziya
berzo
bes
bese
beso
bessay
besse
bessy
best
beste
bestekar
bestekare
bestekari
bestekaro
bestey
bestiyao
bestiyayo
bestiyayıs
bestiyene
bestiyeno
bestog
bestıs
bet
beth
bethlehem
beton
bettainvillers
bettange
bettegney
better
betting
bettoncourt
between
beugne
beulay
beurey
beuveille
beuvron
beux
bevern
bewne
bexs
bexte
bextıyari
bey
beyan
beyanname
beyannamey
beyaz
beyazıt
beygi
beykoz
beyog
beyonce
beyond
beypazarı
beyrut
beyt
beyti
bezonvaux
bg
bi
bia
bianet
biare
biaro
biała
bibcode
bibe
bibi
bibiche
bible
bibliografiye
bibliyografiya
bibliyografiye
bibliyografyası
bibo
bic
bid
bide
biden
biding
bidli
bie
bieb
bien
biencourt
biffontaine
big
biga
bihe
bikero
bilal
bilbo
bile
bilecik
bileciki
bilge
bilgi
bilgisi
bilim
bill
billy
bilxasa
bin
bina
binan
binani
binano
binbir
bine
bing
bingo
bingol
bingoli
binh
bini
binie
binio
bino
bint
binti
binu
binı
bio
biografien
biografiye
biography
biol
biology
bionville
bir
bira
biraye
biraz
bird
birds
bire
biri
birinci
birkan
birkin
birlig
birlikte
birmingham
biro
birol
birth
birthday
bis
biseksuel
biseksuele
bisheh
bishop
bisle
bismarck
bisten
bistin
bistroff
bit
bitcoin
bitmeyen
biy
biya
biyaena
biyaene
biyaina
biyaine
biyais
biyare
biyaro
biyaye
biyayenda
biyayene
biyayenı
biyayis
biyayıs
biye
biyene
biyi
biyo
biyog
biyografi
biyografiya
biyografiye
biyolociya
biyolociye
biyolog
biz
bizans
bizansi
bize
bizi
bizim
bjo
bla
black
blackburn
blacklist
blacklisted
blackwell
blainville
blaise
blake
blanc
blanche
blange
blank
blanze
blau
ble
blercourt
bleurville
blevaincourt
blind
block
blog
blogspot
blois
blood
blu
blue
blues
bn
bni
bo
bob
bobby
bobcat
bocage
boccaccio
bocquegney
bodrum
body
bodyclass
boe
boeing
bog
boglan
boglani
boi
boilerplate
boinville
bois
boismont
boiss
boissie
boissy
boko
bol
bold
bolded
boli
bolivya
bolo
bolt
bolu
boluy
boluya
bom
bomba
bombanayıs
bombardıman
bombardımano
bombay
bon
bonapart
boncourt
boncuk
bond
bone
boneh
bonfays
bonfosse
boni
bonn
bonne
bonner
bonnet
bono
bonobo
bonu
bonvillers
bonvillet
bonze
boo
book
bookdesign
books
booland
booty
bor
bora
borc
bordeaux
border
bordes
bore
borges
borgore
boris
born
bornm
borowski
borsa
borsao
borsayo
borussia
borzal
bos
bosna
bosnian
bostan
bostanan
bostane
boston
bostoni
bot
botanik
both
botswana
bottom
boucheporn
bouchet
bouchon
bouconville
boucq
boue
bouildroux
bouille
boulay
bouligny
boulogne
boupe
bouquemont
boureuilles
bourg
bourgonce
bourneau
boustroff
bouxie
bouxurulles
bouy
bouzemont
bouzonville
bove
boviolles
bowie
box
boxes
boy
boyaca
boyax
boye
boys
boyut
boz
bozkurt
bozorg
br
bra
brabant
braces
brackets
brad
bradley
bradon
brahim
brahimi
braille
brain
brains
brainville
brandegee
brandenburg
brandenburgi
brandeville
brando
brandon
braniki
branki
brans
brantigny
braquis
bras
bratislava
brauvilliers
brave
bray
braye
brazil
bre
break
breaking
breaks
brechainville
brecht
bremen
bremer
bremervo
bresse
bretagne
bretonki
bretonnie
brettnach
breuil
breux
brevipennis
brexit
brezilya
brezilyayo
brezilyayıci
brezilyayıco
brian
brice
bridge
brie
brief
brienne
brieulles
briey
brieyiya
brighton
brigitte
brill
brillon
brillouet
bring
brioude
bristol
britannica
britanya
britanyao
britanyaya
britanyaye
british
britney
brixey
brizeaux
broadcast
broadcasting
broadway
brocourt
broken
bromance
bronte
bronx
brooke
brooklyn
brooklyni
brooks
bros
brother
brothers
brouck
brouderdorff
brouennes
broussey
brouvelieures
brown
brownlow
browser
browsers
bru
bruce
bruche
bruksel
brulange
brullo
bruney
bruni
bruno
brunswick
bruville
bruye
bruyns
bryan
bryn
bt
bu
bucak
buch
buchy
buck
buda
budapes
buddha
budizm
bueno
buenos
buffon
bug
bugu
buhari
buhl
build
building
built
buis
bukowski
bukres
bul
bulg
bulgaria
bulgne
bull
bullet
bullets
bult
bulus
bulut
bundesliga
bundesrat
bundestag
bundesversammlung
bunny
bunya
burak
burcu
burdur
burduri
burduriya
bure
burey
buri
burkina
burning
burns
buro
bursa
bursaya
burt
burton
burun
burundi
bus
bush
business
buss
bussang
bussie
bussy
buster
but
butler
buttant
butto
button
buxie
buyer
buygore
buzy
buzz
bw
bwv
by
bytes
bı
bıbe
bıbo
bıc
bıce
bıcıwo
bıde
bıdlis
bıdlisi
bıdo
bıers
bıge
bıgiro
bık
bıke
bıkere
bıkeri
bıkero
bıkewe
bıkewo
bıko
bıkıs
bımane
bımano
bımbarek
bımuse
bımuso
bın
bıncınse
bıne
bıngehe
bıngehi
bıngruba
bıni
bınmıntıqay
bınmıntıqe
bınnoti
bınus
bınuse
bınusne
bınuso
bıra
bırae
bırame
bıramo
bıray
bırayan
bırayane
bıraye
bırayi
bıre
bırese
bıresno
bıreso
bırna
bırnayıs
bırne
bırneno
bırniyeno
bırno
bıros
bırr
bırre
bırri
bırriya
bırriyayo
bırriyo
bıs
bıve
bıveciyo
bıvine
bıvino
bıvurne
bıvurno
bıvıraziyo
bıvırne
bıwane
bıwano
bıwaze
bıwazo
bıyayıs
bıyo
bız
bıza
bızan
bızane
bızano
bıze
bızi
c
ca
cabarde
cache
cade
cadenza
cadillac
cadı
cae
caesar
cafer
cahit
cai
caille
cake
cal
calais
calaisi
calaisiya
calamothespis
calan
calcio
calendar
california
call
called
calling
calls
calonne
calvin
cam
camayka
cambridge
came
camelot
cameo
camerd
camerdi
cameron
cami
camille
camiy
camiya
camiye
camp
campagne
campaign
campaignbox
campbell
campo
camus
can
canada
canal
canan
canberra
canche
candan
cande
candidate
cane
caner
canet
cani
canlı
canne
cannes
cannot
cantali
cantaliya
cantaliyo
canto
canım
cao
cap
capacity
capavenir
cape
capelle
capital
cappel
capreolus
captain
caption
car
care
carey
carl
carling
carlo
carlos
carly
carmen
caro
carol
carolina
caroline
carpenter
carrie
carroll
cars
carson
cartel
cartella
cartelle
carter
carterocephalus
cartridge
casa
casas
case
cases
cash
cassette
cassidy
castejo
castellanus
castellar
castello
castillo
castle
castro
casualties
casus
cat
catala
catalogue
catasigerpes
cate
categories
categorisation
categorised
categorization
categorize
categorizes
category
categorytoc
cathedral
catherine
catholic
cats
caucasian
caucasica
cause
causes
cava
cave
caweno
cawki
cawıtıs
cay
cayan
cayane
caye
caygehe
caygey
caygeye
cayi
cayo
caz
cazi
cb
cbr
cbs
cc
cctld
cd
cdot
cdu
ce
cedric
ceheneme
cek
cel
cela
celadet
celal
celali
cell
celle
celles
cello
cells
celosia
celtics
cem
cemaet
cemaete
cemal
cemat
cemate
cemati
cematki
cemed
cemede
cemedi
cemi
cemil
cemile
cemiyete
cemiyeti
cemo
cene
cenet
cenete
ceneti
ceng
cengan
cenge
cengi
cengiz
cengo
ceniy
ceniya
ceniyan
ceniye
cennet
ceno
cenova
census
center
centered
central
centre
centro
century
cenub
cenube
cenubi
cermenki
cermenkiye
cermenkiyo
cerrebi
cerro
certain
certilleux
cervantes
cesse
cesur
cevap
cevat
cevdet
cew
cewab
cey
ceyhan
ceylan
ceyran
ceza
cezais
cezay
cezaya
cezayir
cezayiri
cf
ch
cha
chad
chah
chahar
chai
chaille
chaillon
chailly
chaise
chal
chalaines
chalencon
chalon
cham
chamaesyce
chamber
chambley
champ
champagne
champdray
champgillon
champigny
champlon
champneuville
champougny
champs
chan
chance
chang
change
changed
changes
changing
channel
chanoines
chanteloup
chantemerle
chanteraine
chantraine
chaource
chapel
chapelle
chapelles
chaplin
chapman
chapter
character
characters
chardogne
charency
charlemagne
charles
charleville
charlie
charlotte
charly
charmes
charmois
charnie
charny
charpentry
chase
chasnais
chassenon
chassey
chastel
chattancourt
chaumont
chaumousey
chausse
chaussy
chauvency
chauvoncourt
chavagnes
chavannes
chavelot
chazelles
che
check
checking
chef
cheffois
chelle
chelles
chelsea
chemin
cheminot
chen
chenar
cheng
chenie
chenime
cheppy
cher
cheri
cherio
cheriya
chermisey
cherubini
cheshmeh
chesny
chester
chevrolet
chevry
cheya
chi
chicago
chicken
chicourt
chief
chiers
chieulles
child
children
chile
chin
china
chinese
chinua
chiov
chipotte
chocolate
choice
chonville
choose
chosen
chou
chp
chpy
chris
christ
christensen
christian
christianity
christina
christine
christmas
christoph
christophe
christopher
chrome
chrshan
chrysomantis
chttp
chu
chuck
church
chy
ci
cia
cibuti
cicero
cicourt
cie
ciel
cierges
cige
cigera
cigere
cihadi
cihan
cihanan
cihane
cihangir
cihani
cihanie
cihano
cilalı
cild
cile
cillum
cilt
cimıne
cimıneya
cin
cinayet
cinca
cindy
cine
cinema
cini
cins
cira
ciran
ciranane
cirane
cirano
circle
circourt
circumstances
cirey
cirfontaines
cirrocumulus
cirrostratus
cirrus
citation
citations
cite
cited
cities
citing
citroe
city
civak
ciwi
ciya
ciye
ciyo
ck
cke
cken
cl
clade
clair
claire
clairefontaine
claon
clara
clark
clarke
class
classes
classic
classical
classics
classification
claude
claudio
claudius
claudon
clause
clausura
claye
clayton
cle
clean
cleanup
clear
clefcy
clemens
clerjus
clerk
clermont
cleurie
cleuves
cleveland
click
clicking
clifford
clint
clinton
clio
clisson
clocher
close
closing
cloucq
cloud
clouds
cloye
club
clubsuit
cm
cnn
cnnturk
cnote
co
coach
coauthors
cocheren
code
codes
coding
codmun
codmunmapa
cody
cog
cohen
coin
coinches
coincy
coka
cokao
coke
col
cola
colbert
cold
cole
colegio
coleman
colemerge
colin
collapse
collapsed
collapsible
colle
collected
collection
collections
collectively
college
colligny
collins
colmar
colmen
colmey
colo
cologne
colombe
colombia
colon
color
colorado
colors
colour
colroy
columbia
columbus
column
columns
colwidth
com
combatant
combinations
combined
combles
combres
combrimont
come
comedy
comes
comi
comic
coming
comma
commander
commas
comment
commentary
comments
commercy
commercyiya
commodo
common
commonly
commons
commonwealth
commune
communications
community
companion
company
compare
comparison
comparisons
compatibility
complete
completely
complex
complicated
component
composed
composer
compsothespis
computer
comte
comteya
comteyo
con
conan
concepcio
concerning
concert
concerto
concise
conde
condition
conference
confessions
configuration
configure
conflans
conflict
confused
confusing
congestus
congress
conjunction
connecticut
connection
conrad
cons
consectetur
consensus
consenvoye
consequat
consequences
consider
considered
consistent
constant
constantine
constellationshttp
construction
contain
contained
container
containing
contains
contemporary
content
contents
contentstyle
contra
contrexe
contribution
contributions
contributor
contrisson
control
controls
controversy
convenient
convention
conversion
convert
converted
cook
cooking
cool
cooper
coord
coordinate
coordinates
cop
copa
copies
copy
coquimboyi
cor
corbera
corbie
corcieux
core
cori
corneille
cornelius
cornell
corner
cornimont
corny
coro
corpe
corporate
corporation
corps
corpus
correct
correctly
corresponding
cortes
coru
corun
cos
cosnes
cosse
costa
cot
cotton
coucy
could
coume
coun
council
count
countries
country
county
cour
courcelles
courdault
courouvre
course
court
courtihttps
cousances
coussey
couture
couvertpuis
couvonges
cover
covid
cox
coy
craig
crainvilliers
crash
crawford
crazy
cre
cream
create
created
creates
creating
creation
creator
credits
cref
cremers
creobroter
creutzwald
creux
cricket
crime
criminal
crin
cristo
criteria
critical
critique
croix
croizat
crophill
cross
crown
crusne
cruz
crystal
cs
csc
cseligman
css
ct
cu
cuceyan
cuisy
culpa
cultural
culture
cum
cuma
cumartesi
cumhure
cumhuri
cumhuriya
cumhuriyet
cumhuriyeta
cumhuriyete
cumhuriyeti
cumhuriyetia
cumhuriyeto
cumie
cummings
cumulonimbus
cumulus
cumure
cuneata
cunel
cup
cupidatat
curey
curie
current
currently
curry
curtis
custom
customised
cut
cute
cutry
cuves
cuvry
cuwa
cuwiyayıs
cuya
cy
cyr
cyrus
cz
cı
cıg
cıgeyrayog
cıgeyrayıs
cıhud
cıhudan
cıhudane
cıhudano
cıhude
cıhudi
cıhudiya
cıhudiye
cıhudo
cıkewtıs
cıle
cınayete
cınde
cındeyan
cıneno
cıni
cıniya
cıns
cınsan
cınsane
cınse
cınsi
cınsiyet
cınsiyetan
cınsiyete
cınsiyeti
cınsiyeto
cınso
cınya
cınıs
cıra
cırakerdıs
cıre
cıresayıs
cıresnayıs
cırestıs
cırm
cısmane
cısme
cısım
cısımane
cısıme
cıt
cıte
cıwab
cıwabe
cıwame
cıwan
cıwe
cıwiyay
cıwiyaye
cıwiyayıs
cıwiye
cıwiyena
cıwiyene
cıwiyeni
cıwiyeno
cıwiyo
cıya
cıyakerdıs
cıye
cıyi
cıyo
cœur
d
da
dabo
daco
dad
dadi
dae
daene
dag
daglar
dagonville
daha
dahil
dai
daily
dailymail
daim
daima
daimi
dainville
dair
daisy
daki
dakota
dakotay
dal
dalaman
dalem
dali
dallas
dam
dama
damas
damat
dame
dames
damla
damloup
dammarie
dammartin
damn
damon
dampvitoux
damvillers
damın
dan
dana
dance
dancer
dancing
dandelion
dane
danger
dani
daniel
daniki
danimarka
danimarkaya
danis
daniyeno
danki
dannevoux
danny
dano
dans
danse
dansi
danso
dante
danuria
danıs
dao
dar
dara
daran
darane
darbe
darbey
darby
darde
dardi
dare
dareyan
dareye
dari
darius
dariya
dark
darkness
darmont
darney
darnieulles
darog
darreh
daru
darwin
darwini
darı
darıto
das
dasein
dash
dashes
dasht
dasyprocta
dat
data
database
datanova
dataset
date
dated
dates
davası
dave
david
davies
davis
davut
dawa
daway
dawkins
dawn
dawson
day
daya
daye
dayene
dayenı
dayi
dayis
dayiya
dayiye
dayo
days
dayı
dayıs
db
dc
dd
de
dead
dean
death
deaths
debare
debarey
debiyayıs
dec
dece
december
decimal
ded
dede
dedeog
deep
def
default
defaults
define
defined
definition
deftere
defteri
deg
degmesi
degree
degrees
deh
deha
dehak
dehaki
dehana
dei
deizm
deki
del
delaware
delete
deletion
delft
delg
delhi
deli
delil
dell
della
delle
delouze
dels
delta
deltoidea
delut
delıl
dem
demane
demange
demavendi
deme
demet
demi
demir
demirciler
demirel
demirko
demiro
demirtas
demo
democracy
demografiye
demographics
demokrasi
demokrasiya
demokrasiye
demokrat
demokrate
demokrati
demokratik
demokratike
demokratiki
demonstration
demospace
den
dene
deng
denipaire
denis
deniz
denizli
denizliya
dennis
density
dentata
denting
denver
deo
deolociy
deolociya
department
depending
depends
depo
deportivo
depp
deprecated
depth
deqiqeyo
der
dera
deraz
derbamont
derd
derde
dere
dereca
derece
derecey
derek
dereko
dereli
derg
derga
dergan
derge
dergi
dergisi
dergiya
dergo
dergran
derheqa
derheqe
deri
derki
dermacentor
derman
derneg
dero
deroplatys
derrie
ders
dersa
dersane
derse
dersi
dersim
dersimi
dertli
dervis
derwe
derya
deryae
deryao
deryawan
deryay
deryaye
deryayo
des
describe
described
description
descriptions
descriptive
deserunt
design
designed
desired
desmala
desmalan
desmale
desseling
dest
destan
destana
destane
destani
destanı
deste
desteg
destege
desti
destnus
desto
destord
destpe
destry
destur
desıne
det
detail
details
detay
detect
detection
detective
detects
determine
determines
detroit
deutsch
deutsche
deutschen
deutschland
deux
dev
deva
devam
devant
deve
development
devil
devlet
devleti
devon
devreki
devrekiya
dew
dewa
dewam
dewame
dewan
dewane
dewar
deway
dewe
dewi
dewizio
dewle
dewlet
dewleta
dewletan
dewletane
dewlete
dewleti
dewletiyo
dewleto
dewr
dewran
dewre
dewri
dewro
dewrıme
dewı
dewıcan
dewıci
dewıji
dewıjon
dey
deya
deycimont
deye
deyi
deyira
deyiran
deyire
deyirvac
deyirvaca
deylemi
deyo
deyr
deyra
deyran
deyrane
deyre
deyri
deyrvac
deyrvaca
deyrvaco
deyrvatog
deyvillers
deyıre
deza
dezgehe
dezgey
df
dfg
di
dia
diagrami
dialect
dialects
diameter
diamond
diana
diane
dianthus
diaries
diary
dicaprio
dick
dicle
dicley
dictionary
did
diderot
didier
die
diebling
died
diego
dieppe
dierrey
diesen
dieu
dieue
dieuze
diffembach
differences
different
dig
diger
digit
digital
digits
dignonville
dik
dikmen
diksıle
dil
dila
dilan
dilaver
dilberay
dile
dilek
dili
diller
dillon
dilsiz
dim
dima
dime
dimili
dimilki
din
dina
dinan
dinane
dinar
dinc
dine
ding
dini
dinio
diniye
diniyo
dinle
dino
dinosaur
dinosaurs
dinoze
dinter
dinu
dinya
dio
diois
dion
diq
dir
dire
direct
directed
direction
directions
directly
director
direkt
direktor
direktora
direktore
direktoro
direnis
dirilis
dirty
dis
disabled
disambiguation
disambiguous
disappeared
disco
discourse
discretion
discuss
discussion
discussions
disiplinane
disipline
disiplino
disjunctive
disk
disko
diskografiya
diskografiye
diskriminasyon
disney
disneyi
disp
display
displayed
displaying
displays
dispute
dissais
dissertation
distance
distinct
distinguish
distribution
district
dit
ditions
div
diva
divan
diversity
division
divri
diwan
diwane
diwani
diwon
diy
diya
diyaene
diyagrami
diyalekt
diyalektane
diyalekte
diyalekti
diyalekto
diyanet
diyar
diyarbakır
diyarbekir
diyarbekiri
diyarbekır
diyarbekıri
diyarbekıria
diyarbekırı
diyare
diyayıs
diye
diyene
diyeno
diyine
diyo
diyojen
diz
dizi
dizier
dizisi
dj
dki
dms
dna
do
doc
docelles
doctor
document
documentacatholicaomnia
documentary
documentation
documents
dod
does
doesn
dog
dogan
dogneville
dogs
doi
doilabel
doix
doktor
doktora
doktore
doktori
doktoro
doktrine
dokuman
dokumane
dokunma
dokuz
dol
dola
dolaincourt
dolar
dolare
dolari
dolls
dolor
dolore
dolım
dolımi
dom
domain
domaines
domains
doman
domanan
domanane
domanano
domane
domani
domanu
dombasle
dombras
dombrot
dome
domfaing
domi
dominant
domingo
dominic
dominika
dominiki
dominique
domjulien
dommartin
dommary
domnena
dompaire
dompcevrin
dompierre
domprix
domptail
domre
domremy
domvallier
don
donald
doncie
doncourt
done
donetsk
dong
doni
donna
donne
donu
donville
door
dora
dore
dori
dorme
dormen
dormey
dormeye
dornot
dorothy
dorpe
dortmund
dos
dost
dosta
doste
dostlar
dosya
dosyası
dot
dotted
douard
douaumont
double
doue
douglas
doulcon
dounoux
down
download
doy
doylestown
doze
dq
dr
dracula
drag
dragon
drake
drama
drami
dre
dream
dreams
drei
dresden
dreta
drew
drillancourt
dris
drive
driver
dro
drosera
droupt
drums
drury
ds
dsb
dsm
dt
du
dua
dual
duay
dub
dubai
dublin
dubovik
duc
duciya
dudley
due
duet
duey
dugny
duis
dukan
dukane
dukani
duke
duman
dumas
dumlupınar
dun
duncan
dunlopi
dunya
duplicate
duplicatus
dur
durak
duran
durban
durbion
duri
durin
during
dursun
duru
dus
dutch
duvar
duymasın
duz
duzca
duzey
duzgın
duzgıni
dvd
dvdyi
dx
dy
dya
dyaya
dyer
dylan
dynamo
dynasty
dz
dı
dıde
dıdını
dıha
dılo
dıma
dımay
dıme
dımıli
dımıliyan
dımılki
dındane
dınya
dınyae
dınyao
dınyay
dınyaya
dınyaye
dınyayo
dır
dırbetın
dırbetıni
dıri
dıro
dıs
dısey
dıstari
dıwe
dıwela
dıwelan
dıwelane
dıwele
dıyina
dıyine
dıyın
dıyına
dıyıne
dıyıni
dıyıno
e
ea
each
eagle
earl
early
earth
easier
easiest
east
eastern
eastwood
easy
eau
eaux
ebasi
ebasiyan
ebchecked
ebdullah
ebe
ebekey
ebekeye
ebersing
ebeyiya
ebi
ebooks
ebru
ebu
ebubekir
ec
ecce
ecco
ecderha
ece
ecevit
ecik
economic
economics
economist
economy
ed
edalet
edaleti
eddie
ede
edebi
edebiyat
edebiyate
edebiyati
eden
edene
edeneya
edet
edgar
edge
edi
edinburgh
edip
edirne
edirney
edirneya
edison
edit
edited
edith
editing
edition
editnotice
editnotices
editor
editorial
editorlink
editormask
editorn
editors
ediz
edmond
edmund
edo
edremit
eds
edu
eduard
eduardo
education
educational
edward
edwards
edwin
edłoga
edłoha
ee
ef
efe
efendi
efendiyo
effect
effects
efg
efi
efkan
efsane
efsaney
eg
ege
eger
egey
egi
egin
egu
egypt
eh
ehar
ehare
eharın
eharına
eharıne
eharıno
ehdo
eher
eheri
eheria
eherqıs
ehir
ehiri
ehiria
ehl
ehle
ehmed
ehmede
ehmedi
ehov
ehr
ehri
ehzade
ehzadeleri
ehzadeleria
ei
eight
eighth
ein
eincheville
eine
einer
eines
einstein
either
eiusmod
eix
ejder
ek
eka
ekan
ekber
eke
ekelo
eker
ekeri
eki
ekibane
ekibe
ekim
ekime
ekkıla
ekle
ekler
ekleri
ekli
eko
ekole
ekolociye
ekonomi
ekonomik
ekonomiki
ekonomist
ekonomiya
ekonomiye
ekoslowakya
ekran
ekrane
ekrem
eks
eksport
eku
ekur
ekuy
ekuya
ekuyan
ekuyane
ekuye
ekuyi
ekwador
ekwatori
ekya
ekıl
ekıle
ekıstan
el
ela
elamudi
elan
elaqa
elaqedar
elazıg
elc
ele
eleanor
elebi
electronic
elegans
elektrik
elektrike
elektriki
elektrikın
elektronik
element
elemente
elementi
elements
elena
eleo
eleqedar
eler
elere
eles
elet
elevation
elewi
elewiy
elewiyan
elewiyano
elewiye
elewiyo
eley
eleye
elfan
elfi
eli
elif
elik
eliki
elim
elini
elit
eliya
elizabeth
elker
ella
ellahi
elle
ellen
ellis
elma
elmadag
elmalı
elrond
els
elsa
else
elvange
elveda
elvis
em
ema
emamzadeh
emanet
embaz
embazane
embaze
embazi
embaziye
embe
embedded
embere
emberi
emblem
embıryan
embıryani
eme
emege
emel
emele
emi
emil
emile
emily
emin
emina
emine
emir
emirane
emirdag
emiye
emma
emmanuel
emmy
empaze
emperor
empire
emporda
empty
empusa
emre
emri
ems
emseddin
emsettin
emsi
emır
emıri
emıs
en
ena
enable
enables
enam
enay
enayıs
enbe
enclosed
encyclopaedia
encyclopedia
encyclopædia
end
endame
endangered
ende
ender
enderby
endi
ending
ends
endulus
endulusi
endustriya
endustriye
endı
ene
enemy
ener
enerciya
enerciye
energy
enezi
eneziya
enfant
enfermasyon
enfermasyoni
enflasyon
enformasyon
eng
engay
engel
engelm
engi
engidu
engin
engine
engineer
engizisyon
engizisyoni
england
english
engur
engure
enguri
engıs
eni
enim
enis
eniya
enki
enko
ennery
eno
enol
enough
enrico
enrique
ensest
ensesti
ensiklopediya
ensiklopediye
ensti
enstitu
enstituy
enstituye
ensure
enter
entered
enternasyonal
enternasyonali
entertainment
entire
entity
entre
entries
entry
enver
enya
enık
enıstan
eo
ep
epe
epi
episode
episodes
equal
equals
equestria
equivalent
eqıli
er
era
erab
erasmus
eraziye
erb
erbauno
erbe
erbi
erbil
erbili
erc
ercan
ercaniya
erci
erd
erdal
erdan
erde
erdebil
erdebili
erdelan
erdem
erdes
erdi
erdis
erdlerz
erdlerze
erdlerzi
erdo
erdog
erdre
ere
ereb
ereba
ereban
erebane
erebe
erebey
erebeya
erebi
erebki
erebkiye
erebkiyo
erebo
erebıstan
erebıstane
erebıstani
erebıstano
eref
ereflikoc
erefxan
erefxani
ereg
eremiaphila
eren
erenko
erenler
erg
ergani
ergin
ergu
erhan
eri
erib
eriban
eribi
eric
erich
erie
erif
erik
erin
erinayıs
eris
eritreya
erkan
erkane
erkek
erkekler
erken
erkes
erkesi
erkoc
erm
erman
erme
ermeliki
ermeni
ermeniki
ermeniy
ermeniyan
ermeniye
ermeniyo
ermenki
ermenkiye
ermenıstan
ermenıstane
ermenıstani
ermey
ermik
ermug
ermugiya
ernest
erneville
ernst
ero
erog
erol
erq
erqe
erqi
erqiya
erqiye
error
errouville
ers
ersoy
ert
ertane
ertas
erte
ertem
erti
ertug
erve
erx
erzena
erzene
erzeno
erzincan
erzingan
erzingani
erziyeno
erzurum
erzurumi
erzıngan
erzıngani
erzıngania
es
esad
esas
esase
esasen
esasi
esc
escape
esch
escles
escu
esenler
esentepe
esenyurt
eser
eseran
eserane
esere
eseri
esero
eshkaft
esi
esir
eskatolociya
esker
eskera
eskeran
eskerane
eskere
eskeri
eskeriya
eskeriyay
eskeriyaya
eskeriye
eski
eskiko
eskis
eslamabad
esle
eslen
esley
esma
esnes
espagne
espan
espar
especially
esquerra
esra
esrarı
essay
essays
esse
essegney
essen
esseni
essey
est
esta
established
estamol
estamoli
estanbol
estanboli
estanbolia
estany
estanıki
estare
estarey
estareyan
estareyane
estbi
este
esteban
estemol
ester
estetik
estey
esti
estiya
esto
estonki
estonya
estor
estoran
estore
estori
estrennes
estu
eswatini
esıl
et
eta
etc
ete
eternal
ethem
ethnic
ethnologue
eti
etik
etikete
etiki
etimolociya
etimolociye
etin
etiyopya
etnik
etnike
etniki
etniko
etyopya
etzling
eu
euchomenella
euge
eugene
eulalie
euphorbia
eur
euro
euroleague
europa
europe
european
eurovision
euville
ev
eva
evaluates
evans
eve
eveknayıs
evekneno
even
evening
event
events
ever
everest
every
everything
evi
evil
evim
evket
evlat
evler
evliya
evolusyon
evolusyonal
evolusyonale
evolusyonali
evolusyonalo
evolusyone
evolusyoni
evolution
evolutionary
evren
evrensel
evrim
evrimianlamak
ew
ewa
ewan
ewc
ewdır
ewdıri
ewe
ewi
ewli
ewliya
ewni
ewra
ewrasya
ewres
ewro
ewroe
ewropa
ewropakiyo
ewropao
ewropay
ewropaya
ewropayo
ewropayıcan
ewrope
ewroy
ewroye
ews
ewt
ewtey
ewı
ewısta
ewıstki
ex
exact
exactly
example
examples
except
excepteur
excessive
exchange
exclusive
exemple
exercitation
exist
existenz
existing
exists
expanded
expansion
expected
experience
experiment
expiry
explanation
explanatory
explicitly
explore
explorer
explosive
express
expressed
expression
exsi
extended
extension
external
extra
ey
eya
eyalet
eyaletan
eyaletane
eyalete
eyaleti
eyaleto
eyali
eyane
eyda
eyde
eye
eyes
eyh
eyhler
eyi
eyler
eylu
eylul
eylule
eyn
eyni
eyniyo
eyo
eyr
eyra
eyre
eyret
eyrete
eyri
eyro
eytan
eytani
eytanın
eyu
eyvah
eywax
ez
eza
ezae
ezala
ezane
ezay
ezaya
ezayane
ezaye
ezbeta
ezbete
ezgi
ezi
eziz
ezizan
ezo
ezra
f
fa
faaliyet
fabian
fabrikay
face
facebook
facebooki
fact
factbook
factor
fade
fadime
fahm
fahrettin
fahri
faik
fail
failly
fains
fair
fairy
faith
faiz
fakir
faku
fakulta
fakulte
fakultey
fakulteya
fakulteyan
fakulteye
falck
faliyete
fall
falls
false
fam
fame
families
family
familya
familyay
famous
fan
fang
fanny
fantasia
far
farabi
farah
faramir
fare
faresi
farisi
fariski
faroese
farrar
farrell
fars
farsan
farschviller
farsi
farski
farskiye
farskiyo
farso
faruk
fas
fasi
faso
fast
fat
father
fatih
fatihi
fatimi
fatin
fatma
fatmagu
fatos
fatıma
faucompierre
fauconcourt
faulquemont
fauna
faunay
faust
faut
fave
faverolles
favie
favorite
fay
fayde
faydey
faymoreau
fays
fazla
fazıl
fc
fd
fe
fealiyet
fealiyete
fear
feat
feature
featured
features
featuring
february
fed
feda
fedaisi
federal
federale
federali
federasyon
federasyone
federasyoni
federico
feed
feel
feet
fehm
fehmi
fek
fekan
fekane
feke
feki
fekki
feko
felek
felipe
felix
fellows
felsefe
felsefey
felsefeya
felsefeye
felsefeyo
felsefi
felsefiye
female
feminist
feministe
feministi
feminizm
femme
fen
fena
fenerbahc
fenomene
fenomenologiye
fenotipe
feqat
feqet
feqi
feqir
fer
ferat
ferde
ferdi
ferdinand
ferhat
ferheng
ferhenge
ferhunde
feri
feride
feridun
ferit
ferman
fermane
fermi
fernando
fernsehserie
ferq
ferqe
ferqi
ferqo
ferrari
ferre
ferrie
ferte
ferxunde
ferz
festival
festivale
festivali
fetelino
feth
fethi
fettis
fetwa
fevzi
few
fewzi
feyman
feza
ff
ffet
fi
fiat
fichier
fici
fiction
field
fields
fiesta
fieti
fifa
fife
fifth
figne
figure
fikre
fikret
fikri
fil
file
files
fili
filippova
filiz
fille
fillie
film
filma
filman
filmane
filme
filmi
filmie
filmio
filmo
filmografi
filmografiya
filmografiye
films
filozof
filozofan
filozofane
filozofe
filozofi
filozofo
fils
filsofun
filstroff
fime
fin
final
finans
finansi
find
fine
fingers
finisterreki
finki
finlanda
finlandi
finn
fino
firar
firat
firaz
firazan
firaze
firazi
firazo
fire
firearms
firefox
firma
firmin
first
firstn
firstname
firuz
firuzabad
fis
fischer
fish
fisher
fit
fitness
five
fix
fixed
fizik
fizike
fizikero
fiziki
fizikwan
fla
flabas
flag
flags
flamingo
flanville
flash
flassigny
flat
fle
fleming
flesh
fleury
flight
flo
float
floating
floccus
flora
floransa
floray
flore
florida
floridiae
flower
flowers
floyd
flu
flute
fm
fn
fo
foameix
foc
focus
folkling
folklor
folklore
folklori
follow
followed
following
follows
folschviller
fomerey
foni
fonksiyone
fonksiyoni
fonksiyono
fons
font
fontaine
fontaines
fontcolor
fontenay
fontenoy
fontsize
foo
food
football
footer
footnotes
for
forbach
forbes
force
forcelles
forces
ford
fore
foreign
forerunner
forest
forever
forge
forges
form
format
formate
formation
formats
formatted
formatting
forme
former
formerly
formo
forms
formula
formule
forssk
fort
fortune
forum
forume
forveti
fosforlu
fosilan
fosile
fosse
fosses
foster
fotog
fotogaleriya
fotogaleriye
fotrafe
fotrafi
fou
foucaucourt
fouche
foug
fougereuse
foulcrey
fouligny
found
foundation
four
fourth
foussais
fox
fr
frac
fractions
fractus
fragaria
fragman
fragment
fraigneau
frain
fraisse
fraize
frame
franc
france
frances
francesco
francheville
francis
francisco
franciscoy
franco
frank
frankfurt
frankfurte
frankfurti
franklin
frans
fransa
fransao
fransaya
fransayo
fransız
fransıza
fransızan
fransıze
fransızi
fransızki
fransızkiyo
fransızo
franz
frapelle
fraser
frau
fre
frebe
fred
frederick
fredrik
free
freedom
freely
freeman
freiburg
freistroff
frekans
frekanse
fremifontaine
french
frenelle
fresnay
fresne
fresnes
fresnois
fresse
freud
freudi
freybouse
freyming
frhttp
friauville
fribourg
friday
friedrich
friend
friends
friendship
frigya
fritz
frizki
frizon
fro
frodo
froidos
from
fromere
fromezey
front
fruits
ft
ftey
fu
fuat
fuck
fuel
fuentes
fuge
fugiat
fujian
full
fully
fun
function
functional
functionality
functions
funda
funny
furious
further
fusion
fusu
futbol
futbole
futboli
futbolie
futbolio
futboliye
futboliyo
futbolwane
futbolwani
futbolwano
futeau
future
futuresex
føroysk
fıkire
fıkiri
fıkr
fıkrane
fıkre
fıkri
fıkır
fıkıre
fıkıriyeno
fılipin
fılıstin
fılıstini
fın
fına
fındıklı
fıne
fıni
fını
fıqıh
fırat
fırati
fırdewsi
fırr
fırtına
fırtınası
fızuli
g
ga
gabon
gabriel
gae
gag
gaga
gah
galadriel
galaksiya
galaksiye
galan
galanthus
galata
galatasaray
galatasarayi
galaxy
galba
gale
galeri
galeriye
gali
galibe
galibiya
galic
galilei
galileo
galip
galki
gallery
gallimard
gallo
galushko
gam
gama
gambiya
game
games
gami
gamma
gan
gana
gandalf
gandhi
gandi
gane
gang
gani
ganie
ganio
ganiy
ganiya
ganiyan
ganiyane
ganiyano
ganiye
ganiyi
ganiyo
garci
garcia
garcke
garden
gareth
garip
garrafi
garrett
garry
garson
gary
gast
gate
gates
gault
gavare
gay
gayo
gayobor
gaz
gazel
gazete
gazeteci
gazetesi
gazi
gaziantep
gb
gdan
ge
gec
gece
geceler
gecesi
geceyi
gedik
gediz
gegane
gel
gelal
geldi
geldin
gele
gelek
gelen
gelin
gelir
geliyor
gelucourt
gelve
gema
geme
gemi
gemiya
gemiye
gemme
gemmelaincourt
gemo
gen
genan
genc
gencat
genci
gendas
gender
gendreville
gene
genealogy
genel
genelkurmay
general
generale
generally
generalo
generate
generated
generates
generating
generation
generic
genes
genesis
genest
genet
genetic
genetics
geneva
genevie
geni
genis
gennes
geno
genome
genus
genım
geo
geoffrey
geographic
geographical
geohack
geometri
geometriye
georg
george
georges
georgi
georgia
georgian
geostat
ger
gerald
gerard
gerbamont
gerbe
gerbonvaux
gerc
gercourt
gere
gerek
gereke
gereko
gerger
geri
geris
germ
germain
german
germany
germe
germey
germi
germigny
germiliy
germiya
germiye
germo
germın
germıne
germıno
gerrard
gers
gershwin
gervais
ges
gesa
geschichte
gesnes
get
gets
geville
gewr
gey
geyan
geye
geyi
geyra
geyrao
geyray
geyrayog
geyrayıs
geyrena
geyrene
geyreno
geyrenıke
geyrenıki
geyrenıko
gezeg
gezen
gezi
gfdl
gg
ghost
gi
gia
giallo
giang
giant
gibi
gibson
giden
gies
gif
gift
gigne
gigney
gil
gilan
gilani
gilbert
gilda
gileki
gilgit
gilles
gillis
gime
gimme
gina
gincrey
gine
gineya
gino
gioacchino
giovanni
gippert
girancourt
girard
giraumont
girauvoisin
gircourt
gird
gire
girecourt
giresun
giresuni
girewt
girewte
girewtis
girewto
girik
giriye
girl
girls
girmont
girona
gironcourt
giroux
girıci
gis
git
gitar
gitme
giuseppe
give
given
gives
giving
givrauval
gizli
gje
gl
glade
gladiator
glasgow
glass
glatigny
glenn
gli
glise
global
globalizasyon
globe
gloria
glory
gluck
gmye
gn
go
goblin
goc
god
godbrange
godfather
godmother
godoncourt
gods
goes
goethe
gogh
gogol
goin
gol
gola
golan
golbey
gold
golden
gole
golf
golfeze
goli
gollum
golo
gome
gomelange
gomez
gon
goncourt
gonde
gondor
gondori
gondrecourt
gondrexange
gone
goni
gonia
gonkuri
gonna
gontier
gonza
good
goodbye
google
googleyo
gor
gora
goran
gorani
goranki
gordon
gore
goreloslagos
gorey
goreye
gorgon
gorhey
gorilla
gorki
gorze
gos
gossypina
got
gottfried
gouraincourt
goussaincourt
gov
govend
government
governor
govno
goya
goyine
goyni
goynuki
goze
gr
gra
grace
gracilis
gradient
grafik
grafike
grafiki
graham
gramer
gramere
grameri
grammar
grammy
gran
granada
grand
grandchamp
grande
grandes
grandfontaine
grandrupt
grandville
grandvillers
grane
granges
granja
granny
grant
grapes
graphic
gras
grasse
graux
grave
gravelotte
gray
gre
great
greater
greatest
greaves
greek
green
greene
greg
gregori
gregorian
gregorius
gregoriyani
gregory
gregoryani
greki
gremilly
grenada
grenier
greux
grewto
grey
grez
gri
griffin
griffith
grigia
grimaucourt
gripin
griseb
gronlanda
gros
grostenquin
grot
groto
group
groupn
grouppadding
groups
groupstyle
grove
große
gru
gruba
gruban
grubane
grube
grubi
gruene
gruey
grundgesetz
grup
gryllus
gsfc
gt
gu
gua
guadalajara
guadix
guardian
guatemala
guceratki
gucige
gue
guenviller
guermange
guerpont
guerra
guerstling
guerting
gues
guessling
guest
guetta
guevara
guez
gugne
gugney
guibert
guide
guideline
guidelines
guido
guillaume
guillermo
guinglange
guitar
guitars
gul
gula
gulabi
gulan
gulana
gulane
gulas
gule
gulf
gulvange
guman
gumus
gun
guna
gundam
gundem
gune
gunilla
gunnar
gur
gurbet
gurciki
gurciyan
gurcıstan
gurcıstani
gurcıstaniyo
gure
gurenayıs
gurenene
gureneno
gureniyeno
guret
gureta
gurete
guretene
gureti
gureto
gurey
gureye
gureyena
gureyene
gureyeno
gureynayıs
gurgum
gurgumi
guri
guriya
guriyao
guriyayo
guriyayıs
guriye
guriyena
guriyene
guriyeno
guriyo
gurur
gus
gussainville
gustav
gustave
gusttavo
gutenberg
guy
guyana
guyo
gxv
gy
gı
gıcıke
gıle
gılgamıs
gımgım
gına
gıne
gınene
gıneno
gıran
gırane
gırani
gıraniya
gıraniye
gırano
gırd
gırda
gırdan
gırdbiyayıs
gırde
gırdi
gırdiya
gırdiye
gırdo
gıre
gırewt
gırewta
gırewte
gırewtena
gırewtene
gırewti
gırewto
gırewtıs
gırey
gıreya
gıreye
gırot
gırota
gırote
gırotenı
gıroto
gırotıs
gırs
gırsan
gırse
gırsi
gırwenayıs
gırweneno
gırweniyeno
gırwey
gırweynayıs
gırweyniyeno
gırweyo
gıs
h
ha
haania
hababam
haber
haberi
haberler
haberleri
habertu
habes
habiby
habil
hac
hacer
hacet
hacete
hacettepe
hacı
hacılar
hacıosmanlar
had
hadank
hadi
hadigny
hadisey
hadol
hadrian
hadriani
hadrianus
haemaphysalis
hafize
hafsa
haft
haftasonu
haftbefehl
hafız
hage
hagne
hagondange
hague
hai
haillainville
hain
haironville
haiti
hak
hakan
hake
haki
hakim
hakimiyete
hakkı
hakkında
hakıs
hakısia
hal
hala
halaylar
haldun
hale
halete
half
hali
halifax
halil
halit
halk
hall
halle
hallering
halles
halloween
halo
halt
haluk
ham
hama
hamam
hamas
hamburg
hamburger
hamdi
hamid
hamilton
hamit
hamlet
hampshire
hamzaoglu
han
hand
handbook
hande
handle
hane
hang
hange
hangi
hani
hania
hannah
hannonville
hannover
hans
hansen
hanım
hanımın
hao
haplogruba
happy
haq
haqi
har
hara
haram
haraumont
harbiye
harche
hard
hardancourt
harde
harder
hardi
hardy
hare
hareket
hareketi
hareketo
harem
hargarten
hari
haritatr
harjunpa
harmony
haro
harol
harold
harper
harprich
harreberg
harris
harrisburg
harrison
harry
harsault
hart
hartzviller
harun
harvard
harvardi
harvey
harville
has
hasan
hasanlı
hasko
hasret
hassan
hat
hata
hatan
hate
hatice
hatipog
hatnote
hatrize
hattoncha
hatun
hatırla
hau
hauconcourt
haucourt
haudainville
haudiomont
haumont
hausskn
haut
haute
hautecourt
hauteville
hauts
hava
havana
havası
have
haven
having
havsa
havsaya
haw
hawa
hawaii
hawar
hawk
hawt
hay
hayal
hayat
hayata
hayatlar
hayatı
hayatım
hayatımın
haydar
haydn
haye
hayes
haymana
hayri
hayvan
hayır
hazar
haziran
hazreti
hazır
hcard
hd
he
head
header
headerstyle
heading
healing
health
heard
heart
heartsuit
heat
heath
heather
heaven
heavy
heb
hebdo
hebdoy
hebe
hebhenar
hebi
hebrew
hec
heci
hedef
hedefe
hedenius
hedi
hedis
hedisa
hedisan
hedise
hedisey
hediseye
hediye
hefte
heftey
hega
heidegger
heideggeri
heidelberg
height
heinemann
heining
heinrich
heippes
hekari
hekate
hela
helal
helbet
held
heldr
hele
heleb
helebi
helen
helena
hell
hellimer
hello
helmut
help
helpbox
helper
helps
helqe
helsinki
helstroff
hem
hema
hemcınsbaz
hemcınsbazan
hemcınsbazi
hemcınsbaziye
hemd
heme
hemedan
hemi
hemo
hems
hemsworth
hemver
hemı
hemıne
hen
hend
hende
hene
heni
henio
hennecourt
hennemont
hennezel
henri
henrik
henry
hente
henzar
hep
hepi
hepisxane
hepsi
hepıs
hepısi
heq
heqa
heqane
heqaret
heqe
heqeyda
heqi
heqiya
heqiye
heqo
her
hera
herabiyayıs
herakleiosi
heram
heran
herao
heraye
herayo
herb
herbane
herbe
herbert
herbeuville
herbi
herbiya
herbo
here
herekate
hereket
herekete
hereketo
herey
herf
herfa
herfan
herfane
herfe
herfi
herg
hergu
hergugney
hergı
heri
herinda
herineno
heritage
herkes
herkules
herm
herman
hermann
herme
hermelange
hermenault
hermes
hermine
hermitage
herny
hero
herpelmont
herra
herran
herrane
herre
herri
hers
herschel
herscheli
hersek
herseki
herserange
heruna
herunda
herwına
hes
hesab
hesaba
hesabe
hesabi
hesabiyeno
hesabkerdena
hesabo
heseka
hesen
hesenan
hesene
heseni
heskerdıs
hesnayıs
hesno
hesse
hestiasula
het
heta
hetan
hetana
hetane
hetani
hete
hetenayıs
hetenog
heti
heto
hetta
hetı
heudicourt
hevalane
hew
hewa
hewae
hewao
hewari
heway
hewaye
hewayo
hewl
hewlan
hewle
hewli
hewlo
hewn
hewna
hewne
hewni
hewrami
hewre
hewt
hewtay
hewte
hewtına
hewtıne
hex
hexamenıs
hexasmal
hey
heya
heyat
heyate
heyati
heyato
heyder
heykel
heykele
heykeli
heykeltas
heys
heywan
heywanan
heywanane
heywanano
heywane
heywani
heywano
heywanweyikerdıs
hez
hezan
hezar
hezaran
hezari
heziran
hezirane
heziraniye
hezreti
hi
hibiscus
hic
hicret
hicri
hidayet
hidden
hide
hierodula
higgins
higginsi
high
higher
highway
higny
hika
hikayeler
hikayesi
hikmet
hilaire
hill
hills
hilmi
him
himself
hin
hind
hindi
hindki
hindo
hindu
hinduizm
hindıstan
hindıstane
hindıstani
hindıstaniyo
hini
hint
hip
hipokrat
hipoteze
hippiy
hippiyan
hira
hire
hiri
hirıne
hirıs
his
hisar
hispanic
hisse
histoire
historia
historic
historical
history
hit
hititki
hitler
hitleri
hits
hiv
hiya
hiyerars
hjalmar
hl
hln
hmet
hmon
ho
hob
hobbes
hobbit
hobbiti
hobbito
hoca
hochst
hockey
hof
hoffmann
hog
hokeye
hol
holacourt
holanda
holandayo
holandki
hold
holding
holiday
holland
hollanda
hollandayıc
hollandki
holle
holling
hollingdale
holly
hollywood
holmes
holstein
holsteini
holy
homa
homae
homane
homao
homay
homayan
homaye
homayi
homayo
hombourg
home
homeland
homer
homeros
homme
hommert
homo
homs
hon
hona
honda
honde
honduras
honey
hong
honor
honore
honık
honıke
honıko
hood
hoogstraal
hook
hooks
hoover
hop
hopa
hope
hopkins
hoplocorypha
hora
horace
horgne
horizontal
horn
hornbuckle
horse
horst
horus
horusi
horville
hos
hospital
hossein
host
hoste
hot
hotel
hotmail
hou
houdelaincourt
houdle
houe
hound
hour
house
houssie
houston
houstoni
houx
hovanes
how
howard
however
howl
hr
hrung
hsan
hsanog
hsb
htm
htmhttp
html
htmlhttp
http
https
hu
huang
hubert
hudson
hue
huesca
huescao
huescaya
hugh
hughes
hugo
hukmat
hukmate
hukmati
hukmato
hukme
hukım
hukımdare
hukımdariya
hulusi
hum
human
humanities
humanizm
humanizmo
humay
humphrey
hun
hundred
huner
hunerane
hunere
huneri
hunermende
hunt
hunter
huoni
huonki
huqu
huquqe
huquqi
hur
hurbache
hurdeme
hurdi
hure
hurendia
hurmet
hurmızgan
hurriyet
hurus
hus
huse
huseyi
husseinov
hussigny
huthwaite
huxley
huysuz
hy
hyalomma
hybrid
hymont
hyry
hyssopifolia
hıcri
hıdude
hıdudi
hıdır
hıkum
hıkumati
hıkumdare
hıkumet
hıkumete
hım
hıma
hına
hıni
hınzar
hıquq
hıquqe
hıquqi
hırc
hırsız
hırsızı
hıs
hıseyn
hızır
i
ia
iae
ian
iana
ianridpath
ibadet
ibadete
ibareto
ibigny
ibn
ibrahim
ic
icad
ice
ich
icon
icons
icra
id
ida
idaho
idam
idare
idarekerdıs
idarey
idareye
idareyi
idareyo
idari
iddia
ide
idea
ideal
ideas
identical
identifier
identifiers
identify
identity
ideolociya
idi
idols
ids
ie
if
ifada
ifade
ifadey
ifeq
ifte
iftlik
iftlikko
ig
iglesias
igney
ignored
ihtıwa
ii
iii
iir
iire
iiri
iirin
iirler
iirleri
ik
ika
ikagoy
ike
iki
ikinay
ikino
ikiya
iklime
iklım
iklıme
iklımo
iktas
il
ila
ilan
ilane
ilc
ilcesi
ile
iler
ileri
ilgaz
ili
ilik
ilim
iliya
iliyo
iliz
ilk
ilko
ill
illa
illegal
illegali
illegalo
illinois
illon
illustrated
ilm
ilman
ilmane
ilme
ilmi
ilmo
ilo
ilyurt
ilım
im
ima
image
imageleft
imageright
images
imagesize
imagestyle
imam
imdb
imdeki
imdi
ime
imen
imeye
imeyi
img
imi
imkan
imkane
immediately
impaired
impatariya
imperatifi
imperator
imperatore
imperatoriya
imperatoriye
imperatoro
imperial
implemented
implied
importance
important
impossible
impulse
ims
imza
in
ina
inam
inan
inana
inane
inano
inappropriate
inasi
inayıs
inc
inca
ince
inci
incididunt
include
included
includes
including
inclusion
incomplete
incorrect
incorrectly
increase
increment
inde
indent
independent
index
india
indian
indiana
indicate
indicated
indicating
individual
indo
indonesia
indus
ine
ineno
influential
info
infoboks
infobox
infoboxes
information
ing
ingram
ingres
inherit
ini
inio
initial
initials
initiating
iniya
iniyo
inkar
inki
inkiyo
inline
inna
inno
innocence
innocentius
ino
inor
input
ins
insan
insanan
insane
insani
insee
insensitive
insert
inserted
inserts
inside
instagram
instance
instances
instead
institut
institute
instituto
instructions
insularis
int
integer
intended
inter
interactive
interlude
internal
internally
internasyonal
internasyonali
internasyonalo
international
internet
internete
interneti
interpoli
interpretation
interpreted
interview
interwiki
into
intransitife
introduction
inu
inun
invalid
inventor
invisible
invoked
involved
inya
inı
inıc
inıcan
inıce
inıci
inıtena
inıtıs
io
ioannes
iog
iowa
ip
ipa
ippe
ipsum
iq
iqaz
iqrari
iqtıdar
iqtısad
iqtısade
iqtısadi
iquique
ir
ira
irade
iradey
irak
iran
irane
iranian
iranica
iranicaonline
iranischen
iraq
iraqi
iraz
ire
irete
iri
irin
iris
irkete
irmak
irmeni
iron
iru
irure
irving
is
isa
isaac
isabel
isan
isane
isani
isbat
isbn
isches
ise
isherwood
isi
isis
isla
islam
islami
islamic
island
islandi
islands
isle
isles
islettes
iso
ison
isone
isoni
isono
isparta
israel
israeli
issn
issue
issues
ist
istanbul
istasyone
istatistikiya
istıfa
istıla
istıle
istıqlali
istısna
isyan
it
ita
italian
italic
italics
ite
item
itemid
items
itim
itli
its
itself
itıqad
itıqade
itıqadi
itıqate
iv
ivan
ivar
ivi
ivlendi
ivory
ix
ixlal
ixodes
iy
iya
iyae
iyan
iyane
iyano
iyao
iyay
iyaya
iyaye
iyayi
iyayo
iyayıs
iye
iyen
iyena
iyene
iyeno
iyi
iyo
iyu
iz
iza
izah
ize
izm
izıne
j
ja
jaca
jack
jackie
jackson
jacksoni
jacob
jacobs
jacobson
jacq
jacqueline
jacques
jae
jafar
jaguar
jainvillotte
jakarta
jake
jakob
jale
james
jametz
jamie
jan
jane
janeiro
janet
january
japan
japanese
japon
japonan
japoni
japonki
japono
japonya
jar
jard
jared
jari
jarir
jarme
jarnisy
jarny
jason
jaudonnie
javascript
jay
jayapuraki
jazz
jdat
jde
je
jean
jeandelize
jeanme
jeanne
jede
jeff
jefferson
jeffrey
jenerike
jeneriko
jennifer
jenosi
jensen
jeremy
jerome
jerry
jersey
jerusalem
jesse
jessica
jesus
jet
jeune
jeuxey
jew
jewbinan
jewish
jewna
jews
jgan
jganey
jganeya
jganeyda
ji
jiar
jill
jim
jimmy
jin
jk
jo
joachim
joan
job
jobs
joe
joel
joey
johan
johann
johanna
johannes
johannesburg
john
johnny
johnson
johnst
johnstown
joire
jolie
jon
jonas
jonathan
jones
jonville
joppe
jordan
jorge
jorxey
jose
josef
joseph
josh
joshua
jost
jou
jouaville
joudreville
joue
journal
journals
jouy
jowkar
joy
joyce
jpeg
jpg
jr
js
jstor
jts
ju
juan
jubainville
judas
judensau
judith
juice
juire
jules
julia
julian
julie
julien
juliette
julio
julius
julve
july
jun
juna
june
jung
junodia
jupiter
jure
jury
jussarupt
jussy
just
justice
justified
justify
justin
juvaincourt
juvigny
jw
k
ka
kaan
kab
kabaca
kabadayı
kabare
kabe
kabil
kabili
kabloyu
kabo
kabul
kac
kadar
kader
kaderim
kaderin
kadir
kadri
kadıko
kadın
kadınlar
kadınları
kadını
kadınım
kaf
kafi
kafka
kag
kahpe
kahraman
kahramanlar
kahveci
kai
kainat
kainati
kako
kal
kala
kalan
kalat
kalbim
kalbimin
kaldı
kale
kalecik
kalesi
kalifornia
kaliforniya
kalite
kalmıs
kalp
kalpler
kalıke
kam
kama
kamboc
kamca
kamci
kamcin
kame
kamer
kamera
kamerlengo
kamerun
kameruni
kami
kamil
kamiya
kamiye
kamo
kampe
kamuran
kamıl
kamıline
kan
kanada
kanaday
kanadayo
kanadayıca
kanadayıco
kanal
kanale
kanali
kanalizasyone
kanalizasyoni
kanarya
kane
kang
kani
kanji
kanlı
kanlıg
kano
kansas
kant
kanton
kantonane
kantone
kantono
kanun
kanune
kanuni
kanunsuz
kanunu
kanı
kapasitey
kapitalizm
kapoor
kaptan
kar
kara
karaag
karabo
karac
karaca
karacao
karadeniz
karago
karagu
karahan
karakas
karakaya
karako
karakoc
karakter
karakterane
karaktere
karakteri
karakteristik
karakteristike
karakteristiki
karakteristiko
karaktero
karamusa
karan
karane
karanfil
karanlık
karanlıkta
karaog
karapınar
karasu
karatas
karatay
karate
karayibi
karber
karberan
karberi
karde
kardelen
kardes
kardi
kardinal
kare
karen
kareno
karey
kari
karibya
karin
kariyere
karker
karkeran
karkerane
karkerdıs
karkere
karkeri
karkero
karl
karlsruhe
karlsruheyo
karnavale
karo
karolinay
kars
kartal
kartliya
karınca
karıs
karıtenı
kas
kastilya
kasım
kasımpas
kat
kata
katalanki
kataloge
katalogo
katalonya
katalonyay
katalonyaya
kate
katedrale
kategori
kategoriye
katherine
kathleen
kati
katie
katil
katolik
katolikan
katolikano
katolike
katoliko
katolisizm
katy
kaufmann
kavgası
kaxetiya
kay
kaya
kayabas
kayan
kayane
kaybolan
kaye
kaygısızlar
kayi
kaykene
kayker
kaykera
kaykeran
kaykerane
kaykerdene
kaykerdog
kaykerdıs
kaykere
kaykeri
kaykero
kaynag
kaynak
kaynarca
kayo
kaypakkaya
kayseri
kayıp
kayıt
kazakistan
kazan
kazım
kc
kderey
ke
keanu
keban
kebani
kebaniya
kec
kedi
keep
kehan
kehanan
kehani
keith
kek
keke
kelam
kelay
kelebek
keles
kelhurki
kelkit
keller
kelly
kelog
keltki
kelun
keluni
kem
kemal
kemali
kemalpas
keman
kemax
kemer
kemera
kemere
kemi
kemiye
kemiyeno
kemiyo
ken
kena
kenan
kence
kendi
kendim
kendime
kendini
kendisi
kene
kengeri
kengeru
keni
kenime
kennedy
kenneth
keno
kent
kenter
kentucky
kenu
kenya
kepler
kepuge
ker
kera
kerala
kerbach
kerbela
kerd
kerda
kerdbi
kerde
kerden
kerdena
kerdenda
kerdene
kerdenı
kerdi
kerdis
kerdo
kerdog
kerdu
kerdıs
kere
kerem
kerga
kergan
kerge
kergi
keri
kerim
keriyeno
kerku
kerkınc
kermi
kero
kerprich
kerra
kerran
kerre
kes
kesa
kesan
kese
kesha
kesi
kesk
keski
keskin
keso
kevin
kew
kewe
kewena
keweno
kewna
kewne
kewno
kewo
kewt
kewta
kewte
kewtene
kewti
kewto
kewtıs
key
keyan
keyane
keybere
keyde
keye
keyepele
keyey
keyeye
keyeyi
keyeyo
keyi
keyke
keyna
keynan
keynane
keynay
keyne
keynek
keyneka
keynekan
keyneke
keyneki
keyney
keyneye
keyo
keyword
kez
kezban
kezi
kg
kh
khal
khaled
khalık
khalıke
khan
khane
khaneh
khani
khano
khazad
khe
khediy
khet
khewe
kheweo
khure
ki
kibar
kid
kids
kigali
kil
kili
kilisey
kill
killed
kilmister
kilo
kilometre
kilometrey
kim
kimdir
kimi
kimse
kimya
kimyagero
kin
kinci
kind
king
kingdom
kings
kino
kiralık
kiraz
kird
kirdan
kirdaski
kirdki
kiribati
kirk
kirmancki
kirmans
kirmas
kis
kisi
kiss
kist
kit
kita
kitab
kitaban
kitabane
kitabe
kitabi
kitabo
kitabı
kitap
kitchen
kiya
kiye
kiyo
klan
klasik
klasiki
klaus
klavier
klavye
klein
kleine
kler
klibe
klibi
klik
klim
klime
klokov
klotzsch
klu
klub
klubane
klube
klubi
klux
klım
klıme
klımo
km
knight
knopf
knotts
know
knowledge
known
knows
knut
knyaciya
ko
koalisyon
koalisyone
kobani
koc
koca
kocaeli
kocaeliy
kocalı
koch
kod
kodane
kode
kodi
koe
kofkas
kofkase
kofkasi
kofkasya
kog
kohe
kohgıluye
kohıstani
kok
koka
koke
koki
kokıme
kol
kola
kolay
kolc
kole
koleji
koleksiyone
koli
kolombiya
kolombiyay
koloniya
koloniye
kolonize
kolıki
kolıkia
kom
koma
komarkay
kombi
kome
komedi
komediyo
komedya
komedyen
komedyeno
komela
komele
komi
komiser
komisyone
komitey
kompitor
kompitori
komplekse
komputer
komputeri
koms
komu
komun
komuna
komunane
komune
komuni
komunikasyone
komunikasyoni
komunist
komuniste
komunizm
komır
kon
konak
kone
konfederasyone
konferanse
konferansi
konfuc
kong
kongi
kongo
kongoy
kongoye
kongrey
kongreye
konsept
konsepte
konser
konsere
konseri
konseye
konsile
konsonant
konstantin
konstantini
konstantinopolis
konstantinos
kontrol
kontrole
konu
konuk
konus
konvensiyone
konya
konzert
konzerte
koo
koord
koordinatan
kopenhag
kopuz
kopya
kor
kore
koreki
korfeze
korfezi
korkmaz
korku
korkusuz
korkut
kormıs
korniki
koro
korsika
korta
korya
koryay
koryaya
kos
kosova
kosta
kot
kota
koti
kotschy
kou
kovara
kovare
kowta
kowto
koy
koyan
koyane
koye
koyi
koyleri
koyo
koyıno
krako
krakowi
kral
krale
kralic
kralı
kredi
kri
kristof
kritik
kritike
kritiki
krize
kru
ks
ksal
ksek
ksel
ksu
ktan
kte
ktekke
kten
ktu
ku
kuala
kuba
kuc
kudret
kuflet
kuh
kul
kule
kultur
kulturan
kulturane
kulture
kulturel
kulturi
kulturo
kulu
kum
kun
kuna
kune
kung
kuno
kunth
kupa
kupası
kupay
kupaya
kupaye
kupeye
kur
kuran
kurbanları
kurd
kurda
kurdan
kurdane
kurde
kurdes
kurdi
kurdification
kurdish
kurdistan
kurdistane
kurdistani
kurdkerdıs
kurdki
kurdkiye
kurdo
kurds
kurdıstan
kurdıstane
kurdıstani
kurij
kurmanc
kurmanci
kurmancki
kurosawa
kurs
kurse
kursi
kurt
kurtaran
kurtlar
kurtulus
kurudere
kus
kushk
kut
kutsal
kutıbxane
kutıbxaney
kutıbxaneyo
kutık
kutıkan
kutıke
kutıki
kutıko
kuvvetleri
kuweyt
kuy
kuyo
kuyucak
kuzey
kv
kvemo
kw
ky
kyle
kylie
kyrgyz
kyu
kı
kıbrıs
kıhan
kıhana
kıhanan
kıhane
kıhani
kıhano
kıhoyo
kıl
kılam
kılama
kılaman
kılamane
kılame
kılami
kılc
kıle
kılis
kılisa
kılisane
kılise
kılisey
kılite
kılm
kılme
kılmek
kılmeki
kılmi
kılmkerdıs
kılmo
kılıc
kım
kın
kınalı
kınare
kınari
kınce
kınci
kınık
kıran
kırca
kırd
kırdas
kırdasi
kırdaski
kıre
kırgızistan
kırilki
kırk
kırmanc
kırmancca
kırmanciye
kırmancki
kırmancon
kırmızı
kırmızıgu
kırs
kırık
kırıs
kıs
kısa
kısmet
kıtab
kıtaban
kıtabande
kıtabane
kıtabe
kıtabey
kıtabi
kıtabo
kıtabxaneye
kız
kızgın
kızlar
kızları
kızı
kızıl
kızılcahamam
kızılo
kızılırmak
kızım
kızın
kœur
l
la
labastide
label
labela
labele
labels
labeuville
labore
laboris
laborum
labrador
labry
labıre
lac
lacaillei
lacane
lace
lacek
laceki
lacey
lachalade
lachambre
lachapelle
lachausse
laci
laco
lacroix
lacunosus
lada
ladies
ladino
lady
lag
laga
lagas
lagin
lagos
lagosi
lah
lahaymeix
laheycourt
lahum
lai
laimont
laix
laje
laji
lake
lakin
lal
lalapas
lale
lalı
lam
lama
lamarche
lamarck
lamarcki
lamb
lambert
lamerey
lamorville
lamouilly
lamu
lan
lana
lancaster
lance
land
landaville
lande
landes
landrecourt
landres
landroff
lands
landze
lane
lanet
laneuveville
laneuville
lang
langatte
langford
langley
langon
langres
language
languages
languimberg
lanhe
lani
laning
lanka
lante
lao
laos
laosi
laposte
laqa
laqay
laquenexy
lar
lara
large
larger
lari
larry
lars
ları
ların
las
lase
last
lastn
lat
late
later
lati
latin
latine
latini
latinki
latinkiye
latinkiyo
latitude
latour
latter
lau
laudrefang
launch
lauquet
laura
lauragais
lauren
laurence
laurent
laval
lavalle
lavardin
laveline
lavincourt
lavoye
lavranos
law
lawrence
lawık
lawıka
lawıkan
lawıkane
lawıke
lawıki
lay
layan
layer
layout
layık
laze
lazi
lazki
lazım
lazıma
lazıme
lazımo
lb
lbas
lbend
lbu
lc
lccn
lcu
ld
lden
ldu
le
leach
lead
leader
leading
leaf
league
leandri
least
leave
leavenworthi
leaving
leba
lebanon
leben
lec
lece
lech
leci
leco
ledeb
lee
leech
leeds
lefon
lefone
lefoni
left
legal
legend
lehc
lei
leibniz
leiden
leigh
leipzig
lej
leje
lekeli
leki
lelling
lem
leman
leme
lemmes
lempire
lemy
len
length
lenin
lenini
lens
lent
lenticularis
leo
leon
leonard
leonardo
leone
leopare
leopold
leqeba
leqebe
leqema
ler
lerch
lere
leri
lerimiz
lerin
lerine
lerrain
les
lesa
leslie
less
lesseri
lessons
lessy
lester
lestre
let
letan
letane
lete
leteo
letey
leteyan
leteye
leteyi
leteyo
letis
leto
letonki
letonya
letter
letters
lettre
letzte
lev
levant
leve
level
levels
levent
levizyon
levizyone
levizyoni
levizyonie
levizyonio
levizyoniye
levoncourt
lew
lewayıs
lewe
lewis
lewiyayıs
lewo
lexy
ley
leyla
leyli
leyman
leyr
leyre
leyri
leyviller
lez
lezbiyen
lezbiyenan
lezbiyene
leze
lezgi
lfu
lgbt
lgbti
lgbty
lgesi
lgu
lhak
lhami
lhan
lhazan
lhazi
li
lia
liam
liar
libell
liberty
liberya
library
libro
libya
lic
lice
license
licokic
lide
lidere
lidero
lidman
lidya
lie
liebe
liechtenstein
liechtensteini
lieder
lies
liez
life
liffol
lig
liga
ligayo
lige
light
ligi
ligne
lignie
lignon
ligny
ligue
lik
like
likely
lilith
lille
lim
lima
limane
limburgish
limey
limit
limitations
limited
lin
linc
lincoln
linda
lindl
lindre
line
linear
lines
ling
lingua
linguistic
linguistics
linguistik
link
linkable
linke
linked
linking
links
linnaeus
liny
lion
lionel
lions
liquid
lira
liray
lironcourt
lis
lisa
lisanse
lisanso
lise
lisesi
lisey
lisi
lisle
lissey
list
lista
listas
liste
listed
listekerdıs
listey
listing
listn
lists
liststyle
liszt
litera
literary
literatu
literatur
literature
little
littlest
liturgusa
litwanki
litwanya
litwanyaya
liu
liv
livaneli
live
liverpool
lives
living
livre
lix
lixie
lixing
liya
liyan
liye
lizbon
lk
lke
lker
lko
lku
ll
lla
llad
lleida
ller
lleri
lleville
lli
llobregat
llobregati
llobregatiya
llocnou
lloyd
llu
lluc
lm
lme
lmek
lmeyen
lmez
lmfao
lmi
lmo
lmu
ln
lni
lo
load
loaded
local
located
location
locke
loco
lodi
log
logan
loge
loges
logic
logo
logoo
logos
logoya
logoye
loing
loir
loire
loirea
loirei
loirey
loireya
loireyo
loisey
loison
loisy
lolan
lolıkwerdog
lome
lon
london
londra
lone
long
longchamp
longchamps
longe
longeaux
longemer
longer
longeville
longitude
longlaville
longueville
longuyon
longwy
lons
look
looking
looks
loop
lopez
lophe
lorca
lord
lordi
lorem
lorenzo
lorey
lorquin
lorraine
lorry
los
losada
lost
lot
lotta
lou
louis
louise
louisiana
loup
loupmont
louppy
louvemont
louvigny
louvre
love
lovesounds
lovestoned
loving
low
lower
lowercase
loyes
lozon
lp
ls
lt
ltd
ltekin
lten
ltesi
lthttp
ltu
lu
lua
luan
lub
lubey
lublin
lubnan
lubnani
luc
luca
lucas
luce
lucia
luciano
lucius
luck
lucy
ludab
lude
ludwig
lugo
lugoo
lugoy
lui
luigi
luis
luk
luka
luke
luksemburg
luksemburgi
luksemburgki
lule
lum
lumpur
luna
lune
lup
luppy
lur
luran
luri
lurki
lurıstan
lus
lusse
luther
luti
luv
luxemburg
luy
luya
luye
luzy
lv
ly
lya
lyas
lynn
lynx
lyon
lyoni
lyonia
lys
lı
lıca
lıce
lıg
lık
lıksız
lınci
lınga
lıngan
lıngane
lınge
lızge
lızgey
lızgeye
lızgeyo
m
ma
maa
mabe
mabede
mabel
mabeyne
mac
macar
macaristan
macarki
macarıstan
macarıstani
macdonald
macera
macheren
machiavelli
machine
machu
mackenzie
macmillan
maconcourt
mad
madagaskar
madagaskari
madalyaye
madame
madangki
madde
maddey
maddeye
maddie
made
madecourt
madegney
madeleine
mademoiselle
maden
madeni
madeniya
madey
madeye
madeyo
madison
madness
madon
madonna
madonne
madre
madrid
madridi
madridiyo
madt
mae
mag
magazin
magazine
magazines
magic
magna
magnie
magnils
magnus
magny
mah
mahalle
mahallenin
mahallesi
mahir
mahkeme
mahku
mahkum
mahla
mahlay
mahley
mahmud
mahmut
mahsun
mahtab
mai
maiden
mail
maille
maillezais
mailly
main
maine
maini
maintenance
mainville
mainvillers
maire
mairy
mais
maison
maisoncelles
maisons
maizeray
maizeroy
maizery
maizey
maizie
maj
major
mak
make
makedonki
makedonya
makedonyay
makedonıcan
makes
maki
makina
makinay
makiney
making
makino
makkah
maksim
mal
mala
malaincourt
malaisse
malancourt
malar
maları
malatya
malaumont
malavillers
malawi
malayki
malcolm
maldiwi
male
mali
malicorne
malik
mall
malline
malmaison
malmi
malo
malone
malroy
malta
maltepe
malthus
malumat
malumate
malım
malıme
malımiye
mam
mama
mamaxatuna
mamaxatune
mamekiya
mamekiye
mami
mamma
mamo
mamog
man
mana
manager
manan
manastır
manay
manaye
manc
mance
mancha
manchaya
manche
manchea
manchester
manchey
mancheya
mandarinki
mandatory
mandela
mandelay
mandray
mandres
mane
manena
manene
maneni
maneno
maney
maneye
manga
mangiennes
manhattan
manhattani
manheulles
mani
manihot
manila
manisa
manitoba
manitobaya
maniya
mann
mannheim
mano
mans
manse
mansur
mantoida
mantıq
manu
manual
manually
manuel
manufacturer
manuscript
many
manı
mao
map
maps
mar
mara
marainville
marais
marange
maras
marc
marceau
marcel
march
marche
marcilly
marco
marcus
mard
marda
mardigny
mardin
mardini
mardıs
mare
mares
maresme
maresmeya
mareuil
marey
margaret
margin
marguerite
mari
maria
marianne
marie
marieulles
marigny
marilyn
marino
mario
mariyeno
mark
marka
markay
markaya
marked
marker
markers
market
marks
marksist
markup
marlon
marloth
marly
marmara
marmase
marmoutier
marnay
marne
marnea
marney
marneya
maro
marok
marolles
maroncourt
marre
marriage
mars
marsais
marseille
marshall
marsilly
marson
mart
marte
martha
marthi
marti
martigny
martin
martincourt
martinvelle
marty
marville
marvoisin
marx
marxi
mary
maryland
mas
masal
masalı
masan
mase
maserati
masey
maseyan
masi
mask
maske
maskeli
mason
mass
massachusetts
massachusettsi
mast
master
ması
mat
matador
matbaası
match
matematik
matematike
matematikero
matematiki
matematiksel
matematikwan
material
materials
materyale
materyali
mathematica
mathematical
mathias
matt
mattaincourt
matter
matthew
maucourt
maujouy
maulan
maule
maureen
maurice
mauvages
mavi
max
maxe
maxey
maximum
maxstadt
may
maya
mayan
maybe
maye
mayen
mayenne
mayennea
mayenneya
mayki
maykiya
maykiyan
maykiye
maynard
mayo
mayor
mayr
mayıs
maz
mazda
maze
mazeley
mazenderan
mazenderani
mazenderanki
mazgerd
mazgerdi
mazgerdiya
mazgirt
mazirot
mazlum
mazra
mb
mbox
mc
mccarthy
mce
mcvaugh
md
me
mea
mean
meaning
means
meant
measurement
meaux
mebe
mebo
mebusan
mebuse
mec
mecbur
mecburi
mecca
meclis
meclise
meclıs
meclıse
mecmua
mecnun
mecraya
med
medan
mede
medeni
medeniya
medeniyetan
medeniyete
medeniyeti
medi
media
mediawiki
medical
medici
medicine
medina
medki
medrese
medresey
medya
medyay
meet
meg
mehabad
mehdi
mehel
meheli
mehemed
mehemede
mehkema
mehkeme
mehkemey
mehley
mehmed
mehmet
mehmu
mehmud
mehter
mei
meilleraie
mein
mek
meka
mekan
meke
mekere
mekero
mekke
meksika
meksikaya
meksiko
mekteb
mekteba
mekteban
mektebane
mektebe
mektebi
mektebo
mektube
mektubi
mektup
mektuplar
mektupları
mel
mela
melaye
melbourne
mele
meleg
meleh
melek
melekler
meler
meletiye
melfang
meli
melih
melik
mellours
melo
melolontha
melumat
melumate
melumati
melumato
melville
mem
member
members
meme
memed
memet
memleket
memleketi
memo
memorial
memories
memory
memphis
memur
memure
men
mena
menaucourt
menay
menaya
mend
menda
mende
mendeli
mendene
menderes
mendi
mendo
mendıs
mene
meneks
meng
menga
mengane
mengda
menge
mengi
meni
meno
mens
menskirch
mensuba
mensubane
mensube
ment
mental
mentıq
mentıqi
mentıqo
meqale
meqaley
meqaleye
meqaleyi
meqaleyo
mer
mera
merakes
meral
meram
merasime
meratki
mercan
mercedes
mercure
mercy
merd
merda
merde
merdena
merdene
merdey
merdeyan
merdeyo
merdi
merdim
merdiman
merdime
merdimi
merdis
merdo
merdum
merduman
merdumane
merdumano
merdume
merdumi
merdumo
merdım
merdıma
merdıman
merdımane
merdımano
merdıme
merdımeke
merdımi
merdımio
merdımo
merdıs
mere
merey
merg
merga
mergan
merge
mergi
merging
merhaba
meri
meric
merik
mering
meriqa
merkez
merkeze
merkezi
merkeziya
merlebach
merles
merli
mermaid
merrey
mersin
mersini
mert
merten
merve
mervent
merwani
mery
meryem
meryeme
mes
mesac
mescide
mesdar
mesela
mesele
meselesi
meseley
mesi
mesih
mesihi
meslegi
mesmin
mesnewi
mesnewiyo
mesnil
message
messagebox
messages
messier
meste
mestroff
mestu
mesut
met
meta
metabox
metadata
metafizik
metafiziki
metal
metali
mete
method
metin
metis
metne
metode
metodo
metraje
metre
metrey
metreya
metreyi
metreyo
metric
metro
metropole
metropolitan
metropolitano
metroy
metz
metziya
meurthe
meuse
meusey
meuseyi
mevlana
mevsim
mevsimi
mewli
mewlide
mewlıd
mewlıde
mewsım
mewsıme
mewsımi
mewzu
mewzuye
mexicana
mexico
mexy
mey
meya
meydan
meydane
meyi
meyle
meyman
meymane
meymune
meyte
meywa
meywe
meywey
mez
mezar
meze
mezela
mezele
mezelon
mezg
mezgde
mezge
mezgi
mezheb
mezhebe
mezhebi
mezhebo
mezopotamya
mezra
mezrası
mezraya
mezre
mezrey
mezun
mezune
mf
mfo
mg
mi
mia
miami
mian
michael
michel
michelangelo
michelle
michigan
michigani
mick
mickey
microformat
microformats
microsoft
mid
middle
middot
midi
midnight
midrevaux
mie
might
migration
miguel
mihani
mihemmed
mihiel
mikail
mikaili
mike
mikhail
mikroskop
mil
mila
milad
miladi
milan
milano
mile
miles
milet
miley
milii
militane
military
mill
mille
miller
millet
milli
millie
million
milliye
milliyet
milliyetc
millsp
milly
milne
milton
milwaukee
milyar
milyon
milyona
milyonan
milyoner
milyoni
milyono
mim
mimar
mimari
mimariya
mimariye
mimaro
min
mina
minas
mind
minded
mine
minervois
mines
ming
minh
mini
minik
minim
minnesota
minor
minsk
mintiqa
mintiqaya
mintiqayan
minuit
minutes
miomantis
mir
mirabel
miracle
miranda
miras
miraz
mirbeau
mirc
mire
mirecourt
miri
mirki
miro
mirror
mirza
mis
misal
misali
miscellaneous
mise
misin
misiri
miss
missile
missiles
missing
mission
mississippi
missouri
mistefa
misyoneri
mit
mitchell
mite
mithat
mitolociki
mitolociya
mitolociye
mix
mixed
miya
miyan
miyande
miyandonıke
miyane
miyani
miyatro
miye
miyon
miyoni
miyonte
mk
mkurey
ml
mlekc
mlerz
mlerzi
mm
mn
mnras
mo
mobile
mocnayıs
mocne
mocnena
mocnene
mocneno
mocniyao
mocniyena
mocniyene
mocniyeno
mocno
moda
mode
model
modela
modele
modeli
modelo
moder
modern
moderne
moderni
moderno
modify
module
modules
modulus
moduse
mog
mogeville
mogne
mohamed
mohammad
mohammed
moi
moiane
moineville
moirey
mokhtar
mol
moldawya
moldova
mole
molie
moliere
moll
molla
mollit
molsheim
moment
momerstroff
momo
mon
monadenium
monars
monastery
moncel
moncheux
monde
monet
money
monica
monistrol
monitor
monobook
monroe
mons
monster
monsters
mont
montagne
montaigu
montana
montblainville
montbras
montceaux
montclar
monte
montenegro
monterrey
montfaucon
montfort
montgomery
month
monthairons
monthly
monthureux
montiers
montigny
montjoie
montmartin
montme
montois
montournais
montoy
montplonne
montre
montreal
montreuil
montreux
monts
montsec
montserrat
montsoreau
montze
monville
moody
moon
moore
mor
mora
moral
morales
morality
morals
moranville
morcela
morcele
mordem
mordeme
mordemi
mordemo
more
moreilles
morelmaison
moret
morfontaine
morgan
morgemoulin
morhange
mori
moria
morin
moritanya
moriville
morize
morley
morning
moro
morris
morrison
morsbach
mort
mortagne
morville
mos
moschatus
moscow
moselle
moselleo
moselley
moselleya
moselleyi
moselleyiya
moselotte
moskowa
mosley
most
mostly
mote
moteno
moth
mother
motki
moto
motor
motore
motori
motte
motıs
mou
mouaville
mouilleron
mouilly
moulaine
moulainville
moulin
moulins
moulotte
mount
mountain
mountains
mouse
moussey
mousson
moussy
moutiers
mouzay
mouzeuil
mouzon
move
movement
movie
movies
moving
moyemont
moyenmoutier
moyeuvre
moz
mozambik
mozart
mp
mparator
mparatoriya
mperator
mperatore
mperatoriya
mppt
mr
mrs
mru
ms
mse
msm
msu
mt
mtaz
mtv
mu
muazzez
mubi
mucadele
mucadeley
much
mucize
mudire
mug
muh
muhabbet
muhammad
muhammed
muharrem
muhemmed
muhi
muhim
muhime
muhimo
muhlis
muhsin
muhtar
muhtes
muhımo
mulhouse
mulleri
multi
multiple
mumbai
mun
munda
mundo
mungan
municat
municipality
munix
munixi
munster
munzur
munzuri
muquf
mur
murad
muradan
muradane
muradi
murat
murathan
murder
mureau
murphy
murray
murvaux
murville
mus
musa
musabeyli
musao
musaog
musay
musaya
musaye
musayo
musayog
musayıs
muschampia
muse
museno
museum
musewi
musewitiye
musewiy
mushemi
music
musical
muslim
musnayıs
musneno
musoni
mussolini
must
mustafa
musıl
musıli
mutasyon
mutasyoni
mutlu
mutluluk
muxtar
muxtare
muxtari
muyane
muye
muyi
muzaffer
muze
muzeray
muzey
muzi
muzik
muzika
muzikal
muzike
muziki
muzikia
muzikio
muzikiya
muziko
muzisyen
muzisyena
muzisyenan
muzisyenane
muzisyene
muzisyeni
muzisyeno
my
myanmar
myanmari
myself
mystery
mı
mıbarek
mıbarekkerdıs
mıcadele
mıdefa
mıfetıs
mıg
mıhemmed
mıhemmedi
mıhendis
mıkemmel
mıle
mılet
mıletan
mıletane
mılete
mıleti
mıleto
mıli
mıliyo
mılke
mılletan
mıllete
mılleti
mılli
mımarine
mın
mına
mınasebete
mınete
mıno
mıntıqa
mıntıqan
mıntıqane
mıntıqao
mıntıqay
mıntıqaya
mıntıqe
mıntıqey
mıntıqeye
mıra
mırd
mıre
mırena
mırene
mıreno
mıric
mıs
mısal
mısale
mısneno
mıstemera
mısılman
mısılmanan
mısılmanane
mısılmanano
mısılmane
mısılmani
mısılmano
mısır
mısıre
mısıri
mısırio
mısırkiyo
mısıro
mısırıcan
mıtbaxe
mıtes
mıxtelif
mıxtelıf
mıyız
n
na
nabi
nabor
nabord
naca
nach
nacht
naci
nacional
naciye
nada
nadi
nadir
nadu
nae
nafa
nag
nah
nahiya
nahiye
nahiyey
nahiyeye
nahı
nai
naive
naives
naix
nal
nalan
naledi
nalliers
nallıhan
nam
naman
namane
namdar
namdara
namdaran
namdare
namdari
namdariya
namdaro
name
named
namede
namekerdıs
nameo
names
namespace
namespaces
namey
nameyan
nameyane
nameye
nameyi
nameyo
namibya
namur
namus
namusi
namzed
namzede
namzediya
namık
nan
nana
nanc
nancy
nane
nang
nani
nano
nanog
nant
nanteuil
nantillois
nantois
nao
naomi
naples
napoleon
napoli
napolyon
naqas
naqi
naqki
nar
nara
narbe
narmont
narrativa
narrative
narrator
nas
nasa
naskerde
naskerdene
nasreddin
nasyonal
nasyonali
nasyonalistane
nasyonaliste
nasyonalizm
nasyonalizme
nasıl
nat
nata
natas
nate
natey
nateye
nation
national
nations
native
nato
natoy
natura
natural
naturali
nature
naturizm
naval
navas
navbar
navbox
navboxes
nave
navigation
navigational
navy
naw
nawa
nawıtıs
naxc
naxır
naxıre
naxıri
nay
naya
naye
nayemont
nayene
nayi
nayo
nayıs
naz
nazaire
nazareth
nazi
nazif
nazik
naziyan
nazlı
nazmi
nazmiya
nazmiyaya
nazım
nba
nbc
nc
nca
ncan
ncbi
nce
nchen
nci
ncil
ncile
ncili
nco
ncu
nd
nda
ndar
nde
nden
nder
ndez
ndi
ndnis
ndog
ndonezki
ndonezya
ndonezyayo
ndu
ne
neandertali
near
nebat
nebatan
nebati
nebato
nebi
nebra
nebraska
nebula
nebulosus
nec
necati
necdet
necessary
necip
necmettin
necmi
ned
neden
nedim
nedir
need
needed
needing
needs
nefer
nefero
nefes
nefese
nefsi
negatif
negative
nego
negro
nehcu
nei
neil
neill
nejat
nek
neke
nel
nelson
nemac
nemace
nemours
nen
nena
nene
neni
neno
neo
nepal
nepali
nepalki
neptun
nepvant
neqareh
ner
nerede
nereye
neri
nerikiye
neril
nerm
nerme
nermo
nes
nesil
nesin
nesle
nested
nesting
nesıl
nesıle
net
neti
netice
netik
netika
netike
netiki
netikio
netiko
netmen
nettancourt
network
neuf
neufcha
neufour
neuilly
neumann
neunkirchen
neuveville
neuville
neuviller
neuvillers
neuvilly
neuvy
nevada
never
nevzat
new
newa
newan
neway
newblue
newbrown
newe
newedera
neweo
newepel
newes
newey
neweyan
neweye
neweyi
neweyo
newfoundland
newgreen
newi
newiya
newiye
newman
newpink
newpurple
newred
newroz
newry
news
newspaper
newspapers
newton
newı
next
ney
neye
neyi
neyt
nez
nezdi
nezdio
nezdiya
nezdiye
nezdiyo
nf
ng
ngc
ngcic
nge
ngero
ngi
ngili
ngiliz
ngilizce
ngilizki
ngiltere
ngo
ngu
ngus
ngılizki
ngıltera
ngıltere
ngıltereyo
ngılız
ngılıza
ngılızan
ngılızi
ngılızki
ngılızkiye
ngılızkiyo
ngılızo
nh
nha
ni
nia
niane
nic
nicaeensis
niccolo
nice
nicer
nicerya
nicey
nicholas
nicht
nick
nicky
nicolas
nicolaus
nicole
nicourt
nie
nied
niedervisse
niels
nielsen
nietzsche
nig
nigar
nigeria
night
nights
nih
nihal
nihat
nik
nika
nikaragua
nike
nikola
nikolai
nikolay
nil
nilgu
nili
nils
nilu
nim
nimbostratus
nime
nimu
nin
nina
ninan
nine
ning
ninh
nino
ninon
ninth
ninu
nio
nir
nira
niro
nirvana
nis
nisa
nisan
nisane
nisange
nisanyan
nisanyanmap
nisi
nitting
niversitesi
niwersita
nix
nixe
nixon
niy
niya
niyan
niyane
niyao
niyay
niyaya
niyayo
niye
niyena
niyene
niyeno
niyi
niyo
nizam
nizame
nizdi
nj
nka
nkıla
nl
nler
nlm
nlu
nm
nmez
no
nobel
nobele
nobeli
nobelia
nocat
nod
noe
noeditsection
noel
nogent
nois
noisseville
nokia
nom
nomadic
nome
nomexy
nominate
nompatelize
nomre
non
nona
nonains
none
nonempty
noni
nonsard
nonville
nopp
nor
nord
norm
normal
normali
normally
norman
normandiya
norristown
norroy
nors
north
northen
northern
norton
norway
norwec
norweci
norwecki
nos
nosid
noside
nosidi
nossoncourt
nostrud
not
nota
notable
notation
note
notebooks
noted
notes
nothing
noti
notice
notices
notoc
notre
notte
nottingham
nou
noues
nouillonpont
nouilly
nousseviller
nouvelle
nouvelles
nov
nova
nove
novel
novels
november
novi
now
nowy
noxtay
noxtaya
noyers
noyo
nr
ns
nsan
nsanan
nsani
nsanlar
nsanları
nsanlık
nsanın
nsson
nster
nsteri
nt
nternet
nterneti
nth
nther
ntikam
ntikamı
ntv
nu
nube
nubki
nuclear
nueva
nuevo
nufuse
nuh
nuhi
nuit
nuki
nukleer
null
nulla
numara
number
numbered
numbers
nume
numeral
numeric
numre
numugenki
nun
nur
nuray
nure
nurettin
nuri
nursi
nus
nuse
nusene
nuseno
nusi
nusiyao
nusiyay
nusiyaya
nusiyaye
nusiyene
nusiyeno
nuskar
nuskare
nuskaro
nusneno
nustog
nut
nuuk
nv
ny
nya
nyası
nye
nz
nı
nıfus
nıfusa
nıfuse
nıfusi
nık
nıka
nıkay
nıke
nıki
nımaj
nımneno
nımune
nımuney
nın
nıqara
nıs
nısbete
nızm
nızme
nızmi
nızmo
o
obama
oban
oberdorff
oberthu
obervisse
obi
obje
object
objektif
oblast
obra
oca
ocag
ocak
ocalan
occaecat
occidentali
occidentalis
occidentaliya
occitanie
occupation
occur
occurrence
occurrences
occurs
ocean
och
oclc
oct
octave
october
ocug
ocuk
ocuklar
ocukları
od
oda
odası
odd
oden
oder
odontomantis
odtu
odule
oe
of
off
offers
office
officia
official
offroicourt
offset
ofo
often
og
ogy
oh
ohio
oi
ois
oja
ok
okan
okc
oklahoma
oksitanki
oktay
okulu
okyanuse
okyanusi
okyanuso
okyanusya
okyanusyaki
okyanusyaya
ol
ola
olacak
olag
olan
olarak
old
older
oldknow
oldu
oldum
ole
olenev
oli
olig
oligi
oligia
oligiya
oligiyo
olimpiyate
olimpiyati
olimpiyatie
oliva
oliver
olivia
olivier
olizy
olki
ollainville
olley
olmak
olmaz
olo
olociye
olpan
olsam
olsson
olsun
olur
olus
oluyor
olya
olympia
olympic
olıstan
olıstani
om
omar
omer
omit
omitted
on
ona
onard
onca
once
oncia
onciya
onciyayo
oncourt
onde
one
onepage
ones
oni
online
only
ono
ontario
ontarioya
onto
ontolociye
ontologiya
ontologiye
onur
onurlu
onville
onyayıs
oo
op
opacus
opel
open
opera
operasyon
operasyone
operation
operational
operations
operatorname
opi
opole
optik
optimised
option
optional
optionally
options
opus
or
ora
oradour
orak
oral
orange
oranges
oratorio
oray
orbay
orbis
orbrie
orchestra
order
ordi
ordinary
ordiye
ordu
ore
oregon
ores
org
organe
organizasyon
organizasyonane
organizasyone
organizasyoni
organizasyono
organization
organizations
organize
organizma
organo
orge
orgueilleux
orhan
orhun
ori
oricinal
oricinale
oricinali
oriental
orientali
orientalis
orientaliya
orientation
origin
original
origins
origyear
orkestra
orkestrasyon
orlando
orleans
ormes
ormond
ornage
ornain
orne
ornel
ornes
ornithodoros
ornois
orny
oro
ors
orta
ortac
ortako
orthe
ortodoksi
ortodoksiya
ortodoksiye
ortoncourt
orum
orumi
orumia
oryantasyonane
orðabo
os
oscar
oscari
osches
osetki
osetya
osiris
osirisi
oskari
oslo
osman
osmancık
osmani
osmaniye
osmanlı
osona
osp
osta
ostera
osti
ot
otaw
otel
oteli
othain
othe
other
others
otherwise
otomobil
otonom
otonoma
otonome
otonomi
ottawa
otte
otter
otto
ottoman
ottonville
ou
oudejans
ouen
oup
our
ource
ourches
ourcq
ourense
ourenseo
ourensey
ourenseya
out
output
outside
ouve
ouverturen
ov
ova
over
overall
overlap
overlay
overn
overridden
override
overrides
overview
ow
owa
owe
owen
own
ox
oxford
oxidiser
oxyopsis
oxyothespis
oy
oya
oyi
oymak
oyo
oyun
oyuncu
oyuncuları
oyunu
oz
ozan
ozbekistan
ozbekıstan
ozerailles
p
pa
pabesteye
pablo
pac
pacific
padding
padi
padis
padlock
padoux
pae
pag
paganini
paganizm
page
pagename
pages
pagny
pahlavi
pahn
pai
pail
pain
paine
painter
painting
pair
paiza
paizia
pak
pakistan
pakte
pakıstan
pakıstani
pal
palace
palaiologosi
palais
palameix
palau
palermo
palestine
palevi
pali
pallida
palma
palmer
pamela
pamiri
pamuk
pamukc
pan
panama
panc
pancas
pance
pancre
pancın
pancıne
pancıno
panda
pandomim
panel
pange
panges
paniai
panislamizm
pannus
panorama
panurgica
paolo
papa
papag
papay
papayan
papaz
papazan
paper
papers
papua
papuaki
papuakiyo
papuayo
par
para
paradise
paradokse
paragraphs
paraguay
paralel
parame
parameter
parameters
parametre
params
parantez
paraoxypilus
parasphendale
parc
pare
pareds
pareid
parent
parentheses
parenthetical
parey
parfondrupt
parges
pargny
pari
pariatur
parigne
parinacota
paris
parisi
park
parke
parker
parki
parko
parlamenter
parlamento
parlamentoy
paroches
parodi
parole
parres
pars
parse
parser
parsi
parsonsi
part
parti
particular
particularly
partisi
partiy
partiya
partiyane
partiye
partki
parts
party
parva
pas
pasa
pasaporta
pascal
pasif
pasifi
pasifik
pasifiki
pasor
pasori
pasoriya
pass
passed
passing
passion
past
paste
pasur
pasurilcesi
pasxalya
pat
patara
pataveh
patene
patente
patricia
patrick
patron
patrono
paty
pau
paul
paula
pauli
paulina
paulo
paulus
pawe
pawene
paweni
paweno
pawıte
pawıto
pawıtıs
pax
paxia
pay
payane
paydas
paye
payiz
payiza
payize
payizo
payra
payre
pays
paytaxte
paytext
paytexte
paytexti
paytexto
payız
payızi
paz
pazar
pc
pd
pdf
pdfhttp
pdk
pe
peace
pearl
pec
peck
pedagociye
pede
pedilanthus
pedro
pegasus
pehlewi
pehlewki
pejic
pek
peker
pekin
pekinensis
pekkan
pel
pela
pelane
pele
pelga
pelge
peli
peltre
pembe
peme
pen
penc
pencabki
penede
penguin
penn
pennsylvania
penny
pensilvanya
people
pepper
per
pera
perac
peralta
peran
perana
perane
perc
perche
percussion
percy
pere
perestan
perestıs
perey
pereye
pereyo
perfect
performance
performed
peri
period
periodical
periods
pero
peroc
peroci
peron
perra
perre
perry
pers
persan
persane
perse
perseno
persepolis
persi
persia
persian
perskerdıs
perso
person
personal
personality
persondata
perspective
perstar
pertek
perthes
perthois
peru
perwerdeyi
pes
pet
pete
peter
peters
petersburg
petersen
petit
petite
petosse
petra
petrarca
petrol
petroli
petrus
peut
peuvillers
pexine
pey
peybend
peybende
peybendi
peyda
peyde
peydena
peydı
peye
peyen
peyg
peyi
peyige
peyni
peyniya
peyniye
peyser
pez
pg
ph
phanc
phe
phepug
phepuge
phepugi
phes
phil
philadelphia
philip
philippe
phillip
phillips
philosophical
philosophy
phoenix
photo
photograph
photography
php
phthersigena
phu
phyllovates
pi
pia
piano
pianoforte
picasso
picchu
picture
pictures
pie
piece
pieces
piennes
pierre
pierrefitte
pierremont
pierrepont
pierreville
pierrevillers
pieter
pietro
piez
pigar
pik
pil
pila
pilan
pilane
pilaqi
pilbiyayıs
pile
pileus
pili
pillon
pilo
pilote
pin
pinal
pinaliya
pine
ping
pink
pinnebergi
pinonville
pins
pintheville
pinyin
pion
pipe
pipes
pir
piramide
piramidi
piran
pirani
piraniya
pirates
piraye
pire
piri
pirnike
piro
pirtu
pirıke
pis
piskopos
pissotte
pital
pitoni
pitt
pittsburgh
pius
pixel
pixels
piy
piya
piyade
piyanist
piyaniste
piyano
piyasa
piye
piyes
piyo
pize
pizey
pizza
pjesme
pkk
pl
pla
place
placed
placeholder
places
placing
plain
plaine
plaj
plaje
plaji
plak
plan
planciusi
plane
planet
plantilla
plappeville
plate
platform
platforme
plato
platoe
platon
platoni
play
player
plaza
please
plessis
plombie
plotdata
plu
plugins
plumptre
plus
pm
pmc
pmid
png
po
pobla
pobra
pocket
podlaski
poe
poem
poems
poetry
point
points
poivre
poke
pol
polar
polat
polati
polatlı
pole
poli
police
policiniye
policy
poligny
polinezya
polis
polisan
polise
polisi
poliso
political
politics
politik
politika
politikan
politikay
politike
politiki
politiko
polo
polonki
polonya
polonyay
polonyaya
polyspilota
polytremis
pomaki
pomeranya
pomme
pompa
pompierre
ponc
poncas
pont
pontevedra
pontevedrao
pontevedraya
pontoy
pontpierre
pony
pop
pope
popi
popu
popular
populasyon
populasyone
populasyoni
population
populer
por
porcelette
pore
porn
pornografiki
pornografiya
pornografiye
pornographic
pornoy
pornoya
pornoye
porr
port
portable
portaj
portakal
portal
portale
portals
porte
portekiz
portekizi
portekizki
portekizıci
porter
portes
portieux
porto
portrait
portugal
pos
position
positive
possible
possibly
post
posta
postal
postası
postay
poste
postesuran
postesuri
postexane
postey
posthumously
posti
postscript
postıke
potanthus
potene
potter
pouille
pouilly
poulie
pound
pour
pournoy
poussay
pouxeux
pouzauges
pov
powell
power
pozisyone
pozitif
pp
pr
pra
practice
pradelles
praecipitatio
prag
prairie
prancher
praslin
pratik
pre
preceded
preceding
precipitation
precision
predefinic
predloga
predloz
preferably
preference
preferred
prefix
prefixed
preload
prelude
preludes
premier
premiere
premio
prens
prense
prenses
prensiban
prensibe
prensibi
present
presenter
presents
preserved
president
presley
press
pressure
prestij
preston
pretty
pretz
preutin
prevent
preverb
previous
previously
prey
prezervatif
price
priest
prima
primarily
primary
primati
prime
primeira
primer
primera
prince
princess
princeton
principal
principe
print
printed
printemps
prior
priority
pris
privat
private
prix
prize
pro
probably
problem
problemane
probleme
problemi
problemo
problems
proce
procey
proceye
produce
produced
producer
produces
product
production
produksiyoni
produktor
produktore
produktoro
prof
profesor
profesoran
profesore
profesoro
professional
professor
profesyonel
profil
profile
prog
program
programane
programe
programi
programming
programnayıs
progress
proident
proje
project
projection
projects
projey
projeye
prokh
prometheus
prominent
proper
properly
properties
property
prophet
proprie
prose
prosese
prosesor
protected
protection
protein
protestan
protesto
protestoye
proto
protocol
protosinkellos
provence
provenche
provide
provided
providence
provides
province
provins
proxram
proxrame
pru
prunay
prusya
ps
psala
psalaya
pseudoharpax
pseudovates
pseudoyersinia
psi
psikolocik
psikolociya
psikolociye
psychology
pt
pu
puani
public
publication
publications
published
publisher
publishers
publishing
publius
pubmed
puc
pucelle
puebla
puente
puerto
puid
puits
pulp
pulsar
pulur
puluri
puluria
puluriya
punctuation
punerot
pur
pure
purge
purple
purpose
purposes
purte
pus
pushpin
pusu
put
puts
puxe
puxieux
puy
puzieux
px
py
pye
pyrgomantis
pyrgus
pıhe
pılemoriya
pılemoriye
pılemuriye
pınar
pınarbas
pır
pıra
pırc
pırd
pırde
pırdi
pırdo
pıre
pırnıka
pırnıke
pıro
pırodayıs
pırr
pıs
pısa
pısıng
pısınga
pısıngane
pısınge
pısıngi
pıt
pıtan
pıte
q
qa
qabul
qac
qadi
qadiyo
qahira
qahire
qai
qaide
qaji
qal
qale
qaleh
qali
qalkerdog
qalkerdıs
qalıbe
qalın
qamıs
qanalizasyoni
qanat
qande
qang
qanser
qansere
qanseri
qanu
qanun
qanunan
qanunane
qanune
qanuni
qanuno
qapan
qarar
qarey
qarliova
qas
qase
qasimlo
qat
qate
qatır
qayt
qayte
qaz
qazaxki
qazaxıstan
qazaxıstani
qazi
qazianteb
qaziantebi
qe
qebila
qebu
qebul
qec
qedafi
qede
qeder
qedere
qedexe
qedi
qedina
qediya
qediyao
qediyayo
qediyayıs
qediyene
qediyeno
qediyo
qedre
qedri
qedıri
qehwe
qela
qelb
qelbe
qelbi
qele
qelecug
qelem
qeleme
qerar
qerare
qerebag
qerebe
qerebuk
qerec
qereman
qeremani
qereog
qers
qersi
qerte
qertel
qes
qesa
qese
qesey
qesideyo
qesre
qestamonu
qestamonuy
qet
qeter
qeteri
qeti
qetl
qetliam
qetliame
qetliami
qetıl
qewetane
qewetın
qewetıne
qewetıno
qewmane
qewme
qewmi
qewmıyayıs
qewt
qey
qeyd
qeyda
qeydane
qeyde
qeydi
qeymeqamiya
qeyseriye
qeza
qezae
qezane
qezay
qezaya
qezaye
qeze
qezenc
qezence
qezeta
qezetey
qezey
qezeyane
qezeye
qi
qian
qin
qiral
qisey
qisme
qo
qoc
qodi
qole
qome
qomi
qomutane
qontrol
qonya
qonyaya
qral
qrale
qraliya
qtısad
qtısade
qu
quad
qualificatif
quality
quang
quartet
quartets
quartette
quatre
qudu
qudıs
que
quebec
quechua
queen
queens
quentin
quest
question
questions
qui
quick
quickest
quilly
quincy
quintet
quirin
quis
qul
qula
qule
qulp
qum
qumandane
qumandare
qumi
quotation
quote
quoted
quotes
qur
quran
qurana
qurane
qurban
qurbani
qureyza
qurultaye
qutıban
qutıbi
quweta
quwetane
quwete
quwetın
quwetıne
quwetıno
quıti
qıbrıs
qıbrıse
qıbrısi
qıc
qıcan
qıcane
qıce
qıci
qıckek
qıckeke
qıckeki
qıco
qıje
qıji
qıpc
qır
qıral
qıralan
qıralane
qırale
qırali
qıralic
qıraliya
qıraliyeti
qıralo
qırg
qırnata
qırs
qırxlareli
qırım
qırımi
qırıxqele
qırıxqeley
qıs
qısa
qıse
qısebend
qısebende
qısey
qıseye
qıseykerdog
qıseykerdıs
qısme
qısıme
qısımo
qıta
qıtan
qıtane
qıtay
qıtaya
qıtek
qıteka
qıtekan
qıteke
qıteki
qıteko
qıtey
qıteyan
qıymete
qızılbas
r
ra
raa
rabi
rabia
rac
race
rachel
racine
racing
radcl
radcliffe
rade
radiatus
radikal
radio
radius
radyo
radyoe
radyoy
rae
raf
rafael
rafe
rafet
rafi
rafya
rafyay
rag
rah
rahibi
rahman
rai
raids
raif
rain
rainbow
rainforest
rainville
raiuno
raival
raj
rakerde
rakerdo
rakerdıs
rakhine
ralph
ram
ramakrishna
ramazan
rambervillers
rambluzin
rambucourt
rame
ramecourt
ramena
ramene
rameno
rami
ramiz
ramo
ramon
ramonchamp
ramphotyphlops
rampont
ramıt
ramıta
ramıte
ramıtene
ramıto
ran
rana
ranan
rance
rancourt
rande
random
randomly
rane
rang
range
ranges
rani
ranie
ranio
raniyo
rank
ranki
rankio
rankiyan
rankiyane
rankiyano
rankiye
rankiyo
rano
ranolog
rans
ranzie
ranıcan
ranıcano
ranıci
ranıco
rao
raon
raoul
rap
rapey
rapi
rapor
rappere
raq
raqi
rard
rardmer
rare
rarely
rarity
ras
rasa
rasiya
rasizm
rast
rastafari
raste
rastnus
rat
rated
rather
rating
ratings
ratio
ratneyao
rau
rauf
rauh
raulecourt
rauvilliers
rave
raver
raverberdene
raveri
ravers
raves
ravey
raville
raw
rawa
rawo
ray
raya
rayan
raye
rayi
rayis
raymond
rayo
raywanan
raza
raze
razi
rbu
rc
rcan
rcani
rcu
rd
rda
rdan
rde
rdek
rdekan
rdeki
rdey
rdi
rdistan
rdo
rdu
rdıs
re
read
reader
readers
reading
reads
ready
reagan
reaksiyon
real
reale
realite
reality
really
reason
reasons
rebbi
rebe
rebecca
rebeuville
rec
recep
reception
rech
recommended
record
records
recueil
recım
red
redakte
redi
redir
redirect
redirects
redlach
rednex
redoux
reduksyoni
redundant
ree
reeves
ref
refaransi
refer
referandum
referans
referanse
referansi
reference
referenced
references
referencing
reffroy
refik
reflections
reform
reforme
reg
regel
regia
region
regional
regis
regne
regney
regular
regı
reha
rehaincourt
rehat
rehaupal
rehet
rei
reichert
reigniers
reims
reina
reine
reis
reiscumhure
reise
reisi
reisicumhure
rejime
rek
reket
rekete
reklam
rekti
rel
relanges
related
relating
relatively
release
released
relevant
reliable
relief
religion
religious
rem
rema
remain
remao
remaye
rembercourt
remember
remene
remeno
remet
remeti
remezan
remezani
remicourt
remiksi
remilly
remimont
remiremont
remix
remoiville
remomeix
remoncourt
remove
removed
removille
remy
remzi
ren
rena
renaissance
renamed
renault
renauvoid
renc
rencber
rence
rencik
render
rendered
rendering
renders
rene
reng
rengan
rengane
renge
rengi
rengo
reni
rennes
reno
repel
replace
replaced
replaces
report
reportaj
reports
reprehenderit
representations
republic
reqabet
reqasa
reqemane
reqemi
reqibe
request
require
required
requires
rer
res
resa
resam
resame
resami
resamo
resao
resay
resaye
resayo
resayıs
research
resena
resene
reseno
resi
resitaller
resme
resmi
resmio
resmiy
resmiyan
resmiye
resmiyet
resmiyete
resmiyeti
resmiyo
resmoqıckek
resnayıs
resnene
resneno
resno
resource
resources
respect
respectively
responsible
respublika
ressam
ressamo
resson
rest
result
results
resım
resımi
ret
retim
retmen
retonfey
retrieved
return
returned
returns
retz
reut
rev
revenge
review
reviews
revigny
revised
revision
revolusyon
revolusyone
revolusyoni
revolution
rew
rewe
reweke
rews
rey
reya
reyan
reyayıs
reydayıs
reyde
reye
reyhan
reyi
reykerdıs
reykjavik
reyna
reyno
reynolds
reyo
reyra
reyssouze
reyya
reyıc
rez
reza
rezewi
rezonville
rfan
rfc
rgb
rge
rgen
rgu
rh
rhin
rhini
rhiniya
rhiniyo
rhinotyphlops
rhipicephalus
rho
rhode
rhodes
rhombodera
ri
ria
riaville
rib
ribeaucourt
ribera
ric
rica
ricardo
rich
richard
richards
richardson
richecourt
richeval
richmond
richter
rick
ricky
rid
rida
ride
rides
rie
rien
riera
rieulles
rieux
rifat
rig
rigault
right
rights
rigne
rigny
rihanna
rika
riko
rilly
rim
rime
rimeti
rin
rina
rind
rinde
rine
ring
ringo
rings
ringsi
rino
rio
riot
ris
rise
risey
risk
riske
rita
ritchiei
riu
river
rivers
rives
rivetina
rivie
riy
riya
riyao
riye
riyene
riyeno
riyo
riz
rize
rizey
rk
rkan
rkc
rker
rki
rkiye
rkler
rkmen
rko
rku
rlanda
rlanday
rlandki
rler
rlu
rmu
rmug
rmuge
rmugi
rn
ro
road
rob
robbins
robe
robert
roberto
roberts
robertson
robin
robinson
robot
roc
roca
rocakewtena
rocakewtene
rocakewtıs
rocan
rocane
rocaney
rocawan
rocawane
rocawani
rocawanie
rocawanio
roce
rocey
roche
rochefort
roches
rochesson
rochette
roci
rocio
rock
rocki
rocks
rocky
rocname
rocnamewan
rocnamey
rocvetis
rocvetıs
roda
rodayıs
rodri
roe
rog
roger
rogers
rognon
rohan
rohani
rohe
rohingya
roi
roine
roises
roj
roja
roje
rojhilate
roji
rojname
rojnameye
rojnameyi
rojnameyo
rok
roka
roke
rol
roland
rolane
role
rolfe
roli
roll
rollainville
rolling
rolo
roma
romaani
romagne
romain
roman
romanan
romance
romane
romani
romanki
romano
romanos
romans
romantik
romanya
romanza
romay
romayo
romayıcan
rome
romenan
romeo
romero
romilly
romont
ron
rona
ronaene
ronald
ronaog
ronayene
ronayeyo
ronayi
ronayog
ronayıs
roncourt
rond
ronde
rone
roneane
ronesans
ronesansi
roni
ronis
rono
ronvaux
ronıs
room
rooney
roosevelt
roportaj
roqıla
ros
rosa
rose
rosemallow
rosi
rosie
rosnay
ross
rossa
rossi
rossini
rot
rote
rotene
rotenı
roth
roto
rotterdam
rotıs
roubion
rouffiac
rouge
rouges
rough
rouillie
rouilly
roulier
round
rounded
rounding
rousseau
routledge
rouville
rouvres
rouvrois
rouvroy
rouy
roville
row
rows
roxb
roy
royal
royan
royane
royans
roye
royen
royi
royiya
royiye
royiyo
royo
roz
roza
roze
rozerotte
rozie
rpınar
rr
rriyet
rs
rsel
rshavn
rsi
rsim
rsimi
rsu
rsım
rsımi
rt
rtaga
rtage
rtageya
rtc
rte
rteya
rti
rtl
rtlyi
rttemberg
rttembergi
rtu
ru
rubin
rud
rudolf
rudolph
rue
ruec
rues
ruffine
rugat
rugney
ruh
ruhe
ruhi
ruille
ruiz
rul
rule
rules
rum
rume
rumenki
rumi
rumkeg
rumont
run
runa
rune
running
rupert
ruppes
rupt
rural
rus
rusan
rusesabagina
rush
rusi
ruski
rusneno
ruso
russell
russia
russian
rustem
rusya
rusyao
rusyaya
rusyayo
rut
rutan
ruth
rutherford
ruti
ruwen
rwan
rwanda
rwe
rweye
rweyeno
ry
ryan
rz
rı
rıbi
rıc
rıciyayıs
rıdvan
rıfat
rıha
rıhaya
rık
rıka
rınan
rınd
rınde
rındek
rındeke
rındeki
rındi
rındiya
rındiye
rındo
rıne
rıno
rıs
rıstım
rıstıme
rıstımi
rısı
rıy
rıya
rıye
rız
rıza
rızay
s
sa
saadet
saan
saarbru
saat
saati
sabah
sabahat
sabahattin
sabiha
sablon
sabri
sabrina
sac
sacred
sadat
sade
sadece
sadi
sadri
sadık
sae
saeta
saetan
saete
saeti
safari
safe
safewiyan
saffet
saffron
safi
safiye
sag
sahile
sahir
sahra
sai
said
sailly
saint
sainte
saints
sait
saka
sakarya
saki
sakladım
saklı
saksonya
salam
salamanca
salas
sale
saleki
salem
salih
salim
salins
salinsiya
salix
salkım
salle
salles
sally
salmagne
salman
salmon
salon
salone
salsa
salt
saltanate
saltık
salvador
salıx
sam
samba
same
sami
samoa
samogneux
samon
samos
sampigny
sample
samson
samsun
samsung
samsuni
samuel
san
sana
sanat
sanchey
sancy
sand
sandal
sandaucourt
sandbox
sanders
sandra
sane
sang
sani
sanij
saniji
saniya
sankt
sanry
sans
sanse
sanskritki
sansur
sant
santa
santiago
santo
santos
sanıka
sanıke
sao
saosnois
sap
sapiens
sapois
sapphire
sapt
saqaveh
sar
sara
sarac
sarah
saray
sarayı
sare
sargon
sari
sarmas
sarmi
sarre
sarrebourg
sarthe
sarthea
sarthey
sartheya
sartheyi
sartre
saruman
sarı
sarıc
sarıkaya
sas
sasani
sasaniyan
sasaniyano
sassey
sata
sate
sati
satoli
saturday
saturnin
satılık
saudi
saudrupt
saulcy
saules
saulmory
saulnois
saulny
sault
saulvaux
saulx
saulxures
sauron
sauroni
saurya
saussure
sauvaux
sauveur
sauvigny
sauville
sauvoy
savas
save
saverne
savigny
saving
savoie
savoieya
savoieyo
savonnie
savunma
saw
sawyer
say
saya
sayan
saye
sayfa
sayi
sayı
sayın
saz
sazbiyayıs
sazbiyene
sb
sbn
sc
scale
scary
scene
schischk
schleswig
schmidt
schmitt
schneider
scho
school
schopenhauer
schoutenki
schro
schubert
schulze
sci
science
sciences
scientific
scientificamerican
scope
score
scotland
scott
scranton
screen
script
scy
scythians
sd
se
sea
seal
sean
search
searches
season
seat
seate
seattle
seba
sebastian
sebbahi
sebeb
sebebane
sebebe
sebebi
sebebo
sebeta
sebze
sec
second
secondary
seconds
secourt
secret
secretary
secrets
section
sections
secure
security
sed
seda
sedan
sedat
seddam
seds
see
seed
seek
seen
sefer
seferane
sefere
seferi
sefid
sefiller
seg
segarra
segarraya
segria
seguieriana
segura
seh
sehabey
sehay
sehaya
seher
sehne
sehney
sehra
sehraya
sei
seid
seidi
seigneulles
seille
sein
seine
seingbouse
sek
seki
sekiz
seks
sekse
seksi
sekso
sektore
sekulerizm
sel
selahattin
selaheddi
selahedi
selam
selanik
selawat
selc
selcuqıcan
selcuqıcano
selda
select
selected
selection
seleksiyono
selena
seler
self
seli
selim
selma
seltz
sem
sembol
sembole
seme
semed
semede
semedi
semedo
semi
semih
semilly
seminary
semitki
semra
semsu
semte
sen
sena
senarist
senariste
senaristo
senaryo
senaryoye
senata
senate
senatkar
senatkara
senatkare
senatkari
senatkaro
senator
sencag
senden
sendika
sendrome
sene
seneca
senede
senegal
sengserki
seni
senin
seninle
senon
senoncourt
senones
senonges
sense
sensin
sensiz
sent
senteze
sentezo
senık
senıke
seoul
sep
separate
separated
separator
sepete
sepiki
sept
september
septsarges
sepvigny
sequence
ser
sera
seramey
seran
serande
serane
serap
seraumont
seraya
serba
serbest
serbesti
serbestiya
serbestiye
serbesto
serc
sercœur
serd
serda
serdar
serdarane
serdare
serdari
serdariya
serdaro
serdarog
serde
serdi
serdo
serdı
serdın
serdıno
sere
serekcumhure
sereke
serekiya
serekwezire
serena
serengil
serer
seres
serewedartis
serewedarıtıs
serewes
serey
sereye
sergen
sergey
sergio
seri
serial
seriali
serie
series
seriye
serkewte
serla
sermaye
sermeti
sero
serocourt
serok
seroka
serokan
serokane
seroke
seroux
serowo
seroyo
serr
serra
serran
serrane
serrani
serrda
serre
serrename
serrenamey
serrenameye
serrenameyo
serri
serrio
serriya
serriyo
serrol
serrouville
sers
serseri
sert
sertab
serva
server
servere
servers
service
services
servigny
serviy
serwise
serı
ses
sesera
seserra
seserran
seserrane
seserre
seserri
sesi
sesler
sessiz
set
seteriya
seteriye
seth
sethi
seti
sets
setting
settings
settlement
seudi
seuil
seul
seuli
seuzey
sev
sevan
sevda
sevdalı
sevdaya
sevdig
sevdim
seveknayıs
seveknene
sevekneno
seven
seventh
several
severus
seveta
sevgi
sevgili
sevgilim
sevil
sevilla
sevillao
sevim
sevimli
sevinc
sevis
seviyorum
sevmek
sewbi
sewe
sewitiye
sewiyaya
sewli
sex
sexne
sexual
sexy
sexyback
sey
seyd
seydan
seyde
seydi
seye
seyfi
seyhan
seyi
seyid
seyide
seyin
seyit
seyr
seys
seyyed
seyyid
sezai
sezen
sezer
sezgin
sezon
sezone
sezoni
sezono
sf
sfahan
sfehan
sh
sha
shadow
shadows
shaffer
shah
shahr
shakespeare
shakira
shan
shanghai
shaq
sharon
shaw
she
sheikh
shell
sherman
sherwin
sheykh
shi
shia
shift
ship
ships
shire
shirin
shirley
shop
short
shortcut
shortcuts
shortened
shorter
should
show
showing
shown
shows
shu
si
sia
siah
siaya
siaye
sibel
sibirya
sica
sichuan
sicilya
sid
sida
side
sidebar
sidenote
sidney
sie
sienne
sierra
sies
sigismond
sigmund
sign
signature
significant
signs
signy
sihirli
sil
silah
silahdar
silahlı
sile
silence
silezya
silk
sille
sillegny
silly
silmont
silva
silvange
silver
sim
sima
similar
similarly
simon
simone
simple
simplex
simply
simpson
simurg
simya
sin
sina
sinan
sinayıs
sincan
sincari
since
sincik
sind
sindore
sine
sinema
sinemawane
sinemay
sinena
sinene
sineno
singapore
singapur
singer
singh
single
singlee
singlei
singles
sinop
sinopi
sinor
sinorane
sinore
sint
sinyali
sionne
sipahiler
sir
sira
sis
sistan
sistem
sistemane
sistematik
sisteme
sistemi
sistemo
sister
sit
site
sitercl
sites
sitesi
sitey
siteye
siteyo
sivas
siverek
sivil
sivili
sivilizasyone
sivry
six
sixth
siya
siyae
siyah
siyahiyan
siyan
siyao
siyasal
siyaset
siyasete
siyaseti
siyasetkar
siyasetkara
siyasetkare
siyasetkari
siyasetkaro
siyasi
siyasiya
siyay
siyaye
siye
siz
size
sjabloon
sk
ska
skabelon
skandinavya
skandinawya
skender
skendere
skenderiya
skendero
ski
skie
skin
skoc
sku
sky
skyline
skyview
skıti
sl
sla
slam
slami
slamio
slamisti
slamiyet
slamiyeti
slamiyo
slamko
slamo
slanda
slandki
slawki
slawkiye
slawkiyo
sleeping
slim
sloane
slogane
slovenya
slowaki
slowakya
slowenki
slowenya
slu
sm
smail
smaili
small
smaller
smallimage
smallimageright
smalltext
smart
smaug
sme
smet
smile
smith
smriti
sn
snake
sni
sniya
snow
snu
snus
so
soba
sobina
social
societies
society
socourt
sodıri
sofi
sofla
sofokles
soft
software
sofular
sofya
sog
sokag
sokak
sokrates
sol
sola
solar
sole
soleil
solgne
solhan
soli
solid
solo
sologne
solomon
solomoni
solomonkiye
solution
soma
somalya
some
somer
something
sometimes
sommaire
sommaisne
sommedieue
sommeilles
sommelonne
son
sona
sonata
sonatas
sonbahar
soncourt
sond
sone
soner
song
songs
songu
sonic
sono
sonra
sons
sont
sonu
sonville
sony
sophie
soprano
sor
soran
sorani
soranki
sorbey
sorcy
sorkh
sort
sorted
sorunu
sos
sosyal
sosyalan
sosyale
sosyali
sosyalist
sosyalistan
sosyaliste
sosyalisti
sosyalisto
sosyalizm
sosyalizmo
sosyalo
sosyete
sosyetede
sosyolociye
souhesmes
souilly
soul
soulaines
soulosse
souls
soumazannes
sound
soundtrack
source
sources
sous
south
southern
soviet
sovyetan
sowyetan
sowyeti
soy
soyi
sp
spa
space
spaces
spacing
spadesuit
spadesuita
spain
span
spanish
spanya
spanyao
spanyaya
spanyayo
spanyol
spanyolan
spanyole
spanyoli
spanyolki
spanyolkiye
spanyolkiyo
spanyolo
spears
special
specialized
species
specific
specification
specified
specifies
specify
specifying
speech
speed
spencer
sphodromantis
spicheren
spielberg
spincourt
spinosa
spirit
spirits
split
spoke
sponville
spor
spore
spori
sporie
sporo
sport
sporting
sports
sprache
spreng
spring
spurge
spy
sq
sqrt
square
squire
sr
srail
sraili
srev
sri
srsg
ss
sse
sseldorf
ssi
ssp
st
sta
stade
stadyume
stadyumu
stage
stagmatoptera
stagmomantis
stainville
stalin
stan
stanbol
stanbul
stanbuli
standard
standarde
standardi
standfordi
standl
stanford
stani
stanley
staples
star
starr
stars
start
startaleshttps
starting
starts
stasyon
stat
state
statement
statements
staten
states
statilia
station
statistics
statistik
statistike
statistiki
statistiques
statue
status
statuye
ste
steel
stefan
stein
steinbeck
steinm
stella
stenay
steno
step
stephani
stephen
ster
stern
steud
steve
steven
stevens
stevie
stewart
sti
stiftung
stiklal
stile
still
stiring
stiyorum
sto
stockholm
stokholm
stone
stones
stop
store
stories
storm
story
stranger
strasbg
strasbourg
stratiformis
stratocumulus
stratus
strauss
straw
stream
street
strength
strindberg
string
strings
striping
stripped
striptizi
strong
structure
stu
stuart
stub
student
studies
studio
studios
study
studyo
studyoy
studyoye
studyoyi
stuttgart
style
styles
stıqlali
su
suat
sub
subdivision
subdomain
subfamily
subheader
subils
subject
subjectlink
subpage
subpages
subst
substitute
substituted
substitution
subtemplate
subtemplates
suc
suce
such
suci
sud
sudan
sudane
sudani
sue
suffi
suffix
sufizm
suggested
suicide
suikast
suiqast
suisse
suit
suitable
suite
suk
suka
sukan
sukane
suke
suki
sukı
sulari
suleyman
sulh
sulpice
sultan
sultane
sultani
sumer
sumeran
sumerana
sumerıcan
summary
summer
sumru
sun
suna
sunal
sunday
sunet
sung
sunni
sunniyan
sunniye
sunniyo
sunset
sunshine
sunt
super
supere
superimposed
superior
supero
suphi
supplet
supplied
supply
support
supported
supports
suppress
sur
sura
surance
suray
surb
sure
surey
sureya
sureye
surface
surgın
suri
suria
suriauville
surinam
suriya
surname
suro
surrounded
suru
survey
suryaniy
suryanki
sus
susa
susan
susi
susuz
suzanne
suze
suzuki
sv
svalbard
svec
svg
svic
sw
swahili
swe
swec
sweci
swecki
sweet
swic
swift
swifti
switch
sword
sy
syan
sydney
syed
sylvester
sylvia
symbol
symbols
symphonien
symphony
symphorien
synadenium
syndicat
syntax
synthesis
syria
system
systems
sz
szablon
sıba
sıbat
sıbate
sıfte
sıfteye
sıfteyın
sıfteyıne
sıfteyıno
sıfteyını
sıg
sıla
sıle
sılıfka
sım
sıma
sıman
sımi
sımnan
sımnanki
sınase
sıncıki
sıncıkia
sıne
sınıf
sınıfa
sınıfe
sınıfkerdıs
sınıfı
sıpe
sıpi
sıpiye
sır
sıra
sırat
sırbi
sırbki
sırbıstan
sırbıstani
sırgun
sırrı
sıtar
sıtkı
sıxletiya
sıxletiye
t
ta
tab
tabari
tabi
table
tables
tabs
tabu
tabula
tac
tace
taciki
tacikistan
tacikıstan
tacikıstani
tacitus
tadayox
tadayıs
tae
tag
tage
tags
tahir
tahran
tahsin
tahya
tahyaya
tai
taigneraie
taillancourt
taille
tain
tainan
taintrux
tairies
tak
takashi
take
taken
takes
takip
taksim
takımı
tal
tala
talange
talat
tale
talebani
talebe
tales
taliban
talibani
talihsiz
talk
talkhab
talkheh
talkpage
tall
tallud
talya
talyan
talyana
talyanan
talyani
talyanki
talyano
talyao
talyaya
talyayo
talıban
talıs
tam
tamam
tamer
tamil
tamir
tamolanica
tan
tane
taner
taney
tang
tango
tangs
tanju
tank
tannois
tanpınar
tanrı
tanrıverdi
tanzanya
tape
tar
tarachina
tarachodes
tarapaca
tardie
tare
target
tarhan
tari
tarih
tarihc
tarihi
tarihinde
tarix
tarixe
tarixi
tarixiya
tarixiye
tarixiyo
tarixo
tarixs
tarkan
tarquimpol
tarragona
tarsus
tarsusi
tarsusia
tarık
tas
task
tat
tatar
tatarki
tati
tatigne
tatili
tatki
tatlı
tatlım
tatlıses
tau
tavare
taverna
tavs
taw
tawo
tawuxe
taxa
taxi
taxonomy
taxım
taxıman
taxımane
taxıme
taxımestare
taxımestarey
taxımestareyane
taxımestareye
taxımi
taxımo
tay
taybeti
taye
tayfun
tayfur
tayi
tayin
tayinan
tayine
taylan
tayland
taylanda
taylor
tayn
tayne
tayyip
tayın
tazmanya
tbmm
tc
td
te
tea
teacher
teaching
team
tears
teatro
teau
teauneuf
teaux
teauya
tebaxa
tebaxe
teber
tebera
tebere
teberi
tebiet
tebiete
tebieti
tebii
teborg
tecawuz
technical
technology
tecru
ted
tedawi
tede
tedı
teen
teenage
tegucigalpa
tehlike
tehran
tehrani
tehsile
teizm
tek
tekar
tekara
tekarane
tekare
tekari
tekaro
teke
teki
tekin
tekirdag
teklif
teklife
tekman
teknik
teknike
tekniki
teknikiyo
teknolociya
teknolociye
teknoloji
tekrar
teksas
tekwin
tel
teldec
tele
teleb
teleban
telebey
telefon
telefuz
teleskop
telet
television
televizyon
televizyone
televizyoni
tell
tema
temam
temamiye
temas
tembur
temel
temele
temeli
temmuz
temmuze
temotuki
tempeli
temperature
templat
template
templatepagename
templates
temple
templiers
tempo
tempor
temps
tempsort
temsil
temsıl
temuz
temuze
temuzi
ten
tena
tenan
tenay
tenda
tendon
tene
tenerife
teney
teng
tenge
teni
tenis
tenisi
teniya
tenkidi
tennessee
tennis
teno
tenois
tenteling
tenya
tenyao
tenı
teo
teolociya
teolociye
teoman
teoreme
teori
teoriya
teoriye
tepe
tepey
tepeya
tepia
tepis
tepiya
teps
tepya
tepıs
teqriben
teqribi
teqwim
teqwime
teqwimi
teqwimiya
teqwimo
ter
tera
terae
terakki
terao
teray
terazi
terbiyet
terbiyetdayıs
terbiyete
tercan
terchen
terci
tercume
terefe
terefi
terek
terence
teresa
teri
terif
terim
terime
terimi
terimo
teriqati
terk
term
terme
terminal
terminale
terminating
terms
teror
terori
terorist
teroristan
teroristi
teroristo
terorizm
terorizme
terorizmo
terra
terre
terror
terry
ters
tersayıs
terse
terseno
tertele
terteley
terteleye
tertib
terze
terıme
tes
tesbit
tesi
tesir
tesire
tesla
teslag
teslim
test
testcases
teste
testi
testing
testkerdıs
tesır
tesıre
tesıri
tesıro
teting
teva
tever
tevfik
tewbe
tewir
tewr
tewrane
tewrate
tewre
tewri
tewır
tewıre
texas
texmin
texminan
texmine
texminen
text
textbook
textcolor
texte
textes
textey
texti
texts
textstyle
tey
teya
teyan
teyane
teyare
teyarey
teyareyane
teyareye
teye
teyera
teyi
teyna
teyo
teyran
teys
teyveng
tez
teza
teze
tezi
tf
tfi
tgrt
th
tha
thabas
thal
thales
tham
than
thanjige
thann
that
the
theater
theatre
theft
their
thelainville
them
thembur
then
theodor
theodore
theodosius
theodosiusi
theological
theory
there
therefore
these
thesis
thesprotia
they
theyr
theyra
theyri
thibault
thicourt
thie
thierry
thierville
thil
thillombois
thillot
thincourt
thing
things
think
thionville
thiraucourt
third
thire
this
tho
tholy
thomas
thompson
thonnance
thonne
thonnelle
thons
thonville
thorigne
thorin
thornton
those
thouarsais
though
thought
three
through
thrust
thu
thuillie
thumb
thumbnail
thumere
thunder
thurland
thurık
thurıki
thus
ti
tia
tian
tiberki
tibet
tibeti
tibetki
tica
ticaret
ticarete
ticareti
ticari
ticariyo
tici
tico
tie
tienne
tiercelet
tif
tiger
tigne
tigran
tij
tija
tiji
tik
til
tile
tilki
till
tillay
tilleux
tillon
tilly
tim
timbaland
timberlake
time
timeline
times
timkan
timothy
timur
timure
timuri
tin
tina
tine
tiny
tio
tip
tipe
tir
tira
tire
tirkan
tirki
tis
tithymaloides
title
titlebar
titled
titles
titlestyle
tito
titus
tival
tive
tiya
tiyanan
tiyatro
tiyatrosu
tiyatroy
tiyatroye
tiyatroyi
tiyatroyo
tiye
tiyo
tl
tlu
to
tobago
toc
today
todd
tog
together
togo
togoy
toi
toile
tokyo
tolkien
tolkieni
tollaincourt
tolstoy
tolteki
tom
toma
tomb
tombili
tome
tommy
tomorrow
ton
tonga
toni
tony
too
took
tool
tools
tooltip
top
topa
topac
topal
topc
tope
topi
topic
toplamalar
toplu
toplum
toppdoma
toprag
toprak
toqat
toqati
toquinho
tor
tora
torcy
tore
torello
tori
torino
torne
toro
toronto
toros
torose
torosi
torre
torres
torun
torune
tos
tosun
tot
totainville
total
touch
toul
toulouse
tour
tours
tout
tova
tower
town
township
tox
toxarki
toxe
toxi
toxo
toxıme
toy
toyota
tr
tra
trablusg
trabzon
trabzoni
track
tracking
tracks
trade
tradition
traditions
trafik
trafike
trafiki
tragedy
tragny
trail
trailing
train
training
trajedi
trakya
tramont
tramp
trange
tranqueville
trans
transcluded
transfer
transferi
transfero
transformers
transgender
transit
transitifan
transitife
translated
translation
translator
translit
translucidus
transparent
transseksuel
transwiki
travel
traye
trb
trc
tre
treasure
treatise
tree
trees
tren
trene
trent
tres
trey
tri
triaize
tribe
tribes
triconville
tried
trigge
trigger
trilogy
trim
trinidad
trio
trios
triple
tritteling
triumph
trk
troc
trois
troisfontaines
tromborn
tronville
tropikal
tropikali
tropole
trouble
troussey
troya
troyes
troyon
trt
true
trump
truth
try
ts
tse
tsunami
tt
tu
tuba
tucker
tucquegnieux
tufan
tug
tuik
tukana
tuki
tulipa
tulips
tulık
tulıkia
tum
tun
tuna
tunc
tuncay
tunce
tunceli
tune
tunele
tuni
tunja
tunıs
tunısi
tupac
tur
tura
turan
ture
turgut
turhan
turi
turin
turing
turist
turisti
turizm
turizmi
turk
turkce
turkcell
turkey
turkic
turkish
turkiye
turkmen
turn
turna
turne
turner
turney
turısmega
turısmege
tus
tut
tuti
tutia
tutsi
tuvalu
tux
tuya
tuye
tuz
tuzla
tv
tvy
twain
twentieth
twenty
twerdog
twilight
twin
twitter
twitteri
two
ty
tyedır
tyler
type
types
typhlops
typical
typically
tz
tı
tıb
tıbi
tıfaqe
tıflis
tık
tıke
tım
tın
tına
tınan
tıne
tıni
tıno
tıqade
tır
tıra
tırak
tırake
tırk
tırka
tırkan
tırke
tırki
tırkiya
tırkiyae
tırkiyao
tırkiyay
tırkiyaya
tırkiyaye
tırkiyayo
tırkiye
tırkiyo
tırkki
tırkmeni
tırkmenistan
tırkmenki
tırkmenıstan
tırkmenıstani
tırko
tırkon
tırma
tırs
tıs
tıya
u
ua
ub
ubat
ubexy
ubeye
ubuk
ubıxki
uc
uca
ucay
ucayi
ud
ue
uefa
ufuk
ug
uganda
ugly
ugny
uk
uki
ukrayna
ukraynki
ukur
ukurova
ul
ulamki
ular
ulas
uldak
uldaki
uldakiya
ullamco
ulrich
ulu
uludag
uluko
ulya
um
uma
uman
umani
ume
umer
umeri
umraniya
umumi
umumiyo
umut
umıs
un
una
unavailable
unca
uncle
uncollapsed
und
undefined
under
understand
understanding
understands
undulatus
une
unesco
unescoy
unfinished
uni
unicode
union
unique
unit
united
units
univ
universal
universidad
universita
universite
universitey
universiteye
university
universıta
universıte
universıtey
universıteye
universıteyo
unke
unki
unknown
unless
unlu
unnamed
unnecessary
uno
until
unu
unutma
unutmaz
unzipped
up
update
updated
upon
upper
uppsala
upright
ur
ura
ural
urali
urb
urbain
urban
urdu
urduki
urdun
urduni
ure
urfa
urgell
urgelli
urgelliya
uri
urime
urki
url
urls
urs
ursch
ursus
urte
urtica
uruguay
uruk
urukkaya
urville
urıstan
us
usa
usage
usar
usdam
use
used
useful
user
userbox
users
uses
usi
using
usman
usmaniya
usmanıcan
usmanıcanki
usmanıcano
usmanıci
usmanıcki
usta
ustos
ustose
ustıne
usual
usually
usule
usıv
ut
utah
utahi
utc
uxdigi
uxegney
uy
uyanık
uyanıyor
uyg
uygur
uyo
uz
uza
uzbeki
uzbekıstan
uzemain
uzhan
uzun
uzunko
uzza
v
va
vac
vacare
vace
vacherauville
vacheresse
vaci
vacime
vacina
vacino
vaciya
vaciyao
vaciyay
vaciye
vaciyena
vaciyene
vaciyeno
vaco
vacon
vacug
vadelaincourt
vadisi
vadonville
vagney
vahl
vahs
vair
vaise
vaj
vaji
vakti
vakure
val
valbois
vale
valence
valencia
valenciao
valensiya
valentine
valerius
valeur
valeurs
valfroicourt
vali
valid
valldigna
valle
vallerange
valleroy
valley
vallie
vallier
vallois
vallon
vallons
valmont
valmunster
valois
valparai
vals
value
values
vampire
van
vana
vanatu
vancouver
vane
vani
vank
vanne
vannes
vano
vanovic
vantoux
vanuatu
vanuatukiye
vany
var
varan
vardı
vare
varena
varennes
vareno
variable
variant
variants
variation
variations
various
variyante
varize
varlık
varna
varne
varol
varphi
varsag
varsberg
varto
vartoy
vartıs
varyant
varyante
varyanti
varyasyone
varyasyono
varıno
varıt
varıti
vas
vase
vasperviller
vassincourt
vat
vata
vatan
vate
vatebend
vatena
vatene
vates
vatey
vateye
vateyi
vateyo
vati
vatikan
vatikani
vatin
vatis
vato
vatıs
vaubecourt
vaubexy
vaucouleurs
vaude
vaudes
vaudeville
vaudoncourt
vaudreching
vauquois
vaux
vavincourt
vaxoncourt
vay
vaye
vayo
vaz
vazdayıs
vaze
vazgec
vbe
vcard
ve
vece
vecena
vecene
veceno
veci
vecina
vecini
vecino
vecio
veciy
veciya
veciyao
veciyay
veciyaya
veciyaye
veciyayo
veciyayıs
veciye
veciyena
veciyene
veciyeno
veciyi
veciyo
veco
vecoux
ved
veda
vedanta
vedat
vefa
vefasız
vega
vegas
vehbi
vehicle
veidne
veje
vejeno
veji
vejino
vejiya
vejiyais
velaines
velay
velge
veli
veliko
velit
velle
velluire
velosnes
velotte
velving
ven
venc
vence
vende
vendo
venedik
veneur
venezuela
veng
venga
vengan
vengane
vengdayog
vengdayıs
venge
vengi
vengo
vengın
vengıni
veniam
venice
vents
venus
ver
vera
verapey
veray
verayo
verba
verbe
vercors
verda
verdane
verdano
verdao
verday
verde
verdo
verdun
verduniya
verdunois
vere
veren
verende
verg
vergan
vergane
verge
vergi
vergilius
vergo
veri
verin
verlag
vermeer
vermont
verne
verneuil
verni
verniye
vernon
vernus
verny
vero
veroc
veroce
veroci
verocio
verociyo
veronica
veror
verra
verrie
vers
versanayıs
verse
versi
version
versions
versiyone
versus
vert
vertical
verva
vervezelle
very
ves
vet
veta
vete
vetene
veterineri
veti
veto
vetıs
vewr
vewre
vey
veya
veys
veysel
veyve
veyvek
veyvi
vezeno
vezin
vga
vhs
vi
via
vic
vicdan
vice
vicenc
vicherey
victor
victoria
vida
video
videos
videoy
videoye
videoyi
vie
vieille
vier
vietnam
vietnami
vietnamia
vietnamio
vietnamiya
vietnamki
vieux
view
views
vignes
vigneul
vigneulles
vignot
vigny
vigy
vii
viii
viking
viktor
vila
vilanova
vili
villa
village
villaines
villanueva
villar
villars
villas
ville
villedieu
villefranche
villehttps
villeihttps
villeneuve
viller
villeroy
villers
villerupt
villette
villiers
villing
villoncourt
villotte
villy
vilosnes
vime
vin
vinayıs
vincent
vincenzo
vincey
vinci
vindi
vine
vinena
vinene
vineno
vini
vintage
vintrange
viocourt
viola
violin
viome
vionville
vir
vira
viras
virazena
virazi
vire
virey
virga
virgin
virginia
viri
viridis
viro
virtual
virtue
virus
viruse
vis
vise
visible
vision
vist
vista
visually
vita
vitiazki
vitis
vitry
vittarville
vittel
vittoncourt
vittorio
viva
vivien
viviers
vivo
vix
viyale
viyana
viyarnayıs
viyarno
viyerenu
viyo
vizyon
vladimir
vm
vo
vocals
voce
vodafone
vodka
voice
voices
void
voivre
voivres
voix
vokal
vol
voleybol
volga
volkan
volkswagen
vologne
vols
voltaire
voltrega
volume
volumes
voluptate
vom
vome
von
voni
vor
vore
vorlage
vosges
vosgesi
vosgesiya
vosta
vouille
vous
voust
vouthon
vouvant
vouxey
voyage
voyer
voyvodaya
voyvodayiye
voyvodeye
vr
vraine
vre
vres
vroville
vry
vs
vu
vulaines
vulpes
vun
vuni
vur
vuri
vurino
vuriyayıs
vuriyena
vuriyeno
vuriyo
vurna
vurnayıs
vurniyao
vurno
vy
vıce
vıcyayo
vıje
vıla
vılabiyayıs
vıle
vıli
vılla
vılıkan
vılıke
vılıki
vındena
vındene
vındeno
vınderdıs
vınderte
vınderto
vındertıs
vındi
vıne
vıni
vınibiyayıs
vıras
vıraze
vırazena
vırazene
vırazeni
vırazeno
vıraziya
vıraziyae
vıraziyao
vıraziyay
vıraziyaya
vıraziyaye
vıraziyayi
vıraziyayo
vıraziyayıs
vıraziye
vıraziyena
vıraziyene
vıraziyeni
vıraziyeno
vıraziyo
vırazo
vırazıyaye
vıre
vıriyayıs
vıriyene
vıriyeno
vıriyo
vırna
vırnao
vırnayenda
vırnayıs
vırnene
vırneno
vıst
vısta
vıste
vısto
vıze
vœlfling
w
wa
waa
wade
wadi
wae
wagner
wahe
wai
waiting
waka
wake
wales
walesa
wali
waliye
walk
walker
wall
wallace
wallis
walscheid
walsh
walt
walter
waly
wan
wane
wanena
wanene
waneno
wang
wani
waniya
want
wanted
war
waraka
warburg
warcq
ward
ware
warey
wareyane
wareye
wariye
warming
warner
warning
waro
warren
warrior
warriors
wars
warsaw
was
washington
washingtoni
watch
water
waterford
watkinson
watronville
watson
watt
waville
wavrille
wax
waxt
waxte
waxto
way
waya
waye
wayi
wayir
wayire
wayiri
wayiye
wayne
ways
wayıre
wayıs
waz
waze
wazena
wazene
wazeno
wazi
wazia
waziya
waziyeno
waziyet
waziyete
wazıno
we
weapon
weapons
weasel
weather
web
webcite
weber
webi
webkit
website
websites
websitey
websiteye
webster
wec
wedaro
wedarıto
wedarıtıs
wedding
weekend
weight
weird
weiye
weiyekerdene
wekil
wekile
wekıli
welat
welatan
welatane
welate
welati
welato
welcome
wele
well
wells
wen
wena
wend
wenda
wende
wendegehe
wendekare
wenden
wendena
wendenda
wendene
wendi
wendis
wendo
wendog
wendy
wendıs
wene
weno
weqey
weqfa
weqto
wer
werd
werde
werdena
werdene
werdenı
werdi
werdiye
werdo
werdog
werdıs
were
wergera
weri
weriyeno
werner
werneri
werte
wertey
werıs
wes
wesar
wesare
wesari
wesaro
wesayıt
wesayıte
wesley
west
western
westfalya
westfalyaya
wet
wext
wexta
wextan
wexte
wexti
wexto
wextqısan
weye
weyi
weyiye
weyra
wezi
wezifa
wezife
wezir
wezire
weziyete
what
whatever
wheeler
when
where
whether
which
while
white
whitespace
whitney
who
whole
whose
why
wi
wide
width
wie
wien
wiesbaden
wife
wika
wiki
wikidata
wikilink
wikilinked
wikilinks
wikimarkup
wikimedia
wikipedia
wikipediya
wikipediyay
wikipediyaya
wikipediyayo
wikiproject
wiktionary
wild
wilde
wiley
wilhelm
wilkes
will
willd
willeroncourt
william
williams
williamson
willis
willy
wilson
wimbledon
win
wina
window
windows
windsor
wine
wing
winner
winter
wir
wis
wisconsin
wisdom
wise
wisembach
wiseppe
wish
wissembourg
witch
with
within
without
wives
wiya
wiyana
wo
woe
woimbey
woippy
wolde
wolf
wolfgang
woman
women
won
wonder
wong
woo
wood
woodrow
woody
word
words
work
workaround
working
works
world
worlds
worte
worth
would
wp
wpbannermeta
wrap
wrapping
wraps
wreg
wrega
wrege
wregi
wregı
wregıci
wrestler
wright
write
writer
writers
writing
writings
written
wrong
wrote
wrıg
wu
wuca
wucıde
wucıdi
wuerzburg
wuni
www
wyoming
wı
wılayet
wılayetan
wılayetane
wılayete
wılayeti
wılayeto
wına
wıne
wıni
wıs
x
xa
xac
xaffe
xaintois
xal
xaldun
xalduni
xale
xali
xalza
xamontarupt
xan
xane
xanedane
xanedani
xanedaniya
xanedano
xaney
xani
xanton
xanıma
xanıme
xaptiyo
xaronval
xarpe
xas
xasan
xasi
xatır
xatıre
xe
xebat
xebata
xebatane
xebate
xeber
xebera
xeberan
xebere
xeberi
xebetiyeno
xec
xeceliyayıs
xelata
xelate
xelati
xeles
xeli
xelifa
xelifey
xelil
xelq
xelqe
xerce
xeri
xerita
xeritay
xeritaya
xertigny
xestexane
xeta
xetan
xetay
xetayi
xete
xeti
xetica
xetta
xeyle
xeyli
xeyr
xeyre
xeyri
xezeri
xhesen
xi
xii
xiii
xiv
xivray
xivry
xo
xode
xokıs
xone
xonrupt
xonville
xora
xorasan
xorasane
xorasani
xore
xori
xoriyo
xorte
xorti
xos
xoser
xosere
xoseri
xoseriya
xoseriye
xosero
xouaxange
xoveng
xoverdayıs
xovirra
xowo
xoya
xoye
xoyo
xoz
xoza
xozan
xozat
xozati
xozatia
xozatiya
xoze
xozi
xristiyanane
xristiyaniye
xu
xue
xusrew
xususi
xuya
xuye
xuyo
xuzıstani
xuı
xv
xwı
xx
xxx
xyz
xıdude
xıdır
xıncoriye
xınıs
xınısi
xırab
xırabe
xırabi
xırabiya
xırabiyayıs
xırabiye
xırabın
xırabıni
xırabıno
xıristiyan
xıristiyanan
xıristiyanane
xıristiyani
xıristiyaniya
xıristiyaniye
xıristiyano
xırvatıstan
xırvatıstani
xırwatki
xısuse
xısusi
xısusiye
xısusiyete
xızmeta
xızmete
xızır
xızıre
xızıri
y
ya
yaban
yabanan
yabancı
yabani
yadi
yadigar
yado
yadoyi
yag
yah
yahoo
yahs
yahudi
yahudiyan
yahut
yahya
yak
yaka
yakası
yaki
yakup
yakın
yalan
yalancı
yalc
yale
yalnız
yalnızlıg
yalnızlık
yalova
yan
yana
yanbeki
yandex
yane
yang
yangın
yani
yanlıs
yanya
yao
yap
yaprak
yapı
yapım
yapımcı
yaqub
yaqubi
yar
yara
yaralı
yarası
yarbas
yarbekir
yarbekiri
yardım
yardıme
yare
yarg
yari
yarim
yarın
yarıs
yas
yasag
yasak
yasemin
yasemince
yasi
yat
yatag
yate
yati
yavru
yavrum
yavuz
yawma
yay
yaya
yayan
yaye
yayi
yayis
yayla
yayo
yayın
yayıncılık
yayınevi
yayınları
yaz
yazar
yazi
yazı
yazılar
yazıları
yde
ye
year
years
yedi
yeditepe
yeg
yege
yehovay
yeler
yeleri
yellow
yemen
yemeni
yen
yena
yene
yener
yeni
yenibas
yenic
yenice
yeniden
yenidog
yeniko
yenimahalle
yenipazar
yenis
yeno
yenu
yer
yere
yeresk
yeri
yes
yesax
yet
yete
yeter
yeti
yetik
yetmez
yew
yewa
yewbi
yewbina
yewbinan
yewbini
yewbiyaey
yewbiyaeyan
yewbiyaiyan
yewbiyayey
yewbiyayeyan
yewbiyayeyana
yewbiyayeyano
yewbiyayiya
yewbiyayiye
yewbiyayıs
yewca
yewe
yewi
yewin
yewina
yewine
yewiya
yewna
yewo
yewın
yewına
yewıne
yewıno
yezg
yi
yidis
yield
yields
yig
yin
yine
yitiqate
yku
yky
yle
yles
ylu
yni
ynu
yo
yog
yok
yol
yolcu
yolcuları
yolculuk
yoldas
yolları
yolu
yolunda
yom
yon
yone
yor
yorgun
york
yorki
yorum
you
young
your
youtube
yow
yozg
ypg
yreno
yron
ys
yu
yue
yug
yugoslavya
yuh
yukarı
yukarıc
yumurcak
yun
yunan
yunanan
yunane
yunani
yunanki
yunankiyo
yunano
yunanıstan
yunanıstane
yunanıstani
yunanıstaniyo
yunanıstano
yunnan
yunus
yurdum
yurt
yurti
yus
yusuf
yves
yy
yye
yyyy
yı
yıl
yılan
yıldırım
yıldız
yıldızlar
yıldızı
yıllar
yılmaz
yılı
yılın
yın
yına
yıne
yıni
yıno
z
za
zabierzo
zabıte
zaf
zafa
zafamar
zafane
zafe
zafer
zaferi
zafeye
zafi
zafo
zafın
zag
zagon
zagone
zagreb
zahf
zalim
zaman
zamanlar
zamanı
zambiya
zan
zana
zanaye
zanayenı
zanayis
zanayıs
zane
zanena
zanene
zaneno
zaney
zani
zanist
zaniyena
zaniyene
zaniyeno
zano
zanıs
zanıtene
zar
zarathustra
zare
zari
zasyoni
zatay
zay
zaye
zaza
zazaca
zazae
zazaistan
zazaistani
zazaki
zazakiya
zazakiye
zazakiyo
zazalar
zazana
zazao
zazapress
zazay
zazaya
zazayan
zazayana
zazayane
zazayano
zazaye
zazayo
zbas
zbek
zc
zcan
zdemir
zdi
zdiye
zdro
ze
zehf
zehfe
zehirli
zehra
zekat
zekerdis
zeki
zekı
zel
zelal
zelanda
zeldir
zeli
zelyurt
zelzeley
zema
zeman
zemanan
zemane
zemani
zemano
zemi
zemire
zen
zenate
zenciyan
zend
zengi
zengin
zengın
zengıno
zentaine
zer
zera
zeranci
zeranige
zerar
zerd
zerdus
zere
zerey
zereye
zeri
zerinde
zerine
zern
zerne
zernkut
zero
zerre
zerrek
zerreke
zerreki
zerrewes
zerrey
zerreye
zerri
zerria
zerrin
zerriya
zerveti
zerzewat
zes
zesi
zeus
zewac
zewaj
zewbi
zewbina
zewec
zewece
zeweci
zeweciya
zeweciyao
zeweciyaya
zeweciyayo
zey
zeyd
zeyde
zeyneb
zeynel
zeynep
zeytin
zeyıf
zgar
zge
zgo
zgu
zh
zhang
zi
zie
zig
ziggurat
zihniyete
zihniyeto
zik
zike
zil
zilayi
zimbabwe
zimmer
zimming
zin
zinci
zincourt
ziraet
ziraeti
zisyen
ziwan
ziwanan
ziwanane
ziwane
ziwani
ziya
ziyar
ziyare
ziyaret
zkan
zkerdene
zki
zkiyo
zlanda
zledim
zlem
zler
zleri
zlerim
zlu
zmi
zmir
zmiri
zmiriya
zmit
znik
zo
zobi
zodyak
zof
zog
zola
zon
zona
zondrange
zone
zong
zonguldak
zoni
zono
zoo
zor
zorbaziye
zore
zorlu
zoro
zoroastrian
zpınar
ztarhan
ztu
zu
zuan
zuane
zuani
zuano
zuhal
zulu
zulım
zum
zur
zurafa
zuri
zuwane
zwei
zy
zya
zyas
zyayo
zyurt
zyıl
zz
zzet
zı
zıg
zılfi
zım
zıme
zımey
zımeye
zımeyi
zımeyo
zımıstan
zımıstani
zırc
zıwan
zıwanan
zıwanane
zıwanano
zıwande
zıwane
zıwani
zıwanio
zıwano
zıwans
{
|
}
~
¡
¥
§
©
«
¬
­
®
°
±
²
³
´
¶
·
¹
º
»
½
¿
×
ß
æ
÷
ø
đ
ı
ıbat
ıbate
ıc
ıd
ıde
ıdet
ıdete
ıf
ıg
ıhar
ıi
ıir
ıiran
ıirane
ıire
ıiri
ıiro
ık
ıka
ıkan
ıkane
ıke
ıkeno
ıki
ıkl
ıklar
ıkle
ıklı
ıkmazı
ıkneno
ıko
ıku
ıkıne
ıkıtıs
ıl
ıla
ılar
ılas
ıle
ıleyo
ılgın
ıli
ılı
ım
ıma
ımale
ıman
ımane
ıme
ımene
ımey
ımeyan
ımeyane
ımeye
ımeyi
ımi
ımiyeno
ımkerdıs
ımki
ımnayıs
ımo
ımu
ımune
ımıtene
ımıtıs
ın
ına
ınar
ınaraltı
ınas
ınasan
ınase
ınasi
ınasiya
ınasiyane
ınasiyao
ınasiye
ınasiyena
ınasiyene
ınasiyeno
ınasiyo
ınasna
ınasnayıs
ınasne
ınasnene
ınasneno
ınasno
ınaso
ınay
ında
ından
ıne
ıni
ıniya
ıniyao
ıniye
ıniyo
ınka
ınke
ıno
ınu
ını
ınıtıs
ıplak
ıqa
ıqas
ır
ıra
ıre
ıri
ırket
ırkete
ırketi
ırketo
ırnaq
ıro
ırpı
ıs
ıstan
ıstani
ıstanıki
ısı
ıt
ıte
ıti
ıtur
ıturi
ıtı
ıwane
ıy
ıyaka
ıyo
ıyor
ız
ızki
ızıstan
ızıstani
ł
ło
ŋ
œ
œting
ɑ
ɔ
ə
ɛ
ɣ
ɪ
ʏ
ʒ
ʰ
ʲ
ʹ
ʻ
ʼ
ʾ
ʿ
ˁ
ˈ
ˌ
ː
ˤ
˥
̀
́
̂
̃
̄
̆
̇
̈
̉
̊
̋
̌
̓
̔
̛
̣
̥
̦
̧
̨
̩
̮
̯
̰
̱
̲
͂
ͅ
͡
΄
α
β
γ
δ
ε
η
θ
ι
λ
ν
ξ
ο
π
προ
ρ
ς
σ
τ
χ
ω
ϑ
а
б
в
г
д
е
ж
з
и
к
л
м
н
на
о
п
р
с
саи
т
у
ф
х
ц
ч
ш
шабле
шаблон
ъ
э
ю
я
ђ
ј
љ
њ
ћ
џ
ғ
қ
ҳ
ҷ
ա
բ
գ
դ
ե
զ
է
ը
թ
ժ
ի
լ
խ
ծ
կ
կաղապար
հ
ձ
ղ
ճ
մ
յ
ն
շ
ո
չ
պ
ջ
ռ
ս
վ
տ
ր
ց
ւ
փ
ք
օ
ֆ
ְ
ֲ
ִ
ֵ
ֶ
ַ
ָ
ֹ
ּ
ׁ
ׂ
א
ב
ג
ד
ה
ו
ח
ט
י
כ
ל
ם
מ
ן
נ
ס
ע
פ
צ
ר
ש
ת
תבנית
،
ء
ا
اء
اب
ات
اد
ار
استان
اط
اك
ال
الا
الر
الش
الل
الله
الگو
ام
ان
اه
ایران
ب
بن
ة
ت
ث
ج
ح
خ
د
در
ذ
ر
ز
زبان
س
سانچہ
سایت
سورة
ش
ص
ض
ط
ظ
ع
عبد
علي
غ
ـ
ف
ق
قالب
ك
ل
لا
م
محمد
ن
نت
نذ
نز
ه
و
وا
ولایت
ون
ى
ي
يل
يم
ين
يه
ً
ٌ
ٍ
َ
ُ
ِ
ّ
ْ
ٓ
ٔ
ٕ
ٰ
چ
ک
گ
ہ
ی
ۡ
ܐ
ܵ
ނ
ވ
ފ
ތ
ަ
ް
ँ
ं
अ
क
च
ज
ट
ढ
त
द
न
भ
म
र
व
श
ष
स
ह
़
ा
ि
ी
ु
ू
ृ
े
ॉ
्
ঁ
ং
ও
ক
গ
চ
জ
ঞ
ট
ত
দ
ধ
ন
প
ব
ভ
ম
মপ
য
র
ল
শ
ষ
স
়
া
ি
ী
ু
ূ
ে
্
ৎ
ਾ
ં
ઃ
અ
આ
ઇ
ઈ
ઉ
ઊ
ઋ
ઍ
એ
ઐ
ઑ
ઓ
ઔ
ક
ગ
ચ
જ
ઝ
ટ
ઠ
ડ
ઢ
ત
થ
દ
ધ
ન
પ
બ
મ
ય
ર
લ
વ
શ
ષ
સ
ા
િ
ી
ુ
ૂ
ૃ
ૅ
ે
ૈ
ૉ
ો
ૌ
્
૪
ଚ
ଛ
ଞ
ଟ
ମ
ା
େ
୍
ப
ர
வ
ா
ு
்
స
ം
ച
ක
ල
ව
ස
්
ා
ැ
ි
ු
ෙ
ล
ั
ู
แบบ
แม
่
้
་
ཐ
ད
ཕ
མ
ི
ུ
თარგი
틀
ទ
ព
រ
ូ
ំ
័
​
‌
‍
‎
‏
‐
–
—
‘
’
‚
“
”
„
†
•
…
′
″
‹
›
⁄
€
™
→
↔
↷
∇
∈
∑
−
≈
③
④
⑦
☃
ⵉ
⺀
⺄
⺆
⺈
⺊
⺌
⺕
⺝
⺸
⺼
⿰
⿱
⿲
⿳
⿴
⿵
⿶
⿷
⿸
⿹
⿺
⿻
、
。
々
『
』
〢
あ
い
え
か
く
し
す
た
っ
つ
て
と
な
に
の
は
ひ
ほ
ま
み
も
る
を
ん
゙
゚
ァ
ア
イ
ウ
キ
ク
コ
シ
ス
セ
タ
チ
ッ
ト
ニ
ハ
フ
ホ
マ
ミ
ム
ュ
ユ
ョ
ラ
ル
レ
ロ
ン
ー
ㄅ
ㄆ
ㄇ
ㄈ
ㄉ
ㄊ
ㄋ
ㄌ
ㄍ
ㄎ
ㄏ
ㄐ
ㄑ
ㄒ
ㄓ
ㄔ
ㄕ
ㄖ
ㄗ
ㄘ
ㄙ
ㄚ
ㄛ
ㄜ
ㄝ
ㄞ
ㄟ
ㄠ
ㄡ
ㄢ
ㄣ
ㄤ
ㄥ
ㄧ
ㄨ
ㄩ
㇁
㇂
㇄
㇇
㇈
㇉
㇓
㐁
㐄
㐅
㐌
㐫
㐬
㐭
㐮
㐱
㑒
㒵
㒸
㒼
㓁
㓞
㔾
㕛
㕣
㖾
㘝
㚅
㚇
㚔
㚘
㝉
㝡
㝴
㝵
㞋
㞢
㞷
㠩
㠭
㠯
㡀
㡭
㡿
㢲
㢴
㣇
㣺
㥯
㪅
㫄
㫐
㫒
㫺
㬅
㬎
㬥
㬰
㲋
㳄
㷠
㸒
㸚
㸦
㼌
㼲
㽞
㿟
䀠
䂞
䍃
䏍
䒑
䖍
䖒
䖝
䖵
䙴
䚻
䜌
䝿
䡛
䧹
䪞
一
丁
丂
七
丄
丅
丆
万
丈
三
上
下
丌
不
与
丏
丐
丑
专
且
丕
世
丘
丙
业
东
丞
丢
丣
两
严
並
丨
丩
个
丫
丬
中
丮
丰
丱
串
丵
丶
丷
丸
丹
为
主
丽
丿
乀
乂
乃
久
乆
乇
么
义
之
乌
乍
乎
乏
乐
乑
乔
乖
乗
乘
乙
乚
乛
乜
九
乞
也
习
乡
书
乳
乾
亀
亅
了
亇
予
争
事
二
亍
于
亏
亐
云
互
亓
五
井
亘
亚
亜
亞
亟
亠
亡
亢
交
亥
亦
产
亨
亩
享
京
亭
亮
亯
亰
亲
亳
亶
亷
人
亻
亼
亾
仁
今
介
仌
从
仐
仑
仒
仓
仕
他
付
仝
代
令
以
仮
任
企
伊
伏
伐
休
众
会
伯
但
位
何
佘
余
佛
作
你
佥
使
來
侈
侌
侖
侯
侵
便
保
俞
信
修
倉
倍
候
倠
健
備
僉
僕
僮
儿
兀
允
兂
元
兄
充
兆
兇
先
光
兊
克
兌
免
兑
兒
兓
兔
党
兜
兟
入
全
兩
兪
八
公
六
兮
兰
共
关
兵
其
具
典
兹
兼
冀
冂
冃
冄
内
冈
冉
冊
冋
册
再
冎
冏
冐
冒
冓
冖
冗
冘
军
农
冝
冡
冥
冫
冬
冷
几
凡
凢
凵
凶
凷
凸
凹
出
函
凾
刀
刁
刂
刃
刄
刅
分
切
刍
刑
刕
刖
列
刘
则
初
別
利
别
到
制
刺
則
削
剌
前
剡
剽
劉
力
功
加
务
劦
动
助
劫
劳
劵
勃
勇
勉
勒
動
務
勝
勞
勤
勹
勺
勻
勾
勿
匀
匂
包
匆
匈
匊
匋
匍
匕
化
北
匚
匝
匡
匪
匱
匸
匹
区
医
匽
匿
區
十
卂
千
卄
卅
卆
升
午
卉
半
卌
华
卑
卒
卓
单
卖
南
博
卜
卝
卞
占
卡
卢
卣
卤
卦
卩
卪
卬
卯
印
危
即
却
卵
卷
卸
卻
厂
厃
厄
厅
历
厈
厉
厌
厓
厘
厚
原
厤
厥
厨
厭
厲
厶
厷
厸
去
厼
厽
叀
参
參
叅
又
叉
及
友
双
反
叐
发
叒
叔
叕
取
受
叚
叜
叟
口
古
句
另
叩
只
召
可
台
叱
史
右
叵
号
司
叹
吂
各
吅
合
吉
吊
吋
同
名
后
吏
向
吕
君
吝
吞
否
含
启
吳
吴
吹
吾
呂
呆
呈
告
员
呙
周
命
咅
和
咎
咠
咢
咨
咸
咼
哀
品
哉
員
哥
哲
唐
商
啇
問
啚
啬
啻
善
喜
喬
單
喿
嗇
嘉
噩
嚴
囊
囗
囘
囙
囚
四
回
囟
因
团
囧
囬
困
囱
囷
固
国
圂
圅
國
圍
圓
土
圡
圣
圥
在
圭
地
圶
圼
址
坐
坒
坚
坦
坴
垂
垔
垚
埀
埋
城
埶
執
基
堂
堅
堆
堇
堯
塞
墨
壘
士
壬
壮
壯
声
壳
壴
壹
壺
壽
夂
处
夅
夆
备
夊
夋
夌
复
夏
夒
夕
外
夗
夘
多
夜
夢
大
夨
天
太
夫
夬
夭
央
失
夲
头
夷
夸
夹
夻
夾
奂
奄
奇
奈
奉
奎
奏
奐
契
奓
奔
奚
奞
奠
奢
奥
奭
女
奴
奻
好
如
妄
妙
妟
妥
妻
妾
姑
委
姜
威
娄
娱
婁
婴
嬰
嬴
子
孑
孔
孕
孖
字
存
孚
孛
孝
孟
季
孤
学
孫
孱
學
宀
宁
宂
它
宅
宇
守
安
宋
完
宏
宓
宗
官
定
宛
宜
宝
客
宣
室
宮
宰
害
家
容
宾
宿
寄
寅
密
富
寒
察
寧
審
寫
寬
寮
寸
对
寺
寻
寽
対
寿
封
尃
射
将
將
專
尉
尊
尋
尌
對
小
少
尒
尓
尔
尖
尗
尚
尞
尢
尣
尤
尧
尨
尭
就
尸
尹
尺
尻
尼
尽
尾
尿
局
居
屈
屋
屎
屏
屑
展
屖
屚
属
屠
屡
屬
屮
屯
屰
山
屵
屾
岁
岂
岑
岡
岩
岳
岸
峯
島
崇
崑
崔
崖
崙
崩
嵬
嶲
巂
巛
川
州
巟
巠
巢
巤
工
左
巧
巨
巩
巫
差
己
已
巳
巴
巷
巸
巽
巾
巿
帀
市
布
希
帚
帛
帝
带
師
席
帶
常
干
平
年
幵
并
幷
幸
幺
幻
幼
幽
幾
广
広
庄
床
底
店
庚
府
度
庫
庭
庶
康
庸
廉
廌
廛
廣
廩
廴
延
廷
建
廾
廿
开
弁
弃
弄
弇
弋
式
弓
弔
引
弗
弘
弜
弟
弥
弦
弱
張
強
强
彊
彌
彎
彐
彑
当
彔
录
彖
彗
彡
形
彥
彦
彧
彭
彳
役
彼
往
待
律
徒
得
徙
從
復
微
徵
心
忄
必
忌
忍
志
忝
忠
忩
快
念
忽
忿
思
怠
急
怱
恆
恒
恩
恭
息
悉
患
悤
悲
悶
惠
惡
惢
愁
愈
意
愛
感
慈
慧
慮
憂
憲
應
戀
戈
戉
戊
戋
戌
戍
戎
戏
成
我
戒
戔
或
戚
戠
戢
截
戰
戲
戶
户
戹
戼
戾
房
所
扁
扇
手
扌
才
打
托
执
承
折
拉
拖
招
拜
拿
掌
推
提
摩
支
攴
攵
收
攸
改
放
政
敄
故
敏
敕
敖
敗
教
敝
敞
敢
散
敦
敫
敬
数
敷
數
斂
文
斉
斊
斗
斤
斥
斩
斬
斯
新
方
於
施
斿
旁
旋
族
无
旡
既
旣
日
旦
旧
旨
早
旬
旱
旲
时
旾
昆
昇
昌
昍
明
昏
易
昔
昗
昜
星
春
昬
是
昱
昴
昷
時
晃
晋
晏
普
景
晶
智
暑
暴
曇
曩
曰
曲
曳
更
曷
書
曹
曼
曾
替
最
朁
會
月
有
朋
服
朔
朕
朗
望
朝
木
朩
未
末
本
札
朮
术
朱
朵
朶
机
朿
杀
李
杏
杜
束
条
来
杰
東
杲
杳
松
板
构
析
林
枚
果
枝
枲
枼
某
柔
查
柬
柰
柴
标
栗
株
格
桀
桑
桼
梁
條
梟
梨
棘
棠
棥
森
楚
業
楽
榮
樂
樊
模
欠
次
欣
欮
欲
欶
欽
款
歆
歇
歌
歛
止
正
此
步
武
歨
歪
歮
歯
歰
歲
歴
歷
歸
歹
歺
死
殳
段
殷
殸
殹
殺
殻
殿
毋
毌
母
每
毒
比
毕
毚
毛
毳
氏
氐
民
气
氣
水
氵
氶
氷
永
氺
氾
求
汉
汝
汞
江
汽
沃
沓
沙
沝
河
泉
法
波
泣
泥
泰
洛
洪
活
派
流
浦
浪
浮
海
淡
淮
清
渚
渠
港
游
湯
満
滿
漢
漸
澳
灣
火
灬
灭
灰
灵
灷
炅
炎
炏
炗
炙
炭
点
為
烈
烏
烝
焉
無
焦
焱
然
煞
熊
熏
燕
營
燮
爪
爫
爭
爯
爰
爱
爲
爵
父
爻
爽
爾
爿
片
牙
牚
牛
牜
牟
牢
牧
物
牪
牽
犀
犬
犭
犮
狂
狄
狊
独
狺
猋
猒
猪
献
獻
玄
率
玉
王
玟
玨
珎
珠
班
現
理
琴
瑟
瑩
璠
瓜
瓦
甘
甚
生
産
用
甫
甬
田
由
甲
申
电
甶
男
甸
甹
画
甾
畀
界
畏
畐
留
畜
畟
畢
畧
畨
番
畫
異
畱
當
畺
畾
疊
疋
疌
疑
疒
疾
癶
癸
癹
登
發
白
百
皀
皃
的
皆
皇
皋
皐
皕
皮
皷
皿
盃
盆
盇
盈
益
盍
盎
监
盒
盖
盛
盡
監
盤
盧
目
直
相
盾
省
眇
眉
看
眔
眞
真
眷
眼
眾
着
睘
睪
睿
瞏
瞢
瞿
矍
矛
矞
矢
矣
知
矦
短
石
研
破
碎
磊
磨
示
礻
礼
社
祟
票
祭
禀
禁
禸
禹
禺
离
禽
禾
禿
秀
秃
秉
秋
科
秝
秦
移
稟
稿
穀
穌
穴
究
穹
空
穿
突
窄
窒
立
竒
站
竜
竝
竟
章
童
竹
笑
笠
筆
等
答
箕
算
箴
節
篤
篭
籍
米
粉
粛
粟
粤
粦
粲
糞
糸
糹
系
約
紅
納
素
索
紫
累
細
絜
絫
絲
維
綿
縄
縣
繇
纍
纟
线
组
织
络
缶
网
罒
罔
罕
罗
罙
罡
罢
罪
署
罷
羅
羊
羌
羍
美
羔
羕
羗
羞
羡
羣
群
義
羲
羸
羽
翁
翏
習
翕
翟
翠
翼
老
耂
考
者
耆
而
耎
耑
耒
耳
耴
耶
耷
聂
聊
联
聖
聘
聚
聶
聿
肀
肃
肅
肉
肖
肙
肥
肩
肯
育
肴
胃
背
胡
胥
能
脊
脩
膚
臣
臤
臧
自
臬
臭
臯
臱
至
致
臺
臼
臽
臾
臿
舀
舂
舄
與
興
舉
舌
舍
舛
舜
舞
舟
般
艮
良
色
艸
艹
艾
芒
芔
芬
芮
花
芳
芺
芻
苔
苗
苟
若
苦
英
茶
茸
荅
草
荒
荣
荼
莆
莧
莫
莽
菆
菊
菐
華
萬
落
葉
著
葛
董
葵
蒙
蒦
蒼
蓋
蓬
蓺
蔑
蔡
蕉
蕭
薄
薛
薦
薰
藍
藏
藥
蘭
虍
虎
虐
虒
虔
處
虖
虗
虘
虚
虛
虜
虞
虫
虽
蚤
蚩
蜀
蜜
蟲
蠡
血
行
衍
衛
衣
衤
表
衮
衰
袁
袞
褭
褱
襄
襾
西
覀
要
覃
見
規
覓
覧
親
覽
见
角
解
言
訁
訇
計
訊
記
詹
語
誩
諸
讠
语
诺
读
谷
豆
豈
豊
豐
豕
豖
豙
象
豦
豩
豪
豸
貇
貝
貞
貟
負
貢
貧
販
貪
貫
責
貳
貴
買
費
貽
賁
資
賈
賏
賓
賔
賛
賞
賢
賣
質
賴
贊
贝
贡
责
购
贯
贲
贵
赖
赞
赤
赦
走
越
足
路
蹇
身
躬
車
軍
軎
軟
輦
车
辛
辜
辟
辥
辰
辱
農
辵
辶
边
达
过
近
连
迷
追
退
送
逆
逐
通
速
造
逢
連
逮
進
遀
遂
過
道
達
遠
遣
適
遷
遺
邊
邑
邕
那
邦
邪
郎
部
郭
都
鄉
酉
酋
配
酒
酓
釆
采
里
重
野
量
金
釒
錢
钅
锡
長
镸
长
門
閃
閉
開
閏
閑
閒
間
閔
閵
閻
闌
门
间
闷
闻
阑
阜
阝
阿
降
陳
隆
隊
隋
隡
隨
隱
隶
隹
隺
隻
隼
隽
难
雀
雁
集
雈
雋
雍
雐
雔
雙
雚
雜
雝
離
難
雨
雩
雪
雲
零
雷
電
需
霍
霜
霝
霞
霸
靈
靑
青
非
靡
面
靣
革
韋
韦
韭
韯
韱
音
頁
頃
項
須
頗
頡
頻
顛
類
页
風
风
飛
飞
食
飠
養
餐
饣
首
香
馬
馮
駦
马
骨
高
髟
鬥
鬯
鬲
鬼
魏
魚
魯
鮮
鱼
鲁
鳥
鳳
鸟
鹵
鹿
麃
麗
麥
麦
麻
黃
黄
黍
黎
黑
黒
黨
黹
黽
黾
鼎
鼓
鼠
鼻
齊
齋
齐
齒
齿
龍
龙
龜
龟
龠
龰
龱
龴
龵
龶
龷
龸
龹
者
艹
︡
﹔
ﺎ
ﺏ
ﺑ
ﺘ
ﺭ
ﺷ
ﻋ
ﻌ
ﻘ
ﻟ
ﻤ
ﻨ
ﻲ
ﻳ
﻿
（
）
，
－
？
￼
𐭥
𒈹
𠀁
𠀃
𠀆
𠀉
𠀎
𠀐
𠁁
𠁣
𠂆
𠂇
𠂈
𠂉
𠂊
𠂋
𠂎
𠂒
𠂔
𠂛
𠂡
𠂢
𠂤
𠂬
𠂭
𠂹
𠃊
𠃋
𠃌
𠃍
𠃎
𠃑
𠃓
𠃔
𠃜
𠄌
𠄎
𠄠
𠄢
𠆢
𠆥
𠇍
𠈌
𠌵
𠓜
𠔉
𠔥
𠔼
𠔽
𠔿
𠕀
𠕁
𠕋
𠘧
𠘨
𠙻
𠙼
𠚏
𠚒
𠚤
𠚪
𠣏
𠤎
𠤕
𠥓
𠦄
𠦑
𠦝
𠧒
𠧗
𠧪
𠩺
𠪚
𠫓
𠫔
𠫤
𠬛
𠬝
𠬞
𠬢
𠬤
𠬶
𠮛
𠮦
𠮷
𠯑
𠱠
𠳮
𠷎
𡈼
𡉀
𡉵
𡌥
𡍮
𡏳
𡕒
𡕩
𡕰
𡖅
𡗗
𡗜
𡘆
𡘤
𡧱
𡨄
𡩧
𡬠
𡭽
𡰣
𡰥
𡰪
𡰯
𡰱
𡷈
𡸁
𡿨
𡿩
𡿪
𡿺
𢀖
𢀛
𢀩
𢁙
𢆉
𢆰
𢆶
𢇁
𢇇
𢉖
𢌬
𢌿
𢏚
𢑑
𢑚
𢖻
𢙣
𢛳
𢦏
𢦒
𢧵
𢼄
𢾕
𣁋
𣄼
𣅀
𣅽
𣍘
𣎳
𣎵
𣏋
𣏼
𣗥
𣥂
𣥖
𣦵
𣦼
𣧄
𣪊
𣪠
𣬉
𣳾
𣶒
𤇾
𤊽
𤐫
𤓰
𤔔
𤕨
𤣩
𤰇
𤰔
𤰞
𤴓
𤴔
𤽄
𥁑
𥁕
𥃦
𥃩
𥃭
𥇡
𥑟
𥘅
𥘈
𥝢
𥫗
𥱡
𦈢
𦉪
𦉬
𦉼
𦍌
𦍒
𦎧
𦐇
𦓔
𦔮
𦘒
𦙃
𦚏
𦣝
𦣞
𦣻
𦥑
𦥔
𦥯
𦨉
𦭝
𦰩
𧆞
𧈧
𧘇
𧰨
𧴪
𧴮
𧵩
𧾷
𨸏
𨾴
𩙿
𩠐
𩫏
𩵋
𪉷
𪜀
𪟽
𪠲
𪩲
𫇦
𫔭
𫜸
𫝀
𫠣
𫠩
𫢉
𫥞
𫩏
𫩠
𫪡
𫲽
𫶧
𬀷
𬐘
𬗌
𬙙
𬛸
𬜯
𬟩
𬯁
𬴘
𬺻
𬼉
𬼖
𭀰
𭁈
𭁨
𭅰
𭑈
𭕄
𭗼
𭤨
𭥫
𭻾
𮅕
𮊿
𮍌
𮍏
𮓗
𮥼
𮧮
廾
𰀁
𰀄
𰀈
𰀉
𰀕
𰀠
𰀡
𰀢
𰀪
𰁜
𰃮
𰆊
𰆘
𰋙
𰕎
𰢴
𰧭
𰯲
000--
01--
010--
02--
03--
04--
05--
06--
07--
08--
09--
28--
283--
29--
33--
34--
35--
36--
37--
38--
39--
40--
41--
43--
44--
45--
46--
47--
48--
49--
50--
51--
52--
53--
54--
55--
56--
57--
58--
59--
60--
61--
63--
64--
65--
66--
67--
68--
69--
70--
71--
72--
73--
74--
75--
76--
77--
78--
79--
80--
81--
82--
84--
85--
87--
88--
89--
90--
92--
978--
98--
99--
a--
aa--
ab--
aban--
abdul--
abe--
abi--
abing--
abo--
above--
abu--
abxa--
abys--
abır--
abıri--
ac--
aca--
achi--
act--
acı--
ad--
ada--
ade--
adi--
ado--
advan--
adı--
ae--
aest--
af--
afer--
aferi--
affed--
ag--
age--
agnos--
agu--
ah--
ahi--
ahıs--
ai--
ail--
air--
ak--
aki--
aks--
akti--
al--
ala--
ald--
ale--
algorit--
ali--
all--
alm--
alp--
als--
alt--
altın--
alı--
am--
ama--
ame--
ami--
amo--
amu--
amy--
an--
ana--
and--
ane--
ang--
ani--
ann--
anne--
annou--
ano--
ans--
ant--
anti--
antro--
any--
anı--
ao--
ap--
apa--
ape--
aplikas--
apo--
appe--
aq--
aqua--
ar--
ara--
aran--
arc--
archaeo--
ard--
are--
areyı--
arg--
argen--
ari--
aristo--
arjan--
ark--
arn--
arna--
ars--
art--
arı--
as--
asa--
ase--
ash--
asi--
ask--
asp--
ass--
assig--
asso--
astr--
at--
ata--
ate--
atmos--
atten--
atı--
au--
aube--
audou--
auf--
aus--
auto--
aux--
av--
ava--
avcı--
ave--
avent--
avo--
avran--
aw--
awa--
awan--
awe--
awı--
ax--
ay--
aya--
ayaklan--
aydın--
ayrı--
az--
aze--
azer--
azi--
b--
ba--
baba--
back--
bad--
bah--
bahr--
bai--
bak--
bakh--
bal--
bamb--
ban--
bar--
bare--
bas--
basq--
batt--
baud--
bax--
bay--
bayrak--
baz--
bazır--
bc--
be--
beau--
bec--
bed--
beg--
beh--
bei--
bek--
bel--
belc--
beli--
ben--
beni--
ber--
bera--
berce--
berg--
bern--
bert--
berz--
bes--
best--
bet--
beu--
bew--
bex--
bey--
beynel--
bez--
beza--
bhu--
bi--
bia--
bib--
bibliog--
bic--
bie--
big--
bih--
bilb--
bild--
bin--
bio--
bir--
bis--
bisch--
bit--
biyo--
biz--
bla--
ble--
bli--
blo--
blon--
bloom--
bo--
bog--
boi--
bois--
bol--
bolva--
bom--
bon--
boo--
bor--
bos--
bot--
bou--
bouc--
boul--
bour--
bous--
bout--
bow--
boy--
boz--
br--
bra--
brad--
brandy--
bre--
bren--
breu--
bricque--
brig--
bro--
brock--
bron--
brou--
bru--
brun--
bt--
bu--
buch--
buff--
bug--
bul--
bulg--
bun--
bur--
burh--
burn--
bus--
but--
buwey--
by--
bı--
bıc--
bık--
bıl--
bın--
bırn--
bıs--
bısıl--
bız--
c--
ca--
cae--
cai--
cal--
calcu--
cam--
camp--
can--
cap--
car--
casa--
casc--
cass--
cast--
castell--
cat--
caud--
cave--
cawi--
cay--
caz--
cd--
ce--
cek--
cel--
cele--
cem--
cent--
cer--
cera--
cerr--
cevr--
cew--
cey--
ch--
cha--
chal--
champ--
chan--
char--
chart--
chau--
chauc--
chaud--
chauff--
chauffec--
che--
chi--
chlo--
cho--
chom--
chop--
chry--
chu--
chœ--
ci--
cia--
cilv--
cin--
citi--
ciz--
cl--
clari--
clau--
cle--
co--
cocc--
cog--
col--
colla--
com--
compara--
compl--
con--
cons--
consti--
cop--
cor--
correspo--
cos--
cot--
cou--
coub--
coud--
coul--
coulom--
coup--
cour--
cout--
cran--
cre--
cri--
cris--
cro--
croi--
cros--
crow--
cru--
crus--
cry--
crypt--
cu--
cum--
cup--
curio--
cy--
cycl--
cyr--
cz--
cı--
cıg--
cıt--
d--
da--
dag--
dai--
dak--
dal--
dam--
dan--
dani--
dans--
dar--
dare--
dat--
day--
dd--
de--
dec--
ded--
def--
deg--
deh--
dei--
dek--
deker--
del--
deli--
dem--
demo--
den--
dene--
denk--
denom--
deqi--
der--
dere--
deri--
des--
dest--
det--
determ--
dev--
dew--
dewle--
dey--
dez--
dhu--
di--
dia--
dici--
die--
dieffen--
diff--
dig--
diji--
dik--
dil--
dim--
din--
dio--
dipl--
diplom--
dir--
dis--
disam--
disip--
div--
diya--
diz--
dj--
do--
doc--
dog--
dokumen--
dol--
dom--
domi--
don--
dor--
dos--
dou--
doul--
dow--
down--
dox--
dr--
dre--
dro--
ds--
du--
dub--
duc--
dun--
dur--
dus--
duy--
dx--
dy--
dz--
dzy--
dı--
dıj--
dır--
dıs--
dız--
e--
ea--
ebb--
ebd--
ebdul--
ebe--
ec--
ece--
ed--
ede--
edi--
ee--
ef--
efe--
eg--
eh--
ehit--
ehr--
ei--
ein--
eisen--
ek--
eki--
ekipm--
eko--
eks--
eku--
el--
ela--
elasti--
ele--
elect--
elek--
elektr--
eleph--
elf--
eli--
els--
em--
embar--
embir--
eme--
emeg--
ems--
en--
end--
endus--
ene--
eng--
enstrum--
ep--
epi--
eq--
equ--
er--
era--
erb--
erc--
erd--
ere--
erexi--
erg--
eri--
ero--
erx--
erzi--
es--
esc--
esch--
escou--
esen--
eski--
est--
esta--
et--
ethno--
eti--
etno--
eu--
euph--
eur--
ev--
eva--
evek--
ever--
evi--
evlen--
ew--
ewro--
ewt--
ex--
exec--
extre--
ey--
eyh--
eyn--
eyu--
ez--
ezi--
f--
fa--
fabr--
fak--
fam--
fan--
far--
fas--
fat--
fe--
fed--
feld--
fella--
fen--
fenom--
fer--
fetel--
feu--
fex--
fey--
ff--
fi--
figh--
fil--
fili--
film--
fin--
fir--
firaw--
fire--
fis--
fit--
fitz--
fizy--
fla--
fle--
flo--
fly--
fo--
fol--
fonolo--
font--
for--
fou--
fr--
fre--
fred--
free--
frie--
fried--
fro--
froid--
fru--
fry--
ft--
fu--
full--
fun--
funda--
fıkr--
fıkır--
fıl--
fıli--
fır--
fıs--
g--
ga--
gala--
gam--
gan--
gar--
gardi--
garr--
gavr--
gax--
gay--
gaz--
gazi--
ge--
geb--
geis--
gel--
gen--
gentl--
geo--
ger--
germ--
ges--
get--
gey--
gi--
gia--
gil--
gir--
gire--
giri--
gis--
git--
giyo--
gl--
glad--
gn--
go--
god--
gol--
gold--
gon--
good--
gor--
gos--
got--
gou--
gour--
gover--
goy--
gr--
gra--
gramm--
gran--
grand--
gre--
green--
gri--
grign--
gros--
grund--
gu--
gua--
gue--
guern--
gul--
gun--
gur--
gure--
gy--
gı--
gır--
gıre--
gırgı--
gırwe--
h--
ha--
habit--
hac--
hacı--
had--
hak--
hal--
halusi--
ham--
han--
hand--
hanım--
hapl--
har--
hard--
hari--
has--
hat--
hau--
hav--
hava--
hay--
haz--
hazır--
he--
heb--
hec--
hed--
hel--
hell--
hem--
hen--
henri--
hep--
her--
herb--
hercu--
here--
heri--
hes--
hesebi--
het--
hete--
hew--
hewa--
hex--
hey--
hez--
hi--
hic--
high--
him--
hin--
hip--
hipot--
his--
hit--
hiz--
hl--
ho--
hof--
hol--
home--
homo--
hon--
hop--
hor--
horr--
hos--
hot--
hou--
hr--
hu--
huis--
hukum--
hukım--
hum--
hun--
huner--
hur--
hus--
hy--
hyper--
hın--
hır--
hıs--
hız--
i--
ia--
ic--
ich--
id--
idare--
ide--
if--
ifade--
ig--
ih--
ii--
iir--
ik--
iki--
il--
ila--
ile--
ilim--
ill--
illus--
ilm--
im--
ima--
impara--
impl--
implement--
in--
ina--
inasn--
inc--
incor--
ine--
ing--
ingol--
ini--
ins--
instr--
int--
intel--
inter--
inu--
invo--
inı--
io--
ip--
iq--
iqti--
ir--
ire--
irtıb--
is--
iseng--
isi--
iso--
ist--
istas--
istıs--
it--
ita--
iv--
ix--
iy--
iz--
j--
ja--
jab--
jan--
jar--
jay--
je--
jen--
jeneras--
jew--
ji--
jim--
jo--
jon--
ju--
jud--
jump--
jun--
juven--
jw--
k--
ka--
kab--
kaf--
kah--
kai--
kak--
kal--
kale--
kam--
kan--
kanat--
kap--
kar--
kara--
karyo--
kas--
kash--
kat--
kata--
kav--
kavak--
kax--
kay--
ke--
kek--
kel--
kelv--
kelı--
kem--
kemi--
ken--
ker--
keri--
kes--
kew--
key--
keye--
kh--
khach--
khal--
khe--
khur--
ki--
kid--
kierkega--
kil--
kilo--
kim--
kin--
kir--
kis--
kla--
kli--
klo--
km--
kna--
ko--
koca--
kod--
koh--
kok--
kol--
kole--
koloni--
kom--
komi--
kompl--
kon--
konf--
koo--
kopya--
kor--
kos--
kot--
kov--
kow--
koy--
kras--
kre--
kri--
kro--
kry--
ks--
ku--
kuc--
kuh--
kul--
kum--
kun--
kur--
kus--
kut--
kw--
ky--
kı--
kıl--
kın--
kır--
kıs--
kıv--
kızıl--
l--
la--
lac--
lag--
lah--
lai--
lal--
lam--
lan--
land--
lar--
lari--
las--
last--
lat--
lau--
law--
lay--
lb--
lc--
ld--
le--
lec--
led--
leh--
lei--
lej--
lem--
len--
leo--
ler--
les--
let--
lete--
leuc--
lev--
lew--
lexi--
ley--
li--
lia--
lichten--
lie--
lig--
light--
lim--
limou--
lin--
line--
lis--
liv--
lk--
lke--
ll--
lla--
lli--
lm--
lme--
ln--
lo--
lock--
log--
lomb--
lon--
long--
loq--
los--
lot--
lou--
love--
lp--
ls--
lt--
lu--
lub--
luc--
lud--
lum--
lup--
lus--
lv--
ly--
lı--
m--
ma--
mac--
mad--
madagas--
madal--
maf--
mag--
mah--
mai--
main--
maj--
mak--
mal--
mala--
mali--
mam--
man--
mani--
mans--
map--
mar--
mara--
marga--
mari--
mart--
mas--
masum--
mat--
mater--
maup--
mauri--
max--
may--
maz--
mb--
mc--
mcke--
md--
me--
mea--
mec--
med--
medi--
meg--
meh--
mehr--
mei--
meill--
mek--
mel--
mele--
mem--
men--
meq--
mer--
mercu--
mes--
mesopot--
mesul--
met--
meta--
mev--
mew--
mewle--
mex--
mexi--
mexsuld--
mey--
mez--
meħ--
mi--
mia--
mic--
micros--
mid--
mie--
mihas--
mij--
mik--
mikroe--
mil--
mill--
mim--
min--
mir--
mis--
mit--
mittel--
mix--
mk--
ml--
mm--
mo--
moc--
mog--
moh--
moi--
moj--
mol--
mon--
monas--
monotei--
mont--
monte--
mor--
mos--
mot--
mou--
moz--
mper--
mr--
ms--
mu--
mualu--
muam--
muerc--
muh--
muhte--
muls--
multi--
mumk--
mun--
muqa--
mur--
mus--
must--
mutl--
my--
mı--
mıham--
mıqe--
mıs--
mıslı--
n--
na--
nag--
nah--
nai--
nal--
nam--
namaz--
name--
nan--
nar--
nas--
nat--
nav--
navigasy--
naw--
naz--
nc--
nce--
nd--
ndi--
ne--
nec--
ned--
nef--
nei--
nej--
nel--
nen--
neo--
neoli--
neq--
ner--
nes--
net--
netf--
neu--
neuf--
new--
newe--
ney--
nez--
ng--
nh--
ni--
nia--
nic--
nick--
nie--
nig--
nih--
nik--
nil--
nim--
nine--
nis--
niwer--
nj--
nm--
no--
noct--
nok--
nom--
non--
nonze--
nor--
nord--
nos--
not--
note--
nou--
now--
nox--
ns--
nsti--
nt--
nter--
nu--
nuq--
nur--
nus--
nut--
nv--
ny--
nya--
nyup--
nz--
nı--
nımn--
nımı--
nın--
nıs--
o--
oak--
ob--
obc--
ober--
obsc--
obt--
obvi--
occ--
oct--
od--
odys--
oe--
of--
off--
offen--
og--
oh--
oi--
ois--
ok--
okyan--
ol--
ola--
old--
oli--
olimp--
olive--
oluk--
oly--
om--
on--
oo--
op--
optim--
or--
ora--
ordi--
org--
organi--
ori--
oro--
orta--
orto--
oryan--
os--
ot--
oto--
otobiyog--
otok--
otom--
otori--
ou--
oub--
our--
out--
ov--
ova--
over--
ow--
ox--
oxy--
oy--
oz--
p--
pa--
pac--
pad--
pag--
pai--
pak--
pal--
paleont--
pan--
pansi--
panto--
papir--
papu--
par--
para--
pars--
pas--
pasa--
pat--
pau--
paw--
pay--
paz--
pe--
pehl--
pek--
pel--
pen--
per--
peri--
pers--
pes--
pet--
pew--
pey--
peyg--
peymı--
ph--
phe--
pi--
pia--
picc--
pie--
pig--
pik--
pil--
pimpine--
pin--
pir--
pis--
piya--
pl--
pla--
plan--
play--
plea--
ples--
plot--
plu--
po--
pod--
pol--
poli--
poly--
pomp--
pont--
pop--
por--
pornog--
port--
pos--
post--
poul--
pov--
pozi--
pozisy--
pr--
pra--
pre--
pro--
produ--
prohi--
pru--
ps--
pseu--
psi--
psiko--
psy--
pt--
pu--
pudibu--
punc--
pur--
put--
py--
pır--
pıray--
pıro--
q--
qa--
qab--
qadi--
qaf--
qah--
qal--
qapt--
qara--
qas--
qat--
qaw--
qay--
qaz--
qe--
qebul--
qede--
qedey--
qef--
qehr--
qere--
qes--
qew--
qey--
qeyd--
qi--
qiy--
qo--
qu--
que--
qui--
quint--
qul--
qum--
qur--
qı--
qıbr--
qılanc--
qır--
qıs--
qısey--
qıy--
qız--
qızıl--
r--
ra--
rac--
rad--
radi--
raf--
rag--
rah--
rahi--
rai--
raj--
ram--
rame--
ran--
rap--
ras--
rasyon--
rat--
rau--
raw--
ray--
rc--
rd--
re--
rec--
recur--
red--
reduc--
ree--
ref--
refleks--
reg--
reh--
rei--
rek--
rekom--
rel--
rem--
ren--
res--
resi--
ret--
rev--
rew--
rex--
rey--
rez--
rh--
rhapso--
rho--
rhy--
ri--
ria--
rib--
ric--
rid--
rie--
rig--
rigo--
rim--
rin--
ris--
ritu--
rk--
rn--
ro--
rob--
roc--
roca--
roche--
rock--
roe--
rohr--
roj--
roja--
rok--
ron--
roque--
ros--
rose--
rosen--
ross--
rot--
roth--
rou--
roue--
rous--
row--
roy--
rr--
rs--
rt--
rtl--
ru--
rud--
ruh--
rum--
rus--
rwe--
rwey--
ry--
rz--
rı--
rıc--
rıj--
rıs--
rız--
s--
sa--
sabu--
sac--
sag--
sah--
sai--
sak--
sal--
sala--
sald--
salo--
salv--
sam--
san--
sand--
sap--
sar--
saru--
sarı--
sas--
saul--
saus--
sav--
saw--
sax--
say--
saz--
sb--
sc--
scale--
scar--
sch--
sche--
schl--
scho--
schr--
schu--
schœ--
scud--
scy--
sd--
se--
sea--
sec--
sed--
seda--
see--
seg--
seh--
sei--
sek--
sekul--
sel--
selew--
sem--
seme--
semi--
sen--
sent--
sep--
ser--
sere--
serekwezi--
serr--
sert--
ses--
set--
sev--
sevek--
sew--
sewi--
sex--
sey--
seyd--
seyr--
sf--
sh--
sha--
shah--
she--
shi--
sho--
show--
shu--
si--
sidd--
sie--
sihir--
sihır--
sik--
sil--
sim--
sin--
sir--
sis--
sit--
six--
siyon--
siz--
sk--
ska--
sl--
sla--
slam--
sm--
sn--
so--
sog--
sol--
some--
somm--
son--
sor--
sos--
sott--
sou--
soultz--
soup--
sour--
sow--
soy--
sp--
spa--
spea--
spec--
spel--
spie--
spon--
sq--
squa--
sr--
ss--
st--
sta--
ste--
ster--
sti--
sto--
strat--
stravin--
stu--
sty--
su--
sub--
suc--
sud--
suff--
summ--
sun--
super--
supp--
sur--
sus--
sv--
sw--
swe--
sy--
sylv--
symp--
sz--
sı--
sıc--
sıd--
sıf--
sıfte--
sık--
sıl--
sım--
sın--
sır--
sıtar--
sıwend--
sıy--
t--
ta--
tab--
taber--
tac--
tag--
tah--
tai--
tak--
tal--
tala--
tam--
tan--
taq--
tar--
tas--
tat--
tatar--
tau--
taxo--
tay--
tc--
td--
te--
tea--
teau--
teber--
tec--
ted--
tedqi--
tef--
teh--
tehl--
tehqi--
tek--
tel--
tele--
tellan--
temp--
ten--
teo--
teq--
ter--
teref--
terminolo--
terri--
ters--
tes--
tet--
tew--
tex--
text--
tey--
tez--
tf--
th--
tha--
the--
thesp--
thim--
tho--
thro--
thu--
ti--
tie--
tif--
til--
tim--
time--
tin--
tir--
tl--
to--
toc--
toke--
tol--
toler--
tom--
ton--
top--
tor--
tos--
tot--
tou--
tous--
tow--
tox--
toxo--
tr--
tra--
trak--
trans--
tre--
tri--
tropi--
trou--
tru--
ts--
tt--
tu--
tug--
tum--
tun--
tur--
turk--
tut--
tuz--
tv--
twe--
ty--
tz--
tı--
tıfın--
tık--
tır--
tırk--
tıx--
u--
ua--
ub--
ubı--
uc--
ud--
ue--
ug--
uk--
ul--
ultra--
ulu--
um--
un--
una--
under--
uni--
unter--
unu--
up--
ur--
ura--
uru--
us--
ut--
utili--
uxu--
uy--
uz--
uzun--
v--
va--
vac--
val--
van--
var--
vas--
vasko--
vauc--
vaud--
vay--
vaz--
ve--
vec--
vel--
veley--
ven--
veng--
ver--
vera--
ves--
vete--
vey--
veyv--
vezi--
vi--
via--
vic--
view--
vil--
vila--
vill--
villa--
ville--
vin--
vini--
vir--
vis--
vita--
vitt--
viyar--
vla--
vo--
vol--
von--
vor--
vou--
voul--
vr--
vre--
vu--
vur--
vuri--
vıc--
vıl--
vıla--
vın--
vıni--
vır--
vıra--
vıre--
vıri--
vırs--
w--
wa--
wahr--
wake--
wald--
wan--
wani--
war--
was--
way--
we--
web--
weis--
weli--
wende--
wer--
were--
weri--
wes--
west--
westmin--
wet--
wex--
wext--
wezir--
whe--
wi--
wie--
wiki--
wil--
wilay--
wilk--
win--
wis--
wissensc--
wit--
witt--
wo--
word--
wu--
wy--
wı--
x--
xa--
xaf--
xal--
xamb--
xan--
xap--
xapey--
xapt--
xas--
xe--
xebat--
xebet--
xebit--
xel--
xemb--
xemıln--
xer--
xew--
xey--
xez--
xeze--
xi--
xo--
xor--
xora--
xris--
xrıstiya--
xu--
xv--
xx--
xın--
xır--
xıra--
xırwatıs--
xıs--
xız--
xızmet--
y--
ya--
yak--
yaka--
yan--
yap--
yar--
yare--
yas--
yaset--
yat--
yayım--
yaz--
ye--
yehu--
yeni--
yer--
yes--
yet--
yew--
yezı--
yi--
yir--
yle--
yo--
yog--
yok--
yol--
yon--
yor--
yu--
yı--
yıl--
z--
za--
zaf--
zak--
zan--
zar--
ze--
zel--
zem--
zen--
zer--
zew--
zey--
zge--
zh--
zi--
zig--
zih--
zik--
zil--
zin--
zo--
zon--
zoo--
zoolo--
zor--
zu--
zucker--
zulqern--
zur--
zy--
zı--
zımıs--
zırq--
đ--
ı--
ıd--
ıf--
ıi--
ık--
ıki--
ıkl--
ıl--
ım--
ımi--
ın--
ınas--
ıne--
ıni--
ır--
ıray--
ıt--
ıxu--
ıy--
ız--
ł--
ə--
α--
γ--
δ--
λ--
μ--
ν--
π--
ρ--
σ--
τ--
бл--
бо--
в--
гор--
д--
е--
к--
ка--
кр--
лю--
м--
н--
о--
п--
р--
ре--
респу--
с--
со--
т--
א--
ב--
י--
יהו--
ר--
ש--
ا--
ب--
بر--
ت--
ج--
ح--
خ--
د--
ر--
ز--
س--
سلط--
ش--
ص--
ط--
ع--
غ--
ف--
ق--
ك--
ل--
م--
مر--
مع--
من--
مو--
ن--
ه--
و--
ي--
پ--
ک--
--0
--00
--01
--02
--03
--04
--05
--06
--07
--08
--09
--1
--10
--11
--12
--13
--14
--15
--16
--17
--18
--19
--2
--20
--21
--22
--23
--24
--25
--26
--27
--28
--29
--3
--30
--31
--32
--33
--34
--35
--36
--37
--38
--39
--4
--40
--41
--42
--43
--44
--45
--46
--47
--48
--49
--5
--50
--51
--52
--53
--54
--55
--56
--57
--58
--59
--6
--60
--61
--62
--63
--64
--65
--66
--67
--68
--69
--7
--70
--71
--72
--73
--735
--74
--75
--76
--77
--78
--79
--8
--80
--81
--82
--83
--84
--85
--86
--87
--88
--89
--9
--90
--91
--92
--93
--94
--95
--96
--97
--98
--99
--a
--aa
--aar
--ab
--aba
--abad
--abat
--abi
--able
--ac
--ach
--acio
--ad
--ada
--ade
--ado
--adu
--ae
--aene
--af
--afe
--ag
--aga
--age
--ah
--ai
--aignes
--aik
--ailles
--ain
--aine
--aire
--ais
--aj
--aji
--ak
--akc
--aki
--al
--ala
--ale
--ali
--ally
--alo
--als
--alya
--am
--ame
--ament
--amps
--an
--ana
--anc
--ance
--and
--anda
--ande
--ane
--ani
--ano
--ans
--ant
--anus
--ao
--ap
--aq
--ar
--ara
--ard
--are
--ari
--arm
--arra
--arre
--ars
--ary
--as
--ast
--asto
--ası
--at
--ata
--ate
--ated
--ath
--ati
--ation
--ations
--ative
--atlı
--ato
--ator
--atori
--ats
--att
--atur
--atus
--au
--aut
--aux
--av
--avi
--aw
--ax
--axis
--ay
--aya
--aye
--ayki
--ayn
--ayo
--ayog
--ayıs
--az
--b
--ba
--bac
--bach
--bad
--bag
--ban
--bas
--bat
--baz
--be
--bek
--bel
--ber
--berg
--bey
--beye
--beyler
--beyli
--bi
--ble
--bo
--board
--bol
--bon
--boy
--bre
--bronn
--brook
--bs
--bst
--bu
--bun
--bur
--burg
--burn
--burnu
--bury
--bus
--by
--c
--ca
--cada
--cag
--cak
--cal
--can
--cape
--cat
--cco
--ce
--ceae
--cen
--cena
--cens
--cent
--cer
--cerf
--ces
--cey
--ch
--cha
--che
--ches
--chi
--cht
--chus
--ci
--cia
--cid
--cik
--ciko
--cila
--cinı
--cio
--cion
--cious
--cius
--ciy
--ck
--cka
--cki
--cks
--cky
--co
--court
--cq
--cs
--ct
--ction
--ctus
--cu
--cuk
--cula
--cular
--cus
--cy
--cz
--cı
--cık
--cıki
--cılar
--cıog
--cısı
--d
--da
--dae
--dag
--dal
--dan
--dar
--dare
--dari
--daro
--das
--day
--ddin
--de
--dea
--dek
--den
--denı
--der
--dere
--des
--dh
--di
--dia
--dian
--dibi
--dict
--die
--dii
--dil
--din
--dio
--dir
--dis
--dium
--dle
--do
--dog
--don
--dor
--dorf
--dou
--dox
--dra
--dral
--ds
--dt
--du
--duk
--dum
--dut
--dy
--dz
--dı
--dık
--dıke
--dım
--dın
--dır
--dıs
--e
--ea
--east
--eau
--eb
--ec
--eca
--ect
--ed
--eda
--eddin
--ee
--een
--ef
--eg
--eh
--ei
--eil
--eille
--eim
--ein
--eiro
--ek
--el
--eld
--eli
--ell
--elli
--ello
--elo
--ely
--em
--ement
--en
--ena
--enburg
--enc
--ence
--endorf
--ene
--enheim
--eni
--enli
--eno
--ens
--ensis
--ent
--ente
--ento
--enu
--enı
--eo
--er
--era
--eras
--ere
--eri
--erki
--erre
--ers
--ersdorf
--ery
--es
--ese
--esheim
--esi
--est
--et
--ete
--eti
--eto
--ets
--ett
--ette
--ettin
--eu
--eul
--eus
--eux
--ev
--evi
--evic
--ewu
--ex
--ey
--eya
--eye
--eyi
--eyo
--eys
--ez
--f
--fa
--fan
--fe
--feld
--fen
--fet
--feti
--fettin
--fey
--ff
--ffe
--fi
--fication
--field
--fiye
--fly
--fo
--fobi
--folia
--fon
--fra
--fs
--ft
--fte
--fu
--ful
--fy
--g
--ga
--gah
--gal
--gan
--gar
--gara
--gard
--gas
--gatte
--gazi
--ge
--ged
--gee
--geh
--gei
--gen
--ger
--ges
--ggio
--gh
--ght
--gi
--gia
--gica
--gie
--gil
--gin
--ging
--gio
--gki
--gle
--gn
--gna
--gnac
--gnan
--gne
--gnes
--gny
--go
--gon
--grad
--grame
--graph
--gro
--ground
--gs
--gt
--gu
--gua
--gue
--gut
--gy
--gı
--h
--ha
--hac
--hael
--ham
--han
--haus
--he
--hed
--heim
--hel
--hem
--hen
--hes
--hi
--hia
--hid
--hie
--hii
--hion
--hip
--hir
--hisar
--hl
--hn
--ho
--hood
--hr
--hra
--hs
--ht
--hteh
--http
--https
--hu
--hue
--hy
--i
--ia
--iae
--ial
--ian
--iana
--ians
--ias
--iat
--ib
--ibe
--ibility
--ible
--ibo
--ic
--ica
--ici
--ick
--icourt
--ics
--icus
--id
--ida
--idae
--ide
--ides
--ido
--idus
--ie
--ied
--iel
--ien
--ier
--iers
--ies
--ieu
--ieulles
--ieux
--if
--ifa
--ifi
--ification
--ifolia
--ig
--ige
--ign
--igne
--igneulles
--igny
--ih
--ihttps
--ii
--ija
--ik
--ike
--iki
--iko
--il
--iler
--ille
--illes
--illo
--ils
--ily
--im
--ime
--imo
--imus
--in
--ina
--inate
--ine
--ines
--ing
--ings
--ington
--ini
--inin
--ino
--ins
--io
--iog
--ion
--ional
--ione
--ioni
--ions
--ior
--ious
--ip
--ipe
--ipes
--iqa
--ique
--ir
--ira
--ire
--iro
--irs
--is
--isch
--ise
--ish
--ism
--isse
--ist
--ista
--istan
--iste
--isti
--istic
--istics
--isto
--ists
--isy
--it
--ita
--ite
--iti
--ities
--ito
--itt
--itte
--ity
--iu
--ium
--ius
--iv
--ive
--ix
--iy
--iya
--iyan
--iyao
--iye
--iyet
--iyete
--iyo
--iyone
--iyya
--iz
--ization
--ize
--ized
--izi
--izm
--izmi
--izmo
--izım
--j
--ja
--jan
--jas
--je
--jen
--ji
--jo
--ju
--k
--ka
--kadı
--kale
--kan
--kapı
--kar
--kare
--kari
--karo
--kas
--kasyon
--kaya
--kc
--ke
--kee
--kel
--ker
--kerdıs
--kere
--kero
--ket
--kh
--ki
--kia
--kie
--kiler
--kin
--kio
--kirch
--kiyan
--kiye
--kiyo
--kki
--kko
--kli
--klı
--kma
--kman
--kne
--kno
--ko
--kov
--kovski
--kr
--ks
--ksan
--kse
--kt
--kta
--kti
--ku
--kul
--kus
--kuyu
--ky
--kya
--kı
--kıs
--l
--la
--lac
--lae
--lah
--lain
--lais
--lak
--lan
--land
--lar
--lara
--larda
--ları
--las
--lav
--lba
--ld
--lda
--lde
--ldi
--le
--lea
--led
--lege
--leh
--lek
--len
--ler
--leri
--les
--less
--ley
--lf
--li
--lia
--lica
--lie
--lig
--lii
--lik
--lin
--link
--lio
--lir
--lis
--list
--lit
--lity
--lize
--lizm
--lki
--ll
--lla
--lle
--lles
--llet
--lli
--llo
--llon
--lly
--llı
--lma
--lna
--lo
--locik
--lociye
--lock
--log
--logi
--loji
--lon
--lor
--lot
--loy
--ls
--lt
--lu
--lug
--lun
--lung
--lus
--ly
--lyn
--lı
--lıg
--lık
--lılar
--lım
--lıog
--m
--ma
--man
--mantis
--mar
--mare
--maur
--mbo
--mde
--me
--mek
--mem
--men
--mend
--ment
--ments
--mer
--mes
--mey
--mi
--mic
--mik
--miki
--min
--mio
--mis
--miz
--mki
--mler
--mli
--mnus
--mo
--mont
--more
--mp
--ms
--mu
--mus
--mut
--my
--mı
--mız
--n
--na
--nac
--nae
--naise
--nak
--nal
--name
--nan
--nao
--nas
--nasi
--nau
--nay
--nayıs
--nb
--nbach
--nburg
--nc
--nce
--nche
--ncourt
--ncy
--nd
--nda
--ndan
--nde
--nden
--ndi
--ndo
--nds
--ndy
--ne
--ned
--nek
--nen
--nene
--neno
--ner
--ners
--nes
--nese
--ness
--net
--neux
--news
--ney
--ng
--ngan
--nge
--ngo
--ngt
--nheim
--ni
--nia
--nian
--nica
--nie
--nii
--nin
--ning
--nio
--nis
--nius
--nizm
--nk
--nki
--nko
--nn
--nna
--nne
--nnes
--no
--non
--nos
--noy
--nq
--ns
--nse
--nsi
--nsing
--nsis
--nson
--nt
--nta
--ntal
--ntan
--nte
--ntes
--nthal
--nti
--ntin
--nto
--nton
--nts
--nty
--nu
--num
--nun
--nur
--nus
--nville
--nviller
--ny
--nya
--nza
--nzo
--nı
--nın
--o
--oc
--ock
--od
--oe
--of
--off
--og
--ogi
--ogical
--ogne
--ograf
--oh
--oi
--oidea
--oides
--ois
--oji
--ok
--oka
--oki
--ol
--ola
--ology
--om
--oma
--omb
--ome
--omi
--omiye
--on
--ona
--ond
--one
--ong
--oni
--onii
--onki
--onne
--ons
--ont
--onu
--ony
--onya
--oo
--oon
--ope
--ops
--or
--oran
--ord
--ore
--orf
--ort
--ory
--os
--osa
--ose
--osi
--oso
--ot
--ota
--ote
--oto
--ots
--ott
--ou
--ouge
--ough
--oul
--ourt
--ous
--out
--oux
--ov
--ova
--ovi
--ovic
--ow
--ox
--oxt
--oy
--oye
--oyo
--oz
--ozi
--p
--pa
--pach
--pas
--pc
--pe
--ped
--pes
--pf
--ph
--pha
--phone
--phorus
--phy
--pi
--pid
--pin
--pina
--pis
--ple
--po
--poda
--pol
--port
--ppes
--pre
--ps
--psus
--pt
--pton
--pu
--pus
--py
--pı
--q
--qa
--qan
--qe
--qet
--qi
--qo
--qs
--que
--ques
--r
--ra
--rad
--raf
--rak
--ral
--rald
--rali
--ran
--rary
--ras
--ray
--rb
--rbe
--rce
--rch
--rchen
--rck
--rd
--rda
--rde
--rdenı
--rdi
--rdo
--re
--rea
--reau
--red
--reh
--ren
--reo
--res
--rey
--rf
--rff
--rg
--ri
--ria
--ric
--rie
--rif
--rik
--riki
--rim
--rin
--ring
--rio
--ris
--rite
--rius
--rix
--rk
--rken
--rki
--rle
--rli
--rlı
--rm
--rma
--rme
--rmoy
--rn
--rna
--rnay
--rne
--rney
--rni
--rno
--ro
--rod
--roff
--ron
--ros
--roux
--roy
--rp
--rpa
--rpe
--rr
--rra
--rras
--rre
--rru
--rry
--rs
--rsdorf
--rsen
--rsheim
--rson
--rt
--rta
--rte
--rton
--rts
--ru
--rum
--rupt
--rus
--ruz
--ry
--rya
--rz
--rze
--rı
--rım
--s
--sa
--sac
--sal
--sali
--san
--sat
--sau
--sburg
--sca
--scens
--sch
--sche
--schen
--sches
--sdorf
--se
--sel
--sen
--ser
--ses
--set
--sey
--sh
--sheim
--shire
--shkaft
--si
--sia
--side
--sie
--sii
--sin
--sio
--sion
--sis
--sius
--siyo
--siz
--sk
--ska
--ski
--sky
--sle
--sles
--sley
--sm
--sman
--sna
--sne
--snil
--sno
--so
--son
--sor
--spo
--spor
--sque
--ss
--ssa
--ssac
--ssay
--sse
--ssing
--sson
--ssor
--ssy
--st
--sta
--stan
--ste
--sti
--stik
--sto
--ston
--stone
--stre
--stro
--stroff
--stry
--stu
--sty
--style
--su
--sum
--sus
--suz
--sville
--sy
--sya
--syon
--syone
--syoni
--syono
--sz
--szo
--sı
--sın
--sız
--t
--ta
--tal
--tan
--tane
--tas
--tata
--tay
--te
--ted
--tein
--tem
--ten
--tepe
--ter
--tes
--teur
--tewa
--tey
--th
--tha
--ti
--tia
--tial
--tic
--tics
--tie
--ties
--tif
--tigny
--tii
--tik
--tike
--tiki
--tiko
--time
--tin
--tina
--ting
--tio
--tion
--tions
--tiq
--tiqe
--tique
--tis
--tium
--tius
--tizm
--tki
--tle
--tler
--tli
--tly
--tmp
--to
--tol
--tole
--toli
--ton
--tone
--tor
--town
--toy
--tro
--tron
--try
--ts
--tsu
--tt
--tta
--tte
--ttes
--tti
--ttin
--ttle
--tto
--ttps
--tu
--tum
--tung
--tus
--ty
--tz
--tzenheim
--tzheim
--tı
--tıs
--u
--ua
--ual
--uan
--ub
--uc
--uchi
--ucourt
--ud
--uda
--ude
--udi
--ue
--uel
--ueli
--uer
--uera
--ues
--uf
--ug
--uge
--uh
--ui
--uil
--uin
--uis
--uj
--uk
--uke
--uko
--ul
--ula
--ulata
--ulatus
--ule
--uli
--ullah
--ulo
--ult
--um
--umi
--umu
--un
--una
--uncu
--une
--ung
--unra
--uo
--up
--uq
--ur
--ura
--ure
--urg
--uri
--url
--urm
--urs
--urt
--urus
--ury
--us
--use
--usi
--uso
--ust
--usu
--usz
--ut
--uta
--uti
--uto
--uve
--uvre
--ux
--uy
--uye
--uyi
--uz
--uze
--v
--va
--vain
--vak
--val
--van
--ve
--vel
--ver
--ves
--vi
--via
--viana
--vic
--vigne
--ville
--vitey
--vity
--viye
--vna
--vo
--vu
--vus
--vy
--vıras
--w
--wa
--wan
--wana
--wane
--wani
--wano
--way
--we
--wi
--wice
--wich
--wick
--wiye
--wiyo
--wm
--wn
--wo
--wood
--wr
--ws
--wt
--wyn
--x
--xa
--xan
--xane
--xc
--xe
--xel
--xent
--xey
--xi
--xo
--xs
--xt
--xu
--xı
--y
--ya
--yae
--yal
--yam
--yan
--yane
--yano
--yao
--yay
--yayenı
--yayo
--yayıs
--yd
--yda
--ye
--yeli
--yen
--yena
--yenda
--yene
--yeno
--yenı
--yer
--yes
--yesi
--yet
--yetane
--yete
--yeto
--yev
--yevic
--yey
--yeya
--yeyo
--yhi
--yi
--yim
--yin
--yis
--yiya
--yiye
--yiyo
--yki
--yl
--yla
--yle
--ylı
--ym
--yn
--yna
--yne
--yo
--yog
--yol
--yola
--yon
--yonan
--yoni
--yono
--yor
--yos
--yr
--yrat
--yre
--ys
--yu
--yum
--yun
--yya
--yye
--yı
--yıc
--yıca
--yıcan
--yıci
--yıco
--yım
--yıs
--z
--za
--zac
--zade
--zal
--zan
--zane
--zasyon
--zasyone
--zation
--zd
--ze
--zel
--zen
--zeno
--zer
--zey
--zheim
--zi
--zia
--ziye
--ziyo
--zki
--zli
--zm
--zmi
--zmki
--zo
--zu
--zy
--zya
--zyn
--zzi
--zzo
--ı
--ıb
--ıbe
--ıc
--ıca
--ıcan
--ıce
--ıci
--ıco
--ıcı
--ıd
--ıf
--ıg
--ıge
--ıj
--ık
--ıkc
--ıke
--ıl
--ım
--ımi
--ımı
--ın
--ına
--ınan
--ınca
--ıne
--ıni
--ıno
--ıp
--ıq
--ıqe
--ıqi
--ır
--ırma
--ıs
--ıse
--ısi
--ıt
--ıtan
--ıto
--ıx
--ıxi
--ıy
--ıyen
--ız
--łe
--ə
--ər
--α
--η
--ι
--ν
--ο
--ος
--ς
--υ
--а
--ал
--ва
--д
--е
--еи
--и
--ие
--ии
--ин
--к
--ка
--ки
--ко
--лика
--м
--н
--ник
--нь
--о
--ои
--ом
--р
--сть
--та
--я
--ב
--ה
--ו
--ות
--י
--ים
--ית
--מת
--ן
--נה
--ר
--ת
--ا
--ب
--ة
--ت
--ج
--ح
--د
--ر
--ری
--ز
--س
--سی
--ش
--ص
--ع
--ق
--ك
--ل
--لی
--م
--ن
--ند
--نی
--ه
--و
--ى
--ي
--ية
--يت
--ک
--گ
--ی
