!
"
#
##0
##1
##10
##11
##12
##13
##14
##15
##16
##17
##18
##19
##2
##20
##21
##22
##23
##24
##25
##26
##27
##28
##29
##3
##30
##31
##32
##33
##34
##35
##36
##37
##38
##39
##4
##40
##41
##42
##43
##44
##45
##46
##47
##48
##49
##5
##50
##51
##52
##53
##54
##55
##56
##57
##58
##59
##6
##60
##61
##62
##63
##64
##65
##66
##67
##68
##69
##7
##70
##71
##72
##73
##74
##75
##76
##77
##78
##79
##8
##80
##81
##82
##83
##84
##85
##86
##87
##88
##89
##9
##90
##91
##92
##93
##94
##95
##96
##97
##98
##99
$
%
&
'
(
)
*
+
,
-
.
/
0
00
000
0000
001
005
01
010
014
02
028
03
04
0466
05
050
053
06
060
07
078733
08
089
09
099
1
10
100
1000
10000
101
1016
1018
102
103
1036
1038
104
105
106
1062
1067
107
1070
1076
108
1080
109
1090
1092
1099
11
110
1101
111
112
1126
113
1132
1138
114
1142
114514
115
1158
116
1168
117
1170
1173
1174
1175
11769
11790
118
1180
1186
1187
119
1193
1196
12
120
1200
1202
1203
1204
1208
121
121035795
1211
1219
122
12286
123
1230
12320
1233
124
1241
125
1250
126
1260
127
1271
128
1281
1284
129
1293
13
130
1300
131
1312
1317
132
133
1330
1335
134
135
1350
136
1365
1367
137
138
139
1398
14
140
1400
1406
141
142
1420
1429
143
1432
144
1442
1445
145
1450
1454
146
146503
1468
1469
147
148
1486
149
1491
15
150
1500
151
1516
1517
152
1527
153
1535
1537
1538
1539
154
1543
1547
155
1554
1557
156
1568
157
1574
158
1589
159
1590
1591
1596
16
160
1600
1602
1603
1607
161
162
1627
1628
1629
163
164
1648
165
166
167
1679
168
1680
1682
169
17
170
1700
171
172
173
1730
174
175
1750
1753
176
177
178
1789
179
1798
18
180
1800
181
182
1820
1826
1828
183
1835
1838
1839
184
185
1851
186
1863
1866
1867
187
1870
1871
1872
1874
188
1880
1881
1882
1883
1884
189
1890
1892
1893
1896
1898
1899
19
190
1900
1903
1904
1905
1906
1907
1909
191
1910
1911
1912
1913
1914
1915
1916
1917
1918
1919
192
1920
1921
1922
1923
1924
1925
1926
1927
1928
1929
193
1930
1931
1932
1933
1934
1935
1936
1937
1938
1939
194
1940
1941
1942
1943
1944
1945
1946
1947
1948
1949
195
1950
1951
1952
1953
1954
1955
1956
1957
1958
1959
196
1960
1961
1962
1963
1964
1965
1966
1967
1968
1969
197
1970
1971
1972
1973
1974
1975
1976
1977
1978
1979
198
1980
1981
1982
1983
1984
1985
1986
1987
1988
1989
199
1990
1991
1992
1993
1994
1995
1996
1997
1998
1999
2
20
200
2000
2001
2002
2003
2004
2005
2006
2007
2008
20080209010806
2009
201
2010
2011
2012
2013
20131020073045
2014
2015
2016
2017
20170807
2018
2019
202
2020
2021
2022
2025
203
2030
204
205
206
206683
207
207792629
21
210
211
212
213
214
2145
215
216
217
218
2187
219
22
220
222
223
225
226
227
229
23
230
232
233
234
235
236
237
238
239
24
240
241
242
245
246
25
250
251
252
253
254
255
256
257
258
26
260
261
262
263
26317
264
265
266
267
268
269
27
270
271
272
273
274
275
276
27640954
277
279
28
280
281
282
28392139
286
287
29
290
296
3
30
300
301
31
312
313
315
32
320
321
323
326
33
330
3301
3302
331
333
3338
34
341
3426
344
35
350
353
356
359
36
360
362
363
366
37
374
38
383
388
39
392
39394
4
40
400
405
407
41
42
420
421
43
430
431
439
44
440
441
446
45
453
458
46
462
463
464599
47
476
48
480
488
49
491
492
499
5
50
500
5000
509
51
52
527
53
533
5368
54
540
542
543097
544
55
550
553
554
558
56
560
565
568
57
573
578
58
587
59
592
6
60
600
6000
605
608
61
62
622
623
624
63
632
634
637
639
64
644
647
65
650
656
66
663
67
68
680
685
6880
6881
69
7
70
700
705
706
71
72
720
721
722
73
730
732
734
737
74
742
75
750
752
753
755
758
7591
76
77
78
79
792
8
80
800
805
81
819
82
821
824
8247
83
84
847
85
850
852
853
86
8601
865
866
87
875
878
88
885
89
9
90
900
901787
904
907
91
911
92
923
93
94
941
944
95
96
967
97
978
9780863567827
979
98
99
:
;
<
=
>
?
@
\
^
_
`
a
aa
aaa
aada
aadalchi
aadalichi
aadalsi
aadu
aadunim
aadunima
aan
aani
aardvarks
aarhus
aaya
aayanim
aayanima
ab
aba
ababa
abada
abandoned
abanga
abaraka
abarika
abba
abbad
abbasid
abbasids
abbott
abbr
abbreviation
abbreviations
abc
abd
abdallah
abdel
abdul
abdulai
abdulfattah
abdulkarim
abdullah
abdullahi
abdullai
abdulrahman
abdulrasheed
abe
abedi
abels
abena
abenkwan
abi
abiba
abibata
abigail
abinfuura
abiodun
abla
ablai
able
ablekuma
abm
aboabo
aboagye
abor
aboriginal
abortion
about
aboutus
above
abraham
absent
absorbed
abstract
abt
abu
abuakwa
abubakar
abubakari
abubakr
abudu
abukari
abuna
aburi
aburu
abutia
abyssinian
abɛ
ac
acacia
acacus
academia
academic
academy
accept
acceptable
accepted
accepts
access
accessdate
accessed
accessibility
accessible
accomplished
accord
according
account
accountancy
accountant
accounting
accounts
accra
acer
achaemenid
achamenid
acheampong
achebe
acherensua
achievement
achiever
achiika
achimota
achiri
acquah
acre
acres
across
act
acting
action
activating
active
activist
activists
activity
actor
actress
acts
actual
actually
aculeata
ad
ada
adaalichi
adaanima
adabraka
adad
adaka
adalchi
adalichi
adam
adama
adams
adamu
adana
adanwomase
adasi
adass
add
addai
added
adding
addition
additional
addo
address
adds
ade
ademola
aden
adeniyi
adenta
adibo
adiboo
adiini
adiinima
adiininima
adiliyah
adinyira
adis
adisadel
adjacent
adjei
adjusted
admass
administration
administrative
administrator
admission
ado
adom
adotey
adp
adrar
ads
adu
adua
aduana
adukrom
adul
aduman
aduna
aduwa
aduɣa
advance
advanced
advancement
adventist
advisory
advocate
adwowa
ae
aelia
aerial
af
afa
afaani
afanima
afeku
affairs
affan
affect
affiliate
affo
afghan
afghanistan
afia
afigya
afisa
aflam
afo
afoley
africa
african
africana
africans
africanus
africatvnetwork
afrifa
afrika
afriyie
afrocuration
after
afterword
afua
ag
aga
agaaqbaj
again
against
agbaa
agbotui
age
agence
agencies
agency
agenda
ages
aggregation
aggrey
aglibol
agnes
agogo
agona
agora
agreement
agri
agribusiness
agric
agricacha
agricultural
agriculture
agusi
agyekum
agyeman
agyemang
ah
ahafo
ahanta
ahead
ahenkro
aheto
ahmad
ahmadiya
ahmadiyya
ahmar
ahmed
ahnentafel
ahwoi
ai
aid
aidoo
aids
aims
ain
aina
air
airlines
airport
aist
ajaja
ajami
ajumako
ajura
ak
aka
akakus
akamba
akan
akata
akatsi
akbar
akc
akenten
akhdam
akim
akkabeh
akkad
akkadian
akkar
ako
akomadan
akosombo
akosua
akoto
akpaaku
akpafu
akpataashi
akpu
akra
akrokerri
akropong
akry
aks
aksa
akua
akuapem
akuapim
akuba
akuffo
akufo
akurugu
akwasi
akwatia
akyem
al
ala
alaaba
alaafe
alaafee
alaafeei
alaafei
alaama
alaamanim
alaamanima
alaamishi
alaamu
alaasan
alaasani
alab
alaba
alabama
alafiɛ
alaha
alahari
alahaʒi
alahichi
alahiri
alali
alan
alao
alapele
alapile
alapilee
alapileenima
alasani
alaska
alavanyo
alave
alba
albacete
albalisa
alban
albendazole
albert
alberta
albertine
albrecht
albula
alcy
aldo
aleeji
aleepile
alemany
alepelebindi
alepile
alepilenima
aleppine
aleppo
alex
alexander
alexandra
alexandria
alfred
algae
algal
alge
algeria
algorithms
alhaj
alhaji
alhassan
alheeri
ali
alias
aliases
alibalisa
alibarika
alibarka
alibasa
alicante
alice
alichiyaama
alidu
alif
alifahili
align
aligned
alignment
aliheeri
alikaale
alikaalenima
alikaali
alikaalinima
alikalimi
alikaliminima
alikalinima
alikaule
alikauli
alikawle
alikawli
alikawule
alikawuli
alikuraan
alikuraani
alima
alisahili
aliu
aliwalla
aliyu
alizama
alizanda
alizandanima
alizimba
alizin
alizina
alizini
alizinnim
alizinnima
alizuma
alizumba
alizumma
alkauli
alku
alkur
alkuraani
all
alla
allah
allepo
alleppo
alley
alleys
alliance
alligator
allium
allow
allowed
allowing
allows
almost
alobo
aloe
alolo
alone
along
alpha
alphabet
alphabetic
alpine
already
also
alt
alta
altamira
altar
alter
altered
alternative
alternatively
although
altitude
alto
alulluɣi
aluura
always
aly
alɔbo
am
ama
amaa
amaaa
amaana
amadu
amanat
amaniampong
amanni
amansie
amarika
amarikanima
amarna
amasaman
amazon
ambariya
ambassador
ambrose
ame
amenfi
america
american
americana
americans
americanus
americas
amerika
amewu
amidu
amii
amiinchi
amiliya
amilya
amin
amina
amir
amissah
ammi
ammodramus
amoah
amoako
amoakohene
among
amorite
amorites
amp
ampem
ampersand
amphibians
amphibius
amphitheater
ampofo
ampproject
amr
amran
ams
amɛrica
an
anaabi
anabi
anabinima
anahi
analysis
analyst
analytics
anambra
ananias
anas
anashaara
anatolia
anbariya
anchor
ancient
ancyl
and
andaan
andalusia
andam
andan
andani
anderamboukane
andes
andrade
andrae
andre
andrew
andunia
anduniayili
anduniya
anfaani
anfaaninima
anfooni
anfoonima
anfooninima
angela
angeles
angelshark
anglican
angola
angsostinge
anhinga
anhingas
ani
anica
anii
anim
animal
animals
anita
anjura
ankara
ankor
ankrah
ankufunima
anlo
ann
anna
annab
annaba
annabi
annabinim
annabitali
annan
annbi
annex
anniversary
annkah
annotation
annual
anokye
another
ans
ansah
ansar
ansarisi
ansarsi
answers
anta
anthem
anthony
anti
antioch
antiochus
antiquities
antiquity
antisidɛnti
antoa
antonelli
antonio
antonioch
antonius
antony
antwi
anu
anum
any
anyone
anything
anywhere
anzansi
anʒilfa
ao
aoh
aoula
ap
apalis
apam
apart
api
apoin
apolasa
apostle
apostolic
app
apparently
appear
appearance
appears
append
appends
appiagyei
appiah
apple
applicable
application
applied
apply
appointed
appointment
appoints
apprenticeship
approach
approaches
appropriate
approximately
april
apse
apɔi
apɔin
aqmat
aquaculture
aquifer
ar
ara
arab
arabia
arabian
arabic
arabist
arabs
arafa
aram
aramaean
aramaic
aramean
arameans
arbitrary
arboreal
arc
arch
archaeological
archaeologists
archaeology
archeological
archeologist
archer
arches
archimede
architect
architectural
architecture
archive
archived
archives
archnet
ardea
are
area
areas
aremeyaw
aren
argentina
argument
arguments
arhin
arid
aristocracy
aristocratic
arizchi
arizichi
ariziki
arizona
ariʒichi
ark
arkaah
arkansas
arlington
armah
arman
armed
armenian
armi
armistice
army
around
arpad
arrow
arryadia
arshi
art
artery
arthur
article
articles
artificial
artikel
artist
artistic
arts
arwa
arxiv
arxive
aryee
arzichi
as
asaad
asafihili
asakore
asali
asama
asambuli
asambulinima
asamoa
asamoah
asan
asana
asani
asansabiliga
asante
asanteman
asantewaa
asanti
asanza
asanzalinima
asanzanim
asanzanima
asare
ascariasis
ascended
aseda
asghar
ash
ashaara
ashaiman
ashan
ashanti
ashee
ashibiti
ashibitinima
ashibti
ashiedu
ashikishan
ashili
ashilo
ashiloni
ashitey
ashiti
ashiya
ashraf
ashur
ashɛm
ashɛtu
asia
asiamah
asian
asiba
asibaasi
asibiri
asibri
asiedu
asihene
asima
asimah
asin
ask
askari
askia
asma
asmah
asobayire
asokore
asokwa
asori
asorinima
asp
aspx
asqalani
assafi
assault
assembili
assemble
assemblies
assembly
assesment
assessment
assigned
assin
assistance
assistant
associate
associated
associates
association
assur
assyria
assyrian
assyrians
asterisk
astous
asturias
asumah
asuogyaman
asuro
asutifi
asylum
asymptomatic
asɔri
at
ata
ataakiri
atabeg
atalaata
atalata
atam
atani
atargatis
atebubu
ath
ati
atikili
atinka
atlanta
atlantic
atlanticus
atlas
atmah
atsinanana
atta
attabari
attach
attacked
attacks
attah
attamah
attaura
attempts
attenborough
attention
attivor
attorney
attribute
attributes
atu
atuguba
atɛ
au
aub
audit
auditor
aug
august
augusta
augustan
augustine
augustus
auna
aurelian
australia
australian
author
authority
authors
auto
autolist
automated
automatic
automatically
autonomous
autovalue
aux
auxilia
auxilla
available
avenue
average
aviation
avicennia
avinu
avoid
avoided
avraham
awa
awabila
awabu
awadzi
awal
award
awarded
awards
away
awei
awoi
awou
awuah
awulililii
awuni
awuraba
awurabanima
awutu
awɔbila
awɔi
awɛi
axim
ay
ayaashei
ayaba
ayagiba
ayamba
ayariga
ayawaso
ayew
ayi
ayii
ayika
ayimagonu
ayirimo
ayirimonima
ayiriomo
ayishetu
ayobu
ayopoin
ayopɔi
ayopɔin
ayres
ayu
ayuba
ayyad
ayyub
ayyubid
ayyubidinima
ayyubids
ayɔbu
ayɔpoi
ayɔpoin
ayɔpɔi
ayɔpɔin
ayɛn
az
azaaba
azaabakpeeni
azaala
azab
azal
azalai
azali
azara
azawad
azdemir
azerbaijan
azima
azimpaɣa
azindoo
aziz
azm
azraqayn
azu
azulana
azumah
azunim
azzaba
aŋkara
aʒi
aʒia
aʒiya
b
ba
baa
baaba
baabaatu
baagi
baah
baai
baaji
baajinima
baako
baal
baalana
baalim
baalshamin
baamaaya
baamaya
baan
baandɔɣu
baanga
baanjir
baanjira
baanjiriti
baansi
baasali
baayan
baaŋa
bab
baba
babatu
babatunde
baboon
babu
babylon
babylonian
babylonians
bace
bachelor
bachi
bachibura
bachiburili
bachibuɣisir
bachibuɣisira
bachibuɣisirili
bachibuɣisirimaŋa
bachigahinda
bachigbinda
bachigbindili
bachikpani
bachikpaŋsira
bachikɔb
bachikɔba
bachinamda
bachinamdi
bachinamdili
bachinamdimaŋli
bachinamdiyari
bachinim
bachinima
bachiniŋda
bachiniŋdi
bachiniŋdili
bachiniŋdipahira
bachizaana
bachizaani
bachizaanikpaŋsira
bachizaanili
back
backed
background
backlink
bacteria
badajoz
badar
badu
baffoe
bagabaga
baganda
bagbin
baghdad
bagsim
bagurugu
baha
bahi
bahibahindi
bahibamdi
bahibu
bahiga
bahigu
bahigudali
bahigunim
bahigunima
bahila
bahimi
bahina
bahindi
bahindisuŋ
bahinidi
bahira
bahiri
bahram
baibars
baitul
bajim
bajɛti
bakari
bakatue
bakka
bakoi
bakr
bakɔi
bal
bala
balad
balai
balante
balantee
balbu
balchisu
bald
balearic
balente
balgi
balgila
balgiri
bali
balibu
balibubalibu
baligi
baligibu
baligira
baligiri
baligu
balim
balima
balimbalim
balimduɣu
balindi
balinduɣu
balintee
balishɛli
balista
ball
balla
balle
ballee
balli
balo
balogu
baltimore
balɔɣu
bam
bama
bamako
bamba
bambe
bamboi
bambɔŋɔ
bambɔŋɔnim
bambɔŋɔnima
bambɛ
bamfo
bamie
bammali
bampo
ban
bana
banbe
banbɔrgi
banchi
banchinima
band
banda
bandaa
bandacheena
bandamda
bandi
bandilana
bandoba
bandɔɣ
bangladesh
bangsim
bani
banim
banima
bank
bankani
bankaŋ
banker
banki
banking
bankuhiri
bankɔhilu
banlee
banlihiri
bannim
bannima
bannyɛ
bansi
bantama
banu
banvim
banvum
bany
banyɛn
banzani
banzaŋ
bapira
baptist
bar
bara
barack
barbara
barbet
barcelona
barclays
bare
bari
bariba
baribu
barigi
barigu
barila
barilim
barina
barinanim
barinanima
barinim
barinima
barisan
bariti
baritila
barlow
barracudas
barre
barred
barrister
barro
bars
bartels
barth
bas
basalt
based
basel
bases
basha
bashir
basic
basilica
basin
basketry
basque
bass
bat
batamgali
batandali
batandana
bataŋ
bataŋyili
batco
batgie
baths
batir
batis
batrachus
battery
battir
battle
bawa
bawabet
bawah
bawiine
bawku
bawumia
bay
bayaan
bayaana
bayadah
bayahinima
bayana
bayaɣati
bayaɣiti
baye
bayili
bayt
bazi
baŋ
baŋa
baŋbu
baŋda
baŋdi
baŋdib
baŋdiba
baŋdibi
baŋdori
baŋgumaŋa
baŋki
baŋkom
baŋla
baŋli
baŋmi
baŋsi
baŋsim
baŋsimi
baŋsiri
baŋsirila
baŋya
baŋŋun
baɣ
baɣa
baɣali
baɣasi
baɣatia
baɣayuli
baɣi
baɣila
baɣili
baɣiri
baɣisi
baɣisikuɣili
baɣisili
baɣisiwulana
baɣitia
baɣiyuli
baɣiyuya
baʒina
bbc
bbsnp
bc
bce
be
beach
beard
bearing
bears
beatrice
beautiful
beauty
bebɛ
became
because
bechem
become
becomes
bedouin
bedouins
bedwei
bedzrah
bee
beebu
beei
beemoni
been
before
beg
began
begin
beginning
begins
begu
behaviour
behigu
behind
behisi
beho
bei
beijing
being
beini
beit
bejdeydeh
bek
bekaali
bekoe
bekwai
bel
bela
belabela
belgian
belgium
beli
belim
bell
bello
belmont
belona
below
belt
belted
bemi
ben
bend
bendor
beneein
benguela
beni
benibu
benimi
benin
benise
benjamin
bentil
benton
beposo
ber
berber
berbers
bereau
berekum
beri
beringei
berlin
bernard
beroea
berry
bert
best
betar
beth
bethlehem
betis
better
bettir
betty
between
beya
beyond
bezaɣ
beɣu
bf
bhashyakarla
bi
bia
bias
biavati
biba
bibcode
bibihi
bibiɛhi
bible
bibliographic
bibliography
bibu
bibɛhi
bibɛlim
bidaa
biden
bidens
bidib
bidibbila
bidibbina
bidibga
bidibgi
bidibiga
bidibilim
bidibisi
bidibkuma
bidibsi
bidiribi
bidɔɣiri
bidɔɣirisi
bie
biega
biehigu
bieli
big
bigi
bigibu
biginsim
bigira
bigiri
bih
biha
bihi
bihigu
bihili
bihim
bihinaayili
bihira
bii
biigi
biiri
biisim
biiya
biiŋa
bikobiri
bikura
bil
bila
bilaa
bilad
bilahi
bilchin
bilchina
bilchini
bilchinnima
bilchisi
bili
bilibu
bilichiinsi
bilichin
bilichina
bilichini
bilichinima
bilichininima
bilichinnima
bilifu
biliga
biligu
bilim
bilisi
biliyɔŋ
biliɛri
biliɛɣu
bilkɔŋsi
bill
billed
billion
bilqis
bilsi
bilɛri
bilɛɣu
bim
bima
bimaristan
bimbara
bimbarigu
bimbi
bimbila
bimbilla
bimbilli
bimbilma
bimbim
bimbira
bimbiri
bimbirili
bimbiɛlima
bimbiɛm
bimbiɛɣu
bimbo
bimbɔr
bimbɔra
bimi
bimini
bimmaŋli
bin
bina
binakpaa
binbara
binbarigu
binbi
binbila
binbili
binbini
binbira
binbirili
binbiɛɣu
binbɔra
binchera
binchɛra
binda
bindi
bindir
bindira
bindirgu
bindiri
bindirigu
bindirisuŋ
bindirsuma
bindo
bindoo
binduli
bineebihi
bineenbihi
bingbaarigu
bingula
bingɔhi
bini
binidaa
binkob
binkobi
binkobiri
binkobori
binkpiŋ
binkpɛra
binkumda
binkura
binkɔb
binkɔbi
binkɔbiga
binkɔbigu
binkɔbiri
binkɔbishɛba
binkɔnkɔba
binkɔri
binn
binnamda
binnamdi
binnamdili
binneema
binneembihi
binneen
binneeŋa
binnema
binniema
binniɛma
binniɛn
binniɛŋ
binnkɔb
binny
binnyura
binnyurgu
binnɛma
binnɛŋ
binnɛɛmbihi
binsaa
binsaba
binsabili
binsh
binshaɣu
binsheli
binsheŋa
binsheɣu
binshiɛɣu
binshɛli
binshɛŋa
binshɛɣu
binshɛɣubɛ
binsuriti
bint
binvuhira
binvuhirigu
binvuri
binwala
binwalli
binwola
binwoli
binwolli
binwɔla
binwɔri
biny
binyahiri
binyara
binyoma
binyɛr
binyɛra
binyɛrgili
binyɛri
binyɛrigu
binzahindi
binzahindigu
binzɔrigu
binŋma
binŋmaa
binŋmahi
biodiversity
biographies
biography
biolib
biological
biologist
biology
biomedical
biores
biorxiv
biosphere
bipala
bipola
bipuɣinbila
bipuɣinga
bipuɣinsi
bipuɣisi
bipuɣiŋ
bipuɣiŋga
bipuɣiŋsi
bipɔla
bira
bird
birdlife
birds
birgi
birginsim
birgiri
birgirila
biri
birigi
biriginsim
birigira
birila
birili
birilim
birim
birimbu
birinda
birita
biriti
biritilimi
biritishinima
birmingham
birth
bisa
bisarinsi
biscayne
bisco
bishop
bissau
bit
bitaba
bitamsimli
bittir
biuŋ
bixa
biya
bizaŋ
biziŋ
bizuɣu
biŋ
biŋkob
biŋkobgu
biŋkobri
biŋkɔb
biŋkɔbgu
biŋkɔbigu
biŋkɔbri
biɛ
biɛbu
biɛh
biɛhagu
biɛhi
biɛhigu
biɛhim
biɛhisi
biɛhisuŋ
biɛhiŋ
biɛla
biɛlabiɛla
biɛli
biɛlifu
biɛligu
biɛlikulisi
biɛlim
biɛlima
biɛlimpahirili
biɛlimsɔŋda
biɛlinli
biɛlli
biɛm
biɛmlana
biɛni
biɛnibu
biɛnimi
biɛnli
biɛr
biɛra
biɛri
biɛrim
biɛrisuŋ
biɛtali
biɛya
biɛŋ
biɛɣ
biɛɣu
biɛɣukulo
biɛɣuni
black
blanc
blanca
blanchette
blank
blanko
blay
blench
block
blog
bloku
blood
blooku
blookunima
blooms
blue
bluegill
blum
bmjopen
bo
boadi
boafo
boakye
board
boarding
boasiako
boateng
bob
boba
bobcats
bobi
bobigu
bobili
bobli
bobu
bochaa
bock
boda
boduwa
body
boeing
bog
bogs
bogu
boham
bohambu
bohi
bohim
bohimbu
bohindi
bohiri
bohisi
boiboi
bois
bol
bola
bold
bole
bolga
bolgatanga
bolgu
boli
bolibu
boliga
boligu
bolila
bolili
bolimi
bolivia
bolivian
boliŋmɛra
boliŋmɛri
bolla
bolli
bollli
bolmi
bolo
bologna
bom
bombi
bombom
bombu
bomda
bomi
bomma
bompi
bon
bona
bondali
bonefish
bongo
boni
boniface
bonnie
bono
bonsu
bonwire
boo
boobu
booda
boogi
boogu
booi
book
bookchest
books
booksources
boolean
booli
boom
boon
boonda
boondi
boondila
booni
boonila
boori
boosu
bopiɛligu
bora
boraade
border
bori
boriba
boribi
borila
borili
borimi
born
boroboro
bosco
bosomtwe
bosra
boss
bosworth
bot
both
botiŋli
bots
botswana
botsyoe
bottlenose
bottom
boubou
bouctou
boularaf
boule
bouna
boundaries
boutique
box
boxes
boy
boys
bozuɣu
bozuɣuka
boŋɔ
boɣ
boɣili
boɣu
bq
br
brace
brackets
braimah
branch
brand
branding
brandon
brazil
brazilian
brdir
break
breakfast
breaking
breast
brew
bricks
bridge
brief
brigadier
brill
britain
britannica
british
broadcast
broadcaster
broadcasting
brochure
broken
brokered
bromeliads
brong
bronze
brook
brother
broward
browed
brown
browse
browser
browsers
bruno
brunswick
bryan
bs
bsc
bsi
bt
bttir
btv
bu
bua
buaben
buari
bub
bubihi
buch
buchi
bucket
budaali
budda
buffalo
bug
buganda
buglan
buhi
building
buildings
builsa
built
bukaata
bukaatanima
bukali
bukari
bukhara
bukhari
bukit
bukka
bukpurugu
buku
bukunima
bukuri
bula
bulaa
buli
bull
bulldozing
bulletproof
buloku
bulooku
bulpeila
bun
buna
bunahi
bunbura
bundana
bundannim
bundannima
bunge
bungo
buni
bunii
bunkɔbiri
bunsi
buntaan
buntaanga
buntaansi
bunu
bunyaaminu
bur
bureau
burgos
buri
burid
burikina
burinya
burizambu
burkina
burmese
burrow
bursaria
bursera
bursi
buruli
burundi
bus
bush
bushshrike
bushɛm
busia
business
businesswoman
bust
bustan
busua
but
buta
butu
buukata
buyi
buyopᴐin
buyɔbu
buzuriyah
buzzacott
buzzard
buŋ
buŋa
buɣ
buɣa
buɣaj
buɣajɛma
buɣatiŋa
buɣi
buɣibahi
buɣibu
buɣila
buɣili
buɣim
buɣima
buɣira
buɣiri
buɣisi
buɣisibu
buɣisila
buɣisili
buɣisiri
buɣisirila
buɣisiya
buɣiy
buɣiŋmana
buɣu
buɣujɛmdiba
buɣuli
buɣum
buɣumni
buɣusibu
bvwcaqaaqbaj
bwh
by
byzantine
byzantines
bɔ
bɔba
bɔbbu
bɔbgu
bɔbi
bɔbiga
bɔbigu
bɔbili
bɔbipiɛli
bɔbiri
bɔbli
bɔbo
bɔbu
bɔbugu
bɔh
bɔhambu
bɔhi
bɔhibu
bɔhigu
bɔhila
bɔhim
bɔhimbu
bɔhimdi
bɔhimi
bɔhinda
bɔhindi
bɔhindila
bɔhindimi
bɔhira
bɔhiri
bɔhisi
bɔhiya
bɔkati
bɔku
bɔl
bɔla
bɔli
bɔligu
bɔliŋmɛbu
bɔliŋmɛbɔ
bɔliŋmɛra
bɔliŋmɛriba
bɔlli
bɔlŋmɛri
bɔm
bɔmi
bɔmma
bɔmpi
bɔna
bɔpiɛligu
bɔra
bɔrade
bɔradɛ
bɔrgi
bɔrginsim
bɔri
bɔriba
bɔrigi
bɔrigu
bɔrila
bɔrimi
bɔrini
bɔriso
bɔsra
bɔŋ
bɔŋbɔŋ
bɔŋɔ
bɔɣ
bɔɣa
bɔɣati
bɔɣi
bɔɣili
bɔɣiri
bɔɣlpiɛligu
bɔɣu
bɔɣulɔŋ
bɛ
bɛbu
bɛhi
bɛhigu
bɛhisi
bɛhisuŋ
bɛi
bɛihigu
bɛiri
bɛiɣu
bɛla
bɛli
bɛligu
bɛlikulisi
bɛlim
bɛlima
bɛlli
bɛm
bɛma
bɛn
bɛni
bɛnibu
bɛr
bɛri
bɛrim
bɛrisuŋ
bɛŋma
bɛŋmalgi
bɛŋmalgiri
bɛŋmali
bɛŋmanila
bɛɛ
bɛɛmoni
bɛɣu
bɛʒi
bɛʒini
bɛʒiri
bᴐhi
bᴐhiri
bᴐhisi
c
ca
caa
cabinet
cable
cabo
cadet
caesar
caeserias
caf
cafe
caffer
cairo
cal
calculated
calendar
california
caliph
caliphate
call
called
callimachi
calusa
calvary
cambridge
came
camel
cameroon
cameroonian
camp
campaign
campechanus
campground
campus
can
canada
canadensis
canadian
canal
canals
canary
cancel
cancer
candidate
candidates
cannot
canonical
canopy
cantabria
cantonments
cape
capital
capitalization
capitals
captain
caption
captions
capturing
car
caranza
caravage
caravan
caravans
caravanserais
carbon
card
cardinal
cardinalis
cardinals
care
career
caretta
caribbean
carl
carlos
carolina
caroline
carriers
carson
carthage
carthaginian
casa
casba
cascading
case
cases
castello
castillo
castle
castles
cat
catalog
catalonia
categories
category
catfish
cathedral
catherine
catholic
cause
caused
causes
caution
cavalry
cave
cbc
cbdr
cc
ccccff
cdc
cdn
ce
cecilia
cedar
cedis
celcius
cell
cella
census
cent
center
central
centre
centropomus
centuries
century
ceo
cepa
cephalophus
ceramics
cercopithecus
cerealsgovernment
ceres
cerro
cert
certain
certificate
certified
cerveceri
cf
cfa
cfr
cgi
ch
cha
chaamana
chaamani
chaana
chacha
chad
chafirisili
chagas
chagres
chahayili
chain
chairman
chairperson
chali
chalk
challenge
chalviri
cham
chama
chamba
chambas
chamber
chambers
chami
champaŋ
champions
championship
chan
chana
chance
chancellor
chandi
chandler
chang
change
changed
changes
changing
chani
chanila
chanimi
channel
channels
chanshegu
chap
chapel
chapter
character
characters
charge
chari
charity
charles
charleston
chart
charted
charter
chartered
chase
chat
chayhuac
chaŋ
chaŋla
chaŋli
chaŋmi
chaŋya
chaɣila
chd
che
cheche
chechenima
check
checked
checking
chee
cheechi
cheegi
cheei
cheeila
cheemba
cheka
chekɔhi
cheli
chelonia
chelsea
chemi
chemistry
chemu
chen
chendi
chendiri
cheni
cheniviɛnyɛla
cheri
cherry
chested
chester
chevalier
chevaliers
chevrotain
cheyohi
chi
chib
chibgi
chibi
chibiga
chibira
chibisi
chibo
chibsi
chicago
chicha
chichara
chichi
chico
chief
chiefs
chiha
chihi
chihibu
chihila
chihili
chihimi
chihira
chihiri
chihirila
chihirimi
chihri
chiini
child
children
chile
chilean
chilim
chim
chimda
chimli
chimor
chimpanzee
chimpanzees
chimsi
chimu
china
chinchin
chinchina
chinchini
chinebua
chinery
chinese
chinua
chipata
chira
chiraa
chiri
chirichi
chirifo
chirifoyili
chiriga
chirigi
chirili
chirim
chirimbu
chiriŋ
chisimam
chiyaama
cho
choc
chochi
choggu
chogu
chokoloskee
chongqing
choo
choochi
choose
choosing
chorale
chosen
choɣu
chps
chris
christ
christian
christianity
christine
christopher
chrome
chronicle
chronicler
chronology
chu
chuchuliga
chugu
church
churcher
churchi
churi
chutes
chuuta
chuɣu
chuɣʋ
chypre
chɔŋisi
chɔɣifu
chɔɣim
chɔɣinsi
chɔɣu
chɛ
chɛbisi
chɛbu
chɛfura
chɛfurinim
chɛfurinima
chɛfuritali
chɛhi
chɛka
chɛla
chɛli
chɛliya
chɛmi
chɛmpaŋ
chɛmpaŋlana
chɛn
chɛndi
chɛni
chɛra
chɛri
chɛrili
chɛrimi
chɛrisa
chɛŋ
chʋɣʋ
chᴐŋiŋgu
cid
cinema
cinerea
cinereoargenteus
cinnamon
circa
circuit
cit
citadel
citadels
citation
citations
cite
cited
citeref
citeseerx
citi
citibank
cities
citinewsroom
citing
citizen
citoid
city
ciudad
ciudadela
ciudadelas
civil
civilization
civitas
claim
claimed
clan
clara
class
classes
classical
classicfootball
classification
classroom
classrooms
claude
claudius
clay
clean
clear
clearing
clearly
clerk
clermont
cleveland
click
clicking
client
clients
climate
climbing
clinic
clinical
clinton
clip
clipped
clock
close
closing
clothing
cloud
clouds
club
cluster
cm
cmho
cmv
cnn
co
coach
coalition
coast
coastal
coccyzus
cocoa
code
codes
coe
coffee
cohors
coins
col
cold
cole
colegi
collaboration
collapse
collapsed
collapsible
collared
collection
collections
collective
college
colleges
collins
collonade
collony
colobus
colombes
colombia
colombians
colon
colonel
colonia
colonial
colonnade
colonnaded
colony
color
colorado
columbia
columbus
column
columnima
columns
colwidth
com
combat
combined
come
comfort
coming
comma
command
commander
commas
comment
comments
commerce
commercial
commission
commissioner
committe
committee
commodo
common
commonly
commons
commonwealth
communication
communications
communists
communities
community
comoros
companion
company
compateesa
compatible
compere
competition
compiuta
complete
completely
complex
composed
compound
computation
computer
computing
concepts
concise
concolor
concord
concrete
concreti
condition
conducted
confederation
conference
configured
conflict
conforming
confusing
congo
congolais
congolese
congolian
congress
conifers
conjunction
connected
connecticut
connecting
connection
conomique
conquered
conquest
conrad
conret
consensus
consequat
conservation
conservationist
consider
considered
consistency
constance
constantine
constituency
constitution
constructed
construction
consult
consultant
consumer
contact
contain
contained
container
containing
contains
contemporary
content
contents
contest
contested
context
continent
contract
contribution
contributions
contributor
contributors
control
controlling
controls
conven
convention
conversation
convert
converted
cooperation
coordinator
cop
copied
coppa
copper
coptic
copy
copyright
coral
cormorants
corner
coro
corona
coronavirus
corporate
corporation
corps
corpus
correct
corrected
correctly
corresponding
corresponds
corridor
corrupt
costa
costing
cote
cotton
couguar
could
council
councili
count
counted
counting
countries
country
counts
county
coup
couperi
coura
course
courses
court
couscous
cov
covenant
cover
covered
covers
covid
cp
cpp
crabs
crac
craft
crane
crayfish
crazy
create
created
creates
creating
creation
creative
creativity
credit
credited
creek
crested
crisis
cristata
cristo
criterion
critically
crocodile
croise
croissance
crop
crosby
cross
crossreference
crouan
crown
crowned
crusade
crusader
crusades
crustaceans
cruz
cs
csir
css
ct
ctesiphon
ctor
ctx
cuanza
cuba
cuckoo
cuckoos
cuisine
cult
cultic
cultural
culture
cultures
cup
curl
curly
current
currently
custom
customer
cut
cycle
cynoscion
cynthia
cyperus
cypress
cypresses
cyrene
cyrillic
cysticercosis
czurda
d
da
daa
daaa
daabi
daabia
daabihi
daabilgu
daabiligim
daabiligu
daabilim
daabilm
daablim
daabolo
daabu
daada
daadaa
daadam
daadama
daadamanima
daadambi
daadambiɛligu
daadamtali
daadiini
daaebi
daafaani
daagi
daai
daala
daalaafe
daalaafee
daalaama
daali
daalichibla
daalifa
daalifanima
daalikalimi
daalikauli
daalikurani
daalizama
daalizanda
daam
daama
daamaana
daambalo
daambilo
daambolo
daamiliya
daan
daanbolo
daanfaani
daanfani
daani
daankali
daankaliŋ
daankaya
daankuɣili
daannabi
daansi
daantali
daantaliga
daantalisi
daanyɛla
daari
daarichi
daarizichi
daariʒichi
daarzichi
daashaara
daashee
daashili
daashiya
daati
daazaaba
daaŋa
daaŋga
daaŋkali
dab
daba
dabaa
dabaanahi
dabaanii
dabaanu
dabaata
dabaayi
dabaayopɔin
dabaayɔpɔin
dabam
dabara
dabari
dabba
dabbi
dabbu
dabgahinda
dabi
dabili
dabiligu
dabilim
dabilisi
dabisa
dabisi
dabisili
dabitim
dabiɛm
dabli
dablim
dabo
dabokpa
daboo
daboya
daboɣulana
dabpaɣa
dabsa
dabsi
dabsili
dabsuma
dabu
dabɔɣu
dabɔɣushee
dabɛm
dachee
dachɛhi
dacia
dacite
dadaya
dade
dadease
dadson
dagaaba
dagaara
dagaare
dagara
dagbamba
dagban
dagbana
dagbanbihi
dagbandabba
dagbando
dagbandoo
dagbanduɣu
dagbandɔhili
dagbani
dagbaniwiki
dagbaniwikimedians
dagbankpamba
dagbanli
dagbaŋ
dagbaŋkpamba
dagbon
dagboŋ
dagbɔŋ
dagger
dagu
daguya
dagɔr
dagɔra
dagɔrili
daha
dahalali
dahamani
dahee
dahi
dahila
dahim
dahima
dahimbu
dahimbuɣim
dahimmi
dahin
dahindi
dahinsheli
dahinshli
dahinshɛli
dahinsshɛli
dahinyini
dai
daily
dakar
dakoli
dakorah
dakota
dakoya
dakpema
dakpɛmah
dakubu
dakulo
dakunu
dala
dalaayili
dalanyili
dali
dalila
dalim
dalima
dalimla
dalimmi
dalimmila
dalindi
dalinli
daliri
dalirinim
dalirinima
daliriti
daliya
daliŋ
dallal
dalun
dalung
dalunlana
daluŋ
dam
dama
damango
damankunyili
damascus
damba
dambai
dambo
dambu
damda
damdi
damdibu
damdiri
dame
dami
damli
damma
damongo
dan
dana
danaa
dance
danced
dandi
danger
dangote
dani
daniel
danish
dankwa
danquah
dans
dansarika
dansarikanima
dansi
dansichi
danso
dansoman
dapaah
dapala
dapali
dar
darajaati
darajati
dargi
dargibu
dargiri
dari
daribo
dariga
darigi
darigibo
darija
darili
daripaɣ
dariza
darizanima
dariʒiɛɣu
dariʒɛiɣu
dark
darza
darzanim
darzanima
das
dasana
dash
dashee
dashes
dat
data
dataa
database
datazone
date
datei
dates
dating
datooyili
dauda
daula
dauphin
david
davis
dawa
dawla
dawoma
dawood
dawuda
dawuni
day
daye
dayfa
daylight
days
dayuuni
dayuɣu
dazuli
dazɔhigu
daŋ
daŋa
daŋadaŋa
daŋdaŋ
daŋdi
daŋdila
daŋdina
daŋkuŋ
daŋsi
daŋwaɣinli
daŋʒia
daɣari
daɣi
daɣila
daɣili
daɣiri
daɣu
dc
dce
dd
dda
de
dead
dean
death
debate
deborah
debrah
debt
dec
decades
december
decide
decimal
decision
declaration
declares
decorated
decorative
decree
dede
dedefund
dedei
dedicated
dee
deebu
deegi
deego
deegu
deei
deeiri
deela
deeli
deemaa
deemi
deen
deeni
deep
deer
deera
deeri
deerila
default
defaults
defence
defender
defense
define
defined
defines
definition
degah
degahnima
degree
dei
deima
deity
del
delaware
dele
delhi
deliverer
dell
delta
dema
demdili
demirspor
democracy
democratic
demographic
demographics
demon
demonstration
demɔŋ
den
dendroica
denis
denmark
densa
dense
dep
department
departments
depicting
depiction
deposit
deprecated
dept
deputy
der
derby
dery
des
deschamps
described
description
deseh
desert
deserted
desherence
design
designate
designation
designations
designators
designed
designer
desired
destroyed
destroys
destruction
detail
details
detects
determinants
determine
determined
determines
deutsche
developed
development
df
dhaban
dhabi
dhahban
dhee
dhkvdwaaqbaj
dhu
di
diadem
diagnosis
diagrams
diamond
diare
diarylana
diaso
diba
dibaa
dibaanahi
dibaanii
dibaanu
dibaata
dibaayi
dibaayiyi
dibaayɔbu
dibahi
dibahibahindi
dibi
dibiga
dibo
dibori
dibu
dickens
dictionary
did
didn
die
diedong
diego
diema
diesel
diet
differences
different
differs
digit
digital
digitized
digits
digu
dihi
dihibu
dihila
dihili
dihimi
dihira
dihiri
dihitabili
dihitabli
dii
diini
diisi
dike
dikili
dikiya
diko
dikpina
dikpini
dikpuna
dikpuni
dila
dilana
dili
diliri
dim
dima
dimabi
dimani
dimaŋ
dimb
dimba
dimbala
dimbi
dimboŋɔ
dimbu
dimbɔŋɔ
dimbɔŋɔnim
dimbɔŋɔnima
dimdi
dimi
dimini
dimiya
dimli
dimma
dimmba
dimnima
din
dina
dinbala
dinbe
dinbɔŋɔ
dinbɛ
dindali
dindee
dindina
dindo
dindoli
dindoya
dindoŋ
dindu
dinduya
dine
dingambu
dini
dinibɔŋɔ
dining
dinipilishɛm
dinkoɣi
dinkuli
dinni
dinnim
dinnima
dinniŋ
dinnyɛ
dinsaha
dinsɔɣi
dintibigi
dintoli
dinya
dinyɛ
dinyɛla
dinyɛn
dinzugu
dinzuŋu
dinzuɣu
dinzuɣubɛ
dinzuɣuj
dinzuɣuka
diocese
diocletian
dios
dioxide
dipala
dipali
dipitinima
diploma
diplomacy
diplomat
dira
dire
direct
directiri
directives
directly
director
directorate
directory
diri
diriba
dirigili
dirigu
dirila
dirili
dirimi
disabilities
disable
disabled
disables
disambiguation
discharge
discouraged
discovery
discussion
discussions
disease
dishɛli
display
displayed
displaying
displays
distinct
distributor
district
districthttps
districti
districts
div
dividers
division
dixcove
dixon
diya
diyali
diyi
diyihi
diyya
diyɛli
dizaa
dizai
dizuŋu
dizuɣu
diŋ
diɛli
diɛm
diɛma
diɛmba
diɛmbu
diɛmda
diɛmdi
diɛn
diɛŋ
diɣi
diɣiri
diɣisi
djaba
djazairia
djenne
djibouti
dmc
dmd
dmtthbpi
dmy
dni
dnshitobu
do
dobba
dobihi
dobino
doc
docfiles
docs
doctor
document
documentary
documentation
dodowa
does
doesn
dohini
doi
dojia
dokoli
dokurugu
dokuɣuri
dola
doli
doliba
dolibu
doligu
dolila
dolilgu
dolina
dolintabitali
dolisi
dolisigu
dolisiri
doliya
dolli
dolo
dolodolo
dolodolonima
dolphin
dolphyne
dolsi
dolsigu
dolsira
dolsiri
dolsirila
dolu
domain
dombo
dome
domes
domestic
domi
domin
domini
dominic
dominica
dominican
dominion
dominique
don
donald
dondi
dondila
dondo
dondoya
done
doni
donibu
doo
doobia
dooi
doola
dooli
doomi
doona
dooni
doonila
door
doori
doors
dooshee
dooshɛhi
dooyili
dor
dorado
dori
doriti
dormaa
dormition
dormitories
doro
dorolana
dorsalis
dorut
dosuma
dot
dotali
double
doubled
douglas
dove
dover
dovihi
down
download
downloads
downtown
doya
dozim
doɣa
doɣi
doɣibu
doɣim
doɣite
doɣitenima
doɣu
dr
draft
drama
dramani
drawing
drc
dream
dreazen
driving
dromedariorum
droni
drooba
dropped
drum
drums
dry
drymarchon
ds
dscn
dst
dtv
du
duayaw
dubai
dubois
dubu
duduhigu
dugbera
dugbɛra
duhi
duhibu
duhili
duhiri
duhirila
duiker
duis
duko
dukpini
dula
duli
dulim
dum
duma
dumba
dumi
dumortier
dumper
dun
duna
dunamnima
dunams
dundo
dundoli
dundona
dundoya
dundoŋ
dundɔli
dundɔna
dundɔya
dundɔŋ
dundɔŋni
dungu
duni
dunia
duniayili
duniya
dunkurugu
dunkwa
dunnoya
duno
dunodaa
dunoli
dunoya
dunya
duplicate
dur
dura
duri
durila
during
dusky
dusojanima
dust
dustrict
dutch
duties
duu
duulan
duuma
duumanim
duumanima
duuni
duunoli
duunoya
duunsi
duuŋa
duya
duzuɣiri
duzuɣu
duzuɣuri
duŋ
duŋkurigu
duɣi
duɣibu
duɣila
duɣili
duɣira
duɣiri
duɣirila
duɣu
duɣubila
duɣubu
duɣuri
dvb
dw
dwamena
dwarf
dynasty
dzair
dɔ
dɔhi
dɔkuliʒɛm
dɔla
dɔli
dɔlila
dɔlisi
dɔmini
dɔni
dɔr
dɔri
dɔribimbira
dɔribimbirili
dɔriti
dɔro
dɔya
dɔɣam
dɔɣi
dɔɣiba
dɔɣibu
dɔɣila
dɔɣim
dɔɣira
dɔɣiri
dɔɣiriba
dɔɣirikpamba
dɔɣirikpema
dɔɣirikpihim
dɔɣirikpɛma
dɔɣiro
dɔɣita
dɔɣite
dɔɣitenima
dɔɣitɛ
dɔɣola
dɔɣu
dɛ
dɛi
dɛli
dɛma
dɛmda
e
ea
each
eagle
eagles
earlier
early
earth
earthen
easier
east
eastern
easy
eazzy
eb
ebenezer
ebi
ebla
ebola
ebru
ebs
ec
echinococcosis
echourouk
eco
ecobank
ecological
ecologist
ecology
economic
economics
economist
economy
ecoregion
ecoregions
ecosystem
ecosystems
ecowas
ed
eddie
edem
eden
edessa
edge
ediciones
edit
edited
edith
editing
edition
editor
editorn
editors
edits
edmund
edo
eds
edu
edubiase
education
educational
edward
edx
effah
effect
effects
effiduase
efforts
efiefi
efqa
efua
ego
egrets
egretta
egypt
egyptian
egyptians
egypty
ehir
eight
eighth
eissn
either
ejisu
ejisuman
ejura
ejuraman
ekem
ekiti
ekua
ekuful
ekwow
el
elaborate
elagabalus
elche
elder
election
elections
elective
electoral
electronic
element
elementary
elements
elephant
elephantine
elevated
eleventh
eliminated
elit
eliye
elizabeth
ellen
elliottii
ellipsiprymnus
elmina
else
elsewhere
elsheshtawy
elsie
elsieaddoawadzi
em
email
emar
embassy
embedded
embryology
emergency
emesa
emile
emir
emirate
emirates
emit
emits
emitted
emmanuel
emperor
emphasis
empire
employment
empowerment
empty
emv
en
enclose
enclosed
enclosure
encoded
encroachment
ency
encyclopaedia
encyclopedia
end
endangered
endemic
ends
energy
eng
engineer
engineering
engineers
england
english
enlarged
ennahar
enoch
ensure
enter
entered
entering
enterprise
enterprises
entertainment
entire
entity
entrance
entrepreneur
entrepreneurial
entries
entry
environment
environmental
environmentalism
environmentalist
environmentalists
enyimba
eol
epa
epiphanes
epiphytes
episode
epithet
epulu
equal
equatorial
equipment
equivalent
er
era
erbil
eretmochelys
eric
erika
eritrea
ernest
ernst
erosion
error
errors
es
escazu
eshre
esi
especially
esplanade
essakane
essay
essex
essien
essipun
essor
est
established
establishing
esther
estonia
estuarine
eswatini
et
etal
etat
etc
ethel
ethic
ethics
ethiopia
ethnicity
ethnographic
etv
etymology
eu
eugenia
euphrates
europe
european
europeans
europens
europos
europus
eurycerus
eva
evaluation
evangelical
evans
evelyn
even
evening
event
events
ever
everglades
every
everybody
everything
evidence
ewe
ex
exactly
examination
example
examples
excavation
excavations
excel
excellence
except
exceptional
exchange
exclusive
executive
exeter
exil
exile
exist
existence
existing
exists
exit
exotic
expanded
expansion
expected
expedition
experienced
experimental
expert
experts
explained
explaining
explanatory
explicit
exploration
explorer
expo
exports
expressed
expression
extended
extension
exterior
external
extra
extraneous
extraordinary
extremadura
extrusion
eye
eyed
eyes
ez
f
fa
faa
faai
faako
faamuru
faara
faaranim
faashee
faatihi
fabila
fabili
fabindi
fabla
fabli
fabric
fabu
fac
facade
face
facebook
faced
facilitators
facilities
facility
facing
fact
facto
factory
facts
factsheet
faculty
fadilatu
fadl
fadlallah
fahim
fail
fair
faith
fakari
fakhr
falcatus
fali
falidiriba
fall
fallback
falls
false
falyhi
famed
fami
families
family
familymedia
familytree
fan
fana
fancy
fandi
fandiriyili
fanliriba
fante
fao
faqih
far
fara
farafira
farah
faraj
faralana
faranim
faranima
faransi
fari
farida
farigu
farihan
farinsi
farku
farm
farmer
farmers
farming
farouk
fasara
fashion
faso
fatality
fatat
fatawu
father
fathia
fati
fatifati
fatigue
fatima
fatimid
fatimids
fatɛɣu
fauna
faune
faustina
favor
fawaɣili
fawoade
fc
fdlr
fe
feature
features
feb
february
febuary
federal
federation
feei
feel
feera
feet
felicia
felipe
felix
fell
fellow
female
femi
feminism
feminist
fence
fenuku
ferdinand
ferguson
ferland
fern
ferna
fernando
ferns
ferrand
ferry
fertility
festival
few
fi
ficus
fidelis
fidelity
field
fieldname
fields
fiema
fifa
fifth
fig
fights
figure
fihini
fiiba
fiifi
fiila
fiiyo
filaawasi
file
filename
files
filim
filimbu
filinda
filindi
filiŋ
fillimbu
film
films
fin
final
finance
financial
find
findi
fini
finland
finnerty
fir
fire
fired
firefox
firimiinsi
firm
first
firstn
firstname
firuz
fiscal
fish
fishbase
fishbolid
fisheries
fishermen
fishes
fishing
fitiina
fitina
five
fix
fixed
fiŋ
fiɛbi
fiɛɣu
fiɛɣufiɛɣu
flaawa
flag
flamingo
flight
float
floating
flora
florence
florida
floridanus
floris
flower
flu
flycatcher
fm
fmt
fo
focus
focused
fofie
folio
folklore
follow
followed
following
follows
fomena
fondi
fondo
fong
font
food
football
footballer
footer
footnote
footnotes
for
force
forced
forces
foreign
forest
forestry
forests
foreword
form
format
formats
formatted
formatting
formed
former
formerly
forms
fort
forth
fortifications
fortified
fortress
fortschritte
forty
forum
fossil
fosu
foto
foufou
found
foundation
foundations
founder
founding
four
fourth
foutou
fox
foxes
foŋ
foŋdi
fqayac
fr
frac
frame
frameless
framework
frameworks
franc
france
francis
franciscan
francisco
franco
francois
frank
franks
franz
fred
frederick
free
freedom
freely
freetown
french
frenchi
frescoes
fresh
freshwater
frica
friday
friedhelm
friedrich
frimpong
fritsch
fritz
frog
from
front
frontera
frontier
fruit
fruits
ft
fu
fuels
fufu
fufuo
fuhibu
fuhira
fukumisi
fukumsi
fukumsilana
fukumsinima
fulaawasi
fulayhi
fulbright
full
fuller
fully
function
functionality
fund
fundamentals
funds
funerary
funsi
fur
fura
furi
furila
furinim
furinima
furitali
furminsi
furnim
furnima
further
fuseina
fuseini
fusheina
fusheini
futiina
future
fuu
fuyaa
fuɣi
fuɣifuɣi
fuɣufupu
fwww
fɔliŋ
fɔna
fɔndi
fɔnoloji
fɔŋ
fɔŋdi
fɔɔsis
fɔɣu
fɛbi
g
ga
gaa
gaadiri
gaafara
gaagi
gaali
gaana
gaandi
gaasi
gab
gabbu
gabi
gabira
gabiri
gablee
gabon
gabriel
gabsi
gadabsi
gadama
gaddafi
gagbuni
gagnon
gahi
gahila
gahim
gahimbu
gahimla
gahimma
gahimmi
gahinda
gahindi
gahindila
gahindili
gahiri
gaiseric
gal
gala
galamsey
galaxy
galbaŋ
gali
galibaŋ
galicia
galilee
galim
galime
galimi
galindi
galipiɛlli
galisi
galisim
galisira
galisiri
galisiya
galiwe
galiwee
galleries
gallery
galli
gallienus
gallopavo
galsi
galsila
galsim
galuzzi
gam
gama
gamal
gambaaga
gambaga
gambe
gambee
gambia
gamda
game
games
gamo
gana
gandhi
gandi
gani
ganima
gansi
gao
gap
gaping
gar
gara
garamba
garba
garbrah
garden
gardenia
gardens
gari
garia
garial
gariba
gariche
garichenima
garichɛ
garigi
garigibu
garigiri
garila
garita
gariti
garitimi
garo
garrett
garrison
gary
gas
gaston
gasu
gate
gates
gauthier
gawaɣu
gawlikowski
gaza
gazelles
gaŋ
gaŋa
gaŋbu
gaŋdi
gaŋdu
gaŋsibu
gaɣili
gb
gba
gbaa
gbaabi
gbaabu
gbaabunima
gbaagi
gbaago
gbaai
gbaaibu
gbaaila
gbaairi
gbaala
gbaami
gbaara
gbaari
gbaarikpeeni
gbaarila
gbaaya
gbaayihi
gbabi
gbahi
gbahiba
gbahibu
gbahira
gbahiri
gbahiriba
gbai
gbala
gbali
gbaliŋ
gballa
gballi
gbaluŋ
gbambaya
gbambihi
gbambila
gbambu
gbamda
gbampi
gbampiɛla
gban
gbana
gbandari
gbandi
gbani
gbanpiɛla
gbansabila
gbansabinli
gbanyamni
gbanzaba
gbanzabigu
gbanzaliŋ
gbanzaluŋ
gbanzogu
gbargi
gbargiri
gbarigi
gbarigibu
gbarigiri
gbarigu
gbarima
gbarinaa
gbariŋ
gbarri
gbasabila
gbaya
gbaŋ
gbaŋbihi
gbaŋgbaya
gbaŋlan
gbaŋlana
gbaŋlannim
gbaŋpiɛla
gbaŋsabila
gbaŋŋmara
gbaɣino
gbaɣisi
gbc
gbe
gbengbe
gbengbehili
gbengberi
gbera
gberi
gbetaa
gbewaa
gbi
gbib
gbibbu
gbibi
gbibila
gbibili
gbibu
gbihi
gbihira
gbihiri
gbihirimi
gbiligi
gbilsiri
gbimi
gbin
gbini
gbinni
gbira
gbiri
gbiriba
gbiŋgbaŋ
gbiɣima
gbiɣu
gbubbu
gbubi
gbubibu
gbubila
gbubili
gbubira
gbubiri
gbubirisuŋ
gbulahigu
gbuligi
gbuliŋ
gbullung
gbulung
gbum
gbun
gbuna
gbungbaliga
gbungbaŋ
gbuni
gbunibu
gbunna
gbunni
gbunyari
gbunyaɣu
gbura
gburagbura
gburimani
gbuuni
gbuŋ
gbuɣ
gbuɣi
gbuɣili
gbuɣima
gbuɣin
gbuɣinli
gbɔŋ
gbɛbu
gbɛhi
gbɛhibu
gbɛngbɛhili
gbɛra
gbɛri
gbɛwaa
gbɛɣu
gc
gcb
gce
ge
geith
geli
gen
gender
gene
genera
general
generally
generatanima
generate
generated
generates
generic
genet
genetic
geneva
genus
geoffrey
geographic
geographical
geography
geology
georg
george
georges
georgia
georgina
gerhard
german
germans
germany
germinans
ges
gesellschaft
get
gets
getty
gfa
gh
ghadam
ghadames
ghalca
ghana
ghanadistricts
ghanahomepage
ghanaian
ghanamps
ghananewsagency
ghanasco
ghanata
ghanaweb
ghat
ghayat
ghazi
ghiyath
ghone
ghor
ghost
ghs
ghumdam
ghurid
gi
giant
gibson
gift
gifty
gikuyu
gilbert
gili
giligi
gilila
gilimi
gillbt
gilli
gilu
gima
gimpa
ginda
gindi
gingaani
ginnaye
giovanni
girama
girl
girls
girona
github
giuseppe
give
given
gives
gizaa
gje
glaberrima
glacial
glacis
gladys
glass
glassmakers
glnp
global
gloria
gmail
gmt
go
goals
goaso
gobu
god
goddess
godfred
gods
godward
godwin
goes
gogaliga
gogoe
gohi
gohili
goi
going
gola
gold
goldeb
golden
goli
goligi
gologo
gom
goma
gomanti
gombe
gomda
gomdanti
gominanti
gomli
gomnan
gomnanti
gomnantinima
gonaate
gonaati
gonja
gonyuunsi
gonza
goo
good
google
goon
goondaa
goondahi
gooni
goota
gopi
gora
gordon
gore
gori
goriba
gorigindi
gorilla
gorim
gorima
gospel
gothic
gounda
gov
governance
governing
government
governor
governorate
governorates
goya
grac
grace
grackles
graduate
graduated
graf
grammar
grams
granada
grand
grande
grandfather
granite
grant
graphic
grass
grassland
graueri
graves
gray
gre
great
greater
grebes
greco
greece
greek
green
greenbul
greenhouse
greenpeace
gregorian
greta
grevillea
grey
ground
group
grouped
groupname
groups
grove
gruner
grunwald
gsa
gtv
gu
guan
guans
guardian
guatemalans
guba
gubi
gubiɛri
gubu
gubusuŋ
gubɛri
gue
guereza
guggisberg
guhi
guhibu
guhigu
guhihu
guhima
guhimi
guhira
guhiri
guhirimi
guidance
guide
guided
guidelines
guiding
guillaume
guinea
guinean
guipu
guitarfish
gukpe
gukpegu
gukpeɣu
gukpɛɣu
gula
gulf
guli
guliba
gulibo
gulibu
guligu
gulila
gulingua
gulinyaansi
gulinyaaŋa
gulisigu
guliyili
guliyiya
gulkpe
gulkpɛ
gulli
gulls
gum
guma
gumachuɣu
gumani
gumba
gumbaz
gumbihini
gumbo
gumdi
gumdu
gumi
gumo
gun
gundaa
gundi
gundo
gunduɣ
gunduɣu
gundɔɣu
gungobili
gunguma
gungɔbili
gungɔŋ
guni
gunibu
gunsi
gunu
gunung
gupanarigu
gur
gura
guri
gurigiri
gurima
guriti
gurugu
gurundoo
gurunsi
gurunɛ
gush
gushe
gushee
gushegu
gushei
gusheɣu
gushie
gushiegu
gushiɛɣu
gushɛ
gushɛɣu
gustav
gutubu
gutulinsi
gutulu
gutulunim
gutulunima
gutulunsi
guubu
guui
guura
guuri
guya
guzuli
guŋ
guŋa
guŋgɔna
guŋgɔŋ
gyamfi
gyan
gyapong
gyekye
gypsies
gɔ
gɔbnan
gɔbnanti
gɔbu
gɔhi
gɔla
gɔli
gɔlini
gɔm
gɔma
gɔminanti
gɔmnan
gɔmnanti
gɔnaate
gɔngili
gɔra
gɔri
gɔriba
gɔrigu
gɔrila
gɔrim
gɔrima
gɔyuunsilan
gɔŋ
gɔŋbu
gɔɔgle
gɔɣali
gɔɣili
gɔɣu
h
ha
haaka
haamaana
haaretz
habib
habiba
habitat
habitats
hachi
hachinima
had
hadawi
haddah
hadharamaut
hadi
hadiisi
hadramawt
hadrian
hagan
hague
hai
haidara
haifa
hairan
haital
haiti
hajar
haji
hajia
hajj
haka
hakimah
hal
hala
halali
halalsi
halaru
half
hali
haliaeetus
halifax
halik
halini
halisuma
hall
hallaka
halli
halu
hama
hamadja
hamawi
hamburg
hamda
hamdani
hamdanid
hamdanids
hamid
hamidu
hamilton
hammam
hammams
hammer
hammock
hammocks
hammond
hamon
hampshire
hampton
hamza
han
hand
handbook
handle
handling
hanging
hanifa
hankali
hanlali
hanna
hannah
hannibal
hans
hansen
happens
hara
haraamu
haram
harami
haraz
harbor
harbour
harbours
harcourt
hardi
hardwood
hare
haret
hari
harir
harith
harmonious
harrassowitz
hartford
hartmann
haruna
harv
harvard
has
hasaba
hasabah
hasan
hashishiyah
hassall
hassan
hasslaebetch
hatra
hatran
hausa
have
haven
having
havre
hawa
hawaii
hawk
hawkins
hawks
hawksbill
hay
hayibor
hazrat
haŋkali
haŋkaya
haŋkayanim
haŋkayanima
haʒi
hd
hdl
he
head
headed
header
heading
headmaster
headquarters
heads
health
healthy
heart
hearts
hebrew
hebron
hectare
hectares
height
heights
heinrich
heinz
helen
helena
helios
hellenes
hellenic
hellenistic
hellenized
help
helpful
hendrina
hennessey
henri
henrietta
henry
hepatitis
her
herald
herbert
here
heritage
herlin
hermann
hermes
herodias
herons
hesse
heuristic
hh
hi
hibi
hidden
hide
hidrash
hierocles
high
higher
highest
highland
highways
higu
hijaabi
hijira
hilda
hili
hill
hilla
hills
hilltop
him
himi
himma
hinrichs
hint
hinterland
hippopotamus
hira
hiraj
hiranima
hiri
hirila
hirimi
hirn
his
hish
hisham
hisi
hisn
hissan
historic
historical
history
hisuŋ
hittite
hittites
hiv
hizyaz
hiʒira
hlist
hm
hmm
hmmm
hn
hnd
ho
hoboken
hockey
hog
hohoe
hokedun
hold
holder
holding
hole
holes
holidays
holland
holly
holy
home
homeless
homes
homestead
homs
hon
honduran
hondurans
honduras
hong
honolulu
honor
honorary
honour
honourable
hons
hoo
hoover
hope
hopkins
horizontal
horn
hornbill
horseshoe
horst
horticulture
hoshaw
hosn
hospice
hospital
hospitaller
hospitallers
host
hot
hotel
hour
hours
housa
house
houses
housing
houthi
houthinima
houthis
how
howard
however
hrds
hstry
htm
html
htmlhttp
htmlhttps
http
https
hu
huambo
hub
hubei
hudaydah
hudu
huesca
hugh
hughes
hugo
hugues
hui
human
humanitarian
humidity
hundred
hundreds
hunter
hunting
huntington
hurrian
hurricane
hurricanes
husayn
husbandry
husein
hushaysh
husn
hussein
hutuba
hydroelectric
hyla
hylochoerus
hyphen
hyphenated
hyphens
hystrix
i
ia
ian
iba
ibam
iben
ibibio
ibibionima
ibis
ibliisa
ibliisu
ibm
ibn
ibnu
ibrahim
ibrahima
ibrahimah
ibun
icca
iccn
iccrom
ice
icescr
icomos
icon
icons
ict
id
idaho
idda
iddi
iddrisu
idea
ideal
ideas
identification
identified
identifier
identifiers
identifies
identify
identity
idris
ids
iduskbn
ie
if
iglesias
ignatius
ignored
igo
ihraami
ii
iii
iimaani
iimaansili
iimam
iin
iir
iiri
ikhanate
ikli
il
ila
ilah
ilanima
ilkhanate
illadopsis
illegal
illinois
illustrated
illyricorum
ilyas
im
ima
image
images
imaging
imam
imamate
imbricata
imf
img
immediately
imoro
impact
impaired
imperial
implementation
implemented
implications
implied
importance
important
improve
imraana
in
ina
inabi
inactive
inappropriate
inc
inca
inches
incident
include
included
includes
including
inclusive
incomplete
incorporated
incorrect
incremented
indent
indents
independence
independent
index
india
indian
indiana
indicate
indicated
indicates
indication
indicator
indice
indigo
indigoberry
individual
indo
indonesia
industrial
industry
ine
inflation
influence
influences
influential
info
infobox
infoboxes
information
infrastructure
inhabitants
ini
initial
initials
initiative
initiatives
injection
injiila
inline
inner
inooro
inpa
input
inscribed
inscription
inscriptions
insects
insert
inserted
inserting
inserts
inside
insolvency
inspector
instagram
instance
instead
institut
institute
institution
institutional
instituto
instructions
insufficient
insurance
int
inte
integrated
intelligence
intended
intensification
intensive
intention
intentional
inter
interaction
interest
interface
interior
interlanguage
intermediate
intern
internacional
internal
internally
international
internazionale
internet
intervening
interviewer
into
intro
introduced
introducing
introduction
inusah
invalid
invasion
invasive
invertebrates
investment
invictus
invisible
invocations
invoke
invoked
iot
iowa
iptv
ir
iran
iraq
iraqi
ireland
iri
iringa
irish
iron
irqxn
irrigated
irrigation
iryani
is
isa
isaac
isbn
isbns
ishaq
ishtar
isil
isiokpo
isis
islam
islamia
islamic
island
islands
islets
isma
ismaaila
ismaili
ismn
iso
isra
israa
israaila
israel
israeli
israelinima
isreal
issa
issac
issah
issahak
issahaku
issaka
issifu
issn
issue
issues
issuing
ist
istanbul
isthmus
it
itali
italia
italian
italic
italicized
italics
italy
item
itemid
items
itikaafi
its
itself
ituri
itv
iucn
iucnredlist
iv
ivoire
ivoirienne
ivory
ivy
ix
ixzz
iyaali
izibli
izz
j
ja
jaa
jaagbo
jaaji
jaamani
jaamaninima
jaande
jaangbee
jaashee
jaashɛhi
jabal
jachie
jack
jackson
jacob
jacobu
jacques
jade
jadid
jae
jaen
jaffa
jagbo
jah
jahannama
jahi
jahinfo
jahrbuch
jain
jakam
jakarta
jakpa
jalloum
jalud
jam
jama
jamaica
jamba
jambu
jamdi
james
jamme
jan
janad
jandi
jandila
jane
janet
jangbara
jangbariga
jangbarisi
jankuno
janpolad
jansi
jantuah
january
janus
jao
japan
japanese
japass
jasikan
java
javascript
jawali
jawhary
jaŋ
jaŋa
jaŋgbariga
jaŋkuno
jaŋsi
jc
jdeydeh
je
jean
jeannette
jebuni
jebus
jee
jeff
jefferson
jeffrey
jehonadab
jelinsi
jema
jemila
jendi
jengama
jenner
jennifer
jero
jerry
jersey
jerusalem
jerusalemwalls
jesus
jet
jetport
jew
jewish
jewishnima
jewna
jewnima
jews
jfm
jhs
ji
jia
jibla
jibril
jifa
jihadi
jihadis
jihi
jiiwanmaata
jila
jilima
jilimalan
jilimalana
jilin
jilma
jilo
jimah
jimli
jina
jinaduu
jinapor
jinjam
jinjɛm
jinn
jintora
jintori
jintoriba
jintoribi
jintoritali
jintɔr
jintɔra
jintɔraba
jintɔri
jintɔriba
jintɔritali
jiramisa
jirapa
jiri
jirilɔŋ
jiso
jisonaayili
jisonayili
jiya
jiŋ
jiŋa
jiŋlaa
jiŋlahi
jiŋli
jnr
jo
joachim
joan
job
joe
joel
johann
johannesburg
john
johns
johnson
join
joint
joinville
jomoro
jonathan
jones
jonh
joograafi
joografi
joographer
jordan
jordanean
jordanian
jose
josef
joseph
josephus
joshua
journal
journalism
journalist
journals
joy
joyce
jpg
jr
js
jss
jstor
ju
juaben
juan
judaism
judea
judicial
juhi
julia
julian
juliana
julio
julius
july
jump
jun
june
junior
jupiter
juri
just
justice
justinian
juuna
juɣu
jɛ
jɛba
jɛduɣiri
jɛhi
jɛli
jɛlinsi
jɛm
jɛma
jɛmbu
jɛmda
jɛmdi
jɛmdigu
jɛmmi
jɛnda
jɛndi
jɛndila
jɛndiri
jɛngama
jɛngbariga
jɛngbarisi
jɛnkuno
jɛra
jɛrigu
jɛrilim
jɛŋkun
jɛŋkuno
k
ka
kaa
kaaba
kaabu
kaaf
kaagi
kaai
kaaibu
kaali
kaani
kaansili
kaapintanima
kaari
kaaro
kaaruuna
kaasile
kaba
kabachewura
kabaka
kabakas
kabara
kabi
kabigi
kabina
kabinɛti
kabiri
kabiru
kabisi
kabo
kabsi
kabɛ
kach
kachaɣu
kachɛ
kachɛɣu
kadama
kader
kadi
kadinyɛla
kadir
kadlubowska
kaduna
kaebi
kafaara
kafuni
kah
kaha
kahi
kahigi
kahigibu
kahigila
kahigimi
kahigiri
kahigirila
kahikahi
kahili
kahu
kahuzi
kai
kakpagyili
kakpaɣu
kala
kalahi
kalb
kaleem
kalenjin
kaleo
kali
kalibu
kalili
kalim
kalinima
kalinli
kalinlidaa
kalinlikalinli
kalinlipaɣaba
kalinsi
kalinyaɣu
kalipohini
kalisco
kaliŋkaliŋ
kalli
kalo
kaloŋ
kalpohin
kalpohini
kaluɣi
kalɔŋ
kam
kama
kamaa
kamaata
kamai
kamaldeen
kamali
kaman
kamani
kamanii
kamantoonsi
kamat
kambaŋa
kambaŋyili
kambon
kambonnaa
kambonnakp
kambonsi
kambonsili
kamboŋsi
kambɔnsi
kambɔntiŋa
kambɔŋ
kami
kamina
kammɔnnaa
kamona
kamonaa
kampakuya
kampala
kampee
kampeen
kamshe
kan
kana
kanal
kanbonpaɣa
kandi
kane
kaneshie
kani
kanimina
kanina
kanli
kanlili
kanna
kano
kansas
kansili
kantara
kanton
kanubala
kanvili
kanvuli
kanwa
kanyɛla
kao
kaoniŋ
kaoy
kapa
kar
kara
karachi
karachinima
karaga
karakara
karbo
karen
kari
karibu
kariga
karigu
kariguŋ
karikari
karili
karim
karima
karimba
karimbaan
karimbaani
karimbakpamba
karimbakpeen
karimbakpɛma
karimbanima
karimbatali
karimbaŋsim
karimbi
karimbihi
karimbikura
karimbisarinsi
karimbu
karimdi
karimdu
karimduri
karimi
karimla
karimma
karimmi
karimu
karimzɔna
karimzɔndi
karimzɔŋ
karinaa
karinda
karindi
karinzona
karinzoŋ
karinzoŋkara
karinzɔndi
karinzɔŋ
karita
kariti
karitila
kariwana
kariya
kariŋ
kariŋzoŋ
karl
karli
karo
karunzoŋ
karuŋ
kasaligu
kasanowsky
kashi
kasi
kasigiriba
kasise
kasitilinima
kasiɣira
kasiɣiri
kasiɣiriba
kasiɣiribila
kasiɣiritali
kasiɣisiriba
kasiɣitali
kass
kastili
kastilinima
kasubi
kasuli
kasulilana
kasuliyili
katari
katariga
kate
katherine
kathleen
kati
katigori
katikiisi
katilikinima
katini
katiŋ
katiŋa
katsina
kavi
kavituma
kawaan
kawana
kawthar
kawula
kay
kaya
kayaba
kayi
kayiŋnaa
kayode
kayola
kayɛlimuna
kaɣili
kaɣiri
kaʒee
kaʒiya
kbc
kc
keep
kemikals
ken
kennedy
kenneth
kent
kente
kentucky
kenya
kenyasi
kerenci
kerinci
kesh
kessben
keta
keteke
kevin
key
keys
keyword
keywords
kezazin
kg
khadijah
khalaf
khaled
khalid
khalil
khan
khans
kharid
khashab
khattab
khatun
khirbet
khosrow
khumis
khwarezm
ki
kibi
kibw
kikaa
kikuyu
kilometer
kilometers
kilometres
kilomita
kilomitanim
kinbu
kind
kindergarten
king
kingdom
kingfisher
kings
kingsley
kingston
kinkansi
kinship
kintampo
kiri
kirsi
kisaasi
kisan
kiss
kiswahili
kit
kitbugha
kite
kites
kivu
klaus
klein
klottey
km
knees
knights
know
knowledge
known
knox
knust
knut
ko
kob
koba
kobga
kobgi
kobi
kobiga
kobigi
kobigu
kobil
kobilga
kobili
kobiliga
kobiligi
kobilisi
kobilnin
kobilnina
kobina
kobiri
kobishii
kobisi
kobisinahi
kobisinii
kobisinu
kobisita
kobisiwɔi
kobisiyi
kobisiyobu
kobisiyopɔin
kobituɣa
kobiɛri
kobiɛɣu
koblimahagu
kobri
kobsi
kobu
kobus
kochim
kodu
kofi
koforidua
kogbana
kogbaŋ
kohi
kohibu
kohimma
kohira
kohiri
kojo
kok
koko
kokomelemele
kokpaɣu
kokpɛɣu
kola
koli
koliba
koligu
kolikoli
kolivaai
kom
koma
komahim
komare
kombonnaa
komenda
komfo
komitii
kompani
kompatiisa
kompatisa
kompatisanima
kompiita
kompini
komputa
kon
kong
konko
konkoba
konkpiɣi
konkɔba
konongo
konsi
konyur
konyuri
konyurim
koofi
kookali
kookoo
kooms
kooni
kootu
kootuni
kopaliga
kopaligu
kopu
kopunim
kora
koranteng
kore
korea
korean
kori
korili
koriome
korisi
korle
koro
korona
kosoli
kosovo
kosunsuni
koti
kotoklo
kotoko
kotomsi
kotulim
kotulum
koulibaly
kounti
koyibga
koyibiga
koyra
koŋ
koŋko
koŋkoba
koɣa
koɣi
koɣili
kp
kpa
kpaa
kpaabu
kpaagi
kpaai
kpaakpa
kpaakpaa
kpaakuto
kpaam
kpaambihi
kpaambirigu
kpaami
kpaan
kpaara
kpaari
kpaaya
kpabi
kpabri
kpabu
kpachaa
kpagmag
kpahi
kpahibu
kpahiga
kpahigbaŋ
kpahim
kpahimbu
kpahimi
kpahimmi
kpahin
kpahinda
kpahindila
kpahiri
kpakahili
kpakparishɛli
kpakpili
kpakpiya
kpakpuli
kpala
kpalan
kpalanzua
kpalanzuya
kpalatalahi
kpalaŋ
kpali
kpaligbaŋ
kpaligu
kpalim
kpalimla
kpalimmi
kpalimya
kpalin
kpalinda
kpalindi
kpalindila
kpalinkpaa
kpalinsi
kpalisogu
kpaliŋga
kpaliŋkpaa
kpalsogu
kpam
kpama
kpamba
kpambal
kpambala
kpambali
kpambaliba
kpambi
kpambirigu
kpamdi
kpami
kpamli
kpan
kpana
kpanalana
kpanashe
kpandaa
kpandaalana
kpandai
kpani
kpanjoɣu
kpanjɔri
kpanjɔɣu
kpansi
kpapili
kpar
kpara
kpargu
kpari
kpariba
kparibu
kparibua
kparibɔɣiri
kparibɔɣu
kparigu
kparili
kparilim
kparima
kpariti
kpatabo
kpatia
kpatindariga
kpatindarinsi
kpating
kpatiuɣa
kpatiŋa
kpatu
kpatuya
kpatuɣ
kpatuɣa
kpatɔɣa
kpaya
kpaŋ
kpaŋa
kpaŋdi
kpaŋdila
kpaŋkpa
kpaŋmaŋ
kpaŋmaŋa
kpaŋmi
kpaŋsi
kpaŋsibu
kpaŋsila
kpaŋsili
kpaŋsim
kpaŋsira
kpaŋsiri
kpaŋsirila
kpaɣ
kpaɣi
kpaɣibu
kpaɣiri
kpaɣiribu
kpaɣiriri
kpaɣiro
kpaɣisi
kpaɣisila
kpaɣu
kpaɣuʒɛɣu
kpe
kpebu
kpedze
kpee
kpeei
kpeeini
kpeen
kpeenbiɛɣu
kpeeni
kpeera
kpeeri
kpeeyi
kpegu
kpehi
kpela
kpeli
kpem
kpema
kpembe
kpena
kpene
kperi
kperigu
kpetoe
kpeya
kpeŋ
kpeɣu
kpi
kpibga
kpibiga
kpibisi
kpibsi
kpibu
kpihi
kpihiga
kpihim
kpihinda
kpihiri
kpiimba
kpiimbi
kpiin
kpikpali
kpila
kpilli
kpilo
kpim
kpima
kpimba
kpimbee
kpimi
kpimkpama
kpina
kpini
kpinkpama
kpinyi
kpira
kpiri
kpirila
kpirimi
kpiya
kpiŋ
kpiɛhi
kpiɛla
kpiɛm
kpiɛri
kpiɛŋ
kpiɣi
kpiɣiba
kpiɣibu
kpiɣimi
kpiɣio
kpiɣiri
kpukparisi
kpula
kpuli
kpulli
kpunduli
kpunkpaamba
kpunkpama
kpunkpanguhi
kpunkpono
kpuri
kpurima
kpuŋ
kpuŋi
kpuɣ
kpuɣi
kpuɣibo
kpuɣibu
kpuɣila
kpuɣili
kpuɣimi
kpuɣinambu
kpuɣinimbo
kpuɣinimbu
kpuɣinumbo
kpuɣiri
kpuɣirila
kpuɣu
kpɛ
kpɛbu
kpɛhi
kpɛhili
kpɛhiri
kpɛla
kpɛli
kpɛm
kpɛma
kpɛna
kpɛra
kpɛri
kpɛribu
kpɛrigu
kpɛrikpɛrita
kpɛrikpɛritibi
kpɛrila
kpɛrili
kpɛrimi
kpɛrina
kpɛrita
kpɛriti
kpɛritiba
kpɛritibi
kpɛritimaa
kpɛŋ
kpɛɛni
kpɛɣu
kqmnr
krak
krat
kreiger
krieger
krobo
krobonima
krowor
kru
ksar
ktn
ku
kuba
kubhi
kubihi
kublenu
kubu
kudi
kudjoe
kuduli
kudus
kudusadari
kudzo
kuffour
kufic
kufour
kufuor
kufɔɣu
kuga
kuhi
kuhibu
kuhigu
kuhira
kuhiri
kuhrt
kujooni
kukojilgu
kukoli
kukoo
kukoya
kuku
kukuo
kukɔri
kukɔɣili
kul
kula
kulaa
kulahi
kuldaa
kuli
kulibona
kulibu
kulibɔna
kulibɔnani
kulibɔŋ
kuliga
kuligi
kuligu
kulikara
kulikpuni
kulikula
kulikuli
kulim
kulima
kulimi
kulinoli
kulisi
kulisila
kulo
kulu
kulunku
kum
kuma
kumahi
kumahili
kumari
kumasi
kumbiɛɣu
kumbu
kumbun
kumbung
kumbungu
kumbunnaa
kumbunŋ
kumbuŋ
kumda
kumdi
kumdila
kumlan
kummi
kumsi
kumtili
kun
kuna
kundi
kundili
kundinim
kundinima
kundivehira
kundivihira
kundivira
kundoni
kundu
kunduli
kunduna
kunduni
kundunima
kunduvihira
kunduŋ
kundɛvihira
kuni
kunila
kunkuna
kunkwa
kunna
kunya
kuori
kur
kura
kuraa
kuraani
kuraishinim
kurani
kuranima
kuraya
kurdish
kurdistan
kurds
kurgi
kurginsim
kuri
kuriba
kuribi
kuriga
kurigaa
kurigi
kuriginsim
kurigu
kuriili
kurila
kurili
kurimbuni
kurinbunni
kurinda
kuriti
kurli
kuro
kuronima
kurt
kuruchu
kuruchunima
kurug
kurugu
kurumbuna
kurumbuni
kurumbuninim
kurummi
kusahi
kusasi
kusawgu
kushan
kushans
kushebo
kushibo
kutama
kutooi
kutu
kuui
kuul
kuundi
kuundunima
kuuni
kuura
kuure
kuuri
kuwait
kuya
kuyila
kuyili
kuyiya
kuŋ
kuŋa
kuŋmani
kuɣ
kuɣa
kuɣi
kuɣili
kuɣinli
kuɣisi
kuɣititariga
kuɣiŋli
kuɣu
kuɣubila
kuɣulana
kuɣuli
kuɣulɔɣu
kuɣusi
kuɣuwaɣila
kv
kwa
kwabena
kwadaso
kwadwo
kwafie
kwaku
kwame
kwamena
kwara
kwasi
kweku
kwesi
kyeretwie
kyo
kɔ
kɔb
kɔba
kɔbbu
kɔbga
kɔbi
kɔbiga
kɔbigi
kɔbigu
kɔbili
kɔbilinina
kɔbiri
kɔbishi
kɔbishii
kɔbishinahi
kɔbishita
kɔbishiyi
kɔbisi
kɔbisinahi
kɔbisinii
kɔbisinu
kɔbisita
kɔbisiyopɔin
kɔbisiyɔbu
kɔbli
kɔbsita
kɔbtugili
kɔbu
kɔchim
kɔhi
kɔhibu
kɔhigoriba
kɔhigu
kɔhigɔriba
kɔhilu
kɔhim
kɔhimma
kɔhingu
kɔhira
kɔhiri
kɔli
kɔligu
kɔm
kɔma
kɔmitii
kɔmpilimɛnti
kɔmpini
kɔmplimɛnti
kɔndɔɣitenima
kɔnko
kɔnsonanti
kɔnsɔnatinima
kɔntifaya
kɔntifayanima
kɔntiraaji
kɔntiraajitira
kɔntiraajitiriba
kɔnyur
kɔnyuri
kɔpula
kɔr
kɔra
kɔre
kɔrgi
kɔrgibu
kɔri
kɔribu
kɔrigi
kɔrigila
kɔrigili
kɔrili
kɔrisi
kɔriti
kɔrsi
kɔshinahi
kɔya
kɔŋ
kɔŋa
kɔŋbu
kɔŋdi
kɔŋko
kɔŋkoba
kɔŋkɔba
kɔŋla
kɔɣa
kɔɣi
kɔɣibu
kɔɣila
kɔɣira
kɔɣisi
kɔɣu
l
la
laa
laaba
laadi
laafee
laakum
laakumi
laam
laamba
laambi
laamihi
laara
laasabu
laasabumaalibo
laati
lab
labalaba
labbu
label
labels
labi
labiboli
labikabishira
labila
labimi
labina
labira
labiri
labirila
labirimi
labisi
labisibu
labisila
labisili
labisira
labisiri
labisoo
labmi
labone
laboratory
labour
labra
labrador
labri
labrisuŋ
labsi
labsila
labsim
labsiri
labu
labyrinth
lac
lack
lackner
ladabsi
ladies
ladipo
lady
laga
lagerheim
laghman
lagoon
lagos
laguna
laguncularia
lahabali
lahabaya
lahabli
lahaʒibu
lahi
lahibal
lahibali
lahibaya
lahima
lahimgbana
lahingu
lahinli
lahiri
lahiʒiba
lahiʒibsi
lahiʒibu
lahore
lai
laid
laka
lake
lakes
lal
lala
lalanim
lali
laliga
laligim
laliyɔɣu
lam
lamalee
lamashaɣu
lamashegu
lamashɛɣu
lambu
lambuissie
lambussie
lamdi
lamisi
lammi
lamottei
lampoo
lan
lana
land
landfill
landmark
lands
landscape
lane
langer
language
languages
langues
lani
lanius
lannea
lansiisi
laos
lara
larbu
larbunim
larbunima
lardi
large
larger
largest
largi
largiri
largirila
largo
lari
lariba
laribaawa
laribaawanima
laribanchi
laribu
laribunima
larigi
larigim
larigu
larila
lartey
las
last
lastn
lat
late
later
latin
latisiliquum
lauhul
laurent
lava
laval
law
lawra
lawrence
laws
lawyer
lawyers
lay
layout
laysummary
laŋ
laŋim
laŋindila
laŋisi
laŋlana
laɣ
laɣafu
laɣam
laɣangu
laɣari
laɣi
laɣibihi
laɣibu
laɣidibo
laɣidihigu
laɣidili
laɣidira
laɣifu
laɣikpahira
laɣim
laɣimba
laɣimbu
laɣimdi
laɣimia
laɣimla
laɣimmi
laɣimna
laɣimya
laɣin
laɣinda
laɣindi
laɣindila
laɣingu
laɣinsi
laɣinyɔri
laɣipaŋda
laɣiri
laɣisi
laɣisiri
laɣizaa
laɣiŋgu
lb
lccn
ldcs
le
lead
leader
leadership
leading
league
leaning
learn
learner
learning
leasing
least
leather
leave
leaving
lebanese
lebanon
lebda
lebgi
lebgiri
lebi
lebigi
lebigibu
lebigimsim
lebiginsim
lebri
lebrimi
lecture
lecturer
ledzokuku
lee
leebu
leegi
leegu
leei
leeila
leela
leema
leemi
leemu
leera
leeri
left
legacy
legal
legend
leghari
legio
legion
legions
legislative
legitimate
legon
leiden
leipard
lela
lelena
leluh
lem
length
leo
leonardo
leone
leopard
leopards
leopold
lepcis
lepomis
leptis
leptospermum
leri
les
lesotho
less
let
letter
letters
leucocephala
leucocephalus
leuser
levant
levees
level
levels
levy
lexico
lez
lfndya
lgbtq
lgi
lgira
lgiri
lgirila
li
liba
liberation
liberia
liberian
libertad
liberte
liberty
libigira
libigirili
library
libri
librinima
librinimni
libu
libya
libyan
license
licensed
lie
lieutenant
life
liga
ligbahira
light
ligi
ligira
ligiri
ligu
liha
lihi
lihibu
lihigu
lihila
lihili
lihimi
lihira
lihiri
lihirili
lihu
likam
like
likely
likpahinda
likpahindili
likura
lila
lilly
lily
lim
lima
limaa
limam
limama
limamanima
limann
limaŋ
limaŋli
limaŋlinim
limaŋlinima
limaŋtibo
limbo
limestone
limi
limit
limitations
limited
limits
limkom
limli
limo
limsi
limsim
limsiri
limuɣisira
lin
lina
lincoln
line
lines
ling
lingbuŋ
linguistics
lini
linjima
linjimanima
linjin
link
linked
linkedin
linki
linking
linkn
links
linsi
lintel
lion
lions
lippotibu
liri
liriba
liribu
lirigu
liriti
lisa
lish
lishɛŋa
list
listed
listeria
listeriabot
listing
listn
lists
listserve
liststyle
lit
litaafi
litaafinim
litaafinima
literacy
literature
lithur
litigation
litiricha
little
liu
live
lived
living
liwa
lix
liya
liŋa
liŋgbuŋ
liŋiri
liɛbi
liɛbigi
liɛlisi
liɛm
liɛɣu
liɣ
liɣi
liɣidibo
liɣiri
ljaitu
ljevis
ll
lla
llb
ller
lli
llikam
lll
lllinois
lma
lmaŋli
lmuɣisira
lo
loam
loba
lobata
lobate
lobu
loc
local
locales
locals
located
location
locations
lodge
loggerhead
logging
logo
lois
lola
lom
lona
london
long
longer
lontra
loo
loobu
loogi
looi
look
looking
looks
loora
loori
loorili
loorimi
loorinima
looting
looya
looyanima
lopata
lora
lord
lordina
lorenzo
los
lost
louis
louisa
louisiana
lovins
low
lower
lowercase
lowland
lowlands
loxodonta
loɣu
lson
lt
ltd
ltv
ltɔɣ
ltɔɣa
ltɔɣabaŋsim
ltɔɣali
ltɔɣili
ltɔɣinima
ltᴐŋa
ltᴐŋili
lu
lua
luanda
luau
lubango
lubu
luc
luca
lucas
lucy
ludovicianus
ludwig
lugo
lugogye
luhi
luhila
luhili
luhiri
luis
luke
lukman
lukmanu
lukpaa
luku
lula
luli
lumber
lun
luna
lunda
lundihi
lundɔli
lunfa
lunkuɣura
lunkɔbili
lunnaa
lunsi
lunsili
luntali
luntamdigu
lunzahim
lunzoo
lunʒiɛɣu
lunʒɛiɣu
luo
lura
luri
lurila
lurili
luro
lusaka
luther
lutjanus
lutu
luutu
luwa
luya
luŋ
luŋa
luŋi
luŋsi
luŋtali
luɣ
luɣa
luɣi
luɣili
luɣilikam
luɣish
luɣishɛli
luɣishɛŋa
luɣj
luɣli
luɣu
luɣuli
luɣulikam
luɣuluɣu
luɣush
luɣushɛli
luɣuyini
lvaro
lvoire
lycaon
lyck
lynn
lysiloma
lɔ
lɔba
lɔbanima
lɔhi
lɔhiri
lɔna
lɔra
lɔri
lɔŋ
lɔŋni
lɔɣi
lɔɣibu
lɔɣibuli
lɔɣiri
lɔɣirila
lɔɣu
lɔɣubuya
lɔɣubuyanaa
lɔɣulana
lɛ
lɛbgimsim
lɛbginsim
lɛbi
lɛbigi
lɛbigibu
lɛbigila
lɛbigili
lɛbigimsim
lɛbiginsim
lɛbigira
lɛbigiri
lɛbigirili
lɛbila
lɛbiri
lɛbirila
lɛbu
lɛhiri
lɛlisi
lɛm
lɛri
m
ma
maa
maaa
maachi
maachinima
maagaʒiiyanima
maagi
maai
maaki
maali
maalibu
maaligu
maame
maamoun
maan
maana
maanda
maandi
maani
maanila
maanili
maanima
maannews
maapu
maasim
maazuuzu
mabang
mabdb
mabel
mabi
mabia
mabihi
mabiligu
macaw
macbeth
macc
macca
macedon
macheligu
machicolations
machine
machɛla
machɛligu
machɛlinim
machɛlinima
macrianus
macrochirus
mad
madagascar
madam
made
madi
madina
madinanima
madol
madrasa
madrasah
madrasas
madrid
madyana
madyananim
maelukenima
maeonius
mafraj
maga
magazine
magazines
maghreb
magic
magistrates
magna
magnes
magnificent
mah
maha
mahali
mahama
mahamadia
mahamadiiya
mahamadiya
mahamadu
mahamaru
mahamaŋ
mahami
mahammadu
mahammaru
mahammaŋ
mahamud
mahamudu
mahamuru
mahdi
mahfuuz
mahfuuzu
mahi
mahigi
mahili
mahim
mahmoud
mahmud
mahogany
mahram
mai
maigala
mail
mailing
mailto
main
maine
mainland
mainspace
maint
maintain
maintenance
majeed
major
maka
makanima
make
makes
makhalifs
making
makka
makpema
mal
mala
malaaika
malaaikanim
malaaikanima
malakbel
malanje
malawi
malek
malfa
malformed
malgu
mali
maliba
malibi
malibu
malifa
maliga
maligim
maligu
malihaliya
malik
malila
malili
malilia
malima
malimali
malimi
malinja
malisa
malish
malishɛɣu
malisi
malitima
maliyɔɣiri
maliŋ
maliŋa
malla
malli
malo
malshegu
malshegunima
malta
maltima
maltiti
mamboah
mamluk
mamluknima
mamluks
mamma
mammals
mammaŋ
mammaŋa
mampong
mamprugu
mamprusi
man
mana
manaara
managed
management
manager
managing
manasib
manatee
manatus
manchester
manchisi
mandate
mandatory
mandela
maneeka
manfred
mangle
mangrove
mangroves
manguli
manhattan
manhean
mani
manila
manim
manima
manitoba
maniyyi
mankaanu
mankaranta
mannikin
manovo
mansa
manshishiilo
mansion
manso
mansur
mantile
mantled
manual
manually
manuscript
many
manya
map
mapcarta
mapira
maps
maqam
mar
mara
maraaba
marafa
marafanima
marbaki
marble
marcel
marcg
march
marchand
marchetti
marchi
marcos
margaret
margat
margin
mari
mariam
mariama
mariamite
marie
marietta
marifanima
marigi
marina
marine
mario
maritime
maritimus
mariyam
marjory
mark
markaz
marked
marker
markers
market
marketing
markets
marks
markup
marl
marne
marrash
marriage
mars
marsh
martey
martha
marti
martin
martinez
martins
marueen
maruf
marwan
marxist
mary
maryland
mas
masaka
masakhane
mashina
masia
masiihu
masita
masiya
masjid
mask
masonry
mass
massachusetts
massow
masssly
master
masters
mataheko
match
matches
matching
mateh
material
math
mathematical
mathematics
mathematik
mathews
maths
matibiri
matilda
matlab
matpc
mattabol
matter
matters
matthew
matthews
matthiae
matuuka
maurice
mauritania
mauritius
mausolea
mausoleum
mawuli
mawza
max
maximum
maximus
maxwell
may
mayaankalɛhi
maybe
mayili
mayor
maysoleums
mazzika
maŋ
maŋa
maŋli
maŋmaŋ
maŋmaŋa
maŋsi
maŋsulinsi
maŋsulunsi
maɣisi
maɣisiri
maʒin
maʒina
maʒini
maʒɛni
mba
mbahiga
mbala
mbe
mbila
mbooni
mburidiba
mbuti
mbɛ
mccarthy
mce
mckibben
mclaughlin
mda
mdanima
mdi
mdigu
mdila
mdy
me
meadowlarks
meaning
meaningful
meanings
measurement
mebu
mecca
medal
medes
medi
media
mediafritiq
mediamax
mediawiki
medical
medicine
medieval
meditation
mediterranean
medium
mee
meei
meensi
meetings
meeŋa
megaceryle
megaflops
megillat
meinertzhageni
melaleuca
melanesia
melanie
meleagris
melkite
melody
member
members
memi
memorial
memunatu
men
mendes
menka
mensa
mensah
mentioned
mentioning
mentions
mer
mera
mercury
mercy
meri
merriam
mesa
mesherky
mesopotamia
mesopotamian
message
messages
met
meta
metadata
meter
meters
method
methodist
methods
metopium
metre
metres
metric
metro
metropolis
metropolitan
metz
mexican
mexicans
mexico
mfantsepim
mfantsiman
mgoliŋga
mgoliŋgalana
mhz
mi
mia
miami
mibi
mibu
miccosukee
michael
michel
michelle
michigan
michy
micronesia
microscope
microsoft
mid
middle
midfielder
midhat
midin
midwestern
might
mihi
mihrab
mii
miim
miin
miiri
miisim
mika
mike
mikeno
mikhlaf
mila
milan
mile
miles
milgi
milgiri
milh
mili
milimi
milimitanim
milindigu
milinsi
militaire
military
militias
miliyɔŋ
millenium
millennium
miller
millicent
million
milliyɔŋ
mills
milo
mim
mima
mimar
mimus
min
mina
minaret
minarets
mind
mine
mines
mini
minimum
mining
minisita
minista
minister
ministers
ministries
ministry
minks
minneapolis
minnesota
minnister
mino
minor
minority
mins
mint
minti
minus
minute
minutes
minyɛ
mio
mion
mioŋ
mira
mirabilis
mirdasid
mirdasids
miri
miribu
mirila
mirisi
miriti
misaali
misra
miss
missing
mission
missionaries
mississippi
missouri
mit
mita
mitanim
mitanni
miti
mitsubishi
mixed
miya
miyi
miɔŋ
miɛbu
miɛŋ
miɛŋlan
miɣisiɣu
ml
mm
mma
mmanaayili
mmda
mmdanima
mmi
mnla
mo
moammer
mobile
mobility
mobilization
mocha
moche
mochia
mockingbirds
mod
mode
model
modern
modernghana
modified
module
moesia
mof
mofa
mogɔriba
mohamed
mohammad
mohammaŋ
mohammed
mohammmed
mohi
moiloa
mojiligu
mokpalli
mokuma
molard
mold
molding
moldovan
mole
moleskine
moli
mollusks
molo
mololana
momo
momori
mona
monaco
monarchy
monastery
monday
mondi
moneda
monetary
mongol
moni
monica
monitor
monitoring
monkey
monkwaa
monomɛnti
monospace
mont
montana
montane
montferrand
month
montreal
monument
monumental
monuments
moo
mooi
moolidi
moon
moona
moongu
mooni
moontouch
moora
moore
moori
mopila
mopti
moral
more
morehead
morgan
mori
morning
moro
morocco
morphology
morroco
mortar
mos
mosaic
mosaics
moscow
moses
mosque
mosquitia
moss
most
mother
moto
motor
motto
moulaye
mount
mountain
mountains
move
moved
movement
moving
mozambique
mozilla
moɣa
moɣili
moɣiliŋ
moɣini
moɣu
moɣuni
moʒi
mp
mpa
mpahi
mpahila
mpanga
mpaŋ
mpaŋlana
mphil
mpraeso
mps
mq
mr
mrg
mrs
ms
msc
mst
mu
mua
mubaaya
mubarak
mubson
much
muchacha
mugabe
mughni
mugirah
muh
muhammad
muhammadu
muhammaŋ
muhammed
muhammmad
muhana
muhanna
muhesen
muhtar
muir
mujahid
mukaddas
mukarama
muktar
mulchi
mulichi
multi
multicol
multiple
multispecies
mumuni
munaafichi
munaafichinim
munaafichinima
munaafichitali
mungo
muni
municipal
municipality
munkaila
munkar
muntaka
muqarnas
muralist
murcia
murray
mursilis
murtala
musa
musah
musahfm
museum
museums
museveni
mushe
mushiiba
music
musician
musilim
musilinisi
musilinsi
musilm
muslim
muslimi
muslimnim
muslims
muslin
muslinnim
muslinnima
muslinsi
must
mustafa
mustapha
musulim
musulimi
musulimmi
musulimnima
musulin
musulinima
musulinisi
musulinnima
musulinsi
musulmi
musulunsi
musuulo
mutala
mutawakel
mutebi
muteesa
muthalib
muthoni
muuru
muzibu
muŋisigu
muɣi
muɣili
muɣiri
muɣisi
muɣisibu
muɣisigu
muɣisira
muɣisiri
muɣisirili
muɣjizah
muɣujiza
muɣujizah
muɣusigu
mv
mw
mwangaza
my
mycteria
mydas
myers
myjoyonline
mɔ
mɔfim
mɔhi
mɔli
mɔni
mɔnibu
mɔri
mɔrilana
mɔŋ
mɔŋdi
mɔŋdila
mɔɣ
mɔɣa
mɔɣi
mɔɣilaa
mɔɣili
mɔɣini
mɔɣisi
mɔɣu
mɔɣubihigu
mɔɣuni
mɛ
mɛbi
mɛbima
mɛbo
mɛbu
mɛbɛ
mɛhi
mɛla
mɛli
mɛmi
mɛra
mɛri
mɛriba
mɛya
mɛŋ
n
na
naa
naaawuni
naabu
naabɔɣu
naafila
naagi
naai
naala
naami
naan
naani
naanigoo
naanton
naantoŋ
naantɔŋ
naanyi
naanzua
naanzuu
naanzuwa
naara
naari
naarimi
naas
naawun
naawuni
naaya
naayi
naayili
naazo
nab
naba
nabatean
nabdam
nabgi
nabi
nabia
nabigi
nabihi
nabila
nabipuɣinga
nabipuɣinsi
nabipuɣiŋsi
nabiyɔŋ
nabiɛri
nabu
nabɛri
nachiinsi
nachim
nachima
nachimba
nachimbi
nachimbila
nachin
nachinsi
nachint
nachintɛri
nachinŋmani
nacional
naden
nadia
nadmo
nadowli
nagaŋ
nagbankpeeni
nagbegu
nahar
nahhasin
nahi
nahian
nahigbana
nahigi
nahim
nahimgbana
nahinda
nahindi
nahingban
nahingbana
nahingbaŋ
nahingu
nahiri
nahiya
nahiŋgbana
nahiŋgbaŋ
nahu
nai
nairab
nairobi
najahids
nakohigu
nakpachee
nakpachia
nakpali
nakpanzoo
nakpayili
nakɔhi
nakɔhigu
nakɔhinima
nalerigu
nam
nama
namat
namatiɛri
namatɛri
nambozobo
namboɣu
nambu
nambɔnaa
nambɔoboznaa
nambɔzobo
nambɔzobonaa
nambɔzɔbo
nambɔzɔhigu
nambɔzɔrikpeeni
nambɔɣu
namda
namdanima
namdi
namdila
namdili
namdu
name
named
names
namespace
namgban
namgbana
namgbani
namgbaniyini
namgbankpeeni
namgbanyini
namibia
namin
namkuɣu
namla
namlana
namni
namo
namsim
namtɛri
namzuya
namɔɣu
namɛŋ
namʒishɛli
nan
nana
nancy
nandaamba
nandamba
nandana
nandi
nandom
nangban
nangbani
nangbankpaŋa
nangbankpeeni
nangbantɔtim
nangbanyini
nangbaŋ
nani
nanila
nanim
nanima
nanna
nantariga
nanton
nantong
nantoo
nantoŋ
nantɔŋ
nanumba
nanunli
nanuŋ
nanvili
naomi
napari
napaɣa
napaɣaba
naples
napoleon
napona
naporo
napoŋ
napɔmboba
napɔna
napɔŋ
napɔɣu
nara
naram
nargis
narh
nari
narila
narili
narim
narimbu
narindi
narjis
narrow
nartey
nasara
naser
naseri
nashaara
nashaaranim
nashaaranima
nashiru
nasir
nasiru
nasr
nasra
nasser
nat
nathaniel
nation
national
nationalgeographic
nationalist
nations
native
natural
naturalist
nature
nautical
navarra
navigation
navrongo
nawuni
nawunni
nawwuni
naya
nayahili
nayi
nayili
nazuɣiri
nazuɣu
naŋgban
naŋgbanyini
naɣ
naɣabi
naɣachinsi
naɣatibch
naɣbiɛɣu
naɣi
naɣibila
naɣibiɛɣu
naɣibu
naɣichiinsi
naɣila
naɣilaa
naɣilani
naɣilao
naɣinyili
naɣisi
naɣisibu
naɣisim
naɣisira
naɣisiri
naʒin
nbe
ncbi
ncd
ncp
nd
nda
ndaa
ndaan
ndan
ndc
ndcti
ndeegi
ndewura
ndez
ndi
ndpc
ne
near
nearly
nebraska
nebuchadnezzar
nebulosus
necessary
necked
necropolis
nee
neebu
need
needed
needs
neegi
neei
neein
neeli
neema
neen
neena
neeni
neera
neeri
neesim
neeya
neg
negation
negative
nei
neighborhoods
neighbourhood
neim
nelson
nema
neo
neogale
neolithic
nergal
nero
nessie
nest
nested
net
netflix
netherlands
network
networks
neuman
neural
neutral
nevada
never
new
newfoundland
newly
newport
news
newsarchive
newsbank
newsghana
newspaper
newspapers
newtown
newvision
next
ng
ngama
ngari
ngo
ngolomah
nguli
ngwa
ni
nia
niagara
nianima
nib
nibi
nibku
niboli
nibyɛn
nibɔŋɔ
nibɛ
nicaragua
nicator
nicolas
nidaa
nidabba
nidal
nidi
niger
nigeria
nigerian
night
nigro
nih
nihad
nii
niim
niiya
nik
nil
nila
nile
nim
nima
nimaa
nimaaani
nimaani
nimaanilahi
nimba
nimbe
nimbihi
nimbila
nimbiɛri
nimdi
nimgbin
nimgbina
nimgbiŋgbana
nimgbiŋkom
nimkpilli
nimliha
nimmohi
nimmoo
nimmɔhi
nimo
nimohi
nimrud
nimɔhi
nin
nina
ninchini
nindow
nine
nineesim
nineveh
ning
ningbina
ningbiŋ
ningbun
ningbuna
ningbungbaŋ
ningbuŋ
ningo
nini
ninikari
nininvuɣ
ninisabiga
ninkur
ninkura
ninkuri
ninkurigu
ninkurilim
ninkurugu
ninkuunsi
ninliha
ninmɔhi
ninnee
ninneesim
ninni
ninnyambo
ninsab
ninsabiga
ninsabisi
ninsal
ninsala
ninsalanima
ninsali
ninsalima
ninsalinim
ninsalinima
ninsalnim
ninsalnima
ninsarinsi
ninsariŋga
nintam
nintarim
ninth
nintiɣibo
nintiɣili
nintɔri
ninurta
ninviɛla
ninvuŋ
ninvuŋi
ninvuŋishɛba
ninvuɣ
ninvuɣa
ninvuɣi
ninvuɣishɛba
ninvuɣiso
ninvuɣu
ninvuɣuso
ninvuɣusuma
ninyambo
ninyino
ninyula
ninŋ
nio
niono
nip
nir
nira
niraba
niri
nirib
niriba
niribe
niribi
niribini
niribu
nirilim
nisalinim
nisalinima
nit
niti
nitiwul
nitrates
nivuɣ
nivuɣu
niwoyyo
nixon
niy
niya
niyanima
niyi
niyya
niŋ
niŋbu
niŋda
niŋdi
niŋdiba
niŋdila
niŋdili
niŋdimi
niŋgbina
niŋgbuna
niŋgbuŋ
niŋgoli
niŋgoya
niŋkpali
niŋkura
niŋla
niŋli
niŋmi
niŋmitooni
niŋsanaa
niŋsim
niŋsimdeera
niŋsimdeeri
niŋya
niŋŋarim
niŋʒahannama
niɛm
niɛma
niɛnsuma
niɛŋ
niɣ
niɣi
niɣilim
niɣilimbuɣim
niɣim
niɣima
nj
njata
njcaa
nkansah
nkarannima
nkonya
nkoranza
nkpe
nkransili
nkroful
nkrumah
nkurumah
nkwanta
nla
nlabi
nlabri
nlee
nleei
nlm
nlp
nm
nn
nnyɛ
nnyɛŋun
no
nobel
nobisco
noble
noeditsection
noflip
nohi
nola
noli
nolini
noliwuni
nolori
nolɔri
nolɔɣu
noma
nomaade
nombre
nominal
nomination
non
none
noo
noombihi
noombila
noonbila
noonsi
nooŋa
nor
nordstedt
norhern
normal
normalization
normally
norman
norsaac
norte
nortey
north
northeast
northeastern
northern
northwest
northwestern
norway
not
notable
note
notes
nothing
noticia
nour
nov
nova
novel
novelist
november
now
nowrap
noya
noyala
npindex
npp
nps
nrg
nshima
nsuta
nther
nti
ntileta
ntiletanima
ntilgi
ntim
ntin
ntipahi
ntiri
ntiwul
ntv
nu
nua
nubihi
nuchei
nuclear
nudirgu
nudirgunima
nudirigu
nudiriguwulinluhili
nuhi
nuhu
null
nulla
num
number
numbered
numbering
numbers
numeral
numerals
numeric
numerical
numidia
nunavut
nungua
nupuɣu
nuqum
nur
nurse
nurseries
nursery
nursing
nurudeen
nusuriti
nutali
nutrition
nuu
nuudihibu
nuulana
nuuni
nuzaa
nuzaanima
nuzaawulinluhili
nuzaazuɣu
nuɛ
nuɣiso
ny
nya
nyaa
nyaaga
nyaamŋa
nyaan
nyaana
nyaandoliba
nyaandɔliba
nyaanga
nyaangi
nyaansi
nyaanzum
nyaanŋa
nyaaŋa
nyaaŋabɛ
nyaaŋga
nyab
nyaba
nyabiga
nyabili
nyabisi
nyabu
nyagsi
nyahi
nyakrom
nyala
nyali
nyam
nyama
nyamandu
nyamda
nyamdi
nyami
nyamm
nyamma
nyandoliba
nyanga
nyankpal
nyankpala
nyara
nyari
nyarila
nyarimaŋa
nyavili
nyavuya
nyaya
nyaŋ
nyaŋa
nyaŋda
nyaŋdi
nyaɣa
nyaɣasa
nyaɣili
nyaɣisa
nyaɣisi
nyaɣisibu
nyaɣisili
nyaɣisim
nyaɣsim
nye
nyee
nyela
nyera
nyeri
nyevili
nyevuli
nyihi
nyili
nyimsa
nyin
nyina
nyindɔɣu
nyingokɔrigu
nyingoli
nyingɔli
nyingɔya
nyini
nyinnyaɣu
nyinnyɛhi
nyinnyɛri
nyinnyɛɣu
nyinta
nyintaa
nyintahi
nyintahili
nyinvɔɣu
nyinyaɣu
nyirichoo
nyirivɔɣu
nyiya
nyo
nyohini
nyoli
nyoligu
nyoni
nyooi
nyoori
nytimes
nyu
nyubla
nyubu
nyugbuna
nyuhi
nyuhibu
nyuhiri
nyuhirila
nyuli
nyulinyua
nyum
nyura
nyuri
nyuriba
nyurim
nyuui
nyuuri
nyuya
nyuɣu
nyɔ
nyɔbu
nyɔhi
nyɔla
nyɔm
nyɔmsa
nyɔna
nyɔndi
nyɔni
nyɔri
nyɔŋ
nyɔŋni
nyɔɣi
nyɔɣini
nyɔɣu
nyɛ
nyɛba
nyɛbi
nyɛbili
nyɛbisi
nyɛbli
nyɛbu
nyɛe
nyɛhi
nyɛia
nyɛl
nyɛla
nyɛlaban
nyɛladin
nyɛlaŋun
nyɛli
nyɛma
nyɛmi
nyɛn
nyɛpa
nyɛra
nyɛri
nyɛrifu
nyɛrigili
nyɛrila
nyɛrili
nyɛriʒee
nyɛvia
nyɛvili
nyɛviya
nyɛvuli
nyɛvulilana
nyɛvuya
nyɛya
nyɛŋ
nyɛŋda
nyɛŋdi
nyɛŋsim
nyɛŋun
nyɛŋunnam
nyɛɣisa
nyɛɣisim
nyɛʒahannama
nyɛʒehiimi
nyɛʒiri
nyɛʒirilana
nyɛʒirinima
nyʋ
nyʋla
nzaŋ
nzema
nzo
nɔ
nɔhi
nɔli
nɔlini
nɔm
nɔri
nɔtɛ
nɔŋa
nɔŋsi
nɛ
nɛhi
nɛima
nɛli
nɛm
nɛma
nɛmli
nɣɛla
nʋŋ
o
oak
oasis
obama
obeng
obi
object
objects
observe
observed
observer
observes
obsolete
obuasi
obverse
occidentalis
occupy
occur
occurs
ocean
oceania
ocellatus
ochɛ
oclc
ocquaye
oct
october
oda
odaenathus
odd
odocoileus
odorgonno
odt
odumase
oduro
oecd
of
off
office
officer
official
offinso
offline
offset
offsets
ofisi
ofoase
ofori
oforikrom
ofosu
often
ohio
oi
oikonomous
oil
ois
oj
ojo
oka
okaikwei
okailey
okapi
okasi
okeechobee
oklahoma
okoh
okonkwo
okoro
ol
ola
olawsky
old
older
oldest
olive
ollennu
olosohpa
olufemi
oluwole
olympic
omar
omari
omaŋ
omaŋa
omit
omitted
on
onam
once
ondo
one
ones
oni
oniŋ
online
only
ontario
onward
onyx
ooi
opakis
open
opening
openlibrary
opera
operation
operators
opoku
opossums
oppong
opposed
opposes
opposite
option
optional
options
or
ora
orange
orchids
order
ordinary
ore
oregon
orellana
org
organisation
organiser
organization
organizational
organizations
organized
organizer
orge
orient
oriental
orientation
orig
original
origins
orleans
oromia
orphans
orthodox
oryza
oscar
osei
oslo
osman
ospreys
osroene
osti
osu
osudaku
osudoku
other
others
otherwise
oti
otiko
ottaman
ottawa
otter
otters
otto
ottoman
ottomanima
ottomanimmaa
ottomans
otuam
ouagadougou
oued
ouedraogo
ouled
our
out
outbreak
outcome
outer
output
outputs
outside
outstanding
outwork
oven
over
overall
overland
overridden
overriding
overview
overwritten
oware
owls
own
owned
owusu
owusua
oxfam
oxford
oy
oye
oyi
oyibi
oyo
oyoko
ozaŋ
ozuɣu
p
pa
paa
paabu
paagi
paagu
paahi
paai
paaigi
paaila
paaki
paala
paali
paana
paandi
paani
paanu
paara
paari
paarila
paasita
paati
paatinima
paaya
pabo
pacific
packed
padding
paga
pagaba
page
pages
pagɔra
pagɔrisigu
pagɔrsigu
pahi
pahibu
pahigu
pahila
pahili
pahimi
pahipahi
pahira
pahiri
pahirila
pahirimi
pahiya
paid
painter
pair
paired
pakistan
pakistani
pako
pakochia
pakochiha
pakoguliba
pakokom
pakoli
pakolim
pakopanda
pakopandi
pakopandiba
pakopiɛla
pakopiɛlalana
pakosaba
pakotaba
pakotima
pakotimalana
pakoya
pakpanda
pakpaŋ
pakurugu
pal
pala
palace
palatinate
palea
palestine
palestinian
palestinians
palestinnima
palestunian
pali
palibi
paligi
paligiya
palim
palimenti
palimi
palimpalim
palimɛnti
palisade
palistin
paliti
paliya
palli
pallimaa
palm
palmas
palmetto
palmi
palmyra
palmyrene
palmyrenes
palmyrenoreum
palmyrenorum
palo
paloni
palustris
pam
pami
pampa
pampam
pan
panama
pandemic
pane
panelnima
pangolin
pani
panther
panthera
panthers
paolo
papa
paper
papers
papu
papyrus
para
parade
paradise
paramecium
parameter
parameters
paramorder
params
paratachardina
parc
pardus
parent
parentheses
parenthetical
pari
pariga
parigi
parigu
parinda
paris
parisi
pariwaa
park
parks
parliament
parliamentary
parliment
parsed
parser
parshatatar
part
parthia
parthian
partial
participants
participate
participation
particle
particular
parties
partner
partners
partnership
partriotic
parts
party
pasha
pashe
pasi
pasita
paso
pass
passageway
passed
passion
passport
past
pasting
pastor
patagioenas
patas
path
pati
patience
patient
patriachal
patriarchs
patricia
patrick
patriotic
patron
patrons
pattern
patuca
pau
paul
paulista
paulo
pavilion
pawa
paya
payapaya
paycha
payments
payne
payroll
paywall
paŋ
paŋa
paŋbo
paŋbu
paŋda
paŋdi
paɣ
paɣa
paɣaba
paɣabia
paɣakpɛm
paɣakpɛma
paɣananga
paɣani
paɣapuulana
paɣasara
paɣasaribil
paɣasaribila
paɣasariŋmani
paɣasuma
paɣatali
paɣawabiga
paɣayino
paɣaŋɔli
paɣi
paɣiba
paɣibi
paɣibo
paɣibu
paɣidɔɣiso
paɣidɔɣisotɔɣinda
paɣikpamba
paɣikpuɣibo
paɣila
paɣili
paɣimi
paɣinaa
paɣipini
paɣipuulana
paɣira
paɣiri
paɣirigu
paɣisara
paɣisari
paɣisaribila
paɣisibu
paɣitali
paɣiwuni
pc
pdf
pdfhttps
pe
peace
pearl
peat
pebu
pech
pedde
pedro
peen
peenti
peer
pef
pegɔriba
peki
pekobri
pelaa
pele
pelicans
pelonomi
peninsula
penn
pennsylvania
pentecost
people
peoples
per
percent
perfect
performed
pergamon
period
periodical
periodicals
periods
perlmann
permanent
permit
persia
persian
persians
person
personal
persons
perspective
peru
peruvian
pesewas
petechia
peter
petersburg
petit
petra
petroleum
pettinato
pf
pfa
pg
ph
phd
phenix
phil
philadelphia
philip
philosopher
philosophy
phoenice
phoenician
phones
phonology
photo
photograph
photographer
photos
php
phpdi
physics
pi
pia
pibiri
pibu
pictograms
picture
pictures
pictus
pid
pie
pieri
pierre
pigeon
pigeons
pihi
pihim
pihinahi
pihinii
pihinu
pihiri
pihita
pihitanaata
pihiwei
pihiwoi
pihiwɔi
pihiyobu
pihiyopoin
pihiyoppoin
pihiyɔbu
pihoyobu
pii
piibu
piibupiibu
piigi
piila
piili
piina
piindi
piini
piinila
piiri
piirila
piiya
piiyoo
piizantinima
pila
pileser
pilgu
pili
pilibu
piligi
piligira
piligiri
piligirila
piligirimi
piligu
pilila
pilima
pilimi
pilindi
pilishɛm
piliya
piliŋ
pill
pilla
pillars
pilli
pillila
pin
pina
pinaanahi
pinaanu
pinaata
pinaayi
pinaayobu
pinda
pindi
pindila
pine
pineland
pinelands
pines
pini
pinibu
pinila
piniyini
pink
pinnock
pintibo
pintira
pintitali
pinus
pioneer
pip
pipe
pipes
pipi
pipia
pirgi
pirgili
piri
piriba
piribu
pirigi
pirigibu
pirigila
pirigili
pirila
pirim
pirimbu
pirimi
pirimla
piringa
pirinima
pirinla
pirinsi
piripiri
piriti
pishi
pishigu
pishiyinika
pishiɣu
pisopɔi
pisopɔin
pisɔpɔin
piti
pius
pixels
piya
piyoli
piyoya
piɛ
piɛbi
piɛbsi
piɛbu
piɛla
piɛlalana
piɛli
piɛliga
piɛligu
piɛlli
piɛm
piɛma
piɛmtoriba
piɛri
piɛŋ
piɛɣu
pkɛŋ
pl
pla
place
placed
places
plague
plain
plains
plan
planning
plant
plantnima
plants
plaster
plastic
plata
platalea
plateau
player
players
playing
plaŋ
plc
please
pliny
ploughing
plus
pm
pmc
pmcid
pmf
pmid
pmu
pna
pnc
pndc
png
po
poachers
poaching
pobi
pobsi
poet
poetry
pog
poham
pohili
pohim
pohnpei
poi
point
poisonwood
poku
pola
poli
police
policies
policy
polipoli
polish
political
politician
politicians
politics
politiisa
politiisi
politisa
pollen
polli
pollution
polo
pololi
poloni
poloya
poly
polyglottos
polynesia
polytechnic
polytechnics
pompey
pompi
ponaayili
pond
pong
pongtass
poobu
pooi
pool
pooli
poora
pop
pope
popular
populated
population
pora
pori
port
portal
portals
portion
portobelo
portrait
ports
portugal
portuguese
position
positional
positioned
positive
possible
possibly
post
postgraduate
postscript
potential
potosi
pottery
pounds
pour
poverty
powell
power
powered
powerful
powerpoint
poya
poŋ
poɣiri
pp
ppen
ppp
practice
practices
prairie
prairies
prampram
pramso
prasad
pre
precede
preceded
precious
precipitation
predefined
predictive
preemptively
preface
prefect
preferences
preferred
prefix
prefixed
prehistory
preloaded
premier
prempeh
preparatory
preprints
presby
presbyterian
prescott
present
presentation
presented
presenter
presents
preservation
preserve
preserved
president
presidential
press
presse
pressure
presumed
pretend
pretoria
prevent
preview
prewar
priest
primaries
primarily
primary
prime
prince
princeton
principal
principality
principles
print
printed
printing
prisons
private
prize
pro
problem
problems
proceedings
process
processing
produce
produced
producer
produces
production
productions
products
prof
professional
professionals
professor
profile
profit
program
programme
programming
programs
progress
progressive
project
projects
proleptic
promises
promising
promoting
proper
properly
properties
property
propose
prose
protect
protected
protection
protective
protein
protests
proto
protocol
proud
provence
provide
provided
providence
provider
provides
providing
province
provinces
provisional
prunus
pseudodifferential
psychotria
pt
pu
pua
pub
pubbu
public
publication
publications
publicationtitle
publish
published
publisher
publishers
publishes
publishing
pubmed
pubu
puerto
puha
puhi
puhibu
puhigi
puhigu
puhili
puhimi
puhira
puhiri
puhiriba
puhirila
puhirili
puhirimi
puhuri
pujni
pukaribi
pukpara
pukpari
pukpariba
pukparigu
pukparilim
pukparim
pukparlim
pula
puli
pulibu
pulini
pullini
pulse
pum
puma
pumahigu
pumpoŋo
pumpoŋɔ
pumpɔŋɔ
pun
punctuation
puni
punic
punjab
punni
punpɔŋɔ
punu
purge
puri
purini
purpose
purposes
purser
pusiga
pusuɣa
put
putuma
putɔɣu
puu
puulana
puun
puuni
puusuɣa
puya
puzur
puzuri
puɣi
puɣili
puɣinsi
puɣisi
puɣisibu
puɣiŋga
puɣu
px
pxxx
pygmy
python
pythons
pzzz
pɔ
pɔbi
pɔbila
pɔbira
pɔbiri
pɔbirigu
pɔbirisi
pɔbsi
pɔbu
pɔdiri
pɔdiriba
pɔha
pɔhili
pɔhim
pɔi
pɔin
pɔla
pɔli
pɔliti
pɔlo
pɔmpi
pɔnchi
pɔra
pɔri
pɔrila
pɔrilim
pɔrimi
pɔrisi
pɔrlim
pɔŋ
pɔɣu
pɛ
pɛbu
pɛɛnkpaa
pʋhiri
pᴐi
q
qa
qadeemah
qadi
qadis
qaeda
qal
qalawun
qasab
qasim
qasr
qastal
qat
qatar
qatul
qazzazin
qenneshrin
qinnasrin
qualifier
quality
quarter
quarters
quartey
quateersinima
quater
quaye
qubur
quds
qudwa
que
quebec
queen
quercus
query
question
quhafa
quietus
quinquenervia
quis
quist
quiz
quotation
quote
quoted
quotes
qur
qurani
qutuz
quzali
qyyy
r
ra
raban
rabbit
rabbits
rabenhorst
rabiu
raccoons
racemosa
racism
radford
radhya
radia
radio
rafael
rah
raha
rahama
rahaman
rahinatu
rahman
railway
railways
rainfed
rainforest
rainforests
rajab
ralph
ramadan
ramos
randhawa
randia
randolph
random
range
ranger
rangers
ranges
ranking
rao
raphael
raphia
rapper
rare
ras
rasheed
rashid
rashidun
rasulidinima
rat
rather
ratio
rattan
rattray
raven
raw
rawlings
ray
raymond
razak
razu
rbs
rd
rdoba
re
read
readable
reader
readers
reading
real
reason
reasonator
rebecca
rebel
rebranding
rebuild
recalculating
received
recipient
recognizable
recognize
recognized
recommendations
recommended
record
recorded
records
recovery
recreation
recto
red
reddish
redemption
redfish
redirect
rediyo
redlinked
redlinks
reduce
redundant
reed
reef
ref
refbegin
refcode
reference
referenced
references
referencing
referred
referrer
reflist
refname
reform
refugees
regal
regalia
regard
regardless
regent
region
regional
regions
register
registrant
registration
regular
regularly
reign
reinstates
reissued
rejin
rejoice
related
relating
relations
relative
release
released
relevant
relief
reliefs
religious
rely
remains
remove
removed
renaissance
render
rendered
rendering
renders
rene
renewable
rennell
repens
replace
replaced
replacement
replaces
report
reported
reporting
reports
repository
representative
representing
reprint
reproductive
reptiles
republic
republican
request
requests
require
required
requirement
requirements
requires
requiring
res
rescue
research
researchgate
reservation
reserve
reserved
reserves
reset
residue
resiste
resolution
resolutions
resolve
resort
resource
resources
respectively
responsibilities
responsibility
responsible
rest
restoration
restore
restored
restrictions
restructuring
result
resulting
results
retail
retired
retrieved
retro
return
reusing
reuters
rev
revel
revelation
reverend
review
reviews
revised
rey
rfc
rferl
rft
rgen
rgi
rhizophora
rhode
rhodesia
rhynchobatus
ri
rib
riba
ribi
ricardo
rice
rich
richard
richardson
rickert
rico
ridge
rie
rift
riga
right
rights
rigu
riis
rila
rili
rim
rimi
rin
rina
ring
rio
riode
rioja
rioplata
rising
risk
risus
risuŋ
rita
rite
rites
ritual
river
rivers
rlim
rms
rna
ro
road
roads
robber
robert
roberts
robertson
robin
robinette
robot
roc
rock
rocket
rockland
rocklands
rocks
rockson
rodents
roger
role
rolf
roma
roman
romanima
romanization
romanized
romannima
romans
rome
ronald
roof
roofs
rooftops
room
roomnim
rose
roseate
rosenfield
roses
rostrhamus
roughly
round
route
routledge
row
rows
royal
rpp
rt
rtn
rtp
rtu
rtv
ru
rufescens
rufiji
rufous
ruhi
ruins
rukmini
rule
ruler
rules
run
rural
rush
russia
russian
rustah
ruth
ruuhi
rwanda
rwenzori
rynchops
rɔbɔti
s
sa
saa
saad
saaed
saafenim
saai
saaka
saakpuli
saakuba
saalan
saalana
saamba
saambiduu
saambu
saampaɣa
saan
saanchi
saandi
saandoo
saani
saankuŋ
saarland
saatiŋli
saawara
saawarimaaniba
saawariti
saawɔra
saazuɣu
sab
saba
sababi
sabaic
sabain
sabali
sabbi
sabbira
sabbu
sabbunima
sabgi
sabi
sabigi
sabiila
sabiilanima
sabila
sabili
sabilim
sabimi
sabimila
sabina
sabinli
sabira
sabiri
sabiriba
sabirili
sabisabira
sabita
sabiya
sabla
sable
sabli
sabmi
saboba
sabonjida
sabratha
sabri
sabta
sabu
sacred
sada
sadaachi
sadabira
saddam
sadi
sadik
saeed
safaliba
safari
safeguarding
saff
safh
safiatu
safir
safu
sagani
sagbana
sagbaŋ
sagnarig
sagnarigu
sagnerigu
saha
sahakam
sahamirili
sahara
saharan
sahasaha
sahash
sahashɛli
sahashɛlikam
sahel
sahet
sahi
sahibenim
sahibenima
said
saif
saint
sainte
saints
saka
sakara
sakasaka
sakom
sakoro
sakoya
sakpali
sakpɛɣu
sakulo
sakurli
sakuɣa
sakɔm
sakɔri
sal
sala
salaa
salaagbaŋ
salaam
salaaman
salaamun
salaati
saladin
salaga
salah
salam
salamanca
salamba
salami
salar
salatu
salatul
salayhid
saleh
sali
salibeh
salifu
saligira
salihu
salim
salima
salimanima
salimbu
salimquo
salin
salina
salinda
salindi
salinidi
salinim
salinima
salinkpaŋ
salinkpaŋlana
salinla
salinli
salinlɔha
salinsaa
salinsahi
salinsalida
salinsalinda
salinsalindiba
salisu
saliya
salma
salnim
salnima
salo
salome
salonima
salt
saltpond
saltwort
salvadorans
salwa
sam
sama
samara
samarkand
samarra
samata
samba
sambana
sambani
sambanni
sambara
samdi
same
samia
samili
samira
samiriyu
samli
sammy
sampahi
sampana
sampani
sampson
samsarh
samson
samudunima
samuel
samuudu
samuudunim
samuudunima
san
sana
sanaa
sanaani
sanatruq
sanatu
sanctuary
sandaani
sandbanks
sandema
sandra
sandstone
sandy
sang
sangaya
sangmorkie
sangule
sanguli
sani
sanitary
sanitation
sanjak
sankofa
sankore
santa
sante
santiago
sanyo
sanyoo
sanyoodali
sanyov
sanyovi
sanyoviɛlli
sanzali
sao
sapashin
sapashini
sapashinima
sapashininima
sapashinnim
sapashinnima
sapashintali
saphir
sapien
sapienza
sapuɣu
sara
sarah
sarati
saray
sargi
sargon
sari
sariga
sarika
sarila
sarinsi
sariti
sariya
sars
sasabira
sasabiriba
sasabiribi
sasanian
sasanians
sashiriga
sashirisi
saskatchewan
sassanid
satara
satari
satarili
sataŋ
satellite
saudeleur
saudi
saudiya
saul
savana
savanna
savannah
save
savelugu
saving
saviɣu
savulugu
saw
sawgrass
sawla
saxony
say
saya
sayad
sayah
sayare
sayf
sayibu
sayida
says
sayyidah
sayyidna
sayyids
saŋ
saŋgali
saŋgara
saŋgaya
saŋi
saŋim
saŋinarigu
saŋiri
saŋkara
saŋlana
saŋmar
saŋmari
saŋmariga
saŋmarisi
saŋmarsi
saɣ
saɣari
saɣati
saɣi
saɣibee
saɣibɛ
saɣidihili
saɣidiriŋmani
saɣila
saɣili
saɣim
saɣimbo
saɣimbu
saɣimbuɣili
saɣimdi
saɣimi
saɣimli
saɣinarigu
saɣinda
saɣindari
saɣindi
saɣindila
saɣingu
saɣira
saɣiri
saɣirila
saɣisa
saɣisi
saɣisiba
saɣisibu
saɣisigu
saɣisigulana
saɣisila
saɣisim
saɣisima
saɣisinli
saɣisira
saɣisiri
saɣisirila
saɣiti
saɣiya
saɣiyani
saɣiŋgu
saɣnarigu
saɣsigu
sbn
sbns
sc
scale
scarborough
scene
schaefer
scheme
schemes
schick
schlumberger
schmidle
scholar
scholarship
scholarships
school
schools
schumacher
sciaenops
scien
science
sciences
scientific
scientist
scotia
scotland
scott
scottish
scranton
screen
screws
script
scripts
sculpture
sda
se
sea
seagrasses
search
seaside
season
seat
seatrout
sebald
sebastian
seblat
sec
second
secondary
secondry
secretarial
secretary
section
sections
sector
security
see
seebaway
seedeater
seen
sefwi
segment
segovia
seidu
seine
seini
sekondi
sekou
sekyedumase
sekyere
sekyi
seland
selatan
select
selected
selector
selectors
seleucid
seleucus
self
seljuk
seljuq
selma
selous
semantic
semi
seminar
seminary
seminole
seminoles
semitic
semliki
sen
senate
senator
senegal
senegalensis
senior
sennacherib
sense
sensitive
sentence
sentences
senya
sep
separate
separated
separation
separator
separators
september
septermber
septimius
sequence
sequential
serbia
serbian
serenoa
sergius
serial
serie
series
sermons
sert
service
services
serwaa
session
set
seth
setilimenti
sets
setting
settlement
settlements
seven
seventh
several
severan
severus
sevilla
sexual
seychelles
seyrig
sf
sfn
sfrac
sg
sh
sha
shaara
shaawara
shaba
shabab
shabani
shabeeny
shabeni
shabu
shaddad
shafawu
shafi
shah
shahada
shahadu
shahadusadik
shahara
shahid
shahin
shahira
shahrisabz
shaibu
shakespeare
shali
shalmaneser
sham
shamash
shamela
shamshi
shanghai
shani
shaped
shapur
sharaf
share
shari
sharif
shark
sharks
sharon
sharqi
sharubutu
shatta
shawara
shaŋa
shaɣani
shaɣini
shaɣu
she
sheb
sheba
shebi
shee
sheebu
sheegi
sheehu
sheei
sheela
sheemi
sheeni
sheeri
sheet
sheets
shehi
shehira
shehu
shei
sheikh
sheikhdom
shelf
sheli
shell
shelli
shelter
shelɔrigu
shem
sherifa
sheriff
shero
shetu
sheŋa
shi
shia
shias
shibab
shibam
shibamonline
shibani
shibebila
shibee
shield
shifa
shihi
shihibu
shihira
shihiri
shihirili
shii
shiiri
shiite
shikaafa
shikiri
shikuri
shikuriti
shikuru
shikurubihi
shikurubila
shikurunima
shikururi
shikuruti
shikurutinima
shikutti
shili
shiliminsi
shilinshihi
shilinshiya
shim
shinda
shinkaafa
shinshɛri
shinshɛɣu
shintana
shintaŋ
shiri
shirku
shirkuh
shirley
shitima
shitimanima
shitobu
shitori
shitɔbu
shitɔri
shiya
shizoba
shiɛli
shiɛm
shona
shooter
shopping
shorebirds
short
shortcutboxplain
shortened
shorter
should
shouneh
show
showing
shown
shows
shrew
shrike
shrikes
shrimp
shrine
shrubs
shs
shu
shuhada
shulman
shumayla
shɔli
shɛ
shɛb
shɛba
shɛbaban
shɛbi
shɛbira
shɛbu
shɛhara
shɛhi
shɛhili
shɛhira
shɛhiradira
shɛhiradiriba
shɛhiralana
shɛhiranim
shɛhiranima
shɛhirili
shɛla
shɛli
shɛlika
shɛlila
shɛlina
shɛlini
shɛlinim
shɛliŋ
shɛlu
shɛlɔrigu
shɛm
shɛra
shɛri
shɛriga
shɛrila
shɛŋa
shɛŋabɛ
shɛɣa
shɛɣu
shɛɣuni
shʋli
si
siars
siasa
sibdoo
sibee
sibi
sibiri
sibu
siddiq
side
sidebar
sidi
siege
sierra
sigitiŋ
sign
signature
significance
sigsibu
sihira
sihiralana
sihiranim
siin
siita
sikasso
sila
silga
silgi
sili
siliba
siliga
siligi
silim
silimbɔma
silimiin
silimiingoli
silimiinsi
silimiinsili
silimin
silimingoli
silimini
siliminsi
siliminsili
silimmin
silisi
silk
silki
silmiin
silmin
silminsi
silsi
silva
silver
sim
sima
simanks
simantiks
simaruba
simdi
simeon
similar
similarly
simili
siminti
siminyu
simli
simms
simnim
simnima
simon
simpa
simple
simplified
simply
simpson
simsi
simsibu
simsim
simsira
simsiri
simsirila
simsiya
sin
sinan
sinare
since
singer
singh
single
sinii
sinsaba
sinsindi
sintaks
sir
sirigili
sirigu
sirogonium
sisala
sister
sit
sitaayi
site
sitehttp
sites
sitima
sitira
sitobu
sittin
situr
situra
situri
situriyɛra
six
sixteenth
sixth
siyaasa
siyaasanima
siyaasatali
siyaayasa
siyasa
size
sizes
siŋ
siŋa
siŋda
siŋlana
siɣ
siɣa
siɣi
siɣibu
siɣila
siɣilana
siɣili
siɣim
siɣiri
siɣirina
siɣisi
siɣisibiga
siɣisibu
siɣisila
siɣisim
siɣisiri
siɣisirila
siɣsi
siɣsiri
skills
skimmers
skin
skip
skuja
skunks
sky
skybox
skyline
skyscraper
skyscrapers
slash
slave
sleeping
slough
sloughs
small
smaller
smith
smoke
snail
snails
snake
snapper
snapshot
snible
snook
so
sobriya
soc
soccer
sochanda
sochandiba
sochibga
sochibgu
sochibiga
sochibisi
sochira
sociabilis
social
socialisation
socialism
socialist
societies
society
sociology
soco
sodol
sodoli
sodoligu
sodolisi
sofo
soft
software
sojanima
sojaninimi
sokam
sokhar
sol
sola
solar
soldier
soldiers
soli
solid
solidarity
solimin
solomon
solutions
solɔɣu
somali
somalia
somanya
some
someone
sometimes
somewhere
sommer
somo
son
song
songhai
songhay
songwriter
sonima
sonna
sonnya
sonya
soobiya
soochi
sooja
soojakp
soojanima
soojɛ
soojɛnima
soon
soonsi
sooŋa
sopala
sophia
sort
sorting
sorugu
sotali
souk
souks
soul
sound
souq
souqs
source
sources
sous
south
southeast
southeastern
southern
southwest
soviet
sowutuom
soya
soyabiinsi
soyabiisi
soŋ
soŋbu
soŋda
soŋdi
soŋmi
soŋsi
soŋsim
soŋsiri
soɣabu
soɣi
soɣibu
soɣiri
sp
space
spaces
spacing
spain
spam
span
spaniards
spanish
spark
sparql
sparrow
sparrows
speaker
speaking
special
specialist
specialized
species
specific
specifically
specification
specifics
specified
specifies
specify
specifying
spelled
spelling
sphere
spider
spinage
spio
spirit
spirogyra
split
sponges
spoonbills
sport
sporting
sports
spotlight
spotted
spring
springs
sq
square
squirrel
squirrels
sr
srgb
sri
sska
ssrn
sssly
st
stable
stacking
stadium
stadt
staff
stairs
stanbic
standard
standards
standing
staniland
stanley
star
starcky
starling
stars
start
started
starts
state
stated
statehood
statements
states
static
station
stations
statistical
statistics
statsghana
statue
status
stedman
steel
stefan
steindachneri
stem
stephen
steps
sterculia
steven
stevens
stewart
still
stingrays
stm
stn
stoddort
stone
stoneman
stones
stony
stops
stories
stork
storm
story
straight
strands
strange
strangler
strategoi
strategy
street
strict
strike
string
strip
strix
stronghold
structure
structures
stubs
student
students
studies
study
sturnella
stv
styger
style
styled
styles
styling
su
sua
sub
subclinical
subee
subheaderstyle
subject
subpage
subpages
subscribe
subscription
subsection
subsequently
subset
subsidiary
substitution
substrate
subu
succulents
such
sudan
sudanian
sudano
suffix
suffixed
suffixes
sufi
suggested
suggestedvalues
suglo
suha
suhi
suhibu
suhidoo
suhigu
suhila
suhimi
suhipiɛlli
suhira
suhiri
suhiyini
suhu
suhudee
suhudeei
suhudoo
suhugarigu
suhukpeeni
suhuni
suhup
suhupi
suhupielli
suhupiɛli
suhupiɛlli
suhupɛlli
suhuri
suhusaɣingu
suhusaɣiŋgu
suhuyini
suhuyubu
suhuyurilim
suhuyurlim
suitable
sujee
sujuuda
sul
sula
sulauhi
sulayhi
sulayhid
sulayhids
sulayman
sulaymaniyah
sule
suleiman
sulemana
sulemani
suleyman
sulfur
suli
suliga
sulinsi
sulinsilana
sulinsini
sulinsu
sulisi
sulley
sultan
sultanate
sulunsi
sum
suma
sumaila
suman
sumani
sumatra
sumatran
sumerian
summary
summer
summit
sun
sunbird
sunday
sunna
sunnah
sunni
sunsong
sunsuni
sunsuuni
sunsɔŋ
suntreso
sunyani
super
superintendent
superior
superscripted
suppiluliumas
supplementary
supply
support
supported
supporting
supports
suppose
suppress
suppressed
suppresses
supreme
suq
sur
sura
sure
surges
suri
surigu
surila
surili
surimi
surname
surrounding
surveillance
survey
surveys
susan
susana
sustainable
susuuni
suteans
sutitali
sutura
suugi
suui
suuli
suuna
suura
suuri
suurili
suusuuni
suwa
suzuuda
suŋ
suŋsim
suŋtali
suɣa
suɣili
suɣilo
suɣiri
suɣlo
suɣu
suɣulo
suɣulolana
suɣulonim
suɣulonima
suɣuri
suɣusaa
svo
swallow
swamp
swamps
sweden
swedish
swedru
swiss
switzerland
swopa
sy
sybil
sydney
sylvia
sylvie
sylvilagus
syme
symposium
synagogue
syncerus
syntactic
syntax
syria
syriac
syrian
syrie
syro
syrtica
system
systems
sɔ
sɔhibe
sɔhibenim
sɔhibi
sɔhibiɛɣu
sɔhibiɛɣuni
sɔhila
sɔkam
sɔli
sɔlihu
sɔn
sɔndi
sɔri
sɔrila
sɔrlim
sɔya
sɔŋ
sɔŋbu
sɔŋda
sɔŋdi
sɔŋdiba
sɔŋdila
sɔŋmi
sɔŋsi
sɔŋsim
sɔŋsima
sɔŋsiri
sɔɣi
sɔɣibu
sɔɣila
sɔɣinaayili
sɔɣira
sɔɣiri
sɔɣirila
sɔɣirimi
sɔɣisinli
sɔɣiso
sɔɣiyalisi
sɔɣu
sɛba
sᴐŋ
t
ta
taa
taabo
taachi
taada
taadanima
taai
taali
taanchi
taanchili
taani
taara
taari
taarihi
taariihi
taawa
taawaaye
taaya
taayili
taaŋa
tab
taba
tabani
tabata
tabbata
tabbu
tabi
tabibi
tabibu
tabigi
tabigimi
tabiibi
tabili
tabilibu
tabiliri
tabindi
tabira
tabiri
tabiriba
tabisi
tabitha
table
tables
tablets
tabli
tablibu
tabliri
tabri
tabzahi
tabɔ
tace
tachie
tadabo
tadmar
tadmor
tadmorean
tadmur
tadrart
taenia
taeniasis
tafirili
taft
tag
tagoe
tags
taha
tahama
tahar
tahi
tahibɔɣi
tahidu
tahigu
tahila
tahili
tahima
tahimi
tahir
tahira
tahiri
tahiridinima
tahirila
tahrir
tailed
taimama
tain
taizz
takaba
takahi
takai
takara
take
taken
taking
takobu
takoradi
takoriti
takwa
talahi
talahinima
talensi
tali
taligu
talima
talindi
taliŋ
talk
talking
tam
tama
tamaha
tamakloe
tamale
tamali
tamaligu
tamar
tamarind
tamasco
tamashek
tambaɣiŋga
tambiɛɣu
tambu
tamda
tamdi
tamerlane
tamiami
tamkpaɣu
tamla
tammi
tampe
tampilim
tampima
tampiolana
tampion
tampionlaannima
tampionlana
tampiŋ
tampuli
tampuya
tampuɣa
tampuɣili
tamsim
tan
tana
tanchee
tanchɛhi
tancred
tandi
tandum
tani
tanki
tanko
tankpa
tankpagbuligu
tankpaɣ
tankpaɣu
tano
tanpima
tanpiŋ
tanpuɣili
tantani
tanti
tantulim
tanukhids
tanzania
tanzimat
taoudenni
tapalli
tara
tarahi
tarata
targa
target
targi
tari
taribu
tariff
tarifɔm
tariga
tarigi
tarihi
tarikpaa
tarili
tarim
tarimba
tarisi
tariti
tarkwa
tarli
tarpon
tarsi
tasibaha
tasie
task
tatabo
tatale
tatali
tatu
tawa
tawumya
tax
taxa
taxation
taxon
taya
tayiɣisi
taylor
tayy
taŋi
taŋiri
taŋkpagbilgu
taŋkpaɣu
taŋkuuni
taɣ
taɣa
taɣaada
taɣabu
taɣada
taɣari
taɣi
taɣia
taɣiba
taɣibu
taɣila
taɣili
taɣiliŋ
taɣimalisi
taɣimi
taɣio
taɣira
taɣiri
taɣirila
taɣirili
taɣirimi
taɣirisi
taɣirisuŋ
taɣitaɣi
taɣiya
tbn
tchad
tdmr
tdro
te
teacher
teachers
teaching
team
tebeau
tech
techiman
technical
technician
technology
tecno
tecommunications
tee
teebu
teebuli
teegi
teei
teeku
teela
teemi
teeri
teesa
teesanima
teeŋa
tegano
teha
teishie
teiya
tel
telecommunications
telegraph
television
tell
tema
teman
temenos
temomita
tempane
temperatures
templar
template
templatedata
templates
templatestyles
temple
temples
tempor
tempuli
temwen
ten
tenerife
tengan
teni
tennessee
tense
tepa
tequesta
teraci
term
terminal
terminalia
terminating
terms
terns
terraces
terrain
terrestrial
territories
territory
terry
teshie
test
testament
testing
tetrapylon
tetteh
tetuan
texas
text
textile
textiles
teɣu
tf
th
thaddae
than
thaorah
thaqafi
that
the
theater
theatre
thebftonline
theguardian
their
them
theme
then
theodora
theodosia
theology
theory
there
therefore
theresa
these
thesis
thetimes
they
thi
thick
thing
things
think
third
thirteen
this
thomas
thompson
thon
those
though
thousand
threatened
threats
three
throated
throne
through
thrush
thumb
thumbnail
thunberg
thus
ti
tia
tib
tiba
tibbu
tibdargibo
tibdarigibo
tiberius
tibgi
tibgibu
tibgila
tibgimsim
tibginsim
tibgiri
tibgiya
tibi
tibibu
tibidarigibo
tibigi
tibigibu
tibiginsim
tibigiri
tibihi
tibili
tibiri
tibisa
tibli
tibo
tibri
tibsa
tibsim
tibu
tibung
tibunglana
tibuŋ
tibvoya
ticha
tick
ticked
ticket
tidi
tiempo
tienne
tif
tific
tig
tigbani
tigbura
tiglath
tigrai
tigris
tihama
tihi
tihimbu
tii
tiim
tiima
tijaani
tijo
tikpiranim
tikpiranima
tikpirlim
tiku
tikub
til
tila
tilaa
tilahi
tile
tileei
tiles
tilgi
tilgiri
tili
tiliga
tiligi
tiligibu
tiligimsim
tiliginsim
tiligiri
tilim
tilisi
till
tillandsia
tilo
tim
tima
timalana
timba
timbu
timbuctoo
timbuktu
timbultu
timdi
time
timeline
times
timestamp
timezone
timgbani
timi
timla
timm
timmi
timothy
timsa
timsili
timsim
timur
timurid
tin
tindaamba
tindaampaɣa
tindaan
tindaanba
tindaandi
tindaanima
tindaannima
tindaanpaɣa
tindaantali
tindan
tindana
tindaŋ
tinduya
tinduyanima
tingban
tingbana
tingbani
tingbanni
tingbaŋ
tini
tinim
tinima
tiniŋ
tinkerbird
tinkoɣa
tinkpambila
tinkpan
tinkpang
tinkpannima
tinkpanshɛli
tinkpansi
tinkpaŋ
tinkpaŋa
tinkpaŋnima
tinkpaŋsi
tinkurugu
tinshiɛli
tinshɛli
tinshɛŋa
tinsi
tinsɔŋ
tintarisi
tintaŋ
tiny
tinzun
tinzunnima
tinzuɣa
tinzuɣu
tinŋ
tinŋbani
tio
tion
tip
tipa
tipariga
tipawumli
tipawumlilana
tipu
tira
tiri
tiriba
tirila
tirili
tiring
tirisi
tiriti
tiriŋ
tishigu
tist
tit
titali
titi
title
titles
titlestyle
tituɣiri
tituɣuri
tiy
tiyaanima
tiyaawumya
tiyɔri
tizaa
tizaŋ
tizo
tizodoo
tizohi
tizuɣu
tizɔri
tiŋ
tiŋa
tiŋbana
tiŋbani
tiŋbi
tiŋbia
tiŋbihi
tiŋboli
tiŋduli
tiŋduya
tiŋgani
tiŋgban
tiŋgbana
tiŋgbananim
tiŋgbani
tiŋgbanni
tiŋgbaŋ
tiŋgnani
tiŋkam
tiŋkara
tiŋkarili
tiŋkaŋa
tiŋkoɣa
tiŋkpan
tiŋkpannim
tiŋkpannima
tiŋkpansi
tiŋkpaŋ
tiŋkpaŋa
tiŋkpaŋsi
tiŋkurili
tiŋkurugu
tiŋli
tiŋmaa
tiŋmaani
tiŋnima
tiŋnimmaa
tiŋpili
tiŋpuni
tiŋpuuni
tiŋshee
tiŋshɛli
tiŋshɛŋa
tiŋsi
tiŋtarisi
tiŋtitali
tiŋzuɣu
tiŋzɔŋnima
tiɛha
tiɛhi
tiɛli
tiɛri
tiɣi
tiɣili
tiɣira
tiɣisi
tlbu
tld
tm
to
tobbihi
tobbuna
tobdaba
tobi
tobu
tobumaa
tobunɛma
tobushee
toc
tocright
today
toffey
together
toggle
toghtekin
togo
togoland
togolese
tohagu
tohaʒee
tohi
tohigu
tohinima
tohiri
tohiʒee
toi
tokyo
tola
tolaani
tolana
tolandi
tolansi
toledo
toli
tolin
tolinnaa
tolitoli
toliŋ
tolon
tolonnaa
toloŋ
toluŋ
toluŋnaa
tom
tomb
tombouctou
tombs
tombuto
tomi
tomo
tomosili
ton
tong
tongo
tongue
toni
tonjiŋ
tonnes
tony
too
toogi
toogle
tooi
tooka
tool
toola
toolbar
tools
toon
toondaambi
toondaan
toondaanima
toondaannima
toondaantali
toondan
toondana
toondani
toondannim
toondannima
toondini
tooni
toontali
toontibo
tooo
toora
toori
toosim
top
topeka
topic
topics
tora
tori
torneo
tortugas
total
toto
touch
toulouse
tourism
tourisme
tourist
tours
towards
tower
town
towns
toxiferum
toya
toɣisiri
tr
trabuom
tracing
tracking
trade
tradition
traditional
traditionally
traditions
tragelaphus
trail
trailing
trails
train
training
trajan
trans
transclude
transcluded
transcludes
transcluding
transeau
transit
transition
translate
translated
translation
translator
translators
transport
transportation
transsion
travel
treasurer
treated
treatment
tree
trees
trevor
trial
triangular
tribe
trichechus
trichinous
trick
tricolor
tricolored
tries
trinidad
trinity
triple
tripoli
tripu
triumph
troglodytes
troop
tropical
true
trujillo
truly
trump
truncatus
trunks
trust
truth
try
tsatsu
tschudi
tselem
tsikata
tsito
tteroth
tu
tua
tuaguutu
tuareg
tuaregnima
tuba
tuda
tude
tudu
tuduu
tuferu
tughtekin
tugri
tugu
tuha
tuhi
tuhibu
tuhikɔbishiyi
tuhikɔbishiyɔbu
tuhila
tuhili
tuhimi
tuhiniŋ
tuhipia
tuhipihinu
tuhipihita
tuhipiiya
tuhipishi
tuhira
tuhiri
tuhiriba
tuhirila
tuhituhi
tuhituhili
tuhitusa
tuhu
tuhuli
tuhutuhili
tuili
tukari
tukulti
tula
tulebiyili
tuli
tuliga
tulim
tulli
tulum
tum
tuma
tumadu
tumaduu
tumaini
tumanima
tumayili
tumayilinima
tumba
tumbu
tumbuktu
tumda
tumdi
tumdiba
tumdila
tumdimi
tumi
tumid
tumida
tumidi
tumla
tummi
tumo
tumtumda
tumtumdi
tumtumdiba
tumtumdibi
tumtumsa
tumu
tun
tunduya
tung
tungbani
tunisia
tunji
tuntumdiba
tunzundoo
tura
turaco
turan
turi
turin
turkana
turkey
turkish
turks
turn
turner
turning
tursiops
turtle
tusa
tusaa
tusaanahi
tusaanii
tusaanu
tusaata
tusaayi
tusaayɔpɔin
tusua
tutorial
tutu
tuturi
tutush
tutuɣu
tuu
tuuba
tuubadeera
tuugi
tuui
tuuli
tuulinim
tuum
tuuma
tuumb
tuumba
tuumbaŋsim
tuumbe
tuumbi
tuumbiɛri
tuumbiɛɣu
tuumbɛri
tuumbɛɣu
tuumi
tuumtuundiba
tuun
tuuna
tuunaayili
tuunbaŋsim
tuuni
tuunkpɛma
tuunshɛli
tuunshɛŋa
tuunsuma
tuuntali
tuuntumdi
tuuntumdiba
tuuntumsa
tuunv
tuunvi
tuunviɛla
tuunvɛla
tuura
tuure
tuuri
tuuta
tuutanima
tuutingli
tuuzabili
tuuzaŋ
tuya
tuzo
tuzobihi
tuzobila
tuzodobba
tuzodoo
tuzopaɣa
tuzopaɣaba
tuŋ
tuŋduya
tuɣi
tuɣibu
tuɣila
tuɣili
tuɣilibu
tuɣira
tuɣiri
tuɣirila
tuɣirinam
tuɣu
tv
tvm
tweed
twelve
twelver
twenty
twi
twin
twitter
two
twum
tyler
type
types
typical
typically
typing
typo
tz
tzing
tɔ
tɔb
tɔbiri
tɔbu
tɔbulana
tɔha
tɔhi
tɔhibu
tɔhigi
tɔhigimi
tɔhigiri
tɔhigu
tɔhinima
tɔhiri
tɔli
tɔliŋ
tɔm
tɔmi
tɔra
tɔri
tɔriba
tɔribandiyili
tɔtɛ
tɔŋ
tɔŋisiri
tɔɔ
tɔɣima
tɔɣino
tɔɣinonima
tɔɣisi
tɔɣisibu
tɔɣisigu
tɔɣisira
tɔɣisiri
tɛ
tɛha
tɛhi
tɛhigu
tɛhila
tɛhimi
tɛhira
tɛhiri
tɛhirimi
tɛhiya
tɛmomita
tɛri
u
uae
uaɣori
uba
ucc
uccfmzqweou
ud
uds
uew
ug
ugali
uganda
ugandan
ugcc
ugly
uhdu
ui
uk
ul
ulcer
ulcerans
ulpia
ulrich
ulufi
ulugh
um
umar
umayyad
umm
umma
ummanim
umra
un
unavailable
und
undecimalis
under
unep
unesco
unesdoc
unfccc
unfit
unicef
unicode
unidentified
union
unique
unit
unite
united
units
unity
univ
universal
universale
universidad
universita
universities
university
univɛsiti
unknown
unless
unnamed
unpublished
unsupported
until
unusual
unveiled
up
update
updated
updates
upload
uploads
upon
upper
uppercase
upright
ur
uranium
urban
urgenda
uri
url
urls
urocyon
ursula
ursus
uruguay
us
usa
usage
usaid
usatoday
usd
use
used
useful
user
username
users
uses
using
usneoides
usqp
usual
usually
usurped
ut
utah
utana
utc
uthman
utv
ux
uzairu
uzbek
uzochukwu
v
va
vaa
vaabu
vaai
vaanda
vaapu
vaari
vaaroosi
vaaros
vaarosi
vaawuli
vaawulinima
vaballathus
vabu
vaccine
vagu
vakaha
vakahili
vaksin
val
vala
valen
valencia
valentine
valerian
vali
valid
validate
validation
valigiri
valim
valiŋ
valladolid
valley
valsi
valsigu
valsigulana
valsim
valsira
valsiri
value
values
van
vanc
vancouver
vandalism
vandals
vandi
vane
var
vari
varia
variable
variant
variants
variety
various
varisa
varisi
varisigu
varisiri
varisiɣu
varoos
varos
varsi
varsigulana
varsiri
vassal
vassals
vaucher
vault
vaulted
vauthors
vawaɣiri
ve
veditors
vegetable
vegetation
vehicle
vela
venezuela
venezuelans
venice
venus
verb
verde
verify
verma
vermont
vernacular
vernon
veronica
version
versions
verso
vertical
very
vespasian
vest
vestibule
vgs
vi
via
vice
vichy
victor
victoria
victory
vida
video
videos
vietnam
vietnamese
view
viewdetails
viewed
viewing
views
vihgu
vihi
vihibu
vihibuvihibu
vihigu
vihila
vihili
vihimi
vihira
vihiri
vihiro
vihirovihiro
vihisi
vii
viidiyonima
viigi
viii
villa
village
villages
villas
villeneuve
vincent
vinvima
violations
virginia
virginiana
virginianus
virunga
virus
visible
vision
visit
visitor
vison
vista
visual
visually
vitiŋ
vittin
vitting
viviparous
vizcaya
viɛl
viɛla
viɛlgi
viɛli
viɛliga
viɛligi
viɛligiri
viɛlim
viɛlli
viɛmyɛla
viɛn
viɛnyala
viɛnyɛla
viɛnyɛlinga
viɛnyɛliŋga
viɛri
viɣu
vo
vocational
voggu
vogu
voice
vol
volcanic
volcano
volcanoes
voli
volta
volume
volumes
volunteers
von
vonaa
voogi
vooi
vooti
vootibu
vori
vote
votes
voucher
voya
voynet
voɣu
vre
vrnnczayc
vu
vuhi
vuhibu
vuhim
vuhira
vuhiri
vuhirigu
vuhiya
vuhum
vuhurisi
vulgi
vuli
vuligiya
vulo
vulpes
vun
vundi
vuny
vunyaɣili
vuri
vurigi
vuugi
vuui
vuuri
vuya
vuɣi
vuɣisi
vuɣu
vɔ
vɔbu
vɔri
vɔɣu
vɛila
vɛili
vɛla
vɛlgi
vɛli
vɛlim
vɛnyala
vɛnyɛla
vɛnyɛliŋga
w
wa
waa
waagashe
waala
waawaayili
waazu
wabgu
wabiga
wabigi
wabigu
wabilaa
wabiri
wabu
wadi
wading
waec
wael
wahab
wahala
wahan
wahayi
wahdah
wahi
wahini
wahu
wakaso
wal
wala
walapuɣu
walata
wales
walewale
wali
walibu
walid
waligi
waligibu
waligimsim
waliginsim
waligiri
waligiya
waligu
walihi
walking
walkway
wall
walled
walli
walls
walsi
walter
wang
wangari
wangarinsi
want
wanted
wantugu
wanzam
wanzamtali
waqf
war
wara
warbler
warblers
ward
ware
wari
wariboɣu
warikpamo
warikpomo
warila
waris
warming
warning
warren
warrior
wars
warsaw
warthog
was
wasa
wasawasa
washiika
washika
washington
wasiyya
wassce
waste
watan
watania
watch
water
waterbuck
waterfalls
waterway
watkins
watson
wattle
wave
waxbill
way
wayamba
wayback
wayne
wayo
wazir
waɣ
waɣa
waɣaduɣu
waɣala
waɣalim
waɣi
waɣil
waɣila
waɣili
waɣiligi
waɣilim
waɣimahili
waɣimi
waɣinli
waɣiri
waɣisi
waɣu
wcmc
we
weah
weahs
wearing
weather
weaver
web
webonary
webpages
website
webster
wedgefish
week
weekly
weeks
wei
weight
welcome
welfare
well
wells
wemah
wenchi
went
were
werner
weru
wesley
west
western
westminster
wet
wetlands
wgt
wh
what
whatsapp
whc
whd
wheat
when
whenever
where
whereas
wherever
whether
which
while
whilst
white
whitney
who
whole
whose
why
wiawso
wichita
wide
widow
widowhood
widows
width
wiesbaden
wiki
wikiafrica
wikicode
wikidata
wikiforhumanrights
wikilink
wikilinked
wikilinks
wikimarkup
wikimedia
wikimedian
wikimedians
wikipedia
wikipedians
wikipidia
wikiproject
wikitext
wilberforce
wild
wilderness
wildlife
wilhelm
wilkindorf
will
william
williamson
wilson
window
windsor
wing
winneba
winner
winning
winona
wins
winter
wires
wisconsin
wisdom
wish
wit
with
within
without
wittrock
wiyaala
wobgu
wobigu
wofici
woi
wokati
wolff
wolgi
wolgibu
wolginsim
wolgiri
woli
woligi
woligimsi
woliginsim
woligiri
woligirila
woligiya
woligu
wolila
wolrd
wolsi
woman
women
wonder
wood
woodhead
woodland
woodlands
woodpecker
woodpeckers
woolley
worawora
word
words
work
worked
worker
working
works
world
worship
worth
would
wowen
woyyo
wp
wrap
wright
wrim
write
writer
writing
written
wrong
ws
wu
wua
wubisiri
wuha
wuhan
wuhi
wuhiba
wuhibu
wuhila
wuhimi
wuhira
wuhiri
wuhirila
wuhirimi
wuhiya
wuhu
wuhurila
wul
wula
wulana
wulehi
wulensi
wuligi
wuligibu
wuligimi
wuligiri
wulimili
wulimpuhili
wulin
wulinluhili
wulinluhilipolo
wulinpuhil
wulinpuhili
wuliŋ
wuliŋluhili
wulli
wulunpuhili
wum
wumbee
wumbei
wumboligu
wumbu
wumda
wumdi
wumisi
wumisiri
wumla
wumma
wummi
wumnya
wumpini
wumsi
wumsibu
wumsim
wumsira
wumsiri
wumya
wun
wuna
wuni
wunpini
wunsuhigu
wuntaŋ
wuntaŋa
wuntaŋgom
wuntaŋni
wuntaŋpalli
wuntia
wuntii
wuntizobo
wuntizɔra
wuntizɔriba
wuntɔrili
wunyuɣiri
wunyuɣirilana
wuri
wurim
wurimbu
wurimla
wurimmi
wurindi
wurishe
wurozali
wurugu
wuuni
wuɣi
wuɣibu
wuɣiri
wwf
www
wyoming
wɔbigu
wɔbiri
wɔhu
wɔi
wɔla
wɔli
wɔligi
wɔligibu
wɔligila
wɔliginsim
wɔligu
wɔlli
wɔndi
wɔra
wɔri
wɔrigi
wɔrikpomolana
wɔrinaba
wɔrizɔhi
wɔrizɔhinim
wɔrizɔhinima
wɔɣi
wɔɣibu
wɔɣini
wɔɣiri
x
xalu
xavier
xiii
xiuhtezcatl
xjl
xls
xx
xxx
y
ya
yaa
yaabu
yaagi
yaai
yaakaza
yaakooro
yaakubu
yaalana
yaali
yaan
yaanabihi
yaanga
yaangi
yaanim
yaanima
yaannim
yaannima
yaansi
yaantibichee
yaantitaa
yaara
yaari
yaawum
yaaye
yaazuuzu
yaaŋa
yaaŋga
yab
yaba
yabdoo
yabeha
yabi
yabidoo
yabili
yabu
yabɛ
yada
yaga
yagli
yah
yaha
yahaya
yahi
yahiri
yahud
yahuudu
yahuudunim
yahuudunima
yahya
yai
yaka
yakuba
yakubu
yala
yalbugha
yali
yalibu
yaligi
yaligibu
yaligiri
yaligiya
yalikura
yalim
yalima
yaliya
yaliŋ
yalli
yam
yama
yaman
yamba
yamh
yamhad
yamo
yamusa
yamusah
yan
yana
yanabihi
yani
yanima
yankah
yankazia
yao
yapala
yapalisi
yapalsi
yapei
yapolo
yaqut
yara
yarhibol
yari
yarida
yarila
yarili
yarisi
yashɛli
yaw
yaŋa
yaŋili
yaŋɔ
yaɣ
yaɣa
yaɣali
yaɣayaɣa
yaɣi
yaɣili
yaɣilikam
yaɣilinima
yaɣiri
yaɣiriyili
yaɣishɛli
yaɣishɛŋa
yaɣiya
yaɣli
yc
ye
year
years
yebili
yeboah
yebu
yeda
yee
yeei
yehuha
yekpeeni
yela
yeli
yelizoli
yellow
yelzoli
yemen
yemeni
yemenia
yemenite
yemennet
yemo
yen
yendi
yensichi
yeri
yes
yess
yi
yia
yibi
yibilana
yibo
yibu
yibɛ
yidaa
yidaan
yidaanima
yidaannim
yidaannima
yidaanyili
yidan
yidana
yidanaannima
yidani
yidannim
yidannima
yidantɔɣim
yidi
yie
yields
yih
yihi
yihibu
yihila
yihili
yihimi
yihira
yihirba
yihiri
yihirila
yiina
yiini
yiiri
yij
yikanima
yiko
yikonima
yil
yila
yili
yilibu
yilikpɛrili
yilila
yilinima
yilitamda
yilitamdili
yiliwaɣila
yiliya
yiliyinda
yiliyindiba
yiliŋ
yilli
yilo
yim
yima
yimahi
yimbayimba
yimi
yimina
yimtali
yin
yina
yinda
yini
yinifa
yinika
yinim
yinima
yiniŋ
yinjiniya
yinlabi
yino
yinsi
yinusa
yiny
yinyaa
yinyɛla
yipa
yipelgu
yipeligu
yipiɛlinaa
yira
yiri
yirifa
yirigi
yirigira
yirigu
yirila
yirimi
yirimina
yirina
yiriŋ
yisa
yisaa
yisi
yisifu
yiti
yiwaɣila
yiwɔɣu
yiy
yiya
yiyi
yizaŋ
yizuɣu
yiŋ
yiŋa
yiŋanima
yiŋbiŋkobri
yiŋdoo
yiŋga
yiŋlana
yiŋnim
yiŋnima
yiŋsi
yiŋu
yiɣ
yiɣi
yiɣibu
yiɣijam
yiɣira
yiɣiri
yiɣirigu
yiɣirisi
yiɣisi
yiɣisibu
yiɣisila
yiɣisim
yiɣisimi
yiɣisina
yiɣisira
yiɣisiri
yiɣisirina
yiɣjam
yiɣsibu
ymd
yo
yoba
yobli
yobu
yoggu
yogu
yola
yoli
yolibu
yolisa
yolisi
yolisigu
yolisim
yolisima
yolisimnima
yolit
yolsa
yolsi
yolsibu
yolsigu
yolsiri
yom
yoma
yomyom
yomyoma
yon
yong
yoo
yoobu
yoodara
yoogi
yooi
yoola
yooli
yoori
yori
yorilaɣi
york
yorker
yoroyoro
yosef
you
young
your
youth
youtube
yoya
yoŋ
yoɣira
yoɣirili
yu
yubu
yukon
yula
yuli
yulibu
yuligu
yulila
yulima
yulimi
yulmi
yum
yuma
yun
yundakpani
yuni
yunni
yunyoo
yupaa
yupahi
yur
yura
yuri
yuriba
yurigu
yurilim
yurlim
yushaw
yusif
yussif
yusuf
yuu
yuubi
yuugi
yuui
yuuli
yuum
yuuma
yuun
yuunda
yuundi
yuungbaliŋ
yuuni
yuunila
yuura
yuuuni
yuuya
yuvi
yuya
yuŋ
yuŋgɔrim
yuŋtisuɣu
yuɣimpini
yuɣiri
yuɣu
yves
yvonne
yyyy
yyyymmddhhmmss
yɔ
yɔbu
yɔhi
yɔhim
yɔhindi
yɔli
yɔm
yɔma
yɔmyɔm
yɔra
yɔri
yɔrinima
yɔŋ
yɔɣ
yɔɣu
yɔɣuni
yɔɣɔ
yɛ
yɛba
yɛbi
yɛbu
yɛda
yɛdda
yɛl
yɛla
yɛlgbahira
yɛlgibu
yɛlgɔla
yɛli
yɛliba
yɛlibiɛri
yɛlibiɛɣu
yɛlibu
yɛlibɔra
yɛlibɛɣu
yɛligbahira
yɛligi
yɛligibu
yɛligimi
yɛligira
yɛligiri
yɛligola
yɛligu
yɛlikpahinda
yɛlikpahindili
yɛlikpana
yɛlikpani
yɛlikura
yɛlikurili
yɛlila
yɛlim
yɛlima
yɛlimaŋ
yɛlimaŋli
yɛlimaŋlinima
yɛlimaŋtibo
yɛlimi
yɛlimma
yɛlimuŋisira
yɛlimuɣisira
yɛlimuɣisiri
yɛlimuɣisirili
yɛlini
yɛlinli
yɛlishɛŋa
yɛlisim
yɛlitɔɣa
yɛlitɔɣitaɣimalisi
yɛlivuhi
yɛliya
yɛlizoli
yɛlizolilan
yɛliŋ
yɛlli
yɛllikam
yɛlmaŋli
yɛlmuɣisira
yɛlt
yɛltoɣ
yɛltoɣa
yɛltoɣili
yɛltoɣu
yɛltɔya
yɛltɔŋ
yɛltɔŋa
yɛltɔŋili
yɛltɔɣ
yɛltɔɣa
yɛltɔɣali
yɛltɔɣataɣamalisi
yɛltɔɣi
yɛltɔɣikpani
yɛltɔɣili
yɛltɔɣimuni
yɛltɔɣiniɣima
yɛltɔɣitaɣimalisi
yɛltɔɣiŋma
yɛltɔɣiŋmaa
yɛltɔɣiŋmahi
yɛltɔɣiŋmasɔri
yɛltɔɣiŋmasɔɣu
yɛltɔɣu
yɛlu
yɛlumaŋli
yɛm
yɛmbahiga
yɛmbahigalana
yɛmbahinga
yɛmen
yɛmeni
yɛmgoliŋga
yɛmgoliŋgalana
yɛmo
yɛmtɔri
yɛmusah
yɛn
yɛnbɔhi
yɛnbɔrgi
yɛni
yɛnonim
yɛnpaagu
yɛnsɔŋ
yɛnti
yɛntɔri
yɛnzɔri
yɛra
yɛrgi
yɛri
yɛrigi
yɛrigu
yɛrila
yɛrili
yɛrimi
yɛrinaa
yɛtɔɣ
yɛtɔɣa
yɛtɔɣili
yɛɣa
yɛɣi
yɛɣili
yɛɣiri
yʋʋni
z
za
zaa
zaadali
zaaha
zaamani
zaana
zaanda
zaandi
zaandila
zaani
zaanila
zaasa
zaash
zaashe
zaashee
zaashɛhi
zaawun
zaawuni
zab
zaba
zabaɣa
zabaɣi
zabaɣisi
zabaɣisili
zabbiɛri
zabbu
zabdibel
zabeed
zabi
zabid
zabiga
zabila
zabili
zabira
zabiri
zabizugu
zabizuɣu
zabiʒirigu
zabli
zabri
zabura
zabuura
zabzugu
zachaŋ
zag
zagbaŋ
zagbaŋa
zagisi
zaham
zahama
zahara
zahim
zahima
zahimbu
zahimbunima
zahimla
zahimmi
zahindi
zahindigu
zahindila
zahinli
zahir
zahiriyah
zaituun
zaituuni
zajina
zak
zaka
zakali
zakari
zakaria
zakariya
zakka
zakkuumi
zal
zala
zalgu
zali
zalibu
zaligu
zaligunima
zalikpan
zalikpana
zalikpani
zalila
zalimi
zalisi
zaliya
zalizaɣisirbi
zalkpana
zalmi
zalsi
zama
zamaatu
zamani
zamaria
zamba
zambalima
zambalinsi
zambia
zambu
zamfara
zami
zamiti
zamora
zan
zanchaŋ
zandi
zandila
zanduu
zanetor
zang
zangama
zangbalun
zangbalung
zangbaluŋ
zangina
zangti
zani
zanibu
zanila
zanimi
zaniya
zanjina
zankali
zanti
zanu
zanzibar
zara
zaratu
zarikpandana
zawieh
zaya
zayd
zaydi
zaynab
zaŋ
zaŋa
zaŋba
zaŋbahi
zaŋbuɣisi
zaŋchaŋ
zaŋda
zaŋdi
zaŋdila
zaŋdili
zaŋduu
zaŋi
zaŋisiri
zaŋkpa
zaŋla
zaŋli
zaŋlimi
zaŋlu
zaŋmi
zaŋmia
zaŋmima
zaŋna
zaŋo
zaŋshɛli
zaŋsim
zaŋti
zaŋɔ
zaɣ
zaɣa
zaɣala
zaɣi
zaɣibe
zaɣibetali
zaɣibi
zaɣibihi
zaɣibili
zaɣibiɛɣu
zaɣibɛɣu
zaɣigaŋ
zaɣigbariŋ
zaɣikpeeni
zaɣikuma
zaɣikuŋ
zaɣila
zaɣili
zaɣim
zaɣima
zaɣimaŋli
zaɣipi
zaɣisi
zaɣisibu
zaɣisila
zaɣisimi
zaɣisira
zaɣisiri
zaɣisirila
zaɣisiya
zaɣisuŋ
zaɣititali
zaɣiv
zaɣivi
zaɣiviɛlli
zaɣivɛlli
zaɣiyini
zaɣiyino
zaɣiyuri
zaɣizaɣi
zaɣyini
zbc
zbl
zcoa
zdemir
ze
zealand
zebilla
zebra
zenabu
zengid
zenith
zenobia
zentralblatt
zero
zeros
zfckc
zguqsu
zheng
zhong
zhu
zi
zibgi
zibi
zibigi
zibilim
zibliila
ziblila
ziblim
zichi
zilgi
zili
ziligi
ziliji
zilijinaba
zilikom
zilim
zilima
zilimballi
zilinkom
zilinli
zilisi
zilisigu
ziliŋ
zilli
zilma
zilsi
zilsigu
zilsiri
zim
zimbabwe
zimbuli
zimsa
zimsim
zin
zina
zinchili
zindoo
zini
zinli
zinnyabo
zino
zinyabo
zion
zipiligu
ziri
zirili
ziwa
znaniecki
znbc
zo
zobaɣisi
zobu
zogbeli
zoggu
zohe
zohi
zohɛ
zokuli
zola
zoli
zoligu
zolikara
zolikuɣuli
zoloŋ
zoloŋni
zolɔna
zom
zomdi
zomi
zon
zona
zonal
zonaras
zoncheɣuni
zone
zones
zongo
zonim
zonima
zonzoŋgili
zoo
zoobu
zoogi
zoohi
zooi
zooiya
zoola
zoolanyili
zoomba
zoompiɛliga
zoon
zoonaayili
zoontali
zoora
zoori
zoorigu
zoosim
zoosimni
zooya
zor
zora
zori
zorila
zorili
zosim
zosima
zosimli
zosimus
zoya
zoŋ
zu
zualin
zualindira
zualindiriba
zualinsi
zubayr
zubu
zugu
zuhi
zujung
zujuŋ
zukɔɣili
zulaiha
zulandi
zuli
zuliya
zuliyanim
zuliyanima
zulkarnaini
zultan
zulɔɣu
zumba
zuna
zunubsi
zunzuya
zuo
zupili
zupiligu
zur
zuri
zurila
zuu
zuweira
zuwera
zuya
zuŋo
zuŋu
zuŋusaa
zuŋɔ
zuɣ
zuɣi
zuɣiri
zuɣisaa
zuɣizuɣi
zuɣlan
zuɣu
zuɣubetali
zuɣubi
zuɣubiɛɣu
zuɣubɛ
zuɣuj
zuɣuka
zuɣukuɣura
zuɣulaampaa
zuɣulaan
zuɣulaanima
zuɣulaankuro
zuɣulan
zuɣulana
zuɣulananima
zuɣulani
zuɣulantali
zuɣuni
zuɣupinibu
zuɣupuri
zuɣuri
zuɣusaa
zuɣusuŋ
zuɣusuŋlana
zuɣʋ
zuɤu
zɔ
zɔbu
zɔhi
zɔli
zɔm
zɔmpaɣa
zɔna
zɔndi
zɔra
zɔri
zɔrila
zɔrimi
zɔya
zɔŋ
zɔŋni
zɔŋɔ
zɔɣu
zɔɣuyuri
{
|
}
~
¢
£
§
©
¬
­
°
±
²
µ
·
×
ŋ
ŋa
ŋaani
ŋabɛ
ŋaha
ŋahaba
ŋahali
ŋahi
ŋahiba
ŋahili
ŋahinga
ŋahinima
ŋahinsi
ŋahiŋga
ŋam
ŋama
ŋamli
ŋammali
ŋan
ŋanima
ŋari
ŋarigu
ŋarili
ŋarim
ŋarima
ŋarimpaa
ŋariti
ŋariŋ
ŋariŋga
ŋaruŋ
ŋda
ŋdi
ŋi
ŋila
ŋisiri
ŋk
ŋlana
ŋm
ŋma
ŋmaa
ŋmaabu
ŋmaagi
ŋmaai
ŋmaala
ŋmaali
ŋmaami
ŋmaangula
ŋmaara
ŋmaari
ŋmaarila
ŋmaaya
ŋmabu
ŋmahi
ŋmahibu
ŋmahim
ŋmahima
ŋmahimgbana
ŋmahin
ŋmahindi
ŋmahingbaŋ
ŋmahinli
ŋmahiri
ŋmahirila
ŋmahiŋgbana
ŋmala
ŋmalgi
ŋmalgim
ŋmalgiri
ŋmali
ŋmaligi
ŋmaligibu
ŋmaligiri
ŋmambihi
ŋmambuɣibila
ŋmambuɣubila
ŋmampirisi
ŋmamprigu
ŋmamprisi
ŋmamprugu
ŋmampurili
ŋmampurisi
ŋmampurugu
ŋman
ŋmana
ŋmanbuɣubila
ŋmandaɣiri
ŋmani
ŋmanila
ŋmansaɣiri
ŋmantambo
ŋmara
ŋmari
ŋmariga
ŋmarigɔŋ
ŋmarila
ŋmaɣi
ŋmaɣiri
ŋme
ŋmebu
ŋmeli
ŋmeri
ŋmerila
ŋmɛ
ŋmɛbo
ŋmɛbu
ŋmɛbɔ
ŋmɛla
ŋmɛlim
ŋmɛn
ŋmɛra
ŋmɛri
ŋmɛriba
ŋmɛrigu
ŋmɛrila
ŋmɛrili
ŋmɛrimi
ŋo
ŋoliŋ
ŋolo
ŋoloŋo
ŋooi
ŋu
ŋubbu
ŋubi
ŋubira
ŋubiri
ŋubri
ŋum
ŋuma
ŋumaŋuma
ŋumbɔŋɔ
ŋun
ŋuna
ŋunbe
ŋundi
ŋuni
ŋunmi
ŋunmidin
ŋuŋ
ŋɔ
ŋɔdua
ŋɔhttps
ŋɔi
ŋɔli
ŋɔna
ŋɔnima
ŋɔri
ŋɔɔi
ŋɔɣu
ŋʋn
ŋᴐ
ƒ
ȝilɛli
ɑ
ɔ
ə
ɛ
ɣ
ɣa
ɣi
ɣili
ɣira
ɣiri
ɣisa
ɣisibu
ɣisim
ɣu
ɣuni
ʃ
ʒ
ʒa
ʒaamani
ʒahannama
ʒamana
ʒamani
ʒaɣu
ʒe
ʒee
ʒehiimi
ʒela
ʒeman
ʒemana
ʒemani
ʒemi
ʒengamazuɣu
ʒeya
ʒi
ʒia
ʒiba
ʒibu
ʒibɛ
ʒiduli
ʒihi
ʒii
ʒiila
ʒiina
ʒiini
ʒiinila
ʒiish
ʒiishee
ʒiishɛhi
ʒil
ʒila
ʒileli
ʒilelini
ʒili
ʒilibu
ʒilinsi
ʒilitibsa
ʒiliɛli
ʒilu
ʒilɛli
ʒilɛya
ʒim
ʒima
ʒimi
ʒin
ʒinahigu
ʒinahisi
ʒinani
ʒindi
ʒingama
ʒini
ʒinibu
ʒinila
ʒinimi
ʒipopɔra
ʒipupura
ʒipupɔra
ʒira
ʒiri
ʒirila
ʒirilana
ʒirili
ʒirinim
ʒirinima
ʒishahi
ʒishee
ʒitalli
ʒiya
ʒiɛ
ʒiɛhi
ʒiɛm
ʒiɛmana
ʒiɛri
ʒiɛŋ
ʒiɛɣu
ʒiʒii
ʒiʒiinitaba
ʒiʒiinitali
ʒom
ʒuɣu
ʒɛ
ʒɛbu
ʒɛhi
ʒɛm
ʒɛman
ʒɛmana
ʒɛmani
ʒɛmdi
ʒɛmi
ʒɛnaba
ʒɛngama
ʒɛri
ʒɛrim
ʒɛya
ʒɛɣu
ʻ
ʽ
ʾ
ʿ
ˈ
ˌ
ː
̀
́
̂
̃
̄
̆
̇
̈
̌
̓
̣
̦
̧
̨
̩
̱
ͻ
΄
βε
γ
ε
εε
θ
κ
μ
ροια
ω
х
ӡ
ԑ
ا
اء
ات
اد
ار
اف
اق
ال
الا
القديمة
ام
ان
ب
باب
ة
ت
ث
ج
جب
ح
حارة
خ
د
ر
ز
س
ساحة
ش
ص
ض
ط
ظ
ع
علي
عمل
غ
ـب
ف
ق
قسطل
ك
ل
لي
م
ماضی
مدينة
ن
ه
و
ون
ى
ي
يم
ً
ٍ
َ
ُ
ِ
ّ
ْ
ٓ
ٔ
ٕ
ٰ
ٱل
ٱلت
ٱلر
ٱلش
ٱلط
ٱلل
ٱلن
کے
ے
ᴣiri
ᴣiɛm
​
‎
–
—
‘
’
“
”
„
‟
†
‡
•
…
″
›
⁄
₵
→
↔
↵
↷
−
⌈
⌉
⌊
⌋
③
④
⑦
●
★
☒
♀
✉
❁
ⲁ
ⲃ
ⲏ
ⲙ
ⲛ
⺀
⺄
⺆
⺈
⺊
⺌
⺕
⺝
⺸
⺼
⿰
⿱
⿲
⿳
⿴
⿵
⿶
⿷
⿸
⿹
⿺
⿻
〢
コ
タ
ユ
ワ
ー
㇁
㇂
㇄
㇇
㇈
㇉
㇓
㐁
㐄
㐅
㐌
㐫
㐬
㐭
㐮
㐱
㑒
㒵
㒸
㒼
㓁
㓞
㔾
㕛
㕣
㖾
㘝
㚅
㚇
㚔
㚘
㝉
㝡
㝴
㝵
㞋
㞢
㞷
㠩
㠭
㠯
㡀
㡭
㡿
㢲
㢴
㣇
㣺
㥯
㪅
㫄
㫐
㫒
㫺
㬅
㬎
㬥
㬰
㲋
㳄
㷠
㸒
㸚
㸦
㼌
㼲
㽞
㿟
䀠
䂞
䍃
䏍
䒑
䖍
䖒
䖝
䖵
䙴
䚻
䜌
䝿
䡛
䧹
䪞
一
丁
丂
七
丄
丅
丆
万
丈
三
上
下
丌
不
与
丏
丐
丑
专
且
丕
世
丘
丙
业
东
丞
丢
丣
两
严
並
丨
丩
个
丫
丬
中
丮
丰
丱
串
丵
丶
丷
丸
丹
为
主
丽
丿
乀
乂
乃
久
乆
乇
么
义
之
乌
乍
乎
乏
乐
乑
乔
乖
乗
乘
乙
乚
乛
乜
九
乞
也
习
乡
乳
乾
亀
亅
了
亇
予
争
事
二
亍
于
亏
亐
云
互
亓
五
井
亘
亚
亜
亞
亟
亠
亡
亢
交
亥
亦
产
亨
亩
享
京
亭
亮
亯
亰
亲
亳
亶
亷
人
亻
亼
亾
仁
今
介
仌
从
仐
仑
仒
仓
仕
他
付
仝
代
令
以
任
企
伊
伏
伐
休
会
伯
但
位
何
佘
余
作
佥
使
來
侈
侌
侖
侯
侵
便
保
俞
信
修
倉
倍
候
倠
備
僉
僕
儿
兀
允
兂
元
兄
充
兆
兇
先
光
兊
克
兌
免
兑
兒
兓
兔
党
兜
兟
入
全
兩
兪
八
公
六
兮
兰
共
关
兵
其
具
典
兹
兼
冀
冂
冃
冄
内
冈
冉
冊
冋
册
再
冎
冏
冐
冒
冓
冖
冗
冘
军
农
冝
冡
冥
冫
冬
冷
几
凡
凢
凵
凶
凷
凸
凹
出
函
凾
刀
刁
刂
刃
刄
刅
分
切
刍
刑
刕
刖
列
刘
则
初
別
利
别
到
制
刺
則
削
剌
前
剡
剽
劉
力
功
加
劦
助
劫
劳
劵
勃
勇
勉
勒
動
務
勞
勤
勹
勺
勻
勾
勿
匀
匂
包
匆
匈
匊
匋
匍
匕
化
北
匚
匝
匡
匪
匱
匸
匹
区
医
匽
匿
區
十
卂
千
卄
卅
卆
升
午
卉
半
卌
华
卑
卒
卓
单
卖
南
卜
卝
卞
占
卡
卢
卣
卤
卦
卩
卪
卬
卯
印
危
即
却
卵
卷
卸
卻
厂
厃
厄
历
厈
厉
厌
厓
厘
厚
原
厤
厥
厨
厭
厲
厶
厷
厸
去
厼
厽
叀
参
參
叅
又
叉
及
友
双
反
叐
发
叒
叔
叕
取
受
叚
叜
叟
口
古
句
另
叩
只
召
可
台
叱
史
右
叵
号
司
叹
吂
各
吅
合
吉
吊
吋
同
名
后
吏
向
吕
君
吝
吞
否
含
启
吳
吴
吹
吾
呂
呆
呈
告
员
呙
周
命
咅
和
咎
咠
咢
咨
咸
咼
哀
品
哉
員
哥
哲
唐
商
啇
問
啚
啬
啻
善
喜
喬
單
喿
嗇
噩
嚴
囊
囗
囘
囙
囚
四
回
囟
因
囧
囬
困
囱
囷
固
国
圂
圅
國
圍
圓
土
圡
圣
圥
在
圭
地
圶
圼
坐
坒
坚
坴
垂
垔
垚
埀
埋
埶
執
基
堂
堅
堆
堇
堯
塞
墨
壘
士
壬
壯
声
壳
壴
壹
壺
壽
夂
处
夅
夆
备
夊
夋
夌
复
夏
夒
夕
外
夗
夘
多
夜
夢
大
夨
天
太
夫
夬
夭
央
失
夲
头
夷
夸
夹
夻
夾
奂
奄
奇
奈
奉
奎
奏
奐
契
奓
奔
奚
奞
奠
奢
奥
奭
女
奴
奻
好
如
妄
妙
妟
妥
妻
妾
姑
委
姜
威
娄
婁
婴
嬰
嬴
子
孑
孔
孕
孖
字
存
孚
孛
孝
孟
季
孤
学
孫
孱
學
宀
宁
宂
它
宅
宇
守
安
宋
完
宏
宓
宗
官
定
宛
宜
宝
客
宣
室
宮
宰
害
家
容
宾
宿
寄
寅
密
富
寒
察
寧
審
寫
寬
寮
寸
对
寺
寻
寽
対
寿
封
尃
射
将
將
專
尉
尊
尋
尌
對
小
少
尒
尓
尔
尖
尗
尚
尞
尢
尣
尤
尧
尨
尭
就
尸
尹
尺
尻
尼
尽
尾
尿
局
居
屈
屋
屎
屏
屑
展
屖
屚
属
屠
屡
屬
屮
屯
屰
山
屵
屾
岁
岂
岑
岡
岩
岳
岸
峯
島
崇
崑
崔
崖
崙
崩
嵬
嶲
巂
巛
川
州
巟
巠
巢
巤
工
左
巧
巨
巩
巫
差
己
已
巳
巴
巷
巸
巽
巾
巿
帀
市
布
希
帚
帛
帝
带
師
席
帶
常
干
平
年
幵
并
幷
幸
幺
幻
幼
幽
幾
广
広
庄
床
底
店
庚
府
度
庫
庭
庶
康
庸
廉
廌
廛
廣
廩
廴
延
廷
建
廾
廿
开
弁
弃
弄
弇
弋
式
弓
弔
引
弗
弘
弜
弟
弥
弦
弱
張
強
强
彊
彌
彎
彐
彑
当
彔
录
彖
彗
彡
形
彥
彦
彧
彭
彳
役
彼
往
待
律
徒
得
徙
從
復
微
徵
心
忄
必
忌
忍
志
忝
忠
忩
快
念
忽
忿
思
怠
急
怱
恆
恒
恩
恭
息
悉
患
悤
悲
悶
惠
惡
惢
愁
愈
意
愛
感
慈
慧
慮
憂
憲
應
戀
戈
戉
戊
戋
戌
戍
戎
成
我
戒
戔
或
戚
戠
戢
截
戲
戶
户
戹
戼
戾
房
所
扁
扇
手
扌
才
打
托
执
承
折
拉
拜
拿
掌
推
提
摩
支
攴
攵
收
攸
改
放
政
敄
敏
敕
敖
敗
敝
敞
敢
散
敦
敫
敬
数
敷
數
斂
文
斉
斊
斗
斤
斥
斩
斬
斯
新
方
於
施
斿
旁
旋
族
无
旡
既
旣
日
旦
旧
旨
早
旬
旱
旲
时
旾
昆
昇
昌
昍
明
昏
易
昔
昗
昜
星
春
昬
是
昱
昴
昷
時
晃
晋
晏
普
景
晶
智
暑
暴
曇
曩
曰
曲
曳
更
曷
書
曹
曼
曾
替
最
朁
會
月
有
朋
服
朔
朕
朗
望
朝
木
朩
未
末
本
札
朮
术
朱
朵
朶
朿
杀
杏
杜
束
条
来
東
杲
杳
松
析
林
枚
果
枝
枲
枼
某
柔
查
柬
柰
柴
栗
桀
桑
桼
梁
條
梟
梨
棘
棠
棥
森
楚
業
楽
榮
樂
樊
欠
次
欣
欮
欲
欶
欽
款
歆
歇
歛
止
正
此
步
武
歨
歪
歮
歯
歰
歲
歴
歷
歸
歹
歺
死
殳
段
殷
殸
殹
殺
殻
殿
毋
毌
母
每
毒
比
毕
毚
毛
毳
氏
氐
民
气
氣
水
氵
氶
氷
永
氺
氾
求
汉
汝
汞
江
沃
沓
沙
沝
泉
法
波
泣
泥
泰
洛
洪
活
派
流
浦
浪
浮
淡
淮
清
渚
渠
湖
湯
滿
漸
火
灬
灭
灰
灵
灷
炅
炎
炏
炗
炙
炭
為
烈
烏
烝
焉
無
焦
焱
然
煞
熊
熏
燕
營
燮
爪
爫
爭
爯
爰
爱
爲
爵
父
爻
爽
爾
爿
片
牙
牚
牛
牜
牟
牢
牧
牪
牽
犀
犬
犭
犮
狂
狄
狊
独
狺
猋
猒
猪
献
獻
玄
率
玉
王
玟
玨
珎
班
琴
瑟
瑩
瓜
瓦
甘
甚
生
産
用
甫
甬
田
由
甲
申
电
甶
男
甸
甹
画
甾
畀
界
畏
畐
留
畜
畟
畢
畧
畨
番
畫
異
畱
當
畺
畾
疊
疋
疌
疑
疒
疾
癶
癸
癹
登
發
白
百
皀
皃
的
皆
皇
皋
皐
皕
皮
皷
皿
盃
盆
盇
盈
益
盍
盎
监
盒
盖
盛
盡
監
盤
盧
目
直
相
盾
省
眇
眉
看
眔
眞
真
眷
眼
眾
着
睘
睪
睿
瞏
瞢
瞿
矍
矛
矞
矢
矣
知
矦
短
石
破
碎
磊
磨
示
礻
礼
祟
票
祭
禀
禁
禸
禹
禺
离
禽
禾
禿
秀
秃
秉
秋
科
秝
秦
移
稟
穀
穌
穴
究
穹
空
穿
突
窄
窒
立
竒
竜
竝
竟
章
童
竹
笑
笠
筆
等
答
箕
算
箴
節
篤
篭
米
粉
粛
粟
粤
粦
粲
糞
糸
糹
系
約
納
素
索
紫
累
細
絜
絫
絲
維
綿
縣
繇
纍
纟
缶
网
罒
罔
罕
罗
罙
罡
罢
罪
署
罷
羅
羊
羌
羍
美
羔
羕
羗
羞
羡
羣
群
義
羲
羸
羽
翁
翏
習
翕
翟
翠
翼
老
耂
考
者
耆
而
耎
耑
耒
耳
耴
耶
耷
聂
聊
聖
聚
聶
聿
肀
肃
肅
肉
肖
肙
肥
肩
肯
育
肴
胃
背
胡
胥
能
脊
脩
膚
臣
臤
臧
自
臬
臭
臯
臱
至
致
臺
臼
臽
臾
臿
舀
舂
舄
與
興
舉
舌
舍
舛
舜
舞
舟
般
艮
良
色
艸
艹
艾
芒
芔
芬
芮
花
芳
芺
芻
苔
苗
苟
若
苦
英
茶
茸
荅
草
荒
荣
荼
莆
莧
莫
莽
菆
菊
菐
華
萬
落
葉
著
葛
董
葵
蒙
蒦
蒼
蓋
蓬
蓺
蔑
蔡
蕉
蕭
薄
薛
薦
薰
藍
藏
藥
蘭
虍
虎
虐
虒
虔
處
虖
虗
虘
虚
虛
虜
虞
虫
虽
蚤
蚩
蜀
蜜
蟲
蠡
血
行
衍
衛
衢
衣
衤
表
衮
衰
袁
袞
褭
褱
襄
襾
西
覀
要
覃
見
規
覓
覧
親
覽
见
角
解
言
訁
訇
計
詹
誩
諸
讠
谷
豆
豈
豊
豐
豕
豖
豙
象
豦
豩
豪
豸
貇
貝
貞
貟
負
貢
貧
貪
貫
責
貳
貴
買
費
賁
資
賈
賏
賓
賔
賛
賞
賢
賣
質
賴
贊
贝
贡
责
贯
贲
贵
赖
赞
赤
赦
走
越
足
路
蹇
身
躬
車
軍
軎
軟
輦
车
辛
辜
辟
辥
辰
辱
農
辵
辶
边
达
过
近
连
迷
追
退
送
逆
逐
通
速
造
逢
連
逮
進
遀
遂
過
道
達
遣
適
遷
遺
邊
邑
邕
那
邦
邪
郎
部
郭
都
鄂
鄉
酉
酋
配
酓
釆
采
里
重
野
量
金
釒
錢
钅
镇
長
镸
长
門
閃
閉
開
閏
閑
閒
間
閔
閵
閻
闌
门
间
闷
阑
阜
阝
阿
降
陳
隆
隊
隋
隡
隨
隱
隶
隹
隺
隻
隼
隽
难
雀
雁
集
雈
雋
雍
雐
雔
雙
雚
雜
雝
離
難
雨
雩
雪
雲
零
雷
需
霍
霜
霝
霞
霸
靈
靑
青
非
靡
面
靣
革
韋
韦
韭
韯
韱
音
頁
頃
項
須
頗
頡
頻
顛
页
風
风
飛
飞
食
飠
養
饣
首
香
馬
馮
駦
马
骨
高
髟
鬥
鬯
鬲
鬼
魚
魯
鮮
鱼
鲁
鳥
鳳
鸟
鹵
鹿
麃
麗
麥
麦
麻
黃
黄
黍
黎
黑
黒
黨
黹
黽
黾
鼎
鼓
鼠
鼻
齊
齋
齐
齒
齿
龍
龙
龜
龟
龠
龰
龱
龴
龵
龶
龷
龸
龹

者
艹
﷽
？
￼
𐡣
𐡥
𐡬
𐡴
𐡶
𐣠
𐣡
𐣣
𐣤
𐣧
𐣨
𐣩
𐣫
𐣬
𐣴
𐣵
𐤉
𐤋
𐤐
𐤒
🜨
🥇
🥈
🥉
𠀁
𠀃
𠀆
𠀉
𠀎
𠀐
𠁁
𠁣
𠂆
𠂇
𠂈
𠂉
𠂊
𠂋
𠂎
𠂒
𠂔
𠂛
𠂡
𠂢
𠂤
𠂬
𠂭
𠂹
𠃊
𠃋
𠃌
𠃍
𠃎
𠃑
𠃓
𠃔
𠃜
𠄌
𠄎
𠄠
𠄢
𠆢
𠆥
𠇍
𠈌
𠌵
𠓜
𠔉
𠔥
𠔼
𠔽
𠔿
𠕀
𠕁
𠕋
𠘧
𠘨
𠙻
𠙼
𠚏
𠚒
𠚤
𠚪
𠣏
𠤎
𠤕
𠥓
𠦄
𠦑
𠦝
𠧒
𠧗
𠧪
𠩺
𠪚
𠫓
𠫔
𠫤
𠬛
𠬝
𠬞
𠬢
𠬤
𠬶
𠮛
𠮦
𠮷
𠯑
𠱠
𠳮
𠷎
𡈼
𡉀
𡉵
𡌥
𡍮
𡏳
𡕒
𡕩
𡕰
𡖅
𡗗
𡗜
𡘆
𡘤
𡧱
𡨄
𡩧
𡬠
𡭽
𡰣
𡰥
𡰪
𡰯
𡰱
𡷈
𡸁
𡿨
𡿩
𡿪
𡿺
𢀖
𢀛
𢀩
𢁙
𢆉
𢆰
𢆶
𢇁
𢇇
𢉖
𢌬
𢌿
𢏚
𢑑
𢑚
𢖻
𢙣
𢛳
𢦏
𢦒
𢧵
𢼄
𢾕
𣁋
𣄼
𣅀
𣅽
𣍘
𣎳
𣎵
𣏋
𣏼
𣗥
𣥂
𣥖
𣦵
𣦼
𣧄
𣪊
𣪠
𣬉
𣳾
𣶒
𤇾
𤊽
𤐫
𤓰
𤔔
𤕨
𤣩
𤰇
𤰔
𤰞
𤴓
𤴔
𤽄
𥁑
𥁕
𥃦
𥃩
𥃭
𥇡
𥑟
𥘅
𥘈
𥝢
𥫗
𥱡
𦈢
𦉪
𦉬
𦉼
𦍌
𦍒
𦎧
𦐇
𦓔
𦔮
𦘒
𦙃
𦚏
𦣝
𦣞
𦣻
𦥑
𦥔
𦥯
𦨉
𦭝
𦰩
𧆞
𧈧
𧘇
𧰨
𧴪
𧴮
𧵩
𧾷
𨸏
𨾴
𩙿
𩠐
𩫏
𩵋
𪉷
𪜀
𪟽
𪠲
𪩲
𫇦
𫔭
𫜸
𫝀
𫠣
𫠩
𫢉
𫥞
𫩏
𫩠
𫪡
𫲽
𫶧
𬀷
𬐘
𬗌
𬙙
𬛸
𬜯
𬟩
𬯁
𬴘
𬺻
𬼉
𬼖
𭀰
𭁈
𭁨
𭅰
𭑈
𭕄
𭗼
𭤨
𭥫
𭻾
𮅕
𮊿
𮍌
𮍏
𮓗
𮥼
𮧮
廾
𰀁
𰀄
𰀈
𰀉
𰀕
𰀠
𰀡
𰀢
𰀪
𰁜
𰃮
𰆊
𰆘
𰋙
𰕎
𰢴
𰧭
𰯲
00--
01--
02--
03--
06--
07--
100--
108--
109--
111--
135--
24--
273--
29--
30--
32--
34--
37--
38--
41--
43--
46--
48--
49--
50--
51--
53--
54--
55--
57--
62--
64--
66--
67--
71--
76--
78--
81--
83--
86--
90--
92--
93--
9984--
a--
aa--
ab--
aba--
abd--
abi--
abo--
abu--
abys--
ac--
accom--
achi--
ad--
ada--
add--
ade--
adi--
ado--
adu--
ae--
aero--
af--
afa--
ag--
aggre--
ah--
ai--
air--
aja--
aji--
ak--
aka--
akin--
akuo--
akɔ--
al--
ala--
alahi--
ale--
ali--
alif--
aligbe--
alve--
am--
ama--
aman--
ame--
amo--
amu--
an--
and--
ander--
ang--
ani--
ano--
anthro--
anti--
any--
ap--
app--
aq--
aqu--
aqui--
ar--
ara--
arbit--
aristoc--
aro--
as--
asa--
ash--
asi--
at--
ata--
ath--
ati--
attr--
atw--
au--
aust--
aw--
awu--
ay--
ayi--
ayo--
az--
b--
ba--
baa--
baan--
baba--
bachi--
baf--
bag--
bah--
bak--
bal--
bali--
balim--
bam--
ban--
bar--
bas--
bat--
bau--
baŋ--
baɣa--
baɣi--
be--
beau--
beck--
bee--
ben--
beni--
bes--
bi--
bia--
bie--
bihi--
bil--
bili--
bim--
bin--
bini--
binniɛ--
binyi--
bio--
bis--
biya--
biŋ--
black--
bloo--
bo--
bob--
body--
boe--
boh--
bon--
bona--
boo--
bor--
bou--
boul--
bour--
bow--
br--
brac--
bre--
bri--
brit--
bro--
bru--
bu--
buc--
bug--
buk--
bula--
bum--
bun--
bur--
buyo--
buɣ--
buɣi--
buɣu--
bɔ--
bɔbi--
bɔl--
bɔɣi--
bɛ--
bɛi--
bɛn--
bʋ--
c--
ca--
cal--
calcul--
cam--
cama--
camp--
can--
capi--
car--
cas--
cast--
cat--
cax--
ce--
cel--
centra--
cere--
ch--
cha--
chaan--
chal--
char--
chaŋ--
che--
chee--
chi--
chic--
chin--
chlo--
cho--
chu--
chɛ--
cir--
circum--
citi--
cla--
clare--
cle--
clear--
cli--
cliba--
clo--
co--
cocc--
col--
com--
con--
conn--
conser--
consi--
constra--
conten--
contitu--
contr--
conve--
coor--
cor--
cori--
corne--
cou--
cour--
cov--
cran--
cre--
cro--
cru--
cry--
cu--
cuan--
cui--
cul--
cur--
cus--
cy--
cyc--
cyre--
cze--
d--
da--
daa--
daan--
dab--
dabi--
dago--
dagu--
daha--
dam--
dan--
dar--
dari--
data--
date--
day--
daŋ--
dd--
de--
dec--
deen--
del--
dele--
den--
dep--
der--
des--
desc--
dete--
develo--
di--
dib--
dict--
die--
dif--
dig--
dim--
din--
dini--
dis--
disam--
disc--
discre--
dist--
diŋ--
diɛ--
dje--
djidd--
do--
don--
doo--
dor--
dou--
doɣiri--
dr--
dro--
du--
dudu--
dun--
dut--
duŋ--
dy--
dzi--
dzo--
dɔ--
dɔri--
dɛ--
e--
ea--
ear--
east--
eb--
ec--
eco--
ed--
edit--
edu--
ef--
el--
electri--
em--
en--
eng--
equ--
er--
es--
est--
et--
eu--
eve--
ex--
eyi--
ezzu--
f--
fa--
faa--
fair--
fak--
fe--
fer--
fi--
fili--
fin--
fir--
fla--
flo--
fo--
fol--
foo--
for--
fr--
frag--
fre--
fu--
fuku--
ful--
fun--
fur--
furi--
fɔ--
g--
ga--
gaa--
gab--
gabi--
gail--
gal--
gala--
galin--
gam--
gan--
gar--
gari--
gas--
gay--
gaŋ--
gb--
gba--
gban--
gbaŋ--
gbe--
gbeng--
gbi--
gbin--
gbu--
gbun--
gbuŋ--
gbɛ--
gbɛng--
ge--
gen--
geo--
gh--
ghana--
ghar--
gi--
gin--
ging--
gingaɣi--
gla--
gle--
glo--
go--
gol--
goli--
gom--
goo--
gor--
gq--
gra--
gradu--
grand--
green--
gu--
gub--
gum--
gun--
gut--
guŋ--
gya--
gɔ--
gɔŋ--
h--
ha--
hab--
haf--
han--
hand--
har--
has--
hat--
hay--
haza--
he--
head--
hel--
her--
hey--
hi--
high--
him--
his--
hit--
ho--
hob--
hod--
hon--
html--
hu--
hung--
hus--
hut--
hy--
hydr--
hydro--
hyper--
i--
iba--
id--
idio--
if--
ig--
ii--
il--
ili--
im--
ima--
impli--
in--
incre--
indi--
inf--
infe--
inha--
innova--
inspir--
inst--
instru--
int--
inter--
ir--
is--
isa--
iso--
it--
iv--
iyen--
j--
ja--
jaa--
jaan--
jan--
jar--
jaŋ--
je--
jen--
ji--
jinj--
jiram--
jo--
joaq--
jon--
ju--
jɛ--
jɛŋ--
k--
ka--
kaa--
kab--
kadi--
kal--
kala--
kali--
kam--
kami--
kan--
kao--
kas--
kasiɣisiri--
kata--
kati--
kaŋ--
kaɣi--
ke--
kel--
kem--
ken--
kes--
kh--
kha--
khe--
ki--
kil--
kin--
kit--
ko--
kol--
kom--
kon--
koo--
kor--
kp--
kpa--
kpaa--
kpal--
kpam--
kpan--
kpar--
kpaɣi--
kpaɣu--
kpen--
kpi--
kpin--
kpuk--
kpun--
kpuŋ--
kre--
krist--
kro--
kru--
ku--
kudi--
kul--
kuli--
kum--
kun--
kundi--
kur--
kuri--
kurum--
kuɣi--
kwa--
kwe--
ky--
kɔ--
kɔb--
kɔm--
kɔn--
kɔɣu--
kɛ--
l--
la--
laa--
laam--
lab--
labi--
laha--
lahi--
lake--
lala--
lam--
lan--
lapp--
lar--
lari--
lat--
laun--
laɣ--
laɣi--
laɣin--
le--
legis--
lei--
lem--
leo--
lept--
leu--
lew--
li--
lib--
libya--
lii--
limuɣi--
lin--
list--
listn--
lithu--
liver--
liŋ--
liɛ--
ll--
lo--
log--
long--
loo--
lu--
luc--
lun--
luŋ--
luɣ--
ly--
lɔ--
lɛ--
lɛb--
m--
ma--
maa--
mabi--
mac--
mag--
magh--
mai--
mal--
mali--
mam--
mamp--
man--
map--
mar--
mas--
mat--
mau--
mauri--
may--
maŋ--
mba--
mc--
mcc--
me--
meas--
med--
meh--
men--
mer--
mes--
mi--
micro--
mid--
mig--
mii--
mil--
milli--
mir--
miri--
mis--
misp--
mist--
mit--
miɛ--
mm--
mo--
mocc--
mog--
mon--
mono--
mor--
morri--
mos--
mou--
mp--
mpu--
mu--
multi--
mum--
mun--
muna--
muqa--
mur--
mus--
muɣ--
mw--
my--
myɛ--
mɔ--
mɔri--
n--
na--
naa--
naan--
naaw--
nabi--
nabɔ--
nah--
nahan--
nahu--
nam--
nama--
nambɔ--
namɔ--
nan--
napa--
napon--
napɔn--
nar--
nat--
natitam--
nav--
naŋ--
naɣ--
naɣi--
naɤin--
nd--
nda--
nde--
ne--
nee--
neem--
neen--
neg--
neuro--
new--
ng--
ni--
nia--
nig--
nik--
nil--
nim--
nin--
nini--
niŋ--
niɛ--
niɣi--
nkaw--
nket--
nkra--
nkusu--
nla--
nm--
nn--
no--
non--
nor--
not--
nou--
nso--
nu--
nuche--
nw--
ny--
nya--
nyaan--
nyan--
nye--
nyin--
nyo--
nyu--
nyɔ--
nyɛ--
nɔ--
nɛ--
nɛɛ--
o--
ob--
obvio--
oc--
occ--
ode--
odo--
of--
off--
ok--
ol--
ola--
oluwa--
on--
oni--
ope--
or--
org--
ori--
ortho--
os--
osa--
ost--
ot--
oto--
oul--
ous--
out--
over--
oxid--
oye--
oyi--
oyɛ--
p--
pa--
paa--
pac--
pali--
pan--
par--
patr--
patriar--
pay--
paɣ--
paɣa--
paɣi--
pc--
pdf--
pe--
pee--
pel--
pend--
per--
ph--
phaco--
phy--
physi--
pi--
pihi--
pii--
pin--
pina--
piso--
pix--
pkɛ--
pl--
pla--
plea--
po--
pol--
poly--
pon--
poo--
por--
pos--
post--
pp--
pr--
pra--
pre--
preg--
prere--
pri--
pro--
pseudo--
pt--
pu--
pul--
pum--
pun--
pur--
put--
puu--
pɔ--
pɔb--
pɔhim--
pɔri--
pɛ--
pʋ--
q--
qa--
qar--
qay--
qu--
qui--
r--
ra--
radio--
ran--
re--
rece--
rectan--
red--
ref--
regi--
reticul--
retr--
rhi--
rhino--
ri--
rid--
ro--
roche--
rou--
row--
ru--
run--
ruqay--
rus--
s--
sa--
saa--
saawari--
saba--
sabi--
sac--
sacra--
sag--
saha--
sahi--
sak--
sal--
salin--
salva--
sam--
san--
sar--
saŋ--
saɣi--
sc--
sch--
scro--
se--
sea--
sec--
sei--
seo--
ser--
ses--
sh--
sha--
shadbakh--
she--
sher--
shi--
shin--
shɛ--
si--
sib--
sig--
sim--
sin--
site--
slo--
smir--
smy--
so--
sog--
soja--
some--
son--
soo--
sou--
sp--
spec--
ss--
st--
stan--
ste--
stein--
stereo--
sto--
stock--
strat--
stre--
sty--
su--
sub--
succ--
suf--
sug--
suhi--
suhu--
suli--
sum--
sun--
super--
supp--
sur--
susp--
sust--
sw--
sy--
sym--
sɔ--
sɔhi--
sɔɣ--
sɔɣa--
t--
ta--
taa--
taan--
tabi--
tah--
tahi--
tail--
talk--
tam--
tan--
tar--
tas--
tau--
taw--
taŋkpa--
taɣa--
te--
tee--
ten--
ter--
tere--
tes--
th--
the--
theo--
thermo--
thor--
ti--
tib--
tibi--
tig--
tim--
tin--
tingban--
tinkan--
tinŋ--
tizo--
tiŋ--
tiɛ--
to--
tob--
tol--
ton--
too--
tor--
tr--
tra--
trans--
trea--
tren--
tric--
tro--
tu--
tua--
tub--
tudu--
tuhi--
tuhu--
tum--
tun--
tur--
tuu--
tuun--
tuɣu--
tv--
tɔ--
tɔb--
tɔbu--
tɔŋ--
tɔɣ--
tɛ--
tɛhi--
u--
ud--
ug--
ui--
uk--
um--
un--
up--
ur--
ut--
v--
va--
val--
van--
ve--
ven--
ver--
vi--
vien--
vig--
vihigu--
vill--
ville--
vin--
vit--
viɛ--
viɛn--
vo--
vu--
vub--
vɔ--
vɔɔ--
vɛ--
w--
wa--
waa--
waan--
wal--
war--
wari--
was--
waɣa--
we--
web--
wel--
west--
wet--
wh--
whit--
wi--
wie--
wil--
wild--
win--
wind--
wo--
wol--
woli--
woll--
wu--
wuli--
wulim--
wulin--
wulun--
wum--
wun--
wɔ--
x--
y--
ya--
yaa--
yaan--
yab--
yali--
yam--
yamo--
yan--
yar--
yaɣ--
yaɣa--
yaɣi--
ye--
yel--
yen--
yi--
yigi--
yili--
yilo--
yim--
yis--
yo--
yu--
yuum--
yuun--
yɔ--
yɔɣ--
yɔɣu--
yɛ--
yɛl--
yɛli--
yɛm--
yɛn--
z--
za--
zaa--
zab--
zabi--
zag--
zal--
zali--
zan--
zang--
zaŋ--
zaɣ--
zaɣa--
zaɣi--
ze--
zi--
zim--
zin--
zo--
zon--
zoo--
zu--
zun--
zuu--
zuɣ--
zuɣi--
zuɣu--
zɔ--
zɔɣu--
ŋ--
ŋa--
ŋam--
ŋan--
ŋm--
ŋma--
ŋmamp--
ŋman--
ŋmɛ--
ŋo--
ŋu--
ŋum--
ŋun--
ŋɔ--
ƒ--
ɔ--
ɖ--
ɛ--
ɡ--
ɣ--
ɣa--
ɣi--
ɣu--
ʒa--
ʒe--
ʒi--
ʒin--
ʒishe--
ʒiɛ--
ʒɛ--
ا--
ب--
ح--
خ--
س--
سو--
صی--
ـ--
و--
ي--
ہ--
--0
--00
--1
--13
--2
--22
--3
--31
--35
--37
--39
--4
--41
--45
--47
--5
--6
--60
--69
--7
--72
--728
--74
--78
--8
--81
--9
--92
--98
--99
--a
--aa
--aari
--able
--ace
--ad
--ade
--adi
--ae
--age
--agne
--agu
--ah
--aha
--ahi
--ahigu
--ahili
--ai
--aic
--ain
--ais
--aja
--aji
--ak
--aku
--al
--ala
--ali
--all
--ally
--am
--ami
--ampton
--an
--ana
--anaden
--ance
--anda
--andi
--ani
--anima
--ans
--ansi
--ant
--anu
--ar
--ard
--ari
--arigu
--ary
--as
--ase
--asi
--asiya
--at
--ata
--ate
--ated
--ates
--ati
--ation
--ations
--ative
--ator
--atu
--au
--aw
--ay
--aya
--ayi
--ayili
--aŋ
--aŋa
--b
--ba
--bach
--back
--baŋ
--bb
--bba
--bbu
--be
--bea
--bee
--belt
--bet
--bi
--bia
--bihi
--bil
--bila
--bilim
--bis
--bisi
--biye
--biɛri
--bla
--ble
--bli
--bly
--bo
--boats
--boro
--borough
--bourg
--bre
--bs
--bu
--bul
--burg
--bury
--by
--bɔ
--bɔŋ
--bɛ
--bɛɣu
--bʋ
--c
--ca
--cal
--cat
--ce
--cens
--cer
--ces
--ch
--che
--chi
--cht
--ci
--cia
--cies
--cing
--cio
--ck
--cke
--co
--cos
--cq
--cs
--ct
--ction
--cum
--cus
--cy
--d
--da
--daa
--dae
--dah
--dale
--dan
--de
--dea
--den
--dez
--di
--dian
--dic
--din
--dir
--do
--doo
--dow
--dra
--dro
--ds
--du
--dua
--duct
--duu
--dy
--dɔ
--dɔɣu
--e
--ea
--ean
--eans
--eat
--eau
--eb
--ect
--ed
--ee
--eem
--een
--eenth
--eeq
--ees
--ef
--efe
--ega
--egu
--eh
--ei
--ein
--ek
--el
--ela
--ele
--eli
--ell
--em
--eme
--ement
--en
--ena
--ene
--eni
--ens
--ense
--ensis
--ent
--ep
--er
--ere
--ered
--eri
--ern
--ers
--ert
--erus
--ery
--es
--ese
--est
--et
--ett
--etti
--eur
--eux
--eville
--ey
--ez
--eɣu
--f
--fa
--faa
--fe
--fee
--ff
--ffs
--fi
--fia
--field
--fo
--ford
--fs
--fu
--g
--ga
--gan
--ganaden
--gba
--gbana
--gbaŋ
--gbeli
--gbriŋ
--ge
--ged
--ger
--gh
--gham
--gi
--gibu
--gim
--gira
--giri
--gli
--gni
--gny
--go
--gon
--goni
--goo
--graphy
--gs
--gt
--gu
--gua
--gunaden
--h
--ha
--ham
--he
--hes
--hi
--hidae
--hima
--hing
--hip
--hl
--hn
--ho
--hood
--hr
--ht
--http
--https
--hu
--hɛli
--i
--ia
--ialis
--ian
--iana
--ians
--iasis
--ib
--ibu
--ic
--ica
--ick
--ico
--ics
--icus
--id
--ida
--idae
--ide
--idi
--ie
--ied
--ien
--ience
--iensis
--ient
--ier
--ies
--if
--ifa
--ify
--igi
--igu
--ihi
--ii
--iidae
--iila
--iiya
--ik
--ika
--iki
--il
--ila
--ile
--ili
--ility
--im
--ima
--imi
--in
--ina
--inated
--ine
--ing
--ings
--inho
--inima
--ino
--insi
--io
--ion
--ions
--ios
--ip
--ir
--ira
--ire
--iro
--iru
--is
--isation
--ish
--isi
--ism
--ist
--istan
--it
--ite
--iter
--ites
--ities
--itt
--ity
--itz
--ium
--ius
--ive
--ivism
--ix
--iya
--iyah
--iyya
--iyyi
--iz
--ization
--ize
--ized
--izes
--izing
--iŋ
--iɛ
--iɛli
--iɛm
--j
--ja
--je
--ji
--jini
--jo
--jɔɣu
--k
--ka
--kam
--kara
--kaw
--ke
--ked
--ker
--kh
--ki
--kin
--ko
--kom
--kor
--kp
--kpeen
--kpeeni
--kpomo
--kpɛma
--ks
--kt
--ku
--kur
--kura
--kuro
--kwu
--kya
--kye
--kɔ
--kɔna
--l
--la
--laa
--laan
--lan
--lana
--land
--lani
--lanyili
--lay
--ld
--ldi
--le
--leaf
--led
--leh
--ler
--ley
--leye
--lf
--lga
--lgu
--li
--lia
--lic
--lim
--limi
--lin
--linaden
--line
--link
--lis
--lk
--ll
--lla
--lle
--lli
--llo
--lly
--lm
--lo
--logu
--logy
--lon
--ls
--lsi
--lt
--lu
--lugu
--lusion
--ly
--lyn
--lys
--m
--ma
--maa
--mam
--man
--mar
--mas
--maŋ
--mba
--mbi
--mbila
--mbo
--mbu
--me
--med
--ment
--ments
--mi
--mirili
--mli
--mo
--mond
--most
--mpaɣa
--mpuŋ
--ms
--msi
--msim
--mu
--n
--na
--naa
--naanu
--naden
--nahi
--nama
--name
--nba
--nbu
--nca
--nce
--ncy
--nd
--nda
--ndi
--ndili
--ndo
--ndoo
--ndow
--nds
--ne
--ned
--neh
--nel
--ner
--nes
--ness
--ng
--nga
--ngi
--ngu
--ni
--nia
--nic
--nigu
--nii
--nim
--nima
--nina
--nira
--nis
--niŋ
--nji
--nk
--nli
--nlli
--nmi
--nn
--nnaa
--nni
--no
--ns
--nsi
--nsim
--nsis
--nso
--nt
--nte
--nti
--ntia
--ntoli
--nts
--nu
--nus
--ny
--nya
--nyoo
--nyɛla
--nza
--nŋ
--nŋa
--o
--oa
--oc
--occus
--ock
--ocks
--ode
--oe
--oes
--of
--oga
--ogist
--oglyphs
--oh
--oi
--ok
--oke
--ol
--ola
--oli
--om
--oma
--omy
--on
--ona
--ond
--ong
--ongo
--online
--ons
--oo
--ood
--ooya
--op
--or
--ord
--oro
--ors
--orum
--ory
--os
--osa
--ose
--osporum
--ot
--ou
--oula
--oun
--ous
--ov
--ova
--ow
--own
--ox
--oya
--p
--pa
--page
--pahi
--paɣa
--pe
--ped
--peni
--pha
--pi
--pia
--ping
--po
--polis
--polo
--port
--ps
--pu
--pubu
--pus
--pɔŋ
--pɛili
--q
--qa
--qah
--qua
--r
--ra
--ral
--ran
--rb
--rc
--rch
--rd
--rde
--re
--rer
--ret
--rg
--rgu
--ri
--ria
--riba
--ric
--rie
--ries
--riga
--rika
--rila
--rima
--ris
--rism
--rized
--rke
--rko
--rl
--rley
--rlotte
--rm
--rn
--ro
--ropus
--ros
--rp
--rry
--rs
--rt
--rta
--rton
--ru
--rum
--rus
--ry
--rɛ
--s
--sa
--saa
--sani
--sapima
--sboro
--sburg
--scan
--sch
--sche
--schen
--sco
--se
--sed
--ser
--ses
--sh
--she
--shed
--shi
--ship
--sho
--shot
--si
--sia
--sie
--sili
--sim
--sing
--sion
--sira
--siri
--sirila
--sis
--site
--siya
--ski
--slav
--sm
--so
--som
--son
--sor
--sque
--ss
--ssa
--sse
--sses
--st
--sta
--stan
--star
--stein
--ster
--stic
--ston
--style
--su
--suma
--suŋ
--sville
--sy
--t
--ta
--taba
--tal
--tali
--tary
--te
--tea
--ted
--teen
--ter
--teri
--tery
--tes
--tey
--th
--thic
--ti
--tia
--tic
--tica
--tidae
--tie
--tier
--ties
--tiha
--time
--tin
--ting
--tion
--tis
--tism
--title
--tive
--tiŋ
--tiŋa
--tle
--to
--ton
--tor
--tos
--town
--ts
--tt
--tta
--tte
--ttps
--tu
--tur
--tus
--tv
--ty
--tyle
--type
--tɔɣa
--tɔɣu
--u
--ua
--ub
--ubu
--ud
--udi
--ue
--ued
--uf
--uga
--ugu
--ui
--ul
--ula
--ule
--uli
--um
--uma
--un
--una
--uni
--uous
--up
--ur
--ura
--ure
--url
--urn
--urus
--us
--usa
--ush
--usi
--ut
--ute
--uth
--uti
--ution
--uuka
--uwa
--ux
--uŋ
--uɣ
--uɣu
--v
--va
--vat
--ve
--ves
--vi
--ville
--ving
--vo
--vry
--vu
--vuɣ
--vy
--w
--wa
--ward
--way
--waya
--we
--web
--wei
--wi
--wich
--wise
--wiya
--wk
--wl
--wn
--wo
--wole
--wood
--wu
--wura
--wɔbiga
--wɔi
--wɔɣu
--x
--xe
--y
--ya
--yam
--ye
--yee
--yi
--yili
--yini
--ym
--yn
--yo
--yopoin
--yopɔin
--yu
--yuya
--yya
--yɔbu
--yɔna
--yɔpɔi
--yɛ
--yɛn
--z
--za
--zaa
--zam
--zar
--zation
--zaŋ
--ze
--zed
--zegu
--zel
--zi
--zuɣu
--ŋ
--ŋa
--ŋda
--ŋdiba
--ŋga
--ŋgu
--ŋli
--ŋo
--ŋsi
--ŋɔ
--ɔ
--ɔli
--ɔri
--ɔya
--ɔŋ
--ɔɣim
--ɔɣu
--ɛ
--ɛbu
--ɛi
--ɛla
--ɛli
--ɛlli
--ɛm
--ɛma
--ɛmdi
--ɛn
--ɛra
--ɛri
--ɛŋ
--ɛɣu
--ɡu
--ɣ
--ɣa
--ɣi
--ɣili
--ɣisi
--ɣu
--ɣɔ
--ɣʋ
--ɤa
--ɤi
--ɤu
--ʋ
--ʒ
--ʒee
--ʒi
--ʒɛli
--ب
--ة
--ت
--د
--ر
--ز
--ق
--قة
--ل
--م
--ي
--ية
--ين
--ے
