!
"
#
##0
##1
##10
##11
##12
##13
##14
##15
##16
##17
##18
##19
##2
##20
##21
##22
##23
##24
##25
##26
##27
##28
##29
##3
##30
##31
##32
##33
##34
##35
##36
##37
##38
##39
##4
##40
##41
##42
##43
##44
##45
##46
##47
##48
##49
##5
##50
##51
##52
##53
##54
##55
##56
##57
##58
##59
##6
##60
##61
##62
##63
##64
##65
##66
##67
##68
##69
##7
##70
##71
##72
##73
##74
##75
##76
##77
##78
##79
##8
##80
##81
##82
##83
##84
##85
##86
##87
##88
##89
##9
##90
##91
##92
##93
##94
##95
##96
##97
##98
##99
$
%
&
'
(
)
*
+
,
-
.
/
0
00
000
001
002
003
005
007
009
01
017
02
020
021
024
025
026
027
028
03
030
032
034
035
036
04
040
041
042
046
047
05
050
052
053
055
06
061
067
069
07
073
079
08
082
085
088
089
09
093
095
096
098
099
1
10
100
1000
101
102
103
1036
104
105
106
1064
107
108
109
11
110
1103
111
112
113
114
115
116
117
118
1185
119
12
120
1200
1201
121
122
1224
123
1230
124
125
1256
126
1261
1263
127
1274
128
129
13
130
1300
131
132
1320
133
1337
134
1348
135
1354
136
137
1378
138
1383
139
1390
1398
1399
14
140
1400
141
142
1429
143
1430
1435
1438
144
1442
1445
1446
145
1450
1453
1454
1455
146
1460
1464
1465
1466
1467
1468
1469
147
1470
1472
1474
1475
1476
1477
1479
148
1480
1481
1483
1484
1485
1487
1488
1489
149
1490
1492
1494
1495
1496
1497
1499
15
150
1500
1504
1506
151
1510
1511
1513
1515
1518
1519
152
1520
1521
1523
1525
1528
153
1530
1532
1534
1535
1538
1539
154
1540
1541
1543
1545
1546
1547
155
1550
1551
1552
1556
1557
156
1562
1563
1564
1569
157
1570
1571
1572
1573
1575
1577
1578
158
1580
1582
1585
1588
159
1590
1592
1593
1594
1595
1598
1599
16
160
1600
1601
1602
1605
1606
1609
161
1610
1611
1614
1615
1617
1619
1620
1621
1622
1625
1626
1628
1629
163
1630
1632
1633
1635
1636
1638
164
1641
1642
1643
1644
1645
1646
1647
1649
165
1650
1651
1652
1653
1654
1655
1656
1659
166
1660
1661
1662
1663
1664
1665
1666
1667
1668
167
1670
1675
1676
1678
1679
168
1680
1682
1683
1684
1685
1686
1687
1688
1689
169
1690
1691
1692
1693
1694
1695
1696
1697
1699
17
170
1700
1703
1705
1706
1707
1708
1709
171
1710
1711
1712
1713
1714
1715
1716
1717
1719
172
1721
1722
1723
1724
1726
1727
1728
1729
173
1730
1731
1732
1733
1734
1735
1736
1737
1738
1739
174
1741
1742
1743
1744
1745
1746
1747
1748
1749
175
1750
1752
1753
1754
1755
1756
1757
1758
1759
176
1760
1761
1762
1764
1765
1766
1767
1768
1769
177
1770
1771
1772
1773
1774
1775
1776
1777
1778
1779
178
1780
1781
1782
1783
1784
1785
1786
1787
1788
1789
179
1790
1791
1792
1793
1794
1795
1796
1797
1798
1799
18
180
1800
1801
1802
1803
1804
1805
1806
1807
1808
1809
181
1810
1811
1812
1813
1814
1815
1816
1817
1818
1819
182
1820
1821
1822
1823
1824
1825
1826
1827
1828
1829
183
1830
1831
1832
1833
1834
1835
1836
1837
1838
1839
184
1840
1841
1842
1843
1844
1845
1846
1847
1848
1849
185
1850
1851
1852
1853
1854
1855
1856
1857
1858
1859
186
1860
1861
1862
1863
1864
1865
1866
1867
1868
1869
187
1870
1871
1872
1873
1874
1875
1876
1877
1878
1879
188
1880
1881
1882
1883
1884
1885
1886
1887
1888
1889
189
1890
1891
1892
1893
1894
1895
1896
1897
1898
1899
19
190
1900
1901
1902
1903
1904
1905
1906
1907
1908
1909
191
1910
1911
1912
1913
1914
1915
1916
1917
1918
1919
192
1920
1921
1922
1923
1924
1925
1926
1927
1928
1929
193
1930
1931
1932
1933
1934
1935
1936
1937
1938
1939
194
1940
1941
1942
1943
1944
1945
1946
1947
1948
1949
195
1950
1951
1952
1953
1954
1955
1956
1957
1958
1959
196
1960
1961
1962
1963
1964
1965
1966
1967
1968
1969
197
1970
1971
1972
1973
1974
1975
1976
1977
1978
1979
198
1980
1981
1982
1983
1984
1985
1986
1987
1988
1989
199
1990
1991
1992
1993
1994
1995
1996
1997
1998
1999
2
20
200
2000
2001
2002
2003
2004
2005
2006
2007
2008
2009
201
2010
2011
2012
2013
2014
2015
2016
2017
2018
2019
202
2020
2021
2022
203
205
206
207
208
209
21
210
211
212
213
214
215
216
217
218
219
22
220
221
222
223
224
225
226
227
228
229
23
230
231
232
233
234
235
236
237
238
239
24
240
241
242
243
244
245
246
247
248
249
25
250
2500
251
252
253
254
255
256
257
258
259
26
260
261
262
264
265
266
267
268
269
27
270
271
272
273
274
275
276
278
279
28
280
2800
281
282
283
284
285
286
287
289
29
290
291
292
293
294
295
296
297
298
299
3
30
300
3000
301
303
305
306
307
308
309
31
310
311
312
313
314
3166
317
32
320
321
322
323
324
325
326
329
33
330
3300
333
334
335
336
337
338
339
34
340
341
342
345
346
3465
347
35
350
352
354
355
356
358
359
36
360
362
363
364
365
366
368
37
370
371
372
373
375
376
377
378
379
38
380
381
382
384
385
387
388
39
390
391
392
394
396
397
398
399
4
40
400
401
402
403
406
407
409
41
410
411
412
413
414
415
416
417
418
42
420
421
422
424
425
426
428
43
430
432
434
435
436
439
44
440
442
443
444
445
446
447
449
45
450
451
453
455
456
457
459
46
464
467
468
469
47
470
471
473
474
475
476
477
478
48
481
484
485
486
487
488
49
490
491
492
493
494
496
498
499
5
50
500
5000
501
503
504
505
509
51
510
513
514
516
517
518
519
52
520
521
524
525
527
529
53
530
531
533
534
536
537
538
54
540
541
542
543
544
545
546
548
549
55
550
5500
555
556
557
558
559
56
560
561
562
563
564
565
567
569
57
571
573
574
575
576
579
58
580
584
585
587
588
589
59
590
592
593
594
595
596
6
60
600
6000
601
602
603
604
605
606
607
608
61
610
613
615
616
618
619
62
620
621
622
623
624
625
626
629
63
630
631
632
635
637
638
639
64
641
642
643
645
648
65
650
655
656
657
658
66
660
662
664
665
667
668
67
670
672
673
674
675
676
68
680
682
686
687
688
689
69
690
691
692
694
696
697
698
7
70
700
704
706
707
709
71
712
715
716
717
718
72
720
722
724
726
727
7271
729
73
730
731
732
738
739
74
740
741
742
743
745
746
748
749
75
750
751
752
753
754
755
756
757
759
76
760
762
765
767
768
769
77
770
771
772
775
776
779
78
782
783
785
786
787
788
789
79
790
791
793
795
796
798
799
8
80
800
801
802
803
804
805
807
81
810
812
816
82
820
822
823
824
825
826
828
829
83
830
832
833
836
837
838
84
841
843
846
848
849
85
850
851
854
855
856
857
858
86
860
861
862
863
865
866
867
87
870
872
873
875
876
879
88
880
881
882
884
885
888
89
891
893
894
897
9
90
900
901
902
903
904
906
908
91
911
912
913
915
916
918
92
921
923
924
926
927
928
929
93
930
931
932
937
939
94
940
941
944
945
949
95
950
951
952
953
954
955
959
96
960
961
962
967
968
97
970
971
973
974
975
976
978
979
98
980
982
984
985
986
987
988
99
990
992
994
996
998
999
99999
:
;
<
=
>
?
@
\
^
_
`
a
aa
aac
aacı
aacın
aada
aadaki
aadakı
aage
aalama
aalamaa
aalardı
aalas
aalemin
aalto
aalık
aalıklar
aalıın
aan
aanı
aanın
aar
aaramaa
aaras
aardı
aardına
aare
aarer
aarhus
aarif
aarlık
aarma
aarmıs
aarne
aarno
aaron
aarı
aarıldı
aasa
aat
aayın
aaz
aaza
aazdan
aazlan
aazlar
aazlıklar
aazı
aazım
aazına
aazında
aazından
ab
ababa
abaza
abbas
abbey
abbreviation
abbrn
abc
abd
abdi
abdu
abdul
abdullah
abdullayev
abe
abeba
abejar
abel
aberdeen
abhaz
abhaziya
able
ablo
ablon
ablona
ablonas
ablonda
ablondur
ablonlar
ablonlarda
ablonlarla
ablonları
ablonların
ablonlarını
ablonnar
ablonnarı
ablono
ablonu
ablonudur
ablonun
ablonuna
ablonunu
ablonunun
abluons
about
above
abovestyle
abraham
absolutely
abu
abuk
abzat
ac
acaba
acam
acar
acara
accept
accepted
accepts
access
accessdate
accra
ace
acek
aceklar
acest
achieve
achille
acman
across
acted
actively
actual
actually
acı
acıdan
acık
ad
ada
adadı
adalar
adaları
adalarında
adalet
adam
adama
adamdan
adamdı
adami
adamları
adamlarınlan
adammıs
adamnar
adamnarı
adamnarın
adamnarına
adams
adamı
adamın
adamıs
adan
adana
adapt
adası
adasında
add
added
adding
addis
addition
additional
address
adds
ade
adelaide
adem
ader
aderlikli
adersi
adet
adeta
adetc
adetla
adetleri
adetlerina
adetlerini
adetlerinin
adeva
adi
adige
adigeler
adil
adile
adjacent
adjust
adlardan
adları
adlarından
adlarını
adlı
administrat
administrativ
adnan
adolf
adolphe
adq
adresi
adrian
adriatik
adsız
advanced
advertiser
advocate
adı
adıdır
adıg
adıkları
adılan
adım
adımnarını
adına
adında
adından
adını
adının
adır
adıra
adırda
adırdakı
adıyla
adıymıs
adıı
adətən
ae
aeport
aeroport
aeroportlar
aevo
af
afanasievna
afanasiy
afc
affect
affects
afgan
afganistan
afganistanda
afghanistan
afina
afrika
afrikaans
afrikada
afrikalı
afrikalılar
afrikanın
afs
afta
aftalık
after
afyonkarahisar
ag
aga
agaları
agalarını
aganı
agası
agatay
age
agency
agenstvosu
agnes
ago
agostino
agrar
agrikultura
agrippa
agronom
aguila
agul
agullar
agusti
ah
aha
ahan
ahc
ahika
ahin
ahit
ahka
ahkaya
ahla
ahları
ahlu
ahlık
ahlıı
ahlıın
ahlıında
ahlıını
ahmad
ahmak
ahmata
ahmatı
ahmed
ahmet
ahn
aho
ahram
ahridir
ahta
ahtan
ahundov
ahı
ahın
ahına
ahını
aid
aids
aigner
aika
ailesi
aili
ailurus
aime
ain
aino
air
aires
airi
airin
airler
airlerin
ais
ait
aivar
ajans
ajansı
ajda
ak
aka
akademii
akademik
akademikleri
akademisi
akademiya
akademiyası
akademiyasın
akademiyasında
akademiyasının
akan
akar
akardı
akbas
akc
akdag
akdeniz
aker
akers
akgu
akhbar
akhisar
aki
akir
akirin
akkaya
akla
aklar
aklara
aklarmı
aklarnı
akları
akların
aklarına
aklarını
aklı
aklım
aklımda
aklımıza
aklınıza
akmak
akraba
akranes
aks
aksaray
aksel
aksi
aksoy
aksu
aksız
akt
akta
aktan
aktarılması
aktarın
aktiv
aktivisti
akto
aktris
aktrisalar
aktyo
aktyor
akureyri
akus
akusta
akyol
akıl
akıllı
akın
akıntısı
akıntısının
akır
al
ala
alabama
alabilir
alabora
alac
alaca
alacak
alacek
alaceklar
alain
alam
alan
aland
alaniya
alanlar
alanlarına
alannar
alannara
alannarın
alanya
alanı
alanına
alaplı
alar
alarak
alarmıs
aları
alaska
alayor
alayorlar
alban
albania
albaniya
albannar
albany
albayrak
albeggiani
albena
albers
albert
alberta
alberto
albin
albolarvatus
albrecht
albu
alc
alcala
alcine
alconaba
aldatmaa
alden
alder
aldo
aldı
aldıg
aldık
aldılar
aldım
ale
alee
alejandro
aleksandar
aleksander
aleksandr
aleksandra
aleksandri
aleksandriya
aleksandrovich
aleksandrovka
aleksey
alemana
alenka
aler
alerlar
ales
alessandro
aleut
aleutlar
alex
alexander
alexandre
alexandru
alexei
alexej
alexey
aleyası
alfabeleri
alfabesi
alfabeti
alfavit
alfaviti
alfavitin
alfavitleri
alferov
alfons
alfonso
alfred
alfredo
algimantas
ali
alias
aliases
aliaseslist
alicante
alice
alide
align
alignment
aliksandri
alimi
alina
alison
aliyev
aljir
alkan
all
alla
allaa
allaasız
allah
allaha
allahlık
allahtan
allahı
allahım
allahın
allan
allehanda
allen
allgemeine
alli
allik
allow
allowed
allowing
allows
allı
alma
almaa
almada
almak
almaları
alman
almanca
almanya
almanın
alması
almasını
almatı
almaya
almaza
almere
almost
almıs
alo
alois
alone
along
alp
alpes
alpha
alphonse
already
als
alsa
alsace
also
alsın
alt
altan
altay
altaylar
altbas
altbic
alternate
alternatif
alternative
although
altlarını
altmıs
alto
altogether
altsayfasının
altug
altyazı
altı
altın
altına
altıncı
altında
altındaki
altından
altıngo
altınova
altını
alvan
alvar
always
alı
alım
alın
alınan
alınarak
alındı
alıner
alınması
alınmıs
alıntı
alıp
alır
alıs
alıy
alıyor
am
ama
amaa
amac
amacı
amacıyla
amada
amadeus
amak
amakta
amaldi
aman
amanda
amanizm
amanın
amarlarlan
amasini
amasya
aması
amasında
amasından
amasını
amasının
amaya
amayı
amb
amba
ame
amedeo
amerika
amerikada
amerikalı
amerikan
amerikanın
amici
amicis
amma
amman
amos
amount
amsterdam
amts
amur
amı
amıs
an
ana
anabas
anadil
anadol
anadolu
anadoluya
anakkale
analar
analara
analiz
anam
anand
anarsın
anas
anasozu
anası
anasına
anasını
anatarı
anatoli
anatoliy
anatoliya
anatoly
anayasa
anbe
anca
ancak
anchor
anchorage
anci
ancı
and
anda
andaluci
andaman
ander
anders
andersen
anderson
andes
andiler
andorra
andoza
andra
andre
andrea
andreas
andrei
andrej
andres
andrew
andrews
andrey
andries
andriy
androuet
andrus
andrzej
andy
ane
anema
anesina
anestin
ang
angay
angel
angela
angeles
angelico
angelo
angelov
angers
anghay
angisi
angisinda
anglesey
anglikan
angliyca
anglo
angoche
angola
anguilla
angı
angıları
angıların
angılarına
angılarında
angılarını
angınız
angısı
angısına
angısında
angısınnan
angısını
angısının
angısıydır
ani
anik
aniki
animalia
aninfobox
anita
anja
anka
ankara
ankarada
ankaya
anki
ankırı
anlam
anlama
anlamlar
anlamlarını
anlamı
anlamına
anlamında
anlar
anlarını
anlas
anlatan
anlı
anmak
ann
anna
annadalım
annadan
annadarmıs
annade
annader
annadı
annadım
annadın
annadıp
annamaa
annamıs
annar
annarı
annarını
annas
annatma
annatmaa
annatmada
annatmalar
annatması
annatmasında
annattı
annattılar
annayıp
anne
anneli
anni
annibale
annotation
annotations
annı
ano
another
ansambli
ansamblila
ansamblileri
ansamblinin
ansamblisi
ansamblisina
ansamblisinda
anselm
ansiklopedi
ansiklopedisi
ansora
ansızdan
antakya
antalya
antananarivo
antanas
antarktida
anthony
anti
antigua
antilleri
antlas
anto
antoine
antoinette
anton
antoni
antonio
antony
antrim
ants
antti
antun
anu
anva
anwar
any
anything
anı
anıle
anılmıs
anın
ao
ap
apa
apak
apec
apollon
appear
appearance
appears
apple
applicable
application
applications
applied
applies
apply
appropriate
aprel
april
aprilin
apı
aquest
aquila
ar
ara
arab
araba
arabacı
arabayı
arabiya
arablar
arablardan
arabı
arabını
arac
aracılıg
arad
arada
arago
arak
arakel
aralarında
aralık
aramaa
aramızda
aran
aranese
arap
arapc
araplar
arapları
aras
arası
arasına
arasında
arasındaki
arasından
araya
arbas
arbeiderblad
arc
archer
archibald
architects
archive
archived
archivedate
archiveurl
arda
ardahan
ardan
ardenne
ardı
ardıktan
ardılar
ardına
ardında
ardından
are
area
aren
arer
arest
aretinin
argac
argentina
args
argsk
argu
argullar
argument
arguments
argumentsname
argumenty
argus
arhangelsk
arhitektura
arhitekturacılar
arhiv
arif
aripgadjiev
aristide
ariya
arizona
arizonae
arjantinli
ark
arka
arkadas
arkadi
arkalı
arkan
arkansas
arkeolog
arko
arkı
arkıcı
arlar
arma
armag
armagh
armand
armeni
armenia
armenian
armeniya
armin
armut
army
armıs
arnaut
arne
arno
arnold
aron
around
arpa
arptırıldı
arr
array
arriba
arroyo
ars
arsen
arseven
arsevenin
arslan
arsında
art
artalan
arthur
article
articles
artist
artisti
artistik
artistleri
artistlerin
artma
artmaa
arto
artur
arturo
artvin
artık
artıs
aru
aruba
arvi
arvo
arxiv
arz
arzu
arı
arıldı
arılı
arıp
arısız
arıy
as
asa
asaf
asala
asan
asbox
ascension
ascii
asen
asfalt
asgari
asghar
ashmore
asia
asif
asil
asimila
asirin
asirlerda
asker
askera
askerda
askeri
askerini
askerinin
askerinna
askerler
askerleri
aslan
aslannar
aslanı
aslı
aslıdan
aslıya
asma
asmaa
asot
asp
aspen
aspx
asrın
assembled
assigned
associated
assr
assume
assumption
ast
asta
astana
astrahan
astrazeneca
astrid
astronomi
asturias
asuncio
asya
ası
asıl
asıllı
asın
asına
asınnar
asını
asının
at
ata
atalay
atan
atanas
atanasov
atardı
atası
atatu
atay
atayor
atayım
atb
ateist
ates
athlone
atilla
atina
atka
atkinson
atlan
atlantik
atlas
atletika
atletizm
atlı
atlılar
atmaa
atmıs
ato
atolu
atom
atsena
attard
attempting
attila
attilio
attribute
attributes
attribution
attı
atı
atıf
atılan
atıldı
atın
atıs
au
auc
auckland
audrey
august
augusta
auguste
augustus
aul
aus
austin
australia
austria
author
authority
authors
auto
autocollapse
autoconfirmed
automatic
automatically
ava
available
avangard
avci
avcı
avdar
avdarma
avdarmada
ave
avec
avenir
aves
avgust
avile
avis
avisa
aviv
avlanmaa
avni
avoid
avrupa
avs
avstraliya
avstriya
avto
avtomobil
avtonom
avtonomiya
avtonomiyanın
avtonomiyasını
avtonomiyasının
avtor
avtoru
avtorun
avuc
avustralyalı
avusturyalı
awokera
axel
axis
axundov
ay
aya
ayaa
ayak
ayakc
ayaklarnı
ayakları
ayaklarının
ayaklı
ayakta
ayan
ayannar
ayannarın
ayarlamak
ayarlanmamıs
ayarlanır
ayarları
ayarlıysa
ayarı
ayaz
ayc
ayda
aydan
aydar
aydemir
aydog
aydın
aydınnadıcısı
aydınnık
ayerler
aygu
ayhan
aykıree
ayla
aylak
aylan
aylar
aylarında
ayle
ayleda
ayleleri
aylenin
aylesi
aylesina
aylesinda
aylesini
aylesinin
ayleya
aylık
aymara
ayni
aynu
aynular
aynı
ayoglu
ayor
ayoz
ayozlu
ayrı
ayrıca
ayrıldı
ayrım
ayrımcılıg
ayrımı
ayrıntı
ayrıntılar
ayrıntıları
ayrıntılı
ays
ayva
ayvaz
ayı
ayın
ayında
ayının
ayıp
ayır
ayıre
ayırmaa
ayırmıs
ayırova
ayırı
ayırıcı
ayırıldı
ayırıle
ayırıler
ayırılmıs
ayırın
ayırır
ayıs
ayısı
az
aza
azaları
azası
azatlık
azbas
azdır
azerbaijan
azerbaycan
azerbaycanca
azerbaycanda
azerbaycandan
azerbaycanlı
azerbaycannılar
azerbaycanı
azerbaycanın
azerbaycanında
azeri
azeriblog
azic
aziya
aziyada
aziyadan
aziyalı
aziyanın
aziyaya
aziz
azorlar
azpetrol
azur
azı
azınlıklar
azınnıklar
azınnıkları
azınnıkların
azərbaycan
aı
b
ba
baa
baacıklı
baaladılar
baalamıs
baalanti
baalantı
baalantılar
baalantılı
baalantısı
baalayor
baalı
baamsız
baamsızlık
baamsızlıını
baara
baardı
baarer
baarmaa
baarmıs
baarıs
baas
baaımsızlık
baba
babaeski
babaloglu
babaoglu
babası
babel
babil
babo
baboglu
baboglunun
babu
babunun
babusu
babuya
babuyu
bac
bach
back
backgound
background
backwards
bad
baeza
bafra
bag
bahaizm
bahamalar
bahar
bahc
bahi
bahreyn
bahs
bahsedilen
bahsedilir
bahsi
bahtiyar
baillairge
bainbridge
baines
bak
bakalım
bakan
bakanlar
bakanlıg
bakannık
bakannıı
bakannıın
bakannıında
bakanı
bakar
bakarak
bakardı
bakarmıs
bakasın
bakayor
bakayım
bake
baker
bakmaa
bakmadaan
bakmayarak
bakmıs
baksa
baksalar
baksın
baktı
baktıynan
baku
bakuda
bakı
bakıerlar
bakıldı
bakıle
bakımından
bakın
bakınız
bakıp
bakır
bakıs
bakıy
bal
bala
balaban
balad
balada
balc
baldassarre
baldwin
balearic
bali
balica
balita
balkan
balkanlarda
balkannar
balkannardan
balkar
balkariya
balkarlar
ball
baltık
balyan
balı
balık
balıkc
balıkesir
balıklar
bamako
bamir
ban
bana
banan
banaz
banda
bandera
bang
banglades
banja
bank
bankası
bankhead
banknotlar
banks
banya
baptist
baptiste
bar
baraba
barabalar
barabar
baradan
barbados
barbara
barbieri
barbu
barbuda
barcelona
bare
bari
barker
barnes
barnet
barozzi
barret
barry
barselona
bart
barthe
bartolome
bartolomeo
bartın
barzani
barıs
bas
basarabiya
basarabiyada
basarabiyalı
basarabiyanın
base
based
basestyle
bashir
basic
basil
basile
basit
basitles
bask
basketbol
basketbolcu
baskı
baskılar
basov
bass
basshunter
basten
bastien
bastille
bastı
basılan
basıldı
basıldılar
basıle
basım
basın
bat
batak
batal
bates
batman
baton
battista
batu
batur
batı
batır
batırlar
baurc
bautista
bax
baxıs
bay
bayat
bayazid
bayer
baykam
bayraa
bayraanı
bayrag
bayrak
bayraktar
bayram
bayraq
bayraı
bayır
bayırlara
bayırlı
bayırı
bayırın
bayırına
baz
baza
bazen
bazı
be
beach
beatrice
bebek
because
becerdi
becerdila
becerikli
becermeklerini
beck
becker
becomes
bedr
bedreddin
bedri
beegir
beegira
beegiri
beegirin
beegirina
beegirla
beegirleri
beegirlerni
been
beener
beenmis
beer
beeri
before
begin
beginning
begins
begolli
begriffskla
behaves
behavior
behic
bei
being
beira
bejenar
bek
bekc
beki
bekim
bekir
bekla
beklee
bekleer
bekleerla
beklema
bekleya
bektas
bel
bela
beladan
belarus
belarusian
belc
belediye
belediyesi
belfast
belge
belgekirin
belgeleme
belgelemesi
belgeleri
belgelerinin
belgesinda
belgeyi
belgiya
belgiyalılar
belgrad
belgrade
belgrat
belina
belinda
belirlendi
belirli
belirtilen
belirtilir
belirtilmelidir
belirtilmis
belirtir
belirtme
beliz
belki
bell
bella
bellevue
belli
belliedici
bellilikc
bellini
belliydi
belo
below
belowstyle
belt
belushi
belə
ben
benda
benden
bender
benedetto
benedict
benedikt
bengal
bengali
bengt
beni
benim
benin
benito
benjamin
benna
bennett
benoit
benotzer
benson
bente
benton
benutzer
benza
benzeer
benzema
benzer
benzerpaylas
beograd
ber
beraat
beraber
berast
berat
berber
berberistan
bereket
bereketi
berenguer
berg
bergen
berger
bergh
beri
berjocht
berk
berlin
berliner
bermuda
bern
bernard
bernardo
bernhard
bernstein
berry
bert
berthe
berthelsen
berthold
bertram
bertrand
bes
besarabiyada
besarabiyanın
besarabiyaya
besim
besla
best
besteci
bet
beterina
bethe
bethoven
bethovenin
better
betterexamples
bettini
betty
betva
betvası
between
bey
beya
beygir
beygira
beygirciin
beygirciinda
beygiri
beygirin
beygirina
beygirini
beygirla
beygirlera
beygirleri
beygirlerini
beyi
beyla
beyleri
beylerin
beylii
beylik
beylikler
beyog
beyond
beyrut
beys
beyzbolcu
bezbelli
bezerga
bg
bhutan
bi
bianchi
bibliografiya
biblioteka
bibliotekanın
bibliotekası
bibliotekasında
bic
bien
big
bijeljina
bikarhe
bila
bilbao
bildiimiz
bildirdi
bildirildi
bildirim
bile
bilecik
bilen
bilenlerin
biler
bilerim
bilerla
bilersiniz
bilge
bilgi
bilgic
bilgicisi
bilgiler
bilgilera
bilgileri
bilgilerin
bilgilerina
bilgilerinda
bilgin
bilgisi
bilgisini
bilgisiz
bilidu
bilim
bilimci
bilimler
bilimna
bilimner
bilimneri
bilimnerinda
bilinen
biliner
bilinir
bilirmis
bilis
bill
billy
bilma
bilmeer
bilmeerim
bilmeycela
bilsin
bilər
bilərsiniz
biləsuvar
bin
bina
binary
binası
binasına
binasında
binasının
binda
bingo
binna
binnik
binomio
biografiya
biografiyaları
biorxiv
bir
bira
biraz
birazc
birc
birda
birden
birdi
bire
birer
birerda
bireri
biri
biricii
biridir
birimi
birimleri
birina
birinci
birinda
birine
birini
birinin
birinna
birisi
birisidir
birisina
birisinda
birisini
birisinin
birkac
birkimsey
birla
birlerini
birles
birlig
birlii
birliii
birliin
birliina
birliini
birliinin
birliinna
birlik
birlikleri
birliklerin
birlikta
birlikte
birmingham
birsel
birtaani
birth
bis
bisikletc
bissau
biter
bitirdi
bitirdikta
bitis
bitki
bitkisi
bitkisinda
bitlis
bitti
bittikta
biyaz
biyazc
biyazlar
biyazrus
biz
biza
bizans
bizda
bizi
bizim
biznes
bjelovar
bjn
bjo
bjørn
bkz
black
blad
bladet
blair
blanc
blanchard
blanco
blank
blaz
bleu
blica
blok
blue
bm
bms
bn
bo
bob
boba
bobadan
bobam
bobanı
bobanız
bobası
bobasına
bobasından
bobasını
bobasının
bobby
bobi
boca
bocas
bodrum
body
bodyclass
bodystyle
bog
bogdan
bogota
bohol
bohr
bohumil
boilerplate
boise
bojan
boko
boks
boksc
boksit
bolboka
bold
bolded
bolesław
bolgar
bolgrad
bolivian
boliviya
bolnit
bologna
bols
bolton
bolu
bolumunda
bomba
bombalı
bonaire
bonaventura
boniek
booday
boodayı
book
books
boolean
bor
bora
borc
borcunu
bordeaux
border
borderless
bordey
borg
borges
boris
borisovic
borisovich
born
borneo
bors
bortolotti
boru
bos
bose
bosna
bosnia
bosniya
bostancı
boston
botanik
both
boto
botsvana
bottom
boucher
boulder
bourassa
bov
bowen
box
boxes
boy
boya
boyada
boyalı
boyar
boyara
boyarın
boyd
boylu
boyu
boyuna
boyunca
boyunda
boyunnu
boyut
boyutu
boz
bozbey
bozdu
bozmaa
bp
br
bra
braadı
braamıs
brabantstad
braces
brackets
bradford
bradley
brahim
brahimov
brak
brake
braker
brakmaa
brakmadı
brakmeer
brakmıs
braktı
braktılar
brakıldılar
brakıp
brandenburg
brandt
branice
branko
brans
bras
brasi
brasil
brasilia
bratislava
braun
bravo
brayor
braziliya
brazylia
break
breaking
breaks
breitner
bremen
brent
brest
brezilyalı
bri
brian
bridge
bridgetown
brijeg
brina
brisbane
bristol
britaniya
britaniyaca
britaniyanın
britaniyaya
britanya
british
britt
briz
bro
broad
broch
broken
bronza
brooks
brouwersgracht
brown
browne
browser
browsers
bru
bruce
brueghel
bruker
brukeren
brunei
bruney
bruno
brunswick
bruxelles
bryan
bryant
bryce
bs
bt
bticona
bu
buazlı
buba
bubam
bubası
bubasını
buc
bucaa
bucaam
bucaan
bucak
bucakta
bucaktan
bucephala
budapes
budapest
budist
budizm
budva
buenos
buffett
bug
bugu
buhgalter
build
built
bukadar
bukures
bukva
bukvalar
bukvaları
bul
bulamadım
bulan
bulayorlar
buldu
buldular
buldum
bule
buler
bulgar
bulgarca
bulgardir
bulgardır
bulgaria
bulgarian
bulgaristan
bulgaristanda
bulgariya
bulgariyada
bulgariyadan
bulgariyanın
bulgarlanmis
bulgarlar
bulgarlardan
bulgarlarlan
bulgarların
bulgarmis
bulgurlan
bullet
bulletin
bullets
bullock
bulmaa
bulmak
bulmus
bulu
buluer
bulun
bulunabilir
bulunan
bulunannar
bulunardı
bulundu
bulundug
bulundular
bulune
buluner
bulunması
bulunmus
bulunsunnar
bulunuer
bulunurmus
bulup
bulur
bulus
bulut
bump
buna
bunch
bunda
bundaberg
bundan
bunlar
bunlara
bunları
bunların
bunnar
bunnardan
bunnarı
bunnarın
bunu
bunun
bununnan
burada
buradan
burak
buralarda
buraya
burayı
burcu
burda
burdan
burdur
burgas
burgos
burgucu
burgucuya
burgucuyu
burhan
burhanettin
burkina
burma
bursa
buruk
burundi
burus
buryatiya
buryatlar
bus
business
but
butakım
butan
butler
butto
button
buuday
buus
buyanı
buydu
buydur
buyur
buz
buza
bw
by
bysen
byte
bytes
bıc
bıraktı
bırakıldı
bırda
bırladyanu
bəhs
bəy
c
ca
cabot
cache
cafer
cahit
caicos
cairns
cairo
cal
calais
calgary
cali
calis
call
called
calling
calls
cambio
cambridge
camden
cameron
camii
camille
camilleri
camillo
camisi
campbell
camphephilus
campo
can
cana
canabisi
canabisini
canabisinin
canada
canal
canaria
canarias
canavar
canbulat
candan
candemir
candido
caniformia
canning
cannı
cansu
canus
canı
canım
canımı
canın
canında
canını
cap
cape
capital
caption
capture
caracas
cardinal
caribbean
carl
carles
carlo
carlos
carmen
carnivora
caroline
carpenter
carracci
carrick
carrie
carroll
carson
carsten
carter
caruana
carver
casa
casagrande
case
cases
cash
caspar
cassini
castelnuovo
castilla
castle
castro
cat
catala
catalan
catandica
catedral
categoria
categories
categorization
categorize
categorizing
category
categorytoc
cathedral
catherine
catholic
catmain
catmore
catopuma
cats
cause
caused
causes
causing
cava
cavad
cavalieri
cavazza
cayenne
caz
cbk
cc
ccccff
cd
ce
ceb
cebelitarık
cebesoy
cecil
cecilia
cedar
cek
cel
celal
cell
cellat
cells
cem
cemal
cemil
cemiyet
cemiyeti
cendema
ceng
cenga
cengi
cengin
cenginda
cengiz
cengta
cenk
cenkinna
cenkla
cenklerda
cenkta
center
centered
central
centre
century
cep
cephe
cerceau
ceres
cerna
cerro
cersey
cerulli
ces
cesare
cest
cet
cetinje
cette
ceuta
ceva
cevat
cevdet
ceviz
ceylan
ceyre
ceza
cezaevi
cezair
cezalamıs
cezası
cezasına
cezasını
cfg
ch
cha
chad
chae
chambers
champassack
champion
chan
chandra
chang
change
changed
changes
changing
chapman
chapter
chapterurl
char
character
characters
charles
charleston
charlie
charlotte
charlottenburg
chars
charsi
charters
chattanooga
chavacano
che
cheboksary
check
checking
checks
checktype
cheney
cheng
cherenkov
chester
cheung
chi
chiara
chicago
chicualacuala
chiguayante
child
chile
chilean
china
ching
chiriqui
chis
chiu
chlorolophus
choi
chong
chordata
chosen
chow
chp
chr
chris
christensen
christian
christiansen
christie
christine
christmas
christoph
christopher
chronicle
chronique
chu
chun
chung
church
chydenius
ci
cia
cias
cibuti
cihan
cilt
cimerbas
cio
circumstances
citakan
citation
citationclass
citations
cite
citeref
citeseerx
cithakan
cities
citizen
city
ciudad
cizre
ckb
cker
cl
claes
clair
clangula
clare
clarence
clari
clarification
clarify
clark
clarke
clarksville
class
classes
classical
claude
claus
clav
clayton
cle
clean
clear
clearly
clerk
cleveland
clicking
clinton
clonmel
close
closing
clowan
cluj
clw
clyde
cm
cmbox
co
coast
coates
cocle
cocos
code
coded
coderesultcomment
codes
cog
coins
col
colbert
colin
collaboration
collapse
collapsed
collapses
collapsible
college
collins
colnfooter
colnfootercolspan
colnheader
colnheadercolspan
colnwidth
colombia
colombo
colon
colonia
color
colorado
colors
colour
colours
coltay
columbia
column
columns
colwidth
com
combination
combinations
come
comercio
comma
command
commas
comment
comments
commerce
common
commons
commonscat
commonskat
comp
company
compare
compared
comparison
comparisons
compatibility
compleja
complesso
complete
complex
complexa
complique
compresssparsearray
comrat
comte
con
concat
concatenate
concatenates
concatenation
concepcio
concepcion
concorde
condamine
condition
conference
config
configuration
conjunction
connecticut
connor
conrad
consider
considered
consistency
constant
constantin
constantinople
constitution
consult
cont
contain
contained
container
containing
contains
content
contents
conti
contingut
contribui
contribuir
contribuire
contribute
contribution
contributions
contributor
contributors
control
controls
convenient
convert
converted
cook
cooke
coor
coord
coordinate
coordinates
copied
copy
copying
core
corey
cork
cormier
cornell
corner
coronel
corporate
corrado
correct
correctly
correio
correo
corresponding
cos
costa
costache
costello
costly
could
coulon
count
counter
countries
country
county
courant
courier
courrier
covers
covington
cox
craig
cre
create
created
creating
creative
creek
creleri
crelerine
crelerinin
cresi
cresinin
crh
cristian
cross
crowley
croydon
cruz
crystal
cs
csa
csi
css
cu
cuamba
cuenca
culture
cuma
cumaa
cume
cumhurbas
cumhuriyet
cumhuriyetc
cumhuriyeti
cumhuriyetinin
cunha
curac
curc
curierul
curitiba
current
currently
custom
customised
cute
cuthbert
cuvap
cv
cy
cyril
czesław
cı
cəbrayıl
cədvəl
cədvəli
cədvəlin
cədvəlində
cəlali
cəlalilər
cənubi
d
da
daa
daadan
daadılacek
daalar
daaldı
daalmıs
daalıs
daan
daatmıs
daava
daavada
daaya
daayın
daayına
dabi
dadı
dag
dagblad
dagbladet
dagens
dagestan
dagıstan
daha
dahil
dahl
daily
daima
dair
daisy
dak
daki
dakika
dakka
dakota
dakı
dal
daldı
dale
dalga
dalgalı
dalgası
dalgasında
dalglish
dallas
dalı
dalıs
dam
dama
damad
damar
damla
dan
dana
danailov
dani
daniel
daniela
daniil
danilo
danilova
daniya
daniyalı
dannar
dansk
danıs
dar
daradur
daralt
dare
daresi
dargin
darginner
dari
dario
dariya
dartıs
daru
darwin
das
dash
dastan
dastanı
dastanının
data
database
date
dates
dato
datum
datums
daul
daulet
dava
davant
davası
dave
david
davis
davor
dawid
dawn
dawson
day
dayane
dayma
days
dazd
daı
db
dc
dd
ddddff
ddeutsche
de
deal
dealing
dean
death
dec
december
decide
decimal
declared
decode
deda
dedal
dedela
dedelerda
dedi
dedila
dedim
dee
deepcopy
deer
deerim
deeriz
deerla
deerlar
defa
default
defaults
define
defined
defining
deg
degree
degrees
degustas
dei
deil
deis
dek
dekabri
dekabrinin
deki
deklarat
del
delaney
delaunay
delaware
delegas
delegat
delete
delhi
deli
delik
delikannı
delimiter
dell
della
delo
delta
dem
dema
demekli
demektir
demeli
demet
demi
demir
demiralay
demirci
demirel
demiryolları
demiryolu
demis
demo
democrat
demografiya
demokrasi
demokrat
demokratik
demokratika
demokratiya
demolevel
demonstrates
demonstration
demoseviyesi
demospace
den
dendrocopos
dendropicos
denedi
deneer
deneme
denemeedir
denila
denileer
deniler
denir
denis
deniz
denizda
denizden
denizi
denizin
denizli
denktas
denne
denni
dennis
denver
dep
departamentın
departamentının
dependent
depending
depends
deploying
deprecated
deprem
deputat
deputatları
deputatların
deputatı
der
dera
derby
dere
derece
dereda
derelerin
derenin
deresi
deresinin
derganc
dergi
dergipark
dergisi
deri
derin
derince
derinda
derisi
derisini
derla
derleme
derleyen
dermenci
dermeni
derna
derneg
dernek
dernekla
derry
dervis
derya
des
desambiguacio
described
description
descriptions
designed
desired
destanları
destek
desteklemektedir
detailed
details
detect
detected
detection
detects
determines
deutsch
deutsche
deutschkenntnisse
deutschland
dev
devam
devamı
dever
deverc
devin
deviz
devlet
devleti
devletin
devletinda
devletinin
devletla
devletler
devletlerda
devletlerden
devletlere
devletleri
devletlerin
devletlerinda
devletlik
devletta
devrim
devrimci
deya
deyecez
deyelim
deyi
deyil
deyin
deyip
deyni
deyor
deze
dezginca
dezso
dhabi
dhaka
dhavernas
di
dia
dialekt
dialektleri
dialektı
diamond
diana
diari
diario
diba
dic
dick
dickinson
dicle
dico
dictionary
didier
die
diego
dientzenhofer
diese
different
dig
digit
digital
digits
digər
diil
diildi
diildir
diiliz
diilmis
diis
dijital
dik
dika
dikey
dikkat
dikmen
dil
dilara
dilda
dilde
dildeki
dile
dilera
dili
dilidir
dilifrant
dilii
dilim
dilimizi
dilin
dilina
dilinda
dilinde
dilində
dilini
dilinin
dilinna
dilla
diller
dillerda
dillerdeki
dilleri
dillerin
dillerinda
dillerinde
dillerini
dillerinin
dilli
dillon
dim
dimitar
dimitri
dimitrievna
dimitrije
dimitriy
dimitrov
dimitrova
dimitrovka
dimoglu
dimov
din
dina
dinamo
dinarı
dinastia
dinc
dine
dingli
dini
dinin
dinini
dinler
dinnenma
dinner
dinneri
dino
dionis
diploma
diplomasını
diplomat
diplomatik
diplomatlar
diq
dir
direct
directly
direkt
direkto
direktor
direktoru
diri
dirildecek
dirildi
dirilen
dirilma
dirk
dirmək
dis
disabled
disables
disambig
disambigua
disambiguation
disappear
discouraged
discussion
discussions
disertat
display
displayed
displaying
displays
dispute
disse
district
distrofiya
divan
divizionu
divizionuna
diy
diyanet
diyarbakır
diycek
diye
diz
dizane
dizc
dizginca
dizi
dizim
dizimi
dj
djibouti
djungli
dk
dmila
dmitri
dmitrievna
dmitriy
dms
dnes
dnevni
dnevnik
dni
dnia
do
dobrev
dobrotic
dobrov
dobruca
dobrucada
dobrucadan
dobrucaya
dobrus
dobson
doc
document
documentac
documentacio
documentat
documentation
does
doesn
dog
dogana
doha
doi
doing
dok
doker
doklad
dokladı
doksan
doktor
doktorlar
doktoru
dokument
dokumenta
dokumentace
dokumentaceja
dokumentacija
dokumentacion
dokumentacja
dokumental
dokumentasi
dokumentasjon
dokumentatie
dokumentation
dokumentatsioon
dokumentazioa
dokumenti
dokumentlera
dokumentlerda
dokumentleri
dokuz
dolar
dolarlık
doları
dolas
dolay
dolayanda
dolaydan
dolaylar
dolayları
dolaylarında
dolaylarından
dolayı
dolayın
dolayında
dolayının
dolc
doldu
doldurdu
doldure
doldurulaması
dolgan
dolgannar
dollar
dolları
dolmabahc
dolu
dolusu
dom
domain
domains
dome
domeni
domenico
domenleri
domingo
dominik
dominika
dominikan
dominique
domnika
domuz
don
donaklı
donald
donaldson
donati
done
donegal
donetsk
dong
donna
donnell
donner
donostia
donovan
doors
dooru
doorudan
dooruluk
dooruluu
dooruluun
doorusu
doorutmaa
doou
dor
dorin
doris
dorothy
dorovic
dorovna
doru
dos
dost
dostları
dostlarınnan
dostluk
dostu
dostum
dosya
dosye
dot
dots
dotted
douard
double
doubled
douglas
doumus
dover
down
doz
dp
dr
dragan
dragas
drago
drakon
drakonun
drama
dramaturgiya
draw
drawbacks
drita
drogheda
dropped
dryocopus
dsb
dst
du
dua
dubai
dubayi
dublin
dubrovac
dubrovnik
duc
due
duff
dufresne
duhovoy
dulkadiroolları
dulkadiroolu
duloglu
dumitru
dumlupınar
dummy
dun
dunlop
dunn
dunun
dup
duplicate
dur
duran
durardı
durayor
durbaylo
durdu
dure
durer
durguder
durguner
durgunmus
durmaa
durmamayca
durmus
durre
dursa
dursun
duruk
duruklane
durum
durumda
durumlarda
durumu
durumunda
durumunu
durup
durus
dus
duudu
duudum
duudurmus
duum
duuma
duumaa
duuması
duumus
duun
duva
duvak
duvalier
duya
duyan
duye
duyer
duygu
duygular
duygularlan
duyguları
duygularını
duygulu
duygusu
dv
dvor
dvornik
dyac
dyck
dyddiad
dyson
dz
dziennik
dzims
dır
dırılacaq
dıs
də
dən
e
each
eagle
ealing
earth
ease
easier
easily
east
eastern
eat
ebedta
ebek
eberhard
ebilgiedinmeno
ebnem
ebotar
ebru
ebsk
ec
ece
ecek
ecel
eceli
ecevit
echo
ecik
econo
economic
ed
eda
edat
eddie
eddin
ede
edebiyat
edeca
edecek
edecekla
edecez
edelim
edelir
eden
edenna
eder
ederim
ederiz
ederla
edeyim
edgar
edge
edi
edila
edildi
edilekc
edilen
ediler
edilera
edilir
edilmesi
edilmesini
edilmez
edilmis
edilməsi
edin
edinaya
edinburgh
edinci
ediniz
edinmis
edip
edir
edirna
edirne
edison
edit
edited
edition
edito
editor
editors
edmond
edmund
edouard
eds
eduard
eduardo
educat
educatiel
edvard
edvin
edward
edwards
edwin
edłoga
edłoha
ee
eer
eerlar
eero
eest
eesti
eet
eeva
efendi
effect
effective
effectively
efficient
efi
efiopiya
efron
eg
ega
ege
egil
egipet
egon
egovina
egypt
egyptian
eh
eha
ehir
ehirler
ehiya
ehler
ehrda
ehri
ehrin
eight
eino
einstein
either
ej
ejder
ejderov
ek
eka
ekaterina
ekeder
ekederla
ekederlar
eker
ekeriz
ekerkamıs
eketmesi
eketmesinda
eketmis
eketti
ekettik
ekettila
ekettiydi
eki
ekic
ekila
ekilde
ekildi
ekileerlar
ekiler
ekilmesi
ekilmis
ekim
ekin
ekincilik
ekinner
ekip
ekis
ekla
ekları
eklema
ekleme
eklemeeye
eklemek
eklemenin
eklendig
eklenebilir
eklenir
eklenmelidir
eklenmesi
eklenmesini
eklenti
eklentisi
ekler
ekleri
ekles
ekleyin
ekli
eklinde
eklindedir
ekma
ekmek
ekmekla
ekmis
ekonomi
ekonomik
ekonomika
ekonomist
ekrem
eksik
eksin
ekspress
ekta
ekvador
ekvatorial
el
ela
elale
elba
elbetki
elc
elde
elder
ele
elebi
eleftheros
elektrik
elektrika
elektronik
element
elementleri
elementlerini
elements
elena
elerinde
eles
eleven
elfriede
eli
elia
elias
eliel
elif
elik
elim
elina
elinda
elini
elisabeth
elise
elizabeth
ella
elle
ellen
eller
elleri
ellerina
ellerinda
elli
ellis
elmar
els
elsa
else
elseif
elst
elu
elvet
elvi
elvira
em
ema
emanuel
embargoed
emec
emel
emi
emil
emilie
emilio
emily
emin
emine
eminesku
emir
emirlikleri
emit
emits
emma
emmanuel
empion
empionatında
empionu
employing
empty
emrah
emre
emrek
emseddin
en
ena
enada
enasında
enaya
encamp
enclosed
encyclopedia
end
endel
ending
endu
ene
eneg
enegi
enegla
enegleri
eneglerin
enek
enekla
enekler
enekleri
eneklerinden
ener
energetika
enetsler
eng
engel
engin
england
english
eni
enida
enilikleri
enin
enində
eninə
eniya
eniyca
enko
enn
enner
ennik
enno
eno
enol
enqvist
enric
enrico
enrique
ens
ensa
ensedi
ensema
ensemis
ensesini
enseya
enseyis
ensiklopediya
enstitu
ensure
ent
enter
entered
enterprise
entire
entity
entri
entries
entry
enumerated
enver
eo
ep
epigraf
epika
epis
eposun
epp
eps
ept
equal
equals
equipped
equirectangular
equivalent
er
era
erbil
erc
ercan
erce
ercu
erda
erdal
erde
erdem
erdemli
erdi
erdog
ereda
ereeli
eref
erek
eren
ergin
ergu
eri
eric
erich
eridir
erif
erig
erik
erika
erim
erin
erina
erinda
erindeki
erine
erini
erinin
erir
eris
erisinde
eritreya
erivan
erkan
erkası
erkaynak
erkek
erkekler
erkeklerde
erkekli
erken
erkes
erkesiya
erkki
erla
erlar
erler
erlera
erlerda
erleri
erlerini
erles
erli
erman
ermen
ermeni
ermenistan
ermesi
ermis
erna
ernest
ernesto
ernev
ernivt
ernogor
ernogoriya
ernst
ero
erol
err
error
errors
errs
ersin
ersiz
erskine
ersoy
ert
ertarih
ertesi
ertla
ertta
ertug
erur
erusalim
ervin
erwin
erythropygius
erzincan
erzsi
erzurum
es
esa
esaba
esabı
esad
esap
esapları
esat
escape
escu
esedov
esen
esi
esina
esinda
esinde
esinin
esir
esiyle
eski
eskida
eskilstuna
eskimo
eskimos
eskis
esko
esku
eslav
esmer
esotera
esoteric
esoterisk
esp
espadanedo
espan
espen
est
esta
este
ester
estes
esther
eston
estoniya
estonnar
estrada
estrella
et
etal
etc
etdiyi
etela
eter
ethnologue
eti
etiket
etiketi
etiketleri
etiketlerinin
etikettir
etin
etinda
etiqueta
etis
etiya
etiyopiya
etkilemektedir
etkin
etkinlik
etma
etme
etmeer
etmek
etmis
etmək
etməyən
etnik
etnika
etnograf
etnografiya
etnografı
etnokultura
etsin
etti
ettig
ettila
ettiniz
ettore
eu
euge
eugen
eugene
eugenio
eugeniusz
eun
eur
euro
europa
europe
european
eustachio
eustatius
ev
eva
evac
evald
evans
evc
evda
eve
evel
evelda
eveli
evelki
even
evengelist
evening
evenodd
evenstyle
event
every
everything
evesinda
evet
evgeniy
evgeniya
evgeny
evi
evik
evim
evin
evina
evinda
evini
evinin
evir
evira
evirdi
evirdig
eviri
eviribas
eviribo
evirici
evirisi
evirma
evirmen
evirmenlistesi
evirtmesi
evk
evket
evki
evla
evlad
evlat
evlatlarıdır
evlenirsin
evlenma
evlerda
evlerina
evlerinda
evlerini
evli
evliya
evo
evr
evra
evraziya
evren
evropa
evropada
evropalı
evropanın
evropaya
evrope
evros
evski
exactly
examiner
example
examples
except
exceptional
exceptions
exist
existing
exists
expanded
expected
expiry
explain
explanation
explanatory
explicitly
expo
export
expreso
express
ext
extended
extension
extensions
external
extra
extract
extracts
extraneous
extraordinary
ey
eya
eyaleti
eycik
eyh
eyi
eyim
eyin
eyinda
eyla
eylu
eytan
eytanın
eyu
eyvaz
ezoteric
f
fa
fabian
fabio
fabrika
fabrikanın
fabrikası
fabrizio
fabula
fact
facto
fahri
faik
fail
failing
fairly
fakat
fakty
faku
fakultet
fakulteti
fakultetina
fakultetinda
fakultetini
fakultetını
fal
falkland
falls
false
famagusta
family
fan
fano
fantastik
farah
farer
farklı
farrell
fars
farsc
farsi
faruk
fas
faso
fasıl
fatih
fatma
fatos
fayda
faydalı
faye
fazla
fazlı
fazıl
fc
fdfdfd
fe
feature
features
february
fed
federal
federasyonu
federat
federativ
federatiyası
federico
fedor
fedora
feed
feedback
feel
fehmi
fek
felice
felidae
feliformia
feliks
felipe
felix
fena
fenech
fenet
feodor
ferdinand
ferdinando
ferenc
fergola
ferguson
feridun
ferit
ferizovik
ferman
fermanagh
ferna
fernand
fernando
ferrari
ferrer
fes
festival
festivala
festivalda
festivali
festivalin
festivalinda
fet
fetch
fethetti
fethi
fevral
fevralin
fevzi
few
ff
fi
fiala
fici
fidan
fidanın
fields
fier
fife
figure
fiji
fik
fikir
fikiri
fikirin
fikirini
fikirla
fikirlema
fikret
fikri
fil
filatov
filatovun
filcan
fildis
file
filev
filialı
filiba
filioglu
filip
filippinner
filippo
filiz
fill
filla
fillerin
film
filmda
filmin
filmler
filmleri
filolog
filologiya
filozof
fin
final
finally
finance
financial
finans
finca
find
finding
findlay
fine
finland
finlandiya
finlandiyada
finn
finner
finnish
finzi
fir
firavun
firmanın
firması
first
firstn
fischer
fisher
fistan
fit
fits
fitz
fix
fizika
fizikacılar
fizikc
fjodor
fjodorowitsch
fk
fkeli
fla
flag
flagicon
flavinucha
flemenk
fleming
float
floating
floor
floransa
flores
florian
florida
florin
flu
fm
fmf
fn
fo
foarloage
fok
fokus
folha
folke
folkeblad
folklor
folklorcu
folkloru
folklorunu
followed
following
follows
fon
fondu
fondun
fonduna
fonksiyon
font
fontaine
fontana
fontsize
foo
footer
footnote
for
forbes
force
forced
forces
ford
foreign
form
formada
forman
forması
formasında
format
formatlama
formatted
formatting
forms
formula
formuzal
fort
forth
forti
forum
forumu
foster
foto
fotog
found
four
fourth
fowler
fox
fr
fra
frame
frameless
fran
franc
france
francesc
francesco
francia
francis
francisco
franciszek
franck
franco
franjo
frank
frankfurt
frankie
franklin
frankı
frans
fransız
fransızlar
frant
frantis
franz
fraunhofer
fre
fred
frederick
fredrik
free
freedom
freeman
freetown
french
friedrich
frisch
fritz
friz
from
frontera
frontu
frp
frr
fu
fuad
fuat
fuchs
fukaara
full
fuller
fullwidth
fully
funchal
function
functional
functionality
functions
funkt
funny
fur
furio
further
fus
fusu
fusun
futbol
futbolcu
futbolcuları
futuna
future
fuyu
fuzu
fy
fyodorov
fyrimynd
fødselsdato
fıc
fıkaara
fıkra
fırat
fırına
fırında
fəaliyyət
g
ga
gabon
gabonensis
gabriel
gabriele
gaceta
gae
gaetano
gag
gagaguz
gagauz
gagauzc
gagauzca
gagauzia
gagauzistan
gagauziya
gagauziyada
gagauziyadan
gagauziyanın
gagauziyaya
gagauziyaylan
gagauziyayı
gagauziyeya
gagauzlan
gagauzlann
gagauzlar
gagauzlara
gagauzlarda
gagauzlardan
gagauzlarin
gagauzlarlan
gagauzlarm
gagauzları
gagauzların
gagauzlarından
gagauzluk
gagauzmusun
gagauzolog
gagauzologiya
gagavuz
gal
gala
galat
galereyasında
gali
galic
galilei
galileo
galina
galinden
galle
gallen
gallery
galli
galloway
galway
gambier
gambiya
gamze
gan
gana
ganesan
ganja
garci
garga
gargalik
gary
garðabær
gas
gaspıralı
gasset
gaston
gatti
gauci
gavriil
gavril
gayana
gayanası
gaydarci
gaydarcı
gaz
gazanfer
gazeta
gazetada
gazetadan
gazetalar
gazetaları
gazetalarında
gazetanın
gazetası
gazetasına
gazetasında
gazetasının
gazetayı
gazete
gazeteci
gazetesi
gazette
gazi
gaziantep
gazimag
gbr
gd
gdan
ge
geboz
gebruiker
gebruker
gec
geca
gece
gecela
gecelemis
gecenin
gecesinda
geeri
gel
gela
geldi
geldig
geldiina
geldik
geldila
geldiler
geldim
geldin
geldiniz
geldiyna
gele
geleca
gelecek
gelee
gelelim
gelen
geler
gelerla
gelin
gelinim
geliniz
gelip
gelir
gelirsa
gelis
geliy
geliylar
geliyor
gelma
gelmedi
gelmemis
gelmis
gelsa
gelsin
gelsinna
gemi
gemici
gemileri
geminiano
gena
genc
gencevi
gene
genel
genelkurmay
genellikle
general
generally
generate
generated
generates
generating
generational
geni
genis
gennadi
genot
geo
geoffrey
geografik
geografiya
geograph
geographic
geographical
geohack
georg
george
georges
georgesku
georgi
georgia
georgiev
georgieva
georgievic
georgievın
georgiy
georgy
ger
gerald
gerard
gerbi
gerbı
gerc
gerd
gerdila
gereg
gerekc
gerekecektir
gereken
gerekir
gerekirse
gerekli
gereklidir
gerekmektedir
gereksiz
gerektig
gerhard
geri
germain
german
germanca
germaniya
germaniyada
geroyluk
gert
get
getir
getira
getirdi
getirdila
getirelim
getirer
getirerla
getirildi
getirilmemektedir
getirilmis
getirma
getirmis
getirsin
gets
geza
gezer
gezeriz
gezi
gezip
gezma
gezmeer
gezmis
gharib
gheorghe
gheorghiu
ghetaldi
ght
ghtnın
ghulam
gi
giacinto
giacomo
gian
gianni
gibbs
gibi
gibson
gida
gide
gideca
gidecek
gidecez
gidee
gidelim
giden
gider
gidera
giderim
giderla
giderlar
gidersin
gideyim
gidiniz
gidip
gidiy
gidiyla
gif
giidirmis
giim
giimis
giimni
gijo
gil
gilan
gilbert
giles
gilles
gimn
gimna
gimnanın
gimnası
gimnasının
gimnaziya
gina
gino
giordano
giorgio
giotto
giovan
giovanni
gipoteza
gipotezayı
gira
giray
girdi
girdila
girdim
girdiyna
giren
girer
girerim
girerla
girgin
girginnik
girgis
girgisler
girilen
girilmemesi
girilmesi
girilmis
girip
giris
girma
girmis
girne
girolamo
girona
girsin
git
gitarist
gitma
gitmeli
gitmis
gitsa
gitsin
gitti
gittik
gittila
gittim
giuliano
giulio
giuseppe
given
gives
gizem
gizle
gizlenir
gizlenmis
gizli
gje
gl
gladstone
glas
glasgow
glasnik
glavni
gleb
glenn
globe
globo
glogovac
glos
gmina
gmt
gnat
gnjilane
go
god
godfrey
gogol
gol
gold
golden
golubovski
gonza
gonzalez
good
google
gor
goraz
gorazd
gorbac
gordon
gorsk
gorsovetin
gottfried
gottlieb
gould
gov
government
gr
grac
grace
gradlıı
grafika
grafikasına
grafikasında
graham
grahmez
gramatika
gran
grand
grande
granit
grant
grassi
grasın
gray
graz
grc
great
greater
grech
greco
greda
green
greene
greenwood
greg
gregor
gregorio
gregory
gregoryen
grek
grekla
grenada
grenadinler
grenlandiya
gret
gretiya
grey
gri
grigoras
grigore
grigori
grigoriy
grigory
gripası
group
groupe
groupn
groupnstyle
grouppadding
groups
groupstyle
groupwidth
grove
grows
grozni
grt
grtda
grtnın
grtya
gru
gruba
grubu
gruhpbic
grup
grupa
grupalar
grupanın
grupası
grupasına
grupasından
grupaya
grupbic
gruplar
grupn
gruppası
gruppasına
gruppasından
grupsuz
gruz
gruziya
gruziyada
gruziyanın
gsub
gu
guadeloupe
guam
guardian
gubernator
gubernatorun
guboglu
guernsey
guez
gugus
guide
guido
guila
guillaume
guillermo
guine
gulf
gunnar
guru
gurung
gustaf
gustav
gustave
gustavo
guthrie
guyana
gv
gvatemala
gvineya
gyeongje
gyo
gyula
gəncə
h
ha
haag
haas
haasan
habarovsk
haber
haberdar
haberla
haberlera
haberleri
habilitat
hac
haci
hacı
hacılaa
hacıqabul
had
hadetlerini
hadi
hadise
hafeez
hafnarfjo
hafta
haftanın
hafız
haga
hagi
hai
haiti
hajdu
hak
hakan
hakas
hakasiya
hakaslar
hakikat
hakkari
hakkı
hakkında
hakkındaki
hakkını
hakları
haklarını
hakına
hal
hala
halac
halaclar
halda
haldun
hale
halid
halifax
halife
halil
halinde
haline
halis
halit
haliz
halizda
halk
halklar
halklara
halklararası
halkları
halkların
halklarına
halklarının
halkmıs
halktan
halkı
halkıdır
halkım
halkımızın
halkın
halkına
halkını
halkının
hall
hallıklı
halın
haman
hamburg
hamdi
hamilton
hamit
hamm
hammer
hampshire
han
hana
hand
hande
handle
handling
handy
hanganu
hangi
hangisi
hangıları
hangılarından
hangılarını
hani
hank
hanna
hannarı
hannes
hanno
hannıı
hans
hansen
hansing
hanson
hanti
hanı
hanım
hanın
hapis
hapse
haqqında
har
hara
haradok
harakter
harakteri
harakterinda
harald
harap
harbor
harbour
harc
hard
harder
hardwick
hareket
harf
haric
harita
harkov
harlow
harman
harmanda
harold
harri
harris
harrison
harrow
harry
hart
hartmann
hartum
harun
harvey
has
hasan
hasanov
hassas
hasta
hastalık
hastalıklarına
hastalıklarından
hastalıı
hastası
hastings
hat
hata
hatalı
hatay
hatice
hatip
hatları
hatta
hatır
hatırlı
hatırını
haugan
haugen
hausner
hava
havaalanı
havalar
havaları
havana
have
haven
havezla
hawai
hawaii
hay
hayat
hayatı
hayatını
haydadı
haydar
haydutluk
hayme
hayri
haystack
hayvan
hayvancılık
hayvancılıın
hayvandır
hayvanlar
hayvannar
hayvannarı
hayvannarın
hayvanı
hayın
hayır
hazar
haznesinda
hazır
hazırdı
hazırladı
hazırladılar
hazırlamakta
hazırlamıs
hazırlanan
hazırlandı
hazırlane
hazırlanması
hazırlanmasında
hazırlanmıs
hazırlayan
hazırle
hcard
he
header
headers
heading
headings
headline
health
heard
heavy
hebdo
hecesel
hector
hederlez
hederleza
hederlezda
hee
heftenin
heide
heidi
height
heikki
hein
heino
heinrich
heinz
hela
hele
helen
helena
helene
helga
helgi
heli
hella
helle
hello
helmi
helmut
help
helpful
helps
helsinki
helvi
hem
hemen
hemingway
hen
henares
hendek
henderson
hendrik
henez
henie
hennessy
henri
henrik
henry
henryk
hep
hepsi
hepsicii
hepsina
hepsinda
hepsini
hepsinin
hepta
her
herald
heraldo
herat
herbert
herbir
here
hererda
herersini
hergela
hergeleci
hergeleda
hergu
herhangi
herkera
herkezi
herliim
herm
herman
hermann
herna
herrera
hers
herschel
hersek
hert
herta
herve
hervey
herzaman
herzegovina
hessen
het
hey
hi
hic
hicks
hidden
hide
hiding
high
highly
hikmet
hilda
hilja
hill
hills
hilmi
hilton
himalaya
himiya
himni
himno
hindistan
hint
hisar
hispanınca
history
hiv
hizmete
hizmeti
hk
hları
hlı
hm
hn
ho
hoa
hobart
hobbs
hoca
hocalı
hodgei
hodul
hodulluklan
hoff
hoffmann
hofman
hofmann
hokeyi
holban
holbein
hold
holding
holds
holger
hollandalı
holy
home
homel
homer
homme
homonymie
honduras
hong
honolulu
honore
hoon
hoover
hope
hopkins
hor
hora
horace
horadnya
horas
horasan
horia
horizontal
horn
horu
horvat
horvatc
horvatiya
horvatlar
hos
hossein
hostname
hotel
house
houston
how
howard
however
hoy
hr
hracat
hraparak
hribar
hristian
hristianlık
hristianmıs
hristiyan
hristo
hristozun
hrodna
hrus
hrvatska
hrət
hsan
hsb
ht
hta
htm
html
http
https
hu
hualpe
hubert
huelva
huesca
huffman
hugh
hugo
hui
hukuk
hukukc
hull
hulusi
hun
hundreds
hung
hunt
hur
hus
husain
huseynov
hussain
hussein
hwa
hwan
hwang
hy
hye
hyo
hyphen
hyphens
hypothetical
hyun
hıristiyan
hırsız
hırsızlar
hırsızlık
hırsızlıı
hısım
hızlı
həm
həmc
hər
hərəkatının
i
ia
ial
ialist
ian
iat
ib
ibn
ibragimov
ibrahim
ic
ica
ice
ich
ici
icleni
icon
icona
icons
id
ida
idaho
idam
iddiasıyla
identifiers
identifies
ider
ideya
idi
idiler
idilmis
idim
idioma
idip
idir
idlarınnan
idris
ids
idın
ie
iel
ier
ierlar
ietf
if
ifa
ifadə
ifc
ift
iftbic
iftc
iftic
iftlii
iftlik
ig
igid
iglesia
iglesias
igna
ignacio
ignores
igor
ihta
ihtiar
ihtiyac
ii
iii
iilik
iir
iirda
iiri
iirinda
iirla
iirlerda
iirleri
iirlerin
iirlerinda
iirlerini
iivi
ija
ik
ika
ikalı
iki
ikimiz
ikinci
ikincila
ikincisi
ikis
ikisi
ikiu
iklik
ikmaa
ikram
iktas
il
ila
ilac
ilan
ilbo
ilc
ilda
ildan
ildi
ildiko
ildir
ildə
ile
ilecek
ilen
iler
ilera
ilerda
ileri
ilerin
ilerinda
ileriya
ilerlema
ilerlemesi
ilerlemesinin
ilerlesin
iles
ileti
ilgaz
ilgili
ilgiliydi
ili
ilig
ilii
iliin
ilija
ilik
ilikla
ilin
ilini
ilinın
ilir
ilis
ilisserut
ilja
ilk
ilka
ilkin
ilkta
ilkyaz
iller
illeri
illustration
illəri
ilma
ilmar
ilmari
ilov
ilse
ilya
ilə
im
ima
image
imageleft
imageleftn
imageleftstyle
imagen
imageright
images
imagestyle
imbi
imbox
imda
imde
imdi
ime
imek
imekla
imf
img
imi
imin
iminde
imis
imiyle
imkan
imkanı
imler
imleri
immanuel
immediately
imna
imnera
imnerda
imneri
imnerin
imnerinda
imparatoru
imperial
impoes
important
imported
improve
improved
imre
ims
imtarihi
imyılı
imza
imzaladı
imzalandı
in
ina
inalar
inan
inanan
inanc
inanerla
inası
inau
inauguracion
inc
inca
incase
ince
incecik
incelema
incelendi
incenerlar
incenerler
inci
include
included
includemetatable
includes
including
inclusion
incorrect
incorrectly
ind
inda
inde
indef
indeki
indeliini
inden
indent
independent
index
indexer
indi
indian
indiana
indicating
indicator
indiki
indilik
indio
indir
individual
indiya
indiyadak
indiyadan
indrek
indu
industriju
industriya
industriyası
ine
inek
inekleri
inen
iner
inev
inevdakı
inevun
infaz
info
infoboks
infobox
informat
information
informer
inge
ingena
ingenela
ingenelerin
ingilis
ingiz
ingizog
ingrid
ingriya
inhambane
inherit
inherits
ini
inin
inios
inis
init
initial
initially
initials
initiating
iniz
injiner
inka
inki
inli
inline
inmis
inna
inner
ino
inov
input
ins
insan
insana
insandan
insandır
insanlar
insanları
insanların
insannar
insannara
insannardır
insannarı
insannarın
insannarına
insannık
insanı
insanın
insensitive
insert
inserted
inside
inskas
inspekt
instance
instances
instead
institut
institute
institutta
institutu
institutunda
institutunu
instruction
instructions
integer
integrat
intended
interfere
intermediate
intermedio
internal
internally
international
internet
interpreted
interviewer
interviewers
interwiki
into
intricate
invalid
invisible
invoke
io
ioan
iog
ion
ional
ionescu
iosif
iowa
ip
ipairs
ipiu
iprage
ipswich
ipv
ir
ira
irak
iran
irdi
irdila
irecek
ireland
irelim
irene
irer
iret
iri
iridi
irildi
irilmesi
irin
irina
irip
irish
irket
irketi
irkin
irma
irmi
irmis
irvan
irwin
irəli
is
isa
isaac
isaak
isayev
isbn
ise
isel
isi
isim
isimleri
isimli
isin
isina
isla
islam
island
islands
isle
ismail
iso
isparta
ispolkomu
issue
ist
ista
istanbul
istasionnarı
istasyonlar
istasyonları
istedi
istedig
isteer
isteerim
isteerla
isteersin
isteg
istema
istemis
istendig
istenen
istenildig
istenmeyen
ister
istifa
istifadə
istifadəc
istik
istika
istiyorsan
istiyorsanız
istoriya
istoriyacı
istoriyada
istoriyadan
istoriyalı
istoriyasinda
istoriyası
istoriyasına
istoriyasında
istoriyasını
istva
isus
isə
it
ita
italiano
italic
italics
italik
italo
item
items
itibarıyla
itim
itimci
itirdi
itli
itma
itmis
its
itself
itti
ittihad
ittim
iu
ius
iv
iva
ivan
ivanic
ivanov
ivbic
ivengelli
ivi
ivo
ivory
ivtarihi
ivurl
iwan
iwanow
iy
iya
iyacı
iyada
iyadan
iyadanın
iyalar
iyaları
iyalarını
iyalı
iyanın
iyası
iyasına
iyasında
iyasını
iyasının
iyaya
iyayı
iye
iyecek
iyer
iyerla
iyi
iyicem
iyir
iymis
iyu
iyul
iyun
iz
izer
izgi
izi
izin
izla
izleri
izmet
izmetc
izni
izvestiya
iıdır
j
ja
jaak
jaakko
jaan
jaanus
jabal
jabrayil
jacek
jack
jackie
jackson
jacksonville
jacob
jacobsen
jacobus
jacopo
jacques
jae
jaffna
jakob
jakobson
jakow
jakub
jamaica
james
jamie
jan
jana
jandarma
jane
janeiro
janet
janez
jang
jani
jankovic
janne
janr
january
japon
japonca
jari
jarkko
jaromi
jaroslav
jason
jaume
javascript
javier
jay
jazyk
je
jean
jeff
jefferson
jehangir
jekova
jelen
jelena
jena
jenny
jens
jeong
jeraj
jeremy
jerez
jernej
jerry
jersey
jerzy
jesper
jesse
jessica
jesu
jet
jewgeni
ji
jim
jimmy
jin
jir
jo
joachim
joan
joe
joel
joensuu
johan
johann
johanna
johannes
johanson
johansson
john
johnny
johnson
johnston
join
jon
jonas
jonathan
jones
joo
joon
joonas
joong
jordan
jordi
jorge
jorma
jornal
jose
josef
josep
joseph
josip
jot
jour
journal
jovanovic
joy
joz
jozef
jpg
jpn
jr
js
jsa
jsza
ju
juan
judit
juha
juhan
juhani
juho
jukka
jules
juli
julia
julian
julie
julio
julius
juliusz
jun
june
juneau
jung
juniors
junta
juozas
juraj
jure
jurgis
juri
jurij
jurnal
jurnalist
jurnalistika
jurnalistla
jurnalistleri
jurnallar
jurnallarda
jussi
just
justice
justin
justus
juta
jv
jva
jyva
jørgen
k
ka
kaa
kaar
kaara
kaare
kaarel
kaari
kaasik
kaavi
kaaviles
kaaviletsin
kabaatlı
kabaatsız
kabak
kabardin
kabardino
kabardinolar
kabayan
kableda
kableder
kablederla
kabledildi
kabledilmesi
kabletma
kabletsin
kabletti
kabo
kabul
kabuletmis
kabuletti
kac
kadar
kadir
kadri
kadın
kadınca
kadınlar
kadınlarda
kadınnar
kadınnarda
kafadar
kafadarlarına
kafalı
kafanı
kafası
kafasını
kafatı
kafe
kafedranın
kafedrası
kafedrasının
kahire
kahraman
kahramanmaras
kahramannar
kahramanı
kahul
kahır
kai
kaido
kail
kaiser
kaj
kaja
kajetan
kakan
kakangiller
kakansılar
kakanı
kakusunu
kal
kala
kalan
kalanı
kalar
kaları
kalay
kaldı
kaldılar
kaldır
kaldırdı
kaldırdılar
kaldıre
kaldırer
kaldırmak
kaldırmıs
kaldırıldı
kaldırılması
kaldırılmıs
kaldıydı
kale
kaleda
kaleden
kaledoniya
kalendar
kalendarlar
kalendarı
kalenin
kaler
kalerlar
kalesi
kalesina
kalev
kalevi
kaleya
kaliforniya
kaliteli
kaljo
kalju
kalker
kalkmaa
kalkmıs
kalktı
kalkınma
kalkıntı
kalkıntıcılar
kalkıntısı
kalkıntısında
kallas
kalle
kallela
kalma
kalmadı
kalmar
kalme
kalmet
kalmis
kalmıkiya
kalmıklar
kalmıs
kalp
kalpak
kalpaki
kalsın
kalın
kalıp
kalır
kalırdı
kalıy
kalıyor
kamboca
kambur
kamc
kame
kamen
kamerun
kamil
kamp
kampala
kampu
kamran
kamu
kan
kana
kanada
kanadada
kanadalı
kanadı
kanal
kanalları
kanalı
kanariya
kanas
kanatları
kanatlı
kandehar
kandidat
kandidatlar
kandidatlıına
kandilli
kane
kang
kani
kanları
kanlıg
kannar
kannarı
kannı
kannık
kannıı
kanon
kanona
kanonu
kanonun
kanonunda
kanonverici
kansas
kansu
kantiler
kanton
kanunu
kanı
kanın
kanına
kanından
kanının
kao
kap
kapadı
kapadılar
kapalı
kapamıs
kapandan
kapandı
kapane
kapc
kaper
kaplan
kaplanlar
kaplanı
kaple
kapleer
kapmıs
kapsayan
kapu
kapuda
kapudan
kapuları
kapusu
kapuyu
kapısı
kar
kara
karabag
karabah
karabu
karac
karaca
karacaog
karadaa
karadag
karadeniz
karadere
karagandi
karaim
karaimner
karakalpak
karakalpakistan
karakalpaklar
karakas
karako
karakoc
karakurt
karaman
karamanoolu
karanfil
karannık
karannıkta
karaosmanog
karapapaklar
karar
kararladı
kararlas
kararı
kararın
kararına
kararınnan
kararını
kararıyla
karasal
karasu
karatay
karayel
karayip
karayipler
karayolları
karayolu
karbalı
karber
karbona
karbunas
kard
kardas
kardes
kardinal
karel
kareliya
karen
kari
karikatu
karikaturacılar
karin
kariye
karjala
karjalan
karl
karlovac
karlstad
karluk
karm
karmas
karol
karolina
karpat
karpaul
kars
kart
karta
kartadaki
kartal
kartası
kartofli
karı
karılar
karınlı
karının
karıs
karısı
karısına
karısını
karısının
karıya
karıyı
kas
kasaba
kasabada
kasabade
kasabadir
kasabadır
kasabalar
kasabalarda
kasabalari
kasabaları
kasabalarında
kasabanın
kasabasal
kasabasi
kasabasidir
kasabasitu
kasabası
kasabasın
kasabasına
kasabasında
kasabasından
kasabasını
kasabasının
kasabaya
kasablanca
kasap
kasapc
kasas
kasetalar
kask
kastamonu
kastilya
kasım
kasımın
kata
katajew
katalan
kataloniya
katar
kate
katedral
katedrali
kategori
kategorie
kategorija
kategoriler
kategorilerde
kategorilerin
kategorinin
kategorisine
kategoriya
kategoriyasında
kateqoriya
katerina
katherine
kathmandu
kati
katja
katkı
katkıcılistesi
katkıda
katlı
katolik
katolit
katolitleri
katolitsiz
katowice
katrin
kattai
katılacek
katılan
katılannar
katılannara
katılannarın
katıldı
katıldılar
katıldıı
katıle
katılmaa
katılmak
katılımcılara
katıs
kaus
kavala
kavarna
kavarnada
kavkaz
kavramıs
kavrayıp
kavurma
kavus
kay
kaya
kaybedir
kaybeldi
kaybelmis
kaybetti
kaybole
kaybolur
kayibetmis
kaykauz
kaylar
kayman
kaynak
kaynakc
kaynaklar
kaynaklardan
kaynas
kaynat
kaynee
kaynııcek
kayseri
kayveyn
kayıbı
kayıl
kayıp
kayıs
kaz
kazah
kazahlar
kazahstan
kazak
kazakh
kazakhstan
kazakistan
kazaklar
kazan
kazanacek
kazanc
kazandı
kazane
kazanmaa
kazanmıs
kazayak
kazimierz
kazmalı
kazım
kb
kbakar
kbilimci
kc
kdu
kduda
kdunun
ke
kec
kedi
kedigiller
kediler
kedimsiler
kedisi
keegan
keep
kees
keith
kek
kelc
kelebek
keles
kelime
kelimeler
kelimesi
keller
kelly
kemal
kemalettin
kemenc
kemer
kemerovo
ken
kenan
kenar
kenara
kenarda
kenarsız
kenarında
kence
kendi
kendibas
kendigela
kendileri
kendilerini
kendilerni
kendim
kendimi
kendin
kendina
kendinda
kendini
kendiniza
kendisi
kendisina
kendisine
kendisini
kendisinin
keniya
kenler
kenneth
kennis
kenny
kent
kenter
kenti
kentucky
ker
kera
kere
kerguelen
kerim
kerimov
kerkhof
kern
kero
kerr
kersti
kervan
kes
kesa
keser
keseri
kesici
kesiler
kesilmis
kesin
kesiy
keskin
kesma
kesmis
kesti
kestila
ket
ketimi
ketler
kevin
key
keyword
kez
kg
khaleej
khalil
khan
khmer
khu
ki
kic
kiev
kievda
kievdakı
kigali
kigezo
kigoma
kihat
kikas
kila
kilc
kildare
kilde
kilerda
kileri
kilerini
kilgas
kilimanjaro
kilit
kilkenny
kilo
kilogram
kim
kima
kimda
kimdir
kimi
kimileri
kimilerini
kimin
kimisi
kimsey
kimseya
kimseye
kimseyi
kimya
kimyacı
kimyager
kin
kinci
kind
king
kingdom
kingston
kino
kins
kinyarvanda
kipc
kipra
kir
kira
kirec
kirez
kirgiz
kiribati
kiril
kirill
kiriya
kiriyet
kirk
kirler
kirli
kirov
kirsten
kirsti
kis
kisa
kisi
kitabinda
kitabı
kitap
kitapbas
kitay
kitayda
kitts
kiu
kivi
kivira
kiyadı
kiyadın
kiyadında
kiyadından
kiyadını
kiyat
kiyatc
kiyatlan
kiyatlar
kiyatları
kiyatların
kiyatlarında
kiyatlarını
kiyatta
kiyev
kjell
kjersti
kk
kka
kko
kl
kla
klaipe
klar
klas
klasa
klasii
klasik
klaslar
klaslardan
klasların
klassifikat
klasta
klası
klaus
kleer
klein
kleme
klemek
klenen
klenilen
kler
klera
klerda
kleri
klerin
klerinda
klerini
kleyebilir
klimat
klimatı
klina
klip
klipı
klipın
klisa
klise
kliseda
kliseleri
kliselerin
kliselerinda
klisenin
klisesi
klisesinda
kliseya
kliseyi
klj
klu
klubun
km
kmen
kmeyecektir
kmu
kn
knaanik
know
knowledge
known
knoxville
knut
ko
kobe
koc
koca
kocaeli
kod
koda
kodları
kodu
kodun
kodunda
kodunu
kodunun
koha
koidu
koivisto
kokkola
kokos
kokoschka
kokusu
kol
kola
kolac
kolacılar
kolada
koladan
kolalar
kolalarda
kolaları
kolalarında
kolanın
kolası
kolasına
kolasında
kolasını
kolasının
kolay
kolaya
kolayca
kolaydır
kolayları
kolaylık
kolaylıı
kolayı
kolayını
kolc
kolec
kolecı
kolev
koleva
kolhozda
kolhozunda
koli
kolinin
koliya
koliyi
koloniya
kolorado
kolsa
kolstad
kolt
koltsa
kolu
kolumbiya
kolumbiyası
koluna
kolundan
kolverer
kolvermeer
kolvermis
kom
koma
komandası
komandasında
komandasınnan
komandasının
kombinatı
komedi
komedyen
komi
komiler
komisiya
komisiyanın
komisiyası
komisiyasının
komisyonu
komiteti
komitetin
komitetı
komitetın
komlo
kommuna
kommunalar
kommunist
komorlar
kompaniyası
kompleks
komplicerad
komplisert
kompozit
kompozitiya
kompozitor
kompozitoru
komrada
komradın
komrat
komrata
komratlı
komratlılar
komratlıların
komratta
komrattakı
komrattan
komratın
koms
komsomolskaya
komu
komunist
komus
komutanlıg
konak
kondu
konefedrasyonu
konferans
konferent
kong
kongar
kongaz
kongazc
kongazda
kongazlı
kongazın
kongo
kongres
kongresa
kongresi
kongresin
kongresina
kongresinda
kongresta
konkurs
konkursa
konkurslara
konkursta
konkursuna
konomika
konrad
kons
konsolosu
konstandoglu
konstanti
konstantin
konstantinov
konstantinowitsch
konstitus
konstitut
kont
kontinent
kontinentda
kontinentla
kontinentında
kontrol
konu
konuda
konularda
konuları
konum
konumu
konus
konusu
konusunda
konuylan
konvent
konya
konyarlar
konyic
koo
koord
koordinat
koordinatlar
koordinatnarı
koordinator
koordinatoru
kopc
kopenhagen
koper
koppel
koprivnica
kopyala
kora
korc
kordalılar
kore
korea
korel
koreya
korisnik
korkma
korktu
korktular
korkudan
korkunc
korkusuz
korn
korog
korudu
korudular
koruma
korumaa
korumada
korumak
koruması
korumasına
korumaya
korumus
korunan
korundu
korunması
korunmus
korutu
koruyan
koruycusu
koruyer
koryak
koryaklar
kos
kosmos
kosova
kosovo
kosovska
kossak
kosta
kosti
kostu
kotenko
kotka
kotlovina
kotor
kotte
koushiappas
kov
kova
kovic
kovun
koy
koyaceklar
koyar
koyarmıs
koydu
koydular
koydum
koye
koyer
koyerlar
koymaa
koymak
koymus
koyu
koyulacek
koyulan
koyuldu
koyule
koyuler
koyulmus
koyun
koyuncu
koyunnar
koyunnara
koyunnarı
koyunnarın
koyunu
koyup
koyıy
kozan
kozlu
kozma
kra
kragujevac
krai
krako
kral
kralic
kralj
krallık
krallıı
kralı
krasnodar
krasnoyarsk
kraus
kravc
krayı
krc
kreativnu
kredi
krejc
kreolu
kres
kresim
kret
kriketc
kris
krishnan
kristi
kristian
kristijan
kristin
kristina
kristjan
krit
kritli
kriz
krizis
kroat
krohg
krohn
kroll
krom
kronu
kroytor
krozet
kru
kruc
krull
kruusement
krzysztof
krım
krımc
ks
ksal
ksek
kseklig
kseklik
ksekova
ksel
ksemburg
ksenija
ksh
kta
kten
ktisadi
ktu
ku
kualamaa
kualayor
kuan
kuba
kubbe
kubey
kucak
kudret
kukuk
kula
kulaklarına
kule
kulenin
kulesi
kuleyi
kuli
kuliyi
kull
kullan
kullanabilirsiniz
kullanan
kullanarak
kullandı
kullandıg
kullandıklarıdır
kullane
kullanma
kullanmaa
kullanmak
kullanmalıdır
kullanması
kullanmayın
kullanmıs
kullanıcı
kullanıcıları
kullanıcıya
kullanılabilecek
kullanılabilir
kullanılan
kullanılarak
kullanıldı
kullanıldıg
kullanıle
kullanılmadıg
kullanılmaktadır
kullanılmalı
kullanılmaması
kullanılması
kullanılmıs
kullanılır
kullanılırsa
kullanım
kullanıma
kullanımları
kullanımı
kullanımına
kullanımıyla
kullanın
kullanınız
kullanıp
kulminat
kultur
kultura
kulturası
kulturasına
kulturasınnan
kulturasının
kulturna
kulturu
kulu
kum
kuma
kuman
kumanlar
kumanlara
kumanlardan
kumanlarin
kumanların
kumar
kumisi
kumsal
kumsalı
kumuk
kumuklar
kumık
kumıklar
kun
kunar
kunduz
kung
kuningas
kuntner
kuopio
kupası
kur
kurak
kuraklık
kuralları
kurba
kurban
kurbannarı
kurbannarını
kurbannık
kurbanov
kurbanı
kurbanını
kurc
kurdi
kurdistan
kurdoglu
kurdu
kurdular
kure
kurier
kuriren
kurmaa
kurmaca
kurmak
kurmus
kuroglu
kuroglunun
kurs
kurt
kurtaran
kurtarmaa
kurtarıcı
kurti
kurtlar
kurtuldu
kurtulmaa
kurtulmak
kurtulmus
kurtulus
kuru
kurucu
kurucusu
kurudi
kurudimov
kurulan
kuruldu
kurule
kurulma
kurulmaa
kurulmak
kurulması
kurulmasında
kurulmus
kurultayında
kurulu
kurulus
kurum
kurumu
kurumus
kuruv
kuryer
kus
kutladı
kutladılar
kutlama
kutlamaa
kutlamak
kutlamaklar
kutlamaları
kutlane
kutle
kutuda
kutusu
kutusuna
kutusunda
kutusunu
kutusunun
kuumus
kuusik
kuveda
kuvedi
kuvedimiz
kuvedina
kuvedini
kuvet
kuveta
kuvetla
kuvetleri
kuvetlerin
kuvetli
kuvetta
kuveyt
kuyruk
kuyruklu
kuyruunu
kuzey
kuzu
kuzunun
kuzuyu
kvadrat
kvalifikat
kvartal
kw
kwh
kwok
ky
kyoto
kyrenia
kyrgyzstan
kyun
kyung
kz
kıbrıs
kılar
kılavuzu
kılc
kılıc
kıpc
kıpım
kır
kıra
kırda
kırgız
kırgızistan
kırgızlar
kırgızstan
kırk
kırklareli
kırlannar
kırlarda
kırları
kırlarına
kırlarında
kırligayı
kırmızı
kırs
kırık
kırıkkale
kırıldı
kırım
kıs
kısa
kısadan
kısaltma
kısaltmaalar
kısaltmaası
kısaltmadır
kısayol
kısmet
kısmetina
kısmetini
kısmetli
kısım
kısımbic
kısıraa
kısıraan
kısırak
kısıtlamalar
kıvrak
kıyiv
kıymetli
kıyısı
kıyısında
kız
kıza
kızc
kızgın
kızkardas
kızlan
kızlar
kızlara
kızları
kızların
kızı
kızıl
kızılay
kızılkanat
kızım
kızımı
kızın
kızını
kızının
kızıs
kərimov
l
la
laa
laaksonen
laala
laam
laamın
laap
laardı
label
labels
labrador
lac
ladislav
lady
ladı
ladıg
ladık
ladılar
laf
lafa
lafbirles
lafeda
lafedeerla
lafeder
lafederla
lafetma
lafetsin
laflar
laflara
laflardan
laflarlan
lafları
lafların
laflarını
laflık
laftan
lafı
lafın
lafına
laga
lahir
lahti
lai
laid
laila
laine
lajos
lak
lake
laklar
lalı
lam
lama
lamak
lamasının
lambert
lambuyu
lamıs
lan
land
landa
landau
landkreis
landı
lane
lang
langford
langley
langston
language
languages
languedoc
langwithname
langıc
lanka
lankı
lanmalıdır
lanmıs
lanterna
lantı
lantıda
lantılar
lantıları
lantıların
lantılarını
lantılı
lantının
lantısı
lantısında
lantısından
lantıyı
lao
laos
lappeenranta
lar
lara
larda
lardan
lardı
lardır
large
larger
larin
larissa
larlan
larna
larry
lars
larsen
ları
larım
ların
larına
larında
larından
larınnan
larını
larının
las
lasse
last
lastauthoramp
lastfirst
lastfirsttable
lastn
lat
latin
latinner
latitude
latviya
lau
laudrup
laur
laura
laurence
laurent
lauri
lawrence
lay
layan
layor
layıp
lazari
laziz
lazım
lb
lbe
lbu
lc
lca
lcu
ld
lda
lde
lder
ldi
ldp
ldu
ldva
le
lea
leader
leading
learn
least
leave
leaving
lebanon
leca
lecek
leda
ledi
ledila
leduc
lee
leena
leer
leerim
leerla
leerlar
lefke
lefkos
left
legendası
legislativ
lehc
leht
lehte
lehtonen
leida
leif
leissar
lek
leki
leko
lelek
lelekla
lema
lembit
lemek
lemesi
lemieux
lemin
lemis
lemy
len
lena
lenda
lene
lenecek
lener
length
lengu
lenin
leningrad
lenler
lenlerin
lenmesi
lenmesini
lenner
lennox
lenov
lent
leo
leon
leonard
leonardo
leone
leonhard
leonid
leopard
leopardı
leopold
lepa
lepik
leposavic
lepp
ler
lera
lerda
lerde
lerek
leri
lerik
lerim
lerin
lerina
lerinda
lerini
lerinin
lerinna
lerla
lerlar
les
lesini
lesinna
leslie
lesoto
less
let
leti
letilmis
letma
letmesi
letter
letters
leung
lev
levaillant
levant
leve
level
levels
levent
levi
levy
lew
lewis
ley
leya
leyda
leyenna
leyi
leyim
leyip
leyis
leyla
leyman
lez
lezgi
lezgiler
lg
lge
lgec
lgeler
lgeleri
lgelerinda
lgenin
lgesi
lgesina
lgesinda
lgesinde
lgesinin
lgesinna
lgili
lham
lhan
li
lia
liberal
liberiya
liberte
liberty
libiya
libiyalı
library
libraryutil
libre
libreville
lica
lichinga
lida
lider
lideri
liderleri
liderlig
lidiya
lie
liechtenstein
life
liffey
lig
liger
light
lightskyblue
lihtens
lii
liia
liiger
liina
liisa
liisi
liiv
lik
lika
like
likely
likli
lila
liler
lilian
lill
lilla
lima
limanları
limannar
limannarı
limanı
limba
limerick
limit
limitations
limited
lin
lina
lincoln
linda
lindi
lindtner
line
linear
lines
lingua
liniya
liniyalı
link
linked
linkn
links
linnaeus
linz
lionel
lipp
lira
lirası
lis
lisa
lisans
lisanslandırıldıg
lisansı
lisansının
lise
lisesi
lissabon
list
listasi
listası
liste
listebic
listed
listedolgusu
listelenecektir
listelenen
listeler
listelerin
listen
listesi
listesınıfı
listeyi
listing
listn
listnstyle
listpadding
lists
liststyle
lit
literal
literally
literatura
literaturada
literaturanın
literaturası
literaturasında
literaturasının
literaturaya
literaturayı
little
liturgiya
litva
litvaniya
liv
livan
live
livello
liverpool
liveweb
livingston
liviya
lix
lizbon
ljubomir
lk
lke
lker
lkin
lkta
lku
lkyaz
lkə
ll
lla
llais
llano
llar
lle
ller
lleri
llerin
lli
llinois
llo
llu
llui
lma
lmecit
lmedi
lmee
lmek
lmektedir
lmesi
lmesinda
lmeya
lmo
lmu
ln
lne
lni
lo
load
loaddata
loaded
local
location
locmap
log
logan
logo
logografik
loire
lojze
lokacijska
london
long
longer
longhi
longitude
loo
look
looking
looks
loop
lop
lope
loplar
lord
lorenzo
los
lot
lota
lothar
lothian
lou
louis
louise
louisiana
lounasmaa
lowell
lower
lowercase
lozung
ls
lsu
lt
ltesi
ltg
ltima
lton
ltu
lu
lublin
lubomi
luc
luca
lucas
lucia
lucian
luciano
lucien
lucio
luck
lucy
lude
ludmilla
ludur
ludvig
ludwig
lugo
lui
luigi
luik
luis
luk
luka
lukas
lukavac
lulea
lund
lunga
lunun
lupa
lupu
lusha
lushnje
lut
luther
lutheran
lutherci
luts
lv
lviv
ly
lya
lydia
lyic
lynn
lyublyana
lyubomir
lyudmila
lı
lıca
lıg
lık
lıkbic
lıklar
lıklara
lıkların
lıklı
lıknotu
lıksınıfı
lıksırasınıfı
lıktan
lıktu
lıkyok
lılar
lıq
lıy
lıı
lıın
m
ma
maa
maademcilik
maademner
maana
maanası
maanasınnan
maarip
maarja
maarten
maasik
maastricht
maasus
maasuz
maavi
maaza
maazaya
mac
macaca
macar
macdonald
macellan
maciej
mackay
maco
macro
mada
madagaskar
madde
maddeler
maddeleri
maddelerin
maddenin
maddesi
maddeye
made
madeddin
madeira
maden
madis
madison
madrid
mads
mae
maestro
mag
magadan
magas
magazin
magazine
magda
magdeburg
magellanicus
maggi
magic
magica
magnus
magomed
magyar
mahilyou
mahir
mahkeme
mahkemeleri
mahkemesi
mahku
mahmoud
mahmud
mahmut
mai
maia
maie
maija
mail
maimu
main
maine
maint
maintain
maintenance
maire
mais
mait
maja
majda
majko
major
mak
makale
makao
makarki
makarovic
make
makedon
makedoniya
makedoniyada
makedoniyanın
makedonnar
makeinvokefunction
makes
makidon
making
maklar
maks
maksim
makta
maktadır
maktan
mal
mala
malabo
malar
malarda
maları
malarınnan
malarını
malarının
malatya
malavi
malay
malaya
malayalam
malayziya
malcolm
maldivler
male
maleeva
mali
malik
malis
mall
mallar
malları
malların
malle
malline
mallinehuomio
mallorca
malmo
malmsten
malo
malota
malsagov
malta
maltaca
maltalılar
malı
mam
mamedova
mammadov
mammalia
mamu
mamunun
mamusu
mamusuna
mamusunu
man
manalarına
manastırı
manatı
manav
manc
manca
mandarin
mandat
mandatory
manevs
manfred
manfredi
mangiarotti
manila
manisa
manitoba
manjul
mann
mannar
mannarı
manner
mannerheim
mannık
manoff
manolo
manorama
mansi
manually
manuel
many
manzara
manı
manın
manız
maori
maoriler
map
mapa
maplandia
mapo
mapping
maps
maputo
mar
maradona
marc
marcador
marcel
march
marche
marcin
marco
marcus
mardin
mare
marek
mares
maret
margaret
margarita
margin
margins
margit
margus
mari
maria
marian
mariana
marianne
mariano
maribor
marie
mariehamn
marija
marika
mariler
marin
marina
marino
marinoglu
marinoglunun
marinov
mario
marion
maripuu
maris
marit
marius
mariya
marjan
marje
marjorie
mark
marka
markası
marked
marker
markers
markku
marko
markov
marks
marku
markup
markus
markı
marmara
marmaris
marokko
mars
marseillaise
marseille
marshall
marsilya
mart
marta
martha
marti
martin
martina
martinelli
martinez
martini
martinik
martino
martius
martti
marty
marunevi
marunevic
mary
maryland
mas
masa
masal
masallar
masallarda
masalları
masalların
masallarını
masallı
masalı
masalın
masaya
masiela
masindi
mask
maskat
maske
maskesi
maskn
mason
massachusetts
master
ması
masına
masında
masınnan
masını
masıylan
mata
matc
match
matches
matching
mate
matei
matej
mateja
matematika
matematikacılar
matematikc
matera
material
materiallar
math
mati
matija
matin
matjaz
matriarhat
matt
matteo
matter
mattha
matthew
matthias
matti
mauri
maurice
maurstad
maury
mavriki
mavritaniya
max
maxim
maximilian
maximum
maxwell
may
maya
maydan
mayen
mayer
maymun
maymunnar
mayotte
mayı
mayın
maz
mazhar
mazlık
mbabane
mbox
mboxes
mc
mcdonald
mcintosh
mclarnin
mclean
md
mda
mdina
me
mean
means
meant
measure
meath
mec
meci
mecilistesi
meclis
meclisi
mecliste
meda
medali
medalileri
medalisini
medaliyi
medi
media
mediawiki
medien
medije
medik
medim
medit
medium
medyaviki
mee
meeli
meelis
meer
meerla
megiella
mehmed
mehmet
meidani
meir
mek
meksika
meksikalı
meksiko
mekte
mektedir
mela
melbourne
melek
meleri
melerin
melerina
melerinda
melerini
melih
melilla
melis
melville
melvin
memduh
memeliler
memet
memis
memleket
memleketinda
memorial
memphis
men
menderes
menevs
mensk
mentalis
mer
meraklı
meraklıydı
meral
meralara
mercantil
mercedes
mercury
meric
meridian
meridiano
meritul
merkez
merkezi
merkezin
merkezinda
merkezinin
merle
mermer
meropriyatiyalar
meropriyatiyaların
meropriyatiye
mersin
mert
merve
merzin
mes
mesaj
mesajına
mesi
mesin
mesinda
mesini
mesinna
message
messagebox
messageboxes
messager
messages
mestizo
met
meta
metabox
metaboxes
metacaixa
metadata
mete
methodist
meti
metin
metka
metne
metni
metnin
metninin
metodika
metodist
metre
metric
metro
metropol
meva
mevcut
mevlu
mex
mexico
mexiko
meya
meycek
meydan
meydana
meydanda
meydangazetasi
meydanı
meydanında
meyer
meyip
mez
mezarlıında
mezarını
mezo
međimurje
mfa
mg
mhaoin
mhp
mi
mia
miami
mian
micallef
michael
michail
michal
michał
michel
michelangelo
michele
michelle
michigan
microformat
microformats
mid
middle
middot
midi
midland
mifsud
might
miguel
miha
mihai
mihail
mihaylovic
mihayıl
mihkel
miilli
mika
mikayıl
mike
mikhail
mikiver
mikk
mikko
miklo
mikroformatlar
mikroneziya
mil
milan
milano
milanov
milena
miliard
milion
milis
military
miller
millet
milleti
milletimizin
milletin
milletla
milletler
milletlerin
milletvekili
milli
million
milliyetc
milos
miloslav
milsami
milton
milvi
milyar
milyard
milyon
mimar
mimari
mimi
min
mina
minare
minas
mind
mindanao
mine
mineaceus
ming
minga
ministeril
ministerliin
ministerul
ministr
ministru
ministrusu
minnesota
minor
minos
minsk
minuc
minut
minute
minutes
minutta
miquelon
mir
mira
miranda
mircea
miroslav
mirror
mirulu
mirza
mirzə
mis
misal
misin
misiya
missing
mississippi
missouri
mit
mitchell
mitingc
mitingta
mitja
mitropolit
mitrovic
mitrovica
mitt
mizzi
mk
mku
ml
mla
mladenov
mlads
mle
mleda
mleleri
mlelerin
mler
mlrd
mlu
mm
mma
mmik
mmmm
mn
mna
mnc
mne
mnerda
mneri
mo
mod
mode
model
modele
modello
modelo
modern
modified
modify
modu
module
modules
moe
mogadis
mogamed
mogutenko
mohamed
mohammad
mohammed
moines
moj
mojca
mol
mold
moldava
moldaviya
moldo
moldova
moldovada
moldovadakı
moldovadan
moldovan
moldovanca
moldovannar
moldovanın
moldovaya
moldovaylan
moldovayı
molitor
molla
molotov
moment
mon
monaco
monako
monde
mongol
mongoliya
mongollar
monica
monitor
monitorul
monroe
monrovia
mons
montana
montanari
monte
montevideo
montgomery
month
monthname
montreal
montserrat
montsoreau
monzo
moon
moor
moore
moputo
mor
mora
morales
mordoviya
mordvinner
more
moreno
morgan
mori
mormon
morning
moro
moroni
morris
morrison
morse
morten
mortensen
morton
mortotago
mos
moscow
moser
mosfellsbær
moshe
moskva
moskvada
moskvadakı
mosque
moss
most
mosta
mostar
mostly
motivi
mount
mountain
mov
move
moyse
mozambik
mozambikte
mozambique
mozart
mozartin
mparatorlug
mpariyası
mr
mru
ms
msg
msk
mt
mtaz
mtwara
mu
mualla
muammer
much
mucit
mucitleri
mudel
mudell
muhalefet
muhammad
muhammed
muhammet
muhtar
mulatto
muller
multi
multiple
mum
mun
mundi
mundo
munir
munit
munster
munə
mur
murat
muratag
murcia
mures
murmansk
murray
mus
musa
musaafir
musaafirla
musaafirlera
musaafirleri
musaafirlerin
musafirci
muscat
museum
musiqi
musiqic
must
mustafa
mustang
musulman
mut
muthuraman
mutlak
mutlaka
mutlu
muzaffer
muzesi
muzey
muzeyda
muzeyi
muzeyin
muzeyini
muzeyla
muzeylerin
muzika
muzikacı
muzikasını
muzikaya
muzikayı
muzıka
muzıkası
muzıkasını
muzıkaya
mw
mwanza
my
myanmar
mylne
myung
mz
mzn
mı
mıs
mısır
mə
məlumat
mənbələrdə
məs
məsələn
mətn
n
na
nabi
nacala
nachrichten
naci
nacio
nacional
nader
nadezhda
nadine
nadir
nafta
nagy
nah
nahc
nairobi
naissance
naixement
nak
nakc
naklar
nal
nalc
nam
nama
name
named
namelist
namelistformat
names
namesep
namesi
namespace
namespaces
namibiya
namig
naming
namtha
nan
nanai
nancy
nandırın
nane
nano
nap
napole
napoli
narodniny
narozeni
narva
nas
nasa
nasaat
naskig
nassau
nasser
nastradin
nası
nasıl
nat
nata
natalia
natalie
natalya
natas
nathan
nathaniel
nation
national
nationalist
nato
natura
natural
naturanın
nauru
navapolat
navarra
navassa
navbar
navbox
navboxes
navegadors
navigation
navigational
naviqasiya
navra
nawigacije
naxc
nay
naya
naydın
naz
nazan
nazi
nazmi
nazım
nazırı
nbatısı
nbatısında
nbk
nc
nca
ncbi
nce
nceda
ncener
nci
ncipe
ncu
ncı
nd
nda
ndaki
ndan
ndare
nde
ndebele
ndeki
nden
nder
nderci
ndercileri
ndercilerina
ndercilerinin
ndercilii
nderciliina
ndercisi
ndez
ndi
ndir
ndiya
ndiyada
ndoneziya
ndor
nds
ndu
nduusu
ne
nea
neal
neanatolog
near
nebahat
nebraska
nec
necati
necdet
necek
necessary
nech
necip
necmi
neda
nede
neden
nedeniyle
nederland
nederlands
nedim
need
needed
needing
needle
needs
neer
neet
neeti
neetinda
neetla
nefise
neft
neftc
negidal
negombo
nehri
neic
neil
neill
neither
nek
nekadar
nel
nela
neleri
nelson
nem
nemachiyo
nemli
nemt
nemta
nemte
nen
nena
nenets
nenetsler
nepal
ner
nerda
nereda
nereya
nereyi
neri
neriman
nerla
nes
nesa
nescu
nesko
nesoy
nest
nested
nesting
nestor
net
netim
netma
netmen
netmeni
netu
network
neue
neumann
nevada
never
nevin
nevis
nevzat
new
newcastle
newfoundland
newlines
newpp
news
newsgroup
newspaper
newspapers
newton
next
ney
neya
neyi
neyla
neyt
nez
nezaman
nezavisimaya
ng
nga
ngeun
ngiliz
ngilizc
ngilizce
ngilizler
ngiltere
ngliz
ngo
ngu
ngus
nh
nha
ni
nia
nic
nica
nice
nicea
nicholas
nicholson
nick
nicola
nicolae
nicolai
nicolas
nicole
niderland
niderlandya
nie
niels
nielsen
nieminen
nig
niger
nigeriya
night
nih
nihat
niini
nik
nikaragua
niki
nikita
nikola
nikolae
nikolaev
nikolaevic
nikolaevich
nikolaevna
nikolai
nikolaj
nikolajewitsch
nikolay
nil
nila
nils
nimr
nin
nina
nio
nior
nis
nisan
nist
nistru
nitelig
niue
niveau
nivel
nivell
niversitesi
niversitet
niversiteti
niyazi
nizami
nizm
nka
nko
nku
nl
nlar
nlemek
nlendiren
nler
nleri
nlerinden
nlm
nlu
nma
nmedi
nmesini
nmez
nmis
nmu
nn
nna
nnaa
nnasının
nneda
nneeda
nnenin
nnera
nnerda
nneri
nnerinda
nnesinin
nneya
nneyda
nneyi
nneyin
nni
nnnnnn
nnu
no
noastra
nobbs
nobel
nocat
nodyn
noeditsection
nogay
nogaylar
noguchii
noi
nokta
noktalama
noktası
noktayı
nome
nominat
non
none
noor
nopp
norbert
nord
nordstro
norfolk
norma
normal
normalde
normally
norman
normandiya
norris
norrko
norsk
norte
north
northampton
northern
norvage
norvec
norvegiya
norway
nos
not
notation
note
nothing
noti
notice
noticias
notlar
notoc
nottingham
nouvel
nouvelle
nov
nova
novak
novakov
novi
novice
novine
noviny
novo
novosibirsk
novosti
novotny
novoye
novy
now
nowiki
nowiny
nowrap
noyabr
noyabri
noyan
nr
nrc
ns
nsa
nsan
nsana
nsanlar
nsannar
nsannarı
nsannarın
nsanın
nsky
nso
nstitudu
nstitutu
nstitutun
nstitutunda
nsu
ntanımlı
nternet
nth
ntu
nu
nueva
nuevo
nufus
nui
nuit
null
numan
numara
numarası
number
numbered
numbers
numerous
numid
nun
nunavut
nur
nuri
nurmi
nurullah
nuska
nv
nvatamantuluı
nw
ny
nya
nyada
nyanın
nyası
nyasının
nye
nyheter
nyi
nyıl
nzst
næss
nı
nın
nıs
nəcək
nəcəkdir
nəs
o
oak
oana
oara
oazd
oban
obana
obancık
obannar
obannarlan
obanın
object
oblast
oblastı
obse
observator
observer
obvious
oc
ocaa
ocag
ocak
ocean
oclc
october
ocu
ocucaa
ocucak
ocuk
ocuklar
ocukların
ocuu
ocuum
ocuun
odabas
odaları
odasına
odasında
odd
oddstyle
odense
oder
odesa
odesadakı
odessa
odore
odun
oedran
of
off
offaly
offers
office
officeholder
official
ofis
ofit
often
og
ogg
oglan
oglanın
oglu
ogur
oguz
oguzhan
oguzi
oguzlar
oguzlara
oh
ohio
oil
ois
oja
ok
okadar
okan
okay
okdilli
okeaniya
okeaniyada
okeaniyası
okinawa
oklahoma
oklas
oklu
okrug
okrugu
okta
oktabri
oktan
oktay
okudu
okudular
okul
okulu
okulun
okulunda
okulunun
okuma
okumaa
okumakları
okumus
okundu
okur
okuyardı
okuye
okuyucuyu
okuyun
okuyup
ol
ola
olabilir
olacak
olacaktır
olacam
olacek
olaceklar
olaceydı
olaf
olalım
olan
olannar
olanı
olar
olarak
olardı
olarsa
olavi
olay
olaylar
olaylarda
olayları
olayların
olayor
olayın
olcay
old
older
oldid
oldr
oldu
oldug
olduk
olduktan
oldular
olduqda
olduu
olduunu
olduydu
olduynan
ole
oleg
oler
olerlar
olev
olga
olimpiada
olimpiadanın
olimpiadası
olimpiadaya
oliver
olivier
olli
olmaa
olmadan
olmadı
olmadıg
olmak
olmaksızın
olmalı
olmalıdır
olmamısın
olması
olmasın
olmasına
olmasını
olmayacaktır
olmayacek
olmayaceydı
olmayan
olmaydı
olmaz
olmus
olof
olsa
olsen
olsun
olsunnar
olub
oluer
olun
olunmalıdır
olunur
olup
olur
olurdu
olursa
olurum
olus
omahtur
oman
omar
omitted
omra
omuz
omuza
omuzlarına
on
ona
onat
onayladı
onbes
onbir
once
onda
ondan
ondr
one
ones
oniki
onlar
onlara
onlardan
onlarin
onları
onların
online
only
onnan
onnar
onnara
onnarda
onnardan
onnarı
onnarın
onofrey
onov
onsuz
ontario
onto
onu
onun
onuncu
onunnan
onur
onus
ool
oolları
oolluk
oolu
oolum
oolun
ooluna
oolunu
ooo
open
opening
opera
operacılar
operası
operat
operation
operations
opinio
opozit
opposite
optimisation
optimised
option
optional
optionally
options
or
ora
orada
oradakı
oradan
orak
orange
oranjestad
oranı
oratert
orav
oray
oraya
orayı
orazio
orba
orbacı
orbacılıı
orda
ordan
ordaniya
ordeni
ordenı
order
ordu
ordusu
oregon
orenburg
orestiada
org
organ
organizat
organization
organnarı
organnarın
organı
orgeneral
orhan
orhey
orhon
oriental
oriente
orig
origin
original
origink
origyear
orkestra
orkestrası
orlan
orlar
orleans
orly
orman
oro
orozco
orta
ortada
ortak
ortaklıı
ortako
ortakı
ortalama
ortalık
ortalıı
ortam
ortanca
ortasında
ortasından
ortaya
ortega
ortodoks
ortodokslar
orum
orıy
os
osa
osaka
oscar
osetiya
osetler
osijek
oskar
oslo
osman
osmaniye
osmanli
osmanlı
osmannı
osmo
ossip
ostan
ostapc
ostell
ostrava
oswald
oszka
ot
ota
other
others
otheruses
otherwise
otlandiya
otlar
otları
otların
otlasın
otlatmaa
otomatik
ots
ott
ottawa
otto
oturan
oturayor
oture
oturmus
oturup
oturus
otuz
otuzuncu
ou
oudom
ouest
oulu
our
ourense
out
outer
output
outside
ov
ova
ovagovic
ove
over
overlaps
overridden
override
overrides
overruled
overrules
oviedo
owen
owens
own
ox
oxford
oy
oyanı
oynadı
oynadılar
oynamaa
oynamıs
oynandı
oyne
oysa
oyu
oyun
oyuncu
oyuncusu
oyunları
oyunnarı
oyunnarını
oyunu
oz
ozaman
ozamandan
ozamankı
ozamannar
p
pa
paa
paaları
paalı
paası
paavo
pablo
pac
pace
padding
padilla
padis
padleft
padlock
padrik
page
pagename
pages
pai
pair
pairs
paisley
paix
pak
pakistan
paklayıp
pakle
pal
palace
palad
palau
pale
paleolog
palestina
pali
palm
palma
palmas
palmer
palmira
pam
pama
pamplona
pamuk
pan
panama
panayır
panayıra
panda
pandeli
panorama
pantera
panthera
pantherinae
pao
paolo
papa
papeete
paper
papp
papua
papuc
papur
para
parade
paradta
paradı
paragvay
paralar
paraları
paraların
param
paramaribo
parameter
parameters
parametr
parametre
parametrede
parametreler
parametreleri
parametrelerin
parametrelerini
parametrenin
parametresi
parametresine
parametresini
parametresinin
parametreyi
parametri
parametrlər
params
parapontika
parasınnan
parasını
parasız
paraylan
parayı
parc
pardus
parens
parent
parentheses
paris
park
parker
parkı
parlak
parlament
parlamenta
parlamenti
parlamentin
parlamentina
parlamentta
parlamentı
parlamentın
parlamentına
parlamentının
parlement
parliament
parmaana
parmaanı
parmak
parse
parsed
parser
parsing
part
parti
partially
particular
partisi
partiya
partiyalar
partiyaların
partiyanın
partiyası
partiyasında
partiyasının
parts
pas
pascal
pasha
pasifik
paskella
pasportlara
pasquale
pass
pasted
pat
patates
path
patladı
patredini
patretlerda
patretta
patriarhat
patriarhı
patrick
patrie
patro
patrom
patrono
pattern
patterns
paul
paula
paulo
pavel
pavla
pavlodar
pavogur
pawel
pay
paya
payedildi
payettila
paylas
payne
pays
paysandu
paysınayor
payı
payında
payını
paz
pazar
pazarı
pdc
pdf
pdt
pe
pearce
pearl
pearson
pec
pedagog
pedagogika
pedagogu
pedagoji
pedersen
pedro
peep
peet
peetc
peeter
peetla
peetleri
peetlerini
peev
peeva
peg
pehlivan
pehr
pek
pekc
peker
pekin
pekka
pekla
pele
pelin
pelivan
pemba
pen
penc
pencere
pene
pensiunea
pentecostal
pentti
people
pepper
per
percentage
percussus
percy
perda
perez
performance
perhaps
peri
perio
period
perioda
periodical
periya
periyi
periyodik
perm
permet
perrault
perry
pers
persengela
persica
person
personaj
personajların
personajı
personal
personne
perth
pertti
peru
pes
pesiz
peso
pesosu
pestanya
pestanyes
petar
peter
peterburg
peters
petersburg
petersen
peterson
petit
petkov
petr
petra
petre
petri
petrol
petrov
petrovic
petrozavodsk
petru
petrus
peydalandı
peydalane
peydalaner
peydalanması
peydalanmıs
peyzaj
pez
pg
phi
phil
philip
philippe
philippine
phillip
phl
phongsaly
php
pi
pia
picasso
picidae
piciformes
pickering
picoides
picus
pier
pierce
piero
pierre
piet
pieter
pietila
pietro
pik
pilic
pilis
pille
pilo
pilot
pindi
piner
ping
pinip
piniy
pinma
pinmis
pinna
pino
pinos
pinsent
piotr
pipe
piped
pipes
pir
piret
pirinc
piro
pirro
pis
pisani
pita
pitayı
pitcairn
piter
pittsburgh
pius
pixel
piyanist
pjotr
pkk
pl
pla
place
placed
placeholders
places
plain
plaka
plamen
plan
plana
planti
plantilla
plantilya
planı
planını
playfair
plaza
please
pleaseadd
plu
plus
plzen
pmc
pmid
png
po
poate
pode
podgoritsa
podolsk
poe
poemaları
poemasında
poems
poet
poeti
poetlar
poetların
poetler
poetleri
poetı
poetın
poeziya
point
pokrovskaya
pol
pola
polab
polat
polek
polga
polic
policy
polineziyalı
polineziyası
polis
polit
politik
politika
politikacı
politikacılar
politikası
politiki
politikleri
polje
polk
pollock
polonya
polonyalı
pols
polska
poltava
polyus
pomeran
pometko
ponte
pontevedra
pontos
pontus
poole
pop
popaz
popaza
popazlar
popazoglu
pope
popescu
popolo
popov
popova
popular
population
por
pori
pork
poros
port
portal
portekizli
portion
portions
portland
porto
portugal
portugaliya
portugue
pos
posar
position
possible
post
posta
posten
postimees
postscript
potmarı
potoc
potok
potsdam
potter
poul
povo
powell
poyraz
poyrazgu
poz
pozitiv
poznan
pp
pr
prachar
praga
prague
praha
praia
praktik
prantilla
praskovya
prava
pravda
pravitelstva
pravitelstvaları
pravitelstvası
pravitelstvosu
pravitelstvosunun
pravoslav
pre
preceded
precision
predefinic
predloga
predloz
predsedateli
prefekturaları
preferable
preferably
preferred
prefix
prefixed
preload
premeyr
premyer
prens
prensa
prensi
preprocessing
pres
presa
presanın
presbiteryan
present
presentation
press
presse
prestonica
prevent
prevents
preview
previous
previously
prezentat
prezident
prezidenti
prezidentin
prezidentinin
prezidentler
prezidentleri
prezidentura
prezidentı
pri
price
pridnestrovyeda
priit
primar
primariya
primariyası
primary
primarı
primorskiy
primoz
primyer
prin
prince
principal
prinsipi
print
prior
pris
pristavı
privilegiya
privilegiyasına
priznen
prizo
prizren
prk
pro
probably
problem
problema
problemalar
problemaları
problemalarını
problemayı
problems
process
produ
produces
proekt
proektı
prof
profesional
profeso
profesor
profesoru
professor
program
programa
programalar
programaları
programanın
programası
programasına
programski
progre
progreso
proje
project
projects
prokhorov
prolin
promot
prop
propagandası
proper
properly
properties
property
proportional
prosper
prosport
prost
prot
protected
protection
protest
protestan
protestanlar
protesto
protocol
provence
provide
provided
provides
provincia
provint
proza
prozenti
pru
prut
ps
psın
pt
pta
pu
publicain
publication
publique
publisher
publit
puede
puerto
pugin
puig
pula
pulu
punar
punara
punch
punctuation
puniceus
punta
puo
pura
purge
purple
purports
purpose
purposes
pus
put
puusepp
px
pxevropa
pyesa
pyesası
pyotr
pyre
pınar
pınara
pınarı
q
qaraqalpaq
qars
qaydası
qazanmıs
qazax
qeyd
qolları
qos
qrup
qu
que
quebec
queen
queensland
quelimane
quentin
query
quest
question
quevedo
quick
quito
qullanıcı
quotation
quote
quotes
qutuları
qutusu
qırımtatar
qısa
qədər
qəhrəmanlıq
r
ra
raag
raametli
raat
raatlık
raatlıkta
rabat
rabieri
rachel
rada
rade
radeva
radi
radio
radiolar
radiosu
radiosunda
radis
radova
radu
radulov
radyo
radı
rae
rafael
rafet
rafi
rafya
rag
ragnar
rahip
rahman
raimo
rain
raivo
rak
ralfr
ralph
rama
ramazan
ramiz
ramsay
ramsden
ran
randa
randall
randoja
range
ranges
raoul
raphael
rapidly
rapids
raport
rarası
ras
rashid
rasmus
rasmussen
rası
ratassepp
rathaus
rather
ratio
rattenbury
rau
rauf
raul
rauni
rautavaara
ravi
raw
ray
raya
raymond
rayon
rayoni
rayonidir
rayonlar
rayonnar
rayonnarı
rayonnarında
rayonu
rayonun
rayonunda
rayonunun
raysovetin
razgeler
razo
rbu
rc
rcistan
rcu
rd
rda
rdal
rdi
rdik
rdila
rdim
rdoba
rdu
re
reached
read
readability
ready
reagan
real
realizma
really
reason
reasons
rebane
rec
receive
recek
recep
recognized
recommend
recommended
record
recorder
records
red
reda
redakt
redaktoru
reder
redici
redicila
redicilera
redicileri
redicilerin
redicilik
redicilikta
redicimiz
redicisi
redirect
redirects
redirigir
reduce
reed
reeni
reet
ref
refer
reference
references
referendum
refik
reflist
reformat
refren
regardless
regia
regierungsgeba
regina
reginald
regio
region
regional
regionda
regionun
registrat
regular
reid
rein
reis
rejim
rejiso
rejissor
rek
rekha
reklamı
rekli
rekomendat
rekta
rektoru
rel
related
relative
relatively
rele
relevant
reli
relief
remain
remap
remaplang
remember
remis
remont
remove
removed
removes
ren
rena
renamed
renato
renc
renci
rencila
renciler
rencileri
rencisi
render
rendered
rendering
renders
rendi
rene
rener
rengi
rengini
reni
renierlar
renip
renk
renkleri
renkli
renma
renmesi
renmesinda
renmesini
renmis
rennie
rensin
reorganizat
repin
replace
replacement
replaces
report
reporter
reports
repu
republic
republika
republikası
republıcıı
request
require
required
requires
rer
reriz
rerla
res
resi
resim
resima
resimbic
resimci
resimcila
resimcilerin
resimcilik
resimcinin
resimcisi
resimda
resimi
resimin
resimler
resimli
resimna
resimneri
resimsiz
resimsol
resimsolbic
resimsırasınıfı
resiz
resmen
resmi
resmin
resources
respectively
respubl
respublika
respublikada
respublikaları
respublikanın
respublikası
respublikasın
respublikasına
respublikasında
respublikasından
respublikasını
respublikasının
ressam
ressamlar
rest
resu
result
ret
retim
retimi
retma
retmis
retti
return
returned
returns
reuse
reuters
rev
revell
reverse
reversed
revi
review
revija
revinden
revine
revision
revolu
revolver
rexhep
reyim
reykjanesbær
reykjavi
reykjavik
reyle
reynolds
reyya
rez
rezina
rezolu
rfan
rfc
rfd
rfez
rfezi
rg
rgen
rgi
rgu
rgy
rho
rhode
rhodeus
ri
ria
ribic
ric
rica
ricardo
riccati
ricci
richard
richardson
richmond
richter
rick
ricky
rico
ride
rides
ridge
rifat
riga
right
riho
riina
rijeka
rika
riko
rim
rimantas
rin
rina
rinat
rinda
rinde
ring
ringier
ringo
rinin
rio
rioja
rios
ripley
risk
riskli
rist
ristian
risto
rita
river
rivera
rivers
riy
riyad
riyali
rize
rk
rka
rkan
rkana
rkanın
rkayı
rkc
rkeli
rkera
rkiler
rkistan
rkiya
rkiye
rkiyeda
rkiyede
rkiyenin
rkiyenın
rkiyeya
rkiyeye
rkla
rklar
rklenmis
rkler
rklerda
rkleri
rklerin
rklerinin
rkmen
rkmenistan
rkmenistanda
rkmenler
rkmenner
rkmenneri
rkmən
rko
rkolog
rkologiya
rksoy
rksu
rku
rkun
rkutsk
rkvizyon
rla
rlaag
rlandalı
rlandiya
rlap
rlar
rların
rler
rlere
rleri
rlerin
rlistesi
rlu
rm
rma
rme
rmedin
rmek
rmemis
rmf
rmis
rmu
rmy
rn
rna
rneg
rnek
rnekla
rnekler
rnekleri
rnekteki
ro
rob
robert
roberto
roberts
robertson
robin
robinson
rocha
rock
rockefeller
rockhampton
rodica
rodney
rodolfo
rodopi
rodri
roger
rogers
roglu
roglunun
rogluya
rogluyu
rogoz
rok
rol
roland
rolf
rolu
roly
rom
roma
roman
romana
romani
romanization
romans
romanya
romin
romın
romınca
romıniya
romıniyada
romıniyanın
romınlardan
romınnar
ron
ronald
roolu
roosevelt
ros
rosa
rosario
roscommon
rose
rosen
rosing
ross
rosse
rossi
rostov
roth
rotmistr
rouge
round
roussillon
rovshan
row
rows
roy
roz
rriyet
rs
rsa
rsel
rses
rsin
rsu
rsın
rsınız
rt
rta
rtecek
rter
rtesi
rton
rttu
rtu
ru
ruanda
ruba
rubalarnı
rubaları
rubası
rublesi
rubrike
rudan
rudolf
rudolph
ruh
ruhi
ruhu
rul
rum
rummenigge
rumın
rumınca
rumıniya
run
rundschau
rung
rupisi
rural
rus
rusc
rusca
rusi
rusiya
rusiyada
rusiyadan
rusiyanın
rusiyaya
ruslan
ruslar
ruslardır
ruslarlan
rusların
russ
russell
russian
rustur
rusu
rusya
rusyn
ruteniya
ruthene
ruthenian
rutkay
rutullar
ruud
ruus
rv
rva
rve
rvi
rw
ry
ryan
ryani
ryu
rður
rı
rıbnit
rıfat
rım
rında
rız
rıza
rə
rəngi
s
sa
saa
saabi
saabileri
saabilerina
saabisi
saada
saadan
saade
saadıc
saalayıcıları
saalık
saalıı
saar
saari
saarinen
saat
saati
saatlarlan
saatlık
saba
sabaa
sabaadan
sabaala
sabaası
sabadell
sabah
sabiha
sablon
sablondokumenta
sabri
sac
sad
sada
sadak
sade
sadece
sadi
sadık
sadəcə
safe
sag
sah
saha
sahalar
sahara
sahibi
sahil
sahip
sahne
said
saima
saint
saints
sait
sak
sakariya
sakarya
sakhalin
saklanmıs
saklı
saklıdan
saksan
sal
sala
salah
salam
salamanca
salar
salarlar
salavan
saldatlarlan
saldırdı
saldırıda
sale
salem
saler
salih
salihorsk
salkım
sallangac
salman
salme
salonda
saloniki
salonunda
salt
salvador
salvatore
salyan
salı
salırc
sam
samafomot
saman
samara
same
samettin
sami
samir
samoa
samples
samsun
samuel
san
sana
sanal
sanat
sanatc
sanatlar
sanayici
sancaklarında
sancakında
sand
sandallar
sandbox
sandra
sandu
sandwich
sandy
sandık
sandıydım
sane
sanerız
sang
sangallo
sani
sanitar
saniye
sanki
sanmak
sanme
sanmıs
sanomat
sansın
santa
santander
santiago
santos
sanık
sao
sapheopipo
sar
sara
sarah
sarajevo
saral
sarande
sarap
saratov
saray
sarayevo
sarayı
sare
sarfos
sargent
sark
sarv
sarı
sarıboynu
sarıkamıs
sarıkaya
sarıldı
sas
sasha
saskatchewan
satan
satmaa
satranc
satu
satılık
satın
satır
satırda
satırı
satırın
saudi
saul
sava
savas
savasti
savastin
savcılıg
save
saveliy
savet
savi
savvas
say
sayarak
saye
sayfa
sayfada
sayfadaki
sayfadan
sayfalar
sayfalara
sayfalarda
sayfaları
sayfalarına
sayfalarını
sayfalarının
sayfanın
sayfası
sayfasına
sayfasında
sayfasındaki
sayfasından
sayfasını
sayfasının
sayfaya
sayfayı
saygı
saygılı
saymaa
saytı
sayı
sayıda
sayıdan
sayılan
sayıları
sayıldı
sayıle
sayıler
sayımı
sayımına
sayın
sayısal
sayısı
sayısında
sayısız
sayıya
saz
sc
scale
scardinius
schablon
schabloun
scheme
schloss
schmid
schmidt
schneider
scho
schubert
schumacher
schwa
schwarzschild
scn
sco
scope
scot
scotland
scots
scott
scottish
script
scrolling
sd
sdu
se
sea
sean
search
searches
seattle
sebastia
sebastian
sebastiano
sebay
sebep
sebepi
sebepina
sebepinna
sebepta
sec
second
seconds
section
sections
seda
sedat
sedef
sedla
see
seeler
seem
seen
sefer
sefta
segment
segovia
segre
sek
sekiz
sekizu
seklii
seklik
sekond
sekretari
sekreteri
seks
sekto
sel
sela
selam
selanik
selc
selda
select
selected
seli
selim
selkuplar
sella
seller
selma
sema
semana
sembolu
semi
semicolons
seminar
seminarlar
semjon
semo
semtlerina
semtlerinda
sen
senat
senato
senda
sende
sendikası
senegal
senesinde
seni
senin
seninna
sense
sensela
senseleda
senseleleri
senseleri
senselesi
senselesinda
sensitive
sent
senta
sentabri
sentinel
seo
seong
seoul
sep
separate
separated
separator
separators
sepc
sepp
september
sequence
serb
serbest
serbestlii
serbestlik
serbiya
serbla
serdar
seren
seres
serge
sergei
sergej
sergey
sergi
sergida
sergilena
sergilendi
sergilera
sergileri
sergilerini
serginin
sergisi
sergiu
sergiya
seri
sericeus
series
serin
serkan
serpuhov
serpukhov
serres
sert
server
servers
service
servicemen
servis
ses
sesco
sesi
sesini
sesla
seslema
sesleri
sessiz
set
sets
setting
settings
settlement
setup
seul
seung
seva
sevda
sevdalı
sevdi
sever
several
sevgi
sevgili
sevgisinda
sevilla
sevinc
sevinera
sevinmelik
seviyede
sevma
seyfeddin
seyfettin
seyfi
seyin
seyn
seynov
seys
sezer
sezgin
sezon
sh
shablono
shah
shahid
shahin
shane
shanks
sharealike
shares
sharif
sharma
shaun
shaw
shawn
shearer
sheet
sheets
sheffield
sheila
shelby
shema
shevchenko
shi
shift
shin
shinmun
shkode
short
shortcut
shorter
should
shouldn
show
showdata
showing
shown
shows
shqipe
si
sibel
sibir
sibira
sibiriya
sibiu
sid
side
sides
sidney
sie
siegfried
siena
sierra
siglo
sign
signal
signe
signs
siiredicila
siirek
siiretma
siiri
siirt
sil
sila
silahlı
silez
silifke
silistra
sillanpa
silopi
silva
silver
silvia
sim
simeon
simfoniya
simfoniyası
simge
similar
similarly
simmons
simms
simo
simon
simone
simple
simplicity
simply
simpoziumu
simpson
sin
sina
sinan
sinatra
since
sinciri
sinclair
sinda
sindi
sinek
sinekla
sinem
sinema
sing
singapur
singer
single
sinh
sinhala
sini
sinin
siniz
sinna
sinop
sint
sintaksisi
siprage
sir
sirenik
siriya
sirje
sirkeli
siroki
sis
sisak
sistema
sistemasının
sistemi
sister
site
sitesi
sitesine
sitesinin
sits
sivas
six
siyahı
siyahıların
siyaset
siyasetc
siyasi
siyavus
siz
siza
sizda
size
sizi
sizin
sizlik
sjabdoc
sjabloon
sk
ska
skabelon
skalykovski
ske
skele
skemna
skender
skenderun
ski
skin
skinnable
skip
sko
skoc
skolmen
skopye
skovgaard
sku
sky
skyla
skyline
sl
sla
slam
slamabad
slami
slandiya
slava
slaveikov
slavko
sligo
slo
slovak
slovakiya
slovaklar
slovansiyan
sloven
slovenia
sloveniya
slovenski
slovo
sloz
slr
slu
slujba
slv
sma
smail
smailov
small
smaller
smallimage
smallimageright
smalltext
smayıl
smayıllı
smet
smg
smilodon
smith
sn
snið
snu
snuggly
so
soba
soc
soccerway
socialist
socolescu
sofi
sofia
sofiya
sofra
sofrasında
sofraya
sofya
sohum
soir
sokaa
sokag
sokak
sokakc
sokaklarda
sokakta
sol
sola
solar
solari
soldan
soldat
soler
solistka
solomon
solovyanenko
soltan
solunda
solution
somali
somaliland
somalilend
somalili
somaliya
some
something
somewhat
sommer
somoni
somu
son
sona
sondaki
sondası
song
sonia
sonja
sonku
sonra
sonu
sonuc
sonucu
sonuna
sonunda
sonyazarve
soo
soora
sopa
sopaylan
sophie
soprano
sor
sora
soracek
soraim
sorasın
sorayor
sorayım
sorb
sordu
sordum
sore
soria
sormus
sort
sortları
sorus
sorıy
sos
sosyal
sosyalist
sot
sotsiologi
source
south
southern
southport
sovet
soveti
sovetin
sovetinin
sovetla
sovetlerin
sovetsky
sovyet
sovyetler
soy
soyadı
soydas
soyotlar
soysal
soyu
soyundan
soyundanmıs
soyuz
sp
spa
space
spaces
spacing
span
spanca
spaniya
spaniyanın
spaniyaya
spannar
spanyol
sparseconcat
special
specific
specifics
specified
specifies
specify
specifying
spectator
spektakl
spencer
spet
spiker
split
splitting
spolkom
spolkomu
spolkomun
spolkomunda
spolkomunun
spor
sporcu
sport
sports
sportsmenı
sportuluı
springfield
springs
sq
squamatus
square
sr
srail
sri
ss
ssc
sscb
sselam
ssr
ssrb
ssyok
st
sta
stacked
stadium
stadler
stadt
stafa
stajirovka
stalin
stampa
stamps
stan
stanbul
stanbulda
standalone
standard
standardization
standart
standartlas
stane
stanford
stanislav
stanislaw
stanisław
stanley
stanın
star
staroba
stars
starstwo
start
starting
starts
state
staten
station
status
statusu
statyaları
stavanger
stavropol
stbic
ste
steen
steerim
steeriz
stefan
stefanida
stefanita
steg
steiger
stein
stem
steonoz
step
stepan
stephan
stephen
stephenson
ster
stera
sterbotten
sterdi
sterdila
sterecek
steren
sterer
stererla
sterier
sterierlar
sterila
sterildi
sterildig
sterilecek
sterilecektir
steriler
sterili
sterilir
sterilmesina
sterim
sterimi
sterip
sterir
sterma
stermeer
stermek
stermektedir
stermis
stersin
stersinna
steve
steven
stevens
stevenson
stewart
sti
stifadə
stiftstidende
stih
stihlar
stiint
stiklal
stili
stilinda
still
stilleri
stinadlar
stirling
stjepan
sto
stockholm
stokholm
stokke
stolan
stoletov
stone
stop
stops
stor
store
storia
storik
storiya
storiyası
stoyanov
stq
str
stra
strada
strange
street
stri
strickland
string
strings
strip
striped
stripes
striping
stripmarker
stripped
stro
struve
stu
stuart
student
studentlik
studio
stutis
stuyan
style
styles
styling
stəmbəyov
stərgizlə
stərilir
stərilməsi
stəriləcək
stərmək
su
suat
sub
subgroup
subgroups
subject
subotica
subpa
subpage
subpages
substitute
substituted
substitution
substring
subtemplates
suc
such
sud
suda
sudan
sudta
sudu
sudun
sue
suffice
suffix
suggested
suggestions
suicide
suits
sukhum
sul
sular
suların
sularını
suleras
sulev
suleyman
sullivan
sultan
sultana
sultanahmet
sultandan
sultanov
sultanza
sultanı
sulu
sumatra
summary
sumqayıt
sun
suna
sunay
sunday
sundqvist
sung
sunmak
suomen
suomi
super
supplied
supplying
support
supported
supporting
supports
suppress
suppression
sur
sure
surinam
suriye
surname
surrounded
sus
susan
suse
susuz
sut
sutcliffe
sutherland
suuk
suya
suylan
suyu
suyunu
suz
suzanne
suzca
sv
svahili
svalbard
svatopluk
svazilend
sve
svec
svein
sven
sverdlovsk
sverre
svet
svetlana
svetloe
svetlıy
svg
sviat
svic
svk
sw
swan
swap
swe
swift
switch
sy
syan
syanı
syd
sydney
syerra
sylvain
syntax
syntyma
sysop
system
sz
sza
szabadsa
szablon
szabo
szczecin
sze
szl
szlo
szo
szymon
sønderborg
sı
sıc
sıcak
sıg
sık
sıkc
sıklık
sıklıkla
sıklıı
sıkmıs
sıkı
sıkıyo
sın
sına
sında
sını
sınıf
sınıfları
sınır
sınırları
sınırı
sıra
sırada
sıradan
sıralaması
sırasında
sırasını
sıravardı
sırp
sırrı
sırtına
sırtında
sırtını
sızıntısı
sızıntıya
sıır
səhifə
səhifələrdən
səhifələri
səhifənin
sənətc
səs
səviyyədə
t
ta
taa
taavi
taaza
tab
tabak
tabasaran
tabasarannar
tabiat
tabiet
table
tablei
tables
tablo
tabloda
tablonun
tabun
tabuns
tacik
tacikistan
tacikler
tadeusz
tae
tag
tagalog
tagi
tago
tags
tahir
tahiti
tahiya
tahran
tahya
tail
tailand
taiss
taisto
takdirde
take
taken
takes
taki
takip
takma
takrir
taksim
takvimi
takviye
takım
takımı
takıs
tal
talantlı
talat
talbot
talcahuano
tali
taliga
taligadan
taligayı
talik
talimatları
taliya
taliyan
taliyanca
taliyanın
talk
talkpage
talkpages
tallinn
talo
talvik
talyan
talıs
tam
tama
tamah
tamamen
tamamnandı
tamamı
taman
tamannamaa
tamannanmıs
tamannık
tamannıklı
tamara
tamazlık
tamedia
tamer
tamil
tamm
tan
tana
tanasog
tanasoglu
tanasoglunun
tanasogluya
tanasovic
tane
taneer
tanel
taner
tang
tanga
tanggal
tanja
tanju
tanrı
tanya
tanzaniya
tanı
tanıdı
tanımaa
tanımlanan
tanımlanmalıdır
tanımıs
tanındı
tanınmeer
tanınmıs
tanıs
tanıtıcılar
tanıyarak
tao
tara
taraf
tarafa
tarafinda
taraflarına
taraflarında
taraflarından
taraflı
tarafta
taraftan
tarafı
tarafım
tarafımıza
tarafın
tarafına
tarafında
tarafındaki
tarafından
tarafınnan
tarafını
taraklı
tarde
target
tari
tarih
tarihc
tarihi
tarihinde
tarihini
tarihinin
tarihsel
tarihte
tarija
tarixi
tarja
tarla
tarlev
tarmo
tarnovo
tarragona
tarsus
tarsusun
tartu
tartıs
tarvo
tarık
tas
tasarlanmıs
taslak
tasmaniya
tat
tatar
tataristan
tatarku
tatarlar
tatarları
tatarstan
tatarı
tatiana
tatiller
tatlar
tatlı
tatyana
tau
tauk
taus
tavana
tavs
tavsiye
tay
tayfe
tayfeler
tayfur
taylan
taylor
taymir
tayvan
tayyip
tazı
tazıyı
tbilisi
tbl
tbmm
tc
te
teataja
teatr
teatru
teatrunun
teatrusu
teatrusunda
teatrusunu
teau
technical
technically
techniques
ted
teder
tee
teet
tefan
tefterleriniza
tegucigalpa
tehnik
tehnika
tehnikum
tehnikumunu
tehran
teimple
tek
tekbic
tekerlek
tekin
tekirdaa
teklif
teklifina
teklifla
teknik
teknoloji
tekrar
teksas
tekst
teksta
teksti
tekstil
tekstin
tekstlerda
tekstlerin
tel
tele
telefon
telefonda
telegraf
telegraph
telet
televideniyası
televideniye
televizor
televizorlar
televizyon
telford
telif
tell
telli
tells
telmenner
tema
temaları
teması
temel
temeli
temelina
temelinda
temelini
temelli
temiz
templat
template
templates
temple
temsil
temsilcileri
temsilcilerina
temsilcilii
temsilcisi
ten
tenerife
tengesi
tennessee
tenniin
tenor
teodor
teolog
teoretik
teoriyası
tepa
tepe
tepego
tepesi
tepesina
tepesinda
tepesine
teprem
tepremenin
tepremesi
tequixquiac
ter
tera
terbietma
tercih
tercu
teresa
terim
terimi
teritorial
terje
terk
terminal
terminate
terminated
terra
terrassa
territorial
territoriya
territoriyası
territoriyasının
territory
terriyoriyası
terry
ters
tersina
tertipli
terzi
tes
teslim
test
testa
testcases
testing
tests
tevfik
tevrat
text
texts
textstyle
teymur
teyn
teynda
tez
tezcan
tezda
tfen
tg
th
thai
thailand
thalat
than
thanh
thapa
that
thatcher
the
thea
their
them
then
theo
theodor
theodore
there
therefore
these
they
thierry
thing
things
think
third
this
tho
thom
thomas
thompson
thomsen
thomson
those
though
three
through
thumb
thus
ti
tibet
ticaret
tidende
tidning
tidningar
tidningen
tidy
tie
tiempo
tienne
tigina
tigon
tii
tiia
tiianta
tiina
tiit
tiiu
tik
til
tila
tiler
tili
tilini
tilki
tilkisi
till
tim
time
times
timestamp
timis
timo
timor
tin
tina
tine
tineretulu
tinka
tinn
tipardan
tiparladı
tiparlamaa
tiparlamıs
tiparlandı
tipi
tipleri
tipperary
tir
tira
tirana
tiraspol
tiraspolda
tirdi
tirdila
tirecektir
tirer
tirildi
tirildig
tirilebilir
tirilir
tirilmelidir
tirilmesi
tirilmis
tirip
tirma
tirme
tirmek
tirmektedir
tirmeniz
tirmis
tirsin
tis
title
titlebar
titleclass
titlegroup
titles
titlestyle
tito
titsi
tiyatro
tiyna
tj
tjan
tjednik
tk
tku
tl
tld
tlx
tma
tmbox
tmesi
tmesinda
tmu
tn
tnik
to
tobago
tobb
toc
today
todo
todur
todurc
todurlan
tofa
tofalar
together
togo
toivo
tok
tokelau
tokiyo
tokyo
tolstoi
tom
toma
tomas
tomasz
tomay
tomaylılar
tomaz
tombarlak
tome
tomi
tommaso
tommy
tomsk
ton
tone
tonga
toni
tonumber
tony
too
tools
toolserver
tooltip
toom
toomas
toompere
toowoomba
top
topal
topc
topi
topic
topladi
topladı
toplam
toplamaa
toplamak
toplamıs
toplanan
toplandı
toplandılar
toplane
toplanmıs
toplantı
toplantıda
toplantılarda
toplantıları
toplantılarında
toplantısı
toplantısında
toplanıp
toplas
toplayıp
tople
toplu
topluluk
topluluklar
topluluu
toplum
toplumu
toplus
toplusu
topraa
topraan
topraana
topracıın
toprag
toprak
topraklar
toprakları
toprakların
topraklarına
topraklarında
topuz
topuzu
tor
torba
torki
toronto
torres
torroja
torun
torvalds
tosun
total
tower
towers
town
townsend
townsville
toz
tpi
tr
trabzon
tracy
tradit
tragediya
tragediyalardan
tragediyası
trailing
trakiya
trakya
trang
trans
transchapter
transcluded
transcludes
transcluding
transclusion
translation
translations
translator
translators
transliterat
transnistriya
transparent
transwiki
travail
traven
travnik
tre
trees
trevor
tri
tria
tribuna
tribune
trick
tricked
tricky
triin
trilion
trim
trincomalee
trinidad
trinil
trinity
tripoli
tristan
trofa
trondheim
tronunu
trophies
tropikal
trouble
troy
troyan
trt
trud
true
trujillo
truncated
truu
trybuna
ts
tsahurlar
tsement
tsep
tshinvali
tsi
tsink
tsivilsk
tsonga
tsu
tsui
tt
ttu
tu
tuba
tuc
tudora
tudorka
tufar
tug
tugay
tuk
tukan
tukanın
tula
tular
tullio
tully
tulsa
tum
tun
tuna
tunai
tunayı
tunc
tunceli
tuncer
tunguz
tunguzc
tunguzlar
tunis
tuo
tur
turakij
turan
ture
turgay
turgut
turhan
turin
turist
turizma
turk
turkey
turki
turkish
turkiye
turks
turku
turma
turned
turner
turnirda
turniri
turnirinda
turu
turulmus
turulur
tut
tutalım
tutarkana
tutarmıs
tute
tuter
tuterlar
tutmaa
tutmak
tutmus
tutsun
tuttu
tuttular
tutulan
tutulması
tutulmaz
tutulmus
tutun
tutunalım
tutup
tutus
tuva
tuvalar
tuvalu
tuz
tuzla
tv
two
txantiloi
ty
tyler
type
types
typewriter
typical
typically
typos
tyrone
tz
tzebuerger
tı
tıg
tık
tılar
tıp
tır
tıran
tırarak
tırdı
tıre
tırer
tırma
tırmaa
tırmacı
tırmacısı
tırmalar
tırmaları
tırması
tırıldı
tırılmıs
tırıp
tıydı
tıynak
təbrizi
tərəfində
tərəfindən
təyin
u
ua
uang
uanglar
ub
ubug
uc
ucu
uda
ude
udege
udm
udmurt
udmurtiya
udmurtlar
uefa
uelys
uezdın
ufa
ufak
ufuk
ug
uganda
ugljevik
ugly
ugo
uhf
uiser
uk
ukc
uklar
uklarin
uko
ukotka
ukr
ukra
ukrain
ukraina
ukrainada
ukrainanın
ukrainian
ukrainna
ukrainnar
ukrainner
ukrayna
ukraynada
ukraynadan
ukraynalı
ukraynanin
ukraynanın
ukraynaya
ukur
ukuru
ul
ulacek
ulan
ular
uları
ulas
ulcinj
uldu
ulları
ulmus
ulrich
ulster
ulu
uluc
ulug
ulus
ulusal
uluslararası
ulyanovsk
ulım
ulımnar
um
umar
umberto
umea
umlar
umlu
ummu
umra
umur
umut
umutlan
umutsuz
un
una
uncollapsed
uncu
unda
undan
undefined
under
underscore
understand
understands
unec
unesco
ungariya
ungeni
ungureanu
unhuya
uni
unicode
union
unique
unit
united
units
universitet
universiteti
universitetin
universitetinda
universitetini
universitetinin
universitetler
universitetleri
universitetta
universitetı
universitetın
universitetında
university
universul
unknown
unlardır
unlas
unless
unlike
unlug
unlukla
unnamed
uno
unset
unu
unudulmus
unun
unutmamaa
unutmayın
unutmayınız
unutmus
uog
uoglu
up
upas
update
updated
upon
upravleniyanın
upravleniyası
upravleniyasının
upright
ur
ura
ural
urb
urbel
urc
urdu
urer
urguladı
urgulamaa
uri
url
urls
urma
urmaa
urmas
urmus
uros
urugvay
urum
urumca
urumdur
urumlamaa
urumlar
urumların
urumnar
urus
urya
urıy
us
usa
usage
usar
use
used
useful
user
userbox
users
uses
using
uslu
uso
usor
uspenski
ustalıı
ustalıını
ustası
ustring
usua
usual
usually
usuari
usuario
usuarios
usunda
ut
utah
utc
utente
utilisateur
utilities
utilizator
utrecht
uum
uur
uura
uuradı
uurda
uuru
uuruna
uurunda
uus
uva
uvas
uy
uya
uyarı
uyarısı
uyg
uygulama
uygulamaa
uygulanacak
uygulanan
uygular
uygun
uygur
uygurlar
uyku
uykusuz
uylan
uyu
uyumaa
uyumlu
uyuyerlar
uz
uzak
uzaklas
uzaklıkta
uzakta
uzaktan
uzay
uzbek
uzbekistan
uzc
uzi
uzii
uzlar
uzlardan
uzları
uzların
uzlas
uzun
uzunluk
uzunnuk
v
va
vaarik
vadim
vaduz
vahabzade
vaher
vahur
vaike
vaillantii
vakit
vaks
vakt
vakti
vakıda
vakıdadan
vakıdı
vakıdım
vakıdın
vakıdında
vakıt
vakıtlar
vakıtlarda
vakıtta
val
vala
vale
valencia
valensiya
valentin
valentina
valentine
valeri
valeriu
valeriy
valery
valetta
valeybol
valeybolcular
vali
valic
valid
validate
validation
valilig
valisi
valkanes
valla
valle
vallenato
valletta
valley
valparai
valter
value
values
valuetofind
valve
van
vanc
vancouver
vandalizm
vanderpool
vanessa
vangos
vanguardia
vani
vanka
vanna
vanovic
vanovna
vanuatu
var
varalım
varaz
vardı
vardılar
vardın
vardır
vares
variable
variables
variant
variations
variety
various
varlıg
varlık
varlıı
varmıs
varna
varnaya
vars
varsa
varsayılan
varız
vas
vasi
vasil
vasile
vasilev
vasili
vasilij
vasilinin
vasilioglu
vasilisa
vasiliy
vasiloglu
vasily
vasilyevic
vasilyevich
vasilyevna
vasluy
vatan
vatana
vatandas
vatanı
vatanım
vatanımız
vatanını
vatikan
vatikana
vaughan
vauthors
vazgec
vb
vcard
vda
vdakı
vdan
vde
vdebic
vdelerinin
vdenin
vdesi
vdesınıfı
ve
vec
vecherniy
vecums
vedat
veditors
vedomosti
veera
veesaar
vegas
vehbi
veidne
veikko
vel
vela
velde
veli
veliatında
velika
veliko
vella
vello
velohora
ven
vena
venc
venda
vende
venedik
venesuela
veneto
vengriya
veni
venlik
veps
vepsler
ver
vera
veraguas
verdad
verde
verdi
verdig
verdik
verdila
verdim
verdin
verdiydi
vereca
verecek
veren
verer
verera
vererla
vereyim
vergi
vergileri
veri
veria
verila
verildi
verilebilir
verilecek
verilen
veriler
verileri
verili
verilmektedir
verilmesi
verilmis
verim
verin
verip
verir
veririm
verirmis
veris
veriy
verma
vermedi
vermeer
vermek
vermis
vermont
verməyərək
verner
vernon
veronika
versa
versin
versinna
version
versions
versiyalar
versiyası
vertical
vertolo
very
vest
vesti
vestmannaeyjar
vestnik
vet
veteranı
veya
veys
veysel
veyt
vezirko
vi
via
viat
vicente
victor
victoria
victory
vida
viengkham
viengthong
vienna
vientiane
view
viewed
viewing
vigo
viii
viires
viisimaa
vijay
vijayakumar
vikikaynak
vikikitap
vikipedi
vikipediya
vikiverilənlər
viktor
vila
vilaculos
vilankulo
vilhelm
vilho
viliat
viliatında
viliyat
viliyatlar
viliyatları
viliyatı
viljo
villa
village
villard
ville
viller
villu
vilma
vilnius
vilnu
vima
vincenc
vincent
vincenzo
vinci
vineks
vint
violeta
virgin
virginia
virginiya
viridanus
viridis
viru
virve
vis
visible
visit
visitor
vit
vitalie
vitaliy
vito
vittatus
vittorio
vivian
viza
vizentiya
viziri
vizit
vizitlan
vjekoslav
vjesnik
vka
vlad
vladimi
vladimir
vladislav
vlado
vlah
vlasta
vlastimil
vle
vlore
vls
vlət
vo
voblastı
voce
voice
voix
vojte
vokal
vol
voldemar
volga
volgograd
volkan
vologda
volontir
volonto
volterra
volume
von
vor
vorlage
voroni
voronin
voyager
voyvodina
voz
vparam
vra
vrac
vremya
vs
vu
vue
vukovar
vulpes
vun
vung
vuruno
vxxxxors
vyetnam
vyetnamda
vytautas
və
vəfat
vəkilov
vəzirov
w
wa
wacław
wagga
wagner
wai
wal
walentin
wales
walker
walla
wallace
wallis
walsh
walter
walters
walton
wan
wang
want
war
wardell
ware
warren
warszawa
was
washington
wassili
wassiljewitsch
wat
watan
water
waterford
watson
way
wayne
ways
we
web
webb
website
week
weekender
weekly
weight
well
wellington
wells
wera
were
werner
wesley
west
western
westmeath
westminster
wexford
what
when
where
whether
which
while
white
whitelist
whitespace
whitney
who
whole
whose
why
wi
wicklow
wide
widely
width
widths
wien
wiki
wikileaks
wikilink
wikilinks
wikimarkup
wikimedia
wikipedia
wikiproject
wikis
wikitables
wiktor
wild
wildcard
wilhelm
will
willem
william
williams
williamson
willie
willis
willy
wilson
wincenty
winston
winthrop
wisconsin
wish
with
within
without
witkiewicz
witold
wjatscheslaw
wl
wladimir
wladyslaw
wojciech
wolf
wolfgang
won
wong
woo
wood
woodward
word
wording
words
work
working
works
world
worse
worth
worthington
would
wrap
wrapped
wrapper
wrapping
wraps
wren
wright
writer
written
wrocław
wsewolod
wu
wuu
www
wy
wyatt
wyeth
wyoming
władysław
x
xa
xai
xalq
xan
xana
xanthopygaeus
xavier
xaysetha
xfd
xi
xii
xiii
xiphidiopicus
xix
xlate
xml
xn
xpc
xunqueira
xvi
xvii
xviii
xx
xxx
xxxxors
xxxxx
y
ya
yaa
yaamur
yaamurlar
yaamurlu
yaamuru
yaarına
yaban
yabancı
yabanı
yada
yadigar
yag
yahs
yahudi
yahudiler
yahya
yakalanan
yakalandı
yakalı
yaki
yakida
yaklas
yakmaa
yakov
yakova
yakup
yakut
yakutsk
yakın
yakınlarında
yakınmıs
yakıs
yakıt
yalabık
yalan
yalancı
yalannar
yalaz
yalc
yalman
yalnız
yalnızc
yalnızca
yalova
yalpak
yalpug
yalın
yalıncı
yalınnan
yalını
yamalo
yamanmak
yamayka
yan
yana
yanas
yandı
yang
yani
yanlıs
yannarında
yannas
yannıs
yanvar
yanvarın
yanık
yanına
yanında
yanından
yap
yapaa
yapacek
yapaceklar
yapalım
yapan
yapar
yapardı
yapardılar
yaparkana
yaparmıs
yapayor
yapayım
yape
yaper
yapmaa
yapmadım
yapmak
yapması
yapmaya
yapme
yapmıs
yapon
yaponiya
yapr
yaprak
yapraklar
yapsın
yapsınnar
yaptı
yaptıg
yaptık
yaptıkları
yaptılar
yaptım
yaptıı
yapı
yapılacek
yapılan
yapıları
yapıldı
yapıle
yapılması
yapılmasını
yapılmasının
yapılmıs
yapılsın
yapılı
yapımcısı
yapının
yapıp
yapıs
yapısı
yapısının
yapıylar
yar
yarade
yaralandı
yaralı
yarandı
yarar
yaras
yarat
yaratabilir
yaratma
yaratmaa
yaratmada
yaratmak
yaratmalar
yaratmaları
yaratmaların
yaratmalarında
yaratmalarınnan
yaratmalarını
yaratmanın
yaratması
yaratmasında
yarattı
yarattılar
yardım
yardımcı
yardımcıları
yardımcısı
yardımcıyazarlar
yardımda
yardımnan
yardımnar
yardımı
yardımınnan
yargılanan
yargıtay
yarları
yarı
yarım
yarımadası
yarıs
yarısı
yarısından
yas
yasa
yasadıs
yasag
yasakladı
yasaklandı
yasası
yasemin
yaslı
yat
yatay
yatayor
yater
yatmaa
yatmıs
yatıp
yatıy
yavas
yaver
yavklusu
yavru
yavrularnı
yavuz
yayan
yaygın
yayım
yayımcı
yayımlandı
yayımlayan
yayın
yayına
yayıncı
yayınları
yayınnandı
yayıntarihi
yayınyeri
yayını
yayının
yaz
yazan
yazar
yazarlar
yazarları
yazarlink
yazarlistesi
yazarmıs
yazarı
yazarın
yazdi
yazdı
yazdıg
yazdılar
yazdırma
yazdıı
yaze
yazer
yazerlar
yazgısı
yazicisi
yazier
yazma
yazmaa
yazmaası
yazmak
yazmamıs
yazmayın
yazmıs
yazsınnar
yazı
yazıcı
yazıcılar
yazıcıları
yazıcıların
yazıcılık
yazıcının
yazıcısı
yazıda
yazıdır
yazıer
yazıerlar
yazık
yazılan
yazılar
yazıları
yazılarında
yazılarından
yazılarını
yazılmalıdır
yazılması
yazılmıs
yazılı
yazılıydı
yazımız
yazın
yazının
yazısı
yazısında
yazıya
yazıyı
yc
ydi
ydir
ydu
ye
year
yelena
yeleri
yeliz
yemen
yener
yeni
yeniceko
yeniden
yeniku
yenile
yenis
yeon
yer
yeraldıg
yeraltı
yerde
yere
yerel
yerevan
yeri
yerin
yerina
yerinda
yerinde
yerine
yerini
yerinin
yerkir
yerler
yerleri
yerles
yerli
yerləs
yes
yesi
yet
yeterli
yeterlidir
yetis
yeva
yi
yidim
yig
yilda
yillarda
yin
yinanerla
yine
yip
ykası
yku
yla
yle
ylece
yledi
ylelikle
ylen
yleri
ylu
ymis
ymu
ymələri
yməsini
yməsinə
yna
yo
yog
yok
yoketma
yokmus
yoksa
yoktu
yoktur
yol
yola
yolca
yolcu
yolcular
yolda
yoldan
yoldas
yolla
yolladı
yolladık
yolladılar
yollamaa
yollamıs
yollandı
yollandılar
yollaner
yollar
yolları
yolle
yolsuzluk
yolu
yolun
yoluna
yolunda
yolunu
yoluyla
yom
yong
yoo
yoon
yor
yorgun
york
yortu
yortuda
yortular
yortularda
yortulardan
yortularından
yortunun
yortusu
yortusuna
yortusunda
yortusunnan
yortuya
yortuylan
yortuyu
you
youm
young
younger
your
yr
yrjo
yu
yubila
yublyana
yue
yuen
yufka
yufkalandıı
yugoslaviya
yugra
yugur
yugurlar
yukagirler
yukarda
yukarki
yukarkı
yukarı
yukon
yuları
yuliya
yumaa
yun
yunan
yunanistan
yung
yunus
yunusun
yupik
yuri
yuridika
yuriy
yurt
yurtluuna
yury
yusif
yustit
yusuf
yuva
yuvan
yuvana
yuvarlak
yuvayı
yvon
yy
yyyy
yı
yıg
yıkanmak
yıkayım
yıkram
yıkıldı
yıl
yıla
yılac
yıladan
yılan
yılannar
yılanın
yılda
yıldan
yıldo
yıldırım
yıldız
yıldızlar
yıldızı
yıllar
yıllarda
yılları
yılların
yıllarında
yıllık
yılmaz
yılı
yılın
yılında
yılından
yılını
yılının
yımırta
yımırtaları
yımırtaların
yırak
yıraktan
yırtık
yəni
z
za
zaabit
zaabitleri
zaametc
zaametini
zaametleri
zaari
zaariyi
zabun
zadar
zadarski
zafer
zagreb
zaharovic
zahir
zaire
zakon
zakona
zakonculuk
zakondan
zakonnarı
zakonnarını
zakonu
zakonuna
zakonunu
zal
zalog
zalp
zaltına
zalında
zam
zaman
zamana
zamanda
zamandan
zamannar
zamannarda
zamanı
zamanında
zambiya
zamboanga
zanaat
zanaatc
zanaatlane
zanaatlar
zanaatlarını
zanaatta
zanaatı
zanaatın
zanaatını
zanet
zaneta
zanetin
zanetti
zangibar
zanzibar
zaporojye
zar
zaragoza
zarar
zararı
zavala
zavodu
zavuc
zawadzki
zay
zaza
zazaki
zbek
zbekc
zbekistan
zbekler
zbigniew
zc
zcan
zce
zcu
zda
zde
zdemir
zden
zdene
zdesi
zdi
zdik
zdila
zdizim
zdizimi
zdu
ze
zea
zealand
zebillik
zebra
zebralar
zebraların
zedin
zeeda
zeedelendi
zeedeletma
zef
zeitung
zekai
zekeriya
zeki
zel
zelandiya
zelenski
zelenskiy
zellig
zellii
zelliini
zellik
zellikla
zellikler
zelliklerini
zelyurt
zen
zengibar
zengin
zenica
zenle
zenlemek
zenlenen
zenleyen
zenleyicilerin
zentner
zer
zera
zere
zerem
zerinda
zerinde
zerindeki
zerine
zerk
zero
zesi
zet
zey
zeyir
zeynep
zga
zge
zgerli
zgu
zh
zhamanak
zhang
zhizn
zhukovsky
zi
ziarul
zico
zig
zihni
zik
zilei
zimbabve
zimbabwe
zin
zinaida
zinovya
zira
zisyen
ziua
ziya
zkan
zla
zlatko
zledim
zlem
zlemci
zlemee
zleri
zlerin
zlerina
zlerinda
zlerini
zlerinna
zlu
zma
zmet
zmey
zmeyin
zmeyla
zmir
zmis
zmit
zmu
zna
znik
zo
zofia
zolta
zona
zonalar
zonası
zone
zonguldak
zoor
zor
zoran
zorlan
zorlu
zorluk
zorluklar
zorluklara
zorunludur
zoya
zquez
zrail
zs
zsa
zsef
zsu
ztu
zu
zubin
zuccalli
zulum
zupanc
zurek
zvec
zygmunt
zyıl
zyılda
zyıllar
zyılın
zz
zzet
zım
zımdı
zımmıs
zımnı
zımsa
{
|
}
~
ª
«
°
²
¶
·
¹
º
»
¿
æ
ø
øystein
đakovica
ı
ıboje
ıc
ıcık
ıda
ıdaki
ıdakı
ıdan
ıdır
ıerlar
ıfıt
ıfıtlar
ık
ıka
ıkacek
ıkalın
ıkan
ıkar
ıkarayor
ıkardı
ıkardılar
ıkare
ıkarer
ıkarmaa
ıkarmıs
ıkarsa
ıkarılması
ıkarıp
ıkayor
ıkayım
ıke
ıker
ıkladı
ıkladılar
ıklama
ıklamaa
ıklamalara
ıklamaları
ıklamalarına
ıklamasına
ıklanan
ıklandı
ıklaner
ıklar
ıklarında
ıklayan
ıklayın
ıkle
ıklı
ıkma
ıkmaa
ıkmak
ıkması
ıkmıs
ıksın
ıkta
ıktan
ıktı
ıktılar
ıkıp
ıkıs
ıkıy
ıl
ılaa
ılacek
ılak
ılan
ılar
ılardı
ıları
ıların
ılarından
ılas
ıldı
ıle
ıler
ılmıs
ılı
ılıg
ılık
ılıklı
ılır
ılıs
ılıınnan
ım
ıma
ımsal
ımsız
ımsızlıg
ımsızlık
ımı
ımın
ımız
ın
ına
ınalık
ınar
ıncı
ında
ındaki
ından
ındaykan
ınerlar
ınnan
ını
ının
ınız
ıp
ıq
ır
ırag
ırak
ırdı
ırmıs
ırnak
ırı
ırıcı
ırıldı
ırıya
ıs
ısı
ısını
ıt
ıtas
ıvan
ıvani
ıy
ıya
ıyan
ıydı
ıye
ıyer
ıyka
ıyla
ıylar
ıymıs
ıı
ıına
ıır
ło
ƿ
ǆ
ɏ
ɔ
ə
əbdu
əfəndiyev
əgər
əhəmiyyət
əhər
əki
əkil
əklin
əksəriyyəti
əlavə
əli
ələsgər
əməkdas
ən
ərdəbil
əsas
əsasən
əsrin
ɪ
ɪvnɐ
ʊ
ʲ
ʻ
ʼ
ʿ
ˈ
ː
̀
́
̂
̃
̄
̆
̇
̈
̉
̊
̋
̌
̍
̑
̓
̔
̛
̣
̦
̧
̨
̪
͂
ͅ
α
γε
γλω
ε
η
ηλικι
ημερομηνι
θ
ι
και
ν
ννησης
ο
που
προ
προτυ
ς
στης
τεκμηρι
τυπο
υ
χρη
ωση
а
аи
б
бабоглу
беларусь
бессарабских
браття
бу
български
в
владеет
вмерла
возраст
воля
вулканештскии
віком
г
гагаузии
гагаузия
гагаузов
гагаузскии
гагаузско
гагаузского
газета
гимн
години
гуырд
д
да
дата
диалект
документация
документација
документація
дь
е
език
ж
з
за
загвар
и
иврите
известия
има
к
калып
кишине
кишинев
км
колца
комрат
корисник
користувач
культура
л
лет
м
малкъар
ми
мовою
молдавскии
москович
московскии
н
на
наречие
не
ни
нською
ны
ні
о
п
пеамим
по
познания
портал
потребител
р
раждане
раи
республика
ризница
роден
родился
русскии
русским
русско
с
саха
сахалыы
синтаксис
сиш
скии
слава
словарь
сложен
советская
със
т
татарстан
теле
тил
тили
тоэи
тукан
тыва
тыла
у
украі
уровне
участник
ф
х
ц
ч
ш
шабле
шаблон
шаблони
школьныи
щ
ще
ъ
ы
ь
э
эзотерик
эзотерика
этот
ю
я
язык
языка
языком
є
і
ѣ
ѫ
қ
ҡалып
ү
үлгі
үрнәк
һ
ӈ
ә
ө
կաղապար
փաստաթղթեր
ְ
ִ
ּ
אני
ברמה
ג
ד
זה
י
לתרום
מוסטער
מסוגל
מסוגלת
משתמש
עברית
של
תבנית
תיעוד
׳
،
ا
الا
العربية
الله
المستخدم
الميلاد
الگو
الگوی
انبار
بالعربية
بمستوى
بىلىدۇ
بۇ
ت
تاريخ
تاریخ
تصنيف
توثيق
توضيح
توضیحات
تولد
ج
د
داڕێژە
ذربایجان
ر
رده
سانچو
سانچہ
سن
ع
قالب
كومنز
ل
مخفی
معقد
ن
ه
هذا
و
والعمر
ویکی
ىشلەتكۈچى
ي
َ
ُ
ِ
ّ
ْ
ٓ
ٔ
ٕ
پیچیده
ۇيغۇر
ی
ۥ
ܐ
ܕ
ܬ
ނ
ވ
ފ
ތ
ަ
ް
ँ
ं
क
च
ट
ढ
त
द
न
प
भ
म
य
र
व
ष
स
ह
ा
ि
ी
ु
ू
े
ै
ो
्
।
ঁ
ং
ক
কমন
গ
চ
জ
ঞ
ট
ণ
ত
দ
ধ
ন
প
ব
ভ
ম
মপ
য
র
ল
শ
ষ
স
়
া
ি
ী
ু
ূ
ৃ
ে
্
ৰ
ਨ
ਾ
ੂ
ં
ગ
ચ
ઢ
દ
ધ
ર
શ
સ
ા
િ
ી
ો
્
ଚ
ଛ
ଞ
ଟ
ମ
ା
େ
୍
க
ட
த
ந
ப
ர
வ
ா
ி
ு
ை
்
త
న
మ
ర
వ
స
ి
ు
ూ
ృ
ె
ే
ో
్
ಂ
ಟ
ದ
ನ
ಪ
ಲ
ವ
ಾ
ಿ
ು
ೆ
್
ೕ
ം
ക
ദ
ഫലക
യ
ല
വ
വരണ
സങ
ാ
ി
ീ
െ
്
ർണമ
ං
ක
ට
ත
ද
ධ
න
ප
ර
ල
ව
ශ
ස
්
ා
ැ
ි
ී
ු
ෙ
ก
ง
ด
ล
อ
ั
ิ
ี
ื
ู
แบบ
แม
่
้
์
ກ
ດ
ບ
ວ
ສ
ັ
ິ
ົ
ຼ
ແບບ
ແມ
່
ეზოთერული
თარგი
만나이
복잡한
설명문서
출생일과
틀
መለጠፊያ
ቾ
።
ទ
ព
រ
រគ
ូ
ំ
័
῾
‌
‍
‎
–
—
‘
’
“
”
„
†
•
…
′
″
€
№
←
→
↔
↷
−
③
④
⑦
█
♀
♦
⺀
⺄
⺆
⺈
⺊
⺌
⺕
⺝
⺸
⺼
⿰
⿱
⿲
⿳
⿴
⿵
⿶
⿷
⿸
⿹
⿺
⿻
。
〢
い
か
こ
さ
す
せ
た
て
と
な
ね
の
は
ま
む
ら
り
る
わ
ん
゙
゚
キ
ク
コ
ス
ツ
テ
ト
ノ
フ
ホ
マ
ユ
レ
ワ
ン
ー
㇁
㇂
㇄
㇇
㇈
㇉
㇓
㐁
㐄
㐅
㐌
㐫
㐬
㐭
㐮
㐱
㑒
㒵
㒸
㒼
㓁
㓞
㔾
㕛
㕣
㖾
㘝
㚅
㚇
㚔
㚘
㝉
㝡
㝴
㝵
㞋
㞢
㞷
㠩
㠭
㠯
㡀
㡭
㡿
㢲
㢴
㣇
㣺
㥯
㪅
㫄
㫐
㫒
㫺
㬅
㬎
㬥
㬰
㲋
㳄
㷠
㸒
㸚
㸦
㼌
㼲
㽞
㿟
䀠
䂞
䍃
䏍
䒑
䖍
䖒
䖝
䖵
䙴
䚻
䜌
䝿
䡛
䧹
䪞
一
丁
丂
七
丄
丅
丆
万
丈
三
上
下
丌
不
与
丏
丐
丑
专
且
丕
世
丘
丙
业
东
丞
丢
丣
两
严
並
丨
丩
个
丫
丬
中
丮
丰
丱
串
丵
丶
丷
丸
丹
为
主
丽
丿
乀
乂
乃
久
乆
乇
么
义
之
乌
乍
乎
乏
乐
乑
乔
乖
乗
乘
乙
乚
乛
乜
九
乞
也
习
乡
乳
乾
亀
亅
了
亇
予
争
事
二
亍
于
亏
亐
云
互
亓
五
井
亘
亚
亜
亞
亟
亠
亡
亢
交
亥
亦
产
亨
亩
享
京
亭
亮
亯
亰
亲
亳
亶
亷
人
亻
亼
亾
仁
今
介
仌
从
仐
仑
仒
仓
仕
他
付
仝
代
令
以
任
企
伊
伏
伐
休
会
伯
但
位
何
佘
余
作
佥
使
來
侈
侌
侖
侯
侵
便
保
俞
信
修
倉
倍
候
倠
傅
備
僉
僕
儀
儿
兀
允
兂
元
兄
充
兆
兇
先
光
兊
克
兌
免
兑
兒
兓
兔
党
兜
兟
入
全
兩
兪
八
公
六
兮
兰
共
关
兵
其
具
典
兹
兼
冀
冂
冃
冄
内
冈
冉
冊
冋
册
再
冎
冏
冐
冒
冓
冖
冗
冘
军
农
冝
冡
冥
冫
冬
冷
几
凡
凢
凵
凶
凷
凸
凹
出
函
凾
刀
刁
刂
刃
刄
刅
分
切
刍
刑
刕
刖
列
刘
则
初
別
利
别
到
制
刺
則
削
剌
前
剡
剽
劉
力
功
加
劦
助
劫
劳
劵
勃
勇
勉
勒
動
務
勞
勤
勹
勺
勻
勾
勿
匀
匂
包
匆
匈
匊
匋
匍
匕
化
北
匚
匝
匡
匪
匯
匱
匸
匹
区
医
匽
匿
區
十
卂
千
卄
卅
卆
升
午
卉
半
卌
华
卑
卒
卓
单
卖
南
卜
卝
卞
占
卡
卢
卣
卤
卦
卩
卪
卬
卯
印
危
即
却
卵
卷
卸
卻
厂
厃
厄
历
厈
厉
厌
厓
厘
厚
原
厤
厥
厨
厭
厲
厶
厷
厸
去
厼
厽
叀
参
參
叅
又
叉
及
友
双
反
叐
发
叒
叔
叕
取
受
叚
叜
叟
口
古
句
另
叩
只
召
可
台
叱
史
右
叵
号
司
叹
吂
各
吅
合
吉
吊
吋
同
名
后
吏
向
吕
君
吝
吞
否
含
启
吳
吴
吹
吾
呂
呆
呈
告
员
呙
周
命
咅
和
咎
咠
咢
咨
咸
咼
哀
品
哉
員
哥
哲
唐
商
啇
問
啚
啬
啻
善
喜
喬
單
喿
嗇
噩
嚴
囊
囗
囘
囙
囚
四
回
囟
因
囧
囬
困
囱
囷
固
国
圂
圅
國
圍
圓
土
圡
圣
圥
在
圭
地
圶
圼
坐
坒
坚
坴
垂
垔
垚
埀
埋
埶
執
基
堂
堅
堆
堇
堯
報
塞
墨
壘
士
壬
壯
声
壳
壴
壹
壺
壽
夂
处
夅
夆
备
夊
夋
夌
复
夏
夒
夕
外
夗
夘
多
夜
夢
大
夨
天
太
夫
夬
夭
央
失
夲
头
夷
夸
夹
夻
夾
奂
奄
奇
奈
奉
奎
奏
奐
契
奓
奔
奚
奞
奠
奢
奥
奭
女
奴
奻
好
如
妄
妙
妟
妥
妻
妾
姑
委
姜
威
娄
婁
婴
嬰
嬴
子
孑
孔
孕
孖
字
存
孚
孛
孝
孟
季
孤
学
孫
孱
學
宀
宁
宂
它
宅
宇
守
安
宋
完
宏
宓
宗
官
定
宛
宜
宝
客
宣
室
宮
宰
害
家
容
宾
宿
寄
寅
密
富
寒
察
寧
審
寫
寬
寮
寸
对
寺
寻
寽
対
寿
封
尃
射
将
將
專
尉
尊
尋
尌
對
小
少
尒
尓
尔
尖
尗
尚
尞
尢
尣
尤
尧
尨
尭
就
尸
尹
尺
尻
尼
尽
尾
尿
局
居
屈
屋
屎
屏
屑
展
屖
屚
属
屠
屡
屬
屮
屯
屰
山
屵
屾
岁
岂
岑
岡
岩
岳
岸
峯
島
崇
崑
崔
崖
崙
崩
嵐
嵬
嶲
嶺
巂
巛
川
州
巟
巠
巢
巤
工
左
巧
巨
巩
巫
差
己
已
巳
巴
巷
巸
巽
巾
巿
帀
市
布
希
帚
帛
帝
带
師
席
帶
常
干
平
年
幵
并
幷
幸
幺
幻
幼
幽
幾
广
広
庄
床
底
店
庚
府
度
庫
庭
庶
康
庸
廉
廌
廛
廣
廩
廴
延
廷
建
廾
廿
开
弁
弃
弄
弇
弋
式
弓
弔
引
弗
弘
弜
弟
弥
弦
弱
張
強
强
彊
彌
彎
彐
彑
当
彔
录
彖
彗
彡
形
彥
彦
彧
彭
彳
役
彼
往
待
律
徐
徒
得
徙
從
復
微
徵
德
心
忄
必
忌
忍
志
忝
忠
忩
快
念
忽
忿
思
怠
怡
急
怱
恆
恒
恩
恭
息
悉
患
悤
悲
悶
惠
惡
惢
愁
愈
意
愛
感
慈
慧
慮
憂
憲
憶
應
戀
戈
戉
戊
戋
戌
戍
戎
成
我
戒
戔
或
戚
戠
戢
截
戲
戶
户
戹
戼
戾
房
所
扁
扇
手
扌
才
打
托
执
承
技
折
拉
拜
拿
掌
推
提
搞
摩
支
攴
攵
收
攸
改
放
政
敄
敏
敕
敖
敗
教
敝
敞
敢
散
敦
敫
敬
数
敷
數
斂
文
斉
斊
斗
斤
斥
斩
斬
斯
新
方
於
施
斿
旁
旋
族
无
旡
既
旣
日
旦
旧
旨
早
旬
旱
旲
时
旾
昆
昇
昌
昍
明
昏
易
昔
昗
昜
星
春
昬
是
昱
昴
昷
時
晃
晋
晏
晚
普
景
晶
智
暑
暦
暴
曆
曇
曩
曰
曲
曳
更
曷
書
曹
曼
曾
替
最
朁
會
月
有
朋
服
朔
朕
朗
望
朝
木
朩
未
末
本
札
朮
术
朱
朵
朶
朿
杀
李
杏
村
杜
束
条
来
東
杲
杳
松
板
析
林
枚
果
枝
枲
枼
某
柔
查
柬
柰
柴
栗
桀
桑
桼
梁
梅
條
梟
梨
棘
棠
棥
森
楚
業
楽
榮
樂
樊
模
欠
次
欣
欮
欲
欶
欽
款
歆
歇
歛
止
正
此
步
武
歨
歪
歮
歯
歰
歲
歴
歷
歸
歹
歺
死
殳
段
殷
殸
殹
殺
殻
殿
毋
毌
母
每
毒
比
毕
毚
毛
毳
氏
氐
民
气
氣
水
氵
氶
氷
永
氺
氾
求
汝
汞
江
沃
沓
沙
沝
泉
法
波
泣
泥
泰
洛
洪
活
派
流
浦
浪
浮
海
淇
淡
淮
清
渚
渠
港
湯
滿
漸
潤
澤
濟
火
灬
灭
灰
灵
灷
炅
炎
炏
炗
炙
炭
為
烈
烏
烝
焉
無
焦
焱
然
煞
熊
熏
燕
營
燮
爪
爫
爭
爯
爰
爱
爲
爵
父
爻
爽
爾
爿
片
牙
牚
牛
牜
牟
牢
牧
牪
牽
犀
犬
犭
犮
狂
狄
狊
独
狺
猋
猒
猪
献
獻
玄
率
玉
王
玟
玨
珎
班
理
琴
瑞
瑟
瑩
瓜
瓦
甘
甚
生
産
用
甫
甬
田
由
甲
申
电
甶
男
甸
甹
画
甾
畀
界
畏
畐
留
畜
畟
畢
畧
畨
番
畫
異
畱
當
畺
畾
疆
疊
疋
疌
疑
疒
疾
癶
癸
癹
登
發
白
百
皀
皃
的
皆
皇
皋
皐
皕
皮
皷
皿
盃
盆
盇
盈
益
盍
盎
监
盒
盖
盛
盡
監
盤
盧
目
直
相
盾
省
眇
眉
看
眔
眞
真
眷
眼
眾
着
睘
睪
睿
瞏
瞢
瞿
矍
矛
矞
矢
矣
知
矦
短
石
破
碎
碧
磊
磨
示
礻
礼
祕
祟
票
祭
禀
禁
禸
禹
禺
离
禽
禾
禿
秀
秃
秉
秋
科
秝
秦
移
稟
穀
穌
穴
究
穹
空
穿
突
窄
窒
立
竒
竜
竝
竟
章
童
竹
笑
笠
筆
等
答
箇
箕
算
箴
節
篤
篭
米
粉
粛
粟
粤
粦
粲
糞
糸
糹
系
紀
約
納
素
索
紫
累
細
紹
絜
絫
絲
經
維
綿
線
縣
繇
纍
纟
缶
网
罒
罔
罕
罗
罙
罡
罢
罪
署
罷
羅
羊
羌
羍
美
羔
羕
羗
羞
羡
羣
群
義
羲
羸
羽
翁
翏
習
翕
翟
翠
翼
耀
老
耂
考
者
耆
而
耎
耑
耒
耳
耴
耶
耷
聂
聊
聖
聚
聞
聲
聶
聿
肀
肃
肅
肉
肖
肙
肥
肩
肯
育
肴
胃
背
胡
胥
能
脊
脩
膚
臣
臤
臧
自
臬
臭
臯
臱
至
致
臺
臼
臽
臾
臿
舀
舂
舄
與
興
舉
舌
舍
舛
舜
舞
舟
般
艮
良
色
艷
艸
艹
艾
芒
芔
芝
芬
芮
花
芳
芺
芻
苔
苗
苟
若
苦
英
茵
茶
茸
荅
草
荒
荣
荼
莆
莧
莫
莽
菆
菊
菐
華
萬
落
葉
著
葛
董
葵
蒙
蒦
蒼
蓋
蓬
蓮
蓺
蔑
蔚
蔡
蕉
蕭
蕾
薄
薛
薦
薰
藍
藏
藥
蘋
蘭
虍
虎
虐
虒
虔
處
虖
虗
虘
虚
虛
虜
虞
虫
虽
蚤
蚩
蜀
蜜
蟲
蠡
血
行
衍
衛
衣
衤
表
衮
衰
袁
袞
複
褭
褱
襄
襾
西
覀
要
覃
見
規
覓
覧
親
覽
见
角
解
言
訁
訇
計
許
詠
詹
語
誩
諸
譚
護
讠
谷
豆
豈
豊
豐
豕
豖
豙
象
豦
豩
豪
豸
貇
貝
貞
貟
負
財
貢
貧
貪
貫
責
貳
貴
買
費
賁
資
賈
賏
賓
賔
賛
賞
賢
賣
質
賴
贊
贝
贡
责
贯
贲
贵
赖
赞
赤
赦
走
越
趙
足
路
蹇
身
躬
車
軍
軎
軟
輦
车
辛
辜
辟
辥
辰
辱
農
辵
辶
边
达
过
近
连
迷
追
退
送
逆
逐
這
通
速
造
逢
連
逮
進
遀
遂
過
道
達
遠
遣
適
遷
遺
邊
邑
邕
那
邦
邪
郎
部
郭
郵
都
鄉
鄧
鄭
酉
酋
配
酓
釆
采
釋
里
重
野
量
金
釒
錢
钅
長
镸
长
門
閃
閉
開
閏
閑
閒
間
閔
閵
閻
闌
關
门
间
闷
阑
阜
阝
阿
降
陳
陽
隆
隊
隋
隡
隨
隱
隶
隹
隺
隻
隼
隽
难
雀
雁
雅
集
雈
雋
雍
雐
雑
雔
雙
雚
雜
雝
離
難
雨
雩
雪
雲
零
雷
需
霍
霜
霝
霞
霸
靈
靑
青
非
靡
面
靣
革
鞍
韋
韦
韭
韯
韱
音
頁
頃
項
須
頗
頡
頭
頻
顛
類
页
風
风
飛
飞
食
飠
養
饣
首
香
馬
馮
馳
駦
马
骨
高
髟
鬥
鬯
鬲
鬼
魚
魯
鮮
鱼
鲁
鳥
鳳
鸟
鹵
鹿
麃
麗
麟
麥
麦
麻
黃
黄
黍
黎
黑
黒
黨
黹
黽
黾
鼎
鼓
鼠
鼻
齊
齋
齐
齒
齢
齿
龍
龙
龜
龟
龠
龰
龱
龴
龵
龶
龷
龸
龹
ꙁ
者
艹
﹫
ﺍ
ﺎ
ﺐ
ﺑ
ﺳ
ﺷ
ﻄ
ﻘ
ﻟ
ﻠ
ﻢ
ﻤ
ﻬ
ﻮ
ﻲ
﻿
（
）
？
𐰇
𐰰
𐰼
𐱅
𠀁
𠀃
𠀆
𠀉
𠀎
𠀐
𠁁
𠁣
𠂆
𠂇
𠂈
𠂉
𠂊
𠂋
𠂎
𠂒
𠂔
𠂛
𠂡
𠂢
𠂤
𠂬
𠂭
𠂹
𠃊
𠃋
𠃌
𠃍
𠃎
𠃑
𠃓
𠃔
𠃜
𠄌
𠄎
𠄠
𠄢
𠆢
𠆥
𠇍
𠈌
𠌵
𠓜
𠔉
𠔥
𠔼
𠔽
𠔿
𠕀
𠕁
𠕋
𠘧
𠘨
𠙻
𠙼
𠚏
𠚒
𠚤
𠚪
𠣏
𠤎
𠤕
𠥓
𠦄
𠦑
𠦝
𠧒
𠧗
𠧪
𠩺
𠪚
𠫓
𠫔
𠫤
𠬛
𠬝
𠬞
𠬢
𠬤
𠬶
𠮛
𠮦
𠮷
𠯑
𠱠
𠳮
𠷎
𡈼
𡉀
𡉵
𡌥
𡍮
𡏳
𡕒
𡕩
𡕰
𡖅
𡗗
𡗜
𡘆
𡘤
𡧱
𡨄
𡩧
𡬠
𡭽
𡰣
𡰥
𡰪
𡰯
𡰱
𡷈
𡸁
𡿨
𡿩
𡿪
𡿺
𢀖
𢀛
𢀩
𢁙
𢆉
𢆰
𢆶
𢇁
𢇇
𢉖
𢌬
𢌿
𢏚
𢑑
𢑚
𢖻
𢙣
𢛳
𢦏
𢦒
𢧵
𢼄
𢾕
𣁋
𣄼
𣅀
𣅽
𣍘
𣎳
𣎵
𣏋
𣏼
𣗥
𣥂
𣥖
𣦵
𣦼
𣧄
𣪊
𣪠
𣬉
𣳾
𣶒
𤇾
𤊽
𤐫
𤓰
𤔔
𤕨
𤣩
𤰇
𤰔
𤰞
𤴓
𤴔
𤽄
𥁑
𥁕
𥃦
𥃩
𥃭
𥇡
𥑟
𥘅
𥘈
𥝢
𥫗
𥱡
𦈢
𦉪
𦉬
𦉼
𦍌
𦍒
𦎧
𦐇
𦓔
𦔮
𦘒
𦙃
𦚏
𦣝
𦣞
𦣻
𦥑
𦥔
𦥯
𦨉
𦭝
𦰩
𧆞
𧈧
𧘇
𧰨
𧴪
𧴮
𧵩
𧾷
𨸏
𨾴
𩙿
𩠐
𩫏
𩵋
𪉷
𪜀
𪟽
𪠲
𪩲
𫇦
𫔭
𫜸
𫝀
𫠣
𫠩
𫢉
𫥞
𫩏
𫩠
𫪡
𫲽
𫶧
𬀷
𬐘
𬗌
𬙙
𬛸
𬜯
𬟩
𬯁
𬴘
𬺻
𬼉
𬼖
𭀰
𭁈
𭁨
𭅰
𭑈
𭕄
𭗼
𭤨
𭥫
𭻾
𮅕
𮊿
𮍌
𮍏
𮓗
𮥼
𮧮
廾
𰀁
𰀄
𰀈
𰀉
𰀕
𰀠
𰀡
𰀢
𰀪
𰁜
𰃮
𰆊
𰆘
𰋙
𰕎
𰢴
𰧭
𰯲
01--
16--
38--
a--
aa--
aac--
aad--
aamu--
aar--
aayi--
ab--
ac--
acı--
ad--
ada--
ade--
adi--
adres--
adı--
adım--
adımna--
ae--
aero--
af--
ag--
aga--
ago--
ah--
aha--
aig--
air--
ait--
aj--
aji--
ak--
aka--
akhm--
aklı--
akt--
akın--
al--
ala--
alatl--
alda--
aldatma--
ale--
aleks--
alg--
alge--
algıc--
ali--
all--
alp--
alt--
alı--
alın--
alə--
am--
ama--
amb--
ame--
amlı--
an--
ana--
and--
ang--
anlat--
anna--
annı--
anta--
anti--
any--
anı--
ap--
apos--
aq--
aqu--
ar--
ara--
arac--
aras--
arc--
args--
ark--
arna--
arqu--
arr--
ars--
art--
arı--
as--
ash--
aso--
asp--
ast--
astro--
ası--
at--
ata--
athlit--
atra--
atri--
atı--
au--
aul--
aus--
av--
ava--
ave--
avlan--
avu--
aw--
ay--
aya--
ayarla--
aykır--
ayoz--
ayı--
ayır--
az--
aza--
azer--
azı--
b--
ba--
baa--
bab--
bac--
back--
bad--
bag--
bail--
bak--
bal--
bam--
ban--
bar--
barsak--
bas--
basıl--
bat--
batı--
bay--
bayır--
be--
beau--
bece--
bed--
been--
beh--
bek--
bel--
belir--
belirtil--
belli--
belo--
ben--
ber--
berg--
bes--
bet--
bey--
bi--
bic--
bie--
big--
bil--
bildi--
bili--
bilin--
bin--
bina--
bir--
birbir--
biri--
bis--
bja--
bje--
blas--
blo--
blu--
bo--
boba--
bod--
boh--
boklu--
bom--
bona--
bonn--
bor--
borg--
bos--
botan--
bou--
bour--
boy--
boya--
boyar--
boynu--
boyut--
boz--
bozul--
br--
bra--
brac--
brak--
bre--
bret--
bri--
bro--
brod--
bru--
bu--
bubu--
buc--
bul--
bulun--
bun--
bunde--
bur--
burs--
bus--
but--
buynu--
buz--
by--
bø--
børs--
bır--
bırak--
bırakıl--
bıy--
bəstə--
c--
ca--
cabr--
cal--
calo--
cam--
can--
cana--
cap--
car--
cara--
carl--
cart--
carta--
cass--
caste--
cat--
categor--
cc--
ce--
ceb--
cek--
cel--
cendir--
cenk--
cet--
cey--
cez--
ceza--
ch--
cha--
cham--
char--
che--
chi--
cho--
chor--
chu--
ci--
cing--
cio--
cl--
cle--
co--
col--
com--
comp--
con--
copy--
cor--
corn--
correspo--
cos--
cott--
cra--
craw--
cre--
cri--
cro--
cron--
cs--
cu--
cum--
cuma--
cur--
cy--
cze--
cə--
d--
da--
daa--
daava--
dag--
dak--
dal--
dam--
damascusazem--
dan--
dar--
darsı--
davra--
daxi--
day--
dd--
de--
dec--
dedel--
dek--
del--
deli--
dem--
den--
dep--
depart--
der--
deri--
dersl--
des--
deter--
dev--
develo--
deye--
di--
dia--
dicti--
die--
diff--
dig--
digra--
dik--
dil--
dili--
din--
dir--
diri--
dis--
disco--
diy--
diz--
dj--
dni--
do--
doc--
doi--
dok--
dom--
don--
donan--
dor--
down--
doy--
doyu--
dr--
dres--
du--
dub--
dud--
dulk--
dum--
dun--
dup--
dur--
durgu--
duu--
duva--
duy--
duyu--
dv--
dy--
dz--
dır--
də--
dəyə--
e--
east--
eb--
ec--
ed--
ede--
edi--
edit--
ee--
eeddii--
eer--
ef--
eg--
ege--
eh--
ej--
ek--
ekede--
eki--
ekono--
eksp--
el--
ela--
ele--
elef--
eli--
em--
emir--
emzi--
en--
ena--
enab--
end--
eng--
eni--
ennend--
ens--
ensey--
ent--
eo--
ep--
epit--
epoh--
er--
era--
erd--
erlen--
ern--
ert--
es--
esap--
esp--
esz--
et--
eti--
etin--
etme--
etno--
etti--
eu--
eur--
ev--
evang--
eve--
evir--
evirt--
evlen--
evr--
ex--
ey--
eya--
ez--
f--
fa--
facc--
fahr--
fair--
fak--
fal--
fan--
far--
farmazo--
faul--
faz--
fe--
fed--
fer--
feri--
fet--
fetch--
fey--
ff--
fi--
figu--
fil--
fin--
fir--
fk--
fkele--
fla--
fle--
flo--
flota--
fly--
fo--
folk--
fond--
font--
foot--
for--
foto--
fr--
fra--
fre--
fred--
free--
frie--
fu--
fur--
fus--
fy--
fınd--
fır--
fırlat--
g--
ga--
gab--
gag--
gal--
galer--
gam--
gan--
gang--
gar--
gara--
gard--
gars--
gas--
gau--
gay--
gaz--
ge--
geb--
gel--
gen--
geo--
ger--
geroy--
get--
getir--
gey--
gez--
ghi--
ghim--
gi--
giaco--
gian--
giim--
gil--
gimna--
gin--
giri--
girme--
git--
gl--
gle--
glen--
go--
god--
gol--
gold--
gom--
gon--
good--
gor--
gr--
graf--
grap--
gras--
gre--
gri--
gro--
gros--
gru--
grze--
gu--
guerr--
gwy--
gə--
gəl--
h--
ha--
hac--
hacı--
had--
haf--
hai--
hak--
hal--
haltı--
han--
hang--
har--
harlam--
has--
hat--
haug--
hav--
hava--
hax--
hay--
haz--
hazır--
hazırlan--
he--
hel--
hell--
hels--
hem--
hen--
hep--
her--
herce--
hey--
hi--
hiet--
high--
hin--
hipp--
hizmet--
hla--
hlav--
hm--
ho--
hol--
holla--
hor--
hos--
hr--
ht--
hu--
hun--
hur--
hus--
hy--
hı--
hə--
i--
ia--
iat--
iativa--
ib--
id--
iddia--
ide--
idi--
ie--
if--
ift--
ig--
iht--
ii--
iisi--
ik--
iki--
ikon--
ikona--
il--
iler--
ilgilend--
illu--
im--
ime--
imek--
imper--
implem--
ims--
imza--
in--
inan--
inc--
ince--
ine--
info--
ing--
inge--
inno--
ins--
instrum--
intelig--
inter--
interes--
inti--
inver--
io--
ion--
ip--
ir--
ira--
iri--
irmen--
is--
isa--
isi--
iso--
ist--
istedi--
istem--
isteyen--
istis--
istorik--
it--
ita--
iu--
iv--
iy--
iz--
j--
ja--
jan--
janr--
jar--
jas--
je--
jen--
jer--
ji--
jim--
jo--
joa--
ju--
k--
ka--
kab--
kabar--
kablet--
kad--
kadr--
kah--
kai--
kail--
kak--
kal--
kala--
kaldır--
kale--
kalit--
kalkm--
kam--
kamu--
kan--
kanta--
kantaku--
kanun--
kap--
kapsam--
kar--
kara--
karar--
kas--
katl--
katı--
katılma--
kaup--
kav--
kay--
kaybe--
kaybet--
kaz--
kazan--
kb--
ke--
kem--
kemi--
ken--
ker--
kes--
kesil--
ket--
key--
kez--
kha--
kho--
khu--
ki--
kim--
kin--
kir--
kis--
kl--
kla--
kle--
klo--
km--
kn--
ko--
koca--
kod--
kol--
kolon--
kom--
koma--
kompan--
kompyu--
kompyuter--
komu--
kon--
konfessi--
konservator--
konv--
koo--
kop--
kopa--
kor--
kork--
korka--
korku--
kors--
kort--
koru--
korun--
kos--
kotel--
kou--
koy--
kozlo--
kra--
kre--
kreang--
kri--
kro--
kry--
ks--
ku--
kuca--
kul--
kula--
kuli--
kum--
kun--
kur--
kurs--
kurt--
kuru--
kurucu--
kus--
kutl--
kuus--
kuvvet--
kuz--
kvar--
kvo--
kw--
ky--
kı--
kıl--
kıp--
kır--
kıs--
kıt--
kıy--
kıyatl--
kız--
kə--
kənarı--
l--
la--
laa--
lac--
laf--
lager--
lai--
lam--
lan--
lar--
las--
lat--
lau--
law--
lay--
lc--
ld--
le--
lee--
leg--
lege--
legenda--
lehi--
leip--
leit--
lek--
lem--
len--
lenmeye--
leon--
ler--
les--
let--
lev--
lew--
ley--
lg--
lge--
li--
lid--
lie--
lik--
lim--
lin--
lind--
lingv--
liste--
lit--
litua--
lju--
lk--
lke--
ln--
lo--
loc--
lock--
lom--
long--
lor--
lou--
low--
ls--
lt--
lu--
luc--
lud--
ludo--
luk--
lut--
luuk--
luxem--
lv--
ly--
lık--
lə--
m--
ma--
maa--
mac--
mad--
mag--
mah--
mahn--
mai--
main--
maj--
mak--
mal--
mam--
man--
mar--
margu--
mas--
mav--
may--
maz--
mb--
mbi--
mc--
me--
med--
mee--
meh--
mehm--
melc--
melni--
melodiy--
memmed--
men--
mensu--
mer--
mes--
met--
metro--
mex--
mey--
mez--
mezar--
mi--
mic--
mid--
mik--
mikk--
mikro--
mil--
milita--
min--
mir--
mis--
mit--
mja--
mla--
mler--
mm--
mne--
mo--
mol--
mon--
monog--
mor--
mordv--
mos--
mr--
ms--
mt--
mu--
muh--
muha--
mun--
mur--
mus--
mut--
my--
mø--
mı--
mıy--
mə--
məzmu--
n--
na--
nad--
nah--
nak--
nal--
nam--
nan--
nap--
nar--
narod--
narv--
nas--
nat--
nav--
navi--
naviga--
nay--
naz--
nc--
nce--
nd--
nder--
ne--
neet--
nego--
nek--
nem--
nen--
ner--
nerdey--
nes--
net--
new--
news--
ney--
nez--
ng--
nh--
ni--
nico--
nie--
nik--
niko--
nja--
nku--
nl--
nlen--
nlend--
nmek--
nn--
no--
nor--
nord--
not--
notar--
ns--
nte--
nu--
nun--
nur--
nuri--
ny--
nə--
o--
obi--
oc--
occi--
occur--
oda--
odnoklasnik--
odojew--
of--
off--
og--
oh--
oja--
ok--
okul--
okuycu--
okuyucu--
ol--
ola--
oldu--
ole--
olmam--
olum--
olym--
omon--
on--
ona--
or--
ora--
oro--
orta--
os--
ot--
ota--
otur--
ou--
out--
ov--
ova--
over--
ox--
oy--
oyna--
oz--
p--
pa--
paa--
pad--
paj--
pak--
pal--
pam--
pan--
par--
para--
part--
parvi--
pas--
paske--
pasport--
pat--
pav--
pay--
paz--
pe--
peeb--
pek--
pem--
pen--
per--
peri--
pes--
pey--
peydal--
peygamber--
pho--
pi--
pic--
pica--
pih--
pin--
pinc--
pir--
pis--
pisko--
pl--
pla--
plot--
po--
podr--
podra--
podst--
poe--
poh--
pol--
polk--
polon--
polov--
polovit--
poly--
pom--
pon--
pop--
por--
pos--
pp--
pr--
pra--
pras--
pravit--
pre--
pred--
prepodavatell--
pres--
pri--
pritc--
pro--
proje--
provi--
pru--
ps--
psiholog--
pu--
pub--
pur--
pustiya--
px--
q--
qol--
qu--
que--
quin--
qur--
qə--
qəhrə--
qəhrəman--
r--
ra--
raatsız--
rad--
raguz--
rail--
raj--
ran--
ras--
rau--
raud--
rav--
raw--
ray--
raz--
rc--
rd--
re--
rec--
red--
reg--
reich--
rek--
ren--
renici--
repres--
rer--
resim--
resurs--
ret--
rev--
rey--
rezer--
rg--
rhi--
ri--
ric--
rich--
rim--
ring--
riss--
rivi--
rk--
rlə--
rm--
rme--
rn--
ro--
rock--
roj--
rol--
rom--
roo--
roos--
ros--
rott--
row--
roz--
rs--
rt--
ru--
rub--
ruh--
rul--
rum--
rus--
rutt--
rve--
rw--
ry--
rı--
rə--
s--
sa--
saa--
sab--
sac--
sad--
sadra--
saf--
sag--
sahne--
sak--
sal--
saldır--
sam--
san--
sanca--
sancı--
sanık--
sap--
sar--
saru--
sarı--
sas--
sata--
satma--
satı--
sav--
savun--
say--
sayı--
saz--
sc--
scar--
sch--
schi--
schm--
schn--
schwe--
schwi--
se--
sea--
sec--
see--
sek--
sel--
selem--
sem--
sen--
sep--
ser--
seray--
sergi--
ses--
set--
sev--
seven--
sevi--
sevin--
sevindir--
sey--
sfe--
sh--
shap--
sher--
shi--
sho--
shq--
shqip--
si--
sid--
sie--
siir--
siiredici--
sil--
silist--
sim--
sin--
sinci--
sir--
site--
situat--
sk--
ska--
skadr--
skifi--
sko--
skulpt--
sl--
sla--
slu--
sme--
smir--
smol--
sn--
so--
sokak--
sol--
som--
son--
soo--
sor--
sos--
sot--
sov--
sovetnik--
soy--
sp--
spa--
spe--
sponsor--
spring--
sr--
sri--
ss--
st--
sta--
stadi--
staty--
stav--
ste--
sten--
stend--
step--
ster--
steril--
sti--
stih--
sto--
str--
struktur--
stu--
stə--
su--
sub--
suc--
sug--
sul--
sun--
sundsv--
sur--
sus--
sv--
svo--
sw--
swe--
sy--
syezd--
sz--
sza--
sø--
sı--
sıb--
sıbıt--
sık--
sımar--
sın--
sıra--
sırt--
sız--
sə--
t--
ta--
taa--
tab--
tah--
tahm--
tahta--
tak--
taka--
tal--
talla--
tam--
tan--
tanı--
tanımla--
tap--
tar--
taraf--
tas--
tat--
tau--
tav--
tavan--
tay--
tc--
te--
tehnolog--
tek--
tel--
tele--
televi--
televizi--
tem--
tema--
temm--
ten--
tepe--
ter--
terbi--
tertipl--
tes--
test--
tev--
tez--
th--
the--
thessalo--
tho--
thorn--
ti--
tif--
tik--
til--
tim--
tiparla--
tir--
tis--
tk--
tl--
to--
toc--
tok--
tom--
top--
toplan--
tor--
tour--
toz--
tr--
tra--
tre--
tri--
tro--
trou--
tru--
trum--
ts--
tsu--
tt--
tu--
tum--
tuo--
tur--
turdu--
tut--
tutuk--
tuz--
tv--
ty--
tı--
tık--
tır--
tırıl--
tə--
təsv--
u--
ub--
uc--
ug--
uk--
ul--
ulu--
um--
umu--
un--
una--
uni--
univer--
unu--
unudu--
up--
ur--
ura--
urb--
urgu--
urok--
us--
ustal--
ut--
uur--
uus--
uy--
uya--
uydur--
uyg--
uygul--
uyu--
uz--
uzak--
uzan--
v--
va--
vaca--
val--
van--
var--
vas--
ve--
vel--
ven--
ver--
vet--
vi--
vic--
vide--
view--
vig--
viit--
viki--
vikian--
vil--
vino--
vis--
vit--
vlad--
vo--
voj--
vol--
volks--
vor--
vs--
vu--
vurul--
vy--
w--
wa--
wah--
wal--
war--
was--
wat--
we--
web--
west--
wester--
wey--
wi--
wies--
wig--
wiki--
wil--
win--
winn--
wo--
wol--
wri--
wu--
wy--
x--
xa--
xalq--
xan--
xay--
xi--
y--
ya--
yaa--
yad--
yala--
yalv--
yan--
yap--
yapab--
yar--
yargılan--
yas--
yat--
yav--
yayın--
yaz--
yazma--
yc--
ye--
yens--
yer--
yet--
yev--
yi--
yo--
yok--
yol--
yon--
yor--
yu--
yı--
yık--
yıka--
yıkay--
z--
za--
zab--
zal--
zam--
zapt--
zar--
zdr--
ze--
zeede--
zeet--
zel--
zelim--
zen--
zenle--
zer--
zet--
zey--
zge--
zh--
zhiv--
zi--
zik--
zin--
zlo--
zo--
zor--
zs--
zu--
zə--
zən--
ð--
đ--
ı--
ıd--
ık--
ıka--
ıkar--
ıl--
ım--
ın--
ıp--
ır--
ırı--
ıs--
ısı--
ıt--
ıx--
ıy--
ıı--
ıır--
ə--
ələ--
ən--
ənli--
əvə--
α--
δ--
ελλη--
λ--
ν--
а--
б--
в--
ви--
г--
гагау--
д--
е--
евр--
з--
и--
име--
к--
ка--
кате--
ки--
ко--
кыр--
ли--
м--
мо--
мол--
мі--
н--
на--
неадназ--
но--
о--
об--
па--
пал--
р--
респу--
рус--
с--
со--
т--
та--
тирас--
то--
ті--
у--
ур--
централь--
ч--
ш--
ы--
эт--
я--
ү--
ا--
اسل--
ال--
تى--
ج--
د--
فا--
فه--
ن--
ه--
ব--
য--
র--
വ--
ර--
--0
--00
--1
--2
--3
--4
--5
--6
--7
--8
--9
--a
--aa
--ab
--aba
--abe
--abi
--able
--ac
--aca
--acag
--acak
--acan
--acek
--ach
--acio
--ad
--ada
--adan
--ado
--adov
--ae
--af
--ag
--age
--ah
--ai
--aise
--aj
--ajı
--ak
--al
--ald
--aldi
--ali
--all
--alp
--alı
--alım
--am
--ama
--amp
--an
--ana
--and
--ani
--ano
--ant
--antlar
--antı
--anu
--anı
--ao
--ap
--aq
--ar
--ara
--ard
--ardi
--ardo
--are
--arella
--ari
--arlı
--aro
--arsın
--ary
--arı
--arın
--as
--ashi
--asse
--ası
--at
--ata
--ate
--ated
--ath
--ati
--atik
--ation
--att
--atı
--au
--av
--aw
--awa
--ay
--aya
--ayev
--ayı
--az
--azzi
--b
--ba
--bad
--bag
--bamba
--bas
--baum
--be
--bec
--bek
--berg
--bet
--beyov
--bi
--bia
--bic
--bil
--bilir
--biya
--ble
--bo
--bon
--borough
--bu
--burg
--burn
--by
--bı
--bəyov
--c
--ca
--cag
--cak
--caktır
--cam
--can
--caq
--cca
--ccio
--ce
--ceg
--cek
--cer
--ces
--cez
--ch
--chi
--cho
--chy
--ci
--cie
--cija
--cik
--cila
--ciler
--cin
--cing
--cini
--cio
--cisi
--cisı
--cius
--ck
--cka
--cke
--cki
--cky
--co
--coe
--colspan
--count
--cracy
--cs
--ct
--cu
--cuk
--cus
--cy
--cı
--cık
--cılar
--cılık
--cıog
--cısı
--cıım
--cıın
--d
--da
--dad
--daki
--dakı
--dan
--dau
--day
--ddin
--de
--dea
--ded
--deki
--den
--der
--des
--dge
--dhu
--di
--dig
--dik
--dila
--din
--dio
--dir
--dis
--dit
--div
--diya
--dl
--dla
--dma
--dna
--do
--dog
--dos
--dov
--dra
--dre
--drick
--ds
--dson
--dt
--du
--dug
--duk
--dur
--dy
--dym
--dz
--dı
--dık
--dılar
--dım
--dın
--dır
--də
--dəki
--dən
--e
--ea
--eau
--eb
--ebilir
--ec
--eca
--ecek
--eck
--ed
--ee
--ef
--eg
--ego
--eht
--ei
--eia
--eim
--ein
--ej
--ek
--eks
--el
--ela
--eld
--eli
--elis
--ell
--ello
--ely
--em
--ems
--en
--ence
--end
--ens
--ent
--eo
--ep
--epe
--eq
--er
--era
--ere
--erg
--eri
--ero
--ers
--eru
--erz
--es
--escu
--ese
--esi
--ess
--est
--et
--eta
--ete
--ets
--ett
--etta
--ette
--etto
--eu
--eus
--ev
--eva
--evic
--evich
--ew
--ewicz
--ewitsch
--ey
--eye
--ez
--f
--fa
--fe
--fer
--ff
--fi
--field
--fikat
--fiya
--fjo
--ft
--fı
--g
--ga
--gan
--gari
--gate
--ge
--ged
--gen
--ger
--gerði
--gg
--ggio
--ggs
--gh
--gi
--gia
--gil
--gin
--gio
--gir
--gis
--giya
--glea
--gna
--gne
--go
--gon
--gos
--grafi
--gs
--gt
--gu
--guc
--gun
--gur
--gus
--gın
--h
--ha
--hagen
--ham
--han
--hc
--he
--head
--hev
--heva
--hi
--hie
--hik
--hin
--hine
--hir
--hire
--hl
--hman
--ho
--hol
--holm
--hom
--hov
--ht
--hti
--hu
--hy
--i
--ia
--ial
--ian
--ias
--ib
--ibe
--ic
--ica
--ice
--ich
--ici
--ick
--icki
--icz
--id
--ida
--ide
--idz
--ie
--iei
--ien
--ier
--ies
--if
--ifi
--ified
--ify
--ig
--igan
--igo
--ih
--ii
--iina
--ija
--ik
--ika
--ike
--ikel
--ikov
--il
--ila
--ill
--ille
--illo
--ilo
--im
--imi
--imiz
--imo
--in
--ina
--inda
--ine
--ines
--info
--ing
--inghe
--inho
--ini
--inin
--ino
--io
--ion
--ior
--ip
--ique
--ir
--ira
--ire
--iro
--is
--isch
--ish
--isha
--isi
--ist
--istan
--iste
--istla
--isto
--it
--ite
--ity
--iu
--ius
--iv
--ive
--ix
--iy
--iya
--iyada
--iyan
--iye
--iyla
--iz
--iza
--ization
--izda
--ize
--ized
--izm
--izma
--j
--ja
--jah
--jak
--jas
--jc
--jdz
--je
--jee
--jevic
--jew
--ji
--jk
--jo
--jow
--ju
--jus
--k
--ka
--kaite
--kan
--kas
--kat
--kaya
--kc
--ke
--kel
--ken
--ker
--kes
--key
--ki
--kie
--kiewicz
--kin
--kis
--kiy
--klar
--kları
--kli
--klı
--ko
--kog
--kon
--kop
--kov
--kow
--kowski
--ks
--kson
--kt
--kta
--ktadır
--ktan
--ktır
--ku
--ky
--kı
--kım
--kıran
--l
--la
--laa
--labilir
--lacek
--lah
--lai
--lama
--lamaa
--lan
--lanan
--lanardı
--land
--lane
--lanmaa
--lanmis
--lann
--lar
--lara
--larda
--lardan
--lari
--larla
--larlan
--larmıs
--larnı
--ları
--ların
--larına
--larında
--larını
--larıyla
--las
--lasın
--lav
--law
--layarak
--lc
--ld
--lda
--ldi
--ldt
--ldu
--ldı
--le
--len
--lendi
--lendig
--ler
--lera
--lerda
--lerdir
--lere
--leri
--lerin
--lerinde
--lerle
--lerni
--les
--lev
--ley
--leyen
--lf
--li
--lia
--lic
--lig
--lii
--liin
--liinda
--liini
--lik
--likla
--likta
--liler
--lim
--lin
--ling
--link
--lio
--lion
--lip
--lir
--lis
--lius
--liya
--liyi
--lj
--lja
--lka
--ll
--lla
--lle
--lli
--llja
--llo
--lly
--lma
--lmaa
--lmadı
--lması
--lmaz
--lme
--lmis
--lmıs
--lns
--lo
--lock
--loo
--lor
--lov
--low
--lp
--ls
--lsın
--lt
--lu
--lug
--luk
--lular
--lup
--luu
--luun
--luunu
--ly
--lya
--lz
--lı
--lıdır
--lıg
--lık
--lıklan
--lıkta
--lılar
--lıların
--lım
--lır
--lıı
--lə
--lən
--lər
--ləri
--m
--ma
--maa
--madı
--madım
--mak
--mamıs
--man
--mans
--ması
--mat
--maz
--mba
--mbe
--mble
--mcı
--mda
--me
--mek
--mel
--mell
--mema
--men
--ment
--mets
--meyca
--meyi
--mez
--mi
--mie
--mik
--mini
--mir
--mis
--miz
--mizda
--mizi
--mlandıg
--mm
--mo
--mov
--mow
--mp
--ms
--mu
--mul
--mus
--my
--mı
--mın
--mına
--mıs
--mız
--mıza
--mızda
--mızdan
--mızı
--mızın
--n
--na
--naa
--nag
--nan
--nar
--nara
--narca
--narda
--narı
--narın
--narına
--narını
--nas
--nay
--nc
--nca
--nce
--nci
--ncı
--nd
--nda
--ndan
--nde
--nden
--nder
--ndi
--ndo
--ndro
--ndı
--ndıg
--ndə
--ne
--neer
--nel
--nels
--nen
--ner
--nera
--neri
--nerin
--nes
--nev
--ng
--ngas
--nge
--nger
--ngham
--ngs
--ngton
--ni
--niemi
--nii
--nik
--nikla
--nim
--nin
--nius
--niya
--niye
--niz
--nj
--nk
--nko
--nlan
--nm
--nmaa
--nmadı
--nmıs
--nn
--nna
--nnan
--nnar
--nner
--no
--now
--ns
--nse
--nsen
--nski
--nt
--nta
--nte
--ntia
--nto
--nu
--nun
--nus
--ny
--nya
--nz
--nza
--nı
--nık
--nın
--nıy
--nız
--nızı
--nıı
--nə
--o
--oa
--oc
--och
--ock
--od
--of
--off
--ofil
--og
--oglu
--ogo
--oh
--oi
--oj
--ok
--ol
--ola
--oli
--olo
--oloji
--olu
--om
--oma
--omb
--ome
--omi
--omo
--on
--ond
--onen
--ong
--ongo
--oni
--onow
--ons
--oo
--ood
--ook
--oon
--op
--or
--ore
--ori
--orologiya
--ors
--oru
--os
--osov
--ost
--osu
--ot
--oti
--otti
--ou
--ough
--oun
--ous
--ov
--ova
--ovic
--ovich
--ovna
--ovski
--ovsky
--ovun
--ow
--owa
--owicz
--owitsch
--owna
--owski
--ox
--oy
--oz
--oza
--p
--pa
--pas
--pc
--pe
--ph
--phy
--pi
--pic
--pie
--pin
--ping
--piy
--ple
--po
--pon
--port
--potstvo
--pova
--pu
--puu
--q
--r
--ra
--rad
--rail
--rajan
--rak
--ran
--rardı
--ras
--rat
--rd
--rda
--rdan
--rdi
--rdo
--rdı
--rdıg
--rdık
--rdılar
--re
--rea
--reich
--ren
--rer
--rg
--rh
--ri
--ria
--rie
--rier
--ries
--rik
--rin
--rit
--riz
--rk
--rla
--rlar
--rle
--rm
--rma
--rmıs
--rn
--rne
--rno
--ro
--rog
--rov
--row
--rp
--rr
--rs
--rsa
--rski
--rt
--ru
--rup
--rus
--ry
--ryn
--rz
--rı
--rın
--rına
--rını
--s
--sa
--sal
--salu
--sam
--san
--sboro
--sburg
--sch
--sche
--scu
--sdale
--se
--see
--sel
--sen
--ser
--sev
--sfield
--sh
--sha
--sham
--shire
--si
--sia
--side
--sik
--sin
--sine
--sini
--siniz
--sio
--sion
--sit
--sive
--siya
--siz
--sk
--ska
--skaya
--ske
--ski
--skiy
--sky
--slav
--sley
--snes
--snoy
--so
--son
--soo
--sou
--sov
--sova
--sow
--soy
--sposten
--ss
--ssa
--sse
--ssky
--sso
--sson
--ssow
--st
--sta
--ste
--sti
--sto
--ston
--stown
--style
--su
--sun
--svi
--sville
--sy
--sya
--syon
--sz
--sı
--sıdır
--sın
--sına
--sında
--sından
--sınnan
--sınnar
--sını
--sının
--sıyla
--sız
--t
--ta
--tad
--tadır
--tain
--tal
--tan
--tar
--tard
--tas
--tası
--tav
--tc
--te
--ted
--tedir
--tein
--tem
--ten
--ter
--tesi
--th
--tha
--thi
--ti
--tic
--tica
--tik
--tika
--tin
--ting
--tion
--tir
--title
--tiv
--tiya
--tka
--tl
--tla
--tlar
--tle
--tli
--tluk
--tlı
--tme
--to
--toc
--tof
--tola
--ton
--tor
--tos
--tov
--tow
--town
--tr
--tra
--tre
--tro
--try
--ts
--tsa
--tsch
--tsk
--tsın
--tt
--tta
--tte
--tti
--ttı
--tu
--tug
--tur
--tvo
--ty
--tyn
--tz
--tza
--tı
--tım
--tın
--tını
--tır
--u
--ua
--ual
--uard
--ub
--uc
--uca
--ud
--ue
--uel
--uer
--ugh
--ugu
--uh
--ui
--uin
--uis
--uk
--uku
--ul
--ula
--ule
--uli
--ult
--um
--uma
--un
--una
--uncu
--und
--unda
--une
--unu
--uo
--up
--ur
--ura
--ure
--urg
--url
--us
--ush
--uskas
--ust
--usz
--ut
--uta
--ute
--uter
--uth
--uu
--ux
--uyor
--uz
--v
--va
--vac
--van
--vat
--vc
--ve
--vee
--vez
--vi
--vic
--vich
--vik
--viki
--vil
--ville
--vin
--vio
--viya
--vo
--vre
--vsky
--vu
--vy
--vya
--w
--wa
--way
--we
--wi
--wick
--wicz
--wig
--win
--wood
--wski
--x
--xa
--xay
--xe
--y
--ya
--yacez
--yah
--yalı
--yalım
--yama
--yan
--yanın
--yaya
--yca
--yd
--ydi
--ydila
--ydim
--ydir
--ydu
--ydı
--ydım
--ydır
--ye
--yektla
--yen
--yer
--yerlar
--yev
--yi
--yim
--yin
--yk
--yka
--ykana
--yken
--yl
--yla
--ylan
--yle
--ylen
--ylov
--ym
--yma
--ymis
--ymıs
--yn
--yna
--ynan
--yo
--yon
--yor
--yr
--ys
--ysa
--yu
--yuk
--yz
--yı
--yım
--yın
--yıp
--yə
--z
--za
--zade
--zan
--zat
--zda
--zdı
--ze
--zek
--zewski
--zi
--zin
--zio
--zki
--zko
--zm
--zmıs
--zo
--zov
--zu
--zuk
--zy
--zzi
--zzo
--zı
--ø
--ı
--ıb
--ıcı
--ıer
--ıg
--ık
--ılan
--ılsın
--ım
--ımdan
--ımı
--ın
--ına
--ında
--ından
--ınlan
--ınnan
--ınnar
--ını
--ının
--ıp
--ıq
--ır
--ıs
--ıstan
--ıy
--ıya
--ıyor
--ız
--ızda
--ızı
--ızın
--ıı
--ław
--ə
--ək
--ən
--ər
--əri
--əsi
--ət
--əyov
--α
--ι
--ο
--ς
--υ
--а
--ан
--ар
--ая
--б
--в
--ва
--ве
--г
--д
--е
--еи
--ет
--з
--и
--ии
--ия
--к
--ка
--ки
--л
--ла
--лар
--м
--н
--нскі
--нь
--о
--ов
--оу
--р
--рт
--ры
--с
--са
--ская
--ские
--сы
--т
--та
--ти
--тика
--ты
--у
--х
--ца
--ш
--ы
--ь
--я
--і
--қ
--ם
--ת
--ا
--ان
--ة
--ت
--د
--ر
--س
--سی
--ع
--م
--ن
--ه
--ى
--ہ
--ی
