!
"
#
##0
##1
##10
##11
##12
##13
##14
##15
##16
##17
##18
##19
##2
##20
##21
##22
##23
##24
##25
##26
##27
##28
##29
##3
##30
##31
##32
##33
##34
##35
##36
##37
##38
##39
##4
##40
##41
##42
##43
##44
##45
##46
##47
##48
##49
##5
##50
##51
##52
##53
##54
##55
##56
##57
##58
##59
##6
##60
##61
##62
##63
##64
##65
##66
##67
##68
##69
##7
##70
##71
##72
##73
##74
##75
##76
##77
##78
##79
##8
##80
##81
##82
##83
##84
##85
##86
##87
##88
##89
##9
##90
##91
##92
##93
##94
##95
##96
##97
##98
##99
$
%
&
'
(
)
*
+
,
-
.
/
0
00
000
0000
0001
0002
0006
0009
001
00166
002
003
003257
004
005
007
009
01
010
011
013
0140
015
0154
017
018
02
020
021
022
0233
025
028
029
03
030
031
035
03610
038
039
04
040
041
043
044
045
046
047
048
05
051
053
054
055
0564
057
06
063
067
07
073
074
075
077
078
08
080
082
085
086
088
089
09
090
092
096
098
1
10
100
1000
10000
1002
1007
101
1016
1017
102
1023
103
1037999
1038
104
104296
10489
105
1050
105943
106
1066
107
108
1080
1086
109
1093
1097
11
110
1100
111
1111
1112503
112
1128893
113
1136
114
1146
115
115080
1157
1158712
116
116120
117
1170
1170623253
1177
118
119
12
120
1200
1201
1209
121
122
1229
123
1234
1239098
124
125
1250
126
127
1271
128
129
13
130
1300
1303
131
132
133
1332
134
135
1357
136
137
1371
13796
138
139
14
140
1400
1409
141
142
1420
143
1431
144
145
1454311
146
1461
147
1471
148
149
15
150
1500
151
1510
1513
152
1525
153
1532
1535
154
1540
155
156
1569
157
1579
158
158663955
159
1596
16
160
1600
161
1615
1619
162
1623
1628
1634
1635
164
1642
165
1654
1655
166
1664
1668
167
168
1680
1682
169
1691
1695
17
170
1700
1701
171
1717
1719
172
1720
173
174
175
1750
1753
176
1761
177
1770
1775
178
1784458558
179
1798
18
180
1800
1803
1804
1808
1809
181
1811
1815
1817
1818
1819
182
1820
1821
1822
1824
1825
1826
1829
183
1830
1831
1832
1833
1834
1835
1836
1839
184
1840
1843
1844
1845
1846
1847
1849
185
1850
1851
1853
1854
1855
1856
1857
1858
1859
186
1860
1861
1863
1866
1867
1868
187
1870
1871
1872
1873
1874
1875
1876
1877
1878
1879
188
1880
1881
1882
18820
1883
1884
1885
1886
1888
1889
189
1891
1892
1894
1895
1896
1898
1899
19
190
1900
1901
1902
1903
1904
1905
1906
1907
1908
1909
191
1910
1911
1912
1913
1914
1915
1916
1917
1918
1919
192
1920
1921
1922
1923
1924
1925
1926
1927
1928
1929
193
1930
1931
1932
1933
1934
1935
1936
1937
1938
1939
194
1940
1941
1942
1943
1944
1945
1946
1947
1948
1949
195
1950
1951
1952
1953
1954
1955
1956
1957
1958
1959
196
1960
19606041
1961
1962
1963
1964
1965
1966
1967
1968
1969
197
1970
1971
1972
1973
1974
1975
1976
1977
1978
1979
198
1980
1981
1982
1983
1984
1985
1986
1987
1988
1989
199
1990
1991
1992
1993
19937
1994
1995
1996
1997
1998
1999
2
20
200
2000
2001
2002
2003
2004
2005
20050428104411
2006
2007
2008
2009
201
2010
2011
2012
2013
20130928042301
2014
2015
2016
2017
20170315085221
20170731040155
2018
201806
2019
202
2020
20200218205234
20200219090455
2021
2022
2023
2025
203
2030
204
2041
205
206
207
208
209
21
210
211
212
2123
213
214
215
216
217
218
219
219897
22
220
221
222
223
224
225
226
229
23
230
2307
232
2324
233
234
235
237
239
239815297
24
240
241
24150487
242
244
245
246
2463
247
2473112
248
249
25
250
2500
251
252
253
254
255
2550
256
257
258
259
26
260
2600
261
262
263
264
265
266
267
268
269
27
270
271
273
275
276
278
279
28
280
2800
281
2829
2829516
283
284
285
286
287
288
289
29
290
291
293
295
2951390106
296
297
299
3
30
300
3000
301
302
303
304
305
306
307
31
310
311
31169
312
31297
313
3132
314
315
316
3166
318
319
32
320
322
323
324
325
3250
326
327
328
32832
329
33
330
331
333
335
336
337
339
34
340
3400
342
344
345
346
349
35
350
351
352
353
3531555
3536
354
355
355076
356
358
359
36
360
361
362
363
365
366
366550
367
368
369
37
370
371
374
3740
375
3761
378
379
38
380
382
384
385
38555356
386
388
389
39
390
391
392
393
395
396
397
398
399
4
40
400
4000
402
4030588
404
405
406
407
408
409
41
410
411
413
4144
415
41624572
418
419
42
420
421
423
4243
425
426
427
428
43
430
431
432
4324
433
434
435
44
440
441
4419
443
444
4445
44481723
445
446
447
448
449
45
450
451
453
454
456
45894
459
46
460
461
463
466
47
470
472
473
474
475
476
477
478
479
48
480
481
483
484
485
486
486053
487
488
49
490
491
493
494
495
498
499
499057
499112
499694
499749
5
50
500
5000
502
503
504
505
5055577
506852
507
51
510
511
512
513
515
519
52
520
521
523
524
528
529
53
530
531
532
533
534
535
536
537
539
54
540
541
544
54529839
546
547
55
550
554
555
556
557
559
56
561
56160
562
563
564
567
568
569
57
570
573
574
578
579
58
580
581
585
59
593
596
5960
6
60
600
601
604192
605
606
61
611
612
614
616
618
619
62
620
622
625
626
628
629
63
630
631
634
636
639
64
640
644
648
65
650
652
657
658
659
66
660
661
667
67
6736
674
675491
678
679
68
680
681
682
686
688
69
690
693
695
696
697
698
7
70
700
701
703
704
705
706
71
712
716
718
72
720
7206
721
722
724
729
7292
73
734
735
737
738
74
742
746
747
7488
75
750
752
753
756
76
762
763
764
766
77
770
772
773
78
780
782
784
785
787
789
79
790
791
794
795
796
797733
8
80
800
8000
801
802
803
804
808
81
812
814
815
816
818
82
820
823
83
830
831
8329849
837
84
843
84788
85
850
852
858
86
860
8600
8601
862
867
869
8691
87
875
876
879
88
880
881
883
888
89
891
8910
892
896
898
899
9
90
900
901
902
905
907
908
9092
91
910
911
914
915
92
921
924
925
929
93
931
934
935
936
937
938
94
940
943
944
945
9467
949
95
950
954
958
959
96
962
97
972
975
976
978
9780195305135
9780199540884
9780314158987
98
986
988
99
990
991
9964
9988
999
:
;
<
=
>
?
@
\
^
_
`
a
aa
aaa
aahye
aamanyɔkuo
aane
aaron
ab
aba
abaa
abaatan
abaawa
abaayewa
ababa
ababaawa
ababio
ababtoɔ
abadeakyire
abadiakyire
abadiakyiri
abadiekyi
abadiekyir
abadiekyire
abadiekyiri
abadwafoɔ
abadwakuo
abae
abagaye
abaguakuo
abah
abakan
abakosem
abakosɛm
abakwasɛm
abakɔs
abakɔsem
abakɔsɛm
abakɔsɛmu
abam
abambila
abammɔfoɔ
aban
abanda
abandze
abankɛse
abankɛseɛ
abannennen
abanoma
abansoro
abantenten
abantuguo
abara
abarimaa
abasa
abaso
abasobo
abasobode
abasobɔ
abasobɔde
abasobɔdeɛ
abasobɔdiɛ
abass
abata
abato
abatoo
abatow
abatoɔ
abawo
abayewa
abayifo
abayisɛm
abbam
abban
abbasid
abbey
abbeymbaidoo
abbr
abbrem
abbreviated
abbreviation
abbreviations
abc
abd
abdallah
abdel
abdominal
abdul
abdulai
abdullah
abe
abeawa
abediakyire
abedu
abeiku
abekah
abelema
aben
abena
abenfo
abenfoɔ
abenkwan
aber
abera
aberante
aberanteɛ
abere
aberɛ
abetiase
abetifi
abi
abibere
abibi
abibifahodie
abibifo
abibifoɔ
abibiman
abibinnuro
abibire
abibirem
abibiremfoɔ
abibiremu
abibirim
abibrem
abien
abiesa
abigail
ability
abim
abingya
abira
abirem
abiriw
abiriwfoɔ
abisa
abiɛsa
ablade
ablakwa
able
ablekuma
abo
aboa
aboaboa
aboabogya
aboadeɛ
aboafo
aboafoɔ
aboagye
aboagyewaa
aboah
aboakyer
aboakyere
aboatoɔ
aboba
aboboano
abobɔ
abodakpi
abodan
abodeɛ
abodin
abodwokyɛre
abofra
abokobi
abokomah
abokyirman
abolimbisa
abolished
abom
abomu
abon
abonten
aborigines
aboro
aborofo
abortion
aborɔfo
aborɔnoma
abosom
abosome
abosomfie
abosonnan
abosonsomfoɔ
abotan
abotoɔ
abotsi
abotɔyam
about
above
abovestyle
aboɔ
aboɔden
abr
abra
abrab
abrabo
abrabɔ
abraham
abrannaa
abranteɛ
abrantie
abre
abrebiara
abrefa
abrem
abroad
abrofo
abrokyiman
abrokyire
abrokyireman
abrosan
abrɔfo
abrɛ
abs
abscess
absent
absentia
absolutely
abstract
abtoɔ
abu
abuadeɛ
abuakwa
abuasua
abubakar
abubakari
abubu
abudu
abue
abufuo
abufuw
abuga
abuko
abunabun
abunu
abunuabunu
abupɛn
abura
aburi
aburo
aburokyi
aburokyiman
aburokyire
aburokyiri
aburoo
aburosam
aburow
abusakuo
abusua
abusuabɔ
abusuadin
abusuafo
abusuafoɔ
abusuakuo
abusuakuw
abusuani
abusuapanin
abɔ
abɔde
abɔdeɛ
abɔdeɛmu
abɔdin
abɔdini
abɔfra
abɔm
abɔmmɔ
abɔmmɔfo
abɔmmɔfoɔ
abɔmu
abɔnten
abɔntene
abɔseɛ
abɔten
abɔtene
abɛ
abɛbuo
abɛdeakyire
abɛdi
abɛdiakyire
abɛfo
abɛhia
abɛka
abɛn
abɛnkwan
abɛrima
abɛrimaa
abɛsiriwa
abɛtena
abɛyɛ
abɛɛfo
abɛɛforo
abɛɛfro
ac
acacia
acacias
acacus
academic
academies
academy
acaraje
accademy
accelerator
accept
accepted
accepts
access
accessed
accessibility
accessible
accident
accommodation
accomplished
accordance
according
account
accountant
accountants
accounting
accra
accumulation
accuracy
accurate
accurately
ace
achaemenid
acheampon
acheampong
achiase
achieve
achievement
achimota
acid
acidosis
acids
ackah
ackam
ackon
acp
acquah
acre
acres
acronym
across
act
acta
acting
action
activate
active
activist
activities
activity
actor
actress
acts
actual
actually
acute
ad
ada
adabor
adabraka
adadafoɔ
adaduanan
adae
adaekɛse
adaka
adaklu
adam
adama
adamafio
adamfo
adamfofa
adamfoɔ
adamoa
adams
adamu
adan
adane
adangbe
adangbefo
adangme
adangmefo
adannandi
adanse
adansedi
adansedie
adansefo
adansefoɔ
adanseɛ
adansi
adansidie
adansie
adansifoɔ
adansiɛ
adantam
adanwomase
adapɛn
adare
adass
add
adda
addae
addai
added
adding
addis
addition
additional
addo
addombaidoo
addos
address
adds
addy
ade
adea
adebɔ
adedie
adedifo
adefoɔ
adehye
adehyeman
adehyeɛ
adekorɔ
adekyere
adekyerɛ
adekyerɛfo
adelaide
adeline
ademude
aden
adenta
adepa
adepam
adepamfo
adepamfoɔ
adepamni
adesamma
adesoa
adesre
adesrɛ
adesrɛde
adesrɛdeɛ
adesua
adesuabea
adesuadan
adesuafo
adesuafoɔ
adesuakuo
adesuani
adetɔ
adetɔfoɔ
adetɔn
adetɔnbea
adetɔnfo
adeyeman
adeyemi
adeyɛ
adeɛ
adgiss
adhd
adi
adidi
adidibea
adidie
adidisoɔ
adii
adikan
adikanfo
adikanfoɔ
adiku
adina
adinkra
adinkrahene
adio
adisadel
adiyisɛm
adj
adjacent
adjaho
adjapong
adjaye
adjectival
adjective
adjei
adjetey
adjoa
adjorlolo
adjudged
adjust
admin
administered
administration
administrative
administrator
administrators
admiral
admissions
adnan
adoagyiri
adoe
adofo
adolescent
adom
adoma
adomako
adomonline
adongo
adoni
adoption
adorable
adotey
adowa
adr
adrdaily
adriatic
adu
adua
aduaba
aduadjoe
aduadu
aduan
aduana
aduanan
aduane
aduannan
aduannuru
aduanum
aduasa
aduasia
aduawotwe
adubea
aduisia
adukrom
aduku
adukwei
adult
adults
adum
adumakuo
aduna
adunkron
aduo
aduokono
aduokr
aduokron
aduonan
aduonkron
aduonson
aduonu
aduonum
aduonun
aduonwɔtwe
aduos
aduosa
aduosia
aduoson
aduosɔn
aduowɔtwe
aduro
aduru
aduruyɛ
adusa
adusei
aduɔkron
aduɔson
advance
advanced
advances
adventist
adventure
adventures
advice
advised
advisor
advisory
advocacy
advocates
adwa
adwabɔ
adwadie
adwadifoɔ
adwareɛ
adwe
adwen
adwene
adwenekorɔ
adwenem
adwenemhaw
adwenemyare
adweninie
adwenkyerɛ
adwennwen
adwensakyera
adwini
adwinnade
adwinneɛ
adwinni
adwo
adwoa
adwomtofoɔ
adwum
adwuma
adwumaa
adwumabea
adwumaden
adwumaeɛ
adwumafoɔ
adwumakuo
adwumakuw
adwumam
adwumasɛm
adwumawura
adwumawuranom
adwumayeni
adwumayɔ
adwumayɛ
adwumayɛbea
adwumayɛfo
adwumayɛfoɔ
adwumayɛkuo
adwumayɛni
adwumayɛnii
adwumfo
adwumkuo
adɔ
adɔe
adɔfoɔ
adɔma
adɔmmarima
adɔyɛ
adɔɔso
ae
aec
aerial
aerodrome
aerospace
af
afa
afaafa
afaana
afadeɛ
afadja
afadjato
afadzato
afahy
afahye
afahyeɛ
afahyia
afahyɛ
afam
afanaa
afanan
afar
afari
afasu
afasuo
afcon
afdb
afe
afebɔɔ
afede
afedi
afeha
afehyia
afehyɛ
afei
afeku
afena
afenyi
afera
afeɛ
affairs
affiliated
afful
afghanistan
afi
afia
afiase
afidie
afie
afiease
afieboa
afiese
afiesɛm
afieye
afifide
afifideɛ
afigya
afii
afiri
afirim
afisem
afisɛm
aflao
afoa
afofor
afoforo
afoforɔ
afofro
afoko
afoofida
afore
afotu
afotufoɔ
afra
afrafra
afram
afranfrantɔ
afrc
afri
africa
africamuseum
african
africanelections
africanews
africans
africanus
africas
afrifa
afrika
afrikafo
afrikafoɔ
afrikani
afrique
afriyie
afro
afropedea
afrɛ
after
afu
afua
afunu
afuo
afuom
afutufoɔ
afutuo
afuw
afɔ
afɔre
afɛdɛ
afɛfoɔ
ag
aga
agag
again
against
agbadza
agbeli
agbenaza
agbenu
agbenyo
agbeve
agbo
agbodza
agbotse
agbotui
agbozume
age
aged
agencies
agency
agenda
agent
agents
ages
aggrey
agnes
ago
agodi
agodibea
agodie
agodifo
agodifoɔ
agofomma
agog
agogo
agokansi
agokansie
agona
agonno
agoprama
agopramma
agoro
agoru
agoruyɛfo
agorɔ
agotime
agri
agribusiness
agric
agricultural
agriculture
agriculturist
agrigento
agu
agua
aguadi
aguadibea
aguadidan
aguadifo
aguanfo
aguanfoɔ
aguaree
agudeɛ
agudie
aguila
agumadi
agumadibea
agumadifo
agumatsa
agya
agyadeɛ
agyae
agyan
agyanan
agyananbea
agyanka
agyanom
agyapade
agyapadeɛ
agyapong
agyare
agyarko
agyayɛ
agye
agyede
agyedin
agyei
agyekum
agyeman
agyemang
agyemfra
agyen
agyene
agyenkwa
agyentina
agyepong
agyidifoɔ
agyina
agyinae
agyinaeɛ
agyinamoa
agyinapɛn
agyinasie
agyinatufoɔ
agyinatukuo
agyirae
agyiraehyɛde
ah
aha
ahaanu
ahaasa
ahabammono
ahaban
ahabanmono
ahafo
ahafofoɔ
ahafoman
ahahan
ahahannuro
ahakron
ahaligah
ahama
ahan
ahanan
ahankono
ahankro
ahankron
ahankrɔn
ahannsia
ahannson
ahannum
ahannwɔte
ahannwɔtwe
ahans
ahansia
ahanson
ahanta
ahantafoɔ
ahantaman
ahantan
ahanu
ahanum
ahanwɔtwe
ahasa
ahasia
ahason
ahaw
ahawɔtwe
ahayɔ
ahead
aheman
ahemfie
ahemfo
ahemman
ahempɔn
ahenan
ahenasa
ahene
ahenefo
ahenfie
ahenfo
ahengua
ahenie
ahenkorah
ahenkoro
ahenkro
ahenkron
ahenkuro
ahenkurow
ahenni
ahennie
ahensia
ahenson
ahenum
ahenwa
ahenwɔtwe
aheto
ahi
ahia
ahiable
ahiade
ahiadeɛ
ahiafo
ahiafoɔ
ahinanan
ahinime
ahintasɛm
ahmadiyya
ahmed
aho
ahobambɔ
ahobamm
ahobammɔ
ahobanbo
ahobanbɔ
ahoboa
ahobrɛase
ahodeɛ
ahodo
ahodow
ahodoɔ
ahodoɔhttps
ahodwiriw
ahofadi
ahofadie
ahofama
ahohoahoa
ahohoro
ahohoɔ
ahohuru
ahokafo
ahokeka
ahokokwaw
ahoma
ahomaso
ahome
ahomegye
ahomegyebea
ahomegyeɛ
ahomeka
ahonhon
ahoni
ahonidie
ahono
ahonyade
ahoro
ahorow
ahoroɔ
ahorsey
ahorɔw
ahosiesie
ahosodie
ahosohwɛ
ahosuo
ahotoso
ahotɔ
ahotɛ
ahoyera
ahoɔden
ahoɔdenfoɔ
ahoɔhare
ahoɔhene
ahoɔyaw
ahrawa
ahu
ahum
ahunahuna
ahunmu
ahunu
ahuoden
ahuru
ahurututu
ahwe
ahwease
ahwehwɛ
ahwehwɛde
ahwehwɛfoɔ
ahwehwɛkwan
ahwerase
ahwere
ahwoi
ahwɛ
ahwɛfo
ahwɛfoɔ
ahwɛgorɔ
ahwɛsofoɔ
ahyaseɛ
ahye
ahyea
ahyease
ahyeaseɛ
ahyehy
ahyehyɛ
ahyehyɛde
ahyehyɛdeɛ
ahyensode
ahyensodeɛ
ahyensoɔ
ahyeseɛ
ahyeta
ahyeɛ
ahyeɛso
ahyia
ahyiam
ahyira
ahyɛ
ahyɛase
ahyɛaseɛ
ahyɛasiɛ
ahyɛde
ahyɛdeɛ
ahyɛmma
ahyɛn
ahyɛnkafo
ahyɛnso
ahyɛnsode
ahyɛnsodeɛ
ahyɛseɛ
ahɔho
ahɔhodan
ahɔhoɔ
ai
aic
aid
aidan
aidoo
aidooh
aids
aim
aime
air
airborne
aircraft
aires
airline
airlines
airport
airways
aisha
aiti
aj
ajabu
ajuma
ajumako
ak
aka
akaadom
akademi
akadeɛ
akagshs
akake
akan
akanda
akandie
akandifo
akandifoɔ
akane
akanee
akanfo
akanfoɔ
akanman
akanni
akannifo
akannifoɔ
akansi
akansie
akansifoɔ
akantagriwen
akanyan
akara
akasa
akasafidie
akasakasa
akasam
akata
akatasoɔ
akatoa
akatsi
akatua
akayida
akeka
akekaduro
akekan
akenkan
akenten
akeseɛ
akim
akira
akiri
akisikuru
akita
akkad
ako
akoben
akode
akodeɛ
akodi
akodie
akodifo
akodu
akofo
akofoɔ
akokoaa
akokoduro
akokoɔduro
akokwaw
akokɔ
akokɔsrade
akokɔsradeɛ
akologu
akoma
akomea
akomia
akondwa
akoneaba
akongua
akonnwa
akono
akonta
akontaa
akontaabu
akontabuo
akontombra
akonwa
akonya
akoo
akora
akorade
akorae
akoraeɛ
akorafoɔ
akorankorɛ
akorli
akorow
akorɔpaman
akosi
akosombo
akosua
akotene
akoto
akotombra
akpaloo
akple
akplɛ
akpu
akra
akraman
akristofoɔ
akrofuom
akrokerri
akron
akropong
akroso
akrɔn
aku
akua
akuafo
akuafoɔ
akuambaidoo
akuapem
akuapemcf
akuapemfoɔ
akuapim
akuaser
akuerter
akuffo
akufo
akukudam
akum
akumaa
akunafoɔ
akunini
akuo
akuoko
akuokuo
akura
akuraa
akurase
akuru
akuse
akutrukuboni
akutu
akuturukubɔfoɔ
akuw
akuwakuw
akwaa
akwaaba
akwadaa
akwadere
akwahosan
akwakoraa
akwamma
akwampaefo
akwamu
akwan
akwanhosan
akwanhyia
akwankyerɛ
akwankyerɛfo
akwanmisa
akwannya
akwanside
akwansideɛ
akwansin
akwantempɔn
akwantu
akwantufo
akwantufoɔ
akwantuo
akwantusɛm
akwantutenten
akwanya
akwapim
akwasi
akwasidae
akwatia
akweley
akwetey
akwu
aky
akye
akyea
akyeampong
akyekye
akyekyere
akyekyɛ
akyekyɛmu
akyem
akyemansa
akyemfo
akyemfoɔ
akyene
akyer
akyere
akyerepɔ
akyerɛ
akyerɛkyerɛ
akyerɛkyerɛfo
akyerɛkyerɛfoɔ
akyerɛw
akyerɛwfo
akyi
akyia
akyidifoɔ
akyimɔta
akyinnye
akyinnyegye
akyinnyeɛ
akyir
akyire
akyirei
akyirepɔ
akyirepɔn
akyiri
akyirikyiri
akyiripo
akyiripɔ
akyiripɔn
akyiripɔw
akyirpɔw
akyitaafoɔ
akyiwadeɛ
akyɛ
akyɛdeɛ
akyɛm
akɔ
akɔda
akɔfa
akɔgu
akɔhwɛ
akɔkora
akɔma
akɔmfoɔ
akɔneaba
akɔnhoma
akɔnnwa
akɔnnɔ
akɔpɛ
akɔre
akɔsi
akɔso
akɔsra
akɔtena
akɔtene
akɔtɔ
akɔyɛ
akɛse
akɛseɛ
al
alabama
alabi
alan
alarm
alata
alban
albania
albanian
albert
alberta
albertine
alberto
album
albums
alcohol
aldabra
ale
aleppo
alert
alex
alexander
alexandra
alexandria
alexandrina
alexei
alfred
alger
algeria
algiers
algore
alhaji
alhassan
ali
alias
aliases
alice
alidu
aliedong
align
alignbars
alignment
aligns
alima
aliu
aljazeera
alkayida
all
alla
allafrica
allah
allan
allegedly
allegiance
allela
allen
allergic
allergy
alliance
allied
allmusic
alloco
allotey
allow
allowed
allowing
allows
allure
alma
almeri
almohad
almoravids
almost
alone
along
alongside
alorwu
alpes
alpha
alphabet
alpine
already
als
also
alt
alter
alternate
alternative
alternatively
although
altitude
alto
altogether
alumni
always
alɔyafoɔ
am
ama
amaadi
amaaman
amadu
amajlija
amakye
amaman
amambuo
amamere
amamerɛ
amamfo
amammara
amammere
amammerɛ
amammra
amammrɛ
amammui
amammuifo
amammuisɛm
amammuo
amamoma
amamoo
amampanyimfo
amamuo
aman
amanaman
amanbuo
amanda
amane
amanebɔ
amanehunu
amaneɛ
amaneɛbɔ
amanfi
amanfo
amanfoɔ
amanfrafoɔ
amanfro
amanfrom
amanfuo
amaniampong
amankani
amankona
amankwa
amankwaa
amankwah
amanman
amanmanmu
amanmara
amanmerɛ
amanmmara
amanmpaninfoɔ
amanmuo
amanne
amanneɛ
amanneɛbɔ
amanneɛbɔfo
amannyɔ
amannyɔkuo
amannyɔkuoba
amannɔne
amanone
amanpanin
amanpaninfoɔ
amanpanyinfoɔ
amansan
amansie
amansin
amansɛm
amantam
amantin
amanyokuo
amanyoni
amanyosem
amanyosɛm
amanyɔ
amanyɔfo
amanyɔfoɔ
amanyɔkuo
amanyɔkuoni
amanyɔkuw
amanyɔni
amanyɔnii
amanyɔnni
amanyɔnsɛm
amanyɔs
amanyɔsem
amanyɔsɛm
amanyɛkuo
amanyɛsɛm
amanɔne
amare
amarna
amartey
amasaman
amayɔkuo
amayɔni
amayɔsem
amazing
amazon
amba
ambassador
ambassadors
amber
ambrose
ame
amedume
amegashie
ameh
amemene
amen
amena
amendment
amene
amenfi
amenowode
amenya
amer
ameria
america
american
americanrhetoric
americas
amerika
amerikafo
amerikafoɔ
amerikani
amerley
ameyaw
amfa
amfo
amhara
amharic
amidu
amihere
amin
aminia
aminu
amissah
amma
ammamere
ammamerɛ
ammamuo
ammaneɛ
ammu
amnyoni
amnyɔkuo
amnyɔkuw
amnyɔni
amnyɔsɛm
amoa
amoah
amoako
amoaniwaa
amoateng
amon
among
amono
amoo
amos
amount
amp
ampa
ampah
ampan
ampaw
ampem
ampene
ampere
ampesi
ampofo
amponsa
amponsah
amponsem
amrado
amsterdam
amu
amua
amugi
amusiei
amy
amɛrika
an
ana
anaa
anaafi
anaafo
anaafoepueɛ
anaafoɔ
anaafoɔatɔeɛ
anaafoɔfam
anaamusini
anaasɛ
anabah
anadwo
anaesthesia
anafo
anafoo
anafoɔ
anal
analysis
anam
anammɔn
anamoah
anamon
anamontuo
anamsifoɔ
anamsini
anamsinii
anamu
anamusifoɔ
anamusini
anamɔn
anamɔnsini
anamɔntuo
anan
anana
anane
ananmu
ananmusi
ananmusifo
ananmusifoɔ
ananmusini
ananmusinii
ananse
anansesɛm
anantwi
anantwie
anantwinini
anato
anatomy
anbar
anche
anchor
ancient
and
andah
andam
anderson
andoh
andorra
andrae
andre
andrew
andrews
ane
anemia
aneurysm
anfa
angel
angela
angeles
angelina
angelis
angelo
angels
angiogenesis
anglican
anglo
anglofoɔ
ango
angola
angwa
angye
angyina
anhu
anhwea
anhweatam
anhwiaso
anhwɛ
anhyɛ
ani
anibere
anibiannaso
anibue
anibuei
anidaso
anidasoɔ
anidie
anifere
anifra
anifurae
anigye
anigyebea
anigyede
anigyedeɛ
anigyee
anigyeɛ
anigyie
anika
anim
anima
animal
animalia
animated
animdefo
animdefoɔ
animhwɛ
animtew
animtia
animtiaabu
animuonyam
animuonyamhyede
animuonyamhyɛ
anin
anini
anismus
aniso
anisoadehu
anisoadehunu
anita
aniwa
anka
ankaatwɛdeɛ
ankara
ankasa
ankasaa
ankasaankasambaidoo
ankobra
ankoma
ankomah
ankonamyɛ
ankoranko
ankorankoreɛ
ankorankoro
ankorankorɛ
ankoreankore
ankorɛ
ankorɛankorɛ
ankorɛnkorɛ
ankra
ankrah
anky
ankyerɛ
ankyɛ
ankɔ
anleu
anlo
anlofo
anlofoɔ
anna
annan
anne
annex
anni
anniversary
annkɔ
annor
announces
annual
annya
annye
annyina
annyɛ
ano
anoa
anoano
anoboaboa
anohyeto
anokwan
anokye
anom
anomaa
anomabo
anonneɛ
anononeɛ
anosiw
another
anoyie
anquandah
ans
ansa
ansaa
ansaana
ansah
ansahmbaidoo
ansan
ansana
anse
ansesa
ansi
anso
antalya
antarctica
ante
antelope
antena
anthem
anther
anthony
anthropology
anti
antia
antibiotics
antie
antihistamines
antioch
antiquities
anto
antoa
antom
anton
antonio
antu
antumi
antwi
antwiaa
anuafoɔ
anuanom
anuka
anum
anuonyam
anuonyamfo
anvil
anvur
anwa
anwea
anwene
anwensɛm
anwie
anwona
anwonsɛm
anwumerɛ
anwummere
anwummerɛ
any
anya
anyaa
anyame
anyanui
anyimadu
anyin
anyinam
anyinasuso
anyini
anyinsɛn
anyoa
anything
anyɛ
anɔ
anɔpa
aohdq
aortic
aowin
ap
apa
apaa
apaadie
apaawa
apae
apakan
apakyɛw
apaloo
apam
apamfo
apamfoɔ
apast
apata
apatampa
apau
apaw
apawa
apayɛ
apc
apem
apemfoɔ
apene
apenfo
apete
apeui
apewosika
apira
apirakuru
apofofo
apolisefoɔ
apolisifo
apolisifoɔ
apollo
apomasu
apomuden
apon
aponkye
aponkyibaa
apoo
apoptosis
aporɔ
aporɔbɔ
apostle
apostolic
app
appeal
appeals
appear
appearance
appears
appellate
appendicitis
appia
appiah
applicable
application
applications
applied
applies
apply
appointed
appointer
appointment
appointments
appoints
appoo
approach
appropriate
approved
apps
apraku
aprapransa
april
apue
apueeɛ
apueeɛfam
apuei
apueɛ
apuiɛ
apul
apɔ
apɔmuden
apɔnkɔ
apɔw
apɔwmuden
apɛ
apɛde
apɛdeɛ
aqs
aqsa
aquarium
aquinas
ar
ara
araa
arab
araba
arabfo
arabfoɔ
arabia
arabic
aram
aramaic
arbitrary
arbitration
arc
arch
archaeological
archaeology
archbishop
archery
archibald
architect
architectural
architecture
architettura
archive
archived
archives
archrival
arctic
arden
are
area
areas
arena
argentina
argument
arguments
arhin
arif
arishima
aristippus
aristotle
arizona
arkansas
arko
arku
armah
armed
armenia
armenian
arms
army
arnold
around
arrested
arrive
arsenal
art
artemisinin
artery
arthritis
arthur
article
articles
articleshow
artikel
artillery
artist
artiste
artists
arts
artwork
aruna
arxiv
aryee
aryeetey
as
asa
asaabo
asaana
asaase
asaasepɔn
asaasetam
asaawa
asae
asafo
asafotu
asafotufiam
asafotufiami
asafoɔ
asaga
asakra
asamang
asamankese
asamoah
asan
asane
asanka
asante
asantechief
asantefo
asantefoo
asantefoɔ
asantehene
asanteman
asanteni
asantewaa
asanti
asare
asase
asasepɔn
asasesin
asasetam
asasetaw
asasewosow
asau
asaw
asawase
asawinso
asbestos
asbox
ase
asebu
aseda
asefo
asefoɔ
asehttp
asehttps
asehwe
asei
aseidu
asekyerɛ
asem
asemfua
asen
asendibea
asene
aseni
asennibea
asensene
asenso
aserafoɔ
aseresɛm
asesa
asese
asessori
asetena
asetenam
asetra
asetram
asetɔre
asew
aseɛ
ash
ashaiman
ashanku
ashante
ashanti
asher
ashesi
ashford
ashiaman
ashietey
ashitey
ashley
ashong
asi
asia
asiam
asiama
asiamah
asiane
asibon
asie
asiedu
asiesie
asihene
asikafoɔ
asikre
asikreyare
asikuma
asikyire
asikyireyareɛ
asin
asiria
asiriafo
asisi
asiw
ask
askia
asma
asmah
asme
aso
asoaeɛ
asoafo
asoafoɔ
asodi
asodie
asoe
asoeɛ
asogyafo
asogyafoɔ
asokore
asokwa
asom
asoma
asomafo
asomafoɔ
asomdwe
asomdwee
asomdwoe
asomdwoeɛ
asomfo
asomfoɔ
ason
asono
asonse
asopiti
asore
asorɔkye
asotwe
asotweɛ
asow
asoɛ
asoɛe
asoɛeɛ
asp
aspen
aspirin
aspx
aspxhttps
asra
asraadɔmkuo
asraafo
asraafodɔm
asraafoɔ
asrafo
asrafoɔ
asram
assas
assemblies
assembly
assesseur
assessment
assessors
assigned
assin
assistant
associate
associated
associates
association
associations
assomada
assuman
assume
assur
assyria
assyriafoɔ
asterisk
asterisks
aston
asu
asua
asuade
asuaeɛ
asuafo
asuafoɔ
asuapɔn
asuasua
asuayɛ
asubonten
asubura
asubɔ
asubɔnten
asubɔntene
asuc
asukuu
asukuufo
asukuufoɔ
asukɔnkɔn
asumah
asumda
asunafo
asuo
asuogyaman
asuten
asutifi
asutii
asyig
asylum
asylvfg
asymptomatic
asyria
asɔ
asɔfo
asɔfoɔ
asɔn
asɔre
asɔreba
asɔredan
asɔrefie
asɔremma
asɔretiafoɔ
asɛ
asɛdeɛ
asɛe
asɛm
asɛmdibea
asɛmdibia
asɛmdifoɔ
asɛmfua
asɛmmisa
asɛmpa
asɛmpatrɛ
asɛmti
asɛndibea
asɛnka
asɛnni
asɛnnibea
asɛnnua
asɛyɛde
at
ata
ataa
ataade
ataadeɛ
ataboadey
atadeɛ
atakora
atalante
atamfo
atanfo
atare
ataredeɛ
ate
ateasefo
ateasefoɔ
atebubu
ateetee
atemmu
atemmufo
atemmufoɔ
atemmuo
atena
atenae
atenaeɛ
atenatofo
atene
atenetene
atenka
atenten
atere
aterɛ
atese
atesɛm
atete
ateteng
atetesɛm
atew
athens
athlete
athletes
athletic
athletics
ati
atia
atif
atifi
atifiatɔeɛ
atifido
atififam
atii
atintim
atip
atipae
atipɛnfo
atiridi
atiridii
atiridiinini
atirimpɔ
atirimpɔw
atiriw
atitire
atitirefoɔ
atitirew
atitiriw
atitiriwfoɔ
atiwa
atl
atlanta
atlantic
atlas
atle
ato
atoa
atoatoa
atoe
atoeɛ
atoke
atoko
atokoɔ
atoll
atom
atome
atomic
atoms
atomu
atopae
atopic
atoro
atosodeɛ
atosɛm
atoto
atoyerɛnkyɛm
atra
atrae
atraeɛ
atrikpui
atrɛ
atrɛw
atsinanana
atta
attachment
attack
attah
attempts
attemukuo
attended
atti
attipoe
attor
attorney
attraction
attractions
attribute
attributes
atu
atua
atuatew
atuatewfo
atuateɛ
atubiga
atubra
atubrafo
atubrafoɔ
atubraman
atuduro
atuhoakyɛ
atukɔfo
atukɔfoɔ
atukɔtena
atukɔtenafoɔ
atum
atumfoɔ
atumi
atumpɔn
atuo
atutena
atutu
atutuw
atuukwan
atwa
atwam
atwe
atwedeɛ
atwene
atwerɛ
atwerɛdeɛ
atwerɛfoɔ
atwerɛsɛm
atwerɛtwerɛ
atwerɛtwerɛfoɔ
atwerɛwsɛm
atwima
atɔ
atɔe
atɔei
atɔeɛ
atɔeɛfam
atɔn
atɔre
atɔsodeɛ
atɔɛ
atɛkyɛ
atɛmmuafoɔ
atɛmmuo
atɛn
atɛnmuafo
atɛnmuafoɔ
atɛntenenee
atɛntrenee
au
aubyn
audio
audios
auf
aufenthg
august
augusta
augustine
augustus
aunt
aureus
aus
austin
australia
australian
austria
austrian
author
authority
authorized
authors
autism
auto
autocannon
autocollapse
automated
automatic
automatically
automobile
autostrada
autovalue
aux
auxerre
available
avance
avatime
ave
avenge
avenor
avenue
average
aviation
aviv
avoid
avoided
avoka
avuncular
aw
award
awarded
awards
aware
awaree
awarefo
awarefoɔ
awaregyae
awareɛ
away
awer
aweredi
awereho
awerɛhosɛm
awerɛhow
awerɛhoɔ
awerɛhyɛmu
awerɛkyekye
awia
awiabere
awiase
awie
awieeɛ
awiei
awieyɛ
awieɛ
awindor
awini
awo
awoda
awode
awodeɛ
awofo
awofoyɛ
awofoɔ
awogyefo
awoo
aworoeɛ
awosu
awotwaa
awotwe
awoɔ
awu
awua
awuah
awubia
awudie
awuduru
awufoɔ
awukugua
awulley
awuni
awuo
awura
awuraa
awuraayɛ
awurade
awuranom
awutu
awutufoɔ
awuwu
awɔ
awɔw
axim
ay
aya
ayaase
ayam
ayamdeɛ
ayamtim
ayamtu
ayamtuo
ayarasabea
ayare
ayarefo
ayarefoɔ
ayarehwɛ
ayaresa
ayaresabea
ayaresadwumamu
ayaresafoɔ
ayariga
ayawaso
ayayade
aye
ayeebo
ayeforohyia
ayeforɔ
ayeh
ayele
ayelebie
ayensu
ayensuano
ayera
ayerye
ayesɛm
ayi
ayie
ayigbefo
ayigbefoɔ
ayikoi
ayim
ayirebi
ayiri
ayisi
ayitey
ayiyɔ
ayiyɛ
ayonkofa
ayorkor
ayow
ayoyo
ayt
ayuo
ayɔkofa
ayɔnkofa
ayɔnkofoɔ
ayɛ
ayɛsɛm
ayɛwohommumɔ
ayɛwohomummɔ
ayɛwohomumo
ayɛwohomumu
ayɛwohomumɔ
ayɛwohummumɔ
az
azampaka
azantilow
azeite
azerbaijan
azimbe
azong
azonto
azuma
azumah
azume
azusa
aɪ
b
ba
baa
baabi
baabia
baabiara
baaeɛ
baafi
baage
baah
baako
baakopɛ
baakoy
baanan
baanodani
baanu
baanum
baasa
baasakoro
baasere
baasonkuo
baatan
bab
baba
babaa
babalami
babarima
babaso
babatu
babea
babia
babies
babilon
baboon
baby
babylon
bachelor
back
background
bacteria
bad
badiu
badu
badwa
badwafie
badwakuo
badwam
badwamu
badwani
bae
baeɛ
bafan
baffoe
baffour
baga
bagamoyo
bagbin
baghdad
bagme
bagri
bags
bagua
baguafo
baguakuo
baguam
baguamuni
baguani
bahamas
bahi
bahia
bai
baianas
baiden
baidoe
baidoo
bailiffs
baka
bakatue
bakau
baker
bako
bakoo
bakpa
baku
bakyela
balado
baldwin
balkan
balko
ball
ballet
balls
balme
baloroo
balsam
baltimore
bambah
bamboi
bamboo
bambɔ
bamf
bamford
bamm
bammɔ
bampo
bampoe
bampoh
ban
banana
banbo
banbofo
banbɔ
banbɔfo
band
banda
bands
banga
bangkok
bangladesh
baning
banjul
bank
banker
banking
bankruptcy
banku
bankuta
bankye
banovci
bantama
bantu
banyen
baobab
baptist
bar
bara
barack
barbara
barber
barbet
barbslady
barcelona
barclays
barikisu
barima
barimah
barleti
barnabas
baron
baroque
barr
barra
barrel
barrister
barry
bartels
basa
basaa
basabasa
basabasayɛ
base
baseball
based
basel
basestyle
bashir
basic
basil
basilica
basin
basing
basket
basketball
baskin
baslide
basoah
basque
bassano
basse
bat
bata
batakari
batch
batesimah
bath
baths
batn
batoɔ
battir
battle
battles
bawa
bawambaidoo
bawiine
bawku
bawumia
bay
bayel
bayer
bayere
bayerɛ
bayifoɔ
bayirga
bayon
bayor
bazaar
bb
bba
bbc
bc
bce
bd
be
bea
beach
beaches
beae
beaeɛ
bearers
beat
beatles
beatrice
beats
beautiful
beautifulghana
beauty
beaɛ
bebere
beberee
bebiree
beboa
bebree
bec
became
because
beccaria
bechem
become
becomes
bedi
bediako
bediakyire
bedii
bedouinfo
bedroom
bedwa
bedwani
bee
been
beer
before
began
begin
beginning
begins
begoro
begua
beguakuo
beguani
begye
begyina
behaves
behavior
behaviors
behaviour
behia
behiae
behind
beho
behu
bei
beijing
being
beka
bekoe
bekum
bekwai
bekwais
bel
belarus
belarusian
belfast
belgian
belgium
belgrade
belief
believe
bell
belle
bello
below
belowstyle
belt
ben
benada
benard
bench
benedicta
benefit
benefits
benin
benita
benjamin
benkum
benkyi
bentil
benya
benyaa
benyiwa
benz
beogradska
beovizija
beposo
beppe
bepɔ
bepɔw
ber
berber
bere
berea
berebuw
bereku
berekum
beringei
berlin
berliner
berlusconi
bernard
bernardo
bernice
bernie
berry
bert
berɛ
berɛmo
berɛmu
bes
besease
besi
besie
besiesie
besii
best
bet
beta
betar
beth
better
betty
betu
betua
betumi
betway
between
beverage
bevoelkerungsstatistik
bewadze
bey
beye
beyee
beyi
beyonce
beyond
beyɛ
beyɛɛ
bf
bhopal
bhreithimh
bi
bia
biaa
biako
biakoye
biakoyɛ
biara
bias
bibcode
bibel
bibiana
bibiani
bibiara
bibini
bibire
bible
bibliography
bicocca
bicycle
bicycles
bie
biega
biennale
big
biggest
bih
bihttps
bijilo
bike
bikin
bilbao
bild
bile
bill
billion
billy
bimbilla
bimpong
bin
binduri
bing
bingley
binom
bintou
bio
biochemistry
biodiversity
biographical
biographies
biography
biological
biology
biom
biomedical
biorxiv
bios
biosand
biosphere
biotechnology
bira
bird
birdlife
biribi
biribiara
birikisi
birim
birmingham
birth
birthday
birthplace
bisa
bisaa
biscuitsandladles
bishop
bissau
bisung
bitstream
biz
bk
bl
black
blacksmith
blackstone
bladder
blank
blankname
blankson
blastours
blastoursghana
blatant
blay
bless
blessed
blica
block
blocks
blog
blogs
blogspot
blood
bloomberg
bloomsburg
bloomsbury
blue
blues
bmj
bo
boa
boaa
boabeng
boaboa
boachie
boadi
boadu
boafo
boafoɔ
boahen
boahene
boakye
boamah
boampong
boaram
board
boarding
boards
boasiako
boat
boate
boateng
boayikuo
boayikuw
bob
bobby
bobe
bobesa
bobie
bobiri
bobɔ
boc
bodi
bodies
bodwabodwa
body
bodyclass
bodystyle
boeing
boflootu
bofo
boforo
bogoso
boi
bois
bokiti
bol
bold
bole
bolga
bolgatanga
bolivia
bologna
bolɔk
bom
bomb
bomm
bompeh
bomu
bon
bondong
bone
bonful
bongo
bongoyo
boniface
bonnie
bono
bonofoɔ
bonoman
bonsaaso
bonsra
bonsu
bonwire
bonzo
bonzoh
boo
book
books
booksources
bool
boolean
boom
boon
borac
border
borders
borgo
born
borne
boro
borobudur
borofo
boroo
boroughs
borteyman
bortianor
borɔde
borɔdeɛ
borɔdiɛ
borɔdɔma
borɔfo
borɔno
bosco
bosme
bosnia
boso
bosom
bosome
bosomtwe
bosra
boss
bossman
boston
bot
botae
botaeɛ
botan
botanical
botaɛ
botchway
botchwey
both
boti
bots
botsio
botsomtwe
botswana
bottom
botwe
botwi
bound
boundaries
bour
bourg
boutros
bowel
bowl
box
boxes
boxing
boy
boye
boys
boɔ
bp
br
bra
braa
brabɔ
brace
brackets
bragoro
braimah
brain
brakwa
bramante
branch
brand
brandford
brantuo
brasil
brayɛ
brazil
brazilfo
brazilian
brazzaville
bre
bread
break
breakfast
breaking
breitheamh
breman
bremen
brempong
brena
brentuo
brenya
brest
bretain
brew
brewer
brian
bribery
bridge
brief
briefing
brien
bright
brighton
brigidi
brim
bristol
britain
britania
britaniafo
britaniafoɔ
britannica
british
britishfo
britishfoɔ
britishni
brkikisi
broadcasting
broadway
brobbey
brobby
brofo
broke
broken
brokerage
broletto
brong
brongahafo
broni
bronya
bronze
brother
brothers
brown
browse
browser
browsers
broɔfo
bruce
brunch
bruu
bryan
brɔde
brɔfo
brɔno
brɛ
brɛoo
brɛɛ
bsc
bu
bua
buadi
buah
buari
bubu
bucharest
bucket
budapest
buddhasom
buddhism
budget
bue
buee
buei
buem
buenos
bueros
buertey
buffalo
buffer
bug
buganda
bugua
buhari
bui
building
buildings
builsa
built
bukari
bukavu
bukina
bul
bulgaria
bulleted
bulletin
buluk
bumankam
bunko
bunkpurugu
bunso
bunu
buor
buoyem
burden
bureau
buried
burkina
burma
burnham
buron
buronya
burundi
bus
busby
bush
busia
business
businessghana
busua
but
butcher
button
buu
buzzfeednews
buzzghana
bwh
by
bya
byzantine
byzantinefo
bɔ
bɔbeasu
bɔberɛ
bɔfo
bɔfoɔ
bɔga
bɔhyɛ
bɔm
bɔne
bɔnefoɔ
bɔs
bɔtɔ
bɔɔ
bɔɔbɔkuo
bɔɔl
bɔɔlbɔ
bɔɔlbɔfo
bɔɔlbɔfoɔ
bɔɔlbɔni
bɔɔlo
bɔɔlobɔ
bɔɔlobɔkuo
bɔɔlobɔni
bɔɔlɔ
bɔɔlɔbɔ
bɔɔmu
bɛ
bɛba
bɛbata
bɛbi
bɛboa
bɛbom
bɛboro
bɛbrɛ
bɛbue
bɛbɔ
bɛda
bɛdaa
bɛdan
bɛdi
bɛdii
bɛduruu
bɛdwani
bɛdwo
bɛdɔɔso
bɛfa
bɛfaa
bɛfe
bɛfiri
bɛfrɛ
bɛgu
bɛgye
bɛgyee
bɛgyina
bɛgyinaa
bɛgyinaeɛ
bɛhia
bɛhunu
bɛhunuu
bɛhwehwɛ
bɛhwɛ
bɛhyia
bɛhyɛ
bɛhyɛɛ
bɛka
bɛkaa
bɛko
bɛkum
bɛkyerɛ
bɛkyɛ
bɛkɔ
bɛlgyiom
bɛma
bɛn
bɛntɛe
bɛnya
bɛnyaa
bɛperee
bɛpɛ
bɛrema
bɛrima
bɛsa
bɛsakra
bɛsan
bɛsesa
bɛsi
bɛsii
bɛsɔ
bɛtaa
bɛte
bɛtena
bɛtenaa
bɛtew
bɛto
bɛtoa
bɛtoaa
bɛtoo
bɛtra
bɛtu
bɛtumi
bɛtuu
bɛtɔ
bɛtɔɔ
bɛw
bɛware
bɛwo
bɛwu
bɛyɛ
bɛyɛɛ
bɛɛ
bɛɛbi
c
ca
cabinet
cable
cables
caesar
caesaraugusta
caesarean
caf
cairo
cake
calabria
calcium
calculate
calculated
calculations
calculator
caldeiras
caldera
calendar
calgary
california
caliph
caliphate
call
called
calls
cambridge
came
cameron
cameroon
cameroonfoɔ
camp
campaign
campbell
camps
campus
can
canada
canadani
canadian
cancel
cancer
candidate
candidates
candomble
cannon
cannot
canon
canopy
cantonese
cantonments
canvas
cap
cape
capital
capitalise
capitalized
capt
captain
caption
captions
car
carbon
carbonate
carbonatite
carcinoma
cardinal
cards
care
career
careers
cargo
caribbean
caritas
carl
carlo
carlos
carnival
carr
carradine
carriers
cars
cart
cartagena
carter
carthage
case
caselle
casely
cases
casey
cash
caspian
cassava
cast
castello
castle
castles
cat
catalan
catch
cate
categori
categoria
categorie
categories
categorizes
category
cathedral
cathedrals
catherine
catholic
cathrine
catid
catwalks
caucasian
caucasus
caught
caurie
cause
caused
causes
cautions
cavendish
caves
cay
cb
cc
ccccff
cd
cdc
ce
cec
cecilia
cedi
ceek
celebrate
celebrated
celebrates
celebration
celebrities
celebrity
celiac
cell
cells
cemetery
census
censusdata
centar
center
centered
centers
central
centralac
centraljoana
centralregion
centrals
centre
centres
centro
centuries
century
ceo
ceos
cephalophus
cercopithecus
cereals
ceremonial
ceremony
cerf
cerfs
cerro
certain
certificate
certified
ces
cetera
ceuta
cf
cfm
cgi
ch
cha
chad
chagres
chain
chair
chairman
chairperson
challenge
challenges
chambas
chamber
chambers
champion
champions
championship
championships
champuions
chan
chance
chancellor
chancellors
chang
change
changed
changes
changing
channel
chanson
chansou
chantal
chapel
chapter
character
characters
charge
charity
charles
charlotte
charlse
chart
charter
chartered
chartey
chat
chattered
cheap
check
checkghana
checking
checks
chefren
chelsea
chemical
chemistry
chemu
chen
cheops
chereponi
chest
chevaliers
chi
chiana
chicago
chicken
chickenpox
chico
chiec
chief
chiefs
child
childhood
children
chile
chimera
chimney
chimpanzee
chimu
china
chinafo
chinafoɔ
chinatown
chinebuah
chinese
chinua
chloride
cho
choapa
chocolate
choice
choirmaster
cholecystitis
cholera
cholerae
cholestasis
choose
chop
chpt
chris
christ
christaller
christian
christiana
christianity
christians
christie
christina
christine
christmas
christo
christopher
chrome
chromosomal
chromosome
chromosomes
chronic
chronicle
chu
chuck
church
churcher
churches
cia
cid
cidade
cimg
cincinnati
cinema
cio
cios
circa
circle
circuit
circumstances
cis
citation
citations
cite
cited
citeseerx
citi
citibusinessnews
cities
citifmonline
citinewsroom
citing
citisenship
citisportsonline
citizen
citizenship
city
citypopulation
ciudad
civ
civic
civil
civile
civilprocedure
cj
claim
claire
clark
clarke
class
classes
classical
classics
classification
classrooms
claud
claude
claudio
clean
clear
clears
cled
clement
clerk
clermont
cletus
click
clickable
clifford
climate
clinic
clinical
clinics
clinton
clip
clock
clonal
close
closed
closely
cloth
cloud
club
cluj
cluster
cm
cms
cn
cnn
cns
co
coaching
coal
coalition
coast
coastmbaidoo
coat
cobar
cobbina
cobra
coburg
cochrane
coco
cocoa
cod
code
codes
coefficient
coffee
coffie
cofie
coin
col
cold
cole
coleman
colitis
coll
collaboration
collapse
collapsed
collapsible
collar
collateral
collection
college
colleges
collegiate
collins
collinsdictionary
colobus
colombia
colon
colonel
colonial
colonialism
colons
colony
color
colorado
colorectal
colors
colosseo
colours
cols
columbia
columbus
column
columns
com
combat
combination
combined
come
comedian
comes
comfort
comhttps
comic
comics
coming
comm
comma
command
commander
commands
commas
comment
comments
commerce
commercial
commission
commissioner
commitment
committed
committee
committees
common
commonly
commons
commonwealth
commune
communes
communication
communications
communist
communities
community
companies
companion
company
comparable
comparative
compare
comparison
compensation
competition
compilation
complete
complex
compliant
complicated
complications
comply
component
composer
composite
composition
comprehensive
computed
computer
computers
comune
comuni
con
concept
concepts
concerned
concert
concerts
concessionspeech
condition
conditions
conduct
cone
conference
confirmed
confirms
confusion
congenital
congo
congress
conjunction
connect
connecticut
conor
cons
consanguine
consanguinity
consecutive
consensus
conservation
consider
considered
consist
consistency
consisting
consolidated
consortium
constant
constantine
constipation
constituencies
constituency
constitute
constituting
constitution
constitutional
construction
consult
consultant
contact
contain
contained
container
containing
contains
contemporary
content
contents
contenttranslation
contest
context
contexts
continent
continental
contract
contrast
contribution
contributionsmenu
contributor
control
controlled
controller
controls
convenience
convenient
convent
convention
conventions
conversation
conversion
convert
converted
converting
converts
convulsions
cook
cooking
cool
cooperation
coordinate
coordinates
coordinating
coordinator
copa
copied
copy
core
cores
corisco
corn
cornelius
cornell
corner
coro
corona
coronavirus
corpnews
corporal
corporate
corporation
corpus
correct
corresponding
corridor
corriere
corruption
corta
corte
cosenza
cost
costa
costalago
costanzo
costs
cote
cough
could
council
councils
counselling
count
counted
counter
counties
countries
country
countrystudies
county
coup
cour
courage
course
court
courtroom
courts
couscous
cousin
coussey
cov
cover
covered
covid
cow
cpp
crabbe
crac
craft
crailroad
crailway
crank
crayfish
craze
cream
creasy
create
created
creates
creating
creation
creative
credible
credit
cremaschi
cremasco
cremona
cret
crew
crib
cricket
crime
crimean
criminal
crisis
cristo
criteria
critical
critics
croatia
croatian
crocodile
crocodylus
crohn
crop
cropped
cross
crossland
crossreference
crowd
crown
cruise
crushes
cruz
crystal
cs
cslist
css
ct
cu
cuba
cuban
cudjoe
cuisine
cultural
culture
cultures
cup
cupnoodles
curie
curitiba
curling
curr
currency
current
currently
curry
curse
cusa
cusano
custom
customs
cutaneous
cuts
cwt
cwu
cwur
cycle
cynthia
cyprus
cyrenaica
cyrene
cyril
czech
d
da
daa
daadaa
daakye
daanodini
daasebre
dab
dabere
dabiara
dabo
daboya
dada
dadaa
dadaw
daddy
dade
dadease
dadepɔnkɔ
dadesɛn
dadeɛ
dadwen
dadzie
dae
dafif
dagaare
dagbani
dagbon
dagmanyi
dagomba
dagombafoɔ
dahah
dai
daily
dailyguide
dailyguideafrica
dailyguidenetwork
dailytrust
daka
dakoa
dakrupe
daku
dallas
dallol
dam
damango
damascus
damasko
damba
dambaa
dambai
dame
damongo
damptey
dan
dana
dance
dancehall
dances
dancing
dane
danedane
danee
dangbe
danger
dangme
dangmefoɔ
danh
dani
daniel
daniela
daniella
danish
dankwa
danlad
danmu
dannan
danquah
danso
dansoh
dansoman
dansua
danta
dante
dapaah
dapilaa
dapɔnna
dapɛn
dar
darajani
dari
darkgrey
darko
darkoa
darkoh
darkwa
darlington
dartey
darwin
das
dash
dashboard
dat
data
dataa
databank
database
date
dateformat
dates
dating
dauda
daughter
daughters
david
davidson
davies
davis
dawadawa
dawson
dawu
dawuda
dawuro
dawurobɔ
dawuru
dawurubɔ
day
dayan
dayi
daylight
days
dc
dce
dces
dd
ddddff
de
dea
dead
deal
dean
dear
death
debaa
debarge
debeira
deborah
debra
debut
dec
deceased
decede
december
decimal
decker
declaration
declare
declared
decor
decorated
decreto
decriminalise
deda
dedaw
dede
dedei
dedicated
dee
default
defaults
defeat
defence
defense
deficiency
define
defined
definition
definitions
degli
degree
degrees
dehyeɛ
dei
deity
dekyerɛ
dekɔ
dekɔɔ
del
delaware
delegate
delete
delhi
delicious
delivery
dell
della
delphi
delta
dem
democracy
democratic
democrats
demographics
demokrase
demonym
den
denam
denden
dene
denis
denkyira
denkyirafoɔ
denm
denmark
denmarkfo
denneennen
dennis
denomination
denominator
densinkran
density
densu
dental
department
departmental
departments
departure
depending
depends
deportes
deprecated
depressing
depression
dept
depth
deputies
deputy
der
derby
derek
derivation
dermatitis
dermnetnz
derry
dery
des
descartes
descent
describe
described
describes
descripcio
description
descriptions
deserves
design
designated
designed
designer
designers
designindaba
designs
desirable
desired
desmond
desooso
despite
destination
destinations
destiny
detail
detailed
details
detect
detection
detects
detention
determine
determined
detroit
detsi
deutsche
deutschland
dev
developed
developing
development
developments
device
dey
deɛ
df
dfp
dha
dhl
di
dia
diabetes
diabolo
diagnosis
diagnostic
diaguitas
dialect
dialects
diamond
diana
diaso
diawuo
dibea
dibeaperefoɔ
diber
diberɛ
dibrɛ
dickson
dictionary
did
didi
didisoɔ
die
diebedo
died
diego
diehuo
dies
differ
difference
different
dig
digestive
digit
digital
digits
digya
dihttps
dii
diiɛ
dikan
diliff
dimensions
din
dining
diocese
dionysius
dios
dioxide
dipa
diploma
diplomas
diplomat
diplomatic
dipo
direct
directly
director
directorates
directors
directory
dirty
disability
disable
disabled
disamb
disambiguation
disappearance
disappeared
disaster
disc
disco
discogs
discouraged
discover
discovered
discussed
discussion
discussions
disease
diseases
dish
dishes
diskas
disorder
disorders
disp
display
displayed
displaying
displays
dissection
dissolved
distance
distancing
distinguish
distinguished
district
districts
div
diverse
diverticulitis
dividers
divine
diving
divisio
division
dixon
diya
dj
djaba
djan
djenne
djokovic
dl
dm
dmitry
dna
do
doc
doce
docfiles
docrep
docs
doctor
doctorate
doctors
document
documentation
documented
documents
dodo
dodoo
dodow
dodowa
dodoɔ
doe
does
doesn
dog
doi
doing
doinyo
dokono
dokota
dokua
dokunoo
dollar
dollars
dolphin
dolphyne
dom
domain
domayele
dombo
dome
domeabra
domestic
dominic
dominican
dompe
dompim
dompoase
dompoasi
don
donald
donates
donato
done
dong
donkoh
donkor
donkorkrom
donno
dont
dontoh
door
dor
dora
dorcas
doris
dorland
dorlands
dormaa
dornu
dorothy
dos
dose
dosoo
dot
double
doudou
douglas
dove
down
download
downtown
dowokpor
dp
dpp
dpsc
dq
dr
draft
draiver
drake
drama
dramani
draw
drawing
drawn
dream
dreams
dress
drew
drink
drive
driver
driving
drop
dropped
drug
drugarju
drugs
dry
drz
ds
dspace
dst
du
dua
duaa
duadwumfoɔ
duah
dubaako
dubiako
dubie
dubrovnik
duc
ducale
duchess
due
duffour
dugan
duiker
duke
duker
duku
dumba
dumelo
dumien
dumienu
dumiɛnsa
dummienu
dummiɛnsa
dumpsites
dun
dunam
dunams
dunan
dung
dunkron
dunkwa
dunnum
dunnwɔtwe
dunsia
dunson
dunsɔn
dunum
dunwɔtwe
duration
durga
durham
during
duro
durowaa
durre
duru
duruu
duse
dusseldorf
dutch
dutchfo
dutchfoɔ
duu
duwɔtwe
dva
dvd
dw
dwa
dwabɔ
dwadibea
dwadie
dwadifoɔ
dwadini
dwam
dwamena
dwane
dwarf
dwene
dwenee
dwensɔtwaa
dwetɛ
dwight
dwirii
dwo
dwoada
dwodwo
dwodwoo
dwom
dwomfo
dwomfoɔ
dwomtoni
dwonku
dwonsɔ
dwor
dwuma
dwumadi
dwumadibea
dwumadie
dwumakuo
dwumakuw
dwumayɛfo
dwumayɛkuo
dwumayɛni
dwumdie
dx
dy
dynamic
dynamo
dyskinesia
dz
dzeagu
dzifa
dzigbordi
dzirasah
dzogbenuku
dɔ
dɔkono
dɔkota
dɔkotani
dɔla
dɔm
dɔmaa
dɔmkuma
dɔmkumaa
dɔmkɛseɛ
dɔnhwere
dɔnhwerew
dɔte
dɔteɛ
dɔɔ
dɔɔm
dɔɔso
dɛ
dɛm
dɛmdi
dɛn
dɛnkyira
dɛnkyɛm
dɛnkyɛmmoɔ
e
ea
each
eagle
early
earth
ease
easier
easily
east
eastac
easter
eastern
eastjoana
easts
easy
easytrackghana
eat
eating
eaumf
eb
eba
ebadane
ebedi
ebedu
ebeduu
ebefi
eben
ebenezer
ebensarfo
ebenya
ebert
ebetumi
ebi
ebia
ebien
ebinom
ebo
ebola
ebony
ebu
ebue
eburo
ebɔ
ec
ecclesiastical
ece
ecghana
ecobank
ecole
economia
economic
economics
economist
economy
ecovolis
ecowas
ecuador
eczema
ed
eda
eddie
ede
edem
eden
edf
edfw
edgar
edge
edi
edidi
edidisoɔ
edie
edii
edikan
edimu
edin
edina
edinaman
edinburg
edinburgh
ediso
edit
edited
edith
editing
editintro
edition
editor
editors
edits
edmund
eds
edu
eduan
eduanu
eduasa
eduasar
edubease
edubia
edubiase
education
educational
educationalist
educationist
educator
edumadze
edumadzi
edunkron
eduokron
eduonan
eduonu
eduonum
eduosa
eduosia
eduoson
eduru
edusei
eduu
edwa
edwadie
edward
edwards
edwin
edwina
edwuma
edwumakuw
edwumayɛ
ee
efa
effah
effect
effective
effects
effia
efficacy
effiduase
effutu
efi
efiada
efidie
efiduasi
efie
efii
efiri
efirii
efirisɛ
efisɛ
efiti
efo
efri
efua
efuru
efutu
eg
egala
egle
eglep
ego
egu
eguadoto
eguafo
egwa
egya
egyae
egyapa
egye
egyina
egypt
ehia
ehu
ehuren
ehuru
ehwa
ehwe
ehyia
ei
eiffel
eight
eisa
eisenhower
eissn
either
ejisu
ejisuhene
ejisuman
ejm
ejumako
ejura
ejuraman
ek
ekora
ekow
ekua
ekum
ekumfi
ekunkum
ekuo
ekuoba
ekuomma
ekura
ekuro
ekuru
ekwow
ekyi
ekyir
ekyire
ekyiripɔ
ekɔɔ
el
elect
elected
election
electionpassport
elections
electionsedit
electoral
electors
electric
electrical
electrolyte
electronic
electronics
elegant
element
elementary
elements
elena
eleonora
elephant
elevation
elisha
eliye
elizabeth
eljko
elkan
ella
ellembele
ellembelle
ellen
elmina
elobey
else
elsevier
elsie
elubo
elvic
elvis
em
ema
emaa
embark
embassy
embed
embedded
embedding
emblem
embolism
emedicine
emelia
emergencies
emergency
emerges
emerging
emeritus
emesis
emfa
emi
emil
emilia
emily
emma
emmanuel
emmer
emom
emotion
emperor
empire
employer
employing
employment
empowerment
empress
empty
emu
emufo
emufoɔ
en
ena
enable
enabled
enac
enam
enan
enciclopedia
enclosed
encyclop
encyclopedia
end
ended
endi
ending
endocrine
endometrial
ene
energy
enforcement
eng
engine
engineer
engineering
engineers
engiresi
engiresifo
engiresini
england
englese
englesi
english
engoma
engresi
engressi
eni
enkutatash
enne
enni
ennu
ennya
eno
enoch
enough
enrico
ensi
enslavement
enso
ensure
ensɛ
enter
entered
enterprise
entertainment
enti
entire
entirely
entity
entoto
entrammes
entrance
entrepreneur
entrepreneurs
entrepreneurship
entries
entry
entu
entumi
enu
enugu
enum
environment
environmental
environments
enya
enyaa
enyam
enyan
enye
enyin
enyiresi
enyirisi
enyo
enyɛ
enzo
enzyme
enɛ
eonlinegh
ep
ephraim
epidemic
epidemiology
epididymis
epigenetic
epigenetics
epileptic
epistle
eps
epstein
epuei
equal
equals
equatorial
equipment
equipped
equity
equivalent
er
erasmus
eric
ericdocs
erich
erion
eritrea
ernest
ernestina
ernst
error
errors
erskine
erythematosus
erzuah
erzurum
es
esaine
esam
esan
esane
esc
escudo
esi
esiam
esian
esiane
esiesie
esii
esikyire
esisi
esiw
eskista
eso
espan
essay
essel
essential
essiam
essien
essikado
essilfie
essipong
essuah
est
established
establishment
estate
esther
estimate
estimated
estimates
estonia
estrate
esu
esua
esum
et
etc
ete
ethics
ethiopia
ethnic
ethnicity
ethno
ethnologue
eti
etia
etiam
etienne
etifi
etiology
eto
etu
etumi
etuo
etuu
etwa
etwaa
etwam
etwatoɔ
etymology
etymonline
etɔ
eu
eugene
eugenia
euginia
eunice
eupen
eureka
euro
eurobasket
eurohealth
europa
europafo
europe
european
euros
eurostat
eurovision
ev
eva
evacuated
evaluation
evalue
evangelical
evans
even
evening
evenodd
evenstyle
event
events
eventually
ever
everglades
everly
every
everything
everywhere
evic
evidence
evolution
evropesma
ew
ewe
ewefo
ewefoɔ
ewereko
ewia
ewiase
ewie
ewiei
ewiem
ewo
ewura
ewuraa
ewusi
ewɔ
ex
exact
exactly
examination
examining
example
examples
excele
excelenti
excellence
except
exception
exceptional
excess
exchange
excluded
exclusive
executive
exemplary
exercise
exiguus
exile
exist
existing
exists
expanded
expectations
expected
experience
experienced
expert
explained
explains
explanation
explicitly
explorer
export
exports
express
expressed
expressing
expression
extended
extends
extension
extensions
extent
exterior
external
extinct
extra
extraordinary
extreme
extremes
eye
eyes
eyi
eyiaba
eyii
eyinom
eyram
eyɔ
eyɛ
eze
f
fa
faa
faahodie
faako
faat
fabi
fabio
fabric
face
faceafrica
facebook
facilitator
facilities
facility
facolta
facref
fact
factbook
facto
factor
factors
factory
facts
faculties
faculty
faeɛ
fafa
fagude
fagudeɛ
fahodeɛ
fahodi
fahodie
fahrenheit
failed
fair
fairy
faith
falcons
fall
false
falsehttps
fam
fame
famfo
familia
family
famous
famu
fan
fandom
fango
fangoo
fans
fante
fanteakwa
fantefo
fantefoɔ
fanteni
fanti
fao
fapem
faq
far
farebae
farebaeɛ
farm
farmer
farmers
farouk
farrow
fashion
faso
fast
fasu
fasuo
fat
fata
father
fathia
fati
fattah
fauna
faustina
favor
fawe
fawoade
fawohodie
faza
fazao
fc
fd
fda
fdfdfd
fe
fear
fearless
feast
feat
featherweight
feature
featured
features
featuring
february
fecal
federacio
federal
federation
federer
feeding
feet
fekubɔ
fekuo
fekuw
fekɔfekɔ
felicia
felix
fellow
fellowship
female
femfam
feminism
fense
feok
fermented
fern
fernando
ferrand
ferrari
ferɛ
fes
fest
festival
festivalhttps
festivals
fetri
fetu
fever
fevers
few
ff
fi
fiada
fiam
fiandadghanalimited
fiapre
fiase
fibea
fibre
fiction
fictional
fida
fidie
fie
field
fields
fiema
fifa
fifth
fight
fighting
figure
figures
fii
fiiri
fijai
file
filename
files
fill
filled
film
filmmaker
filter
final
finally
finals
finance
financial
find
findglocal
findlaw
finds
fine
finland
finnish
fiok
fiorano
fir
firaw
fire
firefox
firenze
firi
firieɛ
firii
firiieɛ
firiiɛ
firiɛ
firm
first
firstminister
fish
fisheries
fishermen
fishing
fisɛ
fitaa
fitaahaard
fiti
fits
five
fixed
fj
flag
flagbearers
flagicon
flags
flagstaff
flash
flavors
fletcher
fleuri
flexible
flight
flip
float
floating
floor
floorball
flora
floral
florence
florida
flow
flowers
flowlist
flt
flu
flute
flygoldstar
fm
fmann
fms
fn
fo
foa
foah
fobih
focus
fofie
fofor
foforo
foforow
foforoɔ
foforɔ
fogo
foinikefo
fokuo
folk
follow
followed
following
follows
fom
fombio
fomena
fondation
font
fontsize
foo
food
foodcont
foods
foofoo
foot
football
footballer
footnoteandrade
footnotes
for
force
forces
ford
fordjour
forecast
forecasts
foreign
foreigner
forename
forest
foresta
forestry
forever
forging
form
formal
format
formation
formats
formatted
formatting
formazione
formed
former
formerly
forming
forms
foro
forson
fort
forth
fortress
forts
fortuna
fortunate
fortune
forty
forum
forward
forɔeɛ
forɔyɛ
foster
fosu
fot
foto
fotufoɔ
foufou
found
foundation
foundations
founded
founder
founders
founding
four
fourth
fow
fowler
foɔ
fr
fra
frac
fraction
fractional
fractions
frafra
fram
frame
frameless
framework
framɛwɔrk
france
frances
francesca
francesco
franchise
francis
francisca
francisco
franco
frank
frankaa
frankaatuni
frankatuni
frankfo
frankfurt
franklin
franse
fransefo
franseni
frao
fraternal
frau
frauenkirche
fraw
frawmantam
fre
fred
freda
freddie
frederick
fredrick
free
freedom
freeonline
freetown
fregate
freho
freisa
frema
frempong
french
frenchfoɔ
frequently
fresh
fri
fried
friedrich
frii
frimpong
frisian
fritz
from
front
frontpage
frozen
fru
fry
frɔeɛ
frɔmfrɔm
frɔyɛ
frɛ
frɛɛ
fs
ft
ftin
fu
fua
fuel
fuer
fufu
fufuo
fugar
fugu
fukushima
fulanifoɔ
fulera
fulfilled
full
fumbisi
function
functional
functions
fund
funeral
fungal
fungi
funu
fuo
fura
furan
further
fuseini
fusion
fusui
futaie
futufoɔ
future
futures
fuzzy
fwww
fynn
fæder
fɔ
fɔm
fɛ
fɛfɛ
fɛfɛɛfɛ
fɛm
g
ga
gaana
gaanafo
gaanafoɔ
gaanaman
gaanani
gabby
gabon
gabriel
gafah
gafoɔ
gain
gal
gala
galeazzi
galen
galilea
galindo
gallery
gallon
galton
gambaga
gambia
game
games
gametophytes
gamey
gana
ganafoɔ
ganani
gando
gankogui
gao
gap
gaps
garamba
garbrah
garden
gari
garia
garko
garlic
garu
gas
gast
gastritis
gastroenteritis
gastroenterological
gastroenterology
gastronomica
gate
gatehouse
gates
gattagh
gauge
gavel
gavels
gays
gaza
gazette
gazetteer
gb
gbc
gbcghana
gbcghanaonline
gbe
gbedemah
gbediame
gbeho
gbewaa
gbi
gbordzoe
gbpv
gc
gce
gcis
gcpp
gd
gdp
ge
gelasian
gelfand
gen
gender
gene
genera
general
generalized
generally
generate
generated
generates
generating
generation
generic
genes
genesis
genetic
geneva
gennaio
genome
genomic
genova
genre
genres
geo
geocode
geoffrey
geographic
geographical
geography
geological
george
georges
georgia
georgina
gerald
geramany
german
germanfo
germanfoɔ
germani
germanic
germanifo
germanni
germany
gershon
ges
gesellchaft
get
getproduct
getrooms
gets
getting
geverti
gfp
gg
gh
gha
ghaana
ghadames
ghan
ghana
ghanabusinessnews
ghanacelebrities
ghanaconsulatedubai
ghanacrusader
ghanaculture
ghanaculturepolitics
ghanadistricts
ghanaelection
ghanaelections
ghanaembassyiran
ghanaemberlin
ghanafa
ghanafo
ghanafoɔ
ghanagist
ghanagoods
ghanagrio
ghanahighcommissionuk
ghanahome
ghanahomepage
ghanahttp
ghanahttps
ghanaian
ghanaianmuseum
ghanaians
ghanaman
ghanambaidoo
ghanamma
ghanamps
ghanan
ghananewsagency
ghanani
ghananin
ghanareview
ghanas
ghanasat
ghanaschoolsnet
ghanaschoolsonline
ghanasoccernet
ghanasportsonline
ghanastar
ghanaweb
ghanawomeninbusiness
ghann
ghansah
ghartey
ghat
ghc
ghgossip
ghheadlines
ghlinks
ghone
ghonetv
ghost
gi
gia
giant
giap
gibb
gid
gidigidi
gidisu
gif
gift
gifty
gigametre
gimpa
gina
gino
giorgio
giovanni
girl
girls
giro
girton
github
gitta
giurisprudenza
giuseppe
give
given
gives
giving
giza
gizella
gizo
gja
gje
gkagabby
gladstone
gladys
glands
glasgow
glass
glitz
glitzafrica
global
gloria
glossary
glover
glow
gluten
glycolysis
gm
gmayem
gn
gnatlas
gnocchi
go
goa
goal
goaso
god
godfred
godfrey
godfried
gods
godwin
goes
goethe
going
goitre
gok
goka
gold
goldberg
golden
goldene
golf
goliath
gologo
gomoa
gondar
gonja
gonorrhea
good
google
goon
gordon
gore
gorie
gorilla
gorɔ
gosden
gospel
gospodi
gospoz
gothic
gotti
gottlieb
gout
gov
governance
governing
government
governmental
governor
governs
govt
gps
gr
grabar
grace
gracia
grade
graduate
graduates
graduation
graft
graham
grammar
grammatical
grammy
gramps
grand
granda
grande
grandes
grandfather
grandmother
grandpa
grange
granite
grant
granta
graph
graphic
grassland
grau
graund
grave
gray
great
greater
greateraccra
greece
greek
green
greenwood
gregorian
gregory
gren
grenoble
grey
gri
grid
gridcolor
griffin
griffiths
grilled
grimm
ground
groundnut
group
groupn
groupname
groups
groupstyle
groupwidth
grove
growing
growth
grozny
grumeti
grundow
gryfice
gsa
gsts
gsyd
gtv
gtz
gu
gua
guadalajara
guadi
guadibea
guadidan
guamtrani
guan
guang
guangxi
guankɔbea
guarantee
guardian
guards
guggisb
gugu
gui
guidance
guide
guidelines
guides
guila
guilin
guinea
guitar
guiɛ
gujarat
gukpegu
gulf
gum
gun
guns
gunung
guo
gur
guru
gurunsi
gushegu
gushiegu
gusu
guterres
guu
guuɛ
gwandara
gwira
gwollu
gya
gyaa
gyaaman
gyabah
gyae
gyaee
gyaeɛ
gyakie
gyamena
gyamfi
gyamfimbaidoo
gyan
gyapan
gyapong
gyasi
gyasimbaidoo
gyata
gyaw
gye
gyebi
gyedi
gyedie
gyee
gyeene
gyegye
gyene
gyese
gyesɛ
gyetomu
gyetoomu
gyeɛ
gyidi
gyidie
gyigye
gyimah
gyina
gyinaa
gyinabea
gyinae
gyinaesi
gyinaesifo
gyinaeɛ
gyinafoɔ
gyinap
gyinapem
gyinapen
gyinapɛn
gyinasibea
gynaecology
gyɛɛman
gɔbɛ
gɛɛman
gɛɛmanfoɔ
gɛɛmani
h
ha
haa
haas
habadah
haban
habib
hackenburg
hackman
had
hadi
hadith
hagan
hague
haho
hai
hair
hajar
haji
hajia
halensee
half
halid
halifax
hall
halls
halutie
hama
hamah
hamburg
hamid
hamidu
hamilton
hammah
hammam
hammond
hammurabi
hampshire
hana
hand
handball
handbook
handle
hands
hanging
hangzhou
hanh
hann
hanna
hannah
hanoi
hans
hansen
haplogroup
happen
happened
happyghana
harbor
harbour
hard
hardware
hare
hari
harold
harriet
harris
harrison
harry
haruna
harvard
has
hashofe
hassan
hat
hata
hatnote
hatra
haunsinafrica
hausa
hausafoɔ
hautes
hauts
have
havens
having
haw
hawa
hawaii
hawthorn
hayesbrown
hayford
hazel
hcard
hcmc
hdz
he
head
headache
header
heading
headings
headlines
headmaster
headmistress
headquarters
heads
health
healthcare
heaped
heard
heart
hearts
heavy
hebrew
hebri
hebron
hectare
hectares
height
heinemann
hekta
hekurudha
hela
helafo
held
helen
helikopta
helipad
heloo
help
helpful
helsinki
hemaa
hemang
hemingway
hemmaa
hemmah
hemorrhagic
hena
hene
henri
henrique
henry
hepatitis
her
herbal
herbert
here
hereafter
heres
heritage
hermann
hernia
hero
herod
herodotus
heroes
heron
herpes
herr
herra
herzegovina
hesekiel
hex
hezekiah
hh
hhj
hi
hia
hibbert
hidalgo
hidden
hide
hides
hiding
high
higher
highest
highlife
highly
highway
hijab
hikawa
hill
hilla
hillary
hillenburg
hills
hindi
hinne
hinneh
hinrichs
hint
hip
hiplife
hippocrates
hippopotamus
hirschsprung
his
hisn
hispanic
histamine
historia
historian
historic
historical
history
historyofvaccines
hit
hitmaker
hiv
hives
hl
hlist
hmis
ho
hoa
hoahoa
hockey
hodgkin
hodogbey
hodoɔ
hofburg
hogbestosto
hogbetsotso
hohoe
hohoro
hohorow
hohttps
hoi
hokafo
hokafoɔ
hokkaido
hokwan
hold
holder
holding
holds
holidays
holland
holocene
holstein
holy
homa
home
homecoming
homeda
homee
homegoing
homeland
homo
homosexuality
homosphere
homowo
homs
hon
honam
honduras
honey
hong
hongo
honhom
honneur
hono
honor
honorable
honorary
honored
honorific
honors
honour
honourable
honoured
honours
hons
hoo
hop
hope
hopkins
horizontal
horizontally
hormone
horn
horow
horse
horses
horticulture
hospital
hospitality
hospitaller
hospitallers
host
hostel
hostels
hosts
hostɛl
hot
hotel
hotels
house
houses
housing
houston
hover
hovioikeudenlaamanni
hovioikeudenneuvos
hovioikeus
how
howard
however
hr
hs
htm
htmhttps
html
htmlhttp
htmlhttps
htmlwɔ
htmlwɔdi
http
https
hu
huang
hub
hudu
hue
hugedomains
hughes
hui
human
humanities
humanity
humans
hunahunaa
hung
hungarian
hungary
huni
hunter
hunu
hunuu
hunuuiɛ
hurma
huru
husband
hustler
hutchful
hutton
huu
huudu
hw
hwam
hwe
hwee
hwefo
hwehw
hwehwɛ
hwehwɛfo
hwehwɛɛ
hwene
hwenem
hwensi
hwere
hweree
hwi
hwidiem
hwie
hwii
hwɛ
hwɛbea
hwɛe
hwɛfo
hwɛsofoɔ
hwɛwohoso
hwɛɛ
hy
hydrocortisone
hydrofoil
hye
hyee
hyehye
hyehyee
hyehyeɛ
hyehyɛ
hyehyɛfo
hyehyɛɛ
hyew
hyeɛ
hyia
hyiaa
hyiadan
hyiae
hyiam
hyiamu
hypermethylated
hyperparathyroidism
hyphen
hypothyroidism
hyɛ
hyɛaseɛ
hyɛmma
hyɛn
hyɛɛ
hɔ
hɔfo
hɔhttps
hɔlan
hɔm
hɔmɔwɔ
hɔn
hɔnom
i
ia
iacono
ian
ias
ib
ibm
ibn
ibrahim
ibtimes
ic
icao
icc
iccn
ice
iceland
icomos
icon
icons
ict
id
iddi
iddris
iddrisu
idea
identifier
identifies
identity
ideology
idi
idski
ie
if
ifood
ifukube
igbo
igbofoɔ
ignatius
igor
ihttps
ii
iian
iihf
iii
ija
il
ilac
ile
illa
illapel
illegal
illinois
illness
illustrated
illustration
illustrious
illyriansfo
ilustri
im
ima
image
imageleft
imageleftstyle
images
imagesize
imagestyle
imagine
imaging
imam
imdb
immigration
immune
immunology
imoru
impact
impaired
imperial
implementation
implemented
implications
import
important
imported
improper
improve
improvement
improving
impɔɔto
imray
in
inactive
inappropriate
inauguracion
inaugurate
inaugurated
inaugurates
inauguration
inbound
inc
inca
incafo
incas
inch
inched
inches
incidence
include
included
includes
including
inclusion
income
incorporated
incorporates
incorrect
increase
increased
increasing
increment
incumbent
ind
indent
indents
independence
independent
independently
index
india
indian
indiatimes
indicate
indicates
indicating
indigenous
indigo
individual
individuals
indo
indonesia
indore
induced
industrial
industrialist
industries
industry
infanta
infante
infantile
infantry
infection
infections
infectious
inflammation
inflammatory
influence
influencing
influential
influenza
info
infobox
infoboxes
infoboxflag
infographic
infoplease
information
infrastructure
ingresi
inhabitants
inherit
inherits
initial
initiative
initiatives
injections
injury
inku
inkumasah
inline
inn
inner
innocent
innovation
innovations
innovative
inovic
input
insee
insegna
insert
inserted
inserting
inside
insidethegames
insignia
insolvency
inspirational
inspired
inspires
inspiring
instagram
install
installed
instance
instances
instead
institut
institute
institutes
institution
institutional
institutions
instructional
instructions
instructor
instrument
instrumental
instruments
insulin
insurance
int
intanɛt
integer
integrated
intended
intensive
interactions
interchange
interesting
interface
interior
interlingue
intermediate
internal
international
internet
interpreted
interview
intestinal
into
introduction
intussusception
inusah
invalid
inventor
inventors
investment
invitation
involved
io
iodine
iom
ion
ionizing
ipa
ipc
ipmc
ips
ipu
iq
ir
irak
iran
iraq
irawma
ircss
ireland
irene
irish
iron
irrigation
irritable
irritant
irt
is
isa
isaac
isaiah
isamu
isbn
isbns
isced
ischemia
ishak
ishmael
ishow
islam
islamic
island
islands
isley
ismail
iso
israel
israeli
issah
issahaka
issahaku
issaka
issifu
issn
issue
issues
issuu
istanbul
istat
it
italferr
itali
italia
italiafo
italian
italiane
italic
italics
italy
italyfoɔ
itch
itching
item
itemid
items
itinerary
its
itself
ituri
iu
iucn
iv
ivan
ivkova
ivoire
ivory
ix
iz
j
ja
jaccd
jachie
jack
jackie
jackson
jacob
jacobs
jacobu
jacques
jagri
jaime
jaipur
jakarta
jake
jalopnik
jam
jama
jamaicafoɔ
jaman
james
jamestown
jan
jane
janeiro
janet
jankovic
jansen
jantua
jantuah
january
japan
japanese
japanfoɔ
japass
jasikan
jason
jaundice
javanese
jay
jayee
jazz
jb
jc
je
jean
jeff
jefferson
jeffrey
jelena
jemima
jeringa
jerry
jersey
jerusalem
jesse
jessica
jesus
jet
jetsanza
jew
jewfoɔ
jewish
jfm
jh
jhs
jhu
ji
jim
jinapor
jirapa
jj
jnr
jo
joa
joachim
joana
job
jocob
joe
johann
johannes
johannesburg
johannine
john
johnfiah
johnny
johns
johnson
johnston
join
joining
joins
joint
joksimovic
jollof
jomoro
jonas
jonathan
jones
jordan
jose
joseph
josephine
joshua
josiah
josip
journal
journalism
journalist
journalists
journals
journoshop
jovana
joy
joybren
joyce
jp
jpeg
jpg
jr
js
jsc
jsp
jstor
jtp
juaben
juabeng
juabeso
juabo
juaboso
juan
jubilee
judafoɔ
judah
judaism
judge
judgement
judges
judicial
judiciary
judy
juge
jugoton
jui
juiz
jul
jules
julia
julian
juliana
juliet
julius
july
jumah
jump
jumper
jun
june
junior
juridiction
jurisdiction
jury
just
justice
justices
justin
justinian
jutro
k
ka
kaa
kaakyire
kaar
kaba
kabawunu
kabea
kabenlah
kabi
kabima
kabimamenkabi
kabom
kabul
kabɔɔ
kachikally
kade
kadjebi
kae
kaeɛ
kafoɔ
kaguta
kahuzi
kai
kaikan
kairo
kakara
kakawirewire
kakra
kakraa
kakrabi
kaku
kakyerɛɛ
kalba
kaluga
kalybos
kalɛnda
kama
kamakama
kamfo
kamfoo
kampala
kampus
kampuss
kan
kanada
kanagawa
kanazawa
kandifo
kandifoo
kandifoɔ
kane
kanea
kaneadua
kanee
kaneshie
kanfuri
kanjaga
kankam
kankye
kann
kanni
kannifo
kannifoɔ
kano
kanpur
kansas
kantanka
kanyan
kaole
kapitalist
kar
kara
karaga
karagu
karamarko
kari
karikari
karim
karismatik
karl
karlsruhe
kasa
kasadwini
kasafidie
kasafo
kasahare
kasahodoɔ
kasahorow
kasakoa
kasakuo
kasamafo
kasamafoɔ
kasamfoni
kasamu
kasapreko
kasapɔn
kasasin
kasatɔmmɛ
kase
kasem
kaseɛ
kaseɛbɔ
kashi
kasoa
kassa
kassena
kassim
kasubi
kasɛt
kata
kataa
katamanso
katanga
kate
katee
kategori
kategoria
kategorie
kategorija
kategoriya
katolek
katolekfo
kaufmann
kawa
kay
kayseri
kazakhstan
kdei
ke
kedem
keep
keeping
keita
keith
kejetia
keka
kekaa
kelewele
kelly
kelvins
ken
kena
kenkan
kenkey
kennedy
kenneth
kent
kente
kentenwene
kenya
kenyan
kenyani
kenyasi
keratoderma
kere
kerosene
kese
kesee
keseyɛ
keseɛ
kesh
kesovija
keta
ketan
kete
keteke
ketewa
ketewaa
ketoacidosis
ketu
kevin
kevod
kevoda
kevodo
key
kg
khabarovsk
khan
kho
ki
kibi
kidney
killer
kilometa
kilometer
kilometers
kilometres
kilomita
kin
kinbu
kind
kinesigenic
king
kingdom
kings
kingsford
kingsley
kingston
kinguele
kino
kintampo
kirene
kirinya
kish
kissi
kitarovic
kitase
kitawonsa
kitchen
kj
klottey
km
knave
knez
knight
knights
know
knowledge
known
knust
knutsford
ko
koankorɔ
kob
koba
kobi
kobina
kobus
kochba
kodii
kodjo
kodjoe
kodoɔ
kodu
kodua
koduah
koduu
kofi
kofimbaidoo
kofiridua
koforidua
koi
koigi
koine
kojo
koko
kokoam
kokoamsɛm
kokoben
kokonte
kokoo
kokoram
kokrobite
kokuroko
kokɔɔ
kolibilla
kolinda
kolkata
kom
koma
komayare
komenda
komfo
komisa
komla
komm
komo
komunism
kon
konadu
koncert
kong
kongo
konko
konkomu
konongo
kontenkorɔ
kontomire
konya
konyaa
koo
koobi
kooko
kookoo
koomson
koose
koowa
koowaa
kor
kora
koraa
korabea
korakora
korankye
koranteng
koratwe
korbe
korbla
korbly
korc
korea
korean
korle
koro
koroma
korona
korsah
korɔ
korɔgyee
kos
kosi
kosii
kosovo
kosua
kosuaa
kotei
kotodwe
kotoe
kotoka
kotoko
kotoku
kotonima
kotonimaa
kotonimma
kotopon
kovac
kovic
kow
kowaa
kowaakrata
kowie
kpalime
kpandai
kpando
kpanlogo
kpemaal
kpeve
kpone
kr
kra
kraa
kraataa
krabɛhwɛ
krachi
kradin
krado
krah
krak
krakye
kraman
kramofoɔ
kramoni
krata
krataa
kratafa
kratasin
kristo
kristofo
kristofoɔ
kristoman
kristoni
kristonii
kristosom
kristsom
kro
krobo
krokro
krom
krompɔn
kronkron
kronkronbea
krosbi
krosby
krowehyia
krowor
krɔ
ku
kua
kuadwuma
kuami
kuani
kuay
kuayo
kuayɔ
kuayɛ
kubatan
kube
kubi
kubori
kudjodji
kudjoe
kuenyehia
kuffour
kuffuor
kufour
kufuor
kuka
kukuom
kukurantumi
kukuw
kulendi
kuli
kulpawn
kulungugu
kum
kuma
kumaa
kumah
kumase
kumaseman
kumasi
kumawood
kumawu
kumbungu
kumea
kumi
kuna
kunani
kunayɛ
kunbuor
kunde
kundum
kunfah
kunini
kunkum
kunle
kuntunkununku
kunu
kununom
kuo
kuoba
kupɔn
kura
kuraa
kurabea
kurd
kurdfo
kuro
kurom
kuromafoɔ
kuroman
kuromanfoɔ
kuropɔn
kurow
kuru
kurukuruwa
kuruwa
kusanaba
kusasi
kusawgu
kusi
kusuu
kuta
kutawonsa
kutu
kuu
kuure
kuw
kw
kwa
kwaadu
kwabena
kwabenya
kwabere
kwabre
kwacoco
kwadaso
kwadjo
kwadu
kwadwo
kwadzo
kwae
kwaeɛ
kwaeɛbirentuo
kwahu
kwajo
kwaku
kwakumbaidoo
kwakye
kwakyerɛfoɔ
kwamang
kwamank
kwamankese
kwame
kwamena
kwan
kwankyerefo
kwankyerɛ
kwankyerɛfo
kwankyerɛfoɔ
kwanmisa
kwansin
kwansini
kwanso
kwantenkrɔ
kwantenpɔn
kwanwoma
kwanyako
kwao
kwapong
kwartei
kwarteng
kwasafoman
kwasi
kwasiada
kwasida
kwata
kwati
kwaw
kwegyir
kweku
kwekuchur
kwenkwen
kwesi
kwesie
kwesimintsim
kwesiraul
kwofie
ky
kye
kyeame
kyeamehene
kyebi
kyee
kyei
kyekye
kyekyer
kyekyere
kyekyeree
kyekyɛ
kyekyɛɛ
kyen
kyene
kyensen
kyer
kyere
kyeree
kyeremah
kyerematen
kyeremateng
kyeremeh
kyeretwie
kyerɛ
kyerɛe
kyerɛfo
kyerɛfoɔ
kyerɛkyerɛ
kyerɛkyerɛfoɔ
kyerɛkyerɛni
kyerɛkyerɛɛ
kyerɛw
kyerɛwee
kyerɛwfo
kyerɛwfoɔ
kyerɛwtohɔ
kyerɛɛ
kyerɜ
kyew
kyi
kyia
kyili
kyima
kyin
kyineeɛ
kyineɛ
kyinhyia
kyinie
kyiniiɛ
kyire
kyiripɔ
kyoto
kyushu
kyɛ
kyɛe
kyɛfa
kyɛmu
kyɛn
kyɛnn
kyɛnsee
kyɛnsen
kyɛre
kyɛw
kyɛɛ
kyɛɛn
københavn
kɔ
kɔbere
kɔbɔ
kɔbɔɔ
kɔdaa
kɔdan
kɔdii
kɔduruu
kɔdɔm
kɔdɔmm
kɔdɔɔm
kɔe
kɔeɛ
kɔfa
kɔfaa
kɔfabaeɛ
kɔfe
kɔgu
kɔgye
kɔgyee
kɔgyina
kɔgyinaa
kɔhwehwɛ
kɔhwɛ
kɔhyɛ
kɔhyɛɛ
kɔka
kɔkaa
kɔkyerɛɛ
kɔkɔ
kɔkɔɔ
kɔla
kɔle
kɔlege
kɔlegy
kɔlegye
kɔlegyi
kɔlera
kɔlɛgy
kɔlɛgyi
kɔm
kɔma
kɔmaa
kɔmfo
kɔmhyɛni
kɔmisa
kɔmisan
kɔmmisa
kɔmmisan
kɔmputa
kɔmpɔ
kɔn
kɔndɔm
kɔnsɛt
kɔntenkorɔ
kɔntɔnkorɔ
kɔnyaa
kɔpem
kɔpemm
kɔpere
kɔperee
kɔpree
kɔr
kɔsi
kɔsii
kɔso
kɔsra
kɔsraa
kɔsua
kɔsuaa
kɔtee
kɔtena
kɔtenaa
kɔtenafo
kɔto
kɔtoa
kɔtoaa
kɔtonimaa
kɔtoo
kɔtra
kɔtɔ
kɔtɔn
kɔtɔnimaa
kɔwuraa
kɔyɛɛ
kɔɔ
kɔɔto
kɛkɛ
kɛse
kɛseyɛ
kɛseɛ
kɛseɛm
kɛtɛasehyɛ
l
la
laamanni
lab
label
labels
labik
labo
labone
laboratoire
laboratory
labour
lac
lacma
ladan
ladies
lady
ladyship
lagoon
lagos
laid
lake
lakes
lakeside
lakshmi
lalibela
laluah
lambussie
lamottei
lamptey
lancet
land
landi
landmarks
landmass
lands
landscape
lane
lang
langlois
language
languages
languedoc
lanka
lankana
laos
lara
larabanga
larbi
larbie
large
larger
largest
lariba
larteh
lartey
laryea
las
laser
last
lastest
late
lateef
later
latest
latin
latino
latitude
latter
latvia
laud
launch
launched
launches
laura
lava
laval
law
lawerence
lawerh
lawra
lawrence
laws
lawyer
lawyers
lay
lazamankwala
lazio
lazzaretto
lb
lc
lccn
le
lead
leader
leaders
leadership
leading
leafylife
league
leaking
leap
learn
learnakan
learning
least
leave
leaves
leaving
lebanon
lecture
led
ledzokuku
lee
leeds
left
legacies
legacy
legal
legalization
legalize
legend
legislation
legislative
legislature
legon
legrand
leicester
leila
leipzig
leishmania
leishmaniasis
lejla
lengai
length
leo
leon
leonard
leonardo
leone
leonembaidoo
leontina
leopold
lepa
lepcis
leptis
lernia
leru
les
lesbians
lesia
lesley
less
let
leti
letter
letters
leukemia
leuser
levant
level
levelid
levels
lever
levy
lewis
lez
leđa
lg
lgbt
li
lia
lib
liberal
liberals
liberation
liberia
liberty
libia
library
libreville
libya
lic
lice
license
lichen
lie
lieutenant
life
lifestyle
liga
light
lightgrey
lighthouse
like
lil
lim
liman
limann
limestone
limit
limited
limted
lincoln
linda
line
lineal
linegrey
lines
linguistic
linguistics
link
linked
linkedin
linking
links
linnaeus
lion
lipkalimor
liquid
lisa
lisbon
lisinski
list
listclass
listed
listen
listing
listn
listpadding
lists
liststyle
lit
literacy
literary
literature
lithuania
lithur
little
live
lived
liver
liverpool
liverpudlian
lives
livestock
livestreaming
living
livorno
lj
ljevis
ljubav
ljubavi
ljubljana
lk
ll
lla
llb
llm
lloyd
lm
ln
lner
lng
lo
loango
loc
local
locale
located
location
locations
lockdown
locke
lodge
lodi
lodigiana
lodigiano
log
logo
logos
loi
loire
lokko
lokkombaidoo
lola
lombard
lombardo
lombardy
lome
london
lonely
long
longer
longford
longitude
looks
lope
lord
lords
lorenzo
lorry
los
loses
lost
lothar
lou
loud
louis
louise
louisiana
lourenc
love
lovinger
low
lowa
lower
lpg
lps
lsraefo
lt
ltd
lu
lua
lublin
luc
lucknow
lucy
ludovico
luigi
luka
luke
lumor
lungu
lupus
luther
luxmanda
lvoire
lydia
lydiadj
lymphoma
lynn
lyon
lyrics
lɔre
lɔya
lɔyani
lɔɔre
lɛda
lɛtɛ
m
ma
maa
maafo
maame
maamenom
mabang
mabel
mabre
macedonia
mach
machine
machinery
mackey
maclean
macmillan
mad
madagascar
madam
madame
made
madina
madison
madjoub
madrid
mae
mafi
mafia
mafoɔ
magazine
maggiore
magic
magma
magna
magnetic
magnus
mago
maha
mahajan
mahal
mahama
mahamadu
mahamudu
mahe
mahogany
mai
mail
main
mainland
mainspace
maintain
maintained
maintenance
mainu
mainz
maize
majid
majik
majo
major
majorfestivals
majority
majorityleader
mak
maka
make
makes
makeup
making
mako
makola
malaria
malawi
malaysia
male
maleo
mali
malik
mall
mallam
mallorca
mallory
malta
maluwe
mama
mame
mamfe
mamluk
mamlukfo
mamoako
mampanin
mampanini
mampog
mampong
mamprusi
mamtamu
mamtech
man
manaf
manageable
management
manager
managers
managing
manasseh
manatam
manchester
mandarin
mandatory
mande
mane
manfo
manfoɔ
mangrove
manhean
manhene
manhyia
manifestations
manjil
mankani
mankarigu
mankessim
mann
mannyɔkuo
mano
manolic
manpanin
manpanini
manpanyin
manpayin
manpong
manpower
mans
mansa
mansin
mansini
mansisni
manso
mansoafo
mansoafoɔ
manson
mansotwe
mansur
mantam
mantamu
mantan
mantanm
mante
mantem
mantemu
mantɔw
mantɛm
manu
manual
manually
manuel
manufacturing
many
manya
manyɔkuo
manyɔni
map
mapa
mapasua
mapnyinfo
mapper
mapping
maps
mapsize
mar
mara
maracana
marahyɛ
marahyɛbadwa
marahyɛbadwani
marahyɛnin
maranatha
marathon
marc
marca
marcel
march
marco
marcus
mare
marfo
margaret
margin
mari
maria
marie
marietta
marin
marina
marine
marino
mario
maritime
mark
markasantechief
marked
marker
market
marketing
marketscreener
marko
marks
markup
marleen
marleenhutchful
marriage
married
mars
marsamxett
marsden
marseille
marshaller
martin
martinezya
martino
martins
maru
marvin
mary
maryjonah
maryland
mas
maseta
masge
mashie
masini
masjid
masovian
mass
massachusetts
massandra
massara
massenet
massif
massimo
massive
mast
masta
master
mastering
masters
mata
mataheko
matam
match
matched
matches
matching
mate
mateo
mater
material
materials
maternal
matey
mathematical
mathematician
mathematics
mathew
mathias
mathieu
maths
matibabu
matilda
matiscope
matrifocal
matrilineal
matteo
matter
mattew
matthew
maurice
mauritania
mauritius
maurizio
mauro
mava
mavis
mavka
maw
mawugbe
mawuko
max
maxim
maximum
maxwell
may
maya
mayenne
mayo
mayoclinic
mayor
mayors
mayweather
mayɛ
mb
mba
mbaidoo
mbanga
mbe
mber
mbeya
mbo
mbra
mbweni
mc
mcbrown
mccarthy
mcfarland
mcgregor
mclean
me
mea
meal
meals
mean
meaning
meanings
means
measles
measure
measurement
measurements
meat
mecca
mechanical
mechanism
med
medal
medals
media
mediacentre
mediation
mediawiki
medical
medication
medicina
medicine
medie
medieval
medikal
medina
mediteranea
mediterranea
mediterranean
medium
meet
meeting
meets
mega
megan
meinu
meko
melanesia
melanoma
melbourne
meleke
melilla
mellitus
melvin
mem
member
members
membership
membrane
memeneda
memorial
memory
men
mena
mends
mene
meni
menka
menkabi
menopause
mens
mensa
mensah
menson
mental
mente
menu
menya
menyaa
menye
mer
mercer
merchant
merck
mercy
mere
merely
mereti
mergedbottomrow
mergedrow
mergedtoprow
merit
merlin
merriam
mers
merɛ
mesenteric
mesic
mesiko
mesopotamia
message
messages
messiah
met
meta
metabolic
metadata
metal
metaphor
metastasis
metastatic
meters
method
methodist
metre
metres
metric
metro
metropolis
metropolitan
mettle
mexico
meyir
mez
mezenwolebiah
mf
mfa
mfahodie
mfantefoɔ
mfantseman
mfantsiman
mfantsipim
mfaso
mfasodeɛ
mfasoɔ
mfata
mfatoho
mfe
mfeha
mfehaha
mfei
mfenhyia
mfeɛ
mfi
mfiase
mfidi
mfididwuma
mfididwumayɛfoɔ
mfidie
mfidisɛm
mfie
mfiedie
mfifini
mfimfim
mfimfin
mfimfini
mfinfii
mfinfin
mfinfini
mfinifini
mfinimfin
mfinimfini
mfiri
mfiridwuma
mfirihyia
mfirinnwuma
mfirinwuma
mfiteaseɛ
mfitiase
mfitiaseɛ
mfomso
mfomsoɔ
mfoni
mfonibea
mfonin
mfonini
mfoninitwa
mfoniniyɛfo
mfonisie
mfonyini
mframa
mfudeɛ
mfutuma
mfuw
mfɛfo
mfɛfoɔ
mg
mga
mi
mia
miami
michael
micheal
michel
michele
michigan
microbiology
microformat
microformats
microphone
microsoft
miczd
mid
middle
midi
midwifery
miensa
miensah
mienu
might
mighty
migraine
migrants
migration
miguel
miilano
mike
mila
milan
milano
mildred
mile
miles
milimetar
milion
military
millennium
miller
million
millions
mills
milton
milwaukee
mim
min
minacord
minaret
minarets
minato
mind
mine
mineral
minerva
mines
minh
minimalist
minimum
mining
ministe
minister
ministerial
ministers
ministra
ministries
ministro
ministry
minn
minnesota
minniti
minor
minority
minorityleader
minsk
mint
mintah
minutes
minyaa
mion
miotso
miracle
mirai
mirika
miro
mirror
misa
misconductreview
misraim
misrim
miss
missing
mission
missionary
mississippi
mit
mita
mixed
mixtape
miyan
miɛnsa
mj
ml
mm
mma
mmaa
mmaako
mmaatan
mmaayewa
mmabaa
mmabaabere
mmabaawa
mmabarima
mmabea
mmabun
mmabunbere
mmabunu
mmadwoa
mmae
mmaeɛ
mmakan
mmammaa
mman
mmanana
mmanoma
mmara
mmaradwuma
mmarahybadwani
mmarahye
mmarahyɛ
mmarahyɛbadwa
mmarahyɛbadwafie
mmarahyɛbadwafo
mmarahyɛbadwafoɔ
mmarahyɛbadwakuo
mmarahyɛbadwam
mmarahyɛbadwamfo
mmarahyɛbadwamfoɔ
mmarahyɛbadwamni
mmarahyɛbadwamu
mmarahyɛbadwan
mmarahyɛbadwani
mmarahyɛbadwanii
mmarahyɛbadwanni
mmarahyɛbagua
mmarahyɛbaguamuni
mmarahyɛbedwa
mmarahyɛbedwafie
mmarahyɛbedwafoɔ
mmarahyɛbedwakuo
mmarahyɛbedwam
mmarahyɛbedwan
mmarahyɛbedwani
mmarahyɛbedwanii
mmarahyɛbedwaniii
mmarahyɛbɛdwa
mmarahyɛbɛdwafie
mmarahyɛbɛdwam
mmarahyɛbɛdwani
mmarahyɛfo
mmarahyɛni
mmarakwan
mmarani
mmaranim
mmaranimfo
mmaranimfoɔ
mmaranimkuo
mmaranimni
mmaranimnii
mmaranketewa
mmarhyɛ
mmari
mmarima
mmarimaa
mmarimayɛ
mmati
mmayewa
mmda
mmea
mmeae
mmeaeɛ
mmeamea
mmeamudua
mmeawa
mmeaɛ
mmeinu
mmepɔ
mmepɔw
mmer
mmera
mmerahyɛ
mmerahyɛbadwam
mmerahyɛbadwani
mmerante
mmerantebere
mmeranteɛ
mmere
mmerewa
mmerɛ
mmerɛbo
mmerɛw
mmerɛwyɛ
mmfa
mmien
mmiensa
mmienu
mmire
mmirika
mmirikatu
mmirikatuo
mmisae
mmiɛnsa
mmo
mmoa
mmoahwɛfo
mmoaninko
mmoawa
mmoawammoawa
mmoba
mmoden
mmofra
mmofraase
mmofraberem
mmofrase
mmogya
mmom
mmonnaato
mmoroso
mmorosoɔ
mmotan
mmra
mmrahyɛ
mmrahyɛbadwa
mmrahyɛbadwafie
mmrahyɛbadwafoɔ
mmrahyɛbadwam
mmrahyɛbadwamu
mmrahyɛbadwamuni
mmrahyɛbadwani
mmrahyɛbadwanyi
mmrahyɛbadwfie
mmrahyɛbedwa
mmrahyɛbedwafie
mmrahyɛbedwafo
mmrahyɛbedwafoɔ
mmrahyɛbedwam
mmrahyɛbedwani
mmrahyɛbɛdwa
mmrahyɛbɛdwafie
mmrahyɛbɛdwafoɔ
mmrahyɛbɛdwam
mmrahyɛbɛdwani
mmrane
mmranimfoɔ
mmrɛ
mmrɛw
mmuae
mmuaeɛ
mmuaɛ
mmubui
mmusua
mmusuafo
mmusuakuo
mmusuakuw
mmɔ
mmɔdemmɔ
mmɔden
mmɔdenbɔ
mmɔdene
mmɔdenmmɔ
mmɔdenmɔ
mmɔfra
mmɔfrase
mmɔguo
mmɔho
mmɔle
mmɔnka
mmɔnten
mmɔre
mmɔtafowa
mmɔtofoa
mmɛrema
mmɛrima
mmɛyɛ
mn
mnatam
mo
moa
mobile
moctar
mod
mode
model
modelling
models
modern
modernghana
modernism
modestus
module
modules
moesha
mofa
mofep
mogya
mogyamorosoɔ
mogyatɔw
mohammad
mohammed
mohammedanism
moi
moin
moj
moja
moje
mojih
moldova
mole
molecular
molecule
molina
molluscs
molly
mom
mombasa
momma
mona
monaco
monarch
monday
mondo
money
monica
monitor
monitoring
monkey
monkɔ
mono
monospace
monrovia
monsieur
mont
montane
monte
montenegro
montessori
month
months
montpellier
montsoreau
monument
monuments
monusco
moo
moon
moore
mop
moral
more
morelos
morgan
morkwa
mornah
morning
moro
moroccan
morocco
morojele
morphological
morris
morrison
mortality
mos
mosaic
moscheta
moscow
mose
moses
moslem
mosler
mosque
mosques
mosquito
mossi
most
mother
moti
moto
motor
motto
moukalaba
moulay
mount
mountain
mountains
mourns
mourrut
mouse
mouth
movement
movie
movies
mowbray
moxon
moyenne
moz
mozambique
mozilla
mp
mpa
mpaapaemu
mpaboa
mpae
mpaebɔ
mpaeɛ
mpambi
mpan
mpanimfoɔ
mpanin
mpaninfie
mpaninfoɔ
mpaninnie
mpanyimfo
mpanyimfoɔ
mpanyin
mpanyinfo
mpanyinfoɔ
mpapahwekwa
mpasoa
mpasoasofoɔ
mpasua
mpasuaso
mpataa
mpataayi
mpatam
mpem
mpempem
mpempii
mpen
mpena
mpenatwe
mpenatweɛ
mpenu
mpere
mperɛ
mpesoa
mpesoaso
mpesua
mpesuaso
mpeusa
mph
mphethi
mphil
mpo
mpoano
mpoanombaidoo
mpofirim
mpohor
mpoma
mpon
mpontu
mpontunnwuma
mpontunwuma
mpontuo
mponua
mpotam
mpoto
mpotuo
mpotɛmu
mpraeso
mprako
mpremprem
mprempren
mprenpren
mprensa
mprenu
mprenusoɔ
mprɛ
mprɛmprɛn
mprɛnprɛn
mprɛnsa
mprɛnu
mprɛnusoɔ
mps
mpue
mpuntu
mpuntuo
mpɔn
mpɔnkye
mpɔnpɔn
mpɔtam
mpɔtamu
mpɔtorɔ
mpɔtɛm
mpɛ
mpɛm
mpɛmpii
mpɛn
mpɛnpii
mpɛnsɛnpɛnsɛmu
mpɛsoa
mpɛsoaso
mpɛsoasofoɔ
mpɛsoɔ
mpɛsua
mpɛsuaso
mpɛsuasoɔ
mr
mrs
mrsyvonnenduom
ms
msasani
msc
msd
msemen
mshila
msimps
mt
mtn
mu
mua
muammar
mubarak
much
mud
mufo
mugabe
muhammad
muhammadu
muhammed
muhttp
muhttps
multi
multibacillary
multicol
multilingual
multimedia
multiple
multiples
multiplication
mum
mumbai
mumin
mummuni
mumu
mumuni
mun
mundo
muni
municipal
municipality
municipios
muntaka
mununkum
murray
murugan
musa
musah
muse
museum
museums
museveni
music
musical
musician
musicians
muslim
must
mustang
mustapha
mutations
mutiny
mutism
muu
mvhttps
mw
mwine
my
myanmar
mycobacterium
myjoy
myjoyonline
mynewsgh
myradiogoldlive
mystery
myth
mzvee
mɔlta
mɛyɔ
mʊslɪm
n
na
naa
naadu
naana
naas
naayɛ
nab
naba
naban
nabaso
nabataean
nabatoɔ
nabdam
nabila
nabrabɔ
nacional
nadesua
nadia
nadmo
nadowli
nadwoli
nadwuma
nagara
nagila
nai
nairobi
naked
nakore
nal
nalerigu
nam
name
named
namedata
names
namespace
namespaces
namibia
naming
namkumfo
namtɔnfo
nan
nana
nanabea
nanana
nananom
nancy
nandom
nane
nanefua
nani
nanim
nanka
nankana
nankasa
nanmu
nanmusini
nanning
nanny
nansan
nanso
nante
nanterre
nantew
nanton
nantwi
nantwie
nanumba
nanwɔtwe
napoca
napoleon
napoli
narc
narh
narmad
nartey
nas
nasa
nasaasetam
nasser
natalia
natalie
nathaniel
nation
national
nationale
nationalism
nationalist
nationality
nations
nationwide
native
natrocarbonatite
natron
natura
natural
nature
naval
navbar
navbox
navboxes
navigation
navigational
navrongo
navy
nawieɛ
nawofoɔ
nawotwe
nawɔtwe
nayiri
nazaretefoɔ
nazareteni
nazareth
nb
ncbi
ncce
nchen
nchumuru
ncia
ncov
ncp
nd
nda
ndc
ndcdecides
ndidisoɔ
ndp
ndr
nduane
ndudu
nduom
ndwo
ndwom
ndwomto
ndwomtofoɔ
ndwomtoni
ndwuma
ndwumakuo
ndwumakuw
ne
nea
neama
near
nearest
nebraska
necessarily
necessary
nee
need
needed
needham
needle
needles
needs
negara
negative
nego
negri
neho
neil
neither
nekad
nekasa
nelson
nene
nensa
neo
neolithic
nepal
nephew
nephrolithiasis
nested
nesting
net
netherlands
network
neurological
neurology
nevada
never
new
newline
newly
newman
newmont
newpatrioticparty
news
newsarchive
newscaster
newsghana
newspaper
newspapers
newton
newvision
next
neɛ
neɛma
nfa
nfatoho
nfidie
nfidiedwuma
nfie
nfinfin
nfoni
nfonitwa
nframa
ng
nga
ngissah
ngleshie
ngmayem
ngo
ngodua
ngoma
ngrɛsi
ngu
nguye
nguyen
ngwo
ngye
ngyinasoɔ
ngyiresi
nh
nha
nhaban
nhabannuru
nhama
nhan
nhaw
nhemfo
nhenkurow
nhess
nhia
nhiem
nhin
nhini
nhoma
nhomakorabea
nhomanimfo
nhomasua
nhomsua
nhttps
nhu
nhunu
nhunumuu
nhuru
nhw
nhwehw
nhwehwɛ
nhwehwɛmu
nhwehwɛmubea
nhwehwɛmufo
nhwehwɛmufoɔ
nhwehɛmu
nhweɛsoɔ
nhwi
nhwiren
nhwɛ
nhwɛhwɛmu
nhwɛso
nhwɛsode
nhwɛsodeɛ
nhwɛsoɔ
nhyehy
nhyehye
nhyehyeeɛ
nhyehyei
nhyehyeɛ
nhyehyɛ
nhyehyɛe
nhyehyɛeɛ
nhyehyɛmu
nhyia
nhyiaeso
nhyiam
nhyiamu
nhyiamudeɛ
nhyiamudie
nhyiemu
nhyira
nhyɛ
nhyɛda
nhyɛn
nhyɛso
nhyɛsoɔ
ni
nia
niccolo
nice
nicholas
nickname
nicknames
nico
nicola
nicolas
nicole
niddk
nidi
nie
niece
nifa
niger
nigeria
nigeriafoɔ
nigerian
nigeriani
night
niguarda
nih
nii
niit
nije
nikki
nikoi
nikola
nikolay
nil
nile
niloticus
nim
nimba
nimdee
nimdefo
nimdefoɔ
nimdeɛ
nimdeɛfoɔ
nimdie
nimdifoɔ
nimo
nimpa
nina
nine
nineteenth
ningkpeng
ningo
nio
niokolo
nip
nipa
nipadua
nipaduam
nipakuo
nipasu
nippon
nishliu
nissan
nitiwul
nitrogen
niumi
nixon
nj
njala
nk
nka
nkaa
nkabi
nkabom
nkabomkuo
nkabomkuw
nkabomman
nkabomu
nkabɔmkuo
nkabɔmu
nkae
nkaebea
nkaebɔ
nkaedeɛ
nkaedi
nkaedum
nkaeɛ
nkaeɛbɔ
nkafua
nkakra
nkakrakakra
nkakrankakra
nkamfoɔ
nkan
nkane
nkanea
nkani
nkanka
nkankan
nkankɔ
nkansah
nkanyan
nkanyansom
nkasa
nkatanim
nkatasoɔ
nkate
nkatenkwan
nkateɛ
nkatiɛ
nkawie
nkawkaw
nkayan
nkekaho
nkekahoɔ
nkesua
nketaho
nketahodie
nketekete
nketenkete
nketewa
nketewaa
nketia
nketiah
nketoa
nkitaho
nkitahode
nkitahodi
nkitahodie
nkitinkiti
nko
nkoa
nkoaa
nkoanim
nkoara
nkoasom
nkoatɔn
nkoekoemmoa
nkogu
nkogua
nkogudi
nkoguo
nkoko
nkokoaa
nkokorafie
nkokɔ
nkomo
nkondwa
nkongua
nkonim
nkonimbo
nkonimboɔ
nkonimdi
nkonimdie
nkonimdifoɔ
nkonnwa
nkono
nkontaa
nkontaabufoɔ
nkontaabuo
nkontabufoɔ
nkontabuo
nkonwa
nkonya
nkor
nkorabata
nkoranza
nkorɔfo
nkorɔfoɔ
nkosua
nkotodwe
nkr
nkra
nkrae
nkrakra
nkraman
nkramo
nkramodan
nkramofo
nkramofoɔ
nkramoni
nkramosom
nkramosombea
nkran
nkranfo
nkranfoɔ
nkrasɛm
nkrata
nkrataa
nkrataasɛm
nkratafa
nkratoɔ
nkro
nkrofoɔ
nkron
nkrufo
nkruma
nkrumah
nkruɔfo
nkrɔfo
nkrɔfoɔ
nkrɔn
nkrɔŋ
nku
nkuguo
nkuku
nkukuo
nkum
nkumaa
nkundwa
nkunim
nkunimdie
nkunimdifo
nkunimdifoɔ
nkuo
nkura
nkuraa
nkuraase
nkurafidie
nkuran
nkuranhyɛ
nkuranhyɛsɛm
nkurase
nkurasefoɔ
nkuraseɛ
nkuro
nkuropɔn
nkurow
nkurɔfo
nkurɔfoɔ
nkusukum
nkutahodie
nkuto
nkutoo
nkuu
nkwa
nkwaadɔm
nkwaboaa
nkwadaa
nkwammoa
nkwammoaa
nkwan
nkwanta
nkye
nkyea
nkyeky
nkyekye
nkyekyem
nkyekyemu
nkyekyɛ
nkyekyɛm
nkyekyɛmu
nkyekɛm
nkyem
nkyemu
nkyen
nkyene
nkyer
nkyereaseɛ
nkyerɛ
nkyerɛase
nkyerɛaseɛ
nkyerɛkyerɛ
nkyerɛkyerɛmu
nkyerɛmu
nkyerɛw
nkyerɛwde
nkyerɛwdeɛ
nkyerɛwee
nkyerɛɛ
nkyi
nkyibena
nkyidwo
nkyɛ
nkyɛe
nkyɛkyɛm
nkyɛm
nkyɛmu
nkyɛn
nkyɛnkyɛn
nkɔ
nkɔanim
nkɔdaa
nkɔm
nkɔmhyɛ
nkɔmhyɛfoɔ
nkɔmhyɛni
nkɔmmɔ
nkɔmmɔbɔ
nkɔmɔ
nkɔmɔdie
nkɔnsɔnkɔnsɔn
nkɔsi
nkɔso
nkɔsoɔ
nkɔɔ
nkɛntɛnso
nkɛntɛnsoɔ
nl
nlc
nle
nlm
nm
nmaak
nmi
nn
nna
nnaano
nnabupon
nnabupono
nnadewa
nnafua
nnaka
nnam
nnamfo
nnamfofa
nnamfofoɔ
nnamfonom
nnan
nnansa
nnanu
nnapɔnna
nnawɔtwe
nnawɔtweda
nne
nneama
nnedua
nnei
nnema
nnena
nner
nneyɔeɛ
nneyɛe
nneyɛeɛ
nneyɛɛ
nneɛma
nni
nnianim
nnidiso
nnidisoɔ
nnim
nnimdeɛ
nnipa
nnipaa
nnipadua
nnipadɔm
nnipakan
nnipakuo
nniso
nnisoɔ
nnnipa
nnnnnn
nno
nnomaa
nnompe
nnoɔma
nnu
nnua
nnuaba
nnuadewa
nnuan
nnuane
nnubɔne
nnum
nnuma
nnuro
nnuroyɛ
nnuru
nnuruyɛ
nnuruyɛfo
nnwa
nnwene
nnwinnade
nnwodwoeɛ
nnwom
nnwoma
nnwomakorabea
nnwomasua
nnwomto
nnwomtofoɔ
nnwomtoni
nnwomtoɔ
nnwomyɛfoɔ
nnwontofo
nnwotwe
nnwuma
nnwumadie
nnwumakuo
nnwumakuw
nnwɔtwe
nnya
nnyaa
nnyanka
nnyarewa
nnye
nnyeso
nnyetom
nnyigyei
nnyina
nnyinaso
nnyinasosɛm
nnyinasoɔ
nnyɛ
nnɔ
nnɔbae
nnɔbaeɛ
nnɔkɔnnɔkɔwade
nnɔnhwerew
nnɛ
nnɛyi
no
noa
nobel
noble
node
noeditsection
nofosuo
noguchi
nohttp
nohttps
noise
nokoe
nokor
nokware
nokwaredi
nokwaredie
nokwarem
nokwasɛm
nom
noma
nombre
nominated
nomination
nominator
nominee
nomobile
nomu
non
none
nono
noo
nor
norbert
nordic
noreplace
normal
normally
norman
norse
nortey
north
northac
northen
northern
northjoana
northkwesiraul
norths
nortsu
norway
norwegian
nos
nostrum
not
notaari
notable
notaries
notation
note
noted
notes
nothing
notice
notoc
notre
notsie
nottet
noun
nov
novak
novel
novelist
november
novgorod
now
nowrap
nowrapitems
noɔ
noɔma
np
npan
npp
npr
nr
nrc
nrp
ns
nsa
nsaa
nsaano
nsaanodwuma
nsaase
nsaba
nsae
nsakrae
nsakraeɛ
nsala
nsam
nsaman
nsamanfo
nsamanfoɔ
nsamanwa
nsamu
nsan
nsane
nsaneyareɛ
nsano
nsanodwuma
nsanyadeɛ
nsanyareɛ
nsasae
nsase
nsasesin
nsateaa
nsatoɔ
nsawa
nsawam
nsawansawa
nsawɔsoɔ
nse
nseisei
nsem
nsenia
nsensanee
nsensene
nsesa
nsesae
nsesaeɛ
nsesamu
nsf
nsi
nsia
nsiah
nsiakyibaa
nsiananmu
nsiesie
nsii
nsisi
nsiw
nsmq
nso
nsoah
nsohwɛ
nson
nsonsoneɛ
nsonsono
nsonsonoe
nsonsonoeɛ
nsonsonsoɔ
nsonsonyɛ
nsonsuansoɔ
nsoroma
nsoromma
nsoso
nsosoe
nsosuanso
nsow
nsrahwɛ
nsrahwɛbea
nsrahwɛfo
nsrahwɛfoɔ
nsu
nsuaem
nsubɔnten
nsubɔntene
nsufi
nsukorabea
nsukyenee
nsunsansoɔ
nsunsuanso
nsunsuansoɔ
nsunsuasoɔ
nsuo
nsuohyeɛ
nsuom
nsuomnam
nsuomu
nsuomunam
nsuonwini
nsupɔw
nsusueɛ
nsusuiɛ
nsusuwii
nsuta
nsuten
nsutene
nsutɔ
nsutɔberɛ
nsuwa
nsuyiri
nsɔ
nsɔhwɛ
nsɔn
nsɔre
nsɛ
nsɛdi
nsɛe
nsɛm
nsɛmbisa
nsɛmfua
nsɛmkwaa
nsɛmkyerɛni
nsɛmkyerɛwfo
nsɛmkyerɛwni
nsɛmma
nsɛmmisa
nsɛmmɔne
nsɛmmɔnedi
nsɛmnsɛm
nsɛmpakani
nsɛmpatrɛfoɔ
nsɛmsoɔ
nsɛmsɛm
nsɛmti
nsɛmtwerɛ
nsɛmtwerɛfo
nsɛmtwerɛfoɔ
nsɛmtwerɛni
nsɛnkwaa
nsɛnkyerene
nsɛnkyerɛne
nsɛnkyerɛnne
nsɛnkyerɛnneɛ
nsɛnnennen
nsɛnsɛm
nsɛntwerɛ
nsɛntwerɛfo
nsɛntwerɛfoɔ
nsɛntwerɛni
nsɛso
nt
ntaa
ntaade
ntaadehyɛ
ntaadeɛ
ntaafoɔ
ntaban
ntade
ntadehyɛ
ntadeɛ
ntam
ntama
ntamgyinafo
ntamgyinafoɔ
ntamgyinani
ntansa
ntanta
ntawantawa
ntawntawdi
ntawntawdie
nte
ntease
nteaseɛ
nteaseɛnam
ntee
nteetee
ntehyeewa
ntem
ntena
ntentan
ntete
ntetee
nteteeyɛ
nteteeɛ
nteteyɛ
nteteɛ
nteɛso
nti
ntia
ntim
ntini
ntira
nto
ntoa
ntoaso
ntoasoɔ
ntoatoaso
ntoatoasoɔ
ntoboa
ntobro
ntokontrama
ntokwa
ntom
ntoma
ntomtom
ntonso
ntontom
ntoosi
ntoso
ntosu
ntotoe
ntotoeɛ
ntotoho
ntotoiɛ
ntotroso
ntow
ntra
ntrɛ
ntrɛmu
ntrɛwmu
ntu
ntua
ntuboa
ntum
ntumi
ntummoa
ntutuo
ntwahonan
ntwea
ntwemu
ntwene
ntwereɛ
ntwitwiridii
ntwo
ntɔ
ntɔkwa
ntɔkwaw
ntɔn
ntɔtɔfeewa
ntɛm
ntɛmntɛm
ntɛmpɛ
ntɛntɛm
nu
nua
nuabaa
nuabarima
nuabea
nuabeanom
nuah
nuako
nuamah
nuammaa
nuammarima
nuanom
nubia
nuclear
nucleotide
nueva
nufu
nufusu
nuklea
num
number
numbered
numbers
numeral
numeric
nun
nungua
nunoo
nuoc
nur
nurse
nursery
nurses
nursing
nurudeen
nut
nutrition
nwabiagya
nwamife
nwansena
nwanwa
nwanwasoɔ
nwapa
nware
nwelue
nwene
nwi
nwii
nwini
nwo
nwoase
nwom
nwoma
nwomanimfoɔ
nwomasua
nwomtoni
nwomtonii
nwomtoɔ
nwono
nwontoni
nwonwa
nwotwe
nwowa
nwu
nwuma
nwumakuo
nwumasua
nwunu
nwura
nwɔtwe
ny
nya
nyaa
nyaaeɛ
nyae
nyaeɛ
nyakrom
nyam
nyame
nyamekye
nyamesom
nyamewa
nyane
nyankomade
nyankontɔn
nyankopɔn
nyanor
nyanpon
nyansa
nyansahu
nyansahufo
nyansahyɛ
nyansapɛ
nyansapɛfo
nyanua
nyarewa
nyarko
nyaruai
nye
nyehyɛe
nyerere
nyi
nyiamu
nyimpa
nyin
nyina
nyinaa
nyinara
nyinasoɔ
nyindam
nyini
nyinii
nyinsɛn
nyinsɛntogu
nyisaa
nyiyim
nyiyimu
nylander
nytimes
nyuanu
nyungu
nyɛ
nz
nzema
nzulezo
nzulezu
nɔ
nɔa
nɔma
nɛɛse
o
oara
obaa
obama
obarima
obbin
obe
obed
obedi
obedii
obegye
obenfo
obeng
obenim
obenya
obesity
obetsebi
obetu
obetumi
obgyn
obi
obia
obiaa
obiara
obibiara
obibini
obimpeh
obiri
obit
object
objectif
objects
oblayo
obodai
obom
obomeng
obonyaa
oboro
obour
obroni
observatory
observe
observer
obstetrics
obstruction
obtained
obu
obuasi
obubuafo
obubuo
obuo
obusuani
oc
occitan
occupation
occupations
occur
occurs
ocean
oceania
oceanic
oclc
ocloo
ocran
oct
october
od
oda
odambea
odame
odd
odds
oddstyle
ode
odeneho
odi
odii
odiikan
odikan
odikanfo
odike
odikuro
odiyifoɔ
odo
odoben
odoi
odoom
odorgonno
odotobri
odumase
odumasi
odunsini
odunton
oduom
oduro
oduruyɛfo
oduyɛfoɔ
odwan
odwira
odwomtoni
oecd
oed
oer
of
ofa
ofe
off
offei
office
officeholder
officeholders
officer
officers
offices
official
officially
offin
offinso
offset
offspring
ofi
ofie
ofiehwɛfo
ofii
ofin
ofiri
ofirii
ofirikafo
ofis
ofkoss
ofoase
ofori
oforiatta
oforikrom
oforisuo
ofosu
ofri
often
ofupɛ
ogooue
oguaa
oguadifo
oguamtrani
ogya
ogyae
ogyaframa
ogye
ogyee
ogyefo
ogyefoɔ
ogyefuo
ogyina
ogyinaa
ogyinae
ogyna
oha
ohemaa
ohene
oheneba
ohia
ohio
ohum
ohumkyire
ohunu
ohwɛ
ohyiaa
oikeus
oikeusneuvos
oil
oka
okai
okaikor
okaikwei
okailey
okandifo
okapi
okay
okayafrica
okerchiri
okere
okerefoɔ
okity
oklahoma
oko
okoe
okoh
okomfo
okra
okristoni
okro
oksana
oku
okuani
okuapeman
okudzeto
okum
okunafo
okunafoɔ
okunani
okunini
okunor
okunu
okura
okuraa
okwan
okwankyerɛfo
okyeame
okyere
okyidɔmfo
okyinnsoromma
okyinsromma
ol
ola
old
older
oldest
olimpik
olive
olivestravelandtour
olivia
olivier
olympia
olympic
olympics
oma
omaha
oman
omanhene
omanpanin
omanpanyin
omar
ombudsman
omiflo
omit
omitted
omniglot
omo
omotuo
on
onantefo
once
oncogenes
oncology
one
onepage
ones
onii
oniiko
onim
onimuonyamfoɔ
onini
onipa
online
only
onni
onnii
onnim
ono
ontario
ontumi
onua
onuabarima
onuawa
onuayɛ
onward
onwui
onya
onyaa
onyae
onyame
onyankopon
onyankopɔn
onyeka
onyin
onyinsɛn
oo
op
opanin
opanyin
opare
ope
open
opening
opens
opera
operahyɛn
operated
operating
operation
operations
operator
ophelia
opin
opinion
opioid
opioids
opira
opodaqaamaaj
opoku
opponents
oppong
opportunistic
opposition
oprehyen
oprehyɛn
option
optional
optionally
options
optometry
oq
oquaye
or
ora
oral
orange
orao
orchards
orchestra
order
ordered
ordering
orders
ordfo
ordinance
ordinary
ordinated
ore
oregon
org
organisation
organisations
organising
organization
ori
oriental
orientation
origin
original
originated
origins
orixa
oro
orozco
orphan
orphans
orsay
orthodox
orthopedic
ortodɔks
os
osa
osafo
osagyefo
osanaa
osatuo
oscar
osebɔ
osei
osi
osii
oslo
osman
osmond
osofo
osono
ospedale
osraani
ossei
ostalo
osti
osu
osua
osuaa
osuaafo
osuahu
osuahunu
osuani
osudoku
osun
osuro
osutɔ
ot
otache
otemmufo
otemufo
oteng
other
others
otherwise
oti
otintimfo
otitenani
otitrani
otoaa
otoo
otsere
ottawa
otto
ottobre
ottoman
ottomans
ottu
otu
otumfoɔ
otumfuo
otumi
otuo
otutenani
otuu
otwa
otwaa
otwabere
otwabre
our
ourstudents
out
outbreak
outcome
outdoor
outer
outline
output
outputs
outreach
outside
outstanding
ov
ova
ovarian
over
overflow
overlay
overridden
override
overrides
overseas
overview
owen
owia
owid
owie
owiee
owl
own
owned
owner
owolabi
owu
owufoɔ
owui
owuiɛ
owuo
owura
owurayere
owusu
owuu
oxfam
oxford
oxfordcompaniont
oxfordislamicstudies
oxidative
oxygen
oya
oye
oyi
oyibi
oyii
oyikyerɛ
oyoko
oyɛ
oyɛɛ
oz
p
pa
paa
paakuna
paane
paano
paanoo
paapa
paapae
pace
pacific
packages
padding
padi
padmore
pae
paee
paepae
paga
page
pagename
pages
pagetype
pagya
pagyaa
pai
pain
painter
painting
pak
pakistan
palace
palazzo
paleolithic
palermo
palestine
palm
palma
palmnut
palms
palmyra
palmyrene
palmyrenefo
pam
pan
panafest
panama
pancreatitis
pandemic
pandemics
paneɛ
panie
panii
panin
paninafua
panini
panyin
paolo
pap
papa
papal
paper
paperback
papers
papillomavirus
papio
pappoe
pappy
papules
par
para
paradise
paragraph
paragraphs
paraherbalism
parali
paralympian
paralympic
paralympics
paralysis
parameter
parameters
paramorder
params
parathyroid
parc
parent
parentheses
parents
paris
park
parkinson
parks
parlia
parliament
parliamentarians
parliamentary
parliamentarygroup
parliamentatian
parline
paroxysmal
parque
parsable
parser
part
partement
partey
parti
participant
participated
participation
particle
particular
parties
partner
partners
partnership
partriotic
parts
party
partyac
partyafia
partyafua
partydaniella
partynana
pas
pascal
pasha
pass
passed
passenger
passengers
passes
passion
passport
password
past
paste
pastoral
patas
paternal
path
pathogens
pathology
paths
patience
patient
patrice
patricia
patrick
patrilineal
patriotic
patroitic
patron
patton
paty
paucibacillary
paul
paulina
pauline
paulo
pavement
pavia
paw
pay
payin
pays
paz
pałac
pcp
pcr
pd
pdc
pdf
pdfhttp
pdfhttps
pdfs
pdfwɔ
pe
pea
peace
peacefmonline
peacefmonlinefm
peacekeeping
pearl
peaw
pediatr
pediatric
pedro
peduase
pee
peel
peerages
pefee
peki
pele
pelican
pellumbas
pelpuo
pelvic
pem
pen
pence
pendjari
pene
penee
penguin
peninsula
penkye
penkyi
penn
pennsylvania
pens
pentecost
pentecostal
pentekost
pentekostfoɔ
pentekostsom
pentikost
peope
people
peoples
pepa
pepem
pepper
peptic
per
perbi
percent
percentage
pere
peree
perez
perform
performance
performer
period
periods
peritonitis
permaculture
permanent
persia
persian
person
personal
personalities
personality
personnel
persons
perspective
perspectives
perth
pertussis
peru
pesewas
pesma
peso
pete
petee
peter
petersburg
petition
petrele
petrinja
petro
petrol
petroleum
pew
pewforum
pfp
pg
pgp
ph
pha
phacochoerus
pharmaceutical
pharmacognosy
pharmacology
pharmacy
phases
phd
phil
philadelphia
philanthropist
philip
philippines
phillipina
phillips
philosopher
philosophy
pho
phong
phosphorylation
photo
photograph
photographer
photos
phototherapy
php
phphttp
phphttps
phpsessid
phrase
phu
physical
physician
physicist
physics
phytofix
pi
pia
piacenza
piacenzian
piano
piazza
picard
picks
pico
picos
picture
pictures
picu
pidgin
piee
pierre
piesie
pieter
pietro
pig
pii
pillars
pilolo
pilot
pink
pinknews
pinkrah
pinpoint
pintinn
pinyin
pioneer
pioneering
pipe
piped
pira
pirogue
pisa
pistol
pitch
pitches
pittsburgh
pixel
pixels
pizza
pj
pjesma
pk
pl
pla
place
placed
places
plagiarism
plain
plainlist
plains
plakali
plan
planet
planning
plano
plans
plant
plantain
plantains
planted
plastic
plastiki
plate
plateau
platform
platforms
platinum
plato
play
playback
played
player
players
playing
plaza
please
plos
ploso
plotarea
plotdata
plunger
plural
plurals
plus
plz
pm
pmc
pmid
pn
pnc
pnd
pndc
pneumonia
png
pnp
po
podgorica
podua
poet
point
points
poku
pokua
pokuah
poland
police
policewoman
policies
policlinico
policy
polio
polish
polisifo
polisini
politburo
political
politician
politicians
politics
politik
pollen
pollination
polls
pollution
polo
poly
polyclinic
polymerase
polynesia
polytechnic
polytechnics
polytechnique
poma
pomaa
pomary
pon
pond
pone
pongara
pono
ponte
poo
pool
poor
pop
pope
popescu
popolazione
popular
population
popup
por
porcupine
porphyria
porridge
port
portal
portela
porter
portfolio
portia
porto
portobelo
portrait
ports
portugal
portuguese
portuguesefoɔ
porɔeɛ
pos
position
positional
positive
poso
possible
possibly
post
postal
postgraduate
postnominal
posts
postscript
potassium
potato
potential
potosi
potsin
pottage
pottery
potɔ
pound
pour
poverty
pow
powder
power
powerful
pox
pp
ppa
ppen
ppp
pr
pra
practical
practice
practices
practising
practitioner
practitioners
pradadaa
prampram
pramso
praslin
pray
pre
preceded
precedes
preceding
precise
precision
precursor
predecessor
predefined
predsednik
pree
prefectural
preferable
preferably
preference
preferences
preferred
prefers
prefix
prefixed
prefixindex
pregnancy
preko
premier
premiere
premium
premiumtimesng
prempeh
prep
preparatory
prepare
preparing
presby
presbytarian
presbyterian
present
presentation
presenter
presently
presents
preserved
preserves
presidency
president
presidente
presidential
presidents
presiding
presidium
press
pressure
prestea
prestigious
pretoria
pretty
preunit
prevalence
prevent
preventing
prevention
preventive
previous
price
primal
primaries
primarily
primary
primate
prime
primeminister
primenewsghana
primidi
primordial
prince
princes
princess
princeton
principal
principis
principles
print
printer
printing
prinzenstein
prior
prisca
priscilla
prison
pristina
pritzker
privacy
private
prix
prize
prizehttps
prizes
pro
probable
probably
problems
procedure
proceedings
process
processing
procurement
produce
produced
producer
producers
produces
product
production
productivity
products
proeski
prof
profession
professional
professor
profile
profiles
profɛsa
program
programa
programme
programmes
programming
programs
progress
progressive
project
projects
promoting
pronounce
pronunciation
proper
properly
properties
property
prophet
proposed
propulsion
proquest
prostate
prota
protected
protection
protectorate
protegidas
protein
protestant
protestantfo
protestantfoɔ
proto
protocol
provide
provided
providence
provides
providing
province
provisional
pru
pruritus
prɔfɛsa
prɛ
prɛko
ps
psc
psephos
psi
psicologia
psoriasis
psud
psychological
psychology
pt
puan
pub
public
publication
publications
publish
published
publisher
publishers
publishing
pubs
pue
puebla
puei
puerto
puff
puheenjohtaja
puisne
puja
pullam
pulse
pumpuni
punctuation
punpuni
puoti
puozaa
puplampu
pupuni
purple
purpose
pushpin
pusiga
put
puts
px
pyelonephritis
pyramid
python
pɔ
pɔn
pɔnkɔ
pɔtee
pɔtɔ
pɔɔfo
pɛ
pɛn
pɛnhyen
pɛnkoro
pɛpun
pɛpɛɛpɛ
pɛsɛ
pɛtro
pɛyɛ
pɛɛ
q
qa
qr
qu
quadrant
quadrillion
qualification
qualified
quansah
quao
quarcoo
quarshie
quarter
quartey
quartz
quashie
quaye
quaynor
que
queen
queens
queenstar
quentin
query
question
questions
quickly
quickstat
quits
quiz
qujiu
quoc
quote
quotes
qur
quran
qusi
quy
r
ra
rabat
race
rach
racing
racontas
radford
radiation
radio
radojka
radon
rafael
ragioni
ragusa
rahman
railway
rainbow
rainforest
rainforests
raised
ramadan
ramaphosa
ran
rand
rande
randolph
random
range
ranges
ranjeni
rank
ranked
ranking
rankings
ransford
ranucci
rap
raphael
rapid
raping
rapper
rapping
ras
rash
rasheed
rashid
rasu
rated
rather
rattray
raw
rawlings
ray
raymond
rc
rcules
rd
rdi
rdoba
re
reached
reaction
reactive
read
readability
readable
reader
readers
reading
ready
reagan
real
reality
rear
reas
reason
reasons
reassures
reba
rebecca
rebel
reboa
rebɔ
rebɛka
receive
received
receives
recent
receptor
receptors
recipe
recipes
recognized
recommendations
recommended
record
recorded
recorder
recording
records
recovers
recreation
rector
rectors
red
redemption
redentor
redevelopment
redi
redir
redirect
redirectedfrom
redirects
redlink
redlinks
reduce
reduced
reducing
reduction
ref
refbegin
refer
referee
reference
references
referendaries
referendum
referred
refers
reflist
reform
reformed
reforms
refs
refugees
regardless
regent
reggae
reggie
regiment
regina
reginald
region
regionac
regionafua
regional
regionfoɔ
regioni
regions
register
registered
registration
regluv
regulamentar
regular
regulation
regye
regyina
rehabilitation
rehwehwɛ
rehwɛ
rehyɛ
reign
reilly
reindorf
reine
reiner
rek
reka
rekasa
reko
rekyerɛ
rekɔ
related
relations
relationship
relationships
relative
relatives
release
released
releases
relevance
relevant
reliable
relief
religion
religious
rema
remain
remaining
remains
remember
remix
remove
removed
removes
renaissance
renal
render
rendered
renders
renewal
rennell
rennya
rentumi
renya
renyin
renzi
reo
repeat
repere
replace
replaced
report
reports
repository
representative
representatives
represented
representing
represents
reprint
repu
republic
republican
republik
republika
republique
repubrik
repɔblik
repɛ
requests
require
required
requirements
requires
reroy
res
resakra
rescue
rescued
research
researchers
researchgate
reserve
reset
reshetnyak
resi
residence
residente
residents
resistance
resoluc
resolve
resort
resource
resources
respect
respective
respectively
respiratory
response
responsibility
rest
restaurant
restaurants
resting
restructuring
result
resulting
results
resurrection
retained
reteatea
retired
reto
retrieved
retu
return
returned
returns
retwe
reuters
rev
reveals
revenue
review
reviews
revised
revival
revolution
revolutionary
revolver
rex
rey
reynolds
reyɛ
rfc
rgaos
rgb
rh
rhetoric
rheumatic
rheumatism
rheumatoid
rheumatology
rhine
rhizophora
rhode
rhodes
rhymz
rhythm
ri
ria
riba
ribat
ribeira
rica
rice
ricerca
rich
richard
richie
richlove
rico
rid
ridge
riding
rieure
rifle
rift
riga
right
rights
rika
ring
ringworm
rio
ripped
ris
rise
rising
risk
rita
rivalries
rivalry
river
rivers
rm
rna
ro
road
roads
robbins
robert
robes
robin
rocco
rock
rockefeller
rocks
rockson
rockstone
rodriguez
roger
roi
rokɔ
role
roles
rolex
roll
roma
romafo
roman
romance
romanesque
romanfoɔ
romani
romania
romanian
romanized
rome
romeo
rona
ronald
ronaldo
roof
room
roosevelt
roots
rore
rosamond
rose
roselyn
rosemary
rosemond
roses
ross
rossi
rosy
rotterdam
rough
round
roundabout
rounded
rounding
rounds
roussillon
route
routledge
rouva
row
rowhttps
rows
roy
royal
rpr
rruga
rs
rsaawah
rschstat
rt
rtb
rtd
rti
rtp
rts
ru
ruba
rue
rufus
rugby
ruins
rukwa
rule
ruler
rules
ruling
rumanatu
run
runway
rural
russia
russiafo
russian
rutgers
ruth
rwanda
rweyora
ryan
rɔhyia
s
sa
saa
saad
saafoɔ
saaka
saalfeld
saamufo
saani
saayɛ
sabea
sabi
saboba
sabratha
sacco
sack
sacked
sackey
saclay
sacred
sadar
sadat
sae
safari
safe
safety
safo
safoa
saforo
sagnarigu
sagoe
sagonidaa
sagrada
sahara
saharan
sahel
sahene
sai
said
saidat
saifi
saigon
sail
saint
sainte
saints
sajada
sakande
sakora
sakra
sakre
sakumono
salaam
saladin
salaga
salamanca
salamatu
salary
salduba
sale
saleh
salem
salia
salifatu
salifu
salisu
sallas
sally
salm
salma
salome
salt
saltpond
salvador
sam
saman
samantha
samarra
samba
same
samena
samia
samina
samini
samira
sammo
sammy
samoa
samonas
sampson
samsun
samuel
samufoɔ
san
sana
sanaa
sanctuary
sandbox
sandema
sanders
sandesh
sandister
sane
saneeɛ
sanford
sang
sangmorkie
sanie
sanitation
sanitizer
sankofa
sanku
sankuo
sanskrit
sanso
sansunni
sant
santa
santacana
santander
sante
santene
santiago
santo
santorini
sao
sapiens
sapienza
sapporo
sara
sarah
sarajevo
saratu
sarawak
sarcoidosis
sarcoma
sare
sarfo
sarfoh
sarkodie
sarpong
sars
sas
sasabrɔ
sasuu
satellite
saudi
sava
savanna
savannah
save
savelugu
saving
savings
savino
saviour
sawa
sawla
sawyer
sawyerr
sax
saxe
saxon
say
says
sb
sc
scabies
scale
scalemajor
scaleminor
scandal
scandinavia
scarcella
sch
scheme
schengen
scherrer
schloss
scholar
scholarship
school
schools
schulbausteine
science
sciencedirect
sciences
scientific
scientifiques
scientist
scienze
scores
scotland
scott
scottish
scout
screen
script
sculptor
sculpture
sda
sdf
sdg
se
sea
seal
seaplane
search
searches
seasonal
seasons
seat
seats
seattle
sebastian
sebastiano
seborrhoeic
sec
seca
second
secondary
secret
secretariat
secretary
section
sectionid
sections
sector
secure
securitas
securities
security
sedeɛ
see
seed
seem
seen
seesei
seesie
sefa
sefwi
sege
sehwi
sei
seidu
seigneurie
seikwa
seine
seini
seisei
seisie
seizure
seizures
sejm
sekan
seko
sekondi
sekou
sekyedumase
sekyedumasi
sekyere
sekyi
select
selected
selection
selective
self
seller
selous
sem
semanticscholar
semen
semester
semesters
semfo
semi
seminary
semitic
semolina
sen
sena
senate
senator
senchi
send
sene
senea
senegal
senegalensis
seneɛ
senior
senna
sennacherb
sensation
sensible
sensɛn
sentence
sentences
sentri
senu
senya
sep
separate
separated
separately
separation
separator
separators
sepetember
sept
september
seq
serbia
serbiafo
serbian
serengeti
sergipe
serial
series
serra
serval
servant
serve
served
service
services
serviceyears
serving
serwaa
ses
sesa
sesaa
sesae
sesamufoɔ
sese
sesei
set
setena
seth
sets
setting
settings
settlement
settlements
setup
seven
several
severe
sevilla
sewaa
sex
sexual
seychelles
seymour
seɛ
sfgate
sfondo
sforza
sforzesco
sg
sgac
sh
shahad
shahada
shahrisabz
shai
shaibu
shakespeare
shall
shama
shame
shangai
shanghai
share
shared
shares
sharing
sharqi
shatta
shattered
shawn
shay
shayning
she
sheep
sheet
sheets
sheikh
sheila
shen
sherif
sherifatu
sheriff
shi
shia
shibam
shield
shift
shim
shin
ship
shipley
ships
shirley
shito
shkode
shocking
shoes
shofe
shooting
shopping
short
shortcut
shortcutboxplain
shortdescription
shot
shotgun
should
show
showbiz
showcase
showed
showing
shown
shows
shrine
shriver
shs
shtete
shtml
si
sia
sialkot
siam
sian
siane
siaw
sibam
sibea
siblings
sic
siccomario
sicily
sid
side
sident
sidney
sie
siemens
sierra
siesie
siesiee
sigaretnom
sigfig
sight
sign
signature
signed
significance
significant
signing
signor
signs
sii
siiɛ
sika
sikadwa
sikakorabea
sikakorabeambaidoo
sikakrabea
sikakrobea
sikakɔkɔɔ
sikan
sikas
sikasem
sikasɛm
sikatua
silicate
silk
silver
silvio
sima
simeon
simien
similar
similarly
simma
simms
simo
simon
simone
simons
simple
simplicity
simply
simpson
simulator
sin
sinare
since
sine
sing
singapore
singer
singing
single
singles
singleton
singular
sini
sinitwa
sinitwafo
sinitwafoɔ
sinitwani
sinitwanii
siniyi
siniyifo
siniyɛ
siniyɛfo
sintim
sintɔ
sio
sir
siria
siriboe
sirigu
sirtuin
sisi
sissala
sissili
sista
sister
sisters
site
sites
sits
situation
sivas
siw
six
sixth
size
sizes
sk
skalina
skanderbeg
sketch
sketches
ski
skies
skiing
skills
skin
skopje
skuul
sky
skyline
sl
slalom
slam
slari
slash
slava
slave
slavers
slavery
slim
slogan
slovakia
slovenia
sm
small
smaller
smallpox
smart
smc
smh
smile
smith
smithsonian
smothers
sniper
snippet
snow
so
soa
soafo
soafoa
soafoɔ
soap
sobo
soboɔ
soc
soccer
social
socialist
society
sociolinguistic
sociologia
sociology
socrates
sodifo
sodifoɔ
sodikuw
sodium
soe
sofia
sofo
soft
software
sogya
sohttp
sohttps
sohwɛ
sohwɛfo
sohwɛfoɔ
sohyia
soil
solar
sold
soldier
solid
solo
solomon
solution
solutions
som
soma
somaa
somafoɔ
somanya
sombo
some
somee
somehow
someone
somerville
something
sometimes
somewhere
somfo
somm
son
sone
song
songhai
songs
songwe
songwriter
sono
sononko
sons
sonyor
soo
soom
soon
sophia
sor
sore
soro
soroko
sorokɔ
soronko
sorosoro
sort
sortable
sorting
sortkey
sorɔnko
soso
sosoo
sotɔɔ
souk
soul
sound
sounds
soundtracks
soup
soups
souq
source
sourced
sourceid
sources
south
southac
southeast
southern
southjoana
southkwesiraul
souths
sovereign
soviet
sow
sowah
sowu
sowutuom
soɔ
sp
spa
space
spaces
spain
spainfo
spainni
spania
spanish
sparing
spasm
speak
speaker
speakers
speaking
speaks
special
specialist
specialized
specific
specifically
specifications
specified
specifies
specify
specifying
spectator
spectrum
speech
speeches
speed
speedy
spell
spelling
sphinx
spices
spio
spirit
spiritan
spitzer
splash
split
spoils
spoken
spokesperson
sport
sports
spotted
spouse
spread
spreadsheet
spring
springer
springs
sprinter
spun
sq
sqbr
squad
squadron
square
squirrel
sr
sra
sraa
srade
sradeɛ
src
sri
sronko
srt
sry
srɛ
srɛɛ
ss
sseldorf
ssima
ssimo
sslist
ssrn
st
sta
staat
stabilization
stable
stadium
staff
stage
stamp
stanbic
stand
standalone
standard
standardization
standards
standing
stands
stanford
stanley
staphylococcus
star
stargate
starr
stars
start
started
starts
startup
stary
stat
state
statement
states
statesman
station
statistical
statistician
statistics
statoids
stats
statsghana
statue
status
statutory
stc
std
ste
steel
stefania
stefano
steffen
stella
stephanie
stephen
steps
steroid
steve
steven
stew
stiftung
stigma
still
stimme
stimulus
stm
sto
stock
stockholm
stolberg
stomach
stone
stones
stonza
stool
stop
storage
store
stored
stories
storm
storms
story
storyid
straight
strange
strategic
strategies
strategy
stratiform
stratoserver
straße
street
strength
stress
strict
strike
striker
strikers
string
striped
striping
structilia
structural
structure
structures
stub
student
students
studi
studies
studio
study
stuff
stuttgart
stvar
style
styles
styling
su
sua
suaa
suadan
suae
suafo
suafoɔ
suahu
suahunu
suaman
suame
suani
suapon
suapɔn
sub
suban
subdivided
subdivision
subdivisions
subgroup
subgroups
subin
subject
subjects
submachine
submission
submissions
submit
subpage
subpages
subscription
subsection
subsequent
subset
succeeded
succeeding
success
successful
succession
successo
successor
such
suchus
sud
sudan
sudanese
sudanfo
suffice
suffix
sugar
suggested
suggestedvalues
suggestions
suhum
suhyɛn
sui
suicide
suitable
suite
suited
sukku
sukuu
sukuudan
sukuufo
sukuufoɔ
sukuukorɔ
sukuukɔ
sukuul
sukuuni
sukuunii
sukuupon
sukuupɔn
suleiman
sulemana
sultan
sum
sumaila
sumana
sumani
sumatra
sumeria
summarize
summary
summer
sumsum
sun
sunburn
sunday
sunni
sunsum
sunsuma
sunu
sunyani
supe
super
supercopa
superficie
superghana
superimposed
superior
supplied
supply
support
supported
supporting
supports
suppress
suppressed
supreme
supremo
supɔw
sur
surat
surats
sure
sureyaill
surgery
surgical
surname
suro
surp
surplus
surprise
surprising
survey
surveys
survived
susan
susana
susanna
susono
suspected
sussana
sussex
sustainable
susu
susudua
susufidie
susupɛn
susuw
susuwii
sutherland
suu
suus
suv
sv
sve
sverko
sveta
svg
sviraj
sw
swag
swahili
swahilifo
swallow
swanzy
swap
swarovski
swarthmore
swaziland
swears
sweden
swedish
swedru
swimmer
swing
swiss
switzerland
sworn
sydney
sylvanus
sylvester
sylvia
symb
symbol
symbols
sympathy
sympathygets
symphonic
symphony
symposium
symptomatic
symptoms
synchrotron
syndrome
syndromes
synonym
syntax
syria
syriac
syringe
syringes
syrmia
system
systematic
systemic
systems
sɔ
sɔfo
sɔhwɛ
sɔne
sɔre
sɔree
sɔretiafoɔ
sɔreɛ
sɔɔ
sɛ
sɛbe
sɛde
sɛdea
sɛdeɛ
sɛe
sɛee
sɛm
sɛn
sɛnea
sɛneɛ
sɛnkyerɛnne
sɛntri
sɛntry
sɛso
sɛsoɔ
sɛɛ
sɜ
t
ta
taa
taafaale
table
tablecen
tables
tabono
taboo
tabriz
tadane
tadeɛ
tadmor
tadrart
tae
tafi
tafo
tag
tagebuch
tagging
tagoe
tags
tahir
tahiru
tain
taipei
taiwan
takai
take
taken
takeo
takes
taking
takorade
takoradi
takyi
takyiwa
talensi
talk
tallinn
tam
tamale
tamee
tamfo
tamfoe
tamil
tan
tana
tandoh
tang
tangu
tank
tanko
tano
tanoso
tantalus
tanzania
taoiseach
taosom
target
targettitle
tarkwa
tarnovo
task
tasneem
tasteatlas
tat
tatale
tatyana
tau
taulantii
tavazzano
tawa
tawia
tawiah
taxi
tay
tayanna
taylor
tb
te
tea
teacher
teachers
teaching
team
teams
tears
tease
teaseɛnam
teateaa
tebea
tech
techcrunch
techie
techiman
technical
technically
technishe
technology
tecnologia
ted
tee
teenage
teeɛ
tegano
teheran
tei
teishie
tekiti
tekpertey
tel
telecom
telefon
telegraph
telephone
television
tell
tells
tema
temamufoɔ
temanmufo
temanmufoɔ
temmufo
tempane
temperature
temperatures
template
templatedata
templates
templatestyles
temple
ten
tena
tenaa
tenabea
tene
tenetene
tenetenefoɔ
teni
tennessee
tennis
tenten
teodosia
tepa
teresa
tereza
terkper
term
terme
termend
terminal
terminals
terminologies
terms
termstart
tern
terraces
terre
terrestrial
territorial
territory
terrorism
tertiary
terɛw
tesano
teshie
teshuinat
tesla
tess
test
testing
testosterone
tests
tesɛ
tetanus
tete
tetee
teteete
tetefo
tetehttps
tetenani
tetew
tetteh
tettey
tew
texas
text
textiles
teye
teɛ
teɛteɛ
tfp
th
thailand
than
thank
thanks
that
the
theater
theatre
theaustralian
thebftonline
theconversation
theculturetrip
theguardian
their
them
theme
themselves
then
theodore
theodosia
theophilus
theoretical
theory
thera
therapeutics
therapies
therapy
there
therefore
theresa
theresah
these
thespinoff
they
thi
thiarna
thimerosal
thimphu
thin
things
think
thinkghana
third
this
tho
thomas
thompson
thomson
thon
those
though
thousand
thousands
three
threshold
through
thumb
thumbnail
thus
thyroid
ti
tia
tiaa
tiafi
tiatia
tiawa
tibuhaburwa
tich
tico
tie
tienne
tier
ties
tigris
tii
tikiti
tilapia
till
tim
timba
timber
timbuktu
time
timeanddate
timeaxis
timedtext
timeline
times
timesofindia
timezone
timfuu
timis
timor
timoteo
timothy
timtim
timur
timurid
tin
tina
tintim
tintima
tintimbea
tiny
tipae
tipaeɛ
tipayɛ
tips
tirana
tirane
tire
tiri
tirim
tirimpɔ
tirimupɔ
tirimupɔw
tishigu
tissue
tisztelt
titanics
titenani
titenanin
titi
titia
titinanii
titire
titirew
titiri
titiriw
title
titlebar
titleclass
titlegroup
titles
titlestyle
tito
titrani
titriw
titron
titus
tiw
tjc
tl
tld
tna
to
toa
toaa
toaso
toatoa
toblank
toc
toclevel
toclimit
today
todemographics
todzie
toe
toeɛ
tofoɔ
toga
togbe
together
togo
togofoɔ
togoland
togombaidoo
toi
tokuro
tokyo
told
tolon
tom
tomantose
tomas
tomasevic
tomislav
tomm
ton
tonga
tongo
tongu
tongujoana
tongus
toni
tono
tontɔn
tony
too
tooeɛ
took
tool
tools
tooltip
tooltips
toom
toow
top
topae
topic
topical
topics
toptani
torbay
tori
torino
toronto
torshie
torsion
tos
toso
total
toto
totoo
totranslit
toulouse
tour
toured
tourghana
touring
touringghana
tourism
tourist
tournament
tournaments
tours
tow
towards
tower
towers
town
towns
toyota
toɔ
tpjlkdqvtsc
tr
tra
traa
track
tracking
tract
trade
trader
traders
trading
tradition
traditional
traditions
traffic
trail
trailer
train
training
tram
trang
trans
transcluded
transcludes
transcluding
transcription
transformation
translate
translated
translatewiki
translation
translations
translator
translit
transliteration
transmission
transparent
transport
tratraa
travel
tre
treasury
treat
treatment
treaty
trebil
tree
trends
trendy
tri
trial
trials
tribe
tribunal
tribute
trick
triennale
trillion
trinidad
trinity
trio
triomphe
tripadvisor
triplet
tripod
tripoli
tripsavvy
trobu
trobɛnto
troglodytes
trokosi
trolley
tromsø
troops
trophy
tropical
tropics
troposphere
trotro
tru
true
trumah
trump
trung
truong
trust
try
trying
trɔk
trɛ
trɛw
trɛɛ
tsar
tsaritsyn
tsatsu
tsenku
tsikata
tt
ttlikon
tu
tua
tuaa
tuan
tubaani
tuberculosis
tucakovic
tucson
tudes
tudor
tuesday
tuguo
tukɔtena
tum
tumi
tumidi
tumidie
tumii
tumm
tumor
tumors
tumtum
tuna
tunde
tuni
tunis
tunisia
tunnel
tuntum
tuo
tuomari
tuong
tupi
turaco
turin
turkana
turkewich
turkey
turkish
turn
turner
turnout
turns
turo
turodoo
turtle
tutor
tutu
tutufo
tutuu
tuu
tv
tw
twa
twaa
twaam
twaka
twam
twe
tweak
twee
twelve
twene
twenebɔ
twentieth
twer
twereɛ
twerɛ
twerɛfoɔ
twerɛsɛm
twerɛtwerɛfoɔ
twerɛɛ
twetwa
twetwe
twi
twifo
twin
twins
twitwa
two
twum
twumasi
twɛn
txt
ty
type
types
typical
typically
typing
tyra
tz
tɔ
tɔgbe
tɔn
tɔnn
tɔso
tɔteen
tɔɔ
tɔɔtee
tɛ
tɛknɔlɔgi
tɛlɛvihyin
tɛlɛvision
tɛma
tɛtrɛtɛ
u
ua
uasal
uber
ucc
ucoc
ucpress
uefa
uetersen
uf
ug
ugali
uganda
ugandan
ugcc
ugm
ugsg
uhuru
uk
ukr
ukraine
ukrainefo
ukrainian
ukrainka
ul
ulcer
ulcerative
ultimate
um
umayyad
un
unaids
unbulleted
unc
uncle
und
under
undergraduate
understanding
undp
unece
unep
unesco
unibank
unicef
unicusano
unilever
unimelb
unimi
unimib
unintended
union
unique
unit
united
units
unity
univ
universal
universando
universe
universita
universitas
universite
universities
university
unknown
unless
unnamed
uno
unofficial
unreviewed
unrisd
until
up
update
updates
upload
uploads
upon
upper
uppereast
upperwest
upright
upsa
ur
urban
urged
urges
urhobofo
uric
urinary
url
urp
urticaria
uruguay
us
usa
usage
use
used
useful
user
userfiles
username
users
uses
usi
using
uslegal
ussishkin
ussr
usual
usually
ut
utag
utah
utc
utf
utv
uvsq
uzziah
v
va
vaalandzeri
vaccine
vaccines
vaiano
val
valbenoi
valco
valencia
valentine
valid
validity
valletta
valley
value
values
van
vancouver
vanessa
var
varese
variant
variants
variations
varicella
variety
various
vascular
vcard
vcn
ve
vecchio
vector
veer
vegas
vegetable
vehicle
veliaj
veliko
venezuela
venice
ventures
venue
vera
veracruz
verde
verdict
verification
verko
verona
veronica
versa
versailles
version
versions
vertical
very
vessels
veterinary
vi
via
vice
vicechair
vicegovernor
vicente
vicepremier
vicepresident
viceprimeminister
vicky
victor
victoria
victory
vida
vidbir
video
vie
vienna
viet
vieta
vietnam
vietnamese
vietnamfoɔ
vietnamplus
view
viewing
views
vigevano
vignette
vii
viii
vilcek
villa
village
villages
villavesco
villgro
vim
vincent
vinci
vinkovac
violet
vip
viral
virginia
virtual
virtue
virus
viruses
vis
visconti
visible
vision
visit
visitation
visitghana
visitors
viskaali
visual
visually
vitamin
vivian
vladimir
vladivostok
vn
vo
voanews
vocational
vodafone
vogan
voice
voima
voivodeship
vol
volgograd
volleyball
volta
volume
volvulus
vom
von
vossa
vote
votes
voting
votre
vov
vr
vreteno
vrijeme
vs
vu
vuestra
vukomanovic
vukovar
vung
w
wa
waakye
waboa
wabobɔ
wabu
wabɔ
wabɛyɛ
wada
wadi
waduro
waduru
waei
wafa
wafiri
wafu
wagon
wagyae
wagye
wagyina
wahl
wahohoro
wahunu
wahyɛ
wahyɛda
waise
waka
wakata
wako
wakora
wakpal
wakwadare
wakye
wakyekyɛ
wakyi
wakyɛ
wakɔ
wala
wale
wales
walewale
walia
walk
walker
wall
walls
wals
walter
wama
wamfa
wammɔ
wan
wander
wang
wangyina
wani
wannya
wannyina
wanoa
wanom
wansa
wansan
want
wanted
wants
wantumi
wanunum
wanya
wanyin
wanyini
wanyɛ
wap
war
ward
wards
ware
waree
warefo
warmer
warmglow
warner
warren
wars
warsaw
warszawa
warszawie
warthog
was
wasa
wasan
wasane
wasawasa
wash
washington
wasi
wasom
wassa
wassce
waste
wasua
watch
wate
watena
water
waterfalls
watete
wato
watson
watt
watu
watumi
watwa
watwam
watwerɛ
watwitwa
waware
wawie
wawo
wawu
wawuo
wax
waxbill
way
wayans
wayback
wayi
wayo
ways
wayɛ
wc
wcmc
we
wealth
weapon
wear
wearing
weather
weaver
weaving
web
weber
webkit
webmd
website
websitehome
webster
wechiau
wedding
wednesday
wee
weed
week
weeks
wegbe
wehis
wei
weight
weija
weinom
weisi
weiss
welcome
welfare
well
welsh
welterweight
wenchi
wendy
wenn
wenner
went
wer
were
wereko
wesley
wesleyan
wesly
west
westac
westermarck
western
westminster
wests
wetol
wg
whale
what
whatanswered
whatever
whc
when
where
whether
which
whichever
while
whip
white
who
whole
whooping
whose
why
wi
wiafe
wiamoase
wiase
wiawso
wide
widely
widow
widowhood
widows
width
wie
wiee
wieeɛ
wiei
wiem
wiemhyɛn
wiemhyɛnbea
wiemu
wiemuhyɛn
wien
wieɛ
wife
wig
wiki
wikicommon
wikicommons
wikidata
wikilink
wikilinked
wikilinks
wikimedia
wikipedia
wikiproject
wikisource
wikitext
wiktionary
wilberforce
wild
wildlife
wiley
wilhelm
will
willi
william
williams
willis
wilson
wim
wimbledon
wimhyɛn
win
winans
windsor
wine
winfred
wing
winifred
winneba
winner
winners
winning
wins
winston
winter
wiredu
wisconsin
wisdom
wish
wishes
with
withdrawal
within
without
wives
wl
wli
wmf
wn
wo
woaa
woabobɔ
woadi
woagye
woahyɛ
woama
woannya
woanya
woato
woatwa
woayɛ
woba
wobebisa
wobebu
wobebue
wobedi
wobegyae
wobegye
wobehia
wobehu
wobehunu
wobehwɛ
wobekum
wobenya
wobesi
wobesisi
wobetua
wobetumi
wobetwa
wobeyi
wobisa
wobisabisaa
wobo
wobu
wobue
wobuee
wobuu
wobɔ
wobɔɔ
wobɛ
wobɛbɔ
wobɛdi
wobɛfa
wobɛhia
wobɛhu
wobɛhunu
wobɛhwɛ
wobɛhyɛ
wobɛma
wobɛnoa
wobɛnya
wobɛsesa
wobɛte
wobɛtumi
wobɛyɛ
woda
wode
wodi
wodidi
wodii
wodikan
wodua
woduu
wofa
wofi
wofii
wofiri
wofirii
wofrɛ
wofura
wogu
woguare
wogyaa
wogyae
wogyaee
wogyaw
wogye
wogyee
wogyei
wogyina
wohia
woho
wohu
wohui
wohunu
wohuu
wohwɛ
wohyia
woka
wokum
wokunkum
wokura
wokurakura
wokuu
wokɔ
woleu
wolfgang
wolof
wom
womaa
woman
womanrising
women
womenleaders
womens
womfa
won
wonder
wone
wonfa
wonhu
wonim
wonkɔ
wonni
wonnii
wonnim
wonnya
wonnyaa
wonnye
wonoa
wonom
wonoo
wonsa
wont
wonte
wontua
wontumi
wonya
wonyaa
wonyae
woo
wood
woodard
wooden
woodham
woolstencroft
wopaw
wopɛ
worcester
word
wordpress
words
worebɔ
worebɛto
worebɛyɛ
worehwehwɛ
woreka
worekɔ
worenhwɛ
woreto
woreyɛ
work
worked
workers
working
works
workshop
world
worldatlas
worldcat
worldfootball
worldometer
worldpopulationreview
worlds
worldwide
worship
worth
wosan
wosi
wosie
wosiee
wosiesie
wosiesiee
wosii
wosisi
wosisii
wosiw
wosow
wosua
wosuro
wosusuw
wote
wotee
wotena
woti
wotintim
wotintimii
wotu
wotua
wotumi
wotutu
wotutuu
wotuu
wotwa
wotwaa
wotwe
wotwitwa
would
wowie
wowiee
wowuwu
wowuwui
wowɔ
woyam
woye
woyi
woyii
woyɛ
wp
wr
wrap
wrapped
wrapper
wrapping
wraps
wrc
wright
write
writer
writers
writes
writing
writings
written
wrong
wu
wubehu
wubenya
wubetumi
wuhan
wui
wuiɛ
wukuada
wulensi
wuo
wuogon
wura
wuraa
wuram
wuranom
wurayɛ
wusiw
wusɔreɛ
wuu
wuwu
wuwui
wuwuiɛ
wuyi
ww
wwf
www
wɔ
wɔabara
wɔaboa
wɔaboaboa
wɔabom
wɔabu
wɔabue
wɔabɔ
wɔada
wɔadan
wɔadi
wɔadu
wɔafa
wɔafrɛ
wɔagyae
wɔagyaw
wɔagye
wɔahu
wɔahyehyɛ
wɔahyɛ
wɔahyɛda
wɔaka
wɔakata
wɔakora
wɔakwati
wɔakye
wɔakyekyɛ
wɔakyerɛ
wɔakyerɛkyerɛ
wɔakyerɛw
wɔakyɛ
wɔakɔ
wɔama
wɔamfa
wɔammɔ
wɔampene
wɔanhu
wɔanhyɛ
wɔankyerɛ
wɔankyerɛw
wɔannye
wɔanoa
wɔansa
wɔantumi
wɔanya
wɔanyin
wɔanyinyin
wɔanyɛ
wɔapa
wɔapaw
wɔasan
wɔasen
wɔasi
wɔasiesie
wɔasisi
wɔasiw
wɔasua
wɔasɔ
wɔasɛe
wɔate
wɔatete
wɔatetew
wɔatew
wɔato
wɔatrɛw
wɔatu
wɔatumi
wɔatwa
wɔatwe
wɔatwerɛ
wɔatwi
wɔatwitwa
wɔaware
wɔawie
wɔawo
wɔayam
wɔayi
wɔayɛ
wɔba
wɔbaa
wɔbae
wɔbara
wɔbata
wɔberɛ
wɔbetumi
wɔboa
wɔboaa
wɔboaboa
wɔbobɔ
wɔbom
wɔboro
wɔbra
wɔbu
wɔbue
wɔbuu
wɔbɔ
wɔbɔe
wɔbɔɔ
wɔbɛ
wɔbɛboa
wɔbɛbom
wɔbɛbɔ
wɔbɛda
wɔbɛdi
wɔbɛfa
wɔbɛfrɛ
wɔbɛgye
wɔbɛgyina
wɔbɛhunu
wɔbɛhwehwɛ
wɔbɛhwere
wɔbɛhwɛ
wɔbɛhyehyɛ
wɔbɛhyɛ
wɔbɛka
wɔbɛkora
wɔbɛkwati
wɔbɛkyekye
wɔbɛkyere
wɔbɛkyerɛ
wɔbɛkyerɛkyerɛ
wɔbɛkyɛ
wɔbɛkɔ
wɔbɛma
wɔbɛn
wɔbɛnya
wɔbɛpaw
wɔbɛsa
wɔbɛsan
wɔbɛsi
wɔbɛte
wɔbɛtete
wɔbɛtew
wɔbɛto
wɔbɛtow
wɔbɛtra
wɔbɛtumi
wɔbɛwo
wɔbɛyi
wɔbɛyɛ
wɔbɛyɛɛ
wɔda
wɔdaa
wɔdan
wɔdane
wɔdanee
wɔde
wɔdee
wɔdi
wɔdidi
wɔdie
wɔdii
wɔdiikan
wɔdikan
wɔdua
wɔdɔm
wɔdɔɔso
wɔfa
wɔfaa
wɔfaase
wɔfata
wɔfi
wɔfiri
wɔfirii
wɔforo
wɔfow
wɔfr
wɔfre
wɔfri
wɔfrɛ
wɔfrɛɛ
wɔgyaa
wɔgyae
wɔgye
wɔgyedi
wɔgyee
wɔgyina
wɔgyinaa
wɔhia
wɔho
wɔhunu
wɔhunuu
wɔhwehwɛ
wɔhwehwɛɛ
wɔhwere
wɔhweree
wɔhwɛ
wɔhwɛɛ
wɔhyehyee
wɔhyehyɛ
wɔhyehyɛe
wɔhyehyɛɛ
wɔhyeten
wɔhyew
wɔhyɛ
wɔhyɛɛ
wɔhɔ
wɔi
wɔka
wɔkaa
wɔkae
wɔkamfo
wɔkan
wɔkanee
wɔkasa
wɔkeka
wɔkenkan
wɔko
wɔkora
wɔkoraa
wɔkumm
wɔkura
wɔkuu
wɔkwati
wɔkyekye
wɔkyekyee
wɔkyekyem
wɔkyekyer
wɔkyekyere
wɔkyekyeree
wɔkyekyɛ
wɔkyekyɛɛ
wɔkyere
wɔkyeree
wɔkyerɛ
wɔkyerɛe
wɔkyerɛkyerɛ
wɔkyerɛw
wɔkyerɛwee
wɔkyerɛɛ
wɔkyɛ
wɔkyɛɛ
wɔkɔ
wɔkɔeɛ
wɔkɔɔ
wɔm
wɔma
wɔmaa
wɔmfa
wɔmfaa
wɔmfrɛ
wɔmma
wɔmmfa
wɔmmoa
wɔmmɔ
wɔmmɛ
wɔmmɛyɛ
wɔmpɛ
wɔn
wɔnam
wɔne
wɔnfa
wɔngye
wɔnho
wɔnhunu
wɔnhwehwɛ
wɔnhwɛ
wɔnhyɛ
wɔnim
wɔnka
wɔnko
wɔnkyɛ
wɔnkɔ
wɔnn
wɔnni
wɔnnom
wɔnnya
wɔnnye
wɔnnyɛ
wɔnoa
wɔnom
wɔnsan
wɔnsesa
wɔnsi
wɔnso
wɔntaa
wɔnte
wɔnto
wɔntumi
wɔnwaree
wɔnwene
wɔnya
wɔnyaa
wɔnyae
wɔnyaeɛ
wɔnyini
wɔnyɛ
wɔnyɛɛ
wɔpa
wɔpaa
wɔpagya
wɔpagyaa
wɔpam
wɔpaw
wɔpe
wɔperee
wɔpow
wɔpɛ
wɔpɛsɛ
wɔreba
wɔrebɔ
wɔrebɛto
wɔredi
wɔrefa
wɔrefiri
wɔrehwehwɛ
wɔrehwɛ
wɔrehyɛ
wɔreko
wɔrekɔ
wɔrekɔbisa
wɔrenka
wɔrenni
wɔrentua
wɔrenya
wɔrenyin
wɔrepere
wɔresa
wɔresan
wɔresi
wɔreto
wɔretu
wɔretwɛn
wɔrewo
wɔreyi
wɔreyɛ
wɔsa
wɔsakra
wɔsan
wɔsane
wɔse
wɔsesa
wɔsesaa
wɔsi
wɔsiee
wɔsiesie
wɔsii
wɔsoa
wɔsom
wɔsua
wɔsusu
wɔsusuw
wɔsɔ
wɔsɔre
wɔsɔɔ
wɔsɛe
wɔsɛee
wɔtaa
wɔtae
wɔte
wɔtee
wɔteeɛ
wɔtena
wɔtenatena
wɔtete
wɔtetee
wɔtetew
wɔtew
wɔto
wɔtoe
wɔtoeɛ
wɔtoo
wɔtooeɛ
wɔtooɛ
wɔtoto
wɔtotɔɔ
wɔtow
wɔtowee
wɔtraa
wɔtrɛw
wɔtu
wɔtua
wɔtumi
wɔtuu
wɔtwa
wɔtwaa
wɔtwe
wɔtwentwɛn
wɔtwerɛ
wɔtwerɛɛ
wɔtwetwe
wɔtwitwa
wɔtɔ
wɔtɔn
wɔware
wɔwea
wɔwie
wɔwiee
wɔwo
wɔwom
wɔwoo
wɔwɔ
wɔwɛn
wɔyare
wɔye
wɔyem
wɔyi
wɔyii
wɔyɛ
wɔyɛe
wɔyɛeɛ
wɔyɛn
wɔyɛɛ
wɔɔ
wɛ
wɛbsaet
x
xa
xango
xi
xianfan
xiangyang
xico
xiv
xlibris
xs
xy
y
ya
yaa
yaba
yadeɛ
yafunu
yagaba
yagbonwura
yagye
yahata
yahaya
yaka
yakah
yakobu
yakubu
yakye
yale
yalta
yam
yamashita
yamoah
yamoahmbaidoo
yan
yang
yankah
yanoa
yao
yapan
yapei
yaqub
yara
yare
yarefoɔ
yarewa
yareɛ
yareɜ
yate
yato
yatwa
yatwi
yaw
yawada
yawkasakrom
yawo
yawoada
yawson
yayaaya
yayam
yd
ydftin
ye
yea
year
years
yeast
yebetumi
yeboa
yeboah
yeboahafua
yeboahmbaidoo
yeboakua
yedi
yehowa
yehu
yei
yeinom
yekaterinburg
yellow
yemen
yen
yendi
yenhu
yenya
yera
yere
yerenom
yerusalem
yes
yesaia
yesu
yesufu
yet
yetumi
yhttps
yi
yiadom
yie
yiedie
yield
yields
yii
yilo
yinom
yinsɛn
yiri
yiye
yiyedi
yiyedie
yiyi
yiyie
yiyiedie
yo
yohane
yokohama
yoma
york
yoruba
yorubafoɔ
yotta
you
young
youngest
youngman
your
yourdictionary
yourself
youth
youtube
yoweri
yudafo
yudasom
yugoslav
yugoslavia
yunyoo
yuoni
yussif
yvelines
yvonne
yyyy
yɔ
yɔnko
yɛ
yɛagye
yɛahunu
yɛaka
yɛakye
yɛasi
yɛasusu
yɛawo
yɛbea
yɛbehunu
yɛbu
yɛbɔ
yɛbɔɔ
yɛbɛ
yɛbɛfa
yɛbɛhunu
yɛbɛka
yɛbɛnyaa
yɛbɛtumi
yɛda
yɛdaa
yɛde
yɛdekɔ
yɛdi
yɛdidi
yɛdii
yɛe
yɛeɛ
yɛfa
yɛferɛ
yɛfrɛ
yɛfrɛɛ
yɛgye
yɛhu
yɛhunu
yɛhuu
yɛhwɛ
yɛhyehyɛ
yɛhyɛ
yɛka
yɛkaa
yɛkan
yɛkeka
yɛkyerɛ
yɛkɔ
yɛmea
yɛmmea
yɛn
yɛnam
yɛnho
yɛnhunu
yɛnim
yɛnni
yɛnnim
yɛnnya
yɛnto
yɛntumi
yɛnya
yɛnyaa
yɛpɛ
yɛsan
yɛsane
yɛsi
yɛsrɛ
yɛtaa
yɛtae
yɛte
yɛtee
yɛto
yɛtoo
yɛtua
yɛtumi
yɛwo
yɛwoo
yɛwɔ
yɛyam
yɛyi
yɛyii
yɛyɛ
yɛɛ
yɛɛyɛ
yɜ
z
za
zaafi
zab
zabdibel
zabid
zabzugu
zachariah
zadar
zagreb
zakari
zambia
zamisli
zamse
zanetor
zanzibar
zaragoza
zaustavi
zbl
zealand
zebilla
zebra
zebu
zeitoun
zekula
zel
zeljko
zenica
zenith
zero
zerrougui
zh
zhang
ziblim
ziedeng
zika
zimbabwe
zimbi
zimmermann
zindzy
zion
zionist
ziope
zip
zo
zone
zones
zongo
zoo
zu
zuarungu
zugah
zumakpeh
zusammenarbeit
{
|
}
~
¢
£
§
¨
«
­
®
°
±
²
´
·
º
»
×
æ
đa
đo
ł
łobez
ŋ
ɔ
ɔb
ɔba
ɔbaa
ɔbaabunu
ɔbaapanin
ɔbaatan
ɔbaayɛ
ɔbabaa
ɔbabarima
ɔbabea
ɔbabun
ɔbabɛrima
ɔbarima
ɔbarimayɛ
ɔbea
ɔbedi
ɔbehwɛ
ɔbenem
ɔbenfo
ɔbenfoɔ
ɔbenima
ɔbere
ɔbetena
ɔbeyee
ɔbeyɛɛ
ɔbi
ɔbo
ɔboa
ɔboaa
ɔboafoɔ
ɔbodan
ɔbokɔ
ɔbom
ɔbotan
ɔbra
ɔbrasɛe
ɔbrɛ
ɔbu
ɔbubuo
ɔbubuu
ɔbue
ɔbui
ɔbɔ
ɔbɔadeɛ
ɔbɔmmɔfo
ɔbɔɔ
ɔbɛ
ɔbɛba
ɔbɛboa
ɔbɛda
ɔbɛdaa
ɔbɛdi
ɔbɛdii
ɔbɛfa
ɔbɛfiri
ɔbɛfrɛ
ɔbɛgye
ɔbɛgyee
ɔbɛgyina
ɔbɛgyinaa
ɔbɛhwɛ
ɔbɛhyɛ
ɔbɛka
ɔbɛkaa
ɔbɛkɔ
ɔbɛma
ɔbɛn
ɔbɛnem
ɔbɛnim
ɔbɛnya
ɔbɛsi
ɔbɛsii
ɔbɛsua
ɔbɛte
ɔbɛtena
ɔbɛtenaa
ɔbɛtumi
ɔbɛtuu
ɔbɛyɛ
ɔbɛyɛɛ
ɔda
ɔdaa
ɔdamoa
ɔdan
ɔdanee
ɔdansi
ɔdansifoɔ
ɔdansini
ɔde
ɔdeneho
ɔdi
ɔdii
ɔdiikan
ɔdikan
ɔdikanfoɔ
ɔdom
ɔduruu
ɔdɔ
ɔdɔm
ɔfa
ɔfaa
ɔfaso
ɔfasu
ɔfasuo
ɔfata
ɔfe
ɔfese
ɔfi
ɔfii
ɔfiri
ɔfirii
ɔfoforo
ɔfoforɔ
ɔfotufoɔ
ɔfri
ɔfrɛ
ɔfrɛɛ
ɔgyae
ɔgye
ɔgyee
ɔgyefo
ɔgyefoɔ
ɔgyefuo
ɔgyena
ɔgyina
ɔgyinaa
ɔgyinaeɛ
ɔha
ɔhaha
ɔhamu
ɔhan
ɔhankron
ɔhanson
ɔhanu
ɔhanwɔtwe
ɔhaw
ɔhemaa
ɔhemmaa
ɔhempɔn
ɔhene
ɔheneba
ɔhia
ɔhokafo
ɔhome
ɔhotefo
ɔhoteni
ɔhu
ɔhunu
ɔhunuu
ɔhwa
ɔhwe
ɔhwehwɛ
ɔhwehwɛɛ
ɔhwere
ɔhweree
ɔhwɛ
ɔhwɛfo
ɔhwɛfoɔ
ɔhwɛsofoɔ
ɔhwɛɛ
ɔhy
ɔhye
ɔhyee
ɔhyehyɛ
ɔhyehyɛe
ɔhyehyɛɛ
ɔhyenkani
ɔhyew
ɔhyeɛ
ɔhyiaa
ɔhyɛ
ɔhyɛw
ɔhyɛɛ
ɔhɔ
ɔhɔhoɔ
ɔk
ɔka
ɔkaa
ɔkae
ɔkaeɛ
ɔkandifo
ɔkandifoɔ
ɔkannifoɔ
ɔkansifoɔ
ɔkasa
ɔkasafoɔ
ɔkasamafoɔ
ɔko
ɔkofoɔ
ɔkomfoɔ
ɔkoo
ɔkora
ɔkorow
ɔkra
ɔkraman
ɔkristoni
ɔkuani
ɔkura
ɔkuta
ɔkwammɔne
ɔkwan
ɔkwankyerefo
ɔkwankyerɛfo
ɔkwankyerɛfoɔ
ɔkwantufo
ɔkwasea
ɔkyekyeree
ɔkyer
ɔkyere
ɔkyerɛ
ɔkyerɛkyerɛ
ɔkyerɛkyerɛfo
ɔkyerɛkyerɛfoɔ
ɔkyerɛkyerɛni
ɔkyerɛkyerɛnii
ɔkyerɛkyerɛnyi
ɔkyerɛw
ɔkyerɛwee
ɔkyerɛwfo
ɔkyerɛɛ
ɔkɔ
ɔkɔe
ɔkɔgye
ɔkɔgyee
ɔkɔgyinaa
ɔkɔkaa
ɔkɔm
ɔkɔmfo
ɔkɔmfoɔ
ɔkɔmhyɛni
ɔkɔmhyɛnii
ɔkɔnyaa
ɔkɔpree
ɔkɔsraa
ɔkɔsua
ɔkɔsuaa
ɔkɔtoaa
ɔkɔtɔberɛ
ɔkɔyɛɛ
ɔkɔɔ
ɔkɔɔso
ɔma
ɔmaa
ɔmaame
ɔmae
ɔmahene
ɔmamfoɔ
ɔmampanin
ɔmampanini
ɔmampanyin
ɔman
ɔmanfo
ɔmanfoɔ
ɔmanhene
ɔmanko
ɔmanmu
ɔmanpanin
ɔmanpaninafua
ɔmanpanyin
ɔmansin
ɔmansoafoɔ
ɔmantam
ɔmanyɔfo
ɔmanyɔni
ɔmanyɛfo
ɔmapanin
ɔmfa
ɔmma
ɔmmra
ɔmmɛ
ɔmmɛyɛ
ɔmo
ɔmpɛ
ɔmɛyɛ
ɔn
ɔnam
ɔnanani
ɔne
ɔnfa
ɔngyina
ɔnhwɛ
ɔnhyehyɛ
ɔni
ɔnim
ɔnka
ɔnkasa
ɔnkɔ
ɔnni
ɔnnibie
ɔnnyina
ɔnnyɛ
ɔno
ɔnoa
ɔnom
ɔnsan
ɔnsane
ɔntena
ɔntumi
ɔnwaree
ɔnya
ɔnyaa
ɔnyae
ɔnyaeɛ
ɔnyinii
ɔnyɛ
ɔnɔ
ɔp
ɔpaa
ɔpae
ɔpaee
ɔpam
ɔpanin
ɔpanyin
ɔpapa
ɔpaw
ɔpenee
ɔpenimaa
ɔpenimma
ɔpepe
ɔpepem
ɔpepepe
ɔpepepee
ɔpepepem
ɔpepon
ɔpepɔn
ɔpere
ɔperee
ɔpui
ɔpɛ
ɔpɛnima
ɔpɛnimaa
ɔpɛnimma
ɔpɛpa
ɔpɛpon
ɔpɛpɔn
ɔpɛsɛ
ɔpɛɛ
ɔreba
ɔrebɛyɛ
ɔredi
ɔrefiri
ɔregye
ɔregyina
ɔrehyɛ
ɔreka
ɔrekɔ
ɔrekɔbisa
ɔrekɔpɛ
ɔrentumi
ɔrenyin
ɔrepere
ɔrepɛ
ɔresa
ɔreto
ɔretu
ɔretukwan
ɔrewu
ɔreyɛ
ɔsa
ɔsaana
ɔsagyefo
ɔsahene
ɔsan
ɔsanaa
ɔsane
ɔsanso
ɔsatu
ɔse
ɔsebɔ
ɔsen
ɔsesɛw
ɔsi
ɔsiesie
ɔsii
ɔsoafo
ɔsoafoɔ
ɔsom
ɔsomafoɔ
ɔsome
ɔsomfo
ɔsomfoɔ
ɔsomm
ɔsono
ɔsoom
ɔsoro
ɔsorokɔ
ɔsraafo
ɔsraani
ɔsraanin
ɔsrafo
ɔsram
ɔsrani
ɔsua
ɔsuaa
ɔsuafoɔ
ɔsusu
ɔsɔfo
ɔsɔne
ɔsɔre
ɔsɔɔm
ɔsɛ
ɔsɛe
ɔsɛntwamfoɔ
ɔtaa
ɔtae
ɔtan
ɔtare
ɔte
ɔtee
ɔtemmufo
ɔtemmufoɔ
ɔtena
ɔtenaa
ɔtenetene
ɔtenetenefoɔ
ɔtenmuafoɔ
ɔtesoɔ
ɔtete
ɔtetee
ɔtetew
ɔtitenani
ɔto
ɔtoa
ɔtoaa
ɔtoaso
ɔtoeɛ
ɔtomfoɔ
ɔtoo
ɔtooso
ɔtopae
ɔtoto
ɔtra
ɔtrɛw
ɔtu
ɔtumi
ɔtuu
ɔtwa
ɔtwaa
ɔtwaeɛ
ɔtwe
ɔtwee
ɔtwerɛ
ɔtwerɛfoɔ
ɔtwerɛtwerɛfoɔ
ɔtwerɛɛ
ɔtwitwa
ɔtɔ
ɔtɔn
ɔtɔso
ɔtɔɔ
ɔtɛmmuafoɔ
ɔtɛnmuafo
ɔwansane
ɔware
ɔwaree
ɔwareeɛ
ɔwarefo
ɔwarefoɔ
ɔwarr
ɔwhɛ
ɔwie
ɔwiee
ɔwieeɛ
ɔwieɛ
ɔwo
ɔwofo
ɔwom
ɔwoo
ɔwu
ɔwui
ɔwuiɛ
ɔwura
ɔwuu
ɔwɔ
ɔy
ɔya
ɔyaa
ɔyare
ɔyaredɔm
ɔyarefo
ɔyarefoɔ
ɔyarehwɛfo
ɔyaresafo
ɔyaresafoɔ
ɔye
ɔyere
ɔyi
ɔyii
ɔyɔnko
ɔyɔɔyɛ
ɔyɛ
ɔyɛe
ɔyɛkyerɛ
ɔyɛɛ
ə
ɛ
ɛba
ɛbaa
ɛbaaeɛ
ɛbae
ɛbaeɛ
ɛbata
ɛbe
ɛbeboro
ɛbedi
ɛbeka
ɛbemmɛn
ɛben
ɛbenada
ɛbenbɛn
ɛbere
ɛberɛ
ɛbetumi
ɛbi
ɛbia
ɛbinom
ɛboa
ɛboaa
ɛboaboa
ɛboro
ɛboɔ
ɛbrɛ
ɛbue
ɛbunu
ɛbɔ
ɛbɔɔ
ɛbɛ
ɛbɛba
ɛbɛboa
ɛbɛbɔ
ɛbɛgyinaa
ɛbɛgyinae
ɛbɛgyinaeɛ
ɛbɛhwehwɛ
ɛbɛhyɛ
ɛbɛka
ɛbɛkyerɛ
ɛbɛkɔ
ɛbɛma
ɛbɛn
ɛbɛnya
ɛbɛpree
ɛbɛsi
ɛbɛsii
ɛbɛte
ɛbɛtew
ɛbɛtra
ɛbɛtrɛw
ɛbɛtumi
ɛbɛtɔɔ
ɛbɛyii
ɛbɛyɛ
ɛbɛyɛɛ
ɛda
ɛdaa
ɛdan
ɛdane
ɛdannan
ɛdaso
ɛde
ɛdeba
ɛdefa
ɛdenam
ɛdi
ɛdidi
ɛdidisoɔ
ɛdie
ɛdii
ɛdiikan
ɛdikae
ɛdikan
ɛdimu
ɛdin
ɛdu
ɛduonu
ɛduru
ɛduruu
ɛdwoada
ɛdɔm
ɛdɔɔso
ɛene
ɛfa
ɛfaa
ɛfata
ɛfe
ɛfeɛ
ɛfi
ɛfiada
ɛfie
ɛfiri
ɛfirii
ɛfoa
ɛforo
ɛfra
ɛfrɛ
ɛfɔm
ɛfɛm
ɛgina
ɛgu
ɛgyae
ɛgye
ɛgyee
ɛgyina
ɛgyinaa
ɛha
ɛhaw
ɛhia
ɛho
ɛhohia
ɛhono
ɛhu
ɛhwee
ɛhwehwɛ
ɛhwɛ
ɛhye
ɛhyehye
ɛhyehyɛ
ɛhyerɛn
ɛhyew
ɛhyeɛ
ɛhyɛ
ɛhyɛn
ɛhyɛɛ
ɛhɔ
ɛhɔfo
ɛhɔnom
ɛka
ɛkaa
ɛkabom
ɛkae
ɛkame
ɛkanyan
ɛkasa
ɛkata
ɛke
ɛkeka
ɛkekaho
ɛko
ɛkora
ɛkorɔn
ɛkrɔ
ɛkuo
ɛkuoba
ɛkura
ɛkuro
ɛkwan
ɛkwanso
ɛkye
ɛkyere
ɛkyerɛ
ɛkyerɛkyerɛ
ɛkyire
ɛkyɛ
ɛkyɛn
ɛkɔ
ɛkɔba
ɛkɔm
ɛkɔpem
ɛkɔsi
ɛkɔso
ɛkɔɔ
ɛkɔɔso
ɛlɛktromote
ɛlɛtrɔnik
ɛma
ɛmaa
ɛmfa
ɛmma
ɛmmer
ɛmmerɛ
ɛmmom
ɛmo
ɛmom
ɛmoo
ɛmu
ɛmufa
ɛmɛ
ɛna
ɛnam
ɛnan
ɛnanom
ɛnde
ɛne
ɛneɛ
ɛnfa
ɛngrɛsi
ɛnhyɛ
ɛni
ɛnka
ɛnkane
ɛnkanka
ɛnkannee
ɛnkyerɛ
ɛnkyɛ
ɛnkɔ
ɛnna
ɛnnan
ɛnne
ɛnni
ɛnnyɛ
ɛnnɛ
ɛno
ɛnoa
ɛnsa
ɛnsan
ɛnso
ɛnsɛ
ɛntaa
ɛnte
ɛnteɛ
ɛnti
ɛntrɛ
ɛntumi
ɛnum
ɛnya
ɛnyaa
ɛnyini
ɛnyɛ
ɛnɛ
ɛpaa
ɛpaapae
ɛpae
ɛpaee
ɛpam
ɛpaw
ɛpere
ɛperee
ɛpo
ɛpono
ɛpui
ɛpuiɛ
ɛpɛ
ɛreba
ɛrebɛba
ɛrebɛyɛ
ɛredi
ɛredɔɔso
ɛrekyerɛ
ɛrekɔ
ɛrekɔso
ɛrentumi
ɛrenya
ɛresɛe
ɛretu
ɛretwa
ɛreworo
ɛreyɛ
ɛsa
ɛsae
ɛsai
ɛsakra
ɛsan
ɛsane
ɛse
ɛsen
ɛsensɛn
ɛserɛ
ɛsesa
ɛsesɛ
ɛseɛ
ɛsi
ɛsiane
ɛsie
ɛsii
ɛsiiɛ
ɛsisi
ɛso
ɛsom
ɛsombo
ɛsono
ɛsoro
ɛsow
ɛspɔɔto
ɛsrɛ
ɛsu
ɛsua
ɛsɔ
ɛsɔre
ɛsɛ
ɛsɛe
ɛtaa
ɛtae
ɛte
ɛtee
ɛteeɛ
ɛtena
ɛtene
ɛterɛ
ɛtete
ɛtetew
ɛtew
ɛteɛ
ɛtia
ɛto
ɛtoa
ɛtoaso
ɛtoatoa
ɛtoo
ɛtoso
ɛtoto
ɛtoɔ
ɛtra
ɛtrɛ
ɛtrɛw
ɛtrɛwee
ɛtsew
ɛtu
ɛtumi
ɛtuu
ɛtwa
ɛtwaa
ɛtwam
ɛtwatoɔ
ɛtwe
ɛtwee
ɛtwerɛ
ɛtwerɛɛ
ɛtwetwe
ɛtɔ
ɛtɔe
ɛtɔso
ɛtɔɔ
ɛwa
ɛware
ɛwhɛ
ɛwiase
ɛwie
ɛwo
ɛwom
ɛwoo
ɛwu
ɛwuraa
ɛwɔ
ɛwɔm
ɛwɔmu
ɛwɛ
ɛy
ɛyaw
ɛye
ɛyera
ɛyi
ɛyii
ɛyɛ
ɛyɛɛ
ɪ
ʃ
ʌ
ʔ
ʰ
ʻ
ʼ
ʽ
ʾ
ʿ
ˈ
ˌ
ː
ˤ
̀
́
̂
̃
̄
̆
̇
̈
̉
̊
̋
̌
̓
̔
̛
̣
̦
̧
̨
̺
͂
ͅ
ͻ
ͻͻ
α
β
γ
δ
διον
ε
εε
η
θ
ι
μ
ο
ρ
ρα
ς
στα
υ
а
б
в
господин
госпожо
д
другарю
ж
замисли
и
к
категори
категория
краі
на
о
с
съдия
т
ты
я
і
јутро
ԑ
ִ
ַ
ָ
ּ
ׁ
אדוני
בודו
גבירתי
השופט
כ
כבוד
כבודה
ככ
מ
נ
ש
שופט
ا
الا
الله
ب
ة
ت
ج
ح
خ
د
ر
س
ش
ف
ك
ل
م
ن
ه
ي
ً
ٌ
َ
ُ
ِ
ّ
ْ
ٓ
ٔ
ٕ
މ
ސ
ޤ
ި
ު
ް
ँ
ं
ः
इ
क
ग
च
ट
ड
ढ
ण
त
द
न
प
ब
भ
म
य
र
ल
व
श
ष
स
़
ा
ि
ी
ु
े
ौ
्
ং
ক
ট
ঢ
ণ
দ
ন
ব
র
ল
শ
ষ
়
া
ি
ী
ে
্
ৰ
ਚ
ਡ
ਹ
ੀ
੍
ੰ
દ
વ
ા
ଣ
ଦ
ର
ଶ
ୀ
େ
୍
க
ச
ட
ந
ன
ப
ம
ர
ல
ா
ி
ு
ெ
ை
்
ద
బ
హ
ా
ె
్
ౖ
ಂ
ಗ
ದ
ಬ
ರ
ು
ೂ
ೆ
್
ೕ
ം
ഗ
ജ
ര
ാ
്
ภ
ม
ิ
ุ
ู
่
་
།
ག
ཡ
ར
ལ
ུ
ྒ
ྱ
ྲ
ᏸ
​
‎
‐
‑
–
—
‘
’
“
”
„
†
‡
•
…
‪
‬
′
″
›
‿
⁄
€
₵
™
↑
→
↔
↷
−
≤
③
④
⑦
☉
☒
☾
♂
⺀
⺄
⺆
⺈
⺊
⺌
⺕
⺝
⺸
⺼
⿰
⿱
⿲
⿳
⿴
⿵
⿶
⿷
⿸
⿹
⿺
⿻
〢
う
け
つ
の
ひ
よ
わ
゙
カ
コ
ス
タ
テ
マ
ユ
ラ
リ
レ
ワ
ン
ー
㇁
㇂
㇄
㇇
㇈
㇉
㇓
㐁
㐄
㐅
㐌
㐫
㐬
㐭
㐮
㐱
㑒
㒵
㒸
㒼
㓁
㓞
㔾
㕛
㕣
㖾
㘝
㚅
㚇
㚔
㚘
㝉
㝡
㝴
㝵
㞋
㞢
㞷
㠩
㠭
㠯
㡀
㡭
㡿
㢲
㢴
㣇
㣺
㥯
㪅
㫄
㫐
㫒
㫺
㬅
㬎
㬥
㬰
㲋
㳄
㷠
㸒
㸚
㸦
㼌
㼲
㽞
㿟
䀠
䂞
䍃
䏍
䒑
䖍
䖒
䖝
䖵
䙴
䚻
䜌
䝿
䡛
䧹
䪞
一
丁
丂
七
丄
丅
丆
万
丈
三
上
下
丌
不
与
丏
丐
丑
专
且
丕
世
丘
丙
业
东
丞
丢
丣
两
严
並
丨
丩
个
丫
丬
中
丮
丰
丱
串
丵
丶
丷
丸
丹
为
主
丽
丿
乀
乂
乃
久
乆
乇
么
义
之
乌
乍
乎
乏
乐
乑
乔
乖
乗
乘
乙
乚
乛
乜
九
乞
也
习
乡
乳
乾
亀
亅
了
亇
予
争
事
二
亍
于
亏
亐
云
互
亓
五
井
亘
亚
亜
亞
亟
亠
亡
亢
交
亥
亦
产
亨
亩
享
京
亭
亮
亯
亰
亲
亳
亶
亷
人
亻
亼
亾
仁
今
介
仌
从
仐
仑
仒
仓
仕
他
付
仝
代
令
以
任
企
伊
伏
伐
休
会
伯
但
位
佐
何
佘
余
作
佥
使
來
侈
侌
侖
侯
侵
便
保
俞
信
修
倉
倍
候
倠
倭
備
僉
僕
儿
兀
允
兂
元
兄
充
兆
兇
先
光
兊
克
兌
免
兑
兒
兓
兔
党
兜
兟
入
全
兩
兪
八
公
六
兮
兰
共
关
兵
其
具
典
兹
兼
冀
冂
冃
冄
内
冈
冉
冊
冋
册
再
冎
冏
冐
冒
冓
冖
冗
冘
军
农
冝
冡
冥
冫
冬
冷
几
凡
凢
凵
凶
凷
凸
凹
出
函
凾
刀
刁
刂
刃
刄
刅
分
切
刍
刑
刕
刖
列
刘
则
初
別
利
别
到
制
刺
則
削
剌
前
剡
剽
劉
力
功
加
劦
助
劫
劳
劵
勃
勇
勉
勒
動
務
勞
勢
勤
勹
勺
勻
勾
勿
匀
匂
包
匆
匈
匊
匋
匍
匕
化
北
匚
匝
匡
匪
匱
匸
匹
区
医
匽
匿
區
十
卂
千
卄
卅
卆
升
午
卉
半
卌
华
卑
卒
卓
单
卖
南
卜
卝
卞
占
卡
卢
卣
卤
卦
卩
卪
卬
卯
印
危
即
却
卵
卷
卸
卻
厂
厃
厄
历
厈
厉
厌
厓
厘
厚
原
厤
厥
厨
厭
厲
厶
厷
厸
去
厼
厽
叀
参
參
叅
又
叉
及
友
双
反
叐
发
叒
叔
叕
取
受
叚
叜
叟
口
古
句
另
叩
只
召
可
台
叱
史
右
叵
号
司
叹
吂
各
吅
合
吉
吊
吋
同
名
后
吏
向
吕
君
吝
吞
否
含
启
吳
吴
吹
吾
呂
呆
呈
告
员
呙
周
命
咅
和
咎
咠
咢
咨
咸
咼
哀
品
哉
員
哥
哲
唐
商
啇
問
啚
啬
啻
善
喜
喬
單
喿
嗇
噩
嚴
囊
囗
囘
囙
囚
四
回
囟
因
囧
囬
困
囱
囷
固
国
圂
圅
國
圍
園
圓
土
圡
圣
圥
在
圭
地
圶
圼
坐
坒
坚
坴
垂
垔
垚
埀
埋
埶
執
基
堂
堅
堆
堇
堯
塞
墨
壘
士
壬
壯
声
壳
壴
壹
壺
壽
夂
处
夅
夆
备
夊
夋
夌
复
夏
夒
夕
外
夗
夘
多
夜
夢
大
夨
天
太
夫
夬
夭
央
失
夲
头
夷
夸
夹
夻
夾
奂
奄
奇
奈
奉
奎
奏
奐
契
奓
奔
奚
奞
奠
奢
奥
奭
女
奴
奶
奻
好
如
妄
妙
妟
妥
妻
妾
始
姑
委
姜
威
娄
婁
婆
婴
嬰
嬴
子
孑
孔
孕
孖
字
存
孚
孛
孝
孟
季
孤
学
孫
孱
學
宀
宁
宂
它
宅
宇
守
安
宋
完
宏
宓
宗
官
定
宛
宜
宝
客
宣
室
宮
宰
害
家
容
宾
宿
寄
寅
密
富
寒
察
寧
審
寫
寬
寮
寸
对
寺
寻
寽
対
寿
封
尃
射
将
將
專
尉
尊
尋
尌
對
小
少
尒
尓
尔
尖
尗
尚
尞
尢
尣
尤
尧
尨
尭
就
尸
尹
尺
尻
尼
尽
尾
尿
局
居
屈
屋
屎
屏
屑
展
屖
屚
属
屠
屡
屬
屮
屯
屰
山
屵
屾
岁
岂
岑
岡
岩
岳
岸
峯
島
崇
崑
崔
崖
崙
崩
嵬
嶲
巂
巛
川
州
巟
巠
巢
巤
工
左
巧
巨
巩
巫
差
己
已
巳
巴
巷
巸
巽
巾
巿
帀
市
布
希
帚
帛
帝
带
師
席
帶
常
干
平
年
幵
并
幷
幸
幺
幻
幼
幽
幾
广
広
庄
床
底
店
庚
府
度
庫
庭
庶
康
庸
廉
廌
廛
廣
廩
廴
延
廷
建
廾
廿
开
弁
弃
弄
弇
弋
式
弓
弔
引
弗
弘
弜
弟
弥
弦
弱
張
強
强
彊
彌
彎
彐
彑
当
彔
录
彖
彗
彡
形
彥
彦
彧
彭
彳
役
彼
往
待
律
徒
得
徙
從
復
微
徵
心
忄
必
忌
忍
志
忝
忠
忩
快
念
忽
忿
思
怠
急
怱
恆
恒
恩
恭
息
悉
患
悤
悲
悶
惠
惡
惢
愁
愈
意
愛
感
慈
慧
慮
憂
憲
應
戀
戈
戉
戊
戋
戌
戍
戎
成
我
戒
戔
或
戚
戠
戢
截
戲
戶
户
戸
戹
戼
戾
房
所
扁
扇
手
扌
才
打
托
执
承
折
拉
拜
拿
掌
推
提
摩
撒
支
攴
攵
收
攸
改
放
政
敄
敏
敕
敖
敗
敝
敞
敢
散
敦
敫
敬
数
敷
數
斂
文
斉
斊
斗
斤
斥
斩
斬
斯
新
方
於
施
斿
旁
旋
族
无
旡
既
旣
日
旦
旧
旨
早
旬
旱
旲
时
旾
昆
昇
昌
昍
明
昏
易
昔
昗
昜
星
春
昬
是
昱
昴
昷
時
晃
晋
晏
普
景
晶
智
暑
暴
曇
曜
曩
曰
曲
曳
更
曷
書
曹
曼
曾
替
最
朁
會
月
有
朋
服
朔
朕
朗
望
朝
木
朩
未
末
本
札
朮
术
朱
朵
朶
朿
杀
杏
杜
束
条
来
東
杲
杳
松
析
林
枚
果
枝
枲
枼
某
柔
查
柬
柰
柴
栗
桀
桑
桼
梁
條
梟
梨
棘
棠
棥
森
楚
業
楽
榮
樂
樊
横
欠
次
欣
欮
欲
欶
欽
款
歆
歇
歛
止
正
此
步
武
歨
歪
歮
歯
歰
歲
歴
歷
歸
歹
歺
死
殳
段
殷
殸
殹
殺
殻
殿
毋
毌
母
每
毒
比
毕
毚
毛
毳
氏
氐
民
气
氣
水
氵
氶
氷
永
氺
氾
求
汝
汞
江
沃
沓
沙
沝
沢
沼
泉
法
波
泣
泥
泰
洛
洪
活
派
流
浜
浦
浪
浮
海
淡
淮
清
渚
渠
湯
滿
漸
火
灬
灭
灰
灵
灷
炅
炎
炏
炗
炙
炭
為
烈
烏
烝
焉
無
焦
焱
然
煞
熊
熏
燕
營
燮
爪
爫
爭
爯
爰
爱
爲
爵
父
爷
爻
爽
爾
爿
片
牙
牚
牛
牜
牟
牢
牧
物
牪
牽
犀
犬
犭
犮
狂
狄
狊
独
狺
猋
猒
猪
献
獻
玄
率
玉
王
玟
玨
现
珎
班
琴
瑟
瑩
璠
瓜
瓦
甘
甚
生
産
用
甫
甬
田
由
甲
申
电
甶
男
甸
甹
町
画
甾
畀
界
畏
畐
留
畜
畟
畢
畧
畨
番
畫
異
畱
當
畺
畾
疊
疋
疌
疑
疒
疾
癶
癸
癹
登
發
白
百
皀
皃
的
皆
皇
皋
皐
皕
皖
皮
皷
皿
盃
盆
盇
盈
益
盍
盎
监
盒
盖
盛
盡
監
盤
盧
目
直
相
盾
省
眇
眉
看
眔
眞
真
眷
眼
眾
着
睘
睪
睿
瞏
瞢
瞿
矍
矛
矞
矢
矣
知
矦
短
石
破
碎
磊
磨
示
礻
礼
神
祟
祥
票
祭
禀
禁
福
禸
禹
禺
离
禽
禾
禿
秀
秃
秉
秋
科
秝
秦
移
稟
穀
穌
穴
究
穹
空
穿
突
窄
窒
立
竒
竜
竝
竟
章
童
竹
笑
笠
筆
等
答
箇
箕
算
箴
節
篤
篭
米
类
粉
粛
粟
粤
粦
粲
糞
糸
糹
系
約
納
素
索
紫
累
細
絜
絫
絲
維
綿
縣
繇
纍
纟
缶
网
罒
罔
罕
罗
罙
罡
罢
罪
署
罷
羅
羊
羌
羍
美
羔
羕
羗
羞
羡
羣
群
義
羲
羸
羽
翁
翏
習
翕
翟
翠
翼
老
耂
考
者
耆
而
耎
耑
耒
耳
耴
耶
耷
聂
聊
聖
聚
聶
聿
肀
肃
肅
肉
肖
肙
肥
肩
肯
育
肴
胃
背
胡
胥
能
脊
脩
膚
臣
臤
臧
自
臬
臭
臯
臱
至
致
臺
臼
臽
臾
臿
舀
舂
舄
與
興
舉
舌
舍
舛
舜
舞
舟
般
艮
良
色
艸
艹
艾
芒
芔
芬
芮
花
芳
芺
芻
苔
苗
苟
若
苦
英
茶
茸
荅
草
荒
荣
荼
莆
莧
莫
莽
菅
菆
菊
菐
華
萬
落
葉
著
葛
董
葵
蒙
蒦
蒼
蓋
蓬
蓺
蔑
蔡
蕉
蕭
薄
薛
薦
薰
藍
藏
藥
蘭
虍
虎
虐
虒
虔
處
虖
虗
虘
虚
虛
虜
虞
虫
虽
蚤
蚩
蜀
蜜
蟲
蠡
血
行
衍
衛
衣
衤
表
衮
衰
袁
袞
褭
褱
襄
襾
西
覀
要
覃
見
規
覓
覧
親
覽
见
角
解
言
訁
訇
計
詹
誩
諸
讠
谷
豆
豈
豊
豐
豕
豖
豙
象
豦
豩
豪
豸
貇
貝
貞
貟
負
貢
貧
貪
貫
責
貳
貴
買
費
賁
資
賈
賏
賓
賔
賛
賞
賢
賣
質
賴
贊
贝
贡
责
贯
贲
贵
赖
赞
赤
赦
走
越
足
路
蹇
身
躬
車
軍
軎
軟
輦
轄
车
辖
辛
辜
辟
辥
辰
辱
農
辵
辶
边
达
过
近
连
迷
追
退
送
逆
逐
通
速
造
逢
連
逮
進
遀
遂
過
道
達
遣
適
遷
遺
邊
邑
邕
那
邦
邪
郎
部
郭
都
鄉
酉
酋
配
酓
釆
采
里
重
野
量
金
釒
錢
钅
長
镸
长
門
閃
閉
開
閏
閑
閒
間
閔
閣
閵
閻
闌
门
间
闷
阑
阜
阝
阿
降
陳
隆
隊
隋
隡
隨
隱
隶
隹
隺
隻
隼
隽
难
雀
雁
集
雈
雋
雍
雐
雔
雙
雚
雜
雝
離
難
雨
雩
雪
雲
零
雷
需
霍
霜
霝
霞
霸
靈
靑
青
非
靡
面
靣
革
韋
韦
韭
韯
韱
音
頁
頃
項
須
頗
頡
頻
顛
類
页
風
风
飛
飞
食
飠
養
饣
首
香
馬
馮
駦
马
骨
高
髟
鬥
鬯
鬲
鬼
魏
魚
魯
鮮
鱼
鲁
鳥
鳳
鸟
鹵
鹿
麃
麗
麥
麦
麻
黃
黄
黍
黎
黑
黒
黨
黹
黽
黾
鼎
鼓
鼠
鼻
齊
齋
齐
齒
齿
龍
龙
龜
龟
龠
龰
龱
龴
龵
龶
龷
龸
龹
ꙑ
ꙗ
ꦮ
ꭰ
ꮅ
ꮎ
ꮢ
ꮧ
ꮩ
ꮪ
ꮲ
ꮹ
者
艹
﻿
（
）
－
１
？
￼
𐌰
𐌷
𐌽
𐍃
𐎠
𐎢
𐎰
𐎼
𐤉
𐤋
𐤐
𐤒
𐩥
𐩬
𐩮
𐩲
𒀭
𒆠
𒊹
𠀁
𠀃
𠀆
𠀉
𠀎
𠀐
𠁁
𠁣
𠂆
𠂇
𠂈
𠂉
𠂊
𠂋
𠂎
𠂒
𠂔
𠂛
𠂡
𠂢
𠂤
𠂬
𠂭
𠂹
𠃊
𠃋
𠃌
𠃍
𠃎
𠃑
𠃓
𠃔
𠃜
𠄌
𠄎
𠄠
𠄢
𠆢
𠆥
𠇍
𠈌
𠌵
𠓜
𠔉
𠔥
𠔼
𠔽
𠔿
𠕀
𠕁
𠕋
𠘧
𠘨
𠙻
𠙼
𠚏
𠚒
𠚤
𠚪
𠣏
𠤎
𠤕
𠥓
𠦄
𠦑
𠦝
𠧒
𠧗
𠧪
𠩺
𠪚
𠫓
𠫔
𠫤
𠬛
𠬝
𠬞
𠬢
𠬤
𠬶
𠮛
𠮦
𠮷
𠯑
𠱠
𠳮
𠷎
𡈼
𡉀
𡉵
𡌥
𡍮
𡏳
𡕒
𡕩
𡕰
𡖅
𡗗
𡗜
𡘆
𡘤
𡧱
𡨄
𡩧
𡬠
𡭽
𡰣
𡰥
𡰪
𡰯
𡰱
𡷈
𡸁
𡿨
𡿩
𡿪
𡿺
𢀖
𢀛
𢀩
𢁙
𢆉
𢆰
𢆶
𢇁
𢇇
𢉖
𢌬
𢌿
𢏚
𢑑
𢑚
𢖻
𢙣
𢛳
𢦏
𢦒
𢧵
𢼄
𢾕
𣁋
𣄼
𣅀
𣅽
𣍘
𣎳
𣎵
𣏋
𣏼
𣗥
𣥂
𣥖
𣦵
𣦼
𣧄
𣪊
𣪠
𣬉
𣳾
𣶒
𤇾
𤊽
𤐫
𤓰
𤔔
𤕨
𤣩
𤰇
𤰔
𤰞
𤴓
𤴔
𤽄
𥁑
𥁕
𥃦
𥃩
𥃭
𥇡
𥑟
𥘅
𥘈
𥝢
𥫗
𥱡
𦈢
𦉪
𦉬
𦉼
𦍌
𦍒
𦎧
𦐇
𦓔
𦔮
𦘒
𦙃
𦚏
𦣝
𦣞
𦣻
𦥑
𦥔
𦥯
𦨉
𦭝
𦰩
𧆞
𧈧
𧘇
𧰨
𧴪
𧴮
𧵩
𧾷
𨸏
𨾴
𩙿
𩠐
𩫏
𩵋
𪉷
𪜀
𪟽
𪠲
𪩲
𫇦
𫔭
𫜸
𫝀
𫠣
𫠩
𫢉
𫥞
𫩏
𫩠
𫪡
𫲽
𫶧
𬀷
𬐘
𬗌
𬙙
𬛸
𬜯
𬟩
𬯁
𬴘
𬺻
𬼉
𬼖
𭀰
𭁈
𭁨
𭅰
𭑈
𭕄
𭗼
𭤨
𭥫
𭻾
𮅕
𮊿
𮍌
𮍏
𮓗
𮥼
𮧮
廾
𰀁
𰀄
𰀈
𰀉
𰀕
𰀠
𰀡
𰀢
𰀪
𰁜
𰃮
𰆊
𰆘
𰋙
𰕎
𰢴
𰧭
𰯲
01--
02--
03--
05--
06--
07--
080--
101--
102--
103--
104--
106--
109--
111--
112--
11282--
114--
116--
118--
120--
122--
125--
132--
135--
138--
139--
142--
143--
145--
156--
158--
16--
160--
174--
177--
179--
2018--
214--
216--
22--
23--
240--
249--
27--
273--
329--
33--
34--
35--
37--
38--
392--
40--
405--
41--
410--
42--
43--
44--
45--
46--
483--
49--
51--
53--
54--
55--
556--
56--
57--
58--
59--
60--
60764--
61--
62--
63--
64--
65--
66--
67--
68--
686--
688--
69--
690--
70--
71--
72--
73--
74--
75--
76--
77--
78--
79--
80--
81--
82--
83--
84--
86--
87--
88--
89--
90--
91--
94--
95--
96--
97--
978--
978131--
a--
aa--
ab--
aba--
abadeɛ--
aban--
abe--
abena--
abi--
abibi--
abo--
abor--
abro--
abu--
abɔ--
abɛ--
abɛdi--
ac--
acc--
ache--
ad--
ada--
adapt--
addo--
ade--
adi--
ado--
adoko--
adop--
adr--
adu--
aduo--
adverti--
adwen--
adwu--
adz--
ae--
aero--
af--
afe--
affi--
afi--
afro--
afu--
ag--
ago--
agu--
agua--
ah--
ahen--
ahi--
aho--
ahuo--
ai--
air--
aj--
ak--
aka--
ako--
akro--
aku--
akwa--
akyere--
akyi--
akɔ--
al--
alder--
ali--
alum--
am--
ama--
aman--
ambi--
ame--
amma--
amoako--
amp--
amu--
amum--
an--
ana--
and--
andro--
ane--
ang--
angli--
ani--
anim--
ankomah--
ano--
antho--
anthro--
anti--
anu--
anwom--
any--
ao--
ap--
apa--
apol--
apolo--
app--
appo--
approxi--
apu--
apɔ--
aqu--
ar--
art--
as--
asa--
ase--
asi--
aso--
asokwa--
asp--
asu--
asukɔ--
asɛ--
at--
ate--
ati--
atifi--
atiri--
atta--
atu--
atuhu--
atuko--
atwa--
atwi--
atɛn--
au--
austr--
auto--
ave--
avi--
aw--
awo--
awu--
awudi--
awɔ--
ay--
aya--
ayam--
aye--
ayi--
ayɛ--
az--
b--
ba--
baa--
baabi--
bab--
bai--
ban--
bao--
bar--
bat--
bay--
bd--
be--
bea--
bel--
ben--
ber--
bet--
bha--
bhu--
bi--
biblio--
bie--
bill--
bin--
bio--
bl--
blas--
bo--
boa--
bon--
boo--
books--
bor--
bou--
boul--
bow--
br--
bra--
bre--
bri--
bris--
brit--
bro--
broad--
bru--
brɛ--
bu--
bua--
buc--
bul--
bund--
bur--
by--
bz--
bɔ--
bɛ--
bɛn--
c--
ca--
cal--
calder--
can--
cancer--
car--
carto--
cat--
cau--
cb--
ce--
cer--
cere--
ces--
ch--
cha--
cher--
chi--
chlo--
cho--
chu--
ci--
cir--
cla--
cle--
cli--
close--
clu--
cn--
co--
code--
col--
com--
con--
concep--
conf--
contr--
coqu--
cor--
corm--
corper--
corres--
cov--
cra--
cre--
cri--
cris--
cro--
cru--
cs--
ct--
cu--
cy--
cyc--
d--
da--
daa--
dab--
daff--
daga--
dagb--
dam--
dan--
dar--
data--
day--
dayi--
de--
dec--
decis--
dee--
defe--
defi--
del--
dem--
demo--
den--
depen--
der--
derma--
des--
desce--
dev--
di--
dia--
diasp--
dic--
diff--
dii--
din--
dioc--
dist--
diver--
dj--
dm--
do--
doc--
dom--
don--
dor--
dot--
dp--
dq--
dr--
du--
dua--
dun--
duplic--
dw--
dwa--
dwo--
dwom--
dy--
dz--
dɔ--
dɔm--
dɛ--
e--
ea--
ear--
east--
eb--
ebu--
ec--
ecc--
ecot--
ed--
edi--
edu--
edz--
ee--
efe--
eff--
efi--
eg--
ei--
eji--
ek--
el--
elɛ--
em--
emer--
en--
end--
endo--
eng--
enna--
ep--
epimut--
epir--
epis--
episo--
er--
eryth--
erz--
es--
eso--
est--
et--
etymo--
eu--
euro--
ev--
eva--
ew--
ex--
exc--
execut--
expe--
expl--
ey--
eyi--
f--
fa--
falc--
fam--
fan--
far--
farm--
fc--
fe--
fee--
fer--
fi--
fie--
file--
fire--
fitz--
fix--
fla--
flag--
flo--
flu--
fn--
fo--
for--
foto--
fr--
fre--
fri--
friend--
front--
fu--
fua--
fufu--
fund--
g--
ga--
gar--
gb--
gbe--
gbidu--
gc--
gd--
ge--
geme--
gen--
geo--
geogr--
ges--
get--
gh--
ghana--
gi--
gia--
gla--
global--
gm--
go--
god--
gor--
gr--
gran--
green--
grund--
gu--
gua--
guaso--
guer--
gui--
gy--
gya--
gye--
gyi--
gymn--
gyne--
h--
ha--
hai--
hall--
ham--
hand--
happ--
har--
hard--
harm--
hart--
haya--
he--
hed--
hell--
hene--
hepa--
her--
hey--
hi--
hia--
high--
hip--
hiro--
his--
hit--
ho--
holl--
home--
hon--
hr--
htm--
html--
hu--
hw--
hwe--
hwɛ--
hy--
hydr--
hydro--
hye--
hygi--
hyper--
hypo--
hyɛ--
i--
ia--
ib--
iber--
ic--
id--
ie--
if--
ign--
il--
illu--
im--
image--
impregn--
in--
inau--
incomp--
indic--
indus--
infe--
info--
inhi--
inj--
inn--
inner--
insp--
inspir--
int--
inter--
interve--
intro--
inusa--
inve--
investi--
io--
ir--
is--
isa--
ise--
islam--
iso--
it--
iu--
iv--
j--
ja--
jam--
jan--
jar--
jaz--
je--
ji--
jo--
joy--
ju--
juk--
jur--
juve--
k--
ka--
kaa--
kan--
kar--
kasa--
kath--
ke--
ken--
kess--
key--
kha--
ki--
kili--
kilo--
kin--
kiz--
kle--
klim--
ko--
kok--
koko--
kom--
kon--
kor--
kos--
kpa--
kpe--
kpek--
kpo--
kr--
kra--
kro--
krɔ--
ku--
kua--
kum--
kumi--
kuo--
kur--
kuro--
kusi--
kw--
kwa--
kwae--
kwan--
ky--
kyen--
kyere--
kyi--
kɔ--
kɔfa--
kɔn--
kɛ--
l--
la--
lab--
lac--
lamp--
land--
lar--
las--
laur--
le--
lel--
lept--
leu--
levi--
lex--
li--
light--
lil--
liss--
liva--
live--
lj--
lo--
loc--
low--
lu--
lua--
lux--
luxem--
ly--
m--
ma--
maa--
mac--
machine--
macro--
mad--
mag--
magn--
mah--
mai--
main--
mak--
mal--
malfa--
man--
map--
mar--
mary--
mas--
mat--
matt--
may--
mb--
mc--
me--
med--
meh--
mela--
mem--
men--
mer--
merck--
mere--
met--
mete--
mexi--
mf--
mfa--
mfe--
mfi--
mfon--
mi--
mic--
micro--
mid--
mill--
min--
mira--
mit--
ml--
mm--
mma--
mmaa--
mmahyɛ--
mmarahy--
mmebu--
mmerahye--
mmerahyɛ--
mmo--
mmra--
mmrahye--
mmu--
mmɔ--
mn--
mo--
moa--
mono--
moo--
mor--
mos--
mother--
mp--
mpa--
mpensen--
mpo--
mr--
ms--
mt--
mu--
mua--
mug--
multi--
mun--
musc--
mw--
my--
mɒ--
n--
na--
nak--
nam--
names--
nan--
nana--
nas--
naza--
nd--
ndo--
ne--
nec--
neo--
ner--
net--
neur--
new--
news--
nfa--
nfo--
ng--
ngo--
nh--
nho--
nhw--
ni--
nico--
nie--
nim--
nk--
nka--
nkek--
nko--
nkont--
nkwa--
nky--
nkɔ--
nmi--
nn--
nna--
nne--
nno--
nnu--
nnwom--
nnɔ--
nnɛ--
no--
non--
nor--
not--
nov--
nr--
ns--
nsa--
nsaa--
nse--
nsem--
nso--
nson--
nsra--
nsu--
nsuo--
nsɔ--
nsɛ--
nsɛm--
nt--
ntam--
nte--
nti--
nto--
ntɔ--
ntɛm--
nu--
nua--
nuc--
num--
nwe--
nwhe--
nwo--
ny--
nya--
nye--
nyi--
nz--
o--
oaf--
obe--
obl--
obra--
obu--
oc--
od--
oda--
odi--
odo--
odododi--
of--
og--
ok--
oka--
oko--
oku--
ol--
old--
on--
onco--
oni--
online--
ono--
onu--
op--
ope--
open--
or--
org--
os--
osa--
osi--
ot--
oti--
otu--
ou--
out--
ov--
over--
owu--
owusu--
ox--
oz--
p--
pa--
paa--
pac--
pam--
pan--
par--
para--
park--
party--
pat--
pata--
patri--
pdf--
pe--
pem--
pen--
per--
pho--
php--
phy--
physio--
pi--
pj--
pl--
plei--
pm--
pn--
po--
pobl--
pol--
pon--
pop--
port--
possibi--
post--
pp--
pr--
pre--
princ--
pro--
promi--
ps--
psy--
pt--
pu--
pub--
pul--
pun--
pup--
pur--
put--
px--
py--
pylo--
pɛ--
q--
qa--
qer--
qu--
queen--
quot--
r--
ra--
ran--
rap--
rd--
re--
reci--
rect--
redi--
ref--
reflect--
rega--
regi--
rela--
repɔ--
res--
resolut--
reu--
rh--
ri--
rice--
riga--
rik--
ro--
rosa--
rou--
row--
rs--
rt--
ru--
s--
sa--
sak--
sal--
sali--
sam--
san--
sar--
sas--
sb--
sc--
sch--
se--
seba--
sec--
sem--
semi--
sen--
sene--
ser--
ses--
seve--
sh--
shan--
shay--
sho--
show--
shqi--
shtml--
si--
sicil--
sika--
simu--
sin--
sis--
site--
sk--
sl--
sla--
sli--
slo--
slov--
sm--
sna--
so--
soa--
socio--
some--
son--
sor--
soro--
south--
sp--
spo--
spon--
sq--
squ--
sr--
ss--
st--
sta--
star--
ste--
stra--
stro--
strong--
sty--
su--
sua--
sub--
suff--
sukuu--
sul--
sull--
sum--
sun--
super--
sur--
susp--
sw--
sy--
sylvi--
sɔ--
sɛ--
sɛm--
sɛn--
t--
ta--
taa--
tak--
tam--
tan--
tar--
tat--
tau--
tax--
tchi--
te--
tei--
tek--
ten--
ter--
tere--
terri--
th--
the--
thre--
ti--
tic--
tin--
to--
tom--
top--
toro--
tr--
tra--
trans--
tre--
tri--
tro--
tsa--
tu--
tum--
tumi--
tur--
tuu--
twa--
twerɛ--
twi--
ty--
tɔ--
tɛ--
u--
ud--
uk--
ul--
ultra--
um--
un--
unc--
under--
uni--
unic--
up--
ur--
us--
ut--
util--
v--
va--
vacat--
vag--
val--
van--
var--
vati--
ve--
velo--
ver--
vero--
vi--
view--
vir--
vo--
vol--
volta--
vorsitz--
vote--
vr--
vu--
vy--
w--
wa--
wal--
wale--
wan--
wap--
war--
was--
we--
web--
wei--
wel--
west--
wetl--
what--
whe--
whit--
white--
wi--
wiki--
wild--
win--
wit--
wo--
wobe--
wobɛ--
wol--
wom--
won--
wood--
wore--
wr--
wu--
wɔ--
wɔan--
wɔbɛ--
wɔde--
wɔkɔ--
wɔn--
wɔnn--
wɔre--
wɛ--
x--
xa--
xer--
y--
ya--
yaa--
yam--
yan--
yar--
yare--
ye--
yen--
yi--
yie--
yo--
you--
young--
yu--
yus--
yɔ--
yɛ--
yɛbɛ--
yɛn--
yɛre--
z--
za--
zab--
zagr--
zer--
zh--
zo--
zoo--
zu--
þ--
ɔ--
ɔb--
ɔba--
ɔbaa--
ɔbe--
ɔbo--
ɔbɛ--
ɔde--
ɔdi--
ɔdw--
ɔhe--
ɔho--
ɔhye--
ɔk--
ɔka--
ɔko--
ɔkɔ--
ɔm--
ɔma--
ɔman--
ɔn--
ɔni--
ɔp--
ɔpɛ--
ɔre--
ɔsa--
ɔse--
ɔsɛ--
ɔsɛmpa--
ɔte--
ɔti--
ɔtiti--
ɔtu--
ɔwɔ--
ɔy--
ɔyɛ--
ɛ--
ɛbenada--
ɛbɔ--
ɛbɛ--
ɛdan--
ɛdwa--
ɛkye--
ɛkɔ--
ɛnn--
ɛpo--
ɛre--
ɛwɔ--
δ--
λ--
μ--
χρ--
б--
в--
д--
ж--
ил--
к--
ка--
н--
с--
ا--
ال--
الع--
ل--
مس--
مسل--
--0
--00
--01
--02
--03
--04
--05
--06
--065
--07
--070
--08
--09
--1
--10
--11
--12
--13
--14
--15
--16
--17
--18
--19
--2
--20
--21
--22
--222
--23
--24
--25
--26
--27
--28
--29
--3
--30
--31
--32
--33
--334
--34
--35
--36
--37
--38
--383
--39
--4
--40
--41
--42
--44
--45
--46
--47
--48
--49
--5
--50
--51
--52
--53
--54
--55
--56
--57
--58
--59
--591
--6
--60
--61
--62
--627
--63
--64
--65
--66
--69
--7
--70
--71
--72
--73
--733
--74
--744
--75
--76
--77
--78
--79
--8
--80
--81
--817
--82
--83
--84
--842
--848
--85
--859
--86
--87
--88
--89
--9
--90
--91
--92
--93
--946
--95
--96
--97
--98
--99
--a
--aa
--aaiaaj
--aaj
--aaqbaj
--ab
--abad
--able
--ac
--ad
--ada
--ado
--adu
--ae
--aedia
--aeɛ
--afa
--afia
--afo
--afoɔ
--afriyie
--aft
--afua
--ag
--age
--ah
--ai
--aiaaj
--aid
--ain
--aj
--ak
--akosua
--aku
--al
--ala
--ald
--all
--ally
--als
--am
--an
--ana
--ance
--ancy
--and
--ang
--ani
--ano
--ans
--ant
--ants
--anu
--anus
--ao
--aqbaj
--ar
--ara
--ard
--ardo
--arge
--ari
--arial
--aries
--ark
--arum
--ary
--as
--asa
--asantechief
--ase
--aseda
--asi
--aso
--ast
--at
--ate
--ates
--ation
--ations
--ative
--ator
--atric
--au
--aue
--ava
--aw
--awa
--ay
--azole
--aɛ
--b
--ba
--baa
--bach
--badwa
--bae
--bahn
--ban
--barima
--be
--bea
--beng
--bere
--berg
--berger
--berɛ
--bi
--bio
--bko
--blah
--ble
--bler
--bles
--bo
--boa
--board
--bofo
--bolites
--bom
--bor
--borg
--boɔ
--bre
--bs
--bu
--buck
--bun
--buo
--burg
--bwe
--by
--bɔ
--bɔfo
--bɛ
--c
--ca
--cal
--cat
--ce
--cg
--ch
--che
--ched
--cher
--cht
--ci
--ciliation
--cing
--ck
--cka
--co
--code
--cs
--ct
--ction
--cts
--cy
--d
--da
--daa
--dad
--dah
--dan
--dane
--day
--dc
--de
--den
--deɛ
--dfo
--di
--die
--difo
--difoɔ
--din
--dir
--dis
--diɛ
--dley
--do
--doo
--dow
--dra
--dre
--ds
--du
--dua
--dwa
--dwen
--dwuma
--dy
--dzi
--dɔ
--dɔm
--dɛ
--e
--ea
--ean
--eau
--eaux
--eb
--ec
--ed
--edit
--ee
--een
--ees
--eet
--eeɛ
--ef
--eg
--egaly
--eh
--ei
--ein
--eka
--el
--ela
--elkan
--ell
--elli
--em
--ement
--emor
--emu
--en
--ena
--enburg
--ence
--end
--ends
--ene
--enko
--ens
--ent
--ents
--eon
--er
--era
--ere
--erg
--eri
--eries
--ering
--ern
--ero
--ers
--ert
--erts
--ery
--erɛ
--es
--esa
--ese
--esie
--ess
--est
--et
--etiam
--ets
--eu
--ev
--ex
--ey
--ez
--eɛ
--f
--fa
--fe
--fect
--feld
--fer
--ff
--fi
--fie
--field
--fio
--fiɔ
--fm
--fo
--foo
--fowikidata
--foɔ
--fu
--fua
--ful
--fuo
--fy
--fying
--fɔ
--g
--ga
--gani
--gba
--ge
--ged
--gel
--gen
--ger
--gery
--gets
--gh
--ghana
--gi
--gid
--gie
--gin
--ging
--gist
--go
--gon
--goni
--gre
--gs
--gu
--gue
--guide
--gye
--h
--ha
--hal
--ham
--hand
--hane
--hc
--he
--heim
--hemaa
--hen
--hene
--het
--hi
--hia
--hing
--hip
--hips
--ho
--hood
--horo
--hr
--ht
--hto
--http
--https
--hu
--hw
--hwe
--hwɛ
--hy
--hye
--hylation
--hyɛ
--hɔ
--i
--ia
--iah
--ial
--ian
--iation
--ibea
--ible
--ic
--ica
--ical
--icillin
--ico
--ics
--icular
--id
--ida
--idad
--ide
--ids
--ie
--ied
--iel
--ien
--ient
--ier
--ies
--ified
--ifo
--ifoɔ
--ify
--ig
--ign
--ii
--ija
--ik
--ika
--iku
--il
--ila
--ile
--im
--ima
--ime
--in
--ina
--ine
--ines
--info
--ing
--ings
--ini
--ining
--ino
--io
--ion
--ions
--ious
--ique
--ir
--ira
--ire
--iri
--iro
--irus
--is
--isation
--ise
--ised
--ish
--isi
--ism
--ist
--istic
--istics
--ists
--it
--ita
--ite
--ith
--ities
--itis
--ito
--ity
--ium
--ius
--ive
--ives
--iving
--ivity
--iw
--iya
--iz
--iza
--ization
--ize
--ized
--izing
--iɛ
--j
--ja
--jan
--jar
--je
--ji
--jn
--jo
--joana
--joe
--ju
--k
--ka
--kaafa
--kae
--kafo
--kafoɔ
--kan
--kasa
--ke
--kee
--kel
--ker
--kes
--kh
--ki
--kia
--kil
--kle
--ko
--koe
--kov
--kra
--kroabea
--ks
--kt
--ku
--kum
--kuo
--kura
--kuw
--kwa
--kwe
--ky
--kya
--kye
--kyer
--kyere
--kyerefo
--kyerɛ
--kyɛ
--kɔ
--l
--la
--lam
--land
--lar
--lat
--lav
--ld
--lde
--le
--leaf
--led
--len
--ler
--less
--let
--lex
--ley
--lf
--lga
--li
--lia
--lin
--line
--ling
--lio
--lis
--list
--ll
--lla
--lle
--lli
--lling
--llo
--lly
--lo
--logy
--lon
--lp
--ls
--lt
--lus
--ly
--m
--ma
--mafo
--mah
--mam
--mamfoɔ
--man
--manda
--matic
--mba
--mbaidoo
--mbuafo
--mbɔ
--me
--meet
--men
--ment
--mercy
--mfo
--mfoɔ
--mfra
--mi
--mic
--mie
--mir
--mire
--mise
--mma
--mnam
--mo
--moa
--mond
--mor
--mp
--mpa
--mpi
--mps
--mr
--mra
--ms
--mtu
--mu
--mufoɔ
--mui
--mumɔ
--muo
--mus
--my
--mycin
--mɔ
--mɔfo
--mɛ
--n
--na
--naa
--nacs
--nah
--nahuna
--nal
--nam
--name
--nan
--nana
--nat
--nc
--nce
--nced
--nci
--ncing
--ncy
--nd
--nda
--nde
--ne
--nea
--ned
--nee
--ner
--ners
--nes
--ness
--net
--netene
--ney
--nfo
--nfoɔ
--ng
--nga
--ngia
--nh
--ni
--nia
--nic
--nie
--nii
--nik
--nim
--nimfo
--nin
--ning
--nini
--nite
--nja
--nkafoɔ
--nko
--nmu
--nmuo
--nn
--nna
--nne
--nni
--no
--nom
--noni
--nor
--ns
--nsa
--nsi
--nsis
--nso
--nsoɔ
--nsɛm
--nt
--nta
--nte
--ntin
--nts
--ntwɛn
--nu
--nus
--nwa
--ny
--nya
--nyan
--nyi
--nyo
--nz
--o
--oa
--ob
--occus
--ock
--od
--oe
--of
--ofo
--ofoɔ
--og
--ogic
--oh
--oid
--oids
--ok
--ol
--ole
--oles
--ological
--ologist
--ology
--om
--oma
--ome
--on
--onal
--one
--ong
--oni
--online
--ons
--oo
--oon
--opa
--opoku
--ops
--or
--orm
--ors
--ort
--os
--oso
--ot
--otes
--oto
--ou
--oud
--ous
--out
--ov
--ovic
--ow
--ows
--oy
--ozzi
--oɔ
--oɛ
--p
--pa
--pae
--page
--paka
--pan
--pata
--pc
--pe
--pel
--pem
--pf
--phere
--phis
--ping
--po
--pped
--ps
--ptych
--pu
--pur
--pus
--py
--pɔ
--pɔn
--pɔw
--pɛ
--q
--qbaj
--qui
--r
--ra
--raa
--rack
--rah
--ral
--ram
--rat
--rata
--rate
--rbs
--rd
--re
--ree
--ret
--rew
--reɛ
--rf
--rg
--rgy
--ri
--ria
--rial
--ric
--rick
--rim
--rima
--rin
--rina
--riw
--rk
--rl
--rm
--rmal
--rn
--rne
--ro
--room
--rosy
--rp
--rr
--rra
--rro
--rry
--rs
--rt
--rta
--rton
--ru
--rum
--rus
--ruw
--ry
--rɔ
--rɛ
--rɛmka
--rɛɛ
--s
--sa
--saa
--sah
--san
--scape
--sco
--scular
--se
--sed
--see
--sel
--sem
--sen
--ser
--seɛ
--sh
--sha
--shen
--si
--sia
--sie
--sii
--sim
--sion
--sis
--sitivity
--sive
--sk
--ska
--ski
--slav
--sm
--sms
--sn
--so
--soa
--sode
--som
--son
--soɔ
--sra
--srɛ
--ss
--ssa
--sse
--st
--sti
--stone
--sts
--style
--su
--sua
--sue
--suo
--sus
--suw
--sy
--sɔ
--sɛ
--sɛe
--sɛm
--t
--ta
--tal
--tam
--tan
--tar
--tare
--te
--ted
--teh
--ten
--tepɔn
--ter
--tes
--tew
--tey
--th
--tha
--ti
--tia
--tiafo
--tial
--tic
--tile
--times
--tin
--ting
--tio
--tion
--tions
--tis
--tist
--title
--tive
--tle
--to
--toa
--tofo
--ton
--tor
--tors
--tory
--tow
--toɔ
--tr
--tre
--trɛ
--ts
--tse
--tsi
--tta
--tte
--tti
--ttps
--tu
--tua
--tufoɔ
--tumi
--tuo
--tus
--twa
--twe
--twɛ
--ty
--typic
--tz
--tɔ
--tɔn
--tɛm
--u
--ua
--ual
--uary
--ub
--uc
--ud
--ue
--ufo
--ufoɔ
--ugh
--ui
--uk
--ul
--ula
--ular
--ule
--uli
--ulism
--ult
--um
--uma
--ume
--umer
--umi
--un
--una
--une
--uni
--unu
--uo
--uor
--uous
--ur
--ura
--ure
--ures
--uro
--uru
--ury
--us
--usu
--usuw
--ut
--ute
--uth
--utics
--uu
--uw
--ux
--uy
--v
--va
--valent
--ve
--ver
--ves
--vi
--vic
--vo
--w
--wa
--waa
--waaqbaj
--way
--we
--wen
--wene
--west
--wfo
--wi
--wia
--wick
--wikidata
--wo
--world
--ws
--wu
--wɔ
--x
--xy
--y
--ya
--yaa
--yah
--yam
--yansapɛ
--yaw
--yc
--ye
--yere
--yerɛ
--yi
--yia
--yie
--yifo
--yin
--yina
--yn
--yo
--ys
--yu
--yx
--yɔ
--yɔkuo
--yɔni
--yɛ
--yɛfo
--yɛfoɔ
--yɛn
--yɛni
--z
--za
--zation
--ze
--zed
--zer
--zi
--zik
--zoa
--zu
--zy
--ɑ
--ɔ
--ɔn
--ɔs
--ɔso
--ɔɔ
--ɔɛ
--ə
--əm
--ɛ
--ɛe
--ɛm
--ɛn
--ɛɛ
--ɪm
--α
--ι
--ς
--а
--в
--и
--к
--ла
--о
--ь
--я
--ја
--ا
--ان
--د
--م
--ن
