!
"
#
##0
##1
##10
##11
##12
##13
##14
##15
##16
##17
##18
##19
##2
##20
##21
##22
##23
##24
##25
##26
##27
##28
##29
##3
##30
##31
##32
##33
##34
##35
##36
##37
##38
##39
##4
##40
##41
##42
##43
##44
##45
##46
##47
##48
##49
##5
##50
##51
##52
##53
##54
##55
##56
##57
##58
##59
##6
##60
##61
##62
##63
##64
##65
##66
##67
##68
##69
##7
##70
##71
##72
##73
##74
##75
##76
##77
##78
##79
##8
##80
##81
##82
##83
##84
##85
##86
##87
##88
##89
##9
##90
##91
##92
##93
##94
##95
##96
##97
##98
##99
$
%
&
'
(
)
*
+
,
-
.
/
0
00
000
0000
001
003
007
008
01
02
03
04
05
06
07
08
09
1
10
100
101
103
105
106
107
109
11
110
111
112
114
115
119
12
120
123
13
130
134
14
147
15
150
1500
153
16
160
1600
165
169
17
170
1700
1745
18
1800
1830
19
1987
1988
199
1991
1999
2
20
200
2000
2001
2002
2003
2004
2005
2006
2007
2008
2009
2010
2011
20110115
2012
2024
2026
209
21
216
22
220
2257088
229
23
24
240
2412
25
250
2554
26
27
270
271
278
28
29
290
3
30
300
3000
31
314
32
33
34
35
350
36
369
37
38
380
39
4
40
400
401
41
410
42
43
44
440
45
450
46
47
48
49
5
50
500
501
51
513
52
53
54
541
545
55
5555
56
57
58
59
595
6
60
600
61
63
64
66
66396603
68
69
7
70
700
73
74
75
76
77
78
8
80
800
81
82
84
85
853
88
89
9
90
900
9000
91
92
923336719513
93
94
96
99
999
:
;
<
=
>
?
@
\
^
_
`
a
ab
abc
abd
abdallah
abdel
abdelaziz
abdul
abdullah
abdulrahman
abendblatt
abendzeitung
abhishek
ability
able
about
above
absolutely
aby
ac
academia
academic
academics
academy
acce
access
accessible
accomplishments
according
account
accounts
accuracy
accurate
ace
acerca
ach
acharya
achieve
achieved
achievement
across
act
acte
actes
action
active
actively
actividades
activities
activity
acto
actual
actually
ad
ada
adagio
adapt
adaptados
add
added
addictive
adding
addition
additional
address
adel
adelaide
adema
adhikari
aditya
administration
administrator
admins
admission
adopted
adults
advance
advanced
advertising
advisory
afford
afin
afp
africa
aftenposten
after
afternoon
afterparty
again
agarwal
age
agency
agenda
aggiungete
aggiunto
agha
agli
ago
agosto
agr
agrawal
agree
agreed
ahead
ahmad
ahmadi
ahmed
ai
aid
aider
aimed
aimee
aims
aires
aiuto
aj
ajit
ajoute
ajuda
ajudar
ak
akash
aktivisten
al
alaa
alan
alas
albanian
album
alcala
alcanzar
alemannic
alex
alexandria
alfa
algeria
alghero
alguer
ali
alight
alike
alireza
all
alla
alle
allegretto
allegro
allemande
alles
allgemeine
allgmeine
allkunne
allo
allow
almost
alo
alok
alone
alonemayankgmail
along
already
als
also
alt
alta
although
altre
altres
altri
altro
always
am
amateurs
amazing
amb
ambassador
ambassadors
ambience
ambitions
america
american
amherst
amicable
amical
amigos
amin
amir
amit
among
amr
amsterdam
an
ana
analysis
analyze
anand
anarchie
anas
anche
anchor
and
andersen
andhra
andorra
andre
anfang
angeles
angry
anil
anilalur
animation
aniversa
aniversari
aniversario
ankit
ankur
ann
anna
anne
anni
anniversaire
anniversario
anniversary
announced
announcement
annual
anonymous
anonymousmitstudent
anos
another
ans
ansa
answer
answered
answers
anton
antoni
antonio
any
anybody
anymore
anyone
anys
anything
anyway
anywhere
anza
ao
ap
apoyo
appear
appears
apply
appreciate
approach
appropriate
approval
approved
approx
approximately
apre
apresentac
april
aprile
apurva
aquest
aqui
ar
arab
arabia
arabic
archive
archives
archivist
ard
are
area
areas
aren
argentina
argostoli
ariel
arizona
arjuna
arjunaraoc
armenia
armenian
arnov
around
arrange
arranged
arrangements
arrival
arrive
arrived
arriving
ars
art
arte
arti
article
articles
articoli
arts
arun
arunram
as
asado
asaf
ashish
ashkan
ashwin
asia
asistentes
ask
asked
aslancan
aspect
assam
assessing
assicuratevi
assist
assistance
associated
association
assume
asthana
astonished
astonishing
at
atlantic
attached
attend
attendance
attended
attendees
attending
attention
attivita
attract
attribution
atul
atur
au
auburn
aude
audience
audio
audit
auditorio
auditorium
auf
aufziehende
aug
august
aula
aung
aurons
aushulz
aussi
austin
australia
austria
author
authors
auto
automated
autora
autoren
autres
aux
av
availability
available
ave
avec
avenida
avenue
average
avere
avete
avez
avinash
aviv
award
awarded
awards
aware
awareness
away
awesome
awful
axuda
axudarche
ayers
ayman
ayuda
ayudarte
ayuntamiento
az
azerbaijan
azerbaijani
azimi
aziz
b
ba
babu
bach
back
background
bad
bado
baix
baku
bal
bala
ball
ballada
ban
bangalore
bangladesh
banner
banners
banquet
bar
barcelona
barry
bartov
bas
base
based
bash
basic
basis
basso
basson
batam
bay
bayerischer
bazar
bazı
bbc
bbsr
bd
be
beach
beautiful
became
because
become
becomes
becoming
bedr
bedroht
bedz
been
beer
before
began
begann
begin
beginning
begins
behalf
behind
bei
being
bekommt
belarusian
belgrade
believe
bello
below
ben
bence
benefit
benefits
bengal
bengali
bengaluru
benkler
bennett
benny
bennylin
benutzer
ber
berhampur
berlin
berliner
berner
bernie
besoin
besserwisser
best
bestehen
bester
beth
betson
better
between
beyond
bhopal
bhubaneswar
bi
biblioteca
bie
bien
biento
big
biggest
bikaner
bild
billion
billionth
bilo
bin
biography
bir
bird
birds
birthday
bis
bit
biti
bits
bivona
bjørtvedt
black
blad
blank
blast
bleary
blejman
blico
block
blog
bloggers
blogs
blogspot
bloom
bloomberg
blow
blue
board
boards
bob
bogor
bogota
bokehmon
bokma
bold
bon
bonjour
book
books
bookshelf
border
bored
born
bosch
bosnia
boston
bot
both
boto
botones
bots
botschaft
bought
bougies
boulder
box
boxes
br
brainstorming
branch
brand
brandon
brasi
brasil
bration
braunschweiger
brazil
bre
bread
break
bremen
brewery
brief
bring
bringing
brings
bristol
british
broadband
broadcast
brockhaus
broken
bronislava
brooklyn
brought
bruno
bsteidle
bu
buchreport
budapest
budget
buduc
buenos
build
building
built
bulgaria
bulgarian
bulle
bulus
bunch
buon
bureau
burger
bus
business
businessprnews
businessweek
bussorah
busy
but
butter
button
buttons
buy
by
bye
c
ca
cabin
cache
cada
cafe
cairo
cake
cakes
calcutta
calendar
california
call
calle
called
calling
calliopejen
calls
cambridge
came
cameras
camisetas
campaign
campus
can
canada
canberra
cancel
cancelled
cancers
cannot
cant
cantabridgian
cantabrigienne
cantine
canton
canyon
capacity
capi
capital
capitol
capitole
capsule
capsules
caption
card
cards
care
caribdigita
carlo
carlos
carmen
carolina
carpenter
carry
carson
carta
casa
case
casos
castle
cat
catala
catalan
catalunya
categories
categorization
category
caterer
caused
cbc
cbs
cc
cd
cdip
ce
cecilia
cej
celeberation
celebra
celebracio
celebramos
celebrar
celebrare
celebrate
celebrated
celebrates
celebrating
celebration
celebrations
celebratory
celebrazione
celebrity
cell
cena
center
central
centre
centro
century
ceremony
certainly
certificate
cet
cette
ch
chairman
challenge
champagne
chance
chandigarh
chandra
change
changed
changes
changing
channel
chaoyang
chapter
chapters
charcoal
charity
charl
charla
charlas
charlestonwikigroupgmail
chaser
chat
che
cheang
check
checking
cheers
chef
chemistry
chennai
cherian
chi
chiave
chicoloapan
chief
child
children
chile
chilean
china
chinese
chionna
chip
chitash
chittagong
cho
chose
chosen
chrome
chronicle
chst
chster
chtnis
chu
chung
ci
cia
ciao
cias
cicero
cie
ciebie
ciencias
cienti
cimo
cio
ciowe
ciowych
circle
citation
cite
cited
cities
citilab
citizens
citta
city
ciudad
civil
civility
ckwunsch
cl
class
classroom
classrooms
clay
cleanup
clear
clearly
click
clip
clips
close
closed
closer
club
clubs
cmyk
cnicas
cnn
cnr
co
coa
coast
cocoa
code
coding
codrin
coffee
cofounder
col
colaboracio
colaborativa
cold
cole
colinas
collaboration
collaborative
collect
collections
collective
college
colleges
colombia
colony
color
colour
columbia
com
comarcals
come
comec
comes
comfortable
coming
commemorate
comment
comments
commercial
committed
committee
common
commons
communaute
communicate
communication
communications
communities
community
como
company
compared
comparisons
compartir
competition
compie
compleanno
completa
complete
completely
complex
comprehensive
comprising
computadora
computer
computers
computerwoche
computerworld
computing
comscore
comune
comunicacio
comunidad
comunidade
comunita
comunitat
comunity
con
conaculta
concepcio
concept
concernant
concerning
concerns
concert
concetto
conclusion
concorso
concurs
condividere
condividi
conducted
confe
conference
confiable
confident
confirm
confirmar
confirmation
confirmed
congratulations
congregation
congress
connect
connecting
connection
conocimiento
conoscere
consensus
conservation
considered
considering
consist
constantly
constraints
consultant
consumer
contact
contacter
contacto
contactowikimediachile
contacts
containing
contatto
contenidos
content
contest
continents
continue
continues
contribs
contribuer
contribuire
contribute
contributed
contributing
contribution
contributions
contributor
contributors
contro
control
controversy
conversation
cookies
cool
coordinadora
coordinated
coordinating
coordination
copies
copy
copyright
core
cornella
corner
coronoides
correct
correctly
correo
corso
corun
corvus
cosa
cose
cosi
cost
costa
costs
could
couldn
council
count
countries
country
county
couple
course
cover
coverage
covering
cre
crea
creacio
cream
crear
creare
create
created
creating
creation
creative
creazione
creazioni
cristo
critical
croatia
croatian
cron
cross
crowd
crowdsourcing
crumbs
cs
csic
cstmoore
cu
cua
cualquier
cuando
cui
culleredo
culos
cultura
cultural
culture
cultures
cumple
cumplean
cunctator
cunningham
cup
cupcake
cupcakes
cupe
curious
current
currently
curset
custom
customers
cut
cutting
cz
czech
d
da
daf
dai
daily
dailypositive
dalla
dallas
dalle
damirux
damokos
dan
dance
danh
daniel
daniela
danke
danrosenthal
dans
dar
darmowe
darxus
das
data
database
databases
date
datta
datum
dave
david
day
days
dc
ddeutsche
de
deal
deanimation
death
debat
debate
debatten
debe
debivort
dec
decade
deccan
december
decennio
decided
decimo
dedicated
dedication
deepak
defending
defined
definir
definitely
defying
degli
degree
dei
del
delete
deleted
deletion
delhi
delivering
dell
della
delle
dels
dem
democratico
demokratisierte
demonstration
den
denmark
denver
departamento
department
depends
depth
depuis
der
dernier
derrie
des
descargar
describe
described
descric
descripcio
description
descrizione
desde
design
designed
designs
desk
despois
despue
det
detail
detailed
details
detalles
determinar
deutsche
deutschlandfunk
deutschlandradio
deutschsprachige
devaraj
develop
developed
developer
developing
development
device
devoir
dez
df
dfw
dhaka
di
dia
diana
dianeew
diarias
diathe
dicembre
dico
did
didn
die
dieci
diego
diens
diese
dieser
dievc
diez
difference
different
difficult
difusio
digital
digitized
dimce
dimensioni
dinesh
dinge
dinner
dins
dippenaar
dir
dire
direct
direction
directions
directmedia
director
directora
discovered
discuss
discussed
discussing
discussion
discussioni
discussions
disen
disk
displace
display
disponibili
diste
distinguished
distintivi
distribute
distributed
distribution
district
ditentuin
ditto
diverse
diversify
diversity
diversos
divu
dix
dixit
diz
dj
djec
dl
dla
do
dobru
doc
docente
doctorand
doctormo
document
documental
documentaries
documentary
documenting
documents
dodoma
does
doesn
doing
domain
domande
dombivli
dominance
dominic
dominio
don
donald
donate
donated
donation
donations
donazioni
donde
done
donors
dont
door
dopo
dortmunds
dot
dotycza
double
douglas
dovreste
down
download
downtown
doła
dr
draft
draw
drawing
dream
dress
drink
drinks
drive
driven
drives
driving
drop
drosenthal
drug
druz
dthomsen
dtv
du
due
dugnadsleksikon
durant
durante
during
dutch
dvd
dvor
dyk
dynamic
dzie
dzien
dziesia
dziesie
e
each
earlier
early
earth
ease
easier
easily
east
easy
eating
echy
econo
economic
economist
economy
econterms
ed
edicio
ediciones
edificio
edit
editar
editathon
edited
editing
edition
editions
editor
editores
editorial
editors
edits
eds
edsu
edu
educ
educacio
education
educational
educativos
een
efforts
eg
egg
egypt
ehley
eid
eight
ein
eine
einestages
eintrag
either
ej
ejecutivo
ek
ekivao
el
electronic
elementi
elements
elenco
elevator
elewa
elgoli
eli
elisardojm
elita
elite
elitre
ella
ellos
els
else
em
emad
email
emijrp
emo
emphasis
emufarmers
emw
en
enciclope
enciclopedia
encontro
encore
encourage
encouraged
encouraging
encuentro
encyclopaedia
encyclope
encyclopedia
encyclopedias
encyclopedic
encyklopedii
end
ende
endeavor
ended
enero
eng
engaging
engineer
engineering
england
english
enje
enjoy
enough
enregistrement
ensen
enter
enteratech
entfesseltes
enthusiasm
enthusiast
enthusiasts
entire
entirely
entrada
entrance
entre
entrepreneurship
entrerons
entrevista
entries
entry
enviaremos
enzyklopa
er
era
erdem
eric
erik
erlend
ero
errors
es
eska
eskobratrske
eslam
eso
espai
espan
espanya
espe
especial
especially
espen
esperanto
essam
essen
essential
essere
est
esta
establish
estado
estaremos
estas
este
estimate
estimated
esto
estonia
estonian
estos
estrada
estudis
esz
et
etc
etkinlig
etkinlik
ety
euro
europe
european
evangelicke
even
evening
event
eventbrite
eventi
evento
eventos
events
eventualne
ever
every
everybody
everyday
everyone
everything
everywhere
evg
evolve
ex
exact
exactly
example
examples
exceeds
exchange
excite
executive
exhibition
existence
existing
exit
exklusionisten
expand
expansio
expect
expected
expecting
expenses
experience
experienced
experiences
expert
experts
explain
explained
explaining
explore
exposicio
exposition
express
expressing
extension
extensions
external
extinc
extra
eyes
f
fa
fac
face
facebook
facebooku
facendo
facilitated
facility
fact
facts
factually
facultad
faculty
failed
fair
faites
faku
familiar
family
fan
fans
faq
far
fares
faridabad
farni
fase
fast
father
fathy
fatto
fautes
favorite
faz
fe
feanorstar
feature
featured
featuring
feb
febbraio
february
fecha
federal
fedflix
fee
feedback
feel
feet
fehl
feiern
feiert
feliz
fellow
feno
fernandes
ferriero
fest
festa
festeja
festival
few
fi
field
fiesta
fifteenth
fifth
figaro
figure
figuring
figyelo
file
files
filled
film
filter
final
finalized
financial
find
finding
finds
finished
finland
finnish
first
five
fix
flacso
flag
flagged
flash
flaws
flickr
float
floor
florida
flow
fly
flying
focus
focused
focussed
fold
folk
folks
follow
followed
following
follows
fonseca
food
fools
for
forbes
force
forenoon
fork
form
formal
formally
format
forme
formed
former
forming
fort
forum
forward
foss
fostering
foto
fotografie
fotoreportaz
found
foundation
founded
founder
founders
founding
four
fourmille
fr
framablog
france
francis
francisco
franck
francois
frankfurt
fransisco
frauen
free
freedom
freely
freeway
freies
freitag
french
friday
frieda
friend
friends
fritt
from
front
frontalunterricht
frosting
fu
full
fun
function
functionality
fund
fundacio
fundador
funded
fundraiser
fundraising
funny
further
future
g
ga
gaan
gadget
gadz
gain
galal
galician
galipedia
galleria
gallerie
galleries
gallery
gamal
game
games
ganesh
ganze
gar
gardner
garg
gate
gather
gathering
gaurav
gautam
gave
gazette
gdansk
gdje
gdl
ge
geburtstag
geburtstagsparty
geda
gedruckten
geek
geht
general
generally
generate
generated
generations
gennaio
geography
george
georgetown
georgia
georgian
german
germany
geru
gespra
gestio
get
gets
getting
geworden
ghana
ghani
ghaziabad
gi
gia
gic
gif
gift
gigaom
giliomee
gina
ginas
giorno
girlfriend
giu
giugno
give
given
giving
gjo
glad
glam
gle
gleaner
gleißendes
gli
global
globales
globally
globe
glorias
glu
gmail
gmm
gmt
gnailuy
go
goal
goals
god
goes
going
golden
goma
gonna
good
goodies
google
gosox
got
gov
government
govori
goyal
gr
grab
gracias
grad
graduate
grafiche
grand
grande
grant
grants
grass
gratis
gratitude
gratui
gratuitamente
gratuiti
gratuits
gray
graz
grazie
great
greater
greatest
greece
greek
green
greeting
greetings
grepstad
grew
grey
grin
groove
gros
ground
group
groups
grow
growing
growth
grozdanoski
gru
grupo
gtalk
gu
guadalajara
guadaquiz
guangzhou
guardian
guc
guess
guest
guests
guez
guidance
guide
guidelines
guitar
gullit
guntur
gupta
gurmukhi
guru
guten
guy
guys
gvirtz
h
ha
haaretz
habboprc
haben
hace
hacer
haciendo
hacker
hackerspace
hacking
had
halbychova
half
hall
halten
hamburger
han
hand
handelsblatt
handle
handling
hands
hang
hanging
hanno
hannoversche
hanoi
hans
hant
happen
happening
happens
happy
harbin
hard
hari
harihar
harvard
haryana
has
hassan
hat
have
having
hawaii
hay
haytham
hazarika
hazem
hdtv
he
head
heads
heard
heart
heartly
heat
hebrew
heise
held
helfen
hello
help
helped
helpful
helping
henares
hendrik
her
herald
here
heretohelp
heritage
herman
herr
herramienta
herung
herzegovina
herzlichen
heure
heures
heute
hey
hi
hidalgo
hie
high
higher
highlighting
highlights
highly
hill
hillwalkers
him
hindi
hindu
hinter
hir
hirado
his
histo
historia
historical
history
hits
hive
hluboke
hmm
ho
hoffnung
hoje
hola
hold
holding
home
hong
honor
hook
hooked
hope
hopefully
hoping
hora
horario
horizont
horizontal
hossam
hossein
host
hosted
hostel
hosting
hotel
hotmail
hour
hours
house
how
however
howwiki
hp
hpn
hr
hriges
hrs
hrt
hs
htm
html
http
httpool
https
hu
hubic
hubs
huffington
huge
hugo
human
humanitats
humanity
humans
hundred
hundreds
hungarian
hungary
hunt
hunters
huntsville
hvg
hvor
hw
hyderabad
hydriz
i
iasi
ibero
ibn
ibrahim
ic
iceland
icelandic
ich
ici
icon
ict
id
ide
idea
idealistic
ideas
idee
identify
ie
if
ifisc
ignatiev
igothitwithabulb
ii
iii
iim
iisc
iit
ikt
il
ili
illa
illinois
illustrating
im
image
images
imagine
imao
img
immagini
impact
imperial
implemented
importance
important
importante
importantly
imprez
impreze
improve
improved
improvement
in
ina
inch
include
included
includes
including
incorporate
increase
incredible
independent
index
india
indian
indicate
individual
indonesia
indonesian
indore
ine
info
infographics
inform
informa
informacio
informacje
informacji
informador
informal
informatico
information
informations
informationweek
informative
informazioni
informed
infos
infrastructure
inge
ingresso
initial
initially
initiative
initiatives
inklusionisten
inn
inne
inner
inneren
innocenti
innovation
innovative
inpress
inside
inspire
inspired
instead
institute
institutions
instituto
insufficient
intelligencer
intend
intended
interaction
interactive
interest
interested
interesting
interests
interface
international
internet
internetlexikon
interview
into
intro
introduce
introduced
introduces
introducing
introduction
introductions
investigadora
invitados
invitation
invite
invited
invitees
invites
inviting
involved
involvement
io
iol
ip
iphone
iptou
iran
irc
ireland
irving
is
ish
islam
islamabad
ismail
isn
iso
isprike
israel
israeli
issue
issues
ist
istanbul
it
italia
italian
italy
itcafe
items
itko
its
itself
iv
iva
ivan
ivanmartinez
ixer
iz
j
ja
jaar
jackson
jaco
jacobolus
jacques
jahre
jahren
jain
jaipur
jakarta
jakoski
jakub
jalexander
jalmahal
jam
jamersofur
james
jammu
jamnagar
jamwal
jan
jana
janeiro
januar
januari
january
janvier
japan
japanese
jarhum
jarle
javad
jay
jcm
je
jedermanns
jednostavno
jeg
jelly
jer
jerry
jesus
jetzt
jez
jimbo
jimmy
jlettvin
jo
joan
joardar
joe
johan
john
join
joined
joining
joint
jondeplume
jordan
jorge
jornal
jos
jose
joseph
joshi
joubert
journal
journalist
journalists
journalme
journey
jours
joyful
jp
jpg
jr
jtlikk
jtpl
jubila
july
june
just
juventud
jyothis
k
ka
kad
kafic
kaj
kajgana
kako
kala
kalosagathia
kamel
kanal
kannada
kannan
kannur
karan
kareem
karel
karim
karimnagar
karnataka
karthik
kashmir
kashyap
kat
kater
kathmandu
katie
ke
kec
kedar
keep
kenya
kerala
kevin
key
keynote
kgnu
kha
khai
khaled
khalid
khan
kharagpur
kharkiv
khi
ki
kie
kim
kind
king
kingdom
kiran
kirchhain
kiril
kirilica
kit
kite
kites
kl
klub
knew
know
knowing
knowledge
known
knows
knowwiki
ko
kochi
koji
kolkata
kollam
kon
kong
korea
korean
korrigieren
korunni
korzo
korzu
kota
kottayam
kova
kr
kras
krefeld
krishna
kristina
kro
krscal
ku
kul
kulissen
kulkarni
kultur
kumar
kurioses
kurir
kurt
kurukshetra
kurze
kvernelandrommet
kwai
ky
kyle
kyoto
kyrgyz
kyrgyzstan
l
la
label
labels
laboratory
labs
lacking
lahore
lake
lanacio
landmark
lane
language
languageicon
languages
lanka
laptop
laptops
large
largest
larsen
las
last
late
later
launch
launches
lavori
lavoro
law
lawrence
lawson
lawyer
layer
layercarving
lb
le
leaders
leading
leaf
leaflet
learn
learning
least
leave
lebanon
leben
lecture
lectures
led
ledger
lee
left
legal
leggere
leiper
length
leos
les
less
lessons
let
letras
lets
letter
letu
level
levels
levis
lexikon
lexikons
lexington
lgalo
li
lia
liang
libe
liber
libera
liberamente
liberi
libraries
library
libre
licence
licencia
licenciada
license
licensed
licenza
licht
lidova
lie
lien
lieu
life
lifestyle
light
lightning
like
liked
likely
limit
limited
lindau
lindsay
line
linguaggi
link
linkedin
links
linux
linz
lisboa
list
lista
listado
liste
listed
listing
lists
lit
literature
litteraturhuset
little
live
livestream
living
livre
ljudi
ll
lliure
llobregat
lloc
llull
ln
lner
lo
lobby
local
locali
localized
located
location
locations
lochan
loft
log
logistics
logo
logowear
lokesh
london
long
longer
look
looking
looks
los
lost
lot
lots
louis
lourens
love
loved
lovely
lovers
loves
low
ltd
ltima
ltiples
lu
lua
luc
lucknow
lugar
luglio
luis
lunch
lygon
lyonora
m
ma
macau
macedonia
macedonian
macht
made
madhya
madrid
madurai
mag
magazine
maggio
magi
magnus
maharashtra
mahdi
mahmood
mahmoud
mai
mail
mailing
main
mainly
maintain
maintained
maintenance
maintenant
mainz
major
makar
make
makedonija
makes
making
makpcworld
malay
malayalam
malaysia
malik
mall
man
managed
management
manager
mando
manikandan
manila
manish
mankind
manske
mantellini
mantente
manuel
many
map
maps
mar
marathi
marc
march
marchio
mari
maria
mariachi
mariano
marinna
mark
marked
marketing
marks
martha
marti
martin
martincova
marzo
mas
maschinenlesbaren
mashable
mashhad
massachusetts
masse
masses
massimo
massive
massively
master
masti
masz
material
materiale
materials
math
mathew
mati
matter
matunga
mauritius
mausklick
maximum
maxisciences
may
mayank
maybe
mayo
mb
mba
mc
mcburnett
mcdonald
mcdonaldsu
me
meagan
mean
means
meant
med
medhat
media
mediateca
mediation
mediawiki
medical
medios
medium
medrese
medresesi
meena
meerut
meet
meeting
meetings
meetup
meetups
mehdi
mehr
mehrabpur
mehrheit
mehrotra
mekhri
mekquarrie
melikamp
member
members
membre
membres
memmingen
memorable
memory
men
mendoza
meno
menschen
mention
mentioned
mercado
merchandise
merchandising
merci
mercury
merwe
mesra
message
messages
mesta
met
meta
metro
metteremo
mexico
mg
mi
miami
mica
michael
michchemgsi
michelle
michigan
mico
microphones
mid
middle
midlands
mie
mieux
might
miguel
mike
milano
milenio
milestone
milestones
milk
million
millions
millionth
min
mina
mind
mindspillage
minh
mini
ministe
ministry
minnesota
minute
minutes
mir
miracle
miramar
miro
mirror
miscellaneous
mishra
mislim
mismo
miss
missed
missing
mission
mistakes
mit
mitmach
mitteldeutsche
mittelhessen
mix
mixer
mjesto
mk
mkrevolucija
mkyahoo
ml
mlk
mnogoo
mo
mob
mobile
model
modello
moderato
modern
modi
modificato
modo
mohamed
mohammad
mohammed
mohan
mohanty
molt
molts
moment
moments
mon
mona
monday
mondo
money
mons
month
monthly
months
montre
montreal
monument
monuments
moravska
more
morgenpost
morning
morocco
morteza
moscow
most
mostafa
mostly
moto
moustafa
move
moved
movement
movimento
moving
moz
mr
ms
msk
msnbc
mti
mu
mubashir
much
mud
muenchenblogger
muhammad
muller
multilingual
multiplayer
mumbai
mundo
munich
municipal
municipality
municipi
muo
murad
mural
murias
museu
museum
museums
music
muss
must
mx
my
myriam
myself
mysore
mystery
myths
n
na
naboen
nach
nachrichten
nachwuchssorgen
nacional
nacionales
nackten
nadia
nadig
nadu
nagar
nagy
naik
nakon
nam
name
named
names
nanterre
nara
nardi
nas
nath
national
native
natkeeran
natural
nc
nchen
nchens
ncia
ncies
nd
nde
ndert
nderungen
ndnis
ndr
ndung
ne
nea
neal
near
nearby
nearly
nebi
neburg
necesitamos
necesites
necessarily
necessary
need
needed
needs
nek
neki
nel
nella
nement
nen
neni
nepal
nepalese
nepali
nerdqueen
neste
net
netherlands
netpress
netsonfong
network
networking
networks
netz
neue
neuer
neues
neutral
never
nevertheless
new
newbie
newbies
news
newsbook
newspaper
newspapers
newstead
newsweek
next
nez
ng
nga
ngeles
ngo
ngu
nguye
nh
nha
nhu
ni
nia
nias
nica
nice
nicholas
nicht
nick
nie
niej
night
nighthawk
nightingale
nije
nikakve
nikhil
nikoga
nin
nina
nirmal
nis
nisam
nist
nit
nitesh
nithin
nitin
nizamabad
nja
nka
nky
nl
no
noc
node
noida
noise
noma
nombre
nominated
non
none
nonetheless
noon
normal
north
norway
norwegian
nos
nostra
nostro
not
nota
note
notes
nothing
noti
notice
noticed
notices
noticias
notimex
notoc
nous
nouvel
nouvelles
nov
nova
november
novembre
novices
novio
now
npov
npr
nr
nrk
ns
nsbergs
ntos
nu
nuestra
nuevas
num
number
numbers
numerici
numero
nuove
nuovi
nupedia
nvo
nw
ny
nyassin
nyc
nyi
nzz
o
obchodzi
oberta
obligatory
obtener
obter
oc
ocak
occasion
occasional
ocean
ochre
october
od
of
off
offered
office
official
officials
offline
often
og
ogni
ogv
oh
ohne
oj
ok
okay
okno
okolicznos
ol
old
olpe
om
oman
omar
omid
omneya
on
once
onde
one
oneindia
ones
online
only
ontario
onto
onwards
oops
op
open
opened
opening
openmoko
opens
openstreetmap
opera
operation
opere
opinion
opportunities
opportunity
options
or
orange
ord
order
ordinary
ore
oregon
org
organisateurs
organisation
organise
organised
organiser
organisers
organising
organitza
organizadores
organizar
organization
organize
organized
organizer
organizers
organizing
organizowana
organizowanego
organizza
organizzare
organizzatore
organizzatori
original
originally
origo
orlulu
ornithology
os
osama
oslo
osmarwikimediachile
ostfriesland
otero
other
others
otherwise
otros
otrzymac
ottar
ottava
otto
ottobre
ou
ouda
our
out
outreach
outros
outside
outstanding
outward
over
overall
overview
own
owner
owni
p
pa
paal
package
packed
packs
page
pages
pagina
pagine
pai
pakistan
palach
pan
panel
paper
par
para
parallel
parents
parithimathi
park
parking
parola
parrilla
part
parte
partecipa
partecipanti
partecipare
participacio
participant
participantes
participants
participar
participate
participated
participating
participation
particular
particularly
parties
partir
partnership
partnerships
parts
party
pas
pasagu
pass
passauer
past
patio
paudel
paul
pavanaja
pay
paypal
pc
pdf
pe
peer
penas
pending
pendrives
pengguna
pennsylvania
pens
people
per
percentage
perche
performed
perhaps
perils
perio
periodista
permission
pero
persian
person
persona
personal
personally
persone
persones
persons
perth
pesca
peters
petersburg
peut
pew
pg
ph
pha
phase
phe
phenomenon
phi
philippines
philosopher
phoebe
phone
photo
photocopies
photograph
photographed
photographer
photographers
photographs
photography
photos
photothon
photowalk
php
physical
physics
pi
piac
piano
picasso
pick
picture
pictures
piece
pieter
pink
pins
pioneer
pitch
pittsburg
pittsburgh
piu
pizza
pj
pl
place
places
plagen
plan
plane
planet
planeta
planned
planning
plans
platform
plattform
platz
play
plaza
please
plenty
plus
pm
png
po
poco
pod
podcast
pode
poden
podes
podra
poezie
point
points
pojma
poke
poland
polek
poli
policy
polis
polish
political
politico
politics
polka
pomeriggio
pomoc
pomocy
ponent
popular
por
porque
portal
portik
portland
porto
portrait
portugal
portuguese
portugueses
pos
posible
position
positive
possiamo
possibile
possibilidades
possible
possibly
possono
post
posted
poster
posters
potential
potgieter
pour
powder
power
powerpoint
poznan
pp
ppersbusch
pr
practical
practice
practices
pradesh
pradhan
praetorius
prague
praise
prakash
prasad
prashanth
prashanthns
pravash
praveen
praze
pre
precise
precisify
predlaz
preguntas
preko
premiere
premiolino
prensa
prepared
presence
present
presentacio
presentation
presentations
presented
president
press
presse
pretorius
pretty
previously
prima
primera
primo
principale
principles
print
printed
printing
prints
prior
priorities
prishtin
private
prize
prizes
pro
probably
problem
problems
process
prochains
produccio
produce
produced
product
productos
products
produtos
prof
profesor
profesora
professional
professionally
professionals
professor
professors
profile
profit
progetto
program
programa
programme
progress
project
projecte
projectes
projector
projectors
projects
projet
projetos
projets
promise
promote
promoted
promotion
promotional
pronto
properties
property
propios
proposal
proposed
proposta
protection
proud
provide
provided
providing
proyeccio
proyecto
pruebas
przedsie
przez
przykuta
pscheida
pt
pta
pu
pub
pubblicita
pubblico
public
publicidad
publicidade
publicite
publicity
publimetro
published
publishing
puebla
puede
pueden
puedes
pump
pune
punjabi
punto
puo
purpose
put
puta
puzzle
pvt
px
pymouss
pyrlandia
pywikipediabot
q
qc
qq
qu
qua
quality
qualunque
quand
quando
que
quedan
quelle
quello
queremos
queres
queries
questa
questi
question
questions
questo
qui
quick
quieres
quijote
quite
quiz
quote
quotes
r
ra
rabin
radio
radiozet
rafhan
ragesoss
raggiunge
rahman
rahul
rai
raise
raises
raj
rakesh
ram
ramaiah
raman
ramarathnam
ramesh
random
range
ranjan
ranjit
ransom
rao
rasha
rather
ration
rattata
ravi
ravidreams
raw
rawalpindi
rd
re
reach
reached
reaches
reaching
read
reader
readers
reading
ready
reagle
real
realidad
reality
realizara
realize
realized
really
reason
reasons
receive
recently
reception
recerca
recognition
recommend
record
recorded
recording
recordings
records
recursos
red
redaktionen
redcoatwright
redorbit
ref
refer
reference
references
reflect
reflecting
reflects
refreshments
refused
regales
regarding
regards
regiomontanus
region
regional
register
registered
registrants
registration
registrations
regola
regular
rejoindre
rekord
related
release
released
releases
religious
remain
remarks
remember
reminiscences
remotely
ren
rence
rencontre
rencontres
rennaise
rennes
repas
replaces
replicada
reply
report
reports
representation
representing
repubblica
republic
republika
request
requested
requesting
requests
required
requires
rer
research
researcher
researchers
reserved
residence
residing
resoconto
resolution
resource
resources
respect
responding
response
rest
resta
restaurant
resting
result
reto
return
reunio
reuse
reused
reuters
rev
revelan
reverse
review
reviewed
reviewing
revista
revolucija
revolution
reykjavik
reza
ri
ria
riaan
ribadeo
ricardo
ricevere
rich
rick
rie
riflettere
right
rijec
rijeci
rima
rinfresco
ringt
rio
risorse
riutilizzato
riyadh
rizal
rizvi
rkische
rkve
rm
ro
road
robert
roberta
robots
rochelimit
rock
rocznicowe
rodni
rodri
rohit
rohtak
role
rolls
roma
romania
romanian
room
rooms
root
rose
rosen
rossini
roughly
round
routes
roux
rs
rsvp
rtz
ru
ruhr
ruhrgebiet
ruler
run
rundfunk
runet
rusalka
russia
russian
rutherford
rwanda
ryba
s
sa
sachdeva
sadly
saeed
safe
sagar
sage
sageross
sagol
sahay
said
sala
salaam
salah
sale
saleh
salem
salt
salute
sam
same
samedi
samir
samo
sample
san
sanders
sandesh
sandwich
sanger
sankalp
sano
santa
santiago
santosh
sanvicentechicoloapan
sapere
sapo
sara
sarah
saranno
sardenya
sastanak
sastanka
sastra
sat
saturday
saudi
sauerland
saurabh
savants
saw
say
saya
saying
sbor
scale
scavenger
scenes
schaffen
schatten
schedule
scheme
schen
schloßplatz
scholars
school
schools
schreibwettbewerb
schweizer
science
sciences
sconosciuta
sconvolsero
scope
scores
scotsman
scratch
screening
se
sean
search
searching
seats
seattle
seattleites
seccio
second
section
sections
secunderabad
security
sedi
see
seeing
seek
seem
seems
seen
sees
segment
seite
sejersted
selected
self
selim
selva
sem
semana
semantic
semi
seminar
send
sense
sent
sentation
sentitevi
senza
september
ser
sera
serbia
serein
serious
seront
serve
served
servers
service
servizos
servus
ses
session
sessions
set
sets
settembre
setting
setup
seus
several
sf
sg
shah
shahgoli
shall
shamiejerlock
shanghai
shankar
share
sharealike
sharing
sharma
sharp
shaukat
shaun
she
shearonink
shift
shiju
shirky
shirt
shirts
shoeib
shoot
shop
short
shot
shots
should
show
showcase
showed
showing
shows
shradha
shrestha
si
sia
sic
sich
siddharth
side
sido
sie
siegeszug
siehe
sights
sign
signal
signed
significance
signing
signpost
signs
signup
sijec
silicon
silly
silvina
simeonovski
similar
simon
simple
simply
simultaneous
sin
sina
since
sind
sindhuja
singapore
singh
single
sinh
sinhala
sister
sit
site
sitel
sitenotice
sites
sitez
sitio
sito
situation
six
size
sizes
sj
skee
skeptics
skills
skillshare
skip
skopje
skype
slate
slavi
slide
slideshow
slideshows
sligo
slobodan
small
smart
smetana
smit
smo
sms
snack
snacks
snaps
sni
snippets
so
soap
sobre
social
sociales
societa
society
sodabottle
software
soit
soletic
soli
sollten
solo
solutions
some
someone
something
sometimes
somewhere
sommer
son
song
songs
sonja
sonntag
sonntagszeitung
sono
soon
sophie
sorry
sort
sotto
souffle
souhaitez
sound
sounds
source
sous
south
southern
southwell
space
spaces
spain
spanish
speakers
speaking
special
species
specific
speech
speed
spell
spend
spendeten
sperren
spiegel
spirit
spoken
sponsored
sponsoring
sponsors
spoo
sports
spot
spots
społecznos
spread
spreading
spring
square
sri
srikanth
srinivasa
srishti
st
stadtanzeiger
staff
stage
stairs
stall
stamitz
stammtisch
stampa
stand
standard
star
starling
start
started
starting
starts
stata
state
states
station
statistical
statistics
stato
stats
statt
status
stay
stefan
steinbruch
step
stern
sterreicher
steve
steven
sticker
stickers
still
stockholm
stop
storage
stored
storia
stories
story
str
stra
stream
street
streets
strictly
strong
strongly
stronie
stuck
student
students
studies
study
stuff
stuttgart
stuttgarter
stycznia
style
su
subject
submissions
submit
submitted
subramani
subramanian
subscribe
succe
success
successful
successfully
such
suche
suchen
suchmaschine
sudesh
sudhanwa
sue
sufficient
sugar
suggest
suggested
suggestion
suggestions
suite
sul
sulle
sum
suma
suman
sumit
summary
sundar
sunday
sung
superlative
suplemento
supply
support
supported
supporters
supporting
suppose
supposed
sur
surat
sure
suris
surprise
surprised
surprises
survey
survive
surya
sus
sve
svg
svnit
swag
swanepoel
swart
sweden
swedish
swiss
switched
switzerland
swoje
swr
sydney
syed
symbiosis
symbolic
synonym
system
systems
sz
t
ta
table
tabriz
tag
tagalog
tagesschau
tagesspiegel
tags
tails
taipei
taires
taiwan
take
taken
takes
taking
tal
tali
talk
talking
talkpage
talks
taller
taltek
tama
tambie
tamer
tamil
tan
tanto
tanzania
tanıs
tarde
tarek
targets
task
tasks
taught
taz
tb
tba
tbd
tche
te
tea
teach
teacher
teachers
teaching
team
teams
tech
technical
technologie
technology
techologika
techwatch
tecnolo
tecnologi
tedra
tedxpune
tehelka
tehran
teil
tek
tel
telangana
telegramme
telegraph
telepolis
tell
telling
telugu
temas
temat
tempatnya
template
templates
tempo
temps
ten
tendremos
tenemos
tener
tens
tentative
tenth
tenwikipedia
tenwikipediabogotacolombia
tequila
ter
terasi
tercera
teremos
terms
teso
test
testing
teta
teu
texas
text
th
tha
thai
thailand
tham
than
thank
thanking
thanks
that
the
theatre
their
them
theme
themed
themes
themselves
then
theni
theo
thepinkcow
there
therefore
these
they
thing
things
think
thinkers
thinking
third
this
thomas
those
though
thought
thoughts
thousands
three
thrives
through
throughout
thu
thumb
thumbtime
thun
thursday
thus
ti
tianjin
tica
ticket
tickets
tico
tie
tiene
tiffany
til
till
tim
time
timeline
times
timings
tinucherian
tips
tite
title
titular
tlemcen
tmc
to
toasts
toc
tocka
todas
today
todo
todos
tofutwitch
together
toghether
tol
told
tolerant
tom
tomanova
tomorrow
too
took
tool
tools
top
topic
topics
topthema
torgeir
toronto
torres
tot
total
totally
touch
tour
tournament
tours
tout
toute
towards
town
towns
toxicology
tra
trabajos
trademark
trading
tradition
traditional
tradotta
traguardi
train
training
transfer
translate
translated
translation
traum
tre
tres
trichy
trick
tripathi
triplex
triumphgeheul
trivia
tro
trong
trove
true
truly
trust
trusted
truth
try
trying
ttingen
ttir
tu
tudo
tulo
turkey
turkish
turn
turned
turning
turns
tus
tutti
tutto
tv
twitter
two
twoim
twojego
tx
types
u
ua
uba
ubuntu
udhayaprakash
uib
ujjain
uk
ukraine
ukrainian
ulf
ulteriori
um
uma
umarmen
umass
umsjahr
umsonst
un
una
unconference
und
under
understand
une
unerwartete
unfortunately
unha
unify
union
unique
unirte
united
universal
universidad
universitat
universite
universities
university
unknown
unless
uno
unplanned
unported
uns
unter
until
unusual
uoc
up
upc
upcoming
update
updated
updates
updating
upgrades
upload
uploaded
uploading
upon
ups
ur
urdu
url
urlije
urodziny
uruguay
us
usa
usate
use
used
useful
user
users
uses
using
usman
uso
ustream
usually
usuarios
utc
utenti
utrinski
uttar
uys
uz
uzyskac
v
va
valleyofthepoets
valparai
valuable
value
vamsi
van
vanilla
variant
variety
various
vasta
ve
vec
veeven
vegas
venezuela
venkat
venue
vera
verma
veronika
verranno
verschrieben
version
versione
versions
versus
vert
very
vesnik
vesti
veterano
vez
vi
via
viaggio
vias
vicenza
victor
vida
video
videos
vidio
vie
viele
vielen
viene
vieren
vietdaoquan
vietnam
vietnamese
view
views
vigneron
vijay
vikas
vikipe
vikipedi
vikipedio
vikipediyanın
village
villages
ville
vimeo
vin
vinay
vines
vinohradech
vinohrady
viqui
viquipe
viquiprojecte
viquiprojectes
virtual
vis
vision
visione
visit
visited
visiting
visitor
visits
vista
vital
vitriol
vivek
vj
vjti
vky
vo
voci
voi
voir
voluntarios
voluntary
volunteer
volunteering
volunteers
vom
von
vor
vorsichtige
vorstellbar
vos
vostre
vostri
vostro
votacio
vote
votre
vous
vreme
vu
vun
vzpomi
w
wa
wadhwa
wahab
wahrheit
wait
waiting
wales
walk
wall
walling
want
wanted
wants
waqas
war
warangal
ward
wardkeynote
wars
warsaw
was
washington
wasn
watch
watching
watchlist
water
waterhouse
way
ways
wbur
wc
wdr
we
wealth
weather
web
webby
webpage
website
websites
wednesday
week
weekday
weekend
weeks
wehwalt
weienjoy
welcome
welcomed
welcoming
well
welle
welt
weltlexikon
weltweiten
wenn
went
were
werner
wessels
west
western
westhuizen
what
whatever
when
where
wherever
whether
whhalbert
which
while
whisk
white
who
whoisjohngalt
whole
why
wi
wide
widely
wider
wie
wien
wifi
wikepedia
wiki
wikibirthday
wikibooks
wikibusinessprnews
wikiconf
wikiconference
wikiday
wikidf
wikigoans
wikilucky
wikimania
wikimedia
wikimedians
wikimedistas
wikimeet
wikimeetup
wikinews
wikipe
wikipedia
wikipedian
wikipedianer
wikipediani
wikipedians
wikipedias
wikipedie
wikipedii
wikipedije
wikipedistas
wikipedysto
wikipizza
wikipleadia
wikiproject
wikiprojects
wikiquote
wikireader
wikis
wikiversity
wikix
wikixdc
wikpe
wiktionary
will
william
willing
windows
wineye
winfuture
winner
wins
wir
wird
wire
wired
wirtschaftsblatt
wish
wishers
wishes
wissen
wissens
with
within
without
wium
wmf
wmhk
wmi
wn
wolfgang
women
won
wonder
wonderful
wondering
word
words
work
worked
workers
working
works
workshop
workshops
world
worldwide
worlwide
worries
worry
worse
worth
would
wouldn
wp
wpmex
wrap
write
writer
writing
writings
written
wrong
wrote
wrought
wuselig
www
wyk
wzie
x
xi
xico
xp
xuventude
xxi
y
ya
yadav
yahoo
yang
yas
yash
yasser
yay
yazdani
year
yearly
years
yearsof
yelo
yemen
yemeni
yes
yeshwenth
yet
ynet
yochai
york
you
young
youngest
your
yourface
yours
yourself
youth
youtube
yrs
yuyu
z
za
zafartahirov
zane
zdf
zealand
zehn
zehnja
zehnten
zeit
zeitung
zenit
zh
zincyhi
zirkel
zoroastrian
zu
zum
zurnal
zwia
zyl
{
|
}
~
¡
¥
§
«
®
°
·
º
»
¿
×
đa
đe
đie
đo
ı
̀
́
̂
̃
̄
̆
̇
̈
̉
̊
̋
̌
̛
̣
̦
̧
̨
α
ας
β
βικιπαι
για
δει
δεια
δειας
ε
εκδη
εσπερινου
η
ημερομηνι
θα
ι
ιανουαρι
και
λωση
μ
μαθητε
μας
με
μια
ν
να
ντηση
ο
οργανωτε
ου
παρουσι
περιγραφη
ρος
ς
σα
σε
στες
στη
στην
στις
στο
συ
συνα
σχολει
τε
τη
την
της
το
του
χρη
χω
ω
а
алфа
анализа
ање
ањето
без
би
биде
буде
будет
в
веб
вебінар
велс
вести
ви
видео
вики
викивстреча
викимедија
википедии
википедия
википедија
во
времени
высоких
вікіпедіі
глобални
го
года
година
години
грозданоски
да
дата
десет
десетгодишнина
деценија
димче
диџеи
для
до
домак
допомогти
дух
е
емисија
емисијата
емитување
ен
енциклопедија
живо
журка
з
за
забава
завршни
заедница
заедницата
запознавање
зборови
зв
здесь
знаење
и
ин
итн
к
каде
как
како
канал
кафе
кај
кања
кирил
комонс
конструктора
контактната
кратка
криејтив
култура
културата
ла
локални
м
македонија
македонска
македонската
македонски
менува
метаморфозис
ми
мк
може
московскому
на
наи
наков
нам
нас
настан
настанот
настап
начинот
не
нејзините
ни
но
новица
о
обрак
овој
од
одржи
ожидается
около
описание
организаторы
организација
оски
основите
п
перспективи
пет
по
повек
повод
подію
поканети
пользователи
помег
портик
посветена
посетителите
постоење
постоењето
почеток
прашања
првата
презентации
презентациите
презентација
пресекот
претседателот
претставници
претстоечкиот
проект
промовирање
прослава
прославата
прославува
проходить
радио
роденден
роденденска
русскои
русском
с
саи
самых
свет
своето
својот
се
сесија
симеоновски
сите
скопска
скопската
скопје
слави
слободан
слободен
слободната
слободниот
слободно
см
со
собере
софтвер
список
средба
средбата
срек
стара
старата
стојановски
січня
т
та
таа
также
також
тв
ти
тиот
тнту
то
тут
у
улогата
учествуваат
факти
факултет
филип
фондација
фондацијата
функционира
х
хакерскиот
хакирањето
харків
цели
целиот
ч
чаршија
час
часот
человек
членови
что
ширењето
школьников
што
щоб
это
юбилеи
я
января
і
ја
јазик
јак
јануари
јубилејот
џими
՝
է
ִ
ֵ
ָ
ֹ
ּ
־
א
אוקיינוס
אנשים
אסף
אשה
את
ב
באתר
בעולם
בשבוע
ג
גלובס
ד
דואר
דובילנסקי
דרור
ה
הודו
הידע
העשור
הראל
הראשון
וולס
ויקיפדיה
ומחשבים
חוגגת
י
ימי
יש
ישראל
ל
לוויקיפדיה
לויקיפדיה
מיליון
נ
עידו
על
ערוץ
ערכים
עשור
פויר
פרויקט
של
שלח
שלי
שנים
ת
،
؛
؟
ا
ابراهیم
احتمالی
از
است
استراحت
استفاده
اش
اصفهان
اعضا
الا
التاريخ
الحدث
الله
المكان
الوصف
اما
امید
امیر
انجام
انجمن
اندک
اول
ای
ایران
این
ب
با
بازه
باشه
باشگاه
ببینید
برای
برخی
برنامه
بروشور
برگزاری
بزرگ
بسیار
بسیاری
بنر
بنرها
بنویسید
به
بود
بودند
ة
تا
تاریخ
تاسیس
تبریز
تفاصيل
تمایل
تهران
توان
توجه
توسط
تولد
ثبت
جانب
جشن
جمعه
جهان
جیمی
حاضر
حضور
حواشی
خود
داده
دانشنامه
دانشگاه
داوطلبان
در
درنظر
درنظرگرفته
ده
دهمین
دهندگان
دو
دوست
دوستان
دوستداران
دی
دیگری
ر
را
رسیده
رو
روز
روی
زاد
زبان
زمان
زیرنویس
سازمان
ساعت
ساعی
سال
سالگرد
سالگی
سایت
سایر
سه
سید
شاه
شخصی
شد
شدن
شدند
شده
شرکت
شهاب
شهرک
شود
صبح
صفحه
صورت
طبق
طفلا
طول
عبد
عدم
عرف
علی
علیرغم
عمده
عن
عکس
غاز
فارسی
فرهنگسرای
فعال
في
قبل
قدم
ك
ل
لاچیق
لطفا
مجوزی
محل
محمد
مدتی
مدينة
مدیران
مراسم
مسي
مشهد
مطرح
معرفی
مقامات
مل
ملحق
من
منتقل
مهدی
مورد
مکان
می
میهمانان
ن
نام
نان
نجوم
نجومی
نزدیک
نسبت
نصب
نظر
نفر
نقاط
نها
نوشته
نگاه
نیز
ها
های
هایی
هزینه
هم
همان
همایش
همشهری
همه
همچون
همکاری
و
وجود
ول
ولز
ولی
ويكيبيديا
ویکی
ً
ُ
ّ
ٓ
ٔ
ٕ
پارک
پاسخ
پایان
پخش
پدیا
پذیراي
پس
پسر
پله
پور
پونک
پیام
پیش
پیشنهاد
پیگیری
کاربر
کاربران
کرد
کردند
کرده
کنجکاوی
کنندگان
که
کوچک
گردهمایی
گرفت
گرفته
گفتگو
گله
گلی
ی
یادگاری
یک
یکی
۰۰
۱۶
۲۴
۳۰
۴
ँ
ं
ए
क
ख
ग
गण
च
छ
ज
ट
ठ
ड
ण
त
थ
द
न
प
ब
भ
म
य
र
ल
व
श
स
ह
ा
ि
ी
ु
ू
ॅ
े
ै
ो
ौ
्
ক
গ
ছ
ট
ড
ত
দ
ন
প
ব
য
র
শ
হ
়
া
ি
ী
ু
ে
্
ৱ
ੰ
ଁ
ଆ
ଇ
କ
ଚ
ଡ
ତ
ଦ
ପ
ବ
ଭ
ମ
ଯ
ର
ଲ
ଶ
ସ
ହ
଼
ା
ି
ୁ
େ
୍
ୟ
ୱ
அ
க
கள
ங
ச
ட
த
தம
ந
ன
ப
பத
ம
ய
ர
ற
ல
ள
ழ
வ
ஷ
ா
ி
ீ
ு
ூ
ெ
ே
ை
்
ం
అ
అన
అవగ
ఈ
ఉ
ఎ
ఎల
ఏ
ఐ
క
కన
ఖ
గ
గరగ
చ
చడ
జ
జవ
ట
టట
టర
డ
ణ
త
థ
ద
దగ
దట
దర
దల
దశ
ధ
న
నల
ప
పద
పర
బ
భ
మ
మన
మర
య
యక
యమ
యల
ర
రజలక
రణ
రత
రదర
రమ
రశ
రస
రహ
ల
ళ
వ
వడ
వర
వరక
వహ
శ
శన
ష
షర
స
సదస
సర
హ
హన
ా
ి
ీ
ు
ూ
ృ
ె
ే
ొ
ో
ౌ
్
ౖ
ಂ
ಬ
ಮ
ರ
ಸ
ು
ೂ
ೆ
ೖ
ം
ഈ
ക
കണ
ച
ഞ
ട
ഡ
ണ
ത
ന
പ
പത
യ
ര
ല
ള
വ
ഷ
ാ
ി
ീ
ു
ൂ
െ
േ
്
ർ
ർഷ
ൽ
ඟ
න
බ
ව
ෂ
්
ා
ි
ු
ෙ
ก
ค
จ
ต
ท
น
นท
บ
ป
พ
ม
ย
ยงใหม
ร
ว
ศ
ั
า
ิ
ี
ื
ุ
ู
เช
เด
็
่
้
์
ამ
ამისა
გარდა
და
ეროვნული
ვიკიპედია
ვიკიპედიის
თავისუფალი
თუ
თქვენ
იანვარს
ინფორმაცია
იქნება
მ
მიიღეთ
მის
მისაღებად
რაც
რომელშიც
საზეიმო
სამეცნიერო
საჭირო
სიაში
სხვა
უფასო
ღონისძიება
შემდეგ
შემოგვიერთდეთ
შესახებ
შორის
ჩვენ
წლის
위키백과
주년
‌
‍
‎
‏
–
—
‘
’
“
”
„
•
…
₭
₳
№
ℳ
→
↔
↷
⇒
−
∞
≤
⊙
③
④
⑦
♣
⺀
⺄
⺆
⺈
⺊
⺌
⺕
⺝
⺸
⺼
⿰
⿱
⿲
⿳
⿴
⿵
⿶
⿷
⿸
⿹
⿺
⿻
、
。
「
」
〜
〢
あ
い
う
お
か
き
く
け
こ
さ
し
す
せ
そ
た
ち
っ
つ
て
と
な
に
の
は
ひ
へ
ま
み
め
も
や
ょ
よ
ら
り
る
れ
を
ん
゙
゚
ア
ィ
イ
ウ
ェ
エ
カ
キ
ク
コ
サ
シ
ス
セ
タ
ッ
ツ
テ
ト
ナ
ネ
ハ
ヒ
フ
ヘ
マ
ミ
メ
ユ
ョ
ラ
リ
ル
ン
・
ー
㇁
㇂
㇄
㇇
㇈
㇉
㇓
㐁
㐄
㐅
㐌
㐫
㐬
㐭
㐮
㐱
㑒
㒵
㒸
㒼
㓁
㓞
㔾
㕛
㕣
㖾
㘝
㚅
㚇
㚔
㚘
㝉
㝡
㝴
㝵
㞋
㞢
㞷
㠩
㠭
㠯
㡀
㡭
㡿
㢲
㢴
㣇
㣺
㥯
㪅
㫄
㫐
㫒
㫺
㬅
㬎
㬥
㬰
㲋
㳄
㷠
㸒
㸚
㸦
㼌
㼲
㽞
㿟
䀠
䂞
䍃
䏍
䒑
䖍
䖒
䖝
䖵
䙴
䚻
䜌
䝿
䡛
䧹
䪞
一
丁
丂
七
丄
丅
丆
万
丈
三
上
下
丌
不
与
丏
丐
丑
专
且
丕
世
丘
丙
业
东
丞
丢
丣
两
严
並
丨
丩
个
丫
丬
中
丮
丰
丱
串
丵
丶
丷
丸
丹
为
主
丽
举
丿
乀
乂
乃
久
乆
乇
么
义
之
乌
乍
乎
乏
乐
乑
乔
乖
乗
乘
乙
乚
乛
乜
九
乞
也
习
乡
书
乳
乾
亀
亅
了
亇
予
争
事
二
亍
于
亏
亐
云
互
亓
五
井
亘
亚
些
亜
亞
亟
亠
亡
亢
交
亥
亦
产
亨
亩
享
京
亭
亮
亯
亰
亲
亳
亶
亷
人
亻
亼
亾
什
仁
仅
今
介
仌
从
仐
仑
仒
仓
仕
他
付
仝
代
令
以
们
仲
件
任
企
伊
伏
伐
休
优
会
伯
但
位
住
体
何
佘
余
作
你
佥
使
來
侈
侌
侖
供
侯
侵
便
係
保
俞
信
修
倉
個
倍
們
候
倠
做
備
催
傳
僉
像
僕
儿
兀
允
兂
元
兄
充
兆
兇
先
光
兊
克
兌
免
兑
兒
兓
兔
党
兜
兟
入
內
全
兩
兪
八
公
六
兮
兰
共
关
兴
兵
其
具
典
兹
兼
冀
冂
冃
冄
内
円
冈
冉
冊
冋
册
再
冎
冏
冐
冒
冓
冖
冗
冘
写
军
农
冝
冡
冥
冫
冬
冰
冲
决
冷
准
几
凡
凢
凵
凶
凷
凸
凹
出
函
凾
刀
刁
刂
刃
刄
刅
分
切
刍
刑
划
刕
刖
列
刘
则
刚
创
初
別
利
别
到
制
刷
刺
則
削
剌
前
剡
創
剽
劉
力
办
功
加
务
劦
动
助
努
劫
励
劳
劵
勃
勇
勉
勒
動
務
勞
勤
勹
勺
勻
勾
勿
匀
匂
包
匆
匈
匊
匋
匍
匕
化
北
匚
匝
匡
匪
匱
匸
匹
区
医
匽
匿
區
十
卂
千
卄
卅
卆
升
午
卉
半
卌
华
协
卑
卒
卓
協
单
卖
南
博
卜
卝
卞
占
卡
卢
卣
卤
卦
卧
卩
卪
卬
卯
印
危
即
却
卵
卷
卸
卻
厂
厃
厄
历
厈
厉
厌
厓
厘
厚
原
厤
厥
厨
厭
厲
厶
厷
厸
去
厼
厽
叀
参
參
叅
又
叉
及
友
双
反
叐
发
叒
叔
叕
取
受
变
叚
叜
叟
口
古
句
另
叩
只
叫
召
可
台
叱
史
右
叵
号
司
叹
吂
各
吅
合
吉
吊
吋
同
名
后
吏
向
吕
君
吝
吞
否
吧
含
听
启
吳
吴
吸
吹
吾
呂
呆
呈
告
员
呙
呢
周
味
呵
命
咅
和
咎
咖
咠
咢
咨
咸
咼
哀
品
哈
哉
員
哥
哲
唐
唔
商
啇
啊
問
啚
啡
啤
啬
啻
善
喜
喝
喬
單
喺
喿
嗇
嘅
嘉
噩
嚟
嚴
囊
囗
囘
囙
囚
四
回
囟
因
団
囧
囬
困
囱
図
围
囷
固
国
图
圂
圅
國
圍
園
圓
圖
土
圡
圣
圥
在
圭
地
圶
场
圼
址
坎
坐
坒
坚
坡
坴
垂
垔
垚
埀
埋
城
域
埶
執
培
基
堂
堅
堆
堇
堯
報
場
塞
墙
墨
壘
士
壬
壯
声
壳
壴
壹
壺
壽
夂
处
夅
夆
备
変
夊
夋
夌
复
夏
夒
夕
外
夗
夘
多
夜
够
夢
大
夨
天
太
夫
夬
夭
央
失
夲
头
夷
夸
夹
夻
夾
奂
奄
奇
奈
奉
奎
奏
奐
契
奓
奔
奚
奞
奠
奢
奥
奭
女
奴
奻
好
如
妄
妙
妟
妥
妻
妾
始
姑
委
姜
威
娄
娱
婁
婴
媒
嬰
嬴
子
孑
孔
孕
孖
字
存
孚
孛
孝
孟
季
孤
学
孫
孱
學
宀
宁
宂
它
宅
宇
守
安
宋
完
宏
宓
宗
官
定
宛
宜
宝
实
客
宣
室
宮
宰
害
宴
宵
家
容
宾
宿
寄
寅
密
富
寒
寝
察
寧
審
寫
寬
寮
寶
寸
对
寺
寻
寽
対
寿
封
尃
射
将
將
專
尉
尊
尋
尌
對
小
少
尒
尓
尔
尖
尗
尚
尞
尢
尣
尤
尧
尨
尭
就
尸
尹
尺
尻
尼
尽
尾
尿
局
居
屈
屋
屎
屏
屑
展
屖
屚
属
屠
屡
屬
屮
屯
屰
山
屵
屾
屿
岁
岂
岑
岡
岩
岳
岸
峡
峯
島
崇
崑
崔
崖
崙
崩
嵬
嶲
巂
巛
川
州
巟
巠
巢
巤
工
左
巧
巨
巩
巫
差
己
已
巳
巴
巷
巸
巽
巾
巿
帀
市
布
希
帕
帚
帛
帝
带
師
席
帮
帶
常
干
平
年
幵
并
幷
幸
幺
幻
幼
幽
幾
广
広
庄
庆
床
序
库
应
底
店
庚
府
庞
度
庫
庭
庶
康
庸
廉
廌
廛
廣
廩
廴
延
廷
建
廾
廿
开
弁
弃
弄
弇
弋
式
弓
弔
引
弗
弘
弜
弟
弥
弦
弱
張
強
强
彊
彌
彎
彐
彑
归
当
彔
录
彖
彗
彡
形
彥
彦
彧
彭
影
彳
役
彼
往
待
很
律
後
徒
従
得
徙
從
御
復
微
徵
德
心
忄
必
忌
忍
志
忙
忝
忠
忩
快
念
忽
忿
怎
思
怠
急
性
怱
恆
恒
恩
恭
息
悉
患
悤
您
悲
悶
情
惊
惠
惡
惢
想
愁
愈
意
愛
感
慈
慧
慮
慶
憂
憲
憾
懂
應
戀
戈
戉
戊
戋
戌
戍
戎
戏
成
我
戒
戔
或
戚
戠
戢
截
戲
戶
户
戹
戼
戾
房
所
扁
扇
手
扌
才
打
払
托
扛
执
扩
找
承
技
抓
折
报
抱
抽
拉
拓
拜
拥
括
拶
拿
持
指
按
挥
挨
挺
换
据
掌
探
接
推
掺
描
提
搜
摊
摩
播
擎
攤
支
攴
攵
收
攸
改
放
政
敄
故
敏
敕
敖
敗
教
敝
敞
敢
散
敦
敫
敬
数
整
敷
數
斂
文
斉
斊
斗
料
斤
斥
斩
斬
斯
新
方
於
施
斿
旁
旅
旋
族
无
旡
既
旣
日
旦
旧
旨
早
旬
旱
旲
时
旾
昆
昇
昌
昍
明
昏
易
昔
昗
昜
星
春
昬
是
昱
昴
昷
時
晃
晋
晏
晚
普
景
晶
智
暑
暖
暴
曆
曇
曩
曰
曲
曳
更
曷
書
曹
曼
曾
替
最
朁
會
月
有
朋
服
朔
朕
朗
望
朝
期
木
朩
未
末
本
札
朮
术
朱
朵
朶
机
朿
杀
杂
李
杏
杜
束
条
来
東
杲
杳
松
构
析
林
枚
果
枝
枲
枼
某
柔
查
柬
柰
柴
栗
株
样
格
桀
案
桑
档
桼
梁
梓
條
梟
梦
梨
梳
棒
棘
棠
棥
森
楚
業
楽
概
榮
樂
樊
模
橙
檔
欠
次
欢
欣
欮
欲
欶
欽
款
歆
歇
歉
歐
歛
歡
止
正
此
步
武
歨
歪
歮
歯
歰
歲
歴
歷
歸
歹
歺
死
殳
段
殷
殸
殹
殺
殻
殿
毋
毌
母
每
毒
比
毕
毚
毛
毳
氏
氐
民
气
氛
氣
水
氵
氶
氷
永
氺
氾
求
汝
汞
江
池
汾
沃
沓
沙
沝
沟
没
河
治
泉
法
波
泣
泥
注
泰
洛
津
洪
活
派
流
浦
浪
浮
海
消
涉
涌
淡
淮
清
渋
渚
渠
港
游
湯
源
滨
滿
演
漸
潮
澳
灣
火
灬
灭
灰
灵
灷
炅
炎
炏
炗
炙
炭
点
為
烈
烏
烝
烤
烧
热
焉
無
焦
焱
然
煞
照
熊
熏
熱
燁
燈
燒
燕
營
燮
爪
爫
爭
爯
爰
爱
爲
爵
父
爻
爽
爾
爿
片
版
牙
牚
牛
牜
牟
牢
牧
牪
特
牽
犀
犬
犭
犮
狂
狄
狊
独
狺
猋
猒
猪
献
獲
獻
玄
率
玉
王
玛
玟
玨
玩
现
珀
珊
珍
珎
班
現
球
理
琴
瑟
瑩
瓜
瓣
瓦
甘
甚
生
産
用
甫
甬
田
由
甲
申
电
甶
男
甸
甹
町
画
甾
畀
界
畏
畐
畔
留
畜
畟
畢
畧
畨
番
畫
異
畱
當
畺
畾
疊
疋
疌
疑
疒
疾
瘾
癶
癸
癹
登
發
白
百
皀
皃
的
皆
皇
皋
皐
皕
皮
皷
皿
盃
盆
盇
盈
益
盍
盎
监
盒
盖
盛
盡
監
盤
盧
目
直
相
盾
省
眇
眉
看
眔
眞
真
眷
眼
眾
着
睘
督
睪
睿
瞏
瞢
瞿
矍
矛
矞
矢
矣
知
矦
短
石
研
破
确
碎
磊
磨
示
礻
礼
社
祝
神
祟
祠
票
祭
禀
禁
禸
禹
禺
离
禽
禾
禿
秀
私
秃
秉
秋
种
科
秝
秦
移
程
稍
稟
穀
穌
積
穗
穴
究
穹
空
穿
突
窄
窒
窦
立
竒
站
竜
竝
竟
章
童
竹
笑
笠
第
筆
等
答
简
箕
算
管
箴
節
篇
篤
篭
米
类
粉
粛
粟
粤
粦
粲
精
糞
糸
糹
系
約
納
素
索
紫
累
細
組
経
結
絜
絡
絫
絲
続
維
網
綿
線
縣
繇
織
纍
纟
纪
线
练
组
织
绍
经
结
给
络
统
维
编
缶
网
罒
罔
罕
罗
罙
罡
罢
罪
置
署
罷
羅
羊
羌
羍
美
羔
羕
羗
羞
羡
羣
群
義
羲
羸
羽
翁
翏
習
翕
翟
翠
翻
翼
老
耂
考
者
耆
而
耎
耑
耒
耳
耴
耶
耷
聂
聊
联
聖
聚
聶
聿
肀
肃
肅
肉
肖
肙
肥
肩
肯
育
肴
胃
胆
背
胡
胥
能
脊
脩
膚
臣
臤
臧
自
臬
臭
臯
臱
至
致
臺
臼
臽
臾
臿
舀
舂
舄
與
興
舉
舌
舍
舛
舜
舞
舟
般
艮
良
色
艸
艹
艾
芒
芔
芬
芮
花
芳
芺
芻
苔
苗
苟
若
苦
英
范
茶
茸
荅
草
荒
荣
荼
莆
莧
莫
莱
莽
菆
菊
菐
華
萊
萬
落
葉
著
葛
董
葵
蒙
蒦
蒼
蓋
蓬
蓺
蔑
蔡
蕉
蕭
薄
薛
薦
薰
藍
藏
藥
蘭
虍
虎
虐
虒
虔
處
虖
虗
虘
虚
虛
虜
虞
號
虫
虽
蚤
蚩
蜀
蜜
融
蟲
蠡
血
行
衍
街
衛
衡
衣
衤
表
衮
衰
袁
袞
被
褭
褱
襄
襾
西
覀
要
覃
見
規
覓
覧
親
覽
见
规
览
觉
角
解
触
言
訁
訇
計
討
記
訪
註
該
詳
詹
語
誩
読
請
論
諸
諾
講
識
讀
讠
计
讨
让
议
记
许
论
访
识
诉
词
话
诞
询
该
语
说
请
诺
读
谈
谐
谢
谷
豆
豈
豊
豐
豕
豖
豙
象
豦
豩
豪
豸
貇
貝
貞
貟
負
財
貢
貧
貪
貫
責
貳
貴
買
費
賁
資
賈
賏
賓
賔
賛
賞
賢
賣
質
賴
賽
贊
贝
贡
责
贯
贲
贴
贵
贾
资
赖
赞
赤
赦
走
起
越
趣
足
跟
路
蹇
蹟
身
躬
車
軍
軎
軟
軽
載
輦
车
软
较
辑
辛
辜
辟
辥
辦
辰
辱
農
辵
辶
边
込
达
过
迈
迎
运
近
还
这
连
述
迷
追
退
送
逆
逐
這
通
速
造
逢
連
逮
週
進
逸
遀
遂
運
過
道
達
違
遗
遣
適
遷
遺
邀
邁
邊
邑
邓
邕
那
邦
邪
郎
部
郭
都
鄉
鄧
酉
酋
配
酒
酓
釆
采
里
重
野
量
金
釒
鋪
錢
鍋
鐵
钅
铺
链
锅
長
镸
长
門
閃
閉
開
閏
閑
閒
間
閔
関
閱
閵
閻
闌
门
问
闲
间
闷
阅
阑
阜
阝
阳
阿
陀
附
陆
陈
降
院
陳
陽
隆
隊
隋
隡
隨
隱
隶
隹
隺
隻
隼
隽
难
雀
雁
集
雈
雋
雍
雐
雔
雙
雚
雜
雝
離
難
雨
雩
雪
雲
零
雷
電
需
霍
霜
霝
霞
霸
靈
靑
青
靜
非
靡
面
靣
革
韋
韦
韭
韯
韱
音
頁
頃
項
順
須
頗
頡
頭
頻
顏
顛
页
项
顺
顾
预
频
题
颜
额
風
风
飛
飞
食
飠
飲
養
餐
館
饅
饣
饭
饮
饱
馆
首
香
馬
馮
駦
马
验
骨
骰
體
高
髟
鬥
鬯
鬲
鬼
魅
魚
魯
鮮
鱼
鲁
鳞
鳥
鳳
鸟
鹵
鹿
麃
麗
麥
麦
麻
黃
黄
黍
黎
黑
黒
點
黨
黹
黽
黾
鼎
鼓
鼠
鼻
齊
齋
齐
齒
齿
龍
龙
龜
龟
龠
龰
龱
龴
龵
龶
龷
龸
龹
者
艹
！
＆
（
）
＋
，
－
０
１
３
５
：
；
？
ｆ
ｉ
ｗ
𠀁
𠀃
𠀆
𠀉
𠀎
𠀐
𠁁
𠁣
𠂆
𠂇
𠂈
𠂉
𠂊
𠂋
𠂎
𠂒
𠂔
𠂛
𠂡
𠂢
𠂤
𠂬
𠂭
𠂹
𠃊
𠃋
𠃌
𠃍
𠃎
𠃑
𠃓
𠃔
𠃜
𠄌
𠄎
𠄠
𠄢
𠆢
𠆥
𠇍
𠈌
𠌵
𠓜
𠔉
𠔥
𠔼
𠔽
𠔿
𠕀
𠕁
𠕋
𠘧
𠘨
𠙻
𠙼
𠚏
𠚒
𠚤
𠚪
𠣏
𠤎
𠤕
𠥓
𠦄
𠦑
𠦝
𠧒
𠧗
𠧪
𠩺
𠪚
𠫓
𠫔
𠫤
𠬛
𠬝
𠬞
𠬢
𠬤
𠬶
𠮛
𠮦
𠮷
𠯑
𠱠
𠳮
𠷎
𡈼
𡉀
𡉵
𡌥
𡍮
𡏳
𡕒
𡕩
𡕰
𡖅
𡗗
𡗜
𡘆
𡘤
𡧱
𡨄
𡩧
𡬠
𡭽
𡰣
𡰥
𡰪
𡰯
𡰱
𡷈
𡸁
𡿨
𡿩
𡿪
𡿺
𢀖
𢀛
𢀩
𢁙
𢆉
𢆰
𢆶
𢇁
𢇇
𢉖
𢌬
𢌿
𢏚
𢑑
𢑚
𢖻
𢙣
𢛳
𢦏
𢦒
𢧵
𢼄
𢾕
𣁋
𣄼
𣅀
𣅽
𣍘
𣎳
𣎵
𣏋
𣏼
𣗥
𣥂
𣥖
𣦵
𣦼
𣧄
𣪊
𣪠
𣬉
𣳾
𣶒
𤇾
𤊽
𤐫
𤓰
𤔔
𤕨
𤣩
𤰇
𤰔
𤰞
𤴓
𤴔
𤽄
𥁑
𥁕
𥃦
𥃩
𥃭
𥇡
𥑟
𥘅
𥘈
𥝢
𥫗
𥱡
𦈢
𦉪
𦉬
𦉼
𦍌
𦍒
𦎧
𦐇
𦓔
𦔮
𦘒
𦙃
𦚏
𦣝
𦣞
𦣻
𦥑
𦥔
𦥯
𦨉
𦭝
𦰩
𧆞
𧈧
𧘇
𧰨
𧴪
𧴮
𧵩
𧾷
𨸏
𨾴
𩙿
𩠐
𩫏
𩵋
𪉷
𪜀
𪟽
𪠲
𪩲
𫇦
𫔭
𫜸
𫝀
𫠣
𫠩
𫢉
𫥞
𫩏
𫩠
𫪡
𫲽
𫶧
𬀷
𬐘
𬗌
𬙙
𬛸
𬜯
𬟩
𬯁
𬴘
𬺻
𬼉
𬼖
𭀰
𭁈
𭁨
𭅰
𭑈
𭕄
𭗼
𭤨
𭥫
𭻾
𮅕
𮊿
𮍌
𮍏
𮓗
𮥼
𮧮
廾
𰀁
𰀄
𰀈
𰀉
𰀕
𰀠
𰀡
𰀢
𰀪
𰁜
𰃮
𰆊
𰆘
𰋙
𰕎
𰢴
𰧭
𰯲
01--
02--
08--
10--
100--
12--
13--
14--
15--
17--
18--
19--
20--
6--
69--
7--
75--
8--
9--
92--
984--
a--
ab--
ac--
accom--
activ--
ad--
adel--
af--
affi--
ag--
aggior--
ai--
aiu--
ak--
al--
algu--
ali--
all--
am--
an--
ana--
and--
ang--
ani--
anim--
ano--
ap--
aper--
apol--
ar--
ari--
arri--
as--
ash--
asso--
at--
au--
aug--
auto--
av--
ay--
aya--
az--
azərbay--
b--
ba--
bar--
bas--
bat--
be--
beh--
bek--
bel--
ber--
bey--
bha--
bhu--
bi--
bil--
bio--
bis--
biz--
bl--
bla--
bli--
bo--
bol--
bot--
br--
bril--
bro--
bu--
by--
c--
ca--
cam--
car--
cari--
cast--
ce--
cent--
cer--
ch--
chak--
chan--
char--
che--
chi--
chri--
christ--
ci--
ciole--
cl--
cle--
co--
com--
commu--
con--
concen--
confi--
congr--
coord--
cope--
cor--
cour--
cri--
cro--
cru--
cryst--
cu--
cy--
d--
da--
de--
deb--
dec--
decen--
dedi--
dee--
defi--
demon--
den--
der--
des--
dev--
di--
dis--
disam--
diseg--
dispo--
disru--
dive--
divya--
do--
dr--
du--
e--
ed--
edu--
effec--
eg--
ej--
ek--
el--
em--
emer--
empha--
en--
eng--
enregi--
er--
es--
esc--
est--
estu--
et--
evi--
ex--
exca--
excl--
expl--
f--
fa--
fac--
fe--
fer--
fi--
fla--
flo--
flu--
foc--
fon--
for--
fors--
fou--
fr--
fre--
fu--
fun--
g--
ga--
gar--
ge--
gene--
geogra--
gha--
gi--
glo--
go--
gos--
gr--
gra--
gram--
grap--
gre--
gro--
gu--
h--
ha--
ham--
hand--
har--
hash--
he--
heil--
hel--
hi--
hil--
him--
ho--
home--
hot--
hr--
hu--
hus--
i--
id--
identifi--
ig--
il--
illu--
im--
impl--
impro--
in--
incl--
indi--
infi--
info--
inspi--
inte--
inter--
interes--
invi--
io--
ir--
is--
it--
iz--
j--
ja--
jaga--
jai--
je--
jed--
jeet--
jo--
ju--
jun--
k--
ka--
kaf--
kah--
kal--
kan--
kar--
kara--
kat--
ke--
key--
ki--
kl--
ko--
kom--
kr--
ku--
l--
la--
labor--
le--
lea--
lec--
li--
lice--
lingu--
lit--
ll--
lle--
lo--
loc--
lu--
luxemb--
m--
ma--
mad--
mah--
main--
mal--
man--
mar--
mas--
mat--
me--
med--
memo--
men--
mer--
merch--
mi--
min--
mis--
mit--
mje--
ml--
mm--
mo--
mob--
moc--
mon--
mor--
mos--
moti--
mu--
mud--
mul--
mur--
my--
n--
na--
nak--
nan--
nar--
nat--
nave--
nd--
ne--
ni--
nj--
no--
non--
nor--
nos--
nu--
ny--
o--
ob--
objec--
obta--
obvi--
oc--
od--
of--
og--
ol--
on--
op--
or--
ord--
organiz--
os--
oth--
out--
ov--
over--
p--
pa--
pal--
pall--
pan--
par--
pat--
patri--
pe--
per--
pharmac--
pi--
pin--
pl--
ple--
po--
pols--
popu--
pos--
possibi--
potrzebu--
pr--
prab--
pras--
pre--
prija--
pro--
promo--
prz--
przy--
pu--
pul--
pun--
q--
qas--
quar--
quel--
r--
ra--
raccog--
raghu--
rail--
raj--
ram--
ran--
rappre--
ras--
ravi--
re--
red--
regi--
rela--
ren--
res--
respo--
ri--
ria--
ris--
ro--
rob--
rosa--
ru--
run--
s--
sa--
sad--
sal--
san--
sar--
sard--
sat--
scel--
sch--
sco--
scrit--
se--
sec--
selec--
ser--
sf--
sha--
shak--
shas--
she--
shi--
sho--
shr--
si--
sigu--
simpl--
sky--
slo--
so--
sol--
spe--
spi--
sra--
sri--
st--
ste--
str--
stw--
su--
sub--
sud--
sul--
sun--
sur--
sus--
sva--
svilu--
swa--
swit--
sy--
sym--
sz--
t--
ta--
tag--
tar--
tau--
te--
tea--
tele--
ter--
th--
the--
thi--
ti--
to--
tol--
tor--
tradi--
trans--
tre--
tri--
tro--
tu--
tues--
tul--
tuto--
twe--
ty--
u--
ubi--
ucz--
ul--
um--
un--
una--
uni--
unir--
univ--
univer--
uoc--
up--
ur--
us--
ut--
v--
va--
vale--
ve--
ver--
veu--
vi--
vig--
viol--
vis--
visibi--
vo--
vol--
volun--
vou--
w--
wa--
we--
web--
wi--
wiki--
wil--
wo--
word--
wy--
x--
xav--
xer--
xi--
y--
ya--
ye--
yer--
yıl--
z--
za--
zb--
ze--
zo--
zoba--
zu--
ı--
α--
αργο--
ασ--
γυμ--
δ--
ε--
κ--
λ--
μ--
ν--
π--
ρ--
σ--
σι--
φ--
в--
ви--
вс--
д--
до--
е--
з--
за--
и--
к--
ко--
ле--
лу--
м--
ма--
милио--
но--
о--
органи--
п--
пер--
по--
пр--
пре--
при--
присоед--
рес--
рожд--
с--
са--
ск--
срп--
стра--
т--
тех--
у--
ук--
я--
א--
די--
ה--
הכ--
ו--
חי--
ל--
מה--
נ--
ס--
ا--
اب--
اط--
ال--
الع--
ان--
ب--
با--
بر--
بل--
به--
بی--
ت--
جو--
ح--
د--
دا--
دار--
دق--
را--
س--
ش--
شن--
ط--
ع--
عا--
ق--
ل--
لو--
م--
ما--
من--
مه--
مو--
ن--
نی--
ه--
هو--
و--
وي--
ي--
پ--
چ--
کا--
گ--
ی--
ए--
ज--
व--
க--
ய--
అ--
ఉ--
క--
గ--
చ--
న--
ప--
య--
ర--
వ--
స--
വ--
เ--
გ--
გა--
ი--
მი--
--0
--000
--1
--10
--2
--25
--3
--4
--5
--55
--59
--6
--7
--71
--8
--86
--9
--a
--aan
--ab
--able
--ac
--aciones
--ad
--ado
--ados
--afa
--ag
--ah
--ahoo
--ai
--ais
--aj
--ak
--al
--ala
--ally
--am
--amo
--an
--ani
--ania
--ant
--antly
--ap
--ar
--are
--ari
--ario
--ary
--as
--at
--ata
--ate
--ated
--ati
--ating
--ation
--ations
--au
--av
--awy
--ay
--az
--azioni
--b
--ba
--bi
--bile
--ble
--bly
--bo
--bound
--by
--c
--ca
--cal
--ccio
--ce
--cent
--cert
--ces
--ch
--ches
--ci
--ck
--cks
--co
--cs
--ct
--cy
--d
--da
--dad
--de
--ded
--dh
--di
--dia
--dista
--do
--dor
--dotcom
--dra
--ds
--du
--dy
--e
--eb
--ech
--ed
--edia
--ee
--ef
--eiro
--ek
--el
--ell
--em
--ement
--en
--ena
--ens
--ent
--ente
--er
--ere
--erebbe
--eren
--eri
--ers
--ert
--es
--esa
--ese
--esh
--ess
--est
--et
--ets
--eur
--ey
--ez
--f
--ff
--fi
--fied
--ful
--fy
--g
--ga
--ge
--gen
--ger
--gh
--ght
--ging
--gmail
--go
--gra
--grafi
--gs
--h
--ha
--hal
--ham
--har
--hi
--hid
--hik
--hin
--hip
--hu
--hy
--i
--ia
--ial
--ian
--ians
--ias
--ibile
--ible
--ic
--ical
--ice
--ics
--id
--ido
--ie
--ied
--ier
--ies
--ik
--il
--im
--iment
--in
--ing
--io
--ion
--ione
--ions
--ir
--ira
--ire
--is
--ise
--ism
--ist
--istas
--ists
--it
--ita
--itat
--ite
--ities
--ito
--ity
--iu
--ium
--ius
--ive
--ively
--ix
--iz
--izado
--izar
--ization
--ize
--ized
--izzato
--izzazione
--j
--ja
--je
--ji
--jo
--ju
--k
--ka
--kanth
--kar
--ke
--ki
--ko
--kya
--kı
--l
--la
--land
--lar
--las
--ld
--le
--len
--ler
--li
--lic
--ling
--live
--lju
--ll
--lla
--lli
--lly
--lo
--lore
--ls
--lt
--lve
--ly
--m
--ma
--man
--mc
--me
--ment
--mente
--mer
--mi
--mic
--mo
--mos
--ms
--my
--n
--na
--nal
--nard
--nce
--nd
--nda
--ndo
--ne
--ner
--nes
--ness
--ng
--ni
--nian
--nic
--ning
--nn
--nne
--no
--ns
--nt
--nta
--nte
--ntes
--nti
--ntity
--ntly
--nto
--ny
--o
--ofi
--og
--ogy
--oi
--oj
--ology
--om
--on
--ons
--or
--ora
--ori
--ors
--os
--ot
--ou
--ouk
--ource
--owa
--owalis
--p
--pa
--pal
--palan
--pi
--ping
--pite
--ple
--ps
--ption
--pur
--q
--r
--ra
--rad
--raj
--ran
--rary
--ras
--rate
--rci
--rd
--re
--remos
--res
--rg
--ri
--ring
--ris
--rium
--rk
--rl
--rmo
--rn
--rno
--ro
--ron
--rry
--rs
--rt
--ry
--ryn
--s
--sa
--sas
--se
--sed
--sell
--sen
--sh
--ship
--si
--side
--sio
--sk
--ska
--so
--sr
--ss
--sse
--st
--stan
--ste
--sto
--sts
--sz
--t
--ta
--tan
--tar
--tas
--tation
--te
--ted
--tes
--th
--thi
--ti
--tia
--ties
--ting
--tion
--tions
--tives
--tivo
--to
--ton
--tor
--tore
--tors
--tos
--tr
--tra
--tri
--ts
--tsk
--tt
--tta
--tte
--tu
--ty
--u
--ua
--ually
--ud
--uddin
--ue
--ued
--ugh
--uj
--uk
--ul
--um
--un
--ung
--up
--ur
--ure
--ury
--us
--ussion
--ut
--uto
--ux
--v
--va
--ve
--vel
--vely
--ver
--vere
--verge
--ves
--vi
--vic
--vo
--vsky
--w
--wal
--way
--wicz
--wiki
--wk
--ws
--x
--xa
--y
--ya
--yahoo
--ye
--ys
--z
--za
--zed
--zen
--zi
--zimo
--zione
--zo
--zon
--zy
--zz
--ı
--ł
--ła
--ə
--α
--θε
--ι
--κο
--λι
--ν
--ο
--ρι
--ς
--ση
--τρο
--υ
--а
--ання
--ат
--в
--ва
--г
--го
--д
--е
--ет
--же
--и
--ии
--ия
--к
--ка
--ки
--л
--льки
--м
--му
--н
--о
--от
--р
--ре
--с
--ск
--ся
--т
--та
--те
--то
--ть
--у
--ци
--ы
--ь
--э
--ю
--я
--і
--ћ
--א
--ב
--ה
--ום
--ופדיה
--ורת
--ות
--י
--ים
--ית
--ל
--ם
--מת
--ן
--עה
--ף
--ר
--שות
--ת
--ا
--ات
--ار
--ان
--ب
--ة
--ت
--ترین
--تن
--ج
--حتفال
--حی
--د
--دان
--ر
--ری
--ز
--زی
--س
--سانی
--ست
--سش
--ش
--شه
--ع
--ق
--ل
--م
--ن
--ني
--نی
--ه
--ي
--ک
--گه
--ی
--ید
--ین
--یه
--ண
--డ
--త
--య
--ల
--ด
--ร
--ი
--ნ
--ს
