!
"
#
##0
##1
##10
##11
##12
##13
##14
##15
##16
##17
##18
##19
##2
##20
##21
##22
##23
##24
##25
##26
##27
##28
##29
##3
##30
##31
##32
##33
##34
##35
##36
##37
##38
##39
##4
##40
##41
##42
##43
##44
##45
##46
##47
##48
##49
##5
##50
##51
##52
##53
##54
##55
##56
##57
##58
##59
##6
##60
##61
##62
##63
##64
##65
##66
##67
##68
##69
##7
##70
##71
##72
##73
##74
##75
##76
##77
##78
##79
##8
##80
##81
##82
##83
##84
##85
##86
##87
##88
##89
##9
##90
##91
##92
##93
##94
##95
##96
##97
##98
##99
$
%
&
'
(
)
*
+
,
-
.
/
0
00
000
02
1
10
100
11
12
13
14
15
16
17
18
19
1973
2
20
200
2000
2001
2003
2004
2005
2006
2007
2008
20080113215940
2013
2014
2015
2017
2022
21
2100
22
23
24
25
250
26
27
28
29
3
30
300
4
5
50
6
60
7
70
8
9
90
:
;
<
=
>
?
@
\
^
_
a
able
about
above
access
accounts
acid
across
action
actor
actress
add
added
addition
adilabadu
african
after
against
air
al
all
along
already
als
also
although
always
american
amhahash
among
an
and
another
anterior
any
aortic
april
archive
are
area
around
art
artery
article
articles
as
asiarooms
asthma
at
august
author
available
avoid
b
back
background
based
bc
be
because
become
been
before
being
below
benz
best
beta
better
between
bhaktapur
bhattiprolu
bidurnagar
black
blood
board
body
books
border
bot
both
branch
branches
british
but
by
c
ca
called
can
canal
canals
case
cases
category
cause
cell
cells
center
century
certain
change
changes
character
chemical
child
chunks
city
co
code
color
com
combination
comments
committee
common
communities
community
contact
content
control
copyright
corporation
could
country
create
current
currently
d
da
dashes
data
date
day
de
death
december
deep
default
delivery
development
different
director
dirs
discussion
disease
display
dissection
div
do
document
does
down
due
during
e
each
early
earth
edit
editing
edition
editor
editors
either
election
elections
element
elements
else
em
en
end
energy
engine
english
er
especially
etext
even
event
every
evolution
example
excursions
external
f
false
feature
february
feedback
fevch
fever
few
file
find
fire
first
five
flow
folk
following
font
for
force
form
found
foundation
four
fr
france
free
french
from
fuel
full
function
g
gamelan
gene
general
generally
genetic
german
get
given
gje
global
go
good
google
government
great
greek
group
groups
guide
guidelines
gutenberg
h
had
has
have
he
health
heart
hello
help
her
here
hernia
hi
high
his
historical
history
hitchcock
hlist
hogarth
how
however
html
http
https
human
hyderabad
i
id
ideas
if
ii
image
images
important
in
include
includes
including
india
individual
infection
inferior
information
input
instead
internal
international
into
is
isbn
it
its
j
january
john
jpg
july
june
just
k
ka
kapurthala
king
know
knowledge
known
l
la
language
languages
large
last
later
lead
left
length
less
li
library
life
light
like
likely
line
link
links
list
lists
local
location
london
long
longer
lower
m
made
main
major
make
making
management
many
march
margin
mass
material
materials
may
means
mediawiki
medical
members
message
messages
meta
middle
might
million
mineral
minerals
mobile
modern
more
most
movement
much
municipal
must
mw
n
nagarkot
name
names
national
natural
ne
need
nepal
nerve
new
news
next
night
no
node
non
none
normal
north
not
note
november
now
np
number
numbers
o
october
of
office
often
old
on
one
online
only
open
operation
or
order
org
organisms
original
other
others
our
out
output
over
own
p
pacific
page
pages
part
parts
party
patients
people
period
php
place
player
please
point
policy
population
portal
position
possible
post
posterior
power
present
president
press
process
produce
produced
program
project
projects
provide
public
published
px
q
questions
quotation
r
range
rather
re
read
reading
recent
red
related
rembrandt
research
result
results
return
review
right
s
sa
same
sanskritdocuments
school
science
sea
search
second
section
see
selection
sentence
september
series
set
several
share
she
short
should
show
side
sign
similar
simple
since
single
site
size
skin
small
so
social
solid
some
sometimes
soon
source
sources
south
space
special
species
specific
src
st
standard
start
state
states
statistics
still
story
str
strategy
study
style
sub
subject
substr
such
superior
support
surgery
syndrome
system
t
table
take
talk
te
team
technical
template
term
terms
test
text
texts
th
than
thank
thanks
that
the
their
them
then
theory
there
these
they
this
those
three
through
thumb
thumbnail
thus
time
times
title
to
today
tool
tools
top
town
translate
translated
travel
treatment
triangle
true
two
txt
type
types
u
uk
undefined
under
union
united
units
university
until
up
upanishad
upper
us
usage
use
used
user
users
using
usually
utc
v
value
valve
var
various
version
very
via
view
visual
w
wallace
want
war
was
water
way
we
web
well
were
what
when
where
whether
which
while
white
who
wiki
wikimedia
wikipedia
wikis
wikitext
will
william
window
with
within
without
wmf
women
word
words
work
working
works
world
would
writing
written
www
x
y
year
years
york
you
your
z
zinc
{
|
}
~
£
«
°
²
·
½
×
æ
÷
ˈ
ː
̀
́
̂
̃
̄
̆
̇
̈
̉
̊
̋
̌
̓
̔
̛
̣
̧
̨
͂
ͅ
α
β
ε
η
ι
ο
ς
υ
ω
،
ا
ب
ت
ج
د
ر
س
ش
ل
م
ن
و
ُ
ِ
ٓ
ٔ
ٹ
پ
چ
ڈ
ک
گ
ہ
ی
ے
۔
ँ
ं
ः
अ
अक
अकबरप
अख
अग
अगस
अङ
अच
अछ
अज
अजय
अञ
अट
अड
अण
अत
अथ
अथर
अद
अध
अन
अनन
अनल
अप
अपन
अपर
अफ
अफग
अब
अभ
अम
अमर
अमल
अय
अर
अरब
अल
अव
अवत
अवध
अवर
अवस
अश
अष
अस
असर
अह
अहमद
आ
आइ
आइड
आइल
आइस
आक
आख
आग
आगर
आच
आज
आण
आत
आद
आदर
आध
आन
आनन
आप
आफ
आब
आम
आय
आर
आल
आव
आवक
आश
आस
आसन
आह
इ
इक
इकल
इग
इङ
इच
इज
इजह
इञ
इट
इड
इण
इत
इथ
इद
इध
इन
इनर
इप
इफ
इब
इभ
इम
इय
इर
इल
इलय
इव
इस
इह
ई
ईक
ईखद
ईज
ईत
ईद
ईन
ईप
ईमर
ईय
ईर
ईल
ईलय
ईश
ईस
उ
उक
उग
उच
उज
उट
उड
उत
उथ
उद
उदय
उदयप
उन
उनक
उप
उपज
उपन
उपमह
उपलब
उपव
उपस
उब
उम
उमर
उमरग
उय
उर
उल
उलघ
उष
उस
ऊ
ऊधम
ऊर
ऋ
ऋत
ऋष
ऎ
ऎन
ऎल
ऎस
ए
एओर
एक
एच
एज
एट
एड
एण
एत
एन
एप
एफ
एब
एम
एमप
एर
एल
एव
एश
एस
ऐ
ऐत
ऐतर
ऒ
ऒर
ओ
ओक
ओखलढ
ओड
ओप
ओब
ओम
ओर
ओल
औ
औपन
और
क
कक
कग
कच
कछ
कछल
कज
कट
कटय
कठ
कड
कडप
कण
कत
कथ
कथल
कद
कन
कप
कपक
कपट
कफ
कब
कभ
कम
कमज
कमल
कमलप
कय
कर
करण
करणय
करत
करन
करप
करम
कल
कलक
कलन
कळ
कव
कश
कस
कह
ख
खक
खग
खज
खट
खड
खण
खत
खन
खम
खय
खर
खरस
खल
खस
ग
गक
गग
गच
गज
गञ
गटन
गठन
गड
गढ
गढय
गढव
गण
गणतन
गणव
गत
गतय
गथ
गद
गदरप
गन
गप
गब
गम
गमत
गय
गर
गरगढ
गरम
गरय
गल
गलय
गव
गस
गह
घ
घट
घटन
घन
घय
घर
घरघ
ङ
ङय
ङळ
च
चक
चकर
चट
चड
चण
चत
चन
चम
चय
चर
चल
चलणस
चलन
चलय
चव
चवथ
छ
छक
छग
छड
छत
छन
छप
छम
ज
जक
जग
जगढ
जगत
जगद
जगन
जट
जड
जत
जतन
जद
जध
जन
जनकप
जनगणन
जनज
जनत
जनपद
जनपदय
जनय
जनस
जप
जब
जभ
जम
जय
जयन
जयनगर
जयनगरम
जयप
जर
जरक
जल
जलप
जलव
जलसन
जव
जश
जस
जसप
जह
झ
झर
ञ
ट
टक
टकय
टग
टण
टत
टद
टन
टनकप
टप
टपल
टम
टय
टर
टरय
टल
टव
टस
ठ
ठक
ठकथ
ठम
ठय
ड
डई
डक
डग
डन
डनय
डप
डब
डबर
डम
डय
डर
डल
डलय
डलव
डव
डस
ढ
ण
णक
णकट
णग
णन
णप
णम
णय
णव
णस
त
तइ
तक
तखतप
तग
तङ
तच
तछल
तज
तट
तड
तत
तथ
तद
तध
तन
तनतय
तनम
तनह
तप
तपल
तब
तम
तय
तर
तरक
तरप
तरय
तल
तलमड
तव
तवन
तस
तह
तहट
तहस
थ
थक
थग
थतन
थथ
थन
थनय
थप
थम
थय
थर
थल
थव
द
दइ
दक
दकथ
दकल
दकलय
दग
दछ
दण
दत
दथ
दन
दनय
दप
दब
दम
दय
दर
दरप
दरब
दरव
दल
दव
दश
दशकय
दशहर
दस
दसम
दह
ध
धक
धत
धन
धनक
धप
धम
धय
धर
धरमजयगढ
धरहर
धल
धव
धवन
धवल
न
नइग
नक
नख
नग
नगर
नगरप
नगरय
नगल
नच
नज
नट
नड
नत
नथ
नद
नन
नप
नपल
नब
नभ
नम
नमन
नय
नर
नरस
नल
नव
नवम
नवर
नवलपर
नश
नस
नसभ
नसर
नह
नहर
प
पक
पग
पच
पञ
पट
पठ
पड
पण
पत
पतन
पथ
पद
पन
पप
पब
पम
पय
पर
परम
परस
पल
पळ
पव
पश
पस
पह
पहल
फ
फइ
फत
फय
फर
फरग
फल
फस
ब
बई
बक
बख
बग
बच
बछल
बज
बझ
बट
बड
बढ
बत
बतय
बथ
बद
बन
बनगर
बनय
बप
बब
बम
बय
बर
बरन
बल
बलय
बळ
बश
बस
बसन
बह
बहमन
भ
भक
भग
भगव
भगवत
भङ
भञ
भट
भटव
भण
भत
भद
भन
भय
भर
भल
भव
भवत
भवन
भस
म
मक
मकव
मख
मग
मङ
मच
मछ
मज
मजद
मझ
मञ
मट
मठ
मड
मण
मत
मथ
मद
मदन
मदय
मध
मन
मनगर
मनस
मप
मफ
मब
मभ
मम
मय
मर
मरव
मल
मलय
मव
मश
मस
मह
महक
महत
महब
महम
महर
य
यक
यकतय
यग
यगढ
यच
यज
यटक
यटन
यण
यणप
यत
यतघर
यतत
यतय
यथ
यथन
यद
यन
यनय
यप
यब
यम
यमक
यमय
यय
ययन
यर
यल
यलय
यव
यवग
यवन
यवस
यवह
यश
यस
यह
र
रक
रख
रखण
रग
रगञ
रगढ
रघ
रघट
रङ
रच
रचन
रचल
रचलनय
रछ
रज
रजप
रञ
रट
रड
रण
रणय
रत
रतम
रतय
रथ
रथम
रद
रदर
रध
रन
रनगर
रप
रपत
रफ
रफनगर
रफल
रब
रभ
रम
रमग
रमण
रमय
रय
रयदस
रर
रल
रलय
रव
रवर
रश
रस
रसन
रसय
रह
रहण
रहर
ल
लक
लकय
लख
लखण
लग
लगञ
लगभग
लघ
लङ
लच
लज
लट
लड
लत
लद
लध
लन
लनय
लप
लपल
लब
लबस
लभ
लम
लमज
लमण
लय
लयय
लर
लल
लव
लवर
लश
लस
लह
लहन
लहर
ळ
ळक
व
वइ
वइग
वक
वख
वग
वच
वज
वट
वड
वण
वत
वतन
वतनत
वद
वध
वन
वनय
वनस
वप
वब
वभ
वम
वय
वयम
वर
वरण
वरप
वरय
वरलक
वल
वलथल
वळ
वव
वश
वस
वसन
वसप
वसफ
वह
श
शक
शङ
शजय
शत
शतय
शद
शन
शनय
शप
शब
शम
शय
शर
शल
शव
शवर
शश
शह
शहर
शहरय
शहरयग
ष
षक
षण
षणय
षत
षद
षन
षम
षय
षयय
षर
षरत
स
सक
सकत
सकल
सख
सग
सगढ
सगढय
सगरम
सङ
सच
सज
सञ
सट
सण
सत
सतप
सतह
सद
सदर
सदस
सन
सनय
सनल
सनस
सप
सफ
सफल
सब
सभ
सम
समय
समर
समस
सय
सर
सरक
सरग
सरस
सल
सव
सस
सह
सहर
सहस
ह
हक
हज
हट
हड
हण
हत
हथ
हद
हन
हनतय
हनप
हप
हब
हम
हय
हर
हरद
हरन
हरप
हल
हव
हस
हसन
़
ऽ
ा
ि
ी
ु
ू
ृ
ॄ
ॅ
ॆ
े
ै
ॉ
ॊ
ो
ौ
्
ॐ
॑
॒
॓
ॗ
ॠत
ॡ
ॢ
ॣ
।
॥
०
००
०००
००००००
०१
०२
०३
०४
०५
०६
०७
०८
०९
१
१०
१००
१०००
१०१
१०२
१०२०
१०३
१०४
१०५
१०६
१०७
१०७४
१०८
१०९
१०९७
१०९८
११
११०
११०४
१११
१११८
११२
११२४
११३
११४
११५
११६
११७
११८
११९
१२
१२०
१२१
१२२
१२३
१२४
१२५
१२६
१२७
१२८
१२९
१३
१३०
१३१
१३२
१३२३
१३२६
१३३
१३४
१३४७
१३५
१३६
१३७
१३८
१३९
१४
१४०
१४१
१४२
१४३
१४४
१४५
१४६
१४७
१४८
१४९
१५
१५०
१५१
१५२
१५३
१५४
१५५
१५६
१५७
१५८
१५९
१६
१६०
१६१
१६२
१६३
१६४
१६५
१६६
१६७
१६८
१६८२६
१६९
१७
१७०
१७१
१७२
१७३
१७४
१७५
१७६
१७७
१७८
१७९
१८
१८०
१८१
१८२
१८३
१८४
१८५
१८६
१८७
१८८
१८९
१९
१९०
१९१
१९२
१९२८
१९३
१९३०
१९३३
१९३४
१९३५
१९३६
१९३७
१९३८
१९३९
१९४
१९४०
१९४१
१९४२
१९४३
१९४४
१९४५
१९४६
१९४७
१९४८
१९४९
१९५
१९५०
१९५१
१९५२
१९५३
१९५४
१९५५
१९५६
१९५७
१९५८
१९५९
१९६
१९६०
१९६१
१९६२
१९६३
१९६४
१९६५
१९६६
१९६७
१९६८
१९६९
१९७
१९७०
१९७१
१९७२
१९७३
१९७४
१९७५
१९७६
१९७७
१९७८
१९७९
१९८
१९८०
१९८१
१९८२
१९८३
१९८४
१९८५
१९८६
१९८७
१९८८
१९८९
१९९
१९९०
१९९१
१९९२
१९९३
१९९४
१९९५
१९९६
१९९७
१९९८
१९९९
२
२०
२००
२०००
२००१
२००२
२००३
२००४
२००५
२००६
२००७
२००८
२००९
२०१
२०१०
२०११
२०१३
२०१४
२०१५
२०१६
२०१७
२०१८
२०२
२०२०
२०२१
२०२२
२०२५
२०२७
२०२८
२०२९
२०३
२०३०
२०४
२०५
२०६
२०७
२०८
२०९
२१
२१०
२११
२१२
२१३
२१४
२१५
२१६
२१७
२१८
२१९
२२
२२०
२२१
२२२
२२३
२२४
२२५
२२६
२२७
२२८
२२९
२३
२३०
२३१
२३२
२३३
२३४
२३५
२३६
२३७
२३८
२३९
२४
२४०
२४१
२४२
२४३
२४४
२४५
२४६
२४७
२४८
२४९
२५
२५०
२५१
२५२
२५३
२५४
२५५
२५६
२५७
२५८
२५९
२६
२६०
२६१
२६२
२६३
२६४
२६५
२६६
२६७
२६८
२६९
२७
२७०
२७१
२७२
२७३
२७४
२७५
२७६
२७७
२७८
२७९
२८
२८०
२८१
२८२
२८३
२८४
२८५
२८६
२८७
२८८
२८९
२९
२९०
२९१
२९२
२९३
२९४
२९५
२९६
२९७
२९८
२९९
३
३०
३००
३०१
३०२
३०३
३०४
३०५
३०६
३०७
३०८
३०९
३१
३१०
३११
३१२
३१३
३१४
३१५
३१६
३१७
३१८
३१९
३२
३२१
३२२
३२३
३२४
३२५
३२६
३२७
३२८
३२९
३३
३३०
३३१
३३२
३३३
३३४
३३५
३३६
३३७
३३८
३३९
३४
३४१
३४२
३४३
३४४
३४५
३४६
३४७
३४८
३४९
३५
३५०
३५१
३५२
३५३
३५४
३५५
३५६
३५७
३५८
३५९
३६
३६०
३६१
३६२
३६४
३६५
३६६
३६७
३६८
३६९
३७
३७१
३७२
३७३
३७५
३७६
३७७
३७८
३७९
३८
३८०
३८१
३८३
३८४
३८५
३८६
३८७
३८८
३८९
३९
३९१
३९२
३९३
३९५
३९६
३९७
३९८
३९९
४
४०
४००
४०१
४०३
४०५
४०६
४०८
४०९
४१
४१०
४११
४१२
४१५
४१६
४२
४२०
४२२
४२६
४३
४३१
४३३
४३६
४३७
४३९
४४
४४१
४४२
४४६
४४९
४५
४५२
४५३
४५४
४५५
४५६
४५७
४५८
४५९
४६
४६१
४६२
४६३
४६४
४६५
४६६
४६७
४६९
४७
४७३
४७४
४७५
४७६
४७९
४८
४८१
४८४
४८५
४८८
४८९
४९
४९२
४९५
४९६
४९८
५
५०
५००
५०१
५०५
५०६
५०८
५०९
५१
५१४
५१७
५१९
५२
५२४
५२५
५२६
५२९
५३
५३१
५३५
५३६
५४
५४४
५४५
५४६
५४८
५५
५५२
५६
५६३
५६६
५७
५७७
५७९
५८
५८०
५८१
५९
५९७
६
६०
६००
६१
६१९
६२
६२३
६३
६३३
६३८५९६
६३९
६४
६५
६५४
६६
६७
६८
६९
६९५
७
७०
७१
७२
७२७
७३
७४
७५
७५३
७६
७७
७८
७९
७९२
८
८०
८००
८०७
८१
८२
८३
८४
८५
८६
८७
८८
८९
९
९०
९१
९२
९३
९४
९५
९६
९७
९८
९९
॰
ঁ
ং
ঃ
ও
ক
খ
গ
ঘ
ঙ
চ
ছ
জ
ঝ
ঞ
ট
ঠ
ড
ঢ
ণ
ত
থ
দ
ধ
ন
প
ফ
ব
ভ
ম
য
র
ল
শ
ষ
স
হ
়
া
ি
ী
ু
ূ
ৃ
ৄ
ে
ৈ
্
ৗ
ৢ
ৰ
ৱ
ਁ
ਂ
ਃ
ਓ
ਕ
ਖ
ਗ
ਘ
ਙ
ਚ
ਛ
ਜ
ਝ
ਞ
ਟ
ਠ
ਡ
ਢ
ਣ
ਤ
ਥ
ਦ
ਧ
ਨ
ਪ
ਫ
ਬ
ਭ
ਮ
ਯ
ਰ
ਲ
ਵ
਷
ਸ
ਹ
਼
ਾ
ਿ
ੀ
ੁ
ੂ
੃
੄
੅
ੇ
ੈ
੉
ੋ
ੌ
੍
ੜ
੢
੣
ੱ
ઁ
ં
ઃ
ઓ
ક
ખ
ગ
ઘ
ઙ
ચ
છ
જ
ઝ
ઞ
ટ
ઠ
ડ
ઢ
ણ
ત
થ
દ
ધ
ન
પ
ફ
બ
ભ
મ
ય
ર
લ
ળ
વ
શ
ષ
સ
હ
ા
િ
ી
ુ
ૂ
ૃ
ૄ
ૅ
ે
ૈ
ૉ
ો
ૌ
્
ૢ
ૣ
ଁ
ଂ
ଃ
ଓ
କ
ଖ
ଗ
ଘ
ଙ
ଚ
ଛ
ଜ
ଝ
ଞ
ଟ
ଠ
ଡ
ଢ
ଣ
ତ
ଥ
ଦ
ଧ
ନ
ପ
ଫ
ବ
ଭ
ମ
ଯ
ର
ଲ
ଲୠ
ଳ
ଵ
ଶ
ଷ
ସ
ହ
ା
ି
ୀ
ୁ
ୂ
ୃ
େ
୍
ୖ
ୗ
ஓ
க
ங
ச
ஜ
ஞ
ட
ண
த
தல
ந
ன
ப
ம
ய
ர
ற
ல
ள
ழ
வ
ஶ
ஷ
ஸ
ஹ
ா
ி
ீ
ு
ூ
ெ
ே
ை
்
ௗ
ం
క
గ
చ
జ
ట
డ
ణ
త
ద
న
ప
పల
బ
భ
మ
య
ర
ల
ళ
వ
శ
ష
స
హ
ా
ి
ీ
ు
ూ
ృ
ె
ే
ొ
ో
ౌ
్
ౖ
ಁ
ಂ
ಃ
ಓ
ಕ
ಖ
ಗ
ಘ
ಙ
ಚ
ಛ
ಜ
ಝ
ಞ
ಟ
ಠ
ಡ
ಢ
ಣ
ತ
ಥ
ದ
ಧ
ನ
ಪ
ಫ
ಬ
ಭ
ಮ
ಯ
ರ
ಲ
ಳ
ವ
ಶ
ಷ
ಸ
ಹ
ಾ
ಿ
ು
ೂ
ೃ
ೄ
೅
ೆ
೉
ೌ
್
ೕ
ೖ
ೢ
ೣ
ഁ
ം
ഃ
അ
ആ
ഇ
ഈ
ഊ
ഋ
ഐ
ഒര
ഓ
ക
കള
ഖ
ഗ
ഘ
ങ
ങള
ച
ഛ
ജ
ഝ
ഞ
ട
ഠ
ഡ
ഢ
ണ
ത
ഥ
ദ
ധ
ന
പ
ഫ
ബ
ഭ
മ
യ
ര
റ
ല
ള
ഴ
വ
ശ
ഷ
സ
ഹ
ാ
ി
ീ
ു
ൂ
ൃ
ൄ
൅
െ
േ
ൈ
൉
്
ൗ
ൢ
ൣ
൧
ൺ
ൻ
ർ
ൽ
ൾ
ൿ
ว
ห
ั
ิ
ุ
ู
็
่
้
་
ာ
​
‌
‍
‎
‐
–
—
‘
’
“
”
†
•
…
→
↔
↷
−
∗
③
④
⑦
┻
╯
⺀
⺄
⺆
⺈
⺊
⺌
⺕
⺝
⺸
⺼
⿰
⿱
⿲
⿳
⿴
⿵
⿶
⿷
⿸
⿹
⿺
⿻
〢
゙
コ
ユ
㇁
㇂
㇄
㇇
㇈
㇉
㇓
㐁
㐄
㐅
㐌
㐫
㐬
㐭
㐮
㐱
㑒
㒵
㒸
㒼
㓁
㓞
㔾
㕛
㕣
㖾
㘝
㚅
㚇
㚔
㚘
㝉
㝡
㝴
㝵
㞋
㞢
㞷
㠩
㠭
㠯
㡀
㡭
㡿
㢲
㢴
㣇
㣺
㥯
㪅
㫄
㫐
㫒
㫺
㬅
㬎
㬥
㬰
㲋
㳄
㷠
㸒
㸚
㸦
㼌
㼲
㽞
㿟
䀠
䂞
䍃
䏍
䒑
䖍
䖒
䖝
䖵
䙴
䚻
䜌
䝿
䡛
䧹
䪞
一
丁
丂
七
丄
丅
丆
万
丈
三
上
下
丌
不
与
丏
丐
丑
专
且
丕
世
丘
丙
业
东
丞
丢
丣
两
严
並
丨
丩
个
丫
丬
中
丮
丰
丱
串
丵
丶
丷
丸
丹
为
主
丽
丿
乀
乂
乃
久
乆
乇
么
义
之
乌
乍
乎
乏
乐
乑
乔
乖
乗
乘
乙
乚
乛
乜
九
乞
也
习
乡
乳
乾
亀
亅
了
亇
予
争
事
二
亍
于
亏
亐
云
互
亓
五
井
亘
亚
亜
亞
亟
亠
亡
亢
交
亥
亦
产
亨
亩
享
京
亭
亮
亯
亰
亲
亳
亶
亷
人
亻
亼
亾
仁
今
介
仌
从
仐
仑
仒
仓
仕
他
付
仝
代
令
以
任
企
伊
伏
伐
休
会
伯
但
位
何
佘
余
作
佥
使
來
侈
侌
侖
侯
侵
便
保
俞
信
修
倉
倍
候
倠
備
僉
僕
儿
兀
允
兂
元
兄
充
兆
兇
先
光
兊
克
兌
免
兑
兒
兓
兔
党
兜
兟
入
全
兩
兪
八
公
六
兮
兰
共
关
兵
其
具
典
兹
兼
冀
冂
冃
冄
内
冈
冉
冊
冋
册
再
冎
冏
冐
冒
冓
冖
冗
冘
军
农
冝
冡
冥
冫
冬
冷
几
凡
凢
凵
凶
凷
凸
凹
出
函
凾
刀
刁
刂
刃
刄
刅
分
切
刍
刑
刕
刖
列
刘
则
初
別
利
别
到
制
刺
則
削
剌
前
剡
剧
剽
劉
力
功
加
劦
助
劫
劳
劵
勃
勇
勉
勒
動
務
勞
勤
勹
勺
勻
勾
勿
匀
匂
包
匆
匈
匊
匋
匍
匕
化
北
匚
匝
匡
匪
匱
匸
匹
区
医
匽
匿
區
十
卂
千
卄
卅
卆
升
午
卉
半
卌
华
卑
卒
卓
单
卖
南
卜
卝
卞
占
卡
卢
卣
卤
卦
卩
卪
卬
卯
印
危
即
却
卵
卷
卸
卻
厂
厃
厄
历
厈
厉
厌
厓
厘
厚
原
厤
厥
厨
厭
厲
厶
厷
厸
去
厼
厽
叀
参
參
叅
又
叉
及
友
双
反
叐
发
叒
叔
叕
取
受
叚
叜
叟
口
古
句
另
叩
只
召
可
台
叱
史
右
叵
号
司
叹
吂
各
吅
合
吉
吊
吋
同
名
后
吏
向
吕
君
吝
吞
否
含
启
吳
吴
吹
吾
呂
呆
呈
告
员
呙
周
命
咅
和
咎
咠
咢
咨
咸
咼
哀
品
哉
員
哥
哲
唐
商
啇
問
啚
啬
啻
善
喜
喬
單
喿
嗇
噩
嚴
囊
囗
囘
囙
囚
四
回
囟
因
囧
囬
困
囱
囷
固
国
圂
圅
國
圍
圓
土
圡
圣
圥
在
圭
地
圶
圼
坐
坒
坚
坴
垂
垔
垚
埀
埋
埶
執
基
堂
堅
堆
堇
堯
塞
墨
壘
士
壬
壯
声
壳
壴
壹
壺
壽
夂
处
夅
夆
备
夊
夋
夌
复
夏
夒
夕
外
夗
夘
多
夜
夢
大
夨
天
太
夫
夬
夭
央
失
夲
头
夷
夸
夹
夻
夾
奂
奄
奇
奈
奉
奎
奏
奐
契
奓
奔
奚
奞
奠
奢
奥
奭
女
奴
奻
好
如
妄
妙
妟
妥
妻
妾
姑
委
姜
威
娄
婁
婴
嬰
嬴
子
孑
孔
孕
孖
字
存
孚
孛
孝
孟
季
孤
学
孫
孱
學
宀
宁
宂
它
宅
宇
守
安
宋
完
宏
宓
宗
官
定
宛
宜
宝
客
宣
室
宮
宰
害
家
容
宾
宿
寄
寅
密
富
寒
察
寧
審
寫
寬
寮
寸
对
寺
寻
寽
対
寿
封
尃
射
将
將
專
尉
尊
尋
尌
對
小
少
尒
尓
尔
尖
尗
尚
尞
尢
尣
尤
尧
尨
尭
就
尸
尹
尺
尻
尼
尽
尾
尿
局
居
屈
屋
屎
屏
屑
展
屖
屚
属
屠
屡
屬
屮
屯
屰
山
屵
屾
岁
岂
岑
岡
岩
岳
岸
峯
島
崇
崑
崔
崖
崙
崩
嵬
嶲
巂
巛
川
州
巟
巠
巢
巤
工
左
巧
巨
巩
巫
差
己
已
巳
巴
巷
巸
巽
巾
巿
帀
市
布
希
帚
帛
帝
带
師
席
帶
常
干
平
年
幵
并
幷
幸
幺
幻
幼
幽
幾
广
広
庄
床
底
店
庚
府
度
庫
庭
庶
康
庸
廉
廌
廛
廣
廩
廴
延
廷
建
廾
廿
开
弁
弃
弄
弇
弋
式
弓
弔
引
弗
弘
弜
弟
弥
弦
弱
張
強
强
彊
彌
彎
彐
彑
当
彔
录
彖
彗
彡
形
彥
彦
彧
彭
彳
役
彼
往
待
律
徒
得
徙
從
復
微
徵
心
忄
必
忌
忍
志
忝
忠
忩
快
念
忽
忿
思
怠
急
怱
恆
恒
恩
恭
息
悉
患
悤
悲
悶
惠
惡
惢
愁
愈
意
愛
感
慈
慧
慮
憂
憲
應
戀
戈
戉
戊
戋
戌
戍
戎
成
我
戒
戔
或
戚
戠
戢
截
戲
戶
户
戹
戼
戾
房
所
扁
扇
手
扌
才
打
托
执
承
折
拉
拜
拿
掌
推
提
摩
支
攴
攵
收
攸
改
放
政
敄
敏
敕
敖
敗
敝
敞
敢
散
敦
敫
敬
数
敷
數
斂
文
斉
斊
斗
斤
斥
斩
斬
斯
新
方
於
施
斿
旁
旋
族
无
旡
既
旣
日
旦
旧
旨
早
旬
旱
旲
时
旾
昆
昇
昌
昍
明
昏
易
昔
昗
昜
星
春
昬
是
昱
昴
昷
時
晃
晋
晏
普
景
晶
智
暑
暴
曇
曩
曰
曲
曳
更
曷
書
曹
曼
曾
替
最
朁
會
月
有
朋
服
朔
朕
朗
望
朝
木
朩
未
末
本
札
朮
术
朱
朵
朶
朿
杀
杏
杜
束
条
来
東
杲
杳
松
析
林
枚
果
枝
枲
枼
某
柔
查
柬
柰
柴
栗
桀
桑
桼
梁
條
梟
梨
棘
棠
棥
森
楚
業
楽
榮
樂
樊
欠
次
欣
欮
欲
欶
欽
款
歆
歇
歛
止
正
此
步
武
歨
歪
歮
歯
歰
歲
歴
歷
歸
歹
歺
死
殳
段
殷
殸
殹
殺
殻
殿
毋
毌
母
每
毒
比
毕
毚
毛
毳
氏
氐
民
气
氣
水
氵
氶
氷
永
氺
氾
求
汝
汞
江
沃
沓
沙
沝
泉
法
波
泣
泥
泰
洛
洪
活
派
流
浦
浪
浮
淡
淮
清
渚
渠
湯
滿
漸
火
灬
灭
灰
灵
灷
炅
炎
炏
炗
炙
炭
為
烈
烏
烝
焉
無
焦
焱
然
煞
熊
熏
燕
營
燮
爪
爫
爭
爯
爰
爱
爲
爵
父
爻
爽
爾
爿
片
牙
牚
牛
牜
牟
牢
牧
牪
牽
犀
犬
犭
犮
狂
狄
狊
独
狺
猋
猒
猪
献
獻
玄
率
玉
王
玟
玨
珎
班
琴
瑟
瑩
瓜
瓦
甘
甚
生
産
用
甫
甬
田
由
甲
申
电
甶
男
甸
甹
画
甾
畀
界
畏
畐
留
畜
畟
畢
畧
畨
番
畫
異
畱
當
畺
畾
疊
疋
疌
疑
疒
疾
癶
癸
癹
登
發
白
百
皀
皃
的
皆
皇
皋
皐
皕
皮
皷
皿
盃
盆
盇
盈
益
盍
盎
监
盒
盖
盛
盡
監
盤
盧
目
直
相
盾
省
眇
眉
看
眔
眞
真
眷
眼
眾
着
睘
睪
睿
瞏
瞢
瞿
矍
矛
矞
矢
矣
知
矦
短
石
破
碎
磊
磨
示
礻
礼
祟
票
祭
禀
禁
禸
禹
禺
离
禽
禾
禿
秀
秃
秉
秋
科
秝
秦
移
稟
穀
穌
穴
究
穹
空
穿
突
窄
窒
立
竒
竜
竝
竟
章
童
竹
笑
笠
筆
等
答
箕
算
箴
節
篤
篭
米
粉
粛
粟
粤
粦
粲
糞
糸
糹
系
約
納
素
索
紫
累
細
絜
絫
絲
維
綿
縣
繇
纍
纟
缶
网
罒
罔
罕
罗
罙
罡
罢
罪
署
罷
羅
羊
羌
羍
美
羔
羕
羗
羞
羡
羣
群
義
羲
羸
羽
翁
翏
習
翕
翟
翠
翼
老
耂
考
者
耆
而
耎
耑
耒
耳
耴
耶
耷
聂
聊
聖
聚
聶
聿
肀
肃
肅
肉
肖
肙
肥
肩
肯
育
肴
胃
背
胡
胥
能
脊
脩
膚
臣
臤
臧
自
臬
臭
臯
臱
至
致
臺
臼
臽
臾
臿
舀
舂
舄
與
興
舉
舌
舍
舛
舜
舞
舟
般
艮
良
色
艸
艹
艾
芒
芔
芬
芮
花
芳
芺
芻
苔
苗
苟
若
苦
英
茶
茸
荅
草
荒
荣
荼
莆
莧
莫
莽
菆
菊
菐
華
萬
落
葉
著
葛
董
葵
蒙
蒦
蒼
蓋
蓬
蓺
蔑
蔡
蕉
蕭
薄
薛
薦
薰
藍
藏
藥
蘭
虍
虎
虐
虒
虔
處
虖
虗
虘
虚
虛
虜
虞
虫
虽
蚤
蚩
蜀
蜜
蟲
蠡
血
行
衍
衛
衣
衤
表
衮
衰
袁
袞
褭
褱
襄
襾
西
覀
要
覃
見
規
覓
覧
親
覽
见
角
解
言
訁
訇
計
詹
誩
諸
讠
谷
豆
豈
豊
豐
豕
豖
豙
象
豦
豩
豪
豸
貇
貝
貞
貟
負
貢
貧
貪
貫
責
貳
貴
買
費
賁
資
賈
賏
賓
賔
賛
賞
賢
賣
質
賴
贊
贝
贡
责
贯
贲
贵
赖
赞
赤
赦
走
越
足
路
蹇
身
躬
車
軍
軎
軟
輦
车
辛
辜
辟
辥
辰
辱
農
辵
辶
边
达
过
近
连
迷
追
退
送
逆
逐
通
速
造
逢
連
逮
進
遀
遂
過
道
達
遣
適
遷
遺
邊
邑
邕
那
邦
邪
郎
部
郭
都
鄉
酉
酋
配
酓
釆
采
里
重
野
量
金
釒
錢
钅
長
镸
长
門
閃
閉
開
閏
閑
閒
間
閔
閵
閻
闌
门
间
闷
阑
阜
阝
阿
降
陳
隆
隊
隋
隡
隨
隱
隶
隹
隺
隻
隼
隽
难
雀
雁
集
雈
雋
雍
雐
雔
雙
雚
雜
雝
離
難
雨
雩
雪
雲
零
雷
需
霍
霜
霝
霞
霸
靈
靑
青
非
靡
面
靣
革
韋
韦
韭
韯
韱
音
頁
頃
項
須
頗
頡
頻
顛
页
風
风
飛
飞
食
飠
養
饣
首
香
馬
馮
駦
马
骨
高
髟
鬥
鬯
鬲
鬼
魚
魯
鮮
鱼
鲁
鳥
鳳
鸟
鹵
鹿
麃
麗
麥
麦
麻
黃
黄
黍
黎
黑
黒
黨
黹
黽
黾
鼎
鼓
鼠
鼻
齊
齋
齐
齒
齿
龍
龙
龜
龟
龠
龰
龱
龴
龵
龶
龷
龸
龹
者
艹
﻿
？
𑐂
𑐎
𑐐
𑐔
𑐚
𑐜
𑐟
𑐠
𑐡
𑐣
𑐥
𑐦
𑐧
𑐩
𑐫
𑐬
𑐮
𑐰
𑐳
𑐴
𑐵
𑐶
𑐸
𑐾
𑑂
𑑄
𑑋
𠀁
𠀃
𠀆
𠀉
𠀎
𠀐
𠁁
𠁣
𠂆
𠂇
𠂈
𠂉
𠂊
𠂋
𠂎
𠂒
𠂔
𠂛
𠂡
𠂢
𠂤
𠂬
𠂭
𠂹
𠃊
𠃋
𠃌
𠃍
𠃎
𠃑
𠃓
𠃔
𠃜
𠄌
𠄎
𠄠
𠄢
𠆢
𠆥
𠇍
𠈌
𠌵
𠓜
𠔉
𠔥
𠔼
𠔽
𠔿
𠕀
𠕁
𠕋
𠘧
𠘨
𠙻
𠙼
𠚏
𠚒
𠚤
𠚪
𠣏
𠤎
𠤕
𠥓
𠦄
𠦑
𠦝
𠧒
𠧗
𠧪
𠩺
𠪚
𠫓
𠫔
𠫤
𠬛
𠬝
𠬞
𠬢
𠬤
𠬶
𠮛
𠮦
𠮷
𠯑
𠱠
𠳮
𠷎
𡈼
𡉀
𡉵
𡌥
𡍮
𡏳
𡕒
𡕩
𡕰
𡖅
𡗗
𡗜
𡘆
𡘤
𡧱
𡨄
𡩧
𡬠
𡭽
𡰣
𡰥
𡰪
𡰯
𡰱
𡷈
𡸁
𡿨
𡿩
𡿪
𡿺
𢀖
𢀛
𢀩
𢁙
𢆉
𢆰
𢆶
𢇁
𢇇
𢉖
𢌬
𢌿
𢏚
𢑑
𢑚
𢖻
𢙣
𢛳
𢦏
𢦒
𢧵
𢼄
𢾕
𣁋
𣄼
𣅀
𣅽
𣍘
𣎳
𣎵
𣏋
𣏼
𣗥
𣥂
𣥖
𣦵
𣦼
𣧄
𣪊
𣪠
𣬉
𣳾
𣶒
𤇾
𤊽
𤐫
𤓰
𤔔
𤕨
𤣩
𤰇
𤰔
𤰞
𤴓
𤴔
𤽄
𥁑
𥁕
𥃦
𥃩
𥃭
𥇡
𥑟
𥘅
𥘈
𥝢
𥫗
𥱡
𦈢
𦉪
𦉬
𦉼
𦍌
𦍒
𦎧
𦐇
𦓔
𦔮
𦘒
𦙃
𦚏
𦣝
𦣞
𦣻
𦥑
𦥔
𦥯
𦨉
𦭝
𦰩
𧆞
𧈧
𧘇
𧰨
𧴪
𧴮
𧵩
𧾷
𨸏
𨾴
𩙿
𩠐
𩫏
𩵋
𪉷
𪜀
𪟽
𪠲
𪩲
𫇦
𫔭
𫜸
𫝀
𫠣
𫠩
𫢉
𫥞
𫩏
𫩠
𫪡
𫲽
𫶧
𬀷
𬐘
𬗌
𬙙
𬛸
𬜯
𬟩
𬯁
𬴘
𬺻
𬼉
𬼖
𭀰
𭁈
𭁨
𭅰
𭑈
𭕄
𭗼
𭤨
𭥫
𭻾
𮅕
𮊿
𮍌
𮍏
𮓗
𮥼
𮧮
廾
𰀁
𰀄
𰀈
𰀉
𰀕
𰀠
𰀡
𰀢
𰀪
𰁜
𰃮
𰆊
𰆘
𰋙
𰕎
𰢴
𰧭
𰯲
0--
11--
15--
16--
17--
18--
19--
20--
3--
4--
5--
6--
7--
8--
9--
a--
ab--
abbre--
ac--
aca--
accord--
act--
activ--
adv--
afri--
ag--
al--
am--
an--
anim--
ap--
app--
appli--
ar--
as--
ass--
at--
au--
austr--
auto--
b--
ba--
bar--
bas--
be--
beg--
bi--
bl--
bo--
br--
bu--
build--
c--
ca--
cap--
carb--
centr--
ch--
cha--
chap--
che--
chi--
cho--
cl--
co--
col--
comp--
con--
conc--
cond--
conf--
cons--
cont--
conta--
contr--
contri--
conv--
cor--
cov--
cr--
cre--
cultu--
d--
de--
dec--
def--
dep--
descri--
di--
dicti--
diff--
dis--
disc--
dist--
distri--
do--
don--
dr--
e--
eco--
ed--
eff--
elec--
em--
en--
envir--
er--
ex--
exc--
exp--
experi--
f--
fa--
fe--
fem--
fi--
fin--
fo--
foc--
fol--
footb--
fr--
frequ--
fur--
g--
ga--
ge--
get--
gi--
go--
gov--
gr--
gre--
gu--
h--
ha--
har--
he--
hippocr--
ho--
hyp--
i--
id--
imp--
in--
inc--
ind--
indep--
indi--
induc--
inh--
inst--
inte--
inter--
inv--
ir--
is--
it--
j--
ja--
jap--
je--
jo--
k--
ka--
ke--
key--
kh--
l--
la--
lat--
le--
leg--
let--
li--
lim--
lo--
lu--
m--
ma--
man--
mar--
mat--
mc--
me--
measu--
medi--
medic--
mi--
min--
mo--
mon--
n--
na--
nav--
ne--
no--
nu--
o--
occ--
off--
offici--
op--
oper--
or--
out--
ox--
p--
pa--
par--
pat--
pe--
per--
perm--
pho--
physi--
pi--
pla--
pm--
po--
pr--
pref--
prev--
previo--
pri--
pro--
probl--
prop--
propo--
pu--
pulm--
qu--
qual--
quo--
r--
ra--
radi--
re--
ref--
regi--
regu--
rele--
rep--
reque--
requi--
res--
resp--
respir--
rev--
ri--
riv--
ro--
rom--
ru--
s--
sa--
sc--
scient--
scr--
se--
separ--
sh--
si--
sp--
spe--
squ--
st--
su--
sub--
sugge--
sulf--
sup--
sur--
sw--
sym--
symp--
t--
ta--
tech--
temper--
th--
ti--
to--
tr--
tra--
tran--
trans--
tre--
tri--
trus--
tu--
typi--
u--
un--
up--
v--
ve--
vi--
vo--
vol--
volunte--
w--
we--
web--
wid--
wiki--
wis--
wr--
x--
y--
z--
ج--
ن--
ک--
अ--
अर--
अल--
आ--
आल--
इ--
ई--
उ--
उप--
ऊ--
ऋ--
ऎ--
ए--
एक--
ऐ--
ऑ--
ऒ--
ओ--
औ--
क--
कन--
कम--
कर--
कल--
ख--
ग--
गर--
गल--
घ--
ङ--
च--
छ--
ज--
जन--
जय--
झ--
ञ--
ट--
ठ--
ड--
ढ--
ण--
त--
तन--
तर--
थ--
द--
दर--
ध--
धन--
न--
नव--
प--
पर--
पल--
फ--
ब--
बन--
बर--
भ--
भर--
म--
मन--
मर--
मल--
य--
र--
रज--
रत--
ल--
ळ--
व--
वन--
वर--
श--
ष--
स--
सम--
सर--
सह--
ह--
हन--
हर--
ऽ--
००--
०१--
०२--
०३--
०४--
०५--
०६--
०७--
०८--
०९--
३७--
३९--
४०--
४१--
४२--
४३--
४४--
४५--
४६--
४७--
४८--
४९--
५०--
५१--
५२--
५३--
५४--
५५--
५६--
५७--
५८--
५९--
६०--
६१--
६२--
६३--
६४--
६५--
६६--
६७--
६८--
६९--
७०--
७१--
७२--
७३--
७४--
७५--
७६--
७७--
७८--
७९--
८०--
८१--
८२--
८३--
८४--
८५--
८६--
८७--
८८--
८९--
९०--
९१--
९२--
९३--
९४--
९५--
९६--
९७--
९८--
९९--
அ--
க--
ச--
த--
ப--
ம--
ய--
ர--
வ--
క--
గ--
డ--
త--
ద--
న--
ప--
మ--
ర--
ల--
వ--
അ--
ആ--
ഇ--
ക--
ച--
ട--
ത--
ന--
പ--
മ--
യ--
ര--
ല--
വ--
സ--
--0
--1
--2
--3
--4
--5
--57
--6
--68
--7
--72
--74
--8
--80
--83
--9
--94
--95
--97
--98
--99
--a
--ab
--ac
--ace
--ach
--ad
--age
--ai
--ak
--al
--am
--an
--ance
--ar
--ard
--ari
--ars
--ary
--ase
--ate
--ated
--ation
--ay
--b
--bar
--ble
--bly
--box
--buffer
--c
--case
--ce
--ces
--ch
--ck
--cles
--ct
--cts
--cy
--d
--ds
--e
--ea
--ear
--ed
--ef
--el
--ely
--en
--ence
--ences
--ent
--er
--eries
--ern
--ers
--es
--ese
--ess
--est
--et
--ets
--ey
--f
--fe
--ficial
--ft
--ful
--g
--ga
--ge
--gs
--h
--ha
--i
--ia
--ial
--ian
--ible
--ic
--ice
--ics
--ie
--ied
--ies
--ight
--il
--in
--ine
--ing
--ion
--ions
--ird
--is
--ity
--ium
--ive
--ized
--j
--k
--ke
--ks
--l
--ld
--le
--led
--les
--listener
--ll
--lly
--logy
--ls
--lt
--ly
--m
--ma
--me
--ment
--ments
--mic
--ms
--my
--n
--na
--nal
--nce
--nd
--nds
--ng
--ning
--ns
--nt
--nts
--o
--ol
--on
--one
--or
--ors
--ory
--ough
--ow
--ows
--ox
--p
--pe
--ps
--pt
--pur
--py
--q
--r
--ra
--rd
--ren
--ri
--ria
--ric
--rk
--rl
--rn
--rry
--rs
--rt
--ry
--s
--se
--sed
--ses
--sh
--sis
--ss
--st
--sue
--sues
--t
--ta
--tal
--tary
--te
--ted
--ter
--th
--thing
--ti
--tic
--ting
--tings
--tion
--tions
--tive
--tle
--tly
--ton
--try
--ts
--ty
--u
--ucture
--ue
--um
--unt
--ur
--ure
--us
--v
--ve
--ved
--w
--wa
--x
--y
--ya
--z
--ں
--ھ
--ई
--क
--ख
--ग
--ङ
--च
--छ
--ज
--ञ
--ट
--ड
--ढ
--ण
--त
--थ
--द
--ध
--न
--प
--फ
--ब
--भ
--म
--य
--र
--ल
--ळ
--व
--श
--स
--ह
--०
--०१
--०२
--०३
--०४
--०५
--०६
--०७
--०८
--०९
--१
--११
--१२
--१३
--१४
--१५
--१६
--१७
--१८
--१९
--२
--२१
--२२
--२३
--२४
--२५
--२६
--२७
--२८
--२९
--३
--३१
--३२
--३३
--३४
--३५
--३६
--३७
--३८
--३९
--४
--४१
--४२
--४३
--४४
--४५
--४६
--४७
--४८
--४९
--५
--५१
--५२
--५३
--५४
--५५
--५६
--५७
--५८
--५९
--६
--६१
--६२
--६३
--६४
--६५
--६६
--६७
--६८
--६९
--७
--७१
--७२
--७३
--७४
--७५
--७६
--७७
--७८
--७९
--८
--८१
--८२
--८३
--८४
--८५
--८६
--८७
--८८
--८९
--९
--९१
--९२
--९३
--९४
--९५
--९६
--९७
--९८
--९९
--ୠ
--ஃ
--ర
--ന
