!
"
#
##0
##1
##10
##11
##12
##13
##14
##15
##16
##17
##18
##19
##2
##20
##21
##22
##23
##24
##25
##26
##27
##28
##29
##3
##30
##31
##32
##33
##34
##35
##36
##37
##38
##39
##4
##40
##41
##42
##43
##44
##45
##46
##47
##48
##49
##5
##50
##51
##52
##53
##54
##55
##56
##57
##58
##59
##6
##60
##61
##62
##63
##64
##65
##66
##67
##68
##69
##7
##70
##71
##72
##73
##74
##75
##76
##77
##78
##79
##8
##80
##81
##82
##83
##84
##85
##86
##87
##88
##89
##9
##90
##91
##92
##93
##94
##95
##96
##97
##98
##99
$
%
&
'
(
)
*
+
,
-
.
/
0
00
000
001
003
004
005
006
007
01
02
029
03
04
05
06
061
07
08
09
1
10
100
1000
101
102
103
104
105
106
107
108
109
11
110
1100
111
112
113
114
115
1150
116
117
118
119
1191
12
120
1200
121
122
123
124
125
126
127
128
129
13
130
1300
131
132
133
134
135
1351
136
137
138
139
14
140
1400
141
142
14258
143
144
145
146
147
148
149
1494
15
150
1500
151
152
1521
153
1536
154
155
1559
156
157
158
1588
159
16
160
1600
161
1610
162
1620
163
164
165
166
1665
167
168
1684
169
1690
17
170
1700
1704
1706
1707
1708
171
1713
172
1720
173
1731
1733
1734
1735
1736
1738
174
1740
1741
1743
1744
1745
1747
1748
1749
175
1750
1752
1753
1755
1758
1759
176
1760
1761
1763
1766
177
1770
1773
1774
1775
1776
1778
178
1781
1783
1784
1785
1786
1787
1788
1789
179
1790
1791
1792
1793
1794
1795
1796
1797
1798
1799
18
180
1800
1801
1802
1803
1804
1805
1806
1807
1808
1809
181
1810
1811
1812
1813
1814
1815
1816
1817
1818
1819
182
1820
1821
1822
1823
1824
1825
1826
1827
1828
1829
183
1830
1831
1832
1833
1834
1835
1836
1837
1838
1839
184
1840
1841
1842
1843
1844
1845
1846
1847
1848
1849
185
1850
1851
1852
1853
1854
1855
1856
1857
1858
1859
186
1860
1861
1862
1863
1864
1865
1866
1867
1868
1869
187
1870
1871
1872
1873
1874
1875
1876
1877
1878
1879
188
1880
1881
1882
1883
1884
1885
1886
1887
1888
1889
189
1890
1891
1892
1893
1894
1895
1896
1897
1898
1899
19
190
1900
1901
1902
1903
1904
1905
1906
1907
1908
1909
191
1910
1911
1912
1913
1914
1915
1916
1917
1918
1919
192
1920
1921
1922
1923
1924
1925
1926
1927
1928
1929
193
1930
1931
1932
1933
1934
1935
1936
1937
1938
1939
194
1940
1941
1942
1943
1944
1945
1946
1947
1948
1949
195
1950
1951
1952
1953
1954
1955
1956
1957
1958
1959
196
1960
1961
1962
1963
1964
1965
1966
1967
1968
1969
197
1970
1971
1972
1973
1974
1975
1976
1977
1978
1979
198
1980
1981
1982
1983
1984
1985
1986
1987
1988
1989
199
1990
1991
1992
1993
1994
1995
1996
1997
1998
1999
2
20
200
2000
2001
2002
2003
2004
2005
2006
2007
2008
2009
201
2010
2011
2012
2013
2014
2015
2016
2017
2018
2019
202
2020
2021
2022
203
204
205
206
207
208
209
21
210
211
212
213
214
215
216
217
218
219
22
220
221
222
223
224
225
226
227
228
229
23
230
231
232
233
234
235
236
237
238
239
24
240
241
242
243
244
245
246
247
248
249
25
250
2500
251
252
253
254
255
256
257
258
259
26
260
261
262
263
264
265
266
267
268
269
27
270
271
272
273
274
275
276
277
278
279
28
280
281
282
283
284
285
286
287
288
289
29
290
291
292
293
294
295
296
297
298
299
3
30
300
3000
301
302
303
304
305
306
307
308
309
31
310
311
312
313
314
315
316
317
318
319
32
320
321
322
323
324
325
326
327
328
329
33
330
331
332
333
334
335
336
337
338
339
34
340
341
342
343
344
345
346
347
348
349
35
350
351
352
353
354
355
356
357
358
359
36
360
361
362
363
364
365
366
367
368
369
37
370
3702
371
372
373
374
375
376
377
378
379
38
380
381
382
383
384
385
386
387
388
389
39
390
391
392
393
394
395
396
397
398
399
4
40
400
401
402
403
404
405
406
407
408
409
41
410
411
412
413
414
415
416
417
418
419
42
420
421
422
423
424
425
426
427
428
429
43
430
431
432
433
434
435
436
437
438
439
44
440
441
442
443
444
445
446
447
448
449
45
450
451
452
453
454
455
456
457
458
459
46
460
461
462
463
464
465
466
467
468
469
47
470
471
472
473
474
475
476
477
478
479
48
480
481
482
483
484
485
486
487
488
489
49
490
491
492
493
494
495
496
497
498
499
5
50
500
501
502
503
504
505
506
507
508
509
51
510
511
512
513
514
515
516
517
518
519
52
520
521
522
523
524
525
526
527
528
529
53
530
531
532
533
534
535
536
537
538
539
54
540
541
542
543
544
545
546
547
549
55
550
551
553
554
555
556
557
558
559
56
560
561
562
563
564
565
566
567
568
569
57
570
571
572
573
574
576
577
578
579
58
580
581
582
583
584
585
586
588
589
59
591
592
594
595
596
597
598
599
6
60
600
601
602
603
604
605
606
607
608
609
61
610
613
614
615
616
617
618
619
62
620
621
622
623
624
625
627
628
629
63
630
631
632
633
634
635
636
638
639
64
640
641
642
644
645
646
648
65
650
651
652
653
654
655
656
657
658
659
66
660
661
662
663
664
665
666
667
669
67
671
672
673
674
675
676
68
680
682
683
684
685
686
687
689
69
692
694
695
696
697
7
70
700
702
707
708
71
711
713
718
72
720
721
723
724
725
727
73
735
737
739
74
740
742
743
745
746
747
749
75
750
751
752
755
76
760
762
77
773
775
776
777
78
780
781
789
79
791
797
798
799
8
80
800
803
804
805
809
81
810
813
816
819
82
820
821
83
830
831
832
838
84
840
843
85
850
857
86
87
875
88
880
887
89
894
9
90
900
902
903
906
909
91
912
92
920
921
93
932
934
94
940
943
95
950
951
958
96
960
965
97
970
978
98
980
99
991
999
:
;
<
=
>
?
@
\
^
_
`
a
aa
aaron
ab
aba
abandon
abandona
abassi
abate
abatu
abba
abbastanza
abbiamo
abde
abegondo
abel
abelian
abi
abia
abiatar
abie
abies
abigail
abij
abija
abijament
abilita
abim
abimelech
abinadab
abio
abiram
abisai
abiss
abita
abitant
abitassion
abite
abito
ablativ
abner
abo
aboli
abomina
abominassion
abomine
abondansa
abraam
abraham
abram
abrese
abruss
abruzzi
absalom
abu
ac
aca
acab
acade
academia
academy
acaja
acampament
acampasse
acanthis
acas
acasia
accanto
accento
accordo
acelerassion
acent
acenta
acer
acess
aceta
acetassion
acete
aceto
acfr
ach
ache
achi
achia
achicam
achimas
achimelech
achis
achit
achitofel
aco
acorda
acordaje
acordame
acqua
acque
acro
acrocephalus
acsan
acu
acusa
acusativ
acusator
acuse
ad
ada
adad
adadeser
adam
adamawa
adar
adasi
adat
adata
adatament
adate
adatesse
adda
ade
adela
adelaide
adelbert
aderi
ades
adess
adesso
adi
adieu
adission
adiu
admetu
administrativa
adna
ado
adolf
adolfo
adonai
adonch
adonia
adora
adorassion
adore
adoss
adossion
adota
adre
adressa
adressame
adressasse
adresse
adria
adrian
adriano
adritura
adu
adulam
adulteri
adunansa
adunanse
advent
adverb
ae
aerodrome
aeropo
afa
afama
afann
afe
afermassion
afession
afga
afida
aflission
afluent
afoa
africa
african
afro
afronte
afror
afros
afrosa
afrose
ag
agagliate
agar
agaricus
agata
agc
age
agensi
agent
agetiv
agg
agh
agi
agiss
agita
agitassion
agiu
agiut
agiutant
agli
agn
agne
agnej
agnel
agnelli
agolada
agost
agostino
agradi
agrandi
agrea
agri
agricoltura
agrigent
agta
agustin
ah
ahi
ai
aidemi
aimon
ain
air
aira
airbus
aires
airfield
airpark
airport
ais
aisch
aisne
aiuto
aix
aj
aja
ajassin
ajmon
aka
al
ala
alan
alarme
alba
alban
albane
albanese
albani
albano
albe
albero
albert
alberta
alberti
albertin
alberto
albino
albis
albre
album
alco
alcune
alcuni
aldo
ale
alea
aleansa
aleanse
alegher
alegra
alegre
alegri
aleluja
alema
alembert
alera
aleramo
alessandro
alessio
alexander
alexandre
alfa
alfabe
alfabet
alfe
alfieri
alfio
alfonso
alfred
alfredino
alfredo
alge
algebra
algeri
algic
algonquian
ali
alia
aliansa
alice
alighieri
aliment
alimentar
alimentassion
alio
alion
all
alla
alle
allegato
allier
allo
allora
alma
almagna
alman
almanch
almen
almeno
alo
alor
alora
alp
alpes
alpha
alpi
alpin
alpina
alpini
alpinista
alsassia
alt
alta
alternativa
alti
alto
altra
altre
altri
altro
aluvion
alva
alvant
alvasse
alve
alverich
alvernia
alvesse
alza
am
ama
amaestrament
amalech
amalechita
amami
aman
amanita
amant
amar
amare
amaria
amasa
amasia
amassida
amassidi
amat
amaveulle
ambaja
ambarass
ambaron
ambarona
ambarone
ambassador
ambele
ambelela
ambeleli
ambelessi
ambient
ambienta
ambission
amble
ambo
amborgh
ambosca
ambossor
ambranca
ambrass
ambrassa
ambrasse
ambreuj
ambreus
ambrogio
ambroja
ambroje
ambrojon
ambrun
ambruni
amburi
ame
amedeo
ameiror
amel
amen
amer
america
american
amerindie
ameror
ami
amici
amicis
amicissia
amico
aminadab
aministra
aministrassion
aministrativ
aministrativa
aministrative
aministrator
aministre
amira
amiraja
amirassion
amis
amisa
amise
amnon
amo
amon
amoni
amonission
amonita
amont
amor
amore
amorita
amos
amour
ampadronisse
ampara
ampare
ampasta
ampe
ampedi
ampegn
ampegna
amper
amperador
amperativ
amperator
amperiaj
amperial
ampess
ampini
ampiniss
ampinisse
ampinisso
ampli
amplicassion
ampo
ampon
amponu
amporta
amportansa
amportant
amportanta
amportante
ampre
amprend
amprende
amprendiment
amprendiss
amprendo
amprendu
ampressa
ampression
amprome
amprovisa
amprovista
ampur
ampura
ampurita
amram
amson
amsterdam
amzura
amzure
an
ana
anali
analisa
analisi
anandia
anandiasse
anandie
anandio
anani
anania
anans
anas
anato
anca
ancadna
ancalasse
ancalava
ancalera
ancalo
ancamin
ancamina
ancaminand
ancaminasse
ancaminava
ancaminavo
ancamine
ancaminoma
ancanta
ancantament
ancapita
ancapitaje
ancapite
ancapitera
ancaria
ancarica
ancash
ancens
anche
ancheuj
anciarm
anciarma
anciarmant
anciarmanta
anciarme
anciove
anco
ancombensa
ancon
ancontr
ancontra
ancontrasse
ancontre
ancontro
ancor
ancora
ancoragia
ancorona
ancorpora
ancorzusse
ancreus
ancreusa
ancreuse
ancrosia
ancuso
and
anda
andait
andaje
andamane
andare
andarera
andari
andasend
andasi
andasne
andass
andassne
andato
andava
ande
andeje
andemonia
andess
andeve
andi
andipendensa
andipendent
andipendenta
andividual
ando
andoa
andoma
andor
andov
andova
andra
andrai
andran
andras
andre
andrea
andreve
andrew
andri
andria
andrinta
androma
andron
anduri
andurmi
andurmisse
andussion
andustria
andustriaj
andustrial
andustrie
andvin
andvine
ane
anej
anel
anession
anfa
anfansia
anfeoda
anferior
anfila
anfin
anfini
anfiteatro
anfla
anfluensa
anfluense
anfluss
anforma
anformassion
anfuria
angage
angagg
angagia
angagiasse
angagio
angan
angane
angann
angavigna
ange
angegne
angegneri
angej
angel
angela
angeles
angelo
anghilte
angiaunenta
angign
angigne
anginie
anginojasse
angio
angioin
angle
angleis
ango
angossa
angrisenta
ani
ania
anie
anienta
anima
animaj
animal
animali
anime
aniversari
anlev
anleva
anlevament
anlia
anliure
anlora
anlu
anlumina
anmasca
ann
anna
annamaria
anne
anni
anno
ano
anonsi
anrabia
anrabiasse
anrabie
anrabiesse
anregistra
anrichi
anrola
anrossenta
ans
ansbach
anscrivusse
anse
ansediament
ansegnament
ansegnant
anselm
ansem
ansema
ansen
ansenta
anseri
anseta
ansi
ansian
ansidit
ansidita
ansidite
ansigni
ansila
ansili
ansim
ansima
ansissi
ansistu
ansoma
anspira
anspirassion
anstalasse
anstalassion
anstitu
anstitussion
anstrussion
ant
anta
antamna
antamnura
antan
antant
ante
anteletual
anteligensa
anteligent
antend
antende
antendi
antera
anteressa
anteressant
anteressasse
anteresse
anteressesse
anteressi
anterior
antern
anterna
anteromp
anterven
anthony
anthus
anti
antica
antich
antiche
antichita
antico
antifassista
antile
antio
antitola
antive
antivist
antlora
anto
antoine
antologi
antologia
anton
antonel
antoni
antonin
antonio
antorn
antorna
antra
antrament
antramente
antramentr
antramentre
antrames
antrap
antrapa
antrape
antratant
antrega
antregh
antreghe
antrena
antreneur
antrigh
antrodia
antrodussion
antroduvu
antropologi
antuission
anual
anunsi
anvasion
anve
anvece
anvelena
anvension
anventa
anventor
anver
anvers
anversa
anvesti
anvestigassion
anvi
anviarasse
anviron
anvirona
anvisca
anviscasse
anvisch
anvische
anvit
anvita
anvlupa
anvod
anzi
ao
aost
aosta
apache
aparensa
aparission
aparten
apartenensa
apassiona
ape
apel
apen
apenin
aperta
aplica
aplicassion
apliche
apo
apogia
apollo
apolo
apopre
aposto
appena
appenzell
apre
apres
apress
apressia
aprire
apro
aprofondi
aprossimassion
aprova
aprovassion
aptit
aq
aqua
aque
aquila
aquitania
ar
ara
arab
araba
arabia
aragn
aragna
aragon
aragone
aram
arama
arame
aran
arancion
arand
aranda
arauan
arawakan
arba
arbe
arbeuj
arbra
arbre
arbut
arbutant
arc
arca
arcade
arce
arcesta
arceste
arch
archengh
archeo
archeolo
archeologi
archeuita
archeujta
archimede
archinca
architecture
architet
architeto
architetura
architeturaj
architetural
archive
archivi
arciam
arciama
arciame
arco
arcomanda
arcomandassion
arcomando
arcompensa
arconciliassion
arcono
arconossensa
arconossent
arconossi
arconossiment
arconossu
arconossulo
arcorda
arcordasse
arcorde
arcordeve
arcordoma
arcostrui
arcostrussion
arcupera
arcupere
arde
ardi
ardiman
ardita
ardite
ardobia
ardor
ardovu
ardriss
arduin
ardussion
arduv
arduvu
are
area
aress
aresta
areste
arfa
arfaj
arfe
arferi
arferije
arferiment
arferis
arferiss
arferissa
arferisse
arferisso
arfless
arflession
arforma
arforme
arfud
arfuda
arfudasse
arfudava
arfude
arfudo
arfugi
arfugia
arfugiasse
argent
argenta
argentin
argin
argioissansa
argioji
argiojissansa
argionze
argistra
argo
argoment
argomentassion
argovia
ari
aria
arian
arianna
arie
arionda
arison
ariss
aristo
aristocra
aritme
ariv
ariva
arlass
arlegra
arlegresse
arlegreve
arlegro
arleva
arleve
arli
arlichie
arlong
arlongh
arm
arma
armada
armade
armanach
armand
armando
armarca
armarche
armarco
armari
arme
armeja
armeje
armen
armenia
armeuj
armita
armo
armoni
armonta
armonte
armonto
armor
armstrong
arn
arna
arnassensa
arnassiment
arnega
arneghe
arnoma
arnomansa
arnon
arnonsia
arnonsie
arnos
arnova
arnovament
arnunsia
arnunsie
aro
aroer
arogansa
arogant
aroma
aron
arousa
arpa
arpar
arpata
arpe
arpete
arpetission
arpetu
arpia
arpija
arpijasse
arpije
arpijesse
arpijo
arpino
arpo
arporta
arporte
arportoma
arpose
arposesse
arpossa
arpre
arpresenta
arpresentant
arpresentassion
arpresente
arpresento
arpro
arprocia
arpudia
arputassion
arqua
array
arrigo
arrivare
ars
arsa
arse
arseivi
arseivoma
arseivra
arseivran
arseivreve
arseivu
arseivulo
arsenal
arserca
arsercador
arserche
arserva
arseta
arsigneul
arsipe
arsipress
arsive
arso
arson
arsorsa
arsorse
arsuression
arsurression
arsussita
arsussitalo
arsussite
art
artard
artasserse
arte
artemisia
arten
arthur
arti
articoj
articol
articola
articolo
artifissiaj
artifissial
artijeri
artira
artirasse
artire
artiresse
artisan
artisana
artista
artistica
arto
artorn
artorna
artorne
artorno
artreta
artreuva
artrova
artrovament
arturo
arva
arvangia
arve
arvela
arvelasse
arvelassion
arvele
arversa
arvesti
arvira
arvirasse
arvire
arviresse
arviro
arviros
arvirosa
arvista
arviste
arvive
arvolussion
arzan
arzerva
arzigh
arzighe
arzigos
arzist
arziste
arzistensa
arzo
arzolussion
arzolvu
arzu
arzulta
as
asa
asael
asaf
asar
asaria
asborgh
ascalon
ascoli
asdod
aser
asera
aserbaigian
asi
asia
asiatiche
asienda
asiende
asil
asino
aslian
asmat
asne
aso
asor
asp
aspe
aspersion
aspet
aspetto
aspirassion
ass
assa
assame
asse
assedi
assedia
assegna
assej
assel
assembla
assemblasse
assemble
assensa
assi
assia
assident
assie
assieta
assigna
assignaje
assio
assioma
assion
assir
assiria
assisi
assistensa
assistent
asso
associa
associassion
association
assolu
assolussion
assossia
assossiassion
assuer
assul
assur
ast
asta
astasse
aste
astesan
asti
astr
astrassion
astrat
astrata
astro
astrono
astronomi
asur
asura
at
ata
ataca
atacant
atach
atache
ataco
atalia
ate
ategiament
atelie
atendent
atene
atension
atent
atenta
atenua
atesta
atestassion
athapaskan
atiche
ativ
ativa
ativita
atla
atlantic
atleta
atmosfera
ato
atom
ator
atra
atrassion
atribui
atribussion
atris
attenzione
atti
attilio
attimo
atto
attraverso
atual
au
aube
aubin
aude
audi
auge
auguri
august
augusta
auguste
augustin
augusto
augustus
aument
aumenta
aumente
aurelia
aurora
aus
ausasse
ausiliar
aussa
aussand
aussasse
aussava
ausse
aussera
ausserai
aussesse
australia
australian
austri
austria
austro
austronesian
aut
auta
autar
aute
autelli
autin
autipian
auto
automo
autonomi
autor
autore
autorisa
autorisassion
autorita
autostra
autr
autra
autre
autri
autut
aux
av
ava
avans
avansa
avanti
avar
ave
avec
aveissa
avej
avejne
avend
avenda
avendje
aveniment
aventura
aventure
aver
averardo
averbi
avere
aversa
aversari
averti
avertiment
aves
aveva
avevo
aveyron
avi
avia
aviassion
avie
avignon
avija
avije
avio
avion
avis
avise
avlin
avni
avnu
avo
avoca
avocat
avoma
avosa
avra
avrai
avran
avras
avreve
avri
avria
avril
avroma
avru
avsin
avu
avune
avuto
avv
avvicina
avvocato
avzin
avzinasse
avzinassje
avzinava
avzine
avzinesse
avzineve
award
ax
ay
az
azeglio
azione
aztec
aztecan
azul
azur
b
ba
baal
babacio
babar
babel
babero
babi
babilo
babilone
babo
bache
baciass
bacini
back
baco
bad
badalin
baden
badi
bado
baga
bagage
bagassa
bagasse
bagirmi
bagn
bagna
bagne
bagno
bahnaric
bai
baia
bains
baire
baj
baje
bal
bala
balach
balada
balade
balam
balansa
balarin
balatron
balbis
balbo
bale
balengo
bali
balin
ballare
balma
balme
balo
balon
baltasar
bamberg
bambin
bambini
bambino
ban
bana
banach
banca
banch
banche
band
banda
bande
bandi
bandiera
bandon
bandona
bandonaje
bandoname
bandone
bangi
bangladesh
bani
banks
bantoide
bantu
baptiste
bar
bara
baraba
baraca
barach
baralla
baravantan
barba
barban
barbara
barbarossa
barbarot
barbe
barbera
barbie
barbis
barc
barca
barche
bard
bardonecia
bare
baretti
bareul
bari
bariera
bariere
baro
baron
barone
baross
barossa
barra
barry
barslon
bartolomeo
bartrome
baruch
bas
basa
basaj
basan
basand
basch
base
basi
basile
basilea
basilica
basin
baso
bass
bassa
basse
bassin
basso
basta
bastansa
bastard
bastava
baste
bastian
bastiment
bastion
basto
baston
bastona
bat
bata
bataja
bataje
batajon
batak
bate
batend
bateri
baterista
batesa
batesator
batese
bati
batibeuj
baticheur
batista
batisteri
bato
batsch
battaglia
battista
battitore
batu
baudelaire
bauhaus
baule
baviera
bay
bbi
be
bea
beat
beata
beatles
beatrice
beatris
beaumont
bec
bech
beck
begin
beh
bei
beica
beicand
beicava
beiche
bein
beivande
beive
beivi
beivu
bej
bel
bela
belavans
belb
bele
beleli
belessi
belfe
belfort
belgi
beli
bell
bella
belle
bellezza
bellini
bello
belun
ben
benaia
bene
benede
benedet
benedetto
benedi
benedije
benedilo
benedira
benedirai
benediss
benedissa
benedission
beneditin
benefissi
beneve
benevolensa
beni
beniamin
beniamini
beniaminita
benin
benissim
benjamin
benue
benz
beppe
ber
bera
bere
bergantin
berge
beria
berk
berkeley
berlin
berna
bernard
bernardino
bernardo
bernoulli
bero
berot
berry
bersezio
berta
bertinetti
berto
bertodatti
bertolino
bertrand
bes
bessalel
best
bestia
bestiam
bestie
bet
beta
betania
bete
betel
betlem
betsabea
beu
beucc
beuj
beuje
bhil
bhs
bhutan
bi
bia
biagio
bialera
bialere
bianca
biancastr
biancastra
biancastre
bianch
bianche
bianchi
bianco
biao
bias
biava
biberach
bibia
biblich
bibliogra
bibliografi
biblioteca
bica
bicchiere
bicer
bicerin
bich
biche
bici
bicicle
biciolin
bie
biela
biele
bien
big
bigat
bij
bije
bijession
bijet
bil
bila
bilansi
bilateral
bildad
bile
bilengua
bill
billy
bima
bin
binari
binda
binde
bindel
binela
binele
bino
binui
bio
biografi
biola
biole
biolo
biologi
bion
biond
bionda
bira
bird
birichin
birmingham
biro
bis
bisa
bisantin
biso
bisogna
bisogno
bissa
bit
biu
bl
black
blaga
blagheur
blan
blanc
blancardin
blason
ble
bleu
bleuva
bleuve
blica
blich
bliche
bligh
blin
blo
bloca
bloche
blu
bluastr
blue
bn
bo
bob
boca
bocc
bocca
boch
boche
bocin
bocon
bocseur
bodo
bodri
boeing
boetti
bofa
boge
bogesse
bogia
bogianen
bogiasse
bogiava
bogiavo
bogio
bognon
bois
boj
bol
bola
bole
boletin
boletus
bolivia
bolo
boloria
bolsan
bolve
bolversa
bomba
bombardament
bombe
bon
bona
bonave
bondansa
bondi
bondos
bondosa
bondose
bondosita
bone
boneur
bongo
boni
bonifass
bonnet
bono
bonomeri
bonora
bonta
bonuros
boole
bora
borbon
borda
bordel
border
bordo
bordon
bordura
bordure
borga
borgh
borghe
borgia
borgo
borich
bormia
borne
boro
borsa
borse
borzoa
borzoasi
bos
bosaron
bosch
boschin
bosco
bossi
boston
bot
bota
botaj
botal
bote
botega
boteghe
botin
boton
bottiglia
bouches
boud
bourg
boxing
boz
br
bra
braccia
braj
braja
braje
brajo
bran
branca
branch
branche
branda
brande
bras
brasa
brase
brasil
brasilian
brass
brassabo
brav
brava
brave
bravo
bray
bre
brero
bres
bressan
bresse
bressia
breton
breuge
breugg
breve
bri
briansa
brianseul
brica
brich
briche
bricheras
brico
brid
bridge
brie
briga
brigada
brigant
brigida
brilant
brin
brina
brio
brisa
brisgovia
brita
britain
britania
british
bro
broa
broda
brofferio
brombo
bronz
brova
bru
brun
brunastr
brunastra
brunastre
bruno
brunswick
brus
brusa
brusaje
brusata
brusava
brusca
brusch
bruse
brusera
bruso
brusra
brussel
brut
bruta
brute
brutto
bso
bsogna
bu
buang
buenos
buf
bufa
bufe
buffalo
buji
bulaka
bulgari
bull
bungku
buon
buona
buongiorno
buono
bur
burat
buria
burkina
burman
burmese
burocrassi
burzio
bus
busa
busca
busche
buse
busi
busiard
busiarda
busiardari
busiardarie
busiarde
busiarderi
bussolin
busson
bussona
bust
but
buta
butaje
butala
butalo
butame
butand
butandje
butane
butasse
butate
butava
butave
butavo
bute
buteje
butela
butelo
buteme
butesse
buteve
butir
butje
buto
butoma
butra
butrai
butran
butras
butreve
butroma
butte
bw
by
bzo
bzogn
bzognos
c
ca
caban
cabaret
cabial
cacam
cace
cada
caddoan
cade
caden
cadere
cades
cado
cadore
cadrega
cadreghe
cafe
cagnin
cain
cala
calabria
calabro
calais
calaje
caland
calandra
calava
calcaros
calcio
calcola
calde
caldo
cale
caleb
caledo
calendari
calera
cali
calidris
califo
calm
calma
calo
calor
caltanisse
caluso
calvados
calvi
calvo
cam
camarophyllus
cambi
cambia
cambiament
cambiand
cambie
cambio
cambo
cambrada
cambre
cambrera
cambridge
camera
cameron
camila
camillo
camin
camisa
camise
camisin
camo
camoss
camp
campa
campagna
campagne
campagnin
campaje
campalo
campame
campament
campana
campand
campane
campanello
campania
campasse
campava
campavo
campe
campeje
camperai
campesse
campi
campion
campiona
campo
campobass
camposanto
campossanto
camun
can
cana
canaan
canada
canade
canaj
canaja
canaje
canal
canan
canane
cananita
canave
canavese
canavzan
cancel
cand
cande
candi
candia
candida
candle
cane
canela
cange
cangia
cangiament
cangio
cani
cano
canon
canorus
cansle
canson
cant
canta
cantal
cantand
cantant
cantanta
cantare
cantava
cantavo
cante
canterai
cantharellus
canti
cantich
cantie
cantin
canto
cantoma
canton
cantor
canzone
canzoni
cao
cap
capace
capacita
capassita
cape
capel
capela
capele
capelli
capernaum
capi
capilo
capire
capiss
capisse
capisso
capita
capitaje
capital
capitan
capitani
capitava
capite
capitej
capitera
capito
capleugh
caplin
capo
capone
cappello
capra
car
cara
carabigne
carabinie
caracala
carai
caran
carara
carateri
caraterisa
carattere
caratterizzazione
carballo
carbo
carbon
card
cardinaj
cardinal
cardinalita
cardon
care
careca
cari
caria
carib
carie
cariera
carignan
carita
carl
carla
carleve
carlin
carlo
carlon
carlos
carlottina
carmagno
carmagnola
carmel
carn
carnagi
carne
carnos
caro
carolin
carolina
carovan
carta
cartagine
carte
cartel
cartesian
carton
carza
cas
casa
casael
casal
casale
casanova
casar
casca
cascaje
casche
casco
case
caseli
caserma
caserta
casi
caso
cassa
cassador
cassano
casse
cassia
cassie
cassin
castagn
castagna
castagne
castagneri
caste
castej
castel
castelli
castello
castelneuv
castelnuovo
castiga
castigh
castighe
castigherai
castiglione
castija
castion
castlamont
castle
castlin
castro
cat
cata
catala
catalan
catalana
catalo
catalunya
catania
catanzaro
catava
cate
catechi
catedral
categori
categoria
category
caterina
caterva
catesse
catherine
cativ
cativa
catlin
cato
catolice
cattero
cattivo
catura
caucasian
cauchy
caud
causa
causativa
cause
causse
caussin
cava
cavagna
cavagne
cavaj
cavajer
caval
cavaleri
cavalli
cavallo
cave
cavej
caviera
cavija
cavion
cavour
cb
cc
cca
ccand
ccasse
cche
cd
cdot
ce
ceca
ced
cede
cedu
cej
cel
celest
celeste
celestin
celle
cena
cenderawasih
cens
censi
censiment
censin
censo
censura
cente
center
centim
cento
centra
centrafrican
central
centre
centro
cera
cerca
cercare
cere
cerea
ceriporia
cerreto
cert
certa
certe
certi
certo
cerutti
ces
cesa
cesar
cesare
cesarea
cese
cesen
cesi
cet
cfr
ch
cha
challant
cham
chambe
champagne
champs
chapelle
charente
charentes
charles
chatino
che
cheat
chedar
chedes
cheicadun
cheich
cheico
cheidun
cheila
chel
chen
chenita
cher
chers
cherubin
chesbon
chesron
chestion
chet
cheuit
cheuita
cheuj
cheuje
cheujo
cheur
cheuro
cheurv
cheuse
cheussa
cheusse
chi
chia
chiama
chiappetti
chiara
chiaro
chibchan
chicago
chicassi
chie
chiel
chielo
chiesa
chiet
chieta
chiete
chieti
chila
chilchia
chilo
chin
china
chinantec
chine
chionque
chiram
chiriat
chis
chison
chissa
chista
chita
chitalo
chitame
chitand
chitara
chite
chitera
chito
chiusa
choco
chris
christ
christian
christophe
christopher
chumash
churchill
ci
cia
ciabo
ciaciara
ciaciare
ciaco
ciad
ciadel
ciadeuvra
ciair
ciaira
ciairava
ciaire
ciairent
ciairesse
ciairi
ciairor
ciam
ciama
ciamaje
ciamala
ciamalo
ciamame
ciamand
ciamandje
ciamasse
ciamate
ciamava
ciamave
ciamavo
ciambre
ciambrea
ciambree
ciambreja
ciame
ciameje
ciamelo
ciameme
ciamera
ciamerai
ciameran
ciames
ciamesse
ciamete
ciameve
ciamje
ciamo
ciamoma
ciamra
ciamran
cianca
ciancasse
ciance
cianch
cianche
ciandor
ciao
ciap
ciapa
ciapaje
ciapalo
ciapame
ciapand
ciapasse
ciapava
ciape
ciapeje
ciapelo
ciapera
ciaperai
ciapo
ciapra
ciaprai
ciasche
ciass
ciassa
ciasse
ciau
ciav
ciava
ciave
ciavensa
ciavitu
ciche
cichin
ciclista
cicolata
cid
cie
ciel
cielo
cij
cil
cile
cilento
cili
cim
cima
ciman
cime
cin
cina
cine
cinema
cinque
cinta
cio
cioca
cioch
cioche
ciochin
cioe
cioenda
cioende
ciola
cion
ciopa
ciope
cip
cipro
circ
circa
circoncision
circonda
circostanse
cirese
ciribiribin
ciro
cirpa
cisalpin
cissa
cissand
cisse
cisso
cit
cita
cite
citin
cito
citrus
citta
city
ciuma
ciusa
ciuto
civass
civil
civitella
cl
cla
clan
clara
class
classa
classe
classi
classifia
classifica
classificassion
claude
claudio
clava
cle
clement
clermont
clero
cli
client
clima
clitocybe
clivio
cln
club
cm
cme
cnica
cnich
cniche
co
coa
coalera
coalission
coastal
coata
coato
cobia
cobie
coburg
coco
coda
codice
coe
coefissient
coelet
coercc
coerensa
coerta
coge
cogesse
cogia
cogiasse
cognission
cogno
cognossi
cognossu
coi
coj
col
cola
colabora
colaborador
colaborassion
colaborator
colan
colassion
cole
colega
colegament
colege
colegi
colegia
colegn
colession
coleta
coletiv
colin
colinar
colle
college
colli
collo
collybia
colo
colomb
colomba
colombe
colombera
colombia
colombo
colon
colonel
colonial
colonisassion
color
colora
colorado
coloro
colosse
colp
colpa
colpe
colpi
colpiss
colpo
coltiva
coltivassion
coltive
coltura
colturaj
coltural
colture
columbia
com
coma
comand
comanda
comandaje
comandame
comandament
comandane
comandant
comandate
comandava
comandave
comande
comando
comasch
comba
combat
combate
combatent
combati
combatiment
combato
combatu
combe
combin
combina
combinassion
come
comedia
comedie
comendator
comensa
comense
comenso
coment
comentator
comersi
comersiaj
comersial
comesti
comestibilita
comincia
comissari
comission
comissiona
comita
commons
commonwealth
commune
como
comodita
compagn
compagna
compagnalo
compagnava
compagnavo
compagne
compagni
compagnia
compagno
compani
company
comparassion
comparativ
compare
compari
comparije
comparision
compariss
comparisso
compassion
compati
compe
compens
compensassion
competensa
competense
competission
compi
compiment
compira
compirai
compiran
compiss
compissa
compisse
compisso
comple
complement
complemento
complenta
complente
compless
complet
completa
completament
complete
complica
compliment
complo
compo
compon
component
componente
componiment
componu
comporta
comportament
comportasse
comportesse
composission
compositor
compostela
compra
compre
comprend
comprende
comprendi
comprendo
comprendoma
comprendu
comprension
computer
comse
comsi
comsissi
comte
comun
comunaj
comunal
comune
comunement
comunica
comunicame
comunicassion
comuniche
comunion
comunista
comunita
comunque
comutativ
comutativa
con
conca
conce
conced
concedu
conceduje
concello
concentra
concepcio
concepi
concert
concession
concet
concili
conclude
conclusion
conco
concorensa
concors
concubin
cond
condan
condana
condane
conde
condensator
condission
condissional
condo
condussion
condutor
conession
confe
confederassion
conferensa
conferense
conferma
conferme
confessa
confesse
confession
confida
confidensa
confido
configurassion
confin
confina
conflit
confluensa
confo
confonde
confondu
conform
conforma
confront
confronta
confusion
cong
conge
congeda
congetura
congiunsion
congiuntiv
congiura
congo
congregassion
congress
coni
coniug
coniugassion
coniugazione
conjugassion
cono
conomi
conoscere
conoss
conosse
conossensa
conossense
conossi
conosso
conossoma
conossu
conquista
conquistador
conquiste
consacra
consacrassion
consacre
conse
consegna
conseguensa
conseguense
consej
conseje
consens
consenti
consentra
consert
conserva
conservassion
conservator
conserve
consi
considera
considerand
considerassion
considerava
consideravo
considere
consideresse
considero
consideroma
consiensa
consiglio
consigna
consije
consist
consistent
consistenta
conso
consola
consolassion
console
consonant
consonante
consonanti
constitui
constituiss
constitussion
construi
consulta
consultasse
consulte
consum
consuma
cont
conta
contacc
contadin
contagg
contaje
contaminassion
contand
contane
contat
contava
contavo
conte
conteje
contempla
contemporani
contemporania
conten
content
contenta
contente
contento
contes
contessa
contesse
contest
contestassion
conti
continent
continental
contingent
continua
continuassion
continuava
continue
continuita
continuo
contni
contnu
conto
contorn
contra
contradission
contrari
contraria
contrario
contrast
contrasta
contrasto
contrat
contribui
contribuiss
contribussion
contro
control
controla
controle
contut
conven
conveniensa
convenient
convension
convent
convergensa
convergg
conversassion
conversion
converti
convertisse
convince
convinsion
convint
convinta
convnu
convoca
cooke
cooperassion
coordina
cop
copa
cope
copernican
copia
copie
coprinus
cor
cora
corage
coragi
coragios
coral
coram
corassa
corbusier
corda
cordilleran
cordon
core
corea
corean
corege
coregg
corent
corenta
corespond
coression
cori
coridor
corint
corispond
corispondensa
corispondent
corispondenta
corispondente
corispondo
coristanco
corma
corna
cornajass
corne
coro
coron
corona
corp
corpo
corporassion
corporation
corporin
corrado
corre
cors
corsa
corse
corso
cort
corte
cortin
cortinarius
cortisan
coru
coruje
corussion
cos
cosa
coscrit
cose
cosensa
cosi
cosimo
cospirassion
cossa
cossiensa
cossient
cost
costa
costansa
costant
costanta
costante
costantin
costantino
coste
costi
costion
costissi
costitui
costitussion
costo
costrui
costrussion
costrutor
costruve
costum
costuma
costumava
costume
cosu
cote
cotel
cotidian
cotin
cotolengo
courcelles
cours
court
cova
coverta
covertura
cra
craco
crasa
crasament
crase
craseur
craso
crate
crava
crave
cravo
cre
crea
creadure
crealo
creand
creassion
creator
creatura
creature
credo
cree
creek
creja
crema
cremasch
cremon
cremone
creole
crep
creta
crete
creus
creusa
creuse
cri
cribio
crica
crij
crija
crijand
crijava
crijavo
crije
crijo
crime
crimen
criminaj
criminal
crin
crisi
crist
cristaj
cristal
cristian
cristiane
cristiano
cristin
cristina
cristo
cristovo
crit
crita
criteri
critica
cro
croa
croass
croassia
croce
crocifiss
croix
croma
cronache
cronista
cronolo
cros
crosia
crosiera
crosiere
cross
crosta
croton
cru
cruces
crudel
crussi
cruz
cs
csi
ct
cu
cuba
cubo
cucina
cudi
cudiss
cugna
cui
cuicatec
cuj
cuji
cul
cule
culo
cult
culto
cultura
culturaj
cultural
culture
cum
cumin
cun
cuneo
cunij
cuor
cuore
cup
cupa
cupiss
cupo
cur
cura
cure
curie
curios
curiosa
curiosita
curnis
curt
curta
curte
curtis
curva
curve
cus
cusai
cuse
cusi
cusin
cusina
cusine
cussi
cussin
cut
cuvert
cv
cy
cyr
cz
d
da
dabin
dabon
dabzo
dacant
dadla
dadnans
daga
dagh
daghe
dagia
dagli
dago
dagon
dai
dait
daj
daje
dajla
dajlo
dakota
dal
daleugn
dalila
dall
dalla
dalle
dalmass
dalo
dama
damanca
damasch
dame
dament
damentre
damian
dan
dana
danans
dand
dane
dani
daniel
daniele
danimarca
danita
dann
dans
dansa
danse
dante
dantorn
danubi
danubio
dapara
dape
dapest
dapre
dapress
dar
dara
darai
daran
daras
dard
dare
darera
dareve
dari
darie
dariera
dariere
dario
darmage
darmagi
daroma
darsi
das
dasend
dasendje
dasi
dasiant
daspe
dasse
dassi
dat
data
date
dativ
dato
dava
davanti
dave
daverio
david
davide
davsin
davzin
day
dayak
dc
dco
dd
dda
dde
ddend
ddes
ddi
ddlo
ddo
ddoma
ddroma
ddu
dduje
ddula
ddulo
ddume
de
dea
deba
debat
debir
debitor
debole
decadensa
decid
decide
decido
decidu
decimaj
decimal
decis
decisa
decision
declin
declinassion
deco
decora
decorassion
decorente
decre
decret
decreta
dedan
dedica
dedicasse
dedicassion
dedichesse
dedission
dedussion
defini
definiss
definission
definitiva
definitivament
degli
degn
degna
degradassion
dei
deje
del
delega
delfin
delfina
deli
delimita
delinquent
delissia
delit
dell
della
delle
dello
delta
delusion
dem
deme
demetrio
demichelis
demo
democra
democrassi
demogra
demografi
demografia
demoli
den
dena
dend
dene
denina
denis
dennis
deno
denominassion
denota
densita
dent
denta
denti
dentro
denunsia
deo
depo
deporta
deportassion
depression
deputa
der
dera
deriva
derivassion
derive
derivo
dero
derota
des
descartes
descrission
descriv
descrive
descrivu
desen
desert
desidera
desideri
designa
desinensa
desinense
desmila
desno
desola
desolassion
desolin
dess
desse
dessidu
destin
destina
destinassion
destra
deta
detaj
dete
determina
determinant
determinassion
determine
detestabij
detri
detti
detto
deu
deuit
deul
deura
deurb
deurbe
deurbo
deurm
deurme
deurmo
deus
deuterono
deuteronomi
deuv
deuve
deuvo
deuvra
deuvro
deux
dev
devant
devasta
devastassion
deve
devi
devo
devossion
dewey
dgc
di
dia
diale
dialet
dialetti
dialetto
diamant
dian
diato
diav
diavo
diavolo
dibon
dica
dicc
dice
diceva
dich
diche
dici
diciaira
diciara
diciarassion
diciare
diciarera
dico
dicono
dida
didier
die
diego
dieta
dietro
dieu
dife
difend
difende
difendu
difensor
diferensa
diferense
diferensia
diferensiaj
diferensial
diferent
diferenta
diferente
difet
difficile
difi
dificil
dificolta
difusion
digeri
digestive
digiun
dignita
dignitari
dij
dije
dijlo
dijo
dil
dila
diligensa
diligent
dilo
diluvi
dim
dime
dimension
dimission
dimlo
dimostra
dimostrasse
dimostrassion
dimostrativ
dimostre
dimostro
din
dina
dinasti
dine
dino
dintra
dio
dioclessian
dion
dipartiment
dipend
dipendensa
dipendense
dipendent
dipendi
diplo
diploma
diputa
dira
dirai
diran
diras
dire
diression
diret
direta
diretament
diretor
direve
diri
diria
dirigent
dirigi
dirigiu
dirit
diroma
dis
disa
disand
disandje
disastr
disch
disco
discografi
discors
discorso
discoteca
discression
discriminassion
discussion
discute
disdeut
dise
disegn
disegna
disend
disendje
dises
disgrassia
disi
disje
disme
disne
disneuv
disney
diso
disoma
disonor
dispensa
dispera
disperassion
dispet
dispo
dispon
disponi
disponibilita
disposission
disputa
dispute
disse
dissegn
dissegna
dissegnator
dissegne
dissendensa
dissendent
disserne
disserniment
disset
dissi
dissionari
dissiplin
dissiplina
distansa
distanse
distant
diste
distinsion
distrat
distre
distret
distribui
distribussion
distrussion
dit
dita
ditatura
dite
ditlo
dito
ditongh
diure
dive
diventa
diventare
divente
divers
diversa
diverse
diversi
diversita
divid
divide
divido
dividu
dividusse
divin
divinita
divis
divisa
division
divison
divisor
divlo
divo
divora
divorsia
divossion
dizionario
dj
dje
djego
dji
dl
dla
dle
dlica
dlo
dlongh
dna
dnans
dne
do
doa
doal
dobi
dobia
dobie
doc
document
documenta
documentari
documentassion
documentation
documento
dodes
doe
doesburg
dogon
doi
doimila
doj
doja
dol
dolce
dolor
doloros
dom
doma
doman
domanda
domande
domani
dome
domenica
domenico
domina
dominanta
dominassion
dominator
dominava
domine
domini
domus
don
dona
donassion
donato
donca
donch
done
donk
donna
donne
dont
dontre
dop
dopo
dor
dora
dorato
dordogne
dore
dormi
dormire
dorsal
dos
dosen
dosent
dosman
doss
dossa
dosse
dosseur
dot
dota
dotor
dotora
dotrin
dotrinava
dots
dottore
doubs
douglas
dov
dova
dove
dovej
dover
dovert
doverta
dovertasse
doverte
doveva
dovi
dovoma
dovra
dovran
dovrand
dovras
dovrasse
dovrava
dovravo
dovre
dovrela
dovrelo
dovresse
dovri
dovria
dovrio
dovroma
dovu
dra
dragon
drai
drama
dramaturgh
dran
drapo
dras
dravi
dre
dream
drera
dresda
dreve
dria
drinta
drissa
drisse
drit
drita
drite
dritura
dro
droca
droche
drocheri
drolari
droma
dru
drua
drugia
dsa
dse
dt
du
duberti
dubi
dublin
duca
ducal
duch
duche
due
dui
dumas
dumi
dumini
duminica
duminican
dun
dunque
dur
dura
durant
durante
durbi
dure
durera
durmi
duro
dusun
dutrin
duve
duvert
duverta
duvertasse
duverte
duvi
duvri
dvd
dventa
dventand
dventava
dvente
dventera
dvento
dventra
dventran
dvora
dze
dzo
dzoneus
dzonor
dzonora
dzor
dzora
dzoratut
dzorpi
dzortut
dzorvive
dzorvivu
dzura
dzurtut
dzurvivu
e
east
ebal
ebed
eber
ebin
ebra
ebraich
ebre
ebrea
ebreo
ebron
ecc
ecco
ecelensa
ecession
ecessional
echilibri
echip
eclat
eclesia
eco
econo
economi
ecron
ecuador
ed
edco
ede
eden
edgar
edifica
edificassion
edifiche
edifissi
edilissia
edimborgh
edission
edit
editor
editore
editorial
editris
edizione
edizioni
edmonton
edoard
edoardo
edoid
edom
edomita
educa
educassion
educativ
edward
efa
efe
efesin
efeso
efet
efetiv
efod
efraim
efraimita
efron
egi
egissi
egissian
egit
egli
eglon
eh
ei
einaudi
einstein
el
ela
elab
elabora
elam
elasticita
elba
elcana
ele
eleasar
elefant
elegansa
elegant
eleganta
elegante
elege
elegiu
element
elementar
elementare
elementi
elena
elession
elet
eletor
eletricita
eletro
eletromagne
eletron
eleva
elevassion
eli
elia
eliab
eliachim
eliasib
elieser
elifas
elimina
elimine
elio
elioga
elisa
elisabeta
elisama
elise
eliu
ellena
elm
elo
elohim
elon
elsa
em
eman
emanuel
emanuele
embera
emberiza
eme
emigra
emigrassion
emilia
emilio
emira
emissari
emission
emossion
empi
emptyset
en
enciclopedi
end
energi
english
enna
eno
enoch
enonsia
enrich
enrico
ent
enta
entidade
entita
entoloma
entra
entre
entrecasteuax
enzo
eo
eod
ep
epi
epicur
epidemi
episo
epoca
epsilon
epura
equassion
equivalensa
equivalent
er
era
erano
erba
erbe
erbo
erbos
erbosa
erc
erca
ercoletti
ere
erebia
erede
eredita
eri
eric
erl
erlangen
ermes
ermon
ernest
ernesto
ernst
ero
eror
erzego
es
esagera
esalta
esaltassion
esam
esame
esamina
esamine
esaminera
esau
esce
esclamassion
esculenta
esdra
ese
esechi
esechia
esechiel
esecussion
esempi
esempio
esemplar
eser
esercissi
esercit
esercita
esercite
esibission
esigensa
esigense
esili
esilia
esist
esiste
esistensa
esisti
esisto
eskimo
eso
esod
esortassion
espansion
esperanto
esperiensa
esperiense
esperiment
espert
espiassion
espli
esplora
esplorassion
esplorator
esplore
esponent
esponu
esposission
espress
espression
espressione
esprim
esprime
esprimo
esprimu
ess
esse
essend
essendse
essensa
essensiaj
essensial
essere
essi
essie
essje
esslingen
essonne
est
estate
este
estend
estendusse
estension
ester
esterior
esteriore
estern
esterna
esterne
estevo
estinsion
esto
estrada
estrassion
estrem
estrema
estremita
et
eta
etc
ete
etern
eterna
eterne
eternita
eti
etimologi
etio
etni
etrusch
ettore
eu
eucc
euclid
euclide
eufemism
eufo
eufr
eufrat
eufre
euge
eugenio
eui
euj
euler
euli
eunuch
eure
euro
europa
europaea
europe
europenga
europengh
europenghe
eut
eutsent
euv
euvra
euvre
eva
evangel
evangeli
evangelista
eve
evene
eveniment
event
evidensa
evident
evita
evite
evolussion
ex
exists
eyak
ez
ezio
f
fa
fabio
fabrica
fabricaje
fabricassion
fabriche
fabrizio
facc
faccia
face
facenda
faceva
facia
faciada
facil
facilita
facolta
fagnan
fai
fait
faita
faite
faja
faje
fala
falabrach
falco
fale
fali
faliment
faliss
falls
falo
fam
fama
fame
fami
famiglia
famija
famije
familiar
famin
famos
famosa
famose
fan
fancio
fane
fanno
fano
fanta
fantasi
fantasma
fantassiensa
far
fara
farai
faraj
faran
faraon
faras
farche
fardel
fare
fareu
fareve
farfala
farfale
fari
farin
farina
farinos
farise
faro
faroma
farsa
farsi
fas
fasa
fasan
fasand
fase
fasend
fasenda
fasendje
fasendse
faseuj
fasi
fasia
faso
fass
fassa
fassada
fasse
fassin
fassion
fassism
fassista
fasso
fassole
fassolet
fasson
fastidi
fastudi
fat
fate
fatica
fatiga
fatighe
fator
fatta
fatti
fatto
faudal
fauss
faussa
faussari
faussi
fausto
fava
fave
favor
favore
favori
fc
fe
fed
fede
fedej
fedel
fedele
fedelta
federaj
federal
federassion
federich
federico
federigh
fej
feja
feje
fela
feli
felice
felicita
felis
felo
feltra
female
feme
feminin
femm
femminile
fen
fene
feno
fenoglio
feod
feodaj
feodal
fer
fera
ferdinand
ferdinando
fere
feri
ferm
ferma
fermasse
fermat
ferme
fermi
fermo
fernando
ferose
ferovi
feroviaria
ferrari
ferraris
ferrero
ferrie
fess
fesse
festa
feste
festival
festo
fete
feu
feud
feuder
feugh
feuj
feuja
feuje
feura
feve
fg
fi
fia
fiaca
fiach
fiama
fiame
fiamenga
fiamengh
fiamenghe
fianch
fiat
fibonacci
fibrilos
fibrilosa
fibrosa
fica
fich
fiche
fico
fida
fidaje
fidasse
fide
fidej
fidel
fidela
fidelita
fidess
fidesse
fido
fiducia
fie
field
fier
fiera
fieu
fieuj
fieul
fig
figian
figli
figlia
figlio
figura
figurativa
figurato
figure
figuresse
figuro
figurte
fij
fija
fije
fil
fila
filadelfia
file
filibert
filip
filipe
filipin
filippi
filippo
filiste
film
filmografi
filo
filologi
filon
filonghera
filoso
filosofi
filura
filure
fin
fina
finage
finagi
finaj
final
finale
finalment
finalmente
finansa
finanse
finansiari
finansiaria
finansie
findi
fine
finestra
fini
finira
finire
finisce
finiss
finisso
finiste
finisterre
finitiva
finlande
finlandia
fino
finta
fintant
fio
fioca
fiocos
fiocosa
fiolin
fiolo
fior
fiore
fiorensa
fiorentin
fiori
fioridura
fioriss
firense
firma
firmament
firme
first
fiscal
fisica
fiss
fissa
fisse
fit
fium
fiume
fiusa
flamba
fle
flece
flecia
flecie
flin
flip
flo
florida
floyd
flu
fluss
fluta
fly
fnestra
fnestre
fo
foa
fod
foe
fogassa
fogasse
foi
fola
folaira
fole
folitro
foma
fomela
fomna
fomne
fomnin
fomse
fon
fond
fonda
fondador
fondament
fondamenta
fondamentaj
fondamental
fondamente
fondassion
fondator
fonde
fondo
fondu
fondusse
fone
fonga
fonghe
fono
fonologi
fonsion
fonsional
fonsionament
fonsionari
font
fontaine
fontan
fontana
fontenay
fontsize
fonz
football
for
fora
forall
foravi
forca
ford
fore
forest
foresta
foreste
forestere
forli
forma
formagg
formaj
formal
formalisa
formand
formasse
formassion
formavo
forme
forment
formo
formola
formolassion
formula
forn
fornasa
fornel
forni
fornicassion
forniss
forsa
forse
forsi
fort
forte
forti
fortifia
fortifica
fortificassion
fortiss
fortisso
fortun
fortuna
forum
forza
foson
fosonant
fossa
fossal
fossan
fosse
fot
fotbaleur
foto
fotogra
fotografi
fox
fr
fra
frac
fradlansa
franc
franca
francavilla
france
francesca
francesco
francese
franch
franche
franchise
francia
francis
francisco
franco
franda
frank
fransa
franse
franseis
fransesch
franz
frapa
frape
frasca
frasche
frase
frassion
frasso
frate
fratej
fratel
fratello
fre
fred
free
freiburg
frej
frel
frem
frema
fren
french
frequensa
frequenta
frequente
fresch
fretta
frev
friborgh
friburgh
frica
fricassa
friedrich
fries
frisa
frise
frisson
frita
friul
friuli
fro
froj
froja
from
front
frontal
fronte
frontera
frontiera
fronton
frosinon
frust
frusta
frustacotin
fruste
frut
fruta
fu
fuckel
fuga
fugitiv
fulfulde
full
fum
fuma
fume
fumela
fumele
fumo
funeral
funsion
funsionari
fuoco
fuori
furb
furfa
furia
furios
furiosa
furlan
furmi
furni
furor
fus
fuse
fusil
fusion
fussa
fusse
fusso
fut
futur
futura
g
ga
gaba
gabaon
gabbo
gabia
gabian
gabino
gable
gabriel
gabriele
gad
gadan
gadita
gae
gaetano
gage
gagini
gagno
gaj
gal
gala
galad
galant
galanto
galari
galat
gale
galeass
galera
galeri
galia
galile
galilea
galilei
galileo
galin
galissia
galissian
galli
gallina
gallo
galo
galois
galucio
galup
galupari
gamba
gambe
game
gamej
gamel
gamma
gan
gancio
gandolfo
gano
gara
garansi
garanti
garci
garcia
gard
garda
gare
gargh
garibaldi
garo
garon
garonne
garson
gas
gasa
gasca
gase
gasi
gaspare
gastaldi
gat
gata
gath
gatto
gauss
gava
gavaje
gavand
gavandje
gavasse
gavava
gave
gaveje
gavesse
gavi
gavia
gavo
gavra
gavte
gazzetta
gbaya
gbe
ge
gebuse
gebusita
gechi
gedeon
geelvink
geila
gel
gela
gelos
gelosi
gelsomin
gemela
gemma
gen
gena
gene
genealo
genealogi
gener
genera
generaj
general
generale
generalisa
generalment
generassion
genere
generos
generosa
generosita
genesi
geni
genio
genit
genita
genitiv
genoa
genoe
gent
gente
gentij
gentil
gentile
gento
geo
geogra
geografi
geome
geometri
geometria
georg
george
georges
georgian
geq
ger
gera
gerarchi
gerbe
gerbi
geremi
geremia
gergon
germa
germain
german
germania
geroboam
gers
gerusalem
ges
gesia
gesie
gest
gesti
gestion
gesto
gesu
gesuita
geton
getro
geugh
gg
gge
gghi
ggu
gh
ghana
ghe
ghecasi
gher
gherson
ghibea
ghibelin
ghibeon
ghignon
ghil
ghilead
ghilgal
ghisa
ghit
ghita
ghitara
ghitarista
ghitin
gi
gia
giaca
giach
giache
giaco
giacobin
giacomo
giacosa
giajola
giampiero
gian
giancarlo
giandoja
gianfranco
gianluca
gianni
gianrenzo
giapon
giapone
giardin
giardine
giari
giassa
giasse
giaun
giaunastr
giaunastra
giaunastre
giaune
gibilte
gica
gich
giche
gieuga
gieugh
gieughe
gieugo
gieuv
gifra
gigant
gige
gigi
gil
gilbert
gilles
gillet
gilmour
gin
gina
gine
gino
ginoj
ginojon
gio
gioan
gioana
gioanin
gioann
giob
gioch
gioco
gioel
gioia
giojera
giojos
gionta
giontaje
giontand
giontandje
giontasse
gionte
gionteje
giontesse
gionto
gionz
gionzu
giordan
giordania
giordano
giorgio
giorna
giornaj
giornal
giornale
giornalista
giorni
giorno
giosafat
giosi
giosia
giosue
giotto
giov
giovan
giovane
giovani
giovanna
giovanni
gioventu
gioventura
giovna
giovne
giovno
giovo
gipo
gir
gira
girava
gire
giro
giron
gironda
gironde
giss
giu
giubile
giuda
giudaism
giude
giudea
giudes
giudica
giudiche
giudichera
giudicherai
giudissi
giudissios
giuga
giugador
giugand
giugava
giughe
giugn
giulia
giulian
giuliano
giulio
giumai
giumaj
giura
giurament
giure
giuri
giurisdission
giuro
giuse
giusep
giuseppe
giuss
giust
giusta
giuste
giusti
giustifica
giustificassion
giustifiche
giustissia
giusto
giuta
giutalo
giutava
giute
giuteje
giutelo
giuteme
giutene
giutete
giuteve
giutme
giuto
gje
gl
glarus
glasgow
gle
gleba
gli
glielo
glise
glo
global
globos
gloria
glorifica
glorios
gloriosa
glossari
glossario
glossolali
gn
gna
gnanca
gnau
gne
gnech
gnent
gnente
gni
gno
gnu
gnun
gnuna
gnune
go
godolia
goe
goern
goerna
goernador
goernava
goernavo
goerne
goerno
gognin
goj
gola
gole
golf
golia
goma
gomo
gomora
gon
gondi
gonsaga
gonzaga
google
gora
gore
goregn
gorissia
gosen
gosse
govern
governa
governador
governant
governator
governe
governo
gr
gra
grad
grado
graf
grafe
grafi
grafia
gral
gram
grama
grame
gramegna
grami
gramissia
grammatica
gran
grana
granata
grand
granda
grande
grandeur
grandi
grandios
grandiosa
granduca
grane
granin
grano
grant
grass
grassa
grasse
grassfields
grassia
grassie
grassion
grassios
grassiosa
grata
gratis
grato
grava
grave
gravita
gravitassion
gravura
gravure
gray
grazia
graziano
grazie
gre
great
greatest
grebo
greca
grech
greche
grecia
greco
green
greenberg
greenwich
grego
gregorian
gregorio
grenoble
gressoney
greuja
grev
greva
greve
griba
grigne
grij
grija
grije
grile
grimaldi
grinor
gris
grisa
grisastr
grisastra
grisastre
grischun
grise
griseul
grison
griva
gro
grop
gropa
grope
gropo
groson
gross
grossa
grosse
grosset
grosso
grotolu
gru
grup
gruppi
gruppo
gu
gua
guadagn
guadagna
guadalupa
guai
guaicuru
guaj
guant
guarani
guarda
guardare
guardava
guarde
guardia
guardian
guardie
guardo
guari
guasta
guaste
guatemala
gue
guelf
guera
guere
guerie
guerija
guerna
guernavo
guerne
guernera
guerno
guerra
guez
guglielmo
guida
guidava
guide
guido
guillaume
guinea
guit
guita
guite
guito
gujan
gulf
gulielm
gur
gure
gus
gust
gustav
gustavo
gustin
guy
h
ha
hai
hall
halmahera
ham
hamilton
hammers
han
hanno
hans
harbour
harry
harvard
has
haut
haute
hauts
have
he
head
heart
heilbronn
heinrich
helvella
henri
henry
herbert
hermann
heu
heva
hi
hifil
high
highland
hilaire
hilbert
hill
himalayish
hin
hindi
hinneh
histoire
hitita
hitler
hits
hmong
hmongic
hner
ho
hockey
hohenbuehelia
hokan
hom
home
homme
homo
honduras
hotel
house
htm
html
http
https
hu
hudson
hugo
huishui
huon
huygens
hygrocybe
hygrophorus
i
ia
iabes
iafet
iair
iata
ib
ibe
ibn
ica
icao
ich
iche
ico
id
ida
ide
idea
ideaj
ideal
idee
ideja
ideje
identifica
identificassion
identifiche
identita
ideolo
ideologi
idioma
ido
idoj
idol
idolatra
idolatri
idra
idro
idrogra
idrografici
idromel
idun
ie
iearim
iefte
iefune
ieoiada
ier
ieri
iesebel
iesrel
iesse
ieu
igh
iglesias
ignassi
ignazio
ignoransa
ignorant
igr
ii
iii
ij
il
ila
ile
ili
ille
illes
illinois
illo
ilo
ilusion
ilustrassion
im
ima
image
imagi
imaginassion
imagine
imeno
imigra
imigrassion
imite
immagine
imn
imo
imor
imp
impe
impegn
imper
imperador
imperativ
imperator
imperfet
imperi
imperia
imperiaj
imperial
impero
impiant
impiegato
impo
impon
importansa
important
importanta
importante
imposission
impossi
impre
impression
improvis
improvista
impur
impura
impurita
in
ina
inaugura
inaugurassion
inca
incendi
incens
incident
inclinassion
inco
incombensa
incontro
increment
incursion
ind
indefini
india
indian
indica
indicare
indicassion
indicativ
indiche
indiferensa
indignassion
indipendensa
indipendent
indipendenta
indipendente
indo
indoarian
indoeuropenghe
indoman
indonesia
indonesian
indre
indrit
indu
industria
industriaj
industrial
industrie
ine
infansia
infatti
infedelta
inferior
inferiore
infern
inferno
infidelita
infini
infinitaman
infinitesimal
infinito
influensa
influense
informa
informassion
infty
ingegne
ingegneri
inghilte
ingiust
ingiustissia
ingiustissie
ingle
inisse
inissi
inissiaj
inissial
inissiativa
inissiative
inizio
inland
inn
inocybe
inondassion
inonotus
inovassion
insee
insieme
insistensa
institut
institute
int
intanto
inte
inteletuaj
inteletual
inteligensa
intelvi
intende
intension
intenzione
inter
interesse
interior
interludi
intern
interna
internassional
international
interne
internet
interogativ
interpretassion
interrogativa
interven
intervent
intorno
intra
intrada
intrade
intraje
intrame
intrand
intrava
intre
intreje
intrera
intreran
intro
introdussion
inu
invaria
invariant
invasion
invasor
invece
inveci
invern
invernaj
inverno
invidia
invita
invoca
invocassion
io
ioab
ioacas
ioas
ioiada
ionesco
ionio
ioram
iotam
ipo
ipocrisi
ipote
ir
ira
iran
ire
iregolar
irlanda
irlande
iro
ironi
iroquoian
irpino
is
isa
isaac
isach
isai
isaia
isar
isbn
isboset
iscrission
ise
isernia
isla
islam
island
islande
isle
isler
ismael
iso
isola
isolament
isole
isomorfism
ispira
ispirassion
israel
israelita
iss
issa
issacar
isse
isso
ist
ista
istant
istat
iste
istess
istessa
istesse
istitui
istitussion
istitussional
istr
istrui
istrussion
isumrud
it
ita
itai
italia
italian
italiana
italiani
italianism
italiano
italo
itamar
ite
itneg
ito
iv
iva
ivan
ive
iver
ivi
ivo
ivoj
ivol
ivola
ivole
ivre
ivrea
ivu
ix
j
ja
jack
jacob
jacopo
jacques
jaguar
jakob
james
jan
janeiro
jazz
je
jea
jean
jeiel
jen
jeoiachim
jeoram
jeosafat
jer
jersey
jesse
jesua
jesus
ji
jim
jingpho
jla
jlo
jne
jo
joab
joan
joanan
joas
joe
joel
jogo
johann
johannes
john
johnson
jolanda
jones
joram
jos
jose
josef
joseph
journal
jpg
jr
ju
juan
jules
julia
julien
jun
jura
jus
just
juvara
juve
juventus
k
ka
kadai
kaili
kainji
kalimantan
kalinga
kam
kanauri
kannada
kansas
kaqchikel
karate
karen
karl
karlsruhe
karst
karsten
katuic
kaunas
kayak
kayan
ke
kenya
kenyah
kepler
kg
kham
khmer
khoisan
ki
kick
kijv
kilo
kim
king
kiowa
kiranti
kis
klein
km
ko
kodagu
koine
koniak
kordofanian
kreis
kru
ku
kui
kuki
kummer
kurt
kutubuan
kwa
kwerba
kwomtari
l
la
laba
laban
labe
laborato
labrador
lac
laccaria
lach
lachis
lactarius
lader
ladin
ladrari
lagh
laghe
lagiu
lago
lagrange
lait
laj
lake
lakes
lali
lama
lambda
lame
lamech
lamele
lament
lamenta
lamentassion
lamente
lamina
lampia
lampie
lan
lancia
land
landa
lande
landes
langa
langagi
langhe
language
languages
languedoc
lans
lansa
lanse
lao
lapin
laplace
lar
lara
larga
largh
larghe
larus
las
lascia
lasme
lass
lassa
lassaje
lassala
lassalo
lassame
lassand
lassane
lassasse
lassava
lassavo
lasse
lasseje
lassela
lasselo
lasseme
lassera
lasserai
lassesse
lasseve
lassio
lasso
lassoma
lassu
lat
lateraj
lateral
laterza
latifeuja
latifeuje
latin
latina
latino
latte
lauda
laudari
laude
laudelo
laudete
laudrai
laura
laurea
laureasse
laurent
lava
laval
lavasse
lave
lavera
lavesse
lavo
lavora
lavorare
lavorassion
lavori
lavoro
lawrence
laza
lbia
lbom
lco
lcol
ld
ldo
ldots
le
lea
league
leal
lealta
lebra
lebros
lecce
leccinum
lece
lech
leche
lee
left
leftrightarrow
lega
legaj
legal
lege
legenda
legende
legendre
leger
legera
legere
legge
legi
legion
legislassion
legitim
legno
leguminosae
lei
leibniz
lej
leko
lema
len
lenga
lengado
lengage
lengagi
lenghe
lenghi
lenghista
lenghistica
lengua
lenguagi
lent
lenti
leo
leon
leonard
leonardo
leone
leonhard
leopold
lepiota
lepista
leq
lerma
lerme
les
lesa
lese
lesend
lesi
leso
lesoma
lession
lest
lesta
leste
lesu
let
leteratura
leto
letor
letra
lett
lettera
letteratura
lettere
letto
letura
leu
leugh
leugn
leugna
leugne
lev
leva
levant
levantin
levasse
leve
levi
leviatan
levita
levitich
levo
levr
lewis
lez
lf
lgebra
lgran
li
lia
liam
liari
liassa
liasse
liban
libassion
liber
libera
liberaj
liberal
liberame
liberane
liberassion
liberator
libere
liberera
liberia
liberta
liberty
libia
libna
libre
libri
libro
lica
licensa
licensia
liceo
lich
liche
licor
lid
lida
lie
life
liga
ligna
ligne
ligure
liguria
ligurin
lija
lila
lim
lima
limit
limita
limitassion
limite
limo
limon
limosin
lin
line
linea
linear
linger
lingera
lingo
lingua
linguaggio
linguagi
lingue
linguistica
linguistiche
linia
linie
link
linnaeus
linseuj
linseul
lio
lion
lionco
liono
lipsia
lira
lirazel
lire
liri
lis
lisbon
lisi
lissa
lissandria
lissandrin
lista
liste
lit
lita
lite
liter
litera
literal
literari
literaria
literarie
literatura
litra
litre
litron
little
lituan
lituania
liturgi
liura
liure
live
livej
livel
liverpool
livorn
livra
livre
lix
ll
lla
lle
ller
lli
lliga
llo
lloyd
lma
lo
loba
locaj
local
localisa
localisassion
localita
locussion
lodisan
lodovico
log
logh
logo
loir
loire
loiret
lola
loli
lolo
loloish
loma
lombard
lombarda
lombarde
lombardi
lombardia
lombardo
lomlin
lon
london
londra
long
longa
longh
longhe
longheur
longobard
longobarda
lontan
lontano
lor
lora
lorca
lorcfr
lord
loren
lorens
lorenzo
loro
los
lot
lota
lote
lou
louis
loup
lourenzo
louvre
love
lower
loze
lp
lt
lta
lte
lter
ltica
ltich
ltiche
ltim
ltima
ltime
ltipl
lu
lubrifica
luc
luca
lucania
lucano
luce
lucerna
luch
lucia
luciano
lucio
ludovich
ludovico
ludvich
ludwig
lugan
lui
luigi
luis
luisa
luj
lule
lum
lumassa
lumasse
lumin
luminos
lun
luna
lunar
lunga
lunghe
lungo
luogo
lupo
lurulu
lus
luse
lusent
lusenta
lusente
luserna
luserne
lusi
luso
lusor
lussemborgh
lussi
lusso
lustr
lustra
luv
luzon
lv
lve
lxx
lyophyllum
m
ma
mac
maca
macanaim
macassi
macassia
macchina
mace
macedo
macera
mach
machina
machine
machir
macia
macie
macro
macrolepiota
macroregion
madagascar
madama
madame
madamin
madang
maddalena
madian
madianita
madison
madlen
mado
madre
madrid
madur
madura
maesta
maestro
maga
magara
magari
magasin
magdeborgh
magg
maggiore
magi
magior
magioransa
magister
magistra
magliano
magn
magna
magne
magni
magnificensa
magnifich
magno
magny
mago
magon
magona
mah
mahakiranti
mai
maigret
main
maine
mainland
maipuran
maire
mais
maison
maitass
maj
maja
maje
majesta
major
makhno
maku
mal
mala
malachi
maladi
malagasy
malaita
malaspin
malavi
malavia
malawi
malay
malayalam
malayan
malayic
malayo
malaysia
male
maledet
maledi
malediss
maledission
maleduca
malegn
malekula
maleur
malfa
malfasent
malfator
malfe
malgre
mali
malign
malinconi
malinconia
malissia
malo
malora
malsoa
malta
maltrata
maluku
mam
mama
maman
mamean
mamede
mami
mamin
mamma
man
mana
manasse
manca
mancaje
mancansa
mancava
mancavo
manch
manche
manchera
manchester
mancin
manco
manda
mandaje
mandalo
mandame
mandament
mandand
mandane
mandara
mandare
mandarin
mandava
mandave
mande
mandeje
mandela
mandera
manderai
manding
mando
mandrai
mane
manera
manere
manfredi
mange
mangene
mangera
mangeran
mangeras
mangereve
mangesse
mangia
mangiand
mangiane
mangiare
mangiativ
mangiativa
mangiava
mangiavo
mangio
mangioma
manguean
mani
mania
manie
maniera
manifest
manifesta
manifestasse
manifestassion
manifeste
manifesto
manin
manito
mano
manoach
manobo
manoscrit
mantej
mantel
manten
mantlin
mantni
mantnu
mantoa
mantoan
manual
manuel
manuelin
manus
manuscrit
manzoni
mapa
mar
mara
maraja
maraje
maraman
marano
maravi
maravija
maravije
maravijos
maravijosa
maravijose
marc
marca
marcand
marcava
marce
marcel
marcello
march
marche
marcheisa
marchesa
marcia
marciand
marciape
marciava
marciavo
marcio
marcioma
marco
mardoche
mare
marenda
marengh
maressial
margarita
marghe
margherita
margina
margrita
mari
maria
mariage
mariagi
marianin
mariasse
marida
maridasse
marie
mariesse
marin
marina
marinar
marino
mario
marion
marisa
marisin
maritan
maritime
marito
mark
marla
marmo
marmora
marna
marne
maro
maron
mars
marsa
marse
marsi
marsiaj
marsial
marsili
marta
martel
martin
martinet
martini
martino
martla
marx
mary
marzo
mas
masca
mascari
masche
mascheugn
maschile
mascolin
mascon
mascra
masculin
masel
mashan
masle
masna
maso
mason
masore
mass
massa
massachusetts
massacri
massaje
massalo
massand
massane
massasse
masse
masseje
masselo
masseme
massete
massim
massimo
massiss
masso
mat
mata
mataco
matan
matania
matari
mate
matema
matera
materia
materiaj
material
materie
matese
mathbb
mathcal
mati
matin
matina
matinera
matisse
mato
matrimo
matrimonio
matris
matrix
matteo
mattino
maurice
maurizio
mauro
max
may
maya
mayenne
mazatec
mba
mbali
mbelela
mbeleli
mbelessi
mber
mbia
mbit
mboj
mbol
mbox
mbum
me
meca
mecanism
mech
mede
medeo
medesim
medi
media
mediator
medico
medievaj
medieval
medioevaj
medioeval
meditassion
mediterani
medzin
mefiboset
meglio
mei
meinage
meis
meisin
meison
mej
mel
mela
melanesian
melchisedech
melia
melide
melodi
mem
member
membranos
memo
memoria
memorial
memorie
men
mene
meni
meno
mensil
mension
mensiona
ment
mental
mentalita
mente
mento
menton
mentre
meo
meprisa
mepriso
mer
mera
merari
merca
mercant
mercato
merco
mercuri
merican
meridian
meridion
meridionaj
meridional
merita
merite
merito
meritri
merlo
mersi
mes
mesa
mesach
mesan
mesaneuit
mesdi
mese
mesi
mesnil
mesopotamia
messa
message
messagi
messer
messi
messia
messin
messo
meste
mesulam
meta
metafi
metaforico
metaj
metal
meter
metr
metri
metro
metropolitan
mette
mettere
meud
meuir
meuira
meuire
meuirera
meuireran
meuireras
meuirereve
meuiro
meur
meurthe
meusa
meuse
meusi
mezza
mezzo
mhnt
mi
mia
miami
mica
micaia
mich
michael
miche
michea
michel
michela
michelangelo
michele
michigan
micmas
micol
micologi
micronesian
mid
mida
midaja
middle
mide
midem
midema
mideme
midian
midianita
mie
miei
mien
mies
migra
migrant
migrassion
migrateur
miguel
mij
mija
mike
mil
mila
milan
milane
milanese
milano
milanta
mile
milen
miliar
miliard
milion
milissie
militar
milo
min
mina
minas
minca
mincadun
mincatant
mincaun
mine
mineraj
mines
mini
miniatura
minimo
ministe
minister
ministeri
ministr
mino
minor
minoransa
minusie
minuta
minute
minuti
mio
miola
mira
miraco
miracoj
miracolos
mire
miriam
mise
miseria
miserico
misericordia
misericordios
miserie
mispa
mission
missionari
mississippi
missouri
mista
misteri
misterios
misteriosa
mistral
misura
misure
mit
mita
mitologi
miwok
miwokan
mixe
mixtec
mixtecan
mje
mm
mma
mme
mmi
mmia
mmie
mmo
mna
mnaje
mnala
mnalo
mname
mnand
mnassa
mnasse
mnasso
mnava
mnavo
mne
mneje
mnelo
mnera
mnerai
mnestra
mni
mnis
mnong
mnor
mnu
mo
moab
moabita
mobilia
mobilita
mod
moda
mode
modej
model
modera
modern
moderna
moderne
modernita
modest
modesta
modi
modifica
modifiche
modla
modo
mofa
mofe
moglie
moi
moja
moje
mojen
mojiss
mokole
mol
mola
moldavia
mole
molise
molte
molti
moltiplica
molto
moluche
moment
momenti
momento
mon
mona
monarchi
monaste
moncale
mond
mondadori
monde
mondiaj
mondial
mondo
mondovi
mondrian
mondvi
mone
moneda
monede
monet
monferrato
monfra
monfrin
monge
mongo
monia
monie
monio
mono
monregale
mons
monsne
monssu
monsu
mont
monta
montagna
montagne
montagnin
montaje
montalbano
montalto
montan
montand
montant
montava
montavo
monte
monteleone
montera
monti
montigny
montne
monto
montre
montreuil
montsoreau
monument
monumental
monza
moore
mor
mora
moraj
moral
moran
morandi
morbihan
morbleu
morchella
more
morfism
morgan
morgari
mori
morian
morire
morissi
moro
moros
morosa
mort
mortaj
mortal
morte
mortifica
morto
mos
mosa
mosambich
mosca
mosche
moschin
mose
mosela
moselamoselle
moselle
moser
most
mosta
mostr
mostra
mostraje
mostrame
mostrand
mostrane
mostrasse
mostrava
mostrave
mostravo
mostre
mostreje
mostrera
mostrerai
mostreran
mostresse
mostro
motacilla
motiv
motivassion
moto
motoben
motobin
moton
motor
motta
mottura
motura
mountain
moviment
movimento
mp
mpe
mper
mpi
mpia
mpich
mpie
mpini
mpit
mplica
mportant
mportanta
mpre
mpur
mpura
mrg
mrs
msterdam
mt
mu
muda
mudaja
mudasse
mugg
mugil
muj
mul
mula
mulin
muline
multiplicassion
munda
municipal
munissi
munissipal
munissipalita
munissipi
munt
mur
mura
murador
muraja
muraje
murajon
murcia
mure
muri
muro
murut
mus
musa
muse
museo
museum
music
musica
musicaj
musical
musicalbrande
musicista
muskogean
muso
musso
mussolini
mussulman
mut
muta
mute
my
myanmar
mycena
mzura
mzurassion
mzurava
mzure
n
na
nabal
nabo
nabucodenesar
nabucodone
naca
nacas
nache
nacional
naco
nacor
nad
nada
nadab
naga
nahor
nahuatl
naje
nama
naman
namibia
namora
nan
nana
napoleo
napoleon
napoli
nariss
narl
naro
narrow
narrows
nas
nasaret
nasce
nasista
naso
nass
nasse
nassensa
nassi
nassion
nassionaj
nassional
nassionalista
nassita
nasso
nassu
nassuje
nata
natal
natale
natan
natania
national
nativ
native
nativita
nato
natura
naturaj
natural
naturale
naturalment
nav
nava
nave
navigassion
nazionale
nca
ncamin
ncamina
ncaminasse
ncaminava
nch
ncher
ncheuj
ncia
nco
ncontra
ncor
ncora
nd
nda
ndard
ndare
ndasi
nde
ndeje
nder
ndes
ndi
ndica
ndich
ndisi
ndita
ndite
ndje
ndlo
ndoa
ndol
ndola
ndole
ndoma
ndone
ndova
ndra
ndran
ndre
ndria
ndrica
ndrinta
ndu
ndurmi
ne
nea
neanche
nebat
nebia
nebieul
nebo
necessa
necessari
necessaria
necessarie
necessita
nech
neckar
neemi
neemia
neftali
nega
negassion
negativ
negativa
negative
neghe
negheb
neghev
nego
negreira
neh
nei
nein
neir
neira
neirastr
nel
nell
nella
nelle
nello
nelson
nemi
nemis
nemise
nen
neno
neo
neolatin
neoli
nepal
neq
ner
nera
nere
neri
nero
neron
nerv
nervos
nes
nesi
nessuno
nesta
net
neta
netanel
netia
netiesse
neto
netofa
netun
neuilly
neuit
neuja
neustadt
neutral
neuv
neuva
neuvao
neuve
neuville
neuvsent
neva
neve
new
newton
ng
nga
ngbaka
ngej
ngel
ngero
ngh
ngher
ngo
ngoj
ngol
ngole
ni
nia
nica
nicaragua
niccolo
nice
nich
niche
nick
nico
nicola
nicolas
nicolo
nid
nie
niente
niger
nigeria
night
nigra
nil
nilla
nilo
nim
nima
nimbari
nime
nin
nina
nineta
ninive
ninka
nino
ninso
nio
nipote
nis
niss
nissa
nistan
nit
nita
niv
nivola
nivole
nl
nn
nna
nne
nner
no
noa
noara
noare
nobel
nobiliar
nobilta
noble
nodar
noe
noemi
noi
noia
noj
noja
nola
nom
noma
nomach
nombrila
nome
nomea
nomi
nomina
nominalo
nominativ
nomine
nompa
non
nonno
nonsia
nopa
norberto
nord
norma
normaj
normal
normalment
norman
normandi
north
norvege
norvegia
nos
nosera
nosgnor
nosgnorcfr
nosgnoro
nossensa
nossent
nossion
nost
nostalgi
nostr
nostra
nostran
nostre
nostri
nostro
not
nota
notaman
notario
notassion
note
notissia
notissie
noto
notoma
notomi
notre
notte
nous
nov
nova
novalesa
novanta
novara
nove
novel
novela
november
novita
novo
novod
novoda
now
ns
nsa
nscrit
nse
nsem
nsema
nsi
nsia
nsie
nsima
nsoj
nsol
nt
nta
ntant
nte
nter
ntesi
ntica
ntich
ntiche
ntlora
nto
ntoa
ntomba
ntorn
ntra
ntura
nu
nua
nuansa
nuanse
nuclear
nudita
nui
nul
nulla
num
nume
numer
numera
numerassion
numeri
numero
numeros
numerosa
numerose
nun
nunavut
nunsi
nunsia
nunsiava
nunsiave
nunsie
nunsio
nunusaku
nuova
nuove
nuovi
nuovo
nus
nvece
nvers
nvoca
nyo
nyungan
o
oaxaca
obadia
obed
obergi
oberpfalz
obietiv
oblassion
obliga
obligato
oc
ocasion
occasione
occhi
occhio
oce
ocean
oche
ocident
ocidental
ocita
ocra
ocupa
ocupasse
ocupassion
ocupavo
ocupe
ocupesse
od
odon
odor
oe
oenanthe
of
ofe
ofend
ofende
ofendu
oferta
oferte
off
officinalis
ofissiaj
ofissial
oge
oget
oggetto
oggi
ogh
ogni
ognidun
oh
ohio
oi
ois
oise
ojibwa
ol
ola
olanda
olande
old
ole
oli
oliastra
oligoporus
oliva
olivastr
olive
olivero
oloca
oloch
oltra
oltralp
oltrapadan
oltre
om
oma
omagi
ombra
ombre
ome
omega
omne
omo
omphalina
omri
on
ona
onda
onde
ondes
ondula
one
onest
onesta
onge
ongia
ono
onor
onora
onore
onorevol
ons
onsion
onta
ontario
onz
onzu
op
ope
open
opera
operassion
operator
opere
opinion
opo
opon
oposission
oppure
opression
opura
opurament
or
ora
oral
oramai
orari
oraria
orassion
orato
orbassan
orchestra
orcin
ordes
ordin
ordina
ordinaje
ordinament
ordinanse
ordinari
ordinaria
ordinassion
ordinator
ordine
ore
oreb
oregon
oreste
orfanin
org
orga
organisa
organisassion
organise
organism
organiso
orgheuj
orgojos
ori
orie
orient
orienta
orientaj
oriental
origin
origina
originaj
original
originari
originaria
origine
origini
orija
orije
orion
orisont
orisontal
orissi
oristan
oriya
orlando
orle
orleans
orlo
orm
ormai
orna
ornament
orne
ornitologi
oro
oror
ors
orta
ortenaukreis
ortigueira
ortodo
orton
os
osana
oscar
osce
ose
osea
osej
osel
oslin
ospidal
ospissi
ospita
ospitalita
oss
ossea
osseania
osserva
osservansa
osservassion
osservator
osserve
osservereve
ossi
ossia
ossident
ossidentaj
ossidental
ossitan
ost
osta
ostagi
ostilita
ostina
ot
ota
otanta
otavian
oten
oth
other
oti
otidea
otni
otniel
otnoma
otnu
oto
otober
otogn
otoman
otomi
oton
otonn
otr
otra
otre
otri
ottawa
otto
ou
ouen
oulx
out
ova
ovaj
ovest
ovrie
ovriera
ovriere
ovvero
oxford
p
pa
pace
pache
paci
paco
pacotto
padan
padre
padron
paesagi
paese
pag
paga
pagament
pagan
pagand
pagane
pagano
page
paghe
paghera
pagina
pagine
paglia
pago
pai
paio
paira
pais
paisage
paisagi
paisan
paiso
paj
paja
paje
pakistan
pala
palas
palass
palatin
palaungic
palazzo
palch
pale
palei
paleo
paleoli
palerm
palestin
palio
palma
palme
paloch
palto
palu
pama
paman
pamona
pan
panama
panate
pancia
panco
panda
pane
panej
pani
pann
panoan
panorama
pansa
pansaru
pantar
pao
paola
paoli
paolin
paolo
papa
pape
papir
papua
papuan
par
para
paradis
parado
paragon
paragona
paraguay
paralej
paralel
paralela
paralele
paralelism
parali
paralisa
paran
parassita
parch
parche
parco
pare
parei
parej
parent
parentela
pari
parija
parin
paris
park
parla
parlada
parlade
parlaje
parlame
parlament
parlamentar
parland
parlane
parlant
parlare
parlata
parlate
parlava
parlave
parlavo
parle
parleje
parlene
parlera
parlerai
parleran
parleroma
parlete
parlje
parlo
parloma
parma
parmesan
paro
parochial
parola
parole
parpajo
parpajon
parpe
parsial
part
partagia
parte
partecipassion
partend
partensa
partessipa
parti
partial
participio
particolar
particolare
particolarita
particular
partigian
partisan
partiss
partissela
partissele
partission
partissipa
partissipi
partitiv
parto
partori
partorije
parus
pas
pasa
pasca
pascal
pascoli
pasero
pashayi
pasi
pasia
pasiasse
pasie
paso
pasqua
pasquale
pass
passa
passage
passagi
passaje
passand
passant
passare
passaro
passato
passava
passavo
passe
passeje
passera
passeran
passi
passiensa
passient
passion
passiona
passito
passiv
passo
passoma
passra
past
pasta
pastiss
pastor
pastoral
pastore
pastura
pasturagi
pasture
pat
patanu
patate
pate
patela
pater
pati
patiment
patiss
patisso
patria
patriarca
patrimo
patrio
patrissi
patrizia
patron
pau
paul
pauli
paulin
paulo
paura
pautass
pautasso
pavajon
pave
pavese
pavi
paviment
pavon
pcit
pcita
pcite
pdf
pe
peano
peca
pecach
pecador
pecator
peccato
pechin
peck
pedago
pedagogi
pedro
peil
peilos
peilosa
peilose
peis
peisa
peisava
peise
pej
pel
pelegrin
pelerin
pelerinagi
peli
pelle
pen
pena
pend
pende
pendent
pendi
pendo
pendu
pene
peni
pennacchione
pennsylvania
pensa
pensaje
pensand
pensare
pensava
pensavo
pense
penseje
penses
pensesse
penseve
pensiero
pension
penso
pensoma
pentate
penti
pentiment
pentisse
pento
penutian
peor
per
pera
perche
perd
perda
perde
perdere
perdission
perdo
perdon
perdra
perdse
perdu
perdusse
pere
peres
perfet
peri
pericolos
pericolosa
perife
perio
period
perisita
perla
perle
permanent
perme
pero
peroborgh
perosa
perpendicolar
perrault
pers
persi
persia
persian
persino
person
persona
personagi
personal
personalita
persone
persoon
pertanto
peru
perugia
pervers
pes
pesant
pesante
pescara
pess
pesse
pessita
pest
pestilensa
peter
petission
petit
petite
petorin
petro
petronilla
peu
peuda
peude
peudes
peudo
peudra
peudri
peui
peuj
peul
peula
peule
peulo
peur
peus
peuss
peussa
peusse
peusso
peziza
pezzo
pg
phellinus
philip
philippe
pholiota
phylloscopus
phylum
pi
pia
piace
piacere
piaga
piaget
piaghe
pian
piana
piane
pianeta
pianin
pianista
piano
pianta
piante
pianto
pianton
pianura
pianure
pias
piasa
piase
piasensa
piasentin
piasi
piaso
piasos
piasosa
piasri
piassa
piasse
piasuje
piat
piatto
piave
piazza
pica
picardi
piccola
piccoli
piccolo
pice
picea
pich
piche
picol
pid
pidgin
pie
piede
piedi
piega
pieghe
piel
piem
piemont
piemonte
piemonteis
piemonteisa
piemontese
piemontesi
pien
piena
piene
pieno
pier
piero
pierre
pieta
pietra
pietracqua
pietro
pieuv
pieuva
pieuve
piev
pieve
pignatelli
pigne
pihom
pij
pija
pijait
pijaje
pijala
pijalo
pijame
pijand
pijane
pijasse
pijate
pijava
pijavo
pije
pijeje
pijela
pijelo
pijeme
pijene
pijera
pijerai
pijeran
pijess
pijesse
pijete
pijeve
pijo
pijoma
pijte
pila
pilastr
pilie
pilo
pilon
pin
pina
pinareul
pine
pinereul
pinin
pink
pino
pinuccia
pinus
pio
pioggia
piole
piomb
pionie
pior
piora
piorand
piorava
pioravo
piore
pioro
pipa
pipart
pipi
pipin
pipino
pira
pirche
pirene
piro
pisa
pisano
pissacan
pisse
pista
piste
pistin
pisto
pit
pita
pitago
pito
pitor
pitura
piture
piu
piuma
piume
piuttosto
pizzo
pl
pla
placa
place
plache
plafon
plain
plains
plan
plance
plancia
plandron
plateau
plato
platon
play
ple
plenta
plente
plessis
pleuja
pleurotus
plica
pliche
plico
plisse
plotdata
pluch
pluraj
plural
plurale
plus
pms
png
po
poboacio
poca
poch
poche
pochi
pocio
poco
pod
pode
podej
poderos
poderose
podesta
podi
podoma
podra
podrai
podran
podras
podreve
podri
podria
podrie
podries
podrio
podroma
podu
poduje
podulo
podusse
poe
poema
poer
poesi
poesia
poesie
poeta
poete
poeti
poetica
poggio
pogia
pogieul
poi
poincare
point
poirin
poirino
poitou
poj
pol
pola
polar
polastr
pole
polenta
poli
polid
polida
polide
polinesian
polino
polissi
polite
politica
politich
polmon
polo
polone
pols
poltron
polynesian
polyporus
pom
pomgrana
pomo
pompa
pon
ponent
pongo
pont
ponta
ponte
ponteareas
pontel
pontevedra
pontin
pontina
ponto
pontu
pop
popoj
popol
popola
popolar
popolare
popolari
popolarita
popolassion
popolo
popoloca
popolocan
populassion
populus
por
pordenon
poro
porpra
porsion
port
porta
portaj
portaje
portal
portala
portalo
portame
portament
portand
portane
portare
portass
portasse
portate
portava
portave
portavo
porte
porteje
portela
portelo
porteme
portene
portent
portera
porterai
porteran
portesse
porteur
porteve
portie
portiera
portieri
porto
portoma
porton
portra
portrai
portugal
portughe
pos
posa
pose
posission
positiv
positiva
poss
possa
possand
posse
possediment
possedu
possess
possessiv
possi
possibil
possibile
possibilita
posso
posson
possono
post
posta
postal
posterior
posterita
posto
postula
potensa
potense
potensial
potent
potenta
potente
poter
potou
potrebbe
pour
pouzar
pover
povera
povero
poverta
povros
povrosa
pozzo
pp
ppa
ppingen
pr
pra
praga
pragela
prairie
prassa
pratica
praticant
pratiche
prato
pre
prece
precedensa
precedent
precedente
precet
precia
precis
precisa
precise
precision
precursor
predecessor
predica
predicassion
predicator
predicava
prediche
predission
prefassion
preferensa
preferi
preferiss
preferisso
prefet
prega
pregand
pregava
preghe
preghiera
preghiere
pregiudissi
prego
pregoma
preisto
preive
preme
premi
premia
premier
prende
prendere
preo
prep
prepara
preparassion
prepare
preposission
prepotensa
prepotent
pres
presa
presagi
prescrission
prese
presensa
present
presenta
presentaje
presentasse
presentassion
presente
presentereve
presentesse
presenteve
presento
presenza
presepi
presepio
preserva
presidensa
president
preso
press
pressa
pressasse
pressi
pressidensa
pressidensiaj
pressident
pression
pressios
pressiosa
pressiose
prest
prestassion
prestis
presto
presunsion
presupon
prete
pretend
pretende
pretendi
pretendo
pretest
preto
preus
preuva
preuve
preuvo
prevale
prevalensa
preve
prevision
prevo
prezzo
pri
prim
prima
primalba
primari
primassi
primavera
prime
primge
primi
primissie
primitiv
primitiva
primna
primo
prince
princeton
principe
prinse
prinsi
prinsipa
prinsipaj
prinsipal
prinsipe
prinsipi
prio
prior
prisma
priva
privilegi
privilegia
privo
pro
proba
probabil
probabilita
probabilment
probabilmente
problema
procediment
process
procession
procission
proclama
proclame
procura
procure
prodis
prodo
prodot
prodov
prodovu
produssion
produtor
produv
produve
produvo
produvu
prof
profan
profana
profane
profe
professi
profession
professional
professionista
professor
professore
profeta
profete
profetisa
profetise
profetiso
profil
profilo
profit
profita
profitand
profond
profondita
profondo
profum
proge
proget
progeta
progetassion
progetista
programa
progress
proibi
proibission
projession
projetiva
prome
promossion
pron
prono
pronome
pronomi
prononsia
pront
pronta
prontaje
pronte
pronteje
prontesse
pronteve
pronto
pronuncia
pronunsia
pronunsie
propaganda
propi
propieta
propo
propon
proponu
proponuje
proporsion
proposission
propri
propria
proprie
proprieta
proprietari
proprio
prosa
prose
prosperita
prospetiva
prossimo
proste
prostituisse
prostitussion
prota
protagonista
protege
protegiu
protession
protesta
protestant
protetor
proto
prova
prove
provediment
provenc
provence
proveniensa
provensa
provensaj
provensal
proverbi
provianda
proviande
providensa
provincia
provinsa
provinse
proviso
provoca
provoche
prudensa
prudent
pruma
prunus
pruss
prusse
prussia
prussian
psi
psico
psicolo
psicologi
pt
pu
pubblico
public
publica
publicassion
publiche
pude
pudi
pudoma
pudri
puebla
pugin
puglia
pugn
pula
pulia
punan
punission
punk
punt
punta
punto
puo
pupa
pupe
pur
pura
pure
purifica
purificassion
purifiche
purim
purtro
pusse
puy
px
pz
q
qal
qe
qere
qu
qua
quacia
quad
quader
quadra
quadre
quai
quaich
quaiche
quaico
quaicosa
quaidun
quaj
quaja
quajco
quajdun
qual
quala
qualche
qualcosa
qualcuno
quale
quali
qualifica
qualita
qualonque
qualse
qualunque
quan
quand
quandi
quando
quant
quanta
quante
quanti
quantita
quanto
quarant
quaranta
quaranteut
quare
quart
quarta
quarte
quartie
quarto
quasi
quat
quata
quate
quatesse
quato
quatr
quatsent
quattro
que
quechua
quechuan
queen
quei
queico
queidun
queirazza
quejco
quejdun
quel
quella
quelle
quelli
quello
quentin
quercus
quest
questa
queste
questi
question
questo
qui
quichean
quichua
quid
quila
quindes
quindi
quint
quinta
quintin
quo
quod
r
ra
rab
raba
rabasta
rabasto
rabbi
rabbia
rabel
rabia
rabla
rabo
racab
raccolta
racconti
rachel
raco
racont
radialment
radiassion
radicaj
radical
radicanta
radio
radis
radun
raduna
radunansa
radunasse
rafa
rafael
raffaele
rafina
ragazza
ragg
ragione
ragna
ragusa
rai
rair
raisure
raj
raja
ram
rama
ramaria
ramassa
ramasse
rame
ramet
rami
ramifica
ramin
ramo
ramot
rampar
rampiassa
rampin
ramu
ran
ranca
ranche
rancherai
rancontra
randa
ranfo
ranforse
range
rangh
rangia
rangio
ranin
rano
ranto
ranve
rao
rapa
rape
rapin
rapo
rapresenta
rapresentant
rapresentassion
rapresente
rapresento
rara
rare
ras
rasa
rason
rasona
rasonament
rasone
rassa
rasse
rassion
rassionaj
rassional
rassionalista
raster
rat
rataplan
ratavolo
rattazzi
rault
rava
ravage
ravagi
ravagia
ravanin
rave
ravensburg
ray
raymond
rba
rbere
rbi
rbita
rbiter
rbo
rbol
rca
rcand
rcandin
rcansi
rcant
rcava
rcavo
rcc
rce
rcession
rch
rche
rchica
rchich
rchiel
rchila
rcia
rcit
rco
rcol
rcono
rcor
rcors
rd
rda
rdabon
rdane
rdastr
rdastra
rde
rdend
rdensa
rdense
rdent
rdes
rdi
rdia
rdie
rdin
rdission
rdita
rdite
rdje
rdme
rdo
rdoa
rdoma
rdon
rdona
rdone
rdossidentaj
rdovest
rdra
rdte
rdu
rduje
rdura
rdusse
re
rea
reaj
real
reale
realisa
realisassion
realise
realism
realita
realta
ream
reassion
rebeca
recab
recent
rechie
recita
recite
reclam
recob
records
red
redassion
redator
redension
redentor
ree
reed
regal
regalo
regensa
regi
regia
regim
regiment
regin
regina
regio
region
regionaj
regional
regionale
regione
regista
registr
registra
registrassion
regn
regna
regnava
regne
regnera
regno
regola
regolament
regolar
regole
rei
reis
rej
relassion
relativ
relativa
relative
relativita
religion
religios
religiosa
religiose
remigio
remission
remo
ren
rena
renato
rend
renda
rende
rendend
rendi
rendiment
rendje
rendme
rendne
rendo
rendoma
rendra
rendrai
rendran
rendse
rendu
renduje
rendume
rendune
rendusse
rendute
rene
renfrew
renzo
reopo
repart
repert
replica
replicaje
repression
repu
repubblica
republic
republica
republican
reputassion
res
resi
residensa
resident
resin
resior
resiste
resistensa
reso
respir
respire
responsa
responsabij
responsabilita
resse
ressi
rest
resta
restaie
restaje
restand
restane
restaura
restaurassion
restaure
restava
restavo
reste
restera
resteran
restitui
resto
restra
restran
reta
rete
reti
reto
retroguardia
reu
reuel
reusa
reuse
rev
reve
reverensial
reveri
revoca
rfe
rfession
rfet
rfeta
rfond
rfonda
rfonde
rfum
rfuma
rga
rgamasch
rgamin
rge
rgera
rghem
rgia
rgich
rgin
rgn
rgna
rgne
rgno
rgo
rgogna
rhein
rho
ri
ria
ribla
ric
rica
riccardo
ricco
rich
richard
riche
richi
rico
ricorda
ricordi
ricordo
ricors
ride
ridi
rido
rie
rientra
riesce
riess
riesse
riessi
riesso
riessu
rieti
rietveld
riferiment
riferimento
rifless
riflession
riflessiva
riforma
rifrassion
riga
rige
righe
right
rightarrow
rigor
rigorosa
rigorose
riguard
riguarda
riguardo
rij
rijada
rijand
rije
riji
rijo
ril
riliev
rima
rimanensa
rime
rimedi
rimon
rimpro
rimprocc
rina
rinfo
rinforsa
ring
ringrassia
ringrassiament
ringrassie
ringrassio
ringrassioma
ringret
rino
rintra
rintre
rio
riond
rionda
riorganisassion
riparassion
ripo
ris
riscat
riscata
riscate
riserva
riso
risorgiment
risorgimento
risparmia
rispe
rispet
rispeta
rispete
rispeto
rispo
rispond
risponde
risposta
rissolin
ristabili
risulta
rit
rita
rite
ritira
ritm
rito
ritorno
ritrat
rituaj
ritual
riuni
riunion
riunisse
riussi
riva
rivaie
rivaje
rivalita
rivand
rivane
rivass
rivava
rivavo
rive
riveje
river
rivera
rivere
rivers
rivie
rivista
rivo
rivolussion
rivolussionari
rivoma
rivra
rivran
rla
rle
rlenga
rliss
rlor
rluse
rlusenta
rlusi
rm
rma
rmania
rmasse
rmava
rmavo
rme
rmeme
rmenta
rmess
rmesse
rmet
rmete
rmetu
rmeve
rmi
rmin
rmina
rmo
rmol
rmola
rmoland
rmole
rmolo
rmutassion
rn
rna
rnaba
rnasse
rnassionaj
rnassional
rne
rnesse
rni
rnia
rnich
rnis
rno
rnominaj
rnonsia
rnu
ro
roa
roba
robarissi
robata
robate
robe
robert
roberto
roboam
robot
robust
rocca
rocco
roche
rochera
rochere
rock
rocos
rodeiro
rodri
roe
roger
rognon
roi
roj
rol
roland
role
rolon
roma
romagna
romagneul
romain
roman
romana
romani
romano
romans
romanz
romanza
romanze
rome
romen
romp
rompe
rompu
ron
rondolin
ronza
ronze
ros
rosa
rosari
rosario
rosastr
rosastra
rosastre
rose
rosmini
ross
rossa
rossastr
rossastra
rossastre
rosse
rossi
rossijon
rosso
rot
rota
rotassion
rote
roussillon
route
rovere
rovigh
rovin
rovina
royal
rp
rpa
rpare
rparej
rpe
rpetua
rpetuo
rpiasi
rpo
rpora
rpra
rpreta
rpretassion
rprete
rque
rra
rs
rsa
rsach
rsaj
rsava
rse
rsecussion
rseguita
rseivra
rseivran
rsent
rsenta
rsera
rseran
rsession
rseveransa
rsi
rsica
rsin
rsion
rsle
rso
rson
rsona
rsonage
rsonagi
rsonaj
rsonal
rsonalita
rsone
rsu
rsuas
rsussita
rt
rta
rtant
rtcfr
rte
rtes
rti
rtich
rtie
rtir
rtje
rto
rtoja
rtorne
rttemberg
rtus
rtut
ru
ruben
rubenita
rubus
rudi
rudie
rudolf
rugby
ruin
ruina
ruma
rumantsch
rumen
rumor
rupi
ruraj
rural
rusa
rusca
ruse
rusia
rusnent
ruso
russ
russa
russe
russell
russi
russia
russian
russula
rusti
rut
rutherford
ruva
ruvaje
ruvava
ruve
ruvin
ruvina
rva
rvaj
rvaja
rvaje
rval
rvan
rve
rvela
rven
rvension
rvent
rvers
rversa
rversita
rvi
rvissi
rvitor
rvor
ry
ryvarden
rz
rza
rze
rzent
rzin
rzo
rzon
rzona
rzone
rzonera
rzoni
s
sa
saami
saas
saba
sabah
sabia
sabina
sabino
sabios
sacari
sacaria
sacc
sacco
sacerdo
sacerdot
sacerdotaj
sacerdotal
sacerdote
sach
sache
saco
sacocin
sacr
sacra
sacrament
sacre
sacrifica
sacrifiche
sacrifissi
sadoch
sadrach
saduce
safan
safat
saggio
sagi
sagna
sagra
sagrin
sagrina
sagrinesse
sagrinte
sah
sahara
saharawi
saharian
sai
saint
sainte
saje
sal
sala
salacad
salada
salam
salari
salass
sale
salern
sales
salish
salishan
salix
salm
salmista
salmon
salo
salomon
salon
salteri
salto
salu
salum
salusse
salussi
salut
saluta
salute
saluto
salv
salva
salvador
salvame
salvane
salvasse
salvassion
salvaterra
salvator
salvatore
salve
salveje
salvene
salvera
salverai
salvesse
salveve
salvo
sam
sama
samari
samaria
samaritan
sambla
samo
samsung
samuel
san
sanda
sandro
sangagg
sangh
sangiut
sangon
sanita
sankt
sannio
sannita
sano
sanremo
sans
sanson
sant
santa
sante
santi
santiago
santifica
santiso
santissim
santita
santo
santos
santuari
sao
sapa
sape
sapere
sapia
sapie
sapiensa
sapin
sapio
sar
sara
sarai
sarament
saran
saras
sarasin
sarasse
sarawak
sarawakan
sarca
sard
sarde
sardegna
sare
sarebbe
saret
sareve
sari
saria
saro
saroma
sarthe
sarto
sartor
sarvaj
sarvaje
sarze
sas
saskatchewan
sassin
sassina
sasso
sasson
sastr
satana
sate
sati
saul
sauta
sautaje
sautand
saute
sauveur
sava
savant
save
savej
savend
savi
savia
savian
savie
savio
savo
savoia
savojard
savoma
savon
savor
savra
savran
savras
savreve
savri
savu
savulo
sba
sbalia
sbalie
sbandi
sbara
sbarca
sbardla
sbaruv
sbaruva
sbaruvasse
sbaruve
sbaruveve
sbassa
sbat
sbate
sbatu
sbaucia
sbe
sbefia
sbefie
sbefios
sbela
sbergiaira
sbija
sbla
sble
sblera
sblerai
sbo
sboch
sbogia
sboss
sburdi
sburdiment
sc
sca
scador
scagn
scaje
scajos
scajosa
scala
scalar
scale
scalin
scambi
scambia
scampa
scampe
scanala
scancela
scancele
scandalisa
scandi
scandinavia
scapa
scapaje
scapava
scape
scapo
scaria
scarlat
scarlata
scarpa
scarpe
scarpisa
scarpon
scars
scarsa
scarta
scartari
scarte
scasi
scassa
scasse
scata
scauda
scaude
scaudesse
scava
scena
sch
schaeff
schaffhausen
sche
schema
schergna
schergne
schers
scheuj
scheur
scheurve
scheuvre
schi
schin
schivia
schivie
scho
school
schro
schu
schwa
schwyz
scienza
scio
sclama
sclin
sclint
sclinta
sco
scoata
scobi
scoerta
scoj
scola
scole
scoli
scolorant
scoltura
scolture
scome
scond
sconda
scondion
sconossu
sconsola
scontr
scontra
scontrasse
scontre
scop
scor
scoragia
score
scori
scorpion
scors
scosse
scota
scotaje
scotalo
scotame
scotand
scotava
scotavo
scote
scoteje
scotelo
scoteme
scotin
scotme
scoto
scotoma
scotra
scotran
scott
scova
scri
scriba
scrission
scrit
scrita
scrite
scritor
scritris
scritti
scritto
scritura
scriture
scriv
scrivan
scrivania
scrive
scrivere
scrivi
scrivia
scrivje
scrivlo
scrivo
scrivoma
scrivse
scrivu
scrivuje
scru
scu
scude
scudie
scultor
scuola
scur
scura
scure
scuri
scurita
scurpi
scursa
scurvi
scusa
scuse
scuseme
scussion
scute
scuvert
scuverta
sdasse
se
sea
seattle
seba
sebastian
sebastiano
sec
secession
sech
secoj
secol
secolar
secoli
secolo
second
seconda
secondo
seda
sede
sedechi
sedechia
sedere
sedussion
see
sefatia
sefer
segg
seghita
segment
segn
segna
segnal
segni
segno
segre
segret
segreta
segretari
segreto
segue
segui
seguita
seguitand
seguitava
seguitavo
seguite
seguito
seguitoma
seguo
sei
seignor
seine
seinsa
seir
seira
sej
sek
sel
sela
sele
selebra
selebrassion
selebre
selession
selt
sem
sema
semaia
sembra
semes
semi
seminari
semp
sempe
semper
sempi
sempia
sempie
semplice
semplicita
sempre
sen
sena
senacherib
senari
senator
sene
senegal
seno
senoufo
sens
sensa
sensassion
sensi
sensibilita
senso
senssa
sent
senta
sente
senten
sentend
sentensa
sentense
senter
senti
sentilo
sentiment
sentinela
sentinele
sentira
sentiran
sentireve
sentisse
sento
sentoma
sentor
sentr
sentra
sentrafrican
sentraj
sentral
sentro
sentse
sentu
sentulo
senturion
sentusse
senza
separa
separasse
separassion
separe
sepik
sepolcr
sepoltura
sequensa
sequense
ser
sera
serafin
seraia
seram
serbia
serca
sercand
sercava
sercavo
sercc
serche
serchelo
serco
sercoma
sere
seren
serenita
sereno
sergi
sergin
sergio
seri
seria
serie
serio
serior
serios
sermon
sern
serne
serni
sernia
sernu
serp
serpent
serra
sert
serta
serte
serv
serva
servaj
servaja
servaje
serve
servel
servent
serventa
servente
servi
service
servidor
servije
servilo
servira
serviran
servisse
servissi
servitor
servitu
servizio
servo
ses
sesi
sesia
sess
sessant
sessanta
sessent
session
sessuaj
sessual
sest
sesta
sesto
set
seta
setasse
sete
setentrion
setentrionaj
setentrional
setesse
seth
seto
setor
setos
setosa
setsent
sette
settecento
seu
seufr
seufre
seugn
seugna
seugno
seuja
seul
seuli
seulia
seur
seure
seurt
seurta
seurte
seurti
seurtira
seurtiran
seurto
sev
seve
sevene
sever
severino
sf
sfa
sfacia
sfe
sfend
sfende
sfera
sfida
sfide
sfini
sfo
sfodra
sfond
sfondo
sfortuna
sforza
sfrisa
sfro
sfruta
sfrutament
sfrute
sg
sga
sgagia
sgaira
sgaire
sgav
sgena
sghe
sgheire
sghija
sghije
sgia
sgiaflon
sgiaj
sgnaca
sgnache
sgnor
sgnora
sgnore
sgnori
sgnoro
sgo
sgoard
sgond
sgonda
sgorza
sgrassia
sgrassie
sgropa
sguard
sguarda
sguardo
sgust
sha
shi
shift
si
sia
siacaj
siacal
siala
siamo
sic
sica
sich
siche
sichem
sicilia
sicilian
sicl
sico
sicoma
sicome
sicon
sicur
sicura
sicure
sicuro
side
sidon
sie
sien
siensa
siense
siensia
sienti
sierra
sigilin
sigma
sign
signa
signi
significa
significassion
significativ
significato
significhe
signor
signora
signore
sigur
sigura
sigure
sij
sija
sil
sila
silensi
silensio
silensios
silenzio
silgran
sili
sillaba
silleda
silo
silvio
sim
sima
simbo
simbol
sime
simei
simeon
simetri
simile
simiteri
simo
simon
simone
simpa
simpati
sin
sinago
sinai
sincer
sincera
sincerita
sinch
sinchsent
sindaca
sindaco
sindich
sine
sinedri
sing
singer
singh
singolar
singolare
singular
sinistra
sino
sinquant
sinquanta
sinquanten
sinta
sintassi
sintura
sio
siola
sion
siouan
sir
sira
siracusa
sirca
sircolar
sirconcis
sirconcision
sirconda
sircondari
sirconferensa
siren
siri
siria
sirian
sirimo
siro
sisara
sisla
sistem
sistema
sistemassion
sisterna
sit
sita
sitadela
sitadin
sitadinansa
sitassion
site
sitron
situa
situassion
situazione
sivalie
sivera
sivi
sivij
sivil
sivila
sivilisassion
sivilta
sj
sje
sk
skeletocutis
sl
sla
slans
slansa
slarga
slargament
slargava
slarghe
slargo
slave
sle
sliss
slo
slonga
slonghe
slongo
slontan
slontana
slontanasse
slontane
slontanesse
slontaneve
slovachia
sloven
slovenia
sm
smaja
sman
smaravija
smaravije
sme
smens
smentia
smentiasse
smentie
smentiesse
smentio
smi
smia
smija
smijaje
smijame
smijansa
smijava
smijavo
smije
smijera
smijeri
smijo
smisura
smith
smo
smon
smoni
smonje
smonra
smonran
smonreve
smonu
smonuje
smonusse
smore
sn
sna
sne
snia
snista
snistr
snistra
sno
so
soa
soagna
soagne
soasi
soastr
soceta
socia
sociaj
social
socialista
societa
society
socio
soco
socors
socrola
sode
sodisfa
sodisfassion
sodisfe
soe
soen
soens
sof
sofa
soferensa
sofi
sofia
sofie
sofista
software
soge
sogession
soget
sogeta
sogetasse
sogetesse
sogeteve
sogeto
soggetto
sogiorn
sogno
soi
soj
sol
sola
solament
solar
solari
sold
solda
soldati
soldi
sole
solengh
soleva
solevassion
soli
solista
solitari
solito
solo
solomo
solomon
solomons
solothurn
soltanto
solussion
som
soma
somalia
somari
sombr
sombra
sombre
some
somme
son
sona
sonador
sonava
sonavo
sonda
sondri
sone
sonet
song
sonno
sono
sonora
sopata
sopate
sopo
soporta
soporte
sopra
soprattutto
sor
sora
sorbon
sorch
sorda
sorela
sorella
sorfo
sorgiss
soria
soris
sorpassa
sorpasse
sorpre
sors
sorta
sorti
sospe
sospet
sospir
sospira
sossi
sossiaj
sossial
sossialista
sossieta
sost
sosta
sostansa
sostanse
sostantiv
sostegn
sosten
sostitui
sostitussion
sostni
sostnidor
sostnu
sot
sota
sotgrup
sotme
sotmission
sotra
sotralo
sotre
sotsigna
sotto
sotvos
sound
source
sous
south
sovens
sovente
sovie
sovran
sovranita
sp
spa
spagna
spagneuj
spagneul
spagneula
spagneule
spala
spale
spali
spalia
spalie
spantia
spantiament
spantiasse
spantiava
spantie
spantiesse
spantio
spara
spare
spari
sparira
spariran
spariss
sparisso
sparm
sparti
spartiss
spartission
spass
spasse
spassi
spassia
spassial
spatara
spatuss
spavent
spaventa
spe
specc
spece
speci
specia
speciaj
special
specialisa
specialista
specialita
specialment
specie
speculassion
spedi
spedission
spende
spera
sperand
speransa
speranse
sperassion
sperava
sperdu
spere
sperimentaj
sperimental
spero
speroma
spers
spess
spessi
spessia
spessiari
spessie
spesso
spessor
spet
speta
spetand
spetava
spetavo
spete
speto
spetoma
speuje
spi
spiana
spias
spiasi
spiega
spiegaje
spiegassion
spieghe
spiego
spign
spin
spine
spion
spira
spirit
spirito
spirituaj
spiritual
spit
spita
spite
spiuvent
splendor
splendri
splendrient
splendrior
splendriss
splin
splu
splufri
spo
spoja
spoleto
spond
sponda
sponde
spondensa
spondi
spondje
spondo
spondra
spondrai
spondu
sponduje
spondume
sponta
sponte
spopola
sportiv
sportiva
sportive
sporzu
spos
sposa
spose
sposta
spostament
sposte
spresi
spresia
spresie
spress
spressi
spressia
spron
spussa
sqrt
squadra
squadre
squamos
squase
squasi
squata
squisi
sr
srangia
sreisa
sri
srola
ss
ssa
ssage
ssagi
ssal
ssao
ssari
ssasse
sse
ssendent
sser
ssera
ssere
ssi
ssia
ssica
ssich
ssiche
ssie
ssij
ssil
ssim
ssima
ssion
ssior
ssipa
ssita
ssite
ssje
sso
ssola
sson
ssona
ssone
ssor
ssu
st
sta
stabi
stabili
stabiliment
stabilirai
stabiliss
stabilisse
stabilisso
stabilita
staca
stache
stadi
staga
stagh
staghe
stagion
stagn
stago
stai
staie
stait
staita
staite
staje
stala
stale
stamatin
stame
stamp
stampa
stampe
stan
standard
stane
stanghe
stansa
stansia
stansie
stant
stanta
star
stara
starai
staran
staras
stare
stareve
stari
start
stas
stasi
stason
stass
stasse
stassion
stat
stata
statal
state
stati
stato
statu
statua
statue
statura
statut
statuto
stava
stavo
ste
stefan
stefano
steie
steila
steje
stella
steme
stemma
stend
stende
stendi
stendu
stene
stentrional
steo
stephen
ster
stera
stercorarius
stere
sterma
stermina
stermini
sterni
stess
stessa
stesse
stesso
steve
stevo
sti
stia
stibi
stica
stich
stiche
stie
stij
stijl
stil
stima
stime
stin
stipendi
stirp
stiss
stissa
stisse
stisso
stit
sto
stocarda
stoco
stofi
stoj
stol
stoma
stone
stop
stopa
storia
storico
storie
storna
storne
story
stossi
str
stra
straca
strach
strache
strachita
strada
strade
stragro
strange
strangera
strano
stranoma
straordinari
straordinaria
strasborgh
strasordinari
strasordinaria
strass
strat
strate
strategi
strave
stravira
stravis
stravisa
stravise
stre
street
strega
stremita
strenz
strenze
strenzu
stri
stria
striola
stro
strof
strompa
stron
strop
strovu
stru
struassion
strument
strussion
strutura
struture
struve
struvu
stu
student
studi
studia
studiand
studiava
studie
studio
studios
stupi
stupid
stupido
stupinis
stura
su
sua
sub
subalpin
subalpini
subi
subia
subie
subiss
subit
subito
subphylum
subseteq
suce
suced
sucedu
suceduje
sucess
sucession
sucessiv
sucessor
such
suche
suco
sud
suda
sudan
sudor
sue
sufiss
sugeri
sugeriment
sugeriss
sugeta
sugne
sui
suillus
suitin
sul
sulawesi
sull
sulla
sulle
sulpice
sum
sumatra
sun
suo
suoi
suona
suono
supa
super
supera
superbia
superga
superior
superiore
superlativ
superstission
supin
suplica
supliche
suplico
suplissi
supo
supon
sur
sura
surbi
surfassa
surfasse
suriname
surpre
surti
surtia
surtije
surtira
survivu
sus
susa
susanna
sust
susta
suste
sutij
sutil
sutila
sutile
suva
suve
sv
svani
svanta
svari
svaria
svass
sve
svede
svergne
svers
sversa
svessia
svg
svi
svicc
svij
svija
svijasse
svije
svijte
svilup
svilupa
svissera
svlup
svlupa
svlupasse
svlupe
swahili
sydney
sylvia
sz
t
ta
tabach
tabachin
tabe
taberna
tabernacol
tablo
taboj
tabor
taca
tach
tache
tachiss
taco
tacon
tagliamento
tagliare
tagna
tai
taiwan
taj
taja
tajaje
taje
tajesse
tajiss
tajo
tal
tale
talent
talment
talvolta
tam
tamar
tambusse
tamil
tampa
tampe
tan
tana
tane
tang
tangsudo
tani
tanme
tano
tansantan
tansipo
tant
tanta
tante
tanti
tanto
tanzani
tanzania
tapa
tapara
tapare
tape
tapiss
taragne
tarahumara
taramo
tard
tarda
tarde
tardi
tardiv
tariku
tarn
taro
tarocco
tarsis
tas
tase
tasta
tastadura
taste
tastera
tat
tau
taula
taule
taulin
taupota
taurin
tavan
tavio
tavo
taylor
tbal
te
tea
teatraj
teatral
teatro
teau
teauneuf
tecnica
tecnico
tecnolo
tecnologi
tecoa
tede
tedesca
tedesch
tedra
teke
tel
tele
telefona
telefono
telesco
television
tema
teman
temp
temperadura
temperadure
tempesta
tempi
tempio
templ
temple
templi
tempo
temporal
tempra
ten
tend
tenda
tende
tendensa
tendense
tendu
tenent
tenere
teni
tense
tension
tenta
tentassion
tentativ
tente
tenu
tenusse
tenzu
teo
teodo
teolo
teologi
teorema
teori
teoria
ter
tera
teraneuva
tercarta
tere
teren
teresa
terestr
teri
terito
teritori
teritorial
terme
termin
termina
terminassion
termine
termini
termo
termodina
terni
teror
terra
terre
terreno
ters
tersa
terza
tes
tesi
tesin
tesio
teso
tessalo
tessalonice
test
testa
testament
teste
testi
testimo
testimoni
testimonia
testimoniansa
testimonianse
testimonie
testo
teston
tet
texas
text
tg
th
thai
thailandia
tharu
that
the
their
theory
there
therese
theta
this
thomas
thompson
thomson
three
threl
thumb
thumbnail
ti
tia
tiberi
tibetan
tibetic
tibeto
tic
tica
tich
tiche
tico
tie
tiene
tienne
tifos
tij
til
tile
till
tillon
tim
tima
time
timeo
times
timna
timo
timon
timor
tin
tina
tino
tinta
tinte
tio
tip
tipo
tir
tira
tiraje
tiran
tirand
tirare
tirasse
tirava
tiravo
tire
tireje
tirerai
tiresse
tiro
tirol
tirza
tis
tit
tito
titol
titolar
tje
tl
tla
tlapanec
tle
tm
tne
tni
tnich
tnilo
tnira
tnisend
tnisi
tnisse
tnive
tnu
tnusse
to
toa
tobia
toc
toca
tocaje
tocame
tocava
toch
toche
toco
tod
toe
togliere
toi
toira
toire
toj
tokyo
tol
tola
tolaki
tole
toleransa
tolome
tolosa
tom
toma
tomba
tombaje
tombe
tombera
tomberan
tombo
tome
tomin
tomini
tommaso
ton
tonalita
tond
tonin
tonina
tonio
tono
tony
top
topo
topolino
topolo
topologi
tor
torent
tori
torinese
torino
torism
torment
tormenta
tormente
torn
torna
tornand
tornasne
tornass
tornava
tornavo
torne
torneo
tornera
tornerai
torneran
torness
torno
tornoma
toro
torolo
toronto
torre
torricella
torricelli
torta
torton
tortone
tortura
toscan
toson
toss
tot
tota
total
tote
totin
totonac
tour
touro
tours
town
tr
tra
trabuce
trabuch
tradi
tradilo
tradiment
tradiss
tradission
tradissionaj
tradissional
traditor
tradussion
tradutor
traduzione
tragedia
traite
trajeto
trakai
trama
tramanda
trambla
tramble
tramentre
trames
tramont
tramontan
tramonti
tramud
tramuda
tramudasse
tramude
tran
trani
tranquij
tranquil
tranquila
tranquilita
trans
transission
trant
tranta
trantedoi
trap
trapassa
trapon
trascura
trasferi
trasferiment
trasferisse
trasforma
trasformassion
trasforme
trasgression
trasme
trasmission
trasparent
traspo
trasporta
trasporte
trassa
trasse
trassion
trat
trata
tratament
tratant
tratava
trate
traten
traterai
tratin
trato
tratta
tratto
trav
trava
travaj
travaja
travajand
travajava
travajavo
travaje
travajeur
travajo
trave
travers
traversa
traversava
traverse
traverso
travet
travonde
tre
tremila
tren
treno
trent
trenta
trentin
tres
treuva
treuve
treuvo
trevis
tri
tria
triangolar
tribu
tribula
tribulassion
tribule
tribun
tribunaj
tribunal
tribut
trica
trich
triche
tricholoma
trie
triest
tringa
trinita
trinite
trio
trionf
trionfa
trionfal
trist
trista
triste
triticum
tro
trois
tromba
trombe
trompari
tron
tronch
trop
tropa
trope
tropie
troppo
trova
trovaje
trovala
trovalo
trovame
trovare
trovasse
trovava
trovavo
trove
troveje
trovela
trovelo
troveme
trovene
trovera
troveran
trovesse
troveve
trovo
trovoma
trovra
trovran
trovras
trovreve
truch
trukic
trupe
ts
tse
tt
tta
tte
tti
ttingen
tto
ttu
ttuje
tu
tua
tubal
tubinga
tubo
tuboj
tucanoan
tucc
tue
tui
tuit
tuj
tumor
tunebo
tunisi
tuo
tupi
tupin
tupine
turban
turbij
turch
turchi
turdus
turgo
turi
turin
turine
turism
turkic
tut
tuta
tutafa
tute
tutela
tuti
tuto
tutpotent
tutt
tutta
tuttavia
tutte
tutti
tutto
tutun
tv
tzeltalan
tzotzil
u
ua
ubangi
ubidi
ubidiensa
ubidiss
ubidisse
ubidisso
ucas
uch
ucia
uciada
ucrain
ud
uda
ude
udi
udo
ue
uefa
ufissi
ufissiaj
ufissial
ufissie
ufri
uganda
ugo
ugon
uguaj
ugual
ugualiansa
uje
uk
ul
ula
ulam
ule
ulisse
uliv
uliva
ulive
ultim
ultima
ultime
ultimo
um
uma
uman
umanita
umbert
umberto
umbria
umilia
umiliasse
umiliassion
umilta
umor
ump
un
una
und
under
underground
une
unesco
unghere
ungheri
uni
unica
unifica
unificassion
uniform
union
uniss
unisse
unisso
unita
unitari
united
univers
universal
universita
universitari
university
uno
unsion
uomini
uomo
up
upper
upright
ur
ura
urban
urbani
urbin
urea
uri
uria
urim
uro
uru
uruguay
us
usa
usage
usagi
usata
usato
uscire
use
user
usi
usia
usiel
uso
uss
ussa
usse
ussie
usso
ust
ustria
ustro
ut
uta
ute
uter
uti
utica
utilisassion
utilita
utiss
uto
utr
utra
utre
utrecht
utri
utrio
uva
uvagi
uve
v
va
vaca
vache
vad
vada
vade
vado
vagabond
vagna
vagnand
vagnasse
vagne
vagnesse
vagno
vagon
vai
vaile
vaire
vairo
vaite
vaj
vajant
vajanta
vajantisa
vaje
val
vala
valada
valade
valadi
valais
valba
valbe
valde
valdo
valdostan
vale
valensa
valentia
valentin
valentino
valerio
vali
validita
valis
valle
valley
vallo
valo
valon
valor
valore
valsesia
valsesian
valsusa
valte
valtingo
value
valutassion
van
vand
vandea
vangej
vangel
vanita
vanno
vansa
vansava
vanta
vantagi
vanteme
vanto
vanuatu
vapor
var
vara
varal
vard
varda
vardalo
vardand
vardava
vardavo
varde
vardelo
vardesse
vardia
vardian
vardie
vardme
vardo
vardoma
vare
varepsilon
varesio
vari
varia
variant
varianta
variante
variassion
varie
varieta
varilo
varision
variss
varphi
varsavia
vas
vasari
vasca
vassaj
vassal
vast
vasta
vaste
vasti
vate
vatican
vatne
vaucluse
vaud
vaux
vav
vd
vdu
ve
vec
vecchi
vecchia
vecchio
veciaja
ved
vede
vedere
vedi
vedra
vedu
vegetaj
vegetassion
vegna
vei
veiga
vej
veja
veje
vejo
vel
vela
velen
velenos
velenosa
velo
velocita
ven
vena
vend
vende
vendeta
vendi
vendicator
vendo
vendu
vene
venera
venerassion
venere
veneri
venessia
venessian
venessuela
veneto
vengono
veni
venire
veniva
venme
veno
vent
venta
ventava
vento
ventra
ventraje
ventral
ventre
ventura
venu
venuto
ver
vera
verament
verb
verbaj
verbal
verbale
verban
verbi
verbo
vercingeto
verd
verde
vere
vergano
vergo
veri
verifica
verita
verm
verme
verna
verne
vero
veron
vers
versa
versailles
versant
verse
versi
version
verso
vertical
ves
vespasian
vess
vest
vesta
veste
vesti
vestiari
vestimenta
vestimente
vestisse
vetor
vetoriaj
vetorial
veu
veui
veuid
veuida
veuide
veuj
veuja
veuje
veul
veule
veules
veuli
veulo
veus
vevcingeto
vi
via
viage
viaggio
viagi
viagia
viagiator
viagio
viaman
vian
viandant
viara
vibo
vibrassion
vica
vicari
vice
vicenda
vicende
vicensa
vicente
vich
vicino
vico
victor
victoria
vid
vidoa
vidoe
vidov
vie
vien
viene
vienne
vietnam
vieuj
vieul
vieux
vige
vigilia
vigin
viglongo
vigna
vigne
vignolant
vigo
vigor
vii
viii
vija
vije
vijo
vila
vilage
vilagi
vilaine
vilan
vilaneuva
vilar
vile
villa
villanova
ville
villefranche
villeneuve
villers
villiers
vilnius
vimianzo
vin
vina
vince
vincens
vincent
vincenzo
vinci
vincitor
vinciu
vine
vino
vinos
vint
vintedoi
vinten
vintequat
vintequatmila
vintequatr
vintesinch
vintessinch
vintetre
vintmila
vintun
vio
viola
violassion
viole
violensa
violense
violent
violenta
violente
violet
violin
vir
vira
viraje
virand
virandse
virasse
virava
viravo
vire
viresse
virginia
viro
virte
virtu
vis
visa
visadi
visage
visagi
visavi
visca
vische
viscont
visi
visin
vision
visita
visite
viso
vissi
vist
vista
viste
vistlo
visto
visuaj
vita
vital
vitalita
vitao
vite
viterb
vitiaz
vitima
vitime
vito
viton
vitor
vitorios
vittoria
vittorio
vitura
viture
vituri
viv
viva
vive
vivent
vivere
vivi
vivo
vivoma
vivra
vivran
vivras
vivreve
vivron
vivu
vlu
vluta
vne
vni
vnije
vnime
vnira
vnirai
vniran
vniras
vniri
vnisend
vnisi
vnoma
vnu
vnuit
vnuje
vnume
vo
voca
vocabolari
vocabolario
vocaj
vocal
vocale
vocali
vocassion
voce
voci
voco
voghe
voglia
voglio
voi
voj
voja
vol
vola
volant
vole
voleje
volente
voleva
volgar
volgare
volgata
voli
volo
voloma
volonta
volontari
volontaria
volonte
volp
volped
volta
volte
voltesse
voltor
volturno
volu
volum
volume
von
vore
vorej
vorera
voreran
voreri
vori
voroma
vorri
vorsoma
vorsu
vorsuje
vorsune
vos
vosges
vostra
vot
vota
vote
vous
vr
vra
vre
vreman
vres
vri
vrita
vro
vsin
vt
vu
vulcan
vulgaris
vuoi
vuol
vuole
vuri
vv
vzin
w
wa
waja
wakashan
walser
walt
walter
wapei
war
wartburg
washington
water
waters
we
web
wedge
weierstrass
weimar
west
western
westminster
white
who
wide
width
wik
wiki
wikipedia
wild
wilhelm
will
william
williams
windsheim
wisconsin
with
wolfgang
world
wright
wu
www
wycliffe
x
xe
xerocomus
xi
xia
xii
xiii
xiv
xix
xoa
xs
xv
xvi
xvii
xviii
xx
xxi
xy
y
ya
yele
yi
yiddish
yonne
york
you
your
youtube
yuki
yukon
yuman
yvelines
z
za
zabulon
zacari
zacaria
zache
zadoch
zalmon
zambia
zapotec
zapotecan
zar
zara
zas
ze
zebede
zecaria
zelanda
zend
zerach
zero
zeruia
zeubi
zh
ziba
zif
zimbabwe
zimri
zio
ziroonderel
zitto
zo
zona
zone
zoque
zorobabel
zu
zuckermann
zug
zur
zurigh
zzo
{
|
}
~
ª
«
­
°
²
³
´
·
º
»
×
ð
ø
ʼ
ʾ
ʿ
ˈ
ː
̀
́
̂
̃
̄
̆
̇
̈
̉
̊
̋
̌
̑
̓
̔
̣
̦
̧
̨
̱
͂
ͅ
α
β
δ
ε
η
θ
ι
κ
λ
μ
ν
ο
π
ρ
ς
σ
τ
υ
φ
χ
ω
е
и
н
֑
֔
֖
֗
֙
֜
֣
֥
֨
ְ
ֱ
ֲ
ֳ
ִ
ֵ
ֶ
ַ
ָ
ֹ
ֻ
ּ
ֽ
־
ׁ
ׂ
א
או
ב
בו
ג
ד
ה
הו
ו
ז
ח
חו
ט
י
יו
ים
ין
יר
ית
ך
כ
ל
לו
ם
מ
מו
ן
נ
נו
ס
ע
עו
ף
פ
ץ
צ
צו
ק
ר
רו
ש
ת
ا
ـ
ّ
ٔ
द
न
र
ा
ि
ी
े
्
া
্
்
་
​
‎
–
—
‘
’
“
”
„
†
•
…
€
↔
↷
③
④
⑦
─
△
♀
♂
⺀
⺄
⺆
⺈
⺊
⺌
⺕
⺝
⺸
⺼
⿰
⿱
⿲
⿳
⿴
⿵
⿶
⿷
⿸
⿹
⿺
⿻
〢
゙
コ
ユ
㇁
㇂
㇄
㇇
㇈
㇉
㇓
㐁
㐄
㐅
㐌
㐫
㐬
㐭
㐮
㐱
㑒
㒵
㒸
㒼
㓁
㓞
㔾
㕛
㕣
㖾
㘝
㚅
㚇
㚔
㚘
㝉
㝡
㝴
㝵
㞋
㞢
㞷
㠩
㠭
㠯
㡀
㡭
㡿
㢲
㢴
㣇
㣺
㥯
㪅
㫄
㫐
㫒
㫺
㬅
㬎
㬥
㬰
㲋
㳄
㷠
㸒
㸚
㸦
㼌
㼲
㽞
㿟
䀠
䂞
䍃
䏍
䒑
䖍
䖒
䖝
䖵
䙴
䚻
䜌
䝿
䡛
䧹
䪞
一
丁
丂
七
丄
丅
丆
万
丈
三
上
下
丌
不
与
丏
丐
丑
专
且
丕
世
丘
丙
业
东
丞
丢
丣
两
严
並
丨
丩
个
丫
丬
中
丮
丰
丱
串
丵
丶
丷
丸
丹
为
主
丽
丿
乀
乂
乃
久
乆
乇
么
义
之
乌
乍
乎
乏
乐
乑
乔
乖
乗
乘
乙
乚
乛
乜
九
乞
也
习
乡
乳
乾
亀
亅
了
亇
予
争
事
二
亍
于
亏
亐
云
互
亓
五
井
亘
亚
亜
亞
亟
亠
亡
亢
交
亥
亦
产
亨
亩
享
京
亭
亮
亯
亰
亲
亳
亶
亷
人
亻
亼
亾
仁
今
介
仌
从
仐
仑
仒
仓
仕
他
付
仝
代
令
以
任
企
伊
伏
伐
休
会
伯
但
位
何
佘
余
作
佥
使
來
侈
侌
侖
侯
侵
便
保
俞
信
修
倉
倍
候
倠
備
僉
僕
儿
兀
允
兂
元
兄
充
兆
兇
先
光
兊
克
兌
免
兑
兒
兓
兔
党
兜
兟
入
全
兩
兪
八
公
六
兮
兰
共
关
兵
其
具
典
兹
兼
冀
冂
冃
冄
内
冈
冉
冊
冋
册
再
冎
冏
冐
冒
冓
冖
冗
冘
军
农
冝
冡
冥
冫
冬
冷
几
凡
凢
凵
凶
凷
凸
凹
出
函
凾
刀
刁
刂
刃
刄
刅
分
切
刍
刑
刕
刖
列
刘
则
初
別
利
别
到
制
刺
則
削
剌
前
剡
剽
劉
力
功
加
劦
助
劫
劳
劵
勃
勇
勉
勒
動
務
勞
勤
勹
勺
勻
勾
勿
匀
匂
包
匆
匈
匊
匋
匍
匕
化
北
匚
匝
匡
匪
匱
匸
匹
区
医
匽
匿
區
十
卂
千
卄
卅
卆
升
午
卉
半
卌
华
卑
卒
卓
单
卖
南
卜
卝
卞
占
卡
卢
卣
卤
卦
卩
卪
卬
卯
印
危
即
却
卵
卷
卸
卻
厂
厃
厄
历
厈
厉
厌
厓
厘
厚
原
厤
厥
厨
厭
厲
厶
厷
厸
去
厼
厽
叀
参
參
叅
又
叉
及
友
双
反
叐
发
叒
叔
叕
取
受
叚
叜
叟
口
古
句
另
叩
只
召
可
台
叱
史
右
叵
号
司
叹
吂
各
吅
合
吉
吊
吋
同
名
后
吏
向
吕
君
吝
吞
否
含
启
吳
吴
吹
吾
呂
呆
呈
告
员
呙
周
命
咅
和
咎
咠
咢
咨
咸
咼
哀
品
哉
員
哥
哲
唐
商
啇
問
啚
啬
啻
善
喜
喬
單
喿
嗇
噩
嚴
囊
囗
囘
囙
囚
四
回
囟
因
囧
囬
困
囱
囷
固
国
圂
圅
國
圍
圓
土
圡
圣
圥
在
圭
地
圶
圼
坐
坒
坚
坴
垂
垔
垚
埀
埋
埶
執
基
堂
堅
堆
堇
堯
塞
墨
壘
士
壬
壯
声
壳
壴
壹
壺
壽
夂
处
夅
夆
备
夊
夋
夌
复
夏
夒
夕
外
夗
夘
多
夜
夢
大
夨
天
太
夫
夬
夭
央
失
夲
头
夷
夸
夹
夻
夾
奂
奄
奇
奈
奉
奎
奏
奐
契
奓
奔
奚
奞
奠
奢
奥
奭
女
奴
奻
好
如
妄
妙
妟
妥
妻
妾
姑
委
姜
威
娄
婁
婴
嬰
嬴
子
孑
孔
孕
孖
字
存
孚
孛
孝
孟
季
孤
学
孫
孱
學
宀
宁
宂
它
宅
宇
守
安
宋
完
宏
宓
宗
官
定
宛
宜
宝
客
宣
室
宮
宰
害
家
容
宾
宿
寄
寅
密
富
寒
察
寧
審
寫
寬
寮
寸
对
寺
寻
寽
対
寿
封
尃
射
将
將
專
尉
尊
尋
尌
對
小
少
尒
尓
尔
尖
尗
尚
尞
尢
尣
尤
尧
尨
尭
就
尸
尹
尺
尻
尼
尽
尾
尿
局
居
屈
屋
屎
屏
屑
展
屖
屚
属
屠
屡
屬
屮
屯
屰
山
屵
屾
岁
岂
岑
岡
岩
岳
岸
峯
島
崇
崑
崔
崖
崙
崩
嵬
嶲
巂
巛
川
州
巟
巠
巢
巤
工
左
巧
巨
巩
巫
差
己
已
巳
巴
巷
巸
巽
巾
巿
帀
市
布
希
帚
帛
帝
带
師
席
帶
常
干
平
年
幵
并
幷
幸
幺
幻
幼
幽
幾
广
広
庄
床
底
店
庚
府
度
庫
庭
庶
康
庸
廉
廌
廛
廣
廩
廴
延
廷
建
廾
廿
开
弁
弃
弄
弇
弋
式
弓
弔
引
弗
弘
弜
弟
弥
弦
弱
張
強
强
彊
彌
彎
彐
彑
当
彔
录
彖
彗
彡
形
彥
彦
彧
彭
彳
役
彼
往
待
律
徒
得
徙
從
復
微
徵
心
忄
必
忌
忍
志
忝
忠
忩
快
念
忽
忿
思
怠
急
怱
恆
恒
恩
恭
息
悉
患
悤
悲
悶
惠
惡
惢
愁
愈
意
愛
感
慈
慧
慮
憂
憲
應
戀
戈
戉
戊
戋
戌
戍
戎
成
我
戒
戔
或
戚
戠
戢
截
戲
戶
户
戹
戼
戾
房
所
扁
扇
手
扌
才
打
托
执
承
折
拉
拜
拿
掌
推
提
摩
支
攴
攵
收
攸
改
放
政
敄
敏
敕
敖
敗
敝
敞
敢
散
敦
敫
敬
数
敷
數
斂
文
斉
斊
斗
斤
斥
斩
斬
斯
新
方
於
施
斿
旁
旋
族
无
旡
既
旣
日
旦
旧
旨
早
旬
旱
旲
时
旾
昆
昇
昌
昍
明
昏
易
昔
昗
昜
星
春
昬
是
昱
昴
昷
時
晃
晋
晏
普
景
晶
智
暑
暴
曇
曩
曰
曲
曳
更
曷
書
曹
曼
曾
替
最
朁
會
月
有
朋
服
朔
朕
朗
望
朝
木
朩
未
末
本
札
朮
术
朱
朵
朶
朿
杀
杏
杜
束
条
来
東
杲
杳
松
析
林
枚
果
枝
枲
枼
某
柔
查
柬
柰
柴
栗
桀
桑
桼
梁
條
梟
梨
棘
棠
棥
森
楚
業
楽
榮
樂
樊
欠
次
欣
欮
欲
欶
欽
款
歆
歇
歛
止
正
此
步
武
歨
歪
歮
歯
歰
歲
歴
歷
歸
歹
歺
死
殳
段
殷
殸
殹
殺
殻
殿
毋
毌
母
每
毒
比
毕
毚
毛
毳
氏
氐
民
气
氣
水
氵
氶
氷
永
氺
氾
求
汝
汞
江
沃
沓
沙
沝
泉
法
波
泣
泥
泰
洛
洪
活
派
流
浦
浪
浮
淡
淮
清
渚
渠
湯
滿
漸
火
灬
灭
灰
灵
灷
炅
炎
炏
炗
炙
炭
為
烈
烏
烝
焉
無
焦
焱
然
煞
熊
熏
燕
營
燮
爪
爫
爭
爯
爰
爱
爲
爵
父
爻
爽
爾
爿
片
牙
牚
牛
牜
牟
牢
牧
牪
牽
犀
犬
犭
犮
狂
狄
狊
独
狺
猋
猒
猪
献
獻
玄
率
玉
王
玟
玨
珎
班
琴
瑟
瑩
瓜
瓦
甘
甚
生
産
用
甫
甬
田
由
甲
申
电
甶
男
甸
甹
画
甾
畀
界
畏
畐
留
畜
畟
畢
畧
畨
番
畫
異
畱
當
畺
畾
疊
疋
疌
疑
疒
疾
癶
癸
癹
登
發
白
百
皀
皃
的
皆
皇
皋
皐
皕
皮
皷
皿
盃
盆
盇
盈
益
盍
盎
监
盒
盖
盛
盡
監
盤
盧
目
直
相
盾
省
眇
眉
看
眔
眞
真
眷
眼
眾
着
睘
睪
睿
瞏
瞢
瞿
矍
矛
矞
矢
矣
知
矦
短
石
破
碎
磊
磨
示
礻
礼
社
祟
票
祭
禀
禁
禸
禹
禺
离
禽
禾
禿
秀
秃
秉
秋
科
秝
秦
移
稟
穀
穌
穴
究
穹
空
穿
突
窄
窒
立
竒
竜
竝
竟
章
童
竹
笑
笠
筆
等
答
箕
算
箴
節
篤
篭
米
粉
粛
粟
粤
粦
粲
糞
糸
糹
系
約
納
素
索
紫
累
細
絜
絫
絲
維
綿
縣
繇
纍
纟
缶
网
罒
罔
罕
罗
罙
罡
罢
罪
署
罷
羅
羊
羌
羍
美
羔
羕
羗
羞
羡
羣
群
義
羲
羸
羽
翁
翏
習
翕
翟
翠
翼
老
耂
考
者
耆
而
耎
耑
耒
耳
耴
耶
耷
聂
聊
聖
聚
聶
聿
肀
肃
肅
肉
肖
肙
肥
肩
肯
育
肴
胃
背
胡
胥
能
脊
脩
膚
臣
臤
臧
自
臬
臭
臯
臱
至
致
臺
臼
臽
臾
臿
舀
舂
舄
與
興
舉
舌
舍
舛
舜
舞
舟
般
艮
良
色
艸
艹
艾
芒
芔
芬
芮
花
芳
芺
芻
苔
苗
苟
若
苦
英
茶
茸
荅
草
荒
荣
荼
莆
莧
莫
莽
菆
菊
菐
華
萬
落
葉
著
葛
董
葵
蒙
蒦
蒼
蓋
蓬
蓺
蔑
蔡
蕉
蕭
薄
薛
薦
薰
藍
藏
藥
蘭
虍
虎
虐
虒
虔
處
虖
虗
虘
虚
虛
虜
虞
虫
虽
蚤
蚩
蜀
蜜
蟲
蠡
血
行
衍
衛
衣
衤
表
衮
衰
袁
袞
褭
褱
襄
襾
西
覀
要
覃
見
規
覓
覧
親
覽
见
角
解
言
訁
訇
計
詹
誩
諸
讠
谷
豆
豈
豊
豐
豕
豖
豙
象
豦
豩
豪
豸
貇
貝
貞
貟
負
貢
貧
貪
貫
責
貳
貴
買
費
賁
資
賈
賏
賓
賔
賛
賞
賢
賣
質
賴
贊
贝
贡
责
贯
贲
贵
赖
赞
赤
赦
走
越
足
路
蹇
身
躬
車
軍
軎
軟
輦
车
辛
辜
辟
辥
辰
辱
農
辵
辶
边
达
过
近
连
迷
追
退
送
逆
逐
通
速
造
逢
連
逮
進
遀
遂
過
道
達
遣
適
遷
遺
邊
邑
邕
那
邦
邪
郎
部
郭
都
鄉
酉
酋
配
酓
釆
采
里
重
野
量
金
釒
錢
钅
長
镸
长
門
閃
閉
開
閏
閑
閒
間
閔
閵
閻
闌
门
间
闷
阑
阜
阝
阿
降
陳
隆
隊
隋
隡
隨
隱
隶
隹
隺
隻
隼
隽
难
雀
雁
集
雈
雋
雍
雐
雔
雙
雚
雜
雝
離
難
雨
雩
雪
雲
零
雷
需
霍
霜
霝
霞
霸
靈
靑
青
非
靡
面
靣
革
韋
韦
韭
韯
韱
音
頁
頃
項
須
頗
頡
頻
顛
页
風
风
飛
飞
食
飠
養
饣
首
香
馬
馮
駦
马
骨
高
髟
鬥
鬯
鬲
鬼
魚
魯
鮮
鱼
鲁
鳥
鳳
鸟
鹵
鹿
麃
麗
麥
麦
麻
黃
黄
黍
黎
黑
黒
黨
黹
黽
黾
鼎
鼓
鼠
鼻
齊
齋
齐
齒
齿
龍
龙
龜
龟
龠
龰
龱
龴
龵
龶
龷
龸
龹
者
艹
﻿
？
𠀁
𠀃
𠀆
𠀉
𠀎
𠀐
𠁁
𠁣
𠂆
𠂇
𠂈
𠂉
𠂊
𠂋
𠂎
𠂒
𠂔
𠂛
𠂡
𠂢
𠂤
𠂬
𠂭
𠂹
𠃊
𠃋
𠃌
𠃍
𠃎
𠃑
𠃓
𠃔
𠃜
𠄌
𠄎
𠄠
𠄢
𠆢
𠆥
𠇍
𠈌
𠌵
𠓜
𠔉
𠔥
𠔼
𠔽
𠔿
𠕀
𠕁
𠕋
𠘧
𠘨
𠙻
𠙼
𠚏
𠚒
𠚤
𠚪
𠣏
𠤎
𠤕
𠥓
𠦄
𠦑
𠦝
𠧒
𠧗
𠧪
𠩺
𠪚
𠫓
𠫔
𠫤
𠬛
𠬝
𠬞
𠬢
𠬤
𠬶
𠮛
𠮦
𠮷
𠯑
𠱠
𠳮
𠷎
𡈼
𡉀
𡉵
𡌥
𡍮
𡏳
𡕒
𡕩
𡕰
𡖅
𡗗
𡗜
𡘆
𡘤
𡧱
𡨄
𡩧
𡬠
𡭽
𡰣
𡰥
𡰪
𡰯
𡰱
𡷈
𡸁
𡿨
𡿩
𡿪
𡿺
𢀖
𢀛
𢀩
𢁙
𢆉
𢆰
𢆶
𢇁
𢇇
𢉖
𢌬
𢌿
𢏚
𢑑
𢑚
𢖻
𢙣
𢛳
𢦏
𢦒
𢧵
𢼄
𢾕
𣁋
𣄼
𣅀
𣅽
𣍘
𣎳
𣎵
𣏋
𣏼
𣗥
𣥂
𣥖
𣦵
𣦼
𣧄
𣪊
𣪠
𣬉
𣳾
𣶒
𤇾
𤊽
𤐫
𤓰
𤔔
𤕨
𤣩
𤰇
𤰔
𤰞
𤴓
𤴔
𤽄
𥁑
𥁕
𥃦
𥃩
𥃭
𥇡
𥑟
𥘅
𥘈
𥝢
𥫗
𥱡
𦈢
𦉪
𦉬
𦉼
𦍌
𦍒
𦎧
𦐇
𦓔
𦔮
𦘒
𦙃
𦚏
𦣝
𦣞
𦣻
𦥑
𦥔
𦥯
𦨉
𦭝
𦰩
𧆞
𧈧
𧘇
𧰨
𧴪
𧴮
𧵩
𧾷
𨸏
𨾴
𩙿
𩠐
𩫏
𩵋
𪉷
𪜀
𪟽
𪠲
𪩲
𫇦
𫔭
𫜸
𫝀
𫠣
𫠩
𫢉
𫥞
𫩏
𫩠
𫪡
𫲽
𫶧
𬀷
𬐘
𬗌
𬙙
𬛸
𬜯
𬟩
𬯁
𬴘
𬺻
𬼉
𬼖
𭀰
𭁈
𭁨
𭅰
𭑈
𭕄
𭗼
𭤨
𭥫
𭻾
𮅕
𮊿
𮍌
𮍏
𮓗
𮥼
𮧮
廾
𰀁
𰀄
𰀈
𰀉
𰀕
𰀠
𰀡
𰀢
𰀪
𰁜
𰃮
𰆊
𰆘
𰋙
𰕎
𰢴
𰧭
𰯲
00--
02--
a--
aa--
ab--
aba--
abi--
abo--
ac--
aca--
acce--
aco--
acqui--
acu--
ad--
ade--
adi--
ado--
adu--
ae--
aero--
af--
afa--
afe--
ag--
age--
agi--
agn--
agra--
agri--
ah--
ai--
air--
aj--
ak--
al--
ala--
ale--
alek--
alessa--
alex--
algo--
ali--
all--
alt--
alta--
alter--
am--
ama--
ambo--
ambri--
ambro--
ambu--
ame--
ami--
ampo--
amusa--
an--
ana--
anca--
ances--
ancio--
ancl--
and--
anda--
ande--
ane--
anflu--
anfre--
anga--
angu--
anlu--
anna--
ano--
ans--
anse--
ansu--
ant--
ante--
antero--
anti--
anto--
antro--
antru--
anvi--
anvo--
ao--
apart--
ape--
apel--
apo--
app--
appa--
appro--
apri--
apro--
aqu--
aquis--
ar--
ara--
arc--
arca--
arco--
arcon--
ardi--
are--
ari--
arle--
arli--
arm--
arma--
arme--
arn--
aro--
arpent--
ars--
art--
arti--
arve--
arvis--
arze--
arzi--
as--
asa--
ash--
asi--
asp--
asse--
assi--
ast--
at--
ata--
ate--
atta--
au--
aus--
aut--
auto--
auver--
av--
ava--
ave--
avent--
avi--
avo--
avv--
avver--
aw--
ay--
az--
b--
ba--
bab--
bad--
bai--
bal--
bale--
bam--
bamba--
ban--
bar--
bara--
barz--
bas--
bat--
bata--
bay--
be--
bea--
beau--
bec--
beh--
bei--
bel--
belle--
ben--
bene--
ber--
bere--
berg--
berga--
bersa--
bes--
bet--
beu--
bha--
bi--
bia--
bie--
big--
bil--
bim--
bin--
bio--
bir--
bis--
bit--
bl--
ble--
bli--
bo--
bob--
bol--
bom--
bon--
bona--
bor--
bore--
bos--
bot--
bou--
bour--
boy--
br--
bra--
bre--
breu--
bri--
brin--
bro--
bru--
bu--
buf--
bul--
bur--
bus--
but--
buz--
bw--
by--
c--
ca--
cad--
caf--
cal--
cala--
cali--
calv--
cam--
cami--
campo--
can--
cap--
capo--
car--
cara--
cari--
caro--
carre--
cas--
casa--
casal--
castel--
casti--
cat--
cata--
cau--
cav--
cay--
cca--
ce--
cel--
cent--
cer--
ces--
ch--
cha--
cham--
char--
chart--
che--
chi--
chia--
chry--
ci--
cia--
ciam--
cid--
cim--
cin--
cio--
cip--
circ--
cit--
ciu--
cl--
cla--
cle--
cli--
co--
coa--
coe--
cof--
coin--
col--
colla--
colle--
com--
come--
commu--
como--
con--
concl--
contra--
conver--
convo--
cop--
cor--
cos--
cou--
cour--
cra--
cre--
cresc--
cri--
crit--
cro--
cru--
ct--
cu--
cui--
cul--
cum--
cun--
cur--
cus--
cy--
d--
da--
dal--
dam--
dan--
dar--
das--
dd--
de--
dei--
del--
deli--
dem--
den--
deno--
denun--
depo--
der--
des--
dete--
deu--
dha--
di--
dia--
die--
dif--
digi--
dim--
dime--
din--
dio--
dir--
dis--
disa--
diso--
dit--
do--
doc--
dol--
dom--
dome--
don--
dop--
dor--
dou--
dra--
dre--
dro--
dru--
du--
due--
dun--
dur--
dza--
dze--
dzo--
dzor--
dzubi--
dzubidie--
dzur--
e--
ecc--
echi--
eco--
ed--
ef--
effe--
efi--
eg--
ego--
eh--
ei--
el--
ela--
ele--
eli--
elo--
em--
eme--
en--
end--
enig--
ent--
ep--
epi--
equi--
er--
era--
erc--
ere--
eri--
ero--
es--
esau--
escl--
ese--
esita--
eso--
espl--
est--
et--
eti--
etno--
eu--
eva--
eve--
eviden--
ex--
ey--
ez--
f--
fa--
fab--
face--
fai--
fal--
fan--
far--
fas--
fat--
fau--
fay--
fe--
fen--
feno--
fer--
feu--
fi--
fia--
fie--
fij--
fil--
fila--
fin--
fina--
fine--
fio--
fit--
fla--
flam--
fle--
flo--
flu--
fnes--
fo--
fol--
fon--
for--
forti--
fot--
fou--
four--
fr--
fra--
frac--
fre--
fred--
fri--
fro--
fru--
fu--
ful--
fun--
fus--
fut--
g--
ga--
gad--
gal--
gala--
gam--
gan--
gar--
garga--
gari--
garla--
gas--
gat--
gaude--
ge--
gel--
gen--
gene--
geo--
ger--
gg--
gh--
ghe--
ghi--
ghibe--
gi--
gia--
gian--
gil--
gin--
gio--
gir--
giu--
giudi--
gl--
gli--
glo--
glori--
gna--
gni--
gno--
go--
gold--
gon--
gor--
gott--
gour--
gr--
gra--
gram--
gre--
gri--
grid--
grin--
gro--
groen--
gru--
gu--
gua--
gue--
gugli--
gui--
gunwin--
gur--
gus--
h--
ha--
hai--
ham--
hamp--
han--
har--
has--
hay--
he--
hel--
her--
hi--
hin--
hipp--
hispa--
ho--
hol--
hom--
hoo--
hu--
hy--
hypo--
i--
ia--
ib--
ibe--
id--
ie--
ier--
ij--
il--
ila--
im--
imita--
imp--
improvv--
in--
ina--
inca--
incl--
inco--
ind--
indep--
indi--
indis--
indo--
ine--
ingre--
inie--
iniz--
inn--
insi--
int--
inte--
inteli--
inter--
intu--
inu--
inven--
invo--
io--
ioia--
ip--
ipo--
ir--
ira--
ire--
is--
isa--
iso--
ist--
istit--
it--
ita--
iv--
ix--
j--
ja--
jah--
jan--
je--
jeho--
jeo--
jer--
ji--
jo--
joia--
jos--
ju--
k--
ka--
kala--
kam--
kan--
kara--
kath--
kay--
ke--
kh--
kha--
kho--
ki--
kirch--
ko--
kom--
kon--
ku--
ky--
l--
la--
lac--
lam--
lamp--
lan--
land--
lao--
lar--
las--
lasio--
lat--
lau--
lava--
lay--
laz--
le--
lea--
lei--
len--
lent--
leo--
les--
let--
leu--
ley--
li--
libi--
lie--
ligh--
lim--
lin--
lingu--
lis--
lit--
liti--
lo--
lod--
log--
lom--
lon--
lor--
los--
lou--
low--
lu--
luc--
lum--
lun--
lus--
lv--
ly--
m--
ma--
mac--
mad--
mag--
magi--
mah--
mai--
mak--
maka--
mal--
mala--
male--
mam--
man--
mar--
mara--
mari--
maro--
mas--
mat--
mathe--
mau--
mauri--
max--
maz--
mba--
mbu--
me--
medi--
megh--
mei--
mel--
mem--
men--
mer--
mes--
meta--
meteo--
meu--
mey--
mi--
mia--
micro--
mig--
migli--
mil--
min--
mini--
mir--
mira--
mish--
mit--
mix--
mne--
mo--
moi--
mol--
molti--
mom--
mon--
mono--
mons--
mont--
monte--
mor--
mos--
mot--
mou--
mp--
mu--
mul--
multip--
muni--
muo--
mur--
mura--
mus--
mut--
my--
n--
na--
nabuco--
nam--
nan--
nas--
nau--
nav--
navi--
naz--
nca--
nd--
nda--
nde--
ndu--
ne--
nea--
nego--
nen--
neo--
nes--
net--
neu--
ng--
nga--
ngo--
ni--
nico--
nie--
niko--
nimici--
nin--
nit--
niv--
nl--
nlum--
nn--
no--
noa--
noe--
noi--
nom--
non--
nor--
nos--
not--
nouve--
noy--
ns--
nsi--
nt--
nte--
nter--
nu--
num--
nutri--
nya--
nyi--
o--
ob--
ober--
obi--
obie--
oc--
occid--
od--
oe--
of--
ofe--
off--
offi--
ofi--
ogi--
oh--
oi--
ol--
ole--
oli--
om--
ome--
omo--
on--
ono--
op--
opo--
or--
ora--
ore--
ori--
oro--
ors--
orto--
os--
ose--
oss--
ost--
ot--
ota--
ou--
out--
over--
p--
pa--
paci--
pag--
pai--
paj--
pal--
pala--
pale--
pamp--
pan--
papa--
papi--
par--
para--
pas--
pat--
pau--
pav--
paz--
pe--
pel--
pen--
pene--
per--
peri--
perse--
pes--
petra--
peu--
pey--
ph--
pha--
phi--
pho--
phu--
phy--
pi--
pia--
pian--
piani--
piata--
pica--
picc--
pie--
pier--
pije--
pin--
pina--
pine--
pio--
pit--
piu--
pl--
pla--
ple--
plou--
po--
pod--
poi--
pol--
pole--
poli--
poly--
pom--
pon--
pop--
por--
port--
pos--
posi--
poten--
pou--
pr--
pra--
pre--
preo--
pri--
prin--
pro--
produ--
promo--
proste--
pru--
pseu--
psi--
pu--
pub--
publi--
pul--
pur--
puy--
py--
q--
qia--
qua--
que--
qui--
quoti--
r--
ra--
rab--
racc--
raccogli--
raco--
raf--
raga--
rai--
ram--
ran--
ranun--
rapp--
rappres--
ras--
rat--
rco--
rd--
rdi--
re--
rea--
real--
red--
rei--
ren--
res--
rese--
resup--
reti--
retro--
reu--
rev--
reve--
rey--
rfu--
rgo--
rho--
ri--
ria--
ric--
rica--
rico--
ridu--
rie--
ril--
rin--
rio--
ripo--
riputas--
ris--
rit--
rive--
rm--
rma--
rme--
rmi--
rn--
rna--
rne--
rno--
rnu--
ro--
rocca--
rol--
ron--
roque--
ros--
rot--
rou--
rp--
rpo--
rs--
rsa--
rse--
rsi--
rsu--
rt--
rta--
rte--
rti--
rto--
ru--
ruf--
rve--
ry--
rz--
s--
sa--
saf--
sai--
sal--
salo--
sam--
san--
santa--
sao--
sar--
sara--
sas--
satu--
sau--
sba--
sbe--
sbo--
sc--
sca--
scale--
scarp--
sch--
sci--
scia--
scie--
sco--
scomp--
scon--
scor--
scru--
scu--
scult--
se--
sea--
sec--
sed--
sei--
sel--
sem--
semi--
sempli--
sen--
sent--
sente--
ser--
serra--
ses--
set--
sey--
sf--
sfa--
sfo--
sg--
sga--
sghi--
sgi--
sgo--
sgra--
sha--
she--
shi--
sho--
shu--
si--
sia--
sic--
sie--
sigi--
sil--
sim--
sin--
sir--
sk--
sl--
sla--
sle--
slin--
slo--
sm--
sme--
smi--
smo--
smor--
so--
soa--
soddi--
sof--
sol--
sole--
soli--
som--
son--
sop--
sor--
sot--
sotto--
sou--
sovra--
sovri--
sp--
spa--
spe--
spi--
splen--
spo--
spro--
squa--
squi--
sr--
ss--
ssa--
sse--
st--
sta--
stan--
ste--
ster--
sti--
sto--
stra--
stro--
stu--
su--
sua--
sub--
succ--
sud--
suda--
suge--
sui--
sul--
sum--
sun--
super--
supp--
sur--
sus--
sv--
sve--
svi--
swa--
sy--
sylve--
sympho--
t--
ta--
tagli--
tai--
tal--
tam--
tan--
tar--
taran--
tas--
tau--
te--
tea--
techno--
tel--
tele--
temp--
ten--
teo--
ter--
tera--
tes--
tet--
tetra--
th--
the--
ti--
tim--
tin--
tip--
tipo--
tir--
tis--
tit--
tiz--
tla--
tm--
tni--
to--
toc--
tol--
tom--
ton--
tor--
tot--
tou--
tour--
tr--
tra--
tram--
trans--
trap--
trasg--
trat--
trav--
tre--
tri--
tribola--
trin--
tro--
tru--
ts--
tt--
tti--
tu--
tur--
tw--
ty--
u--
ubri--
ucc--
uf--
uffi--
uk--
ul--
um--
umili--
un--
uni--
up--
ur--
us--
usa--
ut--
uti--
v--
va--
vai--
val--
vale--
valle--
van--
var--
vas--
vau--
ve--
ved--
vege--
vei--
vel--
ven--
ver--
veri--
ves--
vi--
via--
vid--
vie--
vigil--
vila--
villa--
vin--
vint--
vio--
vir--
viro--
vis--
vla--
vni--
vo--
voi--
voja--
vol--
vor--
vore--
vos--
vot--
vu--
vul--
w--
wa--
wah--
wal--
wan--
war--
we--
web--
west--
whe--
whi--
wie--
wil--
win--
wo--
wol--
wood--
wu--
x--
xe--
xi--
xx--
y--
ya--
yang--
ye--
yi--
yu--
z--
za--
zan--
ze--
zh--
zi--
zib--
zit--
zo--
zon--
zu--
ε--
κ--
λ--
μ--
ν--
ο--
π--
σ--
τ--
א--
ד--
י--
--0
--00
--1
--2
--3
--4
--5
--6
--7
--8
--9
--a
--ab
--ac
--aceae
--ach
--ad
--ada
--ade
--adura
--ae
--ael
--age
--agi
--agia
--ago
--ah
--ai
--aia
--aim
--ais
--aj
--aja
--aje
--ak
--al
--ala
--ald
--ale
--ales
--ali
--alita
--alo
--am
--ame
--ament
--amo
--an
--ana
--and
--andse
--ane
--ang
--ani
--ano
--ansa
--anse
--ant
--anta
--ante
--anza
--ao
--ar
--ara
--ard
--ardo
--are
--ari
--aria
--arie
--aro
--arsi
--aru
--as
--asca
--asch
--asco
--ass
--asse
--assion
--at
--ata
--atari
--ate
--ati
--ation
--ato
--atus
--au
--aux
--ava
--avo
--ay
--b
--ba
--bach
--bal
--bama
--bbe
--be
--bel
--berg
--bi
--bia
--bij
--bil
--bile
--bili
--bilita
--ble
--bo
--boa
--boj
--bol
--bon
--bore
--born
--bra
--bre
--bu
--buca
--burg
--bus
--by
--c
--ca
--cal
--cament
--can
--cc
--cca
--cchi
--cchia
--cchio
--cci
--ccia
--ccio
--cco
--ce
--cea
--ceae
--cella
--cent
--ceus
--cey
--cfr
--ch
--cha
--che
--ches
--chi
--cht
--chy
--ci
--cia
--cin
--cio
--cipa
--cis
--cism
--cista
--ck
--co
--coj
--col
--cola
--colar
--con
--cont
--cq
--cra
--cs
--ct
--cta
--ction
--ctus
--cu
--cus
--cy
--d
--da
--dae
--dam
--dan
--de
--dej
--den
--dent
--der
--dere
--des
--dhi
--di
--dia
--die
--din
--dini
--dio
--diss
--do
--dom
--don
--dor
--dos
--dra
--dri
--ds
--dt
--du
--duce
--duction
--duje
--dun
--dura
--dure
--dus
--duv
--dy
--e
--ea
--eau
--ebra
--ech
--ed
--eda
--edi
--edoi
--ee
--egh
--ei
--eia
--ej
--eja
--eje
--ek
--el
--ela
--ele
--ella
--elle
--elli
--ello
--elo
--em
--ema
--eme
--ement
--emo
--en
--ena
--enai
--ence
--end
--enda
--ene
--eni
--enne
--ens
--ensa
--ense
--ent
--enta
--ente
--enza
--eo
--er
--era
--erai
--eran
--ere
--eri
--ern
--ero
--ers
--ersi
--erta
--ervo
--es
--esch
--ese
--esi
--esinch
--ess
--esse
--essinch
--et
--eta
--ete
--eto
--etta
--ette
--etti
--etto
--eu
--eul
--eur
--eus
--eut
--euv
--eux
--ev
--eve
--ey
--ez
--f
--fa
--fe
--ff
--fi
--fica
--fiche
--fico
--fite
--fo
--fort
--ft
--g
--ga
--gar
--gau
--ge
--gen
--ger
--gere
--ges
--gg
--ggi
--ggia
--ggiare
--ggio
--gh
--ghe
--ghi
--ghin
--ght
--gi
--gia
--gic
--gie
--gio
--gion
--giu
--gl
--gli
--glia
--gliano
--glie
--glio
--gn
--gna
--gnac
--gnan
--gnano
--gne
--gni
--gnin
--gno
--gnon
--gny
--go
--gor
--gra
--gri
--grita
--gro
--gs
--gt
--gu
--gua
--gue
--gui
--gy
--h
--ha
--hac
--ham
--hard
--he
--heim
--her
--hi
--hia
--hio
--hl
--hn
--ho
--hon
--hr
--hu
--hua
--i
--ia
--iaceae
--iah
--iai
--iaj
--ial
--iamo
--ian
--iana
--iano
--iant
--ib
--iba
--ic
--ica
--ice
--ich
--ici
--ico
--id
--ida
--idae
--ide
--idi
--ie
--iel
--ien
--ient
--ier
--iere
--ieri
--ies
--ig
--iga
--ign
--ignan
--igny
--igo
--ii
--ij
--ija
--ije
--ik
--iki
--il
--ila
--ile
--illa
--iller
--illy
--ilo
--im
--ime
--iment
--imi
--imo
--in
--ina
--ine
--ing
--inga
--ini
--ino
--ins
--io
--ion
--iona
--ione
--ioni
--ions
--ior
--iora
--iore
--ios
--iosa
--ip
--ir
--ira
--iran
--iras
--ire
--iri
--iro
--is
--isa
--isassion
--ise
--ish
--isi
--ision
--ism
--ismo
--iso
--iss
--issa
--isse
--issi
--issia
--issimo
--ission
--isso
--ist
--ista
--iste
--isti
--it
--ita
--ite
--iti
--ito
--itor
--itu
--itut
--ity
--iu
--ium
--ius
--iv
--iva
--ive
--ivo
--ix
--ixo
--iz
--izia
--j
--ja
--je
--ji
--jin
--jla
--jlo
--jne
--jo
--jon
--k
--ka
--kan
--ke
--ken
--kh
--kha
--ki
--kin
--ko
--kon
--ks
--ku
--ky
--l
--la
--lam
--lana
--lar
--lare
--las
--lato
--lay
--lba
--ld
--lda
--lde
--lden
--ldi
--ldo
--le
--lel
--lem
--len
--ler
--leri
--les
--lesse
--let
--ley
--li
--lia
--lici
--lico
--lie
--lieu
--lin
--lina
--lingen
--lini
--lino
--lio
--lis
--lisa
--lise
--lita
--lk
--ll
--lla
--lle
--lles
--lli
--llinia
--llo
--llus
--lly
--lm
--lo
--logi
--lon
--loo
--los
--lpa
--ls
--lt
--lta
--lto
--lu
--lura
--lus
--lve
--ly
--lz
--m
--ma
--mal
--man
--mann
--mar
--mb
--mba
--mbe
--mbi
--mbo
--mbre
--mbu
--me
--men
--ment
--mente
--meo
--mer
--mes
--met
--mi
--mia
--mie
--mila
--min
--mis
--mje
--mla
--mlo
--mne
--mo
--mont
--mor
--mp
--mpa
--mpe
--mpo
--ms
--mse
--mu
--my
--n
--na
--nac
--nach
--nai
--naj
--nal
--nale
--nan
--nara
--nare
--nari
--nas
--nate
--nati
--nau
--nay
--nbach
--nc
--nca
--nce
--nch
--nche
--nco
--ncourt
--ncy
--nd
--nda
--nde
--ndent
--ndi
--ndje
--ndla
--ndlo
--ndme
--ndne
--ndo
--ndosi
--nds
--ndse
--ne
--nen
--nensa
--nes
--nese
--nesse
--nette
--netti
--neur
--ney
--ng
--nga
--ngan
--nge
--ngen
--nges
--ngh
--nghe
--ngo
--nheim
--ni
--nia
--nial
--nian
--nica
--nie
--nin
--nio
--nis
--nise
--nius
--nk
--nn
--nna
--nne
--nnes
--nni
--nno
--no
--non
--nor
--nova
--ns
--nsa
--nse
--nsi
--nsial
--nsion
--nsis
--nsita
--nsiv
--nsiva
--nso
--nson
--nssa
--nt
--nta
--nte
--ntes
--nthal
--nti
--ntia
--ntin
--ntino
--nto
--ntre
--nts
--nu
--nula
--num
--nus
--ny
--nz
--nza
--nze
--nzi
--nzo
--o
--oa
--ob
--oboam
--och
--od
--odi
--odo
--ogi
--oi
--ois
--oj
--ok
--oks
--ol
--ola
--ole
--oli
--olo
--ologi
--om
--oma
--on
--ona
--ond
--ondo
--one
--ong
--oni
--onia
--ono
--ont
--opsis
--or
--ore
--orf
--ori
--orum
--os
--osa
--ose
--osi
--oso
--ot
--ota
--otte
--otti
--ou
--our
--ous
--oux
--ov
--ove
--owski
--oy
--p
--pa
--pe
--pec
--pei
--ph
--pi
--pia
--po
--poli
--ppa
--ppo
--ps
--pt
--pta
--pton
--pu
--pus
--py
--q
--que
--ques
--r
--ra
--rac
--rad
--radan
--rah
--rai
--raj
--ral
--ran
--rano
--ras
--rb
--rba
--rbe
--rc
--rca
--rci
--rd
--rda
--rde
--rdi
--rdo
--re
--rei
--rel
--rella
--ren
--rensa
--rent
--rera
--res
--resco
--ret
--rett
--reul
--reve
--rey
--rf
--rfism
--rg
--rgi
--ri
--ria
--riaj
--rial
--rian
--rice
--rie
--rim
--rin
--rini
--rio
--rire
--ris
--rism
--rista
--rk
--rla
--rle
--rli
--rlo
--rm
--rma
--rme
--rmo
--rn
--rna
--rne
--rnita
--rno
--ro
--rolo
--roma
--ron
--rone
--rono
--rora
--ros
--rot
--rov
--rra
--rre
--rs
--rsa
--rse
--rsi
--rt
--rta
--rte
--rti
--rto
--ru
--rua
--rum
--rus
--rv
--rve
--rville
--ry
--rz
--rzi
--rzu
--s
--sa
--sac
--san
--sano
--sar
--sasse
--sassion
--sburg
--sc
--sca
--sce
--scens
--sch
--sci
--scia
--sco
--scono
--se
--sen
--set
--sey
--sh
--sheim
--shire
--si
--sia
--sie
--sim
--sin
--sina
--sino
--sio
--sion
--sis
--ska
--ski
--sm
--sma
--sne
--so
--son
--sra
--ss
--ssa
--ssant
--sse
--ssi
--ssia
--ssie
--ssin
--ssio
--ssion
--ssionaj
--ssios
--ssje
--ssne
--sso
--ssoma
--ssra
--ssu
--ssy
--st
--sta
--ste
--stein
--sti
--stica
--stich
--sto
--ston
--su
--sus
--swil
--sy
--t
--ta
--taceae
--tal
--tale
--tament
--tamente
--tan
--tar
--tare
--tari
--tava
--te
--tega
--tegg
--tein
--tej
--tello
--ten
--tensa
--ter
--tes
--tesse
--th
--tha
--thal
--ti
--tia
--tic
--tica
--tich
--tie
--tikon
--tin
--tion
--tions
--tis
--tism
--tita
--tiv
--tiva
--tive
--tivi
--tivo
--tla
--tlo
--tne
--to
--ton
--tor
--tore
--tori
--tos
--tosa
--tr
--tra
--tre
--tri
--tris
--triss
--tro
--trum
--try
--ts
--tsch
--tt
--tta
--tte
--tti
--tto
--tu
--tula
--tum
--tur
--tura
--ture
--tus
--tut
--twil
--ty
--tz
--u
--ua
--uaj
--ual
--uan
--ub
--uba
--uc
--uca
--ucci
--uce
--ud
--uda
--udo
--ue
--uel
--uf
--ugh
--ugn
--ui
--uia
--uil
--uin
--uit
--uj
--uja
--uje
--ul
--ula
--ule
--uli
--ulo
--ulos
--ult
--ulta
--ulu
--um
--ume
--umont
--un
--ung
--unta
--uo
--up
--upo
--ur
--ura
--ure
--uri
--uro
--urs
--urt
--ury
--us
--usa
--use
--ussion
--ut
--uta
--ute
--uth
--uto
--uv
--uve
--uvi
--ux
--uy
--v
--va
--val
--vano
--ve
--ver
--vet
--vi
--via
--vic
--ville
--visor
--vle
--vlo
--vne
--vo
--voma
--vra
--vu
--vus
--vy
--w
--wa
--wald
--wan
--way
--we
--well
--wi
--wil
--win
--wk
--wn
--wo
--wood
--ws
--x
--xa
--xis
--xo
--y
--ya
--yan
--ye
--yes
--yi
--yl
--yn
--yo
--ys
--yu
--z
--za
--zac
--zan
--zana
--zano
--zbach
--ze
--zent
--zer
--zi
--zia
--zie
--zin
--zio
--zione
--zioni
--zo
--zon
--zu
--zy
--zza
--zzano
--zze
--zzi
--zzo
--α
--ι
--ν
--ο
--ς
--υ
--ה
