!
"
#
##0
##1
##10
##11
##12
##13
##14
##15
##16
##17
##18
##19
##2
##20
##21
##22
##23
##24
##25
##26
##27
##28
##29
##3
##30
##31
##32
##33
##34
##35
##36
##37
##38
##39
##4
##40
##41
##42
##43
##44
##45
##46
##47
##48
##49
##5
##50
##51
##52
##53
##54
##55
##56
##57
##58
##59
##6
##60
##61
##62
##63
##64
##65
##66
##67
##68
##69
##7
##70
##71
##72
##73
##74
##75
##76
##77
##78
##79
##8
##80
##81
##82
##83
##84
##85
##86
##87
##88
##89
##9
##90
##91
##92
##93
##94
##95
##96
##97
##98
##99
$
%
&
'
(
)
*
+
,
-
.
/
0
00
000
000000
001
002
01
02
03
04
05
06
07
08
09
1
10
100
1000
101
11
12
13
14
15
150
16
17
18
180
19
1948
1952
1956
1960
1962
1964
1967
1968
1970
1972
1974
1975
1976
1978
1979
1980
1982
1983
1984
1985
1986
1987
1988
1989
1990
1991
1992
1993
1994
1995
1996
1997
1998
1999
2
20
200
2000
2001
2002
2003
2004
2005
2006
2007
2008
2009
2010
2011
2012
2013
2014
2015
2016
2017
2018
2019
2020
2021
2022
21
22
220
23
230
24
25
250
26
27
28
280
29
3
30
300
31
32
33
34
35
350
36
37
38
39
4
40
400
41
42
43
44
45
46
47
48
49
5
50
500
51
52
53
54
55
56
57
58
59
6
60
600
61
63
639
64
65
66
67
68
7
70
71
72
75
77
8
80
800
81
82
84
85
86
87
88
9
90
92
94
95
97
978
98
99
:
;
<
=
>
?
@
\
^
_
`
a
aa
ab
abbr
abbreviation
about
above
abstaining
ac
academy
accept
access
accessdate
accessed
according
account
accounts
acid
acre
act
action
active
ad
add
addclass
added
additional
address
admin
advanced
af
afc
affairs
africa
african
after
again
against
age
agency
ah
ai
aing
air
airport
al
albert
album
alias
aliases
align
all
allow
allows
alpha
already
also
alt
alternative
although
always
am
america
american
amount
an
analysis
anchor
ancient
and
angeles
another
anti
any
apollodorus
appear
appears
apple
application
apply
appropriate
april
arab
arabic
archive
archived
archives
are
area
areas
arg
args
argument
arguments
army
around
array
art
article
articles
arts
as
asia
asian
associated
association
at
atmosphere
attr
au
audio
august
auk
aung
australia
author
authority
authors
auto
automatically
available
avoid
aw
award
awards
away
aye
b
ba
back
background
bad
bago
ban
band
bangkok
bank
bar
baryon
base
based
basic
batch
baw
bay
bb
bbc
bc
bce
bd
be
because
been
before
begin
beginning
being
below
bengal
best
beta
better
between
bg
bhamo
big
bill
billboard
billion
biography
birth
bit
black
blank
block
blog
blue
blues
blurb
bo
board
body
bogale
bold
book
books
booksources
boolean
border
born
bot
both
bottom
botupload
box
br
brackets
break
bridge
britannica
british
brown
browser
bu
buddha
buddhism
buddhist
building
burma
burmese
business
but
button
by
c
ca
calendar
california
call
called
cambridge
can
canada
cannot
capital
caption
card
case
cases
cat
categories
category
cats
cc
cd
cdc
ce
cell
cells
center
central
centre
century
cf
cfb
cfg
chan
change
changes
channel
chapter
character
characters
charles
charmed
chart
chaung
check
chi
chicago
chief
child
children
chin
china
chinese
cho
christian
church
circle
citation
cite
citeq
city
civil
claim
claims
class
classes
classical
clean
clear
click
close
club
cluster
cm
cn
co
coast
code
codes
coins
col
collapsible
collection
college
color
colors
colspan
columbia
column
columns
com
combination
come
committee
common
commons
community
company
complete
complex
computer
concat
conference
config
configuration
constellation
contact
contain
containing
contains
content
contentcat
control
convert
coordinates
copy
copyright
core
corporation
correct
could
council
count
countries
country
county
course
cover
covid
create
created
crew
cross
cs
css
csstext
cubic
cultural
culture
cup
current
currently
custom
d
da
dagon
daily
dala
dan
dar
dark
data
database
datavalue
date
dates
david
day
days
dc
dd
ddg
de
dead
death
dec
december
decimal
dedaye
deep
def
default
defaults
defined
degree
del
democratic
den
density
department
deprecated
description
descriptions
design
designation
desktop
details
development
df
dhamma
di
dictionary
did
different
digit
digital
digits
direct
directly
director
discussion
disp
display
displayed
displays
district
div
division
dmy
do
doc
docking
document
documentation
does
doesn
doi
domain
don
done
dot
double
down
dr
drive
dst
du
due
during
dynasty
e
each
early
earth
east
eastern
economic
ed
edit
editing
edition
editor
editors
edits
eds
education
ee
effect
einme
either
el
election
elections
electric
electronic
element
elements
eleven
else
elseif
em
email
empty
en
encyclopedia
end
energy
eng
engine
engineering
england
english
entertainment
entity
entry
environment
eo
ep
epitome
equivalent
era
err
error
errors
es
established
et
etc
europe
european
even
event
every
example
examples
except
exist
exists
exponent
extended
extension
external
extra
eye
f
fa
facebook
fair
falls
false
family
fe
feature
features
feb
february
feedback
female
festival
ff
ffffff
fi
field
fields
fifa
file
files
film
final
find
fire
first
five
fix
fixed
flag
flight
float
floor
fm
fmt
folk
followed
following
font
food
foot
football
for
forbes
force
forces
foreign
forest
form
format
formats
formatting
former
formula
found
foundation
four
fr
frac
frame
france
free
freedom
french
from
front
ft
full
function
functions
further
future
g
ga
galaxy
game
games
gardenia
gauge
gb
ge
gen
general
generally
generation
generic
genus
george
german
germany
get
getargs
getparent
gif
give
given
gje
global
gm
gmmtv
go
god
gold
golden
good
google
gothic
gov
goverment
government
grand
gray
great
greek
green
group
groups
grunge
gsub
guide
guidelines
guinea
guitar
gway
gyi
h
ha
had
half
hall
han
hand
handler
hard
hardcore
harris
has
have
having
he
head
header
heading
health
heart
heavy
height
hello
help
henry
her
here
heritage
hi
hibiscus
hidden
high
hill
him
hinthada
his
historical
history
hiv
hla
hlaing
hlaingbwe
hlaingtharya
hlut
ho
homalin
home
hong
hopang
hospital
host
hot
hour
hours
house
how
however
hpa
hpar
hpyu
hsipaw
hta
htan
htantabin
htaung
html
http
https
hu
human
i
iana
icon
id
identifier
ietf
if
ii
iii
im
image
images
img
imp
imperial
important
in
inc
inch
include
included
includes
including
independent
index
india
indian
individual
indonesia
industrial
info
infobox
information
ingapu
initial
injangyang
inline
inn
input
insert
inside
instead
institute
integer
intended
interface
internal
international
internet
interview
interwiki
into
introduction
invalid
ip
ipa
ipairs
iran
irrawaddy
is
isbn
island
islands
iso
isp
issn
issue
issues
it
italic
item
items
its
itself
iucn
iv
j
ja
james
january
japan
japanese
java
jazz
ji
john
join
journal
jpg
jr
july
june
just
k
ka
kaing
kale
kamma
kan
kanbalu
kangyidaunt
kar
karate
karen
kaw
kawa
kawng
kayan
keep
key
kg
kha
khan
khin
khon
khun
kim
kin
king
kingdom
kj
km
know
knowledge
known
knu
ko
kolkata
kone
kong
korea
ku
kun
kutkai
kwet
kwin
kya
kyaiklat
kyar
kyauk
kyaukme
kyaukpadaung
kyaung
kyaunggon
kyaw
kyi
kyin
kyon
kyonpyaw
kyun
kywe
l
la
label
labutta
lady
lake
lan
land
lang
langcode
language
languages
lanka
laptop
lar
large
lashio
last
lat
late
later
latin
launch
laung
law
laws
lay
lb
le
lead
leader
leading
league
least
led
lee
left
legal
lel
len
length
less
let
letter
letters
level
lewis
li
library
license
life
light
like
limited
lin
line
lines
link
linked
links
linux
list
listed
lists
little
live
living
ll
loaddata
loc
local
location
log
logo
loi
loke
lon
london
lone
long
look
lord
los
lost
lotus
louis
love
low
lower
ltd
lu
lua
m
ma
mac
machine
made
mag
magazine
maha
mai
main
mainsnak
mainstream
maint
major
make
makes
making
malaysia
male
man
management
mandalay
manual
many
map
mar
march
margin
mark
market
marks
markup
martin
mary
mask
mass
master
match
matches
material
materials
math
matupi
maubin
maung
maungdaw
maw
mawlamyine
mawlamyinegyun
max
maximum
may
md
mdy
me
means
medal
media
mediawiki
medical
medicine
mee
meiktila
members
memory
men
mental
meson
message
messages
met
meta
metal
method
mg
mi
michael
microsoft
mid
middle
might
military
million
mimu
min
mind
minhla
minister
ministry
minutes
mir
miss
missing
mission
ml
mm
mmr
mobile
mode
model
modern
module
modules
moe
mogaung
mohnyin
mol
mole
momauk
mon
monastery
mong
month
months
monywa
moon
more
morrissey
most
mountain
move
movement
movie
mp
mps
mr
mrauk
ms
msg
mt
mu
multiple
muse
museum
music
must
mw
my
mya
myanaung
myanmar
myauk
myaungmya
myay
myin
myingyan
myint
myit
myitkyina
myittha
myo
myothit
mythology
n
na
nam
name
named
names
namespace
namhkan
nan
nanyun
nar
naruto
nasa
nat
national
nations
native
natogyi
nattalin
natural
nature
nauk
naung
navbox
navy
nawng
nd
ne
near
nebula
necessary
need
needed
needs
negative
net
network
never
new
news
next
ng
nga
ngapudaw
ngc
nge
nhk
ni
night
nil
ninja
nld
no
node
noise
non
none
normal
north
northern
not
note
notes
nothing
notice
november
now
nu
num
number
numbers
numeric
nyaung
o
obj
object
october
od
oe
of
off
office
official
offset
often
ogg
ohn
oil
oke
old
omega
on
once
one
online
only
open
operating
operation
opt
option
optional
options
or
orally
orange
order
org
organization
origin
original
os
other
others
otherwise
our
out
output
outside
over
override
overview
own
oxford
p
pa
pacific
padding
page
pagename
pages
pagoda
paing
pairs
palace
pale
pali
pan
pang
panghkam
pangsang
par
param
parameter
parameters
params
parent
park
parms
part
parts
party
pass
passed
past
pat
path
pattern
patterns
pauk
paul
paung
pay
pc
pcodes
pdf
pe
peace
peak
people
per
period
periodical
permission
person
personal
peter
pframe
pg
ph
philippines
photo
php
phra
physical
phyu
pi
picture
pin
place
placed
plain
plan
please
plus
png
point
points
poke
policy
political
poly
pon
pop
population
port
portal
pos
position
possible
post
pound
power
pp
pre
precision
prefix
prefixes
present
presentation
president
press
pressure
primary
prince
private
problems
process
processing
produces
production
profile
program
programming
progress
project
projects
prop
proper
properties
property
props
protected
protection
proto
protocol
provide
provided
province
ps
pt
pu
public
publication
published
publisher
publishing
punk
purple
put
px
pyapon
pyar
pyawbwe
pyay
pyi
pyin
pyithuhluttaw
q
qid
qualifier
queen
questions
quote
r
ra
radio
railway
range
rank
rate
rather
raw
ray
rd
re
read
reader
readers
reading
real
reason
record
records
rect
red
redirect
ref
reference
references
region
regional
related
release
relevant
relief
religion
remove
removed
replace
report
republic
request
require
required
research
result
results
ret
retrieved
return
returned
returns
review
ri
richard
right
rights
ring
river
road
robert
rock
roll
roman
root
round
route
row
rows
royal
ru
rule
rules
run
russia
russian
s
sa
saint
sam
same
san
sandbox
sanskrit
sar
saturn
save
saw
say
sc
scale
scheme
school
science
scientific
scott
screen
script
se
sea
search
season
second
section
sections
security
see
seen
seik
seikkan
sein
select
selected
self
sentence
sep
separate
separated
separator
sepc
sept
september
series
server
service
services
set
seven
several
shan
share
she
shenzhen
shey
shi
shin
ship
short
should
show
showing
shown
shows
shwe
shwebo
shwegyin
si
side
sign
silver
similar
simple
sin
since
singapore
single
sir
sit
site
sites
sittwe
six
size
sky
small
smith
snippets
so
social
society
software
solar
solid
some
something
son
song
sort
sound
source
sources
south
southeast
southern
soyuz
sp
space
spacecraft
spaces
span
spanish
special
species
specific
specified
specify
speed
split
sport
sports
square
sri
st
standard
star
stars
start
state
statement
states
station
statistics
status
still
stone
story
str
strategy
street
strikers
string
strip
stroke
strong
studies
study
stupa
style
styles
su
sub
subject
substitute
success
such
suffix
suggested
sum
summary
summer
sumprabum
sun
super
support
supported
sure
surname
survey
suu
svg
switch
symbol
symbols
syntax
system
systems
t
ta
tab
table
tables
tag
tags
tai
taikkyi
tail
taing
taiwan
take
takes
talk
tan
tangyan
tar
target
tat
taung
taungoo
taungtha
taw
taxon
td
tds
te
team
tech
technical
technology
television
template
templateargs
templates
temple
ten
term
terminus
terms
test
testing
texas
text
th
tha
thabaung
thai
thailand
than
thar
that
thaung
thazi
the
thea
thein
their
them
then
theory
there
these
thet
they
thi
thin
thingangyun
things
third
this
thit
thomas
thongwa
those
three
through
thu
thumb
thumbnail
ti
till
time
times
tin
title
titles
tm
tmp
tnt
to
today
todo
together
tokyo
ton
tone
tonumber
too
tool
tools
tooltip
top
topic
tostring
total
town
township
tr
track
tracking
trade
traditional
training
trans
translate
translated
translation
tree
trim
true
try
tu
tun
tv
twantay
twin
two
type
types
tz
u
ucode
uk
un
under
unesco
unicode
union
unit
unitcode
united
units
universal
university
unknown
unless
unnamed
until
up
update
upload
upper
upright
uri
url
us
usa
usage
use
used
useful
user
users
uses
using
ustring
usually
utc
utilities
utype
v
va
val
valid
valley
value
values
van
var
variable
variant
various
version
vertical
very
vi
via
video
vietnam
view
village
visual
voiced
voiceless
vol
volume
vowel
vs
w
wa
waing
waingmaw
wakema
wales
wall
wan
want
war
ward
warning
was
washington
wat
watch
water
wave
waw
way
we
web
website
week
weekly
weight
well
were
west
western
wet
wetlet
what
when
where
whether
which
while
white
who
why
wide
width
wiki
wikibase
wikidata
wikilink
wikimedia
wikipedia
wikis
wikitext
will
william
win
windows
with
within
without
wmf
women
word
words
work
working
works
world
would
wp
wrap
write
writing
written
wrong
ws
wun
wundwin
www
x
xi
y
ya
yae
yamethin
yan
yang
yangon
yar
yat
yawng
ye
year
years
yegyi
yellow
yes
yesno
yet
yi
yin
ymd
yoe
yon
york
you
young
your
youtube
yu
ywar
yyyy
z
za
zalun
zay
zee
zen
zero
zh
zin
zone
zyyy
{
|
}
~
£
§
«
®
¯
°
±
²
³
´
µ
·
¸
»
½
×
ø
ŋ
ʰ
ʷ
ʼ
ˈ
ː
̀
́
̂
̃
̄
̆
̇
̈
̉
̊
̌
̓
̔
̛
̝
̞
̟
̠
̣
̥
̧
̨
̪
̱
̸
͂
ͅ
α
β
δ
ε
η
θ
ι
λ
μ
ν
ξ
ο
ρ
ς
σ
τ
υ
ω
а
в
е
и
м
с
т
،
ا
ب
ت
ج
ح
د
ر
ص
ع
ف
ق
ل
م
ن
ه
و
َ
ُ
ِ
ّ
ْ
ٓ
ٔ
ی
۱
۲
त
ा
ि
्
র
া
ে
্
ா
ி
்
്
්
ා
ි
ก
ง
จ
ด
ต
ท
น
บ
พ
ม
ย
ร
ล
ว
ศ
ส
อ
ั
า
ิ
ี
ึ
ื
ุ
ู
็
่
้
์
་
က
ကက
ကခ
ကဂ
ကင
ကစ
ကစဉ
ကစပ
ကဆ
ကဆက
ကဇ
ကည
ကညင
ကဋ
ကဏ
ကဏန
ကတ
ကတစ
ကတည
ကထ
ကထက
ကဒ
ကဓ
ကန
ကနန
ကနဥ
ကပ
ကပင
ကဖ
ကဗ
ကဘ
ကမ
ကမင
ကယ
ကယန
ကရ
ကရက
ကရင
ကရစ
ကရဏ
ကရန
ကရဝ
ကလ
ကလက
ကလင
ကလစ
ကလည
ကလန
ကလပ
ကလမ
ကဝ
ကဝတ
ကဝမ
ကသ
ကသစ
ကသည
ကဟ
ကအ
ကအက
ကအခ
ကအစ
ကအတ
ကအမ
ကအသ
ကဿပ
ခ
ခက
ခခ
ခခရ
ခင
ခစ
ခဆ
ခဏ
ခဏဆ
ခတ
ခဒ
ခန
ခပ
ခဖ
ခဗ
ခဘ
ခမ
ခမည
ခမရ
ခယ
ခရ
ခရက
ခရစ
ခရမ
ခလ
ခလရ
ခဝ
ခသ
ခသည
ခအ
ခအဖ
ဂ
ဂက
ဂင
ဂစ
ဂဇ
ဂဇင
ဂဏ
ဂဏန
ဂတ
ဂဒ
ဂန
ဂနယ
ဂပ
ဂဗ
ဂမ
ဂမဟ
ဂယ
ဂယက
ဂရ
ဂရက
ဂရင
ဂရစ
ဂရန
ဂရပ
ဂရမ
ဂလ
ဂလက
ဂလင
ဂလန
ဂဝ
ဂသ
ဂဟ
ဂဠ
ဂအဖ
ဃ
ဃန
ဃရ
င
ငင
ငတ
ငန
ငပ
ငဖ
ငမ
ငယ
ငရ
ငလ
စ
စက
စကက
စကတ
စကန
စကလ
စခ
စခန
စခမ
စင
စစ
စဉ
စည
စတ
စတက
စတင
စတစ
စတန
စတမ
စထ
စထရ
စန
စနစ
စပ
စပယ
စဖ
စဗ
စဘ
စမ
စမစ
စမတ
စမမ
စယ
စရ
စရစ
စရပ
စလ
စလင
စလန
စလမ
စဝ
စသ
စသည
စသဖ
စသမ
စအ
ဆ
ဆက
ဆခ
ဆင
ဆစ
ဆည
ဆဋ
ဆတ
ဆထ
ဆဒ
ဆန
ဆပ
ဆဘ
ဆမ
ဆယ
ဆရ
ဆရသည
ဆလ
ဆလင
ဆသ
ဆသည
ဆဟ
ဇ
ဇက
ဇဂ
ဇင
ဇစ
ဇဉ
ဇတ
ဇန
ဇပ
ဇဗ
ဇဘက
ဇမ
ဇယ
ဇရ
ဇရပ
ဇလ
ဇဝ
ဇဝင
ဇဝတ
ဇသ
ဈ
ဉ
ည
ညက
ညင
ညစ
ညဉ
ညည
ညတ
ညန
ညပ
ညဘက
ညမ
ညရ
ညအခ
ဋ
ဋက
ဋကတ
ဌ
ဌက
ဌကထ
ဌဂ
ဌန
ဌဖ
ဌမ
ဌမမ
ဌသ
ဌသည
ဌအဖ
ဍ
ဍက
ဍတ
ဍန
ဍပ
ဍမ
ဍရ
ဎ
ဏ
ဏက
ဏဓ
ဏန
ဏဗ
ဏဘ
ဏမ
ဏဝ
ဏသ
ဏသည
တ
တက
တကမ
တကယ
တကသ
တခ
တခရ
တဂ
တင
တစ
တစင
တဆ
တဆက
တဆင
တဆမ
တဆယ
တဇ
တဉ
တည
တဏ
တတ
တထ
တဒ
တန
တနင
တနည
တပ
တပင
တပစ
တပည
တပတ
တဖ
တဖက
တဖန
တဗ
တဘ
တဘက
တမ
တမက
တမင
တမန
တမဗ
တမဘ
တမမ
တမလ
တယ
တယမ
တရ
တရက
တရန
တရပ
တရဖ
တရမ
တလ
တလက
တလင
တလည
တလန
တဝ
တဝက
တဝဂ
တဝင
တဝန
တသ
တသက
တသည
တသတ
တသမ
တဟ
တအ
တအဖ
တအမ
တဥ
ထ
ထက
ထင
ထစ
ထည
ထတ
ထန
ထပ
ထဘ
ထမ
ထမင
ထယ
ထရ
ထရစ
ထရန
ထရပ
ထရမ
ထလ
ထဝင
ထသ
ထအက
ဒ
ဒက
ဒကမ
ဒခ
ဒဂ
ဒင
ဒစ
ဒဆ
ဒဌ
ဒဏ
ဒတ
ဒထ
ဒန
ဒနယ
ဒပ
ဒပည
ဒဖ
ဒဗ
ဒဗလ
ဒဘ
ဒမ
ဒမင
ဒယ
ဒရ
ဒရစ
ဒရမ
ဒရယ
ဒလ
ဒလက
ဒဝ
ဒသ
ဒသည
ဒသန
ဒသမ
ဒဟ
ဒအ
ဒအမည
ဒအရ
ဒအလ
ဒဿန
ဒဿနမင
ဓ
ဓက
ဓဂ
ဓစ
ဓညဝတ
ဓတ
ဓန
ဓနရ
ဓနသဟ
ဓပ
ဓဘ
ဓမ
ဓရ
ဓလ
ဓဝ
ဓဝင
ဓသ
ဓသည
ဓဟ
ဓအယ
န
နက
နခ
နဂ
နင
နစ
နဆ
နဉ
နည
နတ
နတစ
နထ
နဒ
နန
နပ
နပန
နဖ
နဗ
နဘ
နမ
နယ
နရ
နရပတ
နရသ
နလက
နဝ
နဝဒ
နသ
နသည
နဟ
နအ
နအဖ
ပ
ပက
ပကတ
ပခ
ပခန
ပဂ
ပင
ပစ
ပဆ
ပဇ
ပဉ
ပည
ပညတ
ပဋ
ပဌမ
ပဏ
ပတ
ပထ
ပထမ
ပထမက
ပထမကမ
ပထမဆ
ပထမဆင
ပထမတ
ပထမတန
ပထမန
ပထမပ
ပထမမ
ပထမသ
ပထမအက
ပထမအဆင
ပထမဥ
ပထဝ
ပဒ
ပဓ
ပန
ပပ
ပဗ
ပဘ
ပမ
ပမည
ပယ
ပယင
ပရ
ပရက
ပရင
ပရန
ပရပ
ပရမ
ပရမတ
ပရဟ
ပလ
ပလက
ပလင
ပလတ
ပလပ
ပဝ
ပသ
ပသည
ပသမဂ
ပဟ
ပအ
ပဿ
ပဿန
ဖ
ဖက
ဖခင
ဖဂန
ဖင
ဖစ
ဖဆပလ
ဖဆပလအစ
ဖဆပလအဖ
ဖည
ဖတ
ဖန
ဖဘ
ဖမ
ဖယ
ဖရ
ဖရက
ဖရင
ဖရန
ဖလ
ဖလင
ဖလန
ဖလမ
ဖဝ
ဗ
ဗက
ဗကပ
ဗကပတ
ဗကပန
ဗကပမ
ဗကသ
ဗဂ
ဗင
ဗစ
ဗဆ
ဗဇ
ဗည
ဗတ
ဗထ
ဗဒ
ဗန
ဗပ
ဗမ
ဗယ
ဗရ
ဗရင
ဗရမ
ဗလ
ဗလက
ဗသ
ဗဟ
ဗဟန
ဘ
ဘက
ဘခ
ဘဂ
ဘင
ဘစ
ဘဆ
ဘဇ
ဘဏ
ဘတ
ဘတင
ဘဒ
ဘန
ဘဖ
ဘဘ
ဘမ
ဘယ
ဘရ
ဘရင
ဘရစ
ဘရန
ဘရယ
ဘလ
ဘလက
ဘဝ
ဘဝက
ဘဝင
ဘဝဇ
ဘဝတ
ဘဝတစ
ဘဝန
ဘဝပ
ဘဝဖ
ဘဝမ
ဘဝရ
ဘဝသ
ဘသ
ဘသန
ဘဟ
ဘအ
ဘဥ
မ
မက
မကင
မကထ
မကန
မကပ
မကဘ
မကသ
မခ
မခင
မခန
မခရ
မဂ
မင
မငယ
မစ
မစက
မစင
မဆ
မဆက
မဆင
မဆန
မဆလ
မဇ
မဉ
မည
မဋ
မဌ
မဏ
မဏတ
မတ
မတက
မတင
မတစ
မတည
မတတ
မတန
မတပ
မတဖ
မတမ
မတရ
မတလ
မတသည
မတဟ
မတအ
မတအဖ
မတဥ
မထ
မထင
မထည
မဒ
မဒညတ
မဓ
မန
မနက
မနည
မနပ
မပ
မပင
မဖ
မဗ
မဘ
မမ
မမင
မမည
မယ
မရ
မရက
မရခ
မရင
မရတ
မရန
မရပ
မရဘ
မရမ
မရရ
မရသ
မလ
မလက
မလင
မလည
မဝ
မဝင
မဝတ
မဝန
မသ
မသက
မသင
မသည
မသတ
မသန
မသမ
မဟ
မအ
မအက
မအင
မအထ
မအပ
မအဖ
မအမ
မအရ
ယ
ယက
ယကထ
ယကမ
ယကအဖ
ယခ
ယခင
ယဂ
ယင
ယစ
ယစက
ယစစ
ယဆ
ယဆင
ယဇ
ယဉ
ယတ
ယတန
ယတပ
ယထ
ယဒ
ယန
ယပ
ယဖ
ယဗ
ယဘ
ယမ
ယမက
ယမင
ယမန
ယယ
ယရ
ယလ
ယဝ
ယဝန
ယသ
ယသည
ယသမ
ယဟ
ယအ
ယအက
ယအစ
ယအဆင
ယအမ
ယဥက
ရ
ရက
ရကန
ရခ
ရခက
ရဂ
ရင
ရစ
ရစက
ရစဉ
ရဆ
ရဇ
ရည
ရဋ
ရဌ
ရဏ
ရတ
ရတစ
ရတတ
ရတန
ရတပ
ရတယ
ရထ
ရဒ
ရဓ
ရန
ရပ
ရဖ
ရဗ
ရဘ
ရမ
ရမင
ရမစ
ရမည
ရမယ
ရမဟ
ရယ
ရရ
ရရင
ရရန
ရလ
ရလက
ရလဒ
ရဝ
ရဝန
ရသ
ရသက
ရသစ
ရသည
ရသဖ
ရသမ
ရသလ
ရဟ
ရဟတ
ရဟန
ရအ
ရအထက
ရအန
ရအပ
ရအဖ
ရအမ
ရဥ
လ
လက
လကတ
လကမ
လခ
လခန
လဂ
လင
လစ
လစဉ
လဆ
လဆန
လဇ
လည
လတ
လတစ
လတန
လထ
လဒ
လန
လပ
လပတ
လဖ
လဗ
လဘ
လဘမ
လမ
လမင
လယ
လရ
လရင
လလ
လဝ
လဝတ
လသ
လသည
လသမဂ
လဟ
လဟယ
လအ
လအက
လအတ
လအထ
လအပ
ဝ
ဝက
ဝကမ
ဝခ
ဝဂ
ဝင
ဝစ
ဝဆ
ဝဇ
ဝဋ
ဝဏ
ဝတ
ဝတရ
ဝထ
ဝဒ
ဝဓ
ဝန
ဝနယ
ဝပ
ဝပတ
ဝဖ
ဝဗ
ဝဘ
ဝမ
ဝမင
ဝမရ
ဝယ
ဝရ
ဝရမ
ဝလ
ဝဝ
ဝဝဝ
ဝဝဝဝ
ဝသ
ဝသည
ဝဠ
ဝအ
ဝအတ
ဝအထ
ဝအလ
သ
သက
သခ
သခင
သဂ
သင
သစ
သဆ
သဇ
သဇင
သဉ
သည
သဏ
သတ
သတင
သတစ
သတည
သထ
သဒ
သဓ
သန
သနက
သနည
သနဌ
သနန
သနပ
သနပည
သနမ
သနလ
သပ
သပတ
သဖ
သဖန
သဗ
သဘ
သဘင
သမ
သမက
သမဂ
သမင
သမဏဗ
သမန
သမပ
သမဝ
သယ
သယရ
သရ
သရက
သရင
သရဏဂ
သရန
သရဖ
သရမ
သရသ
သလ
သလက
သလင
သလစ
သလမင
သဝ
သသ
သသည
သဟ
သဟဇ
သအ
သအခ
သအတ
သအဖ
သအမ
သအလ
ဟ
ဟက
ဟခ
ဟင
ဟစ
ဟစန
ဟစနစ
ဟတ
ဟဒ
ဟန
ဟပ
ဟပတ
ဟမ
ဟယ
ဟရ
ဟသ
ဠ
အ
အက
အကန
အကမ
အကယ
အခ
အခက
အခင
အခတ
အခန
အခမ
အဂ
အဂတ
အင
အငယ
အစ
အစက
အစခ
အစင
အစစ
အစဉ
အစည
အစတ
အစပ
အစမ
အစရ
အဆ
အဆက
အဆင
အဆစ
အဆန
အဆပ
အဆမ
အဇ
အည
အညစ
အဋ
အဏ
အတ
အတက
အတင
အတည
အတတ
အတန
အထ
အထက
အထင
အထည
အထန
အထပ
အထမ
အဒ
အဓ
အဓမ
အန
အနက
အနည
အနတ
အနန
အနယ
အပ
အပင
အပစ
အပတ
အပန
အဖ
အဖတ
အဖန
အဖမ
အဗ
အဘ
အဘက
အဘယ
အမ
အမက
အမင
အမည
အမတ
အမမ
အမရပ
အယ
အရ
အရက
အရင
အရစ
အရဆ
အရည
အရတ
အရန
အရပ
အရဖ
အရမ
အရလည
အရသ
အရဟ
အရဟတ
အလ
အလက
အလင
အလည
အလတ
အလန
အလမ
အလယ
အဝ
အဝင
အဝတ
အဝန
အဝယ
အဝလ
အသ
အသက
အသင
အသစ
အသည
အသတ
အသန
အသရ
အဟ
အအ
အဥ
ဣ
ဣတ
ဣန
ဣသရ
ဤ
ဤက
ဤကဏ
ဤကန
ဤကဗ
ဤခ
ဤင
ဤစ
ဤစက
ဤဆ
ဤဇ
ဤတ
ဤတမ
ဤတရ
ဤဒ
ဤန
ဤနည
ဤပ
ဤဖ
ဤဘ
ဤဘဒ
ဤမ
ဤရ
ဤလ
ဤဝ
ဤသ
ဤသည
ဤသတ
ဤအ
ဤအက
ဤအခ
ဤအတ
ဤအဖ
ဤအမ
ဤအရ
ဤဥပဒ
ဥ
ဥက
ဥဂ
ဥစ
ဥတ
ဥဒ
ဥန
ဥပ
ဥပစ
ဥပဇ
ဥပဒ
ဥပမ
ဥပရ
ဥမ
ဥမင
ဥယ
ဥရ
ဥသ
ဧ
ဧက
ဧကန
ဧကပ
ဧကရ
ဧခ
ဧည
ဧတဒဂ
ဧပ
ဧရ
ဧဝ
ဩ
ဩက
ဩဂ
ဩစတ
ဩဇ
ဩဒ
ဩဖ
ဩဘ
ဩမ
ဩရ
ဩဝ
ဪ
ါ
ာ
ိ
ီ
ု
ူ
ေ
ဲ
ဳ
ံ
့
း
္
်
ျ
ြ
ွ
ှ
ဿ
ဿတ
ဿဒ
ဿန
ဿဗ
ဿယ
၀
၀၀
၀၀၀
၀၁
၀၃
၀၄
၀၅
၀၆
၀၇
၀၈
၀၉
၁
၁၀
၁၀၀
၁၀၀၀
၁၀၀၀၀
၁၀၁
၁၀၃
၁၀၅
၁၁
၁၁၀
၁၁၁
၁၁၂
၁၁၃
၁၁၅
၁၂
၁၂၀
၁၂၀၀
၁၂၁
၁၂၃
၁၂၅
၁၂၇
၁၂၇၈
၁၂၈
၁၂၉
၁၃
၁၃၀
၁၃၀၀
၁၃၂
၁၃၅
၁၃၆
၁၃၈
၁၄
၁၄၀
၁၄၄
၁၄၈
၁၅
၁၅၀
၁၅၀၀
၁၆
၁၆၀
၁၆၀၀
၁၇
၁၇၅
၁၇၈၂
၁၈
၁၈၀
၁၈၀၀
၁၈၁၉
၁၈၂၄
၁၈၂၆
၁၈၃၀
၁၈၃၆
၁၈၃၇
၁၈၄၆
၁၈၅၀
၁၈၅၂
၁၈၅၃
၁၈၅၄
၁၈၅၆
၁၈၅၇
၁၈၅၉
၁၈၆
၁၈၆၁
၁၈၆၃
၁၈၆၄
၁၈၆၅
၁၈၆၆
၁၈၆၇
၁၈၆၈
၁၈၆၉
၁၈၇၁
၁၈၇၂
၁၈၇၃
၁၈၇၄
၁၈၇၅
၁၈၇၆
၁၈၇၈
၁၈၇၉
၁၈၈၀
၁၈၈၁
၁၈၈၂
၁၈၈၃
၁၈၈၄
၁၈၈၅
၁၈၈၆
၁၈၈၇
၁၈၈၈
၁၈၈၉
၁၈၉
၁၈၉၀
၁၈၉၁
၁၈၉၂
၁၈၉၃
၁၈၉၄
၁၈၉၅
၁၈၉၆
၁၈၉၇
၁၈၉၈
၁၈၉၉
၁၉
၁၉၀၀
၁၉၀၁
၁၉၀၂
၁၉၀၃
၁၉၀၄
၁၉၀၅
၁၉၀၆
၁၉၀၇
၁၉၀၈
၁၉၀၉
၁၉၁
၁၉၁၀
၁၉၁၁
၁၉၁၂
၁၉၁၃
၁၉၁၄
၁၉၁၅
၁၉၁၆
၁၉၁၇
၁၉၁၈
၁၉၁၉
၁၉၂
၁၉၂၀
၁၉၂၁
၁၉၂၂
၁၉၂၃
၁၉၂၄
၁၉၂၅
၁၉၂၆
၁၉၂၇
၁၉၂၈
၁၉၂၉
၁၉၃
၁၉၃၀
၁၉၃၁
၁၉၃၂
၁၉၃၃
၁၉၃၄
၁၉၃၅
၁၉၃၆
၁၉၃၇
၁၉၃၈
၁၉၃၉
၁၉၄
၁၉၄၀
၁၉၄၁
၁၉၄၂
၁၉၄၃
၁၉၄၄
၁၉၄၅
၁၉၄၆
၁၉၄၇
၁၉၄၈
၁၉၄၉
၁၉၅
၁၉၅၀
၁၉၅၁
၁၉၅၂
၁၉၅၃
၁၉၅၄
၁၉၅၅
၁၉၅၆
၁၉၅၇
၁၉၅၈
၁၉၅၉
၁၉၆
၁၉၆၀
၁၉၆၁
၁၉၆၂
၁၉၆၃
၁၉၆၄
၁၉၆၅
၁၉၆၆
၁၉၆၇
၁၉၆၈
၁၉၆၉
၁၉၇
၁၉၇၀
၁၉၇၁
၁၉၇၂
၁၉၇၃
၁၉၇၄
၁၉၇၅
၁၉၇၆
၁၉၇၇
၁၉၇၈
၁၉၇၉
၁၉၈
၁၉၈၀
၁၉၈၁
၁၉၈၂
၁၉၈၃
၁၉၈၄
၁၉၈၅
၁၉၈၆
၁၉၈၇
၁၉၈၈
၁၉၈၉
၁၉၉
၁၉၉၀
၁၉၉၁
၁၉၉၂
၁၉၉၃
၁၉၉၄
၁၉၉၅
၁၉၉၆
၁၉၉၇
၁၉၉၈
၁၉၉၉
၂
၂၀
၂၀၀
၂၀၀၀
၂၀၀၁
၂၀၀၂
၂၀၀၃
၂၀၀၄
၂၀၀၅
၂၀၀၆
၂၀၀၇
၂၀၀၈
၂၀၀၉
၂၀၁
၂၀၁၀
၂၀၁၁
၂၀၁၂
၂၀၁၃
၂၀၁၄
၂၀၁၅
၂၀၁၆
၂၀၁၇
၂၀၁၈
၂၀၁၉
၂၀၂၀
၂၀၂၁
၂၀၂၂
၂၁
၂၂
၂၂၀
၂၃
၂၄
၂၅
၂၅၀
၂၆
၂၇
၂၈
၂၉
၃
၃၀
၃၀၀
၃၀၀၀
၃၁
၃၂
၃၃
၃၄
၃၅
၃၅၀
၃၆
၃၇
၃၈
၃၉
၄
၄၀
၄၀၀
၄၀၀၀
၄၁
၄၂
၄၃
၄၄
၄၅
၄၆
၄၇
၄၈
၄၉
၅
၅၀
၅၀၀
၅၀၀၀
၅၁
၅၂
၅၃
၅၄
၅၅
၅၅၀
၅၆
၅၇
၅၈
၅၉
၆
၆၀
၆၀၀
၆၁
၆၂
၆၃
၆၄
၆၅
၆၆
၆၇
၆၈
၆၉
၆၉၀
၇
၇၀
၇၀၀
၇၁
၇၂
၇၃
၇၄
၇၅
၇၆
၇၇
၇၈
၇၉
၈
၈၀
၈၀၀
၈၁
၈၂
၈၃
၈၄
၈၄၂
၈၅
၈၆
၈၇
၈၈
၈၉
၉
၉၀
၉၀၀
၉၁
၉၂
၉၃
၉၄
၉၅
၉၆
၉၇
၉၈
၉၉
၊
။
၌
၍
၎
၏
ၐ
ၜ
ၠ
ၤ
ႈ
ႏ
႐
႔
႕
​
‌
‍
‎
‑
–
—
‘
’
“
”
†
‡
•
…
′
″
⁄
⁠
€
→
↔
↷
−
∓
∗
⋅
③
④
⑦
─
◌
☉
☎
✮
⺀
⺄
⺆
⺈
⺊
⺌
⺕
⺝
⺸
⺼
⿰
⿱
⿲
⿳
⿴
⿵
⿶
⿷
⿸
⿹
⿺
⿻
、
。
《
》
「
」
〢
あ
い
う
お
か
き
し
す
た
て
と
な
の
は
み
ら
り
ろ
゙
゚
ア
イ
オ
ク
コ
シ
ス
タ
テ
ト
ノ
ハ
ヒ
フ
ユ
ラ
リ
ル
ロ
ン
ヶ
・
ー
㇁
㇂
㇄
㇇
㇈
㇉
㇓
㐁
㐄
㐅
㐌
㐫
㐬
㐭
㐮
㐱
㑒
㒵
㒸
㒼
㓁
㓞
㔾
㕛
㕣
㖾
㘝
㚅
㚇
㚔
㚘
㝉
㝡
㝴
㝵
㞋
㞢
㞷
㠩
㠭
㠯
㡀
㡭
㡿
㢲
㢴
㣇
㣺
㥯
㪅
㫄
㫐
㫒
㫺
㬅
㬎
㬥
㬰
㲋
㳄
㷠
㸒
㸚
㸦
㼌
㼲
㽞
㿟
䀠
䂞
䍃
䏍
䒑
䖍
䖒
䖝
䖵
䙴
䚻
䜌
䝿
䡛
䧹
䪞
一
丁
丂
七
丄
丅
丆
万
丈
三
上
下
丌
不
与
丏
丐
丑
专
且
丕
世
丘
丙
业
东
丞
丢
丣
两
严
並
丨
丩
个
丫
丬
中
丮
丰
丱
串
丵
丶
丷
丸
丹
为
主
丽
丿
乀
乂
乃
久
乆
乇
么
义
之
乌
乍
乎
乏
乐
乑
乔
乖
乗
乘
乙
乚
乛
乜
九
乞
也
习
乡
乳
乾
亀
亅
了
亇
予
争
事
二
亍
于
亏
亐
云
互
亓
五
井
亘
亚
亜
亞
亟
亠
亡
亢
交
亥
亦
产
亨
亩
享
京
亭
亮
亯
亰
亲
亳
亶
亷
人
亻
亼
亾
仁
今
介
仌
从
仐
仑
仒
仓
仕
他
付
仝
代
令
以
任
企
伊
伏
伐
休
会
伯
但
位
何
佘
余
作
佥
使
來
侈
侌
侖
侯
侵
便
保
俞
信
修
倉
倍
候
倠
備
僉
僕
儿
兀
允
兂
元
兄
充
兆
兇
先
光
兊
克
兌
免
兑
兒
兓
兔
党
兜
兟
入
全
兩
兪
八
公
六
兮
兰
共
关
兵
其
具
典
兹
兼
冀
冂
冃
冄
内
冈
冉
冊
冋
册
再
冎
冏
冐
冒
冓
冖
冗
冘
军
农
冝
冡
冥
冫
冬
冷
几
凡
凢
凵
凶
凷
凸
凹
出
函
凾
刀
刁
刂
刃
刄
刅
分
切
刍
刑
刕
刖
列
刘
则
初
別
利
别
到
制
刺
則
削
剌
前
剡
剽
劉
力
功
加
劦
助
劫
劳
劵
勃
勇
勉
勒
動
務
勞
勤
勹
勺
勻
勾
勿
匀
匂
包
匆
匈
匊
匋
匍
匕
化
北
匚
匝
匡
匪
匱
匸
匹
区
医
匽
匿
區
十
卂
千
卄
卅
卆
升
午
卉
半
卌
华
卑
卒
卓
单
卖
南
博
卜
卝
卞
占
卡
卢
卣
卤
卦
卩
卪
卬
卯
印
危
即
却
卵
卷
卸
卻
厂
厃
厄
历
厈
厉
厌
厓
厘
厚
原
厤
厥
厨
厭
厲
厶
厷
厸
去
厼
厽
叀
参
參
叅
又
叉
及
友
双
反
叐
发
叒
叔
叕
取
受
叚
叜
叟
口
古
句
另
叩
只
召
可
台
叱
史
右
叵
号
司
叹
吂
各
吅
合
吉
吊
吋
同
名
后
吏
向
吕
君
吝
吞
否
含
启
吳
吴
吹
吾
呂
呆
呈
告
员
呙
周
命
咅
和
咎
咠
咢
咨
咸
咼
哀
品
哉
員
哥
哲
唐
商
啇
問
啚
啬
啻
善
喜
喬
單
喿
嗇
噩
嚴
囊
囗
囘
囙
囚
四
回
囟
因
囧
囬
困
囱
囷
固
国
圂
圅
國
圍
園
圓
土
圡
圣
圥
在
圭
地
圶
圼
坂
坐
坒
坚
坴
垂
垔
垚
埀
埋
城
埶
執
基
堂
堅
堆
堇
堯
場
塞
墨
壘
士
壬
壯
声
壳
壴
壹
壺
壽
夂
处
夅
夆
备
夊
夋
夌
复
夏
夒
夕
外
夗
夘
多
夜
夢
大
夨
天
太
夫
夬
夭
央
失
夲
头
夷
夸
夹
夻
夾
奂
奄
奇
奈
奉
奎
奏
奐
契
奓
奔
奚
奞
奠
奢
奥
奭
女
奴
奻
好
如
妄
妙
妟
妥
妻
妾
姑
委
姜
威
娄
婁
婴
嬰
嬴
子
孑
孔
孕
孖
字
存
孚
孛
孝
孟
季
孤
学
孫
孱
學
宀
宁
宂
它
宅
宇
守
安
宋
完
宏
宓
宗
官
定
宛
宜
宝
客
宣
室
宮
宰
害
家
容
宾
宿
寄
寅
密
富
寒
察
寧
審
寫
寬
寮
寸
对
寺
寻
寽
対
寿
封
尃
射
将
將
專
尉
尊
尋
尌
對
小
少
尒
尓
尔
尖
尗
尚
尞
尢
尣
尤
尧
尨
尭
就
尸
尹
尺
尻
尼
尽
尾
尿
局
居
屈
屋
屎
屏
屑
展
屖
屚
属
屠
屡
屬
屮
屯
屰
山
屵
屾
岁
岂
岑
岡
岩
岳
岸
峯
島
崇
崎
崑
崔
崖
崙
崩
嵬
嶲
巂
巛
川
州
巟
巠
巢
巤
工
左
巧
巨
巩
巫
差
己
已
巳
巴
巷
巸
巽
巾
巿
帀
市
布
希
帚
帛
帝
带
師
席
帶
常
干
平
年
幵
并
幷
幸
幺
幻
幼
幽
幾
广
広
庄
床
底
店
庚
府
度
庫
庭
庶
康
庸
廉
廌
廛
廣
廩
廴
延
廷
建
廾
廿
开
弁
弃
弄
弇
弋
式
弓
弔
引
弗
弘
弜
弟
弥
弦
弱
張
強
强
彊
彌
彎
彐
彑
当
彔
录
彖
彗
彡
形
彥
彦
彧
彭
彳
役
彼
往
待
律
後
徒
得
徙
從
復
微
徵
心
忄
必
忌
忍
志
忝
忠
忩
快
念
忽
忿
思
怠
急
怱
恆
恒
恩
恭
息
悉
患
悤
悲
悶
惠
惡
惢
愁
愈
意
愛
感
慈
慧
慮
憂
憲
應
戀
戈
戉
戊
戋
戌
戍
戎
成
我
戒
戔
或
戚
戠
戢
截
戲
戶
户
戸
戹
戼
戾
房
所
扁
扇
手
扌
才
打
托
执
承
折
拉
拜
拿
掌
推
提
摩
支
攴
攵
收
攸
改
放
政
敄
敏
敕
敖
敗
敝
敞
敢
散
敦
敫
敬
数
敷
數
斂
文
斉
斊
斗
斤
斥
斩
斬
斯
新
方
於
施
斿
旁
旋
族
无
旡
既
旣
日
旦
旧
旨
早
旬
旱
旲
时
旾
昆
昇
昌
昍
明
昏
易
昔
昗
昜
星
春
昬
是
昱
昴
昷
時
晃
晋
晏
普
景
晶
智
暑
暴
曇
曩
曰
曲
曳
更
曷
書
曹
曼
曾
替
最
朁
會
月
有
朋
服
朔
朕
朗
望
朝
期
木
朩
未
末
本
札
朮
术
朱
朵
朶
朿
杀
李
杏
村
杜
束
条
来
東
杲
杳
松
析
林
枚
果
枝
枲
枼
某
柔
查
柬
柰
柴
栗
根
桀
桑
桼
梁
條
梟
梨
棘
棠
棥
森
楚
業
楽
榮
樂
樊
橋
欠
次
欣
欮
欲
欶
欽
款
歆
歇
歛
止
正
此
步
武
歨
歪
歮
歯
歰
歲
歴
歷
歸
歹
歺
死
殳
段
殷
殸
殹
殺
殻
殿
毋
毌
母
每
毒
比
毕
毚
毛
毳
氏
氐
民
气
氣
水
氵
氶
氷
永
氺
氾
求
汝
汞
江
池
沃
沓
沙
沝
沢
河
治
泉
法
波
泣
泥
泰
洛
津
洪
活
派
流
浜
浦
浪
浮
海
淡
淮
深
清
渚
渠
港
湖
湯
滝
滿
漢
漸
瀬
火
灬
灭
灰
灵
灷
炅
炎
炏
炗
炙
炭
為
烈
烏
烝
焉
無
焦
焱
然
煞
熊
熏
燕
營
燮
爪
爫
爭
爯
爰
爱
爲
爵
父
爻
爽
爾
爿
片
版
牙
牚
牛
牜
牟
牢
牧
牪
牽
犀
犬
犭
犮
狂
狄
狊
独
狺
猋
猒
猪
献
獻
玄
率
玉
王
玟
玨
珎
班
琴
瑟
瑩
瓜
瓦
甘
甚
生
産
用
甫
甬
田
由
甲
申
电
甶
男
甸
甹
町
画
甾
畀
界
畏
畐
留
畜
畟
畢
畧
畨
番
畫
異
畱
當
畺
畾
疊
疋
疌
疑
疒
疾
癶
癸
癹
登
發
白
百
皀
皃
的
皆
皇
皋
皐
皕
皮
皷
皿
盃
盆
盇
盈
益
盍
盎
监
盒
盖
盛
盡
監
盤
盧
目
直
相
盾
省
眇
眉
看
眔
眞
真
眷
眼
眾
着
睘
睪
睿
瞏
瞢
瞿
矍
矛
矞
矢
矣
知
矦
短
石
破
碎
磊
磨
示
礻
礼
社
神
祟
票
祭
禀
禁
福
禸
禹
禺
离
禽
禾
禿
秀
秃
秉
秋
科
秝
秦
移
稟
稲
穀
穌
穴
究
穹
空
穿
突
窄
窒
立
竒
竜
竝
竟
章
童
竹
笑
笠
第
筆
等
答
箕
算
箴
節
篤
篭
米
粉
粛
粟
粤
粦
粲
糞
糸
糹
系
紀
約
納
素
索
紫
累
細
絜
絫
絲
維
綿
総
縣
繇
纍
纟
缶
网
罒
罔
罕
罗
罙
罡
罢
罪
署
罷
羅
羊
羌
羍
美
羔
羕
羗
羞
羡
羣
群
義
羲
羸
羽
翁
翏
習
翕
翟
翠
翼
老
耂
考
者
耆
而
耎
耑
耒
耳
耴
耶
耷
聂
聊
聖
聚
聶
聿
肀
肃
肅
肉
肖
肙
肥
肩
肯
育
肴
胃
背
胡
胥
能
脊
脩
膚
臣
臤
臧
自
臬
臭
臯
臱
至
致
臺
臼
臽
臾
臿
舀
舂
舄
與
興
舉
舌
舍
舛
舜
舞
舟
般
船
艮
良
色
艸
艹
艾
芒
芔
芬
芮
花
芳
芺
芻
苔
苗
苟
若
苦
英
茶
茸
荅
草
荒
荣
荼
莆
莧
莫
莽
菆
菊
菐
華
萬
落
葉
著
葛
董
葵
蒙
蒦
蒼
蓋
蓬
蓺
蔑
蔡
蕉
蕭
薄
薛
薦
薰
藍
藏
藤
藥
蘭
虍
虎
虐
虒
虔
處
虖
虗
虘
虚
虛
虜
虞
虫
虽
蚤
蚩
蜀
蜜
蟲
蠡
血
行
衍
衛
衣
衤
表
衮
衰
袁
袞
褭
褱
襄
襾
西
覀
要
覃
見
規
覓
覧
親
覽
见
角
解
言
訁
訇
計
詹
語
誩
諸
讠
谷
豆
豈
豊
豐
豕
豖
豙
象
豦
豩
豪
豸
貇
貝
貞
貟
負
貢
貧
貪
貫
責
貳
貴
買
費
賀
賁
資
賈
賏
賓
賔
賛
賞
賢
賣
質
賴
贊
贝
贡
责
贯
贲
贵
赖
赞
赤
赦
走
越
足
路
蹇
身
躬
車
軍
軎
軟
輦
车
辛
辜
辟
辥
辰
辱
農
辵
辶
边
达
过
近
连
迷
追
退
送
逆
逐
通
速
造
逢
連
逮
進
遀
遂
過
道
達
遣
適
遷
遺
邊
邑
邕
那
邦
邪
郎
部
郭
郷
都
鄉
酉
酋
配
酓
釆
采
里
重
野
量
金
釒
錢
钅
長
镸
长
門
閃
閉
開
閏
閑
閒
間
閔
閵
閻
闌
门
间
闷
阑
阜
阝
阿
降
院
陳
隆
隊
隋
隡
隨
隱
隶
隹
隺
隻
隼
隽
难
雀
雁
集
雈
雋
雍
雐
雔
雙
雚
雜
雝
離
難
雨
雩
雪
雲
零
雷
需
霍
霜
霝
霞
霸
靈
靑
青
非
靡
面
靣
革
韋
韦
韭
韯
韱
音
頁
頃
項
須
頗
頡
頻
顛
页
風
风
飛
飞
食
飠
飯
養
館
饣
首
香
馬
馮
駅
駦
马
骨
高
髟
鬥
鬯
鬲
鬼
魚
魯
鮮
鱼
鲁
鳥
鳳
鸟
鹵
鹿
麃
麗
麥
麦
麻
黃
黄
黍
黎
黑
黒
黨
黹
黽
黾
鼎
鼓
鼠
鼻
齊
齋
齐
齒
齿
龍
龙
龜
龟
龠
龰
龱
龴
龵
龶
龷
龸
龹
者
艹
﻿
（
）
，
－
：
？
￼
📝
🔔
𠀁
𠀃
𠀆
𠀉
𠀎
𠀐
𠁁
𠁣
𠂆
𠂇
𠂈
𠂉
𠂊
𠂋
𠂎
𠂒
𠂔
𠂛
𠂡
𠂢
𠂤
𠂬
𠂭
𠂹
𠃊
𠃋
𠃌
𠃍
𠃎
𠃑
𠃓
𠃔
𠃜
𠄌
𠄎
𠄠
𠄢
𠆢
𠆥
𠇍
𠈌
𠌵
𠓜
𠔉
𠔥
𠔼
𠔽
𠔿
𠕀
𠕁
𠕋
𠘧
𠘨
𠙻
𠙼
𠚏
𠚒
𠚤
𠚪
𠣏
𠤎
𠤕
𠥓
𠦄
𠦑
𠦝
𠧒
𠧗
𠧪
𠩺
𠪚
𠫓
𠫔
𠫤
𠬛
𠬝
𠬞
𠬢
𠬤
𠬶
𠮛
𠮦
𠮷
𠯑
𠱠
𠳮
𠷎
𡈼
𡉀
𡉵
𡌥
𡍮
𡏳
𡕒
𡕩
𡕰
𡖅
𡗗
𡗜
𡘆
𡘤
𡧱
𡨄
𡩧
𡬠
𡭽
𡰣
𡰥
𡰪
𡰯
𡰱
𡷈
𡸁
𡿨
𡿩
𡿪
𡿺
𢀖
𢀛
𢀩
𢁙
𢆉
𢆰
𢆶
𢇁
𢇇
𢉖
𢌬
𢌿
𢏚
𢑑
𢑚
𢖻
𢙣
𢛳
𢦏
𢦒
𢧵
𢼄
𢾕
𣁋
𣄼
𣅀
𣅽
𣍘
𣎳
𣎵
𣏋
𣏼
𣗥
𣥂
𣥖
𣦵
𣦼
𣧄
𣪊
𣪠
𣬉
𣳾
𣶒
𤇾
𤊽
𤐫
𤓰
𤔔
𤕨
𤣩
𤰇
𤰔
𤰞
𤴓
𤴔
𤽄
𥁑
𥁕
𥃦
𥃩
𥃭
𥇡
𥑟
𥘅
𥘈
𥝢
𥫗
𥱡
𦈢
𦉪
𦉬
𦉼
𦍌
𦍒
𦎧
𦐇
𦓔
𦔮
𦘒
𦙃
𦚏
𦣝
𦣞
𦣻
𦥑
𦥔
𦥯
𦨉
𦭝
𦰩
𧆞
𧈧
𧘇
𧰨
𧴪
𧴮
𧵩
𧾷
𨸏
𨾴
𩙿
𩠐
𩫏
𩵋
𪉷
𪜀
𪟽
𪠲
𪩲
𫇦
𫔭
𫜸
𫝀
𫠣
𫠩
𫢉
𫥞
𫩏
𫩠
𫪡
𫲽
𫶧
𬀷
𬐘
𬗌
𬙙
𬛸
𬜯
𬟩
𬯁
𬴘
𬺻
𬼉
𬼖
𭀰
𭁈
𭁨
𭅰
𭑈
𭕄
𭗼
𭤨
𭥫
𭻾
𮅕
𮊿
𮍌
𮍏
𮓗
𮥼
𮧮
廾
𰀁
𰀄
𰀈
𰀉
𰀕
𰀠
𰀡
𰀢
𰀪
𰁜
𰃮
𰆊
𰆘
𰋙
𰕎
𰢴
𰧭
𰯲
00--
001--
00100--
00101--
002--
00300--
00400--
0050--
00500--
0070--
0080--
00800--
0090--
01--
0100--
01002--
0130--
013020--
0140--
0150--
01500--
0153--
0170--
10--
11--
12--
13--
14--
15--
16--
17--
18--
19--
20--
25--
31--
6--
7--
8--
86--
9--
a--
ab--
ac--
acr--
ad--
add--
af--
ag--
ah--
ai--
air--
al--
alex--
all--
alt--
alter--
am--
an--
ang--
anno--
any--
apo--
app--
ar--
ara--
args--
ari--
as--
astr--
at--
ath--
au--
av--
aw--
b--
ba--
bac--
bar--
batt--
be--
ber--
bi--
bio--
blo--
bo--
br--
bri--
bro--
broad--
bu--
buil--
bur--
by--
c--
ca--
cab--
calcu--
can--
car--
caro--
ce--
cen--
cer--
ch--
cha--
champion--
char--
che--
chri--
chu--
circu--
cit--
citi--
cla--
cli--
co--
col--
com--
communi--
con--
cond--
conf--
consi--
contri--
conven--
coo--
coordi--
cor--
cos--
cra--
cre--
cri--
cru--
cu--
cur--
cy--
d--
da--
data--
de--
dec--
depe--
desc--
develo--
di--
diplo--
dis--
disam--
disc--
dist--
distri--
do--
dr--
dre--
du--
dupli--
dura--
dy--
e--
ea--
eag--
ed--
ei--
el--
elec--
elep--
em--
embe--
en--
ente--
ep--
equ--
es--
et--
eu--
ev--
ex--
exclu--
execu--
expl--
f--
fa--
fac--
fai--
far--
fe--
fede--
fer--
ff--
fi--
figh--
figu--
fil--
fin--
fl--
flor--
fo--
foot--
for--
fr--
fri--
fu--
fun--
g--
ga--
gar--
ge--
gen--
geo--
geog--
get--
gi--
go--
gra--
gre--
gu--
guang--
guardi--
h--
ha--
har--
hat--
he--
hi--
high--
ho--
hol--
hor--
hpa--
hse--
hu--
hy--
hyph--
i--
id--
ide--
igno--
ill--
im--
imp--
imple--
in--
indi--
indu--
inst--
inte--
integ--
intelli--
inter--
inv--
ip--
ir--
ire--
is--
iso--
it--
j--
ja--
je--
jes--
ji--
jo--
jos--
ju--
k--
ka--
kan--
kaw--
ke--
ken--
key--
kh--
ki--
kilo--
ko--
kon--
ku--
l--
la--
lay--
le--
lear--
li--
link--
lite--
lo--
loi--
lu--
ly--
m--
ma--
mag--
make--
mal--
man--
map--
mat--
max--
me--
medi--
mel--
mem--
mer--
mes--
meta--
mi--
mill--
mix--
mo--
mod--
mon--
mong--
mor--
mos--
mu--
mul--
multi--
my--
n--
na--
nav--
ne--
neu--
new--
news--
ng--
ni--
no--
nor--
nov--
nu--
num--
o--
ob--
oc--
oce--
ok--
omit--
on--
or--
ori--
os--
out--
over--
p--
pa--
page--
pan--
par--
pe--
per--
ph--
phi--
phy--
pi--
pin--
plat--
plu--
po--
poli--
popu--
post--
pr--
pra--
prac--
pre--
pri--
princ--
pro--
produ--
prof--
pu--
pur--
q--
qu--
qual--
quo--
r--
ra--
re--
rece--
ref--
reg--
regu--
rende--
resp--
revi--
ri--
ro--
ros--
row--
ru--
s--
sa--
sal--
san--
sate--
sc--
sch--
scien--
se--
sec--
sen--
sequ--
ser--
set--
sha--
sho--
si--
sk--
so--
some--
sp--
spec--
spel--
spi--
sq--
st--
ste--
str--
stu--
su--
sub--
sun--
super--
supp--
sur--
sut--
sw--
swe--
sy--
t--
ta--
te--
teac--
tele--
temp--
ter--
test--
th--
tha--
tho--
ti--
time--
to--
tor--
tr--
trans--
trav--
tre--
tri--
tro--
tru--
tu--
tur--
ty--
u--
un--
up--
ur--
us--
use--
user--
v--
va--
val--
ve--
ver--
vi--
vic--
vio--
vir--
virg--
vo--
voi--
w--
wa--
wal--
we--
web--
wel--
wi--
wiki--
wil--
wis--
wo--
wor--
wu--
x--
xi--
y--
ya--
ye--
yu--
z--
za--
zaw--
zh--
ا--
ال--
က--
ကမ--
ကရ--
ခ--
ခဏ--
ဂ--
ဂတ--
ဃ--
င--
စ--
စက--
စပ--
စမ--
ဆ--
ဇ--
ဇန--
ဈ--
ည--
ဋ--
ဋက--
ဌ--
ဌမ--
ဍ--
ဏ--
တ--
တစ--
တမ--
တရ--
ထ--
ဒ--
ဒက--
ဒဿ--
ဓ--
န--
နဝ--
ပ--
ပထမ--
ပအ--
ဖ--
ဗ--
ဘ--
ဘဝ--
မ--
မဂ--
မစ--
မတ--
မဒ--
ယ--
ယမ--
ယသ--
ရ--
ရက--
ရသ--
ရအ--
လ--
လက--
လအ--
ဝ--
ဝရ--
ဝသ--
ဝအ--
သ--
သန--
သမ--
သယ--
သရ--
ဟ--
ဠ--
အ--
အက--
အစ--
အဆ--
အပ--
အမ--
အရ--
အဝ--
ဣ--
ဤ--
ဤအ--
ဥ--
ဥပ--
ဧ--
ဧက--
ဩ--
ဿ--
၀--
၁၀--
၁၁--
၁၂--
၁၃--
၁၄--
၁၅--
၁၆--
၁၇--
၁၈--
၂၀--
၂၁--
၂၂--
၂၃--
၂၄--
၂၅--
၂၆--
၂၇--
၂၈--
၂၉--
၃၀--
၃၁--
၃၂--
၃၃--
၃၄--
၃၅--
၃၆--
၃၇--
၃၈--
၃၉--
၄၀--
၄၁--
၄၂--
၄၃--
၄၄--
၄၅--
၄၆--
၄၇--
၄၈--
၄၉--
၅၀--
၅၁--
၅၂--
၅၃--
၅၄--
၅၅--
၅၆--
၅၇--
၅၈--
၅၉--
၆၀--
၆၁--
၆၂--
၆၃--
၆၄--
၆၅--
၆၆--
၆၇--
၆၈--
၆၉--
၇၀--
၇၁--
၇၂--
၇၃--
၇၄--
၇၅--
၇၉--
၈၀--
၈၅--
၈၆--
၈၈--
--0
--003
--004
--005
--006
--007
--008
--009
--01
--010
--011
--012
--013
--014
--015
--016
--017
--018
--019
--020
--021
--022
--023
--024
--025
--026
--027
--028
--029
--030
--031
--032
--033
--034
--035
--036
--037
--038
--039
--040
--041
--042
--043
--044
--045
--046
--047
--049
--1
--10
--11
--12
--13
--14
--15
--1510
--1511
--1512
--17
--18
--2
--3
--4
--5
--6
--69
--7
--73
--78
--79
--8
--9
--93
--a
--able
--aceae
--ad
--ae
--ah
--ai
--ain
--ak
--al
--ald
--als
--am
--ama
--an
--ana
--ance
--ang
--ans
--ant
--ao
--ap
--ar
--ard
--args
--ars
--ary
--as
--at
--ata
--ate
--ated
--ates
--ation
--ations
--ative
--ator
--au
--ave
--aw
--ay
--b
--ba
--bar
--be
--berg
--bi
--ble
--box
--bs
--c
--ca
--cal
--case
--ce
--ceae
--ced
--cent
--ces
--ch
--cing
--ck
--cks
--co
--craft
--cs
--ct
--cted
--cts
--cy
--d
--da
--date
--daung
--de
--ded
--der
--di
--dia
--ding
--do
--ds
--dy
--e
--ea
--ec
--ed
--ee
--ei
--ein
--ek
--el
--eld
--en
--enance
--ence
--ens
--ent
--ents
--er
--ers
--ery
--es
--ese
--ess
--est
--et
--etion
--ets
--eve
--ew
--ey
--f
--fer
--ft
--ful
--g
--ga
--gan
--ge
--ged
--ger
--gh
--ght
--gi
--gin
--ging
--go
--gon
--gs
--gu
--gyi
--h
--ha
--hen
--hi
--i
--ia
--ial
--ian
--ic
--ical
--ice
--ics
--id
--ie
--ied
--iel
--ier
--ies
--ig
--ii
--ik
--iki
--il
--ild
--ily
--in
--inal
--ine
--ing
--ings
--io
--ion
--ions
--ir
--is
--ish
--ism
--ist
--it
--ite
--ities
--ition
--itive
--itude
--ity
--ium
--ius
--ive
--ix
--ization
--ize
--ized
--j
--k
--ka
--ke
--ker
--key
--ki
--ko
--ks
--ku
--l
--la
--ld
--le
--ler
--les
--ley
--li
--link
--list
--ll
--lle
--lm
--lo
--load
--ls
--lt
--ly
--m
--ma
--man
--mas
--matic
--me
--ment
--ments
--mi
--mit
--mo
--ms
--n
--na
--nal
--name
--nce
--nd
--ne
--ned
--ner
--ners
--nes
--ness
--ng
--ngs
--ni
--ning
--nn
--no
--ns
--nt
--nts
--num
--ny
--o
--obj
--ock
--og
--ok
--ol
--om
--omy
--on
--onal
--one
--ong
--ons
--oon
--op
--or
--ors
--os
--ot
--ou
--ough
--ought
--ous
--ow
--p
--pa
--pan
--pe
--ped
--ph
--phic
--phy
--q
--que
--r
--ra
--ral
--ram
--rd
--re
--res
--ress
--rg
--ri
--ria
--ric
--rin
--rm
--rn
--ro
--ron
--roon
--row
--rry
--rs
--rt
--rus
--rve
--ry
--s
--sa
--se
--sed
--ser
--ses
--sh
--ship
--si
--sis
--sk
--sm
--son
--ss
--st
--ster
--sts
--t
--ta
--tal
--tan
--taw
--tb
--tch
--te
--ted
--ter
--tes
--text
--th
--ti
--tial
--tic
--tion
--tions
--title
--tive
--to
--ton
--tor
--tory
--tr
--tre
--ts
--tt
--tu
--ture
--ty
--tyle
--type
--u
--ual
--uation
--ub
--uct
--uction
--ucture
--ud
--ue
--uk
--ul
--ult
--um
--ung
--up
--ur
--ure
--ures
--url
--urt
--us
--ut
--ute
--ution
--v
--va
--ve
--ver
--w
--wa
--wady
--way
--wt
--x
--y
--ya
--yo
--ys
--z
--ze
--zi
--ان
--د
--ر
--ن
--ه
--ی
--က
--ခ
--ဂ
--င
--စ
--ဆ
--ဇ
--ဈ
--ဉ
--ည
--ဋ
--ဏ
--တ
--တန
--ထ
--ဒ
--ဓ
--န
--ပ
--ဖ
--ဗ
--ဗဟ
--ဘ
--မ
--ယ
--ရ
--လ
--ဝ
--သ
--သည
--ဟ
--အ
--ဥ
--ဿ
--၀
--၀၀
--၀၁
--၀၂
--၀၃
--၀၄
--၀၅
--၀၆
--၀၇
--၀၈
--၀၉
--၁
--၁၀
--၁၁
--၁၂
--၁၃
--၁၄
--၁၅
--၁၆
--၁၇
--၁၈
--၁၉
--၂
--၂၀
--၂၁
--၂၂
--၂၃
--၂၄
--၂၅
--၂၆
--၂၇
--၂၈
--၂၉
--၃
--၃၀
--၃၁
--၃၂
--၃၃
--၃၄
--၃၅
--၃၆
--၃၇
--၃၈
--၃၉
--၄
--၄၀
--၄၁
--၄၂
--၄၃
--၄၄
--၄၅
--၄၆
--၄၇
--၄၈
--၄၉
--၅
--၅၀
--၅၁
--၅၂
--၅၃
--၅၄
--၅၅
--၅၆
--၅၇
--၅၈
--၅၉
--၆
--၆၀
--၆၁
--၆၂
--၆၃
--၆၄
--၆၅
--၆၆
--၆၇
--၆၈
--၆၉
--၇
--၇၀
--၇၁
--၇၂
--၇၃
--၇၄
--၇၅
--၇၆
--၇၇
--၇၈
--၇၉
--၈
--၈၀
--၈၁
--၈၂
--၈၃
--၈၄
--၈၅
--၈၆
--၈၇
--၈၈
--၈၉
--၉
--၉၀
--၉၁
--၉၂
--၉၃
--၉၄
--၉၅
--၉၆
--၉၇
--၉၈
--၉၉
