!
"
#
##0
##1
##10
##11
##12
##13
##14
##15
##16
##17
##18
##19
##2
##20
##21
##22
##23
##24
##25
##26
##27
##28
##29
##3
##30
##31
##32
##33
##34
##35
##36
##37
##38
##39
##4
##40
##41
##42
##43
##44
##45
##46
##47
##48
##49
##5
##50
##51
##52
##53
##54
##55
##56
##57
##58
##59
##6
##60
##61
##62
##63
##64
##65
##66
##67
##68
##69
##7
##70
##71
##72
##73
##74
##75
##76
##77
##78
##79
##8
##80
##81
##82
##83
##84
##85
##86
##87
##88
##89
##9
##90
##91
##92
##93
##94
##95
##96
##97
##98
##99
$
%
&
'
(
)
*
+
,
-
.
/
0
00
000
0001
0002
00027777777777777778
00035488235475000004
0004
001
0023597372167
005
007
008
01
011
015
016666666666666666
019
02
0292
03
030
04
0469088
04731
05
05159
05218
05585262
057
06
061
06720
07
07249
07481
078
07866
08
0878
09
090
1
10
100
1000
10000
1000000000
101
101325
1016
102
103
1038
104
105
1050
1051
1054
1055
106
1066
1077
108
1088
1094
11
110
1100
1104
110813
111
111313
112
1129848290276167
113
114
116
119
1198
12
120
1200
121
122
123
1234
124
125
1258
126
127
128
129
13
130
1302
131
132
1325
133
1339
135
137
138
14
140
1400
142
143
144
144552
145
1453
146
148
149
15
150
1500
1503
151
152
1525
1538
154
1543
155
156
1574074074074073
158
159
15919
15924
16
160
1600
1609
1610
164
1648
167
168
17
170
171
172
173
175
1762
178
1785
179
18
180
1801
1809
181
1810
1814
1818
1820
1822
183
1839
184
18474
1850
1853
1860
1862
1864
1868
1869
187
1870
1879
188
1885
1886
1887
1890
1894
1895
19
190
1900
1901
1905
1907
1908
1909
190905218
191
1910
1911
1912
1913
1914
1915
1917
1918
1919
1920
1922
1925
1926
1928
1930
1931
1932
1933
1934
1935
1936
1937
1938
1939
194
1940
1941
1942
1943
1944
1945
1946
1947
1948
1949
195
1950
1951
1952
1953
1954
1955
1956
1957
1958
1959
1960
1961
1962
1963
1964
1965
1966
1967
1968
1969
1970
1971
1972
1973
1974
1975
1976
1977
1978
1979
1980
1981
1982
1983
1984
1985
1986
1987
1988
1989
199
1990
1991
1992
1993
1994
1995
1996
1997
1998
1999
2
20
200
2000
2001
2002
2003
2004
2005
2006
2007
2008
2009
201
2010
2011
2012
2013
2014
2015
2016
201608
2017
2018
201833995
2019
202
2020
2021
2022
2023
203
204
2044809344
205
206
209458
21
210
212
215
217
218
219
22
220
222
224
226
23
230
231
233
234
235
23597372167
237
238
239
24
240
2400
242
243
2443
24496
245
2463
247
248
25
250
251
252
255
257
258
259
26
260
264
265
266
268
27
270
273
274
27679
277
27777777777777779
28
281
283
284
2869
287
29
290
293
3
30
300
301
302
3048
305
31
313
315
31557600000000000
31635
3166
316846592
32
323
325
326
329
33
334
336
337
34
340
343
344
35
350
354
355
3558179483314004
357
359
359237
36
360
3600
3600000
3602
361
367
37
375
376
377
378
379
38
380
384
3847
39
391
392
398
4
40
400
4000
406
407
408
409
41
411
414
415
41550
416
4184
4184000
4184000000
42
43
430
432
435
4357
44
440
442
443
44704
448
449
45
450
452
453
456
457
46
461
468
47
475
476
48
480
49
49875
5
50
500
507
51
512
515
52
520
529
53
5359237
54
540
541
542
54609
55
550
55555555555555558
56
560
57
577
579
58
580
581
582
585
586
58987294928
59
590
592
59237
598
6
60
600
602176487
608
61
610
613
62
621
625
63
6361
637
639
64
645
65
650
66
67
670
68
6894
69
691
69987158227022
7
70
700
7098
71
719
72
73
730
734
735
736
74
745
748
75
750
757
7572931683608
76
768
77
774
777
779
78
781
785411784
79
8
80
800
801
802
80234544
803
806
80665
809
81
811
812
813
815
82
82642731689663
828
83
830
8316846592
834
835
84
842
847
85
86
864
869
87
876
878
88
89
895
9
90
900
904710203122
907
91
919
92
920
93
932
938
94
943
95
954
96
960
961
965
97
972
978
9780226345369
9788576501480
98
98066
99
:
;
<
=
>
?
@
\
^
_
a
aa
aaa
aac
aak
aan
aap
aas
aat
ab
aba
abafala
abakus
aban
abani
abat
abbr
abbreviate
abbreviation
abc
abe
abel
abele
aben
abenc
abertura
abgerufen
abi
abilidade
abit
abitadu
abitante
abitavel
abk
abkhaz
abkhazian
abl
abnaki
abo
abordajen
aboriginal
about
above
abovestyle
abp
abranje
abreviatura
abri
abril
abs
absent
absolute
absolutu
absvalue
abu
abuabu
abunda
abut
abuzu
ac
aca
acade
academia
academic
academy
acadiru
acaso
acatepec
acceleration
accelerometers
accept
accepted
accepts
access
accessed
according
acd
ace
ach
ache
achinese
aci
aco
acp
acre
acres
act
action
activations
active
acts
actual
actually
ad
ada
adabe
adalah
adapta
adaptasaun
adara
adas
adat
adb
add
addcat
addclass
added
adding
addition
additional
addkey
addlarchives
adds
addtrackingcategory
ade
adekuadu
adelaide
adere
adeus
adi
adia
adino
adisiona
adj
adjectival
adjetivu
adjuntu
adjust
adjusted
adkiridu
adm
administrac
administrado
administrador
administrasaun
administration
administrativa
administrative
administrativo
administrativu
admira
adn
adobe
adoc
adolexente
adolfo
adopta
adora
adosaun
adota
adriano
ads
adt
adu
aduaneira
adultu
advanced
adversa
adverte
advogadu
ae
aec
aer
aereo
aeroportu
aeroso
aez
af
afa
afabubu
afaloicai
afasa
afeganistaun
afeta
affairs
affirmative
afghan
afi
afina
afirma
afonso
africa
african
afrika
afrikana
afrikanu
afro
after
aga
again
against
age
agen
agencia
aggiunge
aghu
agi
ago
agora
agosto
agostu
agraria
agresaun
agri
agriculture
agrikultor
agrikultores
agrikultura
agro
agronomia
agta
ah
aha
ahead
ahi
ahik
ahl
ahn
ahom
ai
aibalun
aid
aidabaleten
aidac
aiden
aihan
ailaran
ailebere
ailelo
aileu
ailili
ailoc
aimeta
ain
ainaro
ainaru
ainu
aires
aise
aiteas
aitemua
aituha
aituto
aizi
aj
aja
aje
ajensia
ajente
ajidarma
ajn
aju
ajuda
ajusta
ajustamentu
ak
aka
akade
akampamentu
akan
akar
ake
akita
akk
akkadian
akl
aklanon
ako
akompan
akonsellamentu
akontese
akontesementu
akontesimentu
akordu
aksaun
aktividade
aktividades
aktivitas
aktivu
aktu
aktualizasaun
aku
akumula
akuza
akwa
al
ala
alago
alagoas
alain
alam
alamanu
alanu
alas
alaua
alawa
alba
albane
albanian
albarraci
albarradas
albarrasi
albarrazi
albatroz
albert
alberto
album
alcala
alcan
alcanc
alcossebre
alcubierre
aldea
aldeia
aldeias
aldeida
aldeidu
ale
alegre
aleinde
aleixo
aleman
alemanha
alemannic
alemaun
alende
aleut
alexa
alexander
alexandre
alexandria
alfabetizasaun
alfabetu
alfandega
alfred
alfredo
alga
algerian
algonquian
algumas
alguns
ali
alia
alianc
aliansa
alias
aliases
aliasesp
aliasesq
alibaba
alien
align
alikante
alimentar
alin
aliu
alkansa
alkatiri
alkol
all
alla
allcat
alles
alliance
allocated
allow
allowblankparams
allowed
allows
allowsmall
allparagraphs
alma
almeida
almost
almunia
alnum
alo
aloka
alor
aloz
alphabet
already
als
alsatian
also
alt
alta
altai
altas
altea
altera
alternate
alternativa
alternative
alternativemap
alternativu
although
altitude
alto
alttext
alttextstart
alttype
altu
altura
altvalue
alu
aluga
aluno
alunos
alunu
alunus
alves
alvu
always
am
ama
amak
amami
aman
amapa
amar
amaral
amazon
amazonas
amba
ambae
ambeno
ambenu
ambiente
ambispu
ambo
ambox
ambrym
amd
ame
ameasa
america
american
americano
amerika
amerikana
amerikanu
ami
amigo
amlulik
amo
amol
among
amoni
amor
amos
amostra
amount
amp
ampere
amsterdaun
amu
amude
amuzgo
an
ana
analfabetizmu
analiza
anatomi
ancash
anchor
anchorencode
ancient
ancientworlds
and
anda
andaluzia
andaman
andika
andorra
andrade
andre
andrew
android
andy
ane
aneksa
ang
angal
angeles
angelina
angelos
anggota
angle
anglo
angola
angustiadu
ani
anii
anima
animal
animalia
animals
animasaun
anin
anju
ankara
anlı
ann
anna
annual
annum
ano
anos
another
ansiedade
answers
anta
antar
antara
anterio
antes
antesipada
anthony
anti
antiga
antigo
antigu
antigua
antivirus
anto
antonio
antropo
anu
anua
anual
anualmente
anunsia
anus
any
anyin
anylang
anylanguage
anything
ao
aol
aos
aosp
aot
ap
apa
apache
apapun
aparese
apari
ape
apezarde
api
apis
apj
apk
aplika
aplikasaun
aplikasi
aplikasuan
aplikasun
apm
apo
apoia
apoio
apoiu
apojeu
app
append
apple
applicable
applications
applied
applies
apply
appropriate
apps
appstore
apr
aprende
aprendizajen
apresenta
apresentasaun
aprezenta
april
aprosimadamente
aprova
aproveita
apt
aquele
aqui
aquilino
ar
ara
arab
arabi
arabian
arabic
araciel
aragaun
arago
aragone
aragonese
aramaic
aranda
arapesh
arau
araujo
arbiru
arc
archaea
archaeology
architectures
archive
archived
archiveis
archives
arco
arcos
ard
ardhama
are
area
areas
arg
argkeys
argomenti
args
argsi
argsk
argskey
argsp
argsparam
argtables
argtableval
argument
argumenta
arguments
argumentu
argurl
ari
aria
arianizmu
ariel
aristo
arithop
aritmatika
aritmetika
arje
arjentina
arkeolo
arkipe
arkiteto
arkitetu
arkitetura
arkivadu
arkivo
arkivu
arles
arma
armada
armadas
armadilla
armando
armas
armazenamentu
arme
armed
armenian
armonia
armv
army
arn
arnis
aro
aromanian
arop
around
arp
arpent
arr
arranka
array
arrays
ars
art
arte
arti
artibutu
article
articles
artigo
artigu
artikel
artikula
artista
arts
artur
aru
arua
arumanian
arxiv
arz
as
asa
asal
asam
asaun
ascoli
asdrubal
asdt
ase
asean
asegura
aseita
aseitasaun
aselerasaun
asembleia
aseso
asessu
asesu
asetona
asf
ashe
asi
asia
asian
asiatic
asidente
asina
asinatura
asiste
ask
asmat
aso
asosia
asosiadu
asosiasaun
asp
aspeitu
aspektu
aspetu
ass
assa
assemble
assembleia
assembly
assert
assessment
assesu
assign
assistance
associac
associated
association
assume
ast
astorga
astro
astrofi
astrono
astronomia
astronomy
astrophysical
astrophysics
astu
asu
asua
asulau
asumau
asume
asumi
asuncio
asunsaun
asuntu
asuntus
asurini
asus
asuwain
at
ata
atabae
ataka
atakasaun
atake
atan
atara
atas
atau
ataulfu
atauro
atauru
atdate
ate
atelari
aten
atenas
atende
ateneu
atensaun
athapascan
ati
atinje
atinji
atividade
ativista
ativu
atl
atla
atle
atleta
atm
atmosfe
atmosfera
atmosphere
ato
atoin
atong
atoni
atos
atp
atrai
atraka
atrasaun
atrave
atravesa
atrazu
atribui
atsabe
atta
attention
attr
attribute
attrs
atu
atua
atual
atualiza
atualizasaun
atualmente
atuasaun
atubele
atudara
atuhodi
atus
atzingo
au
aua
aubeon
audio
augostu
august
augusto
augustu
aula
aumenta
aumentu
aun
aura
aurantiaca
aure
aurito
aurora
austra
australia
australian
australianu
austria
austrian
austrone
austronesia
austronesian
aut
author
authorised
authors
auto
autodesk
automatic
automatically
automatikamente
autonomia
autor
autoridade
autorizasaun
autotrof
aux
auxiliar
auxiliary
av
ava
available
avaliasaun
avanc
avansa
avansadu
avar
avaric
ave
avelino
aventura
aventuras
average
avestan
aviaun
aviv
avl
avo
avoid
avoirdupois
awa
awalnya
awam
awu
awyu
axl
ay
ayacucho
ayerbe
ayi
aymara
ayta
ayu
az
azaila
azerbaija
azerbaijan
azerbaijani
azerbaijaun
azeri
azia
azoyu
azul
azərbaycan
b
ba
baa
baba
babadok
babain
babar
babarik
babelek
babesik
babilo
baboi
babulo
babulu
back
background
backgroundcolor
backtranslate
backwards
bacteria
bad
bada
badadaun
badain
badak
badge
badges
badinas
bado
baduro
baetica
baga
bagaimana
bagauda
bagia
bagian
bagirmi
baguia
bah
baha
bahalarauain
bahamas
bahamori
bahan
bahasa
bahatata
bahia
bahkan
bahu
bahwa
bai
baibain
baikeno
baikenu
bailoro
bain
bainaka
bainhira
bainouk
bairo
bairro
bairru
baix
baixa
baixo
baja
bajau
bajo
baka
baki
bakteri
baku
bal
bala
balada
balance
balansu
balanta
balau
balbastro
bale
baleares
bali
balibar
balibo
balide
balinese
baliu
baliza
balka
balkan
ball
balochi
baltic
balu
baluchi
baluk
balun
bambang
bamu
ban
banafi
banati
bancada
band
banda
bandar
bandeira
bandidu
bandu
bangi
bangka
bangla
bangladesh
bangladexe
bani
banka
bankada
bankete
banku
banner
banu
banyak
bar
bara
barabarak
barack
barak
barakliu
barani
baratu
barbastre
barbastro
barbastru
barbo
barbuda
barcelona
bare
barein
bareli
bari
barike
barique
barlake
barngarla
barngarlidhi
baronia
barra
barrel
barrels
barreto
barselona
baru
baruk
baruya
bas
basa
basap
basar
base
based
baseia
basestyle
basic
basiku
basket
basku
basque
bass
bassa
basuk
bat
batak
batalla
batar
batara
bataria
bateria
baterista
bati
batina
batismo
batizados
battalaun
battalion
battalions
battery
batu
batugade
bau
baucau
baukau
bauro
bavarian
baviera
baw
bawah
bay
bayern
bayrag
bazar
bazartete
baze
bazea
bazeada
bazeadu
bazeia
bazikamente
baziku
bbc
bbl
bby
bc
bcd
bce
bcl
bcp
bd
bdft
be
bea
beach
bean
bear
beatles
beatriz
beba
bebau
bebeik
beberapa
bebonuk
bec
because
beco
become
becomes
becora
bee
beek
been
before
beginning
behavior
behaviour
bei
beiala
beialan
beibeik
bein
being
beioan
beirute
beja
bekais
bekerja
bekora
bel
bela
belak
belanda
belar
belarusian
belchit
belchite
bele
belek
belgique
beli
belize
belo
beloi
belong
below
belowstyle
belu
belun
belxite
bem
bemori
ben
bena
benabarre
bendi
benedicta
benefisiariu
benefisiu
beneufe
benfica
beng
bengali
beni
benido
benidorm
benifisiu
benin
benjamim
benjamin
benneke
bennington
bens
benteng
bentuk
benunuc
ber
bera
beran
berasal
berau
berawan
berbagai
berbasis
berber
bercoli
berdu
bere
bereleu
beremana
bergantung
berge
berikut
berinteraksi
berkeley
berlaku
berli
berliu
bernat
berperan
bersentuhan
besar
besi
besik
best
bestrank
bet
beta
betano
bete
bethlehem
betinho
betsimisaraka
betta
better
betulau
between
beverage
bg
bgn
bh
bhasa
bhil
bhoti
bhp
bi
bia
bian
biao
biar
bias
biasanya
biban
bibcode
bibi
bibileo
biblia
biblical
bibliogra
bibliografia
biblioteca
biblioteka
bichos
bidang
bidau
bidayuh
bidu
bie
bieloru
bien
big
bih
bihari
bikeli
bikol
bil
bila
biladi
bilady
bilbilis
biliaun
billaun
billion
bim
bin
bina
binary
bine
bing
bini
binomio
binukidnon
bio
biocode
biogeografi
biografia
biography
biokimia
biolo
biologi
biologia
biological
biologis
biology
biolojia
bionic
bir
birak
birifor
birma
biru
bis
bisa
bisau
bisaya
biseksua
biseksualidade
bishnupriya
bisnis
bispo
bispu
bissau
bit
biu
bjo
blaan
black
blackberry
blacklist
blank
blas
blasco
blia
blica
blicas
blika
bliku
blissymbols
bliu
blo
block
blocks
blog
blogger
blogging
blogspot
blu
blue
bluetooth
blurb
bly
bm
bma
bms
bmw
bn
bo
boa
boano
board
boats
boaventura
bob
bobo
bobokasse
bobometo
bobonaro
bobonaru
boboot
boca
boccoli
bochotnica
boco
bodo
bodohoo
body
boe
bogota
boi
bokma
boko
bokur
bola
bold
bole
boletin
boli
bolivian
bolsa
boltan
bolu
bom
bomba
bon
bonaparte
bondia
boneka
bontok
boo
book
books
boolean
boon
boot
bootliu
bootloaders
bopomofo
bor
borcha
borda
border
borges
borja
boro
boru
bos
bosco
bosi
bosok
boston
boswell
bot
bota
botani
botanical
bote
both
bottom
bou
boundaries
bow
box
boxtable
boxtype
boy
bozaun
bozo
bpy
bq
br
bra
brabanc
braces
bracket
bracketclose
bracketed
bracketopen
brackets
brad
braga
braibant
brake
branco
brani
brasil
brasileira
bravo
brawijaya
brazaun
brazi
brazil
brazileiru
brazilian
braziliense
break
brent
bret
bretan
breton
brian
brika
brita
britain
britannica
british
brokeback
brothers
browser
browsing
bru
bruce
bruma
brunei
bruxelas
brx
bs
bsd
bsh
btn
bts
btt
btu
bu
bua
bualale
buang
buat
bubususu
budong
bue
buenos
bug
buginese
bugs
buhid
bui
buibau
buibela
builale
build
builder
buildings
buildwikilink
builico
builiku
built
builtin
buka
bulga
bulgarian
buli
bulleted
bulu
bum
bumi
bun
bunak
bunda
bundling
bunu
bura
buras
burbn
buriat
burju
burkina
burmese
burton
buru
buruma
buryat
bus
busa
bushel
business
but
butaun
buti
button
buttons
buyang
bwa
bwamu
bwe
bwisi
bxm
bxr
bxu
by
bydgoszcz
byr
byte
bytecode
c
ca
caa
caballeros
cabanes
cabang
cabe
cabezo
cabo
cac
cache
cachename
cada
caesar
caesaraugusta
caetano
cai
caicassa
caicos
cailaco
cakchiquel
cal
cala
calahorra
calataiut
calatayu
calatayud
calculate
calculated
calendar
calendarid
california
call
calle
called
caller
callhook
calling
calls
calorie
calories
cama
cambridge
camera
cameroon
cami
caminha
caminho
camo
camp
campaign
campidanese
campo
campos
can
canada
canadian
canberra
canc
candidate
candidates
canela
canho
cannot
canonical
canonicalname
canossa
canta
cantares
cante
canto
cantonese
canua
cao
capela
capita
capital
capoeira
caption
captions
captures
car
cara
carabau
carat
card
cardoso
care
carga
cari
carian
carib
caribbean
carin
carinyena
carlos
carmenes
carmo
carne
carol
carpenters
carrascala
carrier
carta
carvalho
casa
case
cases
casp
caspe
cassa
cassell
castello
castillo
castro
cat
catalan
catalana
catanduanes
catania
catarina
catatan
categories
categoriesns
categorisation
categorise
categorization
categorize
category
categoryhandler
catholic
catolica
cattitle
catullus
caucasian
cause
cbk
cc
ccc
cchart
ccitation
cclarification
cclarify
ccoommppaacctt
cctv
cd
cda
cdf
ce
cea
ceara
ceb
cel
celestino
cell
celsa
celsius
celso
celtic
cemeterio
cen
census
cent
centavo
centavos
center
centimeter
centimeters
centimetre
centimetres
central
centre
centro
centru
cents
century
centurycomm
certa
ces
cf
cfa
cfg
cfgkey
cfgvalue
cfgvaluetype
cfm
cfp
ch
cha
chaca
chacetania
chad
chadian
chagatai
chain
chakma
cham
change
changed
changer
changes
chapter
character
characterization
characters
charge
charles
chart
chat
chatino
chavacano
chaves
chch
che
check
checktype
checktypefornamedarg
chefe
chehalis
chemical
chenoua
cherokee
chester
chewa
chg
chi
chicago
chichewa
child
children
chile
chin
china
chinantec
chinese
chinook
chiricahua
chm
cho
chocolate
chokolate
chontal
choose
chorote
chorus
chr
chris
christian
christianity
christie
christmas
chrome
chromista
cht
chu
chuang
church
churchill
ci
cia
cias
cid
cidade
cie
ciencias
cima
cin
cina
cinatti
cinca
cinco
cinema
cio
cios
cipinang
circunsta
ciri
cisalpine
cisco
cit
citak
citation
cite
citemismatch
citeparams
citeq
citerior
citeweb
cities
city
ciudad
civil
civilian
cje
cjk
ckb
cl
cla
claim
claimcommands
claims
clara
claran
clarke
class
classe
classes
classical
classificac
classification
cle
clean
clear
clearly
clickable
clock
clone
close
cloutier
club
clube
cm
cmbox
cmd
cms
cnc
cne
cnica
cnico
cnr
cnrm
cnrt
cnu
co
coa
coalescedlangcode
coast
coatepec
coatla
cobar
cobiana
coc
cocopa
cocos
code
codepoint
codes
coelho
coimbra
coinages
coisas
col
cold
cole
coli
colin
collapsible
collect
collection
collective
college
collision
colmera
colo
colombia
colon
colonial
color
colorado
colors
colspan
columbia
column
com
comand
comando
comarca
comarcal
combination
combinations
combo
combos
come
comer
comercial
comissa
comite
comma
command
commandfunc
commandname
commission
committee
common
commons
commonwealth
communication
community
como
comorian
comoro
compact
companhia
company
compare
comparedisplay
comparelink
comparepages
compareurl
compatibility
compete
complete
component
componente
compop
composite
comprised
computador
computer
comum
comunicac
comunidad
comunidade
comunidat
comunitat
con
concat
concatenates
concatvalues
conceic
concentration
conchucos
condado
conf
config
configuration
confirm
confirmation
conflict
conflicting
congo
congress
congresso
conibo
conj
connor
conse
conselho
console
constituic
constraint
consultadu
contact
contain
contained
container
containing
contains
contemporary
content
contents
contenttitle
continue
contohnya
contos
contra
contract
contrast
contre
control
controla
controller
controlling
controlo
conventi
conventus
conversion
convert
converted
converter
converting
converts
cook
cooperac
cooperativa
coord
coordenador
coordinates
cop
copied
coptic
copy
copying
copyleft
copyright
copytable
cor
cora
corac
cord
core
corella
cores
cornish
coro
coronel
corpo
corporation
corre
correct
correia
correio
corresponding
corte
cosi
cost
costa
cota
could
coulomb
council
counseling
count
counter
countries
country
course
couto
cova
covid
cp
cplp
cpo
cpos
cpu
cr
crack
craft
craic
crash
cravos
create
created
createlink
creates
createtracking
creating
credit
cree
creole
creoles
crh
cri
criac
crianc
criar
crimean
crisis
cristo
cro
croatia
croatian
cross
crosses
crs
cruz
cry
cs
csd
css
csstext
ct
cu
cua
cuba
cubic
cuencas
cueva
cuevas
cuft
cuftnaturalgas
cui
cuicatec
cuin
cukup
culo
culos
cultura
cultural
culture
cultures
culu
cumi
cumpre
cumprir
cuneiform
cunha
cup
cur
curbe
curie
currdate
currency
current
currently
currenttitle
currentyear
curso
curstate
cusse
custo
custom
customary
customise
customize
cut
cuyd
cv
cvt
cvtround
cwt
cy
cyanogenmod
cypriot
cyrillic
cyrl
czech
d
da
daa
dada
dadadak
dadauk
dadaun
dade
dader
dadersan
dadi
dadook
dados
dadu
dadukak
dadur
dadus
daerah
daga
daha
dahaat
dahikus
daho
dahuluk
dai
daily
dair
daju
dak
daka
dal
dala
dalabarak
dalam
dalan
dalaruma
dalas
dalen
dalimak
dalvik
dam
dama
damar
dame
dan
dani
daniel
danish
dans
dansa
dao
dapat
dar
darah
daralari
dare
darei
dari
darkgrey
daro
daroca
daroka
daruak
darulete
darwin
das
data
database
datacell
datapage
dataset
datatype
datavalue
date
dated
dateformat
dateprecedesdate
dates
datetimejulian
dati
dato
datoluk
dau
daudauk
daudaun
daudere
dauk
dauluk
daun
dave
david
daw
day
dayak
dchp
dd
ddd
de
dead
dear
death
debate
debian
debug
debugger
decade
decametre
decdeg
december
decimal
decimalloc
decimals
decimeter
decimetre
declaration
decodearchiveisdate
decodewaybackdate
decodewebcitedate
decorate
decorated
dedika
dedikadu
deepcopy
def
defauassi
default
defaultkey
defaults
defaultseparators
defawasi
defence
defende
defesa
defeza
define
defined
defini
definidu
defining
definisaun
definition
definitions
definitivamente
defkey
deg
degree
degrees
degsymbol
dehan
dei
deit
deixa
dek
deklara
deklarasaun
dekli
del
delas
delaware
delegasaun
deleso
delete
delimit
dell
dels
dem
demais
demanda
demo
democra
democrata
democratic
demogra
demokra
demokrasia
demokratika
demokratiku
demonstrasaun
demopage
den
dendi
dene
deng
dengan
dengue
deni
denominasaun
denominator
denpasar
densidade
density
denstr
densu
denu
deo
dep
departamento
departamentu
departementu
department
depend
depende
depending
depends
dependvalue
depois
depoizde
deportadu
deportasaun
deportivo
deprecated
depth
deputada
deputados
deputadu
deputasaun
deputy
der
dera
dere
derepente
deriva
derrepente
des
desa
descartes
description
descriptions
desde
desembru
desenho
desentraliza
desentralizasaun
desenvolve
desenvolvimento
desenvolvimentu
deside
desidi
design
desired
desizaun
deskobre
deskrebe
deskreve
deskrisaun
desktop
despeza
despezas
despite
desportu
dessa
desta
destaka
deste
destina
destinu
destop
destrui
destruisaun
desvantagem
desvantajem
desvantajen
desvirtua
detalle
detect
detected
detekta
determina
determinadu
determinasaun
determine
determines
deteta
deu
deudet
deus
deutsche
deutscher
deutschland
dev
deva
deve
developer
developers
development
devemos
dever
device
devices
dewan
dez
dezafiu
dezafius
dezastre
dezde
dezembro
dezembru
dezempen
dezemvolve
dezen
dezenho
dezenu
dezenvolve
dezenvolvidu
dezenvolvimento
dezenvolvimentu
dezigna
dezviu
df
dgs
dhangu
di
dia
diak
diakses
dialect
dialetu
dianggap
diario
dias
diatur
dibagi
diciona
dickens
dictionary
did
dida
didasarkan
didascalia
didi
didiak
didin
die
dien
dies
dietrich
dif
diferensa
diferensia
diferente
diff
different
difikuldade
difisil
diga
digit
digital
digits
dignidade
digo
digu
digunakan
dii
diin
dijita
dik
diku
dikur
dilakukan
dilan
dili
dilor
dime
dimensaun
diminui
dimli
din
dina
dinamarka
dinamarke
dinamika
dinamiku
dinka
dinosauru
dio
diocese
diosezanu
dioseze
dipelajari
dipendenti
dipendono
diploma
diplomata
diq
dir
dirbate
direcc
direction
directly
direita
direitamente
direito
direitos
direitu
direitus
diresaun
direta
diretamente
direto
diretora
diretu
dirije
dirijidu
dis
disable
disabled
disables
disambiguate
disambiguation
disambiguator
disambiguators
disclosures
discontinued
discovery
discreet
discussa
discussion
disebut
disiona
disiplina
disk
diskogra
diskriminasaun
disku
diskursu
diskusaun
disp
dispersa
display
displayed
displayfield
displayheader
displays
displayspan
disponivel
dispozisaun
disse
dista
distance
distancefromleft
distansia
distress
distribui
distribuisaun
distribusaun
distribution
district
distrito
distritu
ditadura
diterapkan
diterbitkan
diu
div
divehi
diversas
diversidade
diversifika
diversity
diversu
divide
division
divizaun
divulga
divulgasaun
dixiplina
diz
dj
djangu
djazz
djk
dk
dl
dlen
dm
dml
dms
dmy
dna
dnei
do
doasaun
doben
dobra
doc
docname
docpage
docpagebase
docs
docspace
doctitle
documentac
documentation
documents
doe
does
doesn
dog
dogon
dogri
doi
dois
doit
dok
doke
doko
dokumentasaun
dokumentos
dokumentu
dolar
dollar
dom
domain
dome
domestika
domestikasaun
domi
domin
domina
dominac
dominasaun
domingo
domingos
domingu
dominican
dominikana
domo
don
dona
donald
done
donepairs
dong
doo
dook
doors
dora
dori
dos
dose
doso
dot
dotik
dots
double
douglas
douru
doutrina
down
download
downloading
dpart
dr
dra
drachm
draft
dram
dream
drupal
dry
drygal
ds
dsb
dt
du
dua
duanbei
duarte
dubli
dudu
due
dukadu
duke
dukurai
dulas
dulo
dumagat
dummy
dun
duna
dunam
duni
dunita
dunitanba
dupla
duplamente
duplex
dura
durango
durante
durasaun
during
durubasa
dusun
dutch
duu
dv
dva
dvd
dwa
dyn
dynes
dz
dza
e
each
early
earth
east
eastern
eba
ebe
ebo
ebre
ebro
ebru
ec
ecfcf
economia
ed
ede
edi
ediferensa
edifi
edisaun
edit
editable
editar
editatend
edith
edition
editlink
editor
editora
editors
edits
edo
edu
eduardo
educac
educasaun
education
eduka
edukasaun
edukasiona
eduni
edvac
edward
ee
efate
efe
efeitu
efek
efektivu
efetivu
effect
effective
efficiency
efforts
efika
efisienti
efl
eg
ega
ego
egy
egypt
egyptian
eh
ei
eid
eight
eine
einigkeit
einstein
eintracht
eiru
eis
either
ej
ejea
eji
ejitu
ek
eke
eki
ekipa
ekipamentu
ekipamentus
ekivalente
eko
ekologi
ekono
ekonomia
ekonomiku
ekosistem
ekosistema
ekran
eksoplaneta
ekuado
ekuatoria
el
elaborasaun
elagabalus
elah
ele
election
electric
electrical
electronvolt
eleic
eleisaun
elektronika
element
elementa
elementary
elements
elementu
eletraun
eletrisidade
eletro
eli
elisaun
elite
elizabeth
ell
ells
els
else
elseif
elu
elx
em
ema
email
emar
embaixada
embassy
embera
emblema
embora
embriologi
eme
emi
emigra
emigrasaun
emission
emival
emodeng
emosaun
empenhu
emprega
empregu
empresa
empreza
emprezaria
empty
emulator
en
ena
enclave
encontrar
encyclopedia
encyclopædia
end
endangered
endbox
ende
endline
endparam
endtime
endtimed
endtimem
endtimestamp
endtimestampunix
endtimey
energi
energy
enerjia
enets
enfrenta
eng
engine
engineer
engineered
engineering
england
englisch
english
engscale
enin
enjen
enklave
enkuadramentu
enkuantu
enm
eno
enorme
enquanto
ensaia
ensina
ensino
ensinu
ensure
entantu
entaun
entende
enter
entered
enthusiasts
entidade
entirely
entities
entity
entityid
entomolojia
entre
entrega
entretantu
entrevista
entries
entry
entuziazmu
enu
env
envelope
envezde
envfunc
envfuncs
environment
envolve
enwan
enwiki
eo
ep
epi
epic
epidemia
epifania
epipaleoli
epopeia
equal
equals
equatorial
equipment
equipped
equivalent
er
era
erdeiru
erg
ermera
ernesto
ernst
ero
err
errend
error
errorcategory
errors
errortext
erw
erzegovina
es
esamina
esc
escapebrackets
escola
escolas
escolhi
escritores
esculenta
ese
esensialmente
esesaun
esfera
esforsu
esg
esi
esidu
esimentu
esiste
eskada
eskala
eskandina
eskema
eskerda
esklui
eskluzivamente
eskluzivu
esko
eskola
eskolante
eskrito
eslova
eslovaku
eslove
eslovenu
eso
espada
espan
espansaun
espasia
espasu
espe
especial
espektru
espekulasaun
espelho
espera
esperanc
esperansa
esperanto
esperie
esperiensia
esperimenta
esperimentu
espesi
espesia
espesial
espesialidade
espesialista
espesialmente
espesifikamente
espesifiku
espeta
espi
espiritu
espiritua
esplika
esplikasaun
esplisitamente
esplora
esplorasaun
esposta
espozisaun
espresa
espresaun
espulsaun
esquerda
essa
essas
est
esta
estabelese
estabelesidu
estabelesimentu
estabilidade
establese
establishcommands
established
estadi
estado
estadu
estadunidense
estadus
estandarte
estasaun
estati
estatistika
estatua
estatutu
estavel
este
estensivu
estepe
esterio
esternu
estigmatizasaun
estilu
estima
estimadu
estimasaun
estimativa
esto
estokolmu
estonia
estonian
estrada
estradas
estraga
estragu
estragus
estrangeiro
estranho
estranjeiru
estraordina
estrate
estratejia
estremadura
estrutura
estruturalizmu
estu
estuda
estudante
estudantes
estudo
estudos
estudu
estudus
estv
et
etana
etano
etanu
etapa
etc
etenu
eter
eterna
eteroseksua
ethernet
ethiopia
ethnologue
eti
etimolojia
etinu
etio
etnia
etolog
etologi
etolojia
eton
etruscan
etu
etymology
eu
eua
eufemi
eukariota
eur
euriku
euro
europa
europe
european
europeia
europeu
ev
evans
even
evenodd
eventu
eventually
ever
every
evide
evidensia
evidenti
evita
evolusaun
evolusi
evolusioner
evolutionary
ewe
ex
exalt
example
examples
exatidaun
excel
except
exception
exceptions
excerpt
excerpts
exclude
excluded
excluding
exclussivo
exe
exel
exemplo
exemplos
exercise
exesaun
exetu
exhaust
exist
existe
existing
exists
exklui
exoplanet
exoplanets
exp
expand
expanded
expandtemplate
expected
expecttype
expenditure
experiment
explanation
explicitly
explorasaun
explorer
exponent
exponential
export
expr
expresaun
expression
expressions
expstr
ext
extensaun
extension
extensiontag
external
extra
extraclasses
extract
extracted
extractpictures
extraurls
ez
eza
ezame
eze
ezekusaun
ezekuta
ezekutivu
ezemplu
ezequiel
ezerse
ezersi
ezije
eziste
ezisti
f
fa
faan
fabiano
fabio
fabrika
facebook
facil
factbook
factor
factors
facts
faculdade
fafe
fahe
fahi
fahinehan
fahiria
fahisoi
fahrenheit
fai
fail
failed
fails
fairsearch
faixa
faktor
faktu
fakuldade
fala
falam
fali
falintil
falisa
fall
falla
fallback
falo
false
falta
faluk
fam
fami
familia
familiar
family
famosu
famouso
famozu
fan
fang
fans
fanun
far
farda
fargs
farrell
fars
fas
fase
fasil
fasilidade
fasilita
fasilmente
faso
fat
fatal
fataluku
fatim
fatin
fatisi
fato
fator
fatu
fatuberlio
fatubesi
fatubessi
fatubolu
fatubossa
fatuc
fatudere
fatuhada
fatuk
fatukahi
fatukalo
fatuleto
fatulia
fatululic
fatululik
fatumaka
fatumakerek
fatumaquerec
fatumasi
fatumea
fatumean
faturasa
faturilau
fau
favara
favor
favoravel
favorese
fax
faxista
fay
faz
faze
fazenda
fc
fdd
fdsl
fdtl
fe
featured
febreru
february
federa
federac
federadu
federal
federasaun
feen
feet
fehuk
feira
feito
felipe
fell
female
feni
feno
fenomena
fenotip
fer
ferik
fernandes
fernando
fernandu
ferramenta
ferreira
feru
festa
festiva
festival
feto
feton
fetosan
fev
fevereiro
fevereiru
fevreiru
few
fez
ff
fg
fi
fia
fiar
fibra
ficheiru
fico
fidler
fiel
field
fields
fifa
figs
figura
figures
fihir
fiji
fijian
fika
fikamente
fiksaun
fiksu
fiku
fila
filafali
filan
file
filearg
fileargs
fileflags
filenamespaces
files
filetext
filha
filho
filipe
filipina
filipinas
film
filme
filo
filomeno
filozofia
filozofo
filozofu
fim
fin
fina
final
finaliza
finansa
finansas
finanseiru
finansia
find
findnamespaceid
finds
finestra
fini
finla
finland
finlande
finlandia
finnish
fire
firefox
firme
firmware
first
fisheries
fisika
fisiku
fisiologi
fisiologis
fiskalizasaun
fit
fitun
fitur
fiu
five
fix
fixed
fixup
fixups
fj
fkv
fl
fla
flag
flagbest
flagperiod
flagrank
flags
flannery
flash
flashdisk
flemish
flex
flip
flipped
float
floor
flor
flora
flores
flow
flowery
fluid
flumen
fm
fmargs
fmbox
fmt
fo
focus
foe
foedus
foer
fogo
foho
foholau
fohor
fohore
fohorem
foi
foia
foin
foinsa
foka
folin
folklo
folklore
follow
following
fomento
fon
fone
font
fonte
fontes
fontsize
fontstyle
foo
foot
football
for
fora
foram
forbidden
forc
forca
forcas
force
forces
fore
foreign
fork
forks
form
forma
formadu
formal
formas
formasaun
format
formatdate
formatinlanguage
formatlink
formatmessage
formatparams
formatparamsparameters
formatpotdtext
formats
formattable
formatted
formatting
formatu
former
formoza
formula
formulasaun
fornese
fornesedores
fornesimentu
foro
forrajen
forsa
forsas
fort
fortaleza
forte
fortnight
foru
foruk
forum
forward
fosil
foss
foti
foto
fotografia
fotosintesis
foun
found
foundation
foundrank
four
fourteenth
fox
foxpro
fr
fra
frac
fracpart
fraction
fracture
fraella
fraga
fragment
frakeza
frame
frameless
frameonly
franc
franca
france
francisco
franco
franka
frankfurt
frankish
franku
fransa
franse
franseza
franz
frauen
fraze
free
freedom
freewebs
fregezia
frei
freiheit
freire
freitas
frekue
french
frente
frenti
frequently
fresku
fretilin
freud
frica
friendly
friendship
frika
frisian
frk
frm
fro
from
front
fronteira
frr
frs
fry
ft
ftin
ftlb
ftlbf
fu
fuan
fuat
fucus
fudge
fuel
fuentes
fui
fuic
fuik
fuiloro
fukun
fulah
fulan
fulfulde
fulham
full
fulltext
fullurl
fulun
fum
funan
funar
func
funcname
function
functionality
functions
fund
funda
fundac
fundado
fundador
fundamenta
fundamental
fundasaun
funding
fundu
fundus
fungi
fungsaun
fungsi
funsaun
funsiona
funsionamentu
funu
funun
fur
furak
furlong
further
futbol
futebo
futebol
futu
futubol
futuna
future
futuro
futuru
fuzu
fwa
fwe
fy
g
ga
gaa
gabal
gabi
gabinete
gabon
gabriel
gadaba
gade
gadhi
gae
gaelic
gagasan
gagauz
gagnon
gai
gaius
gal
gala
galaxy
gale
galegu
galeri
gales
galiza
gallaecia
gallery
gallerybox
gallerylines
gallerylinestable
galligo
gallon
gallons
gallurese
galo
galolen
gama
game
games
gamma
gamo
gan
gana
ganapati
ganda
gane
gangguan
gao
gap
gaps
garamond
garante
garantia
garasia
garci
garcia
gariuai
garo
gartner
garut
gas
gasoline
gaspar
gasta
gasto
gastu
gate
gates
gaulish
gauss
gavasa
gavia
gaw
gay
gayhistory
gays
gazozu
gb
gba
gbaya
gbe
gbq
gcd
gchq
gco
gd
ge
geba
geez
gel
gelao
gelimi
gem
gemmatimonas
gen
general
generalcommands
generate
generated
generates
generation
genetik
genetika
genom
genomik
gente
genus
geoffrey
geografikamente
geographic
geographical
george
georgetown
georgian
gerac
gerais
geral
geralmente
gerasaun
gerbault
german
germanic
gerrig
gerrilleiru
get
getabovebelowcolspan
getafe
getalias
getargnums
getargs
getbadge
getbigrandom
getcleanargs
getcontentlanguage
getcurrentframe
getcurrenttitle
getdate
getediticon
getentity
getentityid
getenvironment
gethookname
getlabel
getmapparams
getmetatable
getnamespaceparameters
getparammappings
getparent
getpotdpart
getproperty
getqualifiers
getreferencedetail
getreferences
gets
getsinglerawqualifier
getsitelink
gettarget
gettitle
gettitleobject
getunixtimestamp
getvalue
gev
gey
gez
ghale
ghana
ghanaian
ghandruk
ghil
ghosh
gi
gia
giacomelli
giana
gigalitre
gigatonne
gigawatt
gikuyu
gil
gildapil
gilgamesh
gill
gimi
gina
ginas
gine
gini
gio
giorgio
gis
gitar
give
given
gives
giziga
gj
gje
gju
gl
gla
glaad
glasiasaun
glbtq
gleno
gli
glo
globa
global
globalizasaun
globals
globe
gloria
gloriosa
glu
gm
gmatch
gmh
gmol
gn
gna
gnia
gnr
gnu
go
goa
god
godina
goes
goh
goia
gol
gola
golpe
golpedestadu
gomes
gon
gonc
goncalves
gondi
gone
good
google
gor
gordon
gorontalo
gorzo
gosta
gostu
got
gothic
gotrequired
goulolo
goutt
gouvernu
gov
governa
governado
governador
governamental
governasaun
government
governo
governu
goza
gpl
gps
gr
gra
grac
grace
gradient
graduac
gradualmente
graduasaun
grafiku
grain
gram
grama
grammar
grams
gran
grand
grande
granien
granius
graph
gratuita
grau
graus
grava
gravasaun
gravidade
gravitasiona
gray
grc
gre
great
grebo
greek
green
greenlandic
greg
grego
gregu
greshko
grey
gricenfor
gridcolor
grigoriu
grip
grizmek
grk
grosso
grotu
group
groupcell
grouping
groups
groupsgroups
groupstyle
groupwidth
grt
gru
gruber
grupo
gruppo
gruppoopzionale
gruppostile
grupu
grupus
gruta
gs
gsm
gsub
gsw
gt
gti
gu
gua
guana
guarani
guarda
guarnisaun
guas
guatemala
guda
gue
guenu
guerra
guerrero
guerriers
gugleur
gugu
gui
guide
guido
guine
guinea
guinean
guiyang
gujarati
gujari
gul
gula
gulf
gun
guo
gureng
guriezo
gurindji
gurmana
guru
gurusa
gusma
gusmao
guterres
guu
guvernu
guyana
gv
gw
gwa
gy
gyr
gyroscopes
h
ha
haas
haat
haatnulu
hab
habadak
habelar
habeur
habibie
habiit
habitable
habitat
habo
haboot
habu
habun
haburas
hack
hacker
hacking
had
hadau
hadedar
hader
hadi
hadia
hadomi
hadook
hadrami
hadulas
hadulur
hae
haekoni
haenlein
hafahe
hafiar
hafoin
haforsa
hafoun
hafuhu
haha
hahalok
hahan
haheker
hahi
hahilik
hahn
hahoin
hahoris
hahu
hahusar
hahuu
hai
haida
haiti
haitian
haj
hak
haka
hakarak
hakaran
hakat
hakbesik
hakbiban
hakdauk
hakerek
haketak
hakfodak
haki
hakiak
hakilar
hakka
haklahat
haklake
haklaken
haklekar
haklolok
haklorek
haklulik
haklurit
hakmahan
hakmatek
haknahan
hakno
hakohak
hakoi
hakotu
haksesuk
haksoit
haksolok
haktuir
hal
hala
halai
halakon
halang
halao
hale
halekar
haleu
half
hali
halia
halibur
halik
halimar
halle
halo
halobacteria
haloke
haloken
haloot
haluan
haluha
hama
hamahan
hamaluk
hamanas
hamate
hamba
hamburg
hameno
hamenus
hametin
hamkadak
hamkona
hamkonan
hamonu
hamoos
hamoris
hamosu
hampir
hamri
hamriik
hamrik
hamulak
hamutuk
han
hananu
hanaran
hand
handle
handled
handler
handling
hands
handset
hanehan
hanesa
hanesan
hanga
hangul
hani
haninu
hano
hanoi
hanoin
hanorin
hans
hansip
hanunoo
hanya
hao
hapara
happy
harabat
haraik
harbour
hard
hardware
hare
haree
hareen
hari
harii
hariin
hariis
hariku
harinas
harper
harps
hartman
haruka
harus
harvard
has
hasa
hasae
hasai
hasara
hase
hash
haso
hasoru
hat
hata
hatais
hatam
hatama
hatan
hataz
hateke
hatene
hatete
hateten
hatnote
hato
hatolia
hatu
hatuda
hatudu
hatugau
hatuin
hatulia
hatun
hatur
haturalan
hatutan
hatuur
hau
haupu
hausa
hautoho
hav
havasupai
have
having
haw
hawai
hawksworth
haystack
hbo
hd
he
header
heading
headingfontsize
headingstyle
headquarters
health
heart
hebr
hebrew
hectare
hei
height
heimskringla
hein
hela
held
helesu
heli
helong
help
helpcenter
helper
helplink
helptext
hemisphere
hemu
hena
henares
hendrick
henesan
henrique
henry
henu
hepburn
hera
herbert
here
herero
herna
hero
herpetofauna
herpetologi
herpetological
herpetology
herpetolojia
hertz
hesuk
het
heta
hetan
heu
hewan
hh
hi
hidden
hide
hidup
hiduplah
hieroglyphs
high
highest
highland
hikar
hikas
hili
hills
him
himno
hindi
hindko
hingga
hino
hinrich
hinsch
hinu
hira
hiragana
hirak
hirus
hispania
hist
histo
historia
historico
history
historylink
hit
hittite
hitu
hiut
hiv
hiw
hk
hl
hlist
hm
hmong
hnd
hne
hnj
ho
hoa
hoan
hoansi
hoch
hod
hodi
hodibele
hoholau
hohorai
hoi
hoia
hoje
hol
hola
holanda
holande
holarua
holba
hold
holpilat
holsa
home
homem
homeostasis
homescreen
homo
homoerotismo
homosexual
homosexuality
homossexualidade
homossexualismo
honduras
honeycomb
hong
hongshuihe
honora
hoo
hook
hooks
hooksparameters
hop
hopffer
hopkins
hora
horai
horas
horasis
hori
horik
horis
horiuluk
horizontal
horizonte
hornai
hornay
horsepower
horta
hosi
hosifo
hosik
hospital
host
hot
hota
hotel
hothotu
hotu
hotutiha
hour
hours
how
however
hoy
hoya
hp
hpa
hr
hrc
hre
hs
hsb
hsl
ht
htc
htm
html
http
https
hu
hua
huasteca
huave
huawei
hubble
hubungan
hudi
huelva
huerva
huesca
hugo
hui
huishui
huitoto
huli
hull
human
humano
humanos
humanu
humanus
hun
huna
hundredweight
hung
hungarian
huno
hup
huruf
hus
husar
husi
husik
husu
hut
huu
huun
hy
hya
hybrid
hybridity
hyphenated
hz
i
ia
ian
iana
iba
ibe
iberu
ibm
ibu
ibun
ica
icelandic
ico
icon
icons
ict
ictv
ictvdb
icun
icvcn
id
ida
idade
idak
idalaka
idate
idc
ide
idea
ideas
ideia
ideias
identical
identidade
identifier
identifika
identity
ideograph
ideolojia
idevice
idi
idiom
idioma
ido
idroje
idrokarbonetu
idroksilu
idrosulfetu
idu
ie
iemen
ies
ietf
if
ife
ifugao
iglesia
iglesias
ignora
ignore
ignored
igo
igreja
igreza
igualita
iha
ihp
ii
iii
iin
iir
iis
iiss
ije
ijo
ik
ika
ikan
ikar
iklim
iko
ikoan
ikposo
ikt
iktiolojia
iku
ikun
ikus
ikusliu
ikusmai
il
ila
ilas
ilat
ile
ilegal
ilerjete
ilha
ili
iliheu
ililai
iliomar
illa
ilmiah
ilmu
ilmuwan
ilo
iloko
ils
ilustrasaun
im
image
imagecelldiv
imagecheckblank
imagediv
imageemptycell
imageemptycellstyle
imageleft
imageleftcell
imagem
imagen
imageright
imagerightcell
imagerightnone
images
imagesi
imagesize
imagesizestart
imagetokens
imajem
imajen
imajina
imax
imbox
imediata
imediatu
imi
immagine
imp
impaktu
impe
imperado
imperia
imperial
impgal
implementa
implementasaun
implementasuan
implements
implied
importa
importansia
important
importante
importedfrom
impostu
impoz
imppt
impqt
imprensa
impresaun
impressa
improper
impulse
impulsu
in
ina
inagura
inak
inam
inan
inatu
inaugura
inc
inch
inches
include
included
includemetatable
includes
including
inclui
incorrectly
increase
increment
indent
independe
independencia
independensia
independent
independente
index
indexed
indexstr
indi
india
indian
indians
indic
indicate
indicated
indicating
indice
indigenous
indika
indikasaun
indikativu
indivi
individu
individua
individual
indo
indone
indonesia
indonesian
indonesio
indonezia
indra
indu
indulizensia
indus
industria
ine
inen
inext
infantariu
infante
infantry
infeksaun
infere
inferio
inferno
inferredfrom
infiksu
influe
influence
influensa
influensia
info
infobox
infoboxes
infomasaun
informa
informasau
informasaun
informasi
informasoens
informasuan
informasun
informatika
information
informsaun
infoworld
infra
infraestrutura
infrared
infrastrutura
infrenta
inga
ingin
inglaterra
ingle
ingles
ingreja
inh
inhabitant
inhabitants
inherit
ini
inimigu
inisia
inisiativa
inisiu
init
initial
injustisa
inkliu
inklui
inkluye
inkluzaun
inkompativel
inkorpora
inkorporasaun
inkrementu
inkubasaun
inl
inlb
inline
inlineerror
inlinered
ino
inout
inovasaun
inportante
input
inputs
inquiry
inseguransa
insentiva
insentivu
insert
inserted
insi
inside
insitelinks
insolation
inspects
inspirasaun
insta
instabilidade
instagram
instala
instalado
instaladora
instalasaun
instan
instaura
instavel
instead
instituisaun
institusoens
institute
institutes
instituto
institutu
instrument
instrumentu
instrusaun
insulin
int
integer
integers
integra
integradu
integrante
integrantes
integrasaun
intel
intelektua
inteligente
intelije
intended
intensaun
intensivu
intensu
interactions
interaksaun
interaksi
interasaun
interesante
interese
interface
interio
interior
interlingua
intermedia
interna
internacional
internal
internas
internasiona
internasional
international
internet
internu
interpreta
interpreted
intervensaun
inti
into
intra
introdu
introduction
introdusaun
introduz
introspesaun
intrumento
inu
inuinnaqtun
inuktitut
inupiatun
inus
invade
invalid
invalidtypeerror
invariant
invasaun
invazaun
invazo
inventa
invernu
invert
investe
investigado
investigasaun
investimentu
invicti
invictus
invita
invoke
involve
io
iob
iorke
ios
ip
ipad
ipads
ipairs
iparm
ipart
iphone
ipk
ipo
ipote
ipu
ir
ira
irabin
irake
iran
iranian
iranianu
iranun
iraun
iraya
ire
ireland
irish
irlanda
irlande
irma
iro
iron
irradia
irving
is
isabel
isangle
isbn
iscomplex
iscsp
isdeprecated
isf
isfirst
isi
isin
islam
islamic
island
islander
islands
ismo
isn
isnegative
isni
iso
isp
ispa
israel
israeli
isredirect
isrepeat
issmall
issn
isso
issourced
issubpage
issubstituted
issue
issues
istalkpage
istemperature
istemplatepage
isthmus
istilah
isto
istoria
istoriado
istorikamente
isu
isurl
it
ita
italian
italianu
italic
italicize
italicizepage
italicizesection
italics
italy
itc
item
itemid
items
itemsi
itemstyle
iterate
iteration
iti
itneg
ito
its
itu
ituan
iu
iuridicus
iv
ivoire
iwam
ix
iyo
iz
izemplu
izla
izoladu
izrae
j
ja
jaca
jacetania
jacinto
jaco
jad
jae
jah
jaime
jair
jak
jaka
jakarta
jako
jalo
jam
jama
jamaican
jamaika
jambi
james
jamo
jan
jane
janeiro
janeiru
janela
januari
january
japa
japan
japanese
japao
japaun
jape
japone
jardim
jardin
jardineiro
jardner
jaringan
jasetanu
java
javanese
jay
jaya
jazida
je
jean
jeb
jeh
jeitu
jelly
jelu
jeminasaun
jen
jena
jenderal
jene
jenera
jeneru
jentiu
jeo
jeogra
jeografia
jera
jeral
jeralmente
jerasaun
jere
jerente
jerma
jerman
jermanu
jero
jestaun
jesus
jewish
jezu
jge
jhon
jia
jigante
jika
jiku
jim
jimi
jin
jina
jinuo
jit
jiu
jkey
jl
jni
jo
joa
joan
joao
joaun
job
joga
jogado
jogo
jogu
john
johns
join
joins
joint
joko
jola
jones
jongo
jorge
jorna
jornada
jornal
jornalista
jose
josef
joseph
joule
journal
jovem
joven
joventude
jp
jpan
jpesperanca
jpg
json
ju
jua
juan
juaun
judeo
judeu
juga
jui
jul
julgamentu
julho
julhu
juli
julia
julian
julianu
julilla
julius
jullu
july
jun
june
jungen
junho
juni
juniu
jur
jurchen
juri
juridika
jurisdisaun
jurnal
jurusan
just
justic
justice
justicia
justisa
justu
juventude
juxtlahuaca
juǀ
jw
k
ka
kaa
kaan
kaapor
kaba
kabahat
kabelak
kaben
kablaki
kaboot
kabu
kabun
kabuverde
kabuverdianu
kada
kadang
kadar
kadave
kadazan
kadeia
kadeira
kadeli
kadera
kadi
kadoek
kadu
kaduak
kadunan
kaer
kafe
kafoun
kahorik
kahur
kai
kaikasa
kailaku
kaili
kaimauk
kain
kairui
kais
kaiser
kaixa
kakaotalk
kakesik
kaki
kakiak
kakorok
kakuluk
kakutak
kal
kala
kalaallisut
kalagan
kalan
kalapuya
kalaseite
kalataiu
kaledo
kalenda
kalifo
kalimantan
kalinga
kalkula
kalkulador
kallahan
kalma
kalmyk
kalohan
kalpak
kam
kamberra
kamboja
kameli
kamera
kamerik
kami
kampan
kampu
kampung
kan
kana
kanada
kanadianu
kanal
kandidatu
kandidatura
kanek
kango
kanjobal
kankru
kannada
kansaun
kanta
kantado
kantaun
kantiga
kanto
kantora
kanu
kanum
kanuri
kao
kap
kapa
kapabilidade
kapampangan
kapas
kapasidade
kapela
kapita
kapital
kapitaun
kaplan
kapoeira
kaptura
kara
karabau
karaboro
karakter
karakteri
karakteristika
karakteriza
karan
karate
karater
karateri
karau
karaubalu
karbi
karbo
karbonilu
karbonu
kare
karegamentu
karen
karena
kareta
kargo
kargu
kari
karik
karin
karipu
karl
karlista
karlus
karo
karon
karreira
karreta
karta
kartago
kartajine
kartajinense
kartaun
karu
karuk
karun
kasa
kasinar
kaspe
kastela
kastellanu
kastello
kastelu
kastigu
kasu
kat
kata
katak
katakana
katakombes
katalaun
katalun
katang
kataun
katedra
kategori
kategoria
katetek
kato
katolika
katolisizmu
katoluk
katrai
katrina
katu
katuas
katuki
kauza
kawaimina
kay
kayah
kayan
kaza
kazakh
kazakistaun
kazamentu
kazu
kb
kba
kbi
kbiit
kbit
kboe
kbq
kcal
kci
kde
kdook
ke
kea
keberadaan
kec
kecil
kedan
kedas
kedokteran
kedua
keep
kehidupan
kei
kein
kela
kele
kelikai
kelvin
kemak
kembali
kemerdekaan
kemiripan
kemudian
kenning
kenya
kenyah
kepala
kepler
kere
keres
kerja
kernel
kertbeny
kesak
kesar
keseimbangan
keseluruhan
kesi
kestaun
ket
keta
ketak
ketan
ketiadaan
ketik
ketika
keu
kev
kevt
kewa
key
keyboard
keyboards
keys
kg
kgco
kgf
kgm
kha
khalaj
kham
kharia
khb
khe
khmer
kho
khoekhoe
khor
khu
khumi
khunto
ki
kia
kiak
kid
kiddie
kiik
kik
kikoan
kikuyu
kilat
kilo
kilocalorie
kilocalories
kilogram
kilograms
kilojoule
kilojoules
kilolitre
kilometer
kilometers
kilometre
kilometres
kilometru
kilomole
kilomoles
kiloton
kilotonne
kilotonnes
kilowatt
kim
kimia
kimika
kina
kinabatangan
kinaray
kind
kindle
king
kingdom
kinnauri
kinta
kintu
kinur
kinxasa
kinyarwanda
kiowa
kip
kir
kirche
kirghiz
kirik
kirmanjki
kis
kisi
kit
kita
kituba
kiu
kiwai
kj
kk
kl
kla
kladik
klakuk
klan
klandestina
klandestinu
klarak
klaran
klaru
klase
klasifika
klasifikasaun
klasifikasi
kle
klean
klees
klein
kleu
kleur
kli
klibur
kliente
klima
klimadiagramm
klingon
klip
klisuk
kloot
klopp
kloroplas
klosan
klube
kludge
km
kmaan
kmanek
kmo
kmol
kmr
kn
kna
knaar
knanoik
knar
knesan
knika
kniku
knn
knot
knotak
know
known
kns
knu
knua
knuuk
ko
koa
koak
koalia
koba
kobertura
kobre
kode
kodigo
koe
koefisiente
koellu
kognitivu
kohe
kohistani
koi
koimbra
kok
koki
koko
kol
kola
kolabora
kolami
kole
kolega
kolesaun
koleta
koli
kolia
kolimau
kolleita
kolo
koloka
kolokasaun
kolonia
kolonial
kolonialista
kolonializmu
kolonizasaun
koluna
kom
komandante
komandu
komarka
kombate
kombina
kombinasaun
komboiu
kome
komemora
komenta
komersia
komersial
komersialmente
komersiante
komesa
komete
komi
komisaun
komite
komo
kompan
kompana
kompanente
kompanha
kompanhia
kompania
kompara
komparasaun
kompati
kompatibilidade
kompete
kompetensia
kompetibel
kompetisaun
kompetitivu
kompleksidade
kompleksu
komplementa
kompleta
kompletamente
kompletu
kompoin
komponente
komportamenta
komportamentu
komposto
kompostu
kompozisaun
kompras
komprende
komprensaun
kompriende
komprimentu
kompromisu
komputado
komputador
komputasaun
komputer
komu
komun
komunidade
komunika
komunikador
komunikadu
komunikante
komunikasaun
komunista
kon
kona
konaba
konda
kondadu
konde
kondena
kondenasaun
kondensasaun
kondisaun
konduto
koneksaun
konekta
konese
konesidu
konfere
konferensia
konfiansa
konfigurasaun
konfirma
konflitu
konforme
konfuzaun
kong
konglomeradu
kongo
kongres
kongresu
kongu
konhese
konhesido
konhesidu
konis
konjo
konjunta
konjunto
konjuntu
konkani
konkista
konklui
konkluzaun
konkorda
konkursu
kono
konsege
konseitu
konsekuensia
konsekuente
konselhu
konsellu
konsenkuensia
konsensu
konsentra
konsentrasaun
konsepsaun
konsertu
konserva
konservasaun
konsesaun
konsidera
konsideradu
konsiderasaun
konsideravel
konsie
konsiente
konsiste
konso
konsta
konstante
konstantinopla
konstantinu
konstata
konstitui
konstituidu
konstituinte
konstituisaun
konstituisional
konstitusaun
konstitusi
konstitusiona
konstitusional
konstrui
konstrusaun
konsul
konsulta
konsultadu
konsultasaun
konsultivu
konsulto
konsumido
konsumidor
konsumu
konta
kontaktu
kontein
konteks
kontekstu
kontempora
kontemporaria
konten
kontente
kontenti
konteu
konti
kontinenta
kontinente
kontinua
kontinuidade
kontra
kontradisaun
kontrariu
kontratu
kontribui
kontribuisaun
kontribusaun
kontrola
kontrole
kontrolu
kontrove
kontroversu
kontudu
konvensaun
konventu
konverte
konvida
konvite
konxie
konxiente
konyesidu
kooperasaun
kooperativa
kooperativas
koordenada
koordenadora
kopia
kor
kora
koraga
korajen
kore
korea
korean
koreia
korenti
koresponde
korne
koro
koroa
koronel
korpu
korrente
korresponde
korrida
koru
korupsaun
kos
koservado
kosok
kosta
kostume
kota
kotabot
kotak
kotamutu
kotolau
kotu
kotuk
kotukba
kotun
kou
kovalima
koy
kpa
kpc
kpelle
kph
kpo
kr
krahn
kraik
krako
kraras
krasnodar
kravu
krc
kre
kreda
kreditu
kreis
kresimentu
kri
kria
kriado
kriador
kriasaun
kriatura
kribas
krime
kriol
krioulu
krise
krista
kristaun
kristen
kristianizmu
kristo
kristu
krit
kritika
kritis
krize
krizi
krj
kro
kroa
kroah
kroat
kroata
kroatu
kromosom
kronista
kru
krumen
ks
ksh
ksi
ksia
kt
ktea
kttnt
ktz
ku
kua
kuadru
kuak
kuala
kualidade
kualifikadu
kualifikasaun
kualke
kualker
kuan
kuana
kuanan
kuandu
kuantidade
kuark
kuarte
kuartu
kuaterna
kuaze
kuba
kuban
kuda
kui
kuidadu
kuk
kuku
kula
kulango
kulina
kulit
kulo
kultu
kultura
kultural
kulu
kulung
kuman
kun
kuna
kung
kunhese
kunhesido
kuni
kuo
kupa
kupang
kur
kura
kurakuran
kuran
kurdish
kursu
kurumba
kus
kusi
kustu
kutai
kutun
kuuk
kuwait
kuy
kv
kven
kw
kwa
kwe
kwerba
kwh
ky
kyh
kyo
kyr
kyrgyz
l
la
laa
lab
laba
labarai
labarak
labarik
label
labeldiv
labele
labelledby
labels
labo
labor
laborato
labs
lachi
laclo
laclubar
lacluta
laco
lacoliu
ladi
ladiak
ladji
ladu
ladun
lae
laek
lafaek
lafatik
lag
laga
lagoa
lagu
laha
lahae
lahane
lahanesan
lahatene
laho
lahomea
lahta
lahu
lai
laiha
lailais
lain
lainnya
lais
laisorolai
lak
laka
lakalei
lakan
lake
laken
laki
lakin
laklo
laklubar
lakluta
lakohi
lakon
lakota
laku
lala
lalais
lalaok
lalatak
lalawa
lale
lalehan
laleia
lalelan
lalenok
laletak
laletek
lalika
laline
lalisuk
lalo
laloran
lalu
lam
lama
lamer
lampung
lamu
lan
land
lang
langcode
langname
lango
langobardic
language
languages
laniakea
lankan
lansa
lansamentu
lao
laos
lapara
lapen
laptop
lar
larak
laran
larga
large
largura
lari
larisula
las
lasama
last
lastarg
lat
latan
latconv
latdegrees
latdegsym
late
later
lati
latin
latina
latinu
latitude
latminsym
latminutes
latn
latseconds
latsecsym
latter
latu
latvia
latvian
lau
laua
lauala
lauana
lauhata
laulara
laun
launcher
launchers
laura
lausi
laut
laute
lautein
lautem
lavateri
law
lawa
lay
laz
lazily
lazio
lb
lbco
lbf
lbfft
lbm
lbmol
lbs
lbt
lbum
lc
lcd
lcwt
lda
ldd
ldf
le
lea
lead
leading
league
leal
leandro
learning
least
leaun
leaune
leb
leber
lebih
lebo
lebos
leburema
lec
leche
lecidere
led
lee
leet
left
lega
legacy
legal
legaliza
leguimea
lei
leimea
lejiaun
lek
lekar
lekidoe
lel
lela
lelalai
lelan
lelaufe
lele
lelo
lema
lembata
lemo
lemos
len
lenda
lendu
length
lengua
lennon
lenovo
lenuk
leo
leolaku
leolima
leonardo
leone
leorema
leotala
leotelo
leovigildo
leovijildu
lepcha
lepo
lequidoe
lere
les
lesbian
less
leste
lesuata
let
lete
letefoho
letefuo
letemumo
leten
leti
leto
letra
letras
letter
leu
leur
leuro
lev
levantamentu
levantine
level
lewo
lexical
ley
lez
lezbus
lezghian
lezotu
lg
lgaru
lgtb
lhamte
lhe
lhs
li
lia
liafuan
liaison
lian
liaruca
liaruka
liaun
libagua
liberdade
liberia
libertac
libertad
libertasaun
liberte
libraria
library
libraryutil
libres
libur
libyan
licenciado
license
licenses
lid
lider
lidera
lideransa
lidun
liechtenstein
lifau
life
liga
ligadu
ligasaun
light
lightgrey
ligurian
lihu
lihun
lij
lijer
lika
like
likisa
liku
likusaen
lili
lilin
lim
lima
liman
limanulu
limba
limbu
limburgan
limburger
limburgish
limit
limita
limitada
limitadu
limitasaun
limite
limited
lin
lina
lincoln
line
linear
linegrey
lines
lingkungan
lingkungannya
lingua
linguagem
linguajen
lingui
linguista
linguistic
linguistics
linha
link
linkbox
linkclasses
linked
linkey
linkin
linking
links
linksdata
linktitle
lino
linus
linux
lio
liquic
liquica
lir
lis
lisa
lisan
lisapat
lisaun
lisboa
lisensa
lisensiamentu
lisensiatura
list
lista
listcell
listed
listening
listenstaina
listnum
listnums
lists
liststyle
liststyletype
listtag
listtext
listtype
lisu
lit
lite
liter
litera
literal
literalmente
literary
literatura
lithuanian
litigasaun
litik
litre
little
litu
litua
lituanu
liturgia
liturjia
liu
liuba
liuhosi
liuhotu
liuhusi
liuliu
liur
liurai
liuraik
liuta
liutan
liutiha
liv
live
liverpool
living
livre
livro
livru
lixu
lizboa
lize
ljika
lk
ll
lle
llego
llengua
lli
llitera
ln
lng
lo
load
loaddata
loaded
loader
loadi
lobato
lobos
lobu
loc
local
localized
located
location
locations
loe
log
logi
logical
logistics
logo
logobject
logu
logudorese
logy
lohar
loi
loicai
loidahar
loilubo
loire
loja
lojas
lok
loka
lokal
lokalidade
lokaliza
lokalizadu
lokalizasaun
loke
lol
lola
lolein
lolo
lolon
loloos
lolopo
lolos
lolotoe
loma
lomwe
lon
lonconv
londegrees
londegsym
london
londres
long
longer
longitude
longo
longscale
lonminsym
lonminutes
lonseconds
lonsecsym
lontas
loo
look
looked
lookfrom
looking
lookup
loop
loor
loos
lopes
lor
lord
lore
lori
loro
loroloron
loromonu
loromonuk
loromunu
loron
lorosa
lorosae
los
lospala
lospalos
loss
lost
lot
lote
lou
loup
lour
lourba
lourdes
louvre
love
low
lower
lowland
lowtraffic
loxicha
lpopulasaun
lsch
lt
ltf
ltika
lts
lu
lua
luaargs
luaisredirect
luak
luamain
luan
luanda
luandino
luar
luas
luba
lublin
lubu
lubuk
lubun
lucha
lucia
ludwig
lue
lugar
luhu
lui
luis
luiz
luk
luka
lukru
luku
lula
lule
luli
lulik
lum
lumpur
lun
luna
lunak
luo
luopohe
lupal
luri
luro
luru
lusi
lusofonia
luta
lutar
luther
luwian
luxembourg
luxemburge
luxemburgu
luz
luzita
luzofonia
lv
ly
lycian
lydian
lyon
m
ma
maa
maabat
maba
mac
macadai
macadique
macapa
macassar
macau
macdonald
macedo
macedonian
maceio
mach
machado
machine
macmillan
macrolanguage
mada
madagascar
madalena
madang
madare
made
madeira
madhi
madri
madrid
mae
maek
mag
magar
magdalena
magdalenianu
magic
magister
magne
magnetic
magnetizing
magnitude
magnu
mah
mahakidan
mahar
mahasiswa
mahorik
mahoris
mahuluk
mai
maia
maibe
maidu
mail
main
maina
maincat
mainnsname
mainsnak
mainstream
maint
maintenance
maio
maior
maioria
mais
maisfutebol
maiu
maiwa
maizomenus
maizumenus
majelis
majhi
major
majorianu
majority
mak
maka
makaa
makaas
makadade
makadike
makalero
makanan
makas
makasa
makasae
makasar
makau
make
makecategorylink
makeerror
makeinvokefunc
makelist
makerandomlist
makerek
makes
makeseparator
makestartboxdata
makestartboxlinksdata
maketitle
maketoolbar
makeurllink
makewikilink
makewikitexterror
makewrapper
makhuwa
makian
makikit
makili
makina
making
makinha
maklokek
maksoik
maksorok
maksud
maktolok
maku
makuva
mal
mala
malabe
malaccan
malachi
malae
malagasy
malaio
malaiu
malak
malang
malaria
malasar
malawi
malay
malayalam
malayo
malaysia
malaysian
male
malelat
malere
malformed
malhadinhas
mali
maliana
malilait
malinaltepec
malirin
malisan
maliubu
mallorca
malo
malta
malte
maltese
malu
maluk
maluku
maluro
maluru
malware
mam
mama
mamalia
mamalogi
mamar
mambae
mambai
mambila
mami
mamosuk
mamuk
man
mana
manado
management
manan
manapa
manas
manatuto
manatutu
manaus
manbae
manchester
manda
mandaic
mandarin
mandatu
mandobo
mane
manehat
maneija
maneira
maneja
manek
manelima
manelobas
manetu
manezamentu
manichaean
manifesta
manifestasaun
manila
maninka
maninkakan
manipulasaun
manipuri
manlala
mano
manobo
manoo
manta
mantein
manu
manual
manuel
manufacturer
manufacturers
manufahi
manumanaw
manumera
manusae
manusia
manuskritu
manutasi
manutensaun
manxa
many
manza
maori
map
mapa
mapdataname
mape
maplink
mapname
mapnames
mappings
mappingskey
mappingsnsname
maps
maputu
mar
mara
marae
maram
maran
maranha
marathi
marathon
maratona
marc
marcelino
marcelo
march
marchar
marcos
maret
marexa
marghi
margin
marguments
mari
maria
mariana
mariano
marie
marin
marina
marind
maring
marino
mario
maritime
marjen
mark
marka
markas
marker
market
markhigh
marksize
markt
marku
markup
marobo
maromak
maroon
marques
marquesan
marrokus
mars
marseillaise
marshmallow
marsia
marsu
marti
martin
martinho
martins
maru
marwari
marxa
mas
masa
masakre
masalah
mascarenhas
masedo
masela
mashan
mashi
masih
masin
maske
maski
mass
massachusetts
massalio
master
mata
matadalan
matahari
matahoi
matai
matak
matan
matar
matarran
matarranya
matata
match
matchany
matches
matchesblacklist
matchestitle
matchhook
matching
mate
matebian
matema
matematika
matenek
mateo
materia
material
materna
mateus
math
matlatzinca
mato
matorek
matos
matthew
matu
mau
mauabu
maubara
maubise
maubisse
maubo
maubu
maucatar
mauchiga
mauhubu
maukatar
maulau
maumeta
maun
maurita
maurizio
mawa
max
maxarg
maxdef
maxfile
maxlen
maxsigfig
may
maya
mayaddcalendar
mayan
maybe
maybeitalicize
mayi
mayo
mayombe
mayor
maz
mazahua
mazanderani
mazatec
mazatla
mb
mba
mbara
mbbl
mbe
mbembe
mbia
mbo
mbolu
mbox
mbq
mbre
mbula
mc
mcal
mcg
mci
mcm
mcode
mcwilliam
mdy
me
mea
mean
means
measurement
med
meda
media
median
mediawiki
medical
medida
medieva
medieval
medio
medisina
mediterra
mediu
medium
mega
megacalorie
megacalories
megajoule
megalitre
megaton
megatonne
megatonnes
megawati
megawatt
mehara
mehi
mei
meios
meiu
meius
meka
mekanika
mekaniku
mekanisme
mel
melacak
melakukan
melalui
melanau
melane
melanesia
melbourne
melchor
meligo
melilla
meliputi
mello
melo
meltzer
memahami
membentuk
members
membro
membru
membrus
memengaruhi
memiliki
memo
memoized
memoria
memory
mempelajari
memperoleh
mempertahankan
men
menanggapi
menbru
mencoba
mencos
mende
mendoza
mendukung
menekankan
meneliti
menengah
menerbitkan
meneza
menggunakan
menggunakannya
menghasilkan
mengubah
menina
menjadi
menjawab
menon
mensagem
mensajen
mensiona
menta
mentranslasi
mentras
menu
menulis
menus
menyandikan
menyelidiki
meo
meohang
mer
mera
mercado
mercosur
mercury
merdeka
merese
merg
merge
mergeargs
mergearrays
merger
merin
merkadoria
merkadu
mero
merobaldu
meroitic
meros
meru
merupakan
mes
mesa
mesak
mescalero
mese
mesopotamian
message
messagebox
messagename
messages
messenger
mestradu
mestre
met
meta
metaargs
metaargskey
metabolisme
metade
metagou
metal
metalurjia
metan
metana
metano
metanu
metatable
meteora
meter
meters
method
metin
metinaro
meto
metode
metodo
metodu
metre
metres
metric
metro
metru
meu
mev
mexico
meza
mezmu
mft
mg
mga
mgr
mh
mhr
mhz
mi
mia
miami
mian
miao
mica
michael
michel
michoaca
micro
microsoft
microwatt
mid
midar
middle
midiki
midnight
mie
mien
might
migrasaun
migrasuan
miguel
mika
mike
mikro
mikroskopik
mikrotik
miku
mil
milaun
mile
miles
milhares
milhoes
mili
miliar
miliaun
milita
militar
military
militer
militiae
militum
millaun
millennium
milliard
millicalorie
millicalories
milligram
milliliter
millilitre
millimeter
millimetre
million
milliwatt
milloens
mim
min
mina
minarai
minas
mind
mindelo
minecraft
minh
minha
mini
miniaturadaimagem
minim
minimize
minimu
minimum
mininu
ministe
minister
ministerial
ministerio
ministeriu
ministra
ministro
ministru
ministry
minix
minoan
minor
minorita
minsymbol
minus
minute
minutes
mio
mips
miq
mir
miri
miriwoong
mirror
mirrorsummary
mirrorurl
mis
misa
misalnya
misaun
mishmi
misiona
mismatch
misr
misrule
miss
missa
missing
mission
misuse
mit
mithraism
mitokondria
mitras
miu
miwok
mix
mixe
mixed
mixtec
mixtepec
mj
mk
mka
mkg
ml
mla
mlatm
mly
mlə
mm
mmol
mn
mnh
mni
mnong
mnr
mo
mobile
mobilidade
moc
mod
mode
model
modelajen
modelo
modelu
modern
moderna
modernizasaun
moderno
modernu
modesto
modf
modi
modifika
modifikasaun
modifyimage
modo
modu
modul
module
modules
moduletitle
modulo
moe
moeda
mofu
mogue
mohamed
mohawk
mohr
moi
moj
mok
mol
molar
molda
moldavian
moldova
moldovan
mole
molekul
molekula
molekular
molekuler
moles
molik
molo
molok
molop
moluccan
molusku
mom
moment
momentu
momoos
mon
monarkia
moncayo
monde
mone
monegres
monegros
moneta
mong
mongo
mongolia
mongolian
monitor
monitorizasaun
moniz
monleo
mono
monpa
mont
monta
montalba
montanha
montante
monte
monteiro
montenegrin
montenegru
montes
montesusi
montet
month
monthly
months
montrea
monu
monumentu
monzo
moo
moon
moore
moos
mor
mora
morais
moral
moras
morchella
more
moreargumentsexist
morehtml
morena
mori
morin
moris
morning
moro
moroccan
moros
morte
moruk
mos
mosambikanu
mosambike
moskovu
mosley
most
mosteiru
mosu
mota
motael
motherboard
motiva
motivasaun
motivu
motor
motorola
motorsports
motu
mountain
moura
mouse
mout
mov
move
moveprot
movimentadu
movimento
movimentu
movseparator
moyang
mozilla
mp
mpa
mpc
mpg
mpge
mpgimp
mpgus
mph
mpi
mpr
mprotectionbanner
mr
mrj
mro
mru
ms
msg
msgkey
mshared
mss
mt
mte
mth
mtontnt
mttnt
mtv
mu
mua
muapitine
mucha
muda
mudah
mudanc
mudansa
mude
muerte
muhammad
muito
muitos
muji
mukit
mulata
mulheres
mulo
multi
multilanguage
multilingual
multimedia
multiple
multiplier
multiplikasaun
multiseluler
mulu
mum
mun
munda
mundia
mundial
mundo
mundu
mungkin
munici
municipio
municipiu
munike
munisi
munisipa
munisipio
munisipiu
munu
mur
mura
murak
muria
murik
murray
murut
mus
musan
museu
museum
music
musik
musika
must
mustang
musulmanu
mutin
mutu
muy
muyu
muzeu
muzika
mw
mwa
mwera
mwh
mww
my
myanmar
myn
myr
mysql
mzn
n
na
naan
naba
nabilan
nac
nacht
nacional
nae
nafahe
nafatin
naforma
naga
nago
nah
naha
nahe
nahuatl
nai
naimeko
nain
nakfahe
nakfera
nakfila
nakfilak
naklalir
naklekar
naklibur
nakloke
nakmaluk
nako
nakonu
naku
nakukun
nam
nama
namanei
name
namecode
named
names
namespace
namespaces
nami
namibia
namkari
namoleso
namon
namun
nan
nanaek
nane
nanis
nanu
nao
napoli
naq
nar
nara
naram
naran
narbonense
nari
naro
narom
naroman
narrado
naruhito
naruk
nas
nasa
nasal
nasaun
nascar
nascimento
nasiona
nasional
nasionalidade
nasionalista
nasoens
nasoins
nasu
nata
natak
natal
natalis
natar
natas
national
nations
native
naton
natoon
natura
naturais
natural
naturalmente
nature
natureza
nau
naueti
naun
nauru
nautical
nav
naval
navarra
navbar
navbox
navy
naxi
naz
nb
nbsp
nc
nca
nchen
nci
ncia
ncias
ncio
ncs
nd
nda
ndalu
ndataset
nde
ndebele
nder
ndez
ndia
ndiku
ndiu
ndk
ndo
ndola
nds
ndu
ndyuka
ne
nea
near
nearest
neb
neba
nebe
nebee
nec
necesidade
necessary
necessidades
nee
neebe
need
needed
needle
needs
neen
negative
negativu
negeri
nego
negoseia
negosiasaun
negosiu
negra
negras
negro
nehan
nein
neineik
neither
nek
nele
nella
nelson
nem
neme
nen
nend
neneik
nenek
neo
neok
neoli
neon
nepa
nepal
nepali
nepos
ner
nero
neru
nesecidade
nesesa
nesesariu
nesesidade
nesesidades
nested
net
netik
netral
network
neu
neumann
neuschwanstein
nev
neve
never
neves
new
newar
newari
newcastle
newline
newlines
newobject
news
newton
next
nextarg
nexus
nez
ng
nga
ngad
ngando
ngaru
ngbaka
ngbandi
nge
ngel
ngo
ngombe
ngua
nguas
ngulu
ngumbe
ngunga
nh
nha
nhangu
nhk
ni
nia
niam
nian
nica
nicaragua
nicholas
nico
nicobarese
nicola
nicolau
nie
niederbayern
nig
niger
nigeria
nigerian
night
nigo
nii
nije
nik
nika
nikel
niku
nikus
nil
nilargs
nilargskey
nimo
nimu
ningue
ninia
ninian
ninin
ninka
nino
nio
nipane
nirkabel
nisi
nisu
nit
nitibe
niu
nivel
njiva
njua
nkoo
nks
nl
nla
nle
nm
nmi
nmonth
nn
nneeds
nnn
nno
nnot
no
noa
nobel
noble
noc
nocat
nocomma
node
noe
noi
noivu
nok
nokia
nol
nolink
noma
nome
nomeasaun
nomenclature
nometemplate
nomo
nomobile
nomos
nomu
non
nona
none
nor
norberto
nordeste
noref
norfolk
norma
normal
normally
normalmente
norman
norte
north
northeast
northeastern
northern
northwest
northwestern
noruega
noruege
norway
norwegian
nos
nospace
nospecial
nossa
nosso
nossos
not
nota
notation
note
notes
nothing
noti
notice
notifikasaun
notifying
notoc
notre
nottoway
nou
noufo
nougat
nous
nova
novaiorke
novalue
novela
november
novembro
novembru
novo
novos
now
nowak
nowiki
nowrap
nowrapitems
noy
nqo
nr
nrf
nrm
ns
nsa
nscategory
nsd
nsi
nsia
nsias
nsipe
nsiu
nsk
nsname
nso
nsst
nst
nstable
nstr
nsw
nte
ntico
ntika
ntiku
ntt
nu
nua
nuaulu
nubian
nuc
nuco
nuda
nudar
nuestros
nugunu
nui
nuk
nukleus
nullo
nulu
num
numb
number
numbered
numberflags
numbers
numbersindex
numdigits
numdot
nume
numerator
numeric
numerico
numero
numeru
numerus
numparam
nums
numsep
numstr
nun
nunca
nune
nunee
nuni
nunira
nunka
nunne
nuno
nunu
nuosu
nupe
nur
nurak
nurep
nus
nusa
nusar
nuu
nv
nvidia
nwc
nxi
ny
nya
nyanga
nyanja
nyasa
nye
nyi
nyiha
nyika
nynorsk
nyo
nz
nzi
nzima
nzitu
o
oado
oan
oar
oaxaca
obama
oben
oberbayern
oberndorf
obj
object
objective
objectivo
objectivu
objects
objektivu
objetivo
objetivu
objetu
obo
obra
obriga
obrigado
obrigadu
obrigasaun
obrigato
observa
observado
observasaun
observations
oc
occidental
occitan
occur
occurs
oceania
och
oci
oclc
october
oda
odamatan
odd
oddeven
odham
odia
odm
odomau
odu
oe
oecusse
oecussi
oeleo
oeleu
oems
oesilo
oeste
of
oferece
oferecem
oferese
oferta
off
office
official
offisia
offset
oficiais
oficial
ofisia
ofisial
ofisialmente
ofo
often
ogg
ogues
oh
oha
ohin
ohlone
oho
oi
oih
oil
oilbbl
oin
oinoin
oinsa
oioin
oirat
oirata
oito
oituan
oj
ojectivo
ojibwa
ok
okaziaun
okh
oki
okinawan
oko
okomputador
okorre
okos
okpe
oksford
oksije
oksitanu
oksitaun
oktober
oku
okupa
okupante
okupasaun
ol
ola
olanda
olande
olandeza
old
oldu
oleh
olhos
oli
olimpiade
oliu
oliveira
olo
oloron
olu
olvena
om
oma
omargs
ombox
omenajen
omi
omit
omitsep
omitted
omo
omoseksua
omoseksualidade
omoseksualizmu
on
ona
onasignifika
once
one
ong
onin
online
only
onne
ono
onora
onra
ons
onu
ood
op
opa
open
opengl
opening
openjdk
opera
operasaun
operate
operating
operativo
operativu
opiniaun
opmt
opole
oportunidade
oportunidades
opozisaun
opsaun
opsaunn
opsiona
opt
option
optional
options
or
ora
oracle
orana
orang
orario
oras
orasaun
orasida
orbita
ordem
orden
ordensaun
order
ordered
orders
ordesa
ordine
ore
org
orga
organ
organik
organisasaun
organisaun
organisme
organismu
organiza
organizac
organizado
organizasaun
orgaun
ori
orienta
orientador
oriental
orientasaun
orientation
oriente
oriented
orig
origargs
origargsargname
origen
original
origins
orijen
orijina
orijinalmente
oriya
orlalan
ormona
ornitologi
oro
oroel
oromo
orphancat
orsamentu
orsay
orthographic
orthography
ortogra
orv
orya
os
osa
osage
osan
osasuna
osca
oscan
osea
oseania
oseanu
oshima
osidenta
oslo
oso
ospita
ossetic
osso
ossoala
ossorua
ossu
ost
ostico
osttimors
osu
ot
ota
otan
otas
ote
other
others
otherwise
oti
otk
oto
otomi
ottoman
otu
ou
ounce
ounces
our
ouro
out
outinfo
outobru
output
outputs
outras
outro
outros
outside
outsold
outstr
outstring
outubro
outubru
outvalue
ouya
over
overflow
overhead
overlay
overlays
overridden
override
overrideargs
overridecode
overrides
overridesubtags
oversight
overview
overwritten
oviedo
own
oxford
oya
oz
ozf
ozt
p
pa
pablo
pac
pacific
pada
padding
padlock
padraun
padre
pae
paekche
pagamentu
pagamentus
page
pagename
pages
pagetype
pagina
paginha
pah
pahari
paharia
pahawh
pahlavi
pai
paigc
pairara
pairs
pais
paiute
paixaun
paiz
paizagem
paizajen
pak
pakistan
pakistaun
pakote
paku
pal
pala
palacio
palais
palau
palaung
palavra
palawano
paleoli
paleontologi
palgrave
pali
paling
pallab
pam
pame
pampanga
pamplona
pana
panama
paneleiru
panglima
panjabi
pano
panorama
pante
pao
papa
pape
papel
papers
papua
papuan
par
para
parade
paraflags
paragraph
paragraphs
paraguai
paraguay
paraguayan
parai
parallels
param
parameter
parameternames
parameters
parametri
parametro
paramname
paramorder
params
paramsaliasesp
paramsi
parana
parasit
parasitisme
parbate
pare
paren
parens
parent
parenthetical
parentonly
parese
pargs
pari
paris
park
parke
parlamenta
parlamentar
parlamento
parlamentu
parliament
parliamentary
parm
parms
parmsi
parmsiparm
parmsoption
parmsparms
parnai
paro
parokia
parque
parse
parsec
parsed
parsedate
parsedformat
parseformat
parseiru
parsek
parser
parseria
parsewikidataurl
parsi
parsialmente
part
partai
parte
parthian
parti
participa
particle
particles
particular
partido
partidu
parties
partikel
partikula
partikularmente
partilla
partisipa
partisipante
partisipasaun
partitions
parts
pas
pasa
pasadu
pascal
pasco
pashai
pashayi
pashto
pasi
pass
passa
passabe
passati
passed
passions
past
pasta
pastaza
pasu
patches
patent
patente
path
patri
patria
patrie
patrimo
patrol
patrulla
pattani
pattern
patterni
patterns
pau
paul
paula
paulo
paulu
paus
paz
pc
pcall
pci
pcs
pd
pda
pdc
pdf
pe
peace
pecado
pecados
peck
pedago
pederastia
pedi
pediatria
pediatrics
pedra
pedro
pedru
pegunungan
pei
pekadu
peki
pekua
pel
pela
pelo
pelumenus
pemimpin
pen
pena
penalidade
penan
penelitian
penerapannya
pengaruh
pengetahuan
pengguna
peninsula
pennsylvania
penting
penyakit
peo
people
pep
pepetela
per
perbedaan
percent
perch
percode
perdido
perdoar
pereira
pergunta
peri
perigozu
perilaku
period
periode
periodpos
periods
periodu
peritus
perkembangan
perkusaun
perlawanan
perma
permanente
permisaun
permissions
permite
permiti
pernambuco
pero
perrin
persebaran
persepolis
persepsaun
perseus
persian
persija
persisa
persistente
persiza
personajen
personalidade
personel
personil
personnel
perspectives
perspetiva
pertama
pertanyaan
pertense
pertext
perth
pertumbuhan
peru
perubahan
perunit
pesa
peska
peskas
peskiza
peskizado
peso
pesoa
pesoal
pesquisa
pessoa
pessoas
peste
peter
peterpan
petisaun
petitioner
pev
pewarisan
pez
pezu
ph
pha
phaa
phage
phd
philippine
philippines
phillip
phnx
phoenician
phola
phone
phonetic
phono
phowa
php
phr
phu
physics
pi
pia
piaui
pib
pic
picene
pichai
pico
pide
pidgin
pidgins
pie
piemontese
pif
pika
piku
pilar
pin
pinching
pint
pinto
pintura
pinyin
pio
pioneiru
pip
pipe
pirata
pirataria
pirated
pirenaiku
pirene
pireneus
pires
piro
pitcairn
pitch
pite
piter
pitta
piu
pius
pixina
pj
pk
pka
pl
pla
place
plain
plainlinks
plains
plan
plana
plane
planeamentu
planet
planeta
planetarian
planetarium
planetary
planets
planning
plano
planta
plantasaun
planu
plataforma
plataun
platform
plato
play
playback
played
player
plaza
ple
please
plen
plena
plik
pln
plotdata
plp
plugin
plural
plus
pm
pmf
pmid
pms
pn
pnb
png
pnt
pntl
pntype
pny
po
pobreza
poca
pode
podem
podemos
poder
poe
poem
poema
poemas
poesia
poeta
poetete
poetiza
poezia
pog
point
pointer
points
pois
poka
poke
pokemon
pol
polaku
polaroid
pole
poli
police
policia
policy
polimentadu
poline
polis
polish
polisi
polisia
political
politico
politics
politik
politika
politiku
politikus
polo
polynesian
pom
pomerania
pomo
pond
pondemaat
ponilala
ponta
ponte
pontu
pop
popoloca
popoluca
popula
populac
popular
popularidade
populasaun
populasi
populasiona
population
populoso
por
porezemplu
porsentu
port
porta
portages
portal
portantu
porting
porto
portrait
portu
portuga
portugal
portuge
portuges
portugeza
portugiesisch
portugue
portugues
portuguesa
portuguese
portugueses
pos
pose
posisaun
position
positional
positive
positivo
positivu
posivel
posse
possible
possibly
post
posthash
posting
posto
postu
posui
potd
potddate
potdtext
potensia
potensial
potential
potentially
potwari
poucos
pound
pounds
pour
pousada
povo
povu
povuamentu
povuasaun
povus
povusaun
pow
power
powered
pozisaun
pozisiona
pozitivu
poznan
pp
pps
ppt
pr
pra
prac
practices
praga
praia
prakrit
pranala
prasa
pratika
pratikamente
praxe
prazo
prazu
pre
prec
precedence
precisa
precision
predefinic
predispoin
predomina
prefer
prefere
preferred
prefetchedrefs
prefiksu
prefissi
prefisso
prefix
prefixed
prefixedtext
prefixes
prefixtable
prehash
preimer
prejensa
prekonseitu
prekose
prelimina
preliminary
preload
premeira
premier
premiu
preokupa
preokupasaun
prepara
preprocess
preprocessargs
preprocesssinglearg
presaun
presence
presensa
present
presente
presiaun
presiden
presidensia
president
presidente
presidential
presija
presiza
press
pressure
presta
prestasaun
presu
pretende
preto
preunit
preunits
prev
prevee
prevene
prevent
preview
previous
previously
previzaun
prezensa
prezente
prezidensia
prezidente
prezidenti
pri
priced
prima
primaria
primariamente
primary
primavera
prime
primeira
primeiro
primeiru
primero
primigenius
principal
principles
prinsi
prinsipa
prinsipais
prinsipal
prinsipalmente
prinsipiu
print
printblurb
printtitle
prion
prioridade
pritchard
priu
privada
privado
privadu
privasidade
private
priya
prizioneiru
pro
probabilidade
probably
problem
problema
problems
procedural
process
processed
processflag
processflagorcommand
processing
processitem
processor
processseparators
produ
produs
produsaun
produtividade
produto
produtu
produtus
produz
proeminente
prof
profeso
profesor
professional
professor
professores
profile
profisaun
profisiona
profissional
profundidade
program
programa
programador
programadu
programasaun
programming
progresso
progressu
progresu
projeto
projetu
prokariota
proklama
proklamasaun
prokonsul
promesa
promessa
promessas
promete
prometeu
promonto
promosaun
promove
prompt
prontu
pronu
pronunciation
prop
propersign
propert
properties
property
propertyid
propertyvalue
propo
propoin
proporsaun
proporsiona
proposta
propriedade
proprietariu
prosedura
proses
prosesamentu
prosessu
prosesu
prossec
prosseco
prossedural
protagonista
protaun
protect
protected
protection
protectionlevels
protein
proteje
protejidu
proteksaun
protesaun
protesta
protestante
protista
proto
protocol
protokolu
prova
provavelmente
provenc
provi
provide
provided
provides
province
provincia
provinsia
provisa
provizorio
provoka
pru
ps
psd
pseudo
psh
psi
psia
psicologia
psikiatra
psikiatria
psiko
psikolo
psikolojia
psikoterapia
psiu
psoe
pst
psu
psychiatric
psychiatrists
psychological
psychology
pt
pta
pu
pub
puberdade
public
publica
publicationdate
publico
publika
publikadu
publikamente
publikas
publikasaun
publiku
publisher
publishers
publishing
publisidade
pudd
pue
puebla
puerto
pula
pulsa
pumi
pun
punan
punc
puncmark
punctuation
pung
punjabi
puno
puo
pur
purepecha
purge
purificar
puritanu
puro
purpose
purugua
pushto
put
puyo
pw
pwo
px
pye
pyeong
pyra
pyre
pyu
q
qiandong
qiang
qid
qt
qtr
qu
quad
quadrillion
qual
qualidade
qualified
qualifier
qualifiers
qualifierscount
qualifikado
quando
quart
quarter
quarters
quase
que
quechua
queen
queer
quelicai
quer
query
questions
qui
quic
quiche
quichua
quick
quinto
quirilelo
quite
quote
qur
qus
qux
r
ra
raan
raat
rabat
rabe
rabi
rac
racing
rad
rade
radial
radiasaun
radiation
radio
radioactivity
rae
raebou
rafael
rahun
rai
raifun
raiheu
railaco
railaku
raimea
raimerhei
rain
rainbow
rainfall
rainha
rairobo
raise
raiseerror
raiu
rakyat
rala
ram
rama
ramata
ramelau
rami
ramirez
ramos
ramu
ran
rana
random
randomizearray
randomizes
randommodule
randomseed
randomslideshow
range
rangei
ranges
rangesindex
rangkaian
rank
rankine
rankpos
ranks
ranksrankpos
rao
rap
rapa
rapanui
rapcore
rar
raratan
rarotongan
rasa
rasik
rate
rather
ratih
ratio
rato
raul
raw
rawget
rawset
rawvalue
ray
raya
razaun
razoavel
rb
rbaru
rbigu
rbita
rbiu
rc
rcito
rd
rdb
rdoba
rdtl
re
rea
read
reads
ready
reagan
reaksi
real
realidade
realiza
realizasaun
realm
reanimation
reas
reasaun
reason
rebelde
rebeldes
rebeliaun
reblog
receiving
recht
reclamation
recognised
recommended
reconstruc
record
records
recruits
red
rede
redefinition
redes
redirect
reds
redundant
reduz
rees
reestruturasaun
ref
refere
reference
references
referenceurl
referencia
referendu
referendum
referensia
referente
refhash
refleta
reforma
reformasaun
reforsa
refrain
refs
refujiadu
regex
reggae
regiaun
regina
region
regions
registered
rego
regra
regras
regula
regulamentu
regular
regulares
regulasaun
regulating
rei
reichmann
reikiavike
reinado
reino
reintroduc
reinu
reis
rejang
rejiaun
rejime
rejiona
rejional
rejista
rejistu
reka
rekarga
rekerimentu
rekia
rekizitu
reklama
rekolla
rekomenda
rekomendasaun
rekompensa
rekon
rekonese
rekonhese
rekonkista
rekonstrusaun
rekupera
rekursu
rekursus
relasaum
relasaun
relasiona
relasionadu
relasionamentu
relata
related
relativamente
relativo
relativu
relato
relatoriu
relevant
relevante
relief
religiaun
religion
relijiaun
relijiozu
relo
rem
remain
remainder
remata
remesiu
remexio
remix
remota
remove
removeblanks
removecolon
removed
removeinitialcolon
removes
ren
rena
renaissance
rename
rend
rendah
rende
render
rendered
renderlist
rendernavbar
renderstartbox
renderstartboxlinks
rendertrackingcategories
rendimentu
rendisaun
rene
renetil
rengma
renovasaun
renu
reorientasaun
rep
repartisaun
repeat
repeated
repete
replace
replacealias
replaced
replacedecimalmark
replacement
replacenewlines
replacespecialchars
report
reporting
repository
represent
representa
represents
reprezenta
reprezentante
reprezentasaun
reprodusaun
repu
republic
republika
republikanu
req
requested
require
required
requires
requiring
rer
res
rescue
research
reseita
resenseamentu
resentemente
reserva
reset
reshe
resian
resife
resikliu
resin
resiste
resolution
resolve
resource
respeita
respeitu
respetivamente
respiratoria
responde
responsa
responsabilidade
responsavel
responses
responsibility
responsible
resposta
rest
restaura
restaurante
restaurasaun
restrisoens
restu
result
resulta
resultado
resultados
resultadu
resulting
resultparam
resultparameters
results
resume
ret
reta
retangula
reti
retifika
retrieved
return
returned
returning
returns
retval
reu
reuniaun
revela
reverse
review
revised
revista
revival
revivalistics
revive
revived
revizaun
revolta
revoluc
revoluciona
revolusaun
revolusiona
revolution
rey
rez
reza
rezidentes
rezigna
reziste
rezistensia
rezolusaun
rezolve
rezulta
rezultadu
rezumu
rgaun
rgb
rgio
rhein
rhs
ri
ria
riak
riamori
riang
rias
ribeiro
ribera
rica
rican
ricardo
richard
rico
ricos
ricou
rida
rie
rifles
riga
right
rights
rigo
riheu
rihun
riin
rika
riku
rikusoin
rin
rio
rioja
rios
ris
rishi
risi
risku
ritabou
riti
ritmu
rito
ritu
ritual
riu
riudejaneiru
rius
rivaa
river
rivers
rjia
rk
rm
rma
rmika
rms
rmu
rn
rname
rnia
ro
roa
road
rob
robert
roberto
robot
robres
rock
rod
roda
rodrigo
roe
roger
roglai
rohan
rohingya
role
rom
roma
roman
romana
romance
romani
romanian
romanizasaun
romanization
romano
romanse
romansh
romanu
romany
romariga
rome
romenu
ron
rona
ronald
rondo
roo
rood
room
root
roraima
rosa
roscoe
rose
rota
rote
rotuto
round
rounded
rounding
roupa
route
router
routerboard
routeros
routing
row
rowargs
rownums
rownumsj
rowstyle
royal
rozaj
rr
rriais
rsia
rsitu
rsiu
rtext
rtida
rtl
rttl
ru
rua
ruak
ruanulu
ruas
rubielos
rubin
rue
rui
ruin
ruina
rule
rules
ruma
rumu
run
rundi
runga
runic
running
runtime
rup
rura
rurais
rural
rus
rusa
russia
russian
russo
rusu
ruth
ruy
rvia
rw
rwa
ryu
rz
rzea
s
sa
saa
saafi
saan
saat
sab
saba
sabah
sabe
sabin
sabino
saboria
sabu
sabuli
saburai
sadri
sae
saelari
safe
safu
sagadate
sagrada
sagradu
sah
saharan
sai
saida
saidi
saint
sainte
saka
sake
sakramento
sal
sala
salah
salazar
salish
salishan
salva
salvado
salvador
salzburg
sam
sama
samalari
samalete
samara
samaritan
samba
sambal
same
sami
samo
samoa
samogitian
samoru
san
sanak
sananain
sancho
sand
sandbox
sandboxes
sandboxing
sandboxlinks
sandboxpreload
sandboxtitle
sandwich
saneamentu
sang
sanga
sangat
sango
sangre
sangu
sanirin
sanitizedataset
sansa
sanskrit
santa
santali
santana
santiago
santiagu
santissimo
santo
santos
santu
sanulu
sanxu
sao
sapatu
sapiens
sapo
sapt
sar
sara
saraf
saragosa
saragossa
saraiki
saran
sarangani
sarani
sardinian
sari
sarin
sarmento
sarria
sasa
sasan
saseluk
sasin
sassarese
sasukat
sata
satan
sate
saterfriesisch
satisfato
satu
satuan
saturnalia
saturnu
sau
saude
saudi
saudita
saun
sauraseni
saurashtra
sauria
save
saxon
say
sbd
sbox
sbs
sc
scale
scaled
scales
scan
scanner
scar
scf
scho
school
schumacher
schwaben
schwarz
science
scientific
scientificamerican
sco
scope
scots
scottish
screen
screens
scribunto
script
scriptargs
scripts
scwt
sd
sdb
sdc
sdk
sdn
se
sea
search
season
sebagai
sebagian
seban
sebuah
sec
secara
second
seconds
secretario
secsymbol
sect
section
secundaria
security
sed
sedang
sedauk
sede
sedu
see
seed
seedrefreshrate
seeds
seen
sees
seg
segon
segu
segunda
segundo
segundu
segura
seguranc
seguransa
seguridade
seguru
sei
seidauk
seit
seitor
seixeles
seja
sejumlah
seke
sekelompok
seko
sekolah
sekreta
sekretaria
sekretaris
sekretariu
seksaun
seksu
seksua
seksual
seksualidade
sekto
sektor
sekunda
sekundaria
sekundariu
sel
sela
selae
selain
selebra
selebrada
selebrasaun
select
selected
selectors
seleksaun
selesaun
selesionadu
self
selfref
seloi
selta
seltiberu
selu
seluk
selula
selular
seluler
seluseluk
sem
semana
sementara
semi
semina
semitic
semo
sempre
sempro
sempronia
semua
sen
sena
senadu
sendiri
sendo
sene
senhor
senhora
senior
senni
senoufo
sensasaun
sensi
sensors
sensu
sensura
sensus
sent
sente
sentence
senti
sentidu
sentimentu
sentimentus
sentinel
sentra
sentral
sentraliza
sentru
sentrus
seorang
sep
sepa
separate
separated
separately
separator
separators
sepedi
seperti
sepik
september
septembro
septembru
septima
seq
ser
sera
seraiki
serbi
serbian
serbisu
sere
serea
serelau
seremonia
serenata
sergipe
seri
serimo
sering
seriu
serka
serra
serrablo
serratus
serta
sertaneja
serua
serve
served
server
servi
service
services
servido
servidor
serving
serviso
servisu
servisus
servo
ses
sesaraugusta
sesaun
sesta
set
sete
setelah
setembro
setembru
setera
setfield
setformatandseparators
seti
setiap
setmetatable
seto
setona
setor
setores
sets
setting
settings
seu
seus
sevilla
sex
sexual
sexualis
sexuality
sezaraugustanu
sg
sga
sgm
sgs
sgt
sh
sha
shaft
shakespeare
shaku
shall
shallow
shape
shared
sharing
she
sheet
sheets
sherpa
shi
shield
shift
shiki
shina
shinoda
shipibo
shipments
shipped
ships
shore
short
shortname
should
shouldbe
shoulditalicize
show
showinvalidtypeerror
shown
shows
shp
shqipe
shu
shua
shuttleworth
shwe
si
sia
sianulu
siberian
sibuni
sica
sichuan
siciedade
sicilia
sico
sida
sidadania
sidadaun
sidade
sidadela
sidauk
side
sidni
sido
sie
siempre
siensia
sienti
sientista
sierra
sigfig
sigillaricia
sigla
sign
signed
signes
significand
significant
signifika
signifikadu
signifikante
signifikativa
signifikativu
siguransa
sih
sik
sika
sikat
siklu
siku
sikun
sil
sila
sile
sileks
silesian
silu
silva
silver
silvino
sim
simbo
simboliza
simbolizmu
simbolos
simbolu
similar
similarly
simith
simple
simples
simplicity
simplified
simplify
simu
sin
sina
sinal
since
sindhi
sinema
sing
singa
singapore
singapura
singel
singing
single
singleclaim
singlevalue
singular
sinhala
sinhalese
sinka
sinottico
sinseru
sinterklaas
sintesis
sintoma
sinuosa
sio
sios
sip
sipiaun
siprefixes
sir
sira
sirahirak
siri
sirkulasaun
sisaala
sisade
sisi
sissano
sistem
sistema
sistemas
sistematika
sit
sita
sitadu
site
siteid
sitelinkscfg
sitema
siterio
sitiu
sitius
situ
situada
situasaun
situs
siu
sivi
sivil
six
size
sizes
sk
ska
skala
skema
skew
skip
skito
sko
skr
skua
sky
skype
sl
sla
slash
slavey
slavic
slavonic
sleeve
slide
slideshow
slideshowargs
slogan
slovak
slovene
slovenian
sm
sma
smadav
small
smallparam
smalltext
smart
smartphone
smartphones
smg
smk
smoot
smp
sms
sn
snak
snakequalsvalue
snaks
snaksaliasesp
snaksdtype
snaktype
snakvalue
snapdate
snapshot
snorri
so
soares
sob
soba
soberania
soberanu
sobrarbe
sobre
sobrenatura
sobrevive
sobrevivensia
sobu
soccerbase
sociais
social
sociedade
society
socio
sociology
sodomia
soe
sofre
software
soga
sogdian
soi
soibada
soil
soileco
soilesu
soin
sokrate
sol
sola
solano
solar
soldado
soldados
soldadu
soldadus
soldiers
soli
solicitantes
solid
solis
solo
solola
solomon
solsti
solusaun
solutreanu
som
somali
some
somente
something
sometimes
somevalue
somewhere
somontano
somos
son
sona
sonda
song
songhai
songhay
sonhos
sono
sonoru
sony
soo
sop
sopratitolo
sora
sorbian
sori
sorin
sorisorin
soro
sorsoganon
sort
sortable
sorte
sorted
sortedlines
sortkey
sortspan
soru
sos
sosa
sosia
sosiais
sosial
sosialista
sosializasaun
sosiedade
sosio
sotho
sotto
sottotitolo
sou
source
sourced
sourcedonly
souro
sousa
south
southeast
southeastern
southern
southwest
southwestern
sovie
sow
soyaltepec
sp
spa
space
spaces
span
spancss
spanish
sparseconcat
speaking
spec
special
specific
specifically
specified
specify
spectroscopy
speed
speedy
spell
spelled
spelling
spesies
spesiesnya
spi
spirit
spitzer
splat
split
sport
spp
springer
spurio
spx
sq
sqbr
sqcm
sqft
sqin
sqkm
sql
sqm
sqmi
squad
square
squared
sqverst
sqyd
sr
sra
src
sri
srilanka
sro
ss
ssc
ssia
ssica
ssss
sst
st
sta
stack
stae
staff
stallman
stand
standar
standard
standards
stanford
star
start
startbox
startnum
starttime
starttimed
starttimem
starttimestamp
starttimestampunix
starttimey
statcounter
state
stated
statedin
statement
statements
states
statesparam
statesparameters
stationed
statistics
statistik
statistika
stats
status
std
ste
steam
stellar
step
stephen
ster
sterreich
steven
stf
stica
stico
stieng
stiff
stika
stiku
still
stille
stl
stm
sto
stock
stolu
stone
stop
store
stored
stores
story
stq
str
strait
stramenopila
strange
street
strength
strforce
strformat
stria
string
stringa
strings
strip
stripmarker
stripped
strome
structure
structured
struktur
struktural
strval
stt
studa
studies
studio
study
sturlson
style
stylein
styleout
styleratio
styles
su
sua
suai
suar
suas
suatu
suave
sub
suba
subanen
subanon
subar
subasubar
subdiv
subdivisions
subdivs
subgroup
subinfo
subject
subjectspace
sublin
submete
submission
subpa
subpage
subpagecontent
subpagemax
subpageno
subpageonly
subpages
subsistensia
subst
substa
substansi
substantivu
substitui
substituted
subtag
subtags
subtitle
subtype
subunit
success
successful
such
suco
sudah
sudan
sudanese
sudaun
sudeste
sudi
sudoeste
sue
sueku
suesetanu
suevu
suffisso
suffix
sufiksu
sufisiente
suga
suharto
sui
suisa
suitable
suite
sujeitu
sujere
sujestaun
sukarno
sukat
suksesu
suku
sukursa
sukus
sul
sula
sulawesi
suli
sulin
suma
sumatera
sumber
summary
sun
sunak
sundanese
sundar
suniufe
sunu
sup
super
supera
superaglomeradu
supercluster
superfi
superio
superior
supersymmetry
supoin
suporta
supplementary
support
supported
supporting
suppress
suppressed
suppression
suprime
suptitle
sur
sura
surat
sure
suri
surik
suriname
suro
surrogates
surui
survey
sus
susan
susar
susesaun
suseso
susesu
susilo
suspende
sustenta
sustentavel
susu
susun
sv
svg
sw
swahili
swap
swati
sweden
swedish
sweet
swiping
swiss
switch
switching
switchlang
swo
sydney
syllable
sylvan
sylvie
sym
symbian
symbol
symbolic
symbols
symlink
synonym
syriac
system
szczecin
t
ta
tab
tabasco
tabela
tabella
table
tablecen
tablecode
tablefield
tablelength
tables
tablespoon
tablet
tabletools
tablets
tac
tada
tadak
tado
tae
tag
tagalog
tagbanwa
tags
tahan
tahu
tahun
tai
taiboko
tail
taila
tairora
tais
taitudak
taiwa
taiwan
tak
taka
take
takes
taksonomi
tal
talain
tali
talin
talitu
talk
talkargistalkpage
talkpagetitle
talktext
talktitle
talleres
talu
tama
taman
tamang
tamarit
tamazight
tamba
tambe
tambor
tamil
tan
tanah
tanana
tanba
tanbasa
tanggal
tangkhul
tangut
tanna
tansa
tanto
tantu
tanzania
tapo
tapping
tar
tara
tarahumara
tarangan
tarasona
tarassona
tarazona
tarcisio
tarde
tarefa
target
targettitle
tarifa
tarjetu
taroman
tarraco
tarraconensis
tarragona
tarrakonense
tas
tashilin
tasi
tat
tata
tatamailau
tatar
tatekis
tatemik
tato
tatoli
tatuur
tau
tauk
taur
taurus
tavringer
tawbuid
taxa
taxon
taxonomy
tay
taz
tazma
tbl
tbol
tbq
tbsp
tcp
tcuft
td
tds
te
team
teams
teatru
teb
tebabui
tebe
tebes
tebetebes
tebul
tech
technical
technology
tecnologia
tee
teen
teke
teknik
teknika
tekniku
teknolo
teknologi
teknologia
teknolojia
tel
telecom
telefo
telefone
telefoni
telekomunikasaun
telekomunikasi
telemo
telemovel
teles
telesko
televisaun
televizaun
telin
telkom
telkomcel
telugu
tem
tema
tembo
temi
temin
tempat
temperatura
temperature
template
templatecat
templatecategory
templatecategoryrequirename
templatedata
templateerrorcategory
templatelink
templatename
templates
templatesort
templatestyles
templatetitle
templu
tempo
tempora
tempu
tempuseeds
ten
tena
tende
tendensia
tenderizasaun
tendesia
tenente
tengah
tenggara
tengki
tengser
tenke
tenki
tennessee
tensaun
tenta
tentang
tentara
tentativa
teo
teodoriku
teolo
teori
teoria
tepehua
tepehuan
ter
tera
terapeutas
terapia
terawatt
terbuka
terceira
terdapat
teresa
teresinha
terezinha
terhadap
terik
terjadi
terkait
term
termasuk
terminolojia
termo
terms
termu
terneras
terol
terpilih
terra
terras
terrenu
terrestre
territo
territoria
territoriu
territory
tersebut
terseira
terseiru
tersu
tertentu
terue
teruel
terus
terutama
tes
tese
tesi
tesik
test
testamentu
testata
testcases
testcaseseditlink
testcaseslink
testcaseslinkdisplay
testcaseslinks
testcasespreload
testcasesrunlink
testcasesrunlinkdisplay
testcasestitle
teste
testemun
testes
testing
testu
tetu
tetuk
tetum
tetun
teu
teus
tev
tewa
tex
texas
text
textcell
textcellspan
texto
textos
texts
textstyle
tey
tez
teze
tfrac
tft
tg
th
tha
thaa
thai
than
tharu
that
the
thee
their
them
then
theoretical
theory
therapy
there
therm
thermal
thermochemical
therms
these
they
thine
thing
things
third
this
thisvalue
thm
thomas
those
thou
thousand
three
through
throwerror
thu
thumb
thumbnail
thy
ti
tia
tiarlelo
tibalau
tibar
tibe
tibetan
tica
ticas
tico
ticos
tidak
tidiedval
tidung
tidyval
tie
tiga
tiha
tii
tik
tika
tikal
tiku
til
till
tilomar
tim
tima
time
times
timestamp
timestamps
timo
timor
timorense
timorenses
timorese
timoroan
timothy
timur
tin
tina
tinak
tinan
tingkatan
tio
tioma
tionghoa
tip
tipo
tipu
tirana
tirilolo
tiru
tita
titchener
titilari
title
titlearg
titlecell
titlecolspan
titlegroup
titleobj
titlerow
titlestyle
titlo
titoloest
titoloint
titulu
tiu
tiv
tiveram
tiwa
tj
tk
tkl
tl
tlacoapa
tlapanec
tlaxiaco
tld
tlyfp
tm
tmbox
tmh
tn
tni
tniku
tnikus
tnt
to
toba
tobago
toc
tocantins
toda
todan
todas
today
todo
todos
todu
toe
together
togo
tohono
tohumeta
toi
tok
toka
toke
tokelau
token
tokharian
tokio
tokodede
tokon
tol
tolerance
toloza
tolu
toluk
tolun
tolunulu
tom
toma
tomada
tomak
toman
tomas
tome
tomu
ton
tong
tonga
tongo
tonnage
tonne
tonnes
tonumber
too
tool
toos
top
topo
toponi
toptext
torga
toria
tormentas
tornedalen
toro
torque
torr
torre
torres
tortura
torun
torvalds
tos
tosc
tostring
tot
tota
total
totalmente
totonac
touch
touchpad
touchscreen
tour
toura
tous
toussian
tout
tower
toybox
tp
tpi
tpt
tr
tra
trabalho
traballado
traballu
track
tracking
trackingcategories
trackmsg
trade
trademark
tradisaun
tradisiona
tradisional
tradition
traditional
tradu
tradusaun
traduto
trail
trailing
trained
training
transcluded
transfer
transfere
transferensia
transforma
transformasaun
transl
translate
translatenext
translation
translit
transliterated
transliteration
transmisaun
transmission
transmiti
transporte
transwiki
tranzisaun
tranzito
trata
tratadu
tratamento
tratamentu
traveller
travessia
tre
treina
treinador
treinamentu
treinu
tres
treue
tri
tria
tribuna
tribunal
trien
trigu
triin
triku
trillion
triloca
trim
trimarg
trimestre
trimmed
trimwhitespace
trindade
trinidad
trio
triomphe
triqui
tristeza
triticum
triunfante
triunfo
troca
trojany
troka
tropa
tropas
troposfera
troy
tru
true
truka
trusty
try
ts
tsal
tscript
tse
tsfc
tsiaras
tso
tsubo
tt
ttoocc
ttu
tu
tua
tuan
tubuh
tui
tuir
tuirfali
tuirmai
tuituir
tujia
tujuh
tukang
tuku
tula
tully
tulu
tulun
tum
tumblarity
tumblr
tumbuhan
tun
tunebo
tunisian
tuo
tupi
tupinamba
tur
turi
turiscai
turiskai
turismo
turismu
turista
turistika
turizmu
turkia
turkic
turkish
turks
turku
tus
tutan
tutchone
tutti
tutuala
tutuluro
tutun
tuur
tuvalu
tuvinian
tv
tvl
tvs
tw
tweaking
twh
twi
twice
twitter
two
txt
type
typedata
typeofreference
types
typically
tyr
tyv
tz
u
ua
uab
uabubo
uacala
uai
uaibobo
uain
uaitame
uakala
ualu
ualunulu
uani
uata
uato
uatolari
uatu
uatucarbau
uaturau
ubi
ubu
ubuntu
ucayali
ucl
ucode
uda
udan
udar
udate
udi
udiu
udo
udt
udu
ue
uesca
ueska
ug
uganda
ugaritic
ui
uighur
uir
uis
uitoan
uivam
uja
uk
ukra
ukrainian
ukun
ukur
ul
ulf
ulmera
ulo
ulookup
ultima
ultrapasa
ulu
uluk
ulukna
ulun
ulusa
ulx
ulxargurl
ulxindx
um
uma
umaberloik
umaboku
umak
umakaduak
umakain
umana
umanaruk
umane
umanidade
umanu
umanus
umm
umum
un
una
unable
unaffordable
unbulleted
uncertainty
uncl
uncoded
uncu
und
undefined
under
underground
underlying
underscore
undetermined
une
unesco
ung
ungria
unia
uniaun
unicode
unidade
unidas
unidos
unidu
unidus
unified
uniku
unio
union
unit
unitcode
united
unitonly
units
unitsi
unitsperdegree
universa
universidade
universita
universitas
university
universu
unix
unixts
unknown
unless
unmit
unofficial
unpack
unrecognized
uns
unser
unset
unsigned
unsupported
untaet
until
untl
untuk
unveiled
unwanted
up
update
upl
upload
upper
upright
ur
ura
urahou
urbanas
urbanizasaun
ure
uri
urjenti
url
urna
uro
uru
urubu
uruguai
us
usa
usage
usaid
usario
usariu
usbbl
usbeerbbl
usbsh
usbu
usd
usdrybbl
usdrygal
usdrypt
usdryqt
use
usecite
usecollapsibletextfields
used
useful
usename
useparams
user
usernames
users
userspace
uses
usescurrenttitle
usesymbol
usewikidata
usfloz
usgal
usgalatm
usgi
usi
using
usitakeno
usitako
usitasae
uskenning
uso
usoz
usozserve
uspk
uspt
usqt
ustria
ustring
usually
usub
usul
usulan
ut
uta
utable
utama
utc
ute
uterinu
utf
utilija
utiliza
utilizado
utilizador
utilizadores
utilizasaun
utilize
utopia
utrillas
utriusque
utu
utype
uun
uupdate
uya
uz
uza
uzadu
uzbek
uzbekistaun
uzu
uzua
v
va
vaca
vadiu
vaduz
vagamente
vah
vai
val
valadares
valarray
valderrobres
vale
valencia
valencian
valenciana
valensiana
valensianu
valente
valentino
valerror
valeta
valid
validate
validation
valinfo
valinfoi
vall
vallenato
valley
valo
valor
valore
valoriza
valstr
value
valuefunc
values
valuesarray
valuesarrayi
valuesarrayj
valuetofind
vamos
van
vantagem
vantajen
vanuatu
vao
vapour
var
variable
variables
variant
variants
variantsubtags
variantvariant
variasaun
variavel
variedade
various
varname
varso
vas
vaskaun
vaterland
vatikanu
vaz
vazu
ve
vei
vel
velilla
velocity
velosidade
vem
vemasi
vemasse
vencer
venda
vendor
veneranda
venezuela
venilale
ventura
ver
vera
veraun
verbal
verde
vereado
verginius
verifika
verifydates
vero
versa
versaun
versi
version
versions
verst
versu
versus
vertical
very
vessoru
vestir
veterans
veteranus
vez
vi
via
viajante
viajen
vibration
vic
vice
vicente
victor
victoria
victrix
vida
vidas
video
vie
viegas
vieira
viet
vietname
view
viewedithistorypurge
views
vigo
vii
viii
vijila
vikeke
viktoriakum
vila
vilajoioza
villa
village
villahermosa
villas
vilnius
vin
vincent
vinci
vinilale
vinte
viola
violasaun
viole
violencia
violensia
violentu
viqueque
viral
virgi
virgilio
virgin
viri
viroid
virtual
virtude
virus
viruses
visaun
vise
visible
visit
visita
visitantes
visitor
viss
vista
visual
vita
vital
vitima
vito
vitu
viu
viva
vizaun
vizigo
vizigodu
vizin
vizita
vizitante
vizitasaun
vizivel
vlaams
vls
vname
vo
vocabulary
voce
voice
voices
voivodia
vokal
vokalista
vol
volapu
volume
volunta
voluntario
von
vontade
voor
vor
vos
vota
votasaun
votu
votus
vous
voz
vr
vro
vroklave
vs
vulnerabilidade
vulneravel
vuota
vure
w
wa
wab
wabubu
wadi
wae
wagia
wahau
wahgi
wai
waibubu
wailaha
waima
waimaha
waimori
wain
wainhira
wainwright
waioli
wairoke
waitame
wak
wakefield
wakelocks
wakil
waktu
wal
wala
walapai
wales
wali
walk
wall
walla
wallis
walsh
walu
wam
wan
wanca
wancho
waniuma
want
wanted
wantname
wappen
war
wara
waray
warning
warnings
warungu
was
washington
wasp
wat
wataco
watch
water
watt
watubela
watucarbau
watulari
watut
wau
waves
way
wayback
wayne
wd
we
weapons
web
webarchive
webcitation
webcite
weblog
website
webzoom
week
weh
wehale
wei
weight
weir
welcome
well
welsh
welt
wemba
wen
wep
wer
were
west
western
westphalien
wh
what
whatsapp
when
where
whether
which
whichever
while
white
whitespace
who
whole
wholestr
wi
wichi
wide
widgets
widodo
width
wielkopolski
wifi
wik
wiki
wikibase
wikidata
wikilink
wikimedia
wikipe
wikipedia
wikis
wikitext
wilayah
wiley
wilhelm
will
william
win
window
windows
wir
wireless
with
without
withspace
wk
wma
wo
woi
wolof
wom
woman
women
won
woods
word
wordpress
words
work
workaround
workers
working
works
world
would
wp
wrap
wrapped
wrapper
wrappers
wrg
write
written
wu
wundt
www
wya
x
xa
xac
xal
xalo
xamadu
xanana
xar
xat
xave
xaver
xavier
xcl
xe
xefe
xefi
xeka
xeku
xero
xf
xfa
xh
xhi
xi
xiangxi
xiaomi
xico
xii
xikagu
xiku
xile
xilena
ximenes
xina
xine
xiv
xivert
xix
xlg
xlo
xls
xo
xofer
xoom
xua
xv
xvi
xviii
xwla
xx
xxx
y
ya
yabula
yahoo
yak
yaka
yakut
yala
yale
yali
yamphu
yan
yana
yanda
yang
yangum
yao
yar
yard
yards
yas
yau
yav
yavapai
yd
year
years
yei
yellow
yes
yesno
yet
yfactor
yfull
yi
yiddish
yil
yin
yintale
yipma
yir
yis
yitha
yj
ym
ymd
yo
yohan
yom
york
yorta
you
young
your
youth
youtube
yoy
yr
yrediv
yrefactor
yreround
yround
yu
yua
yucatec
yucateco
yudhoyono
yue
yuf
yug
yugur
yui
yukaghir
yule
yupik
yur
yuru
z
za
zacapa
zacarias
zacatepec
zai
zam
zambia
zande
zapotec
zaragoza
zay
zazaki
zbika
zbl
zboz
zday
ze
zealand
zeca
zela
zero
zeros
zh
zhi
zho
zhuang
zia
zika
ziku
zikus
zimba
zimbabwe
zimbardo
zimu
ziu
zj
zm
zmonth
zmu
znia
zo
zofu
zona
zone
zoologi
zoology
zoolojia
zoque
zquez
zte
zu
zuckerberg
zuckermann
zukerberg
zulo
zum
zumalai
zuni
zw
zwingli
złoty
{
|
}
~
¡
¢
£
§
©
ª
«
¬
®
°
±
²
²¹
³
³³
´
µ
¶
·
¹
º
»
¼
½
¿
×
ı
ło
ʻ
ʼ
ˈ
ː
̀
́
̂
̃
̄
̆
̇
̈
̉
̊
̌
̓
̔
̛
̣
̧
̨
̱
͡
α
λογος
μ
μο
ο
ς
χ
з
ا
بلادي
س
م
ٔ
۲
त
म
स
ि
ु
ृ
्
ວ
ສ
ັ
ິ
​
‎
‏
‐
‑
–
—
‘
’
“
”
„
‟
†
•
…
‪
′
⁄
⁶
€
™
⅔
→
↔
↷
−
≤
⊕
⋅
③
④
⑦
◆
☉
♄
♠
⺀
⺄
⺆
⺈
⺊
⺌
⺕
⺝
⺸
⺼
⿰
⿱
⿲
⿳
⿴
⿵
⿶
⿷
⿸
⿹
⿺
⿻
〢
く
と
も
ん
゙
ア
コ
シ
ニ
メ
ユ
ョ
ン
ー
㇁
㇂
㇄
㇇
㇈
㇉
㇓
㐁
㐄
㐅
㐌
㐫
㐬
㐭
㐮
㐱
㑒
㒵
㒸
㒼
㓁
㓞
㔾
㕛
㕣
㖾
㘝
㚅
㚇
㚔
㚘
㝉
㝡
㝴
㝵
㞋
㞢
㞷
㠩
㠭
㠯
㡀
㡭
㡿
㢲
㢴
㣇
㣺
㥯
㪅
㫄
㫐
㫒
㫺
㬅
㬎
㬥
㬰
㲋
㳄
㷠
㸒
㸚
㸦
㼌
㼲
㽞
㿟
䀠
䂞
䍃
䏍
䒑
䖍
䖒
䖝
䖵
䙴
䚻
䜌
䝿
䡛
䧹
䪞
一
丁
丂
七
丄
丅
丆
万
丈
三
上
下
丌
不
与
丏
丐
丑
专
且
丕
世
丘
丙
业
东
丞
丢
丣
两
严
並
丨
丩
个
丫
丬
中
丮
丰
丱
串
丵
丶
丷
丸
丹
为
主
丽
丿
乀
乂
乃
久
乆
乇
么
义
之
乌
乍
乎
乏
乐
乑
乔
乖
乗
乘
乙
乚
乛
乜
九
乞
也
习
乡
乳
乾
亀
亅
了
亇
予
争
事
二
亍
于
亏
亐
云
互
亓
五
井
亘
亚
亜
亞
亟
亠
亡
亢
交
亥
亦
产
亨
亩
享
京
亭
亮
亯
亰
亲
亳
亶
亷
人
亻
亼
亾
仁
今
介
仌
从
仐
仑
仒
仓
仕
他
付
仝
代
令
以
任
企
伊
伏
伐
休
会
伯
但
位
何
佘
余
作
佥
使
來
侈
侌
侖
侯
侵
便
保
俞
信
修
倉
倍
候
倠
備
僉
僕
儿
兀
允
兂
元
兄
充
兆
兇
先
光
兊
克
兌
免
兑
兒
兓
兔
党
兜
兟
入
全
兩
兪
八
公
六
兮
兰
共
关
兵
其
具
典
兹
兼
冀
冂
冃
冄
内
冈
冉
冊
冋
册
再
冎
冏
冐
冒
冓
冖
冗
冘
军
农
冝
冡
冥
冫
冬
冷
几
凡
凢
凵
凶
凷
凸
凹
出
函
凾
刀
刁
刂
刃
刄
刅
分
切
刍
刑
刕
刖
列
刘
则
初
別
利
别
到
制
刺
則
削
剌
前
剡
剽
劉
力
功
加
劦
助
劫
劳
劵
勃
勇
勉
勒
動
務
勞
勤
勹
勺
勻
勾
勿
匀
匂
包
匆
匈
匊
匋
匍
匕
化
北
匚
匝
匡
匪
匱
匸
匹
区
医
匽
匿
區
十
卂
千
卄
卅
卆
升
午
卉
半
卌
华
卑
卒
卓
单
卖
南
卜
卝
卞
占
卡
卢
卣
卤
卦
卩
卪
卬
卯
印
危
即
却
卵
卷
卸
卻
厂
厃
厄
历
厈
厉
厌
厓
厘
厚
原
厤
厥
厨
厭
厲
厶
厷
厸
去
厼
厽
叀
参
參
叅
又
叉
及
友
双
反
叐
发
叒
叔
叕
取
受
叚
叜
叟
口
古
句
另
叩
只
召
可
台
叱
史
右
叵
号
司
叹
吂
各
吅
合
吉
吊
吋
同
名
后
吏
向
吕
君
吝
吞
否
含
启
吳
吴
吹
吾
呂
呆
呈
告
员
呙
周
命
咅
和
咎
咠
咢
咨
咸
咼
哀
品
哉
員
哥
哲
唐
商
啇
問
啚
啬
啻
善
喜
喬
單
喿
嗇
噩
嚴
囊
囗
囘
囙
囚
四
回
囟
因
囧
囬
困
囱
囷
固
国
圂
圅
國
圍
圓
土
圡
圣
圥
在
圭
地
圶
圼
坐
坒
坚
坴
垂
垔
垚
埀
埋
埶
執
基
堂
堅
堆
堇
堯
塞
墨
壘
士
壬
壯
声
壳
壴
壹
壺
壽
夂
处
夅
夆
备
夊
夋
夌
复
夏
夒
夕
外
夗
夘
多
夜
夢
大
夨
天
太
夫
夬
夭
央
失
夲
头
夷
夸
夹
夻
夾
奂
奄
奇
奈
奉
奎
奏
奐
契
奓
奔
奚
奞
奠
奢
奥
奭
女
奴
奻
好
如
妄
妙
妟
妥
妻
妾
姑
委
姜
威
娄
婁
婴
嬰
嬴
子
孑
孔
孕
孖
字
存
孚
孛
孝
孟
季
孤
学
孫
孱
學
宀
宁
宂
它
宅
宇
守
安
宋
完
宏
宓
宗
官
定
宛
宜
宝
客
宣
室
宮
宰
害
家
容
宾
宿
寄
寅
密
富
寒
察
寧
審
寫
寬
寮
寸
对
寺
寻
寽
対
寿
封
尃
射
将
將
專
尉
尊
尋
尌
對
小
少
尒
尓
尔
尖
尗
尚
尞
尢
尣
尤
尧
尨
尭
就
尸
尹
尺
尻
尼
尽
尾
尿
局
居
屈
屋
屎
屏
屑
展
屖
屚
属
屠
屡
屬
屮
屯
屰
山
屵
屾
岁
岂
岑
岡
岩
岳
岸
峯
島
崇
崑
崔
崖
崙
崩
嵬
嶲
巂
巛
川
州
巟
巠
巢
巤
工
左
巧
巨
巩
巫
差
己
已
巳
巴
巷
巸
巽
巾
巿
帀
市
布
希
帚
帛
帝
带
師
席
帶
常
干
平
年
幵
并
幷
幸
幺
幻
幼
幽
幾
广
広
庄
床
底
店
庚
府
度
庫
庭
庶
康
庸
廉
廌
廛
廣
廩
廴
延
廷
建
廾
廿
开
弁
弃
弄
弇
弋
式
弓
弔
引
弗
弘
弜
弟
弥
弦
弱
張
強
强
彊
彌
彎
彐
彑
当
彔
录
彖
彗
彡
形
彥
彦
彧
彭
彳
役
彼
往
待
律
徒
得
徙
從
復
微
徵
心
忄
必
忌
忍
志
忝
忠
忩
快
念
忽
忿
思
怠
急
怱
恆
恒
恩
恭
息
悉
患
悤
悲
悶
惠
惡
惢
愁
愈
意
愛
感
慈
慧
慮
憂
憲
應
戀
戈
戉
戊
戋
戌
戍
戎
成
我
戒
戔
或
戚
戠
戢
截
戲
戶
户
戹
戼
戾
房
所
扁
扇
手
扌
才
打
托
执
承
折
拉
拜
拿
掌
推
提
摩
支
攴
攵
收
攸
改
放
政
敄
敏
敕
敖
敗
敝
敞
敢
散
敦
敫
敬
数
敷
數
斂
文
斉
斊
斗
斤
斥
斩
斬
断
斯
新
方
於
施
斿
旁
旋
族
无
旡
既
旣
日
旦
旧
旨
早
旬
旱
旲
时
旾
昆
昇
昌
昍
明
昏
易
昔
昗
昜
星
春
昬
是
昱
昴
昷
時
晃
晋
晏
普
景
晶
智
暑
暴
曇
曩
曰
曲
曳
更
曷
書
曹
曼
曾
替
最
朁
會
月
有
朋
服
朔
朕
朗
望
朝
木
朩
未
末
本
札
朮
术
朱
朵
朶
朿
杀
杏
杜
束
条
来
東
杲
杳
松
析
林
枚
果
枝
枲
枼
某
柔
查
柬
柰
柴
栗
桀
桑
桼
梁
條
梟
梨
棘
棠
棥
森
楚
業
楽
榮
樂
樊
欠
次
欣
欮
欲
欶
欽
款
歆
歇
歛
止
正
此
步
武
歨
歪
歮
歯
歰
歲
歴
歷
歸
歹
歺
死
殳
段
殷
殸
殹
殺
殻
殿
毋
毌
母
每
毒
比
毕
毚
毛
毳
氏
氐
民
气
氣
水
氵
氶
氷
永
氺
氾
求
汝
汞
江
沃
沓
沙
沝
泉
法
波
泣
泥
泰
洛
洪
活
派
流
浦
浪
浮
淡
淮
清
渚
渠
湯
滿
漸
火
灬
灭
灰
灵
灷
炅
炎
炏
炗
炙
炭
為
烈
烏
烝
焉
無
焦
焱
然
煞
熊
熏
燕
營
燮
爪
爫
爭
爯
爰
爱
爲
爵
父
爻
爽
爾
爿
片
牙
牚
牛
牜
牟
牢
牧
牪
牽
犀
犬
犭
犮
狂
狄
狊
独
狺
猋
猒
猪
献
獻
玄
率
玉
王
玟
玨
珎
班
琴
瑟
瑩
瓜
瓦
甘
甚
生
産
用
甫
甬
田
由
甲
申
电
甶
男
甸
甹
画
甾
畀
界
畏
畐
留
畜
畟
畢
畧
畨
番
畫
異
畱
當
畺
畾
疊
疋
疌
疑
疒
疾
癶
癸
癹
登
發
白
百
皀
皃
的
皆
皇
皋
皐
皕
皮
皷
皿
盃
盆
盇
盈
益
盍
盎
监
盒
盖
盛
盡
監
盤
盧
目
直
相
盾
省
眇
眉
看
眔
眞
真
眷
眼
眾
着
睘
睪
睿
瞏
瞢
瞿
矍
矛
矞
矢
矣
知
矦
短
石
破
碎
磊
磨
示
礻
礼
祟
票
祭
禀
禁
禸
禹
禺
离
禽
禾
禿
秀
秃
秉
秋
科
秝
秦
移
稟
穀
穌
穴
究
穹
空
穿
突
窄
窒
立
竒
竜
竝
竟
章
童
竹
笑
笠
筆
等
答
箕
算
箴
節
篤
篭
米
粉
粛
粟
粤
粦
粲
糞
糸
糹
系
約
紅
納
素
索
紫
累
細
絜
絫
絲
維
綿
縣
繇
纍
纟
红
缶
网
罒
罔
罕
罗
罙
罡
罢
罪
署
罷
羅
羊
羌
羍
美
羔
羕
羗
羞
羡
羣
群
義
羲
羸
羽
翁
翏
習
翕
翟
翠
翼
老
耂
考
者
耆
而
耎
耑
耒
耳
耴
耶
耷
聂
聊
聖
聚
聶
聿
肀
肃
肅
肉
肖
肙
肥
肩
肯
育
肴
胃
背
胡
胥
能
脊
脩
膚
臣
臤
臧
自
臬
臭
臯
臱
至
致
臺
臼
臽
臾
臿
舀
舂
舄
與
興
舉
舌
舍
舛
舜
舞
舟
般
艮
良
色
艸
艹
艾
芒
芔
芬
芮
花
芳
芺
芻
苔
苗
苟
若
苦
英
茶
茸
荅
草
荒
荣
荼
莆
莧
莫
莽
菆
菊
菐
華
萬
落
葉
著
葛
董
葵
蒙
蒦
蒼
蓋
蓬
蓺
蔑
蔡
蕉
蕭
薄
薛
薦
薰
藍
藏
藥
蘭
虍
虎
虐
虒
虔
處
虖
虗
虘
虚
虛
虜
虞
虫
虽
蚤
蚩
蜀
蜜
蟲
蠡
血
行
衍
衛
衣
衤
表
衮
衰
袁
袞
褭
褱
襄
襾
西
覀
要
覃
見
規
覓
覧
親
覽
见
角
解
言
訁
訇
計
詹
誩
諸
讠
谷
豆
豈
豊
豐
豕
豖
豙
象
豦
豩
豪
豸
貇
貝
貞
貟
負
貢
貧
貪
貫
責
貳
貴
買
費
賁
資
賈
賏
賓
賔
賛
賞
賢
賣
質
賴
贊
贝
贡
责
贯
贲
贵
赖
赞
赤
赦
走
越
足
路
蹇
身
躬
車
軍
軎
軟
輦
车
辛
辜
辟
辥
辰
辱
農
辵
辶
边
达
过
近
连
迷
追
退
送
逆
逐
通
速
造
逢
連
逮
進
遀
遂
過
道
達
遣
適
遷
遺
邊
邑
邕
那
邦
邪
郎
部
郭
都
鄉
酉
酋
配
酓
釆
采
里
重
野
量
金
釒
錢
钅
長
镸
长
門
閃
閉
開
閏
閑
閒
間
閔
閵
閻
闌
门
间
闷
阑
阜
阝
阿
降
陳
隆
隊
隋
隡
隨
隱
隶
隹
隺
隻
隼
隽
难
雀
雁
集
雈
雋
雍
雐
雔
雙
雚
雜
雝
離
難
雨
雩
雪
雲
零
雷
需
霍
霜
霝
霞
霸
靈
靑
青
非
靡
面
靣
革
韋
韦
韭
韯
韱
音
頁
頃
項
須
頗
頡
頻
顛
页
風
风
飛
飞
食
飠
養
饣
首
香
馬
馮
駦
马
骨
高
髟
鬥
鬯
鬲
鬼
魚
魯
鮮
鱼
鲁
鳥
鳳
鸟
鹵
鹿
麃
麗
麥
麦
麻
黃
黄
黍
黎
黑
黒
黨
黹
黽
黾
鼎
鼓
鼠
鼻
齊
齋
齐
齒
齿
龍
龙
龜
龟
龠
龰
龱
龴
龵
龶
龷
龸
龹

者
艹
？
🜨
𠀁
𠀃
𠀆
𠀉
𠀎
𠀐
𠁁
𠁣
𠂆
𠂇
𠂈
𠂉
𠂊
𠂋
𠂎
𠂒
𠂔
𠂛
𠂡
𠂢
𠂤
𠂬
𠂭
𠂹
𠃊
𠃋
𠃌
𠃍
𠃎
𠃑
𠃓
𠃔
𠃜
𠄌
𠄎
𠄠
𠄢
𠆢
𠆥
𠇍
𠈌
𠌵
𠓜
𠔉
𠔥
𠔼
𠔽
𠔿
𠕀
𠕁
𠕋
𠘧
𠘨
𠙻
𠙼
𠚏
𠚒
𠚤
𠚪
𠣏
𠤎
𠤕
𠥓
𠦄
𠦑
𠦝
𠧒
𠧗
𠧪
𠩺
𠪚
𠫓
𠫔
𠫤
𠬛
𠬝
𠬞
𠬢
𠬤
𠬶
𠮛
𠮦
𠮷
𠯑
𠱠
𠳮
𠷎
𡈼
𡉀
𡉵
𡌥
𡍮
𡏳
𡕒
𡕩
𡕰
𡖅
𡗗
𡗜
𡘆
𡘤
𡧱
𡨄
𡩧
𡬠
𡭽
𡰣
𡰥
𡰪
𡰯
𡰱
𡷈
𡸁
𡿨
𡿩
𡿪
𡿺
𢀖
𢀛
𢀩
𢁙
𢆉
𢆰
𢆶
𢇁
𢇇
𢉖
𢌬
𢌿
𢏚
𢑑
𢑚
𢖻
𢙣
𢛳
𢦏
𢦒
𢧵
𢼄
𢾕
𣁋
𣄼
𣅀
𣅽
𣍘
𣎳
𣎵
𣏋
𣏼
𣗥
𣥂
𣥖
𣦵
𣦼
𣧄
𣪊
𣪠
𣬉
𣳾
𣶒
𤇾
𤊽
𤐫
𤓰
𤔔
𤕨
𤣩
𤰇
𤰔
𤰞
𤴓
𤴔
𤽄
𥁑
𥁕
𥃦
𥃩
𥃭
𥇡
𥑟
𥘅
𥘈
𥝢
𥫗
𥱡
𦈢
𦉪
𦉬
𦉼
𦍌
𦍒
𦎧
𦐇
𦓔
𦔮
𦘒
𦙃
𦚏
𦣝
𦣞
𦣻
𦥑
𦥔
𦥯
𦨉
𦭝
𦰩
𧆞
𧈧
𧘇
𧰨
𧴪
𧴮
𧵩
𧾷
𨸏
𨾴
𩙿
𩠐
𩫏
𩵋
𪉷
𪜀
𪟽
𪠲
𪩲
𫇦
𫔭
𫜸
𫝀
𫠣
𫠩
𫢉
𫥞
𫩏
𫩠
𫪡
𫲽
𫶧
𬀷
𬐘
𬗌
𬙙
𬛸
𬜯
𬟩
𬯁
𬴘
𬺻
𬼉
𬼖
𭀰
𭁈
𭁨
𭅰
𭑈
𭕄
𭗼
𭤨
𭥫
𭻾
𮅕
𮊿
𮍌
𮍏
𮓗
𮥼
𮧮
廾
𰀁
𰀄
𰀈
𰀉
𰀕
𰀠
𰀡
𰀢
𰀪
𰁜
𰃮
𰆊
𰆘
𰋙
𰕎
𰢴
𰧭
𰯲
00--
000--
000000--
01--
02--
04--
09--
10--
11--
13--
14--
15--
16--
17--
18--
19--
20--
21--
22--
23--
25--
26--
27--
28--
29--
31557--
32--
33--
34--
35--
350--
36--
38--
39--
40--
41--
42--
44--
46--
48--
49--
50--
51--
52--
53--
57--
59--
60--
63--
64--
65--
67--
68--
69--
71--
72--
85--
86--
88--
97--
978--
97802--
9788576--
98--
99--
a--
aa--
ab--
aba--
abe--
abi--
above--
abs--
ac--
aca--
ace--
ach--
aco--
acompa--
ad--
ada--
add--
ade--
adi--
adm--
admini--
adol--
advo--
ae--
aer--
af--
afa--
ag--
agra--
agre--
agri--
agro--
agu--
agua--
ah--
ahi--
ahua--
ai--
ain--
aj--
ak--
aka--
ako--
aku--
al--
ala--
alco--
ale--
alei--
ali--
all--
alt--
alterna--
am--
ama--
amp--
amu--
an--
ana--
and--
anfit--
ang--
ani--
ann--
ano--
ante--
anti--
ao--
ap--
apa--
ape--
api--
apo--
app--
apr--
ar--
ara--
arach--
are--
arg--
argen--
args--
argsarg--
ari--
arp--
arr--
arrep--
as--
ase--
asi--
asp--
ass--
ast--
asu--
at--
ata--
ati--
ato--
atra--
atu--
au--
auto--
av--
ava--
aw--
awa--
awe--
ay--
az--
b--
ba--
bab--
bad--
bah--
baha--
bai--
bal--
ban--
bapt--
bar--
bara--
bas--
base--
bass--
bat--
batu--
bau--
bay--
be--
bea--
bec--
bei--
bel--
bem--
ben--
beng--
ber--
bere--
berke--
bet--
betul--
bh--
bi--
bia--
bib--
bid--
bil--
bila--
bin--
bina--
bio--
bir--
bis--
bit--
blue--
bo--
boa--
body--
bom--
bon--
bor--
bos--
bot--
bou--
br--
bra--
bri--
bro--
brok--
brom--
bru--
btu--
bu--
bubus--
bug--
bui--
bum--
bun--
bur--
burd--
burm--
bus--
but--
bwa--
bwi--
by--
c--
ca--
cac--
caen--
cai--
caime--
cal--
can--
capt--
car--
cara--
cast--
cat--
cau--
cc--
ce--
cel--
cfg--
cha--
che--
chhu--
chi--
cho--
chu--
ci--
circ--
cl--
cla--
claim--
cle--
clus--
co--
coa--
coc--
col--
com--
compa--
con--
condi--
conf--
const--
cop--
coqui--
cor--
corne--
cota--
cour--
cr--
cre--
cri--
crist--
cs--
cu--
cui--
cur--
cy--
d--
da--
dada--
dai--
dak--
dam--
dan--
dar--
darkslate--
darul--
das--
datetimesuffixes--
dau--
daw--
day--
dd--
de--
deci--
def--
deg--
dek--
del--
demo--
den--
dep--
depor--
depos--
der--
des--
desem--
dev--
dez--
dezem--
dha--
dho--
dhu--
di--
dia--
didi--
dif--
dik--
dina--
dio--
dir--
dis--
disco--
diu--
div--
diz--
dj--
dji--
do--
doc--
dokumen--
dom--
dr--
du--
dun--
dupl--
dw--
dyn--
dz--
dza--
e--
eb--
ec--
econo--
ed--
edi--
edit--
edu--
ee--
eex--
efe--
efisie--
eg--
eh--
ei--
ej--
ek--
eksp--
el--
ele--
elect--
eli--
em--
emi--
en--
ena--
eng--
enri--
entom--
ep--
epi--
equi--
er--
era--
erit--
err--
error--
es--
esc--
ese--
espe--
espi--
est--
esta--
et--
eteo--
eti--
eu--
euro--
ev--
evalu--
evan--
every--
evolu--
ex--
exe--
exp--
ext--
ez--
eza--
f--
fa--
fada--
fal--
fan--
far--
fas--
fat--
fatu--
fau--
fe--
fer--
fet--
ff--
fi--
fiche--
fili--
filo--
fin--
fiz--
fl--
fla--
fo--
fon--
for--
format--
fr--
fra--
fre--
frustra--
ft--
fu--
fy--
g--
ga--
gal--
gan--
gap--
gar--
gari--
gb--
ge--
gen--
geo--
ger--
get--
gha--
gho--
gi--
giga--
gil--
gio--
glo--
gm--
go--
gol--
gon--
gor--
gow--
gr--
gra--
gre--
grena--
gt--
gu--
gua--
guaya--
guerr--
gui--
gun--
gw--
gwa--
gy--
h--
ha--
hab--
had--
hai--
haj--
hak--
hal--
hand--
har--
hard--
has--
hat--
hatu--
hau--
he--
hei--
hel--
hemisphere--
hi--
hig--
him--
hl--
hm--
ho--
hol--
hooknames--
hor--
hot--
hr--
html--
hu--
hua--
hui--
hun--
hus--
hut--
hy--
hə--
i--
ia--
iba--
ic--
id--
ide--
identi--
ie--
igua--
iha--
ii--
ik--
ika--
il--
ili--
ilo--
ilum--
im--
image--
imi--
imp--
in--
inc--
infra--
inkl--
ino--
inspi--
inst--
institu--
insur--
int--
inter--
inu--
inve--
invest--
invo--
io--
ip--
ir--
ira--
iri--
is--
isi--
it--
itu--
iu--
iv--
ix--
iz--
j--
ja--
jac--
jam--
jar--
je--
jeo--
ji--
jin--
jo--
joa--
jord--
ju--
jur--
k--
ka--
kai--
kal--
kala--
kam--
kan--
kana--
kap--
kar--
kare--
kat--
kata--
kay--
ke--
kea--
ken--
ker--
ket--
key--
kg--
kha--
khi--
kho--
khu--
ki--
kil--
kilo--
kim--
kir--
kirgizis--
kis--
kit--
kl--
kla--
km--
kn--
kna--
ko--
koe--
koi--
kol--
kolo--
kom--
komi--
kompo--
kon--
konhe--
koor--
koper--
kor--
korden--
kos--
kpa--
kpe--
kr--
kre--
kri--
kro--
ks--
kt--
ku--
kua--
kuk--
kun--
kur--
kus--
kw--
kwa--
kwe--
ky--
l--
la--
lab--
lacu--
lag--
lai--
lak--
lam--
lama--
lan--
lang--
lar--
las--
lat--
lau--
lavr--
lay--
lc--
le--
lead--
leb--
lebu--
led--
legis--
lei--
lemo--
len--
leo--
lequi--
leu--
lez--
lho--
li--
lia--
liber--
life--
lim--
lin--
lis--
lisen--
list--
lit--
liu--
liv--
ll--
lle--
lli--
lo--
loc--
location--
logo--
loho--
loi--
loke--
lon--
lor--
lot--
lou--
lu--
lua--
lun--
ly--
m--
ma--
maa--
mac--
maca--
mach--
mae--
mag--
mah--
main--
mak--
make--
makro--
mal--
mam--
man--
mana--
mane--
manu--
map--
mar--
mark--
mas--
mass--
mat--
matt--
mau--
max--
maz--
mb--
mba--
mbo--
mc--
me--
mega--
mei--
mel--
membe--
men--
meng--
mening--
meny--
mer--
mera--
mes--
met--
meta--
mexi--
mi--
michi--
micro--
mid--
mil--
milli--
min--
mini--
mir--
mirror--
mis--
mit--
mm--
mo--
mobil--
mok--
mom--
mon--
mono--
monte--
mor--
mos--
mov--
mozambi--
mp--
mt--
mu--
mud--
multi--
mum--
mun--
mung--
muni--
mur--
mus--
mw--
my--
mə--
n--
na--
nac--
nae--
nai--
nak--
nam--
nan--
nar--
narra--
nas--
nau--
nav--
naz--
nb--
nd--
nda--
nde--
ndo--
ndu--
ne--
nea--
net--
neuro--
new--
ng--
nga--
nge--
ngo--
ni--
nia--
nik--
nil--
niu--
nn--
no--
noc--
non--
nor--
nos--
ns--
nt--
nu--
nuk--
num--
nun--
nuu--
ny--
nya--
nyan--
nye--
nyi--
nz--
o--
obs--
obu--
oc--
occup--
oci--
oe--
of--
ofi--
ogb--
oj--
ok--
ol--
ola--
oli--
olu--
om--
oma--
omo--
on--
ono--
op--
open--
opt--
or--
ora--
oro--
os--
ost--
ot--
oto--
ou--
out--
over--
oz--
p--
pa--
pac--
padroniz--
pah--
pai--
pal--
paleo--
pam--
pan--
pang--
papa--
para--
parle--
parse--
patr--
pau--
pe--
pedr--
pejora--
pel--
pemro--
pen--
per--
pereg--
petisio--
ph--
pha--
philo--
phu--
pi--
pia--
pic--
pico--
pictures--
pie--
pin--
pl--
pla--
ple--
po--
poe--
pol--
poly--
pon--
pop--
por--
pos--
pow--
pr--
pra--
pre--
prefet--
pri--
pro--
proce--
pru--
psi--
psycho--
pt--
pu--
pue--
pun--
pur--
py--
q--
qu--
que--
qui--
r--
ra--
rae--
rai--
rajast--
ram--
ran--
random--
rank--
rap--
raza--
rd--
re--
rea--
rece--
reco--
recre--
recup--
red--
ref--
rega--
regis--
rei--
rej--
reli--
rem--
remo--
ren--
render--
rep--
res--
respi--
rest--
rez--
ri--
ria--
riba--
rin--
ris--
rm--
ro--
rod--
rout--
row--
rti--
ru--
rua--
rus--
s--
sa--
saa--
sab--
sah--
sal--
sam--
sama--
san--
sandbox--
sar--
sara--
sau--
sc--
scale--
sch--
sco--
se--
sea--
sec--
sei--
sel--
selebr--
sem--
sen--
ser--
ses--
set--
sh--
sha--
she--
shu--
si--
sia--
sie--
sik--
sikni--
sil--
sim--
simu--
sin--
sir--
sirkun--
site--
sk--
sl--
sla--
slove--
sm--
small--
smart--
so--
sob--
sochi--
sol--
som--
sos--
sow--
sp--
spe--
spesi--
sq--
ss--
st--
sta--
stati--
ste--
stile--
sto--
str--
su--
sub--
sul--
sun--
sup--
super--
suple--
sur--
sus--
sv--
sw--
sy--
syn--
sə--
t--
ta--
tab--
tabul--
tac--
tag--
tai--
taj--
tajikis--
tak--
tal--
tan--
tang--
tar--
tas--
tasi--
tat--
tata--
tau--
tay--
tcha--
te--
tel--
tem--
tempe--
ten--
teng--
tepe--
ter--
tera--
tertu--
tes--
tex--
th--
tha--
thu--
ti--
tia--
tic--
tidyval--
tie--
til--
tim--
timor--
tin--
tip--
tl--
tlaco--
tm--
to--
tol--
tom--
ton--
top--
tos--
tot--
tr--
tra--
tran--
trans--
tre--
tri--
tro--
trop--
tru--
ts--
tsim--
tso--
tsu--
tt--
tu--
tum--
tun--
tur--
turn--
tutu--
tw--
ty--
type--
u--
ua--
uai--
uatu--
ug--
uha--
uk--
ul--
ultra--
ulu--
um--
uma--
un--
una--
under--
une--
unit--
up--
ur--
uru--
us--
use--
ut--
uya--
uz--
v--
va--
vag--
vai--
val--
van--
var--
varia--
vas--
ve--
ven--
venc--
ver--
vi--
via--
vic--
view--
vir--
vo--
vol--
w--
wa--
wai--
wak--
wal--
wam--
wan--
wang--
war--
wat--
way--
we--
web--
weih--
wer--
wi--
wiki--
wil--
win--
wir--
wo--
wu--
x--
xa--
xe--
xh--
xi--
xo--
y--
ya--
yak--
yan--
yar--
yatz--
yd--
ye--
yel--
yem--
yer--
yes--
yi--
yin--
yindj--
yo--
yong--
yu--
z--
za--
zam--
zang--
ze--
zh--
zi--
zie--
zim--
zo--
zu--
zw--
zy--
ı--
ǀ--
ǁ--
ǂ--
ǃ--
--0
--00
--000
--000000
--01
--0254
--1
--139
--16
--18
--19
--2
--25
--28
--29
--3
--304
--36
--4
--44
--46
--5
--6
--68
--7
--71
--8
--9
--a
--aa
--aba
--abe
--ability
--able
--ac
--acio
--ad
--ada
--ade
--adi
--ado
--ador
--ados
--adu
--ae
--ag
--aga
--ah
--ahua
--ai
--ain
--ak
--aki
--al
--ala
--ale
--ali
--alo
--als
--am
--ama
--amento
--amentu
--ami
--an
--ana
--ang
--anha
--ano
--anon
--ans
--ant
--ante
--anu
--ao
--ap
--apu
--aq
--ar
--are
--arg
--argname
--args
--ari
--aria
--ary
--as
--asaun
--asi
--at
--ata
--ate
--atic
--ation
--atm
--au
--aun
--avel
--avia
--awa
--ay
--aya
--b
--ba
--bagi
--bak
--bal
--bata
--bato
--be
--ben
--bes
--bi
--bia
--bility
--biliza
--bl
--ble
--blue
--blurb
--bo
--bon
--book
--box
--bra
--bre
--bri
--bt
--bu
--bul
--burgu
--bya
--c
--ca
--cal
--cas
--case
--ce
--ced
--cer
--ces
--cfg
--ch
--cha
--chi
--ci
--cia
--cing
--cio
--ck
--co
--cos
--cou
--createurl
--cs
--ct
--ction
--cy
--d
--da
--dade
--dae
--dan
--das
--data
--de
--ded
--den
--dhi
--di
--dian
--dic
--dino
--display
--dit
--dja
--dji
--do
--dor
--dora
--dores
--dos
--dow
--ds
--du
--dus
--dy
--e
--ea
--ean
--ear
--ec
--econd
--ect
--ection
--ed
--editurl
--ee
--eer
--ef
--eh
--ei
--ein
--eira
--eiro
--eitu
--ejo
--ek
--eka
--el
--ela
--elt
--ely
--em
--ema
--embo
--en
--enc
--ence
--ene
--ened
--eng
--eni
--enik
--ens
--ensa
--ense
--ensive
--ent
--ente
--enti
--ents
--entu
--eo
--ep
--epec
--er
--era
--ere
--ered
--erg
--eri
--eria
--erio
--erlabel
--erna
--ers
--erus
--es
--esa
--esan
--ese
--et
--eta
--etan
--ete
--eto
--eus
--ey
--ez
--eza
--f
--fa
--fada
--fd
--fe
--fi
--fia
--fn
--fo
--fra
--ft
--fu
--funcs
--g
--ga
--gado
--gaka
--gal
--gam
--gami
--gan
--gang
--gar
--gari
--gas
--ge
--ged
--geo
--ger
--ges
--gga
--ggi
--ggu
--gh
--gham
--ght
--gi
--gia
--gir
--gis
--git
--gk
--gka
--gle
--gna
--go
--gora
--gou
--gs
--gsa
--gu
--gua
--gue
--gus
--gy
--h
--ha
--ham
--he
--heet
--hei
--hen
--her
--hg
--hi
--his
--hkan
--ho
--hs
--ht
--hti
--hu
--hua
--hun
--hur
--hy
--i
--ia
--ial
--ian
--iar
--ias
--ibi
--ibo
--ic
--ica
--ice
--ick
--ics
--id
--ida
--idade
--idu
--ie
--ies
--ified
--ify
--ig
--iga
--ige
--ii
--ija
--ik
--ika
--iki
--iku
--il
--ile
--ille
--im
--ima
--image
--imentu
--imo
--imu
--in
--ina
--ine
--ing
--inian
--ino
--ins
--io
--ion
--iona
--ional
--ions
--ior
--iozu
--ip
--ipa
--ir
--ira
--iri
--iro
--iru
--is
--isa
--isasaun
--isasi
--isation
--isaun
--ise
--ised
--ish
--isi
--ism
--ismo
--ismu
--isplay
--ist
--ista
--it
--ita
--itas
--ite
--ith
--ities
--ito
--itu
--ity
--iu
--ium
--ius
--iva
--ive
--ived
--ivel
--ivism
--ivu
--iwa
--iya
--iza
--izac
--izadas
--izadu
--izasaun
--ization
--ize
--ized
--izmu
--j
--ja
--jaga
--jala
--jaq
--jar
--jara
--je
--jem
--jen
--ji
--jia
--jin
--jo
--ju
--k
--ka
--kah
--kan
--kar
--kas
--kat
--kawa
--ke
--ked
--kel
--kem
--ker
--key
--kh
--ki
--kin
--ko
--kot
--ks
--ksaun
--ktu
--ku
--kum
--l
--la
--lah
--lai
--lak
--lap
--lapa
--las
--lasaun
--lau
--lbbl
--ld
--ldade
--le
--ler
--lera
--let
--lete
--lf
--lho
--li
--lia
--lib
--lic
--lidade
--lie
--lik
--line
--link
--lis
--list
--lit
--lita
--liu
--liza
--lizadu
--lizmu
--lk
--ll
--lla
--llas
--llo
--llu
--lluk
--lly
--lma
--lmente
--lo
--logi
--lojia
--los
--ls
--lt
--lta
--lte
--lteco
--ltepec
--lu
--luk
--lum
--lura
--ly
--lying
--m
--ma
--mai
--man
--mat
--match
--mau
--mbi
--mbo
--mbu
--me
--mea
--men
--ment
--mente
--mento
--mentu
--mi
--mia
--mic
--ming
--mo
--module
--mos
--mou
--mp
--mrin
--ms
--mt
--mu
--my
--məyə
--n
--na
--nado
--nador
--nal
--name
--nan
--nas
--natu
--nau
--nc
--nce
--ncia
--nco
--ncy
--nd
--nda
--nde
--ndi
--ndji
--ndo
--ne
--nense
--nes
--nese
--nesia
--nesidu
--ness
--net
--ng
--nga
--ngan
--nge
--ngga
--ngi
--ngo
--ngs
--ngun
--ni
--nia
--nian
--nic
--nik
--niku
--nji
--nk
--nka
--nken
--nn
--no
--non
--nos
--ns
--nsa
--nse
--nsi
--nsia
--nsu
--nt
--nta
--nte
--ntes
--ntic
--ntla
--nto
--ntor
--ntos
--ntu
--nu
--nun
--nus
--nwa
--ny
--nya
--nza
--nze
--o
--oa
--ob
--oba
--od
--oe
--oens
--of
--oge
--ogi
--oh
--oi
--ojia
--ok
--ol
--ole
--oli
--ologi
--olojia
--om
--oma
--on
--ona
--onal
--ond
--ondo
--ongo
--oni
--onia
--onik
--only
--ons
--onta
--oo
--oon
--op
--opi
--or
--ora
--ornu
--orsu
--ort
--os
--ose
--ot
--ou
--ous
--out
--ova
--ow
--owa
--oyo
--ozu
--p
--pa
--page
--pan
--pang
--pat
--pe
--pec
--pense
--pi
--pik
--ple
--po
--pon
--pp
--pt
--pted
--ption
--pu
--q
--que
--qui
--r
--ra
--radu
--rafa
--rai
--rak
--raka
--ramentu
--ran
--ras
--raun
--rd
--rda
--rdi
--rdia
--rdo
--rds
--re
--reca
--red
--rek
--rem
--res
--rg
--ri
--ria
--riamente
--rian
--rianu
--ric
--ridade
--rime
--rin
--ring
--rio
--riri
--rista
--riu
--riya
--rji
--rk
--rmos
--rna
--rne
--ro
--ron
--rons
--ros
--rra
--rre
--rri
--rs
--rt
--rta
--rte
--rti
--rto
--ru
--rum
--ry
--s
--sa
--sac
--san
--sas
--sau
--saun
--sca
--se
--self
--sh
--shi
--si
--sia
--sian
--sianu
--sio
--siona
--sis
--sista
--siu
--sive
--sk
--smo
--so
--soens
--son
--sp
--ss
--ssa
--sse
--ssi
--st
--sta
--stan
--ste
--stia
--stic
--str
--stu
--su
--suan
--sun
--t
--ta
--tai
--tal
--tamente
--tan
--tana
--tani
--tanian
--tano
--tao
--tas
--tasaun
--tch
--te
--tec
--ted
--tei
--tek
--tepec
--ter
--text
--th
--ti
--tia
--tian
--tic
--tics
--tif
--tik
--tika
--tim
--ting
--tion
--tional
--tions
--tis
--title
--tiva
--tive
--tivu
--tl
--tla
--tle
--tly
--tm
--tmentu
--to
--ton
--tor
--tors
--tos
--tra
--tre
--tro
--tronvolt
--ts
--tsa
--tsch
--tt
--tta
--tti
--tu
--tuka
--tura
--tus
--tuto
--tutu
--ty
--tz
--u
--ua
--uai
--uam
--uan
--uar
--uas
--uc
--uca
--uce
--uck
--uction
--ud
--ude
--ue
--uena
--uh
--ui
--uju
--uk
--uka
--uki
--uku
--ul
--ula
--ulau
--uli
--ullo
--ulo
--ulu
--um
--un
--unga
--unit
--untu
--uo
--uous
--up
--upi
--ur
--ure
--uri
--url
--us
--ut
--uti
--utla
--uto
--uu
--ux
--uye
--v
--va
--ve
--vel
--vella
--ves
--vi
--vimento
--vive
--vo
--vou
--vu
--w
--wa
--wai
--wan
--we
--wel
--wi
--wie
--wo
--ws
--wum
--x
--xa
--xas
--xi
--xing
--xo
--xu
--y
--ya
--yalco
--yam
--yan
--ye
--yen
--yev
--yi
--yip
--yn
--yo
--yol
--ys
--yu
--yun
--z
--za
--zar
--zation
--zaun
--ze
--zi
--zmu
--zo
--zu
--zy
--ß
--ə
--ən
--دي
