!
"
#
##0
##1
##10
##11
##12
##13
##14
##15
##16
##17
##18
##19
##2
##20
##21
##22
##23
##24
##25
##26
##27
##28
##29
##3
##30
##31
##32
##33
##34
##35
##36
##37
##38
##39
##4
##40
##41
##42
##43
##44
##45
##46
##47
##48
##49
##5
##50
##51
##52
##53
##54
##55
##56
##57
##58
##59
##6
##60
##61
##62
##63
##64
##65
##66
##67
##68
##69
##7
##70
##71
##72
##73
##74
##75
##76
##77
##78
##79
##8
##80
##81
##82
##83
##84
##85
##86
##87
##88
##89
##9
##90
##91
##92
##93
##94
##95
##96
##97
##98
##99
$
%
&
'
(
)
*
+
,
-
.
/
0
00
000
001
002
003
004
005
006
007
008
009
01
010
011
012
013
014
015
016
017
018
019
02
020
021
022
023
024
025
026
027
028
029
03
030
031
032
033
034
035
036
037
038
039
04
040
041
042
043
044
045
046
047
048
049
05
050
051
052
053
054
055
056
057
058
059
06
060
061
062
063
064
065
066
067
068
069
07
070
071
072
073
074
075
076
077
078
079
08
080
081
082
083
084
085
086
087
088
089
09
090
091
092
093
094
095
096
097
098
099
1
10
100
1000
101
1010
1012
1015
102
1020
103
1030
1031
1035
104
1040
1046
1048
105
1050
1054
106
1060
1066
107
1070
1073
108
1080
1085
109
1090
1099
11
110
1100
1108
111
1110
112
1120
113
1130
1137
114
1140
1143
1147
115
1150
1153
1154
1155
116
1160
117
1170
118
1180
1185
1187
1189
119
1190
1191
12
120
1200
1202
1204
1207
121
1210
1213
1214
1215
1216
1217
122
1220
1227
123
1230
1239
124
1240
1241
1249
125
1250
1254
1259
126
1260
1261
1265
1268
127
1270
1276
1279
128
1280
1284
1285
129
1290
1291
1292
1294
1296
13
130
1300
1304
131
1310
1314
1316
1319
132
1320
1325
1327
1328
133
1330
1332
1336
134
1340
1346
1348
135
1350
1352
1356
136
1360
1364
1367
1368
137
1370
1377
1378
138
1380
1382
1383
1385
1389
139
1390
1392
1397
1399
14
140
1400
1404
1405
1406
141
1410
1415
1417
142
1420
1422
1429
143
1430
1431
1432
1433
1434
1436
1438
1439
144
1440
145
1450
1451
1452
1453
1454
1455
1456
1458
1459
146
1460
1461
1462
1464
1468
1469
147
1470
1471
1472
1474
1475
1477
1478
1479
148
1480
1481
1483
1484
1485
1487
1488
149
1490
1491
1492
1493
1494
1497
1498
1499
15
150
1500
1501
1502
1503
1504
1505
1506
1507
1508
1509
151
1510
1511
1512
1513
1514
1515
1516
1517
1518
1519
152
1520
1521
1522
1523
1524
1525
1526
1527
1528
1529
153
1530
1532
1533
1534
1535
1536
1537
1538
1539
154
1540
1541
1542
1543
1545
1546
1547
1549
155
1550
1551
1552
1553
1554
1555
1556
1557
1558
1559
156
1560
1561
1562
1563
1564
1565
1566
1567
1568
1569
157
1570
1571
1572
1573
1574
1575
1576
1577
1578
1579
158
1580
1581
1582
1584
1585
1587
1588
1589
159
1590
1591
1592
1593
1594
1595
1596
1597
1598
1599
16
160
1600
1601
1602
1603
1604
1605
1606
1607
1608
1609
161
1610
1611
1612
1613
1614
1615
1616
1617
1618
1619
162
1620
1621
1622
1623
1624
1625
1626
1627
1628
1629
163
1630
1631
1632
1633
1634
1635
1636
1637
1638
1639
164
1640
1641
1642
1643
1644
1645
1646
1647
1648
1649
165
1650
1652
1653
1654
1655
1656
1657
1658
1659
166
1660
1661
1662
1663
1664
1665
1666
1667
1668
1669
167
1670
1671
1672
1673
1674
1675
1676
1677
1678
1679
168
1680
1681
1682
1683
1684
1685
1686
1687
1688
1689
169
1690
1691
1692
1693
1694
1695
1696
1697
1698
1699
17
170
1700
1701
1702
1703
1704
1705
1706
1707
1708
1709
171
1710
1711
1712
1713
1714
1715
1716
1717
1718
1719
172
1720
1721
1722
1723
1724
1725
1726
1727
1728
1729
173
1730
1731
1732
1733
1734
1735
1736
1737
1738
1739
174
1740
1741
1742
1743
1744
1745
1746
1747
1748
1749
175
1750
1751
1752
1753
1754
1755
1756
1757
1758
1759
176
1760
1761
1762
1763
1764
1765
1766
1767
1768
1769
177
1770
1771
1772
1773
1774
1775
1776
1777
1778
1779
178
1780
1781
1782
1783
1784
1785
1786
1787
1788
1789
179
1790
1791
1792
1793
1794
1795
1796
1797
1798
1799
18
180
1800
1801
1802
1803
1804
1805
1806
1807
1808
1809
181
1810
1811
1812
1813
1814
1815
1816
1817
1818
1819
182
1820
1821
1822
1823
1824
1825
1826
1827
1828
1829
183
1830
1831
1832
1833
1834
1835
1836
1837
1838
1839
184
1840
1841
1842
1843
1844
1845
1846
1847
1848
1849
185
1850
1851
1852
1853
1854
1855
1856
1857
1858
1859
186
1860
1861
1862
1863
1864
1865
1866
1867
1868
1869
187
1870
1871
1872
1873
1874
1875
1876
1877
1878
1879
188
1880
1881
1882
1883
1884
1885
1886
1887
1888
1889
189
1890
1891
1892
1893
1894
1895
1896
1897
1898
1899
19
190
1900
1901
1902
1903
1904
1905
1906
1907
1908
1909
191
1910
1911
1912
1913
1914
1915
1916
1917
1918
1919
192
1920
1921
1922
1923
1924
1925
1926
1927
1928
1929
193
1930
1931
1932
1933
1934
1935
1936
1937
1938
1939
194
1940
1941
1942
1943
1944
1945
1946
1947
1948
1949
195
1950
1951
1952
1953
1954
1955
1956
1957
1958
1959
196
1960
1961
1962
1963
1964
1965
1966
1967
1968
1969
197
1970
1971
1972
1973
1974
1975
1976
1977
1978
1979
198
1980
1981
1982
1983
1984
1985
1986
1987
1988
1989
199
1990
1991
1992
1993
1994
1995
1996
1997
1998
1999
2
20
200
2000
2001
2002
2003
2004
2005
2006
2007
2008
2009
201
2010
2011
2012
2013
2014
2015
2016
2017
2018
2019
202
2020
2021
2022
2024
2025
203
204
205
206
207
208
209
21
210
211
212
213
214
215
216
217
218
219
22
220
221
222
223
224
225
226
227
228
229
23
230
2300
231
232
233
234
235
236
237
238
239
24
240
241
242
243
244
245
246
247
248
249
25
250
2500
251
252
253
254
255
256
257
258
259
26
260
261
262
263
264
265
266
267
268
269
27
270
2700
271
272
273
274
275
276
277
278
279
28
280
281
282
283
284
285
286
287
288
289
29
290
291
292
293
294
295
296
297
298
299
3
30
300
3000
301
302
303
304
305
306
307
308
309
31
310
311
312
313
314
315
316
317
318
319
32
320
321
322
323
324
325
326
327
328
329
33
330
331
332
333
334
335
336
337
338
339
34
340
341
342
343
344
345
346
347
348
349
35
350
3500
351
352
353
354
355
356
357
358
359
36
360
361
362
363
364
365
366
367
368
369
37
370
371
372
373
374
375
376
377
378
379
38
380
381
382
383
384
385
386
387
388
389
39
390
391
392
393
394
395
396
397
398
399
4
40
400
4000
401
402
403
404
405
406
407
408
409
41
410
411
412
413
414
415
416
417
418
419
42
420
421
422
423
424
425
426
427
428
429
43
430
431
432
433
434
435
436
437
438
439
44
440
441
442
443
444
445
446
447
448
449
45
450
451
452
453
454
455
456
457
458
459
46
460
461
462
463
464
465
466
467
468
469
47
470
471
472
473
474
475
476
477
478
479
48
480
481
482
483
484
485
486
487
488
489
49
490
491
492
493
494
495
496
497
498
499
5
50
500
5000
501
502
503
504
505
506
507
508
509
51
510
511
512
513
514
515
516
517
518
519
52
520
521
522
523
524
525
526
527
528
529
53
530
531
532
533
534
535
536
537
538
539
54
540
541
542
543
544
545
546
547
548
549
55
550
551
552
553
554
555
556
557
558
559
56
560
561
562
563
564
565
566
567
568
569
57
570
571
572
573
574
575
576
577
578
579
58
580
581
582
583
584
585
586
587
588
589
59
590
591
592
593
594
595
596
597
598
599
6
60
600
6000
601
602
603
604
605
606
607
608
609
61
610
611
612
613
614
615
616
617
618
619
62
620
621
622
623
624
625
626
627
628
629
63
630
631
632
633
634
635
636
637
638
639
64
640
641
642
643
644
645
646
647
648
649
65
650
651
652
653
654
655
656
657
658
659
66
660
661
662
663
664
665
666
667
668
669
67
670
671
672
673
674
675
676
677
678
679
68
680
681
682
683
684
685
686
687
688
689
69
690
691
692
693
694
695
696
697
698
699
7
70
700
7000
701
702
703
704
705
706
707
708
709
71
710
711
712
713
714
715
716
717
718
719
72
720
721
722
723
724
725
726
727
728
729
73
730
731
732
733
734
735
736
737
738
739
74
740
741
742
743
744
745
746
747
748
749
75
750
751
752
753
754
755
756
757
758
759
76
760
761
762
763
764
765
766
767
768
769
77
770
771
772
773
774
775
776
777
778
779
78
780
781
782
783
784
785
786
787
788
789
79
790
791
792
793
794
795
796
797
798
799
8
80
800
801
802
803
804
805
806
807
808
809
81
810
811
812
813
814
815
816
817
818
819
82
820
821
822
823
824
825
826
827
828
829
83
830
831
832
833
834
835
836
837
838
839
84
840
841
842
843
844
845
846
847
848
849
85
850
851
852
853
854
855
856
857
858
859
86
860
861
862
863
864
865
866
867
868
869
87
870
871
872
873
874
875
876
877
878
879
88
880
881
882
883
884
885
886
887
888
889
89
890
891
892
893
894
895
896
897
898
899
9
90
900
901
902
903
904
905
906
907
908
909
91
910
911
912
913
914
915
916
917
918
919
92
920
921
922
923
924
925
926
927
928
929
93
930
931
932
933
934
935
936
937
938
939
94
940
941
942
943
944
945
946
947
948
949
95
950
951
952
953
954
955
956
957
958
959
96
960
961
962
963
964
965
966
967
968
969
97
970
971
972
973
974
975
976
977
978
979
98
980
981
982
983
984
985
986
987
988
989
99
990
991
992
993
994
995
996
997
998
999
:
;
<
=
>
?
@
\
^
_
`
a
aa
aachen
aalto
aaron
ab
ababa
abadeyo
abadi
abado
abakan
abandonar
abandonas
abandonesis
abandonis
abandonita
abandono
abba
abbas
abbasid
abbott
abc
abd
abdallah
abdel
abdelaziz
abdikar
abdikas
abdikis
abdiko
abdomino
abdoulaye
abdu
abdul
abdullah
abe
abel
abeli
abelo
aberdeen
abhazia
abi
abidjan
abilene
abingdon
abkhazia
abnego
abolisar
abolisas
abolisesis
abolisis
aboliso
aborijena
aborijeni
abortigo
aborto
about
abraham
abreu
abreviata
abreviita
abreviuri
abreviuro
abril
abruzzo
absenteso
absoluta
absolute
absorbas
absorbesis
abstrakta
abstraktala
abu
abubakar
abuja
abundanta
abundo
abutas
ac
aca
acade
academia
academy
accessed
acelero
acensar
acensas
acensis
acenso
acento
aceptar
aceptas
aceptata
aceptesas
aceptesis
aceptis
aceptita
acepto
aceptos
acesar
acesebla
aceso
acesora
achille
acida
acidenti
acidento
acidi
acido
acioni
acori
acosta
acre
acres
act
action
ad
ada
adair
adam
adams
adamsville
adaptar
adaptesis
adaptis
adaptita
adavane
addextre
addis
ade
adelaide
aden
adenauer
adeodatus
adepti
adequata
adeste
adheranti
adheranto
adherar
adheras
adheris
adhero
adhike
adiciono
adinfre
adjacanta
adjektivi
adjektivo
adjuntar
adjuntas
adjuntesas
adjuntesis
adjuntis
adjuntita
adler
admaxime
adminime
administrado
administrala
administranto
administrar
administras
administrata
administration
administrerio
administresas
administresis
administreyo
administris
administristo
administrita
administro
admiralo
admisas
adnorde
adolecanti
adolecanto
adolf
adolfo
adolph
adolphe
adoptar
adoptas
adoptesas
adoptesis
adoptis
adoptita
adopto
adoso
adportas
adportesis
adportis
adportita
adreso
adriaen
adrian
adriana
adrianus
adriatiko
adrien
adsinistre
adsude
adsupre
adsur
adube
adulta
adulti
adulto
adventisti
adventure
adverbo
adversa
adversi
adverso
advokati
advokato
adweste
ae
aer
aera
aeral
aerala
aero
aerodromo
aerolito
aeronautiko
aeronavo
aeroplani
aeroplano
aeroportui
aeroportuo
aetius
af
afar
afektar
afektas
afektesas
afektesis
afektis
afektita
aferala
aferi
afero
affairs
afgana
afganistan
afineso
afirmas
afirmis
afisho
afonso
africa
african
afrik
afrika
afrikala
afrikan
afrikana
afrikani
afrikansa
afro
afrontis
after
ag
agadi
agado
against
agapetus
agar
agas
agatha
age
aged
agency
agenterii
agenterio
agenti
agento
agi
agis
agitas
agitesi
agiteso
agiva
agiveso
agivo
aglo
agnoskar
agnoskas
agnoskata
agnoskesas
agnoskesis
agnoskis
agnoskita
agnosko
ago
agostinho
agostino
agosto
agra
agrala
agreabla
agri
agricola
agro
agrokultivala
agrokultivisti
agrokultivo
agrourbeto
aguilar
aguinaldo
agulo
agusti
ah
ahidjo
ahlberg
ahmad
ahmed
ahmet
ai
aids
aime
ain
air
airbus
aires
airlines
airport
airways
ais
aise
aitkin
aix
ajornesis
ak
akademiala
akademiano
akademii
akademio
akbar
akciabrskaya
akhilleus
akira
akko
akompanar
akompanas
akompanata
akompanis
akompanita
akordo
akra
akron
akronimo
akti
aktiva
aktive
aktivesi
aktiveso
aktivisto
akto
aktori
aktorino
aktoro
aktorulo
aktuala
akustiko
akuta
akuzas
akuzata
akuzativo
akuzesas
akuzesis
akuzi
akuzis
akuzita
akuzo
al
ala
alabama
alagoas
alain
alamani
alamo
alamos
alan
alando
alani
alania
alaska
alba
albani
albania
albanian
albaniana
albaniani
albany
albert
alberta
alberti
alberto
albin
albion
albrecht
album
albumi
albumo
albuquerque
alca
alden
aldo
aldrin
alec
alegaji
alegajo
alegis
alegoriala
alegorio
alegre
aleixandre
alejandro
aleksandar
aleksander
aleksandr
aleksis
alema
alencar
aleppo
ales
alessandro
alex
alexander
alexandr
alexandra
alexandre
alexandria
alexandros
alexandrovich
alexandru
alexei
alexeyevich
alexis
alfa
alfabetala
alfabeti
alfabeto
alfaro
alfons
alfonsi
alfonso
alfred
alfredo
algarismi
algebrala
algebro
algi
algo
alhazen
ali
alia
alias
aliaxandr
alice
alicia
alighieri
alio
aliyev
alizei
aljer
aljeria
aljeriana
alkohola
alkoholo
all
allah
allan
allen
allende
alliance
alma
almatı
almaza
almeida
almoravid
almoravidi
alo
alois
alonge
alonso
aloyi
aloyuri
aloyuro
alpha
alphonse
alpi
alt
alta
altai
altaika
altajo
altaro
alte
alternado
alternanta
alternativa
alternative
alternativo
alteso
altitudi
altitudo
altman
alto
alton
altoona
altr
altra
altralatere
altraloke
altre
altri
altro
altru
aluminio
alva
alvar
alvarado
alves
alvin
alzacia
alzaciana
alzheimer
am
ama
amadeo
amadeus
amadou
amapa
amaral
amas
amasi
amaso
amatora
amatorala
amazon
amazonas
amazonia
amazoniana
amba
ambasadeyi
ambasadeyo
ambasadisto
ambasado
ambe
ambedkar
ambicioza
ambientala
ambiento
ambigua
amboy
ambrose
ambrosius
ame
amedeo
amelia
amen
amendo
america
american
amerigo
amerika
amerikala
amerikana
amerikani
amfibia
amfibii
amhara
ami
amiens
amikala
amikeso
amiki
amikino
amiko
amilo
amin
amis
amnestias
amnestio
amo
amont
amor
amorantino
amoro
amos
amour
ampla
ampleso
amr
amsterdam
amundsen
amur
amuzala
amuzo
amy
an
ana
anado
anakin
analizala
analizar
analizo
analoga
anarkiismo
anarkiisti
anarkiisto
anarkio
anastasia
anastasio
anastasius
anat
anatolia
anatomio
ancestri
ancestro
anchieta
anchorage
ancien
anciena
ancient
ancus
and
andalus
andaluzia
anders
andersen
anderson
andersson
andi
andiana
andora
andra
andrade
andre
andrea
andreas
andreea
andrei
andrej
andrew
andrews
andrey
andreyevich
andrzej
andrzejo
andy
anexas
anexesis
anexis
anexita
anexo
angara
angel
angela
angeles
angelfire
angelo
angelou
angiospermi
angkor
angla
angle
angli
anglia
anglian
angliana
angliani
anglikan
anglikani
anglo
anglosaxona
angola
angolana
angra
anguila
angula
anguli
angulo
anhalt
ani
animal
animala
animalaro
animali
animalo
anime
animita
animo
anita
aniversario
anjeli
anjelo
anjou
ank
ankara
anke
ankore
ankro
anmo
ann
anna
annan
anne
anni
annie
anno
ano
anoka
anonima
ans
ansan
antananarivo
antanas
antarktika
antarktiko
ante
antea
antecedenti
antecedento
antee
anteni
antequera
antero
anthony
anti
antigua
antili
antiochus
antiqua
antiqueso
antiqui
anto
antoine
antoinette
antologio
anton
antonescu
antoni
antonin
antonina
antonio
antonius
antonov
antropologio
antropologo
antwerpen
anuncas
anuncesis
anuncis
anunco
anuso
anwar
anxio
ao
aosta
aparar
aparas
aparati
aparato
aparis
aparo
apart
aparta
apartamenti
apartamento
aparte
apartenanta
apartenar
apartenas
aparteninta
apartenis
apartheid
apelar
apelo
apendico
apene
aperta
apertar
apertas
apertata
apertesas
apertesis
apertis
apertita
aperto
aperturo
apicius
aplikado
aplikaji
aplikajo
aplikar
aplikas
aplikata
aplikesas
apliki
aplikis
aplikita
apliko
apo
apogas
apogata
apogeo
apogesas
apogilo
apogita
apogo
apollo
apostoli
apostolo
appel
apple
appleton
aprentiseso
aprentiso
aprilo
aprobar
aprobas
aprobesas
aprobesis
aprobis
aprobita
aprobo
aprocho
aproximata
aproxime
apta
apud
apuda
aqua
aquala
aquedukto
aqui
aquila
aquino
aquirar
aquiras
aquiris
aquirita
aquitania
aquo
aquobarili
aquobarilo
aquofalo
ar
ara
arab
araba
arabe
arabi
arabia
arabiana
aracaju
arad
arafat
arago
aragon
aragonana
aragone
aragonesa
arango
aranjas
aranji
aranjis
aranjita
aranjo
aranjuro
arawak
arbor
arboreto
arbori
arboro
arbusto
arbuzovka
arc
arcadia
arcah
arce
archaeology
archer
archibald
archive
ardeni
ardi
ardmore
are
area
arehawsk
arei
arena
areno
areo
arestar
arestas
arestesas
arestesis
arestis
aresto
argentina
argilo
argumentas
argumenti
argumentis
argumento
ari
ariana
arias
arica
arida
ariel
ario
aristide
aristides
aristokrataro
aristokrati
aristokrato
aristoteles
aritmetiko
arivar
arivas
arivis
arivo
arizona
arjent
arjenta
arjentea
arjentinia
arjentinian
arjentiniana
arjentiniani
arjento
arkaika
arkansas
arkeologiala
arkeologiisti
arkeologiisto
arkeologio
arkeologo
arki
arkiduko
arkiepiskopo
arkipelagi
arkipelago
arkitekti
arkitekto
arkitektural
arkitekturala
arkitekturo
arkivi
arkivo
arko
arkpafado
arktika
arktiko
arlington
arm
armal
armala
armand
armando
armas
arme
armeala
armeani
armei
armenia
armeniana
armeniani
armeo
armi
armistico
armizita
armo
armstrong
arnhem
arnold
aromata
aromatoza
arosemena
around
arpanet
arraes
arrow
arroyo
arss
art
artala
arte
arthur
arthurian
arti
article
artifical
artificala
artigas
artiki
artikli
artiklo
artiko
artilrio
artist
artisti
artisto
arto
artropodi
arts
artur
arturo
aruba
arvernia
arverniana
arvid
ary
as
asalto
asasinesas
asasinesis
asasinita
asasino
asbury
asean
asekurajo
asekurar
asekuro
asemblajo
asemblas
asemblis
asemblita
asemblitaro
asemblo
asembluro
asertas
aserti
asertis
aserto
asfalto
ash
asha
ashanti
ashby
ashland
ashley
ashton
asia
asiejo
asinawka
asintorf
asistaji
asistantaro
asistar
asistas
asistis
askoltar
aso
asociata
asociesas
asociesis
asociita
asociitaro
asociito
asocio
asociuri
asociuro
aspektas
aspekti
aspekto
assad
assemble
assembly
assis
assisi
association
aste
asteroidi
asteroido
astley
astrahan
astri
astro
astrofizikisto
astrologio
astronauti
astronauto
astronomi
astronomial
astronomiala
astronomio
astronomo
asturia
asturiana
asturias
asu
asumar
asumas
asumis
asuncio
asuncion
at
atahualpa
atakado
atakanti
atakantulo
atakar
atakas
atakema
atakeri
atakesas
atakesis
ataki
atakis
atako
atakus
atatu
atchison
ateismo
ateisti
atelier
ateliero
atenco
atenti
atento
atesti
atesto
athena
athens
athina
athos
atingar
atingas
atingis
atingita
atingos
atitudo
atkins
atkinson
atla
atlanta
atlantic
atlantika
atlantiko
atlantis
atlas
atletala
atleti
atletino
atletismo
atleto
atmosferala
atmosfero
atocha
atoli
atolo
atom
atomala
atomi
atomo
atomobombi
atomobombo
atra
atraktar
atraktas
atraktis
atraktiva
atraktivi
atraktivo
atrakto
atribuas
atribuita
atributi
atta
attack
attila
atwater
au
auburn
auckland
audado
audantaro
audar
audienco
audis
audubon
auf
augmentar
augmentas
augmentesis
augmentis
augmento
augsburg
august
augusta
auguste
augustin
augustine
augustinus
augusto
augustus
aulo
aung
aurelianus
aurelius
aurora
auroro
aus
auschwitz
austen
austereso
austerlitz
austin
australia
australian
australiana
australiani
australopithecus
austria
austrian
austriana
austriani
austroneziana
austroneziani
autentika
auto
autobiografio
autobusi
autobuso
automatala
automobil
automobila
automobilala
automobili
automobilismo
automobilisti
automobilisto
automobilo
autonoma
autonomeso
autonomio
autor
autoreso
autori
autoritati
autoritato
autoritatoza
autoritatozi
autoro
autoroyuro
autovoyo
autuno
aux
auxiliara
auxiliary
ava
avalancho
avan
avana
avancar
avancas
avance
avanci
avancigar
avancis
avanco
avane
avangard
avanposteno
avantaji
avantajo
avari
ave
aventurero
aventuri
aventuro
avenue
avenui
avenuo
averso
avery
aviacado
aviacilo
aviacisto
aviaco
avignon
avile
avino
avion
avionala
avioni
aviono
aviv
avo
avoca
avon
avulo
aw
away
axel
axi
axiomi
axo
ayala
ayatolo
ayer
ayers
aymara
ayn
ayub
ayutthaya
az
azerbaijan
azerbaijana
azerbaijanana
azia
aziala
aziana
aziani
azilo
aziz
azteka
azteki
azur
b
ba
baarova
bab
babel
babilonia
babiloniana
babinavichi
babinichi
baby
bach
bachelet
back
background
bacon
bad
badajoz
baden
badenia
badmintono
bae
baekje
bagdad
baghdad
baha
bahaa
bahaani
bahadur
bahai
bahama
bahava
bahia
bahn
bahrain
baikal
baikonur
baile
bailey
bains
baker
bakersfield
bakkum
bakr
bakterii
bakterio
baku
bal
balaguer
balboa
balde
baldwin
baleari
baleni
baleno
baleto
balfour
bali
balkana
balkani
balkania
ball
balliol
balno
balo
baloni
balono
balotado
baloto
baltika
baltiko
baltimore
bamako
ban
bananarama
banano
bancroft
band
banda
bandajo
bandaranaike
bandi
bando
bangkok
bangladesh
bangui
bank
bankala
banki
bankisto
banko
bankroto
banks
bantu
bantua
bantui
baptesis
baptis
baptista
baptiste
baptita
bapto
bar
barack
baran
barbados
barbara
barbarossa
barbo
barbosa
barbuda
barca
barcelona
bare
bareli
barents
bari
barilo
bariloche
barker
barnard
barnum
baroka
baroko
baroni
barono
barra
barranquilla
barre
barrett
barrio
barrios
barros
barrow
barry
barthe
barto
bartolome
bartolomeo
bartolomeu
barton
baruch
barzdowka
bas
basa
basbalo
base
basel
baseni
baseno
bashar
bashir
basic
basileios
basisto
baska
basketbalisti
basketbalisto
basketbalo
baskia
baskiana
baso
bass
bastiono
bastono
bat
bataclan
batali
bataliagro
batalii
batalio
batalioni
bataliono
batalo
batavia
bateli
batelo
baterii
baterio
bates
batista
batlle
battista
battle
battuta
baudelaire
baudet
baudouin
bauer
bauhaus
bautista
bauxito
bavaria
bavariana
baxter
bay
bayar
bayern
bayo
bayonne
baz
baza
bazal
bazala
bazeyo
bazi
baziliko
bazo
bbc
bc
bd
be
beach
bean
bear
beat
beatles
beatrix
beatriz
beaufort
beaufront
beaumarchais
beautiful
beauvoir
beaux
beaver
beaverton
bebeo
bec
beck
becker
beckett
becquerel
bedford
bee
beethoven
begin
beijing
beirut
beko
bel
bela
bele
beleso
belga
belgia
belgian
belgiana
belgorod
belgrade
belgrano
belino
belize
bell
bella
belle
belles
bellevue
bellini
belo
beltrami
ben
bend
bendi
bendjedid
bendo
benedictus
benediktus
benelux
benes
benevento
benfica
bengal
bengali
benigno
benin
benito
benjamin
bennett
benny
benson
bentley
bento
benton
benue
benz
beograd
ber
berbera
berberi
berengar
berenguer
berezina
berg
bergen
berger
bergman
beri
beria
bering
berkeley
berlin
berlioz
berlusconi
bermu
bermuda
bermudi
bern
bernard
bernardino
bernardo
bernhard
bernie
bernoulli
bernstein
bero
berry
bersilo
bertha
bertrand
besarabia
best
bestii
bestio
betancourt
beth
bethany
bethel
betjeman
betono
betravo
betty
beverly
bey
bezonas
bezonata
bezonesas
bezonesis
bezoni
bezonis
bezono
bełchato
bgn
bh
bhutan
bhutto
bi
biafra
biała
biblala
bibliografio
biblioteca
biblioteki
biblioteko
biblo
bice
bicikli
biciklismo
biciklisti
biciklistino
biciklisto
biciklo
biden
bie
bieli
bielorusa
bielorusi
bielorusia
bielorusiana
bien
big
bilderberg
bilieti
bilingua
bill
billboard
billy
biloxi
bin
binara
bingen
bingham
bio
biodiverseso
biofizikisto
biografio
biography
biokemiala
biokemiisti
biokemiisto
bioko
biologiala
biologiisti
biologiisto
biologio
biologo
bioteknologio
bioy
bird
birmingham
biro
bisau
bisextila
bishkek
bishop
bismarck
bissau
bitra
bizancana
bizancani
bizanco
bjo
black
blackmore
blackpink
blackwell
blade
blagoveshchenka
blaine
blair
blaise
blake
blanc
blanca
blanchard
blanco
blanka
blanki
blasey
blaxland
blazono
ble
blica
bligh
blinda
bloch
blogo
blok
blokala
bloki
bloko
blokusar
blokuso
blood
bloomfield
bloomington
blount
blow
blu
blua
blue
blues
bluff
bmatrix
bo
boa
board
boas
bob
bobby
boca
boeing
bogdan
bogota
bohemia
bohemiana
bohemiani
bohr
boigny
boikotis
boikoto
boirac
bois
boise
bokala
bokassa
boko
bol
bolan
bolesław
bolesławiec
boli
bolivar
bolivia
boliviana
bologna
bolshaya
bolsheviki
bolshoi
bolsonaro
bolto
bomb
bombal
bombardar
bombardas
bombardesis
bombardi
bombardis
bombardo
bombay
bombi
bombo
bon
bona
bonaire
bonajo
bonaparte
bond
bone
bongo
bonifa
bonifacius
bonn
bonner
bonneville
bono
boogie
book
books
boolean
boomer
boone
booneville
bopp
bor
bora
bordeaux
border
bordero
bordi
bordo
borges
borgezala
borgezaro
borgia
boris
borja
born
borneo
borno
bornu
borodino
borowa
borso
bosch
bosforo
boski
bosko
bosnia
bosniana
bossa
boston
botanika
botanikala
botanikisto
botaniko
boteli
botelo
botha
botswana
boubacar
bougainville
boulogne
bounty
bourbon
bourbona
bouteflika
bouterse
boutros
bouvet
bovaro
bovi
bovo
bowie
bowling
box
boxing
boxisti
boxisto
boxo
boy
boyd
boyer
boyle
boys
boz
bozize
br
bra
bradford
bradley
braga
bragg
braille
brakii
brakio
branch
branchi
brancho
branco
brand
brandenburg
brandio
brandon
brandt
branica
branson
brasi
brasil
brasilia
bratislava
braun
braunschweig
brava
bravo
brazil
brazilia
brazilian
braziliana
braziliani
brazzaville
bre
breda
brega
bregman
brejnev
brekiro
bremen
brenner
brest
breton
bretona
bretonia
brett
breva
brewster
brian
briand
bridge
bridgeport
brien
brigadi
brigado
brigham
brighton
brigitte
briki
brilanta
briloza
brisbane
bristol
britain
britana
britania
britanian
britaniana
britaniani
britaniano
britannica
british
bro
broadcasting
broadway
brodkast
brodkastar
brodkasterii
brodkasterio
brodkastesas
brodkasti
brodkasto
broglie
broken
bronkii
bronson
bronx
bronz
bronza
bronzea
bronzo
brook
brookes
brooklyn
brooks
broshuro
brothers
browa
broward
brown
browne
browning
brownsville
broz
bru
bruce
brueghel
bruiso
brulado
brular
brulas
brulesas
brulesis
brulis
brulo
bruna
brunei
bruno
brunswick
brutala
brutaro
bruxel
bruxelles
bryan
bryant
brzezie
brzeziny
brzozo
bs
bu
buarque
bubonala
bubono
buchanan
buck
bucures
buda
budapest
buddhismo
buddho
buddy
bude
budismo
budista
budisti
budjeto
buena
buenos
buffalo
building
bukhara
bukovina
bukowa
bulbi
bulbo
buletino
bulgara
bulgari
bulgaria
bulgariana
buli
bulo
bulvardo
bundang
burasko
bureau
buren
burgess
burgo
burgos
burgundia
burgundiani
buri
burke
burkina
burlington
burma
burmana
burmani
burnham
burns
buro
burroughs
burt
burton
burundi
bus
busan
busch
bush
business
busolo
bustamante
but
butan
butiki
butiko
butler
butro
butte
buxegi
buxi
buxo
buzz
by
byron
c
ca
caballero
cabildo
cabo
cabral
cabrera
cadillac
caen
caesar
caetano
cafe
cage
cairo
caius
calais
caldas
caldero
caldwell
cale
calgary
calhoun
cali
california
callao
callaway
called
calumet
calvin
calvo
calypso
camacho
camargo
cambridge
camden
cameron
camille
camilo
camo
camp
campbell
campinas
campo
campos
camus
can
canada
canadian
canal
canaveral
canberra
canby
cannes
canning
cannon
canon
cantar
canterbury
canton
canyon
cao
cap
cape
capet
capita
capital
capitol
capone
captain
car
caracas
cardiff
cardoso
carey
carino
cario
carl
carlevaro
carlisle
carlo
carlos
carlton
carmel
carmen
carmona
carnaval
carnegie
carneiro
caro
carol
carolina
caroline
carpenter
carr
carracci
carranza
carroll
carrollton
carson
carta
cartagena
carter
carthage
cartier
carvalho
carver
cary
casa
casares
casas
cascade
case
casey
casimir
cass
cassini
cassius
castello
castelo
castilla
castillo
castle
castro
catalunya
catarina
category
catherine
catlins
cato
cavalcanti
cave
cavendish
caxias
cd
cdot
cdots
ce
ceara
ceausescu
cecil
cedar
cedas
cedesis
cedis
cela
celar
celas
celebrar
celebras
celebresas
celebresis
celebris
celebro
celestinus
celis
celita
celsio
celsius
celulala
celuli
celulo
celuloso
cemento
ceneyo
ceni
ceno
censuro
census
cent
center
centerville
centi
centimetri
centimi
cento
centr
centra
centrafrika
central
centrala
centrale
centralia
centre
centri
centro
century
ceramikaji
ceramikajo
ceramiko
cereali
cerebrala
cerebro
ceremoniala
ceremonii
ceremonio
ceres
cerrado
cerro
cerrone
certa
certe
certena
certigar
cervantes
cervo
cesar
cesare
cesas
cesis
ceso
cetacei
cetera
cetere
ceteri
cetero
ceuta
ceylon
cezaro
cfa
cfb
ch
cha
chacabuco
chaco
chad
chagas
chaikovski
chaim
challenger
chamberlain
chambers
chambra
chambrego
chambri
chambro
chamorro
champion
championesi
championeso
championi
championino
championkonkursi
championkonkurso
championo
championship
championships
champlain
chan
chanco
chandler
chang
change
chanjar
chanjas
chanjesis
chanji
chanjis
chanjita
chanjo
channel
chao
chapada
chapelo
chapitri
chapitro
chaplin
chapman
chari
charjo
charles
charleston
charlie
charlotte
charo
charto
chasado
chasar
chasas
chase
chaseri
chaso
chasteso
chateaubriand
chattanooga
chaudhry
chauvin
che
chechena
checheni
chechenia
cheddi
chef
chefa
chefe
chefeso
chefi
chefkontoro
chefloko
chefministri
chefministrino
chefministro
chefo
chefurbo
cheikh
cheka
chekarpati
cheki
chekia
chekiana
chekoslovakia
chekoslovakiana
chelsea
chelyabinsk
chen
cher
chera
cherokee
cherry
chester
chevrolet
chełm
chi
chiang
chiapas
chicago
chickasaw
chico
child
children
chile
chili
chiliana
chiliani
chillicothe
china
chinese
chingiz
chinia
chinian
chiniana
chiniane
chiniani
chino
chipa
chipro
chirac
chis
chisago
cho
choctaw
chokolado
chola
chomeso
chopin
chornobil
choseala
chosei
choseo
chp
chre
chris
christen
christiaan
christian
christiania
christina
christine
christmas
christoffer
christoph
christophe
christopher
chrysler
chu
chua
chuck
chun
chung
church
churchill
ci
cia
cicero
cid
cidade
ciel
cielala
cielo
ciencal
ciencala
cienci
ciencisti
ciencisto
cienco
cifri
cifro
cigani
cikli
ciklo
cikloni
ciklono
cilindra
cilindro
cin
cincinnati
cindri
cindro
cinem
cinematografio
cinematografisto
cinematografuri
cinematografuro
cinemi
cinemo
cio
circle
cirkla
cirklatra
cirkli
cirklo
cirko
cirkondanta
cirkondas
cirkondata
cirkondesas
cirkondis
cirkondita
cirkonstanci
cirkonstanco
cirkuiti
cirkuito
cirkulado
cirkulas
cirkulo
cirkum
cirkuma
cirkumaji
cirkumajo
cirkume
citadelo
citaji
citajo
citar
cities
citroe
citrono
citrus
city
ciudad
civil
civila
civili
civilizeso
civilizuri
civilizuro
civilo
civitaneso
civitani
civitano
ck
cken
cla
clackamas
clair
claire
clapton
clara
claremont
clarence
clarendon
clark
clarke
clarksville
clash
class
classical
claude
claudia
claudius
claus
clav
clay
clayton
cle
clearwater
clement
clermont
cleveland
cliff
clifton
climate
clinton
clive
clock
cloud
club
clube
clyde
cm
cn
cnn
co
coal
coast
coburg
cochabamba
coco
codarts
coelho
coeur
coffee
cohen
coimbra
cola
colas
colbert
cold
cole
coleman
colin
colle
collection
college
collins
collor
colo
colombo
colonia
colony
colorado
columbia
columbus
com
come
comedia
comite
commerce
commission
commodus
commonwealth
community
como
compagnie
company
comparative
compostela
compton
computer
comte
con
conan
concepcio
concord
concorde
concordia
conde
condita
congo
congress
connecticut
connection
connor
conquistador
conrad
consello
constable
constans
constant
constantin
constantius
contact
contra
control
convention
conway
cook
cool
coolidge
cooper
coos
copacabana
coppola
coral
cori
corinth
corneille
cornelis
cornelius
cornell
cornioley
coronado
corporation
corregidor
correia
corrientes
corte
corun
cos
cosmoglotta
costa
costello
cot
cottage
cottonwood
coubertin
council
country
county
court
courtland
couturat
cove
coventry
covid
covington
cowboy
cox
craig
crawford
cre
creek
crescent
crespo
cristina
cristo
cristoforo
cro
croix
cromwell
cronica
crosby
cross
crow
cruz
crystal
cs
csa
cska
ctesiphon
ctor
cu
cuba
cubas
cucuteni
cueva
cuiaba
cullman
culo
cultura
cultural
culture
cumberland
cunha
cup
curie
curitiba
curtis
custer
cuyahoga
cuzco
cv
cyril
cz
czarny
czastary
cze
czech
czesław
czyca
czyu
d
da
dabramisli
dabrin
dacia
dacko
dada
dade
dae
daewoo
dag
dagestan
dahl
dahome
dai
daily
daimler
dakar
dakota
dal
dalai
dale
dali
dallas
dalmatia
dalton
daly
dam
damascus
damaskus
damasus
dame
damo
damzelo
dan
dana
dance
dangerous
dani
dania
daniana
daniel
daniela
danjero
danjeroza
danke
danko
danny
dans
dansar
dansas
danseri
dansi
dansisti
dansistino
dansisto
danso
dante
danubio
danville
dar
dardo
darfas
darfis
darfur
dari
dario
dark
darth
darwin
darya
das
database
dati
dativo
datizas
datizita
dato
datumaro
datumi
datumo
daudet
daugava
dave
davenport
david
davis
davy
dawda
dawkins
dawn
dawson
day
days
dayton
daytona
db
dc
de
dead
deaji
deajo
deala
dean
dearborn
death
debatebla
debati
debato
debayle
debbie
debi
debo
deborah
debushas
debussy
debut
debutis
debuto
decatur
decembro
decendanti
decendanto
decendas
decendis
decensas
decenso
decidar
decidas
decidesis
decidi
decidiganta
decidigiva
decidis
decido
decimala
dedikata
dedikita
dee
deep
def
defendo
defensar
defensas
defenseri
defensero
defensi
defensis
defensisti
defensisto
defensiva
defenso
deficito
definar
definas
definata
definesas
defini
definis
definita
definitiva
definitive
defino
defio
dei
deino
dejima
dejuno
dek
dekadanta
dekadar
dekadas
dekadis
dekado
dekalb
dekedu
dekesma
deki
deklarar
deklaras
deklaresas
deklaresis
deklaris
deklarita
deklaro
deklino
dekoruro
dekretas
dekreti
dekreto
dekstra
del
delano
delaunay
delavan
delaware
delegaciono
delegitaro
delfini
delfino
delfzijl
delgado
delhi
delikata
della
delphos
delta
delto
dem
demandanta
demandante
demandar
demandas
demandi
demandis
demandita
demando
demarsho
demi
demisionas
demisionis
demisiono
democratic
demografiala
demografio
demokrata
demokratala
demokratale
demokrati
demokratial
demokratiala
demokratiale
demokratio
demolisesis
demoni
demono
demonstranti
demonstrar
demonstras
demonstreri
demonstri
demonstris
demonstro
den
denis
denisovka
dennis
densa
dense
denseso
dentala
denti
dento
denuncis
denver
deo
deodoro
departamento
departar
departas
departis
department
departmenti
departmento
departo
dependanta
dependar
dependas
dependis
dependo
deportesis
deportis
deporto
depos
depose
depozas
depozeyi
depozeyo
depreso
deputati
deputato
der
derby
derek
derevnya
derivado
derivajo
derivas
derivata
derivesas
derivita
des
desaparas
desaparinta
desaparis
desaparita
desaparo
descartes
descentraligo
desegnado
desegnar
desegnesis
desegni
desegnis
desegnisti
desegnisto
desegnita
desegno
desegnuri
desegnuro
desembarkar
desembarkas
desembarkis
desembarko
deseret
desfacila
desfacilaji
desfacile
desfacilesi
desfacileso
desfaciligas
deskoloniigo
deskonkordo
deskontenta
deskovrar
deskovras
deskovresas
deskovresis
deskovri
deskovrinto
deskovris
deskovristi
deskovristo
deskovrita
deskovro
deskreskis
deskriptar
deskriptas
deskriptata
deskriptesas
deskriptesis
deskriptis
deskriptita
deskripto
desmond
desquieteso
dessau
destinata
destini
destinita
destino
destruktabis
destruktadi
destruktado
destruktar
destruktas
destruktesas
destruktesis
destruktis
destruktita
destruktiva
destrukto
desude
desvinko
detali
detaloza
detaloze
detektar
determinar
determinas
determinita
detroit
deutsch
deutsche
deutsches
deux
devas
devastas
devastesis
devastis
devastita
developado
developanta
developar
developas
developata
developesis
developeso
developis
developita
development
developo
devenas
devenis
deveno
devi
devil
devis
devo
devus
dewey
dexter
dextra
dextrana
dextre
dez
dezerti
dezerto
dezinenco
deziras
deziri
deziris
deziro
dfb
dhaka
di
dia
diablo
diafana
diagnozo
diagrami
diagramo
diakritiki
diala
dialektala
dialekti
dialektiko
dialekto
dialogi
dialogo
diamanti
diamanto
diametro
diamond
diana
diane
diario
dias
diasporo
dica
dicabis
dicante
dicar
dicas
diccionario
dicernar
dicernas
dicesas
dicionarii
dicionario
diciplini
diciplino
dicipuli
dicipulo
dicis
dicita
dick
dickens
dickinson
dico
dictionary
dictionnaire
diderot
didier
die
diego
diem
dies
diesel
dieto
dietrich
diferanta
diferante
diferas
diferi
difero
diftongi
difuzesis
difuzita
difuzo
digestiva
digesto
digi
digital
digneso
digo
dii
dijitala
dika
diktatoreso
diktatoro
dil
dili
dilma
dimensioni
dimensiono
diminutar
diminutas
diminutesis
diminutis
diminuto
dimitri
dimitrios
dimitrov
din
dina
dinamikala
dinamiko
dinamo
dinastii
dinastio
dineo
dino
dinosaurii
dio
diocezi
diocezo
diodi
diogenes
diogo
dios
diplasas
diplasesis
diplasi
diplasis
diplasita
diplaso
diplomacala
diplomacisti
diplomacisto
diplomaco
diplomo
direcioni
direciono
direktado
direktanta
direktar
direktas
direktata
direkte
direktesis
direktis
direktisto
direktita
direkto
direta
direte
dis
disco
discovery
dishi
disho
disk
disketo
diski
disko
diskografio
diskreta
diskriminaco
diskursi
diskurso
diskutado
diskutar
diskutas
diskuti
diskutis
diskuto
disney
disneyland
dispersita
disponebla
dispozita
disputar
disputata
disputi
disputis
disputo
dissemesas
dissemesis
dissolvar
dissolvas
dissolvesas
dissolvesis
dissolvis
dissolvo
dista
distanta
distante
distas
disti
distilo
distingar
distingas
distingita
distingiva
distingo
distinta
disto
distributar
distributas
distributo
district
distrikro
distriktala
distrikti
distrikto
ditions
divenabas
divenabis
divenanta
divenante
divenar
divenas
divenez
diveninta
divenir
divenis
divenos
divenus
divergas
divers
diversa
diverse
diverseso
dividar
dividas
dividesar
dividesas
dividesis
dividis
dividita
divido
dividuri
dividuro
divina
division
divizioni
diviziono
divorcis
divorco
dixon
diz
dizastri
dizastro
dizastroza
dizelo
dizzy
dj
django
djibouti
djibuti
dl
dlamini
dmitri
dna
dnepr
dnipropetrovsk
dnister
do
dobiecin
doc
docado
docar
docas
docesas
docis
docisti
docisto
doctor
dodge
doe
doelen
dog
doganal
doganala
dogano
dogmato
doha
doherty
dojo
doki
doktoro
doktrini
doktrino
dokumentala
dokumenti
dokumento
dolara
dolari
dolaro
dolca
dolce
dolez
dolly
dolores
doloro
dom
domajas
domajesis
domaji
domajis
domajita
domajo
domala
domaro
dome
domego
domeni
domenico
domeno
domestika
domi
dominacajo
dominacanta
dominacar
dominacas
dominacesis
dominacis
dominaco
domingo
domingos
domini
dominika
dominikana
dominique
domitianus
domo
don
donacaji
donacas
donacis
donacita
donaji
donald
donanta
donante
donar
donas
donata
doneck
donesas
donesis
dong
donis
donita
donna
doo
dooku
doolittle
dop
dopa
dopado
dope
doplanda
doplande
doplando
doppler
dora
dorado
doris
dorji
dormanta
dormo
dorothy
dorsala
dorso
dos
dostoyevski
douard
douglas
douglass
dover
dow
down
downtown
doyle
dozeni
dr
drake
drako
drama
dramatala
dramati
dramatifisto
dramatisti
dramatisto
dramato
draogo
dream
dreno
drenthe
dresden
drew
dreyfus
drinkaji
drinkajo
drinkar
drinkerii
drinkeyi
drinkeyo
drive
dro
drogi
drogo
dronas
drugi
drummond
druz
dt
du
dua
duadek
duala
duarte
dubai
dubc
dublin
dubois
dubrowna
dubuque
duc
duchambra
duchamp
duck
duda
dudley
duelo
duero
duesma
duesmafoye
duesme
dufoye
duima
duime
duimo
duisburg
duke
duki
dukino
dukio
duko
duktanta
duktanto
duktar
duktas
duktata
dukteri
duktero
duktesis
duktis
duktisto
duktita
duktos
duluth
dum
dumas
dume
dumont
dumviva
dumvive
duncan
dundee
dungo
duni
dunlap
duo
duopla
duople
duque
dura
durado
duran
durand
durant
duranta
durante
durar
duras
durham
durigar
durigis
durinta
durio
duris
durkheim
duro
duros
durrani
dus
dutra
duvalier
dvd
dvor
dwight
dy
dyer
dylan
dz
e
eagle
earl
early
earring
earth
east
eastern
eastman
easton
eberhard
ebert
ebria
ebro
ebu
ec
ecb
ecelanta
ecepte
ecesiva
echeverri
echo
echternach
economic
ed
eda
edc
eddie
eddy
eden
edgar
edgerton
edicio
edifici
edifico
edikto
edina
edinburgh
edison
editar
editas
editerio
editero
editesis
edition
editis
editisto
editita
edito
editor
editorial
edituri
edituro
edmond
edmonton
edmund
edo
edouard
eds
edu
eduard
eduardo
education
edukado
edukala
edukar
edukesis
edukeso
edukis
edukita
eduko
edvard
edward
edwards
edwardsville
edwin
eek
eesti
ef
efekti
efektiganta
efektigar
efektigas
efektigata
efektigis
efektigita
efektigos
efektive
efekto
efikanta
efikeskas
efikeskis
efikiva
efikive
efikiveso
efiko
egala
egale
egalesas
egaleso
egardas
egardata
egarde
egardesas
egardis
egea
egipti
egiptia
egiptian
egiptiana
egiptiani
ei
eichmann
eiffel
ein
eine
einstein
eiri
eisenhower
eisinga
ek
ekfluas
ekflueyo
ekirar
ekiras
ekiris
ekiro
ekleziala
eklezii
eklezio
eklipso
eklund
ekman
ekmigranti
ekmigrar
ekmigris
ekmigro
eko
ekologiala
ekologio
ekonomial
ekonomiala
ekonomiale
ekonomii
ekonomikala
ekonomikisti
ekonomikistino
ekonomikisto
ekonomiko
ekonomio
ekosistemi
ekosistemo
ekpulsar
ekpulsas
ekpulsesas
ekpulsesis
ekpulsis
ekpulsita
ekpulso
el
ela
elaine
elastika
elba
elbaradei
elbe
eldridge
ele
eleanor
electric
elefanti
elefanto
eleganta
elektala
elektar
elektas
elektata
elekteri
elektesas
elektesis
elekti
elektis
elektita
elekto
elektra
elektral
elektrala
elektrika
elektro
elektromagnetala
elektromagnetismo
elektronala
elektroni
elektronika
elektronikal
elektronikala
elektroniko
elektrono
elementala
elementi
elemento
elena
elevita
elgin
eli
elia
elias
eliel
eliminar
eliminis
elimino
eliot
elis
elisabeth
eliti
elito
eliza
elizabeth
elk
elkhart
elkton
ella
ellen
ellice
elliot
elliott
ellis
ellsworth
elmo
elmore
elqua
else
elton
elu
elua
elvis
ely
em
emanuel
emanuele
embargo
emblemo
embriono
emendesis
emendo
emersis
emerson
emfazas
emfazis
emfazo
emi
emil
emilia
emiliano
emilio
emily
eminenta
emirii
emirio
emiro
emisas
emiso
emma
emmanuel
emmy
emo
emocala
emoci
emoco
empire
empirikala
employas
employati
employato
employeso
employi
employis
employo
en
enca
encenigo
enciklopedio
encyclopedia
end
endemika
enduktar
enduktesis
enduktis
endukto
enemika
enemiki
enemiko
energiala
energio
enfluanti
enfluanto
enfluas
enfokigas
enfokigis
engajar
engajesis
engajis
engelbert
engels
english
enid
enirar
eniras
enireyo
eniri
eniris
eniro
enkarcerigar
enkarcerigesas
enkarcerigesis
enkarcerigis
enkarcerigita
enkarcerigo
enklavo
enkorpigar
enkorpigas
enkorpigesis
enkorpigis
enkorpigita
enkorpigo
enmigrado
enmigranti
enmigranto
enmigrinti
enmigris
enmigro
ennave
enorma
enrejistrata
enrejistresas
enrejistresis
enrejistris
enrejistrita
enrico
enrique
ensemble
ensembli
ensemblo
entablamento
enterprise
entertainment
enti
ento
entote
entraprezi
entraprezis
entraprezisti
entraprezisto
entraprezo
entre
entreneri
entrenero
entrenis
entrenisto
entreno
entuziasmo
enurbala
envelopas
envelopilo
envidio
envidiozo
envolvas
enz
enzimi
eo
ep
ephraim
epicentro
epidemii
epidemio
epika
epikajo
epikuro
episkopi
episkopio
episkopo
epistemologio
epistolo
epizodi
epizodo
epoka
epoki
epoko
equacioni
equaciono
equador
equadorana
equatorala
equatoro
equilibro
equinoxo
equipita
equipo
equipuri
equipuro
equitato
equivalanta
equivalanto
equivalas
equivalo
er
era
erasmus
erci
erco
erectus
erektita
erfurt
eric
erich
erie
erik
eriksson
eritrea
ernest
ernesto
ernst
ero
erodo
erori
eroro
erste
eruditi
erudito
eruptas
erupti
eruptis
erupto
erwin
erza
es
esa
esabas
esabis
esabus
esanta
esante
esar
esas
esayi
esayisto
esayo
escobar
escorial
esenca
esencala
esence
esenco
esez
esforcas
esforci
esforcis
esforco
esinta
esinte
esir
esis
eskadro
eskalero
eskapar
eskapas
eskapis
eskapo
eskarto
eske
eskombri
eskombro
esma
esor
esos
espadi
espado
espan
espelo
esperantala
esperantista
esperantisti
esperantisto
esperanto
espero
espi
espinho
esquadala
esquadi
esquado
esquivel
essas
essays
essex
est
esta
establisar
establisas
establisata
establisesas
establisesis
establisis
establisita
establiso
establisuro
estado
estaing
estal
estala
estates
este
esteban
estela
estetiko
esther
esti
estimata
esto
estonia
estoniana
estoniane
estoril
estrada
estuario
estudios
esus
eswatini
et
eta
etaja
etaji
etajo
etapi
etapo
etc
eterna
ethnologue
etikala
etiko
etimologiala
etimologio
etiopia
etiopian
etiopiana
etiopiani
etna
etniala
etniale
etnii
etnio
etowah
eu
eufrati
euge
eugen
eugene
eugenio
eugenius
euklid
euklidana
euler
euratom
eurazia
euraziana
eureka
euri
eurico
euro
eurodance
europa
europala
europan
europana
europani
europano
europe
european
eurovision
euroviziono
eurozono
eusebio
eva
evakuar
evakuesas
evakuesis
evakuo
evaluar
evaluas
evaluita
evaluo
evangeliala
evangelio
evans
evansville
evanta
evante
evar
evaristo
evas
eve
eventabis
eventajo
eventar
eventas
eventeyo
eventi
eventinta
eventis
evento
eventos
eventuala
eventuale
eventus
ever
everest
everglades
everly
evic
evidenta
evidentaji
evidentajo
evidente
evinta
evinte
evis
evitar
evo
evolucionar
evolucionas
evolucionis
evoluciono
evoza
ex
exakta
exakte
exameni
exameno
exekutar
exekutas
exekutis
exekutita
exekutiva
exekutivo
exekuto
exemple
exempleri
exemplero
exempli
exemplo
exercado
exercar
exercas
exerci
exercis
exerco
exeter
exilar
exilas
exilesas
exilesis
exileso
exilis
exilita
exilo
existanta
existar
existas
existinta
existis
existo
exkluziva
exkluzive
exkomunikas
exkursi
exkurso
exotika
exp
expansar
expansas
expansesis
expansis
expanso
expedicioni
expediciono
expektas
expektis
expekto
experienci
experiencis
experienco
experimentado
experimentala
experimenti
experimento
experti
experto
explicita
explikar
explikas
expliki
explikis
expliko
explorado
explorar
exploras
exploreri
explorero
explori
exploris
exploristo
exploro
explotado
explotar
exploto
explozas
explozi
explozigas
explozis
explozivi
explozo
expo
exportacaji
exportacajo
exportacar
exportacas
exportacata
exportacero
exportaci
exportacis
exportaco
expozas
expozesas
expozi
expozis
expozo
expresa
expresar
expresas
expresis
expresita
expreso
express
expresuri
expresuro
extensa
extensar
extensas
extensesis
extensis
extensita
extenso
exter
extera
exterajo
exteral
exterala
extere
exterlanda
exterlandal
exterlandala
exterlandana
exterlandani
exterlande
exterlando
extingesis
extingita
extingo
extra
extraktado
extraktar
extraktas
extraktita
extrakto
extraordinara
extrema
extremadura
extremaji
extremajo
extreme
extremisti
eye
eyo
ez
ezequiel
ezra
f
fa
fabi
fabla
fabli
fabrikado
fabrikanto
fabrikar
fabrikas
fabrikerii
fabrikerio
fabrikesis
fabrikis
fabrikita
fabriko
facanta
facar
facas
facata
face
facebook
faces
facesar
facesas
facesis
facez
facii
facila
facile
facileso
faciligar
faciligis
facio
facis
facita
factbook
facto
fado
faero
fair
fairbanks
fairfax
fairfield
fairi
fairo
fairview
faisal
faith
faki
fako
fakte
fakti
fakto
faktori
faktorio
faktoro
fakultati
fakultato
falar
falas
falcon
falias
faliis
falio
falis
falklandi
fall
fallon
falls
falo
falsa
fame
familiala
familiani
familiara
familii
familio
familionomo
family
famino
famo
famoza
fang
fangio
fango
fantastika
fantaziaji
fantomo
far
farabundo
faraoni
faraono
farbi
farbo
farc
fare
faria
faribault
farino
farm
farmaciala
farmacio
farmakologiisto
farmeyi
farmeyo
farmington
farmisti
farmisto
farmo
faro
farrell
farrow
fasado
fashismo
fashista
faso
fasono
fatigita
fatimid
fato
faure
faustino
favorar
favore
favorebla
favoris
favoroza
favoroze
fayette
fayetteville
fazeolo
fazi
fazo
fbi
fc
fe
febla
febleskis
febleso
febligis
febro
februaro
federal
federala
federata
federation
federico
federis
federita
federiti
federito
federo
federuro
feldi
feldo
felica
felice
feliceso
felipe
felix
felo
femina
feminala
femini
feministo
femino
femme
fenduro
fenestri
fenestro
feniciana
feniciani
fenomeni
fenomeno
fer
fera
ferdinand
ferdinando
ferdinandus
ferenc
ferguson
feringa
ferio
ferma
fermentaco
fermi
ferna
fernandes
fernando
fero
feroca
ferovoyala
ferovoyi
ferovoyo
ferrari
ferraz
ferreira
ferrer
ferry
fertila
fertileso
fervoyala
fervoyi
fervoyo
festi
festival
festivali
festivalo
festo
feto
feudala
feudismo
fi
fiat
fibri
fibro
fico
fidel
fidela
fideleso
fideli
fidji
fidjiana
fidjiani
fido
field
fields
fiereso
fierro
fifa
figaro
fight
fighting
figueiredo
figueres
figueroa
figuri
figuro
fika
fiktiva
fiktivajo
filadelfia
filantropo
file
filho
fili
filiala
filii
filiini
filiino
filino
filio
filip
filipe
filipinana
filipini
filippo
filiuli
filiulo
fillmore
film
filmi
filmifisti
filmifistino
filmifisto
filmo
filmografio
filo
filologio
filologo
filozofi
filozofiala
filozofii
filozofino
filozofio
filozofo
fin
fina
finajo
final
finala
finalo
financal
financala
financale
financi
financizo
financo
finanta
finar
finas
fine
fingri
fingro
fini
finigar
finigis
finir
finis
finita
finlandan
finlandana
finlandane
finlandani
finlandia
finlando
finney
fino
finos
fire
firenze
firmi
firmo
first
fischer
fish
fisher
fishi
fisho
fiskala
fitzgerald
five
fixa
fixigar
fixigita
fixita
fizika
fizikal
fizikala
fizikisti
fizikisto
fizikistulo
fiziko
fiziologiala
fiziologiisto
fiziologio
flagi
flago
flamengo
flamo
flandria
flandriana
flandriani
flanki
flanko
flarado
flash
flaubert
flava
flavatra
flavius
flechi
flecho
fleetwood
fleming
flereto
flevoland
flexebla
flexione
flexiono
flint
flor
flora
florence
flores
flori
florian
floriano
florida
florifas
florifis
floris
floro
flotacanta
floti
floto
floyd
fluanta
fluas
flugado
fluganta
flugante
flugar
flugas
flugeskar
flugi
flugis
flugo
flui
fluidi
fluido
fluo
flutisto
fluto
fluviala
fluvii
fluvio
fly
fm
fo
fokker
foko
fola
foliaro
folii
folio
folioza
folk
folklorala
folkloro
folwark
fonda
fondado
fondar
fondas
fondata
fonderi
fondero
fondesas
fondesis
fondeso
fondinta
fondinti
fondinto
fondis
fondita
fondo
fonduro
fonemi
fonemo
fonetikala
fonetiko
foni
fono
fonologio
fonseca
fontaine
fonteno
fonti
fonto
football
for
fora
forall
forbes
force
forci
forco
ford
fore
foreign
forest
foresta
forestala
foresti
foresto
forever
foriras
foriris
fork
forma
formacante
formacar
formacas
formacesar
formacesas
formacesis
formacis
formacita
formaco
formacuri
formacuro
formala
formale
formar
formato
forme
former
formi
formiki
formo
formuli
formulo
forno
forrest
forsan
forsska
forsyth
fort
forta
fortaleza
forte
forteso
fortifikajo
fortifikita
fortifikuri
fortifikuro
fortran
fortresi
fortreso
fortuno
forum
forumi
forumo
fosato
fosfato
fosfo
fosila
fosili
foster
fosto
fotografado
fotografar
fotografis
fotografisti
fotografisto
fotografita
fotografo
fotografuraro
fotografuri
fotografuro
fotosintezo
foucault
foundation
fountain
four
fourier
fox
foxi
foxo
foye
foyi
foyo
fr
fra
frac
fraciono
fragmenti
fragmento
frajila
frame
framo
franc
franca
france
frances
francesco
franci
francia
francian
franciana
franciani
francis
francisco
franciscus
franciskus
franciszek
franck
franco
francois
franjo
frank
frankfort
frankfurt
franki
frankia
frankiani
franklin
franko
frankofonio
frans
frantis
franz
frapar
frapas
frapesas
frapesis
frapi
frapis
frapo
fraser
fratala
frati
fratini
fratino
frato
fratuli
fratulo
fraudi
fraudo
frazi
frazo
fre
fred
freddie
frederic
frederick
frederik
fredrik
free
freeborn
freeman
freeport
freetown
frei
freitas
fremont
french
frequa
freque
frequenco
frequentis
frequeso
fresha
freski
fresno
freud
fri
frida
friedman
friedrich
friends
frisch
fristo
frits
fritz
friulana
friuli
frizia
friziana
from
fromajo
frondizi
front
fronti
frontier
frontierala
frontieri
frontiero
fronto
frost
frosto
frua
frue
fruit
frukti
frukto
frumento
fu
fueli
fuelo
fuentes
fugar
fugas
fugis
fugo
fujimori
fukuoka
fukushima
fula
fulani
fulgencio
full
fulmino
fulton
fumo
fun
funcionado
funcionala
funcionanta
funcionar
funcionas
funcioni
funcionis
funciono
function
fundamentala
fundamenti
fundamento
funde
fundo
fune
funerala
funero
fungi
fungo
funk
fuorti
fuorto
furnisar
furnisas
furnisis
furniso
furo
furtar
furto
fusilagesis
fusili
fusilo
futbal
futbalisti
futbalisto
futbalistulo
futbalo
futuna
futura
future
futuro
fuzas
fuzei
fuzeo
fuzo
fyodor
g
ga
gabon
gabor
gabriel
gabriela
gabriele
gabrielle
gaelana
gaetano
gafotas
gagarin
gainesville
gaius
gajo
gal
gala
galaxiala
galaxii
galaxio
galerii
galerio
galewice
galia
galicia
galilea
galilei
galileo
galisia
galisiana
gallia
galo
galva
galway
gama
gamal
gambi
gambia
gambo
game
games
gamsakhurdia
ganante
ganar
ganas
gandhi
ganesis
gang
ganga
gangnam
ganis
ganistino
ganisto
ganita
gano
ganso
gao
garantiar
garci
garcia
gard
gardar
garden
gardenala
gardeni
gardeno
gardens
gardner
gardo
garfield
garfunkel
garibaldi
garifuna
garland
garnisas
garnisita
garnizoni
garnizono
garrett
garros
garry
gary
gas
gasi
gaso
gaspar
gasti
gastigar
gastigas
gastigis
gasto
gaston
gastronomio
gate
gates
gatsby
gau
gaucho
gauguin
gaulle
gautier
gay
gaye
gayoom
gaza
gazolino
gdan
gdr
ge
gediminas
gees
geiger
gelasius
gemi
gemini
gene
generacioni
generaciono
general
generala
generale
generali
generalitat
generalo
generation
generi
genero
genetikala
genetikisti
genetikisto
genetiko
geneva
genezo
geni
genio
genitado
genitala
genitas
genitis
genitivala
genitivo
genitori
geno
genova
genovana
genri
genro
gent
gentocido
genui
genuo
geoffrey
geografiala
geografiale
geografio
geografo
geologiala
geologio
geologo
geometriala
geometrio
georg
george
georges
georgetown
georgi
georgia
georgios
georgius
gepatri
gepatro
ger
gerais
gerald
gerard
gerardo
gerd
gerhard
gerilera
gerileri
germa
germain
german
germana
germanala
germane
germani
germania
germanian
germaniana
germaniani
germanika
germano
germany
gershwin
gertrude
gervasio
gesellschaft
gespozi
gestapo
get
getto
getu
getx
gety
geun
geya
ghana
ghankay
ghazal
ghazi
gheorghe
ghetto
ghil
ghost
gia
giacomo
gianni
gibb
gibraltar
gibson
gide
giganta
giganto
gil
gilbert
gilberto
gildo
giles
gilles
gillespie
gilly
gilman
gilotino
gimbutas
gimnastikino
gimnastikisti
gimnastikistino
gimnastikisto
gimnastikistulo
gimnastiko
gimnazio
gino
ginza
giorgio
giovanni
gipso
girl
girls
girolamo
gis
gitari
gitaristo
gitaro
giulio
giuseppe
gje
glacial
glaciala
glacieri
glaciero
glacio
gladstone
glam
glandi
glasgow
glasman
glaso
glass
glata
glen
glendale
glenn
glenwood
glit
global
globala
globe
globo
gloria
glorio
glorioza
glu
glushkovo
gm
gnaeus
gnassingbe
go
goa
god
goddard
gode
godfrey
godoy
godunov
goebbels
goes
goethe
gogh
goguryeo
goia
golan
gold
golden
golding
golf
golfo
goli
golo
gologardisto
gomera
gomes
gon
gonc
goncalo
gone
gonza
gonzaga
gonzalo
good
goodman
google
gorbachyov
gordo
gordon
gore
gorky
gormaz
goshen
gospel
got
gotha
goti
gotika
gottfried
gottlieb
goulart
gov
government
governo
goya
gra
grabisto
graburo
gracchus
grace
graco
gradi
gradiento
grado
gradope
graf
graff
grafik
grafika
graham
grama
gramatikala
gramatiko
grami
gramini
grammar
grammatik
grammy
gramsci
gran
granada
granados
grand
granda
grandaparte
grande
grandega
grandesi
grandeso
grandioza
grandpolonia
grandview
granger
grani
granite
granito
grano
grant
grantar
grantas
grantesas
grantesis
grantis
grantita
gras
grasa
graso
grass
gratuita
grau
grava
grave
gravideso
gravitado
gravitala
gravito
gray
gre
great
greater
greatest
greco
greece
green
greene
greenfield
greensboro
greensburg
greenup
greenville
greenwich
greenwood
gregoriala
gregorio
gregorius
gregory
greka
greke
greki
grekia
grekiana
greko
grenada
grenadini
grenlando
grenoble
grenville
greta
grey
griffith
grigori
grimes
grimm
gripo
griza
gro
groningen
grosa
grosiera
gross
grosso
groto
ground
group
groups
grove
grover
grozni
gru
grundy
grupala
grupi
grupo
gruzia
gruziana
gryaznaya
gu
gua
guadalajara
guadalcanal
guadalupe
guadelupa
guam
guanabara
guangzhou
guanta
guarani
guararapes
guardia
guardian
guardo
guas
guatemala
guatemalana
guayaquil
guberniestri
guberniestro
gubernio
gudro
gue
guernsey
guerra
guerrero
guevara
guez
guglielmo
gui
guidar
guide
guidita
guido
guillaume
guillermo
guimara
guinea
guinness
gujarat
gulf
gulfo
gulfport
gumo
gunnar
gupta
gus
gustaf
gustav
gustave
gustavo
gusto
gutenberg
guthrie
guti
gutie
guvernado
guvernal
guvernala
guvernanto
guvernar
guvernas
guvernata
guverneriala
guvernerii
guvernerio
guvernesis
guverni
guvernis
guvernisteso
guvernisti
guvernisto
guvernita
guverno
guy
guyana
guzma
gyatso
gyo
gyula
h
ha
haag
haakon
haarlem
hab
habana
habarovsk
haber
habib
habila
habileso
habitado
habitantaro
habitanti
habitanto
habitar
habitas
habitata
habitesas
habitesis
habiteyi
habiteyo
habitis
habitita
habsburg
habsburga
habsburgi
habyarimana
hachette
hadji
hadrianus
hagia
hahn
hai
haiku
haile
haircut
haiti
haitiana
haitiani
hakilo
hakim
hale
halen
haley
hali
hall
halldo
halle
halley
halo
halonen
haltar
haltas
halteyi
haltigar
haltigas
haltis
halto
hama
hamas
hamburg
hamid
hamilton
hammarskjo
hammond
hampshire
hampton
han
hancock
handbalo
handbook
hani
hann
hanna
hannes
hannibal
hannover
hano
hanoi
hanover
hans
hansen
hanso
hanti
hanulo
haq
hara
harald
haram
hararo
harbor
harbour
hard
harda
hardeso
hardin
harding
hardy
hari
hariri
harkiv
harlamov
harlan
harlem
harmonio
haro
harold
harper
harpo
harris
harrisburg
harrison
harry
hart
hartford
hartmann
harvard
harvey
has
hasan
hashim
hassan
hastings
hausa
haute
havabas
havaji
havana
havanta
havante
havar
havas
havayi
have
havel
haven
havinta
havis
havos
havus
hawk
hawkins
hawthorne
hay
haydn
hayes
hazardo
hd
he
head
heads
health
heart
heath
heaven
heavy
hebrea
hebree
hebrew
hebridi
hector
hedin
hedonismo
hee
hegel
hegemonio
heidelberg
heidi
heights
hein
heina
heinrich
heinz
heisenberg
hektara
hektari
helen
helena
helene
helikopteri
helikoptero
helio
hell
hella
helmut
helpanta
helpanto
helpar
helpas
helpis
helpita
helpo
helpolingui
helpolinguo
helsinki
hem
hemala
hemanari
hemanaro
heme
hemeo
hemi
hemingway
hemo
henderson
hendrik
hendrix
hennepin
henning
henri
henrik
henrikus
henrique
henry
henryk
henryko
hepato
hepburn
her
herald
herbatra
herbert
herbi
herbie
herbo
here
heredaji
heredajo
heredala
heredanti
heredanto
heredia
heredinti
heredinto
heredis
heredo
hereziani
herezio
heritage
herman
hermann
hermes
hermosillo
herna
hernando
hero
heroala
heroeno
heroes
heroi
heroino
heroo
herrera
herschel
hertz
herzegovina
herzog
hesia
hess
hesse
het
heydar
heyerdahl
heyward
hi
hialeah
hickory
hicks
hidalgo
hideki
hidraulikala
hidro
hidroelektrala
hidroelektro
hidrogena
hidrogeno
hidrografiala
hierarkio
hiere
hieroglifi
higgins
high
highland
highway
higieno
hike
hill
hillary
hills
hillsboro
hilversum
himalaya
himni
himno
hinckley
hindenburg
hindi
hindu
hindua
hindui
hinduismo
hinduisti
hip
hipo
hipodromo
hipotezala
hipotezi
hipotezo
hiroshima
his
hisp
hispan
hispana
hispane
hispani
hispania
hispanian
hispaniana
hispaniani
hispaniola
hispanlingua
histo
histoire
historia
historial
historiala
historiale
historical
historii
historiisti
historiisto
historio
historiografio
history
hitler
hits
hjalmar
hler
hlinka
hlungen
hms
ho
hobart
hodgkin
hodiala
hodie
hoffa
hoffman
hoffmann
hogben
hokeisti
hokeisto
hokeo
hokkaido
hoko
holando
holden
holgui
holi
holiday
holland
hollande
hollerith
holly
hollywood
holmes
holokausto
holstein
holt
holy
hom
homa
homajanta
homajas
homaje
homajo
homal
homala
homaro
home
homeosexuali
homeros
homi
homiel
homina
homini
hominidi
homino
homme
homo
homogena
homonimo
homuli
honda
hondecoeter
honduras
hondurasana
hong
honolulu
honor
honore
honori
honorius
honorizar
honoro
honorumala
honshu
hood
hooker
hoover
hop
hope
hopkins
hopper
hora
horala
horatio
horbava
hordeo
hordo
hori
horizons
horizontala
horizontale
horizonte
horizonto
horloji
horlojo
horn
horo
hororo
horse
horst
hortus
hosni
hospital
hospitali
hospitalo
hosti
hosto
hot
hotel
hoteli
hotelo
houphoue
house
houston
how
howard
howe
hoxha
hoyt
hrodna
hrushchyov
htm
html
http
https
hu
hua
huang
hubbard
hubble
hubert
hudson
hue
huerta
huesca
hufajo
hugenoti
hugh
hughes
hugo
hugues
hui
hull
human
humana
humanismo
humberto
humboldt
hume
humida
humideso
humileso
humori
humoro
humphrey
humuristo
humuro
hundi
hundo
hundred
hungara
hungari
hungaria
hungarian
hungariana
hungariani
hungro
huni
hunt
hunter
huntington
huntsville
huron
hurt
hurtado
hus
hussain
hussein
hutchinson
hutor
hutu
huxley
huygens
huysmans
hwan
hyde
hyderabad
hye
hyun
hyundai
i
ia
iaea
iala
ian
ias
iata
iba
ibarra
ibe
iberia
ibero
ibge
ibiza
ibm
ibn
ibo
ibrahim
ic
ica
icao
ice
ich
ichak
ichiro
ici
ico
id
ida
idaho
idala
idale
ide
ideal
ideala
ideali
idealo
idei
identa
identeso
identifikar
ideo
ideologiala
ideologii
ideologio
idi
idiom
idiomi
idiomo
idista
idisti
idisto
ido
idolinguo
ie
ierusalem
iesu
if
igar
igas
igis
iglesias
ignacio
ignaco
ignacy
igor
iguac
ii
iii
iji
ikoni
il
ili
ilia
iliado
iliria
illinois
ilqua
ilu
ilua
ilustristo
ilustrita
ilya
im
image
imaginala
imaginita
imaji
imajo
imamo
imdb
imensa
imf
img
imito
immanuel
imobli
imoblo
impedar
impedas
impedis
imperas
imperial
imperiala
imperiestri
imperiestrino
imperiestro
imperii
imperio
imperis
impero
implikas
impliko
importacar
importacas
importaci
importacita
importaco
important
importanta
importas
importo
imposti
imposto
impozar
impozas
impozis
impozita
impresionismo
impresionista
impreso
imprimesas
imprimita
imprimo
imprimuri
imprimuro
impulso
imre
imunologiisto
in
ina
inauguras
inauguresas
inauguresis
inauguris
inaugurita
inauguro
inc
incendiala
incendias
incendii
incendio
incheon
incidenti
incidento
incitas
indemno
independence
independent
index
indexo
india
indian
indiana
indianapolis
indiani
indico
indii
indijena
indijeni
indijeno
indijo
indikar
indikas
indikesas
indikesis
indikis
indikita
indiko
indira
individua
individuala
individui
individuo
indo
indochinia
indonesia
indonezia
indoneziana
indus
industrial
industriala
industrii
industriisto
industriizita
industrio
ine
inen
infantala
infanteso
infanti
infanto
infantrio
infektanta
infektata
infektita
infektiva
infekto
inferiora
inferno
infinita
inflaciono
inflamuri
inflamuro
influanta
influar
influas
influata
influenzo
influesas
influesis
influi
influinta
influis
influita
influiva
influo
influro
info
inform
informajo
informar
informas
informatikala
informatiko
information
informeso
informi
informis
informo
infra
infrasilezia
infre
ingermanlando
ingmar
ingredienti
ingrediento
ingrid
ingushia
iniciala
iniciis
injeniorarto
injeniori
injenioro
inkai
inkao
inklineso
inklinita
inkluzanta
inkluzante
inkluzar
inkluzas
inkluzata
inkluze
inkluzesis
inkluzinta
inkluzinte
inkluzis
inkluzita
inkluzite
inko
inkursi
inkurso
innsbruck
ino
inocentius
inquestado
inquestar
inquestas
inquesti
inquestisti
inquesto
inquiziciono
insekt
insekti
insekto
insigni
insigno
inspektisti
inspiresis
inspiris
inspirita
inspiro
instalar
instalas
instalesis
instalis
instalita
instalo
instaluri
instaluro
instanco
instante
instanti
instanto
instigis
institucala
institucuri
institucuro
institut
institute
instituti
instituto
instrukti
instruktisto
instruktita
instrukto
instrumentala
instrumenti
instrumento
insul
insulala
insulana
insulani
insuleti
insuleto
insuli
insulo
int
intal
integer
integra
integreso
integrigita
intelektala
intelekto
intelektozi
intelektuali
inteligenta
inteligenteso
intencas
intencata
intence
intenci
intencis
intencita
intenco
intensa
intense
intenseso
inter
interago
interaltre
interdiktar
interdiktas
interdiktata
interdiktesas
interdiktesis
interdiktis
interdiktita
interdikto
interegala
interesanta
interesas
interesata
interesi
interesis
interesiva
intereso
interesti
interesto
interfero
interkonsento
interlanguages
interlingua
interlingue
interlinguisto
intermariajis
interna
internaciona
internacional
internacionala
internacionalo
internacione
internajo
internal
international
internationale
interne
internet
interpretado
interpretar
interpretas
interpretis
interpreto
interretala
interreto
interrupto
interseko
intersequanta
interstate
intertempe
intervalo
intervenar
intervenas
intervenis
interveno
interviuvo
intestino
intima
into
introduction
introduktas
introduktesis
introduktis
introdukto
inundadi
inundado
inundebla
inundo
invadar
invadas
invaderi
invadesas
invadesis
invadi
invadis
invado
inventas
inventero
inventesas
inventesis
inventinto
inventis
inventisti
inventisto
inventita
invento
inventuro
inversa
inverse
inverso
invitas
invitesis
invitis
io
ioan
ioannes
ioannis
iok
ion
ioni
iono
iosif
iowa
ipce
ipsa
ipse
ir
ira
iraco
irak
irakana
iran
irana
iranan
iranana
iranta
irante
irar
iras
irene
irga
irgakaze
irgu
irigaco
irina
iris
irkutsk
irlandan
irlandana
irlandani
irlando
iron
irondale
iroquois
iros
irving
irwin
is
isa
isaac
isabel
isabelle
isamu
isbn
isidore
isidro
isla
islama
islamabad
islamala
islamana
islamani
islamo
island
islandana
islando
isle
islom
ismael
ismail
iso
israel
israelan
israelana
israelani
israeli
ist
istanbul
istmo
istva
it
ita
itaipu
itala
italia
italian
italiana
italiane
italiani
italiano
italo
itamar
itasca
itere
ito
its
iturbide
iulius
ius
iustinianus
iv
iva
ivan
ivanavich
ivanov
ivanovich
ivanovka
ivar
ivo
ivora
ivoro
iwo
ix
iz
izolata
izolita
izotopi
j
ja
jaber
jacanta
jacante
jacar
jacas
jacek
jaceyi
jacinto
jacis
jack
jackie
jackson
jacksonville
jacob
jacobo
jacobs
jacopo
jacques
jade
jae
jagan
jah
jaime
jair
jakarta
jakob
jam
jamaica
jamaika
jamaikan
jamaikana
james
jamestown
jamiroquai
jan
jana
jane
janeiro
janet
janez
janio
janis
janko
jano
januaro
january
japan
japonia
japonian
japoniana
japoniane
japoniani
jaroslav
jason
jasper
java
javier
jawara
jay
jaz
jazo
jazz
je
jean
jeanne
jedi
jeff
jefferson
jeffrey
jehova
jelena
jeleznogorsk
jemela
jemeli
jenkins
jennifer
jenri
jenro
jens
jensen
jerado
jeremy
jeresas
jeris
jero
jerome
jerry
jersey
jerusalem
jerzy
jespersen
jesse
jessica
jesu
jesus
jet
jetado
jetar
jewell
jewish
jez
jeziorko
jezuita
jezuiti
jezuito
ji
jibeto
jigme
jihad
jim
jima
jime
jimi
jimmy
jin
jinnah
jinping
jir
jo
joa
joachim
joan
joaqui
joaquim
joaquin
jobim
joe
joel
jogaila
johan
johann
johanna
johannes
johannesburg
johansson
john
johnny
johns
johnson
johnston
jokei
jokeo
joko
joliot
jolla
jomo
jon
jonas
jonathan
jones
jonesboro
jong
joplin
jorda
jordan
jordania
jorge
jorno
jose
josef
joseon
joseph
josephine
joshua
josip
journal
jovdio
jovellanos
jovice
joy
joyce
joyner
joyo
jozef
jpg
jr
ju
jua
juan
juana
juar
juas
juche
juda
judaismo
judala
judas
judd
judea
judge
judi
judicial
judiciala
judiciar
judicias
judiciesas
judiciesis
judicii
judiciisti
judiciisto
judicio
judikar
judikas
judikata
judikesar
judikesas
judikesis
judikis
judikita
judiko
judith
judoisti
judoistino
judoisto
judoo
judy
juho
juis
jukov
jules
julia
juliala
julian
juliana
julianus
julie
julien
julio
julius
junction
june
jung
jungle
junglo
junio
junior
juno
juntar
juntas
juntesas
juntis
juntita
jupitero
jurisprudenco
jurnalaro
jurnali
jurnalisti
jurnalistino
jurnalisto
jurnalo
jus
juscelino
jussi
just
justa
juste
justeso
justice
justin
justinianus
justo
jutlando
juveli
k
ka
kaarlo
kab
kabila
kabli
kablo
kabo
kabul
kad
kadavri
kadavro
kadirov
kadro
kafeerii
kafeerio
kafeo
kafka
kaganio
kai
kaida
kaifeng
kaikos
kaiman
kairo
kaj
kakao
kal
kalabria
kalcio
kaledonia
kalendarii
kalendario
kalevala
kalifio
kalifo
kalifornia
kaliningrad
kalio
kalko
kalkopetro
kalkular
kalkulas
kalkuli
kalkulis
kalkulita
kalkulo
kalkuta
kalmar
kalorala
kaloro
kaluga
kalva
kam
kamaradi
kambie
kambii
kambio
kambodja
kamchatka
kamehameha
kameli
kamelo
kamen
kameri
kamero
kamerun
kamerunana
kami
kamikaze
kamil
kamioni
kamiono
kampania
kampanii
kampanio
kampeyi
kampeyo
kampo
kan
kanabo
kanada
kanadan
kanadana
kanadani
kanali
kanalo
kanarii
kanceleri
kancelero
kancero
kande
kandidateso
kandidati
kandidato
kandiyohi
kane
kanem
kanio
kankro
kano
kanonala
kanoni
kanono
kansas
kansoni
kansono
kant
kantabria
kantado
kantar
kantas
kantata
kanti
kantis
kantisti
kantistini
kantistino
kantisto
kantistulo
kanto
kanton
kantoni
kantono
kao
kaoso
kap
kapabla
kapablesi
kapableso
kapaceso
kapelo
kapi
kapitali
kapitalismo
kapitalista
kapitalo
kapitanio
kapitano
kapitulacar
kapitulacas
kapitulacis
kapitulaco
kapo
kapodistrias
kapri
kaprikorno
kapro
kapsulo
kaptar
kaptas
kaptesas
kaptesis
kaptis
kaptita
kaptiti
kaptito
kapto
kara
karabakh
karachi
karakorum
karakteri
karakterizas
karakterizata
karakterizesas
karakteriziva
karakterizivi
karakterizivo
karaktero
karate
karavano
karbo
karbobioxo
karbono
karcerani
karcero
kardec
kardinala
kardinalo
karel
karelia
kareliana
karen
karesmo
kargaji
kargajo
kargo
karib
karibia
karibiana
kariero
karim
karimov
karintia
karl
karloman
karnavali
karnavalo
karnivora
karno
karol
karolina
karolingiana
karolini
karolus
karpati
kartagana
kartagani
kartago
karteziana
karti
karto
kartografio
kartografo
kartoludo
kartuno
kasaco
kashmir
kashuba
kashubi
kaski
kasko
kasparov
kasper
kaspia
kassel
kasteli
kastelo
kastilia
kastiliana
kastrioti
kat
katalogo
katalunia
kataluniana
katanga
katar
katarina
katastrofo
katav
kate
katedralo
kategorii
kategorio
katekismo
kateni
kateno
kati
kato
katolik
katolika
katoliki
katolikismo
katoliko
katrina
kauchuko
kaudo
kaukazia
kaukazo
kaulo
kaunas
kaunda
kauzi
kauzo
kava
kavajo
kavali
kavalieri
kavaliero
kavalk
kavalo
kavalriani
kavalrio
kavanaugh
kaverni
kaverno
kay
kayero
kazaki
kazakstan
kazakstanana
kazala
kazan
kaze
kazerno
kazi
kazimierz
kazimierzo
kazini
kazino
kazo
ke
kebekia
kei
keith
kekkonen
kelk
kelka
kelkafoye
kelkatempe
kelke
kelki
keller
kellogg
kelly
kelta
kelti
kemal
kemerovo
kemial
kemiala
kemiisti
kemiisto
kemio
kempo
ken
kendall
kenia
kenian
keniana
kennedy
kenneth
kenny
kenobi
kent
kenton
kentucky
kenyatta
keokuk
kepler
kerala
kern
kerno
kerry
keukenhof
kevin
key
keynes
kg
kha
khalid
khalifa
khan
khartoum
khl
khmer
khoisan
khomeini
ki
kia
kickboxing
kid
kidnapas
kidnapesas
kidnapo
kids
kiel
kielce
kierkegaard
kiiv
kik
kill
kilogrami
kilometra
kilometri
kilometro
kim
kimi
kin
kinesma
king
kingdom
kingman
kings
kingston
kinshasa
kipling
kirchner
kirgizia
kirgiziana
kirgizistan
kiribati
kirila
kirki
kirko
kirov
kirurgio
kiss
kitayevka
kitts
kivi
kiyiv
kiyiva
klamath
klan
klani
klano
klara
klare
klareso
klasi
klasifikar
klasifikata
klasifikesas
klasifikita
klasifiko
klasifikuro
klasik
klasika
klasikala
klaso
klaus
klauzi
klavaro
klefo
klein
kleist
klemens
kleopatra
klerikaro
kleriki
kleriko
kleszczo
klienti
kliento
klifi
klimatala
klimati
klimato
kliniko
kloki
kloko
kloro
kloshi
klostro
klozado
klozar
klozas
klozesas
klozesis
klozilo
klozis
klozita
klozo
klp
klubala
klubi
klubo
kluki
klux
km
kma
knight
know
knox
knoxville
knut
ko
koaktar
koaktas
koaktesas
koaktesis
koaktis
koaktita
koakto
koaliso
koalisuro
kobe
kobehavn
koch
kodexi
kodexo
koeficiento
kofi
koheranta
koi
koincidas
koincidis
kokaino
kokoso
kolda
koldeso
kolegi
kolegii
kolegio
kolego
kolektaji
kolektajo
kolektar
kolektas
kolekteri
kolektis
kolektita
kolektiva
kolekto
kolekturi
kolekturo
kolero
kolini
kolino
kolinoza
kolizionas
kolizioni
kolizionis
koliziono
kolo
kolokadi
kolokado
koloko
kolombi
kolombo
kolonelo
koloni
kolonia
kolonial
koloniala
kolonialismo
koloniani
kolonieti
kolonieto
kolonigiisti
kolonii
koloniigar
koloniigesis
koloniigis
koloniigisti
koloniigo
koloniisti
kolonio
kolono
kolora
kolorado
kolori
kolorizita
koloro
koloroza
kolumbia
kolumbian
kolumbiana
kom
komandanto
komandar
komandas
komandata
komandero
komandesis
komandinto
komandis
komandita
komando
kombat
kombatanti
kombatanto
kombatar
kombatas
kombati
kombatis
kombato
kombinas
kombinesis
kombinita
kombino
kombinuri
kombinuro
kombustivi
kombustivo
kombusto
komedii
komediisti
komediistino
komediisto
komedio
komencabis
komencala
komencanta
komencante
komencar
komencas
komence
komencinta
komencis
komencita
komenco
komencos
komentis
komercal
komercala
komercale
komercar
komercis
komercisti
komercisto
komerco
kometi
kometo
komforto
komi
komika
komikisto
komintern
komisario
komisesis
komisiono
komisis
komisita
komisitaro
komiso
komitati
komitato
komnenos
komo
komoni
komono
komori
kompakta
kompanii
kompanio
kompano
komparas
komparata
kompare
komparez
komparis
komparita
komparo
kompense
kompenso
kompetenta
kompilis
kompilita
kompilo
komplemento
kompleta
komplete
kompleteskas
kompleteskis
kompletigar
kompletigas
kompletigata
kompletigesis
kompletigis
kompletigita
kompletigo
komplexa
komplexeso
komplexo
komploto
komporto
kompozado
kompozaji
kompozajo
kompozanti
kompozanto
kompozar
kompozas
kompozata
kompozesas
kompozesis
kompozi
kompozis
kompozisti
kompozistino
kompozisto
kompozistulo
kompozit
kompozita
kompozo
kompozuri
kompozuro
komprar
kompras
komprebla
komprenar
komprenas
komprenebla
komprenis
komprenita
kompreno
kompresis
kompreso
kompris
komprita
kompro
kompromiso
komputera
komputerala
komputeri
komputero
komputori
komputoro
komti
komtii
komtio
komto
komuna
komune
komunesi
komuneso
komunikado
komunikar
komuniki
komunikili
komuniko
komunismo
komunista
komunisti
komunitati
komunitato
kon
konan
koncentrar
koncentras
koncentresas
koncentreso
koncentreyi
koncentreyo
koncentris
koncentrita
koncentro
konceptaji
konceptajo
koncepti
konceptita
koncepto
koncernanta
koncernas
koncernata
koncerne
koncernis
koncernita
koncerti
koncerto
koncianta
koncienco
koncilo
koncio
kondamnas
kondamnesas
kondamnesis
kondamnis
kondamnita
kondicione
kondicioni
kondiciono
kondimento
kondukto
konduti
konduto
konektar
konektas
konektesas
konekti
konektis
konektita
konekto
konferani
konferenco
konferi
konfero
konfesas
konfido
konfirmas
konfirmesis
konfirmis
konfiskas
konflikti
konflikto
konforme
konfrontar
konfrontas
konfronti
konfrontis
konfronto
konfuceismo
konfuza
konfuzeso
konfuzo
kong
kongo
kongregaciono
kongresi
kongreso
koniferi
koninginnedag
konjugado
konkava
konki
konkluzi
konkluzis
konkluzo
konko
konkordas
konkordis
konkordo
konkreta
konkurencantino
konkurencanto
konkurencar
konkurenco
konkursar
konkursas
konkursi
konkursis
konkurso
kono
konocar
konocas
konocata
konocesas
konocesis
konoceskis
konoci
konocis
konocita
konoco
konquestar
konquestas
konquestero
konquestesis
konquesti
konquestis
konquestita
konquesto
konquestos
konrad
konsakris
konsakrita
konsentis
konsento
konseque
konsequi
konsequo
konservar
konservas
konservata
konservatorio
konservema
konservemi
konservesas
konservis
konservita
konservo
konsiderar
konsideras
konsiderata
konsideresas
konsideresis
konsiderinda
konsideris
konsiderita
konsilantaro
konsili
konsilio
konsilistaro
konsilisto
konsilo
konsistanta
konsistas
konsistinta
konsistis
konsolo
konsonanti
konsonanto
konspiro
konstans
konstanta
konstante
konstantin
konstantinoplo
konstantinos
konstantinovich
konstantinus
konstanto
konstatas
konstatis
konstitucal
konstitucala
konstitucanta
konstitucas
konstituci
konstituco
konstruktado
konstruktar
konstruktas
konstruktata
konstruktesar
konstruktesas
konstruktesis
konstruktis
konstruktisto
konstruktita
konstrukto
konstrukturi
konstrukturo
konsuli
konsulo
konsultar
konsumas
konsumata
konsumeri
konsumo
kontadi
kontado
kontakti
kontakto
kontaminita
kontar
kontas
kontenajo
kontenanta
kontenar
kontenas
kontenata
konteninta
kontenis
kontenita
konteno
kontenta
kontesto
kontexto
kontigua
kontinental
kontinentala
kontinenti
kontinento
kontinua
kontinue
kontisto
konto
kontori
kontoro
kontra
kontrabando
kontraste
kontratas
kontrati
kontrato
kontre
kontrea
kontreajo
kontreatako
kontree
kontrekulturo
kontrepapo
kontributas
kontributi
kontributis
kontributo
kontrolar
kontrolas
kontrolata
kontrolesas
kontrolesis
kontrolis
kontrolita
kontrolo
kontroversala
kontroversi
kontroverso
konvekto
konvencionala
konvencioni
konvenciono
konvergas
konvertar
konvertas
konvertesis
konvertis
konvertita
konverto
konvexa
konvinkis
kool
koongya
kooperado
kooperativi
koopero
koordinati
kootenai
kopernikus
kopii
kopio
kopis
kopiuri
kopiuro
kopta
koqu
koquado
koquarto
koqueyo
koquita
koquo
korala
koralia
koralii
koralio
koram
korano
korbo
kord
kordet
kordeto
kordi
kordiala
kordio
kordo
kordoba
korea
korean
koreana
koreane
koreani
korekta
korekte
korenevo
korento
korespondanta
korespondar
korespondas
korespondo
koridoro
korkino
korni
kornico
korno
kornwal
kornwalana
koro
koronaviruso
korpala
korpi
korpo
korporaciono
korsakov
korsaro
korsika
korta
korti
kortico
korto
korupta
korupteso
korupto
korvo
kos
kosmala
kosmo
kosmodromo
kosmologio
kosmonauti
kosmonauto
kosmonavi
kosmonavo
kosmoprobili
kosmoprobilo
kosmosondilo
kosmostacioni
kosmostaciono
kosovo
kossuth
kosta
kostroma
kostumi
kostumo
kotava
kotono
kou
kova
kovid
kovranta
kovrar
kovras
kovrata
kovresas
kovresis
kovrilo
kovris
kovrita
kovro
kozi
kozo
kr
kraftwerk
krakas
krako
kranio
krapiwna
krasnaya
krasni
krasnogorski
krasnoyarsk
krasnoye
kratero
krayono
kreabis
kreado
kreanta
kreante
krear
kreas
kreata
krebs
kredaji
kredanti
kredar
kredas
kredi
kredis
kredo
kreesas
kreesis
kreinta
kreinto
kreis
kreita
kreiva
kremlin
kremo
kreo
kreola
kreolo
kreskabas
kreskado
kreskanta
kreskar
kreskas
kreskis
kresko
kreskos
krichaw
kriketo
krim
krimea
kriminal
kriminala
kriminero
krimini
kriministi
krimino
kriminozi
krinki
krio
kris
krishna
kristala
kristali
kristalo
kristana
kristani
kristanismo
kristano
kristian
kristin
kristina
kristnasko
kristo
kristonasko
kriterii
kriterio
kriti
kritikala
kritikas
kritikesis
kritiki
kritikis
kritikisti
kritikisto
kritiko
krizego
krizi
krizo
kroata
kroati
kroatia
kroatian
kroatiana
kromosomi
kroni
kroniki
kroniko
kronizas
kronizesas
kronizesis
kronizita
kronizo
krono
kronologio
kruani
kruco
krucomiliteri
krucomiliti
krucomilito
krucumas
kruda
kruela
kruje
krulas
krulis
krulo
kruo
krustacei
krusto
krzyz
ksie
ksw
ktf
ku
kuala
kuba
kuban
kubana
kubani
kubismo
kubitschek
kublai
kubo
kudo
kugli
kuhn
kuki
kuko
kull
kulminis
kulmino
kulpinta
kultelo
kulti
kultivado
kultivar
kultivas
kultivata
kultivebla
kultivesas
kultivi
kultivis
kultivo
kulto
kultur
kultural
kulturala
kulturale
kulturi
kulturo
kum
kumar
kun
kune
kunfederita
kunfederuro
kunfondinto
kunfuzis
kunikli
kuniklo
kunlaborado
kunlaborar
kunlaborinti
kunlaboris
kunlaboro
kunpremiizesis
kunsidi
kunsido
kuntexto
kunvenas
kunveni
kunvenis
kunveno
kunvokar
kunvokas
kunvokesis
kunvokis
kunvoko
kuomintang
kupi
kupo
kupolo
kupro
kur
kuracado
kuracao
kuracar
kuracati
kuracato
kuraco
kuradi
kurado
kurajigar
kurajigis
kurar
kuraso
kurchatov
kurda
kurdi
kurdistan
kurgan
kuriero
kurlando
kuro
kursi
kursk
kurso
kurt
kurta
kurtatempe
kurte
kurteno
kurti
kurva
kurvi
kurvo
kush
kuskuso
kusti
kusto
kustoza
kustuma
kustumala
kustumale
kustume
kustumi
kustumo
kutno
kuusinen
kuvento
kuwait
kuyavia
kuz
kuzino
kuzo
kuzulo
kwame
ky
kyi
kyo
kyoto
kyriakos
kyushu
københavn
l
la
labii
labirinto
labor
laborado
laborala
laboranta
laborar
laboras
laboratorii
laboratorio
laboratory
laboreyo
labori
laboris
laborista
laboristala
laboristi
laboristo
laboro
labour
labrador
lac
lacerda
laden
ladoga
lady
lafayette
lafur
laga
lageto
lagi
lago
lagos
lagrange
laguna
laguno
lahore
lai
laika
lajos
lake
lakeland
lakes
lakeside
lakeview
lakto
lam
lama
lamao
lamar
lami
lamo
lampi
lampo
lana
lancaster
land
landala
landau
landi
lando
landtmann
lane
lang
lange
lango
langston
language
languages
langue
langues
lanka
lano
lansana
lansar
lansas
lansata
lansesas
lansesis
lanseso
lansing
lansis
lansita
lanso
lanzarote
lao
laos
lapido
laponia
lara
large
laringo
larja
larje
larjeso
larry
lars
larsson
larvi
larvo
las
lasar
lasas
lascura
lasis
lasso
last
lasta
lastafoye
laste
laterala
lateri
latero
latin
latina
latinal
latine
latini
latinida
latinigado
latino
latitudi
latitudo
latrino
latuno
latvia
latviana
latviani
lauderdale
laura
laureati
laureato
laurel
laurence
laurent
lauri
lauro
lausanne
laval
lavalle
lavao
law
lawrence
lawson
lazaga
lazarus
lazio
lc
ld
le
lea
leader
league
leal
leau
lebanon
lech
lecioni
led
ledro
lee
leeds
leeuwarden
left
legacy
legal
legala
legale
legaligas
legaro
legend
legendala
legendi
legendo
legi
legifal
legifala
legifantaro
legiono
legisto
legitima
lego
legumi
legumo
lehigh
leibniz
leiden
leifr
leigh
leighton
leipzig
lejer
lejera
lektado
lektar
lektas
lektebla
lektez
lektis
lekto
leland
lemy
lena
lenguas
leni
lenin
leningrad
lennon
lenso
lenta
lente
leo
leon
leonana
leonard
leonardo
leone
leonel
leonhard
leoni
leonid
leono
leopold
leopoldo
lernado
lernanti
lernanto
lernar
lernas
lernis
les
leslie
lesoto
lesseps
lessing
lester
let
lethwei
leto
letri
letro
lettres
lev
levar
levas
levero
levi
levine
levis
levo
levy
lewis
lexiko
lexikologio
lexington
lez
li
lia
libanana
libano
libby
liber
libera
liberal
liberala
liberali
liberalismo
libere
liberesi
libereso
liberia
liberigar
liberigas
liberigesas
liberigesis
liberigis
liberigita
liberigo
libertad
libertadores
liberty
libia
libiana
libraro
library
libre
libreti
libretisto
libreto
libri
libro
licenco
liceo
licinius
lico
lida
lie
liechtenstein
lietnanto
life
liganta
ligar
ligas
ligata
ligesas
light
ligi
ligili
ligilo
ligis
ligita
ligitima
ligna
ligno
ligo
liguro
likas
like
lille
lima
limburg
limburgana
limiti
limitizas
limitizita
limito
limousin
limpopo
lin
linchesas
linco
lincoln
lincolnshire
linda
lindbergh
linden
lindsay
line
lineala
lineara
linei
lineo
lingua
lingual
linguala
linguari
linguaro
lingui
linguisti
linguistic
linguistics
linguistikala
linguistiko
linguisto
linguo
linn
linna
linne
lino
linus
linux
lio
lion
lionel
liozna
lipeck
liquida
liquidi
liquido
liquoro
lirika
liriki
lisa
lisboa
liski
list
lister
listi
listo
liszt
lit
literala
literale
literatur
literatura
literaturala
literature
literaturo
literi
litero
litijo
lito
litorala
litori
litoro
litovsk
litri
little
lituana
lituania
lituaniana
liturgio
liu
liv
livar
livas
live
liverpool
living
livingston
livingstone
livis
livonia
livoniana
livre
livro
lix
lko
ll
lla
ller
lleras
lloyd
lma
ln
lo
lobo
loch
lockheed
log
logan
logaritmi
logaritmo
logika
logikala
logikisto
logiko
logistiko
logo
logotipo
loilem
loire
lojar
lojas
lojeyi
lojeyo
lojis
lokacar
lokal
lokala
lokale
loki
lokizas
lokizita
lokizo
loko
lokomotivi
lokomotivo
lombard
lombarda
lombardi
lombardia
london
lone
long
longa
longatempe
longe
longeso
longitudi
longitudo
loo
lope
lopes
lor
lora
lorca
lord
lordi
lore
lorena
lorenz
lorenzo
los
lost
lothair
lothar
loti
lotringia
lou
louis
louisa
louise
louisiana
louisville
lourenc
louvre
love
low
lowell
loyala
loyaleso
lp
ls
lsd
ltd
lu
lua
luanda
luang
lublin
lubomirski
lubusz
lubyanka
luc
lucas
luchosa
luci
lucia
luciano
lucien
lucio
lucius
lucrezia
lucy
lud
ludanti
ludanto
ludar
ludas
luderi
ludesas
ludesis
ludi
ludili
ludis
ludisti
ludisto
ludo
ludovico
ludwig
ludwino
luftwaffe
lugano
lui
luigi
luis
luiz
luka
lukas
lukashenka
luke
luktado
luktar
luktas
lukti
luktis
luktisti
luktistino
luktisto
luktistulo
lukto
lula
lum
lumi
lumie
lumizo
lumo
lumoradii
lumoza
lumpur
lumumba
lun
luna
lunala
lunar
lundio
luno
lusitania
luterana
luterani
luteranismo
luther
luxemburg
luxemburgia
luxemburgiana
luxoza
luz
luzacia
luzon
lvares
lvarez
lvaro
lviv
ly
lynch
lyndon
lynn
lyon
lyons
lyubimovka
m
ma
maarten
maastricht
mac
macapa
macarthur
macdonald
macedo
macedonia
macedoniana
maceio
mach
machado
machel
machiavelli
machine
mackay
mackenzie
macleod
macmillan
macon
macri
macron
madagaskar
madame
madeira
madero
madinah
madison
madonna
madras
madre
madrid
maduro
mae
maestro
maestroverki
magalha
magan
magazine
magazini
magazino
magdalena
magdeburg
maghreb
magiala
magic
maginot
magna
magnetala
magnezo
magnitogorsk
magnolia
magnus
maharashtra
mahathir
mahatma
mahdi
mahiliow
mahler
mahmoud
mai
maia
maiden
main
maine
mainz
maizo
majlis
major
majora
majoritato
majoro
makau
making
makkah
makuli
mal
mala
malada
maladesi
maladeskis
maladeso
maladi
malado
malaizia
malajo
malaka
malam
malario
malawi
malaya
malaysia
malcolm
maldekstra
maldivi
male
malgre
mali
malik
mall
mallarme
mallory
malmo
maloye
malta
maltana
mama
mamadou
mamas
mami
mamiferi
mamifero
mamluk
mamo
mamore
mamuto
man
mana
management
managua
manaus
mancha
manchester
mancho
mandalay
mandato
mande
mandela
mandibulo
mandjuria
mandjuriani
mandy
manekini
manekinino
manekino
manet
manga
mangano
manglieri
manhattan
maniere
manieri
maniero
manifestas
manifesti
manifestis
manifesto
manila
manioko
manitoba
manjajo
manjar
manjas
manjebla
manjesas
manjis
mankas
mankato
mankis
manko
mann
mannerheim
mannheim
manolito
manor
mans
mansfield
manson
mantelo
mantenar
mantenas
mantenesas
mantenis
manteno
manu
manual
manuala
manuel
manui
manuo
manuskripti
manuskripto
mao
maori
mapi
maple
mapo
mapuche
maputo
mar
mara
marais
marala
maranha
marat
maratha
marathon
maratono
marble
marbordala
marbordo
marc
marcel
marcello
marcellus
marcelo
march
marchar
marchas
marche
marchis
marcho
marcin
marcius
marco
marconi
marcos
marcus
mardio
mare
marengo
mareo
margaret
marguerite
mari
maria
mariajar
mariajas
mariajata
mariajesis
mariajeso
mariaji
mariajis
mariajita
mariajo
mariana
mariani
marianna
mariano
maricopa
marie
marietta
marihuano
marija
marilyn
marin
marina
marine
mariner
marino
marinus
mario
marion
marioneta
marioneto
maris
maristi
maristo
mark
market
markezo
marki
markizas
markizis
marko
markomani
markovic
markus
marlene
marley
marlon
marmara
marmoro
marne
maro
marokana
marokani
maroko
marques
marquette
mars
marsalis
marseille
marshall
marshalo
marshi
marsho
marshoza
marso
marta
martel
martelo
martha
marti
martial
martignon
martim
martin
martina
martinik
martins
martinus
martiri
marto
martti
marveli
marveloza
marvin
marx
marxismo
marxista
mary
maryland
marys
mas
masakras
masakri
masakro
masaryk
mashadov
mashinaro
mashini
mashino
masiva
maskili
maskilo
maskula
maskulala
maskuli
maskulo
maslovka
maso
mason
masonuro
massachusetts
master
masters
masto
mastro
mata
matematika
matematikala
matematikisti
matematikisto
matematikistulo
matematiko
mateo
materiala
materiali
materialo
materii
materio
mathbb
mathcal
mathias
mathieu
matilda
matine
matino
matisse
mato
matrala
matro
matt
matthew
matthews
matthias
matti
matura
mau
maupin
maura
mauri
maurice
mauricio
maurico
mauritania
maurits
mauzoleo
mawlamyine
max
maxilo
maxim
maxima
maxime
maximianus
maximilian
maximiliano
maximilien
maximus
maxwell
may
maya
mayer
mayfield
maynard
mayo
mayor
mayorka
mayoro
mayotte
maysville
mazarin
mazda
mazinger
mazovia
mazowiecka
mazowiecki
mazuria
mazury
mbabane
mc
mccarthy
mccartney
mcdonald
mchenry
mckinley
mclean
mcleod
mcveigh
me
mea
meade
mecklenburg
medalii
medaliisti
medaliistino
medaliisto
medalio
medford
media
mediaco
medical
medici
medicinala
medicine
medicino
medieval
medii
medikal
medikala
medikamenti
medikamento
mediki
mediko
medina
medio
mediteranea
mediteraneala
mediteraneo
medvenka
mehmed
mehmet
meiji
meitner
meji
meka
mekanika
mekanikal
mekanikala
mekaniko
mekanismi
mekanismo
mekong
melbourne
melchor
melilla
mello
melo
melodii
melodio
melville
melvin
mem
membra
membrani
membrano
membreskar
membreskas
membreskis
membreso
membri
membro
membrostati
meme
memes
memetiko
memi
memo
memoraji
memorial
memorialo
memoriganta
memorigas
memoro
memphis
men
mena
mencionas
mencionata
mencionesas
mencionesis
mencionis
mencionita
menciono
mendan
mende
mendelssohn
mendes
mendoza
mene
menem
menezes
menlo
ment
mentala
mento
menton
mer
mercedes
mercenarii
mercosur
mercury
meredith
meri
meridian
meridiano
merkati
merkato
merkel
merkurdio
merkurio
merkuro
merrill
mersey
mes
mesa
mesaji
mesajo
mesio
meso
messina
mestici
mestieri
mestiero
metabolio
metaf
metafiziko
metal
metala
metali
metallica
metalo
metalurgio
metano
metas
meteoro
meteorologiala
meteorologio
metodi
metodista
metodo
metra
metrala
metri
metro
metroala
metroo
metropolala
metropolitan
metropoliteno
metropolo
metz
meuse
meuthen
mexico
mexikia
mexikian
mexikiana
mexiko
meyer
mez
meza
mezavalora
mezavalore
mezavaloro
meze
mezepokal
mezepokala
mezepoko
mezo
mezolitiko
mezopotamia
mezur
mezurar
mezuras
mezurebla
mezuresas
mezuri
mezurili
mezurita
mezuro
mezvalora
mezvalore
mi
mia
miami
miarida
miass
michael
michal
michel
michelangelo
michelle
michigan
mick
mickey
microsoft
middle
middletown
midi
midway
mie
miejava
mielo
migrado
migranta
migranti
migras
migris
miguel
mihai
mihail
mihailovich
mika
mikael
mikalai
mike
mikelon
mikhail
miklo
mikola
mikr
mikra
mikrapolonia
mikrega
mikreso
mikro
mikrobiologiisto
mikrobiologio
mikronezia
mikroskopo
mil
milan
milano
milda
mile
miles
milford
mili
miliard
miliardi
miliardo
milici
milico
milii
milimetri
milio
milion
milioni
miliono
milit
milita
militado
milital
militala
militanti
militar
militara
militarala
militas
militeri
militestri
militestro
militeto
militi
militis
militistala
militisti
militisto
milito
militonavi
militonavo
mill
milla
mille
miller
millersburg
million
mills
milo
milos
milosevic
milton
milwaukee
min
mina
minacas
minaci
minacis
minaco
minado
minas
mind
mindanao
minerala
minerali
mineralo
mineyi
mineyo
ming
minh
minim
minima
minister
ministerio
ministi
ministraro
ministri
ministrino
ministro
minneapolis
minnesota
minor
minora
minoritatala
minoritati
minoritato
minorka
minsk
minus
minuskulo
minuta
minuti
minuto
mio
mir
miraklo
miranda
miro
miroslav
mirza
misfero
misioneri
misionero
misioni
misiono
mission
mississippi
missouri
misterio
misterioza
mistral
mit
mitchell
miti
mito
mitologiala
mitologio
mitraliosi
mitre
mitsotakis
mitsubishi
mitterrand
mixar
mixas
mixis
mixita
mixo
mixuro
mizuki
mln
mm
mma
mo
mobile
moblaro
mobli
moblo
mobutu
moc
mocha
moctezuma
modaleso
mode
model
modeli
modelo
moderema
modern
moderna
moderne
modernigar
modernigesis
modernigo
modernismo
modernista
modest
modesta
modi
modibo
modifikar
modifikas
modifikesis
modifiki
modifikis
modifikita
modifiko
modifikuri
modigliani
modisto
modo
modulo
moesia
mogadishu
mohamad
mohamed
mohamedana
mohamedani
mohamedano
mohammad
mohammed
mohandas
moi
moines
mok
mol
mola
moldavia
moldova
moldovana
molekulala
molekuli
molekulo
molina
moline
molotov
moluski
molusko
mombasa
momento
mon
monagas
monakeyi
monakeyo
monaki
monako
monarki
monarkiala
monarkii
monarkio
monarko
monata
monatala
monati
monato
mondal
mondala
mondale
monde
mondi
mondo
mondomiliti
mondomilito
mondumo
mondvaste
monet
monetala
monetaro
moneti
moneto
mong
mongo
mongol
mongola
mongoli
mongolia
mongoliana
monica
monmouth
monona
monopolo
monroe
monrovia
mons
monstro
mont
montana
montari
montaro
monte
monteiro
montenegro
monterey
montero
montes
montesquieu
montevideo
montgolfier
montgomery
monti
monticello
montmartre
monto
montoza
montranta
montrar
montras
montrata
montre
montreal
montresas
montresis
montreux
montris
montserrat
montt
monumentala
monumenti
monumento
moon
moore
moorhead
mora
moral
morala
morales
moralo
moran
moravia
morbi
morbo
mordovia
more
moreau
moreira
moreno
morfino
morfologio
morgan
mori
moritz
mormon
mormona
mormoni
mormonismo
morning
moro
moroni
morris
morrison
morse
mort
mortabis
mortado
mortala
mortar
mortas
morte
morti
mortiganta
mortigar
mortigas
mortigesas
mortigesis
mortigesos
mortigi
mortigis
mortigita
mortigiva
mortigo
mortinta
mortinti
mortinto
mortis
morto
morton
mortopuniso
mortos
mos
moscow
moses
moshe
moshoeshoe
moskei
moskeo
moskva
mossi
most
mostki
mosul
motivi
motivizo
motivo
moto
motor
motorcikli
motori
motorizita
motoro
motors
motown
mott
mound
mount
mountain
mouse
mouskouri
moussa
mouton
movadi
movado
movanta
movar
movas
movata
movebla
movement
movementi
movemento
movi
movie
movimenti
movimento
movis
movo
mower
moyeni
moyeno
mozambik
mozambikana
mozart
mr
ms
mswati
mtv
mu
muammar
mubarak
muelili
muelilo
mugabe
mughal
muhamad
muhammad
muhammed
muko
mulberry
mulierala
mulieri
muliero
mulo
mult
multa
multafoye
multe
multega
multi
multipliko
multo
multopla
mumbai
mun
munch
muncie
mundi
mundo
mungo
municioni
municiono
municipal
municipala
municipi
municipo
muntita
murad
murcia
muregi
murego
muri
murillo
muro
murphy
murray
musa
muscatine
muse
museo
museu
museum
musharraf
music
musical
musil
muskulala
muskuli
muskulo
muso
musono
musorgski
mussolini
mustafa
mustas
mustelido
mustis
mustos
mustus
muta
mutaco
mutharika
mutoni
mutono
mutuala
muzei
muzelo
muzeo
muzik
muzikaji
muzikajo
muzikal
muzikala
muzikalo
muziki
muzikisti
muzikistino
muzikisto
muzikistulo
muziko
mv
my
myanmar
myanmarana
myrtle
n
na
nabo
nabokov
naciona
nacional
nacionala
nacionaleso
nacionalismo
nacionalista
nacionalisti
nacioni
naciono
nad
nader
nadia
nadine
nadir
nagasaki
nagorno
nagoya
naguib
nagy
nahuatl
nairobi
naktong
nam
namibia
namo
nana
nancy
nanjing
nano
nanoteknologio
nansen
nantes
napole
napoleon
napoleonala
napoli
nara
naracas
naraci
naraco
narayan
narva
nasa
nascimento
nash
nashville
nasir
nask
naskas
naski
naskinta
naskis
naskita
nasko
naskodio
nassau
nasser
nat
natado
natal
natalia
natalie
natalya
natar
natas
nate
nathan
nathaniel
nation
national
nationale
nations
natisti
natistino
natisto
nativa
native
nato
natro
natura
natural
naturala
naturale
naturalisto
nature
naturo
naufrajo
nauru
nauvoo
naval
navala
navani
navara
navaro
nave
navi
navigado
navigar
navigas
navigebla
navigis
navigisti
navigisto
navigo
navo
navotipi
nazaire
nazarbayev
nazi
naziista
naziisti
nazista
nazisti
nazo
nba
nbc
nberg
nchen
nchez
ncia
nd
nde
ndebele
nder
ndez
ndia
ndido
ndor
ne
nea
neal
neanderthal
neanderthalensis
nebraska
nebulo
necerta
necerteso
necesa
necese
neceseso
nechanjebla
nedependanta
nedependanteskar
nedependanteskas
nedependanteskis
nedependantesko
nedependo
nederland
nederlandan
nederlandana
nederlandane
nederlandani
nederlando
nederlandse
nedireta
nedirete
nefacila
nefinita
neformala
negas
negativa
negis
negociado
negociar
negocias
negocii
negociis
negocio
negra
negri
negro
nehabitata
neil
neill
neira
nek
nekapabla
neklara
nekompleta
nekonocata
nekonocita
nel
nelegala
nelly
nelson
nemediata
nemediate
nemulta
nen
nena
nenec
nenormala
neo
neoficala
neoklasika
neolitika
neolitiko
neosho
nepal
nepalana
neposibla
nepoto
nepotulo
neprofunda
neptuno
nero
neruda
nerva
nervala
nervaro
nes
ness
nestabila
nestabileso
nesto
nesuficanta
net
neta
netanyahu
netflix
netigar
neto
network
neue
neurociencisto
neussner
neutra
neutral
neutrala
neutreso
neutroni
neva
nevada
nevado
never
neves
nevidebla
neville
nevis
nevrologiisto
nevulo
new
newark
newcastle
newfoundland
newman
newport
news
newton
next
nexta
nez
ng
ngel
ngeles
ngo
ngora
nguesso
nguye
nguyen
ngxi
ngzu
nh
nhl
ni
nia
nica
nicanor
niccolo
nice
nicholas
nichols
nick
nico
nicola
nicolaas
nicolae
nicolas
nicole
nidas
nie
niels
nielsen
niemeyer
nietzsche
nig
niger
nigeria
nigeriana
night
nigra
nigsberg
nijer
nijni
nik
nikaragua
nikaraguana
nikelo
niki
nikita
nikola
nikolai
nikolaus
nikolayevich
nikolskoye
nikos
nilo
nils
nimo
nin
nina
ning
nino
nintendo
ninyo
nio
nior
nirvana
nis
nissan
nitero
nitro
niue
nivar
nivas
niveli
nivelo
nivo
nivoza
niwy
nixon
nkrumah
nkvd
nnrot
no
nobel
nobela
nobelaro
nobelesa
nobeleso
nobeli
nobelo
nobile
noche
nocioni
nociono
nociva
noe
noel
noktal
noktala
nokti
nokto
nola
nomada
nomadi
nomar
nomas
nomata
nombri
nombro
nombroza
nome
nomenklaturo
nomesas
nomesis
nomi
nominar
nominas
nominativo
nominesas
nominesis
nominezas
nominis
nominita
nomis
nomita
nomizar
nomizas
nomizata
nomizesas
nomizesis
nomizis
nomizita
nomizo
nomo
non
none
nonesma
nord
norda
nordal
nordala
norde
nordesta
nordeste
nordesto
nordo
nordrheno
nordwesta
nordweste
nordwesto
norfolk
noriega
normala
normale
norman
normanda
normandi
normandia
normi
normo
norodom
noronha
norris
norte
north
northern
norton
norvegia
norvegian
norvegiana
norvegiani
norwood
nos
nossa
not
notas
notata
note
notes
notez
noti
noticias
notinda
notinde
notita
notizo
noto
notoc
notora
notoreso
notre
nouveau
nov
nova
novaji
novajo
novas
novaya
novazelandana
nove
noveli
novelisto
novelo
novembro
novgorod
novi
novial
novigi
novigo
novigos
novo
novosibirsk
now
nowa
nowy
nro
ns
nsdap
nsson
nster
ntara
nter
ntica
nu
nuanci
nuba
nubi
nubia
nubo
nuda
nuestra
nueva
nuevo
nukleala
nuklear
nukleara
nuklei
nukleo
nul
nula
nulafoye
nulatempe
nulo
nultempe
nulu
num
numa
numerala
numeri
numero
numidia
nun
nuna
nunadie
nune
nuno
nuntempa
nuntempal
nuntempala
nuntempe
nur
nura
nursultan
nutrado
nutrar
nutras
nutriva
nutrivala
nutrivas
nutrivi
nutrivo
ny
nyerere
nyi
o
oahu
oak
oakland
oas
ob
obama
obediar
obi
objekt
objektala
objekti
objektivismo
objekto
oblast
obligas
obligata
obligis
oblonga
obote
obrego
observado
observanto
observar
observas
observata
observatorio
observebla
observeri
observi
observis
observita
observo
obskura
obsoleta
obstakli
obstaklo
obtenante
obtenar
obtenas
obtenebla
obtenesas
obtenis
obtenita
obusi
oc
occidental
ocean
oceanala
oceani
oceania
oceano
oceanografio
och
ocidar
ocidas
ocidata
ocidental
ocidentala
ocidento
ocidero
ocidesas
ocidesis
ocidili
ocidis
ocidita
ocido
ocitania
ocitaniana
octavio
od
oder
odesa
odio
odiseo
odo
odoacer
odore
odoro
odyssey
of
off
offenbach
office
official
officio
ofical
oficala
oficale
oficeyo
ofici
oficiala
oficiale
oficiero
oficii
oficio
oficiri
oficiro
oficisti
oficisto
ofico
ofrar
ofras
ofris
ofro
ofta
ofte
og
ogden
oglethorpe
ogo
oh
ohio
oi
oirata
ois
oise
ok
okazione
okazioni
okaziono
okcitana
oked
okesma
okinawa
oklahoma
oktobro
okuli
okulo
okupado
okupanta
okupar
okupas
okupata
okupesas
okupesis
okupeso
okupis
okupita
okupo
ol
ola
olaf
olav
olca
old
olda
oldeso
oldi
ole
oleg
olei
oleo
olga
oli
olia
oligarkio
olim
olima
olimpia
olimpiala
olinda
olive
oliveira
oliver
olivier
olof
olqua
olta
olti
olu
olua
olympic
olympio
om
omaha
oman
omar
ombro
omna
omnadia
omnadiala
omnadie
omnaloke
omnatempe
omnayare
omni
omnibusi
omnibuso
omno
omnu
omsk
on
onard
once
ondegi
ondego
ondi
ondo
one
onep
ongani
oni
onklino
onklo
online
only
ontario
ontologio
onu
onua
onyono
op
ope
opel
open
opera
operacas
operaci
operaco
operi
opero
ophile
opinionas
opinioni
opinionis
opiniono
opiumo
ople
opoczno
opold
opole
oportas
opozanta
opozantaro
opozante
opozanti
opozanto
opozar
opozas
opoze
opozinti
opozis
opozita
opozite
opozo
opreso
optikala
optiko
or
ora
orala
oran
orange
oranjea
oranjo
orbiter
orbiti
orbito
orchard
orchestra
orchestre
ordeni
ordeno
order
ordero
ordinara
ordinare
ordino
ordo
ordon
orea
oregon
oreli
orellana
orelo
org
organala
organi
organika
organisation
organismi
organismo
organizado
organizar
organizas
organizata
organization
organizesas
organizesis
organizi
organizis
organizita
organizo
organizuri
organizuro
organo
orgeno
orient
oriental
orientala
orientizita
oriento
origin
original
originala
originale
originas
origine
origini
originis
origino
origins
orinoco
orkestrala
orkestrestro
orkestri
orkestro
orlando
orle
orleans
ornamentala
ornita
ornivi
ornivo
oro
orozco
orr
orsha
ortega
ortiz
ortodoxa
ortodoxi
ortografio
orville
orwell
oryol
os
osage
osaka
osama
osasco
oscar
osceola
osetia
osiek
osiny
oskar
oslo
osman
ospina
osti
osto
ostro
ostrogoti
ostwald
osvaldo
oswald
oswaldo
oswego
other
otis
otoman
otomana
otomani
ottawa
otter
otto
ou
ouagadougou
oue
ould
our
ouro
out
ov
ovala
over
overline
ovi
oviedo
ovo
owen
owens
oxford
oxido
oxo
oz
ozark
ozono
ozores
ozyorsk
p
pa
paavo
pablo
pacala
pacema
pacheco
pacific
pacifik
pacifika
pacifiko
pacifisto
pack
paco
pacoza
pacoze
padova
paella
paf
pafado
pafante
pafar
pafas
pafero
pafesas
pafi
pafili
pafis
pafisti
pafistino
pafisto
pafistulo
pafo
pag
pagana
pagar
pagas
pagata
page
pagi
pagini
pagino
pagis
pago
pahlavi
pahrump
pai
pakistan
pakistanana
paktas
pakti
paktis
pakto
pala
palace
palaci
palacio
palaco
palaiologos
palais
palatala
palatenio
palau
palazzo
paleolitiko
paleontologio
palermo
palestina
palestinana
palestinani
palio
palm
palma
palme
palmeiras
palmer
palmieri
palmo
palmyra
palo
pampa
pamplona
pan
panama
panamana
panathinaikos
pancho
pandemio
paneli
pangalos
pannonia
pano
panonia
panoramio
panoramo
pantanal
paolo
papa
papala
papandreou
papas
papen
paper
papera
papero
papeso
papi
papilioni
papiliono
papo
papua
par
para
paradas
paradi
paradise
paradizo
parado
paraguay
paraguayana
paraguayani
parai
paralela
paralele
paralelo
paralelogrami
paralimpiala
paramaribo
parametri
parana
paranagua
paranthropus
parazita
paraziti
pardo
pardono
paredes
parenta
parenteso
parenti
parento
pareto
pari
pariado
parieto
paris
park
parker
parki
parko
parks
parkuras
parlamental
parlamentala
parlamentani
parlamentano
parlamenti
parlamento
parma
paro
parolado
parolala
parolanta
parolanti
parolanto
parolar
parolas
parolata
parolesas
parolesis
paroli
parolis
parolita
parolo
paromi
paromo
parque
parra
parry
parsons
part
parta
partaka
partala
partale
parte
partenero
parti
partidas
partido
partigas
partigo
partii
partikulara
partikulare
partikuli
partikulo
partio
partisani
partisi
partiso
partizani
parto
partoprenanta
partoprenanti
partoprenanto
partoprenar
partoprenas
partopreninta
partopreninti
partopreninto
partoprenis
partoprenisto
partopreno
party
pas
pasabla
pasable
pasadena
pasajanti
pasajeri
pasajero
pasajo
pasar
pasas
pasato
pascal
paschalis
pasero
paseroformi
paseyo
pasha
pashto
pasinta
pasinto
pasiono
pasis
pasiva
pasko
paso
pass
passes
pasteur
pasto
pastori
pastoro
pastureyi
pat
patagonia
patentizas
patento
pato
patois
patologio
patrala
patri
patriarko
patrice
patricia
patricio
patrick
patrik
patrimonii
patrimonio
patrio
patriota
patrioto
patro
patrono
patronomo
patton
pau
paul
paula
pauli
paulo
paulus
pauzo
pavel
pavia
paviliono
pavlovsk
pavoro
pawnee
pawło
paxinas
paxton
payne
paz
pazi
pazo
pbs
pdf
pe
peace
peak
peano
pearl
pearson
peci
peco
ped
pedagogio
pedagogo
peder
pedersen
pedi
pediranti
pedo
pedofilia
pedofilio
pedro
peizaji
peizajo
peko
pektoro
pekuniala
pekunio
pelagius
pelayo
pele
pelham
peli
pelo
pelvo
pembroke
pen
pena
penang
pendanta
pendleton
pendulo
penetrar
penh
peninsulo
peniso
penn
pennsylvania
penny
penrose
pensacola
pensado
pensar
pensas
pensata
pensi
pensilvania
pensis
penso
pento
penza
people
peoria
pepa
pepe
pepin
per
perceptar
perceptas
perceptebla
percepto
percy
perdabis
perdaji
perdajo
perdar
perdas
perdesis
perdi
perdis
perdita
perdo
pereira
perena
peres
perfekta
perfekte
periodala
periodi
periodo
perisas
periscope
perisinti
perisis
perkins
perkut
perkuto
perli
perlo
perm
permananta
permanante
permanenta
permisanta
permisar
permisas
permisesas
permisesis
permisis
permisita
permiso
pernambuco
pero
perpendikla
perpetua
perrault
perry
perryville
persa
persekuti
persekuto
persequas
persequo
persia
persian
persiana
persiani
persistas
personaji
personajo
personal
personala
personale
personaleso
personeso
personi
persono
perspektivo
perth
perturbo
peru
peruana
pervez
pervomaiski
pervomaiskoye
peskado
peskisti
pesko
peso
pessoa
pest
pesto
petar
pete
peter
peterburg
petersburg
peterson
petit
petr
petra
petri
petro
petrograd
petrolo
petrolonavo
petrozavodsk
petrus
petty
peus
pez
pezanta
pezas
pezo
pezoza
ph
pha
phane
phantom
phelps
phi
phil
philadelphia
philibert
philip
philipp
philippe
phillip
phillips
philosophy
phnom
phoenix
phone
php
phraya
phu
pi
pia
pianisto
piano
piaui
piazza
picasso
piccard
pico
picture
pie
piedmont
piemont
pier
pierce
piero
pierre
pierson
piet
pieter
pietro
pigmei
pike
piktado
piktala
piktar
pikti
piktis
piktisti
piktistino
piktisto
piktistulo
piktita
pikto
pikturi
pikturo
pilastri
pili
pilo
pilot
pilotisti
pilotisto
pin
pine
pinellas
pines
ping
pinilla
pink
pino
pinochet
pinta
pinti
pinto
pintoza
pinyin
pinyine
pinzo
pioneer
pionira
pioniri
pioniro
piono
piotr
piotrko
pipin
pipro
pirahi
piramidi
piramido
pirateso
pirati
pirato
pirenei
pires
pisa
pishchalava
pissarro
pistolo
pistols
pistono
pitagoro
pitt
pittsburgh
pius
pizarro
piłsudski
pk
pl
pla
place
placi
placita
placo
plafono
plago
plain
plaine
plains
plaji
plajo
plaki
plako
plana
planaji
planajo
planck
planet
planeti
planeto
plani
planki
planko
planktono
plano
plant
plantacerii
plantacerio
plantagenet
plantaro
planti
planto
plasi
plasmo
plaso
plastika
plastiki
plastiko
plata
platajo
platformo
plato
platon
platte
play
playstation
plaza
pleado
plear
pleas
pleasant
please
pleata
plebiciti
plebicito
pledas
pleesas
pleesis
plei
pleis
pleistoceno
pleita
plena
plene
plenigar
plenigita
pleo
plezuri
plezuro
plo
plombo
plu
plua
plubonigar
plubonigesis
plubonigis
plubonigita
plubonigo
plue
pluforteskis
plufortigar
plufortigis
plum
plumaro
plumi
plumo
plur
plura
plurafoye
plurala
pluralo
plurapartisala
plurnaciona
plursporta
plus
plusa
pluse
plutono
pluvas
pluvegi
pluvego
pluvi
pluvo
pluvoza
plymouth
pm
png
po
pocahontas
podde
podgorica
podlahia
poe
poemaro
poemas
poemi
poemo
poesi
poeti
poetino
poeto
poeziala
poezio
poincare
point
poitiers
poitou
poka
poke
pokope
pokrovski
pol
pola
polala
polar
polaro
polder
poleno
poli
policala
police
policistaro
policisti
policisto
polico
policy
poliedro
poligamio
poligoni
poligono
polinezia
polineziana
polineziani
poliomielito
polis
politics
politika
politikal
politikala
politikale
politiki
politikisti
politikistino
politikisto
politikistulo
politiko
polk
polo
polona
polone
poloni
polonia
polonian
poloniana
poltava
polutajo
poluteso
poluto
polvo
polyana
pombal
pomerania
pomeria
pomo
pompidou
ponce
pont
ponta
ponte
ponti
pontiac
ponto
pontus
pop
pope
popolo
popper
popul
populala
populani
popular
populara
populareskis
populareso
population
populi
populizita
populo
populoza
por
porcelano
porcioni
porciono
pordego
pordi
pordo
pore
porfirio
porki
porkkala
porko
porras
porsche
port
portalo
portanta
portante
portar
portas
portata
porte
portebla
porter
portiko
portillo
portinta
portis
portland
porto
portreti
portreto
portsmouth
portuala
portugal
portugalan
portugalana
portugalane
portugalani
portugalano
portui
portuo
portus
pos
posa
posdimezo
pose
posedaji
posedajo
posedar
posedas
posedis
posedo
posesivi
posh
posho
posibla
posible
posiblesi
posibleso
posibligar
posibligas
posibligis
posibligos
post
posta
poste
posteno
posto
postulas
postuli
postulis
postulo
posturo
posvivis
pot
potenciala
potencialo
potenta
potomac
potosi
potsdam
pottawattamie
potter
poul
pound
pour
povanta
povar
povas
povez
povi
povis
povo
povos
povoza
povra
povreso
povri
povus
powell
power
powers
pozar
pozas
pozata
pozesas
pozesis
pozeso
pozicioni
poziciono
pozis
pozita
pozitiva
pozitivismo
poznan
pp
ppen
pr
pra
pradesh
prado
pragmatismo
praha
praia
prairie
praktikado
praktikala
praktikanti
praktikar
praktikas
praktikata
praktikesas
praktiki
praktikis
praktikita
praktiko
prasad
prater
prato
pratt
pre
precedanto
preci
precipua
precipue
preciza
precize
precizeso
preco
precoza
predico
predominacas
prefaco
prefekteyo
prefektio
preferas
preferata
prefere
preferis
pregas
pregis
prego
prehistoriala
prehistorio
preiranta
preiras
prekursoro
premier
premii
premiizesis
premiizita
premiiziti
premio
prenar
prenas
prenesis
preninta
prenis
prenita
preno
prenomo
preparado
preparar
preparas
preparis
preparita
preparo
prescott
present
presi
president
presidente
preske
presley
preso
press
pressburg
prestes
prestijo
prestijoza
presto
preston
pretenders
preter
preterflugas
preteriras
preterpasis
pretexto
preto
pretoria
pretty
preurbo
preventar
preventis
prezenta
prezente
prezenteso
prezento
prezervar
prezervas
prezervata
prezervesas
prezervis
prezervita
prezidantal
prezidantala
prezidanteso
prezidanti
prezidantino
prezidanto
prezidero
pri
priamos
price
pride
priest
prieto
prim
prima
primara
prime
primitiva
primo
primorsk
prince
princeton
princi
princii
princino
princio
princip
principe
principi
principo
princo
princulo
printempo
priora
prioreso
prithvi
privata
private
privileji
prix
prizas
prizata
prizentado
prizentar
prizentas
prizentata
prizentesas
prizentesis
prizentis
prizentistino
prizentisto
prizentita
prizento
prizis
pro
probabla
probable
probableso
probante
probar
probas
probesis
probi
probilo
probis
problem
problemi
problemo
probo
probus
procedi
procedo
procenti
procento
procesi
procesiono
proceso
prodaji
produktado
produktanta
produktar
produktas
produktata
produkteri
produktero
produktesas
produktesis
produkti
produktis
produktisti
produktisto
produktita
produktiva
produktiveso
produkto
produktos
produkturi
produkturo
profesionala
profesionale
profesioni
profesiono
profesori
profesoro
profeti
profeto
profile
profilo
profitas
profiti
profitis
profito
profitoza
profunda
profundajo
profunde
profundeso
programaro
programeso
programi
programifo
programo
progresema
progresis
progresiva
progreso
progressive
project
projektili
projektilo
projekto
projetar
projetas
projetata
projetesis
projeti
projetis
projetita
projeto
proklamas
proklamesas
proklamesis
proklamis
proklamita
proklamo
proletariaro
prolog
prolongar
prolongis
prolongo
prolonguro
promisas
promisis
promocala
promocar
promocesis
promocis
promocita
promoco
promoncala
promulgas
promulgesis
pronomi
pronomo
pronta
pronuncas
pronuncata
pronuncesas
pronuncez
pronuncita
pronunco
propagado
propagando
propagar
propago
property
proporcionala
proporciono
propozar
propozas
propozata
propozesis
propozi
propozis
propozita
propozo
propra
propraji
proprajo
propre
proprietaji
proprietajo
proprietanti
proprietanto
proprietata
proprieteri
proprietero
proprieti
proprieto
propulso
proskriptas
proskriptis
prosperas
prospereso
prosperis
prospero
prosperoza
prostitucado
prostituceyi
prostitution
protagonisto
proteini
proteino
protektado
protektar
protektas
protektata
protektero
protektesas
protektis
protektita
protekto
protektorati
protektorato
protestanta
protestanti
protestantismo
protestas
protesteri
protesti
protestis
protesto
proto
protokolo
protoni
provencala
provence
provenco
providence
provincala
provinci
provinco
provizar
provizas
provizis
provizita
provizora
provizore
provizuri
provizuro
proxim
proxima
proxime
proximeso
proximigas
proximigis
proximigo
prozo
prusia
prusiana
prusiani
prusinowice
pruvar
pruvas
pruvi
pruvis
pruvo
pseudonimo
psikiatriisto
psikiatrio
psikoanalizo
psikodelik
psikologi
psikologiala
psikologiisto
psikologio
psikologo
pskov
pt
pu
public
publicazions
publik
publika
publike
publikigar
publikigas
publikigesas
publikigesis
publikigis
publikigita
publikigo
publikita
publiko
publique
publishers
publishing
publius
puccini
puebla
pueblo
puente
puerala
pueri
puerini
puerino
puero
puerto
pueruli
puerulo
puig
pulaski
pulitzer
pulmoni
pulmonito
pulmono
pulpoza
pulsar
pulsas
pulso
pultro
pulvero
pumpilo
pundi
punika
punisar
punisi
puniso
punjab
punk
punta
punti
punto
pura
purcell
pure
pureso
purgo
purigo
purple
purpurea
pushkin
putin
px
pyongyang
pyotr
python
q
qaddafi
qianlong
qin
qing
qu
qua
quadrata
quadratala
quadrati
quadrato
quadrilatero
quadros
qual
quala
quale
qualesi
qualeso
quan
quang
quankam
quanta
quante
quantesi
quanteso
quanti
quantika
quanto
quantumo
quar
quarco
quaresma
quarfoye
quarimo
quarteri
quartero
quarteto
quaza
quaze
que
quebec
quechua
queen
queens
queensland
querko
quesada
quest
questioni
questiono
quez
qui
quick
quijote
quik
quin
quincy
quinn
quintana
quintus
quiroga
quisling
quito
quo
quon
r
ra
rabat
rabaul
rabin
rachel
racine
racion
racionala
raciono
rada
radaro
radcliffe
radek
radiaco
radiado
radii
radikala
radiki
radiko
radio
radioaktiva
radomsko
raf
rafael
rage
ragnar
rahman
rai
railroad
railway
rain
rainer
rainier
raja
rakhine
rakontas
rakonti
rakonto
rale
raleigh
ralio
ralph
ram
rama
raman
rami
ramirez
ramiro
ramo
ramon
ramone
ramones
ramos
ramsay
ramsey
ran
rancho
rand
randolph
randy
ranger
rangi
rangizesas
rangizesis
rangizita
rango
rani
ransono
raoul
rap
rapid
rapida
rapide
rapidesi
rapideso
rapids
raportas
raporti
raportis
raporto
rapt
rapto
rara
rard
rare
ras
rasala
rashid
rasi
rasismo
rasmussen
raso
rassemblement
rati
ratifikas
ratifikis
ration
rau
raupo
ravel
ravenna
ravino
rawa
ray
raymond
rd
rdoba
rdra
re
read
reader
reagan
reaktas
reakti
reakto
reaktoro
real
reala
realajo
reale
realeso
realigar
realigita
realigo
realismo
realista
realo
rebela
rebeleso
rebeli
rebelo
recensi
recenta
recente
recevabis
recevar
recevas
recevata
recevir
recevis
recevita
recevos
recife
reciproka
reciproke
reconquista
records
red
reda
redaktero
redaktis
redaktisto
redaktita
redding
rede
redi
redonda
reduktar
reduktita
redukto
redwood
reed
reeve
referar
referas
referata
reference
referesas
referi
referis
referita
refero
referovoto
reflektas
reflekto
reformar
reformi
reformis
reformita
reformo
refujanti
refujeyo
refujinti
refujis
refuzar
refuzas
refuzis
refuzo
regardar
regardas
regardo
regenteso
regento
reggae
regia
regimenti
regimento
regina
region
regional
regionala
regioni
regiono
registragar
registragis
registragita
registri
registro
regnanta
regnanti
regnanto
regnar
regnesis
regni
regnis
regno
regnos
rego
regretinde
regulado
regulala
regular
regulas
reguli
regulo
reguloza
reguloze
rei
reich
reichstag
reid
reims
reina
reinhard
reis
rejal
rejala
rejektas
rejektis
reji
rejii
rejimi
rejimo
rejino
rejio
rejo
rejuli
rejulo
reklamo
rekolto
rekomendas
rekomendis
rekordi
rekordo
rekta
rektangula
rekti
rekto
rekuperar
rekuperis
rekuperita
rekupero
rekurso
relata
relatanta
relatante
relatas
relate
relati
relatis
relativa
relative
relativeso
relato
relayo
reli
reliefo
religia
religial
religiala
religii
religio
religion
religioza
relo
remarkas
remarkinda
remarkinde
remarkis
rembrandt
remo
remplasante
remplasar
remplasas
remplasesis
remplasis
remplasita
remplaso
remus
ren
renato
renault
rene
renesanco
renfrew
rengiyn
reni
renkontrar
renkontras
renkontri
renkontris
renkontro
rennes
reno
renoir
renuncar
renuncas
renuncis
renunco
reparar
repasto
report
repozas
repozo
represar
represita
represo
reprezentanta
reprezentanti
reprezentanto
reprezentar
reprezentas
reprezentata
reprezenteri
reprezentero
reprezentesas
reprezentis
reprezentita
reprezento
reprezenturo
repteri
reptero
repu
republic
republikala
republikana
republikani
republiki
republiko
repulsas
repulsis
reputeso
requiem
rer
res
research
resercho
resortiso
respekto
respirado
respirala
respiro
respondar
respondas
respondi
respondis
respondo
responsanta
responsas
responsis
responsiva
responso
restaji
restajo
restanta
restar
restas
restaurado
restaurar
restauras
restauresis
restauro
restinta
restis
resto
restorerii
restorerio
restos
restrikti
restriktita
restrikto
resursi
ret
retala
retaro
retenar
retenas
retenis
reti
retino
reto
retorikala
retoriko
retosituo
retretar
retretas
retretis
retreto
retrieved
retro
retrodonas
retrodonesis
retrodonis
retroe
retroirar
retroiras
retroiris
retrovenar
retrovenas
retrovenis
retroveno
retrovenos
retsituo
return
reunion
reutec
rev
reval
revelas
revelis
revendikas
revendikis
revendiko
revenui
revenuo
revere
reverso
review
revizita
revizo
revo
revokar
revokas
revokesas
revokesis
revokis
revokita
revoko
revoltas
revolti
revoltinti
revoltis
revolto
revoluciona
revolucionala
revolucioneri
revolucionero
revolucioni
revoluciono
revolution
revui
revuo
rex
rey
reyes
reykjavi
reynolds
rez
reza
rezerveyi
rezerveyo
rezervi
rezervita
rezervo
rezervuyo
rezidala
rezidanti
rezidar
rezidas
rezideyi
rezideyo
rezidis
rezidui
reziduo
rezini
rezino
rezistanta
rezistar
rezistas
rezistis
rezisto
rezolvi
rezolvo
rezono
rezultaji
rezultajo
rezultanta
rezultas
rezulte
rezulti
rezultinta
rezultis
rezulto
rezumo
rg
rgen
rgio
rgy
rhea
rhenlando
rheno
rho
rhode
rhodes
rhodezia
rhythm
ri
ria
rias
ribbentrop
ribeira
ribeiro
ric
rica
ricardo
rice
rich
richa
richard
richards
richardson
richelieu
richeso
richie
richland
richmond
richter
rick
rico
rida
rider
ridge
rie
rielektesar
rielektesas
rielektesis
rielekto
riestablisar
riestablisas
riestablisesis
riestablisis
rifai
rifi
rifo
riganis
right
rightarrow
rights
rigida
rijn
rika
rikana
rikaptas
rikaptis
riko
rikoncilio
rikonocebla
rikonquestas
rikonquestis
rikonstruktado
rikonstruktar
rikonstruktesis
rikonstruktis
rikonstruktita
rikonstrukto
rikonstrukturo
riley
rimbaud
rimski
rinaldo
rinasko
rinforci
ring
ringgold
ringi
ringo
rinomizesas
rinomizesis
rinomizis
rinomizita
rinovigebla
rinovigesis
rinovigo
rio
rioja
riokupis
rios
riot
riproduktas
rise
riski
risko
rispektiva
rispektive
rita
ritchie
ritmala
ritmi
ritmo
rito
ritter
rituali
ritui
riunigo
rivala
rivaleso
rivali
rivalo
rivenas
rivenis
riveno
river
rivera
rivereti
rivereto
riveri
rivero
rivers
riverside
rivi
riviera
rivivigar
rivivigo
rivo
rivovenas
rix
rizo
rk
rn
rnberg
rne
rnu
ro
road
roald
robert
roberto
roberts
robertson
robespierre
robi
robin
robinson
robles
robo
robot
roboti
roboto
robusta
roca
roch
rocha
rochelle
rochester
rock
rockford
rockwell
rod
rodano
roderi
rodero
rodezia
rodin
rodney
rodolfo
rodri
rodrigo
rodrigues
roger
rogers
rogier
rogo
roh
roi
rojas
roki
roko
rokoko
rokoza
roland
rolf
roli
roll
rolla
rolling
rolls
rolo
roly
rom
roma
romain
romala
roman
romana
romance
romani
romania
romano
romanos
romanov
romanovka
romantika
romantikismo
romanus
rome
romeo
romero
rommel
romulus
ron
ronald
ronda
rondo
rondonia
ronnie
roosevelt
roque
roraima
rosa
rosas
rose
roseau
rosen
rosetta
roskilde
roslin
ross
rossi
rostock
rostov
rotacanta
rotacas
rotaci
rotaco
roti
roto
rotterdam
rouen
rouge
round
roundel
rousseau
rousseff
route
routledge
roy
royal
royce
roza
rozacei
rozea
rozi
rozo
rpa
rquez
rrez
rss
rt
ru
ruanda
rubando
rubens
rudnya
rudolf
rudyard
rue
rufino
rufus
rugbio
ruhollah
ruhr
ruini
ruiz
rul
rumana
rumania
rumaniana
rumba
rumori
run
runeberg
runner
ruptar
ruptas
ruptis
ruptita
rupto
rural
rurala
ruraltipa
rurani
rurano
ruro
rus
rusa
ruse
rush
rushville
rusi
rusia
rusian
rusiana
rusiec
russell
russellville
russia
russian
ruth
rutherford
ruud
ruz
ry
ryan
ryazan
rz
rza
rður
s
sa
saad
saarinen
saavedra
saba
sabah
sabbath
sablo
sabloza
sabri
sabro
sac
sacerdoti
sacerdoto
sachs
sacramento
sadat
saddam
sade
saga
sahara
saharov
sahel
said
saigon
saint
sainte
saipan
saja
sajeso
sako
sakra
sakrifiko
sal
sala
salaam
salado
salah
salam
salamanca
salarii
salario
salas
salazar
saleh
salem
sali
saliajo
salianta
salinas
saline
salisbury
salle
sally
salman
salo
salome
salomon
saloni
salono
saloza
salsa
salt
salta
saltado
saltar
salto
saluto
salvador
salvadorana
salvar
salvas
salvatore
salveso
salvo
salyut
salzburg
sam
sama
samanoma
samara
samarkand
samasexua
samatempe
samayare
samba
sambo
same
sami
samideani
samnoma
samoa
samoana
samoani
samson
samsung
samtempe
samuel
samurai
samurayi
san
sana
sanaa
sancho
sancioni
sand
sanders
sandinista
sandinisti
sandino
sandra
sandro
sandwich
sandy
sanesala
saneso
sanesoflego
sang
sango
sangoza
sankt
sans
sanskrita
sant
santa
santakruco
santana
santander
santhali
santi
santiago
santino
santo
santos
sao
sapiens
sapir
saporo
saporoza
sapporo
sar
sara
saraceni
sarah
sarajevo
sarawak
sardinia
sargent
sargsyan
sarney
sarpaneva
sartre
sat
sate
satelital
satelitala
sateliti
satelito
satirala
satisfacar
satisfacas
saturdio
saturn
saturno
sau
sauco
saud
saudi
saul
sava
savage
savannah
savano
savanta
savar
savas
savata
save
saveskar
saveskis
savina
savis
savo
savoya
sawyer
saxe
saxofonisto
saxon
saxona
saxoni
saxonia
sc
scar
scg
schengen
schiffmann
schiller
schleswig
schmidt
schmitt
schneider
scho
scholz
school
schopenhauer
schro
schubert
schuman
schumann
schwarze
science
sciences
scientific
scots
scott
scranton
scripps
se
sea
sean
search
seattle
sebastia
sebastian
sec
secioni
seciono
second
seconds
secret
secreto
sed
sedgwick
sedicii
sedicio
sedimentala
sedimenti
sedimento
see
segli
seglo
segmenti
segmento
segun
segundo
seguro
seine
seka
seko
sekrecas
sekreta
sekretarii
sekretario
sekrete
sekto
sektori
sektoro
sekulara
sekundara
sekundi
sekundo
sekura
sekureso
sekurigar
selassie
selektar
selektas
selektesas
selektesis
selektis
selektita
selekto
self
selma
selo
semana
semanala
semani
semano
semantikala
semantiko
semblanta
semblar
semblas
semble
semblis
semida
seminario
semini
semino
seminole
sempre
sen
senatani
senatano
senato
sencesa
senci
senco
sendaji
sendajo
sendar
sendas
sendata
sendependa
sendesas
sendesis
sendis
sendita
seneca
senegal
senegalana
senesquadala
senhora
seniora
seniorala
senkolora
senkrua
senlitora
senpartisa
sensala
sensi
senso
sensucesa
sensucese
sentas
senti
sentimenti
sentimento
sentis
sento
senviva
seong
seoul
sep
separar
separas
separata
separesas
separesis
separis
separita
separo
sepesma
sepoy
septembro
septimius
sepultesis
sepulto
sequanta
sequante
sequanti
sequar
sequas
sequata
seque
sequinta
sequis
sequita
sequo
serba
serbala
serbi
serbia
serbian
serbiana
sercha
serchado
serchante
serchar
serchas
serchinda
serchis
sercho
serena
serfeso
serfi
serge
sergei
sergeyevich
sergio
sergipe
sergius
series
serii
serio
serioza
serioze
serpenti
serpento
serra
serrano
servadi
servado
servanta
servar
servas
servesas
servi
service
servico
servis
servisto
servo
sesiono
set
sevastopol
seven
severa
severe
severus
sevilla
seward
sex
sexual
sexuala
sexualeso
sexuo
seycheli
seymour
sezoni
sezono
sfero
sfinxo
sha
shabab
shabloni
shablono
shaft
shafto
shah
shaho
shakalo
shake
shakespeare
shako
shakoludisto
shakoludo
shan
shanghai
shankar
shannon
shapiechina
sharia
sharif
sharki
sharko
sharon
sharp
shaw
shawnee
she
sheffield
shehu
sheikh
sheiko
shek
shelby
shelbyville
sheldon
shelley
shelo
shepard
sheridan
sherman
sherwood
shi
shia
shift
shin
shipunovo
shirley
shirmas
shiva
shoguno
shok
shoko
shop
shore
shores
short
show
shu
shui
shulkin
shultro
shuo
si
sia
siad
siam
siarhiey
sibelius
siberia
sibirski
sica
sicilia
sicilii
sid
sidanta
sidas
side
sideyi
sideyo
sidi
sidili
sidilo
sidney
sie
siegbahn
siegfried
siejar
siejas
siejis
siejo
siena
sieradz
sierra
siete
sifiliso
sigismund
sigma
sigmund
signali
signalo
signatar
signatas
signatesas
signatesis
signatis
signatita
signato
signi
signifikanta
signifikante
signifikar
signifikas
signifiki
signifikis
signifikiva
signifiko
signo
sihanouk
sika
sikeso
silabi
silabo
siles
silezia
siliko
silkeborg
silko
silla
silva
silver
silvester
silvio
sim
sima
simbolala
simboli
simbolismo
simbolizas
simbolo
simeon
simetreso
simfonii
simfonio
simii
simila
simile
similesas
similesi
similesis
simileso
simio
simo
simon
simone
simpatio
simpla
simple
simpligita
simpson
simptomi
sin
sinagogi
sinagogo
sinai
sinclair
sindh
sindikatano
sindikati
sindikato
sindromo
sine
sing
singapur
singer
singh
singla
singladie
singlayare
single
sings
singulara
singularo
sinioro
sinistra
sinistrana
sinistre
sinkas
sinkis
sino
sinodo
sinonimo
sinso
sint
sintaxala
sintaxo
sintezala
sintezo
sintra
sio
siorino
sioro
sioux
sir
siracusa
sire
siria
sirian
siriana
siriani
sirius
sirleaf
sis
sisesma
sistemala
sistemi
sistemo
sister
sisters
sistina
site
sith
sito
situacioni
situaciono
situas
situata
situesas
situesi
situesis
situeso
situi
situita
situo
sive
six
sixtus
sizis
sjo
sjælland
sk
ska
skagen
skalo
skandalo
skanderbeg
skandinavia
skandinaviana
skarabeo
skarsa
skarse
skeletala
skeleti
skeleto
skemo
skermisti
skermistino
skermisto
skermistulo
sketado
ski
skie
skierniewice
skio
skismo
skist
skisuro
skizuro
sklaveso
sklavi
sklavo
sko
skolala
skolani
skoli
skolo
skope
skopi
skopje
skopo
skota
skotia
skotiana
skovgaard
skreno
skribado
skribaji
skribajo
skribar
skribas
skribata
skribesas
skribesis
skribis
skribisti
skribisto
skribita
skribo
skriburi
skriburo
skriptar
skriptis
skriptisti
skriptistino
skriptisto
skriptita
skripto
skrubo
skultado
skulti
skultisti
skultistino
skultisto
skultita
skulto
skulturi
skulturo
sky
skylab
skywalker
slabada
slam
slava
slavi
sligo
slobodan
slogano
slovaka
slovaki
slovakia
slovakiana
slovena
sloveni
slovenia
sloveniana
sluzi
smaliani
small
smet
smetona
smith
smithsonian
smolarnia
smolensk
smyrna
snell
so
soares
sobieski
sobre
soca
social
sociala
socialdemokrata
socialdemokrati
sociale
socialismo
socialist
socialista
socialisti
socialisto
socie
societi
societo
society
socii
socio
sociolinguistiko
sociologi
sociologio
sociologo
sofia
sofiya
sokolniki
sokrates
sokurso
sol
sola
solana
solano
solar
soldati
soldato
sole
soleil
solena
soli
solida
solidareso
solidi
solido
solncevo
solo
solomon
solon
solstico
solvar
solvi
solvita
solvo
solvuro
somali
somalia
somaliana
somalilando
some
somerala
someri
somero
somerset
something
somito
somme
somoza
son
sonato
sondilo
song
songhai
songs
soni
sonia
sonny
sono
sonora
sony
soo
sophia
sophie
soprano
sorba
sorbi
sorbonne
sorgo
soria
sorsa
sorti
sorto
sosa
sosnovi
soto
soul
sound
sousa
south
southern
sovaja
soviet
sovieta
sovietia
sovietian
sovietiana
sovietiani
soyo
soyuz
sp
spacala
space
spaci
spaco
spaconavi
spaconavo
spain
spanish
sparta
spartana
spassk
specala
specale
specaligata
specaligita
specalisti
specalisto
speci
special
specifika
speciganta
specimeni
specimeno
speco
speguli
spegulo
spektakli
spektaklo
spektanti
spektar
spektro
spekulado
spencer
spensar
spensi
spenso
spi
spice
spici
spico
spino
spinoza
spionisto
spirit
spiritala
spiriti
spiritismo
spiritistal
spiritisti
spirito
splendida
split
spokane
spolias
spoliesis
spoliis
spontana
spontane
sport
sporta
sportal
sportala
sporti
sporting
sportisti
sportisto
sporto
sports
spozigis
spozino
spozis
spozo
spozulo
sprache
spratly
sprico
spring
springfield
springs
sputnik
sqrt
squami
square
squez
sr
sredni
sri
sro
ss
ssa
ssangyong
sseldorf
st
sta
stabila
stabileso
stabiligar
stabo
stacas
stacioni
staciono
stacis
stadii
stadio
stadium
stadtbahn
stafford
stagno
stala
stalin
stalingrad
stalo
stamford
stan
standard
standardi
standardo
standas
standi
stando
stanford
stangi
stango
stanislav
stanisław
stanisławo
stanley
stano
stanton
star
stark
starr
start
startis
starto
stasieva
stat
statal
statala
state
staten
states
statestri
statestro
stati
station
statistics
statistikala
statistiki
statistiko
stato
statui
statuo
statura
staturo
status
statuti
statuto
ste
stearns
steel
steele
stefa
stefan
stefano
stefanus
stein
steiner
stelaro
steli
stelo
step
stephen
stepi
stepo
sterling
stern
steve
steven
stevens
stevenson
stevie
stewart
sti
stila
stili
still
stilo
stimular
stimulas
stimulis
stimulita
stipito
stipo
sto
stochowa
stockholm
stockton
stofi
stofo
stoki
stomako
stone
stones
stoni
stono
stop
stopilo
stor
stories
story
stradi
strado
stranja
stranjera
stranjeri
strasbourg
strassmeir
strategiala
strategii
strategio
strati
strato
strauss
stravinski
street
streta
stretaji
stretajo
strickland
strii
striki
striko
strikta
strikte
strio
stro
stroessner
strokar
stroki
stroko
structure
strukturala
strukturi
strukturo
strzyz
stuart
studenti
studento
studiado
studianti
studiar
studias
studiata
studies
studii
studiis
studiisti
studiisto
studiita
studio
studios
studiuro
study
stuifbergen
stulo
sturmo
sturt
stuttgart
style
su
sua
sub
suba
subdividesas
subdividuri
subdividuro
sube
subgrupo
subisar
subisas
subisis
subita
subite
subjekti
subjekto
subjenro
subkontinento
submara
submisar
submisas
submisita
subordinita
suborno
subskribas
subskribesas
substanci
substanco
substantivi
substantivo
substrukturi
substrukturo
subtenas
subtera
subtropikala
suburbala
suburbi
suburbo
sucedanta
sucedante
sucedanti
sucedanto
sucedar
sucedas
sucedesas
sucedesis
sucedinto
sucedis
sucedo
sucesanta
sucesas
sucese
sucesi
sucesis
suceso
sucesoza
sucesoze
sucii
suciis
sucio
sucre
sud
suda
sudafrika
sudafrikana
sudal
sudala
sudan
sudbury
sude
sudesta
sudeste
sudo
sudwesta
sudweste
sue
sueda
suede
suedi
suedia
suedian
suediana
suediani
suez
suffolk
suficanta
suficante
suficas
sufixi
sufixo
sufl
suflas
sufras
sufris
sufro
sugar
sugestas
sugestis
suharto
suin
suisa
suisi
suisia
suisiana
suisiani
sukarno
sukcesi
suko
sukombas
sukra
sukro
sukrokano
sukroza
sul
sulawesi
suleiman
sulfo
suli
sullivan
sulo
sultan
sultani
sultanio
sultano
sum
sumatra
sume
sumeriana
summer
summit
sumner
sumo
sumter
sun
sunal
sunala
sunday
sundio
sung
sunni
sunny
suno
sunolumo
sunoza
sunrise
suocidant
suocidanta
suocidar
suocidas
suocidint
suocidis
suocido
super
supera
supere
superflua
superior
superiora
superirar
superiras
superiris
superliga
supermerkato
supernatura
supernovo
supo
suportanta
suportanti
suportar
suportas
suportata
suporteri
suportesis
suportilo
suportinti
suportis
suportita
suporto
supozas
supozata
supozeble
supozis
supozita
supra
suprajo
supre
supremes
supresar
supresas
supresesis
supresis
supreso
sur
surbaze
surda
surfacala
surfaci
surfaco
surinam
surnomizesas
surnomizesis
surnomizita
surnomo
surprizo
surtabla
surtera
survey
surveyar
surveyas
surveyo
surveyor
survoye
sus
susan
suspektas
suspektita
suspendita
suspensas
suspensis
sussex
sustenar
sustenebla
susteno
sutherland
suu
suverena
suvereneso
suvereni
suvereno
suzanne
suzdal
suzuki
sv
sven
svetlana
svg
swahilia
swan
swazilando
sweet
swift
sy
sydney
sylvanus
sylvester
sylvia
symphony
syracuse
system
szadek
szadkowice
szczerco
sze
szlo
søren
słupia
t
ta
tabako
tabeli
tabelo
tablo
tabor
tacna
tadeusz
tadjoura
tae
taekwondo
tafari
taft
tag
tago
tahiti
tai
tail
tailandana
tailando
tain
taipei
taiwan
tajikistan
take
takeo
taktiki
tal
tala
talbot
tale
talento
tales
talibani
talk
talking
talladega
tallapoosa
tallinn
talpa
talpo
tam
tama
tamar
tamburi
tamburisto
tamburo
tamen
tamil
tampa
tampere
tan
tanaka
tanana
tancredo
tandem
tang
tanganyika
tangent
tango
tanki
tanko
tannenberg
tanta
tante
tanzania
taoiseach
taoismo
tarawa
tarda
tarde
tariq
tarja
tarno
taro
tarragona
tartu
tarzan
taski
tasko
tasman
tasmania
tasso
tat
tatar
tatari
tatarstan
tatempa
tatempe
tauro
tavares
taxado
taxi
taxii
taxio
tayare
taylor
tayo
tazio
tbilisi
te
tea
team
tears
teatr
teatraji
teatrajo
teatrala
teatri
teatro
teau
teborg
technical
technology
ted
tegucigalpa
tehran
teixeira
tejada
teknikal
teknikala
tekniki
tekniko
teknologiala
teknologii
teknologio
tekto
tel
tela
telecom
telefonala
telefonili
telefonilo
telegrafilo
telegrafo
telekomuniki
telekomuniko
teleskopo
television
televizion
televizionala
televiziono
tell
telo
temi
temo
temp
tempa
tempala
tempale
tempe
temperaturi
temperaturo
temperema
tempesti
tempesto
tempi
temple
templi
templo
tempo
temps
temptations
ten
tenar
tenas
tendencas
tendenci
tendenco
tenebroza
tenerife
teng
tenis
tenisisti
tenisistino
tenisisto
tenisistulo
teniso
tennessee
tenochtitla
tensi
tensita
tenso
tenua
tenzin
teo
teodoro
teodorus
teologiala
teologiisto
teologio
teologo
teoremo
teoriala
teorii
teoriisto
teorio
teplico
ter
tera
terala
terapiala
terapio
teraso
terence
tereni
tereno
teresa
tereshkova
teresin
terglitadi
terglitado
teritorial
teritoriala
teritorii
teritorio
termala
termi
terminaro
termini
termino
termo
termodinamikala
termodinamiko
tero
terorismo
terorist
terorista
teroristi
teroristo
teroro
terpomi
terpomo
terra
terrace
terre
terry
tertremo
teruel
tervenas
tervenis
terveno
testamento
testi
testo
texala
texas
texita
text
texti
texto
texuri
texuro
tezi
tezo
th
thai
thames
than
thani
that
thatcher
thayer
the
theater
theatre
theme
theo
theodor
theodore
theodorik
theodoros
theodosius
theory
there
theresa
thesaloniki
theta
they
thierry
things
this
tho
thomas
thompson
thomson
thor
thorn
three
through
thumb
thumbnail
thunberg
thunder
ti
tiahuanako
tiananmen
tianjin
tiberio
tiberius
tibet
tibetana
tica
tico
tie
tien
tienne
tierra
tiete
tifono
tiger
tigri
tigris
tigro
tihonov
tijuana
tikal
tiki
til
till
tillamook
tillore
tilvenis
tim
timar
timas
timbuktu
time
times
timis
timo
timor
timothy
timur
tin
tina
tipala
tipi
tipo
tipton
tiradentes
tirane
tirano
tirar
tirita
tiro
tirol
tiso
tisui
tisuo
titanic
titano
title
tito
tituli
titulizita
titulo
titus
tnp
to
tobago
tobias
tobruk
tocantins
today
todd
todi
todo
todos
together
togo
tokamak
tokelau
tokio
tokugawa
tokyo
toledo
tolero
tolkien
tolo
toluca
tom
toma
tomas
tomaszo
tomato
tombalbaye
tombeyo
tombi
tombo
tome
tomi
tommaso
tommy
tomo
ton
tonga
tongana
tongatapu
tongues
toni
tono
tony
too
top
topeka
topografiala
topografio
toquinho
torako
tordesillas
torino
tormento
tornadi
tornado
toro
toronto
torpedi
torpedo
torre
torres
torrijos
torso
tortugi
torun
toskania
tot
tota
total
totala
totale
totali
totalo
tote
toto
toulouse
tour
toure
tours
toussaint
tout
tower
town
township
toxika
tpoint
tr
tra
trabo
traci
traco
tracy
trad
trade
tradicional
tradicionala
tradicionale
tradicioni
tradiciono
tradukar
tradukas
tradukesis
tradukis
tradukisto
tradukita
traduko
tradukuri
tradukuro
trafalgar
trafiko
tragedio
trahizo
traianus
trail
train
trairanta
trairar
trairas
trairis
traiti
traito
trajektorio
trakia
traktado
traktar
traktas
traktata
traktati
traktato
traktesas
traktis
traktita
trakto
traktori
tramveturi
tramveturo
tranchei
trancheo
tranchita
trans
transdnistria
transferar
transferas
transferesis
transferis
transfero
transformado
transformar
transformas
transformesis
transformi
transformis
transformo
transilvania
transirar
transiras
transiris
transiro
transitala
transito
transkaukazia
translaci
translaco
translate
transliterigado
transliterizita
translojar
translojas
translojis
transmara
transmis
transmisar
transmisas
transmisata
transmisesas
transmisesis
transmisis
transmiso
transmission
transplantaco
transport
transportado
transportanta
transportar
transportas
transportata
transportesas
transportesis
transporti
transportis
transportita
transporto
transportonavi
transskribado
transvaal
transvivar
transvivas
transvivinti
transvivis
transvivo
traore
traumato
tre
tree
treki
treko
tremi
tremo
treni
treno
trenton
tres
trezoro
tri
triadek
triangula
trianguli
triangulo
tribuala
tribui
tribunali
tribunalo
tribune
tribuo
trier
triesma
triesmafoye
trieste
trifoye
trigonometrio
triimi
triimo
trilogio
trimble
trinidad
trinity
trio
triopla
tripoli
tripolitania
trista
triumfo
triuno
tro
trocki
trofei
trofeo
troick
trois
troleobusi
trompar
trono
tropikala
tropiko
trovar
trovas
trovata
trovebla
trovesar
trovesas
trovesis
trovesos
trovis
trovita
troy
troya
trubaduri
trubli
truck
true
truffaut
trui
trujillo
truman
trump
truo
trupi
trupo
trybunalski
trygve
ts
tt
tter
ttingen
ttir
tu
tua
tuanku
tuberkloso
tubi
tubo
tucker
tucson
tudes
tudor
tuileries
tula
tulipo
tulsa
tulum
tumoro
tumulti
tumulto
tun
tundro
tuneli
tunelo
tunguska
tuni
tunis
tunizia
tuniziana
tupac
tupi
tupolev
tupou
turbo
turi
turingia
turismala
turismo
turistal
turistala
turisti
turisto
turka
turke
turkestan
turki
turkia
turkiana
turkish
turkmenistan
turks
turku
turmi
turmo
turnar
turnas
turner
turniri
turniro
turno
turo
tushas
tutelo
tutsi
tuvalu
tuxen
tv
tver
twain
twin
twitter
two
ty
tya
tyler
type
tyumen
tz
u
ubangi
ube
ucel
uceli
ucelo
ud
ue
uefa
uesca
ufa
ufc
uganda
uk
ukraina
ukrainan
ukrainana
ukrainani
ul
ula
ulaanbaatar
uladzimir
ulafoye
ulakaze
ulaloke
ulatempe
uli
ulmanis
ulo
ulrich
ulster
ultempe
ultima
ultimate
ultimato
ultra
ultre
ulu
ulysses
ulı
um
uma
umar
umatilla
umayyad
umayyadi
umberto
umi
un
una
unaji
unajo
und
under
underground
une
unesco
unesko
unesma
unesmafoye
unesme
uneso
unfoye
ungli
uni
unicef
uniforma
uniformi
unigis
unigo
unika
unike
unio
union
unionar
unionas
unionesas
unionesis
unionis
unionita
uniono
unionville
unita
unitara
united
universal
universala
universidad
universita
universitatala
universitati
universitato
universite
university
universo
unlatere
uno
unter
unu
uol
up
upanishad
upon
uppsala
upright
ur
uragani
uragano
ural
urali
uralika
uranio
urano
urbala
urbalrurala
urbaltipa
urbana
urbanus
urbe
urbestr
urbestro
urbeti
urbeto
urbi
urbo
urbodomo
urbovilaja
urdu
urgell
urho
uriburu
urjanta
urjanteso
urso
ursula
uruguay
uruguayan
uruguayana
us
usa
usala
usan
usana
usani
usano
use
uss
ust
uta
utah
utc
utensili
utensilo
utero
utila
utileso
utiligata
utiligis
utrecht
uzabis
uzado
uzanta
uzante
uzanti
uzanto
uzar
uzas
uzata
uzbekistan
uzbekistanana
uzebla
uzeri
uzesar
uzesas
uzesis
uzeskas
uzesos
uzi
uzinta
uzis
uzita
uzo
uzun
uzurpanto
uzus
v
va
vacino
vader
vakanceyo
vakanco
vakua
vakuo
val
valakia
valde
valdemar
valdez
valdivia
vale
valencia
valenciana
valens
valenti
valentin
valentina
valentinianus
valentinus
valenzuela
valeri
valerius
vali
valiawki
valida
valideso
valladolid
valle
valletta
valley
valo
valois
valor
valoras
valori
valoris
valoro
valoroza
valparai
valuto
van
vancouver
vandali
vandalia
vane
vanessa
vanuatu
vaporo
vaporomashini
vaporomashino
var
varela
vargas
vari
variadi
variado
variaji
varianta
varianti
varianto
variar
varias
variata
varietati
varietato
varii
variis
vario
variolo
varm
varma
varmega
varmesko
varmeso
varmia
varmigo
varo
varoufakis
vartis
vasa
vasala
vasalo
vasco
vasili
vasilievich
vasily
vasilyevich
vaskuli
vasta
vaste
vatikano
vaughan
vaxo
vaz
vazi
vazo
ve
vec
veda
vedas
vega
vegas
vehar
vehas
veheri
vehili
vehilo
vehis
veini
veino
vejetala
vejetantaro
vejetanti
vektorala
vektori
vektoro
vela
velasco
velha
velho
veluro
veluwe
velvet
venanta
venar
venas
vendar
vendas
vendesas
vendesis
vendi
vendis
vendisto
vendita
vendo
veneni
veneno
venenoza
venera
venerdio
venezia
veneziana
venezuela
venezuelana
venice
veninta
venis
venizelos
venjo
venkata
venkis
venlo
venn
veno
venti
vento
ventro
venus
venuso
venustiano
ver
vera
verajo
verbala
verbi
verbo
verda
verde
verdi
verdikto
verdun
vere
vereso
verhni
veri
verkar
verkaro
verkas
verki
verkis
verko
verlag
verlaine
vermeer
vermo
vermont
verne
vernon
vero
verona
verrazzano
vers
versailles
versi
versioni
versiono
verso
vert
vertikala
vertikale
vertui
vertuo
very
vespasianus
vespero
vespucci
vestaro
vestfalia
vesti
vestizita
vesto
veter
vetero
veturi
veturo
vez
vi
via
vialikaya
vialikaye
vialikia
viborg
vic
vice
vicee
vicente
viceprezidanto
vicerejio
vicerejo
vichy
viciebsk
vicina
vicineso
vicineyi
vicineyo
vicini
vicino
vicious
victor
victoria
victoriano
vid
vida
vidado
vidajo
vidal
vidala
vidanta
vidante
vidar
vidas
vidata
videbla
videi
videla
video
videoludi
videoludo
videsar
videsas
videsis
videz
vidindaji
vidis
vidita
vido
vidopunti
vidopunto
vidpunto
vidreya
vidvino
vidvo
vie
vieira
vieliashkovichi
vienna
vientiane
viet
vietnam
vietnamana
vietnamani
view
vigo
vii
viii
viipuri
viking
vikinga
vikingi
vikingo
viktimi
viktimo
viktor
viktoria
vila
vilajeti
vilajeto
vilaji
vilajo
vildo
vilhelm
villa
village
villas
ville
villeneuve
vilnius
vimna
vinagro
vincennes
vincent
vincenzo
vinci
vini
vinkabis
vinkanto
vinkar
vinkas
vinkesas
vinkesis
vinkeso
vinki
vinkinta
vinkinti
vinkinto
vinkir
vinkis
vinkita
vinko
vinkos
vinkoza
vino
vintrala
vintri
vintro
viola
violacar
violaco
violea
violenta
violento
violentoza
violentoze
violeta
violetta
violini
violinisto
violino
violoncelo
virala
virgin
virginia
virgino
viri
viro
virologiisto
virtual
virtuala
virusi
viruso
visconti
vishnu
visigota
visigoti
visitors
viskomto
viskoza
visokaye
vista
vistula
vit
vita
vital
vitali
vitamini
vitamino
viteyo
vito
vitra
vitro
vittorio
vitus
viv
viva
vivala
vivanta
vivar
vivas
vive
vivi
vivinta
vivis
vivo
vivos
vizajo
vizas
vizigota
vizigoti
vizioni
viziono
viziro
vizis
vizitanti
vizitar
vizitas
vizitata
viziteri
viziti
vizitis
vizito
vladimi
vladimir
vltava
vo
voc
vocala
voci
voco
voice
vokala
vokali
vokalo
vol
volapu
volas
volebalisti
volebalistino
volebalisto
volebalo
volfi
volfo
volga
volgograd
volis
volkanal
volkanala
volkani
volkano
volkswagen
volo
vologda
volontarii
volta
voltaire
volume
volumino
volumo
volunto
von
voor
voronej
vortari
vortaro
vorti
vorto
vortolibri
vortolibro
vortoludi
vortope
vostok
votadi
votado
votanti
votar
votas
voti
votis
voto
voyager
voyajanti
voyajar
voyajas
voyajeri
voyaji
voyajis
voyajo
voyi
voyo
vu
vua
vulgara
vulgaris
vulto
vundas
vundebla
vundesas
vundesis
vundi
vundita
vunditi
vunduri
vunduro
vuscie
vy
vyacheslav
w
wa
wabasha
waco
wade
wagner
wahl
wake
walcott
wald
waldemar
waldkappel
waldo
wales
walker
wall
wallace
wallis
walnut
wals
walsana
walt
waltari
walter
walther
walton
wan
wang
wangchuck
war
ward
warner
warren
warrenton
wars
warsaw
warszawa
warwick
was
washington
wat
water
watergate
waterloo
waters
watson
watt
watts
wave
waverly
way
wayland
wayne
wba
we
web
webb
weber
website
webster
wedge
weferling
wei
weimar
weismann
weizmann
wek
weller
wellington
wells
wen
wendell
wentworth
were
werner
wesley
wessex
west
westa
westal
westala
weste
western
westminster
westo
weston
westpomeria
what
wheaton
wheeler
when
where
white
whitman
whitney
who
whorf
wiat
wichita
wie
wielka
wielkopolski
wielopole
wielun
wien
wieruszo
wies
wiki
wikipedia
wikipedio
wiktoro
wilbur
wild
wilde
wilder
wilford
wilhelm
wilhelmina
wilkes
will
willard
willem
william
williams
williamsburg
williamson
williamstown
williamsville
willis
willy
wilmington
wilson
wilton
wim
wimbledon
wincento
wincenty
winchester
wind
windows
windsor
windu
winfield
wing
winnebago
winnipeg
winona
winslow
winston
winter
wisconsin
wiskio
with
without
witold
wittenberg
wittgenstein
wka
wki
wlc
wo
wojciech
wola
wolf
wolfgang
wolof
woman
women
won
wonder
woo
wood
woodburn
woodbury
woodland
woodrow
woods
woodstock
woodward
woody
woolf
words
work
works
world
worth
worthington
woz
wrestling
wright
wrocław
wu
wuhan
wurtemberg
www
wyatt
wyoming
władysław
x
xavier
xbox
xenia
xenofon
xi
xia
xico
ximo
y
ya
yahoo
yahya
yale
yamhill
yan
yanavichi
yang
yangce
yangon
yanukovich
yar
yara
yarala
yarale
yarcenta
yarcenti
yarcento
yardeki
yardeko
yare
yari
yarmili
yarmilo
yaro
yaroslavl
yaskawshchina
yasser
yatsen
ye
year
years
yeats
yekaterina
yekaterinburg
yelcin
yelena
yellow
yemen
yemenana
yen
yenisei
yerevan
yes
yevgeni
yi
yiddish
yle
yo
yoda
yogyakarta
yokohama
york
yorkshire
yorktown
yoruba
you
young
your
youtube
ypres
yrigoyen
yu
yuan
yugoslavia
yugoslaviana
yujni
yukagira
yukatan
yukon
yulia
yun
yuna
yunaro
yuneso
yuni
yunino
yuno
yunuli
yunulo
yupanqui
yurala
yuri
yuristo
yurizita
yuro
yurocienco
yushchenko
yusta
yusteso
yusuf
yves
z
za
zaandam
zabalaccie
zadrowie
zagreb
zaire
zamastochcha
zambezi
zambia
zamenhof
zamora
zanne
zanzibar
zaozyorni
zapata
zapolice
zaporijjya
zappa
zar
zaragoza
zaro
zarubi
zarzecze
zavod
zazaki
zbigniew
zdene
zdun
ze
zedong
zeeland
zef
zeit
zelandana
zelando
zelaya
zelda
zelo
zeno
zeppelin
zero
zeta
zeus
zgierz
zhang
zhao
zhou
zhu
zhua
zia
zimbabwe
zine
zinko
zion
zmir
zola
zolotuhino
zolta
zone
zong
zoni
zono
zoo
zoologiala
zoologiisto
zoologio
zoran
zquez
zsef
zu
zubava
zubrevichi
zuckerberg
zuckermann
zuid
zulfikar
zului
zur
zwierzyniec
zwolen
zy
zygmunt
{
|
}
~
¡
£
¨
©
ª
«
¬
°
±
²
³
´
·
¹
º
»
½
¿
×
æ
ð
ø
øresund
þo
đa
đo
ħ
łask
łe
ło
łowicz
łubnice
ŋ
ƀ
ƒ
ɐ
ɔ
ɛ
ɲ
ʃ
ʒ
ʲ
ʷ
ʹ
ʻ
ʼ
ʾ
ʿ
ˈ
ˌ
ː
˙
˚
̀
́
̂
̃
̄
̆
̇
̈
̉
̊
̋
̌
̓
̔
̛
̣
̦
̧
̨
̩
̯
̱
̸
͂
͡
α
β
γ
δ
ε
η
θ
ι
ν
ξ
ο
π
ρ
ς
σ
τ
υ
φ
χ
ω
а
в
вид
г
д
дом
е
ж
з
и
к
л
м
н
на
о
п
р
с
т
у
ф
х
ч
щ
ъ
ь
э
ю
я
є
і
ְ
ִ
ֵ
ֶ
ַ
ָ
ֹ
ּ
ׁ
א
ב
ה
י
ל
ם
מ
ן
נ
ר
ש
ת
ا
س
ش
ط
َ
ُ
ّ
ْ
ٔ
ٕ
ं
ग
द
ध
न
र
श
ह
ा
ि
ी
ु
ो
्
ম
ল
া
্
ா
்
ิ
์
་
‌
‍
‎
‏
‑
–
—
‘
’
“
”
„
†
•
…
′
″
‹
›
€
←
→
↔
↷
∇
∑
−
≥
⊕
③
④
⑦
♀
♠
♣
♥
♦
⟨
⟩
⺀
⺄
⺆
⺈
⺊
⺌
⺕
⺝
⺸
⺼
⿰
⿱
⿲
⿳
⿴
⿵
⿶
⿷
⿸
⿹
⿺
⿻
、
〢
あ
い
う
え
お
か
き
く
け
こ
さ
し
す
せ
た
ち
っ
つ
て
と
な
に
ぬ
ね
の
は
ひ
ふ
へ
ほ
ま
み
む
も
ゃ
や
ゆ
ょ
よ
ら
り
る
ろ
わ
を
ん
゙
゚
ア
ィ
オ
キ
ク
コ
シ
ス
セ
タ
ッ
テ
ト
ニ
ハ
ヒ
フ
ヘ
ホ
マ
ユ
ョ
ラ
リ
ル
ロ
ン
・
ー
㇁
㇂
㇄
㇇
㇈
㇉
㇓
㐁
㐄
㐅
㐌
㐫
㐬
㐭
㐮
㐱
㑒
㒵
㒸
㒼
㓁
㓞
㔾
㕛
㕣
㖾
㘝
㚅
㚇
㚔
㚘
㝉
㝡
㝴
㝵
㞋
㞢
㞷
㠩
㠭
㠯
㡀
㡭
㡿
㢲
㢴
㣇
㣺
㥯
㪅
㫄
㫐
㫒
㫺
㬅
㬎
㬥
㬰
㲋
㳄
㷠
㸒
㸚
㸦
㼌
㼲
㽞
㿟
䀠
䂞
䍃
䏍
䒑
䖍
䖒
䖝
䖵
䙴
䚻
䜌
䝿
䡛
䧹
䪞
一
丁
丂
七
丄
丅
丆
万
丈
三
上
下
丌
不
与
丏
丐
丑
专
且
丕
世
丘
丙
业
东
丞
丢
丣
两
严
並
丨
丩
个
丫
丬
中
丮
丰
丱
串
丵
丶
丷
丸
丹
为
主
丽
丿
乀
乂
乃
久
乆
乇
么
义
之
乌
乍
乎
乏
乐
乑
乔
乖
乗
乘
乙
乚
乛
乜
九
乞
也
习
乡
乳
乾
亀
亅
了
亇
予
争
事
二
亍
于
亏
亐
云
互
亓
五
井
亘
亚
亜
亞
亟
亠
亡
亢
交
亥
亦
产
亨
亩
享
京
亭
亮
亯
亰
亲
亳
亶
亷
人
亻
亼
亾
仁
今
介
仌
从
仐
仑
仒
仓
仕
他
付
仝
代
令
以
任
企
伊
伏
伐
休
会
伝
伯
但
位
何
佘
余
作
佥
使
來
侈
侌
侖
侯
侵
便
俊
保
俞
信
修
倉
倍
候
倠
備
僉
僕
儿
兀
允
兂
元
兄
充
兆
兇
先
光
兊
克
兌
免
兑
兒
兓
兔
党
兜
兟
入
全
兩
兪
八
公
六
兮
兰
共
关
兵
其
具
典
兹
兼
冀
冂
冃
冄
内
冈
冉
冊
冋
册
再
冎
冏
冐
冒
冓
冖
冗
冘
军
农
冝
冡
冥
冫
冬
冷
几
凡
凢
凵
凶
凷
凸
凹
出
函
凾
刀
刁
刂
刃
刄
刅
分
切
刍
刑
刕
刖
列
刘
则
初
別
利
别
到
制
刺
則
削
剌
前
剡
剽
劉
力
功
加
劦
助
劫
劳
劵
勃
勇
勉
勒
動
務
勞
勤
勹
勺
勻
勾
勿
匀
匂
包
匆
匈
匊
匋
匍
匕
化
北
匚
匝
匡
匪
匱
匸
匹
区
医
匽
匿
區
十
卂
千
卄
卅
卆
升
午
卉
半
卌
华
卑
卒
卓
单
卖
南
卜
卝
卞
占
卡
卢
卣
卤
卦
卩
卪
卬
卯
印
危
即
却
卵
卷
卸
卻
厂
厃
厄
历
厈
厉
厌
厓
厘
厚
原
厤
厥
厨
厭
厲
厶
厷
厸
去
厼
厽
叀
参
參
叅
又
叉
及
友
双
反
叐
发
叒
叔
叕
取
受
叚
叜
叟
口
古
句
另
叩
只
召
可
台
叱
史
右
叵
号
司
叹
吂
各
吅
合
吉
吊
吋
同
名
后
吏
向
吕
君
吝
吞
否
含
启
吳
吴
吹
吾
呂
呆
呈
告
员
呙
周
命
咅
和
咎
咠
咢
咨
咸
咼
哀
品
哉
員
哥
哲
唐
商
啇
問
啚
啬
啻
善
喜
喬
單
喿
嗇
噩
嚴
囊
囗
囘
囙
囚
四
回
囟
因
囧
囬
困
囱
囷
固
国
圂
圅
國
圍
圓
土
圡
圣
圥
在
圭
地
圶
圼
坐
坒
坚
坴
垂
垔
垚
埀
埋
域
埶
執
基
堂
堅
堆
堇
堯
報
塞
墨
壘
士
壬
壮
壯
声
壳
壴
壹
壺
壽
夂
处
夅
夆
备
夊
夋
夌
复
夏
夒
夕
外
夗
夘
多
夜
夢
大
夨
天
太
夫
夬
夭
央
失
夲
头
夷
夸
夹
夻
夾
奂
奄
奇
奈
奉
奎
奏
奐
契
奓
奔
奚
奞
奠
奢
奥
奭
女
奴
奻
好
如
妄
妓
妙
妟
妥
妹
妻
妾
姑
委
姜
威
娄
娼
婁
婴
嬰
嬴
子
孑
孔
孕
孖
字
存
孚
孛
孝
孟
季
孤
学
孫
孱
學
宀
宁
宂
它
宅
宇
守
安
宋
完
宏
宓
宗
官
定
宛
宜
宝
客
宣
室
宮
宰
害
家
容
宾
宿
寄
寅
密
富
寒
察
寧
審
寫
寬
寮
寸
对
寺
寻
寽
対
寿
封
尃
射
将
將
專
尉
尊
尋
尌
對
小
少
尒
尓
尔
尖
尗
尙
尚
尞
尢
尣
尤
尧
尨
尭
就
尸
尹
尺
尻
尼
尽
尾
尿
局
居
屈
屋
屎
屏
屑
展
屖
屚
属
屠
屡
屬
屮
屯
屰
山
屵
屾
岁
岂
岑
岡
岩
岳
岸
峯
島
崇
崑
崔
崖
崙
崩
嵬
嶲
巂
巛
川
州
巟
巠
巢
巤
工
左
巧
巨
巩
巫
差
己
已
巳
巴
巷
巸
巽
巾
巿
帀
市
布
希
帚
帛
帝
带
師
席
帶
常
幌
干
平
年
幵
并
幷
幸
幺
幻
幼
幽
幾
广
広
庄
床
底
店
庚
府
度
庫
庭
庶
康
庸
廉
廌
廛
廣
廩
廴
延
廷
建
廾
廿
开
弁
弃
弄
弇
弋
式
弓
弔
引
弗
弘
弜
弟
弥
弦
弱
張
強
强
彊
彌
彎
彐
彑
当
彔
录
彖
彗
彡
形
彥
彦
彧
彭
彳
役
彼
往
待
律
徒
得
徙
從
復
微
徵
心
忄
必
忌
忍
志
忝
忠
忩
快
念
忽
忿
思
怠
急
怱
恆
恒
恩
恭
息
悉
患
悤
悲
悶
惠
惡
惢
愁
愈
意
愛
感
慈
慧
慮
慶
憂
憲
應
懐
戀
戈
戉
戊
戋
戌
戍
戎
成
我
戒
戔
或
戚
戠
戢
戦
截
戲
戶
户
戹
戼
戾
房
所
扁
扇
手
扌
才
打
托
执
承
折
拉
拜
拿
掌
推
提
摩
支
攴
攵
收
攸
改
放
政
敄
敏
敕
敖
敗
敝
敞
敢
散
敦
敫
敬
数
敷
數
斂
文
斉
斊
斗
斤
斥
斩
斬
斯
新
方
於
施
斿
旁
旋
族
无
旡
既
旣
日
旦
旧
旨
早
旬
旱
旲
时
旾
昆
昇
昌
昍
明
昏
易
昔
昗
昜
星
春
昬
是
昱
昴
昷
時
晃
晋
晏
普
景
晶
智
暑
暴
曇
曩
曰
曲
曳
更
曷
書
曹
曼
曾
替
最
朁
會
月
有
朋
服
朔
朕
朗
望
朝
木
朩
未
末
本
札
朮
术
朱
朴
朵
朶
朿
杀
李
杏
村
杜
束
条
来
東
杲
杳
松
析
林
枚
果
枝
枲
枼
某
柔
查
柬
柰
柴
栗
株
桀
桂
桑
桼
梁
條
梟
梨
棘
棠
棥
森
楚
業
楽
榮
樂
樊
模
欠
次
欣
欮
欲
欶
欽
款
歆
歇
歌
歛
止
正
此
步
武
歨
歪
歮
歯
歰
歲
歴
歷
歸
歹
歺
死
殳
段
殷
殸
殹
殺
殻
殿
毋
毌
母
每
毒
比
毕
毚
毛
毳
氏
氐
民
气
氣
水
氵
氶
氷
永
氺
氾
求
汝
汞
江
沃
沓
沙
沝
河
沼
泉
法
波
泣
泥
泰
洙
洛
津
洪
活
派
流
浦
浪
浮
海
淡
淮
淸
清
渚
渠
港
湯
源
滿
漢
漸
濟
火
灬
灭
灰
灵
灷
炅
炎
炏
炗
炙
炭
為
烈
烏
烝
焉
無
焦
焱
然
煞
熊
熏
熱
燕
營
燮
爪
爫
爭
爯
爰
爱
爲
爵
父
爻
爽
爾
爿
片
牙
牚
牛
牜
牟
牢
牧
牪
特
牽
犀
犬
犭
犮
狂
狄
狊
独
狺
猋
猒
猪
献
獻
玄
率
玉
王
玟
玨
珎
班
理
琴
瑟
瑩
瓜
瓦
甘
甚
生
産
用
甫
甬
田
由
甲
申
电
甶
男
甸
甹
町
画
甾
畀
界
畏
畐
留
畜
畟
畢
畧
畨
番
畫
異
畱
當
畺
畾
畿
疊
疋
疌
疑
疒
疾
病
癶
癸
癹
登
發
白
百
皀
皃
的
皆
皇
皋
皐
皕
皮
皷
皿
盃
盆
盇
盈
益
盍
盎
监
盒
盖
盛
盡
監
盤
盧
目
直
相
盾
省
眇
眉
看
眔
眞
真
眷
眼
眾
着
睘
睪
睿
瞏
瞢
瞿
矍
矛
矞
矢
矣
知
矦
短
石
研
破
碎
磊
磨
示
礻
礼
社
神
祟
票
祭
禀
禁
禸
禹
禺
离
禽
禾
禿
秀
秃
秉
秋
科
秝
秦
移
稟
穀
穌
穴
究
穹
空
穿
突
窄
窒
立
竒
竜
竝
竟
章
童
竹
笑
笠
筆
等
答
箕
算
箴
節
篤
篭
米
粉
粛
粟
粤
粦
粲
糞
糸
糹
系
約
納
素
索
紫
累
細
絜
絫
絲
維
綿
縣
繇
纍
纟
缶
网
罒
罔
罕
罗
罙
罡
罢
罪
署
罷
羅
羊
羌
羍
美
羔
羕
羗
羞
羡
羣
群
義
羲
羸
羽
翁
翏
習
翕
翟
翠
翼
老
耂
考
者
耆
而
耎
耑
耒
耳
耴
耶
耷
聂
聊
聖
聚
聶
聿
肀
肃
肅
肉
肖
肙
肥
肩
肯
育
肴
胃
背
胡
胥
能
脊
脩
膚
臣
臤
臧
自
臬
臭
臯
臱
至
致
臺
臼
臽
臾
臿
舀
舂
舄
與
興
舉
舌
舍
舛
舜
舞
舟
般
艮
良
色
艸
艹
艾
芒
芔
芬
芮
花
芳
芺
芻
苔
苗
苟
若
苦
英
茶
茸
荅
草
荒
荣
荼
莆
莧
莫
莽
菆
菊
菐
華
萬
落
葉
著
葛
董
葵
蒙
蒦
蒼
蓋
蓬
蓺
蔑
蔚
蔡
蕉
蕭
薄
薛
薦
薰
藍
藏
藥
蘭
虍
虎
虐
虒
虔
處
虖
虗
虘
虚
虛
虜
虞
虫
虽
蚤
蚩
蜀
蜜
蟲
蠡
血
行
衍
衛
衣
衤
表
衮
衰
袁
袞
褭
褱
襄
襾
西
覀
要
覃
見
規
覓
覧
親
覽
见
角
解
言
訁
訇
計
記
詹
誩
諸
讠
语
谷
豆
豈
豊
豐
豕
豖
豙
象
豦
豩
豪
豸
貇
貝
貞
貟
負
貢
貧
貪
貫
責
貳
貴
買
費
賁
資
賈
賏
賓
賔
賛
賞
賢
賣
質
賴
贊
贝
贡
责
贯
贲
贵
赖
赞
赤
赦
走
起
越
足
路
蹇
身
躬
車
軍
軎
軟
輦
车
辛
辜
辟
辥
辰
辱
農
辵
辶
边
达
过
近
连
迷
追
退
送
逆
逐
通
速
造
逢
連
逮
進
遀
遂
過
道
達
遠
遣
適
遷
遺
邊
邑
邕
那
邦
邪
邱
郎
部
郭
都
鄉
鄭
酉
酋
配
酓
釆
采
里
重
野
量
金
釒
錢
鍾
钅
長
镸
长
門
閃
閉
開
閏
閑
閒
間
閔
閵
閻
闌
门
问
间
闷
阑
阜
阝
阿
降
陳
隆
隊
隋
隡
隨
隱
隶
隹
隺
隻
隼
隽
难
雀
雁
集
雈
雋
雍
雐
雔
雙
雚
雜
雝
離
難
雨
雩
雪
雲
零
雷
需
霍
霜
霝
霞
霸
靈
靑
青
非
靡
面
靣
革
韋
韓
韦
韭
韯
韱
音
頁
頃
項
須
頗
頡
頻
顛
页
题
風
风
飛
飞
食
飠
飯
養
饣
首
香
馬
馮
駦
马
骨
高
髟
鬥
鬯
鬲
鬼
魂
魚
魯
鮮
鱼
鲁
鳥
鳳
鸟
鹵
鹿
麃
麗
麥
麦
麻
黃
黄
黍
黎
黑
黒
黨
黹
黽
黾
鼎
鼓
鼠
鼻
齊
齋
齐
齒
齿
龍
龙
龜
龟
龠
龰
龱
龴
龵
龶
龷
龸
龹
ꟿ
者
艹
﻿
（
）
，
：
？
～
𒌋
𠀁
𠀃
𠀆
𠀉
𠀎
𠀐
𠁁
𠁣
𠂆
𠂇
𠂈
𠂉
𠂊
𠂋
𠂎
𠂒
𠂔
𠂛
𠂡
𠂢
𠂤
𠂬
𠂭
𠂹
𠃊
𠃋
𠃌
𠃍
𠃎
𠃑
𠃓
𠃔
𠃜
𠄌
𠄎
𠄠
𠄢
𠆢
𠆥
𠇍
𠈌
𠌵
𠓜
𠔉
𠔥
𠔼
𠔽
𠔿
𠕀
𠕁
𠕋
𠘧
𠘨
𠙻
𠙼
𠚏
𠚒
𠚤
𠚪
𠣏
𠤎
𠤕
𠥓
𠦄
𠦑
𠦝
𠧒
𠧗
𠧪
𠩺
𠪚
𠫓
𠫔
𠫤
𠬛
𠬝
𠬞
𠬢
𠬤
𠬶
𠮛
𠮦
𠮷
𠯑
𠱠
𠳮
𠷎
𡈼
𡉀
𡉵
𡌥
𡍮
𡏳
𡕒
𡕩
𡕰
𡖅
𡗗
𡗜
𡘆
𡘤
𡧱
𡨄
𡩧
𡬠
𡭽
𡰣
𡰥
𡰪
𡰯
𡰱
𡷈
𡸁
𡿨
𡿩
𡿪
𡿺
𢀖
𢀛
𢀩
𢁙
𢆉
𢆰
𢆶
𢇁
𢇇
𢉖
𢌬
𢌿
𢏚
𢑑
𢑚
𢖻
𢙣
𢛳
𢦏
𢦒
𢧵
𢼄
𢾕
𣁋
𣄼
𣅀
𣅽
𣍘
𣎳
𣎵
𣏋
𣏼
𣗥
𣥂
𣥖
𣦵
𣦼
𣧄
𣪊
𣪠
𣬉
𣳾
𣶒
𤇾
𤊽
𤐫
𤓰
𤔔
𤕨
𤣩
𤰇
𤰔
𤰞
𤴓
𤴔
𤽄
𥁑
𥁕
𥃦
𥃩
𥃭
𥇡
𥑟
𥘅
𥘈
𥝢
𥫗
𥱡
𦈢
𦉪
𦉬
𦉼
𦍌
𦍒
𦎧
𦐇
𦓔
𦔮
𦘒
𦙃
𦚏
𦣝
𦣞
𦣻
𦥑
𦥔
𦥯
𦨉
𦭝
𦰩
𧆞
𧈧
𧘇
𧰨
𧴪
𧴮
𧵩
𧾷
𨸏
𨾴
𩙿
𩠐
𩫏
𩵋
𪉷
𪜀
𪟽
𪠲
𪩲
𫇦
𫔭
𫜸
𫝀
𫠣
𫠩
𫢉
𫥞
𫩏
𫩠
𫪡
𫲽
𫶧
𬀷
𬐘
𬗌
𬙙
𬛸
𬜯
𬟩
𬯁
𬴘
𬺻
𬼉
𬼖
𭀰
𭁈
𭁨
𭅰
𭑈
𭕄
𭗼
𭤨
𭥫
𭻾
𮅕
𮊿
𮍌
𮍏
𮓗
𮥼
𮧮
廾
𰀁
𰀄
𰀈
𰀉
𰀕
𰀠
𰀡
𰀢
𰀪
𰁜
𰃮
𰆊
𰆘
𰋙
𰕎
𰢴
𰧭
𰯲
a--
aa--
ab--
aband--
abat--
abd--
abder--
abdu--
abi--
abor--
abro--
abst--
ac--
aca--
acele--
acen--
acend--
acep--
ack--
ad--
adapt--
ade--
adju--
adjun--
admi--
admin--
administ--
admir--
adop--
adul--
ae--
aero--
af--
afek--
afir--
afro--
ag--
agnos--
agre--
agri--
agro--
agu--
ah--
ai--
air--
aj--
ak--
akade--
aki--
akom--
akompan--
akor--
akro--
aku--
akum--
akusti--
al--
ala--
alcu--
alde--
ale--
aleg--
ales--
alge--
ali--
alko--
all--
almo--
alo--
alt--
alta--
altra--
alud--
am--
ama--
amba--
ambi--
ame--
amfi--
ami--
amo--
amor--
ampl--
amu--
an--
ana--
analy--
anarkii--
ance--
and--
anex--
ang--
ani--
animi--
anna--
ano--
anti--
antro--
anu--
anun--
any--
ao--
apa--
ape--
apla--
apli--
aplike--
apo--
app--
apro--
apt--
apu--
aq--
aqua--
aqui--
aquo--
ar--
ara--
arbal--
arbi--
arbitri--
arc--
are--
argu--
ari--
aristo--
ark--
arke--
arki--
arm--
armeo--
art--
as--
asas--
asasin--
asem--
aser--
ash--
asig--
asim--
asir--
asist--
askol--
aso--
asoci--
aspi--
associa--
asto--
astra--
astro--
asu--
at--
ata--
atac--
atak--
atei--
aten--
ati--
atin--
ating--
atri--
atribu--
au--
augm--
augmen--
aus--
auto--
autobio--
aux--
av--
avalan--
avan--
ave--
aw--
ax--
ay--
az--
b--
ba--
bab--
bac--
bad--
baf--
bag--
bah--
bak--
bal--
balo--
balta--
bam--
ban--
bapt--
bar--
bari--
bas--
bash--
bat--
bay--
be--
beau--
bec--
beh--
bei--
bel--
bela--
bell--
belle--
belve--
ben--
benef--
ber--
bet--
bett--
bez--
bh--
bi--
bib--
biblio--
bicik--
bie--
bifu--
big--
bin--
bio--
bir--
bis--
bit--
bix--
bja--
bla--
blan--
ble--
bli--
blin--
blo--
blu--
bly--
bo--
boc--
boi--
bol--
bon--
boo--
bor--
bos--
botaniki--
bou--
bour--
bow--
boy--
br--
bra--
bratt--
bre--
bri--
bril--
bris--
brit--
briz--
bro--
brock--
brod--
brook--
bru--
bu--
bud--
budd--
budj--
buf--
bul--
bull--
bulo--
bun--
bunde--
bur--
burg--
bus--
but--
by--
c--
ca--
cail--
cal--
cala--
call--
cam--
can--
cap--
car--
casa--
cast--
cat--
cay--
cc--
ccc--
cccx--
ccx--
cd--
cdx--
ce--
cel--
cele--
celi--
cens--
cent--
cer--
cert--
ch--
cha--
cham--
char--
charn--
che--
chef--
chi--
chin--
cho--
chu--
ci--
cig--
cik--
cin--
cio--
cir--
cirk--
cirkum--
ck--
cla--
cle--
clo--
clu--
cm--
cmx--
co--
coc--
coch--
cof--
col--
colum--
com--
compl--
con--
cor--
cord--
corn--
cort--
cos--
cot--
cou--
cour--
cow--
cra--
cre--
crest--
cri--
cristi--
cro--
cru--
cs--
cu--
cul--
cull--
cum--
cun--
cur--
cx--
cy--
cz--
d--
da--
dad--
dae--
dai--
dal--
dam--
dan--
dar--
dau--
daw--
dc--
dcc--
dcccx--
dccx--
dcx--
de--
dec--
dece--
decend--
dechi--
deci--
def--
defen--
defor--
dei--
dek--
dekor--
del--
dem--
demar--
demon--
den--
depen--
der--
des--
desa--
desem--
deskov--
desor--
destruk--
detek--
detri--
deu--
deve--
develo--
dew--
dez--
di--
dia--
dialec--
dice--
dicipl--
die--
dif--
difi--
difu--
dig--
dige--
dik--
diko--
dil--
dili--
dimen--
din--
dina--
dio--
dire--
dis--
diskri--
disse--
distri--
dive--
divi--
divid--
dj--
dl--
do--
doc--
dog--
doh--
dok--
dokto--
dokumen--
dol--
doll--
dom--
don--
dor--
dord--
dort--
dou--
dr--
dra--
dren--
drin--
dro--
dru--
du--
duc--
duk--
dun--
duo--
dur--
dus--
dx--
dy--
dz--
e--
ear--
east--
eat--
eb--
ec--
ecep--
ed--
edge--
edif--
edu--
ef--
efem--
efi--
efike--
eg--
ego--
ei--
ein--
ek--
ekir--
eko--
ekpu--
el--
ela--
ele--
elec--
elek--
elekte--
elektro--
eli--
elk--
elm--
elo--
els--
em--
eman--
embra--
emer--
emfa--
emi--
empi--
emplo--
en--
end--
energ--
eng--
enga--
eni--
eno--
enreji--
enter--
entra--
entro--
enun--
eo--
ep--
epi--
epis--
epist--
equi--
equival--
er--
erdene--
ero--
erud--
es--
esc--
escu--
esfor--
eska--
esper--
esqua--
esqui--
estab--
este--
estre--
et--
eti--
etno--
etru--
eu--
euka--
euro--
ev--
eva--
evaku--
evalu--
eve--
even--
evene--
eventa--
evo--
ew--
ex--
exaje--
exek--
exeku--
exer--
exha--
exhaust--
exili--
exist--
exk--
exka--
exkom--
exp--
expek--
expli--
explo--
expres--
exter--
extin--
ey--
eya--
ez--
f--
fa--
fabr--
fabri--
fac--
faci--
fah--
fair--
fak--
fal--
fali--
fan--
fanta--
far--
fashi--
fau--
favo--
fe--
feat--
feb--
feble--
febru--
fein--
fekun--
fel--
feld--
feli--
fen--
fer--
fi--
fif--
figu--
figue--
fil--
fila--
filam--
fin--
fir--
fitz--
fixi--
fla--
flag--
fle--
flin--
flo--
flu--
fluk--
fo--
fol--
folk--
fon--
fono--
for--
foto--
fou--
fr--
fra--
frak--
fre--
free--
fri--
fru--
fu--
fug--
ful--
fun--
fur--
furn--
furnis--
furt--
fusi--
fuz--
fuze--
fyo--
g--
ga--
gains--
gal--
gala--
gam--
gan--
gang--
gar--
garn--
gas--
gat--
gau--
gav--
gay--
gaz--
ge--
gen--
gene--
geni--
gens--
geod--
geog--
geol--
geomet--
ger--
gha--
ghe--
ghi--
ghu--
gi--
gia--
gian--
gigan--
gil--
gim--
gimnasti--
gin--
gine--
gio--
gir--
gis--
gla--
glas--
glen--
gli--
glo--
glos--
glu--
gm--
go--
god--
gold--
good--
gor--
gord--
got--
gou--
gra--
gran--
grand--
gre--
green--
gri--
grif--
grin--
gro--
gru--
grzy--
gu--
gua--
gui--
gum--
gun--
gur--
guy--
guð--
gye--
gyeong--
h--
ha--
hab--
haf--
hag--
hai--
hal--
hall--
halti--
ham--
han--
har--
hard--
has--
haupt--
hav--
havar--
hay--
hazar--
hazel--
he--
hek--
hel--
helio--
help--
hem--
hemo--
hen--
hend--
her--
hercu--
here--
hert--
hesio--
hew--
hey--
hez--
hi--
hibr--
hidr--
hidro--
high--
hil--
hila--
hin--
hip--
hiper--
hipo--
his--
hlu--
ho--
hof--
hokeo--
hol--
hom--
home--
homo--
hon--
hop--
hor--
hou--
hri--
hu--
hua--
hum--
hung--
hur--
hus--
hy--
i--
ia--
id--
identi--
idi--
ido--
ie--
if--
ig--
igan--
ige--
igno--
ih--
ik--
il--
ili--
ilu--
ilust--
im--
imagi--
imper--
imperat--
impl--
implem--
impli--
impre--
impu--
imuno--
in--
inaugu--
inc--
indi--
indo--
indu--
iner--
inf--
infa--
infan--
infantri--
infu--
ing--
inge--
inhi--
inici--
inje--
ink--
inkarne--
inse--
insert--
insp--
inspi--
inst--
insta--
institu--
instru--
int--
inte--
inter--
intu--
inu--
inund--
inva--
inven--
io--
ir--
ira--
is--
ishi--
ist--
it--
ita--
iv--
iz--
izo--
j--
ja--
jac--
jag--
jam--
jan--
jar--
jas--
jave--
jay--
je--
jen--
jer--
jet--
ji--
jir--
jo--
jorn--
jou--
ju--
jubi--
judici--
jug--
jun--
jurn--
jy--
jø--
k--
ka--
kab--
kabo--
kad--
kafe--
kah--
kai--
kak--
kal--
kalku--
kam--
kan--
kandidate--
kant--
kao--
kap--
kapi--
kapo--
kar--
karak--
karce--
kard--
karika--
kario--
karn--
karpen--
kart--
kartuni--
kas--
kat--
kau--
kay--
ke--
kei--
kel--
ken--
ker--
kh--
kha--
khe--
kho--
ki--
kil--
kilog--
kim--
kin--
kir--
kirk--
kirt--
kiru--
kirurgii--
kis--
kiz--
kla--
klari--
klavi--
kle--
kli--
klin--
klo--
klu--
kno--
ko--
koag--
koak--
koali--
koin--
kol--
kold--
kolek--
koli--
kom--
komen--
kompl--
kompli--
kompo--
kompu--
kon--
koncept--
konci--
kondi--
konduk--
konek--
konfe--
konfi--
konfir--
konif--
konjun--
konkur--
konsakr--
konsekrac--
konstruk--
konstrukti--
konte--
konten--
kontre--
kontro--
koor--
kopu--
koqu--
kor--
korn--
korpo--
kos--
kosmo--
kot--
kov--
kow--
kr--
kra--
krasno--
kre--
krec--
kres--
kri--
kriptog--
kris--
krivo--
kriz--
kro--
krok--
kron--
kroz--
kru--
krue--
ku--
kug--
kul--
kulp--
kum--
kun--
kur--
kuz--
ky--
l--
la--
labi--
labor--
lac--
lak--
lake--
lam--
lan--
land--
lap--
lar--
las--
lau--
laugh--
lav--
law--
lazar--
lc--
le--
lea--
lec--
led--
leg--
legi--
leh--
leice--
lek--
lem--
len--
leo--
ler--
lern--
les--
let--
leu--
lev--
lexi--
ley--
li--
lia--
liber--
lichten--
lie--
lig--
lige--
ligu--
lim--
lin--
lind--
lip--
lis--
liss--
lit--
litur--
liv--
ll--
lla--
ln--
lo--
lock--
lod--
log--
loje--
loka--
lom--
lon--
lond--
long--
longa--
loo--
lor--
lou--
low--
lu--
lub--
luc--
lud--
ludo--
luk--
lum--
lun--
lux--
ly--
lyu--
m--
ma--
mac--
mad--
mae--
mag--
magg--
mah--
maha--
mai--
maje--
mak--
maka--
mal--
mam--
man--
manif--
manu--
manufak--
mar--
mara--
marg--
maro--
marsh--
mary--
mas--
mat--
mats--
matu--
mau--
max--
may--
maz--
mc--
mcc--
mcccx--
mccx--
mcdon--
mcdx--
mcmx--
mcx--
md--
mdc--
mdcc--
mdcccx--
mdccx--
mdcx--
mdx--
me--
mea--
med--
medi--
medika--
mega--
mek--
mel--
mela--
melanko--
melc--
meli--
mem--
memo--
men--
mer--
mes--
messer--
meta--
mexi--
mi--
mid--
mie--
mik--
miko--
mikro--
mil--
min--
mina--
mir--
mis--
misti--
mit--
mix--
mm--
mo--
moc--
modi--
moi--
mol--
mon--
mondo--
monog--
monop--
mont--
monte--
monto--
mor--
more--
morfo--
mos--
motor--
moul--
move--
mr--
ms--
mu--
muf--
muk--
mul--
multa--
multi--
mun--
mur--
mus--
mux--
mx--
my--
n--
na--
nacio--
nacional--
naf--
nam--
nan--
nano--
nar--
narko--
naru--
nat--
nau--
nava--
navo--
nd--
ne--
nea--
nede--
nedepen--
neg--
nego--
nek--
nekapa--
nekom--
nekon--
nekro--
nel--
neo--
ner--
nere--
nes--
nesu--
net--
neu--
neur--
nev--
new--
ng--
nh--
ni--
nie--
nihi--
nij--
nik--
nim--
nis--
no--
nok--
nom--
non--
nor--
nord--
north--
nos--
not--
nou--
nov--
novo--
ns--
nu--
nul--
num--
nur--
ny--
o--
oak--
oaz--
ob--
obed--
obli--
obser--
obst--
obten--
oc--
octa--
od--
odo--
of--
og--
oh--
oi--
ok--
oke--
okto--
okup--
ol--
old--
oli--
olym--
om--
omna--
on--
onk--
oos--
op--
ope--
opin--
opor--
opoz--
opres--
or--
ora--
orbi--
oregon--
org--
ornam--
orni--
orto--
os--
ot--
ota--
oto--
ou--
out--
ov--
over--
ox--
oxi--
oz--
p--
pa--
paci--
pacifi--
pad--
paedo--
paf--
pag--
pak--
pal--
pala--
paleo--
pales--
pam--
pan--
pano--
papa--
par--
para--
paren--
park--
parlia--
part--
pas--
pastu--
pat--
pav--
pavi--
pc--
pe--
ped--
pedo--
pejo--
pek--
pelo--
pen--
penet--
pente--
per--
percept--
perio--
perm--
persekute--
pesc--
peti--
petro--
pey--
ph--
pho--
phy--
pi--
pia--
pic--
pie--
pier--
pig--
pigm--
pik--
pilg--
pilgri--
pin--
pir--
piro--
pit--
piz--
pl--
pla--
plain--
plan--
plat--
ple--
plen--
plo--
plu--
plum--
plur--
po--
pod--
podl--
poe--
pol--
poli--
pom--
pomer--
poniard--
pop--
por--
porno--
pos--
posib--
posit--
post--
posto--
pot--
pova--
pow--
poz--
pr--
pra--
prak--
prakti--
praktike--
pre--
prece--
preir--
preli--
prepar--
prepo--
prez--
pri--
prim--
prin--
priz--
prizen--
pro--
proce--
profe--
progre--
prok--
promoc--
propag--
proskript--
prosp--
prote--
protek--
proto--
protu--
provize--
pru--
prud--
prun--
przy--
pse--
pseud--
psi--
psikia--
psiko--
psycho--
pt--
ptole--
pu--
pub--
publi--
pug--
pul--
puls--
pum--
pun--
punis--
pur--
purg--
puri--
push--
py--
q--
qas--
qu--
qua--
quadr--
quar--
que--
quen--
qui--
r--
ra--
rad--
radi--
radio--
raf--
rag--
rai--
raj--
ran--
rap--
ras--
rat--
rath--
ravi--
raw--
ray--
raz--
rd--
re--
reak--
real--
rece--
reci--
reco--
recu--
red--
ref--
reflek--
refu--
reg--
rege--
regis--
regu--
rei--
rejo--
rek--
reko--
rekol--
rekom--
rekr--
reku--
rem--
remark--
rempla--
ren--
reprezen--
repub--
repuls--
res--
reser--
respons--
restaur--
ret--
reto--
retro--
rev--
rey--
rez--
ri--
ria--
rich--
rid--
rie--
rig--
rigo--
rikon--
rin--
ring--
rino--
rioku--
riorg--
rivo--
riz--
rk--
rn--
ro--
rob--
rock--
rod--
roh--
ron--
ros--
rose--
rosen--
ross--
rota--
roth--
rou--
row--
rox--
rt--
ru--
rub--
rudi--
run--
rupt--
rus--
rut--
ry--
rz--
rzep--
s--
sa--
saar--
sac--
saf--
safa--
sakr--
sal--
salve--
sam--
sama--
sami--
san--
sar--
sara--
sasan--
sat--
satur--
sau--
savi--
sax--
say--
sc--
sch--
sche--
scheve--
schi--
schle--
schme--
schu--
sco--
scul--
se--
sea--
sec--
sed--
see--
seg--
sei--
sek--
sekur--
sel--
selec--
selek--
seleu--
sem--
sema--
seman--
semb--
semi--
semy--
sen--
sep--
ser--
set--
sey--
sh--
sha--
shako--
shan--
she--
shen--
sher--
shev--
shi--
shir--
sho--
shu--
si--
sid--
sie--
sig--
siga--
signat--
sigurð--
sik--
sike--
sikor--
sil--
silen--
sili--
silve--
sim--
sin--
sio--
sis--
sit--
sk--
ska--
skand--
skep--
sket--
sketist--
ski--
sko--
skri--
skribe--
skribo--
skru--
sky--
sla--
slav--
sli--
slo--
smith--
sna--
so--
sofi--
soft--
sog--
soko--
sol--
som--
son--
sor--
sorci--
sord--
sos--
sou--
sp--
spar--
spe--
spec--
spek--
spen--
sper--
spi--
spiri--
spo--
spy--
sri--
ss--
st--
sta--
stag--
stam--
stan--
star--
stato--
ste--
ster--
sti--
stimu--
stipu--
sto--
stock--
stod--
stra--
stre--
stro--
stru--
stud--
studen--
stup--
stur--
su--
sua--
sub--
suba--
subis--
subjek--
submi--
subor--
subven--
suce--
sud--
suge--
sul--
sum--
sun--
suno--
super--
supl--
suplem--
sur--
sure--
sus--
suspek--
sut--
suve--
sv--
sver--
sw--
swa--
swe--
sy--
syl--
sym--
syn--
sz--
szcze--
szy--
t--
ta--
tab--
tablo--
tabu--
tag--
tai--
tak--
taka--
tal--
tala--
tam--
tan--
tar--
tart--
tash--
tat--
tau--
tax--
tay--
te--
tea--
tek--
tekno--
tel--
tele--
telef--
tem--
ten--
teo--
ter--
terkr--
termo--
tero--
tes--
testa--
tex--
texa--
th--
the--
tho--
thur--
ti--
tian--
tie--
tif--
tik--
tim--
tin--
tis--
to--
tol--
tole--
tom--
ton--
top--
tor--
tort--
tot--
tou--
toxi--
toyo--
tr--
tra--
traduk--
trage--
trakte--
tram--
tran--
trans--
tre--
tren--
tri--
tro--
tropi--
trou--
tru--
trub--
ts--
tsu--
tt--
tu--
tua--
tun--
tur--
turbo--
turk--
turn--
tus--
tusc--
tutan--
tw--
ty--
tz--
u--
ubi--
ud--
uf--
ug--
uk--
ul--
ula--
ultra--
um--
un--
una--
uni--
up--
ur--
urbo--
us--
util--
uza--
uzbe--
uze--
uzur--
v--
va--
val--
van--
vapor--
var--
varm--
vask--
vati--
vau--
ve--
vel--
ven--
vend--
vento--
ver--
veri--
vert--
vi--
via--
vic--
vice--
vid--
vide--
viet--
vig--
vil--
villa--
vin--
viol--
vise--
vit--
vito--
vitro--
vivo--
viz--
vizit--
vla--
vo--
voc--
vol--
volun--
vorto--
vos--
voya--
vu--
vul--
vy--
w--
wa--
wal--
wan--
war--
was--
wat--
water--
we--
wed--
wei--
wel--
well--
west--
wey--
whi--
whit--
wi--
wie--
wiki--
wil--
wild--
win--
wine--
wir--
wis--
wit--
wo--
wojsław--
wol--
wood--
wor--
woz--
wri--
wu--
wy--
wyg--
wyn--
x--
xen--
xi--
xin--
y--
ya--
yak--
yan--
yar--
ye--
yeli--
yer--
yi--
yo--
yon--
yoshi--
you--
yu--
yun--
yur--
z--
za--
zaka--
zam--
ze--
zef--
zel--
zele--
zem--
zen--
zhe--
zi--
zie--
zin--
zir--
zla--
zoo--
zu--
zuc--
zur--
zwic--
đ--
ı--
ł--
ło--
γ--
δ--
κ--
μ--
ν--
π--
ρ--
σ--
τ--
з--
и--
к--
м--
с--
ск--
ال--
--0
--00
--1
--2
--3
--4
--5
--6
--7
--8
--9
--a
--aa
--aan
--ab
--aba
--abad
--abas
--abis
--abla
--ac
--acar
--acas
--acei
--acent
--ach
--aci
--acis
--acita
--aco
--ad
--ada
--ade
--adi
--ado
--ae
--ag
--agas
--age
--agi
--ago
--ah
--ai
--aille
--aire
--ais
--aj
--aja
--aji
--ajo
--ak
--aka
--aki
--ako
--akti
--akto
--al
--ala
--ald
--ale
--ali
--alismo
--all
--alo
--am
--an
--ana
--ance
--anco
--and
--ane
--ang
--ani
--ania
--ano
--ans
--ant
--anta
--ante
--anti
--anto
--anu
--anus
--any
--ao
--ap
--ar
--ard
--ardo
--ari
--aria
--ario
--aro
--ary
--as
--asi
--at
--ata
--atas
--ate
--ath
--ati
--ation
--ations
--atlo
--ato
--atra
--au
--avi
--avich
--aw
--awa
--ay
--aya
--ayev
--az
--aza
--azo
--b
--ba
--bas
--bb
--be
--beat
--beau
--bee
--bek
--berg
--bes
--bet
--bf
--bi
--bia
--bis
--bl
--bla
--ble
--bli
--blo
--bo
--boro
--borough
--bos
--bourg
--bras
--bri
--bs
--bu
--bur
--burg
--burn
--bury
--bus
--butado
--by
--c
--ca
--cabis
--cada
--cado
--caji
--cal
--cala
--can
--cana
--cani
--canta
--canto
--car
--cas
--cat
--cata
--cchio
--cci
--ce
--cea
--cei
--ceo
--ceptas
--ceptis
--cer
--cert
--ces
--cez
--ch
--cha
--che
--chi
--cho
--cht
--chte
--ci
--cia
--cido
--cie
--cii
--ciis
--cio
--cion
--cioni
--ciono
--cis
--cita
--cius
--ck
--cker
--ckett
--cki
--ckner
--co
--con
--cs
--ct
--cu
--cum
--cus
--cy
--d
--da
--dad
--dado
--dale
--danta
--dar
--das
--dat
--data
--daw
--dd
--de
--deau
--debla
--den
--der
--dero
--des
--desas
--deskas
--deso
--dh
--di
--dia
--diciplinala
--dido
--die
--dii
--dijk
--diko
--dio
--dis
--dit
--dita
--dium
--dius
--dja
--dling
--do
--domo
--don
--dor
--doro
--dos
--dou
--dov
--dra
--dri
--dro
--dromi
--ds
--dt
--du
--dukti
--dukto
--dur
--dy
--dza
--dze
--e
--ea
--eas
--eau
--ebla
--ebri
--ec
--eca
--eck
--eco
--ed
--eda
--edia
--ee
--ef
--eg
--ega
--egan
--egel
--egi
--ego
--eh
--ei
--eira
--eiro
--ej
--ejo
--ek
--eken
--ekti
--ektita
--el
--eld
--ell
--elle
--elles
--elli
--ello
--elo
--em
--ema
--eman
--eme
--emeso
--en
--ena
--enburg
--enc
--ence
--enci
--enco
--ene
--eng
--eni
--enko
--enne
--eno
--enon
--ens
--ense
--ensis
--ent
--enta
--ente
--enteso
--eo
--ep
--er
--era
--ere
--eri
--erio
--erne
--ero
--ers
--erson
--ert
--erta
--ertas
--erto
--ery
--es
--esar
--esas
--escu
--ese
--esi
--esis
--eskar
--eskas
--eskis
--esko
--esma
--eso
--estro
--et
--ete
--eti
--etika
--eto
--etris
--ets
--ett
--etta
--ette
--etti
--etto
--eur
--eus
--ev
--eva
--evi
--evich
--evna
--ew
--ewicz
--ey
--eye
--eyi
--eyo
--ez
--f
--fa
--fado
--fah
--fali
--fan
--fanta
--far
--fas
--fax
--fe
--fekto
--feld
--felt
--fer
--feri
--fest
--feyo
--ff
--fi
--field
--fikala
--fikesar
--fikesis
--fiki
--fiko
--fila
--fim
--fis
--fisti
--fluo
--fo
--ford
--fos
--foye
--ft
--fu
--ful
--fy
--g
--ga
--gabis
--gado
--gal
--gan
--ganta
--gante
--gar
--gara
--gari
--gas
--gata
--gate
--gba
--ge
--gebla
--gee
--gel
--gelsk
--gem
--gen
--ger
--gero
--ges
--gesas
--gesis
--geso
--gesos
--gez
--gg
--ggio
--ggs
--ggy
--gh
--gham
--ght
--gi
--giala
--gie
--giisto
--gini
--gio
--gis
--git
--gita
--giva
--give
--giyn
--gl
--gler
--gmo
--gn
--gna
--gne
--gny
--go
--gor
--gorsk
--gos
--gr
--grafio
--gramo
--gri
--gro
--gs
--gt
--gu
--gula
--guro
--gxi
--gy
--h
--ha
--hai
--hak
--ham
--han
--har
--hat
--he
--head
--heim
--heiro
--hel
--hen
--hes
--heur
--hi
--hia
--hic
--hin
--hina
--hing
--hka
--hl
--hn
--ho
--hoek
--hof
--hol
--holm
--hon
--hos
--hov
--hr
--ht
--http
--hu
--hue
--hurst
--hy
--i
--ia
--iajo
--ial
--iala
--iale
--iam
--ian
--iana
--iani
--iano
--ianus
--iar
--iaro
--ias
--ib
--ic
--ica
--ical
--ich
--icio
--ick
--ico
--ics
--id
--ida
--ide
--ides
--idi
--ido
--ie
--iego
--iel
--ier
--ieri
--iero
--iers
--ies
--iferio
--ifikas
--ifikesis
--ifiko
--ig
--iga
--igado
--iganta
--igar
--igas
--igata
--igesas
--igesis
--ight
--igi
--iginta
--igis
--igita
--igo
--ii
--iis
--iisti
--iita
--ijo
--ik
--ika
--ikala
--ikar
--ike
--iki
--ikis
--ikismo
--iko
--ikov
--il
--ila
--ile
--iler
--ili
--illa
--ille
--illo
--ilo
--im
--ima
--imer
--imetro
--imo
--in
--ina
--inda
--ine
--ing
--inger
--ingham
--ingo
--ings
--ington
--ini
--ino
--ins
--insk
--inta
--inus
--io
--ion
--ior
--iori
--ioro
--ios
--ioza
--ip
--ique
--ir
--ira
--ire
--iri
--iro
--is
--isata
--ise
--ish
--isi
--isko
--ism
--ismi
--ismo
--ist
--ista
--isti
--isto
--it
--ita
--ite
--iti
--ition
--itis
--ito
--ity
--itz
--iu
--ium
--ius
--iva
--ive
--iveso
--ivi
--ivo
--ix
--iya
--iyn
--iz
--izar
--izi
--izita
--izo
--j
--ja
--jala
--jar
--jas
--jata
--je
--jeong
--jeri
--jesas
--ji
--jis
--jita
--jl
--jn
--jo
--jos
--ju
--k
--ka
--kal
--kala
--kana
--kar
--kas
--kata
--kaze
--ke
--kee
--kel
--ker
--keri
--kers
--kes
--kesas
--keso
--kh
--ki
--kie
--kiewicz
--kio
--kis
--kisto
--kita
--kk
--kka
--kki
--kla
--kley
--kli
--klo
--ko
--kov
--kratala
--kri
--ks
--kt
--kta
--ktadi
--ktado
--ktajo
--ktar
--ktas
--ktesas
--ktesis
--kteso
--kti
--ktis
--ktita
--ktiva
--kto
--ku
--kul
--kula
--kuli
--kulo
--kus
--kwa
--ky
--l
--la
--lado
--lago
--lah
--lala
--lan
--land
--lando
--lanta
--lar
--lard
--lari
--laro
--las
--lata
--laus
--lav
--ld
--lde
--ldi
--ldo
--ldt
--le
--lei
--len
--leo
--ler
--les
--leso
--less
--ley
--lf
--lfs
--lgee
--lgi
--lgo
--lho
--li
--lia
--lic
--lice
--lijn
--lika
--liki
--lin
--ling
--link
--lio
--lios
--lis
--lismo
--liso
--lita
--lius
--lizas
--lizis
--lizo
--lk
--lka
--lki
--ll
--lla
--lle
--lles
--llet
--lli
--llo
--lly
--lm
--lo
--lock
--logi
--logial
--logiala
--logii
--logiisto
--logio
--logo
--logy
--loke
--lon
--lona
--lot
--loto
--lov
--lph
--ls
--lski
--lt
--lti
--lto
--lu
--ludi
--lus
--ly
--lya
--lyn
--m
--ma
--maa
--mah
--man
--mar
--mas
--mati
--mba
--mbe
--mbi
--mbo
--mbro
--me
--mel
--ment
--menti
--mer
--mi
--mic
--mino
--mio
--mir
--mis
--misi
--mismo
--miso
--mme
--mo
--mon
--moor
--mp
--mpo
--mps
--ms
--mu
--mus
--my
--n
--na
--nabis
--nado
--nai
--nal
--nala
--nale
--nan
--nani
--nant
--nanta
--nante
--nanti
--nar
--naro
--nas
--naso
--nata
--nau
--navi
--navo
--naya
--nburg
--nc
--nca
--ncar
--ncas
--nce
--nci
--nck
--nco
--nd
--nda
--ndar
--ndas
--nde
--ndesis
--ndi
--ndo
--ndon
--ndro
--ne
--nebla
--nei
--nel
--ner
--nera
--neri
--nes
--nesas
--neso
--ney
--neyi
--neyo
--ng
--nga
--nge
--ngen
--nger
--ngi
--ngo
--ngs
--ngue
--nha
--ni
--nia
--niana
--nima
--nimi
--ning
--nio
--nismo
--nisti
--nita
--niti
--nius
--njar
--njo
--nk
--nka
--nki
--nko
--nkov
--nn
--nna
--nne
--nner
--no
--nombra
--nor
--nos
--nov
--noza
--ns
--nsen
--nsk
--nski
--nskoye
--nso
--nson
--nt
--nta
--ntar
--ntas
--nte
--ntes
--nteso
--nti
--ntifikita
--nto
--nts
--ntz
--nu
--nus
--ny
--nya
--nz
--nza
--nzo
--o
--oa
--ock
--od
--oda
--oe
--og
--oi
--oit
--ok
--oke
--ol
--ola
--oli
--olo
--ologio
--om
--omb
--ome
--ometro
--omie
--omo
--on
--ona
--onado
--onala
--onar
--ond
--one
--ong
--oni
--onne
--ono
--ons
--oo
--oon
--op
--opi
--opla
--opo
--opolis
--or
--ord
--ore
--oresi
--orf
--ori
--orio
--ormo
--oro
--ort
--os
--osa
--ose
--oso
--ot
--oto
--ou
--ough
--ous
--ov
--ova
--ove
--ovic
--ovich
--ovka
--ovna
--ovo
--ovsk
--ow
--owa
--oween
--ows
--oy
--oye
--oza
--p
--pa
--pe
--pektar
--pektis
--pelle
--pes
--pf
--phy
--pi
--pio
--pis
--pita
--piti
--pito
--ple
--plex
--pley
--po
--podi
--podo
--pop
--port
--pov
--povo
--pozo
--ppa
--ppe
--propra
--ps
--pso
--pta
--pte
--pter
--pteri
--pti
--pto
--pu
--pulos
--punto
--pur
--py
--q
--que
--r
--ra
--raba
--radi
--rado
--rah
--raj
--rajo
--ral
--rala
--ralo
--ranta
--rante
--ranti
--rar
--ras
--rat
--rata
--rato
--rbo
--rc
--rd
--rdi
--rdin
--rdo
--re
--res
--resar
--reso
--ret
--rf
--rg
--ri
--ria
--riani
--ric
--rie
--ries
--rigar
--rigo
--rii
--rik
--rim
--rin
--rina
--rinda
--rino
--rinta
--rio
--ris
--rit
--rius
--rj
--rji
--rk
--rko
--rl
--rm
--rma
--rmeo
--rmo
--rn
--rna
--rne
--rni
--rno
--ro
--rop
--ror
--ros
--rov
--rp
--rr
--rra
--rre
--rs
--rsk
--rst
--rt
--rta
--rtas
--rte
--rti
--rtis
--rto
--ru
--rum
--rup
--rus
--rut
--ry
--rz
--s
--sa
--sabis
--sadi
--sado
--sal
--sala
--san
--sano
--sar
--sarii
--sas
--sata
--sboro
--sburg
--sby
--sca
--sch
--sche
--schen
--sco
--scu
--sdale
--se
--sebla
--see
--sel
--sen
--ser
--seri
--ses
--sesas
--sese
--sesis
--seso
--sey
--sez
--sh
--sha
--shire
--sho
--si
--sia
--side
--sili
--silo
--sis
--sita
--siva
--sk
--ska
--skar
--skas
--ske
--ski
--skis
--sko
--skos
--skoye
--sky
--slau
--slav
--sley
--sm
--sma
--smal
--smala
--smi
--smo
--sn
--so
--son
--sor
--soro
--sorta
--sos
--sov
--speca
--ss
--sse
--sso
--sson
--st
--sta
--stad
--stan
--staro
--stas
--ste
--stead
--sti
--stical
--stika
--stikala
--stino
--sto
--ston
--stown
--strar
--stri
--struo
--struri
--stulo
--su
--suki
--sus
--sville
--sy
--sz
--szo
--t
--ta
--tabis
--tad
--tado
--taji
--tajo
--takis
--tal
--tala
--talo
--tan
--tana
--tani
--tar
--tara
--tari
--taro
--tas
--tata
--tch
--te
--tebla
--tee
--tein
--teko
--tema
--ten
--ter
--tes
--tesas
--tesi
--tesis
--teso
--tet
--teti
--teto
--tez
--th
--tha
--tham
--the
--ti
--tia
--tianus
--tic
--tics
--tie
--tier
--tii
--tik
--tika
--tiko
--time
--tino
--tinta
--tio
--tion
--tions
--tipa
--tipi
--tipo
--tis
--tismo
--tisti
--tita
--tius
--tiva
--tivo
--tl
--tle
--tler
--tner
--to
--ton
--top
--tor
--toral
--tori
--tos
--tov
--tova
--town
--toza
--tra
--tre
--tri
--tro
--try
--ts
--tsu
--tt
--tta
--tte
--tti
--ttin
--tto
--tu
--tuco
--tuli
--tulo
--tum
--tus
--ty
--tz
--tzer
--u
--ua
--ual
--ub
--uc
--ud
--udi
--udio
--udo
--udos
--ue
--uen
--uf
--ug
--uga
--ugh
--ugu
--ui
--uil
--uit
--uk
--uka
--uki
--uktar
--uktas
--uktita
--ul
--ulo
--ult
--ultar
--um
--ument
--uments
--umo
--un
--ung
--uo
--uoza
--up
--ur
--ura
--urar
--ure
--urg
--uri
--uro
--urs
--us
--usi
--usia
--uso
--usz
--ut
--ute
--uth
--uti
--ution
--utis
--utismo
--uto
--uvio
--uw
--ux
--uyo
--uz
--uza
--v
--va
--vabis
--vaji
--vala
--var
--vas
--vat
--vata
--vaux
--ve
--vebla
--vel
--ven
--veni
--ventas
--ventura
--ves
--vesas
--veso
--veta
--vi
--vic
--vich
--vichi
--view
--vig
--vika
--vil
--ville
--vin
--vina
--vio
--vis
--vismo
--vizo
--vka
--vna
--vo
--vokis
--vokita
--vor
--vora
--vos
--voyo
--vsk
--vski
--vus
--w
--wa
--way
--we
--well
--west
--wi
--wice
--wick
--wicz
--wie
--wiec
--win
--witz
--wka
--wn
--wo
--wood
--ws
--wska
--wski
--x
--xa
--xas
--xi
--xido
--xino
--xo
--xv
--xx
--xy
--y
--ya
--yake
--yama
--yan
--yana
--ye
--yer
--yev
--yevna
--yi
--yl
--yn
--yo
--yon
--yr
--yre
--ys
--yte
--yu
--yz
--z
--za
--zabis
--zac
--zado
--zajo
--zala
--zan
--zana
--zano
--zanta
--zante
--zanto
--zar
--zas
--zata
--ze
--zee
--zel
--zen
--zenti
--zer
--zesas
--zesis
--zeso
--zesos
--zew
--zi
--zie
--zii
--zilo
--zio
--zis
--zit
--zita
--zito
--zivi
--zivo
--zko
--zl
--zno
--zo
--zon
--zov
--zu
--zuri
--zuro
--zyn
--zza
--zzi
--ı
--ıs
--ła
--ław
--łki
--ło
--ə
--α
--ι
--ν
--ο
--ος
--ς
--υ
--а
--да
--е
--еи
--и
--ии
--м
--ник
--о
--од
--р
--ра
--ск
--ская
--скии
--я
