!
"
#
##0
##1
##10
##11
##12
##13
##14
##15
##16
##17
##18
##19
##2
##20
##21
##22
##23
##24
##25
##26
##27
##28
##29
##3
##30
##31
##32
##33
##34
##35
##36
##37
##38
##39
##4
##40
##41
##42
##43
##44
##45
##46
##47
##48
##49
##5
##50
##51
##52
##53
##54
##55
##56
##57
##58
##59
##6
##60
##61
##62
##63
##64
##65
##66
##67
##68
##69
##7
##70
##71
##72
##73
##74
##75
##76
##77
##78
##79
##8
##80
##81
##82
##83
##84
##85
##86
##87
##88
##89
##9
##90
##91
##92
##93
##94
##95
##96
##97
##98
##99
$
%
&
'
(
)
*
+
,
-
.
/
0
000
02
04
05
06
07
08
1
10
100
101
1017
103
104
105
106
107
1080
11
1125
1161
12
1215
123
1296
13
1341
135
1377
14
1440
15
150
1521
1548
1564
1565
16
17
18
180
1848
1849
1850
1851
1852
1853
1858
1861
1863
1864
1865
1867
1869
1870
1872
1873
1876
1878
1881
1882
1884
1885
1886
1888
1890
1891
1892
1894
1895
1896
1897
1898
1899
19
1900
1901
1905
1906
1907
1908
1909
1910
1912
1913
1915
1916
1917
1919
1922
1925
1926
1927
1928
1929
1930
1931
1932
1933
1934
1935
1936
1938
1940
1941
1942
1943
1944
1945
1946
1947
1948
1949
1950
1951
1952
1953
1954
1955
1957
1958
1959
1960
1961
1962
1963
1964
1965
1966
1967
1968
1969
1970
1971
1972
1973
1974
1975
1976
1977
1978
1979
1980
1981
1982
1983
1984
1985
1986
1987
1988
1989
1990
1991
1992
1993
1994
1995
1996
1997
1998
1999
2
20
200
2000
2001
2002
2003
2004
2005
2006
2007
2008
2009
2010
2011
2012
2013
2014
2015
2016
2017
2018
2019
2020
2021
2022
2026
204
21
22
221
23
230
24
240
248
25
250
26
260
27
270
28
280
288
29
298
3
30
300
31
310
32
321
323
33
333
34
35
350
36
37
38
39
4
40
400
41
42
43
44
45
450
46
47
48
5
50
500
516
54
56
567
576
6
60
600
603
621
648
657
675
7
70
700
711
747
8
80
800
819
82
837
84
88
89
9
90
900
927
93
94
963
97
98
981
988
99
:
;
=
?
@
_
a
aacta
aalagaren
aanapen
aaral
aayos
aba
abagatan
abagey
abala
abalang
abalaten
abang
abangon
abangonan
abasto
abay
abayag
abba
abe
abeba
abel
abellana
abet
abiatar
abig
abinyagan
abobon
abogado
abong
abot
about
abra
abraham
abridged
abril
abs
abueg
abung
abutin
academy
accept
access
accessed
ace
achievement
achiever
across
act
acting
action
actor
actors
actress
ad
ada
adams
adan
adda
addaan
added
adelap
aderal
adios
adjacent
administration
administrative
admit
adonias
adult
advice
affiliate
afghanistan
africa
after
ag
aga
agagi
agagik
again
agak
agano
agaoa
agawa
agawaan
agawan
agay
agaylay
agbayani
agda
age
agel
agencia
agency
ageo
agew
aggeo
agi
agik
agila
agimat
agka
agko
agla
aglem
agmo
agnetha
agni
agno
ago
agoncillo
agos
agosto
agreement
agta
agto
aguila
aguilar
aguin
aguinaldo
agusan
agustin
ah
ahazias
ai
aim
air
aires
airplane
airplay
ais
aiza
aji
ak
aka
akabatan
akakawes
akakuliseng
akalugan
akan
akanengneng
akapeket
akar
akasabi
akasel
akasengeg
akasibangot
akasulat
akautang
akay
akbibiten
aken
akila
akin
aking
akis
aklan
aklat
aklatan
akmonen
ako
akoen
akom
aksyon
aktor
aktres
aktv
akualan
akulaw
akumaizer
al
ala
alabas
alablabas
alagar
alagaren
alagey
alak
alalig
alam
alama
alambre
alaminos
alan
alar
alas
alay
albania
albano
albay
album
albums
alcala
alcaldi
alcantara
alcoy
aldaw
alderete
aldrin
aleg
aleluya
aleman
alemano
alemanya
alenleneg
alfonso
ali
alias
aliber
alicia
alig
aliguas
alikas
alikna
aliktoben
alila
aliling
alimbawa
alimbos
alingasew
alingwanan
alion
alis
aliw
aliwa
aliwan
alkalde
all
allan
alliance
almost
alog
alone
along
alpabeto
alpha
alphabet
also
alt
altar
altey
alumbayar
always
alyas
am
ama
amadeus
amado
amag
amaga
amagan
amak
amamayo
amamayoen
aman
amang
amansaan
amarokolan
amatey
amay
amayamay
amazing
amazon
ambagel
ambalanga
ambasa
ambelat
ambetel
ambilonget
amen
america
american
americanradiohistory
amerika
ami
amianan
amianen
amimpiga
amin
aminsan
amo
amoli
amon
amos
amoy
ampetang
ampoti
amputi
amsterdam
amta
amtaen
amtak
amtay
an
ana
anak
anako
anao
anap
anapan
anapen
anatomy
anchor
ancient
and
anda
andaman
andeket
andi
andico
ando
andokey
andorra
andreas
andres
andro
andukey
anem
anengneng
ang
angaan
angadanan
angan
angaro
angel
angela
angeles
angga
anggaan
anggad
anggaman
anggan
anggano
anggapo
anggapoy
anghel
anghil
anghilis
angibagat
angibaki
angibakid
angigalang
angipangulo
angiter
angkekelag
angob
angola
anguish
anguman
ani
aniani
aniki
aniking
animal
anime
anison
anlong
ann
anna
annalyn
anne
anni
anniversary
annual
anointing
anoints
anonotan
anop
anos
another
ansakit
ansakket
answer
anta
antak
antas
antes
anthem
anthony
antikey
antilles
anting
antipolo
antique
antis
anto
antokaman
anton
antonio
antoy
any
anything
aoit
ap
apaknaan
apalabas
apalsa
apan
aparri
apart
apat
apataplo
apatera
apatira
apatiran
apayao
apayas
apian
apiger
aping
apirdi
apl
aplos
apo
apostol
apostoles
apoy
appliance
april
aquinaldo
aquino
ar
arab
arabia
arabic
arabiko
arabo
aral
aralem
aram
arap
arapan
arapen
arari
ararin
arashi
araw
arawi
arawian
arawin
aray
arayan
arayat
archdiocese
archipelago
archive
are
area
areas
arellano
arenas
arf
arfaksad
argentina
ari
arian
arid
ariel
arin
arina
aripen
aristotle
aritao
arkos
armas
armenia
arms
army
aro
aroan
aroen
arok
arom
aron
aroroy
around
arowan
arrow
arroyo
art
arthur
article
artiko
artikulo
artist
artista
artists
arts
arum
arumog
as
asa
asabi
asaoan
asap
asawa
asawan
ase
asean
asewek
ashita
asia
asian
asin
asingan
asinger
asingger
ask
aso
asociacio
asosasyon
aspeto
association
asumpal
asya
at
atagey
atan
atangan
atap
atapis
atateng
atawag
atayak
ataynanan
atchi
ateneo
ateng
atep
atilak
atiwel
atlantic
atok
atol
atotong
atrasado
attack
attitude
audiovisual
august
augustine
aunor
aurelio
aurora
austin
australia
australian
austria
austrian
author
authority
authors
ave
average
avoid
avon
awak
awalaan
awang
awaran
award
awards
awat
awaten
away
awet
awey
awit
awstralya
awstronesyo
ay
aya
ayadyari
ayam
ayaman
ayamay
ayan
ayari
ayat
ayayam
ayayep
ayep
ayew
ayon
aysing
azerbaijan
azərbaycan
b
ba
baalzebub
baba
babae
babaen
babag
babai
babasaen
babay
babe
babel
babes
babilonia
baboy
baby
bach
back
baco
bacolor
bad
bag
baga
bagabaga
bagac
bagahe
bagat
bago
bagong
bagoong
baguio
bagyo
bahagi
bahasa
bahay
bahia
bai
baing
baka
bakal
bakasyon
bakat
bakbak
bakes
bakit
bakla
bakor
bakugaiden
bakuhatsu
bakun
bala
balabar
balamban
balang
balanga
balangbang
balangkas
balayang
balbalawen
balbaleg
baleg
baleno
baler
bales
balet
balete
baley
balibalin
balikas
balikasan
balingit
balita
balitan
balitang
baliti
balitok
balituk
balkes
balkot
ballade
ballesteros
balo
balon
balot
baloto
baloy
balsamo
baltimore
balud
balungao
balut
bamban
bambang
ban
banana
banchi
banda
bandad
bandera
bang
banga
bangat
bangbalet
bangka
bangkay
bangko
bangno
bangon
bangued
bangui
bangus
bani
bank
banko
banks
banner
banoa
bansa
bansan
bansod
bantay
bantayan
bantog
banua
baog
barack
barangay
baranggay
baras
baratack
barbara
bareta
bario
bark
barom
baroque
barotac
barreto
barretto
barrio
bartholome
bartolome
basa
basak
basakay
basbas
base
based
basil
basilan
basista
basketball
baso
bat
bataan
batac
batanes
batangas
batas
batay
batayan
batik
bato
battle
batuan
bautista
bawat
bay
bayag
bayambang
bayan
bayani
bayaong
bayar
baybay
baybayin
bayes
bb
bc
bd
be
beach
beacon
bear
beast
beatles
beautiful
beauty
became
because
become
bee
been
beethoven
before
being
beklew
bekta
belaro
belas
belat
belen
belgium
belhika
believe
belly
beloved
ben
benaya
benben
bendision
bendisionan
bendito
benditoy
benefit
beneg
benerablen
bengat
bengatla
bengatlan
benguet
benigno
benin
benito
bent
benton
berber
berlin
bernabe
bernardo
bernie
bersion
bersyon
besao
best
betel
better
between
beyond
bhutan
bibii
bibiin
bibil
bibirbiren
bible
biblia
bibliographic
bibliography
bibliograpiya
bibliyang
biek
bierhen
biernes
big
bigla
biglan
bii
biin
bikking
bikol
bilang
bilay
bili
bilin
biliran
bill
billboard
bilonget
bin
binagaan
binago
binalatongan
binalonan
binangonan
binaniaoesan
binayes
binilin
binindisionan
binmaley
binmilay
binondo
binubuo
binuo
binyag
biology
bionic
bird
birhen
birhin
birth
birthday
bisai
bisain
bisaya
bise
biskeg
bislak
bissau
bite
biteoen
bitewen
bitking
biwag
bk
black
bless
blessed
blessing
blica
blog
blood
blow
blue
blues
bo
board
boat
bobon
body
bogbogtong
bogbogtung
bogo
bogtong
bohol
bokal
bokel
bokig
bokod
bokor
boksingero
boku
bokura
boleg
bolinao
bolivia
bolog
bolong
bolos
bonanza
bone
bong
bongay
bonifacio
book
books
boom
bora
born
bosel
boses
bosis
bosna
bosnia
boston
bouken
boulevard
bounce
box
boy
boys
branch
brazil
break
breakfast
breaking
breast
breathe
breed
brian
bridge
britannica
british
broadcast
broadcasting
broadway
broken
brown
brunei
brunswick
buddhismo
buddhista
buek
buenavista
buendia
buenos
buer
bugallon
bugtong
buguias
buhay
building
bukid
bukidnon
bukod
bula
bulacan
bulag
bulaklak
bulan
bulgaria
bulgariya
bullet
bulong
bumabangat
bunga
bungay
buon
buong
burgos
burlesque
burma
burn
burning
bus
busay
bush
business
but
butuan
buy
by
c
ca
cabagan
cabatuan
cabcaben
caboloan
cabuyao
cagayan
cainta
calaca
calamba
calasiao
calauag
calayan
california
calixto
call
calle
camarines
cambodia
cameroon
camiguin
camiling
can
canaan
canada
canadian
canary
canaveral
cancer
cancion
candaba
candon
cannot
capas
cape
capita
capital
capitol
capiz
capri
capt
captain
captor
capul
car
caracas
caraga
carcar
card
care
career
carla
carlos
carmen
carmina
carmona
carol
carolina
carolyn
carpenter
carpenters
carry
cartier
cassady
cast
castro
cataingan
catalina
catalino
cataloging
cataloguing
catanduanes
catarina
category
catholic
cattle
cave
cavite
cawayan
cayenne
cbn
cc
cd
ce
ceboom
cebu
cebuana
cebuano
celebrity
celeste
cemetery
census
center
central
centre
century
ceremony
cervantes
cetera
chad
chairman
chan
chance
change
channel
charles
charleston
charlottetown
chart
charts
chase
cher
cherfitness
chest
chi
chicago
chicken
chief
child
children
chile
chili
china
chinatown
chinese
chito
chiu
chlotrudis
choice
chou
choujin
chris
christi
christian
christmas
christopher
chronicle
church
cia
cine
cinema
cineuphoria
circle
circuit
ciro
cities
city
ciudad
clara
class
classification
claude
claveria
climatic
clinic
clip
closer
cloud
club
co
coal
coast
coastal
coconut
cod
code
cogo
cold
collection
college
colombia
colonial
columbia
com
comandante
comaromi
combattler
come
comedy
command
commander
commando
commercial
committee
commons
commonwealth
communications
communicators
communion
communities
community
company
compilation
complete
computer
con
concepcio
concepcion
concert
concio
confirm
congo
congress
congressman
connecticut
conquistador
contact
contemporary
continent
control
cook
cooked
cool
copyright
corazon
cordillera
cordon
core
cork
corner
coronel
corp
corporation
corpus
corpuz
correa
correct
corregidor
corte
cory
cotabato
could
council
count
countries
country
county
couple
court
cover
covering
crab
crazy
create
creative
cristel
cristo
critic
criticize
critics
croatia
cross
crown
cruz
cry
crystal
cu
cuba
cultural
culture
curitiba
current
currents
cus
cusano
cut
cutter
czech
czechia
d
da
daan
dabok
dad
dadalawen
dade
dagat
dagdagen
dagem
dagiti
dagitoy
dagum
dagupan
dahil
dai
daigdig
daily
daiset
dait
daitetsujin
dakbayan
dakdakel
dakel
dakep
dakerakel
dakkel
dala
dalam
dalan
dalang
dalawang
dalem
dali
dalig
dalin
dallas
daluyon
damo
dan
danao
dance
danes
dangaioh
danganan
dangol
daniel
danilo
danom
dante
danum
dao
dapan
dapat
dapit
dapol
daray
dare
darling
dasal
dasdas
dash
dasmarin
dasol
data
datal
datdakel
date
dati
datin
dating
daughter
daulo
davao
dave
david
dawn
day
daya
dayami
dayat
dayew
days
dc
ddc
de
dead
dean
dear
death
debut
december
decimal
dee
deen
deep
dekada
deket
del
dela
delfin
delpower
demo
democratic
demograpiko
dengel
dengelen
denmark
densetsu
denver
department
depths
deral
derby
deremen
dero
design
desisyon
desk
detroit
deutschland
devil
devo
dewey
di
dia
diabetes
diablo
diad
dian
diario
diaryo
diaz
dibdib
dictionary
did
die
diego
diesel
different
dig
digby
digital
digitech
dika
diking
diksionaryo
dila
dilak
dili
diliman
dilin
dilo
dima
diman
dimasalang
dime
dimonyo
din
dinagat
dinalaw
dinalupihan
dinamarka
dinapigue
dingding
dingdong
dinmago
dino
dionysus
dios
diosdado
direct
direction
director
directory
dirty
disc
disco
disiembre
disipulo
diskograpiya
dison
disorderly
dispersed
distance
district
distrito
disyembre
dita
ditan
dito
divilacan
divino
division
divorce
diya
diyad
diyos
dizon
dizzy
dj
do
doctor
documentary
dodge
dog
dokol
dokolan
doktrina
dolores
dolphy
dom
domingo
dominique
don
dondon
dong
door
doors
doraemons
dorian
double
doubtful
down
downtown
dr
dragon
drake
drama
dream
dressed
drive
drooping
dry
dua
duan
duara
duaran
duaray
duay
dublin
dueg
duet
duga
dugo
duka
dukey
dull
duma
dumalneg
dunong
duo
duos
during
dusa
dusaen
dust
dutak
duwaray
dvd
dwamplo
dwar
dwara
dwaran
dwcm
dwdh
dwhg
dwhr
dwht
dwhy
dwid
dwin
dwiz
dwje
dwkt
dwmf
dwon
dwpr
dwrs
dwtl
dya
dyad
dyus
dzdn
dzjc
dzlu
dzmq
dzns
dzrd
dzsd
dzvr
dzvv
dzwn
e
each
eagle
ear
early
earth
east
easter
eastern
easy
eat
ebat
ebet
echague
echo
ecija
economic
ecuador
ed
eddie
eden
edgar
edible
edirne
edisyon
edit
edith
edition
editions
editor
editorial
editoryal
edom
education
educator
edward
eel
effect
eges
egg
eh
ehemplo
eien
eight
ekal
ekalen
ekonomiya
ekron
eksperto
ektarya
el
elder
electoral
electric
electronic
elek
elementary
eleng
elias
elizabeth
elpidio
em
emel
emergency
emilio
emirates
emiratos
emma
emmy
empire
en
enatey
encyclopaedia
end
ending
enemy
enero
engage
england
english
enianak
eniayak
enoc
enough
enrile
enrique
enriquez
ensay
ensulat
entablado
enteng
enterprises
entertainer
entertainment
entity
entries
entry
ep
epel
episodes
epstein
equador
equator
equatorial
er
eras
erect
erel
ereng
eric
erik
erika
ermen
ermita
ernesto
erwin
es
eskuela
eskwelaan
espan
espana
espaniol
espanol
espanya
espanyol
esperanza
espesyal
espino
espirito
espiritu
esposa
establishments
estado
estados
estancias
estasiyon
estate
esteban
estoniya
estoria
estrada
et
etc
etchmiadzin
eufemia
europa
europe
european
evaporation
even
events
ever
everest
everglades
every
everybody
example
exceed
exclusive
expansion
experience
explorer
export
expression
extra
extrada
extreme
ey
eyag
eye
eyes
f
fa
fabian
face
facebook
fall
falling
falls
false
fame
familia
family
famous
famy
far
farewell
farin
farm
fashion
fat
father
fatigue
favorite
fe
feather
feature
features
february
federal
federation
feel
felife
felipe
female
ferdinand
ferguson
fernandez
fernando
ferrer
ferriols
festival
fever
few
fiction
fidel
field
fields
fiesta
fiestay
fight
file
filipina
filipinas
filipino
filipinos
film
filmography
films
final
finance
financing
find
finger
finland
finlande
fire
first
fish
fishing
fitness
fitzgerald
five
flags
flame
flight
float
floor
flora
florida
floridablanca
flow
flower
fly
fm
focus
fog
follow
following
food
fool
foot
football
for
forbes
force
foreign
forest
forever
forget
form
formation
formed
former
formerly
fort
forward
found
foundation
four
frameless
franc
france
francis
francisca
francisco
franklin
fransia
freddie
free
french
frid
friend
friends
from
front
fruit
ft
fu
fujisawa
full
fun
futari
g
ga
gabay
gabon
gabriel
gagala
gaganapin
gagawaen
gakeen
gakkyuu
gala
galang
galapong
galaw
galera
gales
gali
galiken
galikin
galilea
galin
gambia
game
games
gamet
gamit
gamitin
gamu
ganagana
ganaganay
ganbare
gang
gangan
ganggan
gapan
gapo
gapoy
garchitorena
garci
garcia
garden
garduce
garita
garsiya
gastos
gatas
gatchaman
gatgaten
gattai
gawa
gawaan
gawad
gawaen
gawak
gawam
gaway
gaween
gawgawa
gawing
gayaga
gayagay
gayunpaman
ge
gen
gendat
gender
general
generation
genesis
genggeng
genki
genshi
gentle
geographic
geometry
george
georgia
german
germany
get
getma
getter
ghana
gi
giants
gibraltar
gift
gihon
gil
gilig
gimmapo
gimme
gin
ginagamit
ginagawa
ginagawang
ginamit
ginanggan
ginapuan
ginawa
ginawan
ginmapo
giongco
girl
girls
give
gje
gladys
glass
global
globe
gloria
gma
go
gobernador
gobierno
gobirnador
gobyerno
god
godam
godannar
godman
goemon
goes
gogh
gold
golden
golf
golfer
golfworld
golion
gomez
gone
gonigon
gonzaga
gonzales
good
goodbye
google
gordon
gorgor
got
gotham
gou
gov
governance
government
gowapper
goya
goyor
grace
gracia
graduate
grammar
grammy
grand
grande
grass
grasya
great
greatest
greece
greek
green
greetings
gregorio
gregory
grief
griyego
grotto
ground
group
groups
grow
growing
grupo
guagua
guangxi
gubat
guest
guevarra
gui
guide
guild
guillermo
guimaras
guinea
guinness
gulf
gumaca
gumagamit
gummi
gun
gutenberg
gutierrez
guts
guy
guyam
guyana
guyslugger
guzman
gypsys
h
ha
habang
had
hadad
hadji
hair
half
halifax
halimbawa
hall
halos
hamburg
hammer
hampshire
hamptons
hand
hands
hanggang
hantsport
hapon
hapones
happy
hard
harlock
has
hashire
hasty
hat
have
haven
havila
hawaii
hayabusa
hayastan
he
head
headlines
health
hear
heart
heaven
heavy
heiwa
helen
hello
help
heneral
henry
henshin
henyo
her
herbert
hercegovina
here
hernandez
hero
herodes
hersegobina
herzegovina
hesukristo
hesukriston
hesus
hey
heyografiya
hi
hide
high
higit
hiligaynon
hill
him
hindi
hippo
hippy
hirit
his
historic
historical
historiya
history
hit
hitori
hitotsu
hits
hiyograpiko
ho
hoa
hoero
hold
holdings
holes
hollman
hollywood
holy
home
honduras
honey
honorable
honors
hope
horas
horizon
horn
hoshi
hospital
host
hosting
hot
hotel
hour
house
houston
how
however
html
http
https
huang
hulio
hulyo
human
hundred
hungary
hunio
hunt
hunyo
hurricane
husband
hyakujuu
hyouga
i
iba
ibabaga
ibabagan
ibabagay
ibaga
ibagam
ibagat
ibalap
ibanag
ibang
ibanghilyo
ibayo
ibc
ibelyaw
ibig
ice
iceland
ichiro
ichirou
icon
icu
id
idayew
idi
idol
if
ifugao
igalang
igan
igid
iglesia
ignacia
igorot
igsa
ii
iii
ika
ikaindan
ikakana
ikalawang
ikalimang
ikana
ikanta
ikarga
ikatlong
ikaw
ikdan
ike
iket
ikinuha
iknol
ikol
ikuzo
ilaban
ilagan
ilako
ilalak
ilalim
ilalo
ilaloan
ilang
ilik
ilinggis
ilio
iliw
illinois
illness
ilocos
ilog
iloilo
ilokano
iloko
iloob
ima
image
images
imahe
iman
imano
imanom
imay
imbaga
imbagad
imbaki
imbeneg
imbes
imdb
imelda
imis
imitate
impact
impakaitagey
impamalsa
impatalus
impatey
impirador
importante
impossible
imus
in
ina
inaatey
inagew
inak
inala
inalad
inan
inanak
inanateyan
inang
inangoban
inararo
inararok
inararon
inaro
inarom
inasinan
inatey
inateyan
inauguracion
inawa
inawat
inay
inazuma
inazuman
inc
include
including
indang
indengan
independent
independiente
index
india
indian
indiana
indiewire
indise
individual
indonesia
indonesian
indonesiya
industry
indyo
ine
iner
inerman
infanta
influence
information
ingal
ingen
ingey
ingganggan
inggapo
ingles
ini
inianak
inilathala
initdan
inka
inkagawa
inkasakitan
inkasikato
inkatoo
inkianak
inkibantak
inkioli
inkiolid
inkotkot
inkuan
inkuandad
inkuanen
inkuanto
inkuantod
inkuay
inlaknab
inmalagey
inmebat
inmolin
inmonan
inner
inngaran
inochi
inpapairap
inpasak
inpatey
inquirer
insaklang
insan
insane
inside
insipan
insipay
insp
inspiration
instead
institute
insulat
intanem
inter
interest
interior
international
internet
interon
intiron
into
intramuros
introduction
introductions
intsik
inumen
investment
inyakar
inyanak
iowa
ipa
ipaamta
ipanengneng
ipasen
ipatey
ipawil
iprage
ira
irad
iramay
iran
irap
iray
ireland
irirap
irish
irlande
iron
is
isa
isaac
isabel
isabela
isabi
isaklang
isalat
isalaysay
isalita
isan
isang
isempet
isiblet
isidoro
isidro
isinop
isip
isipan
isla
island
islands
isle
ismael
ispiritu
israel
israelita
istoria
isu
it
itaas
italian
italiano
italy
itan
itapew
itarok
itawis
itayo
itayon
itdan
ite
itepel
iter
iti
itin
ito
itogon
its
iv
ivoire
iya
iyabuloy
iyan
iyang
iyo
j
jacinto
jackson
jacksonville
jacob
jacques
jad
jae
jaime
jakarta
jake
james
janeiro
janine
january
japan
japanese
jaya
jaylo
jazz
jean
jeeg
jeepney
jennica
jerry
jerusalem
jessica
jessy
jesu
jesucristo
jesukristo
jesus
jf
jhad
jhina
jikuu
jim
jimenez
jimmy
joab
jobs
joey
johann
john
join
jollibee
jolo
jomalig
jones
joram
jordan
josafat
jose
josef
josefa
joseph
josue
journal
journalists
jovit
jpg
jr
juan
juda
judas
judy
julio
july
june
jungle
junior
jupiter
just
justice
k
ka
kaabigan
kaamong
kaarawi
kaaro
kaatapan
kabaleg
kabaliksan
kabansaay
kabat
kabay
kabayan
kabayo
kabebekta
kabesera
kabibilay
kabilang
kabilongetan
kabkabat
kablian
kabuasan
kabul
kabusol
kabwasan
kabyangan
kabyangay
kad
kada
kadagiti
kadia
kaduana
kaermenan
kaette
kagagawa
kagalang
kagalangan
kagandahan
kagawaan
kagawad
kagayake
kage
kagestar
kahit
kaiba
kaibay
kailalakan
kaimbuasan
kainan
kairapan
kaisipan
kakaaro
kakabatan
kakanaan
kakanayon
kakanen
kakapuyan
kakete
kala
kalakal
kalangweran
kalapan
kalawakan
kalayaan
kalayan
kalendario
kaliber
kaliberliber
kaliketan
kalinga
kalpasen
kalsada
kalusugan
kaluyagan
kamag
kamalir
kamambogan
kamangyan
kamarerua
kamareruak
kamarerwa
kamatayan
kamen
kami
kamid
kamin
kan
kanding
kanen
kanepegan
kangaranan
kangrunaan
kani
kanian
kanilang
kankanta
kanonotan
kansas
kansion
kanta
kantaan
kantidar
kanto
kanunotan
kanyan
kanyang
kaogsan
kaonoran
kaonuran
kap
kapag
kapalaran
kapaldwan
kapampangan
kapangan
kapara
kaparak
kape
kapesel
kapigan
kapinsan
kapisag
kapital
kapitan
kapitolio
kapitolyo
kapulo
kapuloan
kapupud
karagdagang
karakel
karaklan
karamihan
karaniwang
karayan
kareenan
karen
karitoon
karniro
kas
kasabi
kasakbayan
kasal
kasalanan
kasalanay
kasalukuyan
kasalukuyang
kasama
kasamputan
kasarayan
kasaysayan
kasi
kasian
kasikis
kasil
kasin
kaskasian
kastila
kastilan
kasumpal
kasumpalan
kasunduan
katakelan
kataoan
katapat
katarungan
katat
katawan
kate
kategorya
katekep
kathmandu
kating
katipunan
katolika
katoliko
katooan
katoowan
katuaan
katulangan
katulong
katuwaan
katwaan
kaugnay
kaugnayan
kaumaan
kauyos
kawalaan
kawanan
kawanay
kawayan
kawes
kawigi
kawing
kay
kaya
kayari
kayaryan
kayo
kayod
kayon
kayoy
kazakstan
kaze
kazoe
ke
keiji
kekerewen
kelat
kelaw
kem
kemakem
ken
kennedy
kenya
kera
kerew
kesao
kesaw
kesey
ket
ketab
ketket
kevin
khz
ki
kibungan
kick
kid
kids
kien
kiew
kikansha
kila
kilalaban
kill
kilometres
kilometro
kim
kimey
kimi
kind
kindi
kinen
king
kingdom
kingfisher
kini
kinmulang
kiolid
kipapasen
kipro
kirche
kirep
kiss
kita
kite
kiyew
klase
klasiy
km
knee
knot
know
known
ko
kod
kodigo
koete
koko
kokoro
kolor
komedya
komiks
komon
komori
komoy
kompiuter
kompositor
komun
komunidad
komunion
komuy
kon
kong
kongreso
kono
konsehal
konseho
kopya
korderoy
korea
korean
koro
korte
kosaka
koseidon
kostal
koy
kra
kris
kristo
kritiko
kroasiya
krus
kruz
ku
kua
kuan
kuanda
kuanen
kuanto
kuantod
kuarta
kuay
kudarat
kugip
kuko
kulang
kultura
kumadwa
kumadwan
kumaliman
kumanem
kumapat
kumapiton
kumatlo
kumatlon
kumon
kumoy
kun
kung
kuro
kurok
kutte
kuya
kuyak
kwanto
kwarta
kyoto
kyou
kyouryuu
kyuujotai
l
la
laban
labas
labat
labay
labi
labin
labinapat
labir
laboratory
labrador
lack
lad
lady
laen
laeng
lagay
lagi
laguna
lahat
lahug
laineng
lainge
laingen
lakapen
lakas
lakay
lake
laki
lakin
lalaki
lalakin
lalaptop
lalawigan
lalo
lalon
laman
lamang
lamao
lamay
lambengat
lamet
lamot
lamut
lan
lana
lanang
lanao
land
lang
langit
langkap
langoy
language
languages
lanti
lao
laoag
laoas
laos
laot
lap
lapag
lapo
lapod
lapog
lapor
lapu
lapuan
lapud
lapulapu
lapur
lara
larag
larak
large
largest
las
last
lasus
latbia
late
later
latin
latino
latitude
latitudes
laugh
laughter
laurel
laut
law
lawari
lawas
lay
layag
laylay
ldez
le
lea
lead
leading
leaf
league
learning
leave
leaves
left
leg
legan
legazpi
legend
leksab
leleg
lemery
lend
lennon
leo
leon
lepsag
les
let
letakan
letaw
letnegan
letra
level
leyte
lgbt
lhuillier
liber
liberia
liberty
libo
libot
librarians
libraries
library
libre
libro
libron
libsong
libya
licuan
lie
liechtenstein
life
lifetime
lift
liga
light
ligliwa
like
likeliket
liket
liknaan
liknak
liknan
likud
liliknaen
liliw
lima
limam
limamplon
limara
limay
limgas
limit
limon
linaew
linaoa
linaoam
linawa
linawam
line
lingayen
linget
lingkor
link
linked
links
linma
linmabas
linmad
linmay
linmoob
lino
linteg
lioang
lioaoa
lisbon
list
listaan
listening
literature
little
lituania
liturgy
live
liver
liverpool
living
liwang
liwawa
lix
liyestenstayn
ll
llanera
lo
lobok
local
locales
locarno
log
lokal
lokasiyon
lokasyon
lokso
lokun
lollipops
lolo
lomboy
london
lonely
long
loob
looc
look
looking
lopez
lord
lordi
lorem
lorenzo
loreto
los
lose
lost
lot
lotan
lou
louis
louisiana
love
loving
low
lower
lt
ltskog
lua
luak
lubao
lubay
lubir
lucanin
lucban
lucena
lucia
lucky
lucy
lugar
luis
lukas
luluganan
lumikha
luna
lunas
lunatic
lunes
lungsod
lupa
lupak
lupam
lupin
lusek
luxembourg
luyag
luz
luzon
lyngstad
m
ma
maaaring
maabagey
maabig
maagang
maalaala
maanos
maaro
maaron
maawang
mabalacat
mabalin
mabanday
mabayuan
mabeng
mabetbet
mabilay
mabini
mabintan
mabiskeg
mable
mablin
mabuhay
macabebe
macapagal
machine
maconacon
madagascar
made
madre
mae
maermen
maeta
mag
magagamit
magalang
magallanes
magalona
magano
maganto
magayaga
magayagan
magazine
magdalena
magellan
maging
magiranger
magmaliw
magsano
magsaysay
maguindanao
mahal
mai
maika
mailioak
maimpis
main
maine
maingal
mainget
mainomay
mairap
maistro
major
makabat
makalakal
makaoley
makapaabig
makapabaing
makapakelkelaw
makapal
makapansalita
makapanyari
makapanyarin
makapoy
makasengeg
makatalos
makatalus
makati
makatulong
make
makorit
maksil
malabon
malagak
malaki
malalaking
malamang
malapati
malasia
malate
malawak
malay
malayo
malaysia
male
malet
maliga
maligan
maliit
malikeliket
maliket
malimpek
malinak
malinew
malinis
maliwawa
mall
mallig
malls
malmalet
malong
malou
malta
mama
mamaandi
mamalingling
mamatey
mambibilay
mambilay
mambungay
maminsan
mamma
mamparakel
man
manaakar
manaayam
manag
management
managkasalanan
managnop
managsakop
managsalita
managsulat
manalagar
manalalagey
manalo
manaloto
manamaandi
manamaandiy
manamalsa
manamalsay
mananak
manangilaban
mananisia
manaoag
manari
manarin
manases
manaya
manayam
manbabawi
mandalem
mandaon
mandarlang
mandaue
manduaruwa
manepeg
mang
manga
mangaawit
mangala
mangaldan
mangan
mangancion
mangaro
mangasi
mangasika
mangatarem
mangatatawen
mangawat
mangga
manggagawa
manggawa
mangi
mangigalang
mangiiter
mangilaban
mangipanengneng
mangipanon
mangipanunot
mangiter
mangokom
mangoonur
mangyakar
manila
manilyn
maninisia
manipud
manisia
mankayan
mankelaw
manlapod
manlapud
manliket
manliknay
manngaran
manny
manok
manoley
manomtombuk
manona
manong
manonton
manpatanir
manpikasi
mansasakit
mansasalita
mansiansia
mansiansian
mansulat
mantanaman
manuel
many
manyorong
maoges
maong
maoy
map
mapa
mapaabeba
mapaga
mapagalang
mapalaloy
mapalar
mapalpalna
mapanaynay
mapangaro
mapangasi
mapatnag
mapilit
mapino
maplandia
maptek
mara
marakep
marami
maraming
mararakep
marcelo
march
marco
marcos
mareen
mareereen
mari
maria
marian
mariano
marijuana
marikit
marinduque
marine
marino
mario
maritime
mariveles
mark
market
markos
marlang
marso
mart
martes
martin
martires
maruksa
marunong
marutak
maryland
mas
masaganan
masakbay
masamit
masanto
masanton
masantos
masarag
masataka
masbate
masedoniya
masiado
masiglat
masiken
mask
maslak
masnag
massachusetts
master
masulok
masurin
masyado
mata
mataba
matak
matakew
matalag
matalonggaring
matam
matatagpuan
matdem
matematika
mateo
matias
matigas
matonung
matoor
matuwan
mau
mauges
maui
maung
mauritania
maxi
maximum
may
mayaman
maybe
maynila
mayo
mayor
maysa
mazinger
mazinkaiser
mccartney
md
me
mechander
media
medical
medikal
medley
medya
megaloman
megan
megawatt
melag
melanting
melba
melchor
melody
melos
melvil
member
memorial
men
mendiola
mendoza
mention
meow
mercado
mercedes
mercury
mercy
merkel
merry
merupakan
mesa
mesias
met
metres
metro
metrobank
metropolitan
metropolitano
mexico
mga
mhz
mi
mia
miami
miasawa
michael
michelangelo
michelle
michi
mickey
mid
middle
middleton
miembro
mierkoles
miguel
mikabat
mikasakey
mikasi
mike
mila
milagro
milagros
militar
military
million
milton
milyon
min
minabang
minalin
mindanao
mindoro
mine
miniseries
ministerio
ministro
minoli
minsan
minuto
mipakna
mira
miracle
mirai
mirror
misalamat
misamis
misias
misis
miss
mission
mister
misterio
misterioy
mitchell
mix
mixed
miy
mizuki
mo
moab
moak
mobo
mod
model
modelo
modern
moero
moises
mokor
moldavia
mon
monaco
mondo
monet
money
monghe
mongolia
monica
monkey
monogatari
monreal
monte
montemayor
montenegro
montevideo
month
months
moo
moon
moonlight
moonstruck
more
morehead
moreno
morning
morocco
morong
morrison
mortel
mosiko
most
mother
motion
mount
mountain
mouth
moved
movement
movie
moviestars
moy
mozart
mr
mt
mtv
mu
much
mucho
muigel
mukashi
mula
muling
mundo
municipal
municipality
municipio
munting
museo
museum
musia
music
musical
musician
musika
muslim
must
mustang
muteki
muteking
my
myanmar
mystery
n
na
naacp
naakan
naala
naamtaan
naananap
naanap
naandi
naani
naaralan
nabalang
nabirbir
nabuas
nacio
nacion
nacional
nadngel
nag
naga
nagagawa
nagalang
nagamuran
nagawa
nagbalin
nagcarlan
naging
naglalaman
nagmaliw
nagnap
naguilian
nai
naic
naimano
naitdan
naka
nakal
nakama
nakar
nakaraang
nakaukolan
nakaukulan
naksawan
nala
nalikas
nalilikna
nalingoanan
nalingwanan
nalmo
naluto
nam
naman
nambabangil
nambokel
name
named
namibia
nampupulong
nan
nanang
nanaral
nanarian
nanay
nanayam
nanbabangil
nandemo
nanduruman
nanengneng
nang
nangel
nangetelan
nankakasalanan
nankasalanan
nanlapo
nanlapod
nanlapu
nanlapuan
nanlapud
nanmaliw
nanonotan
nanopapet
nansalita
nansinan
nantepet
nantrabaho
nantucket
naogip
napadisi
napelag
naplag
napno
napnoy
napoleon
napunas
narasan
narateng
narayew
narciso
narengel
narito
narrow
naruhito
narvacan
nasa
nasabi
nasakitan
nasumpal
natalusan
natan
nataniel
natatakot
natawo
natay
natey
nation
national
nations
natividad
natsukashi
nature
nauhan
nausar
naval
nayari
nayarian
nayarin
naynay
nazaret
nazo
nazugbu
nd
nda
ne
near
neck
need
negosyo
negros
neiger
nen
neneng
neng
nengneng
nengnengen
nengnengnengen
nensaman
neo
nepal
nepeg
neppuu
neptali
ner
net
netherlands
network
nevada
never
new
newark
newfoundland
newport
news
newspaper
newspapers
newton
ng
nga
ngalngali
ngalngalin
ngan
ngaran
ngaray
ngarem
ngipen
ngoro
ngunit
nguroy
nha
ni
nia
niadtong
nian
nianak
nianakan
niay
nibaga
nibantak
nibiig
nicaragua
niccolo
nickelodeon
nicola
nicolas
nid
niduma
niduman
nigeria
nigetar
night
niiter
nikuan
nila
nilaban
nilalaman
nilikha
nilikna
niman
nin
ninja
ninonot
ninoy
nio
niog
nipaakar
nipaamta
nipakar
nipasen
nipaway
niran
nisei
nisulat
nitan
nitepel
nito
niy
niya
niyane
no
noag
nobelista
nobiyembre
noble
nobyembre
noli
nominasyon
nominees
non
nonot
noon
noong
nora
norfolk
normal
norte
north
northern
northwestern
norue
norway
norwegian
nose
not
nota
nothing
noticias
nova
november
noviembre
now
noy
noynoy
nu
nuestra
nueva
nuevo
number
numero
nun
nunot
nyog
o
oadman
oala
oalad
oalay
oaoeng
oari
obak
obama
obet
object
ocampo
occidental
occupies
occur
ocean
oceans
oclc
october
odin
odino
odori
of
off
offering
office
officer
official
ofisial
ofisyal
ogaw
ogip
oh
ohio
oi
oic
oil
oink
oira
okashina
oklahoma
oktobre
oktubre
ol
ola
old
oldest
oleg
oley
olo
olongapo
omar
ombaleg
ombangon
omman
ompan
ompaoil
ompatey
ompaway
ompawil
ompelag
on
onaagos
onaan
onabig
onabuloy
onakseb
onarap
once
ondakmomo
ondayat
ondengel
one
onebat
onggendan
onia
onkana
onkanan
onla
onlabas
onlad
online
only
onman
ono
onona
onong
onor
onorey
onpatey
onpawil
onsabi
onsabid
onsabin
onsalat
onsamar
onsempet
onsulok
ontan
ontay
ontombok
ontombuk
onung
onuren
onya
onyay
onyong
oo
ooh
opa
open
opened
operating
opisyal
ople
or
ora
oran
orang
oras
orchestra
order
ore
org
organisasyon
organization
oriental
original
orihinal
orion
orlando
orleans
oro
os
osasco
oscar
oslo
osmen
ospital
otakebi
otel
otet
other
otoko
otoridad
otot
ou
our
out
outside
outstanding
ova
over
overall
p
pa
paabig
paabigen
paakseb
paandien
pabitla
pablo
pacific
pacifico
paco
pacquiao
pad
padilla
padir
padre
pag
paga
pagadian
pagbabago
page
pageo
pagew
pagey
paggamit
pagilian
pagitan
pagka
pagkakaroon
paglabag
pagpoposisyon
pahina
painaoa
painawa
painter
painting
pait
pakaamta
pakabat
pakadnonotan
pakairamanan
pakalmoan
pakanengneng
pakaoley
pakayari
pakelaw
paksa
palabas
palanan
palanas
palandey
palar
palaris
palawan
palbangon
palengke
palig
paliwawa
palm
paltog
pamagaen
pamagalang
pamagat
pamamagitan
pambansang
pamilihan
pamilya
pampanga
pampango
pamplona
pan
pana
panaayaman
panag
panagbilay
panahon
panama
panamaandi
panamaandiy
panamabli
panamegley
panangan
panangaro
panangarok
panangarom
panangaroy
panangasi
panangasim
pananginan
pananginay
pananisia
panaon
panarian
panay
panayaman
panbilay
pandasal
panday
pandayat
pandem
pang
pangako
pangalawang
pangangailangan
panganiban
pangaran
pangarap
pangasinan
pangasinense
pangkalahatang
pangulo
pangunahing
panilaloan
panimula
panis
panisiaan
pankakasakey
pankanawnawa
panlalapuan
panliketan
pano
panoley
panon
panooley
panoy
panpalinewan
panpuyok
pansakop
pansumpalan
pantaleon
pantiponan
pantolintolinen
pantotolintolinen
panyo
paolian
paolo
papa
papari
papaya
papel
papulasyon
para
parad
parade
paradise
paraguay
paramore
parana
parangal
parao
parasasenado
pardo
parehas
pareho
parehong
pareng
parents
pari
parirala
pariralang
paris
parish
park
part
parte
participating
partii
partikular
party
pasak
pasay
pascual
pasen
paset
pasig
pasil
pasipiko
pasnok
pasnuk
paso
pass
passi
pasyalan
pasyente
patakaran
patani
patar
patey
pateyen
pati
patient
patnag
patrol
paul
paulo
paunla
paway
pawil
pay
payak
payaso
paz
pdf
peace
pebrero
pedro
pegley
pekpek
pelag
peles
pelikula
pen
peninsula
people
peoples
pepe
pepeng
pepper
peppers
per
perdona
perdonaen
perez
performance
performer
period
permanenteng
pernambuco
persia
person
personal
persons
peru
pespes
pest
petang
peteg
petek
petepeteg
peter
petsa
peyeng
ph
philatlas
philippine
philippines
philosopher
philosophy
phoenix
photos
pi
pian
pianap
piano
picasso
pictou
picture
pictures
pie
piece
pieces
pieta
pig
piga
pigan
pigara
pigaran
pigaray
pigay
pikakabat
pikakasakey
pikakasi
pikasi
pikasim
pilak
pilalek
pilar
pilato
pili
pilipina
pilipinas
pilipino
pilit
pilmograpiya
pilosopiya
pin
pinabli
pinablin
pinaikling
pinaka
pinakabagong
pinalawak
pinalsa
pinaolyan
pinasya
pineda
pinili
pinilim
pinmaway
pinmawil
pio
pirawat
pirdonaen
pisag
pisasalamat
piseng
pising
pisipising
pista
pistay
pit
pito
pitora
pitoran
pitotoo
piyan
place
placer
places
placid
planned
plant
plata
plate
platinum
plato
platon
play
played
playwright
plaza
please
pluma
plumak
pluman
plural
png
pnp
po
poblacion
poder
poe
poet
pogi
pogo
point
pokel
pokok
pola
poland
polen
police
polinesyo
political
politician
politico
politics
politika
politikal
politiko
poll
pollution
polo
polok
polonya
polyeto
polynesian
pon
poncio
pond
pool
poolan
pop
popular
populasyon
population
porac
port
portal
portland
porto
portrait
ports
portsmouth
portugal
portugue
portuguese
posisyon
powder
power
pozzorubio
pp
pr
pranses
prayer
prayers
pre
premios
present
presente
presidencia
president
presidente
presidential
press
prevent
pribadon
price
priest
prime
primetime
prince
princesa
print
prisoner
prix
prize
pro
probinsiya
probinsya
problema
procure
produced
production
productions
produkto
profile
profit
program
programa
project
promise
promising
promotion
proof
proper
propita
proseso
providence
province
provinces
provincial
prutas
public
publication
publish
published
pueg
puerta
puerto
pugnel
pugo
pulis
pull
pulo
puloan
punas
pundaquit
pung
puniti
punong
punta
pure
purok
pusa
push
puso
pusok
pusom
puson
puti
puto
puławy
pwesto
px
q
quebec
queen
queer
quesada
quezo
quezon
quiambao
quiapo
quick
quintin
quirino
quizon
quotas
r
ra
rad
radio
radyo
rafael
ragay
rain
ramo
ramon
ramos
ran
raqueno
raroque
ray
raya
raymundo
rd
re
reagan
real
record
recording
records
recto
red
reducindo
reel
refer
references
referensiya
regal
regalo
region
regional
regions
rehion
rehiyon
rehyon
rei
reina
rekord
relationship
relativ
release
released
remains
remedios
remember
remidyo
remigio
renato
reperensiya
reply
reports
repu
republic
republica
republika
resident
resort
resources
result
retrieved
return
review
revilla
revolution
rey
reyes
reyna
reynes
rhea
rhode
ria
ricafrente
rice
richard
rico
rider
rigalo
right
rin
ring
rio
riot
rita
rite
rito
river
rivera
rivers
rizal
rn
road
robert
roberto
robin
robo
robocon
robonation
robot
rock
rockbat
rodriguez
rojas
role
roll
rolling
roma
roman
romania
romaniya
romano
romantic
romblon
rome
romeo
romero
romi
ron
ronald
ronda
room
root
rope
roque
rosa
rosales
rosario
rosas
rose
roses
rosing
rotary
rotten
rough
round
roxas
rrj
ru
rub
rugby
ruiz
rule
runga
rural
rusia
ryan
ryuu
s
sa
saan
saba
sabali
sabi
sabit
sablan
sabo
sabtang
sacrament
sadoc
saew
sagada
sagor
sagot
sagur
said
saint
sakbong
sakey
sakit
saklor
sakop
saksakey
sakusen
sala
salamat
salaney
salang
salanti
salasa
salat
salaya
salcedo
sales
sali
salik
salin
salinity
salita
salitak
salitam
salitan
salitay
salming
salmo
salonga
salt
salvador
salve
sama
samal
saman
samar
samaranon
samaren
samay
samba
sambag
sambot
same
samit
sampaloc
samplora
samploran
sampot
sampung
samurai
san
sanagew
sananey
sanasawa
sanchez
sand
sanders
sanduan
sanga
sangguniang
sangi
sanina
sanka
sankabalgan
sankaili
sankakabatan
sankamundoan
sankanayarian
sankapangulowanan
sankasantosan
sankasikatan
sankatageyan
sanlasus
sanlibo
santa
santan
santander
santi
santiago
santo
santos
sapin
saquey
sar
sara
sarag
sarama
saraman
saramay
sarangani
saray
saraya
sarayan
sarili
sarrat
saru
sasageru
sasantos
sasayaki
sasmuan
sata
satan
satay
satellite
satisfied
saturn
savannah
save
say
saya
sayaksak
sayan
sayao
sayaw
sayay
saying
says
scheme
schmoes
school
science
scoop
scotia
scratch
scream
screen
se
sea
seal
seas
season
seattle
seba
sebastian
second
secret
see
seed
seen
segment
segovia
seguerra
seigi
seiko
seishun
sekai
sekano
sekder
sekular
selebrasyon
self
sell
selling
sem
sen
senado
senator
senegal
sengeg
sengegan
senshi
sensus
sentai
sentro
sepanyol
separated
sept
september
septembre
septiyembre
serbisyo
sergio
series
service
services
set
seven
several
sew
sex
seymour
sgt
shake
shakespeare
sharp
she
shelburne
shelf
shelves
shin
shinkon
shiro
shishi
shoes
shoop
short
shounen
shout
show
showbiz
showing
shows
shrine
si
siak
siam
siansia
siansian
sibeg
sibok
sibugay
sica
sick
side
siempre
sierra
sigay
siglo
sign
sigud
siguro
sika
sikami
sikamin
sikamiy
sikan
sikara
sikaran
sikaray
sikat
sikatayo
sikato
sikatod
sikaton
sikatoy
sikay
sikayo
sikayon
sikayoy
silang
silence
sileo
silew
silkwood
silong
silver
simba
simbaan
simbahan
simbolo
simo
simon
simpit
simple
sin
sina
sinag
sinagoga
sinakbat
sinalatan
sinalita
sinambaan
since
sindag
sing
singa
singak
singapore
singer
single
singles
singsing
sinmabi
sinmabid
sinmabiy
sinmempet
sintinsiaan
sinumpal
sinundan
siopa
siopaman
siopay
sipan
sipanan
siprage
siquijor
sira
sirin
sisiaen
sison
sistema
sister
sit
site
sitio
siudad
siwsiw
siya
siyudad
siyudadya
size
skin
sky
sleep
sleeping
slovakia
slovenia
slow
sm
small
sman
smell
smoke
smooth
snake
snap
so
sobul
social
society
socorro
soft
soldnorth
solis
soliven
solo
solomon
solong
some
someone
something
son
sondalo
song
songs
sonny
soriano
sorsogon
sotto
soul
sound
soundtrack
source
south
southeast
southeastern
southern
soy
sp
space
spain
spanish
sparrow
speaker
speaking
special
specie
species
speech
spelling
spielvan
spirit
spirits
spit
split
sports
spread
spring
springs
sq
square
squeeze
sr
srbija
st
sta
staaten
staff
stage
stairway
stand
standard
star
state
states
station
stations
statistics
steel
sterreich
steven
stevie
stick
sto
stockholm
stone
stop
store
stories
storm
story
straight
strange
strawberry
street
string
strong
stronger
studies
studio
study
stumble
stylist
su
sual
subdivision
subic
submarine
subsubok
suck
sudden
sudlon
suerte
suesia
sug
sugar
sugat
sugbo
suicide
sukat
suki
sul
sulat
sultan
sulu
sumisigay
summer
summit
sumpad
sumpalen
sun
sunda
sundance
sunflower
sung
sunshine
super
superstar
supply
supporting
supremo
sur
surat
suraten
surface
surigao
suriname
suso
suston
susume
sverige
svg
swallow
swara
sweden
sweet
sweetheart
swell
swim
switzerland
sxsw
sydney
system
systems
t
ta
taal
taaw
taba
tabaco
tabi
table
tables
taboy
tabuk
tachi
tadyuko
taga
tagalog
tagapangulo
tagaytay
tagbilaran
tagey
taglang
tagumbao
tai
taiko
tail
taiwan
taiyou
taka
takad
takan
takayan
take
takeb
takem
taken
taklay
takot
tala
talaga
talagan
talavera
talba
talimokor
talineng
talintao
talisay
talk
tallo
talo
talora
taloran
talos
tamashii
tambal
tameni
tampa
tampol
tan
tanaman
tanamanan
tanay
tanda
tandaan
tanday
tanem
tang
tangay
tanggal
tanol
tantan
tantei
tanza
taoen
taoir
taon
taong
tapan
tapat
tapew
taras
tarem
tarlac
taro
tarok
tarou
tasi
tasik
taste
tatakae
tatakai
tatakau
tatawagen
tatawagin
tatay
tatlong
tatsujin
tatsunoko
tau
tawag
tawagen
tawen
tawi
tawir
tay
tayabas
taylor
taynan
tayo
tayod
tayon
tayoy
taysan
taytay
tayug
tba
te
teach
team
tear
teatro
technology
teen
teenage
teeth
tekep
tekkaman
teknolohiya
teksto
telebision
telebisyon
telefono
telek
television
tell
temperatures
ten
tenejero
tenten
tepet
teresa
teresita
term
terminal
termino
terms
ternate
tesoro
texas
text
texts
th
thailand
than
thanh
thank
thanksgiving
that
the
theatre
their
them
theme
then
there
these
they
thick
thieves
thin
things
think
third
this
thomas
those
three
through
throw
thumb
thumbnail
thunder
ti
tiagew
tides
tie
tiempo
tiger
tikel
tila
time
times
timna
timog
timplo
tin
tinalo
tinaon
tinapay
tinawag
tinaynan
tinda
tindaan
tinepet
tingnan
tingot
tinmayak
tinmokotok
tinmonda
tinmoo
tipan
tipon
tira
tirinsira
titilaan
tito
titulo
to
toak
tobu
tod
today
together
togo
togtog
toki
toktok
tokusatsu
tokyo
toledo
tolentino
toloy
toluk
tomas
tombuk
tomo
ton
tonda
tondo
tongtong
tongue
tonian
tonma
tony
too
toon
tooth
top
tor
tora
toray
tori
tornado
toronto
torre
total
totontonen
totoo
totood
totoom
totoon
tour
tourism
tours
town
townsite
toy
tr
trabaho
tracks
trade
trademark
tramps
trang
transatlantic
transformers
translations
translator
travel
trece
tree
tribu
trinidad
trouble
true
trumpita
trung
truth
try
tsuper
tua
tuan
tuba
tubay
tube
tublay
tuburan
tuguegarao
tuig
tukso
tulad
tulo
tulong
tulongan
tuloy
tumang
tumauini
tungkol
tunog
tupak
turismo
turista
turkey
turkiyo
turn
turnout
tuwan
tv
twan
twitter
two
type
tzebuerg
u
uban
ubas
ubuntu
udc
ug
ugali
ugalim
ugalin
uganda
ugao
ugaw
ugh
ugip
ugto
ugugaw
uh
uian
uk
ukraine
ukraniya
ula
ulat
uleg
ulo
ultraman
ultrasonic
ulupan
umaantabay
umaga
umi
umili
umpian
umpisa
unaan
unang
under
underground
understand
uneven
uni
unibersidad
unido
unidos
unio
union
unit
united
universal
university
unla
unlad
uno
unong
untan
up
upang
update
upon
upper
uran
urang
urdaneta
urduja
urikupen
uruguay
uruguaya
uruguayan
us
usa
usar
usaren
use
used
using
uson
uta
utah
utang
utc
utek
utit
uuri
uusaren
uusarin
uwa
v
va
valencia
valenzuela
valle
values
van
vancouver
vanguard
vanna
vargas
varies
variety
various
vary
vatican
vatikano
ve
vegas
ven
venecia
venezuela
venice
ver
vera
verde
vereingte
vereinigte
veritas
version
very
verzosa
vh
vi
via
vic
vice
vicente
victor
victoria
victory
vida
video
videos
viejo
vietnam
view
views
vigan
villa
village
villages
villamil
villanueva
villaroel
villasis
vilma
vincent
vine
virgen
virginia
visayas
vision
visionary
viva
vizcaya
vocabulario
vocal
vocalist
vocalists
voice
voicelugger
vol
voltaire
volume
vomit
voter
voyage
vs
vulcan
vung
w
wa
wade
wadia
wadman
wadtan
wadyad
waga
wait
waiting
wakusei
wala
walaan
walad
walan
walang
walay
walk
walker
walls
walo
walora
walter
want
war
waray
waraynon
warera
warm
wars
was
wash
washington
waste
watch
water
waters
waves
way
we
weather
web
webdewey
websait
websayt
website
wedding
week
welcome
well
were
west
western
wet
what
wheel
when
where
which
while
whirlwind
white
who
why
wide
wife
wika
wiki
wikimedia
wikipedia
wikipedian
wild
wilhelm
will
willemstad
william
williams
wilmington
wind
winds
wine
wing
winner
winnie
winspector
wipe
wish
with
within
without
wo
woman
women
wonder
wood
woodard
wooden
word
work
works
world
worm
worth
wow
wrap
writer
writing
www
x
xianfan
y
ya
yabuloy
yaemon
yaman
yan
yanak
yap
yarmouth
yatte
yaung
yay
ye
year
years
yegyeg
yellow
yes
yet
yo
yod
yogtan
yoko
yon
york
yorong
yorongan
yoru
you
young
youngstar
your
youth
yoy
yu
yuke
yuku
yume
yuuki
yuusha
z
zambales
zamboanga
zaragoza
zealand
zebraman
zelofehad
zero
zet
zhongguo
zhuang
zion
zip
zone
zones
zorobabel
zubat
{
|
}
~
«
°
²
³
·
¹
»
¿
×
ı
łobez
ˈ
̀
́
̂
̃
̄
̆
̈
̊
̌
̛
̣
̦
̧
͡
α
и
русскии
ٌ
ٕ
द
न
प
ल
ह
ा
ि
ी
े
्
ਜ
ਪ
ਬ
ਾ
ੀ
ੰ
ଆ
଼
ି
ழ
ி
்
ം
ള
ാ
่
ກ
ົ
་
ག
ར
ལ
ུ
ྒ
ྱ
ྲ
တ
န
ဘ
မ
ယ
သ
ာ
း
်
ြ
ၢ
ၵ
ႂ
ႆ
ႇ
ᜊ
ᜓ
᜔
‎
‏
–
—
―
‘
’
“
”
…
′
↔
↷
−
③
④
⑦
☆
ⴰ
ⴱ
ⵉ
ⵍ
ⵢ
⺀
⺄
⺆
⺈
⺊
⺌
⺕
⺝
⺸
⺼
⿰
⿱
⿲
⿳
⿴
⿵
⿶
⿷
⿸
⿹
⿺
⿻
、
。
「
」
『
』
〢
あ
い
う
え
お
か
き
く
け
こ
さ
し
す
せ
そ
た
ち
っ
つ
て
と
な
に
の
は
ひ
ふ
へ
ほ
ま
み
む
め
も
ゃ
や
ゆ
ょ
よ
ら
り
る
れ
ろ
わ
を
ん
゙
゚
ァ
ア
ィ
イ
ゥ
ウ
ェ
エ
ォ
オ
カ
キ
ク
ケ
コ
サ
シ
ス
セ
ソ
タ
チ
ッ
ツ
テ
ト
ナ
ニ
ヌ
ネ
ノ
ハ
ヒ
フ
ヘ
ホ
マ
ミ
ム
メ
ャ
ヤ
ュ
ユ
ョ
ラ
リ
ル
レ
ロ
ワ
ン
・
ー
㇁
㇂
㇄
㇇
㇈
㇉
㇓
㐁
㐄
㐅
㐌
㐫
㐬
㐭
㐮
㐱
㑒
㒵
㒸
㒼
㓁
㓞
㔾
㕛
㕣
㖾
㘝
㚅
㚇
㚔
㚘
㝉
㝡
㝴
㝵
㞋
㞢
㞷
㠩
㠭
㠯
㡀
㡭
㡿
㢲
㢴
㣇
㣺
㥯
㪅
㫄
㫐
㫒
㫺
㬅
㬎
㬥
㬰
㲋
㳄
㷠
㸒
㸚
㸦
㼌
㼲
㽞
㿟
䀠
䂞
䍃
䏍
䒑
䖍
䖒
䖝
䖵
䙴
䚻
䜌
䝿
䡛
䧹
䪞
一
丁
丂
七
丄
丅
丆
万
丈
三
上
下
丌
不
与
丏
丐
丑
专
且
丕
世
丘
丙
业
东
丞
丢
丣
两
严
並
丨
丩
个
丫
丬
中
丮
丰
丱
串
丵
丶
丷
丸
丹
为
主
丽
丿
乀
乂
乃
久
乆
乇
么
义
之
乌
乍
乎
乏
乐
乑
乔
乖
乗
乘
乙
乚
乛
乜
九
乞
也
习
乡
乳
乾
亀
亅
了
亇
予
争
事
二
亍
于
亏
亐
云
互
亓
五
井
亘
亚
亜
亞
亟
亠
亡
亢
交
亥
亦
产
亨
亩
享
京
亭
亮
亯
亰
亲
亳
亶
亷
人
亻
亼
亾
仁
今
介
仌
从
仐
仑
仒
仓
仕
他
付
仝
代
令
以
仮
仲
任
企
伊
伏
伐
休
会
伝
伯
但
位
体
何
佘
余
作
佥
使
來
侈
侌
侍
侖
侯
侵
便
保
俞
信
修
俺
倉
倍
倒
候
倠
健
偵
備
僉
僕
儒
儿
兀
允
兂
元
兄
充
兆
兇
先
光
兊
克
兌
免
児
兑
兒
兓
兔
党
兜
兟
入
全
兩
兪
八
公
六
兮
兰
共
关
兵
其
具
典
兹
兼
冀
冂
冃
冄
内
冈
冉
冊
冋
册
再
冎
冏
冐
冒
冓
冖
冗
冘
写
军
农
冝
冡
冥
冫
冬
冷
几
凡
凢
凵
凶
凷
凸
凹
出
函
凾
刀
刁
刂
刃
刄
刅
分
切
刈
刍
刑
刕
刖
列
刘
则
初
別
利
别
到
制
刺
則
削
剌
前
剡
剣
剽
劉
力
功
加
劦
助
劫
劳
劵
勃
勇
勉
勒
動
務
勝
勞
勤
勹
勺
勻
勾
勿
匀
匂
包
匆
匈
匊
匋
匍
匕
化
北
匚
匝
匡
匪
匱
匸
匹
区
医
匽
匿
區
十
卂
千
卄
卅
卆
升
午
卉
半
卌
华
卑
卒
卓
单
卖
南
卜
卝
卞
占
卡
卢
卣
卤
卦
卩
卪
卬
卯
印
危
即
却
卵
卷
卸
卻
厂
厃
厄
历
厈
厉
厌
厓
厘
厚
原
厤
厥
厨
厭
厲
厶
厷
厸
去
厼
厽
叀
参
參
叅
又
叉
及
友
双
反
収
叐
发
叒
叔
叕
取
受
叚
叜
叟
口
古
句
另
叩
只
叫
召
可
台
叱
史
右
叵
号
司
叹
吂
各
吅
合
吉
吊
吋
同
名
后
吏
向
吕
君
吝
吞
吠
否
含
启
吳
吴
吹
吾
呂
呆
呈
告
员
呙
周
呼
命
咅
和
咎
咠
咢
咨
咸
咼
哀
品
哉
員
哥
哲
唄
唐
唯
商
啇
問
啚
啬
啻
善
喜
喬
單
喿
嗇
噩
嚴
囊
囗
囘
囙
囚
四
回
囟
因
団
囧
囬
困
囱
囷
固
国
圂
圅
國
圍
圓
土
圡
圣
圥
在
圭
地
圶
圼
坂
坐
坒
坚
坴
垂
垔
垚
埀
埋
城
埶
執
基
堂
堅
堆
堇
堯
場
塚
塞
塹
墨
壕
壘
士
壬
壯
声
壳
壴
壹
壺
壽
夂
处
夅
夆
备
変
夊
夋
夌
复
夏
夒
夕
外
夗
夘
多
夜
夢
大
夨
天
太
夫
夬
夭
央
失
夲
头
夷
夸
夹
夻
夾
奂
奄
奇
奈
奉
奎
奏
奐
契
奓
奔
奚
奞
奠
奢
奥
奭
女
奴
奻
好
如
妄
妙
妟
妥
妹
妻
妾
始
姑
委
姜
威
娄
娘
婁
婴
嬰
嬴
子
孑
孔
孕
孖
字
存
孚
孛
孝
孟
季
孤
学
孫
孱
學
宀
宁
宂
它
宅
宇
守
安
宋
完
宏
宓
宗
官
定
宛
宜
宝
実
客
宣
室
宮
宰
害
家
容
宾
宿
寄
寅
密
富
寒
察
寧
審
寫
寬
寮
寸
对
寺
寻
寽
対
寿
封
尃
射
将
將
專
尉
尊
尋
尌
對
小
少
尒
尓
尔
尖
尗
尚
尞
尢
尣
尤
尧
尨
尭
就
尸
尹
尺
尻
尼
尽
尾
尿
局
居
屈
屋
屎
屏
屑
展
屖
屚
属
屠
屡
屬
屮
屯
屰
山
屵
屾
岁
岂
岑
岡
岩
岳
岸
峯
島
崇
崑
崔
崖
崙
崩
嵐
嵬
嶲
巂
巛
川
州
巟
巠
巢
巤
工
左
巧
巨
巩
巫
差
己
已
巳
巴
巷
巸
巽
巾
巿
帀
市
布
师
希
帚
帛
帝
带
師
席
帰
帶
常
干
平
年
幵
并
幷
幸
幺
幻
幼
幽
幾
广
広
庄
床
底
店
庚
府
度
庫
庭
庶
康
庸
廉
廌
廛
廣
廩
廴
延
廷
建
廾
廿
开
弁
弃
弄
弇
弋
式
弓
弔
引
弗
弘
弜
弟
弥
弦
弱
張
強
强
弾
彊
彌
彎
彐
彑
当
彔
录
彖
彗
彡
形
彥
彦
彧
彭
彳
役
彼
往
待
律
徒
得
徙
從
復
微
徵
心
忄
必
忌
忍
志
応
忝
忠
忩
快
念
忽
忿
怒
思
怠
急
性
怱
恆
恐
恒
恩
恭
息
悉
患
悤
悪
悲
悶
情
惑
惠
惡
惢
愁
愈
意
愛
感
慈
慧
慮
憂
憲
應
懐
戀
戈
戉
戊
戋
戌
戍
戎
成
我
戒
戔
或
戚
戠
戢
戦
截
戲
戶
户
戹
戼
戾
房
所
扁
扇
手
扌
才
打
托
执
承
技
折
拉
拜
拿
捧
掌
探
推
提
揮
援
摩
撃
支
攴
攵
收
攸
改
放
政
敄
敏
救
敕
敖
敗
敝
敞
敢
散
敦
敫
敬
数
敵
敷
數
斂
文
斉
斊
斎
斗
斤
斥
斩
斬
斯
新
方
於
施
斿
旁
旅
旋
族
旗
无
旡
既
旣
日
旦
旧
旨
早
旬
旱
旲
时
旾
昆
昇
昌
昍
明
昏
易
昔
昗
昜
星
春
昬
是
昱
昴
昷
時
晃
晋
晏
普
景
晶
智
暑
暮
暴
曇
曩
曰
曲
曳
更
曷
書
曹
曼
曾
替
最
朁
會
月
有
朋
服
朔
朕
朗
望
朝
木
朩
未
末
本
札
朮
术
朱
朵
朶
朿
杀
杏
杜
束
条
来
東
杲
杳
松
析
林
枚
果
枝
枲
枼
某
柔
查
柬
柰
柴
栄
栗
根
桀
桑
桼
梁
條
梟
梨
棘
棠
棥
森
棺
楚
業
極
楽
榮
樂
樊
橋
欠
次
欣
欮
欲
欶
欽
款
歆
歇
歌
歛
止
正
此
步
武
歨
歪
歮
歯
歰
歲
歴
歷
歸
歹
歺
死
殳
段
殷
殸
殹
殺
殻
殿
毋
毌
母
每
毒
比
毕
毚
毛
毳
氏
氐
民
气
気
氣
水
氵
氶
氷
永
氺
氾
求
汗
汝
汞
江
池
汤
沃
沓
沙
沝
沢
河
治
泉
法
波
泣
泥
泰
洛
洪
洸
活
派
流
浦
浪
浮
浴
海
淡
淮
清
渚
渠
湯
滅
滿
漸
潮
激
火
灬
灭
灯
灰
灵
灷
炅
炎
炏
炗
炙
炭
点
為
烈
烏
烝
焉
無
焦
焱
然
煞
熊
熏
熱
燃
燕
營
燮
爆
爪
爫
爭
爯
爰
爱
爲
爵
父
爻
爽
爾
爿
片
牙
牚
牛
牜
牟
牢
牧
物
牪
牽
犀
犬
犭
犮
狂
狄
狊
独
狺
狼
猋
猒
猛
猪
献
猿
獄
獅
獣
獻
玄
率
玉
王
玟
玨
珉
珎
班
琴
瑟
瑩
瓜
瓦
甘
甚
生
産
用
甫
甬
田
由
甲
申
电
甶
男
甸
甹
画
甾
畀
界
畏
畐
留
畜
畟
畢
畧
畨
番
畫
異
畱
當
畺
畾
疊
疋
疌
疑
疒
疾
癶
癸
癹
発
登
發
白
百
皀
皃
的
皆
皇
皋
皐
皕
皮
皷
皿
盃
盆
盇
盈
益
盍
盎
监
盒
盖
盛
盡
監
盤
盧
目
直
相
盾
省
眇
眉
看
眔
眞
真
眷
眼
眾
着
睘
睪
睿
瞏
瞢
瞬
瞿
矍
矛
矞
矢
矣
知
矦
短
石
破
碎
磊
磨
示
礻
礼
社
祖
神
祟
票
祭
禀
禁
禸
禹
禺
离
禽
禾
禿
秀
秃
秉
秋
科
秝
秦
移
稟
稲
穀
穂
穌
穴
究
穹
空
穿
突
窄
窒
立
竒
竜
竝
竟
章
童
竹
笑
笠
第
筆
等
答
箕
算
箴
節
篤
篭
米
粉
粛
粟
粤
粦
粲
糞
糸
糹
系
約
納
紙
級
素
索
紫
累
細
結
絜
絫
絲
継
維
綿
線
縣
繇
纍
纟
缶
网
罒
罔
罕
罗
罙
罡
罢
罪
署
罷
羅
羊
羌
羍
美
羔
羕
羗
羞
羡
羣
群
義
羲
羸
羽
翁
翏
習
翕
翟
翠
翼
老
耂
考
者
耆
而
耎
耑
耒
耳
耴
耶
耷
聂
聊
聖
聚
聶
聿
肀
肃
肅
肉
肖
肙
肥
肩
肯
育
肴
胃
背
胡
胥
能
脊
脩
膚
臣
臤
臧
臨
自
臬
臭
臯
臱
至
致
臺
臼
臽
臾
臿
舀
舂
舄
與
興
舉
舌
舍
舛
舜
舞
舟
般
船
艮
良
色
艸
艹
艾
芒
芔
芬
芮
花
芳
芸
芺
芻
苔
苗
苟
若
苦
英
茂
茶
茸
荅
草
荒
荣
荼
莆
莧
莫
莽
菅
菆
菊
菐
華
菲
萬
落
葉
著
葛
董
葵
蒙
蒦
蒼
蓋
蓬
蓺
蔑
蔡
蕉
蕭
薄
薛
薦
薰
藍
藏
藤
藥
蘭
虍
虎
虐
虒
虔
處
虖
虗
虘
虚
虛
虜
虞
號
虫
虽
蚤
蚩
蛮
蜀
蜜
蟲
蠡
血
行
衍
術
衛
衣
衤
表
衮
衰
袁
袞
褭
褱
襄
襾
西
覀
要
覃
見
規
覓
覧
親
覽
见
角
解
言
訁
訇
計
記
詩
詹
誓
語
誩
説
誰
諸
讃
讠
谷
豆
豈
豊
豐
豕
豖
豙
象
豦
豩
豪
豸
豹
貇
貝
貞
貟
負
貢
貧
貪
貫
責
貳
貴
買
費
賁
資
賈
賏
賓
賔
賛
賞
賢
賣
質
賴
贊
贝
贡
责
贯
贲
贵
赖
赞
赤
赦
走
超
越
足
跡
路
蹇
身
躬
車
軍
軎
軟
転
輝
輦
车
辛
辜
辟
辥
辰
辱
農
辵
辶
边
辺
达
过
近
连
迷
追
退
送
逆
逐
通
速
造
逢
連
逮
進
遀
遂
運
過
道
達
遠
遣
適
遷
遺
邊
邑
邕
那
邦
邪
郎
部
郭
都
鄉
酉
酋
配
酓
釆
采
里
重
野
量
金
釒
鉄
銀
鋼
錢
録
鐘
钅
長
镸
长
門
閃
閉
開
閏
閑
閒
間
閔
閵
閻
闌
门
间
闷
阑
阜
阝
阿
降
陳
険
陽
隆
隊
隋
隡
隣
隨
隱
隶
隹
隺
隻
隼
隽
难
雀
雁
雄
集
雈
雋
雍
雐
雔
雙
雚
雜
雝
離
難
雨
雩
雪
雲
零
雷
電
需
霍
霜
霝
霞
霸
靈
靑
青
非
靡
面
靣
革
韋
韓
韦
韭
韯
韱
音
響
頁
頃
項
須
頗
頡
頭
頻
題
顕
顛
页
風
风
飛
飞
食
飠
飾
養
饣
首
香
馬
馮
駦
马
骨
高
髟
鬥
鬯
鬲
鬼
魂
魔
魚
魯
鮮
鱼
鲁
鳥
鳳
鷲
鷹
鸟
鹵
鹿
麃
麗
麥
麦
麻
黃
黄
黍
黎
黑
黒
黨
黹
黽
黾
鼎
鼓
鼠
鼻
齊
齋
齐
齒
齿
龍
龙
龜
龟
龠
龰
龱
龴
龵
龶
龷
龸
龹
者
艹
（
）
：
？
～
･
𠀁
𠀃
𠀆
𠀉
𠀎
𠀐
𠁁
𠁣
𠂆
𠂇
𠂈
𠂉
𠂊
𠂋
𠂎
𠂒
𠂔
𠂛
𠂡
𠂢
𠂤
𠂬
𠂭
𠂹
𠃊
𠃋
𠃌
𠃍
𠃎
𠃑
𠃓
𠃔
𠃜
𠄌
𠄎
𠄠
𠄢
𠆢
𠆥
𠇍
𠈌
𠌵
𠓜
𠔉
𠔥
𠔼
𠔽
𠔿
𠕀
𠕁
𠕋
𠘧
𠘨
𠙻
𠙼
𠚏
𠚒
𠚤
𠚪
𠣏
𠤎
𠤕
𠥓
𠦄
𠦑
𠦝
𠧒
𠧗
𠧪
𠩺
𠪚
𠫓
𠫔
𠫤
𠬛
𠬝
𠬞
𠬢
𠬤
𠬶
𠮛
𠮦
𠮷
𠯑
𠱠
𠳮
𠷎
𡈼
𡉀
𡉵
𡌥
𡍮
𡏳
𡕒
𡕩
𡕰
𡖅
𡗗
𡗜
𡘆
𡘤
𡧱
𡨄
𡩧
𡬠
𡭽
𡰣
𡰥
𡰪
𡰯
𡰱
𡷈
𡸁
𡿨
𡿩
𡿪
𡿺
𢀖
𢀛
𢀩
𢁙
𢆉
𢆰
𢆶
𢇁
𢇇
𢉖
𢌬
𢌿
𢏚
𢑑
𢑚
𢖻
𢙣
𢛳
𢦏
𢦒
𢧵
𢼄
𢾕
𣁋
𣄼
𣅀
𣅽
𣍘
𣎳
𣎵
𣏋
𣏼
𣗥
𣥂
𣥖
𣦵
𣦼
𣧄
𣪊
𣪠
𣬉
𣳾
𣶒
𤇾
𤊽
𤐫
𤓰
𤔔
𤕨
𤣩
𤰇
𤰔
𤰞
𤴓
𤴔
𤽄
𥁑
𥁕
𥃦
𥃩
𥃭
𥇡
𥑟
𥘅
𥘈
𥝢
𥫗
𥱡
𦈢
𦉪
𦉬
𦉼
𦍌
𦍒
𦎧
𦐇
𦓔
𦔮
𦘒
𦙃
𦚏
𦣝
𦣞
𦣻
𦥑
𦥔
𦥯
𦨉
𦭝
𦰩
𧆞
𧈧
𧘇
𧰨
𧴪
𧴮
𧵩
𧾷
𨸏
𨾴
𩙿
𩠐
𩫏
𩵋
𪉷
𪜀
𪟽
𪠲
𪩲
𫇦
𫔭
𫜸
𫝀
𫠣
𫠩
𫢉
𫥞
𫩏
𫩠
𫪡
𫲽
𫶧
𬀷
𬐘
𬗌
𬙙
𬛸
𬜯
𬟩
𬯁
𬴘
𬺻
𬼉
𬼖
𭀰
𭁈
𭁨
𭅰
𭑈
𭕄
𭗼
𭤨
𭥫
𭻾
𮅕
𮊿
𮍌
𮍏
𮓗
𮥼
𮧮
廾
𰀁
𰀄
𰀈
𰀉
𰀕
𰀠
𰀡
𰀢
𰀪
𰁜
𰃮
𰆊
𰆘
𰋙
𰕎
𰢴
𰧭
𰯲
0--
11--
12--
15--
16--
17--
18--
19--
5--
6--
7--
8--
9--
a--
aam--
ab--
abal--
abi--
abo--
abol--
abre--
abu--
ac--
aca--
acc--
accor--
accu--
ad--
af--
ag--
aga--
age--
agma--
agna--
agon--
agr--
agri--
agu--
ah--
ai--
aj--
ak--
aka--
akan--
akapan--
aki--
ako--
aktib--
aku--
al--
ala--
ali--
alin--
alo--
alom--
alu--
am--
ama--
an--
ana--
andi--
anem--
ang--
ani--
any--
ap--
apa--
api--
apo--
apol--
app--
approx--
apr--
apu--
aqu--
aqui--
ar--
ara--
ari--
arr--
aru--
as--
asa--
asi--
at--
ati--
atmosp--
ato--
attr--
atum--
au--
austr--
ave--
avi--
aw--
ay--
ayu--
az--
b--
ba--
bac--
bag--
bak--
bal--
bala--
bale--
bam--
ban--
bar--
bas--
bat--
bau--
be--
beg--
bel--
ben--
ber--
bi--
bid--
bil--
bin--
bini--
bir--
bis--
bit--
bitu--
bl--
bo--
bok--
bol--
bom--
bon--
bong--
bor--
bot--
br--
bra--
bre--
bron--
bru--
bu--
bubb--
buc--
buen--
bugu--
buh--
buk--
bul--
bull--
bun--
buru--
c--
ca--
cab--
cala--
cam--
camp--
can--
car--
cas--
cat--
cau--
ce--
cen--
cha--
char--
chava--
che--
chi--
cho--
ci--
cl--
cla--
cle--
co--
colum--
com--
con--
cor--
cr--
cre--
cri--
cris--
cru--
cu--
cur--
curr--
cy--
d--
da--
dag--
dal--
dan--
day--
de--
dec--
demet--
den--
dep--
des--
di--
diff--
dik--
dil--
din--
dinma--
dis--
disp--
diu--
do--
dok--
dom--
doy--
dr--
dri--
dro--
du--
duk--
dw--
dz--
e--
ed--
eg--
eit--
el--
ele--
elec--
elon--
em--
emb--
en--
end--
entr--
environ--
ep--
er--
es--
esp--
et--
ex--
exp--
ez--
f--
fa--
fat--
fe--
fer--
fi--
fl--
flav--
flo--
fo--
for--
fr--
fra--
frequ--
fu--
fur--
g--
ga--
gal--
gam--
gao--
ge--
get--
gi--
gin--
git--
gla--
go--
gor--
gra--
grand--
gre--
gri--
gros--
gu--
h--
ha--
han--
hand--
har--
has--
he--
head--
her--
hi--
him--
his--
ho--
hol--
home--
hor--
hrvats--
hu--
hus--
i--
iba--
id--
ide--
ig--
ii--
ika--
ila--
ilin--
im--
ima--
imba--
impa--
impan--
impang--
impi--
in--
ina--
incom--
indi--
ine--
inf--
ing--
ingl--
ini--
inka--
inki--
inma--
inmi--
ino--
inpa--
inpan--
instru--
inter--
intu--
inu--
ipa--
ipapa--
ipin--
ir--
ire--
is--
isa--
isi--
isu--
it--
iv--
iya--
j--
ja--
jan--
jar--
je--
jeh--
jer--
jes--
jesus--
ji--
jin--
jis--
jo--
joc--
jon--
ju--
judi--
juli--
k--
ka--
kab--
kabi--
kabk--
kabuk--
kad--
kag--
kaga--
kaka--
kal--
kala--
kali--
kalik--
kam--
kan--
kanl--
kao--
kaol--
kap--
kar--
kara--
karaga--
karu--
kas--
kasak--
kat--
ke--
kel--
ki--
kilo--
kin--
kina--
kir--
kit--
kla--
ko--
kom--
kon--
kot--
kou--
ku--
kum--
kuma--
kumad--
kump--
kun--
kur--
kut--
ky--
l--
la--
lak--
lam--
lan--
land--
lands--
lap--
le--
leg--
let--
li--
lib--
lii--
lik--
lil--
lim--
lin--
ling--
ll--
lo--
lu--
lug--
m--
ma--
mab--
mac--
mag--
mai--
maj--
mak--
maka--
makaka--
makal--
makap--
makapam--
mal--
mala--
malin--
mam--
mama--
mambu--
man--
mana--
manag--
mang--
manga--
mangi--
manla--
mano--
manpa--
manpapa--
mansa--
manta--
manti--
map--
mapa--
mar--
mas--
mat--
mata--
may--
mcc--
me--
med--
mediter--
mer--
mes--
mi--
mid--
mil--
mill--
min--
mo--
mog--
mol--
mon--
mu--
muk--
mus--
my--
n--
na--
nab--
naba--
nag--
nagsi--
nai--
naira--
nak--
naka--
nal--
nala--
nam--
nan--
nana--
nando--
nang--
nanla--
nanpa--
nao--
nap--
napa--
napepe--
nar--
nare--
naro--
nas--
nase--
nasi--
nata--
natu--
nau--
naz--
ne--
new--
ng--
nga--
ni--
nin--
nipa--
no--
not--
nu--
o--
ob--
obser--
occ--
ok--
ol--
om--
ombo--
ome--
on--
ona--
ondad--
onde--
oni--
onka--
onke--
onl--
onto--
oo--
oposisi--
opp--
or--
ori--
os--
ot--
out--
over--
p--
pa--
pac--
pag--
paga--
pagka--
pak--
paka--
pakal--
pakap--
pal--
pam--
pama--
pampubli--
pamu--
pan--
pana--
panag--
panang--
panda--
pang--
pangga--
pangipa--
par--
parli--
pas--
pat--
patri--
pay--
pe--
pep--
per--
perse--
pes--
pet--
ph--
photog--
pi--
pick--
pin--
pina--
pinagka--
pinaka--
pinan--
pinma--
pit--
pl--
pla--
plea--
plu--
po--
pob--
pol--
poly--
por--
pou--
pozor--
pr--
prank--
pre--
pri--
princ--
pro--
pru--
pu--
pud--
pul--
pun--
pur--
pus--
q--
qu--
r--
ra--
re--
rec--
ref--
reg--
reli--
rep--
rest--
rhy--
ri--
ridd--
rilihi--
rit--
ro--
ros--
ru--
run--
s--
sa--
sab--
sag--
sak--
sal--
salam--
sam--
san--
sang--
sangka--
sanka--
sansan--
sar--
sau--
se--
sea--
sek--
sel--
ser--
serb--
ses--
settle--
sh--
sha--
shi--
sho--
si--
sib--
sibu--
sig--
sigu--
sik--
sil--
sim--
sin--
sip--
sit--
sky--
sl--
sm--
smi--
so--
soci--
sol--
somb--
some--
sou--
sp--
spe--
specta--
spi--
st--
ste--
stu--
sty--
su--
sub--
sul--
sum--
sumas--
sumu--
sun--
sup--
sur--
swe--
sy--
t--
ta--
tab--
tabu--
tag--
tagu--
tal--
tala--
taludt--
tam--
tao--
tap--
tar--
tat--
te--
tele--
tem--
ter--
tet--
th--
ti--
tig--
tik--
tim--
tin--
ting--
to--
tok--
tom--
ton--
tot--
tr--
trai--
tran--
trans--
tre--
tri--
tro--
tsi--
tu--
tug--
tul--
tum--
turt--
tw--
u--
ug--
uk--
ul--
ult--
um--
uma--
umi--
umu--
un--
una--
unc--
ung--
uni--
unsa--
unu--
up--
ur--
usu--
v--
va--
ve--
ver--
vi--
vin--
vir--
vo--
w--
wa--
wad--
wal--
wat--
we--
wi--
wiki--
win--
wo--
wor--
wou--
wu--
x--
y--
ya--
ye--
yo--
z--
za--
zar--
ze--
zen--
--0
--00
--03
--1
--2
--3
--30
--4
--5
--55
--57
--6
--62
--66
--68
--69
--7
--71
--74
--75
--8
--85
--9
--95
--a
--aan
--aay
--ab
--able
--ac
--ach
--ache
--ack
--ad
--ado
--aen
--ag
--ah
--ahan
--ai
--ak
--akey
--aki
--al
--alo
--am
--an
--anan
--ang
--ano
--ant
--ao
--aoa
--aoan
--ap
--ar
--ara
--aran
--ari
--ario
--aro
--ary
--as
--asi
--at
--ata
--atag
--atan
--ate
--ates
--atey
--ation
--ations
--ative
--ato
--ature
--au
--aw
--awan
--ay
--az
--b
--ba
--bag
--bak
--bal
--ban
--bas
--bat
--batan
--bay
--bbu
--be
--beba
--bet
--bi
--bia
--biao
--bic
--bir
--ble
--bli
--blik
--bo
--bok
--bot
--bre
--bs
--bt
--bu
--buo
--c
--ca
--cal
--cao
--car
--ce
--ces
--ch
--cio
--cion
--ck
--co
--cot
--cs
--ct
--cted
--d
--da
--dachi
--dad
--dak
--dan
--das
--day
--de
--ded
--dem
--den
--der
--dez
--di
--dia
--dium
--dly
--do
--dor
--doro
--dos
--ds
--dy
--e
--ean
--eb
--ebra
--ect
--ed
--eda
--ee
--een
--ef
--eg
--ei
--ek
--el
--em
--en
--eng
--ensia
--ent
--eo
--ep
--er
--era
--eral
--ered
--ero
--ers
--ery
--es
--ess
--est
--et
--ew
--ey
--ez
--f
--fer
--ff
--fo
--ful
--g
--ga
--gan
--gao
--gar
--gas
--gat
--gawa
--gay
--gco
--ge
--gel
--gen
--gep
--ger
--ges
--gey
--gh
--ght
--gi
--gist
--git
--gka
--gle
--gn
--gneng
--go
--gon
--goy
--gput
--gs
--gtel
--gu
--gua
--gy
--h
--ha
--hahanap
--han
--he
--hed
--hi
--hin
--ho
--hol
--hua
--hy
--i
--ia
--ial
--ian
--ias
--ib
--ible
--ic
--ica
--ical
--ick
--id
--idad
--ie
--ied
--ien
--iente
--ies
--iest
--ig
--iger
--ik
--iko
--il
--ila
--ile
--ili
--illa
--illo
--im
--in
--ine
--ing
--ingan
--ingaran
--ino
--inom
--ins
--io
--ion
--ions
--ip
--iple
--iqui
--ir
--iro
--is
--ish
--ist
--ista
--it
--ita
--ity
--ive
--iwang
--iya
--ized
--j
--ja
--jay
--ji
--jo
--jou
--juu
--k
--ka
--kai
--kal
--kan
--kar
--kat
--kda
--kdul
--ke
--kep
--kes
--key
--ki
--kit
--kling
--knab
--ko
--kop
--ks
--kseb
--ku
--kul
--ky
--kyab
--l
--la
--laan
--lad
--lag
--lak
--lan
--land
--lar
--lat
--lay
--ld
--ldo
--le
--lek
--lem
--len
--leng
--lep
--les
--less
--ley
--li
--lia
--lian
--lid
--lidad
--lien
--lig
--lik
--likna
--lin
--ling
--lingkur
--lio
--lip
--lis
--lit
--lity
--liw
--lk
--ll
--lla
--lle
--llo
--lly
--lna
--lo
--loan
--lok
--lon
--loy
--ls
--lus
--luto
--ly
--m
--ma
--maliw
--man
--manan
--maru
--mb
--mba
--mbal
--me
--ment
--mi
--mis
--mit
--mo
--mor
--mp
--mplo
--mplon
--ms
--munication
--n
--na
--naan
--nak
--nal
--nan
--nap
--nay
--nce
--ncio
--nd
--ndo
--ndod
--ne
--ned
--neg
--nes
--ness
--ney
--ng
--ngan
--ngat
--ngel
--ngil
--ni
--nie
--niko
--no
--ns
--nsial
--nt
--nte
--nto
--num
--ny
--o
--oa
--oan
--ob
--oc
--od
--oe
--oen
--og
--ok
--okulan
--ol
--oles
--om
--oman
--on
--ona
--onda
--ong
--ongan
--ons
--op
--or
--os
--osan
--ot
--ote
--ou
--ous
--ow
--oy
--p
--pa
--pak
--pal
--palan
--palsa
--parok
--pas
--pat
--pe
--pedia
--pel
--pet
--phy
--pi
--pit
--platz
--po
--pos
--ps
--pt
--pu
--pulong
--pur
--que
--qui
--r
--ra
--raan
--ral
--ran
--rao
--rce
--rch
--re
--rea
--rel
--ren
--res
--ri
--ria
--ries
--rio
--ris
--rit
--riyo
--rja
--rk
--rm
--rma
--rn
--rno
--ro
--rok
--rom
--ros
--rp
--rra
--rrow
--rry
--rs
--rsk
--rt
--rto
--ru
--rua
--rum
--rva
--ry
--rya
--s
--sa
--sab
--sag
--sai
--sak
--sal
--san
--se
--sed
--ses
--sh
--ship
--si
--sia
--sian
--sibsibek
--sig
--sio
--sion
--sive
--sk
--so
--sod
--sol
--son
--sot
--sou
--ss
--ssed
--st
--ster
--stia
--style
--su
--sy
--sya
--syo
--syon
--t
--ta
--tag
--tak
--tal
--tam
--tan
--tanir
--tar
--tas
--tch
--te
--tect
--ted
--tel
--tely
--ten
--ter
--terter
--tes
--tey
--th
--tha
--ti
--tial
--tic
--tics
--ties
--tik
--ting
--tion
--tions
--tit
--tive
--tle
--to
--tok
--tol
--ton
--tong
--tot
--ts
--tsu
--tta
--tty
--tug
--tura
--ture
--tures
--ty
--u
--ua
--ual
--uan
--uay
--ud
--ue
--uen
--ui
--uji
--ul
--uld
--um
--uma
--un
--una
--unot
--up
--ur
--ura
--ure
--us
--ut
--ux
--uy
--v
--va
--ve
--ved
--ving
--vo
--w
--wa
--wag
--wak
--wal
--wan
--ware
--was
--wat
--way
--wen
--wi
--wid
--wil
--wit
--x
--y
--ya
--yag
--yan
--yar
--yembre
--yeng
--yep
--yew
--yn
--yo
--yon
--ysay
--z
--za
--ze
--zen
--zo
