!
"
#
##0
##1
##10
##11
##12
##13
##14
##15
##16
##17
##18
##19
##2
##20
##21
##22
##23
##24
##25
##26
##27
##28
##29
##3
##30
##31
##32
##33
##34
##35
##36
##37
##38
##39
##4
##40
##41
##42
##43
##44
##45
##46
##47
##48
##49
##5
##50
##51
##52
##53
##54
##55
##56
##57
##58
##59
##6
##60
##61
##62
##63
##64
##65
##66
##67
##68
##69
##7
##70
##71
##72
##73
##74
##75
##76
##77
##78
##79
##8
##80
##81
##82
##83
##84
##85
##86
##87
##88
##89
##9
##90
##91
##92
##93
##94
##95
##96
##97
##98
##99
$
%
&
'
(
)
*
+
,
-
.
/
0
00
000
001
002
0031
00640
01
02
026
027177
03
04
04007940
05
06
061
064
065
068
069
07
071
079
08
087
09
1
10
100
1000
1008
101
1010
1012
1014
102
1020
103
1030
104
1040
105
1050
106
1060
107
1070
108
1080
109
1090
1096
1099
11
110
1100
111
1110
112
1120
113
1130
1135
114
1140
1147
1148
115
1150
116
1160
117
1170
118
1180
1187
119
1190
1194
12
120
1200
121
1210
122
1220
1226
123
124
1240
125
1250
126
1260
1265
127
1270
1275
1278
128
1280
1289
129
1290
1294
13
130
1300
131
1310
132
1320
1325
133
1330
134
1340
135
1350
136
1360
137
1370
138
1380
139
1390
14
140
1400
141
1410
1413
142
1420
143
1430
1437
144
1440
1441
145
1450
146
1460
1461
1465
1468
147
1470
148
1480
1482
149
1492
15
150
1500
151
1510
152
1520
153
1530
1532
154
1540
1541
155
1550
1554
1556
156
1560
157
1570
158
1580
159
1590
16
160
1600
161
1610
1612
1618
1619
162
1620
1622
163
1630
1632
1635
1636
1637
164
1640
1641
1642
1645
1648
1649
165
1650
1651
1652
1653
1654
1655
1656
1657
1658
1659
166
1660
1661
1662
1664
1665
1666
1667
1668
1669
167
1670
1671
1672
1673
1674
1675
1676
1677
1678
1679
168
1680
1681
1682
1683
1684
1685
1686
1687
1688
1689
169
1690
1691
1692
1695
1697
1698
1699
17
170
1700
1701
1702
1703
1704
1705
1706
1707
1708
1709
171
1710
1711
1712
1713
1714
1715
1716
1717
1718
1719
172
1720
1721
1722
1723
1724
1725
1726
1727
1728
1729
173
1730
1731
1732
1733
1734
1735
1736
1737
1738
1739
174
1740
1741
1742
1743
1744
1745
1746
1747
1748
1749
175
1750
1751
1752
1753
1754
1755
1756
1757
1758
1759
176
1760
1761
1762
1763
1764
1765
1766
1767
1768
1769
177
1770
1771
1772
1773
1774
1775
1776
1777
1778
1779
178
1780
1781
1782
1783
1784
1785
1786
1787
1788
1789
179
1790
1791
1792
1793
1794
1795
1796
1797
1798
1799
18
180
1800
1801
1802
1803
1804
1805
1806
1809
181
1810
1812
1813
1814
1815
1816
1817
1818
1819
182
1820
1821
1822
1823
1824
1825
1826
1827
1829
183
1830
1831
1832
1833
1834
1835
1836
1837
1838
1839
1840
1841
1842
1843
1844
1845
1846
1847
1848
1849
185
1850
1851
1852
1853
1854
1855
1856
1857
1858
1859
186
1860
1861
1862
1863
1864
1865
1866
1867
1868
1869
187
1870
1871
1872
1873
1874
1875
1876
1877
1878
1879
188
1880
1881
1882
1883
1884
1885
1886
1887
1888
1889
189
1890
1891
1892
1893
1894
1895
1896
1897
1898
1899
19
190
1900
1901
1902
1903
1904
1905
1906
1907
1908
1909
191
1910
1911
1912
1913
1914
1915
1916
1917
1918
1919
192
1920
1921
1922
1923
1924
1925
1926
1927
1928
1929
193
1930
1931
1932
1933
1934
1935
1936
1937
1938
1939
194
1940
1941
1942
1943
1944
1945
1946
1947
1948
1949
195
1950
1951
1952
1953
1954
1955
1956
1957
1958
1959
196
1960
1961
1962
1963
1964
1965
1966
1967
1968
1969
197
1970
1971
1972
1973
1974
1975
1976
1977
1978
1979
198
1980
1981
1982
1983
1984
1985
1986
1987
1988
1989
199
1990
1991
1992
1993
1994
1995
1996
1997
1998
1999
2
20
200
2000
2001
2002
2003
2004
2005
2006
2007
2008
2009
201
2010
2011
2012
2013
2014
2015
2016
2017
2018
2019
20190828194322
202
2020
2021
2022
2024
203
204
205
206
207
208
209
21
210
211
212
213
214
215
216
217
218
219
22
220
221
222
223
224
225
226
227
228
229
23
230
231
232
233
234
235
236
237
238
239
24
240
241
242
243
244
245
246
247
248
249
25
250
2500
251
252
253
254
255
256
257
258
259
26
260
261
262
263
264
265
266
267
268
269
27
270
271
272
273
274
275
276
277
278
279
28
280
282
283
284
285
286
287
288
289
29
290
292
293
294
295
296
297
298
299
3
30
300
3000
301
302
303
304
305
306
307
308
309
31
310
311
312
314
315
316
317
318
32
320
321
322
323
324
325
326
327
328
329
33
330
331
332
333
334
335
336
337
338
339
34
340
341
342
343
344
345
346
347
348
349
35
350
351
352
353
354
355
356
357
358
359
36
360
361
362
363
364
365
366
37
370
372
373
374
38
380
383
384
385
39
390
391
393
397
399
4
40
400
4000
403
405
409
41
410
411
412
415
42
420
422
424
426
427
4280
43
430
432
437
44
440
4400
441
45
450
451
456
457
46
460
466
47
470
473
475
476
48
480
489
49
490
5
50
500
5000
503
505
5060
51
510
515
516003
5190
52
520
53
5300
5310
54
540
544
547
55
550
5550
5555
556
5575
5580
56
560
5600
5650
5670
57
570
58
580
581
583
585
586
59
590
6
60
600
6000
61
610
62
620
6230
6250
626
6280
63
6304
639
64
640
65
650
6500
6560
66
668
669
67
670
675
68
680
6800
684
686
69
698
7
70
700
7098
71
710
7100
7110
7114
7120
72
73
730
74
746
747
748
75
750
76
77
770
78
79
790
8
80
800
8011
803
81
810
82
820
83
830
838
84
840
843
85
850
857
86
860
862
868
87
870
87351
87386
88
880
881
885
89
890
893
897
9
90
900
91
910
911
912
917453
92
920
93
930
930364
930505
94
940
95
950
96
960
966
969
97
970
973
978
98
980
982
987
99
990
9954
996
9981
:
;
<
=
>
?
@
\
^
_
`
a
aa
aalst
aan
aarne
aavik
ab
aba
abagance
abagants
abague
abaguer
abaiti
aband
abandne
abandone
abat
abataedje
abate
abatou
abatous
abatwer
abaxhi
abayeye
abbas
abbaye
abbe
abc
abce
abdelaziz
abdellah
abdjade
abe
abel
aberteke
aberweta
aberweter
abeye
abeyes
abi
abitude
abitudes
abiyi
abo
abocte
aboere
aboeres
aboird
aboirde
abomina
abondroet
abondroets
abord
abou
aboune
abounmint
abra
abraham
abram
abri
abribance
abrocaedje
abroke
abroker
abronemo
abtinince
abuvroe
abwe
abwesson
abwessons
ac
acacia
acade
academeye
acate
acawe
acawer
acce
accepta
acceptance
accepte
accepter
accidint
accidints
accint
accints
accion
accions
acdine
ace
acer
acertinant
acertine
acertiner
ach
ache
acheter
acheve
achever
achi
achid
achide
achille
achoufe
achoura
achurna
aci
acide
acinsion
acinte
acke
aclape
aclaper
acle
acleva
aclevaedje
aclevaedjes
acleve
aclever
acleveu
acleveus
aclot
aclote
aclots
acmaxhaedje
aco
acoird
acoirdaedje
acoirde
acoirds
aconitum
acontant
aconte
aconter
acoplaedje
acople
acordeyon
acori
acou
acove
acover
acpagnte
acroere
acrostitche
acrotchi
acse
acsegne
acsegni
acsegnmint
acsegnmints
acseignmint
acsidint
acsu
acsure
act
acte
acteur
acteurs
actif
actinomico
action
activite
actoresse
actouwalite
actresse
actualite
actualites
acvierne
acwa
acwe
ad
ada
adam
adamo
adan
adapte
adde
addjectif
addjectifs
addle
ade
adele
adelin
adeurixhmint
adie
adierc
adierci
adire
adj
adja
adje
adjermelaedje
adjermele
adjeyant
adjeyante
adjeyants
adji
adjinc
adjince
adjint
adjints
adjixh
adjoke
adjond
adjondrece
adle
adlez
admete
administra
administratif
administratifs
administrative
administre
admira
admirer
adn
ado
adofe
adolf
adolphe
adon
adonis
adonpwis
adopcion
adopte
adora
ados
adou
adrame
adre
adresse
adrien
adriyin
adroet
adrovaedje
adrovaedjes
adrovi
adrovire
adrovires
adschind
adu
adule
aduza
aduze
aduzer
aduzoe
adv
adve
advene
adviebe
adviebes
advierbire
adviertance
advine
adviner
advintaedje
advintaedjes
advitam
advoca
ae
aedje
aedjes
aelst
aert
aessi
afai
afaire
afaiti
afants
afe
afes
afeye
affaire
affaires
affe
afganistan
afi
afin
afitcha
afitche
afitches
afiyaedje
afiyi
aflaxhi
africanse
afrike
afrikin
afrikins
afrique
afronte
afronteus
afrontnut
afroyi
after
afwaire
afwaires
afwe
ag
aga
agadir
agaesse
agaesses
agaricus
agayon
agayons
age
agne
agnea
agneas
agnesse
agni
agnon
agnons
agoliner
agrandi
agre
agricole
agricou
agriculteure
agritche
agritcheye
agritchi
agritchte
ah
aha
ahan
ahe
ahessa
ahessant
ahesse
ahesses
ahessi
ahike
ahiket
ahikets
ahin
ahivaedje
ahive
ahiver
ahiveus
ahmed
ahote
ai
aida
aidance
aidant
aidants
aide
aidi
aigue
aili
aimad
aime
aimez
aimon
ainme
ainsi
air
airance
airdie
aire
aires
aireur
aireurs
airs
airtchi
ais
aise
aisse
aisses
aistre
ait
aite
aites
aiwe
aiwes
aiwiasse
aix
aiye
aiyes
ake
akes
al
ala
alaedje
alaedjes
alain
alambra
alans
alant
alaxhe
alba
albane
albaneye
albatros
albert
albin
albom
alboms
album
alcide
alcol
alcoran
aldjereye
aldjeryin
aldjeryins
ale
alecse
alegzandreye
aler
ales
aleu
aleut
alex
alexander
alexandre
alexis
alez
alf
alfabet
alfabetike
alfabets
alfe
alfons
alfred
alfrede
algues
ali
alicante
alice
alieu
alif
alimints
alin
aline
alinne
alint
alintou
alix
all
alla
allans
allant
alle
allende
aller
allez
alli
alliance
allium
allons
alma
almagne
almand
almande
almandes
almands
almaxhe
almeria
alo
aloma
alors
alot
alou
alouchta
aloume
aloumire
aloupca
alouwaedje
alouwe
alouwer
alowe
alowine
aloyance
aloye
aloyeye
aloyeyes
aloyi
aloyrece
aloyreces
aloz
alpes
alphonse
alpin
alt
altene
alu
alume
aluminiom
alw
alwac
alwe
alzace
alzacyin
am
ama
amadeus
amadou
amagni
amand
amanda
amande
amandes
amanita
amanite
amanites
amateu
amateur
amazigh
amazir
amazirs
ambassade
ambassadeur
ambassadeurs
ambedeus
ambi
amble
ambleve
ambli
ame
amedaedje
amede
amel
amer
america
american
amerike
amerikin
amerikinne
amerikinnes
amerikins
amete
ametou
ametous
ameur
ami
amidre
amidrer
amin
amindji
amine
amira
amis
amisse
amisses
amista
amiste
amoenna
amoenne
amoenner
amon
amonite
amont
amonta
amonte
amonter
amor
amou
amougni
amour
amoureus
amours
amoussi
ampoule
amrene
amsterdam
amu
amundsen
amuzer
amuzmint
amuzmints
amwinri
amz
an
ana
anagrame
anatole
anca
ance
anciaux
ancien
anciens
ancyin
ancyinmint
ancyinne
ancyinnes
ancyinnmint
ancyins
and
andalouzeye
ande
andene
andenne
anderlek
anderlues
anderluwe
anders
andersen
andje
andjes
ando
andou
andre
andri
andrien
andrimont
andwe
ane
anea
aneas
anecse
anemone
aneye
aneyes
anfin
ange
angeles
anges
angle
angleur
angola
angoxhe
angustifolium
anhe
ani
animation
animaux
anime
aniviersaire
anixhile
anle
anloe
anna
anne
annie
annouwaire
annua
annvoye
ano
anonc
anonce
anonces
anonci
anonimmint
anouchca
anoyeu
anoyeus
anret
ans
anse
anselme
ansene
anser
anses
ansini
ansreme
ant
antartike
ante
antene
antenes
anthologie
anti
antibiyo
antibiyotike
antibiyotikes
anticoirs
antidjinnes
antigone
antikite
anto
antoenne
antoine
antolodjeye
antolodjeyes
antomeye
anton
antonio
antroponimeye
ants
antti
antwerpen
anusse
anuti
anve
anvegn
anvers
anverse
anviesse
anweye
anweyes
anxhe
aou
aoureux
aousse
ap
apa
apare
aparexhaedje
aparexhe
aparexhou
aparey
apareys
aparintaedje
aparinte
aparte
apas
ape
apel
apeles
aperc
api
apic
apice
apici
apinse
apis
aplacaedje
aplacaedjes
aplake
aplaker
aple
aplica
aplike
apliker
aplou
aploure
apo
apocalipe
apoirte
apoirter
apoisse
apoisses
apoite
apollinaire
apollos
aponti
apontyi
aporc
apostrofe
apoteke
apotica
apougni
appelez
appelle
apple
appre
aprandjire
apre
aprepeye
aprepiaedje
aprepyi
apres
aprestaedje
apreste
aprester
aprind
aprinda
aprindaedje
aprinde
aprindi
aprindisse
aprins
apris
apriyesse
apriyeste
aprume
apte
apus
apwa
ar
ara
arabe
arabes
arabeye
arad
araedje
araedjeye
araedji
araegne
araegnes
aragon
aragone
arameyin
arantoele
arbu
arche
architecture
archive
archives
arco
arcq
ardant
arde
ardene
ardennaise
ardenne
ardennes
are
arel
ares
aresse
aresta
areste
arester
areu
areyoplane
areyoplanes
areyopo
argane
argani
argayon
argent
arges
ari
arie
arile
arille
arime
arimea
arimeas
arin
arincrin
arindje
arindji
arindjmint
arindjmints
arinne
arinner
arinnoe
arinnoes
aristote
ariva
arivant
arive
ariver
ariveut
arivi
arivnut
arivre
arivreut
ariz
arkeyolodjeye
arlon
armand
arme
armes
armillaria
armwereyes
arna
arnaud
arnica
arno
arnold
aro
aroke
arokes
aronde
arondi
arondixhment
arondixhmint
arondixhmints
aros
arot
aroyaedje
arpitan
arre
arrive
arriver
arrondissement
arse
arsouye
art
artemisia
artere
arthur
article
articles
artike
arts
arvense
arvensis
arvey
ary
as
asa
ascauchi
aschate
aschates
aschou
ascoxheye
ascoye
ascoyi
asfi
ashi
ashiou
ashiowe
ashir
askepeye
askepia
askepiaedje
askepiance
askepieu
askepieus
askepieye
askepieyes
askepyi
asne
asnoe
asnoes
aspalaedje
aspale
aspaler
aspe
aspite
aspiter
asplani
aspougneu
aspouyi
aspoya
aspoye
aspoyi
asprouve
aspx
ass
assa
assaetchance
assaetche
assaetchi
assassine
assazinaedje
assazine
assaziner
asse
assene
assesse
assez
assi
assie
assiete
assimble
assimilaedje
assimile
assine
assiou
assious
asso
assoc
associa
association
asson
assoti
assulon
assurance
assurances
assure
assurer
asta
astaedje
astaedjes
astale
astaler
astampe
astamper
astantche
astantches
astapler
astaurdji
astchait
astcheyance
aste
asteme
asterlodjeye
asterloke
asteu
asteur
asteure
asteut
astint
astire
asto
astoca
astocas
astok
astoke
astos
astot
astou
astrid
astronome
astronomeye
aswadji
at
ata
ataca
atacaedje
atacaedjes
atacant
atacnut
ataetche
atake
ataker
atakes
ataque
ataquer
atchena
atcheve
atchte
atchter
atchteu
ate
atelaedje
atele
ateler
atene
ater
atermint
ath
atincion
atind
atinde
atinri
atire
atlantike
atlas
atlasse
atnances
ato
atomike
atomikes
atou
atoume
atoumer
atouwaedje
atouwance
atouwe
atrape
atraper
atriva
atroclaedje
atteindre
atur
atuze
atuzes
atuzle
au
aube
aubes
aubry
auby
audace
audjou
audjourd
audjourde
audjourdu
auguste
augustin
aujau
auje
auji
aujourd
aunia
aura
aurde
aurder
aure
aureu
aureut
aurint
aurore
auros
aurot
auroz
aus
ause
ausse
aussi
austremoine
aut
aute
autes
auteu
auteur
auteurs
author
auto
autobeamoff
autos
autou
autre
autres
auve
auvergne
auwe
aux
auye
av
ava
avadji
avais
avait
avala
avale
avaler
avanc
avance
avanceye
avanceyes
avanci
avancive
avanciveus
avanciveuse
avans
avant
avata
avau
avaur
avaurci
avaurla
avaxhe
ave
avec
avenir
avenwe
avespre
aveu
aveule
aveules
aveur
aveuri
aveus
aveut
avey
avez
avi
avie
aviedje
avin
avind
avinde
avins
avint
avinteure
avinteures
avion
avions
avirance
avire
aviretes
avis
avit
aviya
aviz
avizance
avizances
avize
avnante
avne
avni
avnou
avnowe
avo
avoca
avoe
avoenne
avoir
avon
avons
avos
avot
avou
avous
avoye
avoyi
avoyoe
avoyou
avoz
avre
avri
avril
avru
avu
avuzion
aw
awaite
awan
awans
awe
aweure
aweye
aweyes
awi
awires
awiyant
awiyante
awous
awousse
awout
axel
axh
axhe
axhele
axhla
axhore
ay
aya
ayant
aye
ayeu
ayeur
ayi
ayir
ayit
ayite
ayites
ayiti
aymara
ayt
az
aza
azai
aze
azemmour
azerbayidjan
azeri
azeye
aziyatike
aziyatikes
azote
azourki
b
ba
bab
babetch
babete
bablou
bac
baca
bacalciomrece
bach
bache
bachelet
bachi
baconfwe
bacq
bactereye
bactereyes
bacterolodjeye
bad
badjawe
badjimont
baga
bagaedje
bagaedjes
bagance
bagdet
bagn
bagnant
bagne
bagni
bagns
bague
baguer
baguete
baguetes
bah
bai
baico
baidjot
baijot
baileu
bailleux
bailou
baiwir
baiye
bak
bake
baker
bal
bala
balance
balanci
balcon
bale
baler
bales
baleu
baligands
balinnes
balkans
balle
balon
balons
balou
baloujhe
baloujhes
balowe
bals
balte
balter
baltike
balzine
balziner
ban
bana
banbwe
banc
banca
bancs
band
bande
bando
baneu
bang
banire
banires
banke
bankes
banket
banki
banque
bans
banse
banselreye
banses
bansle
bansli
bant
bantou
bantous
bapende
baptise
baptiste
bar
bara
barabasse
barake
barakes
baraki
baraque
baraques
barba
barbazon
barbez
barbinc
barbo
barboter
barcelona
bardaxhe
bardouxha
bardouxhas
bardouxhi
bare
baret
barets
barmarin
baroke
barometre
baron
barone
baroni
barry
bart
barti
barvea
bas
bascolidi
bascule
base
baske
baskete
bassa
basse
basses
bassi
bassin
bassindje
basta
bastaurde
baste
basteye
basteyes
basti
bastien
bastimint
bastimints
bastin
bastis
bastixh
bastixha
bastixhaedje
bastixhe
bastogne
baston
bastons
bat
bata
bataedje
batant
bataye
batayes
batayon
batch
batchs
bate
batea
bateas
bateme
bates
bateu
bateus
bateut
bati
batia
batias
batices
batijhi
batimints
batire
batis
batisse
batli
batou
batous
batouta
batowe
batreye
batreyes
batte
battle
battre
batu
batutsi
bau
baube
bauche
baude
baudouin
baudoux
baudrez
bauduin
bauffe
baulieu
baume
bauri
bauthie
bauye
bavire
bawe
bawete
bawgne
bawyi
baxhaedje
baxhe
baxhi
baxhtchissaray
bay
baya
bayamont
bayat
baye
bayes
bayi
baykonour
baza
bbb
bbw
bd
be
bea
beaco
beamont
beas
beate
beau
beaucarne
beauduin
beaux
beazebe
beazet
bebert
bebrona
becker
bedje
bedjes
bedot
bedots
bedoye
bedreye
beethoven
befrwe
begnons
beguene
beguenes
beijing
bek
bel
belaire
belang
beldje
beldjicisses
beldjike
bele
beles
belfleur
belfontinne
belga
belge
belges
belgica
belgie
belgique
belgische
belgium
belgo
belgra
belgrade
beljes
belle
belleflamme
belles
beloyance
belva
ben
bene
beneden
benediccion
benedicta
benefice
beneluss
beneye
beni
benjamin
bennington
bennour
benoet
benoi
benoit
bent
bentz
bera
berbere
berberes
berbis
berce
berchem
berdelaedje
berdelaedjes
berdele
berdeler
berdouxha
berdouye
berdouyes
berger
berikes
berlin
berlokes
bernadette
bernard
berne
bernier
bernus
bero
bert
berteaux
bertine
bertrand
bertre
berwete
berweter
berwetes
berwinne
bes
betch
betche
betchete
betchetes
betcheye
betchfessi
betchi
betchou
betchowe
betchter
betchteu
betleyem
beton
betra
beu
beulemans
beur
beure
beurre
beveut
bevou
beyes
beyo
bezogne
bho
bi
bia
biarin
bias
biate
bibe
bibi
bibiografeye
bibioteke
bibiotekes
bibioteki
bible
bibliografeye
biciclete
biden
bidon
bidons
bie
bieme
biemre
bien
bier
bierdji
bierleu
bierlo
bierna
biesmint
biess
biesse
biesses
biestreye
biestreyes
bietlete
bietme
bietrand
bietris
big
bihin
bihor
bij
bijhe
bijhrece
bikets
bildigne
bilinwes
bill
bily
bin
bina
biname
binauje
binaujes
bince
binde
bindeladjes
bindes
bindeyes
bindjamin
bine
bininme
binne
binnenland
bins
bio
biokes
biou
bire
bires
birmaneye
biron
bis
biscu
bise
bismarck
bisteu
bistocaedje
bistoke
bistoker
bistokes
bistrit
bite
biter
bits
bitude
bive
bivort
bixhe
bixhes
biye
biyet
biyets
biyo
biyobibiografike
biyografeye
biyografeyes
biyokes
biyoki
biyolodjeye
biyolodjike
biyolodjikes
biyonaxhe
biyonaxhes
biyotchimeye
biyotene
biyovaryiste
biza
bizance
bizantin
bize
bizer
bizete
bizetes
bla
black
bladje
blague
blame
blames
blampain
blanc
blanca
blanche
blancs
blandou
blanke
blankenberge
blankes
blanki
blantche
blason
blawete
blawte
ble
blegne
blegneye
blesse
blessi
bleu
bleue
bleus
bleuwe
bleuwes
bloc
blok
bloks
blonci
blonde
blonden
blonds
blou
blouke
blouw
blouws
blouze
blues
blumint
bn
bni
bnoet
bo
bob
bobo
boca
bocau
boccoli
boches
bocre
bocse
bodart
bode
bodene
bodet
bodindje
bodja
bodjaedje
bodje
bodjes
bodji
bodson
body
boe
boere
boerlaedje
boerle
boerler
boesse
boesses
boet
boevaedje
boeve
boevou
bogota
bohan
bohe
bohon
boigne
boignes
boileau
boird
boirde
boirds
boiron
bois
boitte
bok
boke
boket
bokets
bokion
bokionaedje
bokions
bokma
boks
bol
bola
boland
bolant
bolante
bole
boledji
boledjreye
boles
bolet
bolete
boletes
bolets
boletus
bolfaf
boliveye
boloe
boloes
bolt
boltcheviks
bolte
bomba
bombe
bombes
bompre
bon
bonapa
bonceles
bondiu
bondjou
bone
boneu
bonheur
boni
boniface
bonjou
bonle
bonn
bonne
bons
bonte
bontins
book
boque
boquet
boquets
borain
borbouze
bordas
border
bordjoes
bordon
bore
borgogne
borguignons
borguimwaisse
borguimwaisses
borin
borinaedje
boris
bork
borlon
bormans
borromeo
borsu
bos
boschet
boschets
bosly
bosneye
bosret
boss
bossart
bosse
bossene
bosses
bossu
bot
bota
botanike
botaye
botayes
botchi
botchre
botchreye
bote
boteas
botes
botike
botikes
botiki
botique
botniraedje
botnire
boto
boton
botons
botos
botrou
botte
botulisse
bou
boubounes
bouche
boucher
bouchez
bouchi
bouchon
bouchons
bouda
boudin
boudisse
boudisses
boudje
boudji
boufiou
bougmesse
bouguemmesse
bouhe
bouhi
bouillon
bouke
bouket
boukete
boula
boulard
boule
bouli
boulome
boulons
boum
bouma
boun
bouname
boune
bounes
bounet
bounete
bouneu
bouneur
bouneurs
bouni
bounmint
bounnute
bounru
bouque
bouquet
bour
bourbon
bourdon
bourdons
boure
bourer
bourgeois
bourgogne
bourgosse
bourguignon
bourike
bourlote
bourniva
bouroundi
boursegne
boursite
boussart
boussu
bout
bouta
boutaedje
boutaedjes
boutans
boutant
boutaxhe
boutche
boutchon
boute
bouter
boutes
bouteu
bouteus
bouteuse
bouteut
boutez
bouti
boutier
boutnut
boutoe
boutre
bouwe
bouwer
bouxhaedje
bouxhe
bouxhi
bouxhire
bouxhnisse
bouxhon
bouxhons
bouxhonveye
bouye
bouyes
bouyi
bouyon
bouyotes
bovegne
boverie
bovesse
bovgni
bovis
bovrins
bovy
boxing
boxus
boye
boyea
boyeas
br
bra
brabanc
brabant
brabants
bracgnere
brackman
bracnaedje
bracni
braezi
braezilyin
braga
bragard
brahy
brai
braibanc
braibant
braijhes
braire
brait
braive
brak
brake
bramin
bramint
bran
branc
branchu
brandons
branmint
brantche
brantches
bras
brassens
brasseur
brassica
brave
braza
bre
break
bredene
bref
brel
brele
brener
brenner
bresreye
bressaedje
bresse
bressene
bressenes
bresses
bresseu
bresseus
bresseye
bressou
brete
breu
breune
breya
breyeut
breyi
bri
brialmont
bribe
briber
bribeu
bribeus
bricole
bricteus
brictreye
briga
brigitta
brigitte
brijhe
brijhi
brike
brikes
brin
brinne
brise
brissa
britanike
britanikes
britonike
brixhe
bro
brocales
brogne
broke
brokes
bromus
brontches
brontchite
bronze
brotche
brotchet
brotchi
brou
brouchetere
brouheur
broule
broushe
brouwe
brouwet
brouwire
brouwires
brouxhire
brouya
brouye
brouyi
brouyire
brouyires
brouyon
broye
broyi
bru
brucella
brudje
brudjlete
bruges
bruit
brumioul
brun
brune
bruneau
brunes
bruniau
bruno
bruns
brusse
brussel
brussele
brussels
brusselwe
brusselwesse
brut
brute
bruts
brutyi
bruxelles
bruye
bsllw
bslw
bsoneu
bsp
bu
budapest
buddy
buho
buk
bukens
buker
bulga
bulletin
bulte
bultin
bunker
burau
bure
burgeon
burges
buro
buros
burtaegne
burtaenike
burton
bury
bus
busch
bush
busse
busses
busson
bussons
but
bute
butude
buza
buze
buzea
buzes
buzet
buzete
bwa
bwe
bwesson
bwin
bwoi
by
byin
c
ca
cabare
cabaret
cabas
cabasson
cabay
cabe
cabine
cabinet
cabole
cabu
cabus
caca
cacafougna
cacaye
cache
cacheu
cachi
caclindje
cactaedjes
cactusse
cada
cadau
cadet
cadisse
cadje
cado
cadon
cadre
caedje
caf
cafe
cafeu
cafloreye
cafougni
cahier
cahiers
cahoute
cahoutes
cai
caire
caisse
caisson
caizer
calande
calbalasse
calc
calcaedje
calcaedjes
calciom
cale
calendes
calendula
calife
californeye
caligrafeye
caliguluk
calindri
calistinne
calixte
calke
calker
callaert
calmene
calote
calozet
calsteren
calvaire
cam
cama
camaedje
camaera
camara
camarade
camarades
camberlin
cambodje
cambresier
cambron
came
camile
camille
camion
camione
camions
camisole
camizole
camp
campagne
campagnes
campestre
campestris
camps
campus
camus
can
cana
canada
canadas
canal
canape
canareyes
canari
cancer
cand
cande
candidats
candj
candja
candjant
candjante
candje
candjeye
candji
candjmint
candjmints
candjnut
cando
cane
canicule
canis
canle
cannabina
canon
canons
canorus
cant
canton
cantons
canva
cap
capa
capacite
capita
capitale
capitalisse
capitalisses
capitin
caporetto
capot
capote
capron
captinne
capucete
car
carabosse
caraco
caracole
caracoles
caracte
caractere
caracteres
caras
carayibes
carbone
carbonike
carcul
carcule
cardina
carduelis
care
carelyin
cargnon
caricateure
caricateures
carl
carlier
carlo
carlos
carmanne
carnaval
carnoy
caroline
carolo
carolore
carolos
carotche
carote
carotes
carpates
carpentier
carpetes
carre
carrefour
carro
carrosse
carte
cartes
cartier
carton
cas
casablanca
casaert
casaque
cascagnes
cascagni
casino
casque
casrole
cassay
casse
casser
casses
cassete
cassetes
casta
castafiore
castagni
castile
castinne
castinnixheuse
castiyan
castro
cata
catala
catalan
catalana
catalane
catalans
catalogne
catalogue
cataloke
catche
catches
catchet
catchete
catchetmint
catchets
catchi
catchive
cate
catedra
categoreye
categoreyes
categorie
category
catherine
cathre
cati
catoize
catolicisse
catolike
catolikes
catou
catre
catrene
catruceme
catrucime
cau
caurs
cause
causer
causes
causeu
caute
cautes
cauve
cauwenberghe
cavale
cavales
cavalrie
cavau
cavli
cavo
cawe
cawes
cawete
cawetes
cawi
cawolin
cawou
cawoutchou
cayaus
caye
cayet
cayets
cayi
cayin
cayo
cayron
cayute
cazablanca
cazake
cazaxhistan
cazer
cazere
cazi
cazino
cc
cd
cdh
cdu
cdujhance
ce
cede
cedes
cedile
ceke
cekes
cela
cele
celeri
celes
celle
celles
celtike
celui
celule
celules
cemint
cene
cenes
cens
censes
cent
centaurea
center
central
centre
cents
cer
cercle
cere
ceremoneye
cerexhe
cerfontaine
cerfontinne
cerijhi
certin
cervea
cervia
ces
cesa
cesses
cest
cet
cete
cetmint
cette
cevenes
ceye
ceza
cezaryinne
cf
cfeye
ch
cha
chabots
chacheu
chacun
chadwe
chahine
chai
chake
chal
chale
chambre
chamo
chamos
champ
champagne
champaignat
champe
champenois
champignons
champs
chan
chance
chances
chanche
chandi
chang
change
chans
chanson
chansons
chant
chantal
chante
chantoire
chants
chape
chapelier
chapelle
chaper
chapuis
chaque
charleroi
charles
charlie
charlier
charlotte
charly
chaskonk
chasse
chastelet
chat
chaufoureau
chaumont
chausse
chauvaux
chave
che
chedda
chef
chemin
chenne
chenopodium
chent
cher
cherton
ches
chesnot
chestai
chester
cheu
cheur
cheval
chevri
chez
chi
chicago
chie
chieve
chife
chifes
chili
chimai
chin
china
chinde
chine
chinon
chinwe
chinwesse
chioggia
chis
chiyites
chleu
chleus
chli
chnapans
cho
chocolat
choisez
choix
chole
chon
chonance
chone
choneu
chons
chonwe
chose
choses
chou
choumake
choute
chouter
choye
choyu
choz
chre
chris
christ
christian
christiane
christine
christmas
christophe
chtroume
chtroumes
chu
chuchi
churchill
chwa
chwache
chwe
chwine
chwintaedje
ci
cia
cial
ciale
ciales
cias
cicile
ciclisse
ciclisses
cidde
cide
cidwel
cie
ciel
cier
ciergnon
ciers
ciervidi
ciete
ciga
cigare
cigaretes
cila
cile
cilinde
cimbe
cimint
ciminti
cimintire
cin
cina
cinas
cindes
cine
cinema
ciney
cineyasse
cingue
cingues
cink
cinq
cinquante
cins
cinse
cinsere
cinses
cinsi
cinslote
cinsresse
cint
cinte
cintimete
cintimetes
cintinme
cintinne
cintinnes
cintra
cints
cion
ciona
cionalisse
cionalisses
cions
ciplet
cipre
cir
circu
circulaire
cire
cirilike
cirke
cirou
cirsium
ciryins
cis
ciss
cisse
cisses
cist
ciste
cit
cita
citadele
cite
citer
citron
citweyins
city
cityid
citypopulation
civike
civikes
civil
civile
civiles
civiliza
civils
ciwagne
cizea
cizete
cl
cla
clabot
cladjot
clair
claire
claires
clairmint
clairmont
clairs
clairte
clame
clameu
clapant
clapante
clapants
clape
clara
claskin
clasmint
class
classe
classer
classes
classic
classicmint
classifiaedje
classike
classikes
classique
claude
claudine
claus
clavaire
clavi
clavir
clawe
clawer
clawson
clawti
cle
clematis
clemint
cler
clermont
cli
clicote
cligne
clignete
clijsters
climat
climatikes
clin
clinci
clinias
clinicmint
clinike
clinikes
clintcha
clintche
clintcheye
clintchi
clipse
clitche
clitchete
clitchi
clo
clocher
cloke
clokes
cloki
clon
clorofile
clostridium
clotche
clotches
clotchi
clotile
cloyaedje
cloye
cloyou
cloyowe
clre
club
clubs
cluj
cm
cmaceus
cmande
cmander
cmandeu
cmanster
cmaxhi
cmere
cmeres
cmina
cminc
cmince
cminci
cmincive
cmint
cmon
cmons
cmwa
cni
cnidi
cnoxhance
cnoxhances
cnoxhe
cnoxheu
cnoxheus
cnoxheut
cnoxhou
cnoxhous
cnoxhowe
cnoxhowes
cnt
co
coast
cob
cobal
cobate
cobe
coca
coccideyes
coccidio
coche
coches
cocker
cockerill
cocmwa
coco
cocorico
cocote
cod
coda
codaedje
code
codjowa
codjowaedje
codjowaedjes
codjowant
codjowas
codjowe
codjower
codjownut
codjowoe
codou
codowe
codowes
codujhance
coe
coete
coeu
coeur
cofe
cofrereye
cofrereyes
cogne
cognes
cohe
cohen
cohes
coibjhi
coide
coides
coignou
coin
coine
coines
coinrec
coinrece
coinreces
coir
coirba
coirbidi
coirdea
coirna
coirnaye
coirne
coirneu
coirni
coirps
coirs
coirzenoxh
coisse
coisses
coistrece
coixheure
coixheures
coixhi
cok
coke
cokea
coks
col
cola
colas
cole
coleccion
coledja
coledje
colera
colesterol
colete
colette
coleu
coleur
coleurs
coli
colibacile
colibaciles
colibacilo
colido
colignon
colimamite
colin
collard
colle
collection
collette
collin
colline
colneye
colneyes
colnijhaedje
colnijheye
colnijhi
colo
coloe
cologne
colombeye
colon
colone
colones
colonia
colons
colot
colou
colruyt
colson
columba
com
coma
comachi
comande
combat
combatants
combe
combin
comblin
come
comedeye
comedeyes
comedyins
comene
comenes
comercia
comere
comeres
comiece
comierc
comifa
comike
comina
cominc
comince
cominceye
cominch
cominchi
cominci
comint
cominta
cominte
comis
comissai
comissaire
comission
comissions
comite
comiti
comm
comme
comment
commin
commission
commissions
commun
communaute
commune
communes
communis
comogne
comon
compagnie
compare
compe
compete
compinse
comple
complet
complete
completes
complike
complinte
compo
composs
comprin
comprind
comprinda
comprinde
comprindeut
comprindez
comprindoz
comprins
compris
compte
compter
comptes
compteu
comptwe
comte
comufa
comuna
comune
comunion
comunisse
comunisses
con
conc
concepcio
concepcion
concert
concerts
concile
conclu
concordat
concorde
concou
concours
concurince
cond
conda
condamne
condane
conde
condicion
condicionante
condicioneu
condicions
condji
condoleyances
condroz
condruze
conduire
cone
confe
conferince
conferinces
confiteure
confonde
confuciusse
congo
congole
congolesse
congre
conichance
conings
connaitrelawallonie
conneu
connu
conoxhe
conoxheut
conoxhou
conra
cons
consacre
conscience
conse
consecant
consecante
consecants
consecwinces
conseil
conservatwere
consey
conseye
conseyi
conseys
conside
considere
consoles
consonant
constant
constantinope
constitucion
constru
construction
consyi
consyince
cont
conta
contact
contador
contaedje
contak
contant
conte
content
conter
contes
conteu
conteye
contez
contin
continental
continents
continint
continints
continne
continou
continouwa
continouwe
continouwer
continouwre
continowe
contins
contint
continte
contintmint
continuwe
continuwer
contne
contnou
contra
contrai
contraire
contrat
contrats
contre
contribucions
contro
controle
controler
contru
contrumasse
conu
conv
conve
convna
convolvulus
convoye
cook
cools
cop
copagneye
cope
copene
coperative
coperatives
copere
copes
copete
copeye
copeyes
copi
copin
copine
copiner
copineus
copinreye
copinreyes
copiutre
copiutrece
copiutreces
copixhe
cople
coplemint
coplemints
copler
coplet
coplets
copleu
copleus
copo
coppe
coppens
copurade
copuvite
copyi
coq
cor
cora
coradje
coraedje
coraedjeus
coramint
coranmint
corans
corant
corante
corantes
corants
corbion
corbiyon
core
coreca
corespond
corespondant
coresponde
coreu
coreus
coreut
coreye
cori
coridjaedjes
coridji
coridjrece
corin
corinte
corintenes
corne
cornus
coron
corona
corone
coronel
coronmouze
corons
corou
corps
corse
corti
cortis
corvus
corwaitaedje
corwaitaedjes
corwaite
corwaiteu
corwaiti
corwe
coshet
coshets
cosse
cosseme
cossina
cossoune
cossounes
costa
coste
coster
costeu
costeure
costindjes
costume
costumes
cot
cotape
cotchessi
cotcorico
cote
cotes
cotli
coton
cotou
cotre
cotuzeus
cou
couba
coube
coubertin
couche
coucher
coucou
coude
cougne
cougnes
cougnet
cougni
cougnou
cougnous
couhe
coujhene
couki
coula
coule
couleu
couleur
coulmele
coulot
coulote
coulotes
coulots
coume
coumint
counet
coup
coupa
coupe
cour
courant
courcele
courcelles
coure
coureu
couri
cournut
courrier
cours
court
courtecuisse
courti
courtinnmint
courtois
courts
couru
cous
couscousse
couscoussire
couse
cousse
cousses
coussour
cout
coutchi
coutcouloudjou
coute
coutea
couteas
coutia
couve
couverture
couvie
couyet
couyi
couyon
couyona
cova
covaedje
covasna
cove
cover
covid
covie
coviete
covietes
covint
covisse
covite
covra
covre
covri
covrou
cowe
coxhe
coxhes
coxhetes
coxhlaedje
coye
coyi
coyire
coyon
coz
cozakes
cpa
cpagneye
cpagneyes
cpagnons
cpo
cr
cra
craeye
craeyes
crahay
craheas
crake
crakes
crama
crampes
cran
cranasse
crantche
crapa
crape
crapes
crapo
crasse
crauche
crawate
crawe
crawieus
crawieuse
cre
creche
credit
crepe
cresse
cresses
crestea
cresteas
cretin
creu
creus
creux
creva
creve
crever
crexhaedje
crexhance
crexhant
crexhe
crexhince
crexhinne
crexhiou
crexhnut
crexhou
creya
creyance
creyances
creyant
creyants
creye
creyeut
creyeye
creyon
creyou
cri
crie
crijhe
crikion
crikions
crime
crin
crinme
crinnwik
cris
criss
crisse
cristele
cristofe
crit
crite
critike
critiker
critikes
critique
crivains
criwe
criya
criyaedje
criyant
criye
criyi
cro
crodjambot
crodjambots
croe
croejha
croejhe
croejhete
croejhetes
croejhi
croejhla
croejhle
croejhmint
croere
croes
croet
croeynut
croix
croke
crole
crombe
crompi
crompirace
crompire
crompires
cron
cronike
croniviru
cronolodjeye
cronolodjicmint
cronolodjike
cronzoxh
cronzoxhi
cronzoxhs
croo
cropante
cropecinde
cropi
cropped
croque
crosse
crosses
crotchet
crote
crotes
crou
croufieu
croufieus
croupe
croupet
crousse
crouwa
crouweur
crowa
crowaceye
crowate
crowates
crowe
croxhi
croye
croyon
cru
crupet
crustin
crustinne
crustinnes
crustinnisse
crustins
crwa
crwe
cs
csandre
csion
cta
ctaeyaedje
ctaeyi
ctape
ctaper
ctchessi
cte
cteu
cu
cuba
cube
cubin
cugnon
cuje
cujhaedje
cul
cule
cules
culot
culote
culte
culteure
culteures
cultive
culture
culturel
culturele
cultureles
cultures
cundo
cur
cure
curie
curieu
curieus
custene
cutsem
cuve
cuze
cuzene
cvierser
cviersi
cw
cwa
cwacwa
cwade
cwadran
cwadrans
cwan
cwand
cwane
cwanes
cwanlminme
cwanses
cwantite
cwantrinme
cwar
cwarante
cwarantinne
cwareme
cwarme
cwarmea
cwarmeus
cwarne
cwarpece
cwarpeces
cwasses
cwate
cwatlins
cwatre
cwatrinme
cwatrinne
cwatru
cwaye
cwe
cwefe
cwek
cweraedje
cwerant
cwere
cwereus
cwereut
cweri
cwet
cwi
cwin
cwir
cwire
cwirt
cwita
cwite
cwiter
cyi
cytisus
cœu
cœur
d
da
dabe
dabo
daca
dacoird
dadite
daditte
daedje
daedjes
daegn
daegne
daegnrec
daegnrece
daegnreces
daegntoele
daenma
daenwe
daenwesse
daguet
dai
daille
daily
daire
dairin
dakar
dal
dalaedje
dalant
dale
daler
dales
daleut
dalmate
damadje
damadjes
damaedje
damasse
dambly
dame
dames
damjhele
damjheles
damme
dampremy
damso
damyin
dan
dandjereu
dandji
dandjreu
dandjreus
dandjureu
daniel
danielle
dans
dansaedje
danse
danser
danses
danseu
danseus
danseuse
danseuses
dant
danube
daphne
dar
dard
dardenne
dards
darras
darwin
das
dascotte
dasnoy
dassargues
dat
data
dataedje
date
dater
dates
dau
daume
daumer
davance
davaux
david
day
daye
dayech
dayeur
daza
db
dbout
dbouts
dbro
dce
dcla
dd
ddimwin
ddins
ddja
ddjuner
de
death
debaty
deca
dece
dechamps
decida
decidaedje
decide
decider
decidnut
decimbe
decin
declara
declare
declercq
deco
decock
decora
decret
dede
dedja
dedonder
dedoyard
dedoyart
defechereux
defini
definixha
definixhaedje
definixhant
definixhants
defrecheux
defrexheu
degavre
degne
degrele
degrelle
dehez
dehin
deie
dejardin
del
delachaux
delaite
delbouille
delchef
delcour
delhaize
deligne
delire
dell
della
delle
delmotte
delporte
delta
deltenre
delvaux
delvigne
demande
demarche
demnate
democraceye
democrate
democrates
democratike
demographie
demorgen
demotte
demoulin
den
dene
denis
denise
denys
depas
depo
depot
depre
depuis
depute
der
derache
derbu
deri
derik
derit
derive
dernie
derrie
derycke
des
descartes
desmet
despret
desse
desses
dessinaedje
dessinaedjes
dessine
dessiner
dessineu
dessineus
dessinrece
dessus
destexhe
destine
destre
det
detail
detays
dethier
dethy
dets
deu
deujhinme
deujhinmes
deur
deure
deures
deurs
deurte
deus
deut
deux
deuzie
deuzinme
devant
devo
devos
dewandelaer
dewart
dewe
dewelle
dewez
dewlo
deye
deyesse
deyi
deynut
dezert
dfa
dfou
dg
dgins
dgre
dhnet
dhote
di
dia
diaedje
diale
dialectal
dialectale
dialectales
dialecte
dialectes
dialectologie
dialectologique
diales
dianthus
dibout
dica
dicale
dicauce
diccionairaedje
diccionaire
diccionaires
diccionairi
dicinales
dicipe
dicipes
dicla
dico
dicsionaire
dictateur
dicte
diction
dictionnaire
dictons
did
didier
didins
die
diele
dieles
diem
dierene
dierin
dierinne
dierinnes
dierinnmint
dierins
diermifito
diermite
dies
dieu
dieudonne
diew
diewa
difa
dife
diferin
diferince
diferinces
diferinne
diferinnes
diferinnmint
diferins
diferintes
diferints
diffe
difou
difoutrinne
difoutrinnes
diftongaedje
digest
dignite
digre
diha
dihe
dihez
dihi
dij
dije
dijeu
dijh
dijha
dijhaedje
dijhaedjes
dijhans
dijhant
dijhe
dijheu
dijheut
dijhinme
dijhinne
dijhinnes
dijhne
dijhnut
dijhoz
dijot
dijoz
dilane
dile
dilon
dilong
dilongue
diloujhe
dilsen
dim
dimanants
dimanche
dimanda
dimande
dimander
dimandeu
dimandez
dimandrece
dimane
dimani
dime
dimegne
dimegnes
dimeu
dimeure
dimeurnut
dimeurrece
dimey
dimeye
dimitri
dimora
dimorance
dimorant
dimorants
dimorantshttps
dimore
dimorer
dimornut
dimorre
dimwin
din
dina
dinamite
dinant
dinasteye
dine
diner
dinez
dinltins
dinne
dinner
dinnut
dinozo
dinre
dins
dinsite
dint
dinte
dintrece
dints
dioica
dion
dipa
dipind
dipinde
dipindeut
diplome
dipsacus
dipus
dir
dire
direccion
directeu
directeur
direction
directumint
direk
dires
direu
direut
diri
diro
diront
dirot
diroz
dis
disaprexhance
disba
disbarcumint
disbautchi
disbra
disca
discalotaedje
discandje
discandji
discha
dischind
dischindant
dischindants
dischinde
dischindou
dischinte
dischovraedjes
discipes
disciples
disclo
disco
discografeye
disconte
discoraedji
discours
discovere
discoviete
discovraedjes
discovri
discovrou
discramiaedje
discramyi
discrexhance
discrexhe
discri
discrijhaedje
discripcion
discrire
disdjoke
disdjoker
disdjune
disdu
disdut
disduts
disease
diseases
disfac
disface
disfaflotaedje
disfaflote
disfafloter
disfe
disfind
disfinda
disfindat
disfinde
disfindeu
disfindeus
disfindou
disfindous
disfindowe
disfindowes
disfinse
disfinses
disfondowe
disfondowes
disfouwants
dishonnaedje
disk
diski
dislachi
dislaxhaedje
dislaxhe
dislaxheye
dislaxhi
dislaxhiveus
dismacraler
dismantcha
dismantchaedje
dismantche
dismantchi
disme
dismetant
dismonte
dismoussi
disnazia
disney
dispa
dispaitche
dispare
disparexhaedje
disparexhe
disparexhou
disparexhowe
dispasse
dispe
dispeu
dispie
dispierte
dispierter
dispiete
displaeci
displouctaedje
dispo
dispou
dispouye
dispouyes
dispoy
dispu
dispus
dispute
disqu
disrashonnaedje
disrecloymint
disri
disro
diss
disse
disses
disseu
dissidjmint
dissu
dissur
dissus
dist
distaetchi
distance
distcherdji
distcheyaedjes
diste
distere
disterminant
distermine
disti
distinde
distindou
distindous
distindowe
distou
distre
distri
distribucion
distrik
distriks
distru
distrujhaedje
distrujhaedjes
distrujhante
distrure
disvaler
diswalpaedje
diswalpe
diswalper
dit
dite
diterminant
diteur
dition
ditions
ditrop
dits
ditte
diu
div
diva
divan
divancete
divancetes
divanceye
divant
divantrin
divantrinne
dive
divegnnut
diveu
diveur
diveut
divie
divin
divinltins
divins
divint
divintrin
divintrinne
divintrinnes
divintrinnmint
divintrins
divise
divisi
division
divize
divizer
divizion
divizions
divna
divnant
divne
divneut
divni
divnou
divnous
divnowe
divnoz
divnu
divnut
divo
divoice
divoirc
divoirci
divre
divreut
divuzlaedje
divuzle
dix
diya
diyacritike
diyacritikes
diyagnostik
diyalecta
diyalectolodjeye
diyalectolodjicmint
diyalectolodjike
diyalectolodjikes
diyalectolodjisses
diyaleke
diyalekes
diyaloke
diyalokes
diyazinon
diynut
diyoceze
diyocside
diyodjinne
dizeu
dizeur
dizeutrin
dizeutrinne
dizo
dizon
dizos
dizotrinne
dj
dja
djade
djadida
djaedje
djaena
djaene
djaenes
djaenisse
djaeye
djaeyes
djaeyi
djaive
djaiy
djaki
djale
djaler
djalet
djalhe
djalofrene
djalofrenes
djalot
djalou
djalous
djalozreye
djama
djamas
djambe
djambes
djamblene
djambon
djambons
djambot
djan
djane
djanine
djanmiou
djans
djanvi
djapon
djapone
djaponesse
djasses
djate
djausse
djave
djavingue
djazira
djazz
djc
dje
djean
djebel
djedene
djel
djele
djena
djene
djenera
djenetike
djeneze
djenitif
djenocide
djenret
djentene
djenva
djenveye
djenvire
djer
djera
djeret
djerie
djerlaxhe
djermalance
djermale
djermanike
djermanikes
djerme
djermon
djermwin
djernetchamp
djerondif
djerpene
djeruzalem
djes
djesse
djesses
djete
djetes
djetrou
djeu
djeure
djeus
djeve
djeyant
djeyografe
djeyografeye
djeyograficmint
djeyografike
djeyolodjeye
djeyolodjikes
djeyometreye
djeyordjeye
djezi
djezu
djezus
djezwites
djg
djha
djhaedje
djhan
djhans
djhant
djhe
djheu
djheut
djhi
djhoz
dji
djibi
djiblou
djibraltar
djiffs
djihan
djihe
djihene
djilet
djili
djimbe
djimbre
djimele
djimepe
djimlastike
djin
djina
djinape
djincive
djinda
djine
djinefe
djiner
djineze
djiniesse
djiniesses
djinixhe
djinne
djino
djinre
djinres
djins
djint
djinte
djinti
djintis
djira
djistou
djiva
djive
djivet
djivion
djivions
djivronde
djmele
djmepe
djmint
djnaedje
djnape
djneve
djneze
djniesse
djniesses
djno
djnos
djo
djodogne
djohan
djok
djoke
djoker
djoleye
djolimont
djon
djonccion
djond
djondant
djondants
djonde
djondou
djondowe
djondrece
djondreces
djonds
djondu
djone
djonkea
djonne
djonnea
djonneas
djonnes
djonnesse
djonnete
djonnetes
djonnlaedje
djonteure
djonteures
djontivite
djonturite
djordaneye
djose
djoseuf
djoste
djot
djote
djotes
djou
djoupeye
djouprele
djourdu
djourma
djourna
djourne
djous
djouw
djouwa
djouwaedje
djouwans
djouwant
djouwe
djouwer
djouwet
djouwets
djouweu
djouweus
djouweuse
djouwi
djouwnut
djouxhire
djowe
djowele
djoye
djoyes
djoyeu
djoyeus
djoyeuse
djoz
djoze
djozef
djrec
djrece
djri
dju
djubet
djuda
djudas
djudayisse
djude
djudi
djudje
djudjes
djudji
djudjmint
djudjmints
djudla
djudo
djuje
djule
djulene
djulete
djulin
djulyin
djumet
djun
djune
djuner
djupiter
djupsyins
djura
djure
djurer
djureus
djuri
djuris
djus
djusk
djusqu
djusse
djusses
djuste
djustice
djustin
djustumint
djutlande
djuzrin
djuzrinne
djva
djwe
djwif
djwifs
djwive
djwives
dla
dle
dm
dmanants
dmanda
dmandaedje
dmande
dmander
dmandeu
dmandi
dmane
dmani
dme
dmeure
dmeurnut
dmey
dmeye
dmf
dmitriy
dmora
dmorance
dmorances
dmorant
dmorants
dmore
dmorer
dmornut
dmorre
dmwin
dna
dnant
dne
dner
dni
dnis
dnixh
dnut
do
dobe
dobes
doble
dobler
dobleure
doc
docherie
dochriye
doco
docquier
docteu
docteur
docteurs
doctoresse
documentation
documents
documint
documinta
documints
dodet
dodobe
doe
doen
doet
doetreces
doets
doevnut
dofe
dognon
dogue
dohet
doime
doirmaedje
doirmant
doirmante
doirme
doirmeut
doirmi
doirmou
doirmoz
dois
doit
dokir
dol
dola
doleur
dom
doma
domenico
domestica
domesticus
domine
dominike
dominique
dominne
dominnes
domont
don
dona
donald
donc
donco
done
donea
doner
doneu
donez
donma
donna
donnay
donne
donner
donre
dons
dont
doppagne
dore
dorene
dos
dosimont
dosse
dossi
dossier
dostoyevskiy
dot
dotance
dote
dotes
dots
dou
douard
doube
double
douc
douccala
douce
douche
douda
doudouye
doukkala
doul
doumiesse
doumont
dous
doutrepont
douve
douwa
doux
douze
dovevi
dowe
dowo
doya
doye
doze
dozinne
dpus
dr
dra
drache
dragon
drale
dramatike
dramatikes
dramatique
drame
drap
drapea
drapeas
drapeau
draps
dre
drece
dresse
dresses
dressi
dreu
dreut
dreute
dreve
dreye
dri
dricot
dries
drindje
dringuele
dro
droci
droet
droete
droets
drogue
drogues
droite
droixhe
drola
droldimint
drole
droles
dron
drou
droucte
drouke
droukes
drouve
drovaedje
drovant
drove
drovi
drovou
drovous
drovowe
drovowes
drovoz
drovu
dru
druzes
drwe
ds
dschind
dschinde
dsu
dsus
dtrop
dtw
du
dubois
dubout
duc
ducarme
duchatto
duche
duchesne
ducpe
duculot
dud
dudpi
dufrane
duhem
dujha
dujhance
dujhances
duk
duks
dul
dule
dume
dumont
dunker
dupont
dupuis
dura
durant
durbuy
dure
durer
durieux
durnale
durre
dus
dussu
dutcheye
dutcheyes
dutroux
duv
duval
duvant
duve
duvivier
duvre
duwal
duysenx
duysinx
duze
dv
dva
dvancete
dvancetes
dvanceye
dvans
dvant
dvantrin
dvd
dve
dveres
dveu
dveur
dveut
dveye
dvie
dvin
dvinltins
dvins
dvinte
dvintes
dvintrin
dvintrins
dvize
dvizer
dvizes
dvou
dvoz
dvre
dvreut
dvu
dvwer
dvwers
dwa
dwane
dwe
dwecea
dweche
dwin
dwizink
dy
dyi
dyince
dz
dze
dzeu
dzeur
dzeus
dzi
dzindjne
dzo
dzos
dzou
dɛ
e
ea
eau
ebagaedje
ebagance
ebagants
ebague
ebaguer
ebe
ebem
ebli
ebola
ebreu
eca
ecarts
ecdu
ecefalite
ecg
eche
echo
echos
echternak
eciclopedeye
eciclopedeyes
eciclopedike
eciclopedikes
ecinse
eclipe
eclo
eco
ecole
ecolo
ecolodjeye
ecolodjisse
ecolodjisses
economeye
economicmint
economie
economike
economikes
economisse
ecoraedji
ecra
ecramyi
ecsepte
ecta
ecwa
ecwateur
ed
eda
eddy
eden
edesse
edeure
edgar
edgard
edi
edicion
edicions
edit
edite
editeu
edith
editions
edj
edja
edjalaedje
edjale
edjermone
edji
edjipe
edjipsyin
edjipsyinne
edjipsyins
edm
edmond
edoirmi
edoirmou
edon
edou
edouard
edroet
edroets
edurance
edure
edvincion
edvincions
edvinte
edvinter
edvinteu
edward
ee
een
efance
efant
efants
efel
efes
efet
efets
efexhaedje
efeze
efouwaedje
efouwe
eg
egadje
egadji
egayole
egidio
egli
eglijhe
eglijhes
egne
egolene
egoler
egoleure
egoliner
egoloe
egre
egurniyaedje
egurniyaedjes
egz
egzamin
egzeco
egzimpe
egzimpes
egzimplaires
egzistance
egziste
egzo
eh
eha
ehale
ei
eie
eii
eimeria
einstein
eke
ekilibe
ekipaedje
ekipaedjes
ekipe
ekipes
el
elastike
elaxhi
ele
eleccion
eleccions
electricite
electrike
electrikes
electromagnetikes
electronike
elemint
elemints
eles
eleve
eli
elie
elinne
elio
eliom
elise
elizete
ell
ella
elle
elles
elmore
elouche
els
elwe
elze
elzi
em
ema
emacralaedje
emacrale
emantcha
emantchaedje
emantchaedjes
emantche
emantchi
emay
embanner
eme
emey
emi
emilaedje
emile
emiles
emilreye
emirats
emission
emissions
emma
emmanuel
emoenne
emoenner
emon
emtene
en
enaiwaedje
enaiwe
enawaire
encore
encyclope
end
endalaedje
endale
endaler
ende
endoge
endroit
ene
enerdjeye
enevie
enfant
enfants
enfin
enghien
english
engroe
enige
enima
enn
enne
eno
enocin
enonda
enondaedje
enonde
enonder
enondeu
enque
ens
entre
entrin
enu
enute
envd
environs
enziva
eo
epa
epayi
epestifere
epi
epiceya
epinse
epla
eplaec
eplaida
eplaidaedje
eplaidaedjes
eplaide
eplaideu
eplaideus
eplaideye
eplaideyes
eplaidi
eplaidive
eplaidnut
eplaidreye
eplaidreyes
eplocta
eploctaedje
eploctaedjes
eplocte
eplocter
eployaedje
eployaedjes
eployant
eploye
eployeye
eployeyes
eployi
eployive
eploynut
epniye
epoirte
epoirter
epoke
epope
epoque
epra
epronte
epronter
epronts
eptatlon
epweznaedje
epweznaedjes
epweznant
epweznante
epweznants
epwezne
epwis
equipe
er
era
eraire
erale
eraler
erasse
ercule
ere
eredjistre
eredjistrer
eredjistrumint
eredjistrumints
ereze
erfrin
eri
eric
eriophorum
erire
erirece
erireces
eritaedje
eritance
erite
eriti
eritre
erive
erkelene
erlandais
ermeton
erminete
ermitaedje
ermite
ernadje
ernest
ernonhe
ero
eros
erote
erotikes
eroyene
erse
ertrove
eru
eruni
erva
es
esba
escha
eschafiote
eschaye
eschoice
escla
esco
escole
escourci
escri
escrijheus
escuze
eshonna
eshonne
eshu
esla
esloveneye
esneu
esnoe
espa
espace
espagne
espagnol
espagnole
espagnoles
espagnols
espaitchance
espaitche
espaitchi
espan
espe
espece
especes
especia
espedicion
espedicions
espeke
esperance
esperanto
espere
esperts
esperyince
esplica
esplicaedjes
esplicant
esplike
espliker
esplo
esploraedje
esploreu
esploreus
espo
espontane
esportigne
espote
espre
esprinde
esprindeu
esprit
esprits
espwe
espwer
espwete
ess
essai
esse
essegne
essegnes
essegnrece
essere
essilaedje
essince
esso
essonle
esst
est
esta
estait
estance
estanda
estans
estant
estapes
estat
estats
estazunyin
estazunyinne
estazunyins
estchante
este
esteu
esteus
esteut
esteuve
estez
esther
esti
estiene
esto
estoele
estoneye
estonyin
estot
estoumak
estoz
estra
estremadoure
estrinme
esvotos
et
eta
etaessi
etait
etale
etape
etat
etc
etch
etcherpetaedje
ete
eter
etercomuna
eterdjerme
eterdoetrece
etere
eterer
eterface
etermint
etermints
eterna
eternite
eterprijhe
eterprijhes
etertini
ethnographique
etienne
etikete
etimolodjeye
etimolodjeyes
etimolodjicmint
etimolodjike
etimolodjikes
etind
etinda
etinde
etindeut
etindou
etiopeye
etiopyins
etir
etire
etires
etirmint
etnotecses
eto
etot
etou
etraidance
etre
etrernete
etreve
etrindji
etrindjir
etrindjire
etrindjires
etrindjirs
etrinne
etrinneu
etrinnmint
etrocla
etroclaedje
etrocle
etrocler
etude
etur
eu
eucariotes
euge
eun
eune
eupen
euphorbia
eur
eure
eures
eureye
eurit
euro
europaeus
europe
european
euros
eus
euse
eut
eux
euxhant
euxhe
eva
evandji
evandjile
evandjili
evangile
evayeye
evayi
evayixhaedje
evayixhante
eve
eveke
evekes
evenepoel
evenmints
evetchi
evgne
evi
evie
evier
evike
evironmint
evnd
evo
evolaedje
evole
evolucion
evont
evoya
evoyaedje
evoye
evoyeu
evoyeye
evoyeyes
evoyi
evoyive
evrard
ewa
ewaerant
ewaere
ewal
ewaldt
ewaliste
ewalpe
ewalpeure
ewals
ewe
ewoeye
ewou
excel
excelsior
exemple
exhe
exhowe
express
expressions
extre
exupe
ey
eye
eyet
eyou
eyu
ez
eze
ezope
f
fa
fabie
fabrica
fabricaedje
fabricant
fabrike
fabriker
fabrikes
fabrique
fabry
fac
face
facebook
fachisse
fachisses
facteu
facteur
facteurs
facto
faculte
faculteit
fade
faedje
faeroye
faes
fafa
faflote
faflotes
fagne
fagnes
fagnrece
fagopyrum
fagot
fai
faim
faimonveye
faire
fais
fait
faite
faitindjes
faits
faivie
faizan
faizans
fak
fal
fala
falacha
falachas
falco
fale
faleu
faleur
faleut
fali
falijhe
falijhes
falijhou
falot
falou
falu
falwa
fame
famenne
fameu
fameus
fameuse
fameux
fami
famile
familes
famille
fan
fans
fant
fantazia
fants
farawon
farc
farce
farciennes
fare
farene
farenes
farine
farink
farjole
farmac
farmacyin
faro
fas
fasse
fastrou
fat
fau
faubourg
faucon
fauconnier
faulx
faure
faureu
faurot
faus
faut
faute
fauteuy
fauves
faw
fawene
faws
faxhe
faxhes
fay
faye
fayi
fayis
fays
faze
fbi
fc
fe
feature
federa
federal
feie
feies
fel
fele
felene
felerijhaedje
felicyin
felix
feller
felmint
fels
feme
femes
feminisse
femme
femmes
femrin
femrinne
femrins
femur
fena
fenaesse
fenaesses
fene
fenicyin
fenicyins
fennec
fenominne
fer
ferdinand
fere
feri
ferire
ferme
fernand
ferneamont
ferraris
ferrer
fes
fesbok
fesse
fesses
festival
festuca
fet
fetchire
fetchires
feu
feudlisse
feume
feumes
feumme
feummes
feus
feve
fever
feves
fevri
few
fexhe
feydeau
feye
feyes
feyoda
fez
ff
fi
fians
fiant
fias
fibrene
ficcion
fichbaxh
fide
fidel
fidele
fideles
fie
field
fier
fiermint
fiermints
fiers
fiesse
fiesses
fieste
fiesteye
fiesti
fiestis
fiestixh
fiestixhaedje
fiestixhe
fieu
fifine
fig
figne
figueure
fijha
fijhaedje
fijhans
fijhant
fijhe
fijheu
fijheus
fijheuse
fijheut
fijhi
fijhnut
fijhoz
fike
fikes
fiki
fil
file
filer
files
filet
filets
filiberto
filip
filipe
filipenes
filipin
filistins
filles
film
filmaedje
filme
filmeu
films
filolodjeye
filolodjike
filozofe
filozofes
filozofeye
filozofike
filozofikes
fils
fime
fimes
fin
fina
final
finale
finance
finances
financi
findaedje
finde
findou
findu
fine
fineye
finfe
fini
finie
finiesse
finiesses
finih
finihe
finis
finit
finixh
finixha
finixhant
finixhe
finlande
fins
finte
finwe
fion
fioz
fir
fire
firmin
firs
first
firte
fis
fischbach
fistou
fit
fitchi
five
fives
fivet
fixe
fiya
fiyaires
fiyate
fiye
fiyi
fiyou
fize
fizik
fizike
fizikes
fiziks
fiziolodjeye
fje
fjha
fjhaedje
fjhans
fjhant
fjhe
fjheu
fjheus
fjheut
fjhi
fjhoz
fjint
fjot
fl
fla
flabat
flag
flai
flamand
flamande
flame
flames
flamind
flaminde
flamindje
flaminds
flaminete
flamint
flammarion
flammula
flande
flandes
flandre
flate
flates
flauwe
flauwes
flawene
flaxhaedje
flaxhe
flaxhi
flayea
fle
flema
flesch
fleu
fleur
fleurs
fleuru
fleuruzyinne
fleuve
fleuves
fli
flickr
flipe
flipveye
flo
flora
floravile
flore
florefe
florene
florent
floreye
flori
floriconte
floricontes
florifou
florins
florit
florixh
florixha
florixhaedje
flormint
flormints
flotche
flotches
flotchrec
flotchrece
flote
flots
flouhe
flouxhe
floye
floyon
flu
flupe
fluwo
fm
fn
fniesse
fniesses
fo
foclore
foclorike
foclorikes
foclorisse
foe
foete
foetite
foi
foice
foices
foidje
foidjes
foiravant
foirci
foirdji
foirt
foirts
fois
foisti
foistreye
foite
foites
foitmint
foitoujheas
fok
foleye
folk
folklore
fonccion
fonccionaire
fonccionaires
fonccionmint
fonccions
fonce
fonci
fonck
fond
fonda
fondaedje
fonde
fondmint
fondou
fondreye
fondreyes
fondri
fonds
fondu
fone
foner
foneticmint
fonetike
fonetikes
fonfonse
foninme
foninmes
fonne
fonnet
fonnete
fonnetreye
fonolodjeye
fonolodjike
fonse
fonsene
font
fontaine
fonte
fontes
fontin
fontinne
fontinnes
fonts
foot
football
for
forbate
forbot
forboutaedje
force
forcoridjaedje
forcoridjaedjes
forcrexhince
fordjetaedje
fordjeu
fore
foresse
foret
forgeu
forir
forire
formagnance
formagnant
formagnants
formagni
forme
formule
forna
fornaiviaedje
forne
fornea
forneas
forni
forom
foroms
foron
fors
fort
fortchete
fortchetes
forve
forveyou
forveyous
forveyowe
forvuzions
fosfo
fosse
fosses
fossile
fossiles
fost
fotaedje
fotant
fotbal
fotbale
fotbalisse
fotbalisses
fotche
fotches
fote
foto
fotografe
fotografeye
fotografeyes
fotografyi
fotos
fotosinsiu
fototinru
fotou
fou
fougnaedje
fougnaedjes
fougnant
fougnants
fougni
fouhe
foulon
foume
foumer
foumire
foumires
foundation
four
fourez
fouri
fourit
fours
fout
foute
foutu
fouxhe
fouyas
fouye
fouyes
fouyi
fouyton
fouytons
foyants
foye
foyes
foyi
foyin
foyon
foyou
foyous
foyowe
foyton
fr
fra
frac
fraijhe
fraijhes
fraine
fraipont
fraire
frais
fraite
fraiteure
fraiti
frake
framba
framed
framriye
franc
franca
francard
france
frances
francesse
francesses
francijha
francijhaedje
francijhas
francijhi
francike
francis
francisco
franck
francken
franco
francofonreye
francois
francombat
francophone
francoprovinc
francortchamp
francs
francwe
frank
franke
frankinet
franklin
franquin
frans
frantchi
franwal
franwals
franz
franzo
frawtinaedjes
fraziye
fre
frederik
fredrik
free
freelang
freu
freut
frexh
frexhe
frexhi
frexhs
freyeu
freyi
frez
fri
fricasse
friedrich
frigo
frigos
frin
frinne
frise
frisse
fritche
fritches
frites
fritz
frize
frizon
fro
froed
froede
froedeur
froeds
from
fromadje
fromlene
front
frontie
frontire
frontires
frote
froumadje
froumadjes
froumadjrece
froye
froyi
froz
fru
frumele
frumeles
frumint
frumints
frut
frutaedjes
fruts
fruzi
frwe
fs
ft
fu
fuche
fujot
full
fume
fumwe
fungi
furet
furfo
furfooz
furmaedje
furna
fuse
fusse
fut
futeur
futeure
futu
futurrece
fuze
fuzik
fuziks
fuziyi
fwa
fwace
fwaces
fwai
fwaire
fwais
fwait
fwaite
fwaites
fwaits
fwaiye
fwaiynut
fwarci
fwart
fwate
fwe
fwebe
fwin
fye
fyi
fyodor
g
ga
gaan
gabriel
gabrielle
gabriyel
gad
gade
gades
gadji
gadjurre
gadl
gadlete
gadot
gadots
gaeye
gai
gaiy
gaiye
gaiys
gal
gala
galant
galants
galates
gale
galice
galile
galileie
galium
gallimard
gallo
galo
galop
gama
game
gamene
gamin
gamins
gana
gand
gangne
gangni
gant
garadje
garante
garc
garde
gare
gaspar
gaspard
gasse
gastes
gaston
gat
gate
gauche
gauditiaubois
gaulle
gaumais
gaussin
gautche
gauthier
gave
gaviot
gaviote
gaya
gaye
gayel
gayele
gayeles
gayelike
gayels
gayet
gayete
gayets
gayole
gayoles
gaz
gaza
gaze
gazele
gazete
gazetes
gazette
gaziaux
gaztaedje
gazti
gb
ge
geer
geert
geerts
geindra
geluck
genaux
gendarme
gendes
genevie
gens
gent
geoffroy
geois
geoise
george
georges
ger
gerard
gerhardt
gerlache
germain
germaine
germanica
gervy
ges
gesell
gezelle
gh
ghislain
ghys
gi
giacomoni
gianolla
gien
gif
gilbert
gilberte
gillain
gillard
gilles
gillet
gilliard
gilly
gin
gins
gion
gional
gionale
gionales
giorgio
giraud
gis
giuseppe
gje
glace
glaece
glaeces
glaeci
glaireuse
glandes
glands
glate
glawene
gle
gleize
gler
gletaedje
glete
gleter
gli
glije
glime
glin
glinaci
glindisse
glis
glise
globules
gloire
glon
gloriya
glossaire
glote
glou
glumiant
glumiante
glumint
glwe
glwere
gm
gn
gna
gnant
gne
gnenut
gnes
gneu
gneye
gngnos
gni
gno
gnognot
gnome
gnon
gnos
gnu
go
gob
gobe
gobieu
gobtindje
gochliye
god
godefroid
godenne
godfroed
godfrwe
godi
godis
goethals
gofe
goffart
goffin
goffinet
gogh
goidje
goire
gole
golete
goletes
goliate
golza
gompel
gomze
gonfle
gonri
good
google
goosse
gorbatchyov
gordene
gore
gorea
gorge
gori
gorli
gos
gosse
gosselies
gossoncou
goste
goster
gotale
gote
gotes
gotike
gotletes
gotte
gou
gougne
gourdin
gourion
gourmet
gout
goute
goutrou
gouve
gouverneu
gouvi
govie
goviene
govienmint
govienmints
goviernance
govierne
govierner
govierneu
gowi
goydelike
goyet
goyi
goza
gozi
gr
gra
graevi
grafe
grafike
grafikes
graide
grain
gram
grames
grammaire
gramme
gran
grand
grande
grandes
grandeu
grandeur
grandgagnage
grandiveus
grandiveuse
grandiveuste
grandiveuzmint
grandmont
grands
grangreneuse
grangrin
grangrinne
grani
grant
grante
grass
grave
graveu
grawes
gre
grece
grecs
gregne
gregnes
grek
greke
greks
grena
grenier
greta
grete
greter
gretri
gretry
greve
greves
grevesse
grevesses
grevisse
grevisses
grevissi
greye
greyi
gri
grible
grieken
grignard
grigne
grigneu
grignous
grigoryin
grigwere
grijhe
grimm
grin
grinne
grinnes
grinnveye
grins
grintches
gripe
griper
gripete
gris
grisar
griyeus
griyeuse
grizou
groen
grogne
grognon
grond
grope
gros
grosjean
grosse
grosses
grote
grotes
grou
groupe
groupes
growe
growenlande
growes
groxheur
groyinne
gru
grumiaux
grune
gruzales
gruziner
gsm
gt
gts
gu
gubiet
gue
guere
gueres
gueri
gueriya
guernouye
guerre
gues
guetteur
gueu
gueuye
gueuyes
gueyes
gui
guide
guides
guido
guigne
guilin
guillaume
guillemins
guimauve
guine
guita
gurna
gurnadi
gurne
gurni
gurnouye
gurzale
gurzales
gurzeas
gusse
gusta
gustav
gustave
gustin
gutenberg
guy
gwarani
gyi
gzimpe
h
ha
haan
haas
haba
habere
habets
habitants
habitude
hachette
hadok
haerna
haetchaedje
haetchi
haeya
haeyime
haga
hagne
hagneure
hagni
hagnon
hagnons
hagnu
hai
haileye
hainaut
haine
hait
haiti
halal
halazi
halcote
halcoti
halcrosse
halcrosses
hale
halene
halenes
haleu
hall
hallet
halleux
haloe
haloy
ham
hamal
hamblenne
hame
hamea
hameas
hami
hamilton
hamindes
hamoir
hamtea
hamteas
hamwe
hamwer
hamza
han
hancre
handele
hanete
haneu
hanga
hanri
hans
hanscroufe
hant
hantche
hante
hanter
hanteu
hanteus
hanu
hanut
hapa
hape
haper
hapeu
hapeus
happy
harbouya
hard
harlez
harmegnies
harpe
harry
harsin
hart
hartog
harze
hasard
hassan
hasse
hasselt
hat
hatche
hate
hatrea
haust
haut
haute
have
havelange
havet
havlondje
havre
havsin
hawe
hawea
hay
haycou
haycous
haye
hayetes
hayon
hayons
haza
hazale
hazard
haze
hazete
he
hebben
hecq
hector
hedebouw
hegel
hegne
heie
hein
heine
heinrich
heist
helleborus
hena
henault
hendschel
hene
henin
henoumont
henrard
henri
henry
hepatica
hepe
her
herald
herbillon
here
herge
heringer
herleme
herlemes
herlin
herma
herman
hermane
hermelijn
hero
hertchi
herubel
herve
hes
hesbaye
hesbois
hesse
hesses
hesta
hestape
het
heu
heure
heures
heuzea
heuzeu
heuzi
heve
heye
heyerdahl
heyes
heyi
heymans
hez
hi
hiba
hicter
hide
hie
hiede
hierda
hierdi
hiernaux
hike
hil
hillier
hin
hinaedje
hinde
hine
hiner
hinne
hinnot
hinri
hintche
hip
hipe
hippolyte
hisse
histoire
history
histwe
hit
hitler
hiver
hivie
hiyi
hln
ho
hobete
hode
hodimont
hodre
hoensbroeck
holande
holandesse
holandesses
holindje
holly
hologne
home
hommage
homme
hommes
homo
hon
honconk
hondje
hondourasse
hong
hongre
hongreye
hongrwe
hongrwesse
hongue
honneu
honneur
honore
hons
honte
honteus
honteuse
hop
hope
hopea
hopeas
horace
hordeum
horion
hortense
hortensis
hosmint
hosni
hosse
hosseuse
hossi
hosslet
hostin
hot
hotche
hotches
hote
hou
houbart
houbert
houbiet
houbion
houcaedje
houge
hougne
hougnes
houi
houke
houki
houkive
houlot
houlpeas
houmant
houme
houmer
houpe
houpete
houpi
hour
hourd
houre
hourete
hourlea
hourleas
house
houte
houton
houtou
houtous
houwe
houwer
houye
houyet
houyeu
houyeus
houyire
houyires
houyreye
houza
houzaedje
houze
houzeau
houziaux
howe
hoyaux
hoye
hoyou
hoze
hozetes
htm
html
htmlhttps
http
https
hu
huaco
huang
hubert
huche
hugo
hugues
hui
huke
hurard
hure
hutus
hutwe
huy
hy
hye
hypericum
hypocrites
i
ia
ian
ias
iau
ibm
ibn
ichiro
ici
id
ida
idatike
ide
identite
ideyolodjeye
ideyolodjeyes
idintitaire
idintite
idje
idjinne
idole
idoles
ie
ien
ienne
ies
iesse
ieu
ieun
ifri
ighil
igne
ii
iii
ik
ike
iket
il
ila
ile
ilfov
ille
illustrations
illustre
ils
im
ima
imaedje
image
imam
imaudje
imaudjes
imbaras
ime
imeniom
imes
imi
imita
imne
imparfait
impe
imper
imperatif
impire
impires
impo
impossibe
impreu
impreur
impreurs
imprimaedje
imprimateure
imprime
imprimer
imprimeu
imprimreye
in
ina
incipite
incou
inde
indecse
indepindance
indepindant
indepindante
indepindince
indes
index
india
indica
indicatif
indicatifs
indje
indjenieur
indjenieurs
indjes
indji
indjole
indjustice
indo
indonezeye
indou
industreye
industreyes
industriyel
industriyele
indyin
indyins
ine
iner
inf
infe
infele
infie
infier
infineye
infini
infinitif
infinitifs
infirmire
infle
inflouwince
info
informa
information
infos
ing
ingl
ingle
inglesse
inglesses
inglutere
ingredyints
ingue
ingueze
ingui
inima
inkete
inketes
inla
inmant
inme
inmer
inmna
inn
inne
innmi
innmis
inr
insclumi
inse
inseke
insekes
insi
insidon
inspire
institucion
institucions
institut
instruccion
instrumint
instrumints
int
intche
inte
intel
intelectuwels
intere
interessant
interesse
interesses
interieur
international
internet
internete
inteu
intite
intr
intra
intre
intrer
intrez
introduction
intur
inverno
invinta
invite
inze
inzimes
inzotike
io
ion
iowa
ipocalcemeye
ipocondes
ir
irak
irakyins
iran
irans
ircam
ire
ireu
ireut
irhir
iris
irlande
irlope
iront
iroz
irtish
is
isaac
isbn
isi
isidore
islam
islamike
islamisses
isminne
iso
isppc
israe
israyel
israyeli
isse
issoire
ista
istasse
iste
istoricmint
istorike
istorikes
istoryin
istoryins
istvan
istwa
istwe
istwere
istweres
isztime
it
ita
itali
italike
ite
item
iun
iv
ivan
ivanovitch
ive
ivermectene
iveus
ivie
ivier
iviernaedje
iviers
ivwere
ix
ixh
iy
iye
iyea
iyes
iyreye
iys
iza
izer
izlande
j
ja
jacky
jacob
jacqueline
jacquemotte
jacques
jadje
jadjes
jaki
jama
jamai
jamais
jame
james
jamwais
jamwe
jan
janda
jane
janmi
jans
janson
jant
janvier
jany
jate
jates
jauchelette
jdida
je
jean
jeanine
jeanne
jeannine
jeanpierre
jebroer
jef
jel
jele
jeler
jenny
jenre
jenut
jes
jesebel
jespers
jesse
jeu
jeune
jeunes
jfk
jh
jhaedje
jhant
jhe
jhea
jhes
jheu
jhey
jheye
jheyes
jheymint
jheys
jhi
jhinete
jhire
jhires
jhirmint
jhiste
jhmince
jhminces
jhnete
jhni
jho
jhon
jhone
jhones
jhons
jhou
jhous
jhowe
jhret
jhte
jhter
jhu
ji
jiang
jije
jim
jime
jimmy
jin
jine
jins
jisqu
jo
joa
joachim
joan
jodogne
joe
joelants
joenges
johan
johann
johannes
john
johnny
johnson
joje
joke
joli
jon
jone
jons
jordan
jos
jose
joselyne
joseph
josh
jospa
josserand
jot
jou
jour
jourdain
journal
jours
joz
joze
jpeg
jpg
ju
juan
judas
judet
juge
juifs
jule
jules
julie
julien
julos
jumet
june
juniperus
jurassic
jure
jurgen
jusk
jusqu
jusse
jusses
juste
justice
justin
justine
justumint
jwe
jwin
k
ka
kahina
kai
kairi
kajdanski
kamen
kan
kand
kant
karate
karel
karl
karthaus
kasai
katanga
katowice
kde
ke
kebecwe
kebek
kebir
kefir
kegn
kel
kem
ken
kenia
kennedy
ker
kerton
kertons
kes
kesse
kesses
kession
ket
ketchwa
kete
ketes
keu
keur
keure
keures
keute
keuve
kevin
key
kg
ki
kibe
kibin
kick
kickboxing
kicongo
kidu
kidujhance
kidure
kike
kilo
kilome
kilomete
kilometes
kilos
kim
kimande
kimandeu
kimandmint
kimaxhi
kime
kimene
kimere
kimexhe
kimina
kiminc
kimince
kiminci
kimint
kimon
kimons
kin
kinable
kinchassa
kine
king
kiniarwanda
kinohe
kinoxhance
kinoxhe
kinoxheut
kinoxhou
kinoxhous
kinoxhowe
kinoxhowes
kinshasa
kipa
kipagneye
kirsch
kisse
kiswahili
kitaeyaedje
kitaeyi
kitape
kitoirdowe
kivou
kiwi
kixha
kiyev
klaipeda
klasse
klinkenberg
km
kmina
knokke
knoxhou
ko
koksijde
kon
konarski
kong
kosovo
krieg
kriste
ku
kul
kulome
kulturkampf
kurt
kusttram
kwan
kwe
l
la
laatste
label
labo
laboratwere
laca
lace
lacerta
lache
lachi
lacia
lacobe
lacroix
lactarius
lactuca
ladde
laddins
ladje
ladjes
ladri
ladsu
ladvins
laec
laecea
laedje
laensberg
laessoe
laetche
laetches
lafontaine
lafontinne
lafore
lagauche
lagrange
lahaye
lai
laid
laide
laids
laire
lait
laitreye
laiwe
laixhi
laiyi
lak
lake
lale
lales
lalibre
lallemand
laloux
lambert
lambiet
lambillion
lamborele
lamborelle
lambussa
lame
lames
lamium
lampe
lampes
lamproye
lan
lanawaire
lanc
lance
lanchtou
lanci
land
lande
landes
landliye
lane
langenhove
langid
language
langue
langues
lanners
lans
lansbert
lant
lante
lantiene
lantin
lants
lao
lape
lapin
lapins
lardinois
large
larink
larousse
las
lasagna
lasso
lassus
lat
late
latene
latenes
lathuy
lathyrus
latin
latines
latitude
laton
latons
laudje
laudjes
launay
laura
laurd
laure
laurent
lauvau
lavaux
lave
lavenir
laver
laverva
lavoe
lavola
law
lawes
lawosse
laxhe
layka
laza
lazard
lazer
lb
lc
lco
ldimint
ldji
ldjir
le
lea
leas
lebeau
lebierre
lebrun
leccion
lechanteur
lecomte
lecteur
leddimwin
ledjinde
ledjindes
ledjir
ledjire
ledjirmint
lee
lefe
lefebvre
leffe
lefin
left
lega
leglijhe
legrand
legros
legumes
legumineuses
lehaie
leie
lejeune
lejoly
lekeu
leloup
lem
lemai
lemaire
lemint
lempereur
lene
lenes
lenfant
lens
leonard
leopardus
lepage
lepe
lepes
lepidium
lequarre
ler
lere
leroy
lerutte
lerwe
lerweti
lerwetresse
les
lesoir
lesse
lessene
lessinea
lessire
lessive
lesterni
lestin
lesy
let
letare
lete
letellier
leterme
letes
letoneye
lette
lettre
lettres
leu
leuco
leup
leur
leures
leurs
leus
leut
leuve
leuven
leuze
leva
levage
leval
levant
levantrece
levaux
leve
lever
leves
levif
levure
lewin
lewis
lexhe
lexhes
lexhi
lexilogos
lexique
ley
leya
leyans
leyant
leye
leyes
leyi
leyive
leyon
leyone
leyopo
lez
lezi
lfeu
lfeye
lgbt
lh
lheur
li
lia
liards
liban
libe
libera
liberalisse
liberia
libert
liberte
libes
libeye
libiestreye
libike
libin
libins
libmint
libra
libraumont
libre
libreoffice
lice
license
licien
licince
licoine
lidje
lidjwe
lidjwesse
lidjwesses
lie
liege
lien
liene
lierneu
liernu
liesse
lieu
lieutnant
lieux
life
lignant
ligne
lignes
lignouveye
ligue
lijha
lijhaedje
lijhaedjes
lijhant
lijhe
lijheu
lijheus
lijheut
lijhi
lijhoz
lijn
like
liken
likens
likide
likides
lile
lili
liliane
lille
liloe
limbar
limbo
limbordjwe
limbork
limbourg
lime
limerle
limero
limeros
limerotaedje
limerote
limite
limites
limlete
limodjes
limotche
limotches
limpre
limpreur
lin
lina
linaria
linc
lince
lindje
line
linet
linete
linfe
linga
lingadje
lingadjes
lingaedje
lingaedjes
lingala
lingue
linguistique
linkeroever
linkin
linne
linse
lint
lintchamp
lintile
lintiles
linux
linwe
linwes
linwince
linwincieus
linwincieuse
linwistike
linwistikes
lionel
lique
lire
lis
lisa
lisbete
lisbone
lise
lisse
lisses
liste
listerio
liswer
lit
litalo
lite
litera
literaire
literaires
literateure
lites
litt
litte
little
litwane
litwaneye
live
livea
liveas
lives
living
livre
livrer
livret
livrets
livreye
livreyes
lix
lixhe
liyon
liyons
lizer
lje
ljes
ljike
ljique
ll
lla
llach
lle
lles
llui
lmi
lmin
lmint
lmints
lmont
lnut
lo
lobe
loc
loca
locaux
loce
lochno
lodelinsart
lodi
lodje
lodjeu
lodjeus
lodji
lodjike
lodjisse
lodjmint
lodjmints
lodlinsa
lodomez
loe
logo
loi
loigne
loignes
loiseau
loke
lokes
lolium
lolote
loma
lomaedje
lomaedjes
lomami
lomant
lomba
lome
lomer
lomeu
lomeut
lomgne
lomi
lomme
lomnut
lompre
lomre
lon
londe
londi
londis
londje
londjin
londjinnmint
londmwin
long
longleftrightarrow
longou
longous
longowe
longowes
longs
longtemps
longtimps
longue
longues
longueu
longueur
longuie
longveye
lonmint
lonpre
lons
lontchamp
lontimps
lontins
lonze
lonzene
loos
lopen
loque
loques
lora
lorete
loriaux
lorin
lorinne
lorint
loriot
los
losse
lot
lotarindjeye
lotchets
lote
lotes
loto
lou
louca
loucant
louis
louise
louke
loukeye
louki
loukive
louline
loulou
loum
loume
loumer
loumi
loumire
loumires
loumot
loumoumba
loumrote
loup
louque
louqui
lourdes
louvet
louvie
louwate
louwe
louwer
louwete
louwis
louwisse
lovagne
love
lovegne
lovgne
lovin
lovinfosse
lovire
loyaedje
loyant
loye
loyeure
loyeures
loyeye
loyeyes
loyi
loyive
loyminoymint
loz
lozindje
lre
lrece
lrv
lrvs
ls
lsene
ltchanteu
lte
ltot
lu
luc
lucas
luchi
lucien
lucienne
lucsambour
lucy
lucyin
ludivine
ludwig
lugni
lui
luigi
luis
luk
lukaku
lumc
lume
lumerote
lumerotes
lumi
lumie
lumumba
lune
lunes
lunrece
lunreces
lupus
lure
lureus
lureuzmint
lurquin
lursete
lurson
lurtyi
lussimbordjwe
lussimbordjwesse
lussimbork
lustin
lustre
lute
luther
luti
lutreye
lutrubwe
lux
luxembourg
luzance
luzere
lva
lveye
lwe
lweya
ly
lychnis
lycoctonum
lycoperdon
lyi
lyin
lyinne
lyinnes
lyins
lyme
lyre
lyriques
lz
lze
lzeu
lzi
m
ma
maalouf
mac
maca
macaron
macasse
macedwene
mache
machene
machenes
machi
machiavel
machine
machines
machure
maclote
maclotes
macrale
macrales
macrea
macrolides
macsa
macsime
macsimom
mad
madagascar
madame
madeleine
madi
madimba
madje
madjike
madjor
madjorite
madjre
madlinne
madrid
mady
maedje
mafe
mafwe
magazene
magazine
maggie
maggy
magn
magna
magnaedje
magnan
magnant
magnants
magne
magnette
magneu
magneus
magneuse
magni
magnive
magnnut
magonete
magot
magrite
magritte
magriyete
mahi
mahieu
mahin
mahy
mai
maigue
mail
main
mains
mais
maiso
maison
maiss
maisse
maisses
maissin
maitrank
major
majus
make
makete
maketes
makhno
maki
makis
mal
mala
malade
malades
maladeye
maladeyes
maladi
malaizeye
malaparte
malaudji
malauji
male
malene
malet
malete
maleu
malherbe
mali
malin
malins
malle
mallorca
malme
malmedy
malo
malonne
malplake
malt
malte
malthus
maltusse
malva
malvestiti
mam
mama
maman
mambe
mambor
mambornance
mambour
mame
mamer
mames
mami
mamite
mamites
mamjhele
mammife
man
mana
manadje
manaedje
manaedjes
manaedjeu
manaedjeye
manaedji
manaedjmint
manc
mancance
manci
mand
manda
mandarin
mandat
mande
mandela
mander
mandes
mandos
mane
maneu
manfred
mangon
mangonreye
manhe
mani
manie
maniema
manifesse
manike
manire
manires
manke
manneste
mannet
mannete
manni
mannixhance
mano
manouwe
manoye
manoyes
manque
mansa
mantche
mantches
mantchi
mantchu
mante
mantea
manu
manuel
mao
map
mape
mapes
maps
maque
maquet
mar
mara
marabout
maraexhe
marakech
maraton
marbe
marbu
marc
marca
marce
marcel
marcele
marcelle
march
marchal
marchand
marche
marchi
marchienne
marchot
marck
marco
marcote
marcou
marcour
mardjo
mardjoseuf
mare
marechal
maredret
maredsou
mareie
marek
marene
maret
mareu
mareye
margaye
margayes
margayi
margougnaedje
margougni
marguerite
mari
maria
mariadje
mariaedje
mariaedjes
mariage
marian
marians
maricica
marie
marier
mariette
marieye
marimont
marin
marinde
marine
mariner
marins
mario
mariolinne
marionetes
marique
marius
marixha
mariya
mark
marke
marker
markes
marlanwe
marmite
marneffe
maroc
marok
marokin
marokinne
marokins
maron
marone
maroye
marque
marquer
marquet
mars
marseye
marseyesse
martchand
martchandeyes
martchandijhe
martchandijhes
martchands
martchi
marte
martens
marti
martial
martin
martine
marx
marxisse
marxmuller
marye
maryi
mas
masbor
masca
mascara
mashale
mashales
massa
massale
massales
massart
massaux
masse
masses
masset
masseur
massif
massimo
massin
masson
massonet
master
mastoke
mastokes
mat
matagne
matante
matantes
match
matche
matchurea
matchureas
mate
matematike
matematikes
matematiki
matene
matenes
materia
materiel
materio
mathelard
mathi
mathieu
mathot
mati
matie
matile
matin
matine
matire
matires
matons
matoufe
matrece
matrice
matterne
matthieu
mau
maubeuge
maudoux
maugre
maujo
maujon
maujone
maujones
maule
maurice
maurizio
maus
mauvais
mawe
maweur
maweures
mawori
maworis
mawoumet
mawyi
max
maxhaedje
maxhe
maxheye
maxhi
maxhure
maxime
maximilien
may
maya
mayane
maye
mayence
mayes
mayet
mayeu
mayeur
mayeurs
mayisse
mayni
mayon
mayot
mayte
mazi
mazindje
mazinger
mazoute
mb
mba
mc
mcl
mdey
mdi
mdiy
mdiyin
mdiyinne
me
mea
meas
mecanike
mecanikes
mecanisse
mecsico
mecsike
med
meda
medaye
medayes
medce
medcene
medene
media
medias
medica
meer
megue
mehins
meke
mel
melchior
mele
meles
melet
melin
meliye
melkebeke
mellah
mellifera
melodeye
melolontha
memel
memwere
memweres
men
mence
mendeleyev
mene
menes
menirs
ment
mentha
ments
mer
merance
merci
mercier
merck
merckx
mere
meres
merite
mermoite
merovindjins
mers
merveye
merveyes
mes
mesbridji
meskene
messaedje
messaedjes
messaedji
messanceye
messe
messes
messeye
messi
mesti
mestique
mestiques
mestre
met
meta
metaedje
metal
metalurdjeye
metans
metant
metchanste
metchant
metchante
mete
metes
metet
meteu
meteut
meteyo
meti
metingue
metingues
metnut
meto
metou
metous
metowe
metowes
metoz
metre
metro
mets
mette
metten
metti
mettou
mettre
mettu
metz
meu
meube
meubes
meulemans
meumeures
meunier
meur
meure
meurer
meurice
meurisse
meurs
meus
meuse
meute
mexhne
meye
meyes
meyeu
meyeumartchi
meyeus
meyeuse
meyeute
meyi
meynaire
meynute
meyon
meza
mezeure
mezzadri
mg
mgoun
mhnt
mi
mia
miceliom
michael
michaux
miche
michel
micheli
mici
micolodjeye
micoplasses
micro
microbe
microbes
micromania
microscopike
microscopikes
microsoft
middelkerke
midi
midjote
mie
miercopete
miercorin
mierdjin
mierdjins
miere
mierkeure
mierkidi
mierpi
mierseu
mierseule
mierseus
miersipepieuzmint
miete
mietes
miette
mieux
mignolet
mignon
mignons
mik
mike
milan
mildiou
mile
miles
milices
milimetes
milita
militaire
militaires
militant
mille
millions
millot
milo
mimbe
mimbes
mime
mimile
min
mina
minc
mince
minci
mincion
mindgi
mindje
mindji
mine
miner
minera
mines
minet
mineu
mineur
minez
mini
minimom
minires
minisse
minisses
ministere
ministeres
minme
minmes
minmin
minne
minorite
minre
minreye
mins
mint
mintche
minte
mintes
minteus
minti
mintire
mintni
minton
mintrece
mintreces
mints
minuit
minute
minutes
mira
miragoli
miranda
miraukes
mirbeau
mire
miroe
mirwa
mis
mise
misse
mission
missions
mississipi
misterdam
misteres
mita
mitan
mitant
mitch
mitcha
mitchi
mitchot
mitchots
mitchrou
mite
mitolodjeye
mitrinne
mixhail
mixhaylovitch
miya
miye
miyin
miyo
miyon
miyons
miytaedje
mizere
mizeres
mizrete
mizuki
mlet
mm
mme
mnujhi
mnujhreye
mnut
mo
moche
moches
mod
moda
modaedje
modave
mode
modele
modeles
modes
modesse
modeste
modiene
modienes
modolo
modrikamen
moe
moenna
moennaedje
moennance
moenne
moenner
moennes
moenneu
moenneus
moenneuse
moennre
moennrece
moens
moes
moeti
mofes
moflasse
mohamed
mohammed
mohe
mohon
mohone
mohones
mohonne
moi
moins
moir
moirci
moirmont
moirt
moirti
moirts
mois
moite
moites
mojo
mol
molaedje
moldaveye
mole
molecule
molecules
molete
molie
moligne
molin
molins
moll
molon
molons
molou
molusses
moman
moment
momint
momints
momo
mon
monaco
monaux
monbia
monce
moncea
monceas
monceau
moncha
moncheu
moncia
moncrabeau
monde
mondes
mondia
mondjoye
mondju
mone
monfwa
mongala
mongol
mongoleye
mongols
moni
monike
monique
moniteur
monkeur
monne
monnes
monni
monoloke
monolokes
monon
mononke
mononkes
monoteyisses
mons
monse
monseu
monsieu
monsieur
monsieus
monsigneur
mont
monta
montaedje
montagne
montagnes
montagu
montana
montant
montants
monte
montellier
montenegro
monter
montes
monteu
montez
montgneye
monti
montignies
montinne
montinnes
montneye
montniye
montnut
montre
monts
montwe
monument
monumint
monumints
mopliyaedje
mopliyi
moquer
mora
moraedje
morale
morance
morayns
morceaux
more
morea
moreau
morer
moresnet
morete
morfinmes
morfolodjeye
mori
morice
moritanreye
moritz
mormont
morniye
morou
mort
moru
moscou
moske
moslimi
mosse
mossea
mosseas
mosses
mossiat
mossieu
mossoul
mosta
moste
mostenne
mostere
mosternut
mosti
mostra
mostraedje
mostrant
mostre
mostrer
mostri
mot
motacilla
mote
moteu
moteur
moteurs
moti
motli
moto
motocross
motoit
moton
motons
motos
motrece
motrice
motrices
mots
mottard
mottet
motyince
mou
moubarek
mouche
mouches
mouchon
mouchons
mouchwe
moucron
moude
moudes
moudre
moudreu
moudreus
moudri
mougnans
mougnant
mougne
mougni
mouhagne
moulai
moule
moulet
moulete
moulets
moulin
moulot
moultea
mouma
moumint
moumints
mouni
moure
moureau
moureaux
mourre
mourt
mouscron
mousmint
mousmints
moussa
moussant
mousse
moussemint
moussemints
mousser
mousseu
mousseure
mousseures
mousseye
moussi
moussive
moustatche
mousti
moustrer
moutara
moutchwe
moute
mouth
mouv
mouvement
mouvmint
mouvmints
mouwe
mouwea
mouwer
mouyeye
mouzaive
mouze
mouzes
mouzon
mowas
mowe
moxhe
moxhes
moxhet
moxhets
moxhi
moxhnire
moxhon
moxhons
moyale
moye
moyen
moyene
moyeye
moyi
moyin
moyina
moyins
moyisse
moyou
mozale
mozart
mozet
mozete
mr
mreye
mson
mt
mtet
mu
mucheye
muchi
muchyi
mucyin
multocida
mundart
municipa
munixh
munujhi
munujhreye
munute
munutes
muralis
muraye
murayes
murea
mures
muret
muri
muroe
murwe
mus
muse
music
musique
musse
musses
mussolini
mustea
mustela
musti
mutien
mutwe
muze
muzea
muzeure
muzeures
muzica
muzicyin
muzicyins
muzike
muzikes
muzulman
muzulmande
muzulmandes
muzulmane
muzulmans
mwa
mwai
mwaijhe
mwaireye
mwais
mwaisse
mwaisses
mwaistresse
mwaistri
mwaistrijhe
mwaiye
mwaiyes
mwami
mwars
mwart
mwarts
mwasse
mwate
mwe
mwelons
mwin
mwinni
mwinre
mwinrne
mwins
mwinte
mwintes
mwints
my
mycobacterium
mycoplasma
myeu
myosotis
mzeure
mzeures
mzuraedje
mzure
mzurer
n
na
naar
nac
nachi
naci
naciona
nadine
nadje
naedje
naedjes
nafraiteure
nai
nait
naivia
naiviaedje
naivieus
naivuron
naivyi
nale
naler
nam
name
nametche
nameu
nameur
namibeye
namur
namurois
namuroise
namurwe
namurwesse
nance
nances
nanches
nancy
nandrin
nanene
nanesse
nannez
nant
nante
napole
napoleyon
narcissus
nare
narene
narenes
nareus
nas
nasa
nasser
nassogne
nat
natacha
nateure
nathalie
natif
natifs
nation
national
nationale
nationalisme
natistiscope
native
natole
natural
nature
naturel
naturele
natureles
naturelmint
naturels
nau
naud
nauje
nauji
navea
naveas
navire
nawatl
nawe
nawea
nawearinne
nawes
naye
nayo
nazi
nazia
nazis
nazisse
ncia
ncwante
ncwantinne
ncweme
nd
ndale
ndaler
nde
nder
ndie
ndimint
ndje
ndjes
ndjin
ndjins
ndjole
ndjoles
ndjolijhi
ndjolike
ndjolikes
ndombe
ne
nea
neas
nederlands
nefe
negue
neige
nel
nelson
nen
nene
neni
nenni
nent
nepal
ner
nere
neruda
nervyins
nes
nesse
nestor
net
nete
netieure
netyi
neu
neuf
neufcha
neufort
neur
neus
neuse
neut
neute
neutes
neutra
neuville
nevada
neveu
neveuse
new
news
newton
nexhance
nexhou
neya
neye
neyerlande
neyerlandesse
neyi
neyo
nez
nfjhance
ng
nga
ngt
nh
ni
nia
niccolo
nice
niche
nichte
nicion
nick
nicolai
nicolas
nicole
nicolet
nicot
nicotiana
nid
nidjer
nidjeria
nie
nier
nierolodjeye
nieron
nierons
niers
nierveus
nies
niestle
nietzsche
nieu
nieuwpoort
nieuws
niger
night
nigra
nigrum
nil
nin
nindje
ninja
nint
ninte
nintendo
nir
nis
nisse
nite
nitince
nitrodjinne
niu
nivalis
nivaye
nive
nivele
nivelles
nives
niya
niye
nk
nket
nkinme
nkinne
nl
nme
nmint
nn
nne
nnes
nni
no
nobe
nobel
nocre
node
nodidjo
nodwe
noe
noejhe
noejhes
noejhi
noer
noera
noere
noeres
noereur
noers
noersipene
nohance
nohe
nohou
noi
noice
noices
noir
noire
nol
nole
noleva
nolle
nolu
nom
nombe
nombes
nombre
nome
nomme
noms
non
nona
nonante
nonde
nonke
nonna
nonne
nonnrece
nor
nord
nordpresse
nore
noret
norma
normal
normand
normandeye
north
norvedje
norvedjin
nos
noss
nosse
nost
noste
not
nota
notant
notdji
note
noter
notes
notez
notre
notru
notule
notules
nou
nouf
nouk
nouri
nouriteure
nourixhe
nourixhince
nourixhmint
nous
nouv
nouve
nouveau
nouveaux
nouvelle
nouveye
nouvia
nouvinme
nouwe
nouzome
nouzomes
nova
nove
novea
noveas
noveate
novel
novelan
novele
noveles
novelle
noveye
novia
novias
novice
novimbe
now
nowe
noyaedje
noye
noz
noze
nozo
npo
nq
nr
nrade
nranva
nrdi
nre
nrece
nreut
nreye
nrk
nront
nroz
ns
nsa
nse
nson
nss
nt
nte
ntes
ntosse
nu
nuance
nuit
nuk
nuke
nuks
nule
numa
nume
nur
nus
nut
nute
nuteie
nutes
nuteye
nuvie
nuxhe
nva
nvite
nvnowe
nwa
nwasab
nwe
nxhe
ny
nynorsk
nyns
nze
nzinne
o
obama
obe
oblast
oble
oblidje
oblidjeye
oblidjeyes
oblidji
obliga
obligatwere
obres
observatoires
obus
oca
occidentale
occidinta
occitan
occitano
oceyan
oceyaneye
oceyans
ocgniye
oci
ocsidjinne
octa
octave
octet
octets
octo
octobe
ocupa
ocupaedje
ocupaedjes
ocupants
ocupe
ocuper
ode
oder
odeu
odeur
odile
odio
odios
odiovizuwele
odji
odorata
odore
oe
oen
oeuvre
oeuvres
of
ofagne
office
officinale
officinalis
offs
ofice
ofices
ofici
oficir
oficire
oficires
oficirmint
oficirs
ofinsive
ofrande
ofri
ofrixh
ofrixhaedje
ofru
ofs
oh
ohchr
ohe
ohin
oho
oi
oidje
oidjes
oignies
ois
oise
oiseaux
oiste
oister
oize
oizeur
oizires
oizou
ok
oke
ol
olande
old
oleracea
oli
olimpike
olimpikes
olive
olives
olivi
olivier
olt
olyinne
olyinnes
olympic
olympique
olympiques
om
omar
ombe
ombion
ombrelires
ombri
ombrire
ome
omer
omes
omofone
omofones
omofoneye
omonime
omonimes
omonimeye
ompre
omrin
omrinne
omrins
omsk
on
onard
onc
once
one
onele
oneu
oneur
oneurs
onglet
onglete
ongletes
ongues
onie
onk
onke
onks
online
only
onorer
onque
ons
ont
onte
ontes
ontieu
onu
onvoltooid
onz
onze
oo
oostduinkerke
oostende
op
opagne
ope
open
openoffice
opensuse
opera
operaedje
operance
operer
operete
operetes
ophangen
ophile
opinion
opo
opold
opposition
or
ora
oraedje
oraedjes
oran
orandje
orandjes
oraye
orayes
orban
orbite
orchimont
orchis
orci
ordinaire
ordinaires
ordinairmint
ordinateur
ordonance
ore
oreye
oreyes
orfulinat
org
organe
organes
organisses
organiza
organize
orge
oridjene
oridjenes
oridjina
orient
origine
origines
orire
orkesse
orlando
orle
oro
orobantche
oronde
orondes
orthographe
ortodosse
ortodosses
ortografeye
ortografeyes
ortografike
ortografikes
ortografyi
os
oscar
osmunda
ospice
ospices
ospita
osse
osselet
ossi
ossu
ostaedje
ostaedjes
ostant
oste
ostetrike
osti
ostinde
ostraleye
ot
otan
otdja
ote
otel
otels
otes
oteur
oteurs
otjacques
otman
oto
otobiyografeye
otobiyografeyes
otobiyografike
otobusse
otoman
otomans
otomaticmint
otomatike
otomatikes
oton
otonome
otonomes
otonomeye
otopseye
otorite
otoriza
otorote
otos
otostra
otovoye
otriche
otrichyin
otrichyins
otruche
otruches
ott
ottant
otto
ottt
otw
ou
oubangui
oube
oucha
ouchas
ouci
oucial
oucrinne
oucrinnwe
oucrinnyin
oucrinnyins
oude
oudobe
oudon
oudonbe
ouele
ouest
ouf
oufalijhe
oufet
oufti
ouga
ouganda
ougre
ouh
ouhe
oui
oujhea
oujheas
oujhene
oujhenes
oula
oulote
oume
oumes
oumeur
oupa
our
ouri
ourit
ourougway
ouroundi
ourteyes
ourthe
ous
out
oute
outlet
ouve
ouves
ouwed
ouwer
ouwess
ouxh
ouxhe
ouxhs
ouy
ouya
ouye
ouyes
ouyrece
ouys
ouzbekistan
ov
over
overe
overnut
ovi
ovis
ovra
ovradje
ovradjes
ovraedje
ovraedjes
ovrance
ovrant
ovrante
ovre
ovrer
ovreus
ovri
ovrire
ovrires
ovroe
ovroes
ovtt
owe
oxh
oxhea
oxheas
oy
oya
oyant
oye
oyeut
oyez
oyi
oyon
oyons
oyou
oyowe
oyowes
oyoz
oyu
oz
oze
p
pa
pablo
pac
pace
pachi
pachis
pacifike
paco
pacte
pacyin
pacyince
pad
padeco
padri
padvant
padzeu
padzo
paedje
paf
page
pages
pai
paile
pain
painblanc
pair
paire
pairyi
paix
pake
paket
pakets
pakistan
pal
pala
pale
pales
palestene
palestini
palete
paletot
palijhou
palivole
palte
paltot
palustre
palustris
palw
pan
panama
pandje
pane
panea
paneas
panes
panf
pani
panne
panorama
pans
panse
pansreye
pant
pantalon
pantere
pantografe
panzer
panzerfaust
panzers
papa
papaver
pape
papi
papis
papou
paquay
paque
paquet
par
para
parabole
paraboles
paradis
parafilaria
paragway
paralizeye
paraplu
parc
parce
pardon
pardone
pardoner
pardonne
pare
pareie
parer
paret
parexhe
parexhnut
parexhou
parexhous
parexhowe
parey
pareye
pareyes
pareymint
pareys
parfait
parfond
parfonde
parfondeu
parfondeur
parfonds
parfondveye
parint
parintaedje
parinte
parintrece
parintreces
parints
paris
parizel
park
parks
parlement
parler
parlers
parmentier
parmine
paroe
paroeze
paroisse
parole
paroles
parpinse
part
parti
partie
partij
partot
partout
party
parve
parvina
parvinou
pas
pascal
pask
paske
paskeye
paskeyes
paski
pasku
pasmint
pasmints
pasnut
pasqu
pasque
pasqui
pasre
pass
passa
passadje
passaedje
passaedjes
passans
passant
passe
passer
passete
passetes
passeu
passez
passi
passion
passive
past
pasteur
pasteure
pasteurella
pasteures
pata
patate
pate
pates
patiniye
patois
patrake
patreye
patrice
patrick
patrimoenne
patriyotike
patron
patrone
patrons
pattava
patwe
pau
pauje
paul
paulo
paulus
paurt
paurtadji
paurti
paus
paut
pautot
pauve
pauves
pauvre
pave
paw
paxhe
paxhi
paxhis
paxhna
payaedje
payant
paye
payele
payelinne
payi
payinne
payins
payis
payive
payizaedje
payizan
payizans
paymint
pays
paysans
paze
pazea
pazeas
pbb
pcc
pcd
pdf
pe
pea
peas
peautre
peces
peche
pecle
peclers
pecti
pedro
pegnon
peintre
peiper
peke
peket
pekets
pekin
pelake
pele
peler
pelete
peletes
pelinne
peloe
pelote
pelrins
peme
pemes
pemi
pen
penas
pendant
pene
penes
peneus
peneuse
penicilene
penicilenes
penin
penitince
penitinces
penleu
pensilvaneye
pepin
pepinster
per
peraux
perce
pere
peres
perfect
peri
periki
periode
periodike
peritoenne
perlin
perlinaedje
perlinaedjes
perlins
permeta
permete
permeteut
permetnut
permetou
permetro
permis
peron
perone
perou
perrault
persona
persone
personne
personnes
persounaedje
persounaedjes
perwe
perwez
pes
pesse
peta
petaedje
petales
petches
petcheur
petchi
pete
peter
peterhansel
petersbork
petit
petite
petits
petra
petrea
petrez
petria
petrodola
petrole
peturon
peu
peuket
peul
peuls
peumon
peumoneye
peumons
peupe
peupes
peupla
peuple
peuprece
peur
peure
peurmint
peus
peut
pexhe
pexheu
pexheus
pexhi
pexhon
pexhons
peye
peyo
pez
pezant
pezante
pezants
peze
pezer
ph
phane
pharisiens
phe
philippe
phillips
philologie
phine
phir
phone
photos
php
phu
pi
pia
piaedje
piaf
piano
piant
pias
pib
pic
pica
picard
picas
pice
pices
piceure
piceures
piceye
pici
pickering
picote
picots
picron
picrons
picsel
picsels
pid
pidjes
pidjon
pidjote
pids
pie
pied
piede
piele
pieles
pierard
pierda
pierdant
pierde
pierdou
pierdous
pierdowe
pierdowes
pierot
pierrard
pierre
pierret
pierrot
piersan
pierwe
pierzin
pietaire
piete
pietes
pietkin
pieton
pietris
piette
pieu
piges
pijama
pike
piker
piket
pikete
pikets
pikeure
pikeures
pila
pile
pilipili
pilote
pin
pind
pinda
pindant
pindante
pindants
pinde
pindeut
pindou
pindous
pindowe
pindowes
pine
pingne
pingneye
pingni
pinochet
pinon
pins
pinsa
pinsans
pinse
pinser
pinses
pinseu
pinsez
pinsi
pinsion
pinsione
pinsions
pinsnut
pinson
pinsoz
pintcosse
pinte
pintes
pinteure
pinus
pinyin
piole
pion
piou
pipe
pipsak
pipsaks
pique
piramides
pire
pirene
pires
piret
pirete
piretes
pirlodje
piroe
piron
pirot
pirreye
pirson
pirsoul
pis
pisse
pisses
pistolet
pistorius
pitchote
pitchou
pite
piter
pitie
pitit
pitite
pitites
pitits
pitizeye
pixha
pixhe
pixhele
pixheye
pixhi
pixhlote
pixhrece
piyano
piye
piyi
piyote
piyotes
pl
pla
plaas
plac
place
placer
places
pladje
plaec
plaece
plaeces
plaeci
plaene
plafond
plai
plaije
plaijhance
plaijhanmint
plaijhant
plaijhante
plaijhi
plaijhis
plaiji
plaire
plaisi
plaisir
plait
plake
plaker
plakes
plamor
plamour
plan
plane
planete
planetes
planke
plans
plantago
plantche
plantches
plantchi
plante
planter
plantes
plaque
plastik
plastike
plastikes
plat
plate
platea
plateas
plateau
platene
platezak
platfo
platon
platre
plats
play
playe
playstation
ple
plein
pleu
pleur
pleus
pleut
pli
plic
plik
plin
plind
plinde
plinne
plinnes
plinniste
plins
plint
plinte
plo
ploc
plok
plokes
ploketes
plomb
plome
plomes
ploncaedje
plonk
plonke
plonker
plonki
plope
plopes
plore
plorer
plot
plou
plouma
ploumaedje
ploumes
ploumion
ploure
ploureut
plout
plouve
plouves
plouze
plovinete
ploye
ployi
ploz
plu
pluctaedje
plume
plumes
plurial
pluriyal
pluriyals
plurizeye
plus
plusieurs
pmint
png
pnr
po
pob
poche
pocviru
pocwe
podbon
podri
poe
poelvoorde
poenne
poennes
poere
poeres
poeri
poes
poeve
poice
point
poirt
poirta
poirtaedje
poirtant
poirte
poirter
poirteu
poirteus
poitchrece
poite
poites
poize
pokes
pol
pola
polaire
polans
polant
pole
polenes
polet
polets
poleu
poleur
poleut
polez
poli
police
polici
policire
policresse
polin
polinezeye
polinezyins
polipo
polissario
polite
politicmint
politicresse
politike
politikes
politiki
politique
politiques
politki
polnut
pologne
polone
polou
poloz
polu
polygonum
polyporus
pomes
pompe
pompi
pon
ponaedje
ponant
ponantrece
pond
pondante
pondants
ponde
pondeu
pondeure
pondeures
pondeus
pondlo
pondou
pone
ponnes
ponnut
ponou
ponre
ponresses
pons
ponse
pont
ponte
pontes
pontiaedje
ponts
pop
popa
pope
popenes
poplineau
popula
populaire
populaires
population
populus
poque
poquoi
poqwe
poqwoi
por
porai
porc
porce
porcession
porcintaedje
pordjet
pordjets
pore
porea
poreas
porion
pormin
pormoenna
pormoenne
pormoenner
pormoenneu
pormoenneus
porshu
porshure
porshuve
porshuvou
porsu
portant
porte
portici
porto
portrait
portraits
portugal
portugue
portuguesse
pos
pose
position
posse
posses
possibe
possibes
posson
possube
post
posta
poste
posteure
posteures
pot
potale
potcha
potchaedje
potchas
potche
potches
potchi
pote
poti
potier
potiket
potince
pots
pou
pouce
pouces
pouche
poude
pougn
pougna
pougne
pougnet
pougneye
pougneyes
pougni
pougns
poujha
poujhe
poujhi
poujhon
poul
poupa
poupe
pouphan
pouqwe
pour
pource
pourcea
pourceas
pourcia
poure
poureu
poureye
pouri
pouris
pourot
pourquoi
pourtant
pous
pousqui
pousse
pousses
poussi
poussire
pout
poutine
pouvoir
pouvwe
pouvwer
pouxhance
pouxhances
pouxhant
pouye
pouyes
povwer
povwers
powete
powetes
powetike
powetikes
powezeye
powezeyes
powinme
powinmes
poy
poyaedje
poyaedjes
poye
poyes
poyete
poyetes
poyi
poyon
poyons
poyou
poyowe
poys
poytreye
poytreyes
pp
pr
pra
prandje
prandjire
prandjloe
prate
pratense
pratensis
praticants
pratike
pratikes
pratique
pratiques
pre
preca
prefere
preferince
preficse
premi
premie
premier
prendre
presentation
presga
president
press
presse
presses
pression
pretchaedje
pretchaedjes
pretche
pretcheu
pretcheus
pretchi
pretchmint
pretchmints
pretinde
pretins
preu
preud
preumi
preyale
preye
preyea
preyistwere
prezidince
prezidint
prezidinte
prezidints
prezince
prezint
prezinta
prezintaedje
prezintant
prezinte
prezinter
prezintoe
prezintoes
prezintrece
prezintreces
pri
prie
priesses
prigneaux
prii
prijhe
prijhni
prijhon
prijhons
primaire
prime
primo
primula
prin
prince
princes
princesse
princesses
principa
principale
principe
prind
prinda
prindaedje
prindans
prindant
prinde
prindeut
prindez
prindi
prindnut
prindou
prindoz
prindre
prinds
prinjhe
prinjhes
prins
pris
prise
pritchett
prive
prix
priya
priyaedje
priye
priyesse
priyesses
priyeu
priyeure
priyi
priyire
priyires
priynut
priyure
pro
proba
proble
problinme
problinmes
proce
proclama
proclame
procureu
produ
produccion
produjhaedje
produjhe
produjheu
produjheus
produre
produt
produts
prof
profe
professeur
professeurs
profete
profetes
proficiate
profit
profite
profiter
profs
programe
programes
progre
project
prome
promete
prometou
pron
pronnes
pronni
prono
prononc
prononce
prononceye
prononci
prononcive
pronos
propagande
prope
properties
prophe
propo
propos
proprie
prosper
prote
protedji
protestant
protestante
protestantisse
protestants
proteyenes
protocole
protostrongues
protozowaires
prou
prouve
prouves
prov
provance
prove
prover
proverbes
providance
providence
province
provinces
provincia
provizwere
provnance
provnant
provne
provneut
provni
provoke
proye
proyes
proyli
pru
prume
prumi
prumiou
prumire
prumires
prumrece
prumreces
prunes
prunus
pruste
pruster
prusti
prustixh
prustixhaedje
prwaji
pryor
ps
psa
psc
pseudoplatanus
psi
pt
ptb
ptchi
pte
pter
ptete
pti
ptit
ptite
ptites
ptits
ptizeye
pu
pub
public
publications
publicite
publifin
publik
publike
publikes
publiks
publiyeye
publiyi
puce
pucele
puch
pudnut
pudre
puerto
puis
puissant
puits
pules
pupa
pupe
pupes
pupont
purade
purda
purdant
purde
purdeu
purdeut
purdoz
pure
pureure
puriveus
purnale
purnales
purnali
purne
purnea
purneas
purpurea
purte
pus
pusieu
pusk
puski
pusqu
pusqui
puss
pusse
put
pute
putete
puto
putoit
putot
puvite
puzieure
puzieurs
pwa
pwaire
pwaires
pwarte
pwarter
pwate
pwe
pwel
pwels
pweti
pwetrene
pweturlin
pwezon
pwezons
pwi
pwin
pwins
pwint
pwinte
pwints
pwis
px
pyi
pyrrhocorax
q
qu
qua
qualifie
quand
quant
quarante
quartier
quartz
quasimint
quate
quates
quato
quatre
quatwaze
quausu
que
queen
quefi
quel
quelle
quelque
quelques
quer
quercus
quernol
quertinmont
ques
question
questions
quet
queue
quevrain
qui
quinet
quint
quinze
quipe
quipes
quite
quoi
quotidien
quu
qwa
qwai
qwand
qwate
qwe
qwite
qwitte
qwoe
r
ra
rabane
rabat
rabate
rabatou
rabatu
rabaxhant
rabins
rabiyi
rabot
raboulets
raboze
rabre
rabressi
rabroke
rabroker
rabule
rabulets
rac
raca
racafougni
racawer
race
rachid
rachone
racine
raclairi
raclo
raconta
racontaedje
racontaedjes
racontant
raconte
raconter
raconteu
racontrece
racontrou
racou
racoulot
racourti
racourtixhnut
racrapote
racrole
racsegne
racsegnes
racuze
racwe
rad
rada
radaptaedje
radapte
raddimint
rade
rademint
radica
radicale
radin
radio
radiofonike
radios
radje
radjes
radjond
radjonde
radjou
radjoutaedje
radjoutant
radjoute
radjouter
radmint
radon
radou
radoux
raece
raecene
raecenes
raeces
raecine
raecisse
raedje
raedjes
raeren
raes
raetchi
raetchon
raeze
raezete
raezoe
rafiya
rafiyants
rafiyi
rafoirci
rafoircixhante
rafroedi
rafroedixhmint
rafu
raglenaedjes
ragrandi
ragregni
rahouca
rahoucaedje
rahoucant
rahoucas
rahoucrece
rahouke
rahouki
rai
raidje
raidji
rain
raire
rais
raison
rait
raiwaedje
raiwe
raiwer
raiwi
rak
ral
rala
ralaedje
ralant
rale
raler
raletchi
ralfabetijhaedje
ralfabetijhi
rali
ralo
ralongui
ralonguixhmint
raloyaedje
raloye
raloyeye
raloyeyes
raloyi
ramadje
ramadjes
ramassaedje
ramasse
ramasser
ramdam
ramdinne
rame
rames
ramessaedje
ramexhnaedje
ramexhne
ramexhner
ramin
ramine
ramoenne
ramoenner
ramon
ramonc
ramons
ramoux
ramouyi
rampa
rampe
rampiou
rampono
ramuz
ran
ranc
rance
rancene
ranfo
rang
ranger
ranonkes
rans
ranse
ransonnet
rant
rante
ranteule
rantissi
rantoele
rantoeles
rantwe
ranunculus
raoul
rap
rapa
raparexhaedje
rapauji
rape
rapele
rapexhi
raphae
rapi
rapia
rapici
rapide
rapinse
rapinser
raple
raplou
rapo
rapoirt
rapoirtaedje
rapoirtaedjes
rapoirte
rapoirter
rapoirts
rapoite
rapoitrou
rapontyi
rapou
rappeu
rappigne
rapport
raprinde
raprindisses
raprotchi
raptitixha
raptitixhaedje
raptitixhante
raptitixhants
rapurer
rapwa
rard
rarindji
rarive
rariver
ras
rascod
rascoda
rascodaedje
rascode
rascodou
rascodous
rasconte
rascontere
rascontre
rascourti
rascove
rascovere
rascovre
rascovri
rascovrou
rascoyi
rascra
rasgotaedje
rasgoutadje
rashi
rashiaedje
rashiou
rashious
rashiowe
rashiowes
rashir
rashonna
rashonnaedje
rashonnant
rashonne
rashonner
raspepyi
raspouyi
rassan
rasse
rassemblement
rassiekes
rassonle
rassonraedje
rassonre
rassonrer
rasta
rastampe
raste
rastini
rastinre
rastinrece
rastrind
rastrindaedje
rastrinde
rastrindou
rastrindous
rat
ratacaedje
ratake
rataker
rataque
rataquer
ratayon
ratayons
ratchcou
ratche
ratchitchi
ratchte
ratchter
rate
rater
rates
rathme
ratind
ratindant
ratinde
ratindeu
ratindeut
ratindnut
ratindou
ratindoz
ratio
ration
ratna
ratni
rato
ratou
ratourna
ratournaedje
ratournaedjes
ratournaire
ratournant
ratourne
ratourner
ratourneu
ratourneure
ratourneures
ratourneus
ratrape
ratraper
ratrople
rats
rature
ratuzer
rau
rauyi
rava
ravale
ravaler
ravanci
rave
ravel
raveline
raveur
ravicaedje
ravicantisses
ravike
raviker
ravize
ravizer
ravo
rawa
rawai
rawaite
rawaiti
rawe
rawete
rawetes
rawiants
rawijhi
raxhon
ray
raye
rayes
rayi
raymond
raynaud
rays
razane
razans
razouye
razouyi
rb
rba
rbaedje
rbaedjes
rbalesse
rbasti
rbatijhi
rbe
rbek
rber
rbi
rbis
rbite
rbiveye
rbo
rbon
rboute
rbouter
rbouteu
rbro
rc
rca
rcandje
rcandji
rce
rcene
rcer
rcetes
rceu
rcf
rche
rci
rciene
rcin
rcine
rcinele
rclamaedje
rclame
rclamer
rclames
rclo
rco
rcoe
rcogne
rcomprindaedje
rconoxhe
rconoxhou
rcopiaedje
rcopyi
rcoridji
rcweraedje
rcweraedjes
rcwerances
rcwereu
rcwereus
rcweri
rd
rda
rdaedje
rdance
rdans
rdant
rde
rdene
rdenes
rder
rdes
rdeu
rdeut
rdeye
rdez
rdi
rdia
rdie
rdijhaedje
rdin
rdini
rdinwe
rdire
rdit
rdiveus
rdiveuse
rdja
rdje
rdjetea
rdjeu
rdjeur
rdjeus
rdji
rdjint
rdjintene
rdjond
rdjonde
rdoble
rdon
rdou
rdous
rdowe
rdowes
rdoz
rdre
rds
rdu
rdumints
re
rea
reader
reas
reataedje
rebanaedje
rebanaedjes
rebane
recassi
rece
reces
recherche
recitaedje
recitaedjes
reclame
reclo
recloymint
recra
recsisse
recsisses
rectom
recueil
recwa
red
rede
redeuihl
redi
redja
redjime
redjimes
redjimint
redjisse
redjon
redjona
redjons
redjontransilvaneye
refaxhi
referandom
referince
referinces
referrer
refo
refoirci
refoircixhaedje
refractaires
refudji
region
regions
regte
regue
regues
regulus
reich
reie
reiff
reims
reki
relative
rele
reli
relijha
relijhaedje
relire
remacle
remco
remi
remint
remouchamps
remy
ren
renaissance
renard
renault
rence
renciation
rene
renes
renkin
renol
renonde
renonder
rens
renson
rent
repens
repetaedje
repete
repeter
replaec
replaece
replaeceye
replaeci
replaidaedje
replaidaedjes
replaideye
replaidi
reployi
repoirter
republike
republikes
republikin
rer
res
reschandi
reschandixhaedje
resconte
rescontere
rescontes
rescontre
rescontrer
rescoule
rescouler
reserve
reseu
respect
respecte
respecter
respet
respiratwere
respirer
respirrece
respleu
resploe
respond
responda
respondant
respondas
responde
respondeu
respondeus
respondi
respondnut
respondou
responsa
response
responses
ress
resse
resseraedje
resserants
ressere
resserer
resses
rest
restant
restants
restcha
reste
restorant
restorants
ret
retchessi
rete
retes
retni
retoure
retro
retrocle
retrouve
reu
reus
reut
reutxhene
reuwe
reve
revintaedje
revinte
revinteus
revintreye
revintreyes
revole
revolucion
revoluciona
revolucions
revolver
revoyance
revoye
revoyi
revue
revues
rew
rewoeyi
rewoeyon
rex
rexha
rexhaedje
rexhant
rexhe
rexheut
rexhnut
rexhou
rexhous
rexhowe
rexhowes
rexhre
rey
reyaccion
reyaccions
reyalisse
reye
reyes
reynold
reynolds
reyons
reyunion
reyussi
rez
rezieve
rezistance
rezistant
rezistants
rezister
rfe
rfo
rfond
rfondaedje
rfondaedjes
rfondant
rfonde
rfondeus
rfondou
rfondous
rfondowe
rfondowes
rfrancijha
rfrin
rfuze
rfuzer
rfwait
rg
rga
rgen
rgint
rglati
rgne
rgni
rgon
rgret
rgu
rh
ri
ria
ribanaedje
ribane
ribasteye
ribe
ribes
ribiveye
riboute
ric
rica
ricandje
ricandji
rice
ricete
richard
riche
riches
riclama
riclame
ricmande
ricmince
ricminci
ricnoche
ricnoxha
ricnoxhance
ricnoxhe
ricnoxhou
ricnoxhous
ricnoxhowe
ricnoxhowes
rico
ricogne
ricomprins
riconcwesse
ricopyi
ricoridji
ricoridjrece
ricsinsa
ricweraedje
ricweraedjes
ricwerance
ricwerances
ricwereu
ricwereus
rid
ridaedje
ridant
ridants
ride
rideau
rider
ridivna
ridivni
ridivnou
ridjetante
ridjonde
ridner
ridoblaedje
ridobler
ridoblete
ridu
ridve
rie
rien
riene
rier
ries
riete
rieu
rieur
rif
rife
rifin
rifjhaedje
rifo
rifondaedje
rifondeu
rifondeus
rifondou
rifondous
rifondowe
rifondowes
rifrancijhaedje
rifrancijhi
rift
rifuze
rifwait
rifwaite
riga
rigaux
right
rightarrow
rigle
rigne
rigo
rigodon
riguelle
riha
rihe
rik
rike
riketes
rikins
rila
rile
rileve
rilever
rilidjeus
rilidjeuse
rilidjeuses
rilidjon
rilidjons
rilome
rilouki
rima
rimaedje
rimaedjes
rimagne
rimarke
rimas
rime
rimea
rimeas
rimes
rimetaedje
rimete
rimetou
rimetous
rimetowe
rimetowes
rimiele
rimimbere
rimimbrance
rimimbrances
rimonte
rimouye
rimple
rimpleye
rimpli
rimplis
rin
rina
rince
rind
rinda
rindaedje
rinde
rindeu
rindeut
rindje
rindjeye
rindjeyes
rindji
rindjmint
rindmint
rindou
rindous
rindowe
rindoz
rindre
rinds
rindu
rine
rinexhance
rinfle
ringne
ringnes
ringni
rinne
rinnes
rins
rint
rinte
rintere
rintes
rinti
rintrant
rintre
rintrer
rints
rio
riot
ripa
ripasse
riployi
ripoizer
ripouwaryin
riprezinta
riprezintant
riprezinte
riprind
riprinda
riprinde
riprinjhe
riprins
rique
rire
rires
rireye
rireyes
rirpasse
ris
riscanaedje
rischape
rischaper
risco
riscompinse
riscri
riscrijha
riscrijhaedje
riscrire
rise
rishonnance
rishonnances
rishonnant
rishonnante
rishonne
riske
risker
riskeus
riskeuse
rispa
rispitaedje
rispitaedjes
rispite
rispiter
risque
rissaetchaedje
rissaetche
rissaetchi
rissatchi
risse
risses
risti
ristinde
ristitche
ristitcheye
ristitchi
ristopaedje
ristope
ristoper
rit
rita
ritance
ritape
ritcha
ritchante
ritche
ritches
ritchesse
ritchesses
rite
rites
ritni
ritnou
ritnous
ritnowe
ritou
ritoume
ritourne
ritrouve
ritrova
ritrove
ritrover
riv
riva
rivaedje
rive
river
rivie
rivindje
rivindji
rivire
rivires
rivna
rivnaedje
rivnant
rivne
rivneut
rivni
rivnou
rivnous
rivnowe
rivnoz
rivnu
rivoere
rivuwe
rivuwes
riwaitant
riwaitants
riwaite
riwaiteye
riwaiti
riwalnijha
riwalnijhaedje
riwalnijhi
riwe
riweri
rixhea
rixheas
rixhot
rixhots
riya
riyans
riyant
riye
riyeu
riyeut
riyo
riz
rize
rizultat
rizultats
rje
rk
rke
rkea
rker
rl
rla
rlaedje
rlaedjes
rlan
rlans
rlant
rlante
rlaye
rle
rler
rlers
rlerwe
rlet
rlets
rlevaedje
rleve
rlever
rli
rlidjeus
rlidjeuses
rlidjon
rlidjons
rlike
rlikes
rlire
rlires
rlodje
rlodjeu
rlodji
rlome
rlon
rlot
rlote
rlouke
rlouki
rloye
rlu
rlukin
rlumagne
rlumint
rluminti
rlure
rluveye
rma
rmagne
rmagni
rmant
rmaryi
rmas
rmatike
rmatikes
rme
rmeneye
rmenyin
rmenyins
rmer
rmes
rmeta
rmetaedje
rmetaedjes
rmetant
rmete
rmeteut
rmetou
rmetous
rmetowe
rmetowes
rmeu
rmey
rmeye
rmi
rmilire
rmimbere
rmimbrance
rmimbrer
rmin
rmint
rmistice
rmite
rmonak
rmonaks
rmonica
rmonreye
rmont
rmontant
rmonte
rmonter
rmou
rmoussi
rmouwe
rmouwer
rmowe
rmu
rmule
rn
rna
rnale
rnales
rnant
rne
rner
rnetiaedje
rnetyi
rneu
rni
rnir
rnis
rniteure
rno
rnoe
rnonci
rnos
rnou
rnovea
rnu
rnut
ro
roald
roba
robe
robert
robete
robetes
robin
robinet
robocon
robot
robots
robtea
robtidi
roch
roche
roci
rock
roclindje
rocou
rode
rodja
rodje
rodjes
rodji
rodjimont
rodjlinva
rododo
rodolphe
roe
roeck
roed
roede
roejhe
roemiants
roger
rogne
rognes
rognon
roi
rois
roiste
rojer
rok
rola
roland
rolande
role
roles
roli
rolling
rolofe
rom
romagnesi
romain
romaine
romains
roman
romande
romane
romanes
romans
romanti
romantike
romantikes
romantisse
rome
romin
rominne
rominnes
romins
rompe
rompeure
rompont
ron
ronaldo
ronce
rond
ronde
rondea
rondeas
ronds
rondu
ronique
rons
ronsa
ront
ronxhe
ronxhes
ronxhi
rops
ros
rosa
rose
ross
rosse
rossea
rosseas
rossete
rossi
rosti
rot
rota
rotaedje
rotaedjes
rotant
rotche
rotches
rotchete
rotchfoirt
rotchi
rotcho
rote
roter
rotes
roteu
roteus
rotez
roti
rotnut
rotte
rou
roubliyi
rouchi
rouchtete
roudje
roudjes
rouf
roufion
roufions
rouge
roukes
roule
roumaneye
roumantche
roumatisses
roumin
rouminne
roumins
roumze
rousseau
rousselle
route
routes
rouvi
rouvro
rouvroe
rouvyi
rouwa
rouwale
rouwales
rouwe
rouwess
roux
rouye
rouyot
roveye
roveyre
rovi
roviance
rovyi
rowe
rowes
roy
roya
royal
royale
roye
royes
royinne
royle
royon
royons
roys
roytea
roz
roze
rozea
rozeas
rozire
rozou
rp
rpasse
rpasser
rpayi
rpe
rplante
rployi
rpoizaedje
rpoize
rpoizer
rprezintant
rprezintants
rprezinte
rprezinter
rprin
rprind
rprinda
rprindant
rprinde
rprinjhe
rprinjhes
rprins
rpris
rprotche
rprotches
rprotchi
rps
rque
rquer
rques
rre
rrece
rreyes
rri
rs
rsaedjes
rsaetcha
rsaetchaedje
rsaetchant
rsaetche
rsaetchi
rsale
rse
rseu
rshonne
rsi
rsiervou
rsintou
rso
rson
rsouwe
rsouwer
rsumont
rt
rta
rtaedje
rtaedji
rtance
rtant
rtante
rtants
rtape
rtbf
rtcha
rtchante
rtche
rtchi
rtchin
rtchisse
rtchitecteure
rtchiteke
rtchives
rtchuveke
rte
rtea
rteas
rtene
rter
rtes
rteu
rteut
rteye
rteyes
rti
rticion
rticions
rticipa
rticipe
rticiper
rticipes
rticot
rticots
rticuli
rticulirmint
rtif
rtifs
rtike
rtikes
rtin
rtinance
rtine
rtinet
rting
rtini
rtire
rtis
rtisse
rtisses
rtistike
rtisyince
rtit
rtive
rtixh
rtixhaedje
rtixhe
rtixheut
rtixhre
rtl
rtografeye
rton
rtou
rtoume
rtoumer
rtourne
rtourner
rtous
rtove
rtre
rtrouve
rtrouvnut
rtrove
rtrover
rts
rtu
rtumint
rtumints
rturesse
ru
ruban
rubus
rudjeye
rudjin
rudy
rue
ruelle
rues
rugbi
ruisseau
rujhe
rujhes
rul
rumex
rundstedt
rupo
rurale
rusalem
russe
russes
russi
russula
russule
rustea
ruth
ruv
ruwe
ruxhea
rva
rvazi
rve
rveu
rvey
rveye
rvi
rvia
rvice
rvier
rvierdimint
rviker
rvin
rvinde
rvindje
rvindji
rvo
rvowes
rvu
rvuwe
rvuwes
rwagasore
rwagazore
rwai
rwaitaedje
rwaitant
rwaitants
rwaite
rwaiteye
rwaiti
rwaitive
rwaitnut
rwalnijhaedje
rwalnijhi
rwalonijhaedje
rwalonijhi
rwanda
rwangni
rwe
rwene
rwenes
rweri
rweya
ry
ryckman
ryi
rze
rzeye
rzultat
rzultats
s
sa
sabam
sabaux
sabaye
sabine
sabots
sac
sacadji
sacants
sacramint
sacre
sacrifiaedje
sacrifice
sacrifyi
sacwant
sacwante
sacwantes
sacwants
sacwe
saddam
sadje
sadjes
sadju
saedje
saetch
saetchaedje
saetchant
saetche
saetcheye
saetcheyes
saetchi
saetchive
saetchot
saetchots
saetchs
saeye
saeyea
saeyeas
safi
saga
sai
saint
sainte
saints
sais
saison
saiss
sait
saive
saiwaedje
saiwe
saiwer
saizi
sajix
sakants
sake
saki
sakwe
sala
saladin
salazar
sale
salix
salle
salme
salmo
saloe
salomon
salon
salut
salvador
salvia
salzene
sam
samarcande
sambe
sambre
sambveye
samdi
same
samin
saminne
samson
samuel
samwe
samwin
samwinne
samwinnes
san
sang
sanke
sans
sanson
sant
santa
sante
santiago
santos
sao
sape
sapiens
sapin
sapinires
sapinreces
sapins
sapinse
sapinste
saquante
saquantes
saquants
saqui
saquoi
saqwants
saqwe
sar
sara
sarachaga
sarah
saratxaga
saray
sarazin
sarazins
sarde
sardegne
sardignwe
sare
sarot
sart
sarteau
sat
satan
satch
satche
satchi
satchot
satchs
sativa
sativum
sativus
satu
sau
sauce
sauf
saurt
saurte
saut
saute
sauvadje
sauve
sav
savans
savant
savants
savate
save
savenut
saveu
saveur
saveurs
saveut
savez
savi
savnut
savo
savon
savot
savou
savoye
savoz
savti
savu
sawants
sawe
sawice
sawou
sawoudite
sawoura
saya
sayant
saye
sayes
sayi
sayive
saynut
saze
sbara
sbarant
sbare
sbarer
sbetchaedje
sc
sca
scabe
scabin
scaillet
scale
scanaedje
scanda
scanfa
scawaedje
scawe
scayton
sce
sch
scha
schaeffner
schaesses
schaesseus
schafiote
schandeye
schapaedje
schape
schaper
schave
schaye
schayes
schayete
schayire
schayires
schayteu
schene
schetter
scheure
schi
schiele
schieles
schild
schinon
schinons
schipe
schira
schire
schirer
schita
schite
schmitz
scho
schoice
schoices
schoirc
schoirci
schome
schoovaerts
schorseye
schou
schoume
schoupe
schove
schumacher
schuman
science
sciences
scius
scla
sclameure
sclassin
sclater
sclats
sclaubas
scle
sclessin
scluze
sco
scoirpion
scolaedje
scole
scoler
scoles
scoleus
scoli
scolite
scolites
scolrece
scolresse
sconte
scontre
scontrer
score
scoreye
scott
scours
scran
scre
screne
screpe
scret
scretaire
screye
scri
scribes
scrifto
scrijha
scrijhaedje
scrijhaedjes
scrijhant
scrijhas
scrijhe
scrijheu
scrijheus
scrijheuse
scrijheut
scrijhnut
scrinea
scrini
scrire
scrit
scriye
scriyeu
scrote
scroufier
sculte
sculteu
scussiaedje
scwa
scwere
scyince
sdan
sdn
se
sebastopol
secale
seccion
seccions
secondaire
secouer
secoya
sedum
sedyn
seigneu
seke
sel
sele
selon
selvais
sem
semaedje
semaine
semdi
seme
semer
semertier
semint
semitike
semitikes
semois
senat
sene
senega
senegal
senes
sens
senshi
sentai
sepa
sepe
sepez
seph
sepi
sepiance
sepou
sepoz
sept
septante
ser
sera
seracuze
serans
serbe
serbes
serbeye
sere
serena
serer
seret
sereu
sereut
serez
serge
seri
series
serieus
serieuzmint
serna
seront
seroz
serre
sert
serva
servais
service
servotte
serwai
ses
set
setch
setche
setches
setchi
setchmint
setchresse
setchs
sete
setimbe
setinme
setle
seton
seu
seul
seule
seules
seulmint
seur
seure
seurmint
seurs
seus
seuve
seuye
severin
seveso
sevile
sevrin
sewoudite
sey
seyance
seye
sez
sfasie
sfinde
sfwait
sfwaite
sfwaites
sfwaits
sgondaire
sgondes
sgoziyi
sh
shabot
shaboti
shabots
shakbar
sharif
sharon
she
shele
sheles
sherman
shi
shijh
shijhe
shijhes
shijhinme
shofele
shofelnut
shofelre
shofla
shoflaedje
shoflans
shoflant
shoflaxhe
shofle
shofler
shoflete
shoflez
shofli
shonnance
shonne
shonnnut
shou
shounen
shu
shure
shuva
shuvance
shuvanmint
shuvant
shuvante
shuvantes
shuvants
shuve
shuveu
shuveus
shuveut
shuvion
shuvions
shuvnut
shuvou
shuvous
shuvowe
si
sia
sibarante
sibare
sibereye
sibiu
sic
sicile
sicilyin
sicole
sicoles
sicoli
sicolodjeye
sicolodjike
sicolodjikes
siconte
sicretaire
sicreye
sicri
sicrijha
sicrijhaedje
sicrijhaedjes
sicrijhas
sicrijhe
sicrijheu
sicrijheus
sicrijheuse
sicrijheut
sicrijhnut
sicrire
sida
sidi
sidint
sidje
sidjes
sie
sieke
siekes
siera
siermint
sierpint
sierpints
sierra
siervaedje
siervant
siervante
sierve
sierveu
sierveut
siervi
siervice
siervices
siervou
siervowe
siervu
sies
sieve
sievnut
sifwaite
sifwaitmint
sifwaits
signa
signe
signeu
signeur
signeurreye
signeurs
signi
signifiant
signifie
signorreye
signorreyes
sigondaire
sigonde
sijilmassi
sikepiaedje
sikepieye
sikepyi
sil
sildaveye
sillabe
sillabes
sillabusse
sillon
silo
silos
silva
silvesse
silvestris
silvin
simbas
simbio
simbole
simboles
simbolike
sime
simenon
simeyon
simferopol
simince
simon
simone
simonis
simonon
simpe
simpes
simple
simplumint
simpmint
simwe
sin
sina
sinaedje
sinayi
sincieu
sincieus
sincieuse
sincieuzmint
sindicalisse
sindicat
sindrome
sine
siner
sineus
sing
singapour
single
singuli
singuliers
sinifiance
sinistre
sinnario
sinne
sinnes
sinnetes
sino
sinon
sinonime
sinonimes
sinonimeye
sins
sinsa
sinse
sinses
sinsiu
sint
sinta
sintake
sinte
sinter
sintes
sintetikes
sinteu
sinteut
sinteze
sinti
sintimint
sintimints
sintince
sintomes
sintou
sintoz
sints
sintu
sion
sipa
sipagne
sipale
sipata
sipe
sipeate
sipecia
sipene
sipepieus
sipepieuse
sipepieuzmint
sipesse
sipexheur
sipeye
sipotaedje
sipotaedjes
sipotcha
sipotchaedje
sipotcheye
sipotchi
sipote
sipou
siquet
sir
sire
sireye
siro
sirop
siryinne
siryins
sis
siste
sistinme
sistinmes
sisymbrium
sita
site
sites
siti
sitinde
sitindou
sitindowe
sititchete
sititchi
sitoelace
sitoele
sitoeles
sitoelreye
sitofe
sitofes
sitok
sitou
sitouve
sitouwa
sitrame
sitrimaedje
sitrinde
sitroet
sitroete
sitron
situ
situdeye
situdia
situdiaedje
situdyi
six
siya
siyonisse
sizet
sj
sk
ske
skepeye
skepi
skepia
skepiaedje
skepiance
skepieye
skepyi
skernaxhes
sketch
sketchs
skete
sketer
ski
skignou
skol
sla
slam
slangen
sle
sliminne
slin
sllw
slo
slovakeye
sloveneye
sm
smadje
smal
smayil
smince
sminces
smith
sms
smu
smwe
sn
snaps
sncb
sncv
snr
so
sobayi
sobriket
soc
soce
soces
socia
social
socialisse
socialisses
socialistische
socie
societe
socio
sociolinwince
sociolinwistike
sociolodjeye
sociolodjike
soda
sodoirmant
soe
soeye
soeyexhe
soeyoz
sofe
sofie
sofle
sofler
sofrance
sofri
sofrou
sofru
soft
sognaedje
sogne
sogni
sohaite
sohaiti
sohy
soir
soit
sol
sola
soladji
solaire
solaires
solanum
solar
sole
solea
soleas
soleil
solia
solide
solides
solitaire
solo
solos
solrece
solreces
solrinne
sols
solucion
solwa
somadji
somaleye
sombrefe
some
somja
somme
son
sonate
sonchus
sondes
sondjant
sondje
sondjes
sondjeu
sondji
sondjive
sone
song
songue
sonk
sonle
sonnaedje
sonne
sonner
sonore
sons
sont
sope
soper
sopes
sophie
sopoirt
sopoirte
sopoirter
sopoirteus
sopranal
sopwa
sor
sorbus
sorci
sorcires
sorcoviete
sordjant
sordjou
sore
soreil
soreye
sori
soria
sorire
soris
sorleve
sorlever
sorlon
sorreyalisse
sort
sorte
sorti
sortite
sortitre
sortoit
sortot
sorvike
sorviker
sorwalonde
sorwalondes
sos
sot
sote
soteas
sotne
sotni
sotnou
sotnous
sotnowe
sots
sottais
sotte
sottiaux
sou
soucoun
soucre
soucreye
souda
soudan
soude
soufi
soufis
soufisse
sougnante
sougne
sougnez
sougniye
souk
souke
souker
soukes
soula
soulmint
soumey
soumillon
soune
souner
soupe
sour
sourate
source
sources
sourd
sourdant
sourdants
sourde
sourds
sours
sous
south
souv
souvenirs
souviens
souvint
souvret
souwaedje
souwe
souwer
souweu
souweur
souwinne
souzane
sov
sove
soverdea
soverdeas
sovet
sovietike
sovietikes
sovin
sovint
sovnance
sovnances
sovni
sovnis
sovnoz
sovret
sovrin
sovrinne
sowai
sowe
soya
soyaedje
soye
soyete
soyeu
soyeus
soyi
soyoz
soyreye
soyu
sp
spa
spaak
space
spagne
spagnol
spagnols
spale
spales
spani
spaniel
spate
spaurgni
spawta
spayisses
spc
spe
speate
specia
special
specta
speke
spene
spenes
spepieus
spepieuzmint
spepyi
spesse
spesses
spetin
spexheur
speye
spg
spi
spicilaedje
spie
spielberg
spielvan
spierkel
spine
spiner
spinoe
spinosa
spinreye
spinreyes
spinwe
spirou
spirous
spirouti
spitaedje
spitant
spitante
spitch
spitchs
spite
spiter
spites
spitron
spitrons
spiyi
sple
splitchant
spo
spond
sponde
spondu
sponse
sponses
spontane
spontin
sporons
sport
sportif
sportifs
sporting
spot
spotaedje
spotcha
spotchaedje
spotchant
spotche
spotcheye
spotchi
spote
spotify
spots
spou
spoujhi
spoutnik
spozer
spp
spra
sprawe
spre
sprewe
sprewes
sprimont
sprit
sps
spwe
squ
sque
sqwe
sre
sreut
sri
sroda
srwt
ss
ssa
ssadje
ssai
ssale
ssance
ssant
ssante
ssatchi
sse
ssea
ssene
ssenes
sser
sses
ssetes
sseu
sseure
sseye
ssi
ssin
ssion
ssire
ssires
sso
sson
ssonle
ssons
ssou
ssu
ssus
ssyin
ssyinne
st
sta
stade
staelens
staff
stainier
stalag
stalene
staline
stampe
standa
standaard
standard
standes
stanislas
stans
stant
stantche
stantchi
staquet
star
start
stasse
statche
state
stater
station
statistikes
stats
statut
staule
staure
stauve
ste
stedjreye
stedjreyes
stef
stefan
stefane
steinweg
stenofilaria
stepe
steper
stephane
ster
sterk
sterpi
stet
steu
steut
steve
steven
stez
sti
stia
stic
stie
stiene
stienlet
stiernet
stiernixhaedje
stin
stind
stindaedje
stinde
stindeut
stindou
stindowe
stindu
stint
stion
stirner
stit
stitche
stitchete
stitchetes
stitchi
stith
stiz
sto
stocaesse
stocaesses
stock
stoelace
stoele
stoeles
stoeli
stoelreyes
stof
stofe
stofer
stofes
stoide
stoirdoe
stok
stoke
stoks
stombiant
stombyi
stone
stones
stons
stopa
stope
stoper
stos
stot
stou
stoumac
stoumak
stoumont
stouve
stoz
straegne
straimont
stramaedje
strame
stre
streel
street
strek
streptocokes
strer
streu
stri
strike
strimaedje
strime
strin
strindou
strins
strintchamp
stritchaedje
stritche
stritchi
stroet
stroete
stroetmint
strofes
stromae
stron
stronger
stronne
strons
stru
strwe
stu
studes
studeye
studi
studia
studiaedje
studiaedjes
studiant
studiants
studias
studie
studieye
studieyes
studio
studios
studyi
stwe
su
suars
subi
subtil
subzides
subzidyi
suc
succe
succession
suceava
suci
sucide
sud
suddjonctif
sudess
sudinfo
sudjet
sudjets
sudjonctif
suffixe
sufraedje
suis
suite
suke
sul
sullon
sulpice
summer
sun
suni
sunite
sunites
supe
super
supine
supo
suprime
sur
sure
surface
surkol
surmint
surte
surtout
sus
suse
suspinse
sustantif
sustantifs
sustantivaedje
sustantive
sustantivire
sustantivires
suwahili
suwede
suwedwe
suwedwesse
sv
svg
svinte
swa
swahili
swe
swele
swer
swere
swessante
swessantinne
swira
swisse
swisses
sy
syince
syinces
syincieus
syins
syntaxe
syste
system
t
ta
tabane
tabeur
table
tableau
tace
tacsi
tadje
taedje
taedjes
taekwondo
taenia
taesnire
taessea
taesson
taessons
taetche
taetches
taexhon
taexhons
taeyant
taeye
taeyes
taeyeye
taeyi
tagueu
tai
taient
taihi
taijhe
taijhoz
tail
taile
taillis
taire
tais
taiss
tait
taiwan
take
takes
tales
talon
talons
tamazir
tambe
tambour
tame
tamene
tamis
tan
tanawe
tance
tancreye
tandji
tane
taneri
tanfla
tang
tanganica
tanganyika
tango
tank
tankete
tanks
tans
tant
tante
tantea
tants
tanzaneye
tao
tapa
tapaedje
tapant
tape
taper
tapes
tapeu
tapez
tapine
tapis
taprece
tard
tarik
tas
tasse
tasson
tat
tata
tau
taudje
taurd
taurdji
tauve
tava
taviene
tawe
tawea
taxhe
taxhlete
taxi
taye
tayeu
taylande
taylor
tayon
tayons
tazota
tazotas
tba
tch
tcha
tchaba
tchabote
tchad
tchaeconk
tchaedje
tchaeke
tchaekene
tchaesconk
tchafete
tchafiaedjes
tchafor
tchai
tchair
tchaire
tchairire
tchairires
tchait
tchak
tchake
tchaleu
tchalon
tchalons
tchambe
tchambes
tchame
tchamosse
tchamosseure
tchamosseures
tchamossi
tchamp
tchampagne
tchampete
tchampi
tchampinnes
tchampion
tchampionat
tchampionats
tchampions
tchampnwe
tchamps
tchan
tchanc
tchance
tchande
tchandele
tchandeles
tchandje
tchandji
tchandle
tchandleuse
tchanli
tchans
tchansni
tchanson
tchansons
tchant
tchanta
tchantaedje
tchantans
tchantant
tchantche
tchante
tchanter
tchanteu
tchanteus
tchanteuse
tchanteuses
tchantez
tchanti
tchantmiele
tchantnut
tchantre
tchantrece
tchantreces
tchantrele
tchantreye
tchants
tchantwe
tchapa
tchape
tchapea
tchapeas
tchapele
tchapeles
tchapia
tchapistre
tchapistrea
tchapite
tchaplet
tchapon
tchaptre
tchaptrea
tchariguete
tcharite
tchat
tchau
tchaud
tchaufer
tchaufeu
tchaur
tchaus
tchausse
tchawe
tchawes
tche
tchecawe
tchedje
tchedjes
tcheke
tchekes
tchekeye
tchena
tchenas
tchene
tchenea
tcheneas
tchenoe
tchenonne
tchenou
tchepti
tcher
tchera
tcherbon
tcherbonaedje
tcherbonaedjes
tcherdje
tcherdji
tcherdon
tcherdons
tchere
tcherete
tcheretes
tchereye
tcheri
tcheriaedje
tcheriaedjes
tcherin
tcherowe
tcherowes
tcherpetaedje
tcherpeti
tcherpinte
tcherpintes
tchersi
tcherwaedje
tcherwaedjes
tcherwe
tcherwer
tcheryi
tches
tcheslet
tcheslinea
tchespire
tchessa
tchesse
tchesses
tchesseu
tchesseus
tchessi
tchession
tchessive
tcheste
tchestea
tchesteas
tchestret
tchestrole
tchestrolet
tchesturlin
tchesturlinne
tchesturlins
tchet
tchete
tchetes
tchetidi
tchetoere
tchetoeres
tchets
tcheu
tcheus
tcheuse
tcheuses
tchevetogne
tchevtogne
tcheyaedje
tcheye
tcheyes
tcheyire
tcheyires
tcheyou
tchfe
tchfias
tchfo
tchi
tchicago
tchicta
tchictaxhe
tchicte
tchicter
tchictez
tchicti
tchik
tchike
tchikes
tchili
tchilouba
tchilyin
tchimeye
tchimijhe
tchimike
tchimikes
tchimin
tchimine
tchimins
tchimisse
tchimpion
tchimwin
tchimwins
tchin
tchini
tchinidi
tchinisse
tchinisses
tchinne
tchinnes
tchinrowe
tchins
tchir
tchire
tchirou
tchitche
tchitches
tchitchou
tchitchron
tchiva
tchivali
tchive
tchiveas
tchiveye
tchivrou
tchiyote
tchmijhe
tchmin
tchmine
tchmins
tchmint
tcho
tchocola
tchoezeye
tchoezi
tchoezis
tchoezixh
tchoi
tchoke
tcholeur
tchonveye
tchot
tchou
tchu
tchuvali
tchuze
tchva
tchvali
tchvea
tchveas
tchvirons
tchwe
te
tea
teau
tec
techelheyt
technologique
tecnicmint
tecnicyin
tecnike
tecnikes
tecnolodjeye
tecnolodjeyes
tecse
tecses
tefi
tegenwoordige
tegne
tegnnut
tel
tele
teleferike
telefone
telefones
telefonike
telefonikes
telesambre
telesur
telet
televuzion
telin
temint
temoen
temoens
temognaedje
temonaedje
temonaedjes
temons
temps
ten
tenawete
tendre
tene
tenisse
tensif
ter
tera
teras
tere
teres
teresse
tereze
teri
teribe
teribes
teris
terisse
teritoria
teritwere
teritweres
terme
termene
termenes
termetant
termonde
terne
teroe
terorisse
terorisses
terre
terres
terril
terroir
ters
tertos
tertote
tertotes
terwagne
tes
testamint
tetanosse
tete
tetene
teter
tetes
tetraciclenes
teu
teucrium
teughels
teur
teure
teures
teurs
teus
texhe
texhou
texhous
teya
teye
teyo
teyolodjeye
teyolodjike
teyoreye
teyoreyes
teyoricmint
teyorike
tez
teze
tg
th
tha
thai
that
the
theis
themelin
theo
theory
thiam
thibaud
thibaut
thibeau
thie
thier
thierry
thirion
thirionet
thiry
thomas
thompson
thomsin
thonet
thor
thorgan
thoune
thuin
thumb
thymus
ti
tia
tiaux
tiba
tibet
tibetin
tibetins
tibi
tidjanes
tidje
tidjes
tie
tien
tiene
tienes
tier
tieraxhe
tiernea
tiers
ties
tiess
tiesse
tiesses
tif
tifinar
tifinare
tifinars
tifone
tifones
tigneus
tigue
tigues
tijd
tike
tiket
tikets
tila
tilia
tilkin
tilleul
tillieux
tilmant
timbe
time
times
timis
timister
timote
timp
timpe
timperateure
timperateures
timpere
timpes
timpesse
timpesses
timpli
timprou
timps
timusse
tin
tinaedje
tinant
tinctoria
tind
tindant
tinde
tindeu
tindje
tindou
tindu
tine
tineu
tineut
tini
tinkyi
tinme
tinmes
tinne
tinou
tinowe
tinoz
tinre
tinroxh
tinru
tins
tint
tinte
tinteure
tintin
tintni
tinzayeure
tinzintins
tio
tion
tions
tipe
tipes
tipetape
tipicmint
tipik
tipike
tipikes
tipografeye
tipografike
tique
tir
tira
tiraedje
tire
tirehaline
tirer
tireus
tiri
tirou
tis
tise
tisse
tiste
tit
tite
tites
titine
tito
titre
tits
titusse
tivaedje
tive
tiver
tiveus
tiyi
tiyou
tizi
tiznite
tizo
tl
tle
tlindje
tmint
tnant
tne
tneut
tni
tniveye
tnou
tnowe
tnut
to
tobolsk
tocial
tocoe
tocoste
tocsike
tode
todi
todis
todroet
toekomende
toele
toeles
toenne
toet
toetea
toets
tofe
tofer
tohogne
toi
toide
toirdaedje
toirt
toirtcheye
toirtchi
tois
toitche
tok
toke
tokyo
toles
tolminme
tolmonde
toltins
tolu
tolus
tom
tomates
tombale
tombales
tombe
tombea
tombes
tombeur
tomboe
tome
tomes
ton
tone
tonea
toneas
tones
tongue
tonike
tonikes
tonire
tonne
tonneau
tonneaux
tonoere
tons
tontelange
tontlindje
tonton
top
topet
toplin
toponimeye
toponymie
topre
torade
toratte
tore
torea
toreas
torebay
torne
torre
tortea
torteas
tortos
tortotes
tos
tossa
tossaedje
tosse
tossi
tossint
tot
tota
totafwait
totafwaitmint
totava
tote
totes
totfeye
totoute
totplins
tots
totshu
totsu
tott
tou
toubac
toubak
toubaks
touche
toucher
touchi
toudi
toudis
toujours
toulouse
touma
toumaedje
toumas
toume
toumer
toumi
tour
tourene
tourete
tourisse
tourisses
touristike
touristikes
tourkeye
tourme
tourmint
tourmints
tourna
tournaedje
tournai
tournant
tournante
tournay
tourne
tourner
tourneure
tourniket
tournikete
tourniketes
tourniketreye
tourniketreyes
tournisse
tournoe
tournwe
tourpene
tourpenes
tours
toursiveus
toursixhaedje
tourtou
tourtous
tous
toussaint
tout
toutchant
toutche
toutches
toutchi
toute
toutes
toutsi
toutsis
touwaedje
touwance
touwareg
touwaregs
touwe
touwea
touwer
touweu
touwi
towe
toz
tr
tra
tracasse
trace
traces
tracteur
tracteurs
tradicion
tradicionel
tradicionele
tradu
tradujhaedje
traece
traeces
traeyin
traeyincieus
trafalga
tragnire
trai
train
trait
traite
traiti
traitmint
traitoe
traits
trake
traker
trale
tram
trams
tranche
trange
tranger
tranje
trankile
transcrijhaedje
transe
transene
transes
transforme
transilvaneye
transine
translataedje
translate
transliteraedje
transopera
transpoirt
transpoirts
trapisse
trapisses
traque
trau
travail
travay
travaye
travayi
travos
trawaedje
trawe
trawer
trayin
traze
tre
trece
trecins
tree
tregne
trempont
trepa
trepasse
trera
tres
tresse
treu
treus
treut
treva
treve
trez
trezo
tri
tribole
tribu
tribuna
tribune
tribus
trifolium
trigus
trimbleu
trimpe
trimper
trin
trindji
trine
trinite
trinne
trinner
trinnes
trins
trintche
trintches
trinte
trintinne
tripe
tripes
tripoli
trisse
triticum
trive
trivie
trivierse
triya
triyanon
triyeu
triyingue
tro
troclete
trocrece
troejhinme
troejhinne
troes
trois
trokart
troke
trokes
trole
trompe
trompete
tron
tronce
tronces
trond
tronne
tronner
tronnmint
trop
trope
tropea
tropeas
tropes
tropica
tropike
tropikes
trossi
trote
trou
troufe
troufes
troufires
troufler
troufleus
troufreye
troufreyes
trouk
trouks
troulala
troupe
trouv
trouve
trouver
trouvnut
trouvre
trova
trovaedje
trovans
trovant
trovas
trove
trover
troveu
trovi
trovu
troye
troyes
tru
truke
trukes
trumint
trump
truvie
trwa
trwe
try
ts
tsa
tse
tseu
tshopo
tshuapa
tt
tta
ttafwait
ttafwaitmint
ttafwe
ttaleure
ttava
tte
ttossu
tu
tube
tuberculo
tuberosus
tubes
tubize
tude
tudes
tue
tume
tumer
tunel
tunizeye
tunizyinne
tur
turdus
ture
turk
turkeye
turks
turtos
tus
tutsis
tuyau
tuza
tuzaedje
tuzaedjes
tuzance
tuzances
tuzant
tuze
tuzer
tuzez
tv
tver
twa
twas
twe
twelete
twenete
twin
twinne
twitter
tx
tyi
tymologie
type
tz
u
ube
uch
uche
uci
ucl
ucobe
ucw
ud
udhr
udinme
udon
udonbe
ui
uk
uke
ul
ulb
ule
ulex
ulg
ulinne
ulone
umanisse
umanite
ume
uminnes
un
und
une
unesco
uneyes
uni
unico
unifiaedje
unifyi
unike
union
unis
unite
united
univ
unive
universite
university
univiers
univiersel
univiersele
univiersitaire
univiersite
unn
up
uploaded
upright
urbos
urdug
ure
ureus
urlin
uro
urope
uropeyin
uropeyinne
uropeyinnes
uropeyins
uros
urss
urtica
us
usa
usage
usain
usb
use
user
usteye
usteyes
ut
uta
utc
ute
utilise
utopeye
utraik
uva
uvcw
uve
uveu
uveut
uvou
uwar
uyttebrouck
uzaedje
uzaedjes
uzance
uzances
uze
uzer
uzeu
uzeus
uznut
v
va
vacances
vacce
vaccinaedje
vaccine
vaccinium
vaccins
vacha
vache
vadje
vadjes
vaedje
vai
vaice
vaici
vaila
vaillant
vaire
val
valant
vale
valencia
valet
valets
valeu
valeur
valeurs
valeut
vali
valijhe
valince
valinchinne
valise
valixhance
valixhances
valle
valley
valmy
valou
valse
valu
van
vandalise
vandamme
vandereuse
vanderschueren
vanderstoken
vandervelde
vane
vanji
vanorle
vans
vant
vante
vanter
vantrin
var
varade
varia
variante
variantes
variations
varsoveye
varyi
varyiste
vas
vass
vasse
vatche
vatches
vatchi
vatchreye
vatican
vau
vauban
vauchelet
vaudeville
vaus
vaut
vaux
vayant
vayants
vaye
vdisse
ve
vea
veas
vedje
vedjes
vegne
vegnes
vegnnut
veie
veke
vekes
velaedje
velbruk
vele
velire
velo
velos
venci
vene
venez
venezwela
veni
vent
venusse
vepes
ver
vera
verbascum
verbe
verbok
verda
verdea
verdeas
verdeure
verdeures
verdin
verdire
verdjale
verdun
vere
veres
verhulst
verita
verite
verlag
verlaine
verleden
verlinne
vermer
verna
verneu
veronica
verre
verres
verreye
vers
versailles
versaye
verset
versets
vert
verte
verts
vervi
vervier
verviers
verzi
verzy
ves
vescovo
veskeveye
vespre
vesse
vesses
vet
vetche
vete
veterinaire
veterinaires
veterinary
vetes
veu
veule
veulire
veur
veus
veut
veve
vevi
vexha
vexheye
vey
veya
veyanmint
veyans
veyant
veye
veyes
veyeut
veyez
veyi
veyou
veyous
veyowe
veyowes
veyoz
veyu
vez
vi
via
viadje
viadjes
viance
viancou
vias
viatour
vica
vicadje
vicaedje
vicai
vicance
vicans
vicanste
vicant
vicante
vicantes
vicants
vice
vichy
vicia
vicina
vicnut
vicre
victime
victor
victoria
victwe
victwere
victweres
vide
video
videyo
videyos
vidiu
vie
viebe
viebes
viedje
vieme
viene
vier
vierbire
vierbires
viere
vierge
vierlete
viermin
vierna
viers
vierset
vierton
vierziye
viet
vietnam
vietriva
vieux
vif
vigne
vigneron
vignette
vignou
vigot
vigreu
vigreus
vii
viii
vijhe
vijhene
vijhenes
vijhna
vijhnaedje
vijnauve
vikai
vikance
vikant
vike
viker
viki
vikigne
vila
viladje
vile
vilete
vilette
vilin
villa
villafranca
village
villages
ville
villeneuve
villers
vimbe
vin
vina
vinaedje
vinaigue
vinant
vinc
vinca
vincent
vind
vinda
vindaedje
vinde
vindeu
vindeus
vindeut
vindince
vindji
vindou
vindous
vindowe
vindowes
vindu
vine
vineut
vinez
vingt
vini
vinki
vinou
vinous
vinowe
vinoz
vinrdi
vinre
vins
vint
vinta
vintche
vinte
vintinme
vintinne
vintrou
vints
vinu
viola
viole
violes
violon
violoneu
violonisse
vion
vions
vique
viquer
vir
vire
vireu
viridis
viroux
virpus
virton
viru
virus
virwin
virwinva
vis
visadje
vise
viseur
vision
visite
visse
viste
vit
vitamene
vitamenes
vite
vitemint
vites
vitesse
vitesses
vitmint
viv
viva
vivacite
vivaldi
vivario
vive
vivi
vivier
vix
viya
viyadje
viyaedje
viyaedjes
viyance
viye
viyes
viyesse
viyete
viyole
vizaedje
vizaedjes
vize
vizita
vizite
viziter
vizites
viziteus
vizon
vizu
vjhe
vk
vla
vlaams
vlaamse
vlaanderen
vladimir
vlaedje
vlan
vlans
vlant
vlas
vld
vle
vlea
vleas
vler
vlete
vleu
vleur
vleus
vleut
vli
vlijt
vlo
vlon
vlot
vlote
vlou
vloz
vls
vmint
vna
vnale
vnant
vne
vneut
vni
vnire
vnou
vnous
vnowe
vnu
vo
vobuze
vocabulaire
vochal
voci
vocial
voe
voenne
voennes
voere
voes
voess
voet
voey
voeye
voeyeut
voeynut
voi
voici
voie
voir
voix
vol
vola
volaedje
volans
volant
volante
volantes
volants
volcan
volcanike
volcans
vole
voler
voleu
voleur
voleut
volez
volga
voli
volleyball
volnut
volontaire
volontaires
volonte
volou
voloz
voltaire
volte
volti
voltooid
voltru
volu
volucion
volume
volumes
volve
von
vons
vont
voor
vora
vore
vorer
vormint
vorou
vos
voss
vosse
vost
voste
vot
votaedjes
vote
votem
vou
voureu
vouro
vous
vouss
vout
voux
voy
voya
voyadgeu
voyadje
voyadjeu
voyadji
voyaedja
voyaedjant
voyaedjants
voyaedje
voyaedjes
voyaedjeu
voyaedjeus
voyaedji
voyage
voyale
voyales
voye
voyes
voyi
voz
vozo
vragen
vrai
vraie
vraiment
vraimint
vrais
vraiy
vraiye
vraiyes
vraiymint
vraiys
vray
vre
vreie
vresse
vreu
vri
vrienden
vrijheid
vrindts
vrite
vrou
vrt
vrtnws
vru
vs
vte
vtt
vu
vuda
vudaedje
vudant
vude
vudes
vudi
vudive
vudnut
vudre
vue
vulgare
vulgaris
vulpes
vurce
vurna
vus
vut
vuwe
vuzion
vuzle
vvt
vwe
vwele
vweles
vweteure
vweteures
vwin
vynckt
w
wa
wache
waches
wachlire
wadje
wadjeure
wadji
waeranteye
waeranti
waerantixhaedje
waerapi
waeraxhe
waeraxhes
waerbeas
waeret
waerixhea
waerixhet
waerleu
waermaye
waernu
waerou
waessin
waeye
waezon
wagni
wagnle
wagon
wague
waha
wai
waibe
waibes
waide
waides
waidyi
waime
waire
waisse
waitant
waite
waiteye
waiti
waitive
waitrou
waji
wal
walakeye
walcou
waldim
wale
wales
walfran
walin
walipica
wall
wallon
wallonia
wallonie
wallonne
wallonnes
wallons
walo
walon
walonca
walond
walone
walonere
walones
waloneu
waloneus
waloneye
waloni
walonisses
walonmap
walonreye
walons
walt
walter
walthe
wame
wan
wance
wangna
wangnaedje
wangnant
wangnants
wangne
wangnes
wangneu
wangni
wanlin
want
wante
wants
wanze
wapeur
war
waradinne
warda
warder
ware
wareme
warmich
warnant
warnier
warnin
warnotte
warot
wartburg
wartique
warum
warze
was
wasab
washington
waslet
wastea
wastene
wasu
wat
watch
wate
waterlo
waterloo
wathelet
waut
waxhea
way
waye
wayimaedje
wayindje
wazedje
wazon
wazu
we
web
website
wegener
wegniye
weks
welin
wenduine
wene
wer
werbestele
were
werene
werisse
werken
werkwoord
wernant
werner
wes
wesca
wesla
wesphal
wespireye
wess
wesse
wesses
west
western
wetenschappen
wever
wheeler
white
who
wi
wibrin
wiccionaire
wiccionaires
wice
widi
width
wiedii
wien
wiket
wiki
wikimedia
wikipedia
wikipedias
wikisource
wikisourd
wikt
wiktionary
wilhelm
wilicom
will
willame
willem
willems
william
williams
willy
wilme
wilson
wily
win
windows
winne
winston
winter
wion
wionace
wions
wisconsene
wisconsin
wisimus
wiss
wisse
wiste
wit
with
wiya
wiyam
wiyame
wiyere
wiyete
wizamba
wo
wodon
wolande
wolfgang
wonze
word
world
wou
woye
wp
writer
wu
wubert
www
wɛ
x
xavier
xbox
xh
xha
xhaedje
xhaldoun
xhale
xhame
xhamea
xhames
xhavane
xhe
xherbins
xhes
xhi
xhignesse
xhiltant
xhiltea
xhilteas
xhinaedje
xhine
xhle
xhmer
xhoffer
xhofrai
xhon
xhone
xhones
xhons
xhorbi
xhoutsiplou
xhufele
xhuflaedje
xhufler
xhuflet
xhufleu
xhufleus
xhwe
xi
xii
xiii
xiv
xv
xvi
xvii
xviii
xviiie
xx
xxe
xxi
xxii
xxiii
xxx
xxxxx
y
ya
yache
yaedje
yalta
yan
yance
yande
yann
yannick
yans
yanse
yant
yants
yauk
ye
yebe
yebes
yemen
yemint
yemont
yene
yenut
yer
yerbe
yere
yes
yesse
yesses
yet
yeu
yeure
yeus
yeusses
yeut
yeux
yexhe
yeye
yeyes
yeyet
yez
yi
yin
yink
yinne
yins
yint
yinte
yis
yite
ymint
yn
ynaedje
yne
yner
ynetmint
yneu
ynut
yo
yod
yolie
yolodjeye
yolodjince
yon
yona
yonat
yons
yopo
yoran
york
yot
yote
you
yougoslaveye
youssef
youtube
yoyo
yoz
yre
yrece
yreut
yront
ys
ysay
yu
yussi
yute
yvan
yves
yvon
yvonne
z
za
zabe
zabele
zacate
zace
zadje
zadjes
zaedje
zaedjes
zaedjisse
zaedjisses
zambeye
zande
zander
zandrins
zans
zant
zante
zantes
zants
zanzan
zaventem
zavi
zawiya
ze
zebes
zebu
zebus
zee
zeebrugge
zef
zefe
zeitung
zel
zelande
zeles
zelle
zelles
zels
zelzo
zene
zengui
zenofobeye
zer
zero
zes
zeu
zeure
zeus
zeuse
zez
zgh
zh
zi
zia
zicion
zido
zie
zijn
zimte
zin
zine
zinme
zion
zions
zire
zita
zitifs
zivembordjwe
zivembork
zivenbork
ziyea
ziyon
zlete
zletes
zlike
znut
zo
zola
zoli
zolodjeye
zoly
zon
zone
zones
zonigne
zono
zoo
zoom
zoreyya
zos
zou
zouple
zoupler
zous
zre
zu
zucion
zucions
zullen
zultan
zultans
zumint
zuvion
zwer
zwers
zy
zyin
zyinme
{
|
}
~


¨
«
­
°
±
²
³
´
µ
·
º
»
¼
½
¾
¿
×
ß
æ
ð
ø
đ
ħ
ı
œ
œuvres
ɑ
ɔ
ɘ
ə
ɛ
ɣ
ɪ
ɲ
ʀ
ʃ
ʒ
ʔ
ʝ
ʤ
ʦ
ʧ
ʰ
ʷ
ʾ
ˁ
ˈ
ˌ
ː
̀
́
̂
̃
̄
̆
̇
̈
̉
̊
̋
̌
̓
̛
̣
̦
̧
̨
̩
̸
΄
α
β
γ
δ
ε
ζ
η
θ
ι
κ
λ
μ
ν
ξ
ο
π
ρ
ς
σ
τ
υ
φ
χ
ψ
ω
а
б
в
г
д
е
ж
з
и
к
л
м
н
о
п
р
с
т
у
ф
х
ц
ч
ш
щ
ъ
ы
ь
э
ю
я
է
։
֊
ְ
ׁ
מ
ש
؟
ء
ا
الا
ب
بن
ة
ت
ج
ح
خ
د
ر
ز
س
ش
ص
ض
ط
ع
غ
ف
ق
ك
ل
م
ن
ه
و
ى
ي
َ
ُ
ِ
ّ
ْ
ٓ
ٔ
ٕ
প
র
ি
ু
্
ക
ഞ
ത
ാ
ി
െ
്
་
།
ཀ
ཁ
ག
ང
ཆ
ཉ
ཐ
ད
ན
པ
བ
མ
ཚ
འ
ཡ
ར
ལ
ཤ
ས
ི
ུ
ེ
ོ
ྐ
ྒ
ྟ
ྤ
ྩ
ྱ
ྲ
ླ
ក
ខ
គ
ឃ
ង
ច
ឆ
ជ
ឈ
ញ
ដ
ឋ
ឌ
ឍ
ណ
ត
ថ
ទ
ធ
ន
ប
ផ
ព
ភ
ម
យ
រ
ល
វ
ឝ
ឞ
ស
ហ
ឡ
អ
ឣ
ឤ
ឥ
ឦ
ឧ
ឨ
ឩ
ឪ
ឫ
ឬ
ឭ
ឮ
ឯ
ឰ
ឱ
ឲ
ឳ
឴
឵
ា
ិ
ី
ឹ
ឺ
ុ
ូ
ួ
ើ
ឿ
ៀ
េ
ែ
ៃ
ោ
ៅ
ំ
ះ
ៈ
៉
៊
់
៌
៍
៎
៏
័
៑
្
៓
។
៕
៖
ៗ
៘
៙
៚
៛
ៜ
០
១
២
៣
៤
៥
៦
៧
៨
៩
ᵊ
ᵒ
ᵗ
‎
‑
‒
–
—
‘
’
“
”
„
†
•
…
′
‿
ⁿ
€
→
↔
↳
↷
⇒
⇔
≡
≤
③
④
⑦
☉
☾
➘
➙
➚
⟨
⟩
ⴰ
ⴱ
ⴳ
ⴴ
ⴵ
ⴷ
ⴹ
ⴻ
ⴼ
ⴽ
ⵀ
ⵃ
ⵄ
ⵅ
ⵇ
ⵉ
ⵊ
ⵍ
ⵎ
ⵏ
ⵓ
ⵔ
ⵕ
ⵖ
ⵙ
ⵚ
ⵛ
ⵜ
ⵟ
ⵡ
ⵢ
ⵣ
ⵥ
ⵯ
⺀
⺄
⺆
⺈
⺊
⺌
⺕
⺝
⺸
⺼
⿰
⿱
⿲
⿳
⿴
⿵
⿶
⿷
⿸
⿹
⿺
⿻
。
〢
う
し
つ
の
や
ゅ
ら
る
ん
゙
゚
ア
ク
コ
ス
ソ
ト
ニ
ユ
ン
ー
㇁
㇂
㇄
㇇
㇈
㇉
㇓
㐁
㐄
㐅
㐌
㐫
㐬
㐭
㐮
㐱
㑒
㒵
㒸
㒼
㓁
㓞
㔾
㕛
㕣
㖾
㘝
㚅
㚇
㚔
㚘
㝉
㝡
㝴
㝵
㞋
㞢
㞷
㠩
㠭
㠯
㡀
㡭
㡿
㢲
㢴
㣇
㣺
㥯
㪅
㫄
㫐
㫒
㫺
㬅
㬎
㬥
㬰
㲋
㳄
㷠
㸒
㸚
㸦
㼌
㼲
㽞
㿟
䀠
䂞
䍃
䏍
䒑
䖍
䖒
䖝
䖵
䙴
䚻
䜌
䝿
䡛
䧹
䪞
一
丁
丂
七
丄
丅
丆
万
丈
三
上
下
丌
不
与
丏
丐
丑
专
且
丕
世
丘
丙
业
东
丞
丢
丣
两
严
並
丨
丩
个
丫
丬
中
丮
丰
丱
串
丵
丶
丷
丸
丹
为
主
丽
丿
乀
乂
乃
久
乆
乇
么
义
之
乌
乍
乎
乏
乐
乑
乔
乖
乗
乘
乙
乚
乛
乜
九
乞
也
习
乡
乳
乾
亀
亅
了
亇
予
争
事
二
亍
于
亏
亐
云
互
亓
五
井
亘
亚
亜
亞
亟
亠
亡
亢
交
亥
亦
产
亨
亩
享
京
亭
亮
亯
亰
亲
亳
亶
亷
人
亻
亼
亾
仁
今
介
仌
从
仐
仑
仒
仓
仕
他
付
仝
代
令
以
任
企
伊
伏
伐
休
会
伯
但
位
何
佘
余
作
佥
使
來
侈
侌
侖
侯
侵
便
保
俞
信
修
倉
倍
候
倠
備
僉
僕
儿
兀
允
兂
元
兄
充
兆
兇
先
光
兊
克
兌
免
兑
兒
兓
兔
党
兜
兟
入
全
兩
兪
八
公
六
兮
兰
共
关
兵
其
具
典
兹
兼
冀
冂
冃
冄
内
冈
冉
冊
冋
册
再
冎
冏
冐
冒
冓
冖
冗
冘
军
农
冝
冡
冥
冫
冬
冷
几
凡
凢
凵
凶
凷
凸
凹
出
函
凾
刀
刁
刂
刃
刄
刅
分
切
刍
刑
刕
刖
列
刘
则
初
別
利
别
到
制
刺
刻
則
削
剌
前
剡
剽
劉
力
功
加
劦
助
劫
劳
劵
勃
勇
勉
勒
動
務
勞
勤
勹
勺
勻
勾
勿
匀
匂
包
匆
匈
匊
匋
匍
匕
化
北
匚
匝
匡
匪
匱
匸
匹
区
医
匽
匿
區
十
卂
千
卄
卅
卆
升
午
卉
半
卌
华
卑
卒
卓
单
卖
南
卜
卝
卞
占
卡
卢
卣
卤
卦
卩
卪
卬
卯
印
危
即
却
卵
卷
卸
卻
厂
厃
厄
历
厈
厉
厌
厓
厘
厚
原
厤
厥
厨
厭
厲
厶
厷
厸
去
厼
厽
叀
参
參
叅
又
叉
及
友
双
反
叐
发
叒
叔
叕
取
受
叚
叜
叟
口
古
句
另
叩
只
召
可
台
叱
史
右
叵
号
司
叹
吂
各
吅
合
吉
吊
吋
同
名
后
吏
向
吕
君
吝
吞
否
含
启
吳
吴
吹
吾
呂
呆
呈
告
员
呙
周
命
咅
和
咎
咠
咢
咨
咸
咼
哀
品
哉
員
哥
哲
唐
商
啇
問
啚
啬
啻
善
喜
喬
單
喿
嗇
噩
嚴
囊
囗
囘
囙
囚
四
回
囟
因
囧
囬
困
囱
囷
固
国
圂
圅
國
圍
圓
土
圡
圣
圥
在
圭
地
圶
圼
坐
坒
坚
坴
垂
垔
垚
埀
埋
埶
執
基
堂
堅
堆
堇
堯
塞
墨
壘
士
壬
壯
声
壳
壴
壹
壺
壽
夂
处
夅
夆
备
夊
夋
夌
复
夏
夒
夕
外
夗
夘
多
夜
夢
大
夨
天
太
夫
夬
夭
央
失
夲
头
夷
夸
夹
夻
夾
奂
奄
奇
奈
奉
奎
奏
奐
契
奓
奔
奚
奞
奠
奢
奥
奭
女
奴
奻
好
如
妄
妙
妟
妥
妻
妾
姑
委
姜
威
娄
婁
婴
嬰
嬴
子
孑
孔
孕
孖
字
存
孚
孛
孝
孟
季
孤
学
孫
孱
學
宀
宁
宂
它
宅
宇
守
安
宋
完
宏
宓
宗
官
定
宛
宜
宝
客
宣
室
宮
宰
害
家
容
宾
宿
寄
寅
密
富
寒
察
寧
審
寫
寬
寮
寸
对
寺
寻
寽
対
寿
封
尃
射
将
將
專
尉
尊
尋
尌
對
小
少
尒
尓
尔
尖
尗
尚
尞
尢
尣
尤
尧
尨
尭
就
尸
尹
尺
尻
尼
尽
尾
尿
局
居
屈
屋
屎
屏
屑
展
屖
屚
属
屠
屡
屬
屮
屯
屰
山
屵
屾
岁
岂
岑
岡
岩
岳
岸
峯
島
崇
崑
崔
崖
崙
崩
嵬
嶲
巂
巛
川
州
巟
巠
巢
巤
工
左
巧
巨
巩
巫
差
己
已
巳
巴
巷
巸
巽
巾
巿
帀
市
布
希
帚
帛
帝
带
師
席
帶
常
干
平
年
幵
并
幷
幸
幺
幻
幼
幽
幾
广
広
庄
床
底
店
庚
府
度
庫
庭
庶
康
庸
廉
廌
廛
廣
廩
廴
延
廷
建
廾
廿
开
弁
弃
弄
弇
弋
式
弓
弔
引
弗
弘
弜
弟
弥
弦
弱
張
強
强
彊
彌
彎
彐
彑
当
彔
录
彖
彗
彡
形
彥
彦
彧
彭
彳
役
彼
往
待
律
徒
得
徙
從
復
微
徵
德
心
忄
必
忌
忍
志
忝
忠
忩
快
念
忽
忿
思
怠
急
怱
恆
恒
恩
恭
息
悉
患
悤
悲
悶
惠
惡
惢
愁
愈
意
愛
感
慈
慧
慮
憂
憲
應
戀
戈
戉
戊
戋
戌
戍
戎
成
我
戒
戔
或
戚
戠
戢
截
戲
戶
户
戹
戼
戾
房
所
扁
扇
手
扌
才
打
托
执
承
折
拉
拜
拼
拿
掌
推
提
摩
支
攴
攵
收
攸
改
放
政
敄
敏
敕
敖
敗
敝
敞
敢
散
敦
敫
敬
数
敷
數
斂
文
斉
斊
斗
斤
斥
斩
斬
斯
新
方
於
施
斿
旁
旋
族
无
旡
既
旣
日
旦
旧
旨
早
旬
旱
旲
时
旾
昆
昇
昌
昍
明
昏
易
昔
昗
昜
星
春
昬
是
昱
昴
昷
時
晃
晋
晏
普
景
晶
智
暑
暴
曇
曜
曩
曰
曲
曳
更
曷
書
曹
曼
曾
替
最
朁
會
月
有
朋
服
朔
朕
朗
望
朝
期
木
朩
未
末
本
札
朮
术
朱
朵
朶
朿
杀
杏
杜
束
条
来
東
杲
杳
松
析
林
枚
果
枝
枲
枼
某
柔
查
柬
柰
柴
栗
桀
桑
桼
梁
條
梟
梨
棘
棠
棥
森
楚
業
楽
榮
樂
樊
橋
欠
次
欣
欮
欲
欶
欽
款
歆
歇
歛
止
正
此
步
武
歨
歪
歮
歯
歰
歲
歴
歷
歸
歹
歺
死
殳
段
殷
殸
殹
殺
殻
殿
毋
毌
母
每
毒
比
毕
毚
毛
毳
氏
氐
民
气
氣
水
氵
氶
氷
永
氺
氾
求
汉
汝
汞
江
沃
沓
沙
沝
河
泉
法
波
泣
泥
泰
洛
洪
活
派
流
浦
浪
浮
淡
淮
清
渚
渠
湖
湯
滿
漢
漸
火
灬
灭
灰
灵
灷
炅
炎
炏
炗
炙
炭
為
烈
烏
烝
焉
無
焦
焱
然
煞
熊
熏
燕
營
燮
爪
爫
爭
爯
爰
爱
爲
爵
父
爻
爽
爾
爿
片
牙
牚
牛
牜
牟
牢
牧
物
牪
牽
犀
犬
犭
犮
狂
狄
狊
独
狺
猋
猒
猪
献
獻
玄
率
玉
王
玟
玨
珎
班
琴
瑟
瑩
璠
瓜
瓦
甘
甚
生
産
用
甫
甬
田
由
甲
申
电
甶
男
甸
甹
画
甾
畀
界
畏
畐
留
畜
畟
畢
畧
畨
番
畫
異
畱
當
畺
畾
疊
疋
疌
疑
疒
疾
癶
癸
癹
登
發
白
百
皀
皃
的
皆
皇
皋
皐
皕
皮
皷
皿
盃
盆
盇
盈
益
盍
盎
监
盒
盖
盛
盡
監
盤
盧
目
直
相
盾
省
眇
眉
看
県
眔
眞
真
眷
眼
眾
着
睘
睪
睿
瞏
瞢
瞿
矍
矛
矞
矢
矣
知
矦
短
石
破
碎
磊
磨
示
礻
礼
祟
票
祭
禀
禁
福
禸
禹
禺
离
禽
禾
禿
秀
秃
秉
秋
科
秝
秦
移
稟
穀
穌
穴
究
穹
空
穿
突
窄
窒
立
竒
竜
竝
竟
章
童
竹
笑
笠
筆
等
答
箕
算
箴
節
篤
篭
米
粉
粛
粟
粤
粦
粲
糞
糸
糹
系
約
納
素
索
紫
累
細
絜
絫
絲
維
綿
縣
繇
纍
纟
经
缶
网
罒
罔
罕
罗
罙
罡
罢
罪
署
罷
羅
羊
羌
羍
美
羔
羕
羗
羞
羡
羣
群
義
羲
羸
羽
翁
翏
習
翕
翟
翠
翼
老
耂
考
者
耆
而
耎
耑
耒
耳
耴
耶
耷
聂
聊
聖
聚
聶
聿
肀
肃
肅
肉
肖
肙
肥
肩
肯
育
肴
胃
背
胡
胥
能
脊
脩
膚
臣
臤
臧
自
臬
臭
臯
臱
至
致
臺
臼
臽
臾
臿
舀
舂
舄
與
興
舉
舌
舍
舛
舜
舞
舟
般
艮
良
色
艸
艹
艾
芒
芔
芬
芮
花
芳
芺
芻
苔
苗
苟
若
苦
英
茶
茸
荅
草
荒
荣
荼
莆
莧
莫
莽
菆
菊
菐
華
萬
落
葉
著
葛
董
葵
蒙
蒦
蒼
蓋
蓬
蓺
蔑
蔡
蕉
蕭
薄
薛
薦
薰
藍
藏
藥
蘭
虍
虎
虐
虒
虔
處
虖
虗
虘
虚
虛
虜
虞
虫
虽
蚤
蚩
蜀
蜜
蟲
蠡
血
行
衍
衛
衣
衤
表
衮
衰
袁
袞
装
褭
褱
襄
襾
西
覀
要
覃
見
規
覓
覧
親
覽
见
角
解
言
訁
訇
計
話
詹
語
誩
諸
讠
话
语
谷
豆
豈
豊
豐
豕
豖
豙
象
豦
豩
豪
豸
貇
貝
貞
貟
負
貢
貧
貪
貫
責
貳
貴
買
費
賁
資
賈
賏
賓
賔
賛
賞
賢
賣
質
賴
贊
贝
贡
责
贯
贲
贵
赖
赞
赤
赦
走
越
足
路
蹇
身
躬
車
軍
軎
軟
軽
輦
车
辛
辜
辟
辥
辰
辱
農
辵
辶
边
达
过
近
连
迷
追
退
送
逆
逐
通
速
造
逢
連
逮
週
進
遀
遂
過
道
達
遣
適
遷
遺
邊
邑
邕
那
邦
邪
郎
部
郭
都
鄉
酉
酋
配
酓
釆
采
里
重
野
量
金
釒
錢
钅
長
镸
长
門
閃
閉
開
閏
閑
閒
間
閔
閵
閻
闌
门
间
闷
阑
阜
阝
阿
降
陳
隆
隊
隋
隡
隨
隱
隶
隹
隺
隻
隼
隽
难
雀
雁
集
雈
雋
雍
雐
雔
雙
雚
雜
雝
離
難
雨
雩
雪
雲
零
雷
需
霍
霜
霝
霞
霸
靈
靑
青
非
靡
面
靣
革
韋
韦
韭
韯
韱
音
頁
頃
項
須
頗
頡
頻
顛
页
風
风
飛
飞
食
飠
養
饣
首
香
馬
馮
駦
马
骨
高
髟
鬥
鬯
鬲
鬼
魚
魯
鮮
鱼
鲁
鳥
鳳
鸟
鹵
鹿
麃
麗
麥
麦
麻
黃
黄
黍
黎
黑
黒
黨
黹
黽
黾
鼎
鼓
鼠
鼻
齊
齋
齐
齒
齿
龍
龙
龜
龟
龠
龰
龱
龴
龵
龶
龷
龸
龹
者
艹
ﬁ
，
？
🜨
𠀁
𠀃
𠀆
𠀉
𠀎
𠀐
𠁁
𠁣
𠂆
𠂇
𠂈
𠂉
𠂊
𠂋
𠂎
𠂒
𠂔
𠂛
𠂡
𠂢
𠂤
𠂬
𠂭
𠂹
𠃊
𠃋
𠃌
𠃍
𠃎
𠃑
𠃓
𠃔
𠃜
𠄌
𠄎
𠄠
𠄢
𠆢
𠆥
𠇍
𠈌
𠌵
𠓜
𠔉
𠔥
𠔼
𠔽
𠔿
𠕀
𠕁
𠕋
𠘧
𠘨
𠙻
𠙼
𠚏
𠚒
𠚤
𠚪
𠣏
𠤎
𠤕
𠥓
𠦄
𠦑
𠦝
𠧒
𠧗
𠧪
𠩺
𠪚
𠫓
𠫔
𠫤
𠬛
𠬝
𠬞
𠬢
𠬤
𠬶
𠮛
𠮦
𠮷
𠯑
𠱠
𠳮
𠷎
𡈼
𡉀
𡉵
𡌥
𡍮
𡏳
𡕒
𡕩
𡕰
𡖅
𡗗
𡗜
𡘆
𡘤
𡧱
𡨄
𡩧
𡬠
𡭽
𡰣
𡰥
𡰪
𡰯
𡰱
𡷈
𡸁
𡿨
𡿩
𡿪
𡿺
𢀖
𢀛
𢀩
𢁙
𢆉
𢆰
𢆶
𢇁
𢇇
𢉖
𢌬
𢌿
𢏚
𢑑
𢑚
𢖻
𢙣
𢛳
𢦏
𢦒
𢧵
𢼄
𢾕
𣁋
𣄼
𣅀
𣅽
𣍘
𣎳
𣎵
𣏋
𣏼
𣗥
𣥂
𣥖
𣦵
𣦼
𣧄
𣪊
𣪠
𣬉
𣳾
𣶒
𤇾
𤊽
𤐫
𤓰
𤔔
𤕨
𤣩
𤰇
𤰔
𤰞
𤴓
𤴔
𤽄
𥁑
𥁕
𥃦
𥃩
𥃭
𥇡
𥑟
𥘅
𥘈
𥝢
𥫗
𥱡
𦈢
𦉪
𦉬
𦉼
𦍌
𦍒
𦎧
𦐇
𦓔
𦔮
𦘒
𦙃
𦚏
𦣝
𦣞
𦣻
𦥑
𦥔
𦥯
𦨉
𦭝
𦰩
𧆞
𧈧
𧘇
𧰨
𧴪
𧴮
𧵩
𧾷
𨸏
𨾴
𩙿
𩠐
𩫏
𩵋
𪉷
𪜀
𪟽
𪠲
𪩲
𫇦
𫔭
𫜸
𫝀
𫠣
𫠩
𫢉
𫥞
𫩏
𫩠
𫪡
𫲽
𫶧
𬀷
𬐘
𬗌
𬙙
𬛸
𬜯
𬟩
𬯁
𬴘
𬺻
𬼉
𬼖
𭀰
𭁈
𭁨
𭅰
𭑈
𭕄
𭗼
𭤨
𭥫
𭻾
𮅕
𮊿
𮍌
𮍏
𮓗
𮥼
𮧮
廾
𰀁
𰀄
𰀈
𰀉
𰀕
𰀠
𰀡
𰀢
𰀪
𰁜
𰃮
𰆊
𰆘
𰋙
𰕎
𰢴
𰧭
𰯲
00--
01--
02--
03--
04--
05--
08--
09--
100--
38--
40--
41--
42--
43--
44--
45--
46--
48--
49--
50--
51--
52--
53--
54--
55--
56--
57--
58--
59--
60--
61--
62--
63--
64--
65--
66--
67--
68--
69--
70--
71--
73--
74--
76--
77--
78--
79--
80--
81--
87--
90--
91--
93--
94--
98--
a--
aa--
aabd--
aabi--
ab--
aba--
abat--
abdel--
abe--
abi--
abo--
abond--
abro--
abu--
ac--
acaw--
acci--
ace--
acer--
ach--
aci--
acli--
aco--
aconco--
acou--
acse--
act--
actino--
acu--
acwa--
ad--
ada--
adapt--
addjecti--
ade--
adj--
ado--
adopt--
adro--
adu--
adv--
advie--
ae--
aff--
afi--
afla--
aflou--
afri--
ag--
aga--
agoli--
agricul--
agron--
agu--
ah--
aha--
ahe--
ai--
air--
ais--
aiw--
aiwi--
aj--
ajou--
aju--
ak--
aki--
aksei--
al--
ala--
albe--
alca--
ale--
alge--
ali--
all--
alle--
alo--
alou--
alph--
alt--
alter--
am--
ama--
amant--
ambe--
ame--
amer--
ami--
amoi--
amu--
an--
ana--
analy--
and--
ane--
ang--
angli--
angui--
ani--
ano--
ans--
ant--
anti--
ap--
apa--
ape--
api--
apo--
apou--
apurdi--
apwa--
ar--
ara--
araeg--
arc--
archi--
are--
ari--
arin--
arkeyol--
armi--
aro--
arou--
art--
artifi--
artis--
as--
asco--
ashon--
ashy--
aspi--
asple--
assa--
assi--
assoun--
asta--
at--
ata--
atch--
ate--
ath--
atmos--
ato--
atou--
atre--
atri--
atro--
atten--
au--
augu--
aur--
aus--
aut--
auto--
autru--
av--
ava--
ave--
avi--
aviyixh--
avo--
aw--
awi--
axh--
ay--
aye--
ayi--
az--
aza--
b--
ba--
bab--
bac--
bah--
bai--
bal--
bala--
ban--
bapti--
bar--
bas--
bat--
bata--
bati--
batu--
bau--
bay--
be--
bea--
beau--
beg--
bel--
bella--
belve--
ben--
berbi--
berde--
berg--
berwe--
bes--
bey--
bi--
bib--
bibli--
bie--
biedj--
bier--
big--
bij--
bike--
bin--
bina--
bio--
bis--
biyo--
bla--
blan--
blant--
ble--
blin--
bo--
boe--
bol--
bon--
bos--
boski--
bot--
bou--
boukin--
boul--
boun--
bour--
bout--
bouw--
bouxh--
bovi--
boy--
br--
bra--
brac--
brai--
bras--
bre--
bri--
bro--
brou--
bru--
bu--
buis--
burta--
bus--
but--
bwa--
bwe--
bwejh--
by--
c--
ca--
cabe--
cabi--
cabu--
caf--
cafou--
cai--
cal--
cala--
cale--
cali--
calin--
cam--
camp--
can--
cana--
cani--
cap--
capou--
car--
carda--
care--
carima--
cario--
caroli--
carto--
cas--
casti--
cau--
cay--
ce--
cend--
cer--
ces--
cf--
ch--
cha--
chal--
charle--
chau--
che--
cher--
chi--
cho--
chry--
chu--
ci--
cial--
cie--
cimi--
cin--
cir--
cis--
cit--
citwe--
cl--
cla--
clande--
cle--
cli--
clo--
cm--
cmand--
cni--
cno--
co--
cocc--
cocs--
coe--
coid--
coir--
coixh--
col--
cole--
colni--
com--
comi--
comin--
compa--
compli--
complu--
comu--
con--
conc--
coni--
conju--
cons--
constru--
cont--
contem--
conv--
coor--
cop--
cope--
cor--
cori--
cot--
cou--
coujh--
couni--
cour--
cout--
cov--
coxh--
coz--
cpa--
cra--
cran--
crapu--
cre--
cri--
cris--
criti--
cro--
crois--
cru--
cs--
cta--
ctoi--
ctri--
cu--
cul--
cur--
cwa--
cwar--
cwe--
cwi--
cwir--
cy--
cyn--
d--
da--
dal--
dam--
dan--
dans--
dar--
dat--
dau--
dd--
de--
defe--
del--
deli--
demo--
democra--
den--
der--
des--
deu--
dg--
di--
dia--
dica--
diccionair--
dici--
did--
didje--
die--
dij--
dik--
dim--
din--
dint--
dio--
diplo--
dir--
direc--
diri--
dis--
disclo--
discu--
disdjo--
disfou--
disla--
dist--
dit--
div--
diya--
dj--
dja--
djaen--
djan--
djau--
dje--
djer--
djeyo--
dji--
djo--
djos--
djou--
dju--
djuj--
djups--
dm--
dme--
dmor--
do--
dob--
doc--
doe--
doim--
dol--
dom--
don--
dos--
dou--
dra--
dre--
dri--
dro--
dru--
ds--
du--
dub--
duc--
dun--
dus--
duv--
dv--
dvi--
dwa--
dwe--
dy--
dz--
dzeu--
dzo--
e--
ea--
ebe--
ec--
eca--
ece--
ech--
eco--
ecoxh--
ed--
edi--
edoi--
edu--
ee--
eff--
efou--
efu--
eg--
egu--
egz--
egzo--
eha--
ei--
eki--
el--
ele--
elec--
eli--
elicop--
em--
emi--
emis--
en--
end--
engle--
ensei--
epa--
epi--
eplo--
er--
era--
ercon--
ere--
eri--
ero--
es--
esca--
espli--
espo--
ess--
esse--
est--
esti--
et--
eta--
etcher--
eter--
eu--
euro--
eve--
evi--
evo--
ewal--
ex--
exi--
expli--
ez--
f--
fa--
fac--
faflo--
fai--
fal--
faloe--
fan--
fat--
fau--
favo--
faw--
fe--
fel--
fer--
feu--
fi--
fie--
fig--
fil--
filo--
fin--
fini--
fis--
fistu--
fizi--
fl--
fla--
flai--
fle--
fli--
flo--
flu--
fn--
fo--
foeti--
foi--
foirt--
font--
for--
fort--
fos--
foto--
fou--
four--
fouxh--
fra--
fraw--
fre--
fri--
frin--
fro--
froid--
frou--
fru--
frum--
frumi--
ft--
fu--
ful--
fwa--
fwe--
g--
ga--
gad--
gal--
gala--
gali--
gang--
gard--
garg--
gaul--
gaz--
ge--
geo--
ger--
ges--
gf--
gh--
gi--
gis--
gla--
glau--
glaw--
gle--
gli--
glo--
gn--
gne--
gno--
go--
gob--
god--
goir--
gol--
gon--
gos--
gou--
goys--
gr--
gra--
grae--
gram--
gran--
grandi--
gre--
grec--
gri--
grimbie--
grin--
gro--
gron--
grou--
gru--
gu--
gue--
gui--
guy--
gwa--
gza--
gzi--
h--
ha--
habi--
hai--
hal--
ham--
han--
hant--
har--
hat--
hau--
haw--
hay--
he--
hei--
hel--
hem--
hend--
henr--
hens--
her--
hes--
het--
heu--
hey--
hi--
hie--
hik--
hil--
hin--
histo--
ho--
hon--
hop--
hot--
hou--
houl--
hu--
hy--
hydro--
hypo--
i--
ia--
id--
ideyo--
ie--
ik--
il--
illust--
im--
ima--
imper--
impli--
impo--
impri--
ims--
in--
inde--
indi--
indo--
indou--
indus--
inf--
inflou--
influ--
ing--
inspe--
insta--
instru--
int--
inte--
interp--
ir--
is--
isto--
it--
ita--
iv--
iy--
izo--
j--
ja--
jac--
jamb--
jan--
je--
jer--
jes--
jh--
jhi--
jhon--
ji--
jim--
jo--
jodo--
jon--
jou--
ju--
jug--
k--
ka--
kai--
ke--
kel--
kem--
ken--
ker--
kerna--
kes--
keu--
key--
kha--
ki--
kim--
kin--
kinoh--
kitoi--
kla--
kle--
kli--
km--
ko--
kon--
kou--
ksp--
ku--
kwi--
ky--
l--
la--
laga--
lai--
lam--
lamb--
lambil--
lan--
las--
lat--
lau--
law--
le--
lea--
lec--
lee--
lem--
lenin--
les--
let--
leu--
ley--
lgi--
lh--
li--
lie--
lig--
lijh--
lim--
lin--
lis--
lit--
liv--
lo--
loc--
loca--
loi--
lon--
long--
lor--
los--
lot--
lou--
louc--
louwa--
louwi--
lu--
luc--
lwe--
ly--
m--
ma--
mac--
macsi--
mad--
mag--
mai--
mak--
maki--
mal--
mam--
man--
manc--
mar--
mara--
marga--
mari--
mars--
mas--
mat--
mau--
maw--
max--
may--
maz--
maza--
mc--
me--
mecani--
mecs--
med--
mega--
mel--
men--
mer--
mes--
messaedj--
met--
meu--
mey--
mi--
micob--
micop--
micro--
mics--
mie--
mil--
mili--
mill--
mimb--
min--
mini--
mint--
mis--
mitra--
miyo--
mnu--
mo--
mobi--
mod--
mode--
moi--
mol--
mon--
mons--
mor--
mori--
mos--
mot--
mou--
mour--
moxh--
mt--
mu--
mul--
multi--
mus--
mut--
muz--
muzu--
mwa--
mwai--
mwe--
mwin--
my--
mzu--
n--
na--
nac--
nai--
nan--
nas--
nat--
nau--
naza--
nd--
ndjoli--
ne--
ner--
nes--
net--
neu--
neur--
new--
neya--
ng--
ni--
nie--
nij--
nin--
nk--
nn--
no--
noer--
nom--
non--
nor--
not--
nou--
nouv--
nouwa--
nov--
nr--
ns--
nt--
nu--
nut--
ny--
o--
ob--
obli--
oc--
occ--
oce--
ocu--
odo--
oe--
of--
offi--
oh--
oi--
ok--
ol--
oli--
olo--
om--
ombra--
on--
onc--
onie--
oo--
op--
or--
ora--
ore--
orfu--
org--
ori--
orid--
oriy--
oro--
ortografi--
os--
ot--
oto--
otori--
ou--
oub--
ouf--
our--
out--
ouv--
ouz--
ov--
over--
ovi--
ox--
oz--
p--
pa--
pac--
pad--
pai--
pail--
pal--
pam--
pan--
pans--
par--
para--
paratchu--
pare--
paris--
park--
pas--
pastu--
pata--
patri--
pau--
paw--
pay--
paya--
pe--
pel--
pen--
per--
peri--
pes--
peti--
petro--
pexh--
pezi--
ph--
phil--
phili--
pi--
pia--
pic--
pica--
pich--
pid--
pie--
pin--
piron--
pis--
pla--
plac--
plai--
plan--
ple--
plo--
plu--
po--
poe--
poit--
pol--
poli--
polygo--
pom--
pon--
pond--
pop--
por--
porc--
pos--
pot--
pou--
pouch--
pour--
pr--
pra--
prati--
pre--
pri--
pro--
profe--
pru--
ps--
psy--
pt--
pte--
pu--
pub--
publi--
puf--
put--
pwa--
pwe--
pwo--
py--
q--
qu--
qua--
que--
quer--
qui--
qwa--
r--
ra--
rab--
rabin--
rabo--
rac--
raca--
rad--
radio--
raez--
ragos--
rai--
rak--
rakeu--
ral--
rala--
rale--
ralo--
ram--
rami--
ran--
rap--
rapa--
rappe--
rapre--
rapu--
ras--
rascov--
rashi--
raske--
rat--
ratae--
ratat--
ratro--
rau--
rava--
ravi--
raw--
rawi--
ray--
rb--
rba--
rbe--
rbi--
rbo--
rbu--
rc--
rca--
rce--
rci--
rco--
rcom--
rcwer--
rd--
rde--
rdi--
rdin--
rdu--
re--
rea--
rech--
red--
redi--
redji--
redjon--
reg--
reli--
rem--
ren--
res--
respi--
ret--
reu--
rey--
rez--
rfu--
rg--
rga--
rgu--
rh--
ri--
ric--
rice--
ricnoxh--
rico--
ricom--
ricwi--
rid--
ridis--
ridro--
rif--
rifond--
rifranci--
riglat--
rigui--
rik--
rile--
rim--
rima--
rime--
rimi--
rin--
rind--
rio--
ris--
ristu--
rit--
riv--
riwai--
riwaloni--
rk--
rl--
rla--
rle--
rli--
rlo--
rlu--
rma--
rme--
rmi--
rmu--
rna--
rne--
rni--
rno--
ro--
rob--
robie--
roe--
roj--
rok--
rom--
ron--
rortogra--
ros--
rot--
rota--
rou--
roz--
rp--
rpe--
rpoi--
rprez--
rpro--
rs--
rsae--
rse--
rshon--
rsi--
rsint--
rso--
rt--
rta--
rti--
rtro--
ru--
ruv--
rva--
rvi--
rvin--
rvo--
rwe--
ry--
s--
sa--
sab--
sac--
sai--
sal--
sala--
salouwa--
salva--
sam--
san--
sanctu--
saq--
saqwa--
sar--
sasca--
sat--
sau--
sav--
sbar--
sc--
sca--
scau--
sch--
scha--
schaer--
schi--
scho--
sco--
scra--
scri--
scul--
se--
secsuwe--
sego--
sel--
sem--
sent--
ser--
set--
seu--
sex--
sey--
sgo--
sh--
she--
shi--
shofel--
shu--
si--
sic--
sicol--
sie--
sier--
sike--
sil--
sim--
simpli--
sin--
sina--
sino--
sipi--
sir--
sis--
siti--
sitra--
sk--
ske--
ski--
sla--
slo--
sm--
sn--
snow--
so--
sobri--
socio--
soe--
sohait--
soi--
sol--
som--
son--
sondj--
sor--
sos--
sot--
sou--
souff--
sour--
sov--
sove--
soyo--
sp--
spa--
spau--
spe--
spi--
splaw--
split--
spo--
squ--
ss--
ssa--
st--
sta--
ste--
sti--
stit--
sto--
stoir--
stra--
stri--
strou--
stru--
stu--
su--
sub--
suc--
sud--
sul--
supp--
sur--
sus--
sv--
svie--
swe--
sy--
syinti--
syl--
sylves--
synago--
t--
ta--
tab--
tabu--
taen--
tai--
tal--
tam--
tan--
tas--
tat--
tau--
tch--
tcha--
tche--
tchen--
tches--
tchi--
tchimi--
tcho--
te--
tec--
tech--
tel--
tele--
tem--
ten--
ter--
tes--
tex--
teyo--
th--
tha--
the--
this--
ti--
tibe--
ties--
tiesti--
tif--
tijh--
til--
timp--
tin--
tind--
tinki--
tint--
tir--
tiri--
tis--
tit--
titul--
tl--
to--
tocs--
tocsiboy--
toi--
tom--
ton--
topon--
tos--
tot--
tota--
tou--
tour--
tous--
touw--
tra--
tradji--
tran--
tranqui--
trans--
tre--
tri--
tric--
trigo--
trim--
trimb--
trin--
tro--
troe--
tron--
trou--
tru--
ts--
tt--
tu--
tuni--
tur--
twa--
ty--
u--
ud--
ug--
uk--
ul--
umb--
un--
uni--
unun--
up--
uro--
urs--
us--
ut--
v--
va--
vai--
val--
van--
var--
vas--
vau--
ve--
ver--
ves--
veu--
vexh--
veye--
vi--
via--
vic--
vie--
vier--
vil--
vin--
vind--
vint--
vir--
virolo--
vis--
vit--
viv--
vo--
voe--
voi--
vol--
von--
vos--
vou--
vu--
vul--
w--
wa--
wach--
wacho--
waer--
waeri--
wai--
wal--
wan--
war--
was--
wat--
wau--
way--
we--
welken--
wer--
wes--
west--
wey--
whi--
wi--
wiki--
wil--
win--
wit--
wiy--
wo--
wu--
x--
xh--
xha--
xhe--
xhi--
xhof--
xhor--
xhou--
xhu--
xi--
xx--
y--
ya--
yan--
ye--
yer--
yi--
yin--
yo--
yot--
you--
yu--
z--
za--
zan--
zand--
ze--
zee--
zel--
zhu--
zi--
zin--
zo--
zol--
zon--
zou--
zu--
đ--
œ--
œu--
ɛ--
ʀ--
ʃ--
ʤ--
ʧ--
ا--
ال--
ب--
ع--
ف--
م--
འ--
--0
--1
--2
--3
--4
--40
--5
--6
--62
--7
--8
--9
--94
--a
--able
--ac
--aca
--ace
--ad
--ade
--adje
--ae
--aea
--aedje
--af
--age
--ah
--ai
--aie
--aient
--ain
--aine
--ains
--aire
--aires
--ais
--ait
--ak
--al
--ald
--ale
--alis
--alite
--am
--an
--ana
--anc
--ance
--ances
--ane
--ang
--ani
--ano
--ans
--ant
--ants
--ar
--ard
--aria
--art
--as
--at
--ata
--ate
--ation
--atum
--atus
--au
--aud
--aux
--ay
--az
--b
--ba
--banne
--be
--beek
--ber
--berg
--bes
--bet
--beye
--bi
--biya
--bl
--ble
--bler
--bli
--bo
--bou
--bre
--bs
--bu
--burg
--byi
--c
--ca
--cal
--ccion
--ce
--cea
--ces
--ceus
--ch
--cha
--chaedje
--chas
--che
--cheu
--chi
--chmint
--chote
--cht
--chta
--chte
--ci
--cia
--cio
--cion
--ck
--cke
--co
--cou
--cq
--cre
--cs
--cse
--ct
--cta
--cte
--cter
--ction
--cts
--cu
--cum
--cus
--cute
--cy
--cyin
--d
--da
--dae
--dam
--dazole
--de
--dea
--del
--den
--der
--dera
--des
--detti
--dez
--dge
--dgi
--di
--dike
--din
--dj
--dja
--dje
--djes
--djeye
--dji
--djike
--do
--don
--dou
--ds
--du
--dy
--dyin
--dyinne
--e
--ea
--eas
--eau
--ec
--ece
--ed
--edje
--edjes
--ef
--efs
--ei
--ejde
--ejdes
--ek
--eke
--el
--elaine
--ele
--elet
--els
--em
--ement
--en
--ence
--ene
--ent
--ep
--er
--ere
--ers
--ert
--es
--ese
--essi
--et
--ete
--etes
--ets
--ette
--eu
--eur
--eure
--eurs
--eus
--euse
--euses
--eut
--eux
--eye
--eyes
--eyi
--ez
--ezyin
--f
--fa
--fe
--fen
--fes
--ffe
--fi
--fia
--fo
--folium
--fox
--fra
--fs
--ft
--fte
--fter
--fyi
--g
--ga
--gan
--gas
--ge
--geai
--gem
--gen
--ger
--gh
--ght
--gi
--gium
--gle
--gn
--gna
--gne
--gni
--gniye
--gnnut
--gnre
--gny
--go
--gon
--got
--gou
--gs
--gue
--guem
--gus
--gzi
--h
--ha
--haedje
--han
--he
--heid
--heit
--hem
--hen
--her
--hes
--hh
--hi
--hire
--his
--hium
--hn
--ho
--hr
--ht
--http
--https
--hu
--hus
--hy
--i
--ia
--iae
--ial
--iana
--ias
--ic
--ica
--ice
--ich
--icion
--ico
--ics
--id
--ide
--idi
--ie
--ient
--ier
--iers
--ies
--iet
--ieu
--if
--ifolia
--ifolium
--ifs
--ig
--igne
--igny
--igo
--ii
--ijhi
--ik
--ike
--ikes
--il
--ile
--illa
--illus
--ilo
--im
--ime
--in
--ina
--ince
--ine
--ines
--ing
--ingen
--ini
--inke
--inne
--ino
--ins
--int
--inum
--io
--iom
--ion
--ions
--iote
--ip
--ipe
--ique
--ir
--ira
--ire
--ires
--iri
--irt
--irte
--is
--ische
--ise
--iser
--isme
--iss
--issa
--isse
--isses
--ist
--iste
--it
--ite
--ites
--ition
--its
--itude
--ity
--iu
--ium
--ius
--ive
--iveu
--iveuzmint
--ivyi
--ix
--iy
--iya
--iye
--iyon
--iz
--iza
--ize
--j
--ja
--jd
--je
--jean
--jes
--jet
--jeu
--jeye
--jha
--jhant
--jhe
--jheu
--jhi
--jhne
--jhnut
--ji
--jk
--jni
--jo
--ju
--k
--ka
--kal
--kar
--ke
--ker
--kes
--ki
--kia
--kion
--ko
--kov
--ks
--kt
--kte
--ku
--ky
--l
--la
--lar
--ld
--lde
--le
--len
--ler
--les
--let
--leu
--lf
--li
--lia
--lica
--lie
--lier
--lik
--lin
--lis
--lisse
--lisses
--lite
--live
--liye
--lk
--lke
--ll
--lla
--lle
--lli
--llo
--llon
--llus
--lly
--lo
--loe
--logie
--lon
--lot
--lote
--lpe
--lre
--lresse
--lreye
--ls
--lt
--lu
--lum
--lus
--lx
--ly
--lyin
--lz
--m
--ma
--man
--mans
--mant
--mb
--mbe
--mbie
--mble
--mbre
--me
--ment
--mer
--mes
--mi
--mila
--min
--mint
--mints
--mio
--mis
--mle
--mm
--mme
--mne
--mo
--mon
--mont
--mot
--mp
--mpe
--mpre
--mps
--mre
--mrece
--ms
--mter
--my
--myi
--n
--na
--naire
--naise
--nal
--nant
--nasse
--nay
--nc
--nca
--nce
--nces
--nche
--nci
--nco
--nd
--nda
--ndal
--ndant
--nde
--ndi
--ndja
--ndji
--ndo
--ndre
--nds
--ndt
--ndu
--ne
--nel
--ner
--nes
--net
--nete
--neu
--ng
--nga
--nge
--ngen
--ngue
--nha
--ni
--nia
--nica
--nie
--nier
--nike
--ning
--nio
--niom
--nir
--nis
--nita
--nk
--nke
--nle
--nler
--nme
--nmmint
--nn
--nne
--nnes
--nnt
--nnut
--no
--noe
--nois
--non
--nou
--nque
--ns
--nse
--nsi
--nsis
--nsk
--nster
--nt
--nta
--ntal
--ntche
--nte
--nthus
--nti
--ntilla
--ntin
--nto
--nts
--ntum
--nu
--nuche
--nue
--num
--nut
--nva
--nwe
--nxhe
--ny
--nyin
--nza
--o
--oc
--oche
--od
--oe
--oes
--ogie
--oin
--oine
--oir
--ois
--ol
--ola
--ole
--oles
--olodjeye
--olus
--om
--oma
--ome
--omi
--on
--onde
--one
--oni
--onne
--onner
--ons
--ont
--op
--ops
--opsis
--or
--ori
--ors
--ort
--os
--osa
--ot
--ota
--ote
--ots
--ou
--oul
--ours
--ous
--oux
--ov
--ow
--owe
--owes
--oy
--oz
--p
--pa
--pe
--per
--pet
--ph
--phie
--phorus
--phy
--pi
--ple
--po
--pp
--ppe
--pper
--pre
--ps
--pt
--pta
--pu
--py
--q
--qs
--qu
--que
--qui
--r
--ra
--rai
--ram
--rans
--rant
--ras
--rc
--rce
--rd
--rde
--rdo
--re
--rea
--rece
--reces
--rem
--ren
--rer
--res
--resse
--ret
--reu
--reut
--reye
--reyes
--rez
--rg
--ri
--ria
--rian
--rie
--rijk
--rin
--ris
--rite
--rium
--rius
--rix
--rm
--rma
--rme
--rmes
--rn
--rna
--rne
--rner
--rni
--rnumint
--ro
--rod
--ron
--ront
--ros
--rot
--rou
--roz
--rre
--rs
--rse
--rsi
--rsijde
--rt
--rta
--rte
--rti
--ru
--rum
--rus
--rva
--rval
--rve
--ry
--ryi
--s
--sa
--sal
--sch
--sche
--scope
--se
--see
--sef
--sen
--sent
--ser
--ses
--seu
--sh
--si
--sie
--sin
--sion
--sis
--sk
--ska
--sma
--sme
--smint
--sne
--snut
--so
--son
--ss
--ssa
--ssaedje
--ssart
--sse
--sses
--sseu
--ssez
--ssi
--ssike
--ssois
--sson
--st
--sta
--ste
--sti
--stike
--stra
--su
--sum
--sva
--sy
--t
--ta
--tal
--tan
--tant
--tar
--tch
--tche
--te
--tea
--ted
--teo
--ter
--tes
--teu
--teur
--tg
--th
--ti
--tia
--tic
--tica
--tice
--tico
--ticus
--tie
--tif
--tike
--tiki
--tin
--tinces
--tion
--tis
--tium
--tivmint
--tle
--to
--tole
--ton
--tor
--tou
--toz
--tra
--tre
--treye
--ts
--tsch
--tt
--tta
--tte
--tter
--ttes
--tti
--tu
--tum
--tus
--twe
--ty
--tz
--u
--ua
--uan
--uce
--ucions
--ud
--ude
--udes
--udje
--ue
--ues
--uf
--ui
--uil
--uit
--uje
--ul
--ula
--ule
--um
--ume
--un
--une
--ur
--ura
--ure
--ures
--uri
--urs
--urus
--us
--use
--uses
--usse
--ut
--ute
--uve
--uwe
--ux
--uy
--uye
--uzmint
--v
--va
--val
--vate
--vay
--ve
--vel
--ven
--ver
--ves
--veye
--vi
--vic
--ville
--vnut
--vo
--vr
--vra
--vre
--vri
--vu
--vy
--w
--wa
--waedje
--we
--weg
--wer
--wes
--wetes
--weu
--weye
--wi
--wire
--wn
--wo
--woe
--wre
--ws
--wte
--wyi
--x
--xe
--xh
--xha
--xhaedje
--xhance
--xhances
--xhant
--xhante
--xhants
--xhe
--xheu
--xheure
--xheut
--xhi
--xhmint
--xhnut
--xhoz
--xhre
--xi
--xt
--y
--ya
--yan
--yb
--yd
--ye
--yel
--yer
--yes
--yeu
--yi
--yike
--yin
--yince
--yinne
--yins
--yire
--yisse
--yive
--yle
--ymint
--yn
--yni
--ynut
--yo
--yoe
--yole
--yon
--you
--yowe
--yoz
--yre
--ys
--yt
--yte
--yti
--yu
--z
--za
--zar
--ze
--zen
--zer
--zes
--zet
--zeye
--zi
--zio
--zle
--zmint
--zo
--zu
--zz
--ı
--ɔ
--ɛ
--и
--ب
--ة
--ت
--ح
--د
--رة
--ل
--ي
