!
"
#
##0
##1
##10
##11
##12
##13
##14
##15
##16
##17
##18
##19
##2
##20
##21
##22
##23
##24
##25
##26
##27
##28
##29
##3
##30
##31
##32
##33
##34
##35
##36
##37
##38
##39
##4
##40
##41
##42
##43
##44
##45
##46
##47
##48
##49
##5
##50
##51
##52
##53
##54
##55
##56
##57
##58
##59
##6
##60
##61
##62
##63
##64
##65
##66
##67
##68
##69
##7
##70
##71
##72
##73
##74
##75
##76
##77
##78
##79
##8
##80
##81
##82
##83
##84
##85
##86
##87
##88
##89
##9
##90
##91
##92
##93
##94
##95
##96
##97
##98
##99
$
%
&
'
(
)
*
+
,
-
.
/
0
00
000
0011
003
003257
004
005
009
01
0140
02
03
04
05
050979
06
063
07
08
09
090
099
1
10
100
1000
1001
1002
10053
101
1016
102
103
1037
1038
104
105
1056
106
10665
108
1086
109
1093
11
110
1102
111
1111
112
113
1136
114
115
116
1163
117
1172
118
119
1194
12
120
120000
1201
121
1214
1220
123
124
1254
126
1265
127
1270
1271
1272
1275
129
1292
1294
1297
13
130
1300
1301
1304
131218
1321
1324
1330
1332
1339
134
1341
1342
1346
135
1360
137
1373
1374
138
1386
1389
1392
1394
14
140
1400
1401
1402
1404
1406
1407
141
1415
143
1430
144
1442
1444
1445
1451
1452
1455
1457
1460
14651858
1466
1469
1473
1476
1483
1484
1486
1488
149
1492
1493
1496
1497
1498
15
150
1500
1502
1504
1506
1509
151
1510
1517
1519
152
1520
1521
1522
1527
1536
154
1540
1542
1543
1546
1549
155
1553
1555
1561
1564
1572
158
1586
1588
159
1592
1595
16
160
1600
1607
1608
1616
162
1622
1624
1626
163
164
1642
16494711
165
1651
1659
1663
167
1672
1674
1677
1689
1694
17
1700
1701
1712
1715
172
1726
1727
1732
1734
174
1740
1742
1748
1749
175
1755
1762
1764
1765
1769
177
1771
1773
1774
1775
1776
1777
1778
1779
1780
1783
1786
1787
1788
1789
179
1791
1792
1793
1794
1796
1797
1798
1799
18
180
1800
1801
1802
1804
1805
1806
1807
1808
1810
1812
1813
1815
1817
1818
182
1820
1821
1822
1827
1828
1830
1831
1833
1836
1839
1840
1842
1843
1845
1846
1847
1848
1850
1851
1852
1853
1854
1855
1856
1857
1858
1859
1860
1861
1863
1864
1865
1866
1867
1869
1870
1871
1872
1875
1876
1879
188
1880
1881
1882
1883
1884
1885
1886
1887
1888
1889
1890
1891
1892
1893
1894
1895
1897
1898
19
190
1900
1901
1902
1904
1905
1906
1907
1908
1909
1910
1911
1912
1913
1914
1915
1916
1917
1918
1919
1920
1921
1922
1923
1924
1925
1926
1927
1928
1929
193
1930
1932
1933
1934
1935
1936
1937
1938
1939
1940
1941
1942
1943
1944
1945
1946
1947
1948
1949
1950
1951
1952
1953
1954
1955
1956
1957
1958
1959
196
1960
1961
1962
1963
1964
1965
1966
1967
1968
1969
197
1970
1971
1972
1973
1974
1975
1976
1977
1978
1979
198
1980
1981
1982
1983
1984
1985
1986
1987
1988
1989
1990
1991
1992
1993
1994
1995
1996
1997
1998
1999
2
20
200
2000
2001
2002
2003
2004
2005
2006
2007
2008
2009
201
2010
20109046
2011
2012
20121110200513
2013
2014
2015
2016
2017
2018
2019
2020
2021
204
206
209
21
211
212
215
2180
22
220
224
22766
23
230
2300
2340
23622604
237
24
240
244
249
25
250
2500
25097193
251
252
25243777
25530442
259
26
260
261
26320265
268
27
270
276
277
28
280
286
289
29
290
2900
3
30
300
301
302
31
310
311
312
314
315
319
32
320
3201
323
325
325771
3291398
33
331
332
334
34
343
344
349
35
350
352
354
36
360
3600
361
363
365
37
375
378
379
38
380
385
388
39
392
393
394
4
40
400
403
408
41
410
42
426
43
433
4340604
44
447
448
45
450
46
4643
47
473
48
488
49
5
50
500
503
51
516
52
520
521
522
526
529
53
539
54
540
55
550
56
57
571
573
579
58
59
591
6
60
600
6000000
601
602
61
610
61682
62
622
625
63
632
637
64
65
650
652
66
67
6736
68
682
685
69
695
7
70
700
705
71
72
73
7384
74
75
750
76
77
777
78
787
789
79
8
80
800
81
82
83
830
84
841
85
854
86
861
867
86950
87
873
874
88
88086
89
9
90
900
908
91
913
92
923
929
93
94
95
96
965
967
97
975
978
9780983263135
9781118637302
9781284057560
9781780048765
98
982
985
988
99
9963
:
;
<
=
>
?
\
^
_
`
a
aa
aab
aada
aadaak
aadaam
aadam
aadama
aaday
aafaati
aafe
aah
aajewoo
aajo
aajoom
aajowoo
aajoy
aak
aakimoo
aal
aaleb
aali
aalihii
aam
aamanoo
aamerig
aamerik
aamiin
aamina
aamoon
aamustrong
aan
aana
aanal
aanalub
aanam
aane
aange
aani
aanoon
aar
aaraale
aaral
aare
aaree
aareel
aareelu
aareelub
aarel
aarelu
aarfukeel
aari
aarloo
aarmustrong
aarn
aaroo
aaroona
aarte
aartu
aaru
aarug
aasi
aasoora
aat
aata
aaw
aawal
aawalam
aawlu
aawte
aawteef
aawteefi
aawug
aax
aaxira
aaxiratu
aaxiru
aay
aaya
aayam
aayay
aaye
aayeeti
aayi
aayoon
aaytal
ab
abaas
abajada
abantu
abba
abbaas
abdalla
abdallaah
abdallah
abdillaa
abdoulaye
abdu
abdul
abdulaay
abdullaah
abdullah
abeba
abel
abhami
abidjan
abii
abiibu
abiihi
abiya
abo
aboo
aboobakrin
abool
about
abraham
abrus
absa
absolu
abu
abutilon
abuu
abuubakar
abuubakrin
abuudabi
abyssinica
ac
aca
acacia
acade
access
accessed
acct
accueil
achada
achadinha
acidus
acima
acogny
acquired
act
actes
action
activite
aculeatum
acuminata
acute
ad
ada
adaama
adab
adam
adama
adan
addaymaanii
addiis
addiiz
addina
addis
addiya
addu
adduna
addunay
addunna
ade
adenauer
adenium
aderito
adesba
adiis
adiratig
adison
adjektivo
administratif
administration
administratives
administrator
adn
adolescence
adolf
adpios
adult
adults
aduna
adverbo
advice
adwin
ae
aero
aeroporto
af
afal
afeer
afer
aferoj
afganistaan
afia
afinion
afirig
aflaton
afraegle
aframomum
africa
africaine
africaines
africains
african
africana
africanus
afrig
afrigu
afrik
afrika
afriko
afrique
afritugalasi
afroweb
after
afyon
ag
agaaf
agabus
agadiir
against
agaripa
agas
agave
age
agence
agents
agi
ago
agresssion
agricultural
agrig
agropolis
agsee
agsi
aguadinha
aguila
ah
aha
ahad
ahakay
ahlad
ahloubadar
ahlu
ahlul
ahmad
ahmadi
ahmadou
ahmadu
ahmadubnu
ahmadul
ahmed
ahuuthu
ahuuzu
ahwaali
ai
aidara
aids
ainas
air
airborne
airports
airways
ais
aise
aj
ajac
ajam
ajat
aji
ajiin
ajj
ajjana
ajju
ajjuma
ajkat
ajn
ajoo
aju
ajug
ak
aka
akaademi
akaadimi
akamaniisia
akan
akcidento
ake
aki
akisi
akit
akiy
akk
akka
akkad
akkug
aks
aksasin
akthr
aku
akub
akug
akuk
akum
akusativo
akuw
akuzativo
akv
akvo
al
alaa
alaaji
alaan
alaaxira
alag
alain
alal
alalam
alali
alall
alalu
alamaan
alamaani
alamaanug
alamayni
alan
alarba
alaskaa
alat
alati
alawtiku
albaani
albani
albatriix
albattani
albeer
albert
albin
alburi
albusobiyu
ale
alee
alegsa
aleixo
aleksandar
aleksandriya
alex
alexandre
alfa
alfaa
alfabeto
alfalakiya
alfred
alfuraat
alfuutiyu
alhaaji
alhaji
alhamdu
alhasan
alhasani
alhaysam
alhibaadi
alhinho
ali
alianco
alice
alieu
alif
alifug
aliima
aliin
alima
alioune
aliyu
aliyun
aljabr
aljadaawil
aljeeri
aljeri
aljjeeri
alkanadi
alkande
alkandeem
alkol
alkoofii
alku
all
allaa
allaahuma
allaaxira
allaaxiraa
allafrica
allaziina
allemagne
allemand
allemande
alliance
allie
allied
alliyu
allu
allub
almaa
almaami
almaan
almamy
almand
almansuur
almariyaat
almasi
almeida
alo
aloo
aloon
alp
alpha
alphabet
alquraan
alsaas
alse
alseeri
also
alt
alternance
alternating
alternatives
altilriyu
altine
alto
alug
alves
alxalifa
alximis
alxiyaam
alxuraam
alxuraan
alxuraanam
alxuran
alxuwarsamii
aly
alyahxuubii
am
ama
amaa
amaale
amaan
amaana
amaat
amabox
amadi
amadores
amadou
amadu
amagul
amako
amal
amalati
amale
amalee
amaloon
amalul
amam
amantea
amar
amarantes
amari
amas
amati
amatul
amatun
amatunu
ambro
amdaah
ame
amee
ameele
america
american
amerig
amerigo
amerik
amerique
amewoon
amewu
amewul
ami
amiens
amigos
amiin
amiirul
amiko
amina
aminadab
aminata
amis
amlante
ammasle
ammbalemu
amna
amnesty
amo
amon
amoo
amoon
amos
amout
amper
ampere
amrig
amrii
ams
amsatu
amu
amug
amul
amulub
amun
amunu
amut
amutoon
an
ana
anaaw
anacardiace
anacardium
anafa
analyse
analysis
anam
anamam
anami
anamu
anamug
anas
anbiyaawu
ancien
anciennes
anciens
anco
ancona
ancos
ancre
and
andak
andalusi
andarnax
andasa
andi
andil
andis
andoor
andre
andrew
andul
ane
anet
ang
angale
angalikaan
angalteer
ange
angeliko
anger
anggalteer
anglais
angle
anglikaan
anglteer
angola
angolaa
anil
animal
ankara
anke
ankorau
anmcv
anna
anne
annette
annona
anofon
anrs
ans
ansaar
ansaaram
anstatau
ant
anta
antal
antananarivo
antananariwo
antarpiris
antas
antau
ante
anthologie
anthropologie
anti
antibiotic
antibiotik
antibiotique
antibody
antigua
antipas
antiquite
anto
antoinette
antoninho
antuwanet
aof
ap
apa
apartamento
apelon
aplika
apocynaceae
apolo
apoloni
apolyon
app
appel
applique
approche
approfondies
approval
apre
april
aprilo
apud
aq
aqar
aqoo
aqq
aqqu
aqqub
aqqup
aqsa
aqsaa
aqsal
aqu
ar
araab
araabe
araabi
araam
araamal
arab
arabe
arabi
arabia
arabie
arabique
arachide
araf
arafa
arafi
arafu
aram
arare
aras
archaeology
arche
archime
archive
archived
archives
ardi
are
area
areelu
aretas
argon
arimate
arin
aristides
aristo
arithmetical
arkrihgt
armal
armale
armalu
armand
arme
armeeni
arminaat
arminaatu
arminaatub
army
arqam
arr
arrondissement
ars
arsantin
arsenal
arshidog
art
artaab
artemisinin
arthur
article
artificiels
artikolo
arto
artu
arusto
arustoo
as
asaa
asad
asaf
asaka
asal
asamaan
asan
asar
asean
aserbayjaan
aseser
aset
asf
ashadu
ashar
asharii
asi
asia
asie
asiiru
asinhawar
asiri
askaan
askaanu
askan
askanale
askanam
askani
askanoo
askanu
asmaau
asnom
asoci
asociacio
asocio
asotik
asp
aspekti
aspx
asr
assainissement
assalaamu
assembly
asso
associac
associacoes
association
assomada
asta
astronomie
asya
asyee
at
ataaya
atalaia
atam
atatork
atatu
ataxacantha
aten
atena
atend
atento
athe
ati
atig
atkinson
atla
atlanta
atlantik
atlantique
atlas
atle
atm
atomique
atoum
atrice
att
attaaya
attajalliil
attal
attandaxii
attaraf
atte
atteel
atteeli
atteelu
atteelub
attekaay
attendent
atti
attum
atu
atum
atun
au
audio
augsburg
august
augustin
aujourd
aureus
ausar
aussi
australian
auteur
autode
autorite
autre
autres
aux
available
avant
avec
avenida
avo
avril
aw
awa
awaase
awal
awale
awam
awante
awiril
awiyee
awokaa
awra
awril
aws
awsa
awtaar
awug
ax
axaaliba
axal
axdariyyu
axe
axi
axlab
axtaara
axtaaris
axtoo
axtu
axum
ay
ayam
ayca
aydara
ayi
ayib
ayibal
ayibam
ayibi
ayiti
ayo
aysa
ayu
ayube
ayuhal
ayuw
ayy
azaka
aziaj
azio
aŋ
b
ba
baa
baab
baaba
baadi
baadoola
baag
baagante
baaganteg
baak
baakh
baal
baalante
baalix
baaloola
baam
baamtu
baamu
baana
baaqiil
baara
baaraam
baaraami
baaram
baari
baasal
baasil
baat
baatam
baati
baatin
baatinub
baatu
baatub
baatukaay
baawo
baax
baaxa
baaxaayu
baaxal
baaxam
baaxi
baaxle
baaxo
baaxoo
baaxoon
baaxu
baaxug
baaxul
baay
baayam
baayi
baayima
baayu
baba
babacar
babel
babilon
babou
bac
bacillus
back
bacon
bacte
bacteri
bacterial
bacterie
badar
badejo
badi
badji
badri
badrin
bagaas
bagaasam
bagaasi
bagdad
bagna
bah
bahamas
bahdal
bahrayni
bahri
bahru
bai
bairro
baixo
baj
bajbaji
baji
bakalo
bakan
bakanam
bakar
bakistaan
bakkaar
bakkam
bakkan
bakkanam
bakkanu
bakkel
bakken
bakr
baksasin
bakteri
bal
bala
balaa
balaam
balaas
balaaxa
balandier
balanka
balantas
balde
balfour
balkaan
ball
balla
ballewunu
balluwaay
balluwaayu
balsafi
balsamifera
balsamina
bam
bama
bamba
bambaataa
bambara
bambey
bambug
bammeel
bamu
bamuy
ban
bana
banaana
banana
bandonj
bang
banglaades
bani
banii
banji
banjul
bank
banku
bankub
banoo
banqaas
banqaasu
banque
bant
bantam
banti
bantu
banu
baqara
bar
baraahiin
baraay
baraayam
baraayu
barab
barabam
barabi
barabu
barabub
barag
barak
barakaatuhuu
baraxlu
barbata
barbon
barbuda
barca
barcelona
bare
baree
bareetul
bari
barib
barig
baril
barile
barilub
barim
barina
bariwaa
bariwaayu
bariwu
bariwul
bariy
bariyla
barke
barkeb
barkeel
barkeelu
barkeem
barlamaab
barlamaan
barma
barre
bart
bartelemi
bartholmew
bartlett
bas
basang
basariyaat
basaŋ
base
based
basha
bashiir
bashiiru
basic
basiir
basiira
basiiru
basin
basis
basra
basse
bassemer
bastil
bat
bataani
bataaxal
bataaxalub
bataaxel
bataaxelam
bataaxeli
bataaxelub
batam
batari
batata
batay
batlimos
batnu
bato
batuki
batuque
bavar
bawal
bawar
bawol
bawoo
bawu
bawul
bax
baxa
baxal
baxalee
baxdaad
bay
bayaal
bayaan
bayal
baye
bayern
bayi
bayit
bayitam
bayiti
baykat
baykatu
bayliku
baynug
baynuk
bayruut
bayti
baytir
baytul
baytulmaal
bayyi
bayyima
baziira
bb
bba
bbaal
bbaale
bbal
bbale
bbalee
bbaloo
bbaloon
bbalu
bbam
bbar
bbarub
bbaxtali
bbc
bbe
bbee
bbeeti
bbi
bbiitam
bbkat
bbkatu
bboodiku
bboon
bbu
bbug
bc
bcg
be
bec
becker
becon
beddi
beddiku
bee
beeco
beek
beeki
been
beep
beer
beersee
bees
beey
beg
begadi
begal
begale
begg
begloowul
begoon
begutoon
beijing
beira
bej
bejjan
bejjani
bejjenu
bekkoor
bel
bela
belaarus
bele
beletro
belgik
belgraad
beliis
beljig
beljik
belsig
belsik
ben
bene
benee
beneen
benesuwela
benfica
bengamin
benin
benito
benn
bennaan
bennaani
bennaanu
bennal
bennale
bennalug
benneel
benneelu
bennett
benni
benno
bennog
bennoo
bennoog
bennoom
bennte
bennug
benoog
bensouda
bensudaa
benten
benzer
benziyordu
bepp
beppu
ber
berber
bereb
bereesil
berenis
beresil
berg
berger
berlin
berlitz
beroom
berr
berri
beru
bes
besanc
bess
besu
betani
betlahem
betsayda
bett
bette
bettiol
bettoon
beureup
beuri
beurii
beurri
beut
bew
bey
bg
bi
bibcode
bible
bibliographie
bibliothe
bic
bidaa
bidaaya
bidaayatul
biddiw
bidiw
bidoq
bielefeld
big
bigeo
biglobosa
bihaa
bii
biib
biibe
biir
biiram
biiri
biiru
biirul
biirum
bijj
bijjaakon
bijjaan
bijjaloon
bijjante
bijjee
bijji
bijjig
bika
bikal
bil
bilaal
bild
bildvortaro
bile
bill
billaahi
bilyoŋi
bim
bimaa
bimu
bin
bind
binda
bindal
bindalal
bindam
bindante
binde
bindee
bindin
bindkat
bindkati
bindkatu
bindoo
bindoon
bindu
bindub
bindul
binga
binkat
bint
binta
bio
biographie
biology
bipolaire
bipolar
bir
birahim
biral
biralaat
biralal
birale
bire
biri
biritani
birrea
bis
bisaaw
bisaawo
bisi
bismarck
bismil
bissau
bisu
bisub
bisultaanin
bit
bitan
bite
biteel
biteeli
biteem
biti
bitib
bitig
bitil
bitim
biy
bizikril
black
blackburn
bladder
blaise
blanche
blees
bloc
bloch
blues
bm
bmj
bn
bnu
bo
boa
boakai
boateng
boavista
bob
boba
bobbam
bobou
bobu
bocc
bocone
boddante
boddanteg
boeing
bohima
bohimiya
bokar
bokk
bokkaale
bokkaalekat
bokkaaley
bokkal
bokkam
bokkatul
bokkatuma
bokkee
bokkewul
bokki
bokkon
bokkoo
bokkoon
bokksee
bokksi
bokku
bokkug
bokkul
bokkun
bokkunu
bokkutoon
bokoo
bolaax
bole
boliibi
boliwi
bom
bombax
bombe
bombi
bombub
bomis
bon
bonan
bonaparte
bonaperte
boni
bonnoog
bonug
boo
booba
boobaa
boobale
boobee
boobii
boobu
boobule
book
bookoon
books
bool
boole
boolee
booleek
booleel
booleeti
boolewoon
booli
booloo
booloog
booloowoo
boon
boor
boori
booru
booy
booyal
bop
bopam
bopp
boppam
boppi
boppu
boppub
bor
boram
borassus
borbon
bordeau
border
bordetella
bordoo
borgomano
bori
borma
bornu
borom
boroom
boroomam
borooman
boroomay
boroomi
boroomug
borub
bos
boscia
bosni
bosnia
boso
boston
bot
botaas
botafogo
botsdam
botswana
bou
boubakar
boumou
bouraq
bourgeois
bous
bousso
bovis
bowoo
box
boxarest
boy
boyal
boye
boyutu
br
braax
branca
branco
brasaawiil
brasseur
bratislava
brava
brazil
bre
break
breesil
breesilian
breinigerberg
brepols
bresil
bridge
briefing
brisson
bristol
britaani
britanee
britani
britannica
britannique
british
bronx
broom
brothers
brotula
brouwer
brown
brumaire
brusia
brusiya
brusiyaa
brut
bs
bu
bub
buc
budapest
buddee
buddi
buddin
buftu
bug
bugga
bugul
bukke
bukki
buko
bukut
bul
buleen
bulgaari
bulgari
bulgaria
bulletin
bulu
bum
bumu
bun
bundasrat
bundesliga
bundesrat
bundu
bunt
bunti
buntu
buntub
bunu
bunuy
buraax
burden
bureau
burgoyne
burkina
burkinaa
burub
burundi
buruundi
buruxel
bus
bush
business
buso
but
butaan
buteel
butiit
butrsburg
butrusburg
buu
buubakar
buum
buumi
buumu
buur
buuram
buurba
buuri
buuru
buurub
buusal
buuxante
buxaari
buxaarii
buy
by
bœufs
c
ca
caa
caabi
caada
caadaay
caaday
caage
caageegug
caageenug
caak
caam
caaroy
caaxaan
caaxaanam
caay
cabakulu
cabec
cabo
cabot
caboverde
cabral
cadd
cadres
cafka
cag
cahiers
calabaceira
calale
calao
calcul
calculation
caldeiras
calendar
calendrier
calhau
calheta
california
callala
calle
callmeer
calmette
calotropis
calven
cam
camaldulensis
camara
cambodie
cambridge
cammoon
camp
campagne
campe
campeef
campeefi
campeonato
campo
campora
campus
camus
can
canada
canadian
canal
canc
cancer
cancug
cang
cangaay
cangaayam
cangug
cant
cap
cape
capelle
capital
capitale
capitals
capparis
capricorne
car
carai
caralluma
caram
care
cari
carica
carlinger
carlos
caroline
carte
cartier
cartwright
cas
casamance
cases
castilho
cat
catam
catappa
catarina
cate
categori
categoria
categorie
category
catherine
catholique
cati
catul
causa
cause
causes
cavaleiros
cavor
cavour
caw
cawarte
cawarteem
cawarteg
cawartey
cax
caxat
cay
caytu
caytug
cb
cbt
cc
cca
ccaal
ccaar
ccag
ccante
ccati
cce
ccee
cceel
cci
ccleen
ccoo
ccoon
ccoor
cctld
ccu
ccug
ccukaay
ccuwaay
cd
cdc
cdot
ce
ceddo
cee
ceeb
ceek
ceen
cees
ceet
ceggat
ceiba
cek
cekoslaafi
cekoslaawi
cekoslawaki
cekoslowaki
cell
cellte
celtic
celtis
celui
cembre
cempteŋ
cen
center
centers
central
centralisation
centre
century
cer
cere
cerer
cerey
ceri
cerno
certificat
cervantes
ces
cesti
cet
cette
cey
cf
cfa
ch
cha
challenges
cham
chambers
chambre
chancelier
chang
change
chants
chapitre
chapter
char
charles
charlottesville
charrue
chaucer
che
chef
cheikh
chelsea
chen
cherasco
cherif
chest
chevalier
chez
chi
chief
chiffres
chiisme
chiite
chiites
childhood
children
chilensis
china
chine
chinese
chinois
chre
christian
christiane
christophe
chronic
chronique
ci
cia
cial
cib
cicero
cidade
cifaay
cifero
cig
cii
ciili
ciin
ciipe
ciiwte
cilf
cili
cim
cima
cin
cine
cinerea
cio
cire
cirrhose
cis
cisse
cit
citibank
citrus
city
civil
civilisation
civilisations
civilization
ciw
ciy
cj
clad
clarendon
classe
classes
claude
cle
clean
clemenceau
climate
clinic
clinical
clinique
clinton
clomipramine
close
club
clube
clubi
cm
cnn
cnrs
co
coast
coat
cobar
cochrane
cocos
code
cofal
cofeel
cofeelam
cofeelug
cofiit
cokkaas
col
coldaar
coldaarum
cole
coll
collaborators
collectif
collection
collectivite
college
colombo
coloniale
colonisateurs
colonisation
colons
color
coluk
com
combretum
cominisme
comite
comm
commandeur
comme
commence
comment
commerce
commission
committee
commons
commonwealth
communaute
commune
communes
communication
communisme
communiste
community
comparative
comple
complications
composition
comprendre
compton
compulsory
comte
conc
concepcio
condition
confe
conflict
confre
confucius
cong
congo
congre
conjugate
conn
connai
connaissance
connaissances
connection
conomie
conomique
conomiques
conque
conseil
conseillers
constitutionnel
consulte
contar
conte
content
continental
contrato
contre
contribution
contributions
control
converter
coobare
coobareem
coobarewoo
coobarewu
coolool
coona
coonaam
coonab
coonay
coono
coope
cooper
coordination
cooroonee
coow
copernic
copernice
copernicus
copie
coppat
coppi
coppite
coppiteeg
coppiteg
coppitey
coqueluche
coran
corda
cordyla
core
corinth
cornwallis
coro
corona
coronavirus
correia
corsica
corun
corvo
cosaan
cosaanam
cosaani
cosaano
cosaanoo
cosaanu
cosaanul
cossanu
costantinus
costatum
cosyste
coud
cough
could
coulomb
coumba
council
counseling
countries
country
coupage
cour
courants
cours
course
court
coutumes
couverte
cov
cova
covid
cp
cpi
crac
crateva
craveiro
cre
created
cret
cripple
crisis
cristoforo
crit
crite
critique
criture
crivains
croix
crossroads
crous
cruz
cs
ct
cu
cucumis
cultural
culture
culturelle
cumbe
cundum
cuq
curcas
curitiba
curr
curral
current
cutelinho
cuub
cuubug
cuun
cv
cve
cycle
cyperus
cyril
cœur
d
da
daa
daad
daadi
daaj
daakaande
daal
daaldi
daalub
daam
daamar
daan
daana
daanak
daanaka
daane
daaneel
daaneele
daanoo
daanu
daanug
daara
daaraam
daaram
daaras
daaray
daaru
daarul
daarur
daas
daataa
daaw
daawu
daawuda
daawul
daawun
daawunu
daay
dab
daba
dabaatal
daf
dafa
dafaa
dafay
dafe
daftiriya
dag
dagan
dagana
daganal
daganul
dagg
daggate
daggatoo
dagge
daggee
daggiit
dagiit
dagiiti
dagn
dagu
dahwaanaa
daily
daj
dajale
dajaley
dajaloo
daje
dajeb
dajee
dajeek
dajeeki
dajeel
dajeeloon
dajeem
dajeg
dajeloo
dajewaat
dajje
dajoor
dakaar
dakaaru
dakar
dakaru
dakh
dakk
dakkal
dakkantal
dakkul
dakoo
dal
daladi
dalagul
dalal
dalam
dalbergia
daldi
dale
dalee
daleen
dalhousie
dali
daliil
dalinu
dall
dalmaas
dalmas
daloon
dalu
dalub
dalukaay
dam
dama
damaa
damas
damat
damay
dambal
dame
damm
dammeel
dammel
dammit
dammoo
dammte
dan
dana
danaa
danan
dananu
danay
dance
dancing
dang
danga
dangaa
dangar
dangay
dangeen
daniel
daniy
dank
danki
danku
dankub
danmaark
danmark
dano
danoo
dans
danse
danseg
dante
danu
danuy
daq
daqaar
daqaaru
dar
dara
daraame
daraja
darajaam
darajaati
darajawu
darajay
darar
darkase
darra
daru
das
data
database
date
david
davis
davood
daw
dawaan
dawaani
dawaanu
dawal
dawalkati
dawalkatu
dawe
dawee
dawme
dawoon
dawug
day
dayi
daymaan
dayo
dayob
dayoo
dayoob
dayoom
daytaloo
dc
dd
ddaat
ddaay
ddaayal
ddaayalee
ddaaye
ddaayloo
ddaayoon
ddaayug
ddal
ddale
ddalee
ddalewaat
ddaliinu
ddalikoo
ddaliku
ddaloon
ddam
ddama
ddatle
ddatliku
dday
dde
ddi
ddin
ddina
ddinaam
ddiya
ddiyay
ddkatu
ddoo
ddoom
ddoon
ddu
ddug
ddul
dduloo
ddum
dduna
ddunaam
ddunaay
ddunawu
ddunay
dduw
dduy
de
dea
dean
death
decce
deccukay
december
decembro
decine
decret
dee
deedeet
deef
deefa
deefi
deegol
deel
deem
deen
deeniyankooɓe
deeniyaŋkooɓe
dees
deesi
deesu
deesul
deet
deeti
deewal
deewe
deewee
def
defaat
defaatub
defal
defale
defalee
defaloon
defam
defandi
defante
defar
defaraat
defaral
defarati
defare
defaree
defari
defariin
defaroon
defarug
defarul
defati
defe
defee
defees
defense
deff
defi
defiin
defko
defloo
deflu
defoon
defsi
defu
defukaay
deful
defun
deg
degg
degganteek
degge
degglu
deggoo
deggoon
degloo
deglu
degre
degug
dek
dekk
dekkal
dekkalaat
dekkarloo
dekkiwaat
dekku
dekkuwaay
deklinacio
dekottin
del
delhi
delight
delivery
dell
dello
delloo
delloosi
dellooti
delloowaat
dellu
dellul
dellusee
delluseem
delluseeti
dellusi
dellusiwaat
delluwaat
delluwaay
delseeti
delsi
delta
deltoo
deltu
delucchi
deluxe
dem
demal
demam
demandoo
demandoodi
demandovorto
demati
demb
demba
dembam
deme
demee
demenhor
demiin
demin
demokaraasi
demokaraatik
demokraasi
demoon
demul
den
denc
denci
denciinu
dencu
dencukaay
dencukaayub
dend
dendal
dendaloon
dendam
dendoon
dendu
deng
dengi
denio
denis
denk
denkaane
denkoon
depaas
deppa
deppaasam
deppite
deppoo
depuis
deqale
deqi
der
deram
derby
dereet
dereetam
dereeti
deret
deretam
deretu
dernwil
deru
derub
des
desa
desal
desaloon
desam
desambar
desatu
desatutoon
descle
dese
desee
deseeti
deseetu
deseetutoon
desen
deserto
design
desiit
desoon
desportiva
desportivo
desprtivo
dess
desu
detaa
deug
deuk
deukkou
deux
develop
development
dex
dexam
dexi
dexu
dexub
dexug
dey
dhiou
di
dia
diaam
diagnosis
diagramme
diakasso
dial
dialecte
diallo
diamacoune
diamano
dianco
diapp
dias
diaspora
diatta
diaye
diaz
dib
dibbto
dibe
dichrostachys
dicotyle
dictionary
dictionnaire
didier
die
diekk
dieng
diens
diesel
diffe
different
differential
difinita
dig
digaale
digal
digale
digalee
digaloon
digam
digante
diganteem
dige
digg
digga
diggadil
diggal
diggale
diggam
diggante
digganteek
digganteem
diggdo
diggdoomu
digge
diggi
diggu
diggub
digi
digle
digoo
digook
digool
digoon
digu
diguente
diguw
diiggante
diine
diineek
diineem
diinewu
diiney
diir
diiram
diiru
diirub
diirug
diis
diisaayu
diisal
diisoo
diisook
diisool
diisoon
diisoowaale
diisoowu
diissoo
diiwaan
diiwaanam
diiwaani
diiwaanu
diiwaanub
diiŋat
diiŋatkat
diiŋatoon
dijj
dijjaayam
dijjaayu
dijla
dik
dikart
dikk
dikkal
dikkale
dikkalee
dikkaloon
dikkam
dikke
dikkee
dikko
dikkoon
dikkug
diko
diktaatoor
diktaatooru
diktal
diktalkatu
dil
dila
dileen
dim
dimasq
dimb
dimbalante
dimbalanteg
dimbale
dimbalee
dimbali
dimbalnteg
dimbandikoo
dimblante
dimblanteg
dimble
dimblee
dimbleek
dimbli
dimblikat
din
dina
dinaa
dinan
dinanu
dinay
dindee
dindi
dindiwu
diney
dinga
dio
diogue
diokk
diola
diolas
diome
diop
diot
diounni
diourbel
diourom
dioyantii
diplo
diplodus
diplomasi
dipsiz
dique
dir
direct
directeur
direction
director
directrice
diri
dirigeantes
diriku
dis
disability
disambar
discours
discovery
disease
diseases
disputado
dispute
diss
distance
distancing
district
dite
diteur
diteurs
dition
ditions
divisa
diw
diwaan
diwaani
diwaanu
diwaar
diwam
diwlin
diwu
diy
diŋa
dj
djeumbet
djibril
djing
djolof
djoulit
dl
dm
dmc
do
docale
docteur
doctoor
doctorat
doctrines
documentaire
documentation
documents
dodoma
doe
does
dof
dofe
dog
dogaakon
dogaat
dogadi
dogal
dogalam
dogalee
dogalu
dogalub
dogat
doge
doggal
doggantal
dogi
dogiin
dogiinu
dogiit
dogloo
dogoo
dogoon
dogu
dogub
doi
doj
doji
doju
dokaliin
dokh
dokkub
doktoor
doktooru
doktoorub
doktor
doktoraa
doktoraal
doktoro
dolaar
dolleeti
dolli
dollig
dolliku
dollikuwu
dollil
dolliy
dollosi
dom
domac
domain
domingos
dominik
dominika
dominikaan
domo
domoj
domu
don
donatello
dondu
done
dong
donga
dongaam
dongab
dongay
dongo
doniana
donn
donne
donnu
donte
doo
doodugu
dooey
doog
dooji
dookal
dooko
doole
dooleel
dooleem
dooleg
doolerandu
doolerandug
dooley
dooli
doolil
doom
doomam
doomi
doomoo
doomu
doon
doonadee
doonadi
doonati
doonatul
doone
doonee
dooni
doonoon
doonte
doonu
doonul
doonun
doonutoon
dooomu
door
doora
dooraatug
doore
dooree
doorub
doorug
dootoo
dootu
dootul
dootun
doox
doq
doqam
doqi
dorm
dorog
dorogewu
doroora
dorothy
dos
dose
dossier
dosye
dosyeey
dotsi
dott
dotti
dottu
dottub
douglas
doune
dox
doxadi
doxal
doxale
doxaliin
doxaliinam
doxaliinu
doxalin
doxalinu
doxalkat
doxalkati
doxalu
doxalug
doxalukaay
doxam
doxande
doxandeem
doxe
doxee
doxi
doxiin
doxiinam
doxiinu
doxontu
doxoon
doxub
doxug
doy
doyadal
doyadi
doyadig
doyadil
doyadiloon
doyal
doye
doyloo
doylu
doyluloo
doyna
doyodal
doyodale
doyodi
doyodil
doyodile
doyoon
doyul
doyutoon
dq
dr
draga
drammeh
drapo
dre
drin
droit
droite
drug
dsm
dt
du
duarte
ducation
duche
dudam
dug
dugal
dugg
duggal
duggale
duggaloon
duggante
duggati
dugge
duggee
duggoon
duggsee
duggsi
duggu
duggug
duggum
duggun
dugo
dugub
dugubi
dul
dula
dulawir
duli
dull
dulub
duma
dumaa
dumaati
dumont
dun
dund
dundal
dundalaat
dundale
dundalee
dundam
dundat
dunde
dundiin
dundiinu
dundin
dundinu
dundoon
dundu
dundub
dundug
dundul
dungide
duni
dunu
dunub
duppe
duppee
duprey
duran
during
dursu
duus
duusi
duusub
duwaan
duy
duyi
duyoon
dwaayet
dynamiques
dz
e
earth
east
eau
eb
ebad
ebola
ebolaa
ebre
ecaboverde
eckhard
eco
ecole
economic
economist
ecoopi
ecopi
ed
eddale
ede
edicef
edinburgh
edison
edited
edition
editions
edmund
edouard
eds
edu
education
edugu
edward
ee
eef
eefam
eefi
eefu
eefum
eek
eeku
eekuna
eel
eelu
eem
een
eent
eenteel
eenteelu
eenti
eer
eeri
ees
eesan
eesen
eet
eeti
eewant
eewanteg
eewantug
eewe
eex
ef
efam
efar
efari
efe
efes
effect
effectifs
effective
effects
efficacy
efi
efu
efug
eful
eg
egal
egam
ege
egg
eggal
egi
egile
egliis
egliisu
egliisub
eglise
egnatia
ego
egoon
egoy
egu
egub
egypt
ehess
ehrenbergiana
eid
einstein
eisenhut
ej
ejawaay
eji
ejpeek
eju
ejug
ejus
ek
ekontiŋ
ektaar
eku
ekug
ekuwador
ekwadoor
el
elal
elam
elastica
elba
electrical
electrochoc
elektron
elektronik
element
elements
elen
eli
elibana
elif
elisabet
elisabeth
elktron
elktronik
elle
ellen
elli
elsevier
elu
elub
elug
elul
em
ema
emanuel
eme
emee
emeer
emeeri
emeloo
emerging
emey
emitai
emmanuel
emoon
emoyeni
empire
ems
emtaan
emtaani
emte
emu
en
ena
encyclopaedia
encyclope
encyclopedia
end
endo
endoneesi
endonesi
endormir
endustreem
endustri
ene
enea
enee
eneen
enekaay
energie
energy
eney
engineering
england
english
eni
enjeux
enn
ennat
ens
enseignement
ensetp
ent
entada
ental
enteel
enti
entrada
entre
entu
enu
enub
enug
enuw
environmental
eo
ep
epatit
ephe
epidemic
epidemiol
epidemiological
epidemiologique
epidemiology
epin
epoko
epp
eppu
er
eraklioo
eral
eram
eramus
erantu
erasmus
ere
ereb
eree
ereem
erekaay
erem
erey
eri
eric
erinaceus
eritere
eriteri
erlu
erneville
erodd
eroo
eroodi
eru
erum
eruwaay
eruwul
es
esapaan
esculentus
ese
esea
esipt
eske
eslowaaki
esloweeni
esp
espaan
espace
espagnol
espargos
esperanta
esperanto
esprimoj
essai
essential
essentialmedicines
est
esta
estadio
estas
estewaad
esti
estimations
estomaa
estooni
estrela
estus
esu
eswatini
et
etaa
etaasini
etal
etale
etat
etats
etc
ete
etee
eteek
eteem
etele
etewoo
etewul
ethiopia
eti
etienne
ett
etteel
etteelu
etti
ettikon
ettiwe
etu
etudes
etum
eu
eucalyptus
euge
eugenius
eunice
euphorbia
euro
europe
european
eva
ew
ewal
ewalam
ewale
ewalee
ewali
ewalug
ewam
ewe
ewee
ewi
ewiriyee
ewle
ewo
ewoo
ewoon
ewte
ewtoo
ewu
ewug
ewul
ewum
ex
exadi
exal
exil
existence
expert
expression
externes
ey
eyaale
eyal
eyalam
eyam
eye
eyi
eyiinu
eykat
eykati
eykatu
eyloo
eyu
eyub
eyuwaay
ez
ezi
ezidaleka
ezininzi
eŋaca
f
fa
faa
faadal
faadil
faagaagal
faagaagaloon
faagaagalsi
faajut
faak
faal
faale
faaleedi
faalewu
faalewul
faalewutoon
faan
faarabii
faaris
faas
faaso
faat
faatee
faati
faatiha
faatima
faatiya
faatna
faatoo
faatu
faatug
faaw
fab
fabaceae
fabi
fac
facc
face
facebook
facila
fact
facts
faculte
faddu
fadiouth
fadlan
fadlin
faf
fafalnaaw
fafalnaawam
fagaru
fagg
faggu
faggul
faible
faidherbe
faire
faith
faj
faja
fajal
fajale
fajar
fajarug
faje
fajee
faji
fajj
fajoo
faju
fajukaay
fajum
fajuwaay
fajuwaayu
fak
fako
fal
fala
falaa
falaakoon
falag
falastin
falilu
falkat
falkland
fall
fallu
faloon
falu
fam
famak
famille
fan
fanaan
fanam
fande
fandikaay
fandiko
fandikoo
fandikoom
fandikooti
fandikoowaat
fandiku
fandikukat
fanfuzuu
fani
fann
fanni
fanq
fanqalaboo
fanu
fanweer
fanweeri
fao
faqiih
faqiir
faqs
far
fara
faraan
faraans
faraansi
faraas
faraase
faraday
faral
faraldi
faramfacce
faramface
faran
farank
farans
faranse
faras
farata
farataal
farataalati
farataale
farataam
faratay
farba
fare
fari
farimata
farin
farloo
farlu
farmasi
farmosa
farn
farol
faroon
fas
fasaadahum
fasam
fasante
fasantikoo
fasdah
fase
faseg
fasi
faso
fasong
fasoo
fasoon
faste
fastef
fasu
fat
fatan
fatig
fatik
fatou
fatt
fattalee
fattali
fattalikoo
fattaliku
fattalukaay
fatte
fatu
faty
faustine
faveta
faww
fawwu
faxsawhum
fay
fayal
fayantoom
fayati
faye
fayeesul
fayloo
fayoontoo
fayu
fayyantoo
fayyoo
fayyoonte
fayyu
fayyug
fazdah
fazenda
fb
fc
fcf
fe
febaar
febar
febaru
februaro
february
fecc
fecci
feccin
fecckat
feddali
feddaliwaat
federaal
federb
fee
feebar
feebari
feebaru
feedi
feek
feem
feen
feer
fees
feesal
feesoon
feet
feetale
feetate
feete
feetewoo
feetewul
feetewutoonn
feewaloo
feexal
feexoon
feey
feg
fegal
feggook
feggool
fegu
fegukaayu
fekaay
fekk
fekke
fekkee
fekki
fekkoon
fekksi
fekku
fekkul
felic
felwine
female
femme
femmes
fen
fendi
feneen
fenk
fenke
fenkug
fenn
fenqoo
fent
fentati
fentee
fentkat
fentkati
fentoon
fentug
fepp
feppmaandu
feppsaal
fer
ferdinand
ferdinando
fere
ferey
ferguson
fern
ferninand
ferreira
ferri
fes
fesal
fesalukaay
fesalukaayam
fetal
fett
fette
feu
fewirie
fewriee
fewriye
fexe
fexee
fexeel
fey
ff
fi
fiche
fictions
ficus
fidya
fifa
fight
figueira
figueiras
fii
fiiji
fiil
fiin
fiir
fiiraangeg
fiire
fiiroo
fiiru
fiit
fil
filaaw
filadefi
filadefiya
filadelfi
filadelfiya
file
filib
filipe
filipiin
filipin
fille
film
filmam
filmi
filmkaay
films
filo
filosofi
fim
fimne
fin
finaj
finances
fine
finiix
finlaand
finland
fipp
fippi
fippoon
fippu
fippug
fiq
fiqh
firaa
firee
firenze
firhawna
firi
firikati
firil
firilkat
firisi
firmao
firnde
firndeel
first
fisaliyos
fish
fishbase
fishi
fisik
fisiya
fisiyaa
fit
fital
fitali
fitna
fitnaal
fitnay
fiy
fiziko
fka
fkay
flag
flammarion
flante
flantee
flanteek
flanteem
flash
fleurs
fleuve
flickr
flor
florida
flower
flsh
flu
flueggea
fm
fmpos
fnuap
fo
fof
fofana
fofou
fofu
fog
fogloo
fogo
fokk
folio
follee
folli
follow
folly
fompukaay
fon
fondamentaux
fondateur
fondation
fondland
fondumang
fonk
fonkee
fonkeel
fonkoon
fonku
fonseca
fontainhas
fonte
foo
food
foofa
foofee
foofu
foog
foogoon
foon
foos
foot
football
fooyte
fopp
foqati
for
force
fore
formatik
formation
forme
formio
forse
forta
forte
fortes
fortification
forukaay
forum
fostok
fougeyrollas
foulton
foundation
fouque
fouta
fowe
fowuwaayu
foye
foyte
foŋsaneer
fr
fra
fraans
fraanse
fraas
frac
frakastor
frame
fran
franc
franca
francais
france
franche
francis
francisco
franco
francophone
francs
frank
frankfort
franklin
frans
franse
fransis
fransiskaan
fransisko
fransuwaa
frat
frau
fred
fredereick
frederick
fredrick
fredson
free
freedom
freire
french
frm
from
front
fruit
fruits
fsjp
fst
fu
fugie
fuglu
fuglug
fuglukaayi
fuglukat
fuhrer
fukk
fukke
fukkeel
fukkeelu
fukki
ful
fula
fulaadu
fulbe
fuli
full
fulla
fullawu
fulu
fum
fumu
fun
fund
funda
fundura
fune
funghi
funjun
funjunj
funk
fuqale
fuqaleg
fuqarcee
fuqarci
furaat
furi
furna
furtado
futbol
futebol
futuna
futuro
fuuf
fuur
fuuta
fuutanke
fuutiyu
fuy
g
ga
gaa
gaal
gaalam
gaalang
gaali
gaalug
gaalum
gaambi
gaan
gaana
gaar
gaaral
gaaraloon
gaaralul
gaaru
gaas
gaasub
gaat
gaaw
gaawa
gaawaay
gaawal
gaawantu
gaawe
gaawee
gaawo
gaawoon
gaawu
gaay
gaaya
gaayam
gaayi
gaaz
gabon
gabong
gaboŋ
gabu
gaddaay
gadday
gafakag
gai
gajaga
gal
galaas
galag
galagi
galagsi
galagu
galais
galaise
galaises
galam
galankoor
galas
galati
galaxndikoo
galaxndiku
gale
galego
galile
galileo
gallaxndiku
gallery
gallez
gallimard
galoon
gam
gama
gambi
gambia
gambian
gambie
gammu
gamu
gan
gana
ganaar
ganaaw
ganale
gancax
gandi
gane
ganee
ganesi
gang
gangoor
gangoori
gannaar
gannaaru
gannaaw
gannar
gannaw
gans
gar
gara
garaafi
garaam
garaaw
garab
garabam
garabi
garabu
garabug
garal
garambasaa
garanaat
garanada
garaw
garc
gardenia
gargamboose
garibaldi
garifani
garmi
gas
gasa
gasi
gaston
gasu
gasuwaayi
gatal
gatas
gates
gatt
gattal
gauche
gaw
gawar
gawee
gawu
gaww
gay
gaynde
gaz
gaza
gazeto
gbagboo
gbd
gbowee
gd
gdrc
ge
gede
gee
geej
geeji
geeju
geejug
geek
geen
geer
gees
geewub
gel
gelaw
gelawaar
gemmin
gen
gendiku
gene
geneen
geneenati
general
generalu
geneva
geneve
genn
genna
gennam
genne
gennee
genneeti
gennewaat
gennoon
genova
genre
gent
geo
geograph
george
georges
gepatroj
gepp
ger
gerefiyee
gereg
geregori
geres
germ
germaine
germanio
germano
germanujo
germs
gerte
gestu
gestukat
gestuloo
get
getting
gey
gg
gga
ggaan
ggaayu
ggagul
ggal
ggalaakoon
ggalal
ggale
ggalee
ggaleel
ggaleem
ggalees
ggalem
ggaley
ggalikook
ggaloon
ggalu
ggalug
ggalukaay
ggalukaayu
ggam
ggan
ggandiku
ggane
gganee
ggante
ggaree
ggasante
ggat
ggatal
ggatam
ggate
ggatee
ggati
ggatkat
ggatoo
ggatoom
ggatoon
ggatu
ggatug
gge
ggee
ggi
ggiin
ggiinu
gglu
ggoo
ggoodi
ggook
ggoom
ggoon
ggsi
ggu
ggub
ggug
ggul
gguloon
ggum
ggun
ggunu
ggutoon
gguw
gguwaay
gguy
gh
ghana
gi
gif
gigantea
gii
giim
giimal
giin
giir
giiram
giiri
giiru
giirug
gil
gilbert
gile
gilin
gilini
gilinug
gilli
gimin
gin
ginaaaw
ginaar
ginaaw
ginaawal
ginaawam
ginaawug
ginaw
gindee
gindi
gindiku
gindiwutoon
gine
gineg
ginnaaw
ginnaawal
ginnaawam
ginnaw
ginne
gion
gional
gionale
gionales
gions
giovanni
gir
girees
girondins
gis
gisaan
gisaat
gisal
gisam
gisante
gisanteek
gisati
gisatu
gise
gisee
giseel
gisees
gisi
gisiin
gisiini
gisiinu
gisin
gisoon
giss
gistal
gisu
gisub
gisug
gisul
gisun
gisunu
gisutoon
gitland
giy
giyom
gje
glaucum
glavni
gle
glekaay
global
globe
gloo
glosbe
glu
glumosa
gmal
gmalsi
gmbh
gni
gnou
gnu
go
gobar
gog
gogam
goj
gokan
golare
golden
golf
golfe
golfub
golo
goltvyansky
gomes
gomez
gonc
gondiku
gone
gongikubaat
gongikuwaay
gongikuwaayi
gongikuwaayu
gonte
goo
good
googa
googee
google
googu
googule
gook
goom
goon
goor
goore
gooreel
goornamaa
goornamaab
goornamaay
goornoor
goornooru
gooy
gopu
gor
gordon
gore
goree
goreel
goreem
goreg
gorewu
gori
gorie
gornamaa
gornmang
gorob
gos
gosaas
gospel
gossypium
gotenborg
gott
gotti
gou
gouv
gouvernance
gouvernement
gouverneur
gov
government
gox
goxaan
goxaani
goxaat
goxam
goxe
goxi
goxu
goxub
goy
gr
graca
gradovi
gramatiko
grammaire
granada
granatum
grand
granda
grande
grant
gration
gravite
gray
gre
great
grec
green
greenwood
grees
grego
gregori
grek
gres
gridcolor
grinits
gris
gro
gros
group
groupe
groups
groves
growing
gruber
grupo
gs
gsee
gsi
gte
gu
gua
guardian
gubbi
gudaayam
gudd
guddaay
guddaayam
guddaayu
guddaayub
guddal
guddayam
gudde
guddee
guddi
guddig
guddu
guddub
gudoon
gudrong
gue
guedj
guen
guenaw
guerre
gueye
gug
gui
guidance
guide
guidelines
guiera
guillain
guine
guinea
guiss
gul
gulumba
gum
guma
gumba
gun
gune
gunge
guno
gunu
gusto
gutenberg
guur
guurgui
guux
guwaatemaala
guy
guyaab
guyaana
guyaar
h
ha
haa
haadii
haafis
haaj
haajaati
haal
haalam
haalamiin
haalamiina
haalpulaar
haalu
haamid
haamir
haarisa
haasim
habbaas
habdil
habermann
habiiballaah
habiibul
habiibullaah
habsborg
hadaahumul
hadaanaa
hadaanaal
hadara
hadiis
hadji
hadson
hadyu
hag
haj
hakka
haksasin
halaa
halal
halan
halawi
halaykum
half
haliimu
hallaykum
halsasin
hamazaatish
hamdi
hamdil
hamdu
hamidin
hamidtu
hamiim
hamiir
hamilton
hammaa
hammaad
hammaar
hammurabi
hamsa
hamser
hanbal
handbook
hanifa
haniifa
haniin
hanil
hans
haqaba
haqiiqa
haqqa
haqqi
haraam
haraamun
harafi
harare
harfu
hargreaves
hariis
harithman
harmal
harmattan
harnden
harool
harraa
harris
harry
harvard
has
hasaasiil
hasan
hasbunaal
hasiir
hassaan
hassan
hastata
hathbi
hauptstadt
haut
have
hawfii
hawnul
hayaati
hayni
haysam
hayyaan
haziim
hb
hc
hcr
hdl
he
head
health
healthcare
hebdomadaire
hegel
heininger
heneghan
henri
henry
hepatite
hepatitis
herc
heritage
herman
hermann
herme
herring
hersegowin
hersogowin
herzegovina
hess
heudelotii
heute
hg
hibaad
hiboqrat
hidaaya
hifthul
hiih
hiihkat
hiisaa
hijja
hijri
hikamam
hikma
hilana
hill
hillary
hilleman
himalaya
himma
himraan
hinaaii
hinda
hindaka
hindu
hinman
hip
hirsutum
hirta
hisaab
hisbul
histo
histoire
historia
historical
historie
historio
history
historyofvaccines
hitler
hitn
hiv
hive
hiyom
hizzati
ho
hoa
hoboken
hogonoots
hohenzellern
hok
holand
holistin
hom
homa
home
homme
hommes
homo
hong
hongri
honneur
honoris
hop
hopkins
horn
hors
host
hotel
hothman
how
howard
hoyle
hr
hs
htcom
htm
html
http
https
hu
hub
hubaydul
hubei
hubil
hudaahumuqtadih
hudaybiya
hui
humaines
human
hundo
hundon
huqbal
hurayra
hurayrata
hurma
huwa
huwal
hz
i
ia
ial
iam
iana
ibbi
ibisee
ibliis
ibn
ibnu
ibra
ibraahiim
ibraahiima
ibraahima
ibraayma
ibrahim
ibrahima
ibre
ibriiz
icj
id
idelberg
identite
idriisa
ie
iel
ies
iet
if
ifaada
iface
ifan
ifee
ifraad
ig
igreja
ihsaan
ii
iid
iii
iil
iiliyaat
iimaanan
iisaa
iiu
iji
ikaay
ikat
ikati
ikoo
iks
iku
ikug
il
ilaa
ilaaha
ilal
ilayhi
ile
ilha
ilhas
ilhe
illa
illaa
illaaha
illal
ilseer
ilu
ilukat
ilustrado
im
imaam
imaamam
imaami
imaamul
image
images
imam
imbiku
imbraato
imbraatoor
imbraatooru
imbraatoorub
imbraatoorug
imbraatuurug
imbrato
imbratoor
imbratooru
ime
img
imi
imigre
immunitaire
immunization
immunological
impact
implications
important
importe
in
ina
inauguracion
inc
incidence
increment
indaale
inde
indee
indeeti
index
indi
india
indian
indiana
indians
indica
indicatif
indicator
indien
indikvorto
indil
indique
individuo
indiwul
indo
indoneesi
indonesia
indonesian
industrie
industry
ine
infectieuses
infection
infections
infectious
infective
infeksoon
infinitivo
influenza
info
infobox
infogarafi
informatig
information
informations
informazioni
infos
inistatahtum
initiation
initiations
initiative
iniweersite
iniwersite
iniwzzesite
injiil
injiilub
injuries
inmigrantes
inna
innaa
innaka
innal
innannaasa
innii
inniya
ino
insa
insallaa
inseps
inshaal
insi
inspection
institut
institute
int
intanethi
inte
inter
internacia
internacional
international
internationale
internet
internetu
interpre
interreto
interview
into
introduction
inul
invasive
io
iom
ipdsr
iprage
ips
iqlidis
iqliidis
ir
iraag
iraahiima
iraak
iraan
iran
iras
irempt
iri
irlaand
irland
irosima
irrigation
irwaaun
is
isaa
isaac
isabel
isabela
isaj
isbn
ise
ised
isha
ishaq
ishaqa
isib
isilban
isin
isipt
islaam
islaand
islam
islamic
islamique
island
islands
ispaan
israa
israafiil
israayil
israe
israel
israyil
issa
issn
issues
ist
istanbul
isto
it
itaali
itaalib
itaaliee
itaati
itali
italia
italie
italio
itam
itemid
iu
iupa
ivoire
iwaat
iwut
iy
iyon
iz
izifo
izin
j
ja
jaa
jaabi
jaabir
jaadoo
jaadu
jaaduwul
jaak
jaal
jaale
jaam
jaamaarloo
jaamam
jaambur
jaami
jaamoo
jaamoom
jaamu
jaamub
jaamukati
jaamuy
jaan
jaanama
jaani
jaar
jaara
jaarale
jaaralewoo
jaaram
jaaratu
jaaratul
jaare
jaari
jaaro
jaaroon
jaaru
jaarul
jaaseem
jaasi
jaasiy
jaata
jaataayu
jaawale
jaaxa
jaaxal
jaaxalee
jaaxle
jaay
jaayaat
jaayaate
jaayante
jaayanteg
jaayati
jaaye
jaayeji
jaayi
jaaykat
jaaykati
jaaysi
jabar
jabaram
jabaroo
jabbir
jabet
jabru
jackson
jacopins
jacques
jadda
jafaan
jafal
jafandu
jafe
jafeb
jafee
jafeem
jafeg
jafey
jagal
jagle
jagleel
jagleele
jagleem
jaglewaakoon
jagley
jagoo
jaguar
jahfar
jahlin
jajarin
jakarta
jakkarloo
jal
jalaalii
jalaaw
jalambaan
jalax
jalaxu
jalgati
jali
jalinos
jallo
jalon
jaloore
jalooreem
jalsasin
jalu
jam
jama
jamaa
jamaal
jamaalii
jamahoo
jamano
jamarlo
jamarloo
jamayka
jambaar
jambaarlu
jambur
james
jami
jamiihal
jamiihil
jamiihis
jamm
jammarlo
jammarloo
jamonay
jamono
jamonoo
jamonool
jamonoom
jamonooy
jamonoy
jamoon
jamra
jamrab
jams
jamu
jan
janaba
janeiro
janela
janero
jang
janga
jangale
jangaro
jangat
jangatu
jange
jangi
jangoo
jangor
jangoro
jangu
jank
jannatil
janoo
janook
jant
january
janvier
jap
japon
japp
jappale
jappe
jappee
jappu
jaq
jar
jaraaf
jarbu
jardins
jarin
jarmaan
jaro
jaroon
jart
jarul
jasbul
jataay
jataayam
jataayi
jataayu
jataayub
jatropha
jattayu
jattayub
jaune
jaw
jawa
jawali
jawalsee
jawalsi
jawharun
jawrin
jawrinam
jawrini
jawu
jaww
jawwi
jawwsu
jawwu
jax
jaxaaw
jaxal
jaxan
jaxase
jaxasekat
jaxaso
jaxasoo
jaxasoogul
jaxasook
jaxate
jaxiloo
jaxu
jay
jaypee
jazbu
jazz
jb
jbijjaakon
jbijjaan
jdoxalukaay
je
jean
jebbal
jebbi
jee
jeego
jeegoy
jeek
jeem
jeema
jeemal
jeemoon
jeemul
jeeri
jees
jeewal
jeex
jeexal
jeexalal
jeexaloon
jeexe
jeexee
jeexiit
jeexiital
jeexiitalam
jeexiitaloon
jeexiitalu
jeexiitam
jeexiiti
jeexital
jeexitalu
jeexoon
jeexug
jeey
jef
jeffandiko
jefi
jeflante
jege
jegee
jegeel
jegeele
jegeente
jegen
jegesi
jegesil
jegewul
jegge
jeggee
jeggi
jekk
jekkaat
jekkee
jekki
jekkoo
jekku
jel
jele
jem
jeme
jems
jen
jend
jeneen
jeneer
jeneraal
jeng
jengal
jengoon
jenn
jenner
jeoorji
jepp
jeqi
jeqiku
jeqikug
jermaan
jeroomi
jersi
jerusalem
jeune
jeunes
jeŋ
jfepp
jfeppal
jg
jhu
ji
jib
jibal
jibaloon
jibalug
jibbal
jibriil
jibuti
jidda
jige
jigeen
jigeeni
jigeenu
jigge
jiggeen
jihad
jii
jiilaani
jiilaanii
jiili
jiim
jiin
jiit
jiital
jiitalug
jiite
jiitee
jiiteg
jiitoo
jiitoom
jiitu
jiixi
jikko
jikkoom
jikkowoo
jikkoy
jilbert
jile
jillit
jimblang
jimbulang
jimbulangu
jimbulaŋ
jimmy
jims
jinaan
jinax
jinne
jinni
jiraaha
jirim
jiwaalo
jiwu
jiy
jiyaar
jiyaaram
jiyaari
jiyaarkat
jiyoloji
jiyorik
jj
jjale
jjan
jjana
jjanaam
jjanay
jjani
jjee
jji
jjuma
jk
jn
jo
joa
job
jog
joge
jogee
jogge
joggee
joggi
john
johns
johnson
joj
joju
jokk
jokkale
jokkalook
jokko
jokkoo
jokkoog
jokkook
jokkookayu
jokkoom
jola
jolli
jolof
jom
jomb
jommale
jomono
jones
jongante
jonj
jonjee
jonjoo
jonjoodi
jonjoog
jonjook
jonn
jonson
joo
joob
joof
jooja
joojale
joojee
jooju
joola
joolaa
joom
joon
joop
joor
joowukaay
joox
jooxe
jooy
joqalante
joqalanteg
jordaani
jordani
jordanie
jorge
joriku
jorj
jorjiya
joroom
jort
jorte
jortoon
jortu
jos
jose
josef
joseph
jot
jota
jotaat
jotaayu
jotal
jote
jotee
jotees
jotoon
jottalee
jottali
jotu
jotub
jotug
jotul
jotutoon
jouge
joule
jour
journal
jovem
jox
joxaale
joxaat
joxal
joxan
joxati
joxe
joxee
joxewul
joxon
joxoon
joxu
joxun
joxuw
joy
joyal
joyale
joyaluwaayu
joyu
jozeph
joŋante
joƞante
jpg
jsaalum
jtekkaaral
ju
jub
jubal
jubale
jubb
jublisi
jubloo
jublu
jublule
jublusi
jubluwaay
jubluwaayam
jubluwaayi
jubluwaayu
jubluwu
jubluwunu
juboo
juboog
juboole
jubul
judd
juddal
juddalkaayu
juddalukaayu
juddo
juddoo
juddoom
juddoon
juddooti
juddu
juddug
judduwaat
judduwaatug
jude
judgment
judiciaires
judri
jug
jugaat
jugal
jugati
juge
jugee
jugeeti
jugewul
jugg
jugge
juggoon
jugoon
jugutoon
juillet
juin
jukki
jula
jules
juliit
julio
julit
julius
julle
jullee
julleek
julleem
julli
jullig
jullil
jullit
jullitam
julliti
julliwaay
julliwul
julliy
jullt
july
jum
jumaa
jumaada
jumaadas
jumaay
jumi
jumla
jummaada
jumtukaay
jumtukaayam
jumtukaayi
jumtukaayu
jumtukaayub
jumtuwaay
jumu
jun
junco
june
juni
junio
junj
junjoon
junne
junneek
junney
junni
junniy
jup
jur
jural
juram
jurati
jurbel
jurdund
juree
juridique
juridiques
juro
jurom
juroom
juroomeel
juroomeelu
juroomi
juroon
juru
jurug
jurukaay
jurukaayu
jusqu
justice
juttit
juuf
juum
juur
juventude
juxraaf
juy
juyuub
juŋ
k
ka
kaa
kaab
kaaba
kaabaal
kaabu
kaad
kaadaru
kaaf
kaalawu
kaamil
kaamilub
kaana
kaapvchamp
kaaraange
kaaraangeem
kaaraangeg
kaaraangey
kaarange
kaare
kaas
kaasa
kaasamaas
kaaw
kaay
kaba
kabiir
kabraal
kadam
kaddu
kaf
kafaara
kafar
kafaruu
kafe
kafor
kafour
kafrin
kahoolawe
kaj
kajoor
kakaawoo
kakhulu
kala
kalaame
kalaasik
kalahaari
kalante
kaledooni
kalfan
kalfen
kalikuta
kalimat
kalkil
kallama
kamaal
kaman
kamara
kamboni
kameroon
kamerun
kan
kanaalub
kanaari
kanada
kanadaa
kanadii
kanam
kanamam
kanaman
kanamu
kanamug
kandidaa
kane
kanel
kangam
kano
kaolack
kap
kapitenam
kappa
karaama
karaamaa
karaamay
karaange
karasol
karayib
karbonari
karce
kardinaal
kariim
kariis
karite
karka
karman
karmat
karolaayna
karolin
karramal
kart
karthala
kartu
kas
kasakistaan
kasasin
kasiir
kaso
kasob
kasr
kat
kataar
katann
katederaal
katedraal
katego
kategori
kategoria
kategorie
kategorija
kategorio
katolig
katoligi
kattanu
katu
kavala
kavour
kaw
kawam
kawar
kawaram
kawe
kawee
kaweel
kaweem
kawewaay
kawey
kawi
kawiya
kawlak
kawlax
kawo
kawri
kawu
kax
kay
kayif
kayit
kayta
kazu
kaŋ
ke
kebe
kebeg
kebemeer
kee
keen
keep
keer
keeru
kees
keesenu
keesug
keita
kem
kemal
kemam
keman
kembaar
kembaaru
kembaarug
kembrij
kemi
kemu
kemub
ken
keneen
kenn
kennalal
kenob
kenoy
kentrebry
kenu
kenya
kepp
keppaarug
ker
keraan
keraanam
keraani
keram
kerkeraan
kernel
kero
keroog
keroogee
kerook
kerr
kersa
kerug
kese
kesteloot
kewel
key
keyta
keŋ
khadi
khady
kheer
ki
kialo
kiam
kiel
kies
kigelia
kii
kiimaan
kiimaanam
kiimaani
kiimaanug
kiinaa
kiiraay
kilifa
kilifaam
kilifag
kilifawu
kilifay
kilife
kilifte
kilifteef
kilifteefam
kilifteefu
kilifteefug
kilima
kilimaa
kilimaab
kilitfeef
kilo
kilomeetar
kilomet
kim
kimiya
kimya
kimyaa
kin
king
kingdom
kinshasa
kintakit
kio
kiom
kirche
kirchhoff
kirgistaan
kiris
kirist
kiswahili
kitaab
kitaaba
kiu
kiun
kixota
kiy
kj
kk
kka
kkaa
kkaale
kkaam
kkaan
kkaani
kkaanu
kkaanum
kkaar
kkaaram
kkaari
kkaarloo
kkaarlool
kkal
kkale
kkalekaay
kkalekatu
kkali
kkalo
kkaloo
kkalool
kkaloon
kkam
kkamti
kkandoo
kkandoob
kkandoom
kkani
kkantal
kkantale
kkantalu
kkar
kkarloo
kkasaa
kkatee
kkati
kkatiku
kkay
kke
kkee
kkel
kket
kkewu
kki
kkiin
kkiya
kkloo
kkoo
kkoon
kkooti
kksi
kku
kkub
kkug
kkukati
kkusaan
kkusi
kkute
kkuteef
kkuteefi
kkuteeful
kkuteful
kkuw
kkuwaay
kkuwaayam
kkuwaayu
kkuwaayub
kkuwu
klaasik
klarigo
klig
klimaa
klimaab
klub
klubano
klubi
klubo
km
know
known
ko
koba
kocc
kodefee
kodiwaar
kog
koj
koju
kojug
kok
kokki
koko
kol
kolda
koldaa
kolera
koleraa
koli
kollarante
kollaranteek
kollarantey
kollare
kollareg
kolle
kolobaan
kolombi
kolombiya
kolomboo
kolonise
koloombi
kolos
kolt
kolu
kolub
koly
kom
komedi
komhlaba
komika
komikon
komkom
komonwelth
komoor
komperativo
kompin
kompoloo
komprenas
kompreni
komprime
komputilo
komunumo
kon
konaakiri
konaakri
kondeer
kong
kongo
kongoo
kongres
konjoru
konkoroŋ
konrad
kontaabilite
kontaan
kontar
kontare
kontaroon
kontina
kontinento
konug
koo
koog
kook
kooka
kookee
kooku
kool
koolute
kooluteem
kooluteg
koom
koomam
koomi
koomu
koomug
koor
kooram
koore
koorug
kooy
kopernic
kopernics
koperniks
kopooar
koppar
kor
koran
korbon
kordoba
kore
korelativaj
korent
korfuu
kori
korite
korona
koronaa
koronaawiris
korwaasi
kos
kosta
kot
kovri
kow
kowe
kox
koy
koŋ
krist
kristaa
kritige
krushynka
ku
kuba
kubaa
kube
kujje
kujjeg
kuko
kullu
kulo
kum
kumba
kumpa
kumu
kun
kundaa
kune
kunge
kungeel
kunna
kunsay
kunye
kura
kuran
kurang
kuraŋ
kure
kureel
kureelam
kureeli
kureelu
kureelub
kureelug
kureet
kurel
kuro
kurpen
kuur
kuus
kuutlaay
kuwaame
kuwet
kuy
kvanto
kvar
kw
kww
kyel
l
la
laa
laab
laabal
laabale
laabiir
laabiire
laabire
laaf
laafum
laago
laah
laaha
laahi
laahil
laahir
laahu
laahul
laaj
laaje
laajee
laajoon
laajte
laaju
laajug
laajul
laajun
laal
laalante
laalee
laalu
laalul
laam
laamaar
laamaaru
laasal
laat
laata
laataa
laatu
laax
laaxub
laay
laaya
laaye
lab
labal
labalata
labaloon
labayka
labbe
laboratory
labori
laborus
lac
ladab
ladam
ladunka
laf
lafan
lafyette
lag
lago
lagoa
lagos
lahaay
lahoor
lahum
lahumun
lahuu
lajj
lajmat
lajoor
lak
lakk
lakkal
lakkati
lakke
lakkee
lakku
lakkug
lakkum
lako
lakum
lal
laltu
lalu
lalub
lam
lama
lamaan
laman
lamana
lamani
lamb
lamiin
lamin
lamp
lamu
lamuy
lan
lana
lanaa
lancashire
lancet
land
landolphia
lang
language
langue
langues
lank
lankmbe
lanu
lanuy
laplace
larme
larry
las
lasasin
last
lat
latajjidanna
latfiya
lathiina
lati
latii
latiir
latin
latitude
latjoor
latkolon
lau
laura
laurence
laurent
laurus
laval
lavette
lavoisier
law
lawaayu
lawal
lawax
lawbe
lawee
lawhul
lawos
lawtan
lawus
laxas
laxasati
laxasoo
laxiflora
lay
layal
layalkat
laye
laykat
laylatul
layoo
laytaay
layu
layuw
lazi
lazii
laziina
laziinat
lb
lbatee
lbati
lbatiku
lbe
lbeen
lbeenam
lbeeni
lbeenu
lbeenug
lc
lcar
lcr
le
lea
leaf
league
learning
leaves
leb
lebal
lebou
lebu
lections
lectricite
lectronique
lectures
lee
leeb
leeg
leegi
leek
leekol
leel
leem
leen
leena
leendi
leeni
leep
leer
leeraange
leeradi
leeral
leeralaat
leeralal
leerale
leeraloon
leeralu
leeralug
leeram
leere
leeree
leeri
leeru
leerug
leerul
lees
leetar
lef
lefi
left
lefum
leg
leget
legi
legomoj
legos
leita
lekk
lekkal
lekke
lekkee
lekkleel
lekkloo
lekkug
lekool
lekoolu
lela
lele
lem
lemu
len
leneen
lenge
lengey
lenin
lenn
lenni
leodardo
leonardo
leono
leopold
leopool
lep
lepisanthes
lepp
leptadenia
lepton
lernas
lerni
lernu
leru
les
lesoto
lesourd
leste
letero
leto
lett
letter
lettre
lettres
lettu
leur
leurs
level
lewaay
lewaayi
lewet
lewopool
lewu
lex
lexilogos
leymah
leyoon
li
lia
libaa
libaan
liban
libaŋ
libe
libeeria
liberaal
liberia
liberiyaa
liberte
liberyaa
libi
libisg
librador
libre
libro
lidi
lie
liechtenstein
lien
liens
lif
lifay
life
liga
lige
ligeey
ligeeyal
ligeeyam
ligeeye
ligeeyi
ligeeykat
ligeeykati
ligeeyloo
ligeeyu
ligeeyub
ligeeyuwaay
ligeeywaayu
ligge
liggeey
liggeeyal
liggeeyam
liggeeye
liggeeyee
liggeeykat
liggeeykati
liggeeykatu
liggeeyu
liggeeyukaay
liggeeyukaayu
liggey
ligne
ligue
lihaazaa
lihraab
lihsaan
lii
liif
liig
liim
liin
liir
liiru
liis
liise
liisugar
liitar
liitaru
lijaasa
lijaasaam
lijaasab
lijanti
lijantile
lije
lijjantee
lijjanteek
lijjanti
like
liko
lil
lila
lilaa
lillaah
lillaahi
lillaahil
lillah
lilly
lilmuttaqiin
lilyan
lim
lima
limaa
limaamu
limal
limam
limi
limited
limites
limu
limub
limug
limuy
lin
linahtadiya
linares
linegrey
lingeer
lingeeru
lingeerub
lingoom
linguistique
lingvo
lingvoj
linjiil
lino
linu
linuy
lio
liqaam
liquide
lire
lis
lisa
lisaam
lisboa
lisbon
lisboon
lislaam
lislaame
list
liste
lisunnatil
literature
literaturo
litofski
litte
lituwaani
lituwani
litwaani
live
lived
liverpool
lives
livre
livres
lix
liy
liyon
liyonardo
liyoo
liyuzbituuka
ll
lla
llaa
llaam
llaama
llaamay
llaan
llaate
llaaxira
llaay
llaf
llal
llala
llalag
llalay
llale
llaliku
llalikug
llalikuwul
llaloon
llalu
llam
llankoor
llante
llanti
llarba
llare
llay
lle
llee
lleeku
lli
lliku
lliwaam
lliyoom
lliyu
llo
lloo
lloosi
llu
llub
llug
llum
llusi
lluwa
lluwaay
lmal
lme
ln
lo
loa
lobo
local
locale
locales
lockdown
locri
lofan
logique
logo
loi
lois
loj
lojukaay
lokaal
lokire
loko
lol
lolli
lolou
lolu
loluu
lombardi
lombardia
lome
londar
london
long
longe
longipedunculata
longitude
longue
longueira
lonk
lonkoo
lonkooy
lonkoyoon
lonkoyoonu
lonku
loo
looco
loof
loofloo
looko
lool
loola
loolee
loolo
looloo
loolooo
loolooy
loolu
loon
looy
lopes
lopitaal
loppanti
lor
loraange
loraangey
lorans
lore
loren
lorens
lorentz
lorenzo
lorewul
lori
loroo
loru
loruloo
los
lotig
lotigu
lott
lottal
lottam
lotte
lottoon
lou
louga
louis
lourenc
louvre
louxha
lox
loxo
loxob
loxog
loxol
loxoom
loxoy
lpfp
lt
ltd
lu
luanda
lub
lublino
lubotin
ludi
ludul
lug
luga
luge
lui
luis
lujum
luko
luksamburg
luksambuur
luksembuur
lul
lula
lum
lume
lumie
lumu
lumuy
lun
lunu
luokka
lusiyeŋ
luther
lutjanus
lutte
luu
luug
luuther
luw
luwaa
luwi
luwid
luwis
luwisiyaana
lux
luxamburg
luy
luye
luz
luzia
lv
lydia
m
ma
maa
maabeey
maad
maag
maaja
maajoor
maak
maakiriin
maakiriina
maal
maalaaka
maalaw
maali
maalig
maalik
maam
maamaati
maamaatu
maamam
maame
maami
maamoom
maamu
maamun
maanaa
maanaam
maanaan
maanam
maandeŋ
maandoodi
maandu
maandute
maanduteg
maane
maang
maangi
maar
maarloo
maars
maas
maasale
maasam
maase
maatam
maaxuuz
maay
maayi
maayomba
maba
mabba
macc
mace
machiavelli
machine
machrek
macrostachya
madagaskaar
madatsi
madeira
madeleine
madi
madiina
madina
madior
madira
madison
madrid
mag
magal
magam
magazine
mage
magellan
magg
maggal
maghreb
magi
maginta
magoon
magu
mahama
maharam
mahdi
mahdiyu
mahfuus
mahiya
mahmar
mahsharal
mai
main
maio
mais
maison
maisonneuve
majaalis
majaxate
majmooha
majo
major
majorite
mak
makaaw
make
makes
maki
making
makk
makka
mako
mal
mala
malaaka
malaakaam
malaakay
malaawi
malabo
maladie
maladies
malagueta
malaki
malamiko
malandi
malaria
malawi
malayo
malbela
maldiif
male
maleem
maleesi
mali
malick
malik
malinke
mallonga
malsana
malsatan
malt
malta
mam
mama
mamaalig
mamaalik
mamaas
mamaati
mamadou
mamadu
mambe
mambulaanug
mame
mamel
mammoor
mamoor
man
mana
manaa
manaaf
manaam
manaama
manadarga
manadee
manageable
management
manal
manam
manante
mananul
manatee
manatu
manatul
manatuloon
manatun
manatunoo
manatunu
manatutoon
manchester
mandabi
mandarga
mandargam
mandargay
mandatory
mandaxee
mande
mandell
mandeŋ
manding
mandinka
mandinke
mandiŋ
mane
manee
manees
maneesatu
maneesu
maneesul
mang
manga
mangi
mangifera
mango
mangue
mani
maniero
manke
manna
mannaan
manoo
manoon
mans
mansa
manso
mansour
mant
manta
manti
mantiq
manu
manuel
manul
manun
manunu
manut
manuta
manutoon
map
maps
maqaama
mar
maraakes
marbar
marcelo
march
marco
mareema
marenngo
margoliyos
mari
maria
mariama
marianne
marie
marino
marins
maritime
mariya
marjaan
mark
market
markup
marn
maro
marog
marok
marook
maroon
mars
marsaal
marsal
marsandiis
marsandiisam
marsandiisi
marse
marshal
marsiya
marson
martaba
martabay
martin
martins
marto
marwa
maryaama
maryama
maryohanna
maryon
mas
masa
masaa
masaalikul
masaan
masacusets
masala
masalam
masalay
mascarenhas
maseduwaan
maseduwan
masiil
masin
masini
masinu
masjidul
mask
maska
masks
maslaa
masnaa
maso
masqat
masse
massina
masta
maste
master
masu
masul
masumaa
masun
masut
masxat
mat
matal
matalal
matale
matalewul
matalug
matam
mate
matee
matematig
matematik
matematikaj
matematiko
materialiste
mathbf
mathe
mathrm
matie
matiere
matiques
mato
matt
mattam
matu
matug
matul
matunu
matuwaay
matuwaayi
matuwaayu
maurice
mauritanie
mawaahibul
mawaahibun
mawaarina
mawlaa
mawsil
max
maxreb
maxrib
maxribu
maxruutaat
maxtaar
maxwell
may
maya
mayal
mayam
maye
mayewaakon
maymuna
mayo
mayoon
maysa
mayu
mayug
mayun
mazalul
mazauric
mazzini
mb
mba
mbaa
mbaab
mbaag
mbaakol
mbaakundaa
mbaal
mbaale
mbaaliya
mbaam
mbaandute
mbaar
mbaare
mbaari
mbaarloo
mbaate
mbaaw
mbaax
mbaaxam
mbaay
mbacke
mbakke
mbal
mbalaan
mbale
mbalee
mbali
mbalig
mbalka
mbalkam
mballo
mbam
mbamb
mban
mbar
mbara
mbartalum
mbas
mbass
mbassum
mbasum
mbat
mbate
mbati
mbaxana
mbaxanam
mbay
mbayam
mbaye
mbayum
mbe
mbedd
mbeddum
mbeex
mbegaan
mbege
mbegte
mbej
mbell
mbelli
mbeng
mber
mberum
mbetteel
mbeŋ
mbi
mbidd
mbide
mbiit
mbiitu
mbind
mbindaan
mbindam
mbinde
mbindeef
mbindeefi
mbindi
mbindiin
mbindiinu
mbindin
mbindum
mbir
mbiram
mbiri
mbirim
mbiru
mbirum
mbitam
mblee
mbli
mblig
mblli
mbo
mbokk
mbokkam
mbokki
mbokko
mbokkoo
mbokkte
mbokkum
mboleem
mbon
mbonam
mbonug
mboo
mbooj
mbool
mboolaay
mboolaayam
mboolaayi
mboolaayu
mboolaayug
mboolayug
mboole
mbooleem
mbooleen
mboolem
mbooloo
mbooloom
mbooloowu
mboolooy
mboon
mboooleem
mboor
mboot
mbootaal
mbootaay
mbootaayi
mbootaayu
mbootaayug
mbootay
mbootayu
mbooti
mbootum
mboq
mborosaan
mbotaayi
mbow
mbte
mbtu
mbu
mbub
mbubb
mbubbam
mbubboo
mbubum
mbugal
mbugale
mbugali
mbugalsi
mbugalum
mbuggalukaay
mbulaan
mbulaanu
mbulaanug
mbum
mbumbe
mbur
mburi
mburu
mbuug
mbuur
mbuus
mbye
mc
mcgraw
mcgrawhill
mcing
mdr
me
mea
measles
mebat
mebe
mecce
meccem
meccey
med
medaayu
media
medical
medicine
medicines
medina
mee
meek
meelokane
meen
meeni
meer
mees
meetar
meew
megan
mekanig
meksig
meksik
mel
melal
melale
melaloon
melaneesi
melax
melegueta
melentaan
mell
melni
melnii
melo
melokaan
melokaanam
melokaani
melokaanu
melon
meloom
meloon
melosuuf
melosuufug
melow
meloy
melul
men
mena
meneen
mengalee
meningite
meningitis
meningococcal
menn
menna
mennum
menso
ment
mentaires
menul
mepp
mer
meram
mercier
mere
meridien
merkuur
merloo
meroon
mers
meruw
mes
mesopotaami
messie
mesures
met
meta
metal
metar
meteo
method
meti
metiitu
metit
metitu
metro
metternich
metti
mettiit
mettil
mettit
mettitlu
mettitu
meum
mewul
mhnt
mi
mia
mica
micfroorganizm
michael
michel
michiavelli
mico
micranthum
micro
microb
microbiology
microscope
middle
migrants
migration
miguel
mihraab
mii
miik
miil
miim
miimiya
miimug
miin
miine
miinoon
miir
miiraas
miiral
miiram
miiru
miixa
mikoro
mikroneesi
mil
milano
mile
milho
milieux
milimet
milion
milioŋ
milioŋi
militaire
military
miliyaar
miliyo
miliyon
miliyoŋ
miliyoŋi
mille
miller
millions
milton
milyaar
milyon
milyong
milyoŋ
milyoŋi
min
minad
minal
minanul
minas
minash
mindelense
mindelo
mine
mingi
minin
minine
minins
ministar
ministe
ministers
ministre
ministres
minna
minorite
minvielle
mio
miqdaarihil
mira
mirabo
mireille
misaal
misaalam
misaale
misaali
misaalum
mise
misel
mishab
misi
misig
misik
misisipi
misk
miskiin
misra
missaal
missiles
mit
mitchell
miy
miyanmaar
mj
mk
mkrasj
ml
mloo
mm
mmaan
mmaar
mmaarlo
mmaarloo
mmaarlook
mmal
mmam
mmarloo
mme
mmee
mmeel
mmeelam
mmeelu
mmeelub
mmeenam
mmen
mmi
mmin
mmkat
mmkati
mmon
mmoon
mmoonteek
mmu
mmug
mmwr
mn
mo
moaulaiki
mocratique
mode
model
modena
modern
moderne
modou
moelle
moggi
mographie
mogui
mohamed
mohammed
moi
moins
moire
mokeu
mokk
mokkal
mokkalandi
mokkale
mokkaloon
moko
mol
moldaawi
molo
mom
momar
mombasa
momeel
momel
momordica
mon
mona
monaako
monato
monde
mondial
mondiale
mondialisation
mondo
mongomeri
mongui
mono
monod
monon
monrow
monsoro
monte
monteiro
montenegro
montesqieu
montesquieu
montevideo
monto
moo
moodi
moodiku
moodoon
moodu
mook
mooki
mooko
mool
mooli
moolu
moolub
moolukaayu
moom
mooma
moomadi
moomam
moome
moomee
moomeel
moomeelam
moomeeli
moomeelug
moomel
moomoom
moomoon
moomu
moomul
moon
moone
moongi
moor
moos
mooy
mor
morbidity
more
morens
mori
moringa
morisos
moritani
moroom
moroomam
moroomante
moroomi
morowiyaa
morro
mort
mortality
mos
mosa
mosaambik
mosal
mosalug
mosambig
mosambik
mosby
mosee
mosko
mosque
mossolini
most
mosteiros
motakk
mother
motnan
moto
mottali
mottalikoonte
mou
mougui
mouir
mount
mouride
mourides
mouridisme
moussa
mouton
mouvement
mowab
moy
moyee
moyen
moyenne
moyennes
moytu
moytul
moytuwul
mozdahir
mp
mpaan
mpaay
mpaj
mpal
mpalkat
mpkb
mpoon
mr
ms
msi
mt
mtee
mu
mubtakaraat
mucc
muccam
mucce
mucci
muccoon
muccug
mudaaranteek
mudd
mufti
mug
muhallaa
muhammad
muhammadin
muhammadu
muhammadul
muhammat
muhammed
muhammudu
muharram
muj
mujj
mujja
mujjam
mujjantal
mujje
mujjee
mujji
mujjoon
mujjug
mujjul
mujrimiina
mujug
muka
mukalaf
mukallaf
mukk
mul
mulaay
mulayyinuz
muloŋ
multe
muluŋ
mum
mumero
mun
munaa
munawwiruz
mundo
mune
mungi
muni
munic
municipal
munkir
munta
muntaqimuuna
munu
muraabituun
muricata
murid
muridam
muriid
muriidulaa
muriit
murit
muritam
muritani
mursaliin
murtad
murtadaa
murtalaa
musa
musaa
musal
musalaate
musalal
musale
muse
museu
museum
mushaahid
musiba
musibaam
musibam
musibay
music
muslaay
muslim
musloo
muslu
musrikiin
musrikuuna
mussoliini
mussolini
mussoolini
mustafa
mustafaa
mustahiin
mustalah
mustang
musulmane
mutalib
mutoon
muttaquun
mutungi
muucu
muun
muur
muuraay
muuraayu
muure
muuroon
muuru
muurum
muus
muusa
muusaa
muwaayu
muxaddam
muxsin
muxtaar
muy
muyasara
muzlu
mw
mwamba
my
mycobacterium
n
na
naa
naafeq
naafih
naafila
naaga
naagu
naagul
naaj
naaje
naak
naal
naalam
naale
naali
naaloon
naalub
naam
naan
naanaale
naanal
naane
naanoon
naar
naari
naasir
naasira
naasu
naat
naataange
naataangey
naatoon
naatug
naaw
naaxsaay
naaxsaayal
naaxsaayoon
naay
naayibam
nabii
nabiyu
nacc
nacioj
nacional
nadi
nadiim
nadiir
nadx
nafiis
nag
nagasaki
naggu
nagul
nahju
nahwu
naire
nairobi
naissance
nait
naj
najaar
najasun
nak
naka
nakiir
nakk
nako
nakoo
nal
nala
nalal
nalam
nale
nalee
nali
nalkat
nalla
naloon
nalug
nalukaay
nam
nama
namandiru
name
nameel
namibi
namm
nammee
nammeel
nammeelam
namoon
namu
nan
nana
nancoo
nand
nang
nanga
nangay
nangeen
nangoo
nangooti
nangowoon
nangu
nangug
nangul
nangulee
nanguwaat
nanguwu
nanguwul
nanguwun
nanguwutoon
nani
naniou
naniu
nanoo
nanook
nanu
nanub
napoelon
napolen
napoleon
napoli
napoliyon
napp
nappe
nappkat
nappukat
naq
naqa
naqar
naqaral
naqari
naqarlu
naqaru
naqq
naqqu
naqqub
nar
nara
naram
nare
naroon
nas
nasa
nasaard
nasaatiray
nasaraan
nasaraanal
nasaraanalam
nasaraanalkat
nasaraanalkati
nasaraanalkt
nasaraanu
nasaranal
nasaxal
nasi
nat
nataal
nataali
nataalu
nataalub
nataalukaayu
natal
natee
nation
national
nationale
nationalisme
nations
natoo
natt
nattale
nattam
natte
nattee
nattiin
nattoo
nattu
nattub
nattukaay
nattukaayi
nattukaayu
natural
nature
navigation
naw
nawet
nawetub
nawfal
nawle
nax
naxe
nay
nayoobe
nazaire
naziir
nazzalal
nbombo
nc
ncam
ncax
ncaxi
ncaxu
nchen
ncia
ncov
ncu
ncum
nd
nda
ndaa
ndaal
ndaale
ndaam
ndaama
ndaay
ndab
ndabul
ndadee
ndadi
ndadoom
ndaje
ndajeem
ndajem
ndajey
ndak
ndakaaru
ndakaarugeo
ndakaru
ndal
ndaloon
ndalug
ndam
ndamu
ndamul
ndand
ndandoo
ndandoom
ndank
ndaqe
ndaqekaay
ndaqoo
ndar
ndare
ndarga
ndargaal
ndargaam
ndargal
ndargam
ndargay
ndarma
ndati
ndaw
ndawaan
ndawal
ndawam
ndawe
ndawi
ndawu
ndawul
ndax
ndaxe
ndaxekaay
ndaxoo
ndaxte
nday
ndayam
ndaybarga
ndayi
ndaysaan
nde
ndee
ndeek
ndeel
ndeelu
ndeeluwaan
ndeem
ndeene
ndeer
ndefar
ndefaram
ndefarug
ndegam
ndekete
ndenkaane
ndey
ndeyi
ndeysaan
ndeŋ
ndi
ndiaye
ndigal
ndigalal
ndigalam
ndigali
ndigalu
ndigalug
ndigalul
ndige
ndigel
ndigg
ndiir
ndiiwaan
ndiiwaani
ndijoor
ndijooram
ndiko
ndikoo
ndiku
ndil
ndima
ndimal
ndimbal
ndimbalam
ndimbali
ndimbalu
ndimbalug
ndimbalul
ndindi
nding
ndinkaane
ndir
ndiri
ndiŋ
ndo
ndodd
ndoddu
ndoddum
ndof
ndofe
ndogal
ndogalu
ndogo
ndogu
ndokkeel
ndoktoor
ndollant
ndollent
ndoma
ndomay
ndomba
ndombaam
ndombal
ndombo
ndomboy
ndon
ndong
ndonga
ndongo
ndono
ndonoy
ndool
ndoon
ndoorte
ndoorteel
ndoorteelu
ndoortel
ndox
ndoxe
ndoxi
ndoxu
ndoxum
nds
ndseek
ndu
ndub
ndul
ndumbe
ndun
ndundat
nduroo
ndutoon
nduur
nduwaan
ne
neb
nedifinita
nee
needle
neefere
neeg
neegub
neek
neekh
neekiin
neel
neeli
neem
neen
neena
neenal
neenalee
neenaloon
neenalul
neenan
neenl
nees
neeti
neew
neewal
neewaloon
neewi
neewiit
neewoon
neewte
neewtey
neewug
neex
neexal
neexalu
neexalub
neexe
neexee
neexi
neexoon
neexoowut
neexu
neexum
neggandiku
nek
nekh
nekk
nekkaat
nekkal
nekkaloon
nekkam
nekkandi
nekkati
nekke
nekkee
nekkewu
nekki
nekkiin
nekkiinam
nekkiinu
nekkin
nekkinu
nekkon
nekkonn
nekkoo
nekkoon
nekkte
nekkteef
nekkteefi
nekkteg
nekktey
nekku
nekkug
nekkul
nekkuma
nekkun
nekkunu
nekkutoon
neko
nekoon
nelaw
nelawul
nemmeeku
nemmeekukat
nemmeekusi
nemmiku
nemmikusi
neneen
neni
neniu
nenn
neonatal
nepaal
neptuun
nergie
nes
nesar
net
netali
nettalee
nettaleem
nettali
nettalib
nettaliy
network
neutique
neves
new
newman
news
newsiland
newspaper
newton
newul
newwi
next
ng
nga
ngaa
ngaabu
ngaan
ngaana
ngaay
ngaayoo
ngaayu
ngacc
ngal
ngalal
ngalam
ngale
ngalee
ngaleek
ngaleem
ngalekat
ngalekatu
ngalem
ngaliin
ngalteer
ngam
ngami
ngan
nganaay
nganale
ngande
ngank
ngannaay
ngant
ngara
ngarab
ngartaajoo
ngass
ngat
ngate
ngati
ngatu
ngay
nge
ngee
ngeej
ngeen
ngeer
ngeji
ngelaw
ngelawi
ngelawul
ngemb
ngente
ngi
ngigis
ngii
ngiin
ngiinu
ngiir
ngiirum
ngiit
ngin
ngir
ngirowaay
ngirug
ngirum
ngistal
ngkat
nglekatam
nglu
ngo
ngogna
ngol
ngom
ngone
ngongo
ngoo
ngoodi
ngook
ngoom
ngoon
ngoonug
ngoor
ngooru
ngor
ngoram
ngori
ngornama
ngornamaŋ
ngoro
ngoroy
ngoy
ngsi
ngte
ngu
ngub
ngug
ngugug
ngukat
ngul
ngum
ngun
ngunaay
ngunaayaug
ngunoom
ngunsay
ngunu
nguruu
ngutu
nguur
nguuraan
nguuraanam
nguuraani
nguuram
nguuran
nguurg
nguuri
nguuru
nguurug
nguy
nha
nhagar
ni
nia
niang
niar
niari
nib
niccolo
nicola
nicolau
nicos
nie
niek
niende
niet
niew
nig
niger
nigra
nih
nihaaya
nihmal
nihmatin
nii
niil
niimaa
niir
niis
niit
niitu
nijaam
nijaayam
nijeer
nik
nikaraaguwa
niki
niko
nikola
nilotica
nim
nimero
nimu
nimuy
nin
ningocoque
ninu
nio
niogui
niokolo
nior
niou
nipal
niral
niro
niroo
nirook
nirool
niroole
niroolee
niroowul
niroowut
niru
nisaab
niseer
niseeria
niseeriya
niseeriyaa
niseria
niseriya
niseriyaa
nit
nitam
nite
niteem
niti
nitn
nitrik
nitrogen
nitt
nitu
nitug
niu
niue
niw
niy
nj
nja
njaa
njaaj
njaajaan
njaal
njaam
njaambur
njaamu
njaan
njaare
njaareem
njaasaan
njaay
njaayam
njaayum
njabare
njabarkat
njaboot
njabootaatu
njabootam
njabootay
njabooti
njabootu
njabootub
njabootug
njaf
njafe
njagale
njaggatkat
njambaan
njambur
njan
njang
njangale
njangat
njangum
njar
njarin
njarmeew
njaru
njaxas
njaxasiitum
nje
njeexit
njeexitalu
njeexitu
njeextal
njeextalu
njek
njekk
nji
njiilul
njiit
njiitalu
njiiteef
njiiteefu
njiiti
njiitl
njiitlaay
njiitu
njiitug
njiitul
njiitull
njirim
njit
njiyum
njo
njobaxtal
njobbaxtal
njobbaxtalu
njogu
njombe
njool
njoolaay
njoolaayam
njooy
njort
njortam
njortul
njot
njoxe
njub
njudde
njukke
njul
njum
njumri
njunj
njunjam
njur
njurbel
njure
njureel
njurum
njuufeen
njuuj
njuumte
njuux
nk
nkaan
nkaane
nkal
nkale
nkaloo
nkaloon
nkam
nkar
nke
nkee
nkeel
nkeem
nkeg
nki
nkoo
nkoon
nkoonte
nkoonteek
nkoonteel
nkoote
nku
nkub
nkug
nl
nloo
nn
nna
nnaar
nnaaram
nnaaru
nnaay
nnaayal
nnaayam
nnaayi
nnaayu
nnaayul
nnal
nnam
nnar
nne
nnee
nneef
nneel
nneeti
nneex
nneexam
nneexi
nneexu
nnent
nnet
nnewaat
nnewul
nni
nnikati
nniyu
nnjadi
nnlu
nnoon
nnoosi
nnu
nnug
no
nobel
nobilis
nocci
nocciku
noccim
nodd
noflaay
noggatu
noir
noire
noisy
noks
nombre
nombreux
nombro
non
nonu
noo
noom
noon
noona
noonam
nooni
noonii
noonoo
noonool
noonu
noonub
nooonu
noor
noorub
noorwees
noos
noot
nooteel
nootel
nootoon
nooy
nooyal
nooyi
nooyoon
nopp
noppal
noppale
noppalu
noppaluy
noppam
noppee
noppeek
noppi
noppub
nord
normaal
normal
norman
normandi
normbrug
norte
north
northern
northwest
norton
noru
norweej
norwej
nos
nosaat
nose
nosiin
nosiinu
nosoo
nosoon
nossa
noste
nosteeg
nosteem
nosteg
nostey
nosu
nosub
nosukaay
nosuwutoon
not
notal
note
notee
noteel
notes
notice
notion
notoon
notre
nouv
nouvelle
nouvelles
nov
nova
novel
novels
november
novembro
novgorod
novo
now
nowa
nowambar
nowel
nowembar
noyyi
npr
nq
nqaas
nqaasam
nqaasi
nqaasoo
nqaasu
nqaasub
nqaay
nr
nt
ntal
ntam
ntar
nte
ntewoo
nti
ntico
ntimet
ntoo
ntoodi
ntoodil
ntoropolog
ntu
ntug
ntul
ntuloon
nu
nubi
nucifera
nucle
nueva
nugg
nuggalukaayu
nul
nume
numero
numu
nun
nunu
nupedia
nur
nuro
nursing
nus
nutr
nutra
nuul
nuur
nuuraakon
nuuraakonam
nuuroon
nuweel
nuy
nuyoo
nuyyo
nuyyoo
nuyyu
nuyyul
nuyyusi
nw
o
ob
oba
obaali
oban
obare
obe
obenga
obesum
observer
obu
occasional
occidantale
occidentale
occidentalis
ocd
oce
october
octobre
oddi
oddile
odu
of
ofaan
ofeen
office
official
officiel
officielles
offre
ofise
ofisel
ofu
og
ogal
ogo
ogol
ographie
ogust
ohm
ois
oise
oj
ok
okanye
okazis
okazo
okcident
oko
oksford
oksid
oksijen
oktobar
oktobro
oktoobar
ol
ola
olaand
oland
old
olee
oleifera
olga
oli
oliw
olizane
ollu
olo
ologie
olp
olu
olukaay
olukaayi
olukaayu
olute
olympique
om
omaan
omar
ombre
omeelu
omega
omi
oms
omu
on
ona
one
ong
ongal
ongri
oni
onklo
online
onoris
ons
ont
onu
onusida
onze
oo
oojoor
ook
oom
oomi
oon
oona
oongi
oonguri
ooro
ooy
ooŋ
op
opals
open
opera
operation
operatorname
opere
opinion
opitaal
opold
oppeere
opportuniste
option
or
ora
oraale
oragul
oral
oralite
oram
orange
order
ordre
ore
oree
orenstein
oreyaa
org
organisation
organism
organisme
organization
organizm
orgo
ori
orient
ories
origin
original
origine
origines
origino
oris
orlando
orlu
ornamaa
ornamaab
orob
orobug
oront
oroon
ors
orstom
orto
ortodoks
ortodoksi
oru
orug
orul
orum
os
osaa
osaka
oseyaani
oso
osoras
ostraali
ostrali
ot
otaay
otal
otan
other
oti
oto
otomatik
otris
otto
otu
otul
otum
ou
ouaramous
ouest
oumar
our
ousmane
outbreak
over
ow
ox
oxe
oxee
oxford
oxiitum
oxra
oxub
oxug
oxuwaay
oxytenanthera
oy
oyu
oŋal
p
pa
paab
paaka
paale
paap
paarti
paataar
paate
paay
pac
pacc
paccum
pachuca
pacific
pacifik
paco
paftan
pag
page
pages
paix
paj
pajum
pakastal
pakistaan
pakk
pal
palaas
palam
palanteer
palastiin
palastin
palato
palestiin
palestin
pali
palmaan
palmarejo
palmeira
palug
panaan
panamaa
pandemic
pandemics
pang
paniculata
pano
panoramio
panos
panthera
panton
papa
papaya
paper
papers
paps
papuwasi
par
para
paradoxa
paraguwaay
parasit
parc
parcours
pardon
pardonu
pare
paree
pari
paris
park
parkia
parlamaa
parlamaab
parlermo
parlons
parloo
parma
parol
paroladon
parolas
paroli
parolo
parparloo
part
parte
partement
partenariat
parti
participation
participo
particules
partie
pas
pasam
pasifig
pasifik
pasis
pasiva
paskaal
pass
passe
paste
pasteef
pasteefub
pasteur
pastor
pasu
patel
pathogen
pathology
pati
patraa
patreto
patrino
patro
patt
pau
paul
paulense
paulo
pava
pax
paxum
pay
payoor
payooru
pays
payug
pcr
pdf
pds
pe
pecc
pecci
peccum
pediatrics
pedra
pedro
pee
peeg
peege
peegoon
peek
peen
peer
peeram
peeru
peesekaay
peeteedi
peey
peeyam
peeyi
peeyu
peeyub
pegg
peggam
peggi
peggook
peggu
pegi
pel
pela
pen
penc
pencum
penda
pendant
penkook
penkoom
penku
penkub
penkug
pennisetum
penot
pense
pensilvaniya
pentandra
people
pepam
pepp
peppu
per
pereira
perera
perfekte
pergam
pericopsis
period
periodo
pers
persi
person
persona
persone
persono
perspectives
pert
pertinence
pertussis
peru
pes
pet
peter
petrarch
petrol
peul
peuple
peuples
peut
pexe
pexeem
pexem
pexewaakon
pexey
pey
pg
pharmacopoeia
phases
phd
phi
philadelphia
philosophie
philosophy
phone
php
phyllanthus
physique
pi
piaget
picc
picci
pico
picos
pide
pie
pied
piemmonte
piemonte
pierre
pigme
piir
piis
pikiir
pikiiru
pikin
pinnata
pintcha
pirees
piri
pisa
pisidi
piyeer
pl
plac
place
plague
plan
plano
plants
plateau
plaza
ple
plej
pli
plitigam
plombiere
plotdata
plotkin
plu
pluralo
pluriel
plus
pluton
pm
pmc
pmeg
pmid
pneumonia
png
pnud
po
poche
pocket
podoor
poe
poesie
point
pole
police
polineesi
polio
politeknig
politgkat
politics
politig
politigam
politigkat
politigkati
politigu
politik
politique
politiques
pollution
polo
poloitig
polombiere
polon
polotig
polymerase
polysaccharide
pom
pombas
pomp
pompee
pon
ponk
ponkam
ponki
ponku
pono
pont
ponta
ponte
pool
poon
poortorikoo
poortugaal
poos
pop
popcorn
popileer
popp
popular
population
poque
por
porge
porofese
poroteyin
poroxaan
port
portail
porte
porter
portigaal
portigee
porto
portos
portrait
portugaal
pos
pose
posedaj
posedanto
position
poson
possibles
post
postcolonial
poste
potable
poti
poto
poudre
poular
pour
pouvoir
povas
povoac
power
powukaay
powum
pp
ppa
ppaate
ppaaya
ppal
ppalante
ppale
ppaleem
ppaloo
ppaloon
ppam
ppandal
ppandi
ppante
ppay
ppe
ppee
ppees
ppeji
ppi
ppiitum
ppitaalu
pplante
pplanteek
pplanteg
pple
pplee
ppleek
pplekati
pplu
ppndal
ppo
ppoo
ppoog
ppook
ppoon
ppoowul
ppoowunu
ppoowut
ppte
ppu
ppub
ppul
ppum
pr
prac
practice
prag
praia
praiaacade
praiaad
praiasporting
praise
prata
pratique
pratiques
pre
precatorius
preesip
prelego
premie
premier
premiers
pren
prepozicio
president
preskau
presqu
press
pressclub
presse
prester
preter
preterite
preterito
prevalence
prevent
preventable
preventing
prevention
prezenco
prezidento
pri
price
priestley
primaire
prime
primeira
principal
principe
principes
principles
prisonniers
prive
prix
pro
proble
problem
problems
proceedings
procera
procureur
production
produire
produit
produits
produkto
professeur
profitoo
prograam
prograamam
prograamu
program
programaro
programme
programmes
progressiste
project
projects
proksima
prophe
propose
propraj
proprie
prosopis
protection
protective
protestant
protestants
proteus
proteyin
proto
proton
provence
proverbes
provinces
pseudotolithus
pt
pterocarpus
ptsd
pub
public
publication
publications
publie
publika
publique
published
publishers
puf
pujam
pulaar
pular
pullaar
pulmonary
punica
pur
puso
put
putuxlu
puudar
puukarante
puukarewu
puup
puur
puxtal
px
pxthumb
q
qa
qaada
qaama
qaas
qaasam
qablu
qad
qadiim
qadri
qal
qale
qalee
qaleek
qali
qalikoo
qam
qami
qamil
qansu
qare
qariitha
qarnayni
qasu
qat
qate
qatoo
qatu
qe
qee
qeel
qeeti
qi
qibt
qin
qinqaah
qo
qoo
qoom
qoon
qooy
qq
qqe
qqoo
qqu
qu
quateur
qudoom
quds
que
quelle
quelques
question
questions
qug
quhaafa
qui
quilibre
quintilian
qul
quotidien
qura
quraysin
qureshi
qutbu
qute
quwaay
quwaayub
r
ra
raadda
raaf
raajihuun
raas
raat
raawo
raay
raaya
raayaam
raayam
raayo
raayob
rab
rabbanaa
rabbi
rabbii
rabbika
rabbil
rabelais
rabi
rabihul
rabiihu
rabiihul
rabiihus
rabil
rabu
rachidien
raddiana
radi
radikoj
radio
radiology
rafayel
rafet
rafetal
rafete
rafeti
rafetlu
rafetug
rafle
rafleel
rafleeloon
raflewu
ragal
ragalee
ragaloon
raggu
raglu
rahiim
rahiimi
rahmaan
rahmaani
rahmaanir
rahmatul
raire
raj
rajab
rajas
rajiim
rajiimi
rajloo
rajo
rajook
rajoy
raju
rakam
rakk
rakka
rakkaa
rakkaati
rakkam
rakki
rakonti
ral
rale
ralin
ralinu
raloon
ram
ramadaan
ramal
ramaphosa
rambaaj
rambaaje
ramloo
rammu
rammug
ramos
ramu
ramul
ramusi
ran
rand
randu
rang
rangu
rante
rantey
rap
raphael
raphet
rapid
rapin
raporton
rapper
rapping
rapport
rapports
rard
ras
rashstach
raso
rastamen
rasuul
rasuulul
rat
ratax
rataxal
ration
rattunde
rature
ratures
raux
raw
rawaan
rawale
rawante
rawanteg
rawati
rawatina
rawe
rawee
rawoon
rawtina
rawug
rax
raxaatal
raxas
raxasee
raxasu
raxasukaay
raxoon
ray
rayal
rayan
rayante
raye
rayee
rayees
rayix
raykatu
rayn
rayoon
rayug
razi
rbalu
rbiyawu
rbo
rd
rda
re
real
reb
rebi
rebu
rec
reccu
recensement
recensements
recettes
recherche
recherches
rechstag
recommendations
reconstruction
record
red
reduced
reducing
ree
reek
reeloo
reen
reenam
reeni
reenu
reenub
reer
reere
reeroo
reesal
reew
reewam
reewi
reewu
reewum
reg
reggal
region
regional
registry
regula
rei
rein
reise
rek
rekk
rekki
relations
releve
religieuse
religion
religions
religiosa
relva
renaissance
rence
rences
rendee
rendi
rendig
rendum
rents
repibilig
report
reportage
repre
republic
republicain
republig
republik
republika
republique
requedaz
res
research
researchers
resen
residentes
resistance
resistant
resolution
resources
respiratory
respondaparato
respondi
response
resu
retour
retrieved
reuters
review
reviews
revised
revue
rew
rewi
rewmi
rewu
reww
rewwi
rey
reyuul
rga
rgb
rgi
rgio
rgu
rheedii
rho
ri
ria
rialisme
ribaat
ribeira
ric
richard
richart
ridi
ridwaanul
rie
rieur
rieures
rieux
rif
rift
rigan
rigard
right
rigth
riif
riika
riin
riinu
riir
riis
riisi
riit
rikk
rimbe
rin
rinca
ring
rio
riode
riologie
rip
rique
risaartool
risk
rit
ritani
rite
rites
rito
river
riye
riyo
rj
rk
rkiis
rlaay
rliif
rloom
rlu
rlukaay
rluwiin
rluwiinu
rma
rmaande
rmaandeem
rmaandey
rmande
rmbalu
rme
rmeelu
rmeelug
rmf
rngal
rngalu
rngaluw
rnge
ro
rob
robert
roberts
robespierre
robo
robowam
roccee
rocci
rochester
rock
rodisiya
rodisiyaa
rodrigues
roger
roi
roll
rom
romaani
romain
romal
romam
roman
romanesque
romani
romanof
romb
rombee
romboon
rommell
rompi
ron
ronaald
ronam
ronda
rontgen
ronu
roo
rood
roof
roog
room
roon
roos
roose
root
rootukaay
roplaan
ropool
ropplaan
roque
rosariense
ross
rot
rotandoo
rote
rouge
rougeole
rousse
rousseau
rovers
roy
royal
royaume
roye
royte
royuwaay
rr
rre
rs
rse
rsssf
rt
rtaajoo
rtc
rte
rteem
rtel
rtemaa
rtey
rti
rtu
ru
rub
rubeole
rubin
rufisque
rug
rukkoo
rukoo
rul
rum
rummad
rump
run
ruq
ruqi
rural
rurale
rurales
rus
rusdi
rusi
rusloo
ruu
ruug
ruuhul
ruumi
ruur
ruuroon
ruuru
ruus
ruut
ruuwam
ruwa
ruwaayom
ruwandaa
ruy
rw
ryan
rzea
s
sa
saa
saab
saaba
saabaam
saabay
saabit
saabu
saadiq
saafaandu
saafara
saafihii
saafoonteek
saag
saajo
saakir
saal
saaliw
saaliwu
saalu
saalub
saalum
saalumam
saalumu
saam
saambi
saamo
saamu
saan
saane
saani
saanii
saaniya
saar
saara
saari
saariya
saaru
saasa
saatir
saaw
saawiyee
saay
saayam
saayir
sab
saba
sabab
sababi
sabablu
sababoon
sababu
sabaxa
sabel
saboor
saboote
sabrina
sacre
sadi
sadwa
saf
safaa
safaak
safaan
safaanoo
safaanu
safaanub
safaanukaay
safal
safaq
safar
safara
safety
safoo
safu
saful
sag
sagata
sagesse
sagn
sago
sagoom
sahaaba
sahabaam
sahara
sahbaan
sahd
sahdu
sahel
sahiid
sahiihub
sahiihul
sahwatul
sahyoon
sahyooni
saint
sainte
sais
sakalin
sakh
sakk
sakkan
sakkannaay
sakkaraam
sakku
saksoni
saksoniya
saksooniya
sal
salaaf
salaam
salaamun
salaan
salaatan
salaatu
salam
salamansa
salbadoor
sale
sali
saliou
sall
salli
salool
saloum
saltana
saltige
salto
salukaay
salut
saluton
saluum
saluumu
salvador
salvarino
sam
sama
samaawaati
samab
samag
samam
samari
samaw
samay
samb
samba
samiihul
samirin
samm
sammkat
samp
sampaat
sampal
sampe
sampee
sampoon
sampu
samuel
samwel
samwie
samwil
samwiye
samy
san
sana
sanaar
sanar
sanc
sancaan
sancaani
sancam
sancati
sance
sancee
sanci
sanciin
sancoom
sancoon
sancu
sancug
sancum
sancuy
sandaga
sandikaay
sandwich
sane
sang
sangam
sangara
sanger
sangi
sango
sangoo
sangu
sangub
sanguwaay
sankara
sanncu
sanni
sanoosi
sansibaar
sant
santa
santaakon
santaane
santal
santalee
sante
santee
santi
santiago
santo
sao
sapiens
sapindus
sapo
saponaria
sapoŋ
sapp
saqasiq
saqiif
sar
saraa
saraab
saratoga
sarax
saraxalekat
saraxe
saraxeel
saraxndiku
saraxule
sarayevo
sarden
sargale
sariiha
sariiya
sariya
sarl
sarlkaan
sarr
sars
sarsaara
sart
sartam
sarti
sartoon
sartu
sartub
sas
sasam
sasoo
sat
sata
satala
satalag
satalit
satama
sattumbar
satumbar
saudi
saunders
savoia
savoir
saw
sawaal
sawaana
sawar
sawara
sawaraam
sawaras
sawarloo
sawaroon
sawat
sawdid
sawdit
sawija
sawiya
sawudit
sawuta
sax
saxaar
saxaarug
saxaat
saxal
saxalaat
saxalal
saxalam
saxali
saxaloon
saxam
saxe
saxee
saxi
saxoo
saxoon
saxug
saxul
say
sayar
sayd
saytaane
saytaaney
saytaanir
saytoo
saytoon
saytu
saytubiddiw
saytug
saytukat
saytukati
saytuloo
sayxu
sayyiaati
sayyid
sayyidinaa
sc
scale
scarecrow
schilsky
schizophrenie
scholarly
school
science
sciences
scientifique
scientists
scii
sclerocarya
scoreshelf
scorpion
scott
se
sea
seasonal
sebbe
sebtambar
seck
secondaire
secretariat
securidaca
sedaar
sedan
sedatle
sedatlee
sedd
seddale
seddalee
seddaleg
seddalewaat
seddaliku
seddatle
seddatlee
seddatlin
seddoo
see
seeb
seebal
seed
seede
seedeel
seedey
seeds
seen
seenegaal
seeni
seeniy
seenu
seenub
seenug
seenum
seenuw
seer
seerbi
seere
seereel
seereer
seerey
seeru
seerug
seet
seetaan
seetal
seetan
seete
seetee
seeti
seetloo
seetlu
seetsi
seetu
seex
seexal
seexi
seexu
seexul
seey
seeyal
seg
segam
segg
seggat
segovia
sein
sekerteer
sekk
sekkare
sekkaree
sekkarey
sel
seland
selewsid
selil
sell
sellal
sellalal
sellam
selle
selli
sellug
selon
selusi
semana
sembe
semestre
sen
sena
sencampus
sence
sendikaay
sene
seneebar
seneegal
senega
senegaal
senegal
senegalaisement
senegale
senegalensis
senegaleses
senegalia
senegambia
seneraal
seng
sengaal
senge
sengewoo
sengewu
senghoor
senghor
sengoor
senhora
senn
senna
sentation
sentimet
sentu
sentul
sep
septa
september
septembre
septembro
seq
seqoo
seqooy
ser
seral
serbi
serc
sereer
serer
series
serif
serigne
seriif
serin
seront
serra
sert
serum
service
services
ses
sesaar
set
setal
setembro
setlu
setoon
sett
settantal
seuil
sew
sewija
sewogaraafi
sex
sexaw
sey
seyal
seydinaa
seyidil
seysel
seyyidinaa
seŋoor
sg
sgarab
sh
shaah
shaam
shaazalii
shabard
shakespeare
shalswig
shampala
sharaha
shark
sharlakaan
sharp
shayaatiini
shaytaane
shaytaanir
sheet
sheex
sheexi
sheexu
sheexub
sheexul
shell
shi
shift
sholswig
shotin
shumoos
shw
si
sia
siaare
siamea
sian
sib
sibbiru
sibe
sibeel
sibees
sibir
sibiru
siburu
siceraria
sid
sida
sidaa
siddee
siddeem
siddi
sident
sidente
sidents
sidit
siditt
siditu
sie
siecle
siggcoor
siggi
siggicoor
siglo
sigma
sign
signares
signe
signs
sihsa
sii
siibix
siidi
siidiya
siif
siin
siinug
siira
siis
siise
siit
siiw
siiwal
siiwam
siiwe
siiwna
siiwoon
siiya
sikar
sikk
sikkandiku
sikkar
sikkatoo
sikkee
sikkoon
sil
silaa
silaan
silaay
silabo
silan
silatigi
silence
sili
silla
silmaxa
silqihda
silva
simaa
simbaawee
simi
simile
simili
simis
simon
simple
sin
sinaa
sine
sinemaa
sinensis
singapoor
sinig
sinjaata
sinjorino
sinjoro
sintra
sipar
sir
siraa
siraat
sire
siri
sirilanka
sirleaf
sisaal
sisalana
sisil
sistem
sistema
sistemo
site
sitri
situacio
situation
situwe
siw
siwe
siwil
siwis
siwoon
siwug
sixaar
siy
siyaare
siyaareji
siyaarekat
siyaaresi
siyaat
siyadatul
siyorix
sk
skan
skandinaaf
skaneer
ski
skotland
skribaj
skribi
skribo
sl
slaaf
slaay
slaayam
slaayi
slaayu
smith
sn
so
sobe
sobeel
socc
soccer
soccerway
soccerwaystaad
soccu
soce
social
sociale
sociales
socialisme
socialiste
socie
societe
society
sociologue
soda
sodaar
sodit
sof
sofiet
sofuet
sofyet
soi
soit
soj
sokraat
sol
solal
soldaar
soldaaram
soldaari
soldaarus
soleil
solfrayn
solo
solofrayn
solom
solomon
soloo
soloom
solos
solowu
solpontense
solsimis
solub
somaali
somali
somb
sommeil
son
sonal
song
songaay
songati
songee
songeeti
songoo
songoon
songu
sonle
sonn
sonnal
sonnale
sonnalee
sonne
sonnle
sonnoon
sonnu
sonnutoon
sono
sont
soo
soob
soobe
soobee
sooboon
soobu
soobukati
soof
soofiyu
soog
sooga
sooke
soon
sooni
sooninke
soop
soopiku
soor
sooratu
sooroolub
sooroor
soose
soosu
soow
soowu
sooy
sopotamie
sopp
soppali
soppalig
soppalikaay
soppante
soppe
soppee
soppeekoo
soppeeku
soppeem
soppi
soppikoo
soppiku
soppikum
soppikuwul
soppikuwun
sopploo
soppoon
soqaliku
soqeekoo
soqi
soqikoo
sor
sora
sordani
sore
soree
soreente
soreentee
sorewul
sori
soril
soriwaay
soriwante
soriwul
soriy
soriyante
sorri
sorriwante
sos
sosaat
sosal
sosam
sosati
sose
sosee
sosees
sosi
sosiaalist
soskat
sosoo
sosoom
sosoon
sossiyiolok
sosu
sosug
sosuwoon
sot
soto
sottal
sottee
sotti
sottikoo
sottiku
sottil
sottiwaayu
soufisme
soukandicou
soul
sound
source
sources
sous
sousa
soutenue
south
soviets
sow
sowe
sowee
sowu
sowug
soww
sowwam
sowwoom
sowwu
sowwub
soxal
soxla
soxlaa
soxlaal
soxlaalul
soxlawoo
soxlawu
soxlawul
soxlawun
soxlawutoon
soxlay
soxna
soxnaam
soxnas
soxor
soxot
soxote
space
spanish
spartak
spe
special
specific
specimen
spip
sport
sporting
spread
sr
ss
ssri
st
staad
staadi
stadium
stadiums
stadt
stamford
standard
stanley
staphylococcus
star
starr
start
state
states
station
statique
statistics
statistique
statistiques
stato
ste
steinmetz
stephen
stephonson
sterlin
stimulus
stoo
stoom
stop
straali
strali
stralio
strand
strasbourg
strasburg
strategies
strateji
stratejig
stress
stringer
structures
stu
stubiddiw
studado
studentenunruhen
studento
studies
studio
study
stug
stuji
stukat
stukatu
stuwaay
stuy
stwaani
su
sub
suba
subag
subhaana
subjekto
subsaharienne
substantivo
subunit
sud
suda
sudaa
sudaan
sudan
sudee
sudorient
sue
suede
suffixe
suffrage
sufic
sufikso
sufiya
sugarhill
sugharhill
suhaybu
sujjo
sujo
sujood
sukeer
sukkandikoo
sukkandikooti
sukkandiku
sukkub
sukkuraat
suko
sul
sula
sulaymaan
sulb
sulet
suleymaan
suliyet
sulli
sultaan
sultats
sulye
suma
sumaare
sumaawuru
sumb
sumbala
sumbu
sume
summary
summiku
sump
sun
suna
sunaam
sunguf
suniu
suniy
sunjata
sunna
sunnaam
sunnas
sunnatul
sunnawoo
sunnay
sunu
sunub
sunug
sunusanar
sunuy
supe
super
superbugs
superlativo
suppl
supple
supre
suqali
suqaliku
suqli
sur
suraas
surcat
surga
surinaam
surnaal
surprizo
survey
susan
suspected
susu
suti
sutura
suturaal
suturaalkat
suturloo
sutuxlu
suuf
suufam
suufe
suufeel
suufi
suufiya
suufu
suufus
suuhun
suukar
suuke
suul
suumiyaa
suuna
suur
suux
suuxat
suuxatu
suwayli
suwe
suwed
suweed
suwes
suwis
suwwu
suy
suye
suyee
sv
sw
swaa
swingli
sy
sylla
symptomatic
symptoms
syste
system
systematic
systeme
systems
t
ta
taa
taab
taabal
taal
taalati
taale
taalib
taalibe
taalibeb
taalibeem
taalibey
taalif
taalifal
taalifam
taalife
taalifi
taalifkat
taalifoon
taalis
taaloon
taalube
taalubeb
taalubeem
taalubey
taamu
taan
taanga
taar
taaral
taaram
taariix
taariixam
taariixkat
taariixu
taarix
taarixal
taarixam
taarixe
taarixkat
taarixu
taaru
taarub
taawam
taawub
taax
taaxe
taaxi
taaya
taayif
taaylaand
taaywaan
tab
taba
tabanaani
tabari
tabariya
tabaski
tabax
tabaxaat
tabaxal
tabaxi
tabaxiin
tabaxiinu
tabaxoon
tabaxu
tabaxub
tabb
tabbi
tabdiilan
tabe
tabelvortoj
table
tablesk
tablo
tabular
tac
tacitus
taf
tafoo
tafsiir
tag
taga
tagg
taggat
tagge
taggoon
tagon
tahaalaa
tahliya
tai
tait
tajida
tajloro
tajwiid
tak
takaay
takh
takhna
takk
takkaay
takkal
takke
takkoon
takku
tal
tala
talaata
talhata
tali
taliraan
talist
talitala
tallaliku
talu
tam
tamattuh
tambaa
tambaakundaa
tambacounda
tambakundaa
tambale
tambalee
tambali
tamblee
tamit
tamman
tamn
tamxarit
tan
tane
tanfuzuu
tang
tangaay
tanganyika
tangoor
tanja
tank
tankub
tanoor
tanqe
tanqi
tansani
tant
tanzania
tapoo
tapoog
tapoom
tappaan
tappal
tappoo
tappoog
taq
taqabbal
taqale
taqalikoo
taqaloo
taqalook
taqaloon
taqaloowul
taqaw
taqdii
taqoo
taqook
taqoon
taqqoo
tar
taraaware
taraay
taraayu
taral
tarascon
tarawale
tarbiya
tare
tarfahunaa
tari
tariixa
tarikh
tariqa
tarnovo
taroon
tarqiya
tarrafal
tarru
tars
tartaliya
tarug
tarxiis
tas
tasaare
tasaaroo
tasam
tasawudus
tasawuf
tasawwuf
tase
tasee
task
taskati
taskatu
tasoon
tasriihul
tass
tassawuuf
tasug
tasum
tat
tata
tatawu
tation
tatma
tats
taubenberger
taux
tavares
taw
tawaaf
tawaaful
tawakkul
tawal
tawam
tawat
tawati
tawfeex
tawfeexal
tawfeexaloon
tawfeexalul
tawfeexu
tawhiid
tawi
tawloo
tawreet
tawub
tax
taxa
taxan
taxaoon
taxatumaa
taxaw
taxawaalu
taxawaay
taxawaayam
taxawaayu
taxawaayub
taxawal
taxawalaat
taxawale
taxawalee
taxawali
taxawaloon
taxawe
taxawee
taxawlu
taxawoon
taxawu
taxawul
taxi
taxliya
taxna
taxoon
taxu
taxul
taxut
taxutoon
taxwal
tay
tayba
tayland
taylor
taysiirul
tb
tdiwaar
te
teb
technique
techniques
technology
tedd
teddi
teddnga
teddngaam
teddngay
tee
teel
teela
teelu
teemeer
teemeeri
teemer
teen
teengal
teeni
teenub
teer
teerati
teere
teereb
teeree
teereeb
teereem
teerekaay
teerey
teertu
teeru
teet
teetal
teew
teewaayu
teewal
teewe
teewlu
teewluwu
teewoon
teewu
teewul
teewutoon
teey
teeyal
teeyug
tef
tefes
tefesam
tefesi
tefesu
tefesug
teg
tegaat
tegaleeb
tegaloo
tegati
tege
tegee
tegeesatu
teggi
teggiin
teggil
teggiloon
teggoo
teggu
tegi
teglaanto
tegle
tegoo
tegoodi
tegoon
tegtal
tegtale
tegtalub
tegu
tegul
tegum
tegun
tek
tekci
tekk
tekkaaral
tekkaaralaan
tekkee
tekkeem
tekki
tekkiwul
tekruur
teksi
tektal
tekuruur
tele
telefon
telefono
televid
temb
tembadi
tembagul
tembagutoon
tembal
tembam
tembar
tembe
tembee
tembte
tembteem
tembteg
tembug
temerosa
tempo
temu
tengella
tenk
tennis
tenqam
tenqul
tenŋela
teo
tepp
teqale
tequixquiac
ter
teraanga
teraangay
teral
terale
teralinu
teranga
tere
teree
tereem
tereesa
tereg
terelin
terewu
terewul
terewuloon
terewuma
term
terme
terminalia
termination
ternifolia
terra
terre
terres
terura
terure
terute
terutew
tes
tesalonig
tesla
tessalonig
test
testing
tetaanos
tete
tetzel
teugue
tewodoor
texas
texe
texeedi
texeel
texeg
text
textbook
texte
tey
teye
tg
th
thales
that
the
them
themb
theorie
theory
therapeutic
therapy
thespinoff
they
thiam
thiaroye
thiaw
thie
thiopiques
this
thomas
thompson
thonningii
three
thumb
thus
ti
tia
tial
tiam
tibb
tibbub
tibeer
tico
tie
tiel
tiens
tiers
ties
tifod
tifos
tigi
tiijaan
tiijaani
tiijaaniya
tiijaaniyaa
tiim
tiimale
tiimub
tiir
tiis
tiit
tiitaange
tiitaangeem
tiital
tiitale
tiitange
tiitloo
tiitoon
tijaan
tijji
tik
tikkujara
tiku
tilim
tilimal
tilka
till
tim
time
times
timis
timmin
tin
tingala
tiniisi
tinisi
tinisii
tinteira
tinusi
tio
tiom
tique
tiques
tiramakan
tirbinaalu
tirinidaad
tiriyoonf
tirki
tisbaar
tissooli
tisu
tit
titian
titileer
title
tito
titre
tiu
tivaouane
tiwaawan
tiwaawon
tiyaatar
tj
tl
to
tobaago
tobuso
tockus
toflin
toftal
toftale
toftaloo
toftaloog
toftaloon
togg
toggale
toggaliit
toggaliiti
togge
toggee
toggi
toggoo
toggu
togo
togoo
toj
tojam
tojj
toka
tokk
tokkiyo
tol
toll
tollale
tollalee
tollee
tolloo
tolloog
tollook
tollool
tolloon
tollou
tollu
tolluwaay
tolluwaayam
tolluwaayu
tolluwoon
tolook
tolu
tomaas
tomas
tomb
tombe
tombi
tombub
tome
tomentosa
tomson
ton
tond
tondon
tonga
tono
tonowu
tontoo
tontu
tontuwul
toog
toogaale
toogal
toogandook
tooge
toogee
toogeek
toogu
toogul
toogunu
took
tooke
tool
toolale
toolam
tooli
toolu
toolub
toon
toontu
tooro
tooroodo
tooy
tooyaay
tooyal
tooyalaat
tooyalaatee
top
topato
topp
toppal
toppalatu
toppante
toppantee
toppat
toppati
toppatoo
toppdoma
toppe
toppee
toppekat
toppkatu
toppoon
topptoo
toppu
toq
toqqal
toqu
toraxal
toraxlu
torino
toro
torop
toroxal
toroxlu
toroxte
toscana
toskaana
tosteg
tottuwaayu
touba
toubab
toulon
toulouse
touray
toure
tourisme
touristes
tous
tout
town
toy
tr
tra
tracteurs
tradition
traditionnel
traditionnelle
traditionnels
traduction
traduit
traduko
trafford
trage
tranc
trang
trangers
trans
transgression
transmission
transplantation
transproceed
traore
tras
travadinha
travadores
travail
travailleurs
travers
tre
treatment
tree
trends
tres
tri
tribute
trigo
triis
trink
tripoli
trise
tro
trois
tropicale
tropicales
tropicaux
tropique
truman
ts
tt
ttal
ttali
ttalikoo
ttaliku
ttalikul
ttalil
ttam
ttan
ttanal
ttanam
ttangoo
ttanoon
ttanu
ttanug
ttanul
tte
tteb
ttee
tteel
tteem
tteen
tteerlu
tteg
ttekaay
ttekaayu
ttekaayub
ttekat
ttekati
ttekatub
tteloo
ttewaay
ttewiin
ttewoo
ttey
tti
ttoon
ttu
ttub
ttug
tu
tub
tubaab
tubaap
tuballixunaa
tubay
tubbee
tubbi
tube
tuberculosis
tuberkuloos
tudd
tuddal
tuddati
tudde
tuddee
tuddees
tuddoon
tuddu
tude
tudes
tudiants
tudoon
tufayli
tugal
tugalasi
tukee
tukk
tukke
tukkee
tukkeem
tukki
tukkib
tukkikat
tukkikatu
tukkiy
tukklo
tukkloor
tukkulo
tukulo
tukuloor
tul
tulloon
tum
tumbar
tumbra
tumbrankeel
tumbura
tumulus
tun
tuna
tunajjiinaa
tund
tundam
tundi
tundu
tunduw
tunis
tunisi
tuniusi
tunka
tunkel
tupp
tur
turam
turandoom
ture
turi
turin
turki
turkumenistaan
turni
turquie
turu
tus
tusngalu
tutahhirunaa
tuub
tuuba
tuubaa
tuube
tuubee
tuubloo
tuubug
tuubul
tuufu
tuumaal
tuumaru
tuumay
tuur
tuuru
tuut
tuutaay
tuutee
tuuti
tuwaareg
tux
tuxal
tuxalam
tuxale
tuxaloon
tuxalug
tuxoo
tuxooti
tuxu
tuxug
tuxusi
tuyaaba
tv
two
ty
types
u
uaramus
ub
ubale
ubbee
ubbeeku
ubbeem
ubbi
ubbiku
ubbil
ubbite
ubee
ubil
ubn
ubuqraat
ucad
ud
udib
uea
uefa
uetersen
ufawwidu
ufr
ug
uga
ugandaa
ugb
ugbvillageb
ugbvillagee
ugbvillagef
ugbvillageh
ugbvillagehbis
ugbvillagel
ugbvillagelbis
ugg
uhiizuhaa
uhud
uk
ukk
ukkaakon
uko
ukreen
ukuba
ul
ulaayikal
ulee
ultramarina
um
uma
umar
umm
umma
ummul
umntu
umoya
umra
un
unaids
under
une
unesco
ung
ungi
uni
unia
unidos
unies
union
unis
unit
unite
united
univers
universel
universitaire
universite
university
uniwersite
until
unu
up
update
upp
uppi
upright
ur
uraanus
urbaine
urbanisation
urdun
uruguwaay
us
usa
usaynu
usbekistaan
usd
use
used
user
useynu
usmaan
usono
usool
ustaas
usuul
usuy
ut
utilisant
utilisateurs
utilite
uu
uuf
uufoon
uul
uule
uuturu
uville
uxliqa
uy
uz
uzado
uzo
v
va
vaccin
vaccination
vaccine
vaccines
vachellia
vagono
vale
valla
valle
valmy
valor
valoro
value
values
van
vancouver
varandinha
vardı
variol
varma
varsaay
varsaw
vasco
vatican
vaz
ve
vec
veiga
velha
velho
velic
veliko
veloppement
ven
vend
vendredo
venezia
veni
venko
vento
ventre
venues
ver
verbo
verde
verdun
verkisto
verko
verlag
vermelho
vero
versaay
versailles
versay
version
vert
vesperon
vestajxo
vesto
veto
veturilo
veux
vhb
vi
via
viagem
viana
viando
vice
vicente
victor
vid
video
vie
vienne
view
vignette
vih
vii
viieelu
viii
vila
vilag
village
villages
ville
villes
vin
vincent
vinci
vino
viola
violence
viral
virgin
virginia
virina
virino
viro
virologie
virosa
virus
vision
visites
vispucci
vista
vitellaria
vitex
vito
vivo
vizito
vladivostok
vo
vocabulaire
vojag
vojo
vol
volas
volonte
volt
voltaire
volume
volumes
volution
vom
von
vora
vortaro
vortfinaj
vorto
vortoj
vorton
voyage
vre
vs
vue
vulca
w
wa
waa
waaaye
waafiris
waaha
waaj
waaja
waajal
waajale
waaji
waajur
waajuram
waajuri
waali
waalo
waame
waan
waante
waar
waaraate
waare
waaru
waaso
waasow
waasoy
waat
waatal
waatee
waaw
waawaaw
waawo
waawu
waawug
waax
waaxam
waaxi
waaxub
waay
waayam
waaye
waayee
wabarakaatuhuu
wacc
wacce
wacci
waccu
wadd
waddoon
wade
wadi
wadiouram
wagg
wahrid
wahuwa
wahyu
wajhahuu
wajhal
wakh
wakiil
wakkiirlu
wal
wala
walan
walante
walata
walate
walax
wales
walhamdu
walhiyaazu
walii
waliif
waliyu
wall
walla
wallaahi
wallaahu
wallaate
wallante
wallate
wallay
walle
wallis
walliyu
wallu
wallug
wallum
waloo
walter
walu
walug
walukaayi
walum
waly
wamaa
wan
wanag
wane
wanewul
wang
wangari
wann
wante
waqaas
war
wara
waradi
warahmatul
waral
waraloon
waralu
waralub
waram
waraqat
ware
waree
wareef
wareefi
warees
wareesu
warloo
warlu
warlul
waroon
warsaw
wart
warte
warteef
warteefi
waru
warug
warul
warun
warut
waruwaay
waruwaayi
waruwaayu
wasalaam
wasalaamu
wasalaamun
washington
wasiila
wasington
wata
watanberg
watatukaay
watee
water
wati
watikaa
watrlo
watt
wattabahuu
wattoo
wattoom
wattu
wattukat
wattul
wattuloo
waw
wax
waxaale
waxaaluu
waxaat
waxal
waxam
waxambaane
waxambaanee
waxambaaney
waxante
waxantu
waxantuma
waxati
waxe
waxee
waxeek
waxees
waxi
waxiin
waxiinu
waxin
waxloo
waxna
waxni
waxoon
waxtaan
waxtaanal
waxtaanam
waxtaane
waxtaani
waxtaanu
waxtook
waxtoom
waxtu
waxtuw
waxtuy
waxu
waxul
waxuma
waxun
waxunu
waxutoon
way
wayadi
wayam
wayback
waye
wayee
wayjur
wayjuram
waykat
wayndare
wayne
we
weah
wearing
weather
web
website
webu
weccante
weccee
wecci
wecciku
wedam
weddi
wee
weekly
ween
weenus
weer
weeri
weert
weeru
weeruwaay
wees
weesoo
weesu
weesuwul
weesuwunu
weesuwutoon
weet
weetal
weex
weg
wegeel
wegeelam
wekk
wekku
welcome
welingara
wels
wen
wenal
weneen
wenn
wennwe
wepp
wer
werante
weredee
weree
wereg
werekaan
wergi
wergu
werjiniya
werlaay
wermis
wernge
wert
wesaare
wesar
wesaruw
west
western
wet
wetam
weti
wettal
wetu
wetug
wex
wey
weyal
what
when
which
white
who
whois
whole
whooping
wi
wicc
wiccal
wide
widro
width
wien
wietnaam
wietnaamm
wii
wikbaatukaay
wiki
wikimedia
wikimouridia
wikipe
wikipedia
wikipedians
wilaaya
wilaayaam
wile
wiley
wilgeer
will
william
williams
wills
wilson
wilth
wilyaam
wilyam
winneburg
wird
wirdam
wirdiy
wirdul
wirduw
wirgo
wirgoom
wirgow
wiris
wirisu
wirjiniya
wirus
wis
wisaare
wisaareg
wisaaroo
wisare
wisconsin
witaamin
with
without
witt
wiy
wiye
wiyen
wiyetnaam
wka
wkly
wo
wogaraafi
wohe
wokkee
wolof
wolofal
wolofu
wolt
wolteer
women
wommat
wommatal
wommate
wommatiin
wommatiinu
wommatoo
wommatu
wommatug
wommatukaay
wommatukaayu
won
wonale
wonatee
wone
wonee
woneesu
wonke
wonn
wonoon
wonu
woo
woodrow
wool
woolu
woom
woomal
woomle
woomleg
woon
wooni
woor
woore
wooree
wooroo
wooroon
woorul
woote
wooteb
wootee
wooteel
wooteem
wooteg
woowa
woowe
woowee
woowu
wooye
wopp
woppi
wor
woree
wori
world
worldbank
worldometer
worma
wormaal
wormaalal
wormaalul
woroom
woroomi
woru
wos
wosam
wote
wotey
wottee
would
wow
wowal
wowe
wowee
woy
woyam
woyati
woye
woyi
woyiin
woykat
woykati
woykatu
woyof
woyofal
woyofoon
woyu
woyug
wrin
wrinam
wrini
wrinu
writers
writing
wsu
wtanberg
wu
wub
wug
wuhan
wuhidal
wujjam
wujje
wul
wulli
wum
wun
wund
wure
wurus
wurusu
wut
wutal
wutaloon
wutati
wute
wuti
wutkati
wutoon
wutu
wuude
wuutal
wuutale
wuutaleek
wuute
wuutee
wuuteeb
wuuteeg
wuuteek
wuuteel
wuuteg
wuutewu
wuutewut
wuutlaayu
wuutoom
wuutu
wuutuloxo
wuy
wuyji
wuyu
wuyyoo
wuyyu
wuyyuji
wuyyuleen
wuyyusi
ww
wwu
www
wycliffe
x
xa
xaabaabal
xaadim
xaadimur
xaadir
xaadiriya
xaaj
xaajale
xaajam
xaajee
xaaji
xaajoon
xaaju
xaajub
xaal
xaala
xaalee
xaali
xaalis
xaalisam
xaalisu
xaalu
xaanuun
xaar
xaare
xaasim
xaat
xaatim
xaatimee
xaatimi
xaatimoon
xaay
xaayaati
xaayra
xabaab
xabiir
xacc
xad
xadar
xadi
xadiija
xadiim
xadir
xaj
xajal
xajam
xajatu
xajul
xal
xala
xalaat
xalaatam
xalaate
xalaati
xalaatiinu
xalaatkat
xalaatkati
xalaatoon
xalaatu
xalaatub
xalaatunu
xalam
xalat
xale
xaley
xalf
xalifa
xalifaam
xalifab
xaliil
xaliilee
xalima
xalimaam
xam
xamadi
xamal
xamale
xamalee
xamam
xamantane
xamantani
xamante
xamantene
xamanteni
xamati
xame
xamee
xamees
xamewoon
xami
xamle
xamlena
xamlu
xamluwaay
xammee
xammemteefi
xammoon
xamne
xamni
xamoo
xamoom
xamoon
xamu
xamub
xamug
xamul
xamuma
xamun
xamunu
xamutoon
xan
xanaa
xandaq
xante
xanuun
xaqataay
xar
xaraala
xaral
xarala
xaralag
xaralay
xaralaymbe
xaran
xaranub
xarbaax
xarbaaxam
xare
xareb
xaree
xareek
xareem
xarefulwon
xarefulwoon
xarekat
xarekatam
xarekati
xarekatu
xarem
xarey
xari
xarit
xaritam
xariti
xaritoo
xaritu
xaritub
xarm
xarnu
xarnub
xartum
xaru
xarub
xas
xasaayid
xasaayit
xasam
xasaw
xasida
xasidaam
xasidag
xasiday
xasraj
xasu
xaswat
xat
xatal
xathii
xattaab
xatu
xavier
xaw
xawa
xawaariq
xawaarsamii
xawarsimii
xawma
xawoon
xawsub
xay
xayal
xayale
xaybar
xaybu
xayma
xaymaa
xaymaam
xaymay
xayna
xayra
xayraati
xayri
xayrin
xayru
xayrul
xaysar
xayta
xayug
xazaalii
xe
xeeb
xeebu
xeej
xeemeem
xeen
xeer
xees
xeet
xeetal
xeetam
xeetati
xeeti
xeetoo
xeetu
xeewal
xeewalam
xeewale
xeewali
xeex
xeexal
xeexam
xeexe
xeexi
xeexle
xeexloo
xeexoon
xeexu
xeexub
xejj
xejjug
xel
xelal
xelale
xelalkat
xelalkatam
xelam
xeli
xelkoom
xell
xelli
xellu
xeltu
xeltug
xeltukat
xeltukatu
xelu
xelum
xemme
xemmeem
xemmeemoon
xemmeemte
xemmeemteefi
xemmeemu
xemmeemul
xemmemte
xemmemteefi
xepp
xerawlu
xerawlug
xeren
xet
xetam
xettali
xettaliku
xetu
xetug
xew
xewagul
xewal
xewar
xewe
xewee
xewi
xewoon
xewu
xex
xi
xibaar
xibaarfeppal
xibaari
xibaaru
xibaarukaay
xibla
xibt
xidir
xieelu
xiibon
xiif
xiik
xiima
xiimay
xiin
xiir
xiiroo
xiirtal
xiirtalante
xiirtale
xiirtalu
xiirtalug
xiirtalukaay
xilaafa
xippi
xisa
xisaam
xisay
xiv
xix
xixeelu
xixu
xiyaam
xiyaamee
xm
xo
xob
xobam
xobi
xobu
xocc
xol
xolam
xoli
xolli
xolu
xolub
xonk
xonq
xont
xool
xoolaat
xoolal
xoolati
xoole
xoolee
xoolkat
xoos
xoot
xootadi
xootal
xoox
xooxi
xop
xor
xoriit
xorom
xoromi
xoromu
xorondom
xott
xotti
xottikati
xottite
xu
xudar
xuddoos
xudoos
xuja
xul
xule
xuloo
xuloob
xuloowaaleem
xulooy
xuluub
xumaag
xumaak
xumbal
xumbe
xunn
xunoot
xunt
xunti
xupp
xuppam
xuppe
xuppkat
xur
xuraan
xuraysin
xureer
xuri
xurra
xurratu
xuru
xustantin
xut
xutba
xutbaam
xutbab
xutbakat
xutbakati
xutbub
xuuma
xuun
xuus
xuusoon
xvi
xvieelu
xvii
xviii
xviu
xvu
xx
y
ya
yaa
yaafa
yaak
yaakaar
yaakaaree
yaakaari
yaakaaroon
yaakar
yaangi
yaaq
yaar
yaarabal
yaari
yaasiin
yaasir
yaatal
yaatalug
yaatoo
yaatoodi
yaatoom
yaatu
yaatug
yaatuwaay
yaatuwaayam
yaatuwaayu
yaatuwul
yaax
yaay
yaaya
yaayam
yaayi
yaayu
yab
yabal
yabale
yabali
yabaloon
yabeel
yadaali
yadaalim
yadayhi
yag
yagg
yahood
yahoodi
yahquub
yahsimunii
yahuud
yahuut
yahyaa
yakk
yakke
yal
yala
yale
yalla
yalu
yalwaan
yalwaankat
yam
yamale
yamaleb
yamamaay
yaman
yamatul
yamb
yamkur
yamkurul
yamkuruuna
yamo
yamoo
yamoodi
yamoon
yamoowut
yamsashum
yamsaskal
yamu
yamul
yamun
yamutoon
yan
yaneen
yang
yani
yannin
yanoon
yanqo
yanu
yanub
yapp
yaq
yaqiin
yaqkat
yaqq
yaqqute
yaqu
yaqun
yar
yaraax
yaral
yaram
yaramam
yaramu
yare
yareem
yarewoon
yarkatam
yaroo
yaru
yatawallaz
yatt
yattkat
yatu
yaw
yawma
yawmal
yawud
yawut
yax
yaxal
yaxale
yaxaloon
yaxam
yaxantoom
yaxantu
yaxantug
yaxantukat
yaxantukati
yaxtuluuka
yaxub
yaxya
yay
yayoo
yazifuun
ye
year
years
yebal
yedd
yee
yeeg
yeegam
yeege
yeek
yeem
yeeme
yeen
yeene
yeenee
yeeneen
yeere
yees
yeesal
yeesalaat
yeesaloon
yeesu
yeete
yeew
yeewu
yeex
yeexal
yeexe
yeexoon
yeey
yef
yegg
yeggale
yeggee
yeglekaay
yegsi
yekkati
yekkatikoo
yekkatiku
yekkatil
yell
yelleef
yelleefam
yelleefi
yelleefu
yelloo
yem
yemale
yemoo
yemul
yen
yena
yendoo
yendook
yendu
yeneen
yeneeni
yenen
yenenn
yengatu
yengu
yenkeewal
yenn
yennat
yenneen
yennsay
yenu
yep
yepp
yere
yeriko
yerusalem
yeryu
yesu
yett
yewe
yewenal
yewwu
yewwute
yewwuteeg
yewwuteem
yewwuteg
yeŋ
yi
yii
yiin
yiir
yiiroon
yiis
yiiy
yile
yilif
yilife
yilifoon
yilifug
yilimaan
yin
yinkiiwal
yit
yitam
yite
yiteem
yitewoo
yitey
yiti
yitte
yitteel
yitteeloon
yitteem
yittewoo
yittewoodi
yittey
yitu
yiw
yiwal
yiwam
yiy
ylu
yo
yobb
yobbaale
yobbal
yobbalub
yobbante
yobbe
yobboo
yobbooti
yobbu
yobbuwu
yogoslaafi
yogoslawi
yokk
yokke
yokkoo
yokkoon
yokku
yokkug
yokkute
yokkuteg
yokkuwoon
yol
yolaakon
yolet
yolom
yomb
yombal
yombalal
yombalug
yombe
yombul
yon
yonan
yonant
yonantam
yonantub
yonent
yonentam
yonente
yonenteem
yonenti
yonentub
yong
yongug
yonnant
yonnantam
yonnantub
yonnat
yonne
yonnee
yonneeti
yonnent
yonnenti
yonni
yonniwun
yoo
yoof
yook
yool
yoolub
yoon
yoonal
yoonam
yooni
yoonoodi
yoonu
yoonuw
yoor
yoos
yooy
yooya
yooyale
yooyee
yooyii
yooyu
yooyule
yoq
yoqat
yoqatloo
yoqu
yoquteek
yor
yoraat
yoral
yoraniyom
yore
yoree
yoreel
yori
yoriin
yoriinu
york
yorkshire
yoro
yorol
yoroom
yoroon
yorte
yorul
yos
you
young
younousse
your
youssou
youtube
yow
yowaana
yoxo
yoxoom
yoxoy
yoy
yoyu
yt
ytaane
yti
yu
yub
yuda
yude
yudul
yugoslawi
yukaay
yul
yulaqaahaa
yum
yumu
yun
yuni
yunus
yupiter
yurdan
yuridka
yutoon
yuur
yuusuf
yuusufa
yuuxu
yuxrijuuka
yuy
yya
yye
yyee
yyeel
yyeem
yyeendoowun
yyi
yyikoo
yyil
yyima
yyiwaale
yyiwoon
yyiwu
z
za
zaadul
zaalihiin
zahabul
zahr
zannuuni
zant
zbatuz
ze
zh
zifo
ziguinchor
zika
zinha
zixaar
ziziphus
zone
zorgo
zu
zuccarelli
zudoor
zul
zulu
zuu
zwemer
zz
{
|
}
~
§
«
°
²
´
·
¹⁵
¹⁶
º
»
×
æ
ø
đ
ł
łobez
ŋ
ŋa
ŋaayoo
ŋacci
ŋas
ŋe
ŋelaju
ŋoy
ŋŋ
œuvre
œuvres
ƭat
ˈ
ˊ
ː
̀
́
̂
̃
̄
̆
̇
̈
̉
̊
̋
̌
̍
̓
̛
̣
̧
̨
͂
͘
α
δ
ε
η
κατηγορι
μη
νησος
νιγξ
ο
ρ
ς
σ
φ
ω
а
азии
азіі
в
величини
голтвянськии
д
е
здании
и
история
к
категория
категорија
категорія
катэгорыя
киев
киі
крушинка
люботин
м
н
на
ни
о
р
рск
с
саи
стрілець
т
та
тов
украі
харків
ы
ҳ
֫
ְ
ֱ
ֲ
ִ
ֵ
ֶ
ַ
ָ
ֹ
ּ
־
ׁ
א
ב
ג
ד
ה
ו
ח
י
כ
ל
ם
מ
ן
נ
ס
ע
פ
ק
קטגוריה
ר
ש
،
ء
ا
اب
ار
اس
ال
الا
الحج
الذ
الصور
الل
الله
النصيحة
ام
ان
ب
ة
ت
تصنيف
ث
ج
ح
خ
د
ذ
ر
رده
ز
س
ش
ص
ض
ط
ع
عن
ـ
ف
ق
قادله
ك
ل
لا
م
مااختارله
ن
ه
و
وا
ون
ونعم
وهو
ى
ي
يم
ين
ً
ٌ
ٍ
َ
ُ
ِ
ّ
ْ
ٓ
ٔ
ٕ
٪
ٰ
ڪ
ۗ
ۡ
۬
ݣ
ई
क
ग
च
ण
थ
द
ध
न
प
ब
य
र
ल
श
स
ह
ा
ि
ी
े
ौ
्
ণ
ন
ব
য
র
শ
স
হ
়
া
ি
ী
ে
্
ந
ல
ி
ெ
்
ം
ക
ഗ
ട
ത
ന
മ
ര
വ
ാ
ി
ു
െ
്
ต
ย
หมวดหม
อ
ั
ิ
ี
ื
ู
่
์
კატეგორია
분류
​
‌
‎
–
—
‘
’
“
”
„
•
…
′
←
→
↔
↷
−
∙
③
④
⑦
▪
▬
☆
☉
☿
♀
♂
♃
♆
♇
⛢
✍
⯓
⺀
⺄
⺆
⺈
⺊
⺌
⺕
⺝
⺸
⺼
⿰
⿱
⿲
⿳
⿴
⿵
⿶
⿷
⿸
⿹
⿺
⿻
〢
゙
ア
イ
カ
コ
シ
ス
ユ
㇁
㇂
㇄
㇇
㇈
㇉
㇓
㐁
㐄
㐅
㐌
㐫
㐬
㐭
㐮
㐱
㑒
㒵
㒸
㒼
㓁
㓞
㔾
㕛
㕣
㖾
㘝
㚅
㚇
㚔
㚘
㝉
㝡
㝴
㝵
㞋
㞢
㞷
㠩
㠭
㠯
㡀
㡭
㡿
㢲
㢴
㣇
㣺
㥯
㪅
㫄
㫐
㫒
㫺
㬅
㬎
㬥
㬰
㲋
㳄
㷠
㸒
㸚
㸦
㼌
㼲
㽞
㿟
䀠
䂞
䍃
䏍
䒑
䖍
䖒
䖝
䖵
䙴
䚻
䜌
䝿
䡛
䧹
䪞
一
丁
丂
七
丄
丅
丆
万
丈
三
上
下
丌
不
与
丏
丐
丑
专
且
丕
世
丘
丙
业
东
丞
丢
丣
两
严
並
丨
丩
个
丫
丬
中
丮
丰
丱
串
丵
丶
丷
丸
丹
为
主
丽
丿
乀
乂
乃
久
乆
乇
么
义
之
乌
乍
乎
乏
乐
乑
乔
乖
乗
乘
乙
乚
乛
乜
九
乞
也
习
乡
乳
乾
亀
亅
了
亇
予
争
事
二
亍
于
亏
亐
云
互
亓
五
井
亘
亚
亜
亞
亟
亠
亡
亢
交
亥
亦
产
亨
亩
享
京
亭
亮
亯
亰
亲
亳
亶
亷
人
亻
亼
亾
仁
今
介
仌
从
仐
仑
仒
仓
仕
他
付
仝
代
令
以
任
企
伊
伏
伐
休
会
伯
但
位
何
佘
余
作
佥
使
來
侈
侌
侖
侯
侵
便
保
俞
信
修
倉
倍
候
倠
備
僉
僕
儿
兀
允
兂
元
兄
充
兆
兇
先
光
兊
克
兌
免
兑
兒
兓
兔
党
兜
兟
入
全
兩
兪
八
公
六
兮
兰
共
关
兵
其
具
典
兹
兼
冀
冂
冃
冄
内
冈
冉
冊
冋
册
再
冎
冏
冐
冒
冓
冖
冗
冘
军
农
冝
冡
冥
冫
冬
冷
几
凡
凢
凵
凶
凷
凸
凹
出
函
凾
刀
刁
刂
刃
刄
刅
分
切
刍
刑
刕
刖
列
刘
则
初
別
利
别
到
制
刺
則
削
剌
前
剡
剽
劉
力
功
加
劦
助
劫
劳
劵
勃
勇
勉
勒
動
務
勞
勤
勹
勺
勻
勾
勿
匀
匂
包
匆
匈
匊
匋
匍
匕
化
北
匚
匝
匡
匪
匱
匸
匹
区
医
匽
匿
區
十
卂
千
卄
卅
卆
升
午
卉
半
卌
华
卑
卒
卓
单
卖
南
卜
卝
卞
占
卡
卢
卣
卤
卦
卩
卪
卬
卯
印
危
即
却
卵
卷
卸
卻
厂
厃
厄
历
厈
厉
厌
厓
厘
厚
原
厤
厥
厨
厭
厲
厶
厷
厸
去
厼
厽
叀
参
參
叅
又
叉
及
友
双
反
叐
发
叒
叔
叕
取
受
叚
叜
叟
口
古
句
另
叩
只
召
可
台
叱
史
右
叵
号
司
叹
吂
各
吅
合
吉
吊
吋
同
名
后
吏
向
吕
君
吝
吞
否
含
启
吳
吴
吹
吾
呂
呆
呈
告
员
呙
周
命
咅
和
咎
咠
咢
咨
咸
咼
哀
品
哉
員
哥
哲
唐
商
啇
問
啚
啬
啻
善
喜
喬
單
喿
嗇
噩
嚴
囊
囗
囘
囙
囚
四
回
囟
因
囧
囬
困
囱
囷
固
国
圂
圅
國
圍
圓
土
圡
圣
圥
在
圭
地
圳
圶
圼
坐
坒
坚
坴
垂
垔
垚
埀
埋
埶
執
基
堂
堅
堆
堇
堯
塞
墨
壘
士
壬
壯
声
壳
壴
壹
壺
壽
夂
处
夅
夆
备
夊
夋
夌
复
夏
夒
夕
外
夗
夘
多
夜
夢
大
夨
天
太
夫
夬
夭
央
失
夲
头
夷
夸
夹
夻
夾
奂
奄
奇
奈
奉
奎
奏
奐
契
奓
奔
奚
奞
奠
奢
奥
奭
女
奴
奻
好
如
妄
妙
妟
妥
妻
妾
姑
委
姜
威
娄
婁
婴
嬰
嬴
子
孑
孔
孕
孖
字
存
孚
孛
孝
孟
季
孤
学
孫
孱
學
宀
宁
宂
它
宅
宇
守
安
宋
完
宏
宓
宗
官
定
宛
宜
宝
客
宣
室
宮
宰
害
家
容
宾
宿
寄
寅
密
富
寒
察
寧
審
寫
寬
寮
寸
对
寺
寻
寽
対
寿
封
尃
射
将
將
專
尉
尊
尋
尌
對
小
少
尒
尓
尔
尖
尗
尚
尞
尢
尣
尤
尧
尨
尭
就
尸
尹
尺
尻
尼
尽
尾
尿
局
居
屈
屋
屎
屏
屑
展
屖
屚
属
屠
屡
屬
屮
屯
屰
山
屵
屾
岁
岂
岑
岛
岡
岩
岳
岸
峯
島
崇
崑
崔
崖
崙
崩
嵬
嶲
巂
巛
川
州
巟
巠
巢
巤
工
左
巧
巨
巩
巫
差
己
已
巳
巴
巷
巸
巽
巾
巿
帀
市
布
希
帚
帛
帝
带
師
席
帶
常
干
平
年
幵
并
幷
幸
幺
幻
幼
幽
幾
广
広
庄
庆
床
底
店
庚
府
度
庫
庭
庶
康
庸
廉
廌
廛
廣
廩
廴
延
廷
建
廾
廿
开
弁
弃
弄
弇
弋
式
弓
弔
引
弗
弘
弜
弟
弥
弦
弱
張
強
强
彊
彌
彎
彐
彑
当
彔
录
彖
彗
彡
形
彥
彦
彧
彭
彳
役
彼
往
待
律
徒
得
徙
從
復
微
徵
心
忄
必
忌
忍
志
忝
忠
忩
快
念
忽
忿
思
怠
急
怱
恆
恒
恩
恭
息
悉
患
悤
悲
悶
惠
惡
惢
愁
愈
意
愛
感
慈
慧
慮
憂
憲
應
戀
戈
戉
戊
戋
戌
戍
戎
成
我
戒
戔
或
戚
戠
戢
截
戲
戶
户
戹
戼
戾
房
所
扁
扇
手
扌
才
打
托
执
承
折
拉
拜
拿
掌
推
提
摩
支
攴
攵
收
攸
改
放
政
敄
敏
敕
敖
敗
敝
敞
敢
散
敦
敫
敬
数
敷
數
斂
文
斉
斊
斗
斤
斥
斩
斬
斯
新
方
於
施
斿
旁
旋
族
无
旡
既
旣
日
旦
旧
旨
早
旬
旱
旲
时
旾
昆
昇
昌
昍
明
昏
易
昔
昗
昜
星
春
昬
是
昱
昴
昷
時
晃
晋
晏
普
景
晶
智
暑
暴
曇
曩
曰
曲
曳
更
曷
書
曹
曼
曾
替
最
朁
會
月
有
朋
服
朔
朕
朗
望
朝
木
朩
未
末
本
札
朮
术
朱
朵
朶
朿
杀
杏
杜
束
条
来
東
杲
杳
松
析
林
枚
果
枝
枲
枼
某
柔
查
柬
柰
柴
栗
桀
桃
桑
桼
梁
條
梟
梨
棘
棠
棥
森
楚
業
楽
榮
樂
樊
欠
次
欣
欮
欲
欶
欽
款
歆
歇
歛
止
正
此
步
武
歨
歪
歮
歯
歰
歲
歴
歷
歸
歹
歺
死
殳
段
殷
殸
殹
殺
殻
殿
毋
毌
母
每
毒
比
毕
毚
毛
毳
氏
氐
民
气
氣
水
氵
氶
氷
永
氺
氾
求
汉
汝
汞
江
沃
沈
沓
沙
沝
河
泉
法
波
泣
泥
泰
洛
津
洪
洲
活
派
流
浦
浪
浮
海
淡
淮
深
清
渚
渠
港
湯
滿
漸
澳
火
灬
灭
灰
灵
灷
炅
炎
炏
炗
炙
炭
為
烈
烏
烝
焉
無
焦
焱
然
煞
熊
熏
燕
營
燮
爪
爫
爭
爯
爰
爱
爲
爵
父
爻
爽
爾
爿
片
牙
牚
牛
牜
牟
牢
牧
物
牪
特
牽
犀
犬
犭
犮
狂
狄
狊
独
狺
猋
猒
猪
献
獻
玄
率
玉
王
玟
玨
珎
班
理
琴
瑟
瑩
瓜
瓦
甘
甚
生
産
用
甫
甬
田
由
甲
申
电
甶
男
甸
甹
画
甾
畀
界
畏
畐
留
畜
畟
畢
畧
畨
番
畫
異
畱
當
畺
畾
疊
疋
疌
疑
疒
疾
癶
癸
癹
登
發
白
百
皀
皃
的
皆
皇
皋
皐
皕
皮
皷
皿
盃
盆
盇
盈
益
盍
盎
监
盒
盖
盛
盡
監
盤
盧
目
直
相
盾
省
眇
眉
看
眔
眞
真
眷
眼
眾
着
睘
睪
睿
瞏
瞢
瞿
矍
矛
矞
矢
矣
知
矦
短
石
破
碎
磊
磨
示
礻
礼
祟
票
祭
禀
禁
禸
禹
禺
离
禽
禾
禿
秀
秃
秉
秋
科
秝
秦
移
稟
穀
穌
穴
究
穹
空
穿
突
窄
窒
立
竒
竜
竝
竟
章
童
竹
笑
笠
筆
等
答
箕
算
箴
節
築
篤
篭
米
粉
粛
粟
粤
粦
粲
糞
糸
糹
系
約
納
素
索
紫
累
細
絜
絫
絲
維
綿
縣
繇
纍
纟
缶
网
罒
罔
罕
罗
罙
罡
罢
罪
署
罷
羅
羊
羌
羍
美
羔
羕
羗
羞
羡
羣
群
義
羲
羸
羽
翁
翏
習
翕
翟
翠
翼
老
耂
考
者
耆
而
耎
耑
耒
耳
耴
耶
耷
聂
聊
聖
聚
聶
聿
肀
肃
肅
肉
肖
肙
肥
肩
肯
育
肴
胃
背
胡
胥
能
脊
脩
膚
臣
臤
臧
自
臬
臭
臯
臱
至
致
臺
臼
臽
臾
臿
舀
舂
舄
與
興
舉
舌
舍
舛
舜
舞
舟
般
艮
良
色
艸
艹
艾
芒
芔
芬
芮
花
芳
芺
芻
苔
苗
苟
若
苦
英
茶
茸
荅
草
荒
荣
荼
莆
莧
莫
莽
菆
菊
菐
華
萬
落
葉
著
葛
董
葵
蒙
蒦
蒼
蓋
蓬
蓺
蔑
蔡
蕉
蕭
薄
薛
薦
薰
藍
藏
藥
蘭
虍
虎
虐
虒
虔
處
虖
虗
虘
虚
虛
虜
虞
虫
虽
蚤
蚩
蜀
蜜
蟲
蠡
血
行
衍
衛
衣
衤
表
衮
衰
袁
袞
褭
褱
襄
襾
西
覀
要
覃
見
規
覓
覧
親
覽
见
角
解
言
訁
訇
計
詹
誩
諸
讠
谷
豆
豈
豊
豐
豕
豖
豙
象
豦
豩
豪
豸
貇
貝
貞
貟
負
貢
貧
貪
貫
責
貳
貴
買
費
賁
資
賈
賏
賓
賔
賛
賞
賢
賣
質
賴
贊
贝
贡
责
贯
贲
贵
赖
赞
赤
赦
走
越
足
路
蹇
身
躬
車
軍
軎
軟
輦
车
辛
辜
辟
辥
辰
辱
農
辵
辶
边
达
过
近
连
迷
追
退
送
逆
逐
通
速
造
逢
連
逮
進
遀
遂
過
道
達
遣
適
遷
遺
邊
邑
邕
那
邦
邪
郎
部
郭
都
鄉
酉
酋
配
酓
釆
采
里
重
野
量
金
釒
錢
钅
長
镸
长
門
閃
閉
開
閏
閑
閒
間
閔
閵
閻
闌
门
间
闷
阑
阜
阝
阳
阿
降
陳
隆
隊
隋
隡
隨
隱
隶
隹
隺
隻
隼
隽
难
雀
雁
集
雈
雋
雍
雐
雔
雙
雚
雜
雝
離
難
雨
雩
雪
雲
零
雷
需
霍
霜
霝
霞
霸
靈
靑
青
非
靡
面
靣
革
韋
韦
韭
韯
韱
音
頁
頃
項
須
頗
頡
頻
顛
页
風
风
飛
飞
食
飠
養
饣
首
香
馬
馮
駦
马
骨
高
髟
鬥
鬯
鬲
鬼
魚
魯
鮮
鱼
鲁
鳥
鳳
鸟
鹵
鹿
麃
麗
麥
麦
麻
黃
黄
黍
黎
黑
黒
黨
黹
黽
黾
鼎
鼓
鼠
鼻
齊
齋
齐
齒
齿
龍
龙
龜
龟
龠
龰
龱
龴
龵
龶
龷
龸
龹
者
艹
︎
？
￼
𐌰
𐌸
𐌹
𐍂
🏾
🜨
𠀁
𠀃
𠀆
𠀉
𠀎
𠀐
𠁁
𠁣
𠂆
𠂇
𠂈
𠂉
𠂊
𠂋
𠂎
𠂒
𠂔
𠂛
𠂡
𠂢
𠂤
𠂬
𠂭
𠂹
𠃊
𠃋
𠃌
𠃍
𠃎
𠃑
𠃓
𠃔
𠃜
𠄌
𠄎
𠄠
𠄢
𠆢
𠆥
𠇍
𠈌
𠌵
𠓜
𠔉
𠔥
𠔼
𠔽
𠔿
𠕀
𠕁
𠕋
𠘧
𠘨
𠙻
𠙼
𠚏
𠚒
𠚤
𠚪
𠣏
𠤎
𠤕
𠥓
𠦄
𠦑
𠦝
𠧒
𠧗
𠧪
𠩺
𠪚
𠫓
𠫔
𠫤
𠬛
𠬝
𠬞
𠬢
𠬤
𠬶
𠮛
𠮦
𠮷
𠯑
𠱠
𠳮
𠷎
𡈼
𡉀
𡉵
𡌥
𡍮
𡏳
𡕒
𡕩
𡕰
𡖅
𡗗
𡗜
𡘆
𡘤
𡧱
𡨄
𡩧
𡬠
𡭽
𡰣
𡰥
𡰪
𡰯
𡰱
𡷈
𡸁
𡿨
𡿩
𡿪
𡿺
𢀖
𢀛
𢀩
𢁙
𢆉
𢆰
𢆶
𢇁
𢇇
𢉖
𢌬
𢌿
𢏚
𢑑
𢑚
𢖻
𢙣
𢛳
𢦏
𢦒
𢧵
𢼄
𢾕
𣁋
𣄼
𣅀
𣅽
𣍘
𣎳
𣎵
𣏋
𣏼
𣗥
𣥂
𣥖
𣦵
𣦼
𣧄
𣪊
𣪠
𣬉
𣳾
𣶒
𤇾
𤊽
𤐫
𤓰
𤔔
𤕨
𤣩
𤰇
𤰔
𤰞
𤴓
𤴔
𤽄
𥁑
𥁕
𥃦
𥃩
𥃭
𥇡
𥑟
𥘅
𥘈
𥝢
𥫗
𥱡
𦈢
𦉪
𦉬
𦉼
𦍌
𦍒
𦎧
𦐇
𦓔
𦔮
𦘒
𦙃
𦚏
𦣝
𦣞
𦣻
𦥑
𦥔
𦥯
𦨉
𦭝
𦰩
𧆞
𧈧
𧘇
𧰨
𧴪
𧴮
𧵩
𧾷
𨸏
𨾴
𩙿
𩠐
𩫏
𩵋
𪉷
𪜀
𪟽
𪠲
𪩲
𫇦
𫔭
𫜸
𫝀
𫠣
𫠩
𫢉
𫥞
𫩏
𫩠
𫪡
𫲽
𫶧
𬀷
𬐘
𬗌
𬙙
𬛸
𬜯
𬟩
𬯁
𬴘
𬺻
𬼉
𬼖
𭀰
𭁈
𭁨
𭅰
𭑈
𭕄
𭗼
𭤨
𭥫
𭻾
𮅕
𮊿
𮍌
𮍏
𮓗
𮥼
𮧮
廾
𰀁
𰀄
𰀈
𰀉
𰀕
𰀠
𰀡
𰀢
𰀪
𰁜
𰃮
𰆊
𰆘
𰋙
𰕎
𰢴
𰧭
𰯲
00--
01--
02--
04--
05--
06--
08--
10--
12--
13--
14--
15--
16--
17--
18--
20--
201907--
21--
22--
23--
2394--
24--
277--
29--
30--
31--
32--
33--
34--
37--
40--
41--
42--
43--
44--
45--
46--
50--
51--
53--
54--
55--
58--
59--
67--
69--
72--
73--
76--
83--
86--
87--
89--
90--
92--
93--
96--
978--
a--
aa--
aan--
aar--
ab--
abaab--
abi--
abo--
abu--
ac--
ad--
ada--
adje--
ae--
aero--
af--
ag--
age--
agricul--
agu--
ah--
ai--
aj--
aju--
ak--
aku--
al--
alek--
alha--
ali--
alt--
am--
ama--
an--
ana--
and--
ang--
ans--
anti--
ap--
apa--
app--
aqu--
ar--
archi--
arkitek--
armu--
art--
artem--
arti--
as--
at--
ati--
att--
au--
aust--
ava--
aven--
avia--
aw--
ax--
ay--
ayyahdu--
az--
azi--
b--
ba--
baa--
bac--
bah--
bal--
bam--
ban--
bank--
bar--
baras--
bas--
bat--
bay--
bb--
bbax--
be--
beg--
bej--
bel--
ben--
benzodiaz--
ber--
bes--
bi--
bib--
bil--
bir--
bis--
blan--
bo--
bokk--
bol--
bom--
bon--
bor--
bot--
bou--
br--
brad--
bre--
bru--
bu--
bug--
bul--
bur--
bus--
buu--
by--
c--
ca--
caa--
cam--
cap--
capit--
car--
cas--
cat--
cc--
cci--
ce--
cen--
cer--
ch--
cha--
che--
chi--
christ--
ci--
cir--
circu--
cirk--
cit--
clu--
co--
col--
com--
con--
const--
cont--
coqui--
cor--
cre--
cri--
cro--
cs--
cu--
d--
da--
daa--
dag--
daj--
daje--
dal--
dan--
dar--
daux--
day--
dd--
ddi--
de--
dec--
dee--
def--
del--
deli--
dem--
den--
des--
dez--
di--
dia--
diffi--
dig--
dii--
dik--
dio--
dis--
diy--
dj--
do--
docu--
dog--
don--
donn--
dor--
dox--
doy--
dr--
du--
dy--
e--
eb--
ed--
edz--
ees--
eet--
ef--
eg--
ej--
ek--
eku--
el--
elect--
elek--
em--
ema--
emor--
en--
end--
ene--
ent--
ep--
er--
eri--
es--
ess--
eth--
eu--
evalu--
ew--
ex--
ey--
ezi--
f--
fa--
faa--
fab--
fac--
faj--
fal--
fan--
fas--
fat--
fay--
fc--
fe--
feder--
feg--
fekk--
fen--
fer--
fi--
fil--
filaa--
fir--
flu--
fo--
fon--
fonctio--
fondm--
foo--
for--
fr--
fu--
g--
ga--
gag--
gal--
gan--
gar--
gas--
ge--
gel--
gene--
geo--
gg--
gga--
gge--
gh--
gi--
gin--
gis--
glu--
gno--
go--
gold--
gongi--
goor--
gor--
gr--
graf--
gram--
grand--
gri--
groen--
gu--
gul--
h--
ha--
haa--
had--
har--
hart--
has--
hay--
haz--
he--
hel--
hemp--
her--
hi--
hil--
histo--
hit--
ho--
holla--
hu--
hy--
i--
ia--
ibs--
id--
idro--
if--
ih--
ii--
il--
im--
imaar--
imi--
immun--
imper--
imple--
in--
indi--
inflam--
ino--
instrum--
inter--
invest--
ir--
is--
ismaah--
ist--
it--
ixe--
iz--
j--
ja--
jaa--
jah--
jak--
jal--
jam--
jamm--
jan--
japp--
jar--
jay--
je--
jef--
ji--
jj--
jo--
jokk--
ju--
jubb--
jul--
jumtu--
jur--
k--
ka--
kal--
kan--
kap--
kar--
karl--
kas--
kath--
kaw--
kay--
ke--
kee--
ker--
kha--
khe--
ki--
kiimt--
kk--
kka--
kke--
kla--
ko--
kok--
kol--
kom--
kon--
koo--
krasno--
ku--
kum--
kun--
kuy--
kw--
l--
la--
laa--
lab--
lag--
lah--
lal--
lam--
lan--
lar--
law--
lay--
lb--
le--
lect--
leg--
li--
lil--
lim--
lin--
lis--
lix--
ll--
lla--
lli--
lo--
loo--
lu--
luu--
ly--
m--
ma--
maa--
mag--
mah--
mal--
man--
manha--
mar--
mas--
mat--
maw--
may--
mb--
mba--
mbaa--
mbe--
mbi--
mbo--
mbu--
mc--
me--
med--
mediter--
memb--
men--
mer--
met--
mi--
micro--
mik--
mil--
min--
mm--
mmu--
mo--
moha--
mom--
mon--
mont--
mor--
mos--
mp--
mu--
muh--
muha--
multi--
muqa--
muqad--
must--
musul--
my--
n--
na--
naat--
nah--
nan--
nas--
naw--
nay--
nc--
nda--
ndar--
nde--
ndey--
ndi--
ndo--
ne--
neb--
nej--
ner--
net--
neur--
neut--
new--
ng--
nge--
ngle--
ngo--
ngu--
ni--
nih--
nio--
nj--
nja--
njax--
nje--
njeel--
njo--
nk--
nku--
nn--
nna--
no--
nok--
nor--
not--
novo--
nq--
nt--
nti--
nu--
o--
ob--
occu--
of--
og--
ok--
oksi--
ol--
oli--
olithi--
oloca--
olu--
om--
on--
ondu--
oo--
op--
or--
ora--
os--
ot--
ou--
ow--
ox--
p--
pa--
paki--
pal--
par--
pas--
patri--
pe--
pen--
per--
pheno--
phi--
pho--
physi--
pi--
pie--
pied--
pin--
pit--
pl--
ple--
plu--
po--
pol--
poli--
poly--
por--
porog--
pos--
post--
pp--
ppa--
pr--
pre--
pri--
pro--
proto--
psy--
psychiat--
psycholo--
pu--
pub--
pul--
q--
qa--
qatu--
qi--
qib--
qq--
qu--
queim--
qui--
r--
ra--
rab--
rah--
raj--
ram--
ran--
ras--
rat--
raw--
ray--
re--
ree--
reg--
rek--
reli--
renk--
res--
respi--
ret--
rey--
ri--
rie--
ro--
rob--
rot--
rt--
ru--
rw--
s--
sa--
saa--
sab--
sag--
saha--
sak--
saka--
sal--
sam--
san--
sao--
sar--
sat--
saw--
saxu--
say--
sc--
sch--
scho--
se--
sek--
sel--
sen--
sep--
seq--
ser--
ses--
sex--
sey--
sh--
shay--
sheex--
shen--
shi--
si--
sie--
sil--
sin--
sir--
siw--
sk--
sl--
sn--
so--
socio--
sol--
son--
soo--
soppax--
sor--
sos--
spa--
spe--
ss--
st--
stan--
stock--
stu--
su--
sub--
sui--
suk--
sukka--
sul--
sur--
surben--
sust--
suud--
sw--
sy--
sylv--
t--
ta--
taa--
taf--
tai--
tak--
tal--
tam--
tan--
tar--
tas--
tay--
te--
tech--
tee--
teg--
tele--
ter--
th--
the--
tho--
ti--
tia--
tif--
tii--
tin--
to--
tol--
tomo--
ton--
tou--
tr--
tra--
tri--
tro--
tt--
tu--
tub--
tuf--
tur--
ty--
typ--
u--
ub--
ubbi--
ud--
uga--
uk--
ukuth--
ul--
um--
un--
ur--
us--
ut--
v--
va--
vale--
var--
ve--
ven--
ver--
vi--
viz--
vo--
voi--
vol--
vy--
w--
wa--
waa--
wal--
wan--
war--
wass--
wax--
way--
we--
wee--
wer--
wi--
wil--
win--
wo--
wol--
wone--
woo--
wor--
work--
wu--
x--
xa--
xab--
xaj--
xal--
xam--
xar--
xas--
xat--
xe--
xel--
xet--
xi--
xii--
xo--
xol--
xor--
xu--
xur--
xx--
y--
ya--
yaa--
yab--
yah--
yar--
yash--
yax--
ye--
yen--
yenn--
yet--
yi--
yo--
yol--
yor--
yu--
yuu--
z--
za--
ze--
zi--
zir--
zu--
đ--
ħ--
ı--
ŋ--
ŋa--
ŋia--
аз--
в--
вен--
д--
ист--
к--
кат--
н--
нсь--
р--
с--
ст--
т--
א--
ב--
י--
ا--
ب--
ت--
ج--
ح--
د--
ر--
س--
ش--
ص--
ع--
ف--
ق--
ك--
م--
مر--
مع--
ن--
ه--
و--
ي--
--0
--00
--1
--2
--21
--26
--3
--38
--4
--42
--48
--49
--5
--53
--6
--67
--68
--7
--70
--72
--8
--84
--86
--9
--a
--aa
--aaf
--aag
--aah
--aale
--aam
--aan
--aar
--aas
--aase
--aat
--aate
--aatul
--aaw
--aay
--aayu
--ab
--ac
--ace
--aceae
--ad
--adi
--ado
--ae
--ag
--aga
--age
--agne
--agul
--agun
--ah
--ai
--aire
--aj
--ak
--akon
--al
--ala
--ald
--ale
--ali
--ally
--alu
--alul
--am
--ama
--an
--ana
--ando
--andoo
--ane
--ang
--ani
--anni
--ano
--ant
--ante
--anteek
--anu
--apy
--ar
--ara
--ard
--ari
--arii
--aro
--aru
--as
--ash
--at
--ata
--ate
--ati
--ation
--atou
--atu
--atul
--atun
--au
--aux
--aw
--awu
--ax
--ay
--ayni
--azi
--aŋ
--b
--ba
--bas
--be
--bi
--ble
--bo
--bu
--burg
--c
--ca
--cal
--ce
--ceae
--ch
--ci
--cie
--ck
--co
--con
--ct
--cte
--ction
--cy
--d
--da
--dam
--dax
--dd
--de
--des
--di
--dia
--diku
--do
--doo
--dou
--ds
--dscn
--du
--dus
--e
--ea
--eae
--eb
--ec
--ed
--edi
--ee
--eeg
--eek
--eel
--eem
--een
--eer
--ees
--ef
--eg
--ein
--eji
--ek
--eko
--ekto
--el
--ela
--ele
--eleka
--elo
--elon
--eloo
--els
--elu
--elwa
--em
--ema
--emo
--en
--ence
--ent
--er
--era
--ern
--ero
--eron
--ers
--es
--et
--eti
--eto
--eul
--eur
--eurs
--eus
--euse
--ex
--ey
--f
--fa
--fam
--fe
--fekto
--fi
--fih
--fo
--fu
--ful
--g
--ga
--ge
--ger
--ges
--gi
--gie
--gio
--gique
--gn
--go
--gon
--graphie
--ground
--gs
--gu
--gul
--gy
--h
--ha
--hai
--ham
--han
--hari
--hat
--hboard
--he
--her
--hew
--hi
--hic
--hida
--hii
--him
--hing
--hir
--his
--ho
--hof
--ht
--hu
--hul
--hus
--i
--ia
--ian
--ib
--ibi
--ic
--ical
--ick
--id
--ida
--idade
--ide
--idi
--ie
--ier
--if
--ifa
--ig
--ige
--igi
--ih
--ihii
--ii
--iif
--iim
--iin
--iini
--iinu
--iir
--iis
--iit
--ik
--ikal
--iku
--il
--ila
--ili
--ilo
--im
--ima
--in
--ine
--ing
--inho
--ini
--ins
--inu
--io
--ion
--ions
--iou
--iq
--ir
--ira
--ire
--iri
--iro
--is
--isation
--ise
--iseko
--ish
--ism
--isme
--iste
--isto
--isu
--it
--ita
--ital
--ite
--iti
--ition
--itu
--ity
--iu
--ium
--ius
--ive
--ix
--iy
--iya
--iyaa
--iye
--iyu
--iyya
--ize
--j
--ja
--je
--ji
--jn
--jo
--k
--ka
--kaay
--kaayu
--kat
--kati
--katu
--kay
--ke
--ki
--kk
--ko
--kon
--koo
--ks
--kt
--ku
--kunda
--kus
--l
--la
--laa
--lam
--ld
--le
--leen
--ler
--les
--ley
--li
--libro
--line
--lk
--ll
--lle
--lm
--lo
--logie
--logy
--lon
--loo
--loon
--ls
--lt
--lu
--lug
--lul
--ly
--m
--ma
--maan
--mad
--man
--mata
--mba
--mbe
--me
--ment
--mes
--mi
--mie
--mo
--mon
--mu
--mus
--my
--n
--na
--naa
--nada
--nal
--nati
--nc
--nce
--nces
--nco
--nd
--nda
--nde
--ndoo
--ne
--neiro
--ner
--nes
--net
--ney
--ng
--nge
--nho
--ni
--nig
--nii
--nka
--nke
--nn
--nne
--no
--nomy
--ns
--nse
--nt
--nta
--nte
--nteek
--nto
--nts
--ntu
--nu
--ny
--nye
--o
--of
--oge
--ogy
--ois
--oises
--oj
--ok
--ol
--ole
--om
--ome
--on
--onal
--onde
--ons
--oo
--oodi
--ook
--ool
--oom
--oon
--ooni
--oor
--oot
--oote
--ooti
--ooy
--or
--orde
--oro
--ors
--ort
--os
--ot
--ote
--ott
--ou
--oum
--ous
--ov
--ovsk
--ow
--oy
--oya
--oŋ
--p
--pa
--pe
--pical
--po
--ps
--pt
--pu
--q
--qi
--qu
--que
--qutnii
--r
--ra
--raa
--rad
--ral
--rb
--rd
--re
--ren
--rer
--rg
--ri
--ria
--rija
--ris
--riya
--rl
--rn
--rno
--ro
--roj
--ros
--row
--rs
--rt
--rta
--rto
--ru
--ry
--rı
--s
--sa
--sade
--schaft
--se
--see
--sh
--si
--sion
--sk
--sm
--sma
--sme
--so
--ss
--sse
--st
--sta
--sto
--su
--sus
--t
--ta
--taceae
--tal
--te
--teg
--teksto
--tel
--tem
--ten
--ters
--tes
--tey
--th
--ti
--tia
--tic
--tical
--tien
--tion
--tis
--tism
--tle
--tler
--to
--too
--toon
--tor
--tos
--tre
--ts
--tsk
--tsy
--tt
--tte
--tu
--tual
--tul
--tus
--ty
--tz
--u
--ua
--ub
--ud
--uda
--udo
--ue
--uer
--uf
--ug
--ugal
--ui
--ujo
--uk
--ul
--ula
--ule
--um
--uma
--un
--una
--unu
--up
--ur
--ura
--ure
--ures
--uro
--urs
--us
--ut
--utoon
--uu
--uun
--uur
--uw
--uwa
--ux
--uy
--v
--ve
--veira
--ves
--vo
--w
--wa
--waale
--waat
--waay
--waayu
--wam
--watle
--we
--wf
--wi
--wiin
--wiinam
--wiinu
--win
--wn
--wo
--woo
--woon
--wu
--wul
--wuma
--wun
--wunu
--x
--xa
--xe
--xesha
--xo
--xu
--y
--ya
--ye
--yi
--yo
--ytu
--yu
--z
--za
--zas
--ze
--zen
--zi
--zo
--ı
--ŋ
--ŋi
--ι
--ς
--а
--в
--ви
--г
--д
--и
--к
--кая
--кт
--о
--ск
--х
--цы
--я
--і
--א
--ל
--ء
--ا
--ات
--ب
--ة
--ت
--خ
--د
--ر
--ع
--م
--مة
--ن
--ه
--ى
--ي
