!
"
#
##0
##1
##10
##11
##12
##13
##14
##15
##16
##17
##18
##19
##2
##20
##21
##22
##23
##24
##25
##26
##27
##28
##29
##3
##30
##31
##32
##33
##34
##35
##36
##37
##38
##39
##4
##40
##41
##42
##43
##44
##45
##46
##47
##48
##49
##5
##50
##51
##52
##53
##54
##55
##56
##57
##58
##59
##6
##60
##61
##62
##63
##64
##65
##66
##67
##68
##69
##7
##70
##71
##72
##73
##74
##75
##76
##77
##78
##79
##8
##80
##81
##82
##83
##84
##85
##86
##87
##88
##89
##9
##90
##91
##92
##93
##94
##95
##96
##97
##98
##99
$
%
&
'
(
)
*
+
,
-
.
/
0
00
000
01
07
09
1
10
100
11
1101
12
125
128
13
14
15
150
1582
16
17
18
19
195
199
2
20
2007
201
2010
2013
2014
2015
2019
2021
2022
2023
21
220
23
24
25
250
260
265
27
270
28
283
29
295
299
3
30
300
31
320
323
33
341
36
39
4
40
5
50
52
6
7
8
828
84
8601
9
90
978
98
989
99
9999
:
;
<
=
>
?
@
\
^
_
`
a
about
above
ac
accept
accepted
access
accessdate
according
action
activities
actual
add
addcat
addclass
added
additional
adds
administrator
af
africa
africain
african
afrique
after
agency
agent
agnostic
air
ais
al
alias
aliases
aliaseslist
align
all
allcat
allow
allowed
allows
alpha
already
also
alt
always
ambox
ambulance
american
an
anchor
and
another
any
anything
api
apostrophe
apparently
appear
appears
appended
appropriate
ar
arch
archive
archived
archivedate
archiveformat
archiveurl
are
args
argsk
argtables
argument
arguments
array
article
articles
arxiv
as
ascii
asian
asin
assemble
assigned
associated
assume
at
attempt
attr
attribute
au
audio
author
authority
authorlink
authorlist
authors
auto
autres
av
available
avoid
away
b
ba
back
background
backtranslate
bad
bare
barreau
base
based
basic
be
because
becomes
been
before
begin
beginning
begins
below
beta
better
between
bibcode
bien
biorxiv
blacklist
blank
blurb
bold
bombardier
bombardiers
book
books
boolean
border
bot
both
bots
box
boxargs
boxtable
brackets
brales
break
british
build
bullet
but
by
byte
c
calendar
call
called
calls
can
cap
capture
captures
cartography
case
cases
casque
cat
categories
categorization
categorize
category
cats
cattitle
cause
cd
ce
center
century
certain
cfg
change
chanson
chapman
chapter
char
character
characters
chars
check
checked
checking
checks
chef
choose
chosen
choses
christmas
churchill
cid
citation
citationclass
cite
citeref
cites
citeseerx
class
classes
cleanup
clear
cmbox
co
code
coins
collaboration
colon
color
com
comma
commas
comment
common
commons
community
comp
compare
comparelink
compareurl
concat
concatenate
concatenation
condition
conditions
conference
conferenceurl
config
configuration
contact
contain
containing
contains
content
contenu
contest
contre
contribution
contributor
contributorlist
contributors
controls
contusions
convert
converted
coordinates
copy
corporate
correct
could
count
counter
counting
cre
create
created
cs
csps
css
csstext
ctx
culture
current
currently
custom
d
dans
dash
data
databoxroot
datatable
datatype
datavalue
date
dates
day
days
dd
de
dead
dear
december
declared
default
define
defined
degree
delete
delivery
demospace
depending
deprecated
der
des
description
determines
deux
df
dia
dictionary
diff
different
digit
digits
disabled
disambiguator
discussion
display
displayed
dissertation
div
dm
dmy
do
doc
docket
docpage
docpagebase
docs
docspace
doctitle
document
documentation
does
doesn
doi
domain
domains
don
done
donnera
dot
double
doubled
du
dup
duplicate
durales
dv
dvd
dy
dynamiques
e
each
earlier
ecole
ed
eddie
edirne
edit
editing
edition
editor
editorlist
editors
eds
education
eissn
either
element
else
elseif
em
embargo
embargoed
emit
emits
empty
en
encode
encoded
encyclopaedia
encyclopedia
end
endash
endashes
ends
english
entities
entity
entry
enumerated
env
envfuncs
environment
episode
equal
equivalent
err
error
errors
errs
es
escape
et
etal
etc
even
event
every
example
except
excludedcategories
excludedtemplates
exist
exists
expected
expecttype
experiment
ext
extended
external
extra
extract
extraneous
f
facebook
fail
failing
fairy
fall
false
far
fargs
farther
fbi
feature
feb
february
feminism
fetch
feuilles
field
file
fill
final
finale
find
first
firstn
fix
fixed
flag
fmargs
fmbox
fmt
focus
fofana
fold
folk
folklore
followed
following
font
foo
for
force
form
format
formatdate
formats
formatspattern
formatted
forms
forward
found
four
fr
fragment
frame
frameless
franc
france
free
french
from
frwiki
fullurl
func
function
functions
future
fɔɔbɛ
g
gallery
ge
gender
generate
generated
generates
generational
generic
genre
get
getargs
getbeststatements
getcontentlanguage
getcurrenttitle
getenvironment
getparent
gets
gettitleobject
gif
given
gje
global
gmail
gmt
go
golden
good
google
gov
grand
gregorian
group
gsub
guide
guine
guinea
h
handle
handler
handlers
handlersk
has
have
hdl
he
heading
hello
help
hemisphere
here
hi
hidden
hide
historical
history
hkey
hold
holding
holds
hostname
how
htm
html
http
https
huitie
hyphen
hyphens
i
icon
id
ideas
ident
identifier
identifiers
identify
ids
idx
idxformat
ietf
if
ifan
ignore
ignored
image
imagecelldiv
imageemptycell
imageleft
imageleftcell
imageright
imagerightcell
imagerightnone
images
imbox
import
important
imported
in
inactive
include
included
including
index
indicator
individual
info
infobox
information
informations
inherit
initial
initials
input
insert
inset
instead
institution
inter
internal
international
internetarchivebot
interview
interviewer
interviewerlist
interviewers
interwiki
into
inv
invalid
invariant
invert
invisible
invited
invoke
ipairs
ipv
is
isbn
ismn
isn
isnotempty
iso
iss
issmall
issn
issue
issued
issues
isxn
it
italic
italics
item
itemid
items
its
j
jan
january
jfm
join
journal
jpg
jr
js
jstor
julian
just
k
kamandou
kanjamadi
keep
kern
kev
key
keyhole
keys
keyword
keywords
know
known
ko
kounfantoh
koura
kunnafonin
l
la
label
lancine
lang
language
languages
last
lastfirst
lastfirsttable
lastn
later
latin
latitude
lay
laydate
layformat
laysource
layurl
lc
lccn
le
leading
leap
learn
least
left
len
length
les
less
letter
letters
level
levels
liberte
like
limit
limited
lin
line
link
linked
linkedin
linking
linkn
links
list
listed
lists
literal
live
load
loaddata
local
location
lock
logo
loi
long
longitude
longmonth
look
looking
looks
loop
loves
lower
lowercase
lua
m
machine
made
magazine
magic
mailinglist
main
maincat
mainsnak
maint
maintenance
mais
major
make
makecategorylink
makes
maketoolbar
makeurllink
makewikilink
many
map
march
margin
mark
marker
marks
markup
mask
maskn
match
matches
matching
math
max
maximum
may
mbox
md
mdy
me
media
mediawiki
medium
members
memoized
merge
mes
message
messagebox
messages
meta
metaargs
metaargskey
metadata
metatable
mi
micro
mig
might
min
mine
ministre
minutes
mirror
mismatch
missing
mm
mmmm
mo
mode
modified
modify
module
modules
moment
mon
month
months
more
morragies
most
move
mprotectionbanner
mr
msg
msgs
mt
mtx
multiple
must
mw
my
mylanguage
mythology
n
name
named
namelist
nameliststyle
names
namespace
namespaces
national
nbsps
nd
ne
necessary
need
needed
net
network
new
news
newsgroup
newsletter
newspaper
next
nil
nilargs
nilargskey
nko
nl
no
nocat
non
none
nopp
not
note
notes
nothing
notice
nous
now
nowiki
nowrap
nqo
ns
num
number
numbered
numbers
numeric
numerical
nums
o
obj
object
objects
ocinsoutput
oclc
october
oculus
of
off
ofi
ok
ol
old
ombox
on
once
one
only
opening
option
optional
options
or
order
org
orig
origdate
origin
original
originalurl
origink
os
osti
other
others
otherwise
ou
our
ourembaya
out
output
over
override
own
p
padding
page
pages
pagetype
pair
pairs
palais
par
param
parameter
parameters
params
parent
parentheses
pargs
part
partir
parts
pass
passed
path
pattern
patterns
patternspattern
pcall
pdf
pe
people
period
periodical
periodically
person
pg
phase
philosophie
photo
php
pipe
place
plain
please
plus
pmc
pmid
pn
png
podcast
policy
pont
portal
portion
portions
position
possible
postscript
pp
ppt
pre
precision
prefix
prefixedtext
preload
preprint
present
presentation
press
presse
prevent
preview
previous
previously
primaire
print
printtitle
processing
project
prop
proper
properties
property
propertyvalue
protection
protectionlevels
protocol
provided
provides
ps
ptr
publication
publicationdate
publicationplace
published
publisher
publishername
punct
punctuation
purge
px
q
quadrimester
quart
quarter
quelque
query
questions
qui
quote
quoted
quotepage
quotepages
quotes
r
randolph
random
range
ranges
rather
rd
rda
re
read
real
really
reason
recognized
redirect
redirects
redundant
ref
reference
references
reformat
reformatted
reformatter
reformatting
refrain
region
registration
related
relative
remap
remaplang
remapped
removalnotice
remove
removed
render
rendered
rendering
rep
replace
replaced
replacement
replaces
reply
report
request
requests
require
required
requires
res
resemble
result
ret
return
returned
returns
rfc
rft
right
rom
rooms
root
row
rpg
run
s
sa
safe
same
sandbox
sandboxtitle
save
sbn
scale
scarecrow
scheme
scope
script
scriptperiodical
scriptquote
scripttitle
se
search
searches
season
seasons
second
sect
section
sections
see
select
selected
self
semi
semicolon
semicolons
sep
separate
separated
separator
separators
sepc
sequence
sequential
serial
series
seront
set
setmetatable
sets
settings
seven
shackle
shall
sheet
sheets
short
shortmonth
should
show
showinvalidtypeerror
shown
sign
similar
simple
since
single
site
six
size
skip
sl
slash
small
snapchat
so
some
something
sort
soudanais
sound
source
sous
space
spaced
spaces
span
special
specific
specified
speedy
spin
split
spring
ss
ssrn
st
standard
start
state
statements
station
statistiques
still
story
str
strange
string
strings
strip
stripmarker
stripmarkers
stripped
style
styles
styling
su
sub
subject
subjectspace
subpage
subpages
subscription
subst
substitute
subtable
subtag
success
such
suffix
suggest
suggestions
summary
summer
supl
supplied
support
supported
supports
sure
surname
svg
system
t
table
tablei
tables
tag
tags
taken
tales
talk
talktext
talktitle
target
tata
tbl
tcoins
tcommon
td
te
team
temp
template
templatecat
templatecategory
templateerrorcategory
templates
templatetitle
temporary
terminal
terminate
test
testcases
testcaseslink
testcaseslinks
testcasestitle
tested
testing
tests
text
textcelldiv
textstyle
th
than
thanks
that
the
their
them
then
there
these
thesis
they
thing
things
third
this
those
three
through
thumb
tidyval
tiff
time
timecaption
times
timestamp
tire
tirera
title
titlelink
titlenote
titles
titletype
tld
tmbox
tmon
to
todo
tonumber
tool
tools
top
topic
topics
tostring
toto
tr
tracked
tracking
traduit
trailing
trans
transcluded
transcript
transcriptformat
transcripturl
translate
translated
translatewiki
translation
translator
translatorlist
translators
transparent
transperiodical
transquote
transtitle
transwiki
travers
tre
treat
trim
troisie
trophe
true
try
tu
twelve
two
type
typedata
types
typically
u
ufc
uk
un
une
unesco
unfit
unicode
union
unique
university
unknown
unknowns
unless
unset
unspaced
up
update
updated
uppercase
uri
url
urls
urlstatus
urss
us
usage
use
usecollapsibletextfields
used
user
users
uses
using
ustring
utc
utilities
v
val
valid
validate
validation
vals
value
values
vanc
vancouver
var
variable
variables
variations
various
vauthors
ve
veditors
vers
version
versions
via
view
visible
visual
visualeditor
vol
volume
vparam
vr
vxxxxors
w
want
war
warning
was
way
wd
we
web
website
weight
well
were
western
what
whatever
when
where
whether
which
while
white
whitelist
whitespace
who
whole
width
wiki
wikibase
wikidata
wikilink
wikilinks
wikimedia
wikiourembaya
wikipe
wikipedia
wikis
wikisource
wikitext
will
winter
with
without
wl
wmf
wo
women
word
work
works
world
would
wp
wrap
wrapped
wrapper
wrappers
wraps
write
writing
written
wrong
ws
www
x
xlate
xxxxors
y
year
years
yes
yesno
yet
ymd
you
your
yy
yyy
yyyy
z
za
zbl
zero
zh
{
|
}
~
¡
£
§
«
¬
°
·
»
×
æ
ð
÷
ø
ŋ
ƿ
ǆ
ɏ
ɑ
ɓ
ɔ
ɗ
ə
ɛ
ɡ
ɣ
ɲ
ɾ
ʃ
ʌ
ʔ
ʕ
ʲ
ˁ
ˈ
ː
ˤ
̀
́
̂
̃
̆
̇
̈
̣
̧
̯
͡
β
θ
μ
в
и
эдирне
ְ
ֱ
ִ
ֵ
ֶ
ַ
ָ
ּ
ׁ
ׂ
א
ה
ח
י
ל
מ
ר
ש
ת
،
؛
؟
ء
ا
اب
اذ
ال
الا
الشو
الل
الله
ان
ب
بن
ة
ت
ث
ج
ح
خ
د
دب
ذ
ر
ز
س
سلام
سلامية
ش
ص
ض
ط
ظ
ع
علم
عن
غ
ـ
ف
في
ق
ك
ل
لا
م
موقع
ن
ه
و
وا
والا
وزارة
ول
ون
ى
ي
ير
ين
يه
ً
ٌ
ٍ
َ
ُ
ِ
ّ
ْ
ٓ
ٔ
ٕ
ٖ
ٗ
ٞ
٦
٪
ٰ
ٱل
ٱلل
ۖ
ۘ
ۚ
ۡ
ۢ
ۥ
ۦ
ܐ
ܗ
ܠ
ܰ
ܳ
߀
߀߀
߀߀߀
߀߁
߀߂
߀߃
߀߄
߀߅
߀߆
߀߉
߁
߁߀
߁߀߀
߁߀߀߀
߁߀߀߀߀
߁߀߂
߁߀߂߈
߁߀߃
߁߀߄
߁߀߅
߁߀߅߀
߁߀߅߄
߁߀߇
߁߀߈
߁߀߉
߁߁
߁߁߀
߁߁߂߅
߁߁߃߂
߁߁߄
߁߁߈
߁߂
߁߂߀
߁߂߀߀
߁߂߀߅
߁߂߃
߁߂߃߅
߁߂߃߆
߁߂߄
߁߂߅
߁߂߇
߁߂߈
߁߃
߁߃߀
߁߃߁߁
߁߃߁߂
߁߃߅
߁߃߉߂
߁߄
߁߄߀
߁߄߀߀
߁߄߂߀
߁߄߂߉
߁߄߃߁
߁߄߅߀
߁߄߅߅
߁߄߇
߁߄߇߀
߁߄߇߄
߁߄߇߉
߁߄߈߀
߁߄߉߂
߁߄߉߃
߁߄߉߇
߁߄߉߈
߁߅
߁߅߀
߁߅߀߀
߁߅߁߅
߁߅߃߈
߁߅߆߉
߁߅߇߁
߁߅߉߄
߁߆
߁߆߀
߁߆߀߀
߁߆߁߀
߁߆߁߂
߁߆߁߇
߁߆߁߉
߁߆߂߁
߁߆߂߂
߁߆߂߃
߁߆߂߄
߁߆߄߈
߁߆߅߂
߁߆߅߈
߁߆߇߂
߁߆߈߈
߁߆߉߇
߁߇
߁߇߁߂
߁߇߁߈
߁߇߅߂
߁߇߅߅
߁߇߅߇
߁߇߆߀
߁߇߆߃
߁߇߆߆
߁߇߆߇
߁߇߆߉
߁߇߇߀
߁߇߇߁
߁߇߇߆
߁߇߈߃
߁߇߈߆
߁߇߈߇
߁߇߈߈
߁߇߈߉
߁߇߉߀
߁߇߉߁
߁߇߉߂
߁߇߉߅
߁߇߉߇
߁߇߉߉
߁߈
߁߈߀
߁߈߀߀
߁߈߀߁
߁߈߀߂
߁߈߀߃
߁߈߀߄
߁߈߀߈
߁߈߀߉
߁߈߁߅
߁߈߁߆
߁߈߁߇
߁߈߁߈
߁߈߁߉
߁߈߂߀
߁߈߂߁
߁߈߂߂
߁߈߂߃
߁߈߂߇
߁߈߂߈
߁߈߃
߁߈߃߀
߁߈߃߂
߁߈߃߃
߁߈߃߄
߁߈߃߆
߁߈߃߉
߁߈߄߁
߁߈߄߄
߁߈߄߅
߁߈߄߇
߁߈߄߈
߁߈߄߉
߁߈߅߀
߁߈߅߁
߁߈߅߃
߁߈߅߄
߁߈߅߅
߁߈߅߆
߁߈߅߇
߁߈߅߈
߁߈߅߉
߁߈߆߀
߁߈߆߁
߁߈߆߂
߁߈߆߃
߁߈߆߄
߁߈߆߅
߁߈߆߆
߁߈߆߇
߁߈߆߈
߁߈߇߀
߁߈߇߁
߁߈߇߂
߁߈߇߃
߁߈߇߄
߁߈߇߆
߁߈߇߇
߁߈߇߈
߁߈߇߉
߁߈߈߀
߁߈߈߁
߁߈߈߂
߁߈߈߃
߁߈߈߄
߁߈߈߅
߁߈߈߆
߁߈߈߇
߁߈߈߈
߁߈߈߉
߁߈߉߀
߁߈߉߁
߁߈߉߂
߁߈߉߃
߁߈߉߄
߁߈߉߅
߁߈߉߆
߁߈߉߇
߁߈߉߈
߁߈߉߉
߁߉
߁߉߀߀
߁߉߀߁
߁߉߀߂
߁߉߀߃
߁߉߀߄
߁߉߀߅
߁߉߀߆
߁߉߀߇
߁߉߀߈
߁߉߀߉
߁߉߁߀
߁߉߁߁
߁߉߁߂
߁߉߁߃
߁߉߁߄
߁߉߁߅
߁߉߁߆
߁߉߁߇
߁߉߁߈
߁߉߁߉
߁߉߂
߁߉߂߀
߁߉߂߁
߁߉߂߂
߁߉߂߃
߁߉߂߄
߁߉߂߅
߁߉߂߆
߁߉߂߇
߁߉߂߈
߁߉߂߉
߁߉߃
߁߉߃߀
߁߉߃߁
߁߉߃߂
߁߉߃߃
߁߉߃߄
߁߉߃߅
߁߉߃߆
߁߉߃߇
߁߉߃߈
߁߉߃߉
߁߉߄߀
߁߉߄߁
߁߉߄߂
߁߉߄߃
߁߉߄߄
߁߉߄߅
߁߉߄߆
߁߉߄߇
߁߉߄߈
߁߉߄߉
߁߉߅
߁߉߅߀
߁߉߅߁
߁߉߅߂
߁߉߅߃
߁߉߅߄
߁߉߅߅
߁߉߅߆
߁߉߅߇
߁߉߅߈
߁߉߅߉
߁߉߆߀
߁߉߆߁
߁߉߆߂
߁߉߆߃
߁߉߆߄
߁߉߆߅
߁߉߆߆
߁߉߆߇
߁߉߆߈
߁߉߆߉
߁߉߇߀
߁߉߇߁
߁߉߇߂
߁߉߇߃
߁߉߇߄
߁߉߇߅
߁߉߇߆
߁߉߇߇
߁߉߇߈
߁߉߇߉
߁߉߈߀
߁߉߈߁
߁߉߈߂
߁߉߈߃
߁߉߈߄
߁߉߈߅
߁߉߈߆
߁߉߈߇
߁߉߈߈
߁߉߈߉
߁߉߉߀
߁߉߉߁
߁߉߉߂
߁߉߉߃
߁߉߉߄
߁߉߉߅
߁߉߉߆
߁߉߉߇
߁߉߉߈
߁߉߉߉
߂
߂߀
߂߀߀
߂߀߀߀
߂߀߀߀߀
߂߀߀߁
߂߀߀߂
߂߀߀߃
߂߀߀߄
߂߀߀߅
߂߀߀߆
߂߀߀߇
߂߀߀߈
߂߀߀߉
߂߀߁߀
߂߀߁߁
߂߀߁߂
߂߀߁߃
߂߀߁߄
߂߀߁߅
߂߀߁߆
߂߀߁߇
߂߀߁߈
߂߀߁߉
߂߀߂߀
߂߀߂߁
߂߀߂߂
߂߀߂߃
߂߀߂߅
߂߀߅
߂߀߇
߂߁
߂߁߀߀
߂߁߈
߂߂
߂߂߁
߂߂߄
߂߂߅
߂߃
߂߃߀߀
߂߄
߂߄߀
߂߄߂
߂߅
߂߅߀
߂߅߅
߂߅߆
߂߆
߂߇
߂߇߀
߂߇߀߀
߂߇߇
߂߈
߂߈߀
߂߈߂
߂߈߆
߂߉
߂߉߀߀
߂߉߇
߃
߃߀
߃߀߀
߃߀߀߀
߃߀߂
߃߀߆
߃߁
߃߂
߃߂߉
߃߃
߃߄
߃߅
߃߅߀
߃߅߀߀
߃߆
߃߆߅
߃߇
߃߇߀
߃߇߂
߃߈
߃߉
߃߉߉߆
߄
߄߀
߄߀߀
߄߀߀߀
߄߀߀߀߀
߄߀߁
߄߁
߄߁߀߀
߄߂
߄߂߀߀
߄߃
߄߄
߄߅
߄߆
߄߆߀
߄߇
߄߈
߄߉
߅
߅߀
߅߀߀
߅߀߀߀
߅߀߄
߅߁
߅߂
߅߂߀߀
߅߃
߅߄
߅߅
߅߆
߅߇
߅߇߀
߅߇߁
߅߈
߅߉
߅߉߄
߅߉߈
߆
߆߀
߆߀߀
߆߀߀߀
߆߁
߆߁߀
߆߂
߆߂߂
߆߃
߆߃߂
߆߃߂߁
߆߄
߆߅
߆߅߀
߆߆
߆߇
߆߈
߆߈߀
߆߉
߇
߇߀
߇߀߀
߇߀߀߀
߇߁
߇߂
߇߃
߇߄
߇߄߀߀
߇߅
߇߅߀
߇߆
߇߇
߇߇߇
߇߈
߇߈߄
߇߉
߈
߈߀
߈߀߀
߈߀߀߀
߈߁
߈߂
߈߃
߈߄
߈߅
߈߅߀
߈߆
߈߇
߈߈
߈߉
߉
߉߀
߉߀߀
߉߁
߉߁߆
߉߂
߉߃
߉߄
߉߅
߉߆
߉߇
߉߈
߉߈߀
߉߉
߉߉߃
ߊ
ߊߊ
ߊߊߛߌߡ
ߊߌ
ߊߌߕ
ߊߌߛ
ߊߌߣ
ߊߎ
ߊߏ
ߊߓߊ
ߊߓߋ
ߊߓߋߓߊ
ߊߓߋߛ
ߊߓߌ
ߊߓߌߖߊ
ߊߓߍߕ
ߊߓߎ
ߊߓߎߓߊߞߊߙ
ߊߓߎߓߊߞߊߙߌ
ߊߓߎߓߞߊߙ
ߊߓߐ
ߊߓߑߘߊߟߊ
ߊߓߑߘߍߟ
ߊߓߑߘߍߟߑߥߤߊߓ
ߊߓߑߘߎߟ
ߊߓߑߘߎߟߊߦߌ
ߊߓߑߙߤߊߕߊ
ߊߓߑߙߤߊߡ
ߊߓߘߎ
ߊߓߘߎߙߊߤߑߡߊ
ߊߓߘߎߙߊߤߡߊߣ
ߊߓߘߎߙߤߊߡߊ
ߊߓߘߎߟ
ߊߓߘߎߟߊߦ
ߊߓߘߎߟߊߦߌ
ߊߓߙߋ
ߊߓߙߌߍߟ
ߊߓߙߌߖ
ߊߓߛߌߣߌ
ߊߔߎߟ
ߊߔߏߟ
ߊߔߐ
ߊߕ
ߊߕߊ
ߊߕߊߟߊ
ߊߕߋߕߋ
ߊߕߎ
ߊߕߏ
ߊߖ
ߊߖߌ
ߊߗ
ߊߘ
ߊߘߊ
ߊߘߊߡߊ
ߊߘߋߡߊ
ߊߘߌ
ߊߘߌߛ
ߊߘߌߡ
ߊߘߌߦߎ
ߊߘߍߖ
ߊߘߎ
ߊߘߏ
ߊߘߏߓߌ
ߊߘߐߙ
ߊߘߐߟߝ
ߊߘߑߟߊߡ
ߊߘߑߡߌߙߊ
ߊߘߑߣߊ
ߊߘߡߊ
ߊߘߡߊߘߋ
ߊߘߡߊߦߊ
ߊߙ
ߊߙߊ
ߊߙߊߓߎ
ߊߙߊߓߎߗߍ
ߊߙߊߓߎߞߊ
ߊߙߊߓߎߟߊ
ߊߙߋ
ߊߙߌ
ߊߙߌߖ
ߊߙߌߗ
ߊߙߌߛߑߕߐߕ
ߊߙߌߞߊ
ߊߙߌߦߊ
ߊߙߍߕ
ߊߙߍߛ
ߊߙߎ
ߊߙߐ
ߊߙߑߓߏ
ߊߙߑߕߎߙ
ߊߙߑߘߍ
ߊߙߑߛ
ߊߙߑߛߋߣߊߟ
ߊߙߑߛߏߝ
ߊߙߑߞߊ
ߊߙߑߞߌߔߐߝ
ߊߙߑߟߌ
ߊߙߑߡߋ
ߊߙߘ
ߊߙߜ
ߊߙߝߊ
ߊߙߟ
ߊߛ
ߊߛߊ
ߊߛߊߘߎ
ߊߛߌ
ߊߛߌߔߊ
ߊߛߌߟߌߋߝ
ߊߛߌߡߌ
ߊߛߌߦߏ
ߊߛߌߦߐ
ߊߛߐߣ
ߊߛߑߔߊ
ߊߛߑߗ
ߊߛߑߞߊߙ
ߊߛߑߞߌߦߊ
ߊߛߑߞߏ
ߊߛߑߞߐ
ߊߛߑߥߊߘߎ
ߊߛߞߌߦߊ
ߊߛߟߌ
ߊߛߡߌ
ߊߛߣߌ
ߊߜ
ߊߝ
ߊߝߋ
ߊߝߑߜ
ߊߝߙߌߞ
ߊߝߙߌߞߊ
ߊߝߙߌߞߌ
ߊߝߙߌߞߌߞߊ
ߊߝߙߌߞߍ
ߊߞ
ߊߞߊ
ߊߞߌ
ߊߞߌߛߎ
ߊߞߙߊ
ߊߟ
ߊߟߊ
ߊߟߊߓߡߊ
ߊߟߊߛߊ
ߊߟߊߛߑߞߊ
ߊߟߊߞߊ
ߊߟߊߞߏ
ߊߟߊߡߊ
ߊߟߋ
ߊߟߋߙߌ
ߊߟߋߞߑߛߊ
ߊߟߋߦߑߛߌ
ߊߟߌ
ߊߟߌߋߣߌ
ߊߟߌߓߊߣߌ
ߊߟߌߖ
ߊߟߌߗ
ߊߟߌߛ
ߊߟߌߛߋߣߌ
ߊߟߌߛߌߦߊ
ߊߟߌߝߊ
ߊߟߌߝߦߊ
ߊߟߌߡߊ
ߊߟߌߣ
ߊߟߍ
ߊߟߍߛߊ
ߊߟߍߞߑߛߊ
ߊߟߍߞߛߌ
ߊߟߎ
ߊߟߏ
ߊߟߏߡߊ
ߊߟߏߡߊߘߎ
ߊߟߐߥߊ
ߊߟߑߊ
ߊߟߑߓߍߙ
ߊߟߑߛߊߛ
ߊߟߑߝ
ߊߟߑߝߊ
ߊߟߑߝߐ
ߊߟߑߞ
ߊߟߑߞߊ
ߊߟߑߤ
ߊߟߓߌ
ߊߟߛߊߣ
ߊߟߴߊ
ߊߟߴߊߟߎ
ߊߡ
ߊߡߊ
ߊߡߊߖ
ߊߡߊߘߎ
ߊߡߋߙߌߞ
ߊߡߋߙߌߞߌ
ߊߡߋߙߌߞߌߞߊ
ߊߡߋߙߞߌ
ߊߡߋߙߞߌߞߊ
ߊߡߌߞߊߟ
ߊߡߌߟߊ
ߊߡߌߟߑߞߊߙ
ߊߡߌߣߊߕߊ
ߊߡߍ
ߊߡߍߘ
ߊߡߍߙߌߞߌ
ߊߡߍߙߞߌߞߊ
ߊߡߎ
ߊߡߑߘ
ߊߡߙߊ
ߊߡߙߌߞߌ
ߊߡߙߌߞߌߞߊ
ߊߡߙߎ
ߊߡߛߑߕߘߊߡ
ߊߡߡߊߘ
ߊߢߌ
ߊߣ
ߊߣߊ
ߊߣߊߕߏߟߌ
ߊߣߌ
ߊߣߌߛ
ߊߣߌߛߑߕߊ
ߊߣߌߞߊ
ߊߣߌߡߍߘ
ߊߣߎ
ߊߣߏ
ߊߣߏߝ
ߊߤ
ߊߤߊߡߊߘߑߣߊ
ߊߤߊߡߍߘ
ߊߤߑߡߊߘ
ߊߤߑߡߊߘߑߣߜ
ߊߤߡߊߘߎ
ߊߥߊ
ߊߥߎߌߦߊ
ߊߥߑߙߊ
ߊߦߊ
ߊߦߌ
ߊߦߌߓߊ
ߊߦߌߛߊ
ߊߦߍߕ
ߊߺߊ
ߊߺߊߺߊ
ߋ
ߋߌߞ
ߋߐߙߑߗ
ߋߐߙߖ
ߋߐߙߗ
ߋߓߏߟߊ
ߋߓߙߋ
ߋߕ
ߋߕߊ
ߋߕߌߣߊߡ
ߋߕߏ
ߋߕߑߣߊ
ߋߖ
ߋߖߌߛߎ
ߋߗ
ߋߗߏ
ߋߗߏߔߌ
ߋߘߌ
ߋߘߌߋ
ߋߘߎߥߊߙߘ
ߋߘߑߡߐ
ߋߘߑߥߊߙߘ
ߋߙߊ
ߋߙߊߙߘ
ߋߙߊߛߌ
ߋߙߌ
ߋߙߌߕߙߋ
ߋߙߌߛ
ߋߙߌߞ
ߋߙߌߞߊ
ߋߙߌߦߊ
ߋߙߎߛߊߟߍ
ߋߙߎߛߊߟߍߡ
ߋߙߏ
ߋߙߐߔߎ
ߋߙߐߔߎߞߊ
ߋߙߐߡ
ߋߛ
ߋߛߊ
ߋߜ
ߋߝ
ߋߞߊ
ߋߞߋ
ߋߞߐߛ
ߋߞߑߛߍߟ
ߋߞߕߏߙߑߦߊߟ
ߋߟߊ
ߋߟߋ
ߋߟߋߤߊߣߐߙ
ߋߟߌ
ߋߟߌߖ
ߋߟߍ
ߋߟߕ
ߋߡߌߟ
ߋߡߍߟ
ߋߡߣߌ
ߋߣߌ
ߋߣߌߛ
ߋߣߍߝ
ߋߣߎߛ
ߋߥߊ
ߋߥߋ
ߋߦ
ߋߦߊ
ߋߺߋ
ߋߺߋߺߋ
ߌ
ߌߍߙ
ߌߍߟ
ߌߓߋߞߊ
ߌߓߎ
ߌߓߎߙߊߤߌ
ߌߓߎߙߊߤߌߡ
ߌߓߎߙߊߤߌߡߊ
ߌߓߎߣ
ߌߓߑߙߊ
ߌߓߑߙߊߤߌߡ
ߌߓߑߙߊߤߌߡߊ
ߌߓߙߊߤߌߡߊ
ߌߓߣߎ
ߌߔߑߕ
ߌߔߑߕߌ
ߌߔߑߕߌߞߊ
ߌߔߕ
ߌߕ
ߌߕߊ
ߌߕߊߟߌ
ߌߕߊߟߌߞߊ
ߌߕߊߡߌ
ߌߕߍߙ
ߌߕߐ
ߌߕߛ
ߌߖ
ߌߗ
ߌߗߏߔߌ
ߌߘ
ߌߘߊ
ߌߘߌ
ߌߘߎ
ߌߘߐ
ߌߘߙߌߛ
ߌߙ
ߌߙߊ
ߌߙߊߕߍ
ߌߙߊߞߌ
ߌߙߊߦ
ߌߙߊߦߋ
ߌߙߊߦߌ
ߌߙߌߟߊ
ߌߙߎ
ߌߙߐ
ߌߙߑߔߍ
ߌߙߑߖߌߣߌ
ߌߙߑߗ
ߌߙߑߞߌߓߌ
ߌߙߑߟߊ
ߌߛ
ߌߛߊ
ߌߛߊߓߍߟߊ
ߌߛߊߟߞߊ
ߌߛߊߟߞߊߦߊ
ߌߛߌ
ߌߛߌߙߊߌߟߞߊ
ߌߛߑߕ
ߌߛߑߕߊ
ߌߛߑߙߊߌߟ
ߌߛߑߙߊߌߟߞߊ
ߌߛߑߙߊߍߟ
ߌߛߑߙߊߦߍߟ
ߌߛߑߙߍߛ
ߌߛߑߞߊ
ߌߛߑߞߊߙ
ߌߛߑߟߊ
ߌߛߑߟߊߡ
ߌߛߑߡߊ
ߌߛߑߡߊߦߍߟ
ߌߛߟߊߞߊ
ߌߛߟߊߞߦߊ
ߌߜ
ߌߝ
ߌߝߊ
ߌߝߏߣ
ߌߞ
ߌߞߊ
ߌߞߊߜ
ߌߞߌ
ߌߞߏ
ߌߞߏߡߌ
ߌߞߐ
ߌߞߐߕߎ
ߌߞߑߕߐߙ
ߌߞߘߐ
ߌߞߘߐߞߘߐ
ߌߞߛ
ߌߟ
ߌߟߊ
ߌߟߊߘߡߌߙ
ߌߟߋ
ߌߟߌ
ߌߟߌߣߐߙ
ߌߟߎ
ߌߟߏߝߏ
ߌߡ
ߌߡߊ
ߌߡߊߜ
ߌߡߎ
ߌߡߘߊ
ߌߡߞ
ߌߣ
ߌߣߊ
ߌߣߊߙ
ߌߣߊߝߐ
ߌߣߌ
ߌߣߍ
ߌߣߏ
ߌߥߊߣߌ
ߌߦߊ
ߌߦߊߗߋߛߌߟߊߝ
ߌߦߊߣ
ߌߦߊߣߌ
ߌߦߋ
ߌߦߍ
ߌߦߍߣ
ߌߦߎ
ߌߦߎߛߌ
ߌߦߏ
ߌߦߐ
ߍ
ߍߌߞ
ߍߕ
ߍߗ
ߍߘ
ߍߙ
ߍߙߌ
ߍߙߌߝ
ߍߙߌߦߊ
ߍߙߍ
ߍߙߍߝߌ
ߍߙߑߔߎߟ
ߍߙߑߖ
ߍߙߑߘߌ
ߍߙߑߘߎ
ߍߙߑߛߊ
ߍߙߑߛߊߦ
ߍߙߑߝ
ߍߙߑߡߊߣߌ
ߍߙߕ
ߍߙߕߑߣߍߙ
ߍߙߟ
ߍߛ
ߍߛߌ
ߍߛߌߔߊߢߌ
ߍߛߑߔߊ
ߍߛߑߔߊߢ
ߍߛߑߞߏߓߊߙ
ߍߛߕ
ߍߝ
ߍߞ
ߍߞߍ
ߍߞߛ
ߍߟ
ߍߟߊ
ߍߟߌ
ߍߟߍ
ߍߟߑߛߌ
ߍߟߑߤߊߖߌ
ߍߡ
ߍߡߑߣߋߟߊ
ߍߡߛߍ
ߍߣ
ߍߣߌ
ߎ
ߎߊ
ߎߌ
ߎߌߝ
ߎߓߊ
ߎߕߊ
ߎߕߊߙ
ߎߖ
ߎߘߊ
ߎߘߍߙߌߦߊ
ߎߘߙߌߦߊ
ߎߙ
ߎߙߊ
ߎߙߊߟ
ߎߙߋߞߊ
ߎߙߌ
ߎߙߏ
ߎߛ
ߎߛߌ
ߎߛߍߕ
ߎߛߍߕߛ
ߎߛߎߡߊߣߌ
ߎߛߑߕߊߝ
ߎߛߑߡߊ
ߎߛߑߡߊߣ
ߎߜ
ߎߝ
ߎߞ
ߎߞߊߓߍߙߜ
ߎߞߌ
ߎߞߙߍߣߌ
ߎߟ
ߎߟߊ
ߎߟߋߡߊ
ߎߟߌߦߊ
ߎߟߡ
ߎߡߊ
ߎߡߊߙ
ߎߡߊߙߎ
ߎߡߊߥߎߦߊ
ߎߡߊߦߌߙߎ
ߎߡߊߦߌߦߕߊ
ߎߡߎ
ߎߤߊ
ߎߤߘߎ
ߎߥߊ
ߎߥߋ
ߎߥߋߟߊ
ߎߦߊ
ߏ
ߏߊߏ
ߏߋߝߍߙ
ߏߌߝ
ߏߓߌ
ߏߓߏߕߋ
ߏߓߡߊ
ߏߔ
ߏߔߋߙߊߛ
ߏߔߋߙߊߛߌߦߐ
ߏߔߌ
ߏߕߊ
ߏߕߏ
ߏߕߏߡߊ
ߏߕߑߙߌߛ
ߏߕߙߌߛ
ߏߖ
ߏߘߌ
ߏߙߊ
ߏߙߋ
ߏߙߋߜ
ߏߙߌߦߊ
ߏߙߌߦߏ
ߏߛ
ߏߛߌߕߙߊߟߌ
ߏߛߍߝ
ߏߛߑߕߙߊߟߌ
ߏߛߑߛ
ߏߛߑߟߊߝ
ߏߛߙߌߛ
ߏߜ
ߏߝ
ߏߞߊ
ߏߞߌ
ߏߞߟߎߛ
ߏߟ
ߏߟߊ
ߏߟߌ
ߏߟߌߣߌߦߊ
ߏߟߍ
ߏߟߏ
ߏߟߑߕߊ
ߏߟߘ
ߏߡߋ
ߏߡߋߙߌ
ߏߡߛߑߞߌ
ߏߣߊ
ߏߣߌ
ߏߣߏߘߊ
ߏߤߊߣߍߛ
ߏߤߊߦߏ
ߏߥ
ߏߥߊ
ߏߥߌ
ߐ
ߐߕ
ߐߖ
ߐߘߊߙߘ
ߐߙ
ߐߙߌߕߏߘߐߞߛߌ
ߐߙߑߗ
ߐߙߑߘߊߣߌ
ߐߙߑߘߊߣߌߞߊ
ߐߙߕ
ߐߙߖ
ߐߛ
ߐߝ
ߐߝߋߛ
ߐߟ
ߐߟߑߕߎߡߊ
ߐߟߑߝ
ߐߣ
ߑ
ߑߊ
ߑߓߎ
ߑߓߐߙߜ
ߑߕߐ
ߑߖ
ߑߘߊ
ߑߘߎ
ߑߘߟߊ
ߑߙ
ߑߙߊ
ߑߙߊߖ
ߑߙߊߝ
ߑߙߋ
ߑߙߌ
ߑߙߐ
ߑߙߐߣߌ
ߑߛ
ߑߛߌ
ߑߝ
ߑߞߊ
ߑߞߏ
ߑߟߊ
ߑߟߊߘߌߡߌ
ߑߟߊߘߡߌߙ
ߑߟߊߛ
ߑߟߋ
ߑߟߌߋߝߍ
ߑߟߌߛ
ߑߡߊ
ߑߡߊߙ
ߑߣߎ
ߑߥߊ
ߒ
ߒߓߊ
ߒߓߊߟߌߦߊ
ߒߓߎ
ߒߕߊ
ߒߕߋ
ߒߕߋߦߊ
ߒߕߌ
ߒߕߍ
ߒߕߐ
ߒߖ
ߒߖߏߦߊ
ߒߖߘߍߟߊ
ߒߖߘߍߟߊߣߍ
ߒߖߘߍߟߦߊ
ߒߖߘߍߟߦߊߣߍ
ߒߖߘߍߡߟߊ
ߒߘߐ
ߒߛߎߡߍߙ
ߒߛߑߕߌߛߑߟߊߝ
ߒߛߙߌ
ߒߛߙߍߜߍ
ߒߛߙߍߜߘߍ
ߒߛߙߍߜߘߺߍ
ߒߜ
ߒߝߊ
ߒߝߊߦߌ
ߒߝߍ
ߒߝߦ
ߒߞߊ
ߒߞߋ
ߒߞߎ
ߒߞߏ
ߒߞߏߕߐ
ߒߞߏߝߐߟߊ
ߒߞߏߞߏ
ߒߞߏߟߦߊ
ߒߞߏߡߐ
ߒߞߐ
ߒߞߘߐ
ߒߞߙߎ
ߒߞߵߊ
ߒߠߊ
ߒߠߋ
ߒߡߊ
ߒߣߊ
ߒߥߊ
ߒߥߕߊ
ߒߦߊ
ߒߦߙߋߙߋ
ߓ
ߓߊ
ߓߊߏ
ߓߊߓߊ
ߓߊߓߋ
ߓߊߓߌ
ߓߊߓߌߟߊ
ߓߊߓߎߋ
ߓߊߓߎߥߋ
ߓߊߓߏ
ߓߊߓߏߟߏ
ߓߊߓߐߒߡߟߊ
ߓߊߔߑߕߌߛߕ
ߓߊߕߌ
ߓߊߕߍ
ߓߊߕߍߙ
ߓߊߕߍߞߊ
ߓߊߕߏ
ߓߊߕߏߓߏ
ߓߊߕߏߟߊ
ߓߊߕߐ
ߓߊߕߐߡߐ
ߓߊߕߺߍ
ߓߊߖ
ߓߊߖߌ
ߓߊߖߎ
ߓߊߖߎߟߞߊ
ߓߊߖߎߡߊ
ߓߊߖߟߎ
ߓߊߘߊ
ߓߊߘߋ
ߓߊߘߌ
ߓߊߘߌߓߊߘߌ
ߓߊߘߍ
ߓߊߘߎ
ߓߊߘߏ
ߓߊߘߙߌ
ߓߊߙ
ߓߊߙߊ
ߓߊߙߌ
ߓߊߙߌߓߊ
ߓߊߙߌߓߊߙߌ
ߓߊߙߌߝߊ
ߓߊߙߌߞߊ
ߓߊߙߌߟߞߊ
ߓߊߙߌߦߎ
ߓߊߙߏ
ߓߊߙߑߓߊ
ߓߊߙߑߛߋߟߐ
ߓߊߙߑߝ
ߓߊߛ
ߓߊߛߊ
ߓߊߛߌ
ߓߊߛߌߓߏ
ߓߊߛߌߞߍߕߌ
ߓߊߛߌߟߊ
ߓߊߛߌߦߊ
ߓߊߛߓߊ
ߓߊߜ
ߓߊߜߍ
ߓߊߝ
ߓߊߝߌ
ߓߊߝߌߟߊߓߍ
ߓߊߞߊ
ߓߊߞߍ
ߓߊߞߎߘߊ
ߓߊߞߏ
ߓߊߞߐ
ߓߊߞߘߏ
ߓߊߞߙߌ
ߓߊߞߟߏ
ߓߊߟ
ߓߊߟߊ
ߓߊߟߋ
ߓߊߟߌ
ߓߊߟߌߘߋ
ߓߊߟߌߞߊ
ߓߊߟߌߞߎ
ߓߊߟߌߟߊ
ߓߊߟߌߟߌ
ߓߊߟߌߟߞߊ
ߓߊߟߌߣߍ
ߓߊߟߌߦߊ
ߓߊߟߏ
ߓߊߟߏߘߐ
ߓߊߟߏߙߋ
ߓߊߟߏߝߋ
ߓߊߟߏߣߍ
ߓߊߟߐ
ߓߊߟߑߕߌߡߐߙ
ߓߊߟߑߘߋ
ߓߊߟߑߞߊ
ߓߊߟߞߊ
ߓߊߟߞߏ
ߓߊߡߊ
ߓߊߡߊߣߊ
ߓߊߡߐ
ߓߊߣߊ
ߓߊߣߌ
ߓߊߤߌߦߊ
ߓߊߤߙ
ߓߊߥߎߟߋ
ߓߊߥߏ
ߓߊߦߌ
ߓߊߦߌߕߐߣ
ߓߊߦߌߙߎ
ߓߊߦߟߍ
ߓߊߦߟߍߡߊ
ߓߋ
ߓߋߒߞߊ
ߓߋߕߌ
ߓߋߙߋ
ߓߋߛߙߊߓߌ
ߓߋߞߊ
ߓߋߟߊ
ߓߋߟߋ
ߓߋߡߊ
ߓߋߣߌߕߏ
ߓߋߣߍ
ߓߋߣߎ
ߓߋߣߎߋ
ߓߋߦߊ
ߓߋߦߌߟߊ
ߓߌ
ߓߌߋߟߏߙߎߛߌ
ߓߌߓߌ
ߓߌߓߏߟߏ
ߓߌߓߟߎ
ߓߌߕߌ
ߓߌߕߎ
ߓߌߕߐ
ߓߌߖ
ߓߌߘߊ
ߓߌߘߌ
ߓߌߙߌ
ߓߌߙߏ
ߓߌߛߊߏ
ߓߌߛߊߥߏ
ߓߌߛߋ
ߓߌߛߑߡߊߙߞ
ߓߌߛߓߊ
ߓߌߜ
ߓߌߝ
ߓߌߞ
ߓߌߞߊ
ߓߌߞߐ
ߓߌߟ
ߓߌߟߊ
ߓߌߟߋ
ߓߌߟߏ
ߓߌߡߊ
ߓߌߢߍ
ߓߌߣߊ
ߓߌߣߊߥߎߟߋ
ߓߌߣߍ
ߓߌߣߏ
ߓߌߣߑߕߎ
ߓߌߥߐ
ߓߌߥߐߙߐ
ߓߌߦߊ
ߓߌߦߊߝ
ߓߍ
ߓߍߓߊ
ߓߍߘߊ
ߓߍߘߍ
ߓߍߘߏ
ߓߍߙ
ߓߍߙߌߓߍߙߌ
ߓߍߙߍ
ߓߍߙߑߓߍߙߌ
ߓߍߙߑߟߍ
ߓߍߙߑߣߊߙߘ
ߓߍߙߜ
ߓߍߞߑߝߐߙߘ
ߓߍߞߑߡߊ
ߓߍߟ
ߓߍߟߊ
ߓߍߟߌ
ߓߍߟߍ
ߓߍߟߑߖ
ߓߍߟߑߗ
ߓߍߟߗ
ߓߍߡߊ
ߓߍߣ
ߓߍߣߊ
ߓߍߣߐ
ߓߍߣߵߊ
ߓߎ
ߓߎߊߙߏ
ߓߎߋߣߏߛ
ߓߎߓߊߜ
ߓߎߓߞߊߙ
ߓߎߕߑߛߊ
ߓߎߖߊߝ
ߓߎߘߎ
ߓߎߙߊ
ߓߎߙߍ
ߓߎߙߎ
ߓߎߙߛ
ߓߎߙߜ
ߓߎߙߡߊ
ߓߎߛ
ߓߎߜ
ߓߎߞߊߙߌߟߊ
ߓߎߞߏߝ
ߓߎߞߑߕߎ
ߓߎߟ
ߓߎߟߌ
ߓߎߟߑߜ
ߓߎߣ
ߓߎߣߊ
ߓߎߤߊߙߌ
ߓߎߥߊߙߏ
ߓߎߥߊߢߋ
ߓߎߦߊ
ߓߎߦߌ
ߓߏ
ߓߏߔ
ߓߏߖߌ
ߓߏߙߌ
ߓߏߙߌߞߊ
ߓߏߙߌߟߊ
ߓߏߙߎ
ߓߏߛߑߕߐ
ߓߏߛߣߌ
ߓߏߜ
ߓߏߝߊ
ߓߏߞߊߙߌ
ߓߏߟߌ
ߓߏߟߌߓߊ
ߓߏߟߌߛߐߟߊ
ߓߏߟߏ
ߓߏߤߍߡ
ߓߏߦߊ
ߓߐ
ߓߐߒߖߘߍߘߐ
ߓߐߒߖߘߍߘߐߡߐ
ߓߐߒߘߊ
ߓߐߒߝߘߎߘߐ
ߓߐߒߡߊߟߌ
ߓߐߒߣߘߐߓߊߟߌ
ߓߐߒߣߘߐߕߊ
ߓߐߓߊ
ߓߐߓߐ
ߓߐߕߊ
ߓߐߕߏ
ߓߐߖߎ
ߓߐߘߊ
ߓߐߘߌߦߊ
ߓߐߘߐ
ߓߐߙߌߛ
ߓߐߙߐ
ߓߐߙߑߢߌߛ
ߓߐߙߜ
ߓߐߛߎ
ߓߐߛߐ
ߓߐߛߑߕߐ
ߓߐߞߊ
ߓߐߞߊߕߘߍ
ߓߐߞߏ
ߓߐߞߏߣߊ
ߓߐߞߟߏ
ߓߐߟߊ
ߓߐߟߌ
ߓߐߟߌߞߏ
ߓߐߟߌߟߊ
ߓߐߟߍ
ߓߐߟߐ
ߓߐߢߐ
ߓߐߣߌ
ߓߐߣߍ
ߓߐߣߔߊߙߑߕߌ
ߓߐߦߙߐ
ߓߑߘߎ
ߓߑߙ
ߓߑߙߊ
ߓߑߙߌߖ
ߓߑߙߍ
ߓߑߙߐ
ߓߑߟߋߘߐ
ߓߑߟߍ
ߓߑߟߏߜ
ߓߑߟߐ
ߓߕߊ
ߓߕߎ
ߓߕߐ
ߓߕߐߟߊ
ߓߘߊ
ߓߘߊߟߞߊ
ߓߘߊߡߐ
ߓߘߊߡߛߏ
ߓߘߌߞߊ
ߓߘߍ
ߓߘߍߓߘߍ
ߓߘߍߓߘߍߟߌ
ߓߘߍߞߍ
ߓߘߎ
ߓߘߎߓߘߎ
ߓߘߐ
ߓߘߴߊ
ߓߘߴߊߟߎ
ߓߘߴߌ
ߓߘߴߏ
ߓߙ
ߓߙߊ
ߓߙߊߓߐ
ߓߙߊߕߌ
ߓߙߊߖ
ߓߙߊߘߐߛߊ
ߓߙߊߘߐߦߊ
ߓߙߊߘߓߐ
ߓߙߊߛߊ
ߓߙߊߞ
ߓߙߊߞߊ
ߓߙߊߞߊߣߍ
ߓߙߊߞߣߍ
ߓߙߊߡߊߖߊ
ߓߙߊߡߊߞߐߣߐ
ߓߙߋ
ߓߙߋߕߋ
ߓߙߋߕߋߟߊ
ߓߙߋߖ
ߓߙߋߞߊ
ߓߙߋߡߊ
ߓߙߌ
ߓߙߌߕߊ
ߓߙߌߜ
ߓߙߌߟߊ
ߓߙߌߡߌ
ߓߙߍ
ߓߙߍߦߊ
ߓߙߎ
ߓߙߎߛߊ
ߓߙߎߞߌߣߊ
ߓߙߎߟߊߦߌ
ߓߙߏߟߏ
ߓߙߐ
ߓߙߐߕߐ
ߓߙߐߕߐߕߐ
ߓߙߐߕߐߟߌ
ߓߚߏ
ߓߛߊ
ߓߛߊߟߞߊ
ߓߛߌ
ߓߛߌߞߌ
ߓߛߌߞߙߌߡߊ
ߓߛߍ
ߓߛߏ
ߓߛߏߟߊ
ߓߜ
ߓߝ
ߓߞߊ
ߓߞߊߙߌ
ߓߞߊߟߏߙߌߦߊ
ߓߞߏ
ߓߟߊ
ߓߟߊߓߟߊ
ߓߟߊߓߟߊߕߍߞߣߍ
ߓߟߊߕߏ
ߓߟߊߞߊ
ߓߟߊߞߌ
ߓߟߊߞߟߊ
ߓߟߊߣߌ
ߓߟߋ
ߓߟߋߓߟߋ
ߓߟߋߣߍ
ߓߟߋߣߺߴߏ
ߓߟߌ
ߓߟߍ
ߓߟߎ
ߓߟߎߜ
ߓߟߏ
ߓߟߏߓߌߟߊߢߐ
ߓߟߏߓߐ
ߓߟߏߕߍ
ߓߟߏߘߏ
ߓߟߏߘߐߓߍ
ߓߟߏߝߋ
ߓߟߏߞߊ
ߓߟߏߞߌߣߌ
ߓߟߏߞߍ
ߓߟߏߞߏ
ߓߟߏߞߏߟߏ
ߓߟߏߞߓߊ
ߓߟߏߞߘߐ
ߓߟߏߟߊ
ߓߟߏߟߊߒߞߊ
ߓߟߏߟߊߓߊ
ߓߟߏߟߊߕߎ
ߓߟߏߟߊߘߍ
ߓߟߏߟߊߛߓߍߟߌ
ߓߟߏߟߊߝߍߣߍ
ߓߟߏߟߊߡߌߘߟߊ
ߓߟߏߟߕߊ
ߓߟߏߡߊ
ߓߟߏߡߊߙߊ
ߓߟߏߡߊߛߌ
ߓߟߏߡߊߜߍ
ߓߟߏߡߊߞߊ
ߓߟߏߡߌߘߊߞߟߊ
ߓߟߏߡߐ
ߓߟߏߡߘߊ
ߓߟߏߡߞߊ
ߓߟߏߡߞߊߟߌ
ߓߟߏߡߟߊ
ߓߟߏߢߐ
ߓߟߏߣߊ
ߓߟߏߣߐ
ߓߟߏߦߊ
ߓߟߏߦߊߟߌ
ߓߟߏߦߟߊ
ߓߟߐ
ߓߟߐߓߟߐ
ߓߟߐߟߐ
ߓߟߴߏ
ߓߡߊ
ߓߡߊߣߊ
ߓߣߊ
ߓߣߍ
ߓߣߎ
ߓߣߐ
ߓߤߊ
ߓߦߊ
ߓߴ
ߓߴߊ
ߓߴߌ
ߓߴߏ
ߓߴߛߋ
ߓߵߊ
ߓߺߊ
ߓߺߴߊ
ߓߺߺߺߍ
ߔ
ߔߊ
ߔߊߌ
ߔߊߔߍ
ߔߊߔߎ
ߔߊߔߘߊ
ߔߊߕߍ
ߔߊߖ
ߔߊߗ
ߔߊߘߑߡߏߦߙ
ߔߊߙߊ
ߔߊߙߋ
ߔߊߙߞ
ߔߊߛ
ߔߊߛߌ
ߔߊߛߑߞߊߟ
ߔߊߛߗ
ߔߊߝ
ߔߊߞߊ
ߔߊߞߌ
ߔߊߞߌߛߊ
ߔߊߞߌߛߑߕߊ
ߔߊߞߌߛߦߊ
ߔߊߞߌߛߦߊߟߊ
ߔߊߟߊ
ߔߊߟߋߛߑߕߌ
ߔߊߟߍߛߑߕߌߣ
ߔߊߟߏ
ߔߊߦߌߔߊߦߌ
ߔߊߦߑߣߌ
ߔߋ
ߔߋߎ
ߔߋߔߊ
ߔߋߔߊߞߑߟߊߌߔ
ߔߋߔߋ
ߔߋߗ
ߔߋߘߙߏ
ߔߋߛߊ
ߔߌ
ߔߌߕߊ
ߔߌߕߍ
ߔߌߕߍߛߑߓߎߙߜ
ߔߌߕߍߛߓߎߙߜ
ߔߌߞ
ߔߌߟߊߕߐ
ߔߌߢߊ
ߔߌߦߊ
ߔߌߦߍߙ
ߔߌߦߏ
ߔߌߦߏߣߍߙ
ߔߌߦߐߔߌߦߐ
ߔߍ
ߔߍߙߍ
ߔߍߙߑߛߌ
ߔߍߙߑߛߌߟ
ߔߍߙߛߌ
ߔߎ
ߔߎߕߌ
ߔߎߕߌߣ
ߔߎߟߊߙ
ߔߏ
ߔߏߔߏ
ߔߏߟ
ߔߏߟߊ
ߔߏߟߋߏ
ߔߏߟߌߦߏ
ߔߏߟߐ
ߔߐ
ߔߐߕߍ
ߔߐߙߍߘߊߞߊ
ߔߐߙߑߕߎߜ
ߔߐߙߑߕߎߞߋ
ߔߐߙߑߕߏ
ߔߐߙߑߕߏߜ
ߔߐߟߐ
ߔߐߣߌ
ߔߑߙߍ
ߔߑߙߎߛߌ
ߔߑߙߐߓ
ߔߑߟߊ
ߔߑߟߎ
ߔߑߟߐߛ
ߔߕߏ
ߔߕߏߞߌ
ߔߕߏߞߌߞߊ
ߔߘߊ
ߔߘߋߞߎ
ߔߘߋߞߟߋ
ߔߘߏ
ߔߘߏߟߌ
ߔߙߊ
ߔߙߊߕߊ
ߔߙߊߕߌ
ߔߙߊߘߍߛ
ߔߙߊߜ
ߔߙߋߛߑߟߊߝ
ߔߙߍߛ
ߔߙߎ
ߔߙߎߛߌ
ߔߙߏ
ߔߙߏߖ
ߔߛ
ߔߛߐߞߐ
ߔߝ
ߔߞߊ
ߔߟߏ
ߕ
ߕߊ
ߕߊߌߘߎ
ߕߊߌߛߐ
ߕߊߌߟߊ
ߕߊߌߡ
ߕߊߌߡߛ
ߕߊߓߊ
ߕߊߓߎߟߋ
ߕߊߓߏ
ߕߊߕߊ
ߕߊߕߊߙߌ
ߕߊߖ
ߕߊߖߌ
ߕߊߖߌߞߏ
ߕߊߖߟߎߛߙߊ
ߕߊߘߊ
ߕߊߙߊ
ߕߊߙߌ
ߕߊߙߑߜ
ߕߊߙߑߤߌ
ߕߊߛߎߝߊߕߐ
ߕߊߛߙߊ
ߕߊߛߟߌ
ߕߊߜ
ߕߊߝߟߊ
ߕߊߞߎߟߎ
ߕߊߞߙߎ
ߕߊߟ
ߕߊߟߊ
ߕߊߟߌ
ߕߊߟߌߡߊ
ߕߊߟߏ
ߕߊߡߊ
ߕߊߡߌ
ߕߊߢߐ
ߕߊߣߊ
ߕߊߣߌ
ߕߊߣߌߜ
ߕߊߣߍ
ߕߊߥߎ
ߕߊߥߎߓߟߏߡߊ
ߕߊߥߏ
ߕߊߦߋߓߊߟߌߦߊ
ߕߊߦߌ
ߕߊߦߌߘߎ
ߕߊߦߑߡߎ
ߕߋ
ߕߋߏߘߏߙߋ
ߕߋߏߘߐߙ
ߕߋߏߘߙߏ
ߕߋߕߌߦߍ
ߕߋߕߎ
ߕߋߙߌ
ߕߋߙߌߞߍ
ߕߋߙߌߢߐ
ߕߋߙߌߦߊ
ߕߋߙߎ
ߕߋߛߌ
ߕߋߟߊ
ߕߋߟߋ
ߕߋߟߌ
ߕߋߟߐ
ߕߋߡߌ
ߕߋߤߍߣ
ߕߋߦߊ
ߕߌ
ߕߌߓߊ
ߕߌߔ
ߕߌߕߌ
ߕߌߖߊ
ߕߌߙߊ
ߕߌߙߌ
ߕߌߙߍ
ߕߌߜ
ߕߌߝߊ
ߕߌߞ
ߕߌߞߍ
ߕߌߟߊ
ߕߌߟߕߊߡߌ
ߕߌߡߌ
ߕߌߡߏߛ
ߕߌߢߍ
ߕߌߢߍߞߏ
ߕߌߢߍߟߌ
ߕߌߢߍߟߌߟߊ
ߕߌߢߍߣߍ
ߕߌߣߌ
ߕߌߣߍ
ߕߌߥߊ
ߕߌߦߊ
ߕߌߦߊߜ
ߕߍ
ߕߍߓߊ
ߕߍߕߊ
ߕߍߕߋߟߋ
ߕߍߕߍ
ߕߍߕߎ
ߕߍߘߍ
ߕߍߘߏ
ߕߍߘߐ
ߕߍߘߐߓߍ
ߕߍߙ
ߕߍߙߊ
ߕߍߙߍ
ߕߍߛ
ߕߍߛߘߌ
ߕߍߜߟߍߦߊ
ߕߍߝߐ
ߕߍߝߘߊ
ߕߍߝߘߊߟߌ
ߕߍߝߘߊߟߌߞߏ
ߕߍߝߘߊߣߍ
ߕߍߟߊ
ߕߍߟߍ
ߕߍߟߐ
ߕߍߟߐߟߌ
ߕߍߡߊ
ߕߍߡߊߓߊ
ߕߍߡߊߓߟߐ
ߕߍߡߊߞߊ
ߕߍߡߊߞߐ
ߕߍߡߊߥߛߎ
ߕߍߡߟߊ
ߕߍߢߐ
ߕߍߣߊ
ߕߍߣߍ
ߕߍߣߵߊ
ߕߍߣߵߏ
ߕߎ
ߕߎߓߊ
ߕߎߔߌ
ߕߎߙߊ
ߕߎߙߊߡߊ
ߕߎߙߋ
ߕߎߙߍ
ߕߎߙߎ
ߕߎߙߑߞߌ
ߕߎߛ
ߕߎߜ
ߕߎߜߍ
ߕߎߝߊ
ߕߎߝߌ
ߕߎߞߌ
ߕߎߞߘߐߟߊ
ߕߎߟߊߝߌ
ߕߎߟߎߛ
ߕߎߡߊ
ߕߎߡߊߣߌ
ߕߎߡߏߘߌߦߊ
ߕߎߡߘߊ
ߕߎߡߴߊ
ߕߎߣߊ
ߕߎߣߌ
ߕߎߣߎ
ߕߎߣߛߌ
ߕߎߥߊߙߍߞߌ
ߕߏ
ߕߏߋ
ߕߏߓߊ
ߕߏߕߏ
ߕߏߕߐ
ߕߏߘߊ
ߕߏߘߌ
ߕߏߙߏ
ߕߏߛ
ߕߏߜ
ߕߏߞߌߦߏ
ߕߏߟߊ
ߕߏߟߌ
ߕߏߟߏ
ߕߏߣߌ
ߕߏߣߌߦߏ
ߕߏߣߍ
ߕߐ
ߕߐߓߑߡߊ
ߕߐߘߐ
ߕߐߙߐ
ߕߐߛ
ߕߐߟߊ
ߕߐߟߊߛߏ
ߕߐߟߌߓߎ
ߕߐߟߍ
ߕߐߡߊ
ߕߐߡߊߛ
ߕߐߦߊ
ߕߑߖ
ߕߑߙ
ߕߑߙߋߦߊߟ
ߕߑߙߌߕߐ
ߕߑߙߎߌ
ߕߑߙߏߔ
ߕߑߜ
ߕߑߥߌߕߍߙ
ߕߓߊ
ߕߓߌߟߌ
ߕߓߌߟߌߟߊ
ߕߖ
ߕߘߋ
ߕߘߍ
ߕߘߎ
ߕߘߎߞߎ
ߕߘߴߊ
ߕߘߵߊ
ߕߙߊ
ߕߙߊߓߊ
ߕߙߊߓߊߕߟߋ
ߕߙߊߟߌߟߊ
ߕߙߊߥߟߋ
ߕߙߋ
ߕߙߋߝ
ߕߙߌ
ߕߙߌߓߊ
ߕߙߌߔߏߟߌ
ߕߙߌߛ
ߕߙߌߞ
ߕߙߌߣߌ
ߕߙߍ
ߕߙߎ
ߕߙߎߕߙߎ
ߕߙߎߕߙߎߟߌ
ߕߙߎߞߌ
ߕߙߏ
ߕߙߏߔ
ߕߙߏߞߏ
ߕߙߏߥߊ
ߕߙߐ
ߕߙߐߝߍ
ߕߙߐߞߏ
ߕߙߐߣߍ
ߕߙߐߦߊ
ߕߛ
ߕߛߊߞߙߊ
ߕߛߋ
ߕߛߌߕߍߙ
ߕߜ
ߕߜߊ
ߕߜߋ
ߕߜߋߡߙߊߟߊ
ߕߜߋߦߊ
ߕߞߌߕߞߌ
ߕߞߌߦߊ
ߕߞߍ
ߕߞߎߟߍߙߌ
ߕߟߊ
ߕߟߊߒߕߍ
ߕߟߊߞߏ
ߕߟߊߟߌ
ߕߟߊߣߍ
ߕߟߋ
ߕߟߋߓߊ
ߕߟߋߓߐ
ߕߟߋߜ
ߕߟߋߡߟߋ
ߕߟߌ
ߕߟߍ
ߕߟߎ
ߕߟߎߖߌ
ߕߟߎߥߎߟߋ
ߕߟߏ
ߕߟߏߡߊߟߐ
ߕߟߏߡߌߘߊ
ߕߟߏߥߎߟߋ
ߕߡߊ
ߕߡߊߙߏ
ߕߡߌ
ߕߡߌߣߊ
ߕߡߍߢߍ
ߕߡߎߕߎ
ߕߣߊ
ߕߣߌߖ
ߕߣߍߛߋ
ߕߣߎߖ
ߕߣߐ
ߕߤߊߙ
ߕߦߊ
ߕߴ
ߕߴߊ
ߕߴߊߟߊ
ߕߴߊߟߎ
ߕߴߌ
ߕߴߏ
ߕߴߛߋ
ߕߴߦߋ
ߕߵߊ
ߕߺߴߊ
ߕߺߴߏ
ߖ
ߖߊ
ߖߊߓߙߍ
ߖߊߕߎ
ߖߊߖߋ
ߖߊߘߏ
ߖߊߘߏߦߊ
ߖߊߙߊ
ߖߊߙߌ
ߖߊߛ
ߖߊߛߏ
ߖߊߜ
ߖߊߝߎߥߊ
ߖߊߝߏ
ߖߊߝߏߓߊ
ߖߊߝߏߣߍ
ߖߊߝߏߦߊ
ߖߊߞߊ
ߖߊߞߑߛߐ
ߖߊߟߏ
ߖߊߡߊ
ߖߊߡߎ
ߖߊߡߙߎ
ߖߊߡߙߐ
ߖߊߥߏ
ߖߊߥߙߊ
ߖߋ
ߖߋߎ
ߖߋߔߍ
ߖߋߕߌ
ߖߋߕߌߘߊ
ߖߋߘߌ
ߖߋߙߌ
ߖߋߜ
ߖߋߞߋ
ߖߋߞߎ
ߖߋߟߌ
ߖߋߟߌߡߊ
ߖߋߡߛ
ߖߋߣߌ
ߖߋߣߍ
ߖߌ
ߖߌߐ
ߖߌߐߙߑߖ
ߖߌߓߊ
ߖߌߓߐ
ߖߌߓߐߟߐ
ߖߌߕߐ
ߖߌߖߊ
ߖߌߖߎ
ߖߌߘߊ
ߖߌߘߎ
ߖߌߘߏ
ߖߌߘߐ
ߖߌߘߐߝߋ
ߖߌߘߞߊ
ߖߌߘߟߊ
ߖߌߙߊ
ߖߌߛߊ
ߖߌߛߎ
ߖߌߛߏ
ߖߌߜߍ
ߖߌߜߍߢߊߡߊ
ߖߌߝߊ
ߖߌߞߊ
ߖߌߞߎߘߎ
ߖߌߞߐ
ߖߌߞߖߌߟߋ
ߖߌߞߟߍߛߘߍ
ߖߌߟߊߝߍ
ߖߌߡߊ
ߖߌߡߊߦߙߐ
ߖߌߡߌ
ߖߌߡߍߟ
ߖߌߡߐ
ߖߌߢߎߡߍ
ߖߌߣߊ
ߖߌߣߊߓߎ
ߖߌߣߍ
ߖߌߦߊ
ߖߌߦߊߓߍ
ߖߍ
ߖߍߡߎߙߍ
ߖߍߣߍ
ߖߎ
ߖߎߙߊ
ߖߎߝߊ
ߖߎߟ
ߖߎߟߊ
ߖߎߟߦߊ
ߖߎߡߊ
ߖߎߡߏ
ߖߎߤߊߣߌ
ߖߏ
ߖߏߊߛ
ߖߏߕߌ
ߖߏߙߏ
ߖߏߛߍߔߝ
ߖߏߛߍߝ
ߖߏߣߊ
ߖߏߣߊߕߊ
ߖߏߣߊߖߏߣߊ
ߖߏߤߊߣߍߛ
ߖߐ
ߖߐߔ
ߖߐߞߌ
ߖߐߞߌߣߍ
ߖߐߞߟߌ
ߖߐߟߊ
ߖߐߟߐ
ߖߐߡߌ
ߖߐߣ
ߖߐߣߊ
ߖߓߊ
ߖߓߌ
ߖߓߍ
ߖߓߐ
ߖߕ
ߖߕߊ
ߖߘߊ
ߖߘߌ
ߖߘߌߖߘߌ
ߖߘߌߣߍ
ߖߘߍ
ߖߘߍߟߊ
ߖߘߍߟߊߣߍ
ߖߘߍߟߦߊ
ߖߘߐ
ߖߙߊ
ߖߙߌ
ߖߙߎߡߎ
ߖߛߊ
ߖߛߋ
ߖߛߌߟߊ
ߖߛߌߟߓߊ
ߖߛߎ
ߖߛߐ
ߖߛߐߟߊ
ߖߛߐߣߍ
ߖߜ
ߖߞߊ
ߖߞߌ
ߖߟߊ
ߖߟߊߞߘߐ
ߖߟߌ
ߖߟߎ
ߖߟߏ
ߖߟߏߝߌ
ߖߟߐ
ߖߟߐߞߐ
ߖߡߊ
ߖߡߊߣߊ
ߖߡߊߣߌ
ߖߡߌߣߌ
ߖߣߊ
ߖߣߍ
ߖߤߊ
ߖߤߊߟߌ
ߖߥߊ
ߖߥߊߘߎ
ߖߥߊߙߊ
ߖߺߌ
ߗ
ߗߊ
ߗߊߌߣߊ
ߗߊߔߑߡߊߣ
ߗߊߘ
ߗߊߘߌ
ߗߊߘߌߞߊ
ߗߊߙߑߟߌߛ
ߗߊߡ
ߗߊߣߊ
ߗߊߥߎ
ߗߋ
ߗߋߓߏ
ߗߋߕߌ
ߗߋߗߋߣߌ
ߗߋߘߊ
ߗߋߘߊߕߌ
ߗߋߘߋ
ߗߋߛߓߍ
ߗߋߛߓߍߢߐ
ߗߋߝߊ
ߗߋߞߊ
ߗߋߣߍ
ߗߋߥߊߟߌ
ߗߋߥߎ
ߗߋߦߊߘߋ
ߗߋߦߊߟߌ
ߗߌ
ߗߌߙߏ
ߗߌߛߑߕߊ
ߗߌߞߊߜ
ߗߌߣߌ
ߗߍ
ߗߍߒߞߊ
ߗߍߓߏ
ߗߍߕߊ
ߗߍߕߊߓߊ
ߗߍߕߊߟߌ
ߗߍߙߑߣߐ
ߗߍߞߌ
ߗߍߞߌߛߑߟߏߝ
ߗߍߞߘߐ
ߗߍߡߐ
ߗߎ
ߗߏ
ߗߐ
ߗߐߗߌߟ
ߗߡߍ
ߘ
ߘߊ
ߘߊߌߟߌ
ߘߊߎߘߊ
ߘߊߓߊ
ߘߊߓߌ
ߘߊߓߌߟߊߟߌ
ߘߊߓߍ
ߘߊߓߏ
ߘߊߓߏߟߊ
ߘߊߓߐ
ߘߊߕߌ
ߘߊߕߎ
ߘߊߕߐߘߐ
ߘߊߕߐߡߊ
ߘߊߕߐߡߦߊ
ߘߊߖߌ
ߘߊߖߌߦߊ
ߘߊߖߌߦߊߟߐ
ߘߊߘߊ
ߘߊߘߌ
ߘߊߘߎ
ߘߊߘߐ
ߘߊߘߐߓߍ
ߘߊߘߐߖߊߥߏ
ߘߊߘߐߘߌ
ߘߊߘߐߝߙߊߢߐ
ߘߊߘߐߞߏ
ߘߊߘߐߡߌߘߊߞߎ
ߘߊߘߐߢߌ
ߘߊߘߐߢߌߣߌ
ߘߊߘߐߥߛߊ
ߘߊߘߝߐߟߊ
ߘߊߘߝߐߟߌ
ߘߊߙߌߦߊ
ߘߊߙߑߜ
ߘߊߛ
ߘߊߛߌ
ߘߊߛߎ
ߘߊߛߏ
ߘߊߜ
ߘߊߜߊ
ߘߊߜߍߟߍ
ߘߊߜߟߊ
ߘߊߜߟߏ
ߘߊߝ
ߘߊߝߌ
ߘߊߝߍ
ߘߊߝߍߛߌ
ߘߊߝߘߌ
ߘߊߝߘߎ
ߘߊߞߊ
ߘߊߞߎ
ߘߊߞߘߐ
ߘߊߟ
ߘߊߟߊ
ߘߊߟߌ
ߘߊߟߌߟߊ
ߘߊߟߍ
ߘߊߟߎ
ߘߊߡ
ߘߊߡߊ
ߘߊߡߌ
ߘߊߡߌߘߊ
ߘߊߡߌߣߊ
ߘߊߡߌߣߊߟߌ
ߘߊߡߍ
ߘߊߢߌߣߌ
ߘߊߢߎ
ߘߊߣߋߡߊߙߞ
ߘߊߣߌ
ߘߊߣߌߍߟ
ߘߊߣߌߟߏ
ߘߊߣߍ
ߘߊߣߎߓߌ
ߘߊߣߐ
ߘߊߥߎ
ߘߊߥߎߘߊ
ߘߊߦߌ
ߘߊߦߍ
ߘߊߦߟߍ
ߘߊߦߟߍߟߌ
ߘߊߺߊ
ߘߋ
ߘߋߓߌ
ߘߋߕߙߎߥߊ
ߘߋߙߌߘߊ
ߘߋߛߑߕߍ
ߘߋߜ
ߘߋߝ
ߘߋߞߊ
ߘߋߣߌ
ߘߋߣߌߛ
ߘߋߣߍ
ߘߋߦߊ
ߘߋߦߊߟߌ
ߘߌ
ߘߌߋߖ
ߘߌߓߊ
ߘߌߕߊ
ߘߌߖߊ
ߘߌߗߏ
ߘߌߛ
ߘߌߝ
ߘߌߞߊ
ߘߌߞߌ
ߘߌߞߏ
ߘߌߟ
ߘߌߟߊ
ߘߌߟߊߣߏ
ߘߌߡߊ
ߘߌߡߊߦߙߐ
ߘߌߡߌ
ߘߌߡߴߊ
ߘߌߣߊ
ߘߌߣߊߝ
ߘߌߣߍ
ߘߌߣߺߵߊ
ߘߌߥߎߟߋ
ߘߌߦߊ
ߘߌߦߊߘߌߦߊ
ߘߌߦߊߜߏ
ߘߌߦߊߜߏߦߊ
ߘߌߦߊߢߍ
ߘߌߦߊߣߊ
ߘߌߦߊߣߍ
ߘߌߦߋ
ߘߌߦߙߐ
ߘߌߦߴߊ
ߘߍ
ߘߍߒߖߘߍߟߦߊ
ߘߍߖߍ
ߘߍߘߊ
ߘߍߘߍ
ߘߍߘߐߦߊ
ߘߍߙ
ߘߍߛ
ߘߍߛߑߓߐߙߑߘߍߛ
ߘߍߛߑߟߌߜ
ߘߍߝߊ
ߘߍߞߊߙߊ
ߘߍߞߙߎ
ߘߍߟ
ߘߍߟߊ
ߘߍߟߏ
ߘߍߡߊ
ߘߍߡߍ
ߘߍߦߊ
ߘߎ
ߘߎߓߊ
ߘߎߛ
ߘߎߜ
ߘߎߞߎ
ߘߎߟߋ
ߘߎߡߊ
ߘߎߢߊ
ߘߎߢߊߘߐߕߍ
ߘߎߣߏ
ߘߎߥߊߞߐ
ߘߎߥߊߢߍ
ߘߏ
ߘߏߕߎ
ߘߏߙߋ
ߘߏߙߌ
ߘߏߛ
ߘߏߜߘߍ
ߘߏߝߊ
ߘߏߝߙߍߕߍ
ߘߏߝߙߍߕߍߘߊ
ߘߏߝߙߍߕߍߦߊߟߌ
ߘߏߞߊ
ߘߏߟߊ
ߘߏߟߊߙ
ߘߏߟߋ
ߘߏߟߌ
ߘߏߡߣߌߞ
ߘߏߡߣߌߞߌ
ߘߏߡߣߌߞߍ
ߘߏߣߌ
ߘߏߣߍ
ߘߏߣߛߌ
ߘߏߣߛߌߞߊ
ߘߏߦߌ
ߘߐ
ߘߐߓߊ
ߘߐߓߌ
ߘߐߓߍ
ߘߐߓߎ
ߘߐߓߏ
ߘߐߓߛߏ
ߘߐߓߛߏߟߌ
ߘߐߕߊ
ߘߐߕߋ
ߘߐߕߌߢߍ
ߘߐߕߌߢߍߣߍ
ߘߐߕߍ
ߘߐߕߏ
ߘߐߕߐ
ߘߐߕߟߊ
ߘߐߕߟߊߟߌ
ߘߐߕߟߊߣߍ
ߘߐߖߊ
ߘߐߖߍ
ߘߐߖߎ
ߘߐߖߏ
ߘߐߖߐ
ߘߐߗߍ
ߘߐߘߌߦߊ
ߘߐߘߎ
ߘߐߘߏ
ߘߐߘߐ
ߘߐߙߐ
ߘߐߛߊ
ߘߐߛߊߙߌ
ߘߐߛߌ
ߘߐߛߌߟߊ
ߘߐߛߎ
ߘߐߛߎߡߊ
ߘߐߛߏߘߏ
ߘߐߛߘߊ
ߘߐߛߙߋ
ߘߐߜߊ
ߘߐߜߍ
ߘߐߜߏߦߊ
ߘߐߜߐ
ߘߐߜߙߐ
ߘߐߜߟߌߦߊ
ߘߐߜߟߍ
ߘߐߝߊ
ߘߐߝߊߟߋ
ߘߐߝߌ
ߘߐߝߍ
ߘߐߝߎߙߋ
ߘߐߝߎߟߋ
ߘߐߝߏߘߏ
ߘߐߝߐ
ߘߐߝߘߊ
ߘߐߝߘߊߞߏ
ߘߐߝߘߊߣߍ
ߘߐߝߘߍ
ߘߐߝߙߊ
ߘߐߝߙߍߕߍߟߌ
ߘߐߝߟߌ
ߘߐߞߊ
ߘߐߞߊߙߊ
ߘߐߞߍ
ߘߐߞߍߣߍ
ߘߐߞߎߘߎ
ߘߐߞߏ
ߘߐߞߏߟߏ
ߘߐߞߏߦߊߕߏ
ߘߐߞߐ
ߘߐߞߕߌ
ߘߐߞߘߎ
ߘߐߞߘߎߓߣߊ
ߘߐߞߛ
ߘߐߞߢߊ
ߘߐߞߢߊߣߍ
ߘߐߞߣߍ
ߘߐߞߣߍߣߍ
ߘߐߟߊ
ߘߐߟߌ
ߘߐߟߐ
ߘߐߟߝ
ߘߐߡߊ
ߘߐߡߌ
ߘߐߡߐ
ߘߐߡߙߌ
ߘߐߢߋߙߋ
ߘߐߢߌ
ߘߐߢߌߡߌ
ߘߐߢߐ
ߘߐߣߊ
ߘߐߣߍ
ߘߐߣߐ
ߘߐߥߊ
ߘߐߥߙߊ
ߘߐߥߛߊ
ߘߐߦߊ
ߘߐߦߊߞߏ
ߘߐߦߙߌߥߊ
ߘߐߦߟߊ
ߘߑߙ
ߘߑߙߊߌߝ
ߘߑߙߌߥ
ߘߑߟߊ
ߘߑߣߌߍߔߙ
ߘߓߊ
ߘߓߌ
ߘߓߍ
ߘߓߐ
ߘߕߊ
ߘߕߍ
ߘߕߐ
ߘߙ
ߘߙߊ
ߘߙߋ
ߘߙߌ
ߘߙߌߘ
ߘߙߌߛߊ
ߘߙߍ
ߘߙߍߛߑߘߌ
ߘߙߎ
ߘߙߏ
ߘߙߏߦߌߘ
ߘߙߺ
ߘߛߊߞߏ
ߘߛߍ
ߘߛߍߣߍ
ߘߛߎ
ߘߛߏ
ߘߜ
ߘߜߊߛߌߒߠߊ
ߘߝ
ߘߝߊ
ߘߝߊߓߊߟߌ
ߘߝߊߟߌ
ߘߝߊߢߊ
ߘߝߊߣߍ
ߘߝߐ
ߘߝߐߟߌ
ߘߞߊ
ߘߞߋ
ߘߞߋߘߊ
ߘߞߋߘߋ
ߘߞߌ
ߘߞߏ
ߘߞߐ
ߘߟߊ
ߘߟߊߓߊ
ߘߟߊߕߍ
ߘߟߊߘߍ
ߘߟߊߘߍߟߌ
ߘߟߊߛߌ
ߘߟߊߛߎ
ߘߟߊߝߎߟߊ
ߘߟߊߝߛߊ
ߘߟߊߞߊ
ߘߟߊߞߊߟߊ
ߘߟߊߞߊߟߌ
ߘߟߊߞߏߖߎ
ߘߟߊߡߌ
ߘߟߊߡߌߘߊ
ߘߟߊߡߌߘߊߟߊ
ߘߟߊߡߌߘߊߟߌ
ߘߟߊߡߌߘߟߊ
ߘߟߌ
ߘߟߌߟߊ
ߘߟߐ
ߘߡߊ
ߘߡߊߘߡߊ
ߘߡߊߙߏ
ߘߡߊߢߌߣߌ
ߘߢߊ
ߘߣߊߟߊ
ߘߣߏߛߌ
ߘߤߊ
ߘߦߊ
ߘߴ
ߘߴߊ
ߘߴߊߝߙߌߞߌ
ߘߴߊߟߊ
ߘߴߊߟߎ
ߘߴߊߟߏߡߊ
ߘߴߊߡߋߙߌߞߌ
ߘߴߊߡߍߙߌߞߌ
ߘߴߌ
ߘߴߌߞߘߐ
ߘߴߏ
ߘߴߛߋ
ߘߵ
ߘߵߊ
ߘߵߊߟߊ
ߘߵߊߟߎ
ߘߵߏ
ߘߺߊ
ߘߺߌ
ߘߺߐ
ߘߺߴߊ
ߘߺߴߏ
ߘߺߴߛߋ
ߘߺߺߌ
ߘߺߺߺߌ
ߙ
ߙߊ
ߙߊߒߕߊ
ߙߊߓߊߟߌ
ߙߊߓߌ
ߙߊߓߌߦߊߕߎ
ߙߊߕߌ
ߙߊߖ
ߙߊߖߊߛߑߕߊ
ߙߊߘ
ߙߊߘߋ
ߙߊߛ
ߙߊߛߏߓߊ
ߙߊߝ
ߙߊߝߙߌ
ߙߊߞߏ
ߙߊߞߐ
ߙߊߟߊ
ߙߊߟߌ
ߙߊߟߞߊ
ߙߊߡ
ߙߊߡߎ
ߙߊߢߊ
ߙߊߢߐ
ߙߊߣߍ
ߙߊߣߐ
ߙߊߦߌ
ߙߊߦߑߛߌ
ߙߋ
ߙߋߓߎߛߊߛ
ߙߋߗ
ߙߋߘ
ߙߋߛ
ߙߋߛߕߑߙߊߞ
ߙߋߜ
ߙߋߞߏ
ߙߋߣߍ
ߙߋߥߑߟߌ
ߙߋߦߊ
ߙߌ
ߙߌߓߍ
ߙߌߕߐ
ߙߌߖ
ߙߌߗ
ߙߌߙߌߞߡߎߕߌߡߊ
ߙߌߛ
ߙߌߛߊ
ߙߌߝ
ߙߌߝߎ
ߙߌߝߐ
ߙߌߝߕ
ߙߌߞ
ߙߌߞߊ
ߙߌߟߏ
ߙߌߡ
ߙߌߦߊ
ߙߌߦߎ
ߙߌߦߏ
ߙߍ
ߙߍߌߛ
ߙߍߘ
ߙߍߘߑߓߎߟ
ߙߍߝߍ
ߙߍߞߊ
ߙߍߞߛ
ߙߍߣߍ
ߙߍߦߊ
ߙߎ
ߙߎߕߋߣߌ
ߙߎߘߐߟߝ
ߙߎߛ
ߙߎߛߝ
ߙߎߡߊ
ߙߎߡߊߣߌ
ߙߎߡߎ
ߙߎߡߛ
ߙߎߥߊ
ߙߎߦߊ
ߙߏ
ߙߏߓߍߙ
ߙߏߓߍߙߌ
ߙߏߛ
ߙߏߛߊ
ߙߏߛߑߓߍߙߑߞߐ
ߙߏߝ
ߙߏߟߊ
ߙߏߟߌ
ߙߏߟߌߟߊ
ߙߏߡ
ߙߏߡߊ
ߙߏߡߍ
ߙߏߢߊ
ߙߏߣߊߟߑߘߏ
ߙߏߣߊߟߘ
ߙߏߣߌ
ߙߏߣߍ
ߙߏߦߢߊ
ߙߐ
ߙߐߓߊߙߕ
ߙߐߛ
ߙߐߞ
ߙߐߞߎ
ߙߐߟߝ
ߙߐߡ
ߙߐߡߌ
ߙߐߡߎ
ߙߐߣߊ
ߙߐߥߑߟߌ
ߙߑߕߎߡ
ߙߑߕߐ
ߙߑߘߏ
ߙߑߜ
ߙߑߝ
ߙߑߞߐߝ
ߙߑߤߌ
ߙߓߊ
ߙߕߊ
ߙߘ
ߙߘߊ
ߙߛ
ߙߛߌ
ߙߝ
ߙߞ
ߙߟߊ
ߙߡߊ
ߙߣߊ
ߙߣߋ
ߙߤߊߡߊ
ߙߤߏߛ
ߙߴߊ
ߙߵߊ
ߚ
ߚߊ
ߛ
ߛߊ
ߛߊߊ
ߛߊߌߕߋ
ߛߊߏ
ߛߊߓߎ
ߛߊߓߏ
ߛߊߕߐ
ߛߊߖߐ
ߛߊߘߊ
ߛߊߘߌߓߊ
ߛߊߙߊ
ߛߊߙߌ
ߛߊߙߌߦߊ
ߛߊߙߏ
ߛߊߙߑߘߍ
ߛߊߛ
ߛߊߛߊ
ߛߊߜ
ߛߊߝ
ߛߊߝߌߦߊ
ߛߊߞߊ
ߛߊߞߍ
ߛߊߞߍߟߌ
ߛߊߟߊ
ߛߊߟߋ
ߛߊߟߌ
ߛߊߟߌߎ
ߛߊߟߌߝ
ߛߊߟߌߝߎ
ߛߊߟߌߝߎߥߊ
ߛߊߟߌߝߣߊ
ߛߊߟߌߝߺߎ
ߛߊߟߌߞߣߍ
ߛߊߟߌߟߏ
ߛߊߟߌߡߊߝߏ
ߛߊߟߌߡߊߞߟߌ
ߛߊߟߌߡߊߞߟߌߟߊ
ߛߊߟߌߡߊߥߋ
ߛߊߟߌߡߎ
ߛߊߟߑߖ
ߛߊߟߑߝ
ߛߊߟߑߡߊ
ߛߊߟߖ
ߛߊߡ
ߛߊߡߊ
ߛߊߡߊߞߎߟߎ
ߛߊߡߌߢߍߟ
ߛߊߡߎߍߟ
ߛߊߡߦߊ
ߛߊߣߊ
ߛߊߣߌ
ߛߊߣߌߛߊߕߍ
ߛߊߣߌߡߊ
ߛߊߣߍ
ߛߊߣߎ
ߛߊߤߑߟߋ
ߛߊߥߎߘ
ߛߊߥߎߙߊ
ߛߊߥߏ
ߛߊߦߊ
ߛߊߦߌ
ߛߊߦߌߡߊ
ߛߊߦߏ
ߛߊߺߊ
ߛߋ
ߛߋߒߞߏߟߊ
ߛߋߒߞߏߟߊߘߐߦߊ
ߛߋߒߞߏߟߦߊ
ߛߋߒߞߏߟߦߊߥߙߍ
ߛߋߓߊ
ߛߋߕߌ
ߛߋߕߐ
ߛߋߕߞߌ
ߛߋߘߊ
ߛߋߘߊߙ
ߛߋߘߋ
ߛߋߘߋߊߏ
ߛߋߙߊ
ߛߋߙߌߝߎ
ߛߋߙߙߋ
ߛߋߚߋ
ߛߋߜ
ߛߋߞߎ
ߛߋߞߎߓߊ
ߛߋߞߏ
ߛߋߞߏߓߊ
ߛߋߞߏߦߊ
ߛߋߞߕߎߙߋߦߊ
ߛߋߟߊߛߌ
ߛߋߟߌ
ߛߋߟߎ
ߛߋߟߐߛߋ
ߛߋߟߑߡߊ
ߛߋߣߌ
ߛߋߣߍ
ߛߋߣߎߛߌ
ߛߋߥߎ
ߛߋߦߌ
ߛߌ
ߛߌߐ
ߛߌߓߊ
ߛߌߓߋߙߌ
ߛߌߔ
ߛߌߕߋ
ߛߌߕߎ
ߛߌߗ
ߛߌߘ
ߛߌߘߌ
ߛߌߘߐ
ߛߌߙߊ
ߛߌߙߋ
ߛߌߙߌ
ߛߌߛ
ߛߌߛߊ
ߛߌߛߌ
ߛߌߛߌߟߌ
ߛߌߛߍ
ߛߌߛߑߗ
ߛߌߛߑߞߏ
ߛߌߜ
ߛߌߞߊ
ߛߌߞߊߛߏ
ߛߌߞߊߣߍ
ߛߌߞߋߟߋ
ߛߌߞߙߌߕߌ
ߛߌߟߊ
ߛߌߟߊߓߐߛߐ
ߛߌߟߊߓߐߟߊ
ߛߌߟߊߕߌ
ߛߌߟߊߛߊ
ߛߌߟߊߝ
ߛߌߟߊߞߎ
ߛߌߟߑߝ
ߛߌߟߓߊ
ߛߌߟߛߊ
ߛߌߟߛߊߟߌ
ߛߌߟߡߊ
ߛߌߡߊ
ߛߌߡߌ
ߛߌߢߐ
ߛߌߣߊ
ߛߌߣߊߌ
ߛߌߣߋߡߊ
ߛߌߣߌ
ߛߌߣߍ
ߛߌߥߊ
ߛߌߦߊ
ߛߌߦߊߞߏ
ߛߌߦߊߟߐ
ߛߌߦߊߡߊ
ߛߌߦߊߥߟߏߡߊ
ߛߌߦߊߦߊ
ߛߌߦߊߦߊߟߊ
ߛߌߦߊߦߊߣߍ
ߛߌߦߐ
ߛߌߦߓߊ
ߛߌߦߙߊ
ߛߌߦߞߊ
ߛߌߦߡߊ
ߛߍ
ߛߍߖߡ
ߛߍߘߏ
ߛߍߙߑߓߌ
ߛߍߙߑߕߌߡߊ
ߛߍߙߑߜ
ߛߍߙߓߌ
ߛߍߝߊ
ߛߍߞ
ߛߍߟ
ߛߍߟߊ
ߛߍߟߌ
ߛߍߡߊ
ߛߍߣߍ
ߛߍߥߊ
ߛߍߥߊߣߍ
ߛߎ
ߛߎߋ
ߛߎߌߕ
ߛߎߓߊ
ߛߎߓߊߦߟߌ
ߛߎߓߙߋ
ߛߎߖ
ߛߎߘߊ
ߛߎߘߋ
ߛߎߘߎ
ߛߎߙߊ
ߛߎߙߎ
ߛߎߛߊ
ߛߎߛߋ
ߛߎߝߌ
ߛߎߝߌߦߊ
ߛߎߝߙߎ
ߛߎߞߐߌ
ߛߎߟߑߕߊ
ߛߎߟߑߕߣߊߕ
ߛߎߡߊ
ߛߎߡߊߏߙߏ
ߛߎߡߊߏߙߏߣߍ
ߛߎߡߊߡߊ
ߛߎߡߊߣߍ
ߛߎߡߊߥߙߏ
ߛߎߡߣߊߖߊ
ߛߎߡߦߊ
ߛߎߣߊ
ߛߎߥߊ
ߛߎߥߌߛ
ߛߎߥߍߘ
ߛߎߦߊ
ߛߎߧߊ
ߛߏ
ߛߏߓߊ
ߛߏߓߌ
ߛߏߓߏߟߏ
ߛߏߓߑߗߊߞ
ߛߏߕߌ
ߛߏߘߊ
ߛߏߙߌ
ߛߏߙߌߦߊߣߏ
ߛߏߛߊߦߌ
ߛߏߛߌ
ߛߏߛߌߦߊߟߌߖ
ߛߏߝ
ߛߏߞߊ
ߛߏߞߎߘߊ
ߛߏߞߎߙߊߣߌ
ߛߏߞߎߙߟߊ
ߛߏߞߣߐ
ߛߏߞߣߐߟߊ
ߛߏߟߊ
ߛߏߟߊߙ
ߛߏߟߌ
ߛߏߟߏ
ߛߏߡߊ
ߛߏߡߊߟߌ
ߛߏߡߊߦߟߍߡߊ
ߛߏߡߐ
ߛߏߡߦߊ
ߛߏߣߌ
ߛߏߣߍ
ߛߏߥߊ
ߛߏߦߊ
ߛߏߦߌߟߡߊ
ߛߐ
ߛߐߘߊ
ߛߐߘߐ
ߛߐߙߐ
ߛߐߙߑߓߐߣ
ߛߐߛߐ
ߛߐߞߍ
ߛߐߟߌ
ߛߑߊߟߌ
ߛߑߓߎߙߜ
ߛߑߔߋߛ
ߛߑߔߍ
ߛߑߕߊ
ߛߑߕߊߘ
ߛߑߕߊߝ
ߛߑߕߊߟ
ߛߑߕߊߟߌ
ߛߑߕߊߟߌߣ
ߛߑߕߊߡߍߙ
ߛߑߕߌ
ߛߑߕߌߝ
ߛߑߕߌߝߊߣ
ߛߑߕߍ
ߛߑߕߏߞߋߟߌ
ߛߑߕߐ
ߛߑߕߙߊߛߑߓߎߙ
ߛߑߙߏߡ
ߛߑߛ
ߛߑߞߊ
ߛߑߞߌ
ߛߑߞߎ
ߛߑߞߎߟ
ߛߑߞߏ
ߛߑߞߏߕ
ߛߑߞߦߌ
ߛߑߟߊߝ
ߛߑߟߌ
ߛߑߟߏߝ
ߛߑߣߋߔߑߗߊߕ
ߛߑߥߌߛ
ߛߓߊ
ߛߓߊߓߎ
ߛߓߊߙߌ
ߛߓߊߡߊ
ߛߓߊߢߐ
ߛߓߊߣߊ
ߛߓߋ
ߛߓߌ
ߛߓߍ
ߛߓߍߓߊ
ߛߓߍߕߊ
ߛߓߍߕߌ
ߛߓߍߕߐ
ߛߓߍߘߊ
ߛߓߍߘߊߙߋ
ߛߓߍߘߋ
ߛߓߍߘߟߊߡߐ
ߛߓߍߛߋ
ߛߓߍߛߎ
ߛߓߍߝߌߘߊ
ߛߓߍߞߏ
ߛߓߍߞߘߐ
ߛߓߍߟߊ
ߛߓߍߟߌ
ߛߓߍߟߌߓߊߟߌߦߊ
ߛߓߍߟߌߟߊ
ߛߓߍߟߐ
ߛߓߍߢߊ
ߛߓߍߢߌ
ߛߓߍߣߍ
ߛߓߍߦߊ
ߛߓߍߦߊߟߌ
ߛߓߍߦߊߣߍ
ߛߓߍߦߟߊ
ߛߓߍߺߣߍ
ߛߓߏ
ߛߓߏߟߏ
ߛߔߑߙߌ
ߛߕ
ߛߕߊ
ߛߕߌ
ߛߖߌ
ߛߘߊ
ߛߘߊߓߊ
ߛߘߊߘߐ
ߛߘߊߞߊ
ߛߘߊߞߊߓߐ
ߛߘߊߞߘߎ
ߛߘߊߟߊ
ߛߘߊߟߊߟߌ
ߛߘߊߡߊ
ߛߘߊߡߦߊ
ߛߘߋ
ߛߘߋߊߏ
ߛߘߌ
ߛߘߌߜߋ
ߛߘߌߞߌ
ߛߘߌߦߊ
ߛߘߍ
ߛߘߍߞߎߘߎ
ߛߘߍߡߊ
ߛߘߎ
ߛߘߞ
ߛߙߊ
ߛߙߊߕߌ
ߛߙߊߛߌ
ߛߙߊߞߏ
ߛߙߊߣߎ
ߛߙߋ
ߛߙߋߓߍ
ߛߙߋߓߍߦߊ
ߛߙߋߓߙߋߡߊ
ߛߙߋߕߋߕߋߦߊ
ߛߙߋߣߊ
ߛߙߋߣߊߌߞߌ
ߛߙߋߦߊ
ߛߙߋߦߴߊ
ߛߙߌ
ߛߙߌߦߊ
ߛߙߍ
ߛߙߍߘߍ
ߛߙߍߘߍߦߊ
ߛߙߍߘߍߦߊߟߌ
ߛߙߍߘߎ
ߛߙߍߛߙߍ
ߛߙߍߞߍ
ߛߙߍߞߍߦߊ
ߛߙߍߥߊ
ߛߙߎ
ߛߙߎߓߊ
ߛߙߏ
ߛߙߏߡߊ
ߛߙߏߡߴߊ
ߛߙߐ
ߛߛ
ߛߜ
ߛߝ
ߛߝߊ
ߛߝߊߟߌ
ߛߞ
ߛߞߊ
ߛߞߊߣߌ
ߛߞߌ
ߛߞߌߝߟߌ
ߛߞߍ
ߛߞߎ
ߛߞߏߕߏ
ߛߞߐ
ߛߟߊ
ߛߟߊߕߌ
ߛߟߊߘߎ
ߛߟߋߙߌ
ߛߟߋߞߋ
ߛߟߌ
ߛߟߎ
ߛߟߏ
ߛߟߏߞߊ
ߛߟߐ
ߛߟߐߡߌ
ߛߡߊ
ߛߡߊߣߌߦߊ
ߛߡߐ
ߛߣߊ
ߛߣߋ
ߛߣߍ
ߛߣߍߜ
ߛߣߍߝߐ
ߛߣߐ
ߛߥߊ
ߛߦߊ
ߛߴ
ߛߴߊ
ߛߴߊߟߎ
ߛߴߌ
ߛߴߏ
ߛߵߊ
ߛߵߏ
ߛߺߴߊ
ߜ
ߜߊ
ߜߊߘߊ
ߜߊߘߌ
ߜߊߙߊ
ߜߊߛߊ
ߜߊߛߌ
ߜߊߝߋ
ߜߊߞߌ
ߜߊߟߋ
ߜߊߟߌ
ߜߊߟߌߡߊ
ߜߊߟߏ
ߜߊߡߊ
ߜߊߣߊ
ߜߊߣߍ
ߜߊߦߌ
ߜߋ
ߜߋߘߋ
ߜߋߘߎ
ߜߋߙߊ
ߜߋߙߋ
ߜߋߟߋ
ߜߌ
ߜߌߛߌ
ߜߌߟߌ
ߜߌߡߊ
ߜߍ
ߜߍߓߏ
ߜߍߘߍ
ߜߍߘߐ
ߜߍߘߐߕߊ
ߜߍߙߍ
ߜߍߛߍ
ߜߍߞߊ
ߜߍߞߟߐ
ߜߍߞߣߍ
ߜߍߟߍ
ߜߍߡߊ
ߜߍߣߍ
ߜߍߦߊ
ߜߍߦߋߟߋ
ߜߎ
ߜߎߕߎߙߎ
ߜߎߟߌ
ߜߎߟߎ
ߜߏ
ߜߏߘߏ
ߜߏߡߊ
ߜߏߦߊ
ߜߏߦߊߜߏߦߊ
ߜߏߦߊߢߍ
ߜߐ
ߜߐߞߎ
ߜߘߊ
ߜߘߋ
ߜߘߋߕߌ
ߜߘߋߜߘߋ
ߜߘߋߜߘߋߦߟߊ
ߜߘߋߞߐ
ߜߘߌ
ߜߘߌߛߌ
ߜߘߍ
ߜߘߏ
ߜߙߊ
ߜߙߋ
ߜߙߋߘߎ
ߜߙߋߞߎ
ߜߙߋߟߞߊ
ߜߙߋߡߊ
ߜߙߋߡߟߊ
ߜߙߍ
ߜߙߍߝߊ
ߜߙߍߞߐ
ߜߙߐ
ߜߛߊ
ߜߛߊߞߙߊ
ߜߛߋߓߊ
ߜߛߏ
ߜߛߏߜߛߏ
ߜߝߐ
ߜߞߋ
ߜߞߋߘߎ
ߜߟߊ
ߜߟߋ
ߜߟߋߓߊ
ߜߟߋߡߊ
ߜߟߌ
ߜߟߌߡߊ
ߜߟߌߦߊ
ߜߟߌߦߊߣߍ
ߜߟߌߦߕߊ
ߜߟߍ
ߜߟߍߦߊ
ߜߟߎߞߘߎ
ߜߟߏ
ߜߟߐߡߌ
ߜߡߊ
ߜߣߊ
ߝ
ߝߊ
ߝߊߌߝ
ߝߊߌߟ
ߝߊߕߊ
ߝߊߕߌߡߊ
ߝߊߕߎ
ߝߊߕߎߡߊ
ߝߊߕߎߡߊߕߊ
ߝߊߕߏ
ߝߊߘߊ
ߝߊߘߋ
ߝߊߘߌ
ߝߊߘߌߝߊߘߌ
ߝߊߘߌߡߊ
ߝߊߘߌߦߊߓߐ
ߝߊߘߎ
ߝߊߘߐߞߍ
ߝߊߙߊ
ߝߊߙߌ
ߝߊߙߌߕߊ
ߝߊߙߌߕߊߣߍ
ߝߊߙߏ
ߝߊߙߑߘߌߦߋ
ߝߊߛߌߛߌ
ߝߊߛߌߛߌߞߊ
ߝߊߛߌߛߌߦߊ
ߝߊߝߊ
ߝߊߟߊ
ߝߊߟߋ
ߝߊߣߊ
ߝߊߣߌ
ߝߊߣߍ
ߝߊߦߌ
ߝߊߦߌߘߊ
ߝߊߦߌߘߴߊ
ߝߋ
ߝߋߎ
ߝߋߙߊ
ߝߋߛߌߓߞߎ
ߝߋߛߑߓߎߞ
ߝߋߝߋ
ߝߋߝߋߟߌ
ߝߋߟߋ
ߝߋߟߌߞߛ
ߝߌ
ߝߌߘߊ
ߝߌߘߍߟ
ߝߌߙߌ
ߝߌߛ
ߝߌߛߙߌ
ߝߌߝߊ
ߝߌߝߌ
ߝߌߟߊ
ߝߌߟߊߘߍߟߑߝߌ
ߝߌߟߊߞߊ
ߝߌߟߊߞߍ
ߝߌߟߊߣߊ
ߝߌߟߌ
ߝߌߟߡߊ
ߝߌߣߊ
ߝߌߦߊ
ߝߍ
ߝߍߓߊ
ߝߍߘߍ
ߝߍߙߍ
ߝߍߙߑߘߌߣߊ
ߝߍߙߑߣߊ
ߝߍߝߍ
ߝߍߟߊ
ߝߍߟߌ
ߝߍߡߊ
ߝߍߦߊ
ߝߎ
ߝߎߍ
ߝߎߕߊ
ߝߎߙߋ
ߝߎߙߎ
ߝߎߙߙߎ
ߝߎߚߎ
ߝߎߛ
ߝߎߛߋߡߊ
ߝߎߛߌߦߎߛߌ
ߝߎߛߌߦߎߛߌߦߊ
ߝߎߛߤߊ
ߝߎߞߊ
ߝߎߟߊ
ߝߎߟߊߞߊ
ߝߎߟߊߡߏߙߌ
ߝߎߟߋ
ߝߎߢߍ
ߝߎߢߍߡߊ
ߝߎߣߎ
ߝߎߥߊ
ߝߎߥߟߊ
ߝߎߦߋ
ߝߏ
ߝߏߋ
ߝߏߓߐ
ߝߏߘߊ
ߝߏߘߋ
ߝߏߘߋߓߊ
ߝߏߘߋߞߊ
ߝߏߘߋߞߊߙߌߦߊ
ߝߏߘߋߦߊ
ߝߏߘߏ
ߝߏߙߋ
ߝߏߙߋߞߊߙߌߦߊ
ߝߏߙߏ
ߝߏߛ
ߝߏߛߌ
ߝߏߝߏ
ߝߏߝߣߊ
ߝߏߟߌ
ߝߏߟߏ
ߝߏߣߊ
ߝߏߣߌ
ߝߏߣߍ
ߝߏߣߴߊ
ߝߏߦߊ
ߝߏߦߌ
ߝߏߦߌߘߊ
ߝߏߦߌߟߊ
ߝߐ
ߝߐߍ
ߝߐߒߞߐߢߐ
ߝߐߓߊ
ߝߐߓߏߟߏ
ߝߐߕߊ
ߝߐߘߊ
ߝߐߙߕ
ߝߐߙߘ
ߝߐߛߎ
ߝߐߛߐ
ߝߐߛߕ
ߝߐߞߊ
ߝߐߟߊ
ߝߐߟߌ
ߝߐߟߌߓߟߏ
ߝߐߟߌߝߋ
ߝߐߟߌߟߊ
ߝߐߡߊ
ߝߐߡߋߣߊ
ߝߐߢߊ
ߝߐߢߐ
ߝߐߣߍ
ߝߐߣߐ
ߝߐߣߴߊ
ߝߐߣߺߴߊ
ߝߐߦߊ
ߝߐߦߙߐ
ߝߑߙ
ߝߑߙߊ
ߝߑߙߐ
ߝߑߟߏߙߌߘ
ߝߑߟߏߙߍ
ߝߓߊ
ߝߕߊ
ߝߕߌ
ߝߕߌߝߏߘߏ
ߝߕߌߝߕߌߣߍ
ߝߕߎߣߊ
ߝߕߏߞߐߟ
ߝߕߐ
ߝߕߐߟߊ
ߝߘߊ
ߝߘߊߓߊ
ߝߘߊߜߍ
ߝߘߊߝߘߊߣߍ
ߝߘߊߟߌ
ߝߘߊߡߊ
ߝߘߊߣߍ
ߝߘߋ
ߝߘߋߡߎ
ߝߘߌ
ߝߘߌߝߘߌ
ߝߘߍ
ߝߘߎ
ߝߘߎߓߊߟߌߦߊ
ߝߘߎߓߍ
ߝߘߎߛߊ
ߝߘߎߛߘߌ
ߝߘߎߝߋ
ߝߘߎߞߏ
ߝߘߎߡߊ
ߝߘߎߢߐ
ߝߘߎߣߍ
ߝߘߏ
ߝߘߴߊߟߊ
ߝߙߊ
ߝߙߊߓߊ
ߝߙߊߕߌ
ߝߙߊߙߎߗ
ߝߙߊߝߙߊ
ߝߙߊߟߊߕߏߟߊ
ߝߙߊߡߊ
ߝߙߊߣߊ
ߝߙߋ
ߝߙߋߘߋߙߌߞ
ߝߙߋߘߎ
ߝߙߋߞߋ
ߝߙߋߞߋߣߍ
ߝߙߋߟߌ
ߝߙߋߡߎ
ߝߙߌ
ߝߙߌߓߎߙߜ
ߝߙߌߛߌ
ߝߙߌߛߌߡߊ
ߝߙߍ
ߝߙߍߕߍ
ߝߙߍߕߍߕߍ
ߝߙߍߕߍߡߊ
ߝߙߍߕߍߦߊߟߌ
ߝߙߍߡߊ
ߝߙߎ
ߝߙߎߕߎ
ߝߙߏ
ߝߙߏߞߏ
ߝߙߐ
ߝߙߴߊ
ߝߙߵߊ
ߝߛߊ
ߝߛߊߦߌ
ߝߛߌ
ߝߛߌߙߌ
ߝߛߍ
ߝߛߍߝߛߍ
ߝߛߍߝߛߍߟߌ
ߝߛߍߞߘߎ
ߝߛߎߞߎ
ߝߛߏ
ߝߛߐ
ߝߛߐߞߐߙߌ
ߝߜߊ
ߝߜߍ
ߝߞ
ߝߞߐߛ
ߝߟߊ
ߝߟߌ
ߝߟߌߔ
ߝߟߌߔߣߌ
ߝߟߍ
ߝߟߍߝߟߍ
ߝߟߍߟߊ
ߝߟߍߟߌ
ߝߟߍߣߍ
ߝߟߏ
ߝߟߏߣߌ
ߝߟߐ
ߝߟߐߘߊ
ߝߟߐߝߟߐ
ߝߟߐߡߊ
ߝߟߐߡߐ
ߝߟߐߡߕߊ
ߝߟߐߣߍ
ߝߟߐߦߊ
ߝߡߊ
ߝߡߊߢߊ
ߝߢߊߝߢߊ
ߝߢߐ
ߝߢߐߘߊ
ߝߢߐߜߍ
ߝߢߐߞߎ
ߝߢߐߞߎߟߎ
ߝߣߊ
ߝߣߍ
ߝߣߴߊ
ߝߥ
ߝߴߊ
ߝߴߌ
ߝߴߏ
ߝߺߊ
ߝߺߴߏ
ߞ
ߞߊ
ߞߊߊ
ߞߊߒߞߋ
ߞߊߒߞߋߦߊ
ߞߊߓߊ
ߞߊߓߋ
ߞߊߓߌߟߊ
ߞߊߓߏ
ߞߊߓߏߙߋ
ߞߊߓߑߙߊߟ
ߞߊߓߙߊߟ
ߞߊߓߙߎ
ߞߊߓߙߎߟߏ
ߞߊߓߟߌ
ߞߊߔ
ߞߊߔߑߝ
ߞߊߕߊ
ߞߊߕߌ
ߞߊߕߍ
ߞߊߕߏ
ߞߊߕߏߟߞߌ
ߞߊߕߏߟߞߌߦߊ
ߞߊߕߘߍ
ߞߊߕߙߍ
ߞߊߖ
ߞߊߖߊ
ߞߊߘߊ
ߞߊߘߌ
ߞߊߘߌߣߍ
ߞߊߘߏ
ߞߊߘߴߊ
ߞߊߙߊ
ߞߊߙߋ
ߞߊߙߌ
ߞߊߙߌߟߏ
ߞߊߙߌߡ
ߞߊߙߌߢߊ
ߞߊߙߌߦߍߙ
ߞߊߙߎ
ߞߊߙߏ
ߞߊߙߏߟߌߣ
ߞߊߙߏߡߊߞߐߣߐ
ߞߊߙߑߞߐߝ
ߞߊߙߑߡߌߞߊߍߟ
ߞߊߙߟ
ߞߊߛߊ
ߞߊߛߌ
ߞߊߛߌߦߊ
ߞߊߛߎ
ߞߊߛߏ
ߞߊߛߑߕߙߏ
ߞߊߛߑߕߟߌ
ߞߊߜߍ
ߞߊߝ
ߞߊߝߋ
ߞߊߝߌ
ߞߊߝߏ
ߞߊߞߊ
ߞߊߞߏ
ߞߊߟߊ
ߞߊߟߋ
ߞߊߟߌ
ߞߊߟߌߝߐߙߑߣߌ
ߞߊߟߌߡߊ
ߞߊߟߌߦߊ
ߞߊߟߏ
ߞߊߟߑߝߐߙߑߣߌ
ߞߊߡߊ
ߞߊߡߋߙߋ
ߞߊߡߋߙߎ
ߞߊߡߋߙߎߣ
ߞߊߡߋߙߎߣߌ
ߞߊߡߌߟ
ߞߊߡߎ
ߞߊߢߊ
ߞߊߢߌ
ߞߊߢߐ
ߞߊߣߊ
ߞߊߣߌ
ߞߊߣߍ
ߞߊߣߏ
ߞߊߣߵߊ
ߞߊߣߵߏ
ߞߊߥߟߌ
ߞߊߦߊ
ߞߊߦߌ
ߞߊߦߌߙߊߥߊ
ߞߋ
ߞߋߓߌ
ߞߋߓߍߞ
ߞߋߔߑߟߊ
ߞߋߕߊ
ߞߋߘߎ
ߞߋߙߋ
ߞߋߛߐ
ߞߋߟߊ
ߞߋߟߊߘߋ
ߞߋߟߊߡߐ
ߞߋߟߋ
ߞߋߟߓߊ
ߞߋߟߦߊ
ߞߋߟߦߊߣߍ
ߞߋߡߊ
ߞߋߣߌߦߊ
ߞߋߥߎ
ߞߋߦߊ
ߞߌ
ߞߌߍߝ
ߞߌߓߊ
ߞߌߘߊ
ߞߌߘߌ
ߞߌߙߊ
ߞߌߙߊߦߌ
ߞߌߙߌ
ߞߌߙߍߘߋ
ߞߌߙߎ
ߞߌߛߊ
ߞߌߛߍ
ߞߌߛߏ
ߞߌߞߊ
ߞߌߟߊ
ߞߌߟߍ
ߞߌߢߊ
ߞߌߢߍ
ߞߌߣߊ
ߞߌߣߌ
ߞߌߦߍߝ
ߞߍ
ߞߍߒߖߘߍߡߊ
ߞߍߒߞߊ
ߞߍߓߊ
ߞߍߓߊߟߌ
ߞߍߓߊߟߌߦߊ
ߞߍߕߊ
ߞߍߕߎߡߊ
ߞߍߕߐ
ߞߍߗߏ
ߞߍߙ
ߞߍߙߍ
ߞߍߙߑߛߐ
ߞߍߞߋߟߋ
ߞߍߞߌߦߊ
ߞߍߞߎߛߊ
ߞߍߞߏ
ߞߍߟߊ
ߞߍߟߋ
ߞߍߟߌ
ߞߍߟߍ
ߞߍߡߐ
ߞߍߢߊ
ߞߍߢߐ
ߞߍߣߌ
ߞߍߣߍ
ߞߍߣߐ
ߞߍߣߴߊ
ߞߍߦߙߐ
ߞߎ
ߞߎߊߔߍߙ
ߞߎߌߔߍߙ
ߞߎߓߊ
ߞߎߓߋ
ߞߎߓߋߘߊ
ߞߎߓߋߘߦߊ
ߞߎߓߋߛߏ
ߞߎߘߊ
ߞߎߘߊߌ
ߞߎߘߊߘߌ
ߞߎߘߊߞߎߘߊ
ߞߎߘߊߣߍ
ߞߎߘߊߦߌ
ߞߎߘߍ
ߞߎߘߍߞߎߘߍ
ߞߎߘߍߞߎߘߍߦߊ
ߞߎߘߎ
ߞߎߘߓߊߕߎ
ߞߎߙ
ߞߎߙߊ
ߞߎߙߋ
ߞߎߙߎ
ߞߎߙߎߡߊ
ߞߎߙߕ
ߞߎߙߣߊ
ߞߎߛߊ
ߞߎߛߎ
ߞߎߞ
ߞߎߞߏߝ
ߞߎߟߊߞߏ
ߞߎߟߊߞߏߕߍ
ߞߎߟߊߦߌߓߎ
ߞߎߟߋ
ߞߎߟߋߞߊ
ߞߎߟߌ
ߞߎߟߎ
ߞߎߟߐ
ߞߎߟߑߘߓߊߘ
ߞߎߟߡߊ
ߞߎߡߊ
ߞߎߡߊߓߏ
ߞߎߡߊߓߘߊ
ߞߎߡߊߓߘߊߛߏ
ߞߎߡߊߕߌ
ߞߎߡߊߕߍ
ߞߎߡߊߘߋ
ߞߎߡߊߛߏ
ߞߎߡߊߛߓߏ
ߞߎߡߊߞߊ
ߞߎߡߊߟߐ
ߞߎߡߊߡߊߛߊ
ߞߎߡߊߢߐ
ߞߎߡߊߣߍ
ߞߎߡߊߺߘߋ
ߞߎߡߘߊ
ߞߎߡߟߊ
ߞߎߡߦߊ
ߞߎߡߴߊ
ߞߎߢߐ
ߞߎߣߊ
ߞߎߣߊߘߎ
ߞߎߣߎ
ߞߎߥߊ
ߞߎߦߊߕߍ
ߞߏ
ߞߏߒߕߋ
ߞߏߓߊ
ߞߏߓߌߘߊ
ߞߏߔߣߌ
ߞߏߕߊ
ߞߏߕߌ
ߞߏߕߐ
ߞߏߖ
ߞߏߖߊ
ߞߏߖߎ
ߞߏߘߌ
ߞߏߘߏ
ߞߏߘߐߟߊ
ߞߏߘߐߣߐ
ߞߏߘߐߦߊ
ߞߏߘߓߌ
ߞߏߙߊ
ߞߏߙߋ
ߞߏߙߌ
ߞߏߙߏ
ߞߏߛߊ
ߞߏߛߊߞߌ
ߞߏߛߌ
ߞߏߛߏ
ߞߏߛߐ
ߞߏߛߓߍ
ߞߏߛߕ
ߞߏߛߴߊ
ߞߏߜߍ
ߞߏߝߏߣ
ߞߏߝߐ
ߞߏߝߐߓߊ
ߞߏߝߐߟߌ
ߞߏߝߐߣߍ
ߞߏߞߊ
ߞߏߞߊߛ
ߞߏߞߎ
ߞߏߞߎߘߊ
ߞߏߞߏ
ߞߏߞߘߐ
ߞߏߞߘߐߞߊ
ߞߏߟ
ߞߏߟߊ
ߞߏߟߊߒߞߏߡߊ
ߞߏߟߊߒߞߘߐߢߐ
ߞߏߟߊߕߊ
ߞߏߟߊߕߍ
ߞߏߟߊߕߐ
ߞߏߟߊߘߍ
ߞߏߟߊߘߍߢߐ
ߞߏߟߊߘߐߦߊ
ߞߏߟߊߞߏߕߍ
ߞߏߟߊߢߐ
ߞߏߟߋ
ߞߏߟߌ
ߞߏߟߌߞߏߟߌ
ߞߏߟߏ
ߞߏߟߐ
ߞߏߟߦߊ
ߞߏߡߊ
ߞߏߡߊߓߌߟߊߟߊ
ߞߏߡߊߛߓߏ
ߞߏߡߍ
ߞߏߢߊ
ߞߏߢߌ
ߞߏߢߌߡߊ
ߞߏߢߌߡߊߟߐ
ߞߏߢߎߡߊߟߐ
ߞߏߢߐ
ߞߏߣߋ
ߞߏߣߌ
ߞߏߣߍ
ߞߏߦߊ
ߞߏߦߌ
ߞߏߦߌߕߊ
ߞߐ
ߞߐߍ
ߞߐߓߊ
ߞߐߓߋ
ߞߐߓߌߟߊ
ߞߐߓߌߟߊߘߋ
ߞߐߕߊ
ߞߐߕߌ
ߞߐߕߍ
ߞߐߕߎ
ߞߐߕߐ
ߞߐߖߌ
ߞߐߘߊ
ߞߐߘߌ
ߞߐߘߍ
ߞߐߘߎ
ߞߐߘߏ
ߞߐߘߐ
ߞߐߙߍ
ߞߐߙߍߡߊ
ߞߐߙߍߦߊ
ߞߐߙߐ
ߞߐߙߑߛߌ
ߞߐߙߣߑߥߐߟߌߛ
ߞߐߛߊ
ߞߐߛߊߦߌ
ߞߐߛߊߦߟߌ
ߞߐߛߐ
ߞߐߜߍ
ߞߐߝ
ߞߐߝߍ
ߞߐߝߍߟߊ
ߞߐߝߍߣߍ
ߞߐߝߘߊ
ߞߐߝߟߌ
ߞߐߞ
ߞߐߞߊ
ߞߐߞߐ
ߞߐߞߐߣߐ
ߞߐߞߘߐ
ߞߐߞߘߐߓߌ
ߞߐߞߘߐߘߏ
ߞߐߞߘߐߟߊ
ߞߐߞߟߌ
ߞߐߞߟߏ
ߞߐߟ
ߞߐߟߊ
ߞߐߟߌ
ߞߐߟߍ
ߞߐߟߐ
ߞߐߟߕߊ
ߞߐߡߊ
ߞߐߡߊߓߌ
ߞߐߡߊߓߌߘߌ
ߞߐߡߊߕߊ
ߞߐߡߊߛߙߋ
ߞߐߡߌ
ߞߐߡߐ
ߞߐߡߕߊ
ߞߐߡߟߊ
ߞߐߣߊ
ߞߐߣߊߞߙߌ
ߞߐߣߌ
ߞߐߣߌߢߊ
ߞߐߣߍ
ߞߐߣߍߞߑߕߌߞߐߕ
ߞߐߣߐ
ߞߐߣߙߊ
ߞߐߦߌ
ߞߐߦߌߘߊߓߊ
ߞߐߦߌߘߊߟߌ
ߞߑߙ
ߞߑߙߊߌߛ
ߞߑߙߎߗߑߗߋߝ
ߞߑߝߐߙ
ߞߑߟߊ
ߞߑߟߊߙߌߛߊ
ߞߑߟߋߝ
ߞߑߟߏߘ
ߞߑߟߐߓ
ߞߑߟߐߘ
ߞߑߟߙߊ
ߞߑߥߊ
ߞߓߊ
ߞߓߊߕߟߎ
ߞߓߊߝߌ
ߞߓߊߞߎߘߎ
ߞߓߊߞߏ
ߞߓߊߞߏߦߊ
ߞߓߊߣߊ
ߞߓߐ
ߞߓߐߞߓߐ
ߞߕߊ
ߞߕߊߙ
ߞߕߋ
ߞߕߌ
ߞߕߌߓߋߟߋ
ߞߕߌߓߏ
ߞߕߌߕߍ
ߞߕߌߖߌ
ߞߕߌߘߊ
ߞߕߌߛߋ
ߞߕߌߞߊ
ߞߕߌߟߊ
ߞߕߌߟߊߟߊ
ߞߕߌߦߊ
ߞߕߌߦߟߊ
ߞߕߍ
ߞߕߎ
ߞߕߎߓߎ
ߞߕߏ
ߞߕߐ
ߞߕߐߙߐ
ߞߕߐߡߊ
ߞߘ
ߞߘߊ
ߞߘߊߎ
ߞߘߊߝߌ
ߞߘߊߡߊ
ߞߘߊߡߊߟߌ
ߞߘߊߡߊߟߌߟߊ
ߞߘߊߡߊߣߍ
ߞߘߊߡߴߊ
ߞߘߌߞߘߌ
ߞߘߍߜߍ
ߞߘߎ
ߞߘߎߞߘߎ
ߞߘߏ
ߞߘߏߞߘߏ
ߞߘߏߥߊߙߌ
ߞߘߏߥߊߙߌߞߊ
ߞߘߐ
ߞߘߐߓߊ
ߞߘߐߓߐ
ߞߘߐߓߐߟߌ
ߞߘߐߕߊ
ߞߘߐߕߊߟߌ
ߞߘߐߕߍ
ߞߘߐߛߊߟߌ
ߞߘߐߛߌ
ߞߘߐߝߐߟߊ
ߞߘߐߞߊ
ߞߘߐߞߍ
ߞߘߐߞߘߐ
ߞߘߐߟߊ
ߞߘߐߟߐ
ߞߘߐߡߊ
ߞߘߐߡߊߛߎߘߎ
ߞߘߐߢߐ
ߞߘߐߦߌߘߊ
ߞߘߚߎ
ߞߙߊ
ߞߙߊߌߓ
ߞߙߊߒߞߋ
ߞߙߊߕߊ
ߞߙߊߕߊߕߊ
ߞߙߊߘߎ
ߞߙߊߞߏ
ߞߙߊߟߊߕߎ
ߞߙߊߟߌ
ߞߙߊߟߌߟߊ
ߞߙߊߡߏߖ
ߞߙߊߡߐ
ߞߙߋ
ߞߙߋߕߌߦߍ
ߞߙߋߞߙߋ
ߞߙߌ
ߞߙߌߕߌߕߌ
ߞߙߌߛߌ
ߞߙߌߛߑߕߐߝ
ߞߙߌߞߍ
ߞߙߌߡߋ
ߞߙߌߣߊ
ߞߙߍ
ߞߙߍߞߙߍ
ߞߙߍߞߙߍߟߌ
ߞߙߍߞߙߍߣߍ
ߞߙߍߞߙߍߦߟߊ
ߞߙߎ
ߞߙߎߓߊ
ߞߙߎߛߌ
ߞߙߎߝߊ
ߞߙߎߝߊߟߌ
ߞߙߎߝߊߢߐ
ߞߙߎߝߊߣߍ
ߞߙߎߝߓߊ
ߞߙߎߞߊ
ߞߙߎߞߊߘߋ
ߞߙߎߞߊߥߙߍߦߊ
ߞߙߎߞߍ
ߞߙߎߞߙߍ
ߞߙߏ
ߞߙߏߓߌߢߍ
ߞߙߏߝߏ
ߞߙߏߞߏ
ߞߙߐ
ߞߙߐߕߐ
ߞߙߐߛ
ߞߙߐߞߐ
ߞߛ
ߞߛߊ
ߞߛߊߓߌ
ߞߛߊߛ
ߞߛߊߞߊ
ߞߛߊߡߊ
ߞߛߊߡߊߛߌ
ߞߛߌ
ߞߛߐ
ߞߛߐߞߐ
ߞߛߐߞߛߐ
ߞߛߐߞߛߐߦߊ
ߞߜ
ߞߝ
ߞߝߊ
ߞߟߊ
ߞߟߊߒߞߋ
ߞߟߊߓߍ
ߞߟߊߓߎ
ߞߟߊߓߎߘߏ
ߞߟߊߓߎߡߊ
ߞߟߊߕߌ
ߞߟߊߘߊ
ߞߟߊߝߎ
ߞߟߊߞߟߊߡߊ
ߞߟߊߞߟߊߦߊ
ߞߟߊߡߊ
ߞߟߊߦߊ
ߞߟߋ
ߞߟߋߞߟߋ
ߞߟߋߞߟߋߡߊߦߟߍ
ߞߟߌ
ߞߟߌߟߊ
ߞߟߌߟߊߟߊ
ߞߟߌߟߌ
ߞߟߌߟߌߟߊ
ߞߟߌߡߊ
ߞߟߌߡߦߊ
ߞߟߌߣߊ
ߞߟߌߣߍ
ߞߟߌߦߊ
ߞߟߍ
ߞߟߍߓߏߟߏ
ߞߟߍߕߌ
ߞߟߍߘߋ
ߞߟߍߞߕߍ
ߞߟߍߟߊ
ߞߟߎ
ߞߟߏ
ߞߟߏߓߊ
ߞߟߏߘߋ
ߞߟߏߜߍ
ߞߟߏߜߍߟߍ
ߞߟߏߜߍߢߐ
ߞߟߏߜߟߍ
ߞߟߏߜߟߍߦߊ
ߞߟߏߜߟߍߦߊߟߌ
ߞߟߏߜߟߍߦߟߊ
ߞߟߏߝߋ
ߞߟߏߞߊ
ߞߟߏߞߊߣߌ
ߞߟߏߞߕߏ
ߞߟߏߞߕߏߦߊ
ߞߟߏߞߟߏ
ߞߟߏߡߊ
ߞߟߏߣߍ
ߞߟߏߦߊߓߊ
ߞߟߐ
ߞߟߐߣߊߖ
ߞߡߊ
ߞߡߊߟߊ
ߞߡߊߣߏ
ߞߡߊߦߍߙ
ߞߡߋߛߎ
ߞߡߍ
ߞߡߏ
ߞߡߐ
ߞߢߊ
ߞߢߊߡߊ
ߞߢߊߢߐ
ߞߢߊߣߍ
ߞߢߐ
ߞߢߐߞߏ
ߞߢߐߡߊߟߐ
ߞߢߵߊ
ߞߣߊ
ߞߣߊߕߌ
ߞߣߊߘߊ
ߞߣߊߙߌ
ߞߣߍ
ߞߣߍߓߊ
ߞߣߍߘߋ
ߞߣߍߘߌ
ߞߣߍߘߎ
ߞߣߍߞߊ
ߞߣߍߞߍ
ߞߣߍߟߋ
ߞߣߍߡߊ
ߞߣߍߡߊߣߍ
ߞߣߍߡߦߊ
ߞߣߍߦߊ
ߞߣߐ
ߞߣߐߓߐߣߍ
ߞߣߐߕߊ
ߞߣߐߘߌߡߌ
ߞߣߐߘߏ
ߞߣߐߘߐ
ߞߣߐߘߐߕߊ
ߞߣߐߘߐߘߌ
ߞߣߐߘߐߘߌߦߊ
ߞߣߐߜߊ
ߞߣߐߝߋ
ߞߣߐߞߍ
ߞߣߐߞߍߟߌ
ߞߣߐߞߍߣߍ
ߞߣߐߞߏ
ߞߣߐߟߊ
ߞߣߐߟߊߘߐ
ߞߣߐߡߊ
ߞߣߐߡߊߓߐ
ߞߣߐߡߐ
ߞߣߴߊ
ߞߣߵߊ
ߞߣߵߏ
ߞߣߺߵߊ
ߞߦߊ
ߞߴ
ߞߴߊ
ߞߴߊߝߙߌߞߌ
ߞߴߊߟߊ
ߞߴߊߟߌߝߊ
ߞߴߊߟߎ
ߞߴߊߟߏߡߊ
ߞߴߊߡߋߙߌߞߌ
ߞߴߊߡߍߙߌߞߌ
ߞߴߌ
ߞߴߌߟߋ
ߞߴߏ
ߞߵ
ߞߵߊ
ߞߵߊߟߊ
ߞߵߊߟߎ
ߞߵߊߟߏߡߊ
ߞߵߌ
ߞߵߏ
ߞߺ
ߞߺߊ
ߞߺߐ
ߞߺߴߊ
ߞߺߵߊ
ߞߺߵߏ
ߞߺߺߺߊ
ߞߺߺߺߍ
ߟ
ߟߊ
ߟߊߌߝ
ߟߊߒߞߎ
ߟߊߒߠߦߊ
ߟߊߒߠߦߊߓߊ
ߟߊߒߡߊ
ߟߊߓߊ
ߟߊߓߋ
ߟߊߓߌ
ߟߊߓߍ
ߟߊߓߎ
ߟߊߓߏ
ߟߊߓߐ
ߟߊߓߐߓߊ
ߟߊߓߐߟߌ
ߟߊߓߕߐ
ߟߊߓߙߊ
ߟߊߓߙߌߦߊ
ߟߊߓߞߊߙߊ
ߟߊߓߺߺߺߋ
ߟߊߕߊ
ߟߊߕߊߡߌ
ߟߊߕߋ
ߟߊߕߋߟߋ
ߟߊߕߌ
ߟߊߕߍ
ߟߊߕߎ
ߟߊߕߎߣߎ
ߟߊߕߏ
ߟߊߕߏߟߏ
ߟߊߕߏߣߍ
ߟߊߕߐ
ߟߊߕߘߍ
ߟߊߕߙߊ
ߟߊߕߟߊ
ߟߊߕߟߊߟߌ
ߟߊߕߟߊߣߍ
ߟߊߖߊ
ߟߊߖߊߝߏ
ߟߊߖߌ
ߟߊߖߍ
ߟߊߖߎ
ߟߊߗߋ
ߟߊߗߌߙߏ
ߟߊߘߊ
ߟߊߘߋ
ߟߊߘߌ
ߟߊߘߌߦߊ
ߟߊߘߌߦߊߢߍ
ߟߊߘߌߦߊߢߍߓߊ
ߟߊߘߍ
ߟߊߘߎ
ߟߊߘߏ
ߟߊߘߐ
ߟߊߘߛߍߣߍ
ߟߊߘߛߏߣߍ
ߟߊߘߤߊ
ߟߊߘߤߵߊ
ߟߊߙߌ
ߟߊߛ
ߟߊߛߊ
ߟߊߛߋ
ߟߊߛߌ
ߟߊߛߌߦߊߦߊ
ߟߊߛߍ
ߟߊߛߍߥߊ
ߟߊߛߎ
ߟߊߛߎߘߊ
ߟߊߛߎߘߎ
ߟߊߛߏ
ߟߊߛߐ
ߟߊߛߐߘߐ
ߟߊߛߓߊ
ߟߊߛߙߋߦߊ
ߟߊߛߙߋߦߊߟߊ
ߟߊߛߙߎ
ߟߊߛߣߍ
ߟߊߛߴߊ
ߟߊߜ
ߟߊߜߊ
ߟߊߜߍ
ߟߊߜߍߣߍ
ߟߊߜߎ
ߟߊߜߏ
ߟߊߜߏߦߊߒߧߍ
ߟߊߜߏߦߊߢߍߓߊ
ߟߊߜߐߞߎߦߊ
ߟߊߜߟߍ
ߟߊߝ
ߟߊߝߊ
ߟߊߝߋ
ߟߊߝߋߝߋ
ߟߊߝߌ
ߟߊߝߌߙߌ
ߟߊߝߎ
ߟߊߝߎߟߋ
ߟߊߝߏ
ߟߊߝߏߦߌ
ߟߊߝߐ
ߟߊߝߘߌ
ߟߊߝߙߍ
ߟߊߝߛߊ
ߟߊߝߟߌ
ߟߊߝߟߐ
ߟߊߞߊ
ߟߊߞߋ
ߟߊߞߌ
ߟߊߞߌߙߊ
ߟߊߞߍ
ߟߊߞߎ
ߟߊߞߎߘߦߊ
ߟߊߞߎߙߊ
ߟߊߞߎߡߊ
ߟߊߞߎߣߎ
ߟߊߞߏ
ߟߊߞߏߝߐ
ߟߊߞߏߟߏ
ߟߊߞߏߟߐ
ߟߊߞߐ
ߟߊߞߐߛߊ
ߟߊߞߐߟߐ
ߟߊߞߘߎ
ߟߊߞߙߐ
ߟߊߞߙߐߛߌ
ߟߊߞߛߌ
ߟߊߞߟߏߞߟߏ
ߟߊߞߢߊ
ߟߊߟߊ
ߟߊߟߊߣߍ
ߟߊߟߌ
ߟߊߟߌߓߊ
ߟߊߟߐ
ߟߊߡߊ
ߟߊߡߌ
ߟߊߡߌߣߌ
ߟߊߡߍ
ߟߊߡߍߣߍ
ߟߊߡߎ
ߟߊߡߎߣߎ
ߟߊߡߐ
ߟߊߡߐߣߍ
ߟߊߡߙߊ
ߟߊߢߊ
ߟߊߢߌ
ߟߊߢߌߣߌ
ߟߊߢߎ
ߟߊߢߐ
ߟߊߢߣߊߡߦߊ
ߟߊߣߊ
ߟߊߣߌ
ߟߊߣߌߥߌ
ߟߊߣߍ
ߟߊߣߐ
ߟߊߣߴߊ
ߟߊߤ
ߟߊߤߌ
ߟߊߥߊ
ߟߊߥߊߟߌ
ߟߊߥߌ
ߟߊߥߍ
ߟߊߥߎ
ߟߊߥߙߊ
ߟߊߥߙߎߞߌ
ߟߊߥߙߎߞߌߓߊ
ߟߊߥߙߎߞߟߌ
ߟߊߥߛߊ
ߟߊߥߛߎ
ߟߊߥߛߎߣߍ
ߟߊߥߟߌ
ߟߊߥߟߏ
ߟߊߥߟߏߟߊ
ߟߊߥߟߏߟߌ
ߟߊߦߌ
ߟߊߦߌߟߊ
ߟߊߦߍ
ߟߊߦߙߐ
ߟߊߦߟߍ
ߟߊߺߓߙߊ
ߟߊߺߞߙߐ
ߟߊߺߡߌ
ߟߊߺߣߍ
ߟߊߺߦߟߍ
ߟߋ
ߟߋߎ
ߟߋߏ
ߟߋߏߔߏߟߘ
ߟߋߏߣߊߙߘ
ߟߋߓߊ
ߟߋߓߋ
ߟߋߓߍ
ߟߋߓߐ
ߟߋߕߖ
ߟߋߘߌ
ߟߋߜ
ߟߋߜߊ
ߟߋߟߋ
ߟߋߟߋߘߊ
ߟߋߟߌ
ߟߋߟߎߡߊ
ߟߋߡߎ
ߟߋߡߙߎ
ߟߋߣߌ
ߟߋߥߊ
ߟߋߥߌߛ
ߟߋߦߌߔߑߖ
ߟߌ
ߟߌߍߗ
ߟߌߏߣߊߙߘ
ߟߌߓߊ
ߟߌߓߋߙߌߦߊ
ߟߌߓߋߙߌߦߞߊ
ߟߌߓߌ
ߟߌߓߎ
ߟߌߕߌߏߣߌ
ߟߌߕߎߊߣߌ
ߟߌߕߎߊߣߌߞߊ
ߟߌߕߏ
ߟߌߕߏߟ
ߟߌߖ
ߟߌߘ
ߟߌߘߊ
ߟߌߘߏߞߊߦߌߣ
ߟߌߛ
ߟߌߛߑߓߐ
ߟߌߛߑߓߐߣ
ߟߌߜ
ߟߌߝ
ߟߌߞ
ߟߌߞߊ
ߟߌߞߊߓߊߟߌߦߊ
ߟߌߞߎ
ߟߌߞߏ
ߟߌߞߐ
ߟߌߞߐߙߣ
ߟߌߞߓߊߟߌ
ߟߌߞߛ
ߟߌߞߦߊ
ߟߌߟ
ߟߌߟߊ
ߟߌߟߌ
ߟߌߡߊ
ߟߌߡߐ
ߟߌߤߎ
ߟߌߤߟߊ
ߟߌߦߊ
ߟߌߦߎ
ߟߍ
ߟߍߙߊ
ߟߍߙߊߓߏ
ߟߍߙߘߊ
ߟߍߟߋ
ߟߍߦߌߔߑߖ
ߟߎ
ߟߎߌߛ
ߟߎߓߊ
ߟߎߓߑߟߍ
ߟߎߕߊߙ
ߟߎߕߌ
ߟߎߕߍߙ
ߟߎߙߊ
ߟߎߛ
ߟߎߛߌ
ߟߎߞߑߛߍ
ߟߎߡ
ߟߎߡߊ
ߟߎߡߎ
ߟߎߡߐ
ߟߎߡߟߊ
ߟߎߣߊ
ߟߎߥߊ
ߟߎߥߌ
ߟߏ
ߟߏߕߋ
ߟߏߖ
ߟߏߘߡߌߙ
ߟߏߙߊ
ߟߏߙߌߦߊ
ߟߏߙߍ
ߟߏߟߊ
ߟߏߟߏ
ߟߏߡߊ
ߟߏߡߋ
ߟߏߡߍ
ߟߐ
ߟߐߘߎ
ߟߐߙߘ
ߟߐߟߊ
ߟߐߠߌ
ߟߐߣߌ
ߟߐߣߍ
ߟߐߥ
ߟߑߊ
ߟߑߝߐ
ߟߑߡߎ
ߟߓߊ
ߟߓߊߟߏ
ߟߓߌ
ߟߓߌߞߊ
ߟߕߊ
ߟߕߊߡߌ
ߟߖ
ߟߘߊ
ߟߛߊ
ߟߛߊߙߌ
ߟߛߊߣߊ
ߟߛߊߣߌ
ߟߛߊߣߌߧߊߣߍ
ߟߛߍ
ߟߜ
ߟߜߊߟߋ
ߟߝߊ
ߟߝߊߙߌ
ߟߞߊ
ߟߞߊߘߌ
ߟߞߊߟߌߦߊ
ߟߞߌ
ߟߞߌߛߍ
ߟߡߊ
ߟߢߊ
ߟߤߊ
ߟߤߊߕߍߦߊ
ߟߥߊ
ߟߥߊߟߌ
ߟߦߊ
ߟߴ
ߟߴߊ
ߟߴߊߖߌ
ߟߴߊߙߊߓߎ
ߟߴߊߝߙߌߞ
ߟߴߊߝߙߌߞߌ
ߟߴߊߟߊ
ߟߴߊߟߎ
ߟߴߊߟߏߡߊ
ߟߴߊߡߋߙߌߞߌ
ߟߴߌ
ߟߴߌߞߘߐ
ߟߴߏ
ߟߵ
ߟߵߊ
ߟߵߊߟߊ
ߟߵߏ
ߟߺߊ
ߟߺߎ
ߟߺߴߊ
ߟߺߵߊ
ߟߺߺߊ
ߟߺߺߺߊ
ߟߺߺߺߋ
ߟߺߺߺߎ
ߠ
ߠߊ
ߠߊߓߊ
ߠߊߓߋ
ߠߊߓߌ
ߠߊߓߌߟߊ
ߠߊߓߌߟߊߟߌ
ߠߊߓߌߟߊߣߍ
ߠߊߓߐ
ߠߊߓߙߊ
ߠߊߕߊ
ߠߊߕߋߟߋ
ߠߊߕߍ
ߠߊߕߏߣߍ
ߠߊߕߐ
ߠߊߕߘߍ
ߠߊߖߊ
ߠߊߖߌ
ߠߊߖߍ
ߠߊߘߊ
ߠߊߘߌ
ߠߊߘߌߦߊߟߊ
ߠߊߘߌߦߊߢߍ
ߠߊߘߍ
ߠߊߘߎ
ߠߊߘߏ
ߠߊߘߤߊ
ߠߊߛߊ
ߠߊߛߋ
ߠߊߛߌ
ߠߊߛߐ
ߠߊߛߐߘߐ
ߠߊߛߓߊ
ߠߊߛߙߋߦߊ
ߠߊߛߴߊ
ߠߊߜߎ
ߠߊߜߏߦߊߢߍ
ߠߊߝߊ
ߠߊߝߎߟߋ
ߠߊߝߏ
ߠߊߝߛߊ
ߠߊߝߟߌ
ߠߊߞߊ
ߠߊߞߋ
ߠߊߞߎ
ߠߊߞߏ
ߠߊߞߏߟߐ
ߠߊߞߙߐ
ߠߊߞߟߏߞߟߏ
ߠߊߟߐ
ߠߊߡߊ
ߠߊߡߌ
ߠߊߡߌߣߌ
ߠߊߡߐ
ߠߊߡߙߊ
ߠߊߢߊ
ߠߊߢߎ
ߠߊߣߐ
ߠߊߥߊ
ߠߊߥߌ
ߠߊߥߎ
ߠߊߥߎߟߋ
ߠߊߥߙߊ
ߠߊߥߙߎߞߌ
ߠߊߥߟߌ
ߠߊߥߟߏ
ߠߊߦߟߍ
ߠߊߺߓߌߘߌ
ߠߊߺߖߌ
ߠߋ
ߠߌ
ߠߌߦߊ
ߠߍ
ߠߎ
ߠߐ
ߠߓߊ
ߠߕߊ
ߠߕߊߡߌ
ߠߛߊߦߌ
ߠߝߊ
ߠߞߊ
ߠߡߊ
ߠߥߊ
ߠߴ
ߠߴߊ
ߠߴߊߟߊ
ߠߴߊߟߎ
ߠߴߌ
ߠߴߏ
ߠߵߊ
ߠߵߏ
ߠߺߋ
ߠߺߵߊ
ߡ
ߡߊ
ߡߊߊ
ߡߊߌߞ
ߡߊߌߞߊߍߟ
ߡߊߌߞߑߙߏߛߐߝ
ߡߊߌߞߙߏߛߐߝߕ
ߡߊߓߊ
ߡߊߓߌ
ߡߊߓߌߟߊ
ߡߊߓߍ
ߡߊߓߏ
ߡߊߓߏߙߌ
ߡߊߓߏߙߌߟߊ
ߡߊߓߐ
ߡߊߓߐߣߍ
ߡߊߓߘߍ
ߡߊߕߊ
ߡߊߕߋ
ߡߊߕߌ
ߡߊߕߍ
ߡߊߕߎ
ߡߊߕߐ
ߡߊߕߙߊ
ߡߊߕߡߊߣߊ
ߡߊߖ
ߡߊߖߊ
ߡߊߖߌ
ߡߊߖߍ
ߡߊߖߎ
ߡߊߖߐ
ߡߊߗ
ߡߊߗߍ
ߡߊߘ
ߡߊߘߊ
ߡߊߘߋ
ߡߊߘߌ
ߡߊߘߌߡߌ
ߡߊߘߌߦߊ
ߡߊߘߍ
ߡߊߘߎ
ߡߊߘߏ
ߡߊߘߐ
ߡߊߘߐߕߊ
ߡߊߘߙߌߘ
ߡߊߙߊ
ߡߊߙߌ
ߡߊߙߌߞߛߌߟߞߊ
ߡߊߙߌߣߍߙ
ߡߊߙߌߥߊ
ߡߊߙߌߦߊ
ߡߊߙߌߦߊߡ
ߡߊߙߌߦߊߡߎ
ߡߊߙߌߦߏߔߐߟ
ߡߊߙߌߦߔߏߟ
ߡߊߙߌߦߡߊ
ߡߊߙߑߕߊ
ߡߊߙߑߕߍ
ߡߊߙߑߛ
ߡߊߙߑߛߍߟ
ߡߊߙߑߛߍߦߌ
ߡߊߙߑߜ
ߡߊߙߑߞߏ
ߡߊߙߑߞߛ
ߡߊߛߊ
ߡߊߛߊߡߊ
ߡߊߛߋ
ߡߊߛߌ
ߡߊߛߌߟߊ
ߡߊߛߌߣߞߊ
ߡߊߛߍ
ߡߊߛߎ
ߡߊߛߎߘߎ
ߡߊߛߐ
ߡߊߛߐߟߊ
ߡߊߛߑߊ
ߡߊߛߑߟߏ
ߡߊߛߓߍ
ߡߊߛߓߍߟߊ
ߡߊߛߓߍߣߍ
ߡߊߛߘߌ
ߡߊߛߘߍ
ߡߊߛߙߊ
ߡߊߛߙߋ
ߡߊߛߙߋߡߊ
ߡߊߛߴߊ
ߡߊߜ
ߡߊߜߍ
ߡߊߜߐ
ߡߊߜߙߏ
ߡߊߜߟߍ
ߡߊߝߊ
ߡߊߝߌ
ߡߊߝߍߣߍ
ߡߊߝߏ
ߡߊߝߐ
ߡߊߝߘߏ
ߡߊߝߟߌ
ߡߊߝߟߍ
ߡߊߞ
ߡߊߞߊ
ߡߊߞߊߘߊ
ߡߊߞߊߣߌ
ߡߊߞߌ
ߡߊߞߌߡߊߞߌ
ߡߊߞߍ
ߡߊߞߍߘߊ
ߡߊߞߍߟߌ
ߡߊߞߍߣߍ
ߡߊߞߍߦߌߟߊ
ߡߊߞߍߦߙߐ
ߡߊߞߎ
ߡߊߞߎߟߎ
ߡߊߞߏ
ߡߊߞߏߕߏ
ߡߊߞߐ
ߡߊߞߐߣߐ
ߡߊߞߓߊߣߍ
ߡߊߞߕߌ
ߡߊߞߘߎ
ߡߊߞߛ
ߡߊߞߞߊ
ߡߊߞߟߌ
ߡߊߞߟߍ
ߡߊߟ
ߡߊߟߊ
ߡߊߟߋ
ߡߊߟߌ
ߡߊߟߌߞ
ߡߊߟߌߞߊ
ߡߊߟߍߖ
ߡߊߟߐ
ߡߊߟߑߕߏߣߌ
ߡߊߟߑߞߐߟߡ
ߡߊߟߛߍ
ߡߊߟߛߍߣߍ
ߡߊߟߞߌߟߞߊ
ߡߊߡ
ߡߊߡߊ
ߡߊߡߊߘߌ
ߡߊߡߋߟߐ
ߡߊߡߌ
ߡߊߡߎ
ߡߊߡߐ
ߡߊߡߙߊ
ߡߊߡߣߌߡߌߣߌ
ߡߊߢߊ
ߡߊߢߌ
ߡߊߢߌߣߌ
ߡߊߢߍ
ߡߊߢߎߛ
ߡߊߢߐ
ߡߊߣߊ
ߡߊߣߌ
ߡߊߣߌߢߊ
ߡߊߣߍ
ߡߊߣߎ
ߡߊߣߎߍߟ
ߡߊߣߐ
ߡߊߤߺߘߌ
ߡߊߥߋ
ߡߊߥߙߌ
ߡߊߥߙߍߥߙߍ
ߡߊߦߋߙߋ
ߡߊߦߍ
ߡߊߦߑߞߍߟ
ߡߊߦߟߍ
ߡߊߦߟߍߡߊ
ߡߊߺߊ
ߡߋ
ߡߋߕߏߘߌߛߕ
ߡߋߖ
ߡߋߘߌߕߋߙߊߣߌ
ߡߋߘߌߖߌߣ
ߡߋߘߌߦߊ
ߡߋߙߋ
ߡߋߛ
ߡߋߞߐ
ߡߋߣߞߊ
ߡߌ
ߡߌߕߋߙߊ
ߡߌߘߊ
ߡߌߙߌ
ߡߌߙߌߦߊ
ߡߌߙߎ
ߡߌߛ
ߡߌߛߊ
ߡߌߛߌ
ߡߌߛߌߙߊ
ߡߌߛߍ
ߡߌߛߎߙߌ
ߡߌߛߦߊ
ߡߌߜ
ߡߌߞ
ߡߌߞߊ
ߡߌߞߊߌߟ
ߡߌߞߊߍߟ
ߡߌߞߙߏߛߐߝߕ
ߡߌߞߙߐߛߐߝߕ
ߡߌߟߊ
ߡߌߟߏ
ߡߌߢߊ
ߡߌߣ
ߡߌߣߊ
ߡߌߣߊߕߊ
ߡߌߣߌ
ߡߌߦߊ
ߡߍ
ߡߍߓߊߟߌߦߊ
ߡߍߘ
ߡߍߙߍ
ߡߍߞߛߌߞ
ߡߍߞߛߌߞߏ
ߡߍߣߍ
ߡߍߦߊ
ߡߎ
ߡߎߊ
ߡߎߍ
ߡߎߔߑߕߌ
ߡߎߕ
ߡߎߕߎ
ߡߎߖ
ߡߎߘ
ߡߎߘߎ
ߡߎߙߊ
ߡߎߙߊߕߎ
ߡߎߙߎ
ߡߎߛ
ߡߎߛߊ
ߡߎߛߊߘߎ
ߡߎߛߏߟߣߌ
ߡߎߛߑߕߊ
ߡߎߛߑߞߎ
ߡߎߛߟߌ
ߡߎߛߟߏߣߌ
ߡߎߛߦߊ
ߡߎߜ
ߡߎߝߑߕߌ
ߡߎߞߊ
ߡߎߣߊ
ߡߎߣߌߗ
ߡߎߣߎ
ߡߎߤߊ
ߡߎߤߊߡߍߘ
ߡߏ
ߡߏߔߑߕߌ
ߡߏߕߌ
ߡߏߖ
ߡߏߘߌߓߏ
ߡߏߘߌߓߐ
ߡߏߙߊߝ
ߡߏߙߌ
ߡߏߙߌߓߊ
ߡߏߙߌߓߜ
ߡߏߙߌߕߊߣߌ
ߡߏߙߌߘߋ
ߡߏߙߌߜߊߣߊ
ߡߏߙߌߞߍ
ߡߏߙߌߥߎߟߋ
ߡߏߙߌߦߊ
ߡߏߙߑߜ
ߡߏߜ
ߡߏߣߊߞߏ
ߡߏߤߊߡߍߘ
ߡߏߦߌ
ߡߏߦߌߓߊ
ߡߏߦߌߝߋ
ߡߏߦߌߣߍ
ߡߏߦߑߤߊߎߛ
ߡߏߦߟߌ
ߡߐ
ߡߐߍ
ߡߐߔߑߕߌ
ߡߐߙߐ
ߡߐߛߑߞߊߟߋ
ߡߐߛߑߞߎ
ߡߐߟߐ
ߡߐߟߑߤߐߎߛ
ߡߐߡߍ
ߡߐߣߍ
ߡߐߣߍߣߍ
ߡߑߞߊ
ߡߓߊ
ߡߓߊߟߌߡߊ
ߡߓߊߣߊ
ߡߕߊ
ߡߘߊ
ߡߘߊߜ
ߡߘߎ
ߡߘߎߦߊ
ߡߘߏ
ߡߙߊ
ߡߙߊߞߊ
ߡߙߊߡߊߛߌߟߊ
ߡߙߊߡߊߝߋ
ߡߙߋߟߊ
ߡߙߌ
ߡߙߌߘߐ
ߡߙߌߣߊ
ߡߙߌߦߊ
ߡߙߎ
ߡߙߎߕߊߣߌ
ߡߙߎߕߌ
ߡߙߎߖߊ
ߡߙߐ
ߡߛ
ߡߛߊ
ߡߛߊߛ
ߡߛߊߟߊ
ߡߛߊߦߌ
ߡߛߌ
ߡߛߌߙߊ
ߡߛߌߛߔߌ
ߡߛߌߟ
ߡߛߌߟߌ
ߡߛߍ
ߡߛߍߛߍߦߊ
ߡߛߍߞߍ
ߡߛߎߞߎ
ߡߛߏ
ߡߛߏߞߘߐ
ߡߛߏߣߍ
ߡߜ
ߡߝߊ
ߡߝߊߟߋ
ߡߝߊߣߍ
ߡߝߊߺߣߍ
ߡߞߊ
ߡߞߊߓߊߣߍ
ߡߞߊߘߊ
ߡߞߊߘߌ
ߡߞߊߙߊ
ߡߞߊߛߊ
ߡߞߊߞߊ
ߡߞߊߣߌ
ߡߞߌ
ߡߞߐ
ߡߟߊ
ߡߟߊߓߌߘߌ
ߡߟߊߡߟߊ
ߡߟߊߦߎ
ߡߟߋߞߎ
ߡߟߋߞߎߦߊ
ߡߟߋߞߎߦߟߊ
ߡߟߋߞߐߕ
ߡߟߌ
ߡߟߍ
ߡߟߎ
ߡߟߏߕߏߝ
ߡߢߊ
ߡߢߐߞߘߐ
ߡߢߐߡߢߐ
ߡߣߊ
ߡߣߊߕߊ
ߡߣߋߟߌߞ
ߡߣߌ
ߡߣߍ
ߡߣߍߡߣߍ
ߡߣߐ
ߡߤߊ
ߡߤߊߘߌ
ߡߤߊߘߌߦߊ
ߡߤߊߟ
ߡߤߊߟߌߦߊ
ߡߦߊ
ߡߴߊ
ߡߴߌ
ߡߴߏ
ߡߵ
ߡߵߊ
ߡߵߏ
ߡߺߴߊ
ߡߺߺߺߊ
ߢ
ߢߊ
ߢߊߓߐ
ߢߊߓߐߒߝߍ
ߢߊߓߐߟߌ
ߢߊߓߐߣߍ
ߢߊߓߘߍ
ߢߊߕߍ
ߢߊߖߌ
ߢߊߖߎ
ߢߊߘߊ
ߢߊߘߏ
ߢߊߘߐ
ߢߊߘߐߜߍ
ߢߊߙߌߢߊߙߌ
ߢߊߛߌ
ߢߊߛߌߝߊ
ߢߊߛߎߡߊ
ߢߊߛߎߡߊߣߍ
ߢߊߛߐ
ߢߊߝߍ
ߢߊߝߐ
ߢߊߝߐߟߌ
ߢߊߝߐߣߍ
ߢߊߞߊ
ߢߊߞߍ
ߢߊߞߎ
ߢߊߞߎߘߦߊ
ߢߊߞߎߘߦߊߟߌ
ߢߊߞߘߐ
ߢߊߞߘߐߘߌߦߊ
ߢߊߟߐ
ߢߊߡߊ
ߢߊߡߌߟߏߡߊ
ߢߊߡߌߣߊ
ߢߊߡߍ
ߢߊߢߌߣߌ
ߢߊߣߊ
ߢߊߣߌ
ߢߊߣߐ
ߢߊߦߋ
ߢߊߦߋߕߊ
ߢߊߦߋߟߌ
ߢߊߦߌ
ߢߊߦߌߘߊߟߌ
ߢߊߺߦߋ
ߢߋ
ߢߋߙߌ
ߢߋߙߌߡߦߊ
ߢߌ
ߢߌߡߊ
ߢߌߡߌ
ߢߌߣߊ
ߢߌߣߊߣߍ
ߢߌߣߌ
ߢߌߣߴߊ
ߢߍ
ߢߍߓߊ
ߢߍߓߌߟߊ
ߢߍߓߌߟߊߓߊ
ߢߍߓߍ
ߢߍߕߊ
ߢߍߕߍ
ߢߍߕߎ
ߢߍߖߊ
ߢߍߛߌ
ߢߍߛߌߟߊ
ߢߍߛߐ
ߢߍߛߐߘߐ
ߢߍߛߓߍ
ߢߍߛߵߕߙߎ
ߢߍߝߍ
ߢߍߞߌߣߦߊ
ߢߍߞߐߣߐ
ߢߍߟߊ
ߢߍߟߐ
ߢߍߡߌ
ߢߍߡߌߘߊ
ߢߍߡߌߘߊߓߊ
ߢߍߡߌߘߦߊ
ߢߍߡߐ
ߢߍߣߍ
ߢߍߥߟߊ
ߢߍߥߟߊߦߊߟߌ
ߢߍߥߟߊߦߊߟߌߟߊ
ߢߍߥߟߊߦߟߊ
ߢߎ
ߢߎߡߊ
ߢߎߡߍ
ߢߎߡߍߙߋ
ߢߎߡߍߞߏ
ߢߎߡߍߦߊ
ߢߏ
ߢߐ
ߢߐߛߌ
ߢߓߊ
ߢߘߊ
ߢߙߊ
ߢߙߋߙߋ
ߢߜߊ
ߢߝߊߟߋ
ߢߝߍߕߊ
ߢߝߍߟߊ
ߢߞߊ
ߢߟߊ
ߢߟߊߞߌߦߊ
ߢߟߊߞߏߟߏ
ߢߟߊߦߊ
ߢߟߋߢߟߋ
ߢߡߊ
ߢߡߊߘߏ
ߢߡߊߞߊߘߌ
ߢߡߊߞߍ
ߢߡߊߞߏߖߎ
ߢߡߊߞߟߊ
ߢߡߊߟߊ
ߢߡߊߟߐ
ߢߡߊߦߟߍ
ߢߡߊߦߟߍߡߊ
ߢߣߊ
ߢߣߊߓߊ
ߢߣߊߕߊ
ߢߣߊߕߊߟߌ
ߢߣߊߕߍ
ߢߣߊߕߐ
ߢߣߊߜߍ
ߢߣߊߡߊ
ߢߣߊߡߦߊ
ߢߣߊߦߊ
ߢߣߍ
ߢߴߊ
ߢߺߌ
ߣ
ߣߊ
ߣߊߓߊ
ߣߊߓߌ
ߣߊߕ
ߣߊߕߊ
ߣߊߕߍ
ߣߊߖ
ߣߊߖߘߌ
ߣߊߘ
ߣߊߘߋ
ߣߊߙߊ
ߣߊߙߋ
ߣߊߙߌ
ߣߊߛ
ߣߊߛߌ
ߣߊߛߌߦߐߣߊߟߌ
ߣߊߛߍ
ߣߊߛߍߙ
ߣߊߞߋߟߋ
ߣߊߞߍ
ߣߊߞߐ
ߣߊߞߘߐߝߋ
ߣߊߟ
ߣߊߟߌ
ߣߊߟߌߡߎ
ߣߊߟߏ
ߣߊߟߐ
ߣߊߡߊ
ߣߊߡߌߓߌ
ߣߊߡߎ
ߣߊߡߓߌ
ߣߊߡߙߊ
ߣߊߣ
ߣߊߣߊ
ߣߊߣߌ
ߣߊߣߐ
ߣߊߥߎ
ߣߊߥߟߏ
ߣߊߺߡߎ
ߣߋ
ߣߋߊ
ߣߋߌ
ߣߋߏ
ߣߋߓߙߊ
ߣߋߕߏ
ߣߋߖ
ߣߋߛ
ߣߋߜ
ߣߋߝ
ߣߋߟߑߛߐ
ߣߋߡߊ
ߣߌ
ߣߌߎߛ
ߣߌߔߐ
ߣߌߕߊ
ߣߌߖ
ߣߌߗ
ߣߌߘߐ
ߣߌߘߐߟߐ
ߣߌߙߑߟߊ
ߣߌߛ
ߣߌߛߊߦߌ
ߣߌߛߐ
ߣߌߞߊ
ߣߌߞߎߣߎ
ߣߌߞߏߟߊ
ߣߌߞߏߟߊߌ
ߣߌߞߏߟߊߛ
ߣߌߞߐߘ
ߣߌߟ
ߣߌߟߊߝߌ
ߣߌߟߊߞߟߌ
ߣߌߟߌ
ߣߌߟߐ
ߣߌߡߊ
ߣߌߡߊߝߋ
ߣߌߡߊߣߐ
ߣߌߡߦߊ
ߣߌߣߊ
ߣߌߤߐ
ߣߌߥߦ
ߣߌߦߊ
ߣߌߦߎߛ
ߣߌߦߥ
ߣߍ
ߣߍߕߑߛߞ
ߣߍߛߌ
ߣߍߛߑߞߏ
ߣߍߛߞߏ
ߣߍߡߊ
ߣߍߣߍ
ߣߍߣߍߓߊ
ߣߍߣߍߛߌ
ߣߎ
ߣߎߔߋߘߌߦߊ
ߣߎߙߊ
ߣߎߡߊ
ߣߎߤߊ
ߣߏ
ߣߏߙߊ
ߣߏߙߊߛߏߓߊ
ߣߏߙߊߛߏߓߞߊ
ߣߏߙߊߞߘߐ
ߣߐ
ߣߐߓߍߟ
ߣߐߙߑߝ
ߣߐߙߑߡߊ
ߣߐߡߊ
ߣߐߣߐ
ߣߐߣߐߛߌ
ߣߓߊ
ߣߕߊ
ߣߖ
ߣߗߊ
ߣߘߊ
ߣߘߍ
ߣߘߐ
ߣߘߐߟߊ
ߣߙߊ
ߣߙߊߣߍ
ߣߙߊߺߣߍ
ߣߛߊ
ߣߛߌ
ߣߜ
ߣߝߊ
ߣߝߊߖߌߞߊ
ߣߞߊ
ߣߡߊ
ߣߡߊߙߊ
ߣߡߊߣߍ
ߣߡߊߦߊߟߊ
ߣߡߌߛߊ
ߣߡߐ
ߣߦߊ
ߣߴ
ߣߴߊ
ߣߴߊߖ
ߣߴߊߙߊߓߎ
ߣߴߊߛ
ߣߴߊߝߙߌߞߌ
ߣߴߊߟߊ
ߣߴߊߟߎ
ߣߴߊߟߏߡߊ
ߣߴߊߡߋߙߌߞߌ
ߣߴߊߡߍߙߌߞߌ
ߣߴߌ
ߣߴߌߕߊߟߌ
ߣߴߌߙߑߟߊ
ߣߴߌߟߋ
ߣߴߏ
ߣߵ
ߣߵߊ
ߣߵߏ
ߣߺߴߊ
ߣߺߴߌ
ߣߺߴߏ
ߣߺߵߊ
ߣߺߺߺߌ
ߤ
ߤߊ
ߤߊߌߕߌ
ߤߊߌߘߌ
ߤߊߎߛ
ߤߊߓߙߋ
ߤߊߓߛߑߓߎߙߜ
ߤߊߖߊ
ߤߊߘߌ
ߤߊߘߙߊ
ߤߊߙߊ
ߤߊߙߌ
ߤߊߙߌߛ
ߤߊߙߑߝ
ߤߊߙߑߟߍߡ
ߤߊߛ
ߤߊߛߊ
ߤߊߝ
ߤߊߝߌ
ߤߊߝߌߦߊ
ߤߊߝߑߖ
ߤߊߞߍ
ߤߊߞߍߕߏ
ߤߊߞߟߌ
ߤߊߞߟߌߡߊ
ߤߊߞߟߌߡߦߊ
ߤߊߞߟߌߣߊ
ߤߊߟߋ
ߤߊߟߌ
ߤߊߟߌߗ
ߤߊߟߌߣߊ
ߤߊߟߴߊ
ߤߊߟߴߌ
ߤߊߟߴߏ
ߤߊߟߵߊ
ߤߊߡߊ
ߤߊߡߊߘ
ߤߊߡߌ
ߤߊߡߍߘ
ߤߊߥߎߛߊ
ߤߊߥߑߞߊ
ߤߊߦߌߘߙߊ
ߤߊߦߑߘߙߊ
ߤߊߦߕߌ
ߤߋ
ߤߋߟߍ
ߤߌ
ߤߌߋߘߑߟߍߙ
ߤߌߕߑߟߍߙ
ߤߌߙߐ
ߤߌߙߐߤߌߕߏ
ߤߌߛ
ߤߌߛߍߣ
ߤߌߡ
ߤߌߡߊ
ߤߌߣߊ
ߤߌߣߟߊ
ߤߌߣߴߊ
ߤߍ
ߤߍߙߑߖ
ߤߍߙߑߡߊ
ߤߎ
ߤߎߘߌߦߊ
ߤߎߙߌߞߊ
ߤߎߜ
ߤߎߝߎߋߕ
ߤߎߥߍߕ
ߤߏ
ߤߏߕ
ߤߏߞߌ
ߤߏߟߊ
ߤߏߥߊ
ߤߐ
ߤߐߓߏ
ߤߐߜ
ߤߐߞߎ
ߤߓߊߛ
ߤߖߊ
ߤߖߌ
ߤߘ
ߤߘߌ
ߤߙߊ
ߤߙߊߡ
ߤߙߍ
ߤߙߍߡߊ
ߤߙߍߡߊߞߐߣߐ
ߤߙߐ
ߤߙߐߘߎ
ߤߙߐߦߊ
ߤߙߐߦߊߣߍ
ߤߛߊߣ
ߤߝ
ߤߟߊ
ߤߟߌ
ߤߟߴߊ
ߤߡߊ
ߤߡߊߘ
ߤߡߊߣߊ
ߤߣߍ
ߤߥߊ
ߤߦߊ
ߥ
ߥߊ
ߥߊߌ
ߥߊߌߜ
ߥߊߕ
ߥߊߕߌ
ߥߊߕߐ
ߥߊߕߙߊ
ߥߊߘ
ߥߊߘߌ
ߥߊߘߌߜߍ
ߥߊߘߏ
ߥߊߙߊ
ߥߊߙߑߛ
ߥߊߛ
ߥߊߛߏ
ߥߊߛߏߟߏ
ߥߊߝߍ
ߥߊߟ
ߥߊߟߊ
ߥߊߟߌ
ߥߊߟߌߕߊ
ߥߊߟߌߘߊ
ߥߊߟߌߛ
ߥߊߟߌߞߊ
ߥߊߟߌߢߊ
ߥߊߟߌߢߌߡߊߟߐ
ߥߊߟߌߦߊ
ߥߊߟߑߕߊ
ߥߊߟߖߌ
ߥߊߟߢߌߡߊߟߐ
ߥߊߢߊ
ߥߊߢߌ
ߥߊߣߊ
ߥߊߣߍ
ߥߊߦ
ߥߊߦߌ
ߥߊߦߌߞߊ
ߥߋ
ߥߋߌߡߊߙ
ߥߋߟߌߛ
ߥߋߟߑߕߊ
ߥߌ
ߥߌߕߑߡߊ
ߥߌߕߖ
ߥߌߛ
ߥߌߞߌ
ߥߌߟߊ
ߥߌߟߊߣߊ
ߥߌߟߑߛߐ
ߥߌߟߑߤߍߟߡ
ߥߌߟߑߦߊߡ
ߥߌߟߕ
ߥߍ
ߥߍߓ
ߥߍߔ
ߥߍߙߑߝߍߙ
ߥߍߙߣߑߤߍߙ
ߥߍߛߑߕ
ߥߍߛߕ
ߥߍߟߕ
ߥߍߤߑߡߊߗ
ߥߍߤߑߡߊߗߕ
ߥߎ
ߥߎߙߊ
ߥߎߙߋ
ߥߎߛߋ
ߥߎߞߙߐ
ߥߎߟߊ
ߥߎߟߊߟߊ
ߥߎߟߊߟߊߖߛߐ
ߥߎߟߊߟߊߜߊ
ߥߎߟߋ
ߥߎߟߋߡߊ
ߥߎߟߘߊ
ߥߎߢߊ
ߥߎߦߊ
ߥߎߦߋ
ߥߎߦߡߊ
ߥߏ
ߥߏߎ
ߥߏߘߌ
ߥߏߘߌߜߍ
ߥߏߟߋߥߏߟߋߦߊ
ߥߏߦߊ
ߥߏߦߌߞߊ
ߥߐ
ߥߐߘߐ
ߥߐߙߐ
ߥߐߙߑߜ
ߥߐߙߘ
ߥߐߟ
ߥߐߟߝ
ߥߓߊ
ߥߕߊߙߊ
ߥߕߎ
ߥߘߊ
ߥߘߊߓߊ
ߥߘߊߦߊ
ߥߘߋ
ߥߘߎ
ߥߘߏߖߐ
ߥߘߴߊ
ߥߙߊ
ߥߙߊߞߊ
ߥߙߌ
ߥߙߌߞߌ
ߥߙߍ
ߥߙߍߓߊ
ߥߙߍߓߊߓߊ
ߥߙߎ
ߥߙߎߞߌ
ߥߙߎߞߌߣߍ
ߥߙߎߣߍ
ߥߙߎߣߍߦߊ
ߥߙߎߣߍߦߊߟߌ
ߥߙߎߣߍߦߟߊ
ߥߙߏ
ߥߙߏߝߋ
ߥߙߐ
ߥߛߊ
ߥߛߎ
ߥߛߎߓߏ
ߥߛߎߘߋ
ߥߛߎߟߊ
ߥߛߎߟߊߘߋ
ߥߜ
ߥߞߊ
ߥߞߌ
ߥߞߌߔߋߘߌߦߊ
ߥߞߌߘߕߊ
ߥߞߌߡߋߘߌߦߊ
ߥߟߊ
ߥߟߊߛߊ
ߥߟߊߞߌ
ߥߟߊߞߏ
ߥߟߊߥߟߊ
ߥߟߋ
ߥߟߋߕߋ
ߥߟߋߟߌ
ߥߟߌ
ߥߟߌߦߊ
ߥߟߌߦߊߡ
ߥߟߍ
ߥߟߎ
ߥߟߏ
ߥߟߏߒߘߐ
ߥߟߏߒߘߐߦߊ
ߥߟߏߘߊ
ߥߟߏߛߏ
ߥߟߏߛߟߎ
ߥߟߏߟߊ
ߥߟߏߡߊ
ߥߟߏߡߊߟߌ
ߥߟߐ
ߥߟߐߝߐ
ߥߟߴߊ
ߥߢߊ
ߥߣߊ
ߥߣߊߟߋ
ߥߣߍ
ߥߤߊ
ߥߤߊߓ
ߥߦߊ
ߥߦߏ
ߥߦߐ
ߥߴߊ
ߥߴߊߟߎ
ߥߴߌ
ߥߴߏ
ߥߵߊ
ߦ
ߦߊ
ߦߊߘߌ
ߦߊߛߌߣ
ߦߊߞߏ
ߦߊߟ
ߦߊߟߊ
ߦߊߟߌ
ߦߊߟߞߊ
ߦߊߡߊ
ߦߊߡߎߛߏ
ߦߊߡߛߏ
ߦߊߣߊ
ߦߊߣߌ
ߦߊߣߍ
ߦߊߦߊ
ߦߊߦߺߊ
ߦߋ
ߦߋߕߊ
ߦߋߗߏ
ߦߋߙߋ
ߦߋߝߊߘߌ
ߦߋߞߏߓߊ
ߦߋߟߊ
ߦߋߟߋ
ߦߋߟߌ
ߦߋߟߌߟߊ
ߦߋߢߊ
ߦߋߢߐ
ߦߋߣߍ
ߦߌ
ߦߌߘߊ
ߦߌߘߊߞߊ
ߦߌߟߊ
ߦߌߟߌ
ߦߌߟߡߊ
ߦߌߟߡߊߛߙߋ
ߦߍ
ߦߍߟߑߛߌߣ
ߦߎ
ߦߎߕߎߓ
ߦߎߛ
ߦߎߜ
ߦߏ
ߦߏߙߎߓߊ
ߦߏߡ
ߦߏߡߎ
ߦߐ
ߦߐߙߞ
ߦߕߊ
ߦߘߊ
ߦߙߊ
ߦߙߋߞߋ
ߦߙߋߟߋ
ߦߙߌ
ߦߙߌߕߘߎߟߊ
ߦߙߌߖߎ
ߦߙߌߘߋ
ߦߙߌߛߎ
ߦߙߌߝߘߏ
ߦߙߌߞߊ
ߦߙߌߞߊߖߊ
ߦߙߌߞߊߟߌ
ߦߙߌߟߋ
ߦߙߌߡߊߛߙߋ
ߦߙߌߥߊ
ߦߙߌߥߊߟߌ
ߦߙߌߥߊߣߍ
ߦߙߌߦߊ
ߦߙߍ
ߦߙߍߞߍߟߌ
ߦߙߍߞߍߣߍ
ߦߙߍߡߊ
ߦߙߍߦߙߍ
ߦߙߎ
ߦߙߐ
ߦߙߐߓߊ
ߦߛ
ߦߛߌ
ߦߛߎߝߎ
ߦߝߊ
ߦߞߏ
ߦߟߊ
ߦߟߊߞߊ
ߦߟߌ
ߦߟߌߓߌߟߊ
ߦߟߌߘߏ
ߦߟߌߟߊ
ߦߟߌߟߊߕߍ
ߦߟߌߟߊߡߌߛߍ
ߦߟߌߡߊ
ߦߟߌߡߊߘߌߦߊ
ߦߟߌߡߊߛߙߋ
ߦߟߌߡߊߟߐ
ߦߟߌߣߐ
ߦߟߌߣߐߕߊ
ߦߟߌߦߊ
ߦߟߌߦߊߟߌ
ߦߟߍ
ߦߟߍߡߊ
ߦߟߍߡߊߞߏ
ߦߡߊ
ߦߡߊߣߌ
ߦߣߎߛߊ
ߦߴ
ߦߴߊ
ߦߴߊߛ
ߦߴߊߝߙߌߞߌ
ߦߴߊߟߊ
ߦߴߊߟߎ
ߦߴߊߟߏߡߊ
ߦߴߊߡߋߙߌߞߌ
ߦߴߋߙߐߔߎ
ߦߴߌ
ߦߴߌߘߐ
ߦߴߏ
ߦߴߦߋ
ߦߵߊ
ߦߵߌ
ߦߺߊ
ߦߺߋ
ߦߺߌ
ߦߺߴߊ
ߦߺߴߏ
ߧ
ߧߊ
ߧߊߓߊ
ߧߊߟߊ
ߧߊߟߌ
ߧߊߣߍ
ߧߋ
ߧߍ
ߧߟߊ
ߧߴߊ
ߧߴߊߟߊ
ߧߴߊߟߎ
ߧߴߌ
ߧߴߏ
ߧߺߴߊ
ߪ
߫
߬
߭
߮
߯
߰
߱
߲
߳
ߴ
ߵ
ߵߊ
߶
߷
߸
߹
ߺ
ߺߊ
ߺߊߓߊ
ߺߊߓߎ
ߺߊߓߑߘߎߟ
ߺߊߓߑߘߎߟߟߊ
ߺߊߖ
ߺߊߥߊ
ߺߊߺߊ
ߺߋ
ߺߋߺߋ
ߺߌ
ߺߍߺߍ
ߺߎ
ߺߎߘ
ߺߓߊ
ߺߓߎ
ߺߓߙߊ
ߺߕߊ
ߺߕߌ
ߺߗ
ߺߛ
ߺߛߊ
ߺߝߏ
ߺߞ
ߺߞߌ
ߺߞߏ
ߺߞߺߊ
ߺߟߊ
ߺߟߌߦߎ
ߺߟߎ
ߺߟߺߌ
ߺߠߊ
ߺߡߊ
ߺߡߊߦߟߍ
ߺߣߌ
ߺߣߍ
ߺߣߺߌ
ߺߺߺߺ
त
न
ब
र
श
ा
ि
े
ो
्
ਿ
ੇ
ନ
ର
ି
େ
୍
ൈ
ൻ
්
ි
ร
ี
์
ີ
ဒ
န
မ
အ
ါ
ိ
ီ
ု
့
း
ြ
ᛢ
᛫
᛬
᛭
ᛯ
ជ
ឌ
ណ
ធ
ប
ព
ម
រ
ល
ស
អ
ា
ី
ុ
េ
ែ
ំ
ះ
្
‌
‍
‎
‏
–
—
‘
’
“
”
•
…
′
€
℡
→
↔
↷
−
③
④
⑦
◌
☉
☎
☏
☿
♀
♂
♃
♄
♆
♇
⚽
⛢
✆
✍
✓
✔
⯓
ⴰ
ⴸ
ⴹ
ⴼ
ⵉ
ⵍ
ⵎ
ⵏ
ⵓ
ⵔ
ⵖ
ⵙ
ⵜ
⺀
⺄
⺆
⺈
⺊
⺌
⺕
⺝
⺸
⺼
⿰
⿱
⿲
⿳
⿴
⿵
⿶
⿷
⿸
⿹
⿺
⿻
《
》
〢
コ
ユ
㇁
㇂
㇄
㇇
㇈
㇉
㇓
㐁
㐄
㐅
㐌
㐫
㐬
㐭
㐮
㐱
㑒
㒵
㒸
㒼
㓁
㓞
㔾
㕛
㕣
㖾
㘝
㚅
㚇
㚔
㚘
㝉
㝡
㝴
㝵
㞋
㞢
㞷
㠩
㠭
㠯
㡀
㡭
㡿
㢲
㢴
㣇
㣺
㥯
㪅
㫄
㫐
㫒
㫺
㬅
㬎
㬥
㬰
㲋
㳄
㷠
㸒
㸚
㸦
㼌
㼲
㽞
㿟
䀠
䂞
䍃
䏍
䒑
䖍
䖒
䖝
䖵
䙴
䚻
䜌
䝿
䡛
䧹
䪞
一
丁
丂
七
丄
丅
丆
万
丈
三
上
下
丌
不
与
丏
丐
丑
专
且
丕
世
丘
丙
业
东
丞
丢
丣
两
严
並
丨
丩
个
丫
丬
中
丮
丰
丱
串
丵
丶
丷
丸
丹
为
主
丽
丿
乀
乂
乃
久
乆
乇
么
义
之
乌
乍
乎
乏
乐
乑
乔
乖
乗
乘
乙
乚
乛
乜
九
乞
也
习
乡
乳
乾
亀
亅
了
亇
予
争
事
二
亍
于
亏
亐
云
互
亓
五
井
亘
亚
亜
亞
亟
亠
亡
亢
交
亥
亦
产
亨
亩
享
京
亭
亮
亯
亰
亲
亳
亶
亷
人
亻
亼
亾
仁
今
介
仌
从
仐
仑
仒
仓
仕
他
付
仝
代
令
以
任
企
伊
伏
伐
休
会
伯
但
位
何
佘
余
作
佥
使
來
侈
侌
侖
侯
侵
便
保
俞
信
俣
修
倉
倍
候
倠
倭
備
僉
僕
儿
兀
允
兂
元
兄
充
兆
兇
先
光
兊
克
兌
免
兑
兒
兓
兔
党
兜
兟
入
內
全
兩
兪
八
公
六
兮
兰
共
关
兵
其
具
典
兹
兼
冀
冂
冃
冄
内
冈
冉
冊
冋
册
再
冎
冏
冐
冒
冓
冖
冗
冘
军
农
冝
冡
冥
冫
冬
冷
几
凡
凢
凵
凶
凷
凸
凹
出
函
凾
刀
刁
刂
刃
刄
刅
分
切
刍
刑
刕
刖
列
刘
则
初
別
利
别
到
制
刺
則
削
剌
前
剡
剽
劉
力
功
加
劦
助
劫
劳
劵
勃
勇
勉
勒
動
務
勞
勤
勹
勺
勻
勾
勿
匀
匂
包
匆
匈
匊
匋
匍
匕
化
北
匚
匝
匡
匪
匱
匸
匹
区
医
匽
匿
區
十
卂
千
卄
卅
卆
升
午
卉
半
卌
华
卑
卒
卓
单
卖
南
卜
卝
卞
占
卡
卢
卣
卤
卦
卩
卪
卬
卯
印
危
即
却
卵
卷
卸
卻
厂
厃
厄
历
厈
厉
厌
厓
厘
厚
原
厤
厥
厨
厭
厲
厶
厷
厸
去
厼
厽
叀
参
參
叅
又
叉
及
友
双
反
叐
发
叒
叔
叕
取
受
叚
叜
叟
口
古
句
另
叩
只
召
可
台
叱
史
右
叵
号
司
叹
吂
各
吅
合
吉
吊
吋
同
名
后
吏
向
吕
君
吝
吞
吟
否
含
启
吳
吴
吹
吾
呂
呆
呈
告
员
呙
周
命
咅
和
咎
咠
咢
咨
咸
咼
哀
品
哈
哉
員
哥
哲
唐
商
啇
問
啚
啬
啻
善
喜
喬
單
喿
嗇
噩
嚴
囊
囗
囘
囙
囚
四
回
囟
因
囧
囬
困
囱
囷
固
国
圂
圅
國
圍
圓
土
圡
圣
圥
在
圭
地
圶
圼
坐
坒
坚
坴
垂
垔
垚
埀
埃
埋
埶
執
基
堂
堅
堆
堇
堡
堯
塞
墨
壘
士
壬
壯
声
壳
壴
壹
壺
壽
夂
处
夅
夆
备
夊
夋
夌
复
夏
夒
夕
外
夗
夘
多
夜
夢
大
夨
天
太
夫
夬
夭
央
失
夲
头
夷
夸
夹
夻
夾
奂
奄
奇
奈
奉
奎
奏
奐
契
奓
奔
奚
奞
奠
奢
奥
奭
女
奴
奻
好
如
妄
妙
妟
妥
妻
妾
姑
委
姜
威
娄
婁
婴
嬰
嬴
子
孑
孔
孕
孖
字
存
孚
孛
孝
孟
季
孤
学
孫
孱
學
宀
宁
宂
它
宅
宇
守
安
宋
完
宏
宓
宗
官
定
宛
宜
宝
客
宣
室
宮
宰
害
家
容
宾
宿
寄
寅
密
富
寒
寛
察
寧
審
寫
寬
寮
寸
对
寺
寻
寽
対
寿
封
尃
射
将
將
專
尉
尊
尋
尌
對
小
少
尒
尓
尔
尖
尗
尚
尞
尢
尣
尤
尧
尨
尭
就
尸
尹
尺
尻
尼
尽
尾
尿
局
居
屈
屋
屎
屏
屑
展
屖
屚
属
屠
屡
屬
屮
屯
屰
山
屵
屾
岁
岂
岑
岡
岩
岳
岸
峯
島
崇
崑
崔
崖
崙
崩
嵬
嶲
巂
巛
川
州
巟
巠
巢
巤
工
左
巧
巨
巩
巫
差
己
已
巳
巴
巷
巸
巽
巾
巿
帀
市
布
希
帚
帛
帝
带
師
席
帶
常
干
平
年
幵
并
幷
幸
幺
幻
幼
幽
幾
广
広
庄
床
底
店
庚
府
度
庫
庭
庶
康
庸
廉
廌
廛
廣
廩
廴
延
廷
建
廾
廿
开
弁
弃
弄
弇
弋
式
弓
弔
引
弗
弘
弜
弟
弥
弦
弱
張
強
强
彊
彌
彎
彐
彑
当
彔
录
彖
彗
彡
形
彥
彦
彧
彭
彳
役
彼
往
待
律
徒
得
徙
從
復
微
徵
德
心
忄
必
忌
忍
志
忝
忠
忩
快
念
忽
忿
思
怠
急
怱
恆
恒
恩
恭
息
悉
患
悤
悲
悶
惠
惡
惢
愁
愈
意
愛
感
慈
慧
慮
憂
憲
應
戀
戈
戉
戊
戋
戌
戍
戎
成
我
戒
戔
或
戚
戠
戢
截
戲
戶
户
戹
戼
戾
房
所
扁
扇
手
扌
才
打
托
执
承
折
拉
拜
拿
掌
推
提
摩
支
攴
攵
收
攸
改
放
政
敄
敏
敕
敖
敗
敝
敞
敢
散
敦
敫
敬
数
敷
數
斂
文
斉
斊
斗
斤
斥
斩
斬
斯
新
方
於
施
斿
旁
旋
族
无
旡
既
旣
日
旦
旧
旨
早
旬
旱
旲
时
旾
昆
昇
昌
昍
明
昏
易
昔
昗
昜
星
春
昬
昭
是
昱
昴
昷
時
晃
晋
晏
普
景
晶
智
暑
暴
曇
曩
曰
曲
曳
更
曷
書
曹
曼
曾
替
最
朁
會
月
有
朋
服
朔
朕
朗
望
朝
木
朩
未
末
本
札
朮
术
朱
朵
朶
朿
杀
杏
杜
束
条
来
東
杲
杳
松
析
林
枚
果
枝
枲
枼
某
柔
查
柬
柰
柴
栗
校
桀
桑
桼
梁
條
梟
梨
棘
棠
棥
森
楚
業
楽
榮
樂
樊
欠
次
欣
欮
欲
欶
欽
款
歆
歇
歛
止
正
此
步
武
歨
歪
歮
歯
歰
歲
歴
歷
歸
歹
歺
死
殳
段
殷
殸
殹
殺
殻
殿
毋
毌
母
每
毒
比
毕
毚
毛
毳
氏
氐
民
气
氣
水
氵
氶
氷
永
氺
氾
求
汝
汞
江
沃
沓
沙
沝
泉
法
波
泣
泥
泰
洛
洪
活
派
流
浦
浪
浮
淡
淮
清
渚
渠
湯
滿
漸
火
灬
灭
灰
灵
灷
炅
炎
炏
炗
炙
炭
為
烈
烏
烝
焉
無
焦
焱
然
煞
熊
熏
燕
營
燮
爪
爫
爭
爯
爰
爱
爲
爵
父
爻
爽
爾
爿
片
牙
牚
牛
牜
牟
牢
牧
牪
牽
犀
犬
犭
犮
狂
狄
狊
独
狺
猋
猒
猪
献
獻
玄
率
玉
王
玟
玨
珎
班
琴
瑟
瑩
瓜
瓦
甘
甚
生
産
用
甫
甬
田
由
甲
申
电
甶
男
甸
甹
画
甾
畀
界
畏
畐
留
畜
畟
畢
畧
畨
番
畫
異
畱
當
畺
畾
疊
疋
疌
疑
疒
疾
癶
癸
癹
登
發
白
百
皀
皃
的
皆
皇
皋
皐
皕
皮
皷
皿
盃
盆
盇
盈
益
盍
盎
监
盒
盖
盛
盡
監
盤
盧
目
直
相
盾
省
眇
眉
看
眔
眞
真
眷
眼
眾
着
睘
睪
睿
瞏
瞢
瞿
矍
矛
矞
矢
矣
知
矦
短
石
破
碎
磊
磨
示
礻
礼
祟
票
祭
禀
禁
禸
禹
禺
离
禽
禾
禿
秀
秃
秉
秋
科
秝
秦
移
稟
穀
穌
穴
究
穹
空
穿
突
窄
窒
立
竒
竜
竝
竟
章
童
竹
笑
笠
第
筆
等
答
箕
算
箴
節
篤
篭
米
粉
粛
粟
粤
粦
粲
糞
糸
糹
系
約
納
素
索
紫
累
細
絜
絫
絲
維
綿
縣
繇
纍
纟
缶
网
罒
罔
罕
罗
罙
罡
罢
罪
署
罷
羅
羊
羌
羍
美
羔
羕
羗
羞
羡
羣
群
義
羲
羸
羽
翁
翏
習
翕
翟
翠
翼
老
耂
考
者
耆
而
耎
耑
耒
耳
耴
耶
耷
聂
聊
聖
聚
聶
聿
肀
肃
肅
肉
肖
肙
肥
肩
肯
育
肴
胃
背
胡
胥
能
脊
脩
膚
臣
臤
臧
自
臬
臭
臯
臱
至
致
臺
臼
臽
臾
臿
舀
舂
舄
與
興
舉
舌
舍
舛
舜
舞
舟
般
艮
良
色
艸
艹
艾
芒
芔
芬
芮
花
芳
芺
芻
苔
苗
苟
若
苦
英
茶
茸
荅
草
荒
荣
荻
荼
莆
莧
莫
莽
菆
菊
菐
華
萬
落
葉
著
葛
董
葵
蒙
蒦
蒼
蓋
蓬
蓺
蔑
蔡
蕉
蕭
薄
薛
薦
薰
藍
藏
藥
蘭
虍
虎
虐
虒
虔
處
虖
虗
虘
虚
虛
虜
虞
虫
虽
蚤
蚩
蜀
蜜
蟲
蠡
血
行
衍
衛
衣
衤
表
衮
衰
袁
袞
裕
褭
褱
襄
襾
西
覀
要
覃
見
規
覓
覧
親
覽
见
角
解
言
訁
訇
計
詹
語
誩
諸
讠
谷
豆
豈
豊
豐
豕
豖
豙
象
豦
豩
豪
豸
貇
貝
貞
貟
負
貢
貧
貪
貫
責
貳
貴
買
費
賁
資
賈
賏
賓
賔
賛
賞
賢
賣
質
賴
贊
贝
贡
责
贯
贲
贵
赖
赞
赤
赦
走
越
足
路
蹇
身
躬
車
軍
軎
軟
輦
车
辛
辜
辟
辥
辰
辱
農
辵
辶
边
达
过
近
连
迪
迷
追
退
送
逆
逐
通
速
造
逢
連
逮
進
遀
遂
過
道
達
遣
適
遷
遺
邊
邑
邕
那
邦
邪
郎
部
郭
都
鄉
鄒
酉
酋
配
酓
釆
采
里
重
野
量
金
釒
錢
钅
長
镸
长
門
閃
閉
開
閏
閑
閒
間
閔
閵
閻
闌
门
间
闷
阑
阜
阝
阿
降
陳
隆
隊
隋
隡
隨
隱
隶
隹
隺
隻
隼
隽
难
雀
雁
集
雈
雋
雍
雐
雔
雙
雚
雜
雝
離
難
雨
雩
雪
雲
零
雷
需
霍
霜
霝
霞
霸
靈
靑
青
非
靡
面
靣
革
韋
韦
韭
韯
韱
音
頁
頃
項
須
頗
頡
頻
顛
页
風
风
飛
飞
食
飠
養
饣
首
香
馬
馮
駦
马
骨
高
髟
鬥
鬯
鬲
鬼
魚
魯
鮮
鱼
鲁
鳥
鳳
鸟
鹵
鹿
麃
麗
麥
麦
麻
黃
黄
黍
黎
黑
黒
黨
黹
黽
黾
鼎
鼓
鼠
鼻
齊
齋
齐
齒
齿
龍
龙
龜
龟
龠
龰
龱
龴
龵
龶
龷
龸
龹
ꔤ
ꕙ
ꕺ
ꗏ
ꭰ
ꭱ
ꮑ
ꮧ

者
艹
﴾
﴿
ﷺ
️
，
；
？
￼
𐌰
𐌳
𐌹
𐌽
𐍂
𐒀
𐒈
𐒋
𐒑
𐒒
𐒕
𐒘
𐒛
𞤢
𞤣
𞤤
𞤥
𞤦
𞤧
𞤨
𞤩
𞤪
𞤫
𞤬
𞤭
𞤮
𞤯
𞤰
𞤱
𞤲
𞤳
𞤴
𞤵
𞤶
𞤷
𞤸
𞤹
𞤺
𞤻
𞤼
𞤽
𞤾
𞤿
𞥀
𞥁
𞥂
𞥃
𞥄
𞥅
𞥆
𞥇
𞥈
𞥉
𞥊
𞥋
🇫
🇬
🇱
🇳
🇷
🌳
🏿
👇
🔺
🖋
😢
😭
🙏
🜨
𠀁
𠀃
𠀆
𠀉
𠀎
𠀐
𠁁
𠁣
𠂆
𠂇
𠂈
𠂉
𠂊
𠂋
𠂎
𠂒
𠂔
𠂛
𠂡
𠂢
𠂤
𠂬
𠂭
𠂹
𠃊
𠃋
𠃌
𠃍
𠃎
𠃑
𠃓
𠃔
𠃜
𠄌
𠄎
𠄠
𠄢
𠆢
𠆥
𠇍
𠈌
𠌵
𠓜
𠔉
𠔥
𠔼
𠔽
𠔿
𠕀
𠕁
𠕋
𠘧
𠘨
𠙻
𠙼
𠚏
𠚒
𠚤
𠚪
𠣏
𠤎
𠤕
𠥓
𠦄
𠦑
𠦝
𠧒
𠧗
𠧪
𠩺
𠪚
𠫓
𠫔
𠫤
𠬛
𠬝
𠬞
𠬢
𠬤
𠬶
𠮛
𠮦
𠮷
𠯑
𠱠
𠳮
𠷎
𡈼
𡉀
𡉵
𡌥
𡍮
𡏳
𡕒
𡕩
𡕰
𡖅
𡗗
𡗜
𡘆
𡘤
𡧱
𡨄
𡩧
𡬠
𡭽
𡰣
𡰥
𡰪
𡰯
𡰱
𡷈
𡸁
𡿨
𡿩
𡿪
𡿺
𢀖
𢀛
𢀩
𢁙
𢆉
𢆰
𢆶
𢇁
𢇇
𢉖
𢌬
𢌿
𢏚
𢑑
𢑚
𢖻
𢙣
𢛳
𢦏
𢦒
𢧵
𢼄
𢾕
𣁋
𣄼
𣅀
𣅽
𣍘
𣎳
𣎵
𣏋
𣏼
𣗥
𣥂
𣥖
𣦵
𣦼
𣧄
𣪊
𣪠
𣬉
𣳾
𣶒
𤇾
𤊽
𤐫
𤓰
𤔔
𤕨
𤣩
𤰇
𤰔
𤰞
𤴓
𤴔
𤽄
𥁑
𥁕
𥃦
𥃩
𥃭
𥇡
𥑟
𥘅
𥘈
𥝢
𥫗
𥱡
𦈢
𦉪
𦉬
𦉼
𦍌
𦍒
𦎧
𦐇
𦓔
𦔮
𦘒
𦙃
𦚏
𦣝
𦣞
𦣻
𦥑
𦥔
𦥯
𦨉
𦭝
𦰩
𧆞
𧈧
𧘇
𧰨
𧴪
𧴮
𧵩
𧾷
𨸏
𨾴
𩙿
𩠐
𩫏
𩵋
𪉷
𪜀
𪟽
𪠲
𪩲
𫇦
𫔭
𫜸
𫝀
𫠣
𫠩
𫢉
𫥞
𫩏
𫩠
𫪡
𫲽
𫶧
𬀷
𬐘
𬗌
𬙙
𬛸
𬜯
𬟩
𬯁
𬴘
𬺻
𬼉
𬼖
𭀰
𭁈
𭁨
𭅰
𭑈
𭕄
𭗼
𭤨
𭥫
𭻾
𮅕
𮊿
𮍌
𮍏
𮓗
𮥼
𮧮
廾
𰀁
𰀄
𰀈
𰀉
𰀕
𰀠
𰀡
𰀢
𰀪
𰁜
𰃮
𰆊
𰆘
𰋙
𰕎
𰢴
𰧭
𰯲
0--
13--
14--
16--
17--
19--
2--
20--
3--
4--
5--
6--
7--
74--
8--
9--
a--
abbre--
ac--
ad--
add--
ae--
al--
an--
ap--
appli--
ar--
arg--
args--
art--
as--
ass--
at--
au--
b--
ba--
base--
be--
bi--
bl--
blog--
bo--
br--
brack--
bu--
c--
ca--
calcu--
ce--
cellu--
cfg--
ch--
co--
col--
con--
cons--
coord--
cor--
cou--
cr--
cro--
d--
da--
dan--
de--
deter--
di--
dis--
display--
do--
doc--
e--
edit--
em--
en--
enab--
enumer--
equati--
ex--
exp--
f--
fac--
fe--
fi--
fo--
fr--
fu--
g--
ga--
ge--
get--
gi--
gr--
gre--
h--
hi--
ho--
hum--
i--
imple--
in--
indi--
ins--
inst--
is--
j--
je--
k--
l--
la--
lar--
le--
lea--
li--
libr--
lit--
lo--
m--
ma--
mak--
make--
map--
me--
mi--
mil--
mirror--
mo--
mod--
mon--
mu--
n--
na--
nar--
nati--
ne--
new--
ni--
no--
nor--
norm--
nou--
o--
om--
ope--
oper--
opp--
over--
p--
pa--
pe--
per--
po--
pol--
por--
pos--
pr--
pro--
prob--
proce--
pu--
q--
r--
ra--
rati--
re--
reg--
regis--
rep--
ri--
s--
sa--
sandbox--
se--
seg--
set--
sh--
si--
small--
so--
soci--
st--
ste--
su--
sub--
supp--
symb--
t--
ta--
tak--
te--
tech--
th--
ti--
to--
tr--
tra--
trans--
tri--
trib--
tu--
type--
u--
un--
up--
use--
v--
vo--
w--
we--
wiki--
x--
xl--
y--
z--
ا--
ال--
الع--
ب--
ح--
د--
ر--
س--
ع--
غ--
ف--
ق--
ل--
م--
ن--
ه--
و--
ي--
ٱ--
߀--
߁߀--
߁߁--
߁߂--
߁߃--
߁߄--
߁߅--
߁߆--
߁߇--
߁߈--
߂߀--
߂߁--
߂߂--
߂߃--
߂߄--
߂߇--
߂߈--
߂߉--
߃߀--
߃߄--
߃߇--
߄߃--
߄߅--
߅߃--
߆߂--
߆߅--
ߊ--
ߊߌ--
ߊߌߛ--
ߊߎ--
ߊߓ--
ߊߓߍߙ--
ߊߓߎ--
ߊߓߑ--
ߊߕ--
ߊߖ--
ߊߘ--
ߊߙ--
ߊߙߊ--
ߊߙߌ--
ߊߙߑ--
ߊߛ--
ߊߛߑ--
ߊߝ--
ߊߞ--
ߊߞߑ--
ߊߟ--
ߊߟߊ--
ߊߟߌ--
ߊߟߑ--
ߊߡ--
ߊߡߏ--
ߊߣ--
ߊߤ--
ߊߤߑ--
ߊߦ--
ߊߦߌ--
ߋ--
ߋߘ--
ߋߘߎ--
ߋߛߑ--
ߋߟ--
ߌ--
ߌߓ--
ߌߕ--
ߌߖ--
ߌߘ--
ߌߙ--
ߌߛ--
ߌߛߑ--
ߌߝ--
ߌߞ--
ߌߟ--
ߌߟߑ--
ߌߡ--
ߌߣ--
ߍ--
ߍߙ--
ߍߙߑ--
ߍߛ--
ߍߛߑ--
ߍߞ--
ߍߟ--
ߍߟߑ--
ߎ--
ߎߊ--
ߎߋ--
ߎߌ--
ߎߖ--
ߎߙ--
ߎߛ--
ߎߛߑ--
ߎߞ--
ߎߞߎ--
ߎߟ--
ߎߟߑ--
ߏ--
ߏߊ--
ߏߓߊ--
ߏߔ--
ߏߖ--
ߏߙ--
ߏߙߍ--
ߏߛ--
ߏߛߑ--
ߏߝ--
ߏߟ--
ߐ--
ߐߙߑ--
ߐߙߑߕߏ--
ߐߛ--
ߐߛߑ--
ߐߟ--
ߐߟߑ--
ߑ--
ߑߙ--
ߑߝ--
ߒ--
ߒߓߞߌ--
ߒߖ--
ߒߘߋ--
ߒߞߏ--
ߓ--
ߓߊ--
ߓߊߓߐ--
ߓߊߙ--
ߓߊߙߑ--
ߓߊߛ--
ߓߊߛߑ--
ߓߊߟ--
ߓߊߟߌ--
ߓߊߦ--
ߓߋ--
ߓߋߦߑ--
ߓߌ--
ߓߌߙߑ--
ߓߌߢߍ--
ߓߍ--
ߓߍߙ--
ߓߍߙߑ--
ߓߎ--
ߓߎߙ--
ߓߎߙߑ--
ߓߏ--
ߓߏߦߑ--
ߓߐ--
ߓߐߒ--
ߓߐߙ--
ߓߐߣ--
ߓߑ--
ߓߘߊ--
ߓߙ--
ߓߙߊ--
ߓߙߎ--
ߓߛߊ--
ߓߟߊ--
ߓߟߏ--
ߓߴ--
ߔ--
ߔߊ--
ߔߋ--
ߔߌ--
ߔߍ--
ߔߎ--
ߔߏ--
ߔߏߟ--
ߔߐ--
ߔߑ--
ߔߑߟߐ--
ߔߙߊ--
ߔߙߏ--
ߔߟߌ--
ߕ--
ߕߊ--
ߕߊߓ--
ߕߊߦ--
ߕߋ--
ߕߋߞ--
ߕߌ--
ߕߍ--
ߕߍߙߑ--
ߕߎ--
ߕߎߙߑ--
ߕߏ--
ߕߐ--
ߕߐߛ--
ߕߐߟߑ--
ߕߑ--
ߕߑߙ--
ߕߑߛ--
ߕߙߊ--
ߕߟߏ--
ߕߴ--
ߕߺ--
ߕߺߴ--
ߕߺߺ--
ߖ--
ߖߊ--
ߖߋ--
ߖߌ--
ߖߌߞ--
ߖߍ--
ߖߍߙ--
ߖߎ--
ߖߏ--
ߖߐ--
ߖߘߍ--
ߖߟߊ--
ߖߡߊ--
ߗ--
ߗߊ--
ߗߋ--
ߗߌ--
ߗߍ--
ߗߏ--
ߗߐ--
ߘ--
ߘߊ--
ߘߊߘߐ--
ߘߊߙ--
ߘߊߟ--
ߘߋ--
ߘߌ--
ߘߌߦ--
ߘߍ--
ߘߍߙߑ--
ߘߎ--
ߘߏ--
ߘߐ--
ߘߑߤߐ--
ߘߙߊ--
ߘߝߐ--
ߘߟߊ--
ߘߡߊ--
ߘߴ--
ߘߴߊ--
ߘߴߌ--
ߘߺ--
ߙ--
ߙߊ--
ߙߊߡ--
ߙߋ--
ߙߋߦߑ--
ߙߌ--
ߙߍ--
ߙߎ--
ߙߏ--
ߙߐ--
ߙߑ--
ߙߑߖ--
ߙߘ--
ߙߵ--
ߛ--
ߛߊ--
ߛߊߙߑ--
ߛߊߡ--
ߛߋ--
ߛߋߞߏ--
ߛߌ--
ߛߌߟߊ--
ߛߌߦߊ--
ߛߍ--
ߛߍߟߑ--
ߛߎ--
ߛߎߓߑ--
ߛߏ--
ߛߏߟߊ--
ߛߐ--
ߛߑ--
ߛߑߔߌ--
ߛߑߕߋ--
ߛߑߕߎ--
ߛߑߝ--
ߛߓߍ--
ߛߕ--
ߛߘߊ--
ߛߙߊ--
ߛߙߋ--
ߛߟߎߞߎ--
ߛߡߊ--
ߛߣߍ--
ߜ--
ߜߊ--
ߜߋ--
ߜߌ--
ߜߍ--
ߜߎ--
ߜߏ--
ߜߐ--
ߜߙߋ--
ߜߟߌ--
ߝ--
ߝߊ--
ߝߊߙ--
ߝߋ--
ߝߌ--
ߝߍ--
ߝߎ--
ߝߎߙ--
ߝߏ--
ߝߐ--
ߝߐߒ--
ߝߐߙߑ--
ߝߑ--
ߝߑߙ--
ߝߘߊ--
ߝߘߋ--
ߝߘߎ--
ߝߙߊ--
ߝߙߋ--
ߝߙߌ--
ߝߙߎ--
ߝߟߍ--
ߝߢߐ--
ߝߺ--
ߞ--
ߞߊ--
ߞߊߔ--
ߞߊߕ--
ߞߊߙߑ--
ߞߊߛ--
ߞߊߛߑ--
ߞߊߝߏ--
ߞߊߟߑ--
ߞߊߡ--
ߞߊߦ--
ߞߋ--
ߞߌ--
ߞߍ--
ߞߎ--
ߞߎߡߊ--
ߞߏ--
ߞߏߢߊ--
ߞߐ--
ߞߐߙ--
ߞߐߙߑ--
ߞߑ--
ߞߑߙ--
ߞߑߟߎ--
ߞߓߊ--
ߞߕߌ--
ߞߘߎ--
ߞߘߐ--
ߞߙߊ--
ߞߙߋ--
ߞߙߌ--
ߞߙߎ--
ߞߙߏ--
ߞߛߊ--
ߞߟߊ--
ߞߟߌ--
ߞߟߏ--
ߞߣߍ--
ߞߣߐ--
ߞߴߊ--
ߞߵߊ--
ߞߺ--
ߞߺߺ--
ߟ--
ߟߊ--
ߟߊߒ--
ߟߊߓ--
ߟߊߕ--
ߟߊߝ--
ߟߊߞߊ--
ߟߊߺ--
ߟߋ--
ߟߋߏ--
ߟߌ--
ߟߍ--
ߟߍߙ--
ߟߎ--
ߟߏ--
ߟߐ--
ߟߑ--
ߟߴߊ--
ߟߺ--
ߠ--
ߠߊ--
ߠߌ--
ߠߴߊ--
ߡ--
ߡߊ--
ߡߊߙ--
ߡߊߙߑ--
ߡߊߞ--
ߡߊߟ--
ߡߊߤߑ--
ߡߋ--
ߡߌ--
ߡߌߛ--
ߡߍ--
ߡߍߙ--
ߡߍߙߑ--
ߡߎ--
ߡߎߛ--
ߡߏ--
ߡߏߙߌ--
ߡߐ--
ߡߐߙߑ--
ߡߑ--
ߡߙߊ--
ߡߙߐ--
ߡߟߏ--
ߡߴߊ--
ߡߺ--
ߢ--
ߢߊ--
ߢߋ--
ߢߌ--
ߢߍ--
ߢߎߡߍ--
ߢߏ--
ߢߐ--
ߢߟߊ--
ߢߟߊߞߎ--
ߣ--
ߣߊ--
ߣߋ--
ߣߌ--
ߣߌߘߐ--
ߣߌߞ--
ߣߌߡߊ--
ߣߍ--
ߣߍߕߑ--
ߣߎ--
ߣߏ--
ߣߏߙߊ--
ߣߐ--
ߣߞߊ--
ߣߴ--
ߣߴߊ--
ߣߴߌ--
ߣߴߌߛ--
ߣߺ--
ߤ--
ߤߊ--
ߤߊߙ--
ߤߊߙߑ--
ߤߊߡ--
ߤߋ--
ߤߌ--
ߤߍ--
ߤߎ--
ߤߏ--
ߤߐ--
ߤߙߐ--
ߤߣߏ--
ߥ--
ߥߊ--
ߥߊߘߌ--
ߥߊߟ--
ߥߋ--
ߥߌ--
ߥߌߟߑ--
ߥߍ--
ߥߎ--
ߥߎߟߊ--
ߥߏ--
ߥߐ--
ߥߑ--
ߥߙߊ--
ߥߛߊ--
ߥߞߌ--
ߥߟߊ--
ߥߟߋ--
ߥߟߏ--
ߦ--
ߦߊ--
ߦߋ--
ߦߌ--
ߦߍ--
ߦߎ--
ߦߏ--
ߦߙߌ--
ߦߙߏ--
ߦߛ--
ߦߟߌ--
ߦߴ--
ߦߴߊ--
ߦߴߊߡߍ--
ߦߺ--
ߦߺߺ--
ߧ--
ߧߊ--
ߴ--
ߺ--
ߺߊ--
ߺߌ--
ߺߠ--
--0
--03
--04
--1
--2
--3
--4
--5
--6
--7
--8
--9
--a
--able
--act
--ad
--age
--ail
--ain
--al
--an
--ance
--ant
--ar
--args
--ate
--ation
--ator
--au
--aux
--ay
--b
--blank
--blurb
--box
--c
--ce
--ch
--ct
--cted
--ction
--cts
--d
--da
--data
--de
--di
--display
--ds
--e
--ed
--editlink
--el
--ement
--en
--ent
--ents
--ep
--er
--ers
--es
--et
--eur
--f
--func
--g
--ght
--gs
--h
--ha
--her
--ht
--i
--ia
--ic
--ice
--id
--ie
--ier
--ies
--ii
--il
--in
--ing
--io
--ion
--ions
--ique
--ire
--is
--ision
--ite
--ive
--ives
--ize
--ized
--j
--k
--key
--l
--le
--link
--links
--ll
--ly
--m
--ma
--mber
--me
--ment
--ments
--ms
--n
--na
--name
--nce
--nd
--ndent
--ne
--ng
--ns
--nt
--nts
--num
--o
--on
--op
--or
--ors
--p
--page
--ping
--prot
--q
--que
--r
--ra
--ral
--re
--red
--rie
--rn
--rs
--ry
--s
--se
--ser
--ste
--style
--t
--ta
--te
--ted
--tes
--text
--ti
--tii
--ting
--tion
--title
--tor
--ts
--u
--ue
--um
--ur
--ure
--url
--urs
--us
--v
--val
--w
--x
--y
--z
--ɔ
--ɛn
--ا
--ب
--بر
--ة
--ت
--د
--ر
--رياض
--س
--ف
--ك
--ل
--م
--ن
--ى
--ي
--يا
--߀
--߀߀
--߁
--߂
--߃
--߄
--߅
--߆
--߇
--߈
--߉
--ߊ
--ߊߘ
--ߊߙ
--ߊߛ
--ߋ
--ߋߌ
--ߋߥߏ
--ߌ
--ߌߊ
--ߌߔ
--ߌߕ
--ߌߕߖ
--ߌߖ
--ߌߘ
--ߌߛ
--ߌߝ
--ߌߞ
--ߌߞߊ
--ߌߞߏ
--ߌߟ
--ߌߣ
--ߌߦߊ
--ߍ
--ߍߖ
--ߍߘ
--ߍߙ
--ߍߛ
--ߍߜ
--ߍߝ
--ߍߟ
--ߎ
--ߎߛ
--ߏ
--ߏߖ
--ߏߛ
--ߏߝ
--ߐ
--ߐߕ
--ߐߙߘ
--ߐߡ
--ߐߣ
--ߐߦ
--ߑߕ
--ߑߕߊ
--ߑߕߌ
--ߑߕߍ
--ߑߕߐ
--ߑߗ
--ߑߘߌ
--ߑߘߍ
--ߑߙߍ
--ߑߛ
--ߑߛߋ
--ߑߛߐ
--ߑߜ
--ߑߝ
--ߑߞߌ
--ߑߟߊ
--ߑߡߐ
--ߑߣߊ
--ߑߣߋ
--ߒߕߊ
--ߒߕߋ
--ߒߘߐ
--ߒߜ
--ߒߞߋ
--ߓ
--ߓߊ
--ߓߋ
--ߓߌ
--ߓߍ
--ߓߎ
--ߓߏ
--ߓߐ
--ߓߜ
--ߓߟߏߡߊ
--ߔ
--ߔߊ
--ߔߕ
--ߔߟ
--ߕ
--ߕߊ
--ߕߋ
--ߕߌ
--ߕߍ
--ߕߎ
--ߕߏ
--ߕߐ
--ߕߐߟߊ
--ߕߖ
--ߕߝ
--ߕߟߊ
--ߖ
--ߖߊ
--ߖߋ
--ߖߌ
--ߖߍ
--ߖߎ
--ߖߐ
--ߗ
--ߗߍ
--ߗߏ
--ߘ
--ߘߊ
--ߘߋ
--ߘߌ
--ߘߌߦߊ
--ߘߍ
--ߘߎ
--ߘߏ
--ߘߐ
--ߘߑߛ
--ߘߑߜ
--ߘߙߊ
--ߘߜ
--ߘߟߊ
--ߙ
--ߙߊ
--ߙߊߓߎ
--ߙߊߟ
--ߙߋ
--ߙߌ
--ߙߍ
--ߙߎ
--ߙߏ
--ߙߐ
--ߙߑߗ
--ߙߑߜ
--ߙߑߞ
--ߙߔ
--ߙߕ
--ߙߖ
--ߙߗ
--ߙߘ
--ߙߜ
--ߙߞ
--ߙߣ
--ߙߦߊ
--ߚߌ
--ߚߍ
--ߚߎ
--ߚߐ
--ߛ
--ߛߊ
--ߛߋ
--ߛߌ
--ߛߍ
--ߛߎ
--ߛߏ
--ߛߐ
--ߛߐߕ
--ߛߑߔߊ
--ߛߑߜ
--ߛߑߞߊ
--ߛߓߍ
--ߛߕ
--ߛߙߋ
--ߜ
--ߜߊ
--ߜߍ
--ߜߏ
--ߝ
--ߝߊ
--ߝߋ
--ߝߌ
--ߝߍ
--ߝߎ
--ߝߏ
--ߝߏߟߊ
--ߝߐ
--ߝߑߜ
--ߞ
--ߞߊ
--ߞߋ
--ߞߌ
--ߞߍ
--ߞߎ
--ߞߏ
--ߞߐ
--ߞߓߊ
--ߞߘߐ
--ߞߛ
--ߞߦߊ
--ߟ
--ߟߊ
--ߟߋ
--ߟߌ
--ߟߌߟߊ
--ߟߍ
--ߟߎ
--ߟߏ
--ߟߐ
--ߟߑߜ
--ߟߕ
--ߟߕߊ
--ߟߘ
--ߟߝ
--ߟߞ
--ߟߞߊ
--ߟߡ
--ߟߡߊ
--ߟߺߌ
--ߠߊ
--ߡ
--ߡߊ
--ߡߋ
--ߡߌ
--ߡߍ
--ߡߎ
--ߡߏ
--ߡߐ
--ߡߛߏ
--ߡߦߊ
--ߢߊ
--ߢߌ
--ߢߍ
--ߢߐ
--ߣ
--ߣߊ
--ߣߋ
--ߣߌ
--ߣߍ
--ߣߍߛ
--ߣߎ
--ߣߏ
--ߣߏߝ
--ߣߐ
--ߤ
--ߤߊ
--ߤߌ
--ߤߎ
--ߤߙ
--ߥ
--ߥߊ
--ߥߋ
--ߥߌ
--ߥߎ
--ߥߏ
--ߥߙߍ
--ߦ
--ߦߊ
--ߦߊߟߌ
--ߦߊߣߍ
--ߦߋ
--ߦߌ
--ߦߍ
--ߦߍߕ
--ߦߍߙ
--ߦߍߟ
--ߦߎ
--ߦߏ
--ߦߐ
--ߦߐߕ
--ߦߘ
--ߦߘߌ
--ߦߟߊ
--ߦߴߊ
--ߧߊ
--ߴ
--ߴߊ
--ߴߌ
--ߴߏ
--ߵߏ
--ߺ
--ߺߊ
--ߺߍ
--ߺߎ
--ߺߏ
--ߺߐ
--ߺߣߍ
--ߺߺߎ
--ߺߺߺߎ
