!
"
#
##0
##1
##10
##11
##12
##13
##14
##15
##16
##17
##18
##19
##2
##20
##21
##22
##23
##24
##25
##26
##27
##28
##29
##3
##30
##31
##32
##33
##34
##35
##36
##37
##38
##39
##4
##40
##41
##42
##43
##44
##45
##46
##47
##48
##49
##5
##50
##51
##52
##53
##54
##55
##56
##57
##58
##59
##6
##60
##61
##62
##63
##64
##65
##66
##67
##68
##69
##7
##70
##71
##72
##73
##74
##75
##76
##77
##78
##79
##8
##80
##81
##82
##83
##84
##85
##86
##87
##88
##89
##9
##90
##91
##92
##93
##94
##95
##96
##97
##98
##99
$
%
&
'
(
)
*
+
,
-
.
/
0
00
000
0000
000000
0001
001
002
003
005
006
0061
007
0079
008
009
01
010
0100
012
013
017
01745329252
019
02
024
03
030
031
04
040
05
0545
057
06
07
08
08842
09
1
10
100
1000
10000
100000
101
101325
102
103
104
105
1050
1054
1055
106
1067
107
108
109
1093
11
110
1100
11000
1101
1106
111
112
1130000
114
115
116
118
119
12
120
1200
12000
121
123
1234
125
126
127
128
13
130
1300
13000
131
132
133
1350
136
1372
138
139
14
140
1400
14000
141
142
143
1435
145
1453
148
15
150
1500
15000
151
152
1520
153
157
1582
15919
15924
16
160
1600
16000
165
166
1676
17
170
17000
172
174
175
1758
176
177
1775
18
180
1800
18000
181
1813
182
183
184
188
189
19
190
1900
19000
1901
1903
191
1923
1926
1928
1931
194
1945
1948
195
1950
1954
1956
1957
1959
196
1960
1961
1962
1963
1968
1970
1971
1976
1978
198
1981
1985
199
1990
1991
1994
1997
1998
1999
2
20
200
2000
20000
2001
2002
2003
2004
2005
2006
2007
2008
2009
201
2010
2011
2012
2013
2014
2015
2016
2017
2018
2019
2020
2021
2022
2023
204
204963193
2072
208
209
21
210
2100
21000
211
215
22
220
2200
22000
226
23
2300
23000
231
233
234
235
239
24
240
2400
24000
241
25
250
2500
25000
255
256
26
260
2600
26000
2629800
27
270
2700
27000
275
276
28
280
2800
28000
29
290
2900
29000
3
30
300
3000
30000
301
302
303
304
305
31
310
3100
31000
311
313
315
31557600
316
31635
3166
316846592
317
319
32
320
3200
32000
321
323
324
32424
33
3300
33000
335
34
340
3400
34000
344
35
350
3500
35000
355
36
360
3600
36000
37
3700
37000
373
38
380
3800
38000
381
39
3900
39000
4
40
400
4000
40000
401
402
407
408
409
41
410
4100
41000
413
414
415
416
419
42
420
4200
4217
424
429
43
430
4300
43000
4327
433
44
4400
44000
45
450
4500
46
4600
47
470
4700
47000
48
4800
49
4900
499
5
50
500
5000
50000
504
51
5100
518
52
520
5200
53
5300
53000
535
54
5400
54000
55
550
5500
557
56
5600
567
57
5700
575
58
580
5800
58000
59
5900
59000
6
60
600
6000
602176487
61
610
6100
62
620
6200
625
6251
63
630
6300
639
64
6400
65
6500
66
6600
67
6700
68
6800
69
6900
7
70
700
7000
70000
71
7100
72
7200
7271
73
7300
73000
734
74
740
7400
75
750
7500
76
7600
762
77
7700
78
7800
78000
785411784
79
7900
79000
791
8
80
800
8000
80665
81
8100
82
820
8200
828
83
8300
8316846592
84
8400
842
85
850
8500
856
86
8600
8601
86400
87
8700
88
8800
888
89
890
8900
9
90
900
9000
91
910
9100
914
92
9200
925
93
9300
94
9400
95
950
9500
96
9600
97
9700
975
978
979
98
9800
99
9900
999
9999
:
;
<
=
>
?
@
\
^
_
`
a
aa
aaa
aak
ab
abandon
abbr
abbreviate
abbreviated
abbreviation
abbreviations
abc
abe
ability
abk
abkhazian
able
abnaki
aboriginal
abort
aborted
about
above
aboveclass
abovestyle
abs
absence
absent
absolute
absolutely
abstimediff
abu
abuse
ac
academic
academy
acanthocarpus
acatepec
acceleration
accented
accept
acceptable
accepted
accepts
access
accessdate
accessed
accessibility
accessible
accesskey
accompanied
accompanying
accordance
according
accordingly
account
accounts
accuracy
accurate
accurately
acd
ace
ach
ache
achieve
achieved
acquire
acquired
acre
acres
across
act
acting
action
actioncompleted
actions
activate
active
activedescendant
actively
activities
actor
acts
actual
actuallink
actually
acute
ad
adapt
add
addcat
addclass
added
addeventlistener
addfooterlink
adding
addinitcallback
addition
additional
additionally
additions
addkey
addnamed
addon
addportletlink
address
addressed
addresses
addrow
adds
addsuffix
addtypesascolor
adequately
adhering
adi
adipisicing
adj
adjacent
adjectival
adjectives
adjust
adjusted
adm
admin
administrative
administrator
administrators
adminonly
admins
adobe
ads
adt
adult
advanced
advertising
advice
advised
ady
ae
aee
aeei
aer
aerial
af
afa
afar
afc
afd
affect
affiliate
affiliated
affiliates
affiliation
affiliations
affricate
afghan
afghanistan
afi
afl
africa
african
afrikaans
afro
after
afterword
ag
again
against
age
agency
agent
agf
aggregation
aghu
agi
agnostic
ago
agra
agreement
agta
agy
ah
ahead
ahn
ahom
ahref
ai
aiatsis
aid
aim
ain
ainu
air
aircraft
airdate
airport
airports
aise
aiv
aivpage
aizi
aj
aja
ak
aka
akan
ake
akk
akkadian
aksharnum
akwa
al
ala
alabama
alaska
alb
albania
albanian
albarradas
albert
alberta
album
albums
alemannic
alert
aleut
alexa
alexander
alg
algeria
algerian
algonquian
algorithm
ali
alias
aliases
aliaseslist
aliasesp
align
aligned
alignment
alike
aliqua
aliquip
all
allcheckboxdivs
alldone
allegiance
allow
allowable
allowance
allowed
allowing
allows
allpages
alma
almost
alnum
alo
alone
along
alongside
alpha
alphabet
alphabetical
alphabetically
alphabets
already
alreadypresenttags
als
also
alt
alta
altai
alter
alternate
alternative
alternatively
alternativemap
alternatives
although
altitude
altname
altnames
alttype
altvalue
alu
alv
alveolar
alveolo
always
am
ama
amami
amazon
amba
ambae
ambassador
ambiguous
ambo
ambox
ambrym
ame
amended
america
american
americans
americas
amet
ami
amn
amo
among
amount
amp
ampere
ampersand
amuzgo
an
ana
analogous
analysis
analyze
anand
anatomy
ancash
ancestor
ancestral
anchor
anchors
ancient
and
andlist
andorra
ang
angal
angeles
angiosperms
angle
anguilla
ani
anim
animal
animalia
animals
animated
animation
ann
annapurna
annotation
annotations
announce
announced
announcement
annual
annum
anon
anonblock
anonymous
another
anp
answer
answers
antarctica
anthem
antigua
antilles
anu
any
anyin
anylang
anyone
anything
anyway
anywhere
ao
aoe
ap
apa
apache
apart
ape
apg
api
apiobj
apo
apostrophe
apostrophes
app
apparent
apparently
appear
appearance
appearances
appearing
appears
append
appendchild
appended
appending
appendix
appendreasonbox
appendtext
apple
applicable
application
applications
applied
applies
apply
applying
approach
approaches
appropriate
appropriately
approval
approved
approximant
approximate
approximately
approximation
apps
apr
april
ar
ara
arab
arabia
arabian
arabic
aragonese
aramaic
arapesh
arb
arbitrary
arbitration
arc
architect
architectural
architecture
archive
archived
archivedate
archiveis
archivelist
archives
archiveurl
archiving
arctic
are
area
areas
areaunit
aren
arg
argentina
argkeys
arglist
argname
argnumber
args
argsalias
argsbirth
argsdeath
argsi
argsk
argskey
argsnextindex
argsv
argument
arguments
ari
aria
arizona
arkansas
arles
arm
armed
armenia
armenian
armn
arms
army
arn
aromanian
arop
around
arp
arr
array
arrays
arrow
ars
art
arthur
article
articles
articulation
artificial
artist
artistic
arts
artwork
arua
aruba
arv
arxiv
arz
as
asbox
asc
ascension
ascii
ashe
asia
asian
asiatic
asin
ask
asked
asking
asm
asmat
asof
aspect
aspects
assemble
assembled
assembleoutput
assembly
assert
assess
assessment
assessor
assets
assign
assigned
assignment
assist
assistance
associated
association
assume
assumed
assumes
assuming
ast
astacus
asterids
asterisk
asteroid
asu
asurini
at
ata
atas
ath
athapascan
athlete
athletics
ati
atl
atlantic
atlas
atm
atmosphere
atong
atp
atta
attached
attack
attacks
attempt
attempted
attempting
attempts
attend
attention
attr
attribs
attribute
attributed
attributes
attribution
atzingo
au
aua
audio
aug
august
aum
aus
austin
australia
australian
austria
aut
aute
auth
author
authorities
authority
authorized
authorlink
authorlist
authormask
authors
auto
autoblock
autocollapse
autoconfirmed
autolevel
automated
automatic
automatically
autoreview
autotaxobox
autovalue
auxiliary
av
ava
available
ave
average
avestan
aviation
avoid
avoided
avoiding
avoids
awa
award
awarded
awards
aware
away
awb
awu
awyu
axis
ayi
aymara
ayta
ayu
az
aze
azerbaijan
azerbaijani
azoyu
b
ba
baba
babar
babelstone
back
background
backgroundcolor
backgrounds
backlink
backlinks
backtranslate
backward
backwards
bacteria
bad
bada
badge
badges
baga
bagirmi
bah
baha
bahamas
bahrain
bai
bainouk
bajau
baka
bal
balance
balanta
bali
balinese
balkan
ball
balochi
baltic
bam
bambara
bamu
ban
band
banda
bangalore
bangla
bangladesh
bank
banned
banner
bannerfile
banners
bannersuffix
bannertemplate
bantu
bar
barbuda
bare
bareli
bari
barlabelcellstring
barrel
barrels
bars
bas
basa
basantapurr
basap
base
baseball
baseconvert
based
baseline
basestyle
basetaxon
bashkir
basic
basically
basin
basis
basketball
basque
bassa
bat
batak
batch
batchchunks
batchdelete
batchmax
batchoperation
batchprotect
batchundelete
bathymetry
bati
battle
battles
batu
bau
bavarian
bawah
bay
baz
bb
bba
bbc
bbl
bc
bca
bcd
bce
bcp
bd
bdi
be
bea
beach
bear
bears
became
because
become
becomes
been
before
began
begin
beginning
begins
begnas
begun
behalf
behaves
behavior
behaviour
behind
bei
beijing
being
bej
bel
belanda
belarusian
belgium
beli
believe
belize
bell
belong
belongs
below
belowclass
belowstyle
belt
beltway
ben
bena
bend
bender
bendi
beneath
benefit
beng
bengal
bengali
benin
ber
berawan
berber
berlin
bermuda
besi
best
bet
beta
bete
betsimisaraka
better
between
beyond
bf
bfc
bg
bgd
bgn
bgr
bh
bhaktapur
bhasa
bhatta
bhi
bhil
bho
bhoti
bhp
bhr
bi
biao
bibcode
bibliographic
bidayuh
bie
big
bigger
bih
bihari
bikol
bilabial
bill
billboard
billion
billions
bin
bina
binary
bind
binomial
binukidnon
bio
biodiversity
biographical
biographies
biography
biological
biology
biomedical
biorxiv
biota
biplab
biratnagar
bird
birds
birifor
birth
birthday
birthplace
birthsplitcount
bisa
bisaya
bit
bittern
bjo
bl
bla
blaan
black
blacklist
blacklisted
blacklisting
blah
blank
blanking
blankname
blanks
blatant
blob
block
blocked
blocking
blocks
blog
blp
blr
blue
blurb
blurbobj
bm
bmc
bms
bn
bnd
bne
bnf
bnt
bnv
bo
boano
board
bob
bobo
bodies
bodo
body
bodyclass
bodystyle
bohara
boi
boilerplate
bokma
boko
bol
bold
bolded
bolding
bolivia
bolivian
bollywood
bom
bon
bond
bontok
boo
book
books
booktitle
boolean
bopomofo
bor
border
bordered
borders
borderwidthnum
born
boro
borough
boroughs
bos
bose
bosnia
bosnian
bot
botanical
botany
both
bother
bots
botswana
bottom
box
boxargs
boxes
bozo
bp
bpmf
bpn
bpy
bq
br
bra
brace
braces
bracket
bracketclose
bracketed
bracketopen
brackets
bradman
branch
branches
brand
brazil
brazilian
break
breaking
breaks
breton
bridge
brief
bring
britain
british
broad
broadcast
broken
brokendate
bronze
brown
browse
browser
browsers
bru
brunei
bs
bsh
bst
bt
btc
btk
btn
btu
bu
bua
buang
buc
bud
buddhism
budget
budong
buffer
bug
buginese
bugs
buhid
build
builder
building
buildings
built
builtin
bul
bulgaria
bulgarian
buli
bulleted
bullets
bulu
bum
bump
bun
bunbury
bunu
bureaucrat
burial
buriat
burkina
burmese
buru
bus
bush
bushel
business
but
button
buttons
buyang
bw
bwa
bwamu
bwe
bwisi
by
byn
byp
bypass
byr
byte
bytes
c
ca
cabe
cache
cactions
cad
caerulea
caf
cai
caicos
cajun
cakchiquel
cal
calculate
calculated
calculates
calculating
calculation
calculations
calendar
calendarmodel
california
call
callback
callbackparameters
callbacks
called
caller
calling
callparserfunction
calls
calorie
calories
cambrian
came
cameroon
camp
campaign
campus
can
canada
canadian
cancel
candidate
candidates
cannot
canonical
cans
cantonese
cao
cap
capacity
cape
capita
capital
capitalised
capitalization
capitalized
caps
caption
captions
capture
captures
car
carbon
card
cardinal
cards
care
career
careful
caret
cari
carib
caribbean
carolina
carrier
carries
carry
cars
cartography
carving
case
cases
castle
cat
catalan
catalana
catalog
catalogue
catanduanes
catch
catchment
catcontent
categories
categorisation
categorise
categorization
categorize
categorized
categorizes
categorizing
category
categoryhandler
catmentions
catname
catnocountry
cats
cattitle
cau
caucasian
cause
caused
causes
causing
caution
cayman
cb
cba
cbb
cbk
cc
ccc
cd
cdata
ce
cea
ceased
ceb
cedff
ceil
cel
celebrate
celebrity
cell
cells
celsius
celtic
cen
census
cent
center
centered
centimeter
centimeters
centimetre
centimetres
central
centralized
centre
centrifugal
cents
century
ceremonial
ceremony
certain
certification
cestrum
cet
cf
cfa
cfb
cfd
cfds
cfg
cfm
cg
ch
cha
chad
chadian
chagunarayan
chain
chairman
chairperson
chakma
challenges
cham
chamber
chamorro
champions
championships
chancellor
change
changed
changes
changetags
changing
channel
channels
chaplin
chapter
chapterurl
char
character
characteristics
characters
charge
chargs
charles
chars
chart
charter
charts
chat
chatino
chavacano
che
check
checkbox
checkboxes
checkdigit
checked
checker
checkflag
checking
checklist
checknumandaddsuffix
checks
checksum
checktype
checkuser
checkvalue
chehalis
chem
chembox
chemical
chemistry
chengdu
cher
cherokee
chewa
chg
chhusang
chi
chicago
chichewa
chief
child
childnumber
children
chile
chilean
chin
china
chinantec
chinese
chinook
chitwan
chl
chm
chn
cho
choice
chontal
choose
chorote
chosen
chp
chr
christianity
christmas
christopher
chrome
chronology
chrysanthemum
chu
chunk
chunksize
church
chuvash
ci
cia
cid
cillum
cinema
cir
circa
circle
circumference
circumstances
cis
citak
citation
citationclass
citations
cite
cited
citeparams
citeq
citeref
cites
citeseerx
citeweb
cities
citing
citizenship
citoid
city
civil
cjk
ckb
cl
clade
clades
cladestring
cladogram
cladograms
claim
claimcommands
claimed
claims
claimspropertyid
clarity
class
classes
classic
classical
classification
classis
classname
classstring
classtable
clean
cleaned
cleannumber
cleanup
clear
clearer
clearly
click
clickable
clicked
clicking
clicks
client
clifton
climate
clinton
clip
clips
clm
clock
clone
close
closed
closely
closest
closing
club
clubs
cluster
cm
cma
cmbox
cmc
cmd
cmn
cmp
cmr
cms
cn
cnh
cnr
co
coa
coach
coast
coat
coatla
coauthor
coauthors
cocos
cod
code
coded
codepoint
codes
coding
coins
col
colclass
colhead
collaboration
collage
collapse
collapsed
collapsewhitespace
collapsible
collect
collection
collections
collective
college
colombia
colon
colons
color
colorado
colored
colors
colour
coloured
colours
cols
colspan
colstyle
columbia
columbus
column
columns
colwidth
com
combination
combinations
combine
combined
combining
combo
combos
come
comes
comics
coming
comma
command
commander
commanders
commands
commas
comment
commentary
comments
commercial
committee
committees
commodo
common
commonly
commons
commonsets
commonwealth
communication
communities
community
comorian
comoros
comp
compact
companies
company
comparable
compare
compared
compares
compareurl
comparing
comparison
comparisons
compass
compatibility
compatible
competed
competing
competition
competitions
competitors
complementary
complete
completed
completely
completeness
complex
complexity
compliance
complicated
comply
component
components
composed
composite
composition
compound
compressed
compresssparsearray
compute
computer
con
concat
concatenate
concatenated
concatenation
concepts
concern
concerns
conchucos
concise
concrete
condition
conditions
conduct
conducted
conf
conference
conferenceurl
config
configtables
configuration
configured
confirm
confirmed
conflict
conflicting
conform
confused
confusing
confusion
congo
congress
conjunction
conn
connect
connected
connecticut
connecting
connector
consectetur
consecutive
consensus
consent
consequat
conservation
consider
consideration
considerations
considered
consist
consistency
consistent
consistently
consisting
consists
console
conson
consonant
consonants
constant
constantargs
constituency
construct
constructed
construction
consult
consultation
consumer
contact
contain
contained
container
containing
contains
contemporary
content
contentargs
contentcat
contentindex
contentmodel
contents
contenttd
contest
context
contexts
contextual
continent
continuation
continue
contracted
contrast
contribs
contribute
contributing
contribution
contributions
contributor
contributorlist
contributors
control
controlled
controlling
controls
controversial
controversy
convenience
convenient
convention
conventional
conventions
conversation
conversations
conversion
conversions
convert
converted
converter
converting
convertnumeric
converts
convey
conveys
convinfobox
cook
coolest
coor
coord
coordinate
coordinates
coordinatespec
coords
cop
copied
copies
coptic
copy
copying
copyright
copyrightable
copyrighted
copyrights
copytable
cora
corbis
core
corner
cornish
corp
corporate
corporation
correct
correctly
corresponding
corresponds
corrupt
cos
cost
costa
costly
cot
could
council
count
counted
counter
counties
counting
countries
country
countrymask
counts
county
couple
course
court
cover
covered
covering
cp
cpf
cpi
cprt
cr
crab
crafted
crc
cre
create
created
createelement
createevent
createlevel
createrow
creates
createtextnode
creating
creation
creative
creativity
creator
credit
credited
credits
cree
creek
creole
creoles
crh
cricinfo
cricket
crimean
criminal
cristatus
criteria
criterion
critical
critically
croatia
croatian
crop
cropped
cross
crowned
crp
crystal
cs
csb
csc
cscr
csd
csdcrit
csinha
cso
csrftoken
css
csstext
cst
cstr
ct
cta
ctx
cu
cua
cub
cuba
cubic
cuft
cuicatec
cuin
cuisine
culpa
cultural
culture
cuneiform
cup
cupidatat
cur
curly
curpref
currencies
currency
current
currentblockinfo
currentdate
currententityid
currentitem
currently
currentprot
currentprotectionlevels
currentrationale
currenttitle
currtaxon
cursor
curstate
curtimestamp
cus
cust
custom
customary
customised
customized
customlist
customlistlabeltitle
customlistvaluetitle
cut
cuyd
cv
cvt
cwt
cwy
cy
cycling
cym
cyp
cypriot
cyprus
cyrillic
cyrl
cze
czech
d
da
daa
dab
dabs
dadi
dagger
dai
daily
daju
dak
dakota
dal
dall
dallas
dam
dama
damar
dan
dani
danish
dao
dar
dari
dark
dash
dashboard
dashes
data
database
databases
datacode
datacountry
dataid
datamodule
datapagename
datarow
dataset
datastyle
datatype
datavalue
date
dated
dateformat
dates
datetime
datum
dau
daw
day
dayak
daylight
days
db
dbf
dc
dd
dda
ddd
ddddff
de
deaccent
dead
deadline
deadurl
deal
dealing
dear
death
deathsplitcount
debug
debugging
dec
decade
deceased
december
decide
decimal
decimalprecision
decimals
decimetre
decision
declaration
declare
declared
declined
decode
decommissioned
decompose
decorative
decrease
dedicated
deep
deepcopy
def
defamation
defamatory
default
defaultconfig
defaultgroup
defaultns
defaults
define
defined
defines
defining
definition
definitions
deftype
defunct
deg
degree
degrees
dejavu
dek
del
delaware
delay
delete
deleted
deletepage
deleting
deletion
delfi
delhi
delim
delimages
delimit
delimited
delimiter
delink
delisted
deliver
delivered
delivery
delsort
dem
demo
democratic
demographics
demolished
demonstrate
demonstrates
demonstration
demospace
den
dendi
dene
deng
deni
denmark
denom
denominator
dens
density
dental
department
depend
dependant
dependencies
dependent
depending
depends
dependvalue
depicted
deprecated
deprod
depth
deputy
der
dera
derivative
derived
des
desc
describe
described
describes
describing
description
descriptions
descriptive
deserunt
design
designated
designation
designations
designed
desirable
desired
desktop
despite
destination
destroyed
detail
detailed
details
detect
detected
detection
detects
determine
determined
determines
determining
deu
dev
deva
devanagari
develop
developed
developer
developers
development
device
devices
dewikitext
df
dfs
dhangu
dhg
dhm
di
dia
diacritic
diacritics
diagram
diagrams
diak
dialect
dialects
dialog
diameter
dictionary
did
dida
didn
die
died
diego
diff
differ
difference
differences
different
differently
differs
difficult
diffs
dig
digit
digital
digits
dii
dili
dim
dimensional
dimensions
dimli
din
dinar
dinka
dioxide
diphthongs
dir
direct
directed
direction
directly
director
disable
disabled
disables
disallow
disambig
disambiguate
disambiguating
disambiguation
disambiguator
disambiguous
disappeared
disbanded
disc
disclosure
discouraged
discovered
discovery
discuss
discussed
discussing
discussion
discussionpage
discussions
disease
disp
dispatchevent
display
displayauthors
displayed
displayeditors
displayfield
displaying
displayname
displays
displaytext
displaytitle
dispute
disputed
disputes
disqualified
disruptive
dissertation
dissolved
distance
distinct
distinction
distinguish
distribution
district
districts
div
diversity
divide
divided
divisio
division
divisions
divs
dj
djangu
djibouti
djk
dk
dl
dlgtable
dlgtbody
dlgth
dlgtr
dm
dms
dmy
dname
dne
dng
dnk
do
doc
docket
docpage
docs
docsortlabel
doctitle
doctrine
document
documentation
documented
documenting
documents
docustomexpiry
doe
does
doesn
dog
dogon
dogri
doi
doing
dollar
dollars
dolor
dolore
dom
domain
domains
dome
domestic
dominican
don
done
dong
doo
dora
dori
dorsett
dos
dose
doso
dot
doteli
dots
dotted
dotyali
double
doubled
doubt
dow
down
downcase
download
downloaded
dr
dra
draft
drafting
dragon
dravidian
draw
drawn
draws
drop
dropdown
drug
dry
drz
dsb
dst
dt
dtp
dts
dtxt
dty
dtype
du
dual
due
duis
duke
dum
dumagat
dummy
dunam
dunams
dungan
dup
dupl
duplicate
duplicated
duplicates
duplication
dur
durango
duration
durbar
durham
during
dusun
dutch
duty
dv
dx
dy
dyk
dynasty
dz
dza
e
ea
each
eagle
earlier
earliest
early
earth
earthquake
ease
easier
easily
east
eastern
easting
easy
eaton
eau
eb
ebo
ec
ed
ede
edge
edges
edit
edited
editexpiry
editing
editintro
edition
editlevel
editmode
editmodify
editnotice
editor
editorlink
editorlist
editormask
editorn
editors
editprot
editrequest
edits
editsummary
edo
eds
edu
education
educational
edward
ee
eee
eelup
ef
efate
efe
effect
effective
effectively
efficiency
eg
ega
egy
egypt
egyptian
eh
eid
eight
eighth
einstein
eissn
either
eiusmod
ejective
eki
el
elect
election
elections
electronic
electronvolt
elem
element
elements
elevation
eligible
eliminated
elit
ell
ellipsis
else
elseif
elsewhere
elu
em
ema
email
embargo
embargoed
embed
embedded
embedding
embera
emblem
emirates
emission
emit
emits
emitted
emoji
emojione
emphasis
empire
employed
employees
empty
emptyfunction
emptyparam
emulated
en
enable
enabled
enables
enclose
enclosed
encode
encoded
encoding
encourage
encouraged
encyclopaedia
encyclopedia
encyclopedic
end
endangered
endash
endashes
ending
endorse
endpoint
ends
endtime
endtimey
energy
enets
enforce
enforcement
eng
engagement
engine
engineer
engineering
engines
england
english
engvar
enim
enm
enough
enrollment
ensemble
ensign
ensure
ensures
ent
enter
entered
entering
entertainment
entire
entirely
entities
entity
entityid
entityobject
entrance
entries
entry
enu
enum
enumerated
enumerator
enumvalues
env
envfuncs
environment
enwan
enwiki
eo
ep
epbc
epenth
epenthetic
epi
epiglottal
episode
eq
equal
equals
equation
equatorial
equipment
equity
equivalent
equivalents
er
era
erase
erg
erie
eritrea
erjiang
err
errend
errformat
errmiss
errns
error
errors
errortext
errs
es
escape
escaped
escapepattern
escapes
ese
esh
esp
especially
esperanto
espncricinfo
essay
esse
est
establish
established
establishment
estimate
estonia
estonian
estrangelo
eswatini
et
etal
etc
ethi
ethiopia
ethnic
ethnologue
eton
eu
euasterids
eudicots
eur
europe
european
eurosids
ev
evaluate
evaluated
evaluates
evaluating
evaluation
even
evenstyle
event
events
ever
every
everyone
everything
evidence
evt
ew
ewe
ex
exact
exactly
example
exampleargs
examples
exampletable
exceed
except
excepteur
exception
exceptional
exceptions
excerpt
excessive
excessively
exclude
excluded
excluding
exclusion
exclusive
exclusively
exec
executives
exercitation
exhaust
exhaustive
exist
existed
existence
existing
exists
exp
expand
expanded
expanding
expands
expandtemplate
expansion
expect
expectation
expected
expects
expecttype
expensive
experience
experienced
experiment
experts
expiration
expired
expires
expiry
explain
explained
explaining
explains
explanation
explanations
explanatory
explicit
explicitly
explorer
exponent
exponential
export
exported
exports
expr
express
expressed
expression
expressions
expressway
ext
extend
extended
extendedascii
extendedconfirmed
extension
extensions
extensiontag
extensive
external
extinct
extinction
extra
extraclasses
extract
extracted
extraction
extracts
extraneous
extreme
ez
f
fa
faa
fabricius
face
facebook
facet
fact
factbook
factor
factors
facts
factual
faculty
fail
failed
failing
fails
failsafe
failure
failures
fair
fairly
faith
fali
falkland
fall
fallback
falls
false
fam
familia
familiar
families
family
familycolor
famname
fan
fang
fao
faq
far
faraway
fargs
faroe
fars
farther
fas
faso
faster
fat
fatal
father
fault
favor
fb
fbtable
fc
fd
fdate
fdfdfd
fe
feasible
feature
featured
features
featuring
feb
february
fed
federal
federated
federation
feed
feedback
feel
feet
fehler
female
feminism
festival
festivals
fetch
fetched
fetches
fetching
fetchlanguagename
few
fewer
ff
ffd
ffe
fff
ffff
ffffff
fg
fi
fiction
fictional
field
fieldname
fields
fieldset
fieldsetname
fieldsi
fifa
fifth
figure
figures
fij
fiji
fijian
fil
file
filename
files
filipino
fill
filled
fillopacity
film
films
filter
filtered
filters
fin
final
finalize
finalj
finally
finalresult
financial
find
finding
findlang
finds
fine
finished
finland
finn
finnish
fire
firefox
firm
first
firstchild
firstinitial
firstletter
firstn
firstname
firstrow
fish
fit
fits
fiu
five
fix
fixed
fixes
fixing
fixups
fj
fk
fl
flag
flagged
flaggedrevs
flags
flash
flat
flemish
flickr
flip
float
floating
flood
flooding
floor
flora
florida
flow
flower
flowering
flowers
flowery
flown
fluff
flush
fly
flying
fm
fmatch
fmbox
fmod
fmt
fn
fncanusemwusertoken
fo
focus
focused
foi
foia
fold
folk
folklore
follow
followcrossnsredirect
followed
following
followredirect
follows
fon
font
fonts
fontsize
foo
food
foot
football
footer
footnote
footnotes
for
foranononly
force
forces
ford
foreach
foreign
forest
foreword
forget
form
formal
formally
format
formatdate
formatimp
formation
formatlink
formatmessage
formatnum
formatparams
formatphonemegroup
formatpropertyvalues
formats
formatspattern
formatstr
formatstring
formattable
formatted
formatterurl
formatting
formed
former
formerly
formevents
forms
formula
formulas
forregisteredonly
forrest
forsee
fort
forth
fortschritte
forum
forward
fossil
fossilrange
found
foundation
founded
founder
four
fourth
fr
fra
frac
fracalias
fracpart
fraction
fractional
fractions
fragment
frame
frameless
frameonly
frames
franc
franca
france
francisco
francophone
free
freedom
freeform
freely
freesans
french
frequency
frequent
frequently
fricative
friday
friendlies
friendly
friendlywelcome
friends
frisian
friulian
frm
fro
from
fromtitlecount
front
frozen
frp
frr
frs
fruit
fry
fss
ft
ftin
fuel
fugiat
fulfulde
full
fullargs
fullpagename
fulltext
fullurl
fully
fum
func
funcname
function
functional
functionality
functioning
functions
fungi
fur
furnish
further
futuna
future
fw
fwa
fwe
fy
g
ga
gaa
gabi
gabon
gadaba
gade
gadget
gadgets
gaelic
gagauz
gal
galleries
gallery
gallon
gallons
gambia
game
games
gamo
gan
ganda
gandaki
gandhi
gao
gap
gaps
garamond
garasia
garden
garo
garrison
gas
gauge
gaugedataall
gauges
gaugesize
gaulish
gavia
gaw
gb
gbaya
gbe
gbp
gbr
gcd
gcomp
gd
gdp
ge
geba
gel
gelao
gelimi
gem
gender
gendered
genera
general
generalcommands
generally
generaloptions
generate
generated
generatelinks
generates
generating
generator
generic
genetic
genre
genres
genus
geo
geobox
geocoordinate
geographic
geographical
geography
geogroup
geohack
geojson
geoloc
geological
geomask
geometry
geor
george
georgia
georgian
geoshape
german
germanic
germany
get
getargnums
getargs
getattribute
getbeststatements
getboolean
getcallbackparameters
getcode
getcontent
getcontentlanguage
getcreator
getcurrentframe
getcurrenttitle
getdata
getdate
getdatevalue
getdiscussionwikitext
getelementbyid
getelements
getentity
getentityidforcurrentpage
getentityobject
getenvironment
getexpandedmessage
getexports
getfallbacksfor
getinputdata
getinvocation
getlabel
getlocalizedtext
getmapparams
getmetatable
getopt
getpagetext
getparam
getparameters
getparametervalue
getparammappings
getparamvalue
getparent
getpref
getredirectsfor
getreferences
getresponse
gets
getsitelink
getstatuselement
gettarget
gettemplateoutput
getting
gettitle
getty
geturl
getvalue
getvaluebyqual
gev
gey
gez
gf
gfdl
gg
gh
gha
ghale
ghami
ghana
ghanaian
ghandruk
gi
gibraltar
gid
gif
giles
gill
gimi
gini
git
github
give
given
gives
giving
giziga
gj
gje
gl
gla
glad
glag
glance
glargs
glg
glh
glide
glides
global
globally
globals
globe
globosa
glottal
glottalized
glottolog
gm
gmatch
gmh
gmol
gmt
gn
gnd
gnu
go
goa
goal
goals
god
goes
goh
going
gold
golden
gomphrena
gon
gondi
gong
gonm
good
goodid
google
gor
gost
got
gothic
gotpref
gov
governance
governing
government
governor
gr
grabbing
gracefully
grade
gradient
gram
grammar
grams
gran
grand
grande
grandiflora
grandparent
grant
granted
grants
grapes
graph
graphic
graphics
grass
grave
gravitational
gravity
gray
grc
gre
great
greater
greatest
grebe
grebo
greece
greek
green
greenland
greenlandic
greenlands
greetings
gregorian
grek
grenadines
grey
grid
grin
grk
grl
gro
group
groupconfig
grouped
grouping
grouplabel
groupn
groupname
groups
groupstyle
groupwidth
grow
gs
gsp
gsplit
gsub
gsw
gt
gu
gua
guam
guana
guangzhou
guarani
guard
gue
guerrero
gugu
gui
guiana
guidance
guide
guideline
guidelines
guinea
guinean
guitar
guiyang
gujarati
gujr
gula
gulf
gun
gureng
gurmana
guru
gutenberg
guthrie
gv
gw
gwa
gwe
gwoyeu
gy
h
ha
habitat
hack
had
hadrami
hai
haida
hair
haitian
hak
hakka
halang
half
hall
hamba
hampshire
han
hand
handle
handled
handlenoexportwhitespace
handler
handlers
handles
handling
hands
hang
hanga
hanging
hangul
hani
hanja
hano
hans
hant
hanunoo
hanyu
happen
happening
happens
happy
harassment
hard
hardy
harv
harvard
harvey
has
hasclass
hash
hat
hatnote
hatnotes
hau
hausa
have
haven
having
haw
hawai
hawaii
haystack
hbo
hcard
hctra
hdi
hdl
hdr
he
head
header
headercolor
headerid
headers
headerstyle
headertext
headertype
heading
headings
headquarters
health
hear
heard
heart
heavy
hebr
hebrew
hectare
hectares
height
heights
heirs
held
helena
helicopter
helipad
hello
help
helped
helper
helpful
helps
helptip
hemisphere
hence
henry
hepburn
her
here
hereafter
heritage
heron
herron
herzegovina
hex
hexcomponent
hg
hh
hi
hidden
hide
hides
hidewhenmultiple
hierarchical
hierarchically
hierarchy
hieroglyphs
hif
high
higher
highest
highland
highlighted
highlighting
highly
highway
highways
hil
hill
hillary
hills
him
himalaya
himalayas
hin
hindi
hindko
hindu
hindustani
hint
hira
hiragana
his
hist
historic
historical
historically
history
hit
hittite
hiw
hj
hk
hlist
hm
hma
hmc
hmd
hme
hmh
hmi
hml
hmm
hmn
hmng
hmong
hmp
hms
hmw
hmy
hn
hnd
hnj
ho
hockey
hoia
hokkien
hol
hold
holder
holders
holding
holds
holy
homarus
home
homo
honduras
hong
hongshuihe
honorific
honours
hook
hooks
hope
horizontal
horizontally
horsepower
hospital
host
hosted
hosting
hostname
hot
hotel
hour
hours
house
houses
houston
hover
hovers
how
however
hp
hq
hr
hre
href
hrv
hs
hsb
hsl
hsn
ht
hth
html
htmlelement
htmlnode
http
https
hu
hua
huasteca
huave
hub
hue
huge
huishui
huitoto
huizhou
huj
human
humor
hun
hundred
hundredweight
hung
hungarian
hungary
hup
huron
hus
hut
hw
hwa
hwy
hy
hya
hybrid
hydrangea
hyperlink
hyphen
hyphenated
hyphens
hz
i
ia
iana
iarender
iata
iba
iberian
ibox
ibu
ic
ica
icao
icc
ice
iceland
icelandic
icon
iconic
icons
id
ida
idea
ideally
ideas
idem
identical
identifiable
identification
identified
identifier
identifiers
identifies
identify
identifying
identity
ideograph
idfrom
idi
idiom
ido
ids
idto
idu
idx
idxformat
ie
ies
ietf
if
ifb
ife
ifexists
iff
ifnot
ifroms
ifugao
igbo
ignore
ignored
ignores
igo
iha
ihp
ii
iii
iir
ije
ijo
ik
ike
iko
ikt
iku
il
ila
ilam
ile
ili
illegal
illinois
illustrate
illustrated
illustration
ilo
im
image
imageclass
imagecount
imagediv
imageemptycell
imagefilename
imageleft
imagenums
imagepage
imageright
images
imagesize
imagestyle
imax
imbox
imdb
img
imgsize
immediate
immediately
imp
impact
impaired
imperial
imperiled
impgal
implement
implementation
implemented
implementing
implements
implied
import
importance
important
imported
impossible
impoz
improper
improperly
improve
improved
improvements
improving
in
ina
inactive
inappropriate
inarray
inc
incertae
inch
inches
incididunt
include
included
includes
including
inclusion
inclusive
income
incomplete
inconsistent
incorporated
incorrect
incorrectly
increase
increased
increment
ind
indef
indefinite
indefinitely
indent
indentation
indented
indents
independence
independent
independently
index
indexed
indexer
indexes
indexing
indexnavigationbar
indexof
india
indian
indiana
indic
indica
indicate
indicated
indicates
indicating
indication
indicator
indices
indicum
indigenous
indirect
indiscriminate
individual
individually
individuals
indo
indonesia
indonesian
indus
industry
ine
ineligible
infantry
infinite
infinity
infix
inflation
info
infobox
infoboxes
infoboximage
infocolor
inform
informally
information
informed
infringement
ing
inga
inh
inherit
inherited
inherits
init
initevent
initial
initialcontrib
initialise
initialize
initialj
initially
initials
initiative
inline
inlinered
innamespaces
inner
inout
inprop
input
inputname
inputs
insec
insensitive
insert
inserted
inserting
insertion
inserts
insertvalue
inset
inside
instance
instanceof
instanceofstate
instances
instead
institute
institution
institutional
institutions
instructions
instrumental
insufficient
int
integer
integers
integrated
intended
intent
interact
interest
interested
interesting
interface
interfere
interlanguage
interlingua
intermediate
internal
internally
international
internet
internetarchivebot
interpreted
interstate
interview
interviewer
interviewerlist
interviewers
interwiki
into
intro
introduce
introduced
introducing
introduction
introductory
introfragment
introlink
intrusion
inuktitut
inupiatun
inv
invalid
invargs
invent
inventor
inventorlink
inverse
invert
inverted
invisible
invitation
invite
invited
invocation
invocations
invoke
invoked
invokes
invoking
involved
io
iowa
ip
ipa
ipac
ipairs
ipsum
ipv
iq
ir
ira
iran
iranian
iranun
iraq
irc
ireland
irish
irl
irn
iro
irrelevant
irure
is
isangle
isarray
isblank
isbn
isbns
isc
iscomplex
ish
isin
isipaddress
isknownlanguagetag
isl
islabel
islam
island
islands
isle
islong
ismn
isn
isnegative
isnilorempty
isnotblank
isnotempty
isnumber
iso
isoexception
isoname
isonames
ispageredirect
isr
israel
isralik
isredirect
isrequired
issmall
issn
issubpage
issue
issued
issues
ist
istalkpage
istemperature
isthmus
isu
iswordend
isxn
iszero
it
ita
italian
italic
italicization
italicize
italicized
italics
italictitle
italy
itc
item
itemid
itemkey
itemnums
items
iterate
iteration
ith
itis
itneg
ito
its
itself
iu
iucn
iv
ivoire
ivory
iwam
iyo
j
ja
jack
jad
jah
jahrbuch
jalapa
jam
jamaica
jamaican
jan
janak
january
japan
japanese
jargon
java
javanese
javascript
javier
jbo
jct
je
jeh
jersey
jewish
jfm
jgw
ji
jimbo
jimi
jinuo
job
john
join
joined
joining
joins
joint
jola
jomsom
jones
jor
jordan
joshee
journal
journals
jp
jpeg
jpg
jpn
jquery
jr
js
json
jsonencode
jstor
ju
jua
juan
judeo
jul
julian
july
jump
jun
junction
june
jungle
jupiter
jur
jurisdiction
jurisdictions
jury
just
justice
juxtlahuaca
juǀ
jv
jyutping
k
ka
kaa
kaapor
kab
kaba
kac
kadazan
kagbeni
kaili
kal
kala
kalaallisut
kalagan
kalapuya
kali
kalinga
kallahan
kalmyk
kalu
kam
kami
kan
kana
kango
kanji
kanjobal
kannada
kansas
kanum
kanuri
kanyam
kao
kap
kapampangan
kar
kara
karaboro
karbi
kare
karen
karipu
karki
karl
karnali
karo
karon
kashmiri
kashubian
katakana
katang
kathmandu
katu
katuki
kayah
kayan
kaz
kazakh
kazakhstan
kb
kbd
kcal
kcvelaga
ke
keeling
keep
keeps
kei
kela
kele
kelvin
ken
kenning
kenya
kenyah
kept
keres
kern
ket
keu
kev
kew
kewa
key
keypos
keypress
keys
keyword
keywords
kg
kgf
kh
kha
kham
khan
khar
kharia
khe
khi
khm
khmer
khmr
kho
khu
khumi
ki
kik
kikuyu
kill
kilogram
kilograms
kilojoule
kilometer
kilometers
kilometre
kilometres
kilotonne
kilowatt
kim
kinabatangan
kinaray
kind
kindly
kinds
king
kingdom
kingdoms
kinnauri
kinyarwanda
kiowa
kir
kiribati
kirmanjki
kis
kisi
kit
kitts
kituba
kiwai
kj
kk
kl
kla
klingon
km
kml
kmol
kn
knda
know
knowledge
known
knows
ko
koe
kohistani
koi
kok
koki
kol
kolami
koli
kolkata
kom
komi
komo
kon
konda
kong
kongo
konjo
konkani
kono
kor
koraga
kordofanian
korea
korean
koro
kos
kosovo
kota
koy
kp
kpa
kpc
kpelle
kr
krahn
krc
kri
kriol
krit
kro
kru
krumen
ks
ksh
ksi
kt
ku
kua
kui
kuk
kuku
kulango
kulina
kulung
kumale
kuman
kuna
kung
kuni
kuo
kur
kurdish
kurumba
kut
kutai
kuwait
kuy
kv
kw
kwa
kwe
kwerba
kwh
ky
kyujitai
kz
l
la
label
labelid
labelled
labelledby
labelorid
labels
labelstyle
labial
labiodental
labo
labore
laboris
laborum
lac
lachi
lack
lacking
lacks
lad
ladin
ladino
ladji
lag
laha
lahta
lahu
lak
laka
lake
lakes
lakota
lala
lalo
lalu
lama
lampung
lamu
lan
lana
land
lane
lang
langcode
langlist
lango
langobj
langswitch
langtang
language
languagecode
languages
langue
lanka
lankan
lao
laoo
laos
lapsus
large
larger
largest
largs
las
last
lastauthoramp
lastfirst
lastfirsttable
lastn
lat
late
later
lateral
latest
latin
latinized
latitude
latn
latter
latvian
lau
launch
laut
law
lawa
laws
lax
lay
laydate
layer
layout
laysource
laysummary
layurl
laz
lazily
lazy
lb
lbf
lbfft
lbl
lbm
lbmol
lc
lccn
lcwt
ld
le
lead
leader
leadership
leading
leadout
leads
leaf
league
leap
learn
learning
least
leave
leaves
leaving
lebanon
lect
led
lee
left
leftflag
lega
legacy
legacylabelid
legacyname
legal
legally
legend
legislature
lele
lembata
len
lendu
leng
length
lengths
lengua
leo
leone
les
lesotho
less
let
leti
letter
letterpos
letters
lev
levantine
level
levels
lewo
lez
lg
lga
lh
lhamte
lhasa
lhct
lhs
li
lia
liberia
liberty
libraries
library
libraryutil
libya
libyan
licence
license
licensed
licenses
licensing
lid
lie
liechtenstein
lieutenant
life
light
ligurian
like
likely
likes
lim
lima
limb
limba
limbu
limburgish
limit
limitation
limitations
limited
limits
lin
linb
lincoln
line
linear
linenum
lines
linesep
linestring
linglist
lingua
linguist
linguistic
linguistics
linguolabial
link
linkarticle
linked
linkedarticle
linking
linkn
linknode
linkprefix
links
linktext
linktitle
linnaeus
linux
list
listclass
listdialog
listed
lister
listing
listings
listk
listn
listnum
listpadding
lists
liststyle
listtotext
listtype
lisu
lit
liter
literal
literary
literature
lithuania
lithuanian
litre
little
liv
live
liveweb
living
lj
lk
lka
ll
llengua
lmc
lmct
lmz
ln
lnd
lng
lnk
lo
load
loadapi
loaddata
loaded
loader
loading
loadquery
loads
lob
lobu
loc
local
localedata
localized
locally
localval
located
location
locations
locator
lock
locmap
locmapin
log
logarithm
logevents
logged
logic
login
logo
logos
logpage
lohar
loi
lojban
lolopo
loma
lomwe
lon
london
long
longer
longitude
loo
look
looked
looking
looks
lookup
lookupcreation
loop
loops
lorem
los
loss
lost
lot
lou
loudly
louisiana
loup
lov
loves
low
lower
lowercase
lowerk
lowest
lowland
loxicha
lozi
lp
lpost
lpre
lr
lsch
lsct
lsl
lt
ltf
lthumb
ltu
ltz
lu
lua
luamain
luba
lucia
lucky
lue
lui
lule
lum
lun
luo
luopohe
luri
lus
luwian
luxembourg
lv
lw
ly
m
ma
maa
maarten
maba
mac
macau
macedo
macedonia
macedonian
mach
machine
macrolanguage
macron
mad
mada
madagascar
madang
madare
made
madhi
mae
mag
magar
magazine
magazines
magic
magna
magnetic
magnitude
magnolia
mah
mahal
mahatma
mai
maidu
mail
mailing
mailinglist
mailings
main
maincat
maine
mainly
mainpage
mainsnak
mainspace
maint
maintain
maintained
maintenance
maithili
maiwa
majhi
major
majority
mak
makasar
make
makecategorylink
makedata
makeentryname
makeinvokefunc
makelist
makes
maketitle
makeunits
makeurllink
makewikilink
makewikitexterror
makewrapper
makhuwa
makian
making
maku
mal
mala
malaccan
malagasy
malasar
malawi
malay
malayalam
malayo
malaysia
maldives
male
malformed
mali
malinaltepec
mall
maltese
malvinas
mam
mambila
man
management
manager
managerclubs
managers
manageryears
manchu
manda
mandaic
mandalabookpoint
mandarin
mandatory
mandir
mandobo
mango
manichaean
maninka
maninkakan
manipuri
manitoba
manmade
manner
manobo
manoj
mantissa
manual
manually
manumanaw
many
manza
mao
maori
map
mapframe
mapname
mapped
mapping
mappings
maps
mapsize
mapuche
mar
marathi
marc
march
marcos
marghi
margin
marguments
mari
maria
mariana
marind
marine
maring
marino
marinus
mark
markadmins
marked
marker
markers
market
markets
markhigh
marking
marks
marksize
markup
marpha
marquesan
mars
marshallese
marti
martin
maru
marwari
maryland
mas
mascot
masela
mashan
mashi
mask
maskn
mass
massachusetts
massmessage
master
match
matched
matches
matching
mater
material
materials
math
mathematical
mathematics
mathematik
matic
matlatzinca
mato
matter
matters
matu
mauritius
mawa
max
maxdiff
maxf
maxi
maximum
maxlen
maxsigfig
maxvals
may
maya
mayan
maybe
mayi
mayo
mazahua
mazatec
mazatla
mb
mba
mbara
mbe
mbembe
mbi
mbmix
mbo
mbox
mbpairs
mbq
mbre
mbula
mc
mcal
mcg
mcode
md
mdetails
mdf
mdy
me
mean
meaning
meaningful
meanings
means
meant
measure
measured
measurement
measurements
measurementtolink
mechanism
med
medal
medalbox
medals
medaltabletop
media
medialj
median
mediawiki
medical
medicine
medieval
mediterranean
medium
meet
meeting
meets
megleno
mel
melanau
member
memberof
members
membership
men
mende
mention
mentioned
menu
meo
meohang
mer
mercury
merely
merge
merged
merging
meridian
meroitic
mesopotamian
message
messagebox
messageboxes
messagedata
messages
messaging
met
meta
metaargs
metadata
metaparameter
metatable
metatemplate
meter
meters
method
methods
metre
metres
metric
metro
metropolitan
meu
mev
mex
mexican
mexico
mf
mfd
mfid
mg
mga
mgp
mgr
mh
mhatlist
mhatnote
mhl
mhnt
mhr
mhz
mi
miami
miao
mic
michael
michigan
michoaca
microformat
microformats
micronesia
microsoft
mid
middle
middleinitial
mie
mien
might
migration
miguel
mil
mile
miles
military
milk
millennium
millilitre
million
millions
mills
mimic
min
minangkabau
minaret
mind
mindiff
mini
minim
minimal
minimis
minimize
minimum
minister
minnesota
minor
minority
minus
minute
minutes
miquelon
mirror
mirrors
mis
misc
miscellaneous
mishmi
misleading
mismatch
miss
missing
mission
mississippi
missouri
mistakes
mit
miu
miwok
mix
mixe
mixed
mixtec
mixtepec
mj
mk
mkd
mkh
ml
mla
mln
mlt
mlym
mm
mmmm
mmol
mmr
mn
mnc
mni
mno
mnong
mnp
mo
moa
mobile
mod
mode
model
modern
modes
modi
modification
modifications
modified
modify
modifying
modtrackgauge
module
modules
modulo
mofu
mohawk
moi
moid
mok
mol
molar
moldavian
moldova
moldovan
mole
molecular
moles
mollit
molo
mom
moment
mon
monarch
monday
money
mong
mongolia
mongolian
monier
monitor
mono
monolingual
monotypic
monpa
montage
montages
montana
montenegro
month
monthly
months
montserrat
monument
moo
moon
moons
mor
moral
more
moreargumentsexist
morebits
mori
morning
moroccan
morocco
mos
moscow
moses
most
mostly
mother
motion
motorway
motto
motu
mountain
move
moved
moveexpiry
movelevel
movement
movemodify
moves
movie
moving
moz
mp
mpc
mpg
mph
mpi
mps
mr
mrn
mro
mrt
mru
ms
msa
msg
mshared
msk
mst
msw
mt
mtabletools
mtext
mtx
mu
much
muji
mul
mult
multi
multiline
multilingual
multiple
multiples
multiplier
multiply
mum
mumbai
mun
munda
municipalities
municipality
mur
muria
murik
murray
murut
mus
museum
music
musical
musicians
must
mustang
muyu
mv
mw
mwa
mwe
mwera
mwh
mwi
mwl
mww
mx
my
mya
myalup
myanmar
mylanguage
myn
mypage
myr
mys
mythology
myurl
myv
n
na
nabin
nacional
naga
nagarkot
nago
nah
nahuatl
nai
nairobi
najdi
nam
nama
name
named
namedata
namelist
namelistformat
names
namesep
namesi
namespace
namespaces
namibia
naming
nan
nanjing
nao
nap
nar
nara
nari
narrow
nasa
nasal
nasdaq
nasu
nat
nation
national
nationality
nationalteam
nations
native
nativename
natural
nature
natureserve
nauru
nautical
nav
navajo
naval
navbar
navbox
navboxes
navboxparams
navchild
navcontent
navframe
navigating
navigation
navigational
navseasoncats
navtoggle
navy
naxi
nay
nb
nba
nbc
nbk
nbl
nbsp
nc
nca
ncbi
nci
ncl
nd
nda
ndargs
ndataset
nde
ndebele
ndl
ndo
nds
ndu
ne
near
nearest
nearly
nebraska
necessarily
necessary
ned
need
needed
needing
needle
needs
negative
negatives
neighboring
neither
nek
nelumbo
nen
nend
neo
nep
nepal
nepalese
nepali
neptune
nested
net
netherlands
network
neutral
never
nevertheless
nevis
new
newa
newari
newer
newescape
newfoundland
newick
newline
newlines
newname
newrawmessage
news
newsection
newsectiontitle
newsgroup
newsletter
newspaper
newspapers
newtitle
newton
next
nextindex
nez
nf
nfcc
nfl
ng
nga
ngad
ngando
ngbaka
ngbandi
nge
ngombe
ngyi
nh
ni
nic
nicaragua
nice
nickname
nicknames
nicobarese
niger
nigeria
nigerian
night
nih
nihon
nii
nik
nil
nimo
nin
nine
ninka
ninth
nir
nirajan
nirjal
nisi
nisu
nitesh
niu
niue
nj
njua
nl
nla
nld
nlm
nm
nmi
nmonth
nn
nnnnnn
nno
no
nob
noborder
noc
nocat
nochange
nocomma
nocreate
node
nodes
noeditsection
noexpiry
noflip
noinclude
nolink
nom
nomatch
nombre
nomenclature
nominal
nominate
nominated
nominations
non
none
nonempty
nonstandard
noop
nopp
nor
norfolk
norm
normal
normalize
normalized
normally
norman
norse
north
northeast
northeastern
northern
northing
northkorea
northwest
northwestern
norway
norwegian
nospace
nostrud
not
notability
notable
notarget
notation
note
noted
notes
nothing
notice
noticeboard
notices
notification
notifications
notify
notifying
notifytext
notifyuserspace
noting
noto
notoc
notracking
notre
nottoway
noufo
noun
nov
nova
novalue
november
now
nowiki
nowikiinvocation
nowrap
nowrapitems
noy
np
npl
npr
npt
nqo
nr
nrhp
ns
nscategory
nsi
nso
nspace
nst
nstable
nstext
nsw
nt
nte
nth
ntitle
nu
nuaulu
nub
nubian
nuco
nugunu
nuk
null
nulla
num
number
numbered
numberi
numbering
numberof
numbers
numberspell
numdot
nume
numeral
numerals
numerator
numeric
numerical
numerous
numprotected
nums
numsep
numstr
nuni
nupe
nuu
nuvola
nv
nw
nwc
nxv
ny
nya
nyanga
nyasa
nye
nyi
nyiha
nyika
nynorsk
nyo
nz
nzi
nzl
o
oar
oaxaca
obelisk
obj
object
objects
obligatory
obo
obscure
obscuring
observation
observatory
observe
observes
obsolete
obtain
obtained
obvious
obviously
oc
occaecat
occasion
occasionally
occitan
occupation
occur
occurrence
occurrences
occurs
ocean
oceania
och
oci
ocinsoutput
oclc
oct
october
odd
oddstyle
odia
odt
oe
of
off
offer
offers
office
officeholder
officer
officia
official
offline
offname
offset
offsets
ofo
often
oga
ogg
ogham
oh
ohio
ohlone
oih
oil
oirat
oj
ojibwa
ok
oki
okinawan
oko
okpe
oku
ol
old
older
oldest
oldestfossil
oldfield
oldid
olo
olu
olympic
olympics
om
omaha
oman
ombox
omi
omit
omitsep
omitted
omitting
omnium
on
ona
once
one
ones
onfailure
ong
onglet
onglets
ongoing
onin
online
onloadfailure
only
onlysourced
onlysrc
ono
onsavefailure
onsavesuccess
onsuccess
ontario
onto
op
opacity
open
opened
opening
openlibrary
opera
operated
operates
operating
operation
operations
operator
opinion
opportunity
oppose
opposite
ops
opt
optgroup
optimised
option
optional
optionally
options
optionsk
optionstext
optout
or
ora
orang
orange
orbit
orbital
ord
order
ordered
ordering
orderlist
orders
ordinal
ordnance
ordo
ordsuffix
oregon
org
organic
organisation
organised
organisms
organization
organizational
organizations
organize
organized
organizing
ori
orientation
orig
origargs
origin
original
originally
origink
origyear
oriya
orlist
oro
oromo
orphan
orphans
ort
orthographic
orthography
orya
os
osage
osgb
oshima
osm
oss
ossetian
ossetic
osti
ota
otd
other
otherpage
others
otherwise
oti
oto
otomi
otrs
ottoman
ou
ounce
our
out
outdent
outer
outerdiv
outinfo
outline
outlines
output
outputs
outseq
outside
outstring
outvalue
over
overall
overflow
overhead
overlap
overlay
overlink
overly
overridden
override
overridecode
overrides
overriding
overview
overwrite
overwritten
owl
own
owned
owner
ownership
owns
oxford
oya
oz
p
pa
paa
pacific
package
pad
padded
padding
padlock
paekche
pag
page
pagedeleter
pageid
pagename
pagenamenorm
pageobj
pageobject
pageparam
pages
pagesection
pagetext
pagetitle
pagetype
pagetypes
pageundeleter
pahari
paharia
pahawh
pahlavi
pai
paid
painting
pair
paired
pairs
paiute
pak
pakistan
paku
pal
palace
palatal
palatalization
palatalized
palato
palaung
palawano
palestine
pali
pam
pame
pan
pana
panama
panel
panjabi
pano
panorama
pant
panthera
pao
papaya
paper
papers
papua
papuan
par
para
paragraph
paragraphs
paraguay
paraguayan
parallel
param
parameter
parameterfuncs
parameters
paramkey
paramorder
params
paramsp
paramsv
paramtable
paramval
parbate
parens
parent
parentargs
parentfirst
parentheses
parenthesis
parenthetical
parentnode
parentonly
parents
parentt
pargs
pargskey
pariatur
paris
park
parking
parks
parkway
parliament
parm
parms
parmsi
parse
parsed
parsedformat
parseformat
parseinput
parseint
parseparam
parser
parserfunctions
parsi
parsing
part
partial
partially
participants
participate
participated
participation
particular
particularly
parties
partner
partnerships
partof
parts
party
pas
pasco
pashai
pashayi
pashto
pass
passage
passages
passed
passedargs
passenger
passes
passiflora
passing
past
pastaza
paste
pasted
patan
patent
path
patna
patrol
patrolled
patron
patronymic
pattani
pattern
patterns
patternspattern
pau
paulo
pay
pc
pcall
pcgn
pclevel
pct
pd
pdc
pdf
pdt
pe
peace
peach
peak
peckenridge
pedro
peer
peh
pei
pen
penalty
penan
pencil
pending
peng
penguin
pennsylvania
peo
people
peoples
per
perc
percent
percentage
perform
performance
performed
performer
performing
perhaps
periastron
period
periodical
periodically
periods
permanent
permanently
permian
permission
permissions
permit
permitted
perrow
persian
person
personal
persons
peru
perunit
peso
pev
pewdiepie
pf
pframe
pg
ph
pha
phaa
phab
phabricator
phags
phagspa
pharyngeal
phase
phen
phewa
phfs
phi
philippine
philippines
philosophy
phl
phoenician
phola
phoneme
phonemes
phonemic
phonetic
phonetics
photo
photograph
photographer
photographs
photography
photos
phowa
php
phrase
phrases
phu
phylogenetic
phylum
physical
physics
pi
pia
pic
piccap
picene
pick
picsize
picture
pictures
pid
pidgin
pidgins
pie
piece
pieces
pierre
pin
ping
pink
pinus
pinyin
pipe
piped
pipes
piro
pitcairn
pitta
piu
pixel
pixels
pj
pk
pkt
pkwy
pl
place
placed
placeholder
placement
places
placing
plain
plainlinks
plainlist
plainname
plains
plan
plane
planet
planets
planned
planning
plant
plantae
plantilla
plants
plate
platform
play
played
player
players
playing
playlist
plays
pld
please
pli
plosive
pls
plural
plus
pluto
plw
pm
pmc
pmcid
pmid
pn
png
po
podatki
podcast
podiceps
poem
pog
point
pointer
pointers
points
poj
pol
poland
pole
policies
policy
polish
political
politician
politics
polls
poly
polynesia
polynesian
pom
pomo
poor
pop
popoloca
popoluca
popular
populate
populated
populates
population
por
port
portal
portals
portion
portions
portlet
portlets
portrait
portugal
portuguese
portulaca
pos
position
positional
positiondropdown
positions
positive
positives
possibilities
possible
possibly
post
postal
postalveolar
postcondition
posted
poster
posters
postfix
posts
postscript
potential
potentially
pound
pounds
pour
pov
pow
power
poz
pp
ppp
pqw
pr
pra
prachanda
practice
practices
pradesh
prakrit
prange
prasad
prayer
prc
pre
preamble
prec
precede
preceded
precedence
preceding
precipitation
precise
precision
precondition
predecessor
predecessors
predefined
predefinic
predloga
pref
prefer
preferable
preferably
preference
preferences
preferred
prefix
prefixed
prefixedtext
prefixes
prefixindex
prefixtable
prefs
preload
premier
prepare
prepareargs
prepared
prepend
prependtext
preprint
preprocess
preprocessargs
preprocessed
preprocesssinglearg
presence
present
presentation
presented
presenting
presently
presents
preserve
preserved
preset
president
presidential
press
pressure
presumable
presume
presumed
pretty
preunit
prev
prevent
prevents
preview
previewbox
previewdialog
previewdiv
previewer
previewing
previewlink
previous
previously
prevp
pri
price
primarily
primary
primaryl
primaryr
prime
prince
principal
principle
principles
print
printable
printed
printing
prior
priority
privacy
private
priyanka
prize
pro
probably
problem
problems
probox
procedure
proceed
proceedings
process
processed
processes
processing
processor
prod
prodtype
produce
produced
produces
producing
product
production
products
prof
professional
profile
profit
program
programming
programs
progress
progressive
prohibited
proident
project
projection
projects
prominent
promote
promotion
promotional
prompt
pron
pronounced
pronunciation
proofread
proofreadthon
prop
proper
properly
propersign
properties
propertiescode
property
propertyid
propertyvalue
propertyvalueandquals
propid
proposal
proposals
propose
proposed
props
prose
protect
protected
protection
protectionblurb
protectioncategories
protectiondate
protectionlevel
protectionlevels
protectionlog
protectionnode
protectionobj
proto
protocol
prototype
protruded
prove
provenc
provide
provided
provides
providing
province
provinces
provincial
proxy
prs
prt
pru
ps
pseudo
psh
psi
psp
pst
psu
pt
ptkmnnrl
ptr
pts
pu
pub
public
publication
publicationdate
publicationplace
publications
publicly
publish
published
publisher
publishername
publishers
publishing
pubmed
puebla
puerto
pumi
pump
punan
punct
punctuation
pune
punjab
punjabi
puppet
purely
purepecha
purge
purple
purpose
purposely
purposes
pus
push
pushpin
put
puts
putting
puyo
pwo
px
pxramesh
py
pye
pyramid
pyu
q
qatar
qc
qiandong
qiang
qid
qomolangma
qoou
qt
qtr
qu
quadrillion
qual
qualid
qualifier
qualifierid
qualifiers
qualifierscount
quality
quals
quantity
quart
quarter
que
quebec
quechua
queen
queries
query
question
questions
qui
quiche
quichua
quick
quickform
quis
quit
quite
quivira
quotation
quotations
quote
quotebox
quoted
quotemarks
quotes
qur
qux
qval
r
ra
race
rad
radial
radiation
radio
radius
rai
rail
railway
railways
rain
raise
raj
ram
ramesh
rana
rand
random
randomly
range
ranges
rank
ranked
ranking
rankpos
ranks
rao
rap
rar
rara
rare
rarely
rate
rather
ratification
rating
ratings
ratio
rationale
rationales
raw
rawequal
rawget
rawkeyself
rawset
rawvalue
ray
raymond
rcat
rct
rd
re
reach
reached
read
readable
reader
readers
reading
readonly
reads
ready
real
really
reason
reasonable
reasonably
reasonator
reasonparam
reasons
rebuilt
receive
received
recent
recentchanges
recently
recognised
recognition
recognizable
recognize
recognized
recommend
recommendations
recommended
reconstructed
record
recorded
recording
records
recreate
recreation
rect
rectangle
recursion
red
redefinition
redirect
redirected
redirecting
redirects
redirecttitle
redlinks
reduce
reduced
reduces
redundancy
redundant
reef
ref
refactoring
refbegin
refer
reference
referenced
references
referenceurl
referencing
referred
refers
reflect
reflexes
reflist
refname
reformat
reformatted
reformatting
refparts
refresh
refs
reg
regard
regarded
regarding
regardless
regards
regent
regex
regexp
region
regional
regions
register
registered
registers
registrant
registration
registry
regnum
regular
reissues
rejang
reject
rejects
rel
related
relatedpage
relates
relations
relationship
relative
release
released
releases
relevance
relevant
reliable
relief
religion
religions
religious
rely
rem
remain
remainder
remaining
remains
remap
remember
removal
remove
removeattr
removeblanks
removed
removeditem
removes
removing
ren
rename
renamed
render
rendercell
rendered
rendering
renders
rendertrackingcategories
renewal
renewed
rengma
renovation
rep
repeat
repeated
repeatedly
repeating
repetitive
replace
replacechild
replaced
replacement
replacements
replaces
replacing
reply
report
reported
reporting
reports
repository
reprehenderit
represent
representation
representative
representatives
represented
representing
represents
republic
req
reqranks
request
requested
requesting
requests
require
required
requirement
requirements
requires
requiring
rer
res
research
reserve
reserved
reservoir
reset
resetlink
reshe
resian
residence
resizedropdown
resolution
resolve
resolved
resolveentity
resolves
resource
resources
respect
respective
respectively
response
responsexml
rest
resting
restore
restored
restricted
restrictions
result
resultant
resulting
results
ret
retained
retaining
retalt
retargs
retfoot
reti
retired
retrieve
retrieved
retrieving
retroflex
return
returned
returning
returns
returnval
retval
reuse
reused
rev
revenue
reverse
reversed
revert
reverted
reverting
revertnode
reverttorevision
revertuser
revid
review
reviewed
reviewer
reviews
revised
revision
revisions
revival
revived
rewritten
rez
rfc
rfd
rft
rgb
rhododendron
rhs
ri
riang
rica
rican
rice
rich
richard
rico
riding
right
rightflag
rights
ring
rings
rio
risk
river
rivers
rizmi
rm
rmtr
rn
rname
rnd
ro
roa
road
roads
robert
roc
rock
rockunit
rod
rodham
roglai
role
roles
rollback
rom
roma
roman
romance
romani
romania
romanian
romanization
romanizations
romanized
romano
romansh
romatzyh
rome
ron
roo
room
rooms
root
rosa
rose
roses
rosids
roster
rotten
rou
roughly
round
rounded
rounding
rounds
roundto
route
routes
rover
row
rowargs
rowcellstyle
rowclass
rowcount
rowid
rownums
rows
rowspan
rowstyle
royal
rozaj
rpppage
rr
rs
rtext
rtgs
rtl
rtm
rty
ru
rugby
rule
rules
run
rundi
runic
running
runs
runway
runways
rup
rupee
ruq
rural
rus
russia
russian
rut
rvlimit
rvprop
rw
rwa
rwanda
rxv
s
sa
saafi
saarc
saba
sabah
sabu
sad
sadri
safari
safe
safely
sah
sahara
saharan
sai
said
saidi
saint
saka
sake
sal
salish
sall
salt
salvador
sam
sama
samaritan
samba
sambal
same
sami
samo
samoa
samoan
sample
samples
san
sand
sandbox
sandboxtitle
sandwich
sanga
sango
sangu
sans
sanskrit
santa
santali
santiago
sao
sapiens
sapkota
sar
sara
sarangani
sardinian
saroj
saskatchewan
sat
satellite
satellites
saturday
saturn
sau
saudi
save
saveapi
saved
saves
saving
saw
saxon
say
says
sb
sbl
sbn
sc
scale
scaled
scales
scaling
scan
scanned
scans
scenic
scf
schedule
scheduled
scheme
schemes
scholarship
scholarships
school
science
sciences
scientific
scl
scn
sco
scope
scotland
scots
scottish
scream
screen
screenshot
screenshots
scribunto
script
scriptcode
scripts
scroll
scrollbox
sct
sd
sdn
se
sea
seal
search
searchable
searchalias
searched
searches
searching
searchterms
season
seasons
seat
seating
seats
sec
second
secondary
secondaryl
secondaryr
secondrun
seconds
sect
section
sections
sectiontitle
secure
sed
sedis
see
seed
seek
seem
seemingly
seems
seen
seg
segment
segments
segoe
sek
seke
seko
select
selected
selecting
selection
selector
self
selfref
selfself
sem
semantic
semantically
semi
semicolon
semicolons
semitic
sen
sena
senate
sending
senegal
senni
senoufo
sense
sensitive
sent
sentence
sentences
sep
sepa
separate
separated
separately
separator
separators
sepc
sepik
seps
september
seq
sequence
sequences
sequential
ser
serbia
serbian
serer
serial
series
serif
serua
serve
served
server
servers
serves
service
services
serving
session
sessions
set
setappendtext
setattribute
setbuttonsenabled
setcallbackparameters
setchangetags
setcontent
setcreateoption
setdisplayorder
seteditsummary
setfollowredirect
seti
setmetatable
setoption
setpagelist
setpagetext
setparent
setranks
sets
setscriptname
setting
settings
settitle
settled
settlement
settlements
setvalues
setwatchlist
setwatchpref
seven
seventh
several
sg
sga
sgn
sgp
sgs
sh
sha
shackle
shading
shadow
shah
shakespeare
shall
shanghai
shape
shapes
share
shared
shares
sharing
shark
she
sheet
sheets
shenzhen
sherpa
shi
shield
shields
shift
shiki
shina
shinjitai
ship
shivapuri
shn
shore
short
shortcut
shortcuts
shortened
shorter
shortname
shot
should
shouldbe
shouldn
show
showcode
showflag
showing
shown
showpreview
shows
shp
sht
shu
shua
si
sia
siberian
sibilant
sic
sichuan
sichuanese
sid
side
sidebar
sidney
sie
sierra
sig
sigfig
sign
signal
signature
signed
signes
significance
significand
significant
significantly
signpost
signs
siksika
sil
sila
silesian
silhouette
silver
similar
similarly
simple
simpler
simplest
simplewindow
simplicity
simplified
simplify
simply
sin
since
sindhi
sing
singapore
singh
single
singlenotice
singles
singlewarn
singular
sinh
sinhala
sinhalese
sint
sio
siprefixes
sir
sisaala
sissano
sister
sit
site
sitelink
sitelinks
sites
situation
situations
six
sixth
size
sizes
sizing
sj
sjabloon
sk
skew
ski
skills
skin
skins
skip
skipped
skr
sky
skyline
sl
sla
slang
slash
slavey
slavic
slavonic
sleep
slice
slightly
slim
slip
slk
slot
slovak
slovakia
slovenia
slp
slv
sm
sma
small
smaller
smallimage
smallimageright
smalltext
smartphone
sme
smi
smiley
smith
smn
sms
sn
snak
snaks
snaktype
sname
snapdate
snapshot
snd
snk
snow
so
soccer
soccerway
social
society
sock
sockpuppet
sockpuppets
soft
software
sogdian
soi
sol
solar
solely
solid
solo
solomon
solution
som
somali
somalia
some
someone
somerset
something
sometimes
somewhere
son
song
songhai
songhay
songs
soo
soon
sop
sopt
sora
sorbian
sorry
sorsoganon
sort
sortable
sorted
sorting
sortkey
sorts
sortspan
sos
sot
sotho
sou
sound
soundfile
source
sourcecount
sourced
sources
sourcing
south
southeast
southeastern
southern
southwest
southwestern
sovereign
soyaltepec
sp
spa
space
spaced
spaces
spacing
spain
spam
span
spanish
spans
spantag
sparingly
speaker
speakers
speaking
spec
special
specialized
specials
species
speciesbox
specific
specifically
specification
specifications
specifics
specified
specifies
specify
specifying
speech
speed
speedy
spell
spelled
spelling
spellings
spi
spin
spire
splat
split
splitting
spoken
sport
sporting
sports
spouse
spread
spring
spur
spx
spy
sq
sqft
sqin
sqkm
sqm
sqmi
sqrt
sqry
squad
square
squared
sr
srb
src
srcmeta
srd
sri
ss
ssa
ssp
ssrn
ssss
sst
st
stabilize
stable
stack
stacked
staff
stage
stamp
stand
standalone
standard
standardization
standardized
standards
standing
standings
stands
stanford
star
starbox
stars
start
started
starting
starts
starttime
starttimestamp
starttimey
stat
state
stated
statedin
statelem
statement
statements
states
statesparameters
static
station
stations
statistic
statistics
stats
statue
status
statusdiv
statuselement
statusnode
stay
std
steam
step
steps
stf
sth
stha
stieng
still
stlb
stn
stock
stockholm
stone
stop
stops
store
stored
stores
stories
story
str
straight
strange
strategy
street
stress
strict
strictly
string
strings
stringsi
strip
striping
stripmarker
stripmarkers
stripped
strips
striptonil
stroke
strokeopacity
strokes
strokewidth
strong
strongly
strout
structural
structure
structured
structures
stt
stub
stubcats
stubs
student
students
studies
studio
study
stuff
style
styled
styles
stylesheet
stylestable
stylestabwrap
stylestring
styling
stylized
su
sub
suba
subanen
subanon
subbox
subcategories
subcategory
subclade
subclassis
subdiv
subdivision
subdivisions
subdivs
subfamily
subg
subgenus
subgroup
subgroups
subheader
subheaderrowclass
subheaderstyle
subject
subjectlink
subjects
subjectspace
sublabel
submission
submissions
submit
submitted
subpage
subpages
subpagetext
subs
subscribe
subscription
subsection
subsequent
subser
subset
subsidiaries
subsp
subspecies
subst
substantial
substitute
substituted
substituteparameters
substitution
substring
subtables
subtag
subtags
subtemplate
subtemplates
subtle
subtopic
subtopics
subtracting
subtree
subtrees
subtype
subunit
subvalue
succeeded
succeeding
success
successful
successfully
succession
successor
successors
such
sudan
sudanese
sudanic
suffice
sufficient
suffix
suffixed
suffixes
suggest
suggested
suggestion
suggestions
suggests
sui
suis
suitable
sum
summaries
summarize
summary
summaryad
summarytext
summer
sun
sundanese
sunday
sunflower
sunset
sunt
sup
super
superdomain
superfamilia
superior
superscript
superscripted
supl
supplement
supplementary
supplied
supply
support
supported
supporting
supports
suppose
supposed
suppress
suppressarticleinsummary
suppressed
suppresses
suppression
suppressprotectwarning
suppresstocnum
supreme
sur
sure
surface
surname
surrounded
surrounding
surui
survey
sushila
suspect
suspected
suspension
sv
svg
svk
sw
swa
swahili
swap
swe
sweden
swedish
swimming
swiss
switch
switching
switzerland
swo
swt
sx
sy
syc
sym
symbol
symbols
symlink
sync
synonym
synonyms
syntax
syntheses
syr
syrc
syria
syriac
sysop
sysops
system
systems
szl
t
ta
tab
tabasco
tabindex
table
tablei
tableinvocation
tableroot
tablerow
tables
tablestyle
tabletools
tabs
tac
tado
tae
tag
tagalog
tagbanwa
tagcontent
tagged
tagging
tagname
tags
tagtext
tai
tail
tairora
taiwan
taiwanese
taj
tajik
take
taken
takes
taking
tal
talk
talkback
talklink
talkpage
talkpageobj
talkpagetitle
talktext
talktitle
tall
talu
tam
tama
taman
tamang
tamazight
tamil
taml
tan
tanana
tang
tangkhul
tangut
tanna
tanzania
tar
tarahumara
tarangan
tarask
target
targettitle
targs
tas
task
tasks
tasmania
tasmanian
tat
tatar
tawbuid
taxa
taxobox
taxoboxes
taxon
taxonbar
taxonbars
taxonitalics
taxonname
taxonomic
taxonomy
taxonrank
tay
taylor
tb
tbl
tbody
tbq
tbt
tbtarget
tc
tcf
tch
tcoins
tct
td
tdata
tdkey
te
tea
team
teams
tebul
tec
tech
technical
technically
technique
techniques
technology
techreport
tee
teke
tel
telegram
television
tell
telu
telugu
tem
tembo
temp
temperature
templat
template
templateargs
templatecategory
templatecfg
templatedata
templateeditor
templateerrorcategory
templatename
templateoptions
templatepage
templatepar
templates
templatestyles
templatetext
templatetitle
temple
tempor
temporarily
temporary
temppage
ten
tena
tend
tennessee
tennis
tens
tenth
tenuis
teo
teochow
tepehua
tepehuan
ter
term
terminal
terminate
terminated
terminating
terminus
terms
territories
territory
test
testcase
testcases
testcasestitle
tested
tester
testfunc
testing
tests
tet
tev
tewa
tex
texas
text
textalign
textarea
textcell
textcolor
textcontent
textoptions
textpart
texts
textstyle
tey
tfd
tfrac
tg
tgentry
tgl
tglist
th
tha
thai
thailand
than
thank
thanks
tharu
that
the
theatre
thehimalayantimes
their
them
theme
themselves
then
theory
there
therefore
thereof
thermal
thermochemical
these
thesis
they
thi
thing
things
thingwithparameters
think
thinking
third
this
thispage
thisvalue
thm
thomas
thon
those
though
thought
thoughts
thousand
thousands
thread
threatened
three
threshold
through
throughout
throw
thu
thumb
thumbnail
thumbtime
thus
thz
ti
tib
tibetan
tibt
ticker
tidung
tidyval
tie
tig
tiger
tii
tilde
till
time
timediff
timeline
times
timestamp
timestamps
timezone
timor
tip
tips
title
titlebar
titleclass
titlecolspan
titled
titlegroup
titlelink
titleobj
titlepart
titleparts
titles
titlestyle
titletype
titre
tiv
tiwa
tj
tk
tkey
tkl
tl
tlacoapa
tlapanec
tlaxiaco
tld
tlg
tlh
tlhingan
tls
tlt
tlx
tm
tmbox
tmh
tmp
tmplt
tn
tname
tnt
to
toba
tobago
toc
toctogglelink
today
todayslist
todo
together
toggle
togo
toi
tokelau
token
tokens
tokharian
tokyo
tol
toll
tollway
tom
tomatoes
tomball
tome
tomorrow
ton
tone
tong
tonga
tongo
tongyong
tonne
tonumber
too
tool
toolbar
toolkits
tools
tooltip
top
tophoneticremainder
topic
topics
topo
tor
toro
toronto
torque
tostring
total
totext
totonac
touppercasefirstchar
tour
toura
tourist
tournament
toussian
tout
towards
tower
town
township
tp
tpc
tpi
tpl
tpt
tpx
tr
track
tracking
trackingcategories
tracks
trade
traded
trademarked
traditional
trailing
train
trainer
training
trans
transchapter
transclude
transcluded
transcludes
transcluding
transclusion
transclusions
transcript
transcription
transcriptions
transform
transl
translatable
translate
translated
translating
translation
translations
translator
translatorlist
translators
translit
transliterated
transliteration
transparent
transport
transtitle
transwiki
traveller
tre
treat
treated
treatment
tree
trees
trek
trial
tribus
trick
tried
trigger
triggering
trillion
trim
trimarg
trimmed
trimming
trims
trinidad
trinomial
trio
triplet
triqui
trivia
trophy
troy
truck
true
truncated
trustees
try
trying
ts
tsarang
tse
tsn
tso
tstyles
tt
ttllistedrange
ttlunitcount
ttm
tto
ttt
tu
tujia
tukang
tulu
tunebo
tunisia
tunisian
tup
tupi
tur
turkey
turkic
turkish
turkmenistan
turks
turn
turned
turnpike
turns
tut
tutchone
tutorial
tuvalu
tuz
tv
tval
tvl
tw
twa
twelve
twenty
twh
twi
twice
twinkle
twinkleconfig
twinkleoptions
twinklewarn
twl
twn
two
tx
txt
txtlang
ty
typ
type
typed
typeof
types
typical
typically
typing
typo
typographic
tyv
tz
u
ua
uabbr
ubi
ubl
uc
ucayali
ucfirst
ucoc
ucode
uda
udate
udi
udm
ue
uf
ug
uga
uganda
ugaritic
ugly
ui
uid
uig
uighur
uk
ukij
ukr
ukraine
ukrainian
ul
ullamco
ulx
um
uma
un
una
unable
unacceptable
unambiguous
unavailable
unbalanced
unbinder
unblock
unbulleted
uncategorized
uncertain
uncertainty
unchanged
uncoded
unconverted
uncopyrightable
uncu
und
undef
undefined
undelete
under
underline
underlying
underscore
underscores
understand
understanding
understands
understood
undesirable
undetermined
undo
unencyclopedic
unesco
unexpected
unfit
unformatted
ung
unicode
unified
uniform
unify
union
uniq
unique
unit
unitcode
united
unitonly
units
universal
universities
university
unix
unknown
unless
unlike
unlikely
unlink
unlinked
unlinker
unnamed
unnecessary
unordered
unpack
unprotected
unpublished
unranked
unreasonable
unrecognized
unreferenced
unregistered
unrelated
unrounded
unset
unsourced
unspaced
unspecified
unstrip
unstripnowiki
unsubscribe
unsupported
until
unused
unusual
up
upcoming
update
updated
updates
updating
upload
uploaded
uploader
uploading
upon
upper
uppercase
uprety
upright
ur
ura
uranus
urban
urdu
ure
uri
urj
url
urlencode
urls
urlutil
urlx
urn
uru
urubu
uruguay
ury
us
usa
usable
usage
usages
usd
usdrygal
use
usecollapsibletextfields
used
useful
usename
user
userbox
userisingroup
userissysop
username
usernames
usernotification
userpage
users
userspace
usertalk
usertalkpage
uservalue
uses
usesymbol
usewikidata
usgal
using
usoz
ustring
usual
usually
usub
usurped
ut
utable
utc
ute
utf
util
utilities
utility
utils
utu
utype
uun
uvular
uw
uya
uyghur
uz
uzb
uzbek
v
va
vague
vai
vaj
val
valencian
valid
validate
validates
validation
validity
valinfo
valley
vals
value
valuefunc
values
valuesarray
valuesi
valurl
vanarticle
vanc
vancouver
vand
vandal
vandalism
vantimestamp
vanuatu
vao
var
variable
variableparam
variables
variablevals
variant
varianti
variants
variantsubtags
variation
variations
varies
varietas
variety
various
varname
vary
vast
vatican
vauthors
vc
ve
vector
veditors
velar
velit
velocity
ven
venezuela
veniam
ventimiglia
venue
venus
ver
verbose
verde
verifiability
verification
verified
verify
vermont
versa
version
versions
vertical
very
vg
vi
via
viaf
vic
vice
victim
victoria
video
videos
vie
viet
vietnam
vietnamese
view
viewed
viewing
views
village
vincent
violation
violations
virgin
virginia
virus
viruses
visibility
visible
visit
visiting
visitors
visual
visualeditor
visually
vital
vn
vname
vnm
vo
vocabulary
voice
voiced
voiceless
void
vol
volapu
volleyball
volume
volumes
volunteer
volunteers
voluptate
von
vorlage
vot
vote
voter
voters
voting
vowel
vowelf
vowell
vowelr
vowels
vowelvowel
vparam
vro
vs
vt
vte
vtype
vu
vulnerable
vure
vx
vxxxxors
w
wa
wab
wade
wadi
wae
wahau
wahgi
waima
wait
wak
wal
wala
wales
wali
walk
walla
wam
wan
wanca
wancho
want
wanted
wantmixture
wantname
wants
wappen
war
wara
waray
warn
warning
warnings
waroona
warring
wars
warsaw
was
washington
wat
watch
watched
watchlist
watchlistenums
watchlistexpiry
watchlistoption
water
watt
watut
wau
way
wayback
ways
wci
wd
we
weather
web
webarchive
webcitation
webcite
webkit
website
websites
week
weekly
weeks
weh
weight
welcome
welcomeen
welcomes
well
welsh
wemba
wen
went
were
west
western
westpark
wet
wgarticleid
wgcurrevisionid
wgdiffoldid
wgnamespacenumber
wgpagename
wgrelevantusername
wgtitle
wgusername
what
whatamidoing
whatever
whatlinkshere
whc
when
whenever
where
whereas
whether
which
whichever
while
white
whitelist
whitelisting
whitespace
who
whole
wholestr
wholly
whom
whose
why
wi
wib
wichi
wide
widely
wider
width
widthcode
widths
wien
wik
wiki
wikibase
wikibooks
wikicamp
wikicode
wikiconference
wikidata
wikidataid
wikidataurl
wikiedu
wikilink
wikilinked
wikilinking
wikilinks
wikimania
wikimarkup
wikimedia
wikimedians
wikimeet
wikiminiatlas
wikipage
wikipedia
wikipedians
wikipedias
wikiproject
wikiquote
wikis
wikisource
wikispecies
wikisyntax
wikitable
wikitext
wikt
wiktionary
wild
wildcard
wildlife
will
william
williams
win
window
windows
windsor
winner
wins
winter
wisconsin
wish
wishes
wishlist
with
within
without
wl
wlink
wln
wls
wmf
wmo
woi
wolof
wom
women
won
word
wording
wordmark
words
work
workaround
worked
worker
workerfailure
workersuccess
workflow
working
works
workshop
workshops
world
worldcat
worldwide
worth
would
wp
wrap
wrapped
wrapper
wrapperargs
wrapperconfig
wrappers
wrapping
wraps
write
writers
writing
written
wrn
wrong
wrote
ws
wsc
wt
wtf
wu
wuu
wv
www
wyoming
x
xa
xal
xe
xej
xfd
xfdcat
xfdtarget
xfdwatchdiscussion
xfdwatchpage
xfdwatchuser
xian
xiang
xiangxi
xiao
xico
xlate
xlo
xls
xml
xmldoc
xmv
xn
xnu
xs
xsampa
xsux
xv
xwla
xx
xxx
xxxx
xxxxors
y
ya
yabula
yahoo
yak
yaka
yakut
yala
yale
yali
yamphu
yan
yanda
yangum
yao
yard
yau
yd
ye
year
yearly
years
yei
yellow
yemen
yen
yes
yesno
yesorno
yet
yi
yiddish
yields
yil
yintale
yir
yis
yitha
yj
ym
ymd
yo
yom
yor
york
yorta
yoruba
you
young
youngest
youngestfossil
your
yourself
youth
youthclubs
youthyears
youtube
yoy
ypk
yr
yround
yt
yu
yua
yucatec
yue
yug
yugur
yui
yukaghir
yupik
yuru
ywt
yy
yyy
yyyy
yyyymmdd
z
za
zab
zacatepec
zaf
zam
zambia
zande
zapotec
zay
zbl
zealand
zentralblatt
zero
zeros
zgh
zh
zha
zho
zhuang
zhuyin
zhzh
zia
zimbabwe
zinh
zip
zj
zm
znd
zone
zones
zoo
zoological
zoology
zoom
zoque
zxx
zyyy
zz
zza
{
|
}
~

¢
£
¤
¥
§
«
¬
¯
°
±
²
²¹
³
µ
¶
·
¸
¹
»
¼
½
¾
×
ß
æ
ð
÷
ø
þ
đ
ħ
ł
ŋ
œ
ƛ
ƿ
ǀ
ǁ
ǂ
ǃ
ǆ
ȝ
ȵ
ɏ
ɐ
ɑ
ɒ
ɔ
ɕ
ɖ
ɘ
ə
ɚ
ɛ
ɛə
ɜ
ɝ
ɞ
ɟ
ɡ
ɢ
ɣ
ɤ
ɦ
ɧ
ɨ
ɪ
ɪə
ɬ
ɭ
ɮ
ɯ
ɰ
ɱ
ɲ
ɳ
ɴ
ɵ
ɶ
ɷ
ɸ
ɹ
ɻ
ʁ
ʂ
ʃ
ʇ
ʈ
ʉ
ʊ
ʊə
ʋ
ʌ
ʍ
ʎ
ʏ
ʐ
ʑ
ʒ
ʔ
ʕ
ʖ
ʗ
ʘ
ʜ
ʝ
ʟ
ʡ
ʢ
ʤ
ʧ
ʰ
ʱ
ʲ
ʷ
ʷː
ʷːː
ʷˑ
ʹ
ʻ
ʼ
ʿ
ˀ
ˁ
ˈ
ˋ
ˌ
ː
ːː
ˑ
˔
˕
˖
˗
˞
ˠ
ˡ
ˤ
˥
˨
˩
̀
́
̂
̃
̄
̆
̇
̈
̉
̊
̋
̌
̍
̏
̑
̓
̔
̚
̛
̜
̝
̞
̟
̠
̣
̤
̥
̦
̧
̨
̩
̪
̫
̬
̭
̮
̯
̰
̱
̴
̵
̸
̹
̺
̼
̽
̿
͍
͜
͡
α
β
γ
δ
ε
ζ
η
θ
ι
κ
λ
μ
ν
ξ
ο
π
ρ
ς
σ
τ
υ
φ
χ
ψ
ω
ϕ
а
б
в
г
д
е
ж
з
и
к
л
м
н
о
п
р
с
т
у
ф
х
ц
ч
ш
шаблон
щ
ъ
ы
ь
э
ю
я
язы
ђ
є
ѕ
ј
љ
њ
ћ
џ
ִ
ַ
ּ
־
ֿ
א
ב
ג
ד
ה
ו
ז
ח
ט
י
ך
כ
ל
ם
מ
ן
נ
ס
ע
ף
פ
ץ
צ
ק
ר
ש
ת
ײ
׳
״
؋
،
ء
ا
ب
ة
ت
ث
ج
ح
خ
د
ذ
ر
ز
س
ش
ص
ض
ط
ظ
ع
غ
ف
ق
قالب
ك
ل
م
ن
ه
و
ي
َ
ُ
ِ
ّ
ْ
ٓ
ٔ
ٕ
٫
پ
چ
ژ
گ
ہ
ے
۲
ހ
ވ
ދ
ަ
ި
ެ
ँ
ं
ः
अ
अइल
अइलसम
अईल
अक
अकबर
अख
अखण
अग
अगष
अगस
अघ
अङ
अङर
अच
अचम
अचल
अछ
अज
अजरब
अझ
अञ
अट
अटल
अठ
अड
अण
अत
अथ
अथव
अद
अदभ
अध
अधर
अन
अनक
अनन
अनम
अनर
अनल
अनस
अप
अपन
अपभ
अपर
अपल
अपहरण
अफ
अफग
अफन
अफल
अब
अभ
अम
अमर
अमरगढ
अमरन
अमरस
अय
अर
अरन
अरब
अरय
अरव
अरऽ
अल
अलग
अलड
अव
अवक
अवत
अवध
अवर
अवल
अवश
अवस
अवसर
अवसरम
अश
अष
अस
असज
असन
असफल
असम
असमर
असर
असल
अह
अहमद
आ
आइ
आइओएस
आइक
आइतब
आइन
आइप
आइफ
आइबर
आइय
आइर
आइरह
आइल
आइस
आइसल
आई
आईएसब
आईस
आउ
आउट
आउद
आउन
आए
आएक
आएर
आक
आकर
आख
आग
आगन
आगमन
आगर
आघ
आच
आज
आजक
आजभ
आजसम
आठ
आत
आतङ
आथ
आद
आदर
आध
आन
आनन
आप
आपस
आपसम
आफ
आफन
आब
आबद
आभ
आम
आमन
आय
आयर
आयरल
आर
आरअ
आरएल
आरक
आरज
आरम
आल
आव
आवतज
आवद
आवश
आवस
आश
आस
आसक
आसप
आह
इ
इअक
इए
इएक
इएफए
इक
इकग
इकल
इग
इगर
इङ
इच
इछ
इछन
इज
इजर
इञ
इट
इटअन
इटअनक
इटक
इटम
इटर
इटल
इटहर
इड
इण
इत
इथ
इद
इन
इनओ
इनक
इनन
इनप
इनम
इनर
इनल
इनस
इप
इफ
इब
इबर
इबल
इभ
इम
इमर
इय
इर
इरक
इरफ
इरय
इरह
इल
इलक
इलट
इलहर
इव
इवर
इश
इष
इस
इसक
इसकन
इसम
इसर
इसल
इह
इहर
ई
ईएक
ईक
ईग
ईज
ईट
ईड
ईत
ईद
ईन
ईप
ईब
ईबर
ईभ
ईम
ईय
ईर
ईरक
ईल
ईवट
ईवस
ईश
ईस
उ
उइ
उइक
उइब
उइल
उई
उईक
उक
उख
उग
उच
उछ
उछन
उज
उजर
उट
उठ
उड
उडम
उण
उत
उथ
उद
उदय
उदयप
उध
उन
उनअन
उनअनक
उनअनल
उनक
उनम
उनर
उनल
उनस
उप
उपक
उपकरण
उपकरणअन
उपकरणक
उपग
उपच
उपज
उपत
उपद
उपन
उपप
उपभ
उपमह
उपय
उपर
उपलब
उपव
उपश
उपस
उपसभ
उपसम
उपसर
उपह
उफ
उब
उबज
उभ
उभयचर
उम
उमर
उय
उर
उल
उलर
उव
उष
उस
उसक
उसल
उह
ऊ
ऊक
ऊर
ऋ
ऋत
ऋष
ए
एइ
एइक
एइल
एई
एउट
एएफस
एक
एकक
एकजन
एकत
एकद
एकदम
एकन
एकफ
एकम
एकर
एकल
एकलक
एघ
एच
एचआईभ
एचक
एज
एट
एटल
एड
एडम
एडल
एडव
एण
एत
एथ
एथल
एन
एनक
एनन
एप
एपछ
एफ
एफआइप
एफएम
एफल
एफस
एब
एभ
एभर
एम
एय
एयर
एयरप
एर
एल
एव
एवम
एश
एस
एसएलस
एसप
ऐ
ऐत
ऐन
ऐम
ऐर
ऐल
ऐलक
ऐश
ऐस
ऑर
ओ
ओक
ओखल
ओखलढ
ओगट
ओज
ओजन
ओझ
ओट
ओड
ओद
ओन
ओप
ओब
ओम
ओर
ओल
ओलम
ओव
ओश
ओस
ओह
औ
औज
औद
औन
औपच
और
औषत
औषध
औसत
क
कअन
कअनक
कअनल
कइन
कई
कओ
कक
कग
कच
कज
कञ
कट
कटक
कटप
कटल
कठ
कड
कण
कत
कतन
कतम
कतर
कथ
कद
कदम
कन
कनक
कप
कपड
कपम
कफ
कफल
कब
कबठ
कभ
कम
कमज
कमन
कमर
कमल
कमलबज
कय
कर
करण
करणअन
करणक
करणम
करणल
करन
करम
कल
कलकत
कलन
कलम
कलर
कव
कश
कशप
कस
कसर
कसल
कह
कहर
ख
खअन
खअनक
खक
खकक
खकहर
खग
खज
खट
खड
खण
खत
खतर
खतरन
खद
खन
खनक
खनन
खप
खपत
खपर
खब
खबठ
खबर
खम
खर
खरब
खरम
खल
खलङ
खव
खस
खहर
ग
गअन
गअनक
गअनम
गइन
गइल
गई
गए
गएक
गएर
गक
गकर
गगन
गङ
गच
गज
गजल
गञ
गट
गटन
गठ
गठन
गठनक
गठनहर
गठबन
गड
गडन
गडव
गढ
गढव
गण
गणतन
गणन
गणर
गत
गतक
गतम
गद
गदर
गन
गप
गपत
गब
गबठ
गबन
गबह
गभ
गम
गमत
गमन
गमर
गमस
गय
गर
गरअन
गरक
गरन
गरम
गरय
गरल
गल
गलक
गलत
गलब
गलम
गलल
गलस
गव
गश
गस
गसब
गह
गहन
गहर
घ
घक
घट
घटक
घटन
घड
घण
घन
घनत
घम
घर
घरअन
घरअनम
घरक
घरध
घरम
घल
घस
ङ
ङओ
ङक
ङट
ङम
ङल
च
चक
चग
चगड
चट
चड
चढ
चण
चत
चथर
चन
चनज
चनजङ
चनप
चनम
चप
चब
चम
चय
चयन
चर
चरक
चरण
चरणक
चरणब
चरणम
चरम
चरल
चल
चलअन
चलक
चलच
चलन
चलम
चव
चवट
चस
छ
छअ
छक
छड
छत
छन
छप
छय
छर
छल
छलफल
छलफलक
छलफलम
छलफलहर
छव
छऽ
ज
जअन
जइ
जइक
जइम
जइल
जई
जईक
जईम
जईल
जक
जग
जगत
जगतक
जगतम
जगद
जगन
जङ
जट
जड
जण
जत
जतन
जतपत
जद
जध
जन
जनआन
जनक
जनकप
जनगणन
जनगर
जनज
जनत
जनम
जनमत
जनय
जनरल
जनल
जनव
जनवर
जनश
जनस
जनसङ
जप
जपर
जब
जबक
जबठ
जबर
जम
जमन
जमहल
जय
जयन
जयप
जर
जरक
जरल
जल
जलक
जलप
जलव
जलस
जव
जश
जस
जसक
जसब
जसम
जसमध
जसर
जसल
जह
जहर
झ
झक
झट
झड
झण
झन
झनक
झर
झरन
झल
झलक
ञ
ञअन
ञक
ञत
ट
टक
टकक
टकम
टकर
टकह
टग
टघ
टङ
टड
टण
टत
टद
टन
टनक
टनगर
टनगरम
टनल
टप
टफ
टब
टबठ
टबल
टम
टय
टर
टरक
टरन
टरफ
टरम
टरल
टल
टव
टवर
टवल
टश
टस
टसल
टह
टहर
ठ
ठअन
ठउर
ठउरअन
ठउरक
ठक
ठकक
ठकम
ठकल
ठकहर
ठग
ठण
ठन
ठभ
ठम
ठल
ठहर
ड
डअन
डआ
डक
डकप
डकपक
डकर
डट
डटकम
डटकमक
डटन
डड
डण
डद
डन
डनक
डप
डपर
डफ
डब
डम
डय
डयन
डर
डरल
डल
डलअन
डलक
डलम
डलर
डव
डस
डहर
ढ
ढक
ढङ
ढप
ढल
ढव
ण
णक
णकट
णग
णत
णद
णन
णप
णपत
णब
णम
णय
णर
णल
णव
णस
णहर
त
तअन
तअनक
तअनल
तइ
तओ
तक
तकअन
तकक
तकम
तकर
तकल
तकहर
तख
तग
तच
तज
तजन
तजनहर
तट
तटम
तटस
तड
तत
तथ
तद
तन
तनक
तनध
तनल
तनह
तप
तपस
तब
तबठ
तबल
तम
तमर
तमल
तय
तर
तरक
तरगत
तरङ
तरण
तरणम
तरत
तरद
तरध
तरप
तरफ
तरब
तरम
तरर
तरल
तरव
तल
तलक
तलत
तव
तवन
तवम
तवर
तस
तह
तहक
तहट
तहत
तहर
थ
थक
थग
थड
थतन
थन
थप
थम
थय
थर
थरक
थल
थलअन
थलक
थलम
थलहर
थव
थश
थस
थहर
द
दअन
दअनल
दक
दकअनक
दकक
दकहर
दख
दग
दघ
दछ
दछन
दज
दण
दत
दतल
दथ
दद
दध
दन
दनअन
दनक
दनकर
दनथन
दनम
दनश
दनहर
दप
दब
दभ
दम
दय
दर
दरग
दरत
दरब
दरल
दरव
दल
दलअन
दलक
दलदल
दलहर
दव
दवर
दश
दशक
दशकक
दशकम
दशन
दशम
दशरथ
दशहर
दस
दह
दहर
ध
धक
धकक
धकद
धकल
धकहर
धत
धन
धनक
धनगढ
धनम
धनल
धप
धब
धम
धर
धरण
धरहर
धल
धव
धवप
धवल
धस
धहर
न
नअन
नअनम
नअनल
नआ
नइ
नई
नउग
नओ
नक
नकर
नख
नग
नगद
नगर
नगरक
नगरप
नगरम
नगरल
नच
नचल
नछ
नज
नजर
नट
नड
नत
नतम
नथ
नद
नदर
नध
नन
ननगर
नप
नपछ
नपड
नफ
नब
नबक
नबठ
नबस
नबह
नभ
नभई
नभएक
नभन
नभय
नम
नमन
नमस
नय
नर
नरस
नल
नव
नवक
नवग
नवज
नवट
नवम
नवय
नवर
नवलपर
नश
नष
नस
नसक
नसखण
नसन
नसभ
नसम
नसर
नह
नहर
प
पअन
पइल
पक
पकव
पख
पग
पङ
पच
पछ
पञ
पट
पटक
पटकथ
पटन
पठ
पठनप
पड
पडड
पडन
पढ
पण
पणन
पत
पतन
पथ
पद
पदक
पदण
पदब
पदम
पदय
पन
पनक
पप
पब
पम
पय
पर
परक
परद
परभ
परम
परर
परश
पल
पलक
पव
पश
पष
पस
पसम
पह
पहर
पहल
पहलम
फ
फक
फग
फट
फटय
फत
फन
फब
फबठ
फर
फरक
फरवर
फल
फलक
फलफ
फलस
फस
फसलक
ब
बई
बईम
बक
बख
बखत
बग
बगञ
बगत
बगद
बगन
बगर
बघ
बङ
बच
बछ
बज
बझ
बञ
बट
बठ
बड
बढ
बढत
बण
बत
बतक
बद
बदन
बदल
बध
बन
बनन
बनब
बनर
बब
बम
बमअन
बमक
बमम
बमल
बय
बर
बरक
बरत
बरद
बरफ
बरम
बरमत
बरल
बल
बलक
बलम
बलर
बलल
बस
बसन
बह
बहन
बहर
बहस
भ
भअन
भइ
भइन
भइबर
भइरह
भइसक
भई
भईछ
भउत
भए
भएक
भएत
भएन
भएपछ
भएम
भएर
भक
भग
भगव
भगवत
भगवद
भज
भञ
भट
भण
भत
भद
भन
भम
भय
भर
भरत
भरतप
भरतल
भरन
भरप
भल
भलपम
भव
भवत
भवन
भवनम
भवनहर
भस
भहर
म
मअन
मअनक
मआ
मई
मक
मकथ
मकर
मकरण
मकव
मख
मग
मगर
मङ
मच
मचन
मछ
मज
मजद
मजब
मझ
मञ
मट
मठ
मठओ
मठक
मठम
मड
मण
मणल
मत
मतक
मतद
मथ
मद
मदत
मदन
मदरस
मध
मन
मनक
मनद
मनपड
मनपर
मनम
मनल
मनस
मप
मफ
मब
मबठ
मबह
मभ
मम
मय
मर
मरण
मल
मलक
मलय
मव
मवरण
मवलम
मश
मष
मस
मसल
मह
महत
महर
महल
महस
य
यअन
यअनक
यअनल
यइ
यइक
यइम
यइल
यई
यईक
यईपछ
यईम
यईल
यओ
यक
यकअन
यकक
यकड
यकत
यकर
यकल
यकहर
यङ
यच
यज
यजन
यञ
यट
यटक
यटकअन
यटकक
यटकहर
यटन
यड
यण
यणक
यणग
यणम
यणह
यत
यतक
यतन
यतम
यतय
यतल
यथ
यद
यध
यन
यनक
यनल
यनश
यनस
यप
यपद
यपश
यब
यबठ
यबह
यभ
यभट
यम
यमअन
यमक
यमण
यमन
यमब
यमबठ
यमम
यमय
यमल
यमहर
यय
ययन
ययनक
ययनल
यर
यरक
यरत
यरफक
यरम
यरल
यल
यलक
यलय
यलयअनम
यव
यवर
यवस
यवह
यश
यस
यसक
यसप
यसपछ
यसब
यसम
यसर
यसल
यह
यहर
र
रअ
रअन
रअनक
रअनम
रअनल
रआ
रइथ
रओ
रक
रकट
रकम
रख
रखण
रग
रगञ
रगत
रगतक
रघ
रङ
रङक
रच
रचण
रचन
रचल
रचलन
रज
रजत
रजन
रजनन
रजव
रञ
रठ
रड
रण
रणअन
रणअनक
रणक
रणज
रणतय
रणन
रणब
रणबह
रणम
रणल
रणहर
रत
रतक
रतन
रतम
रतल
रथ
रथम
रद
रदर
रदरस
रध
रन
रनगर
रनम
रप
रपत
रपश
रफ
रफल
रफलक
रफलम
रब
रबठ
रबदल
रबन
रबर
रबल
रबह
रभ
रम
रमअन
रमक
रमण
रमणक
रमणम
रमम
रमल
रमश
रमहर
रय
रयत
रर
रल
रलक
रव
रवट
रवन
रवर
रवल
रश
रशस
रष
रस
रसक
रसङ
रसञ
रसन
रसनक
रसनल
रसम
रसरक
रसस
रह
रहक
रहण
रहन
रहम
रहय
रहर
रहल
रहस
रहहर
रऽ
ल
लअन
लआ
लओ
लक
लकर
लख
लखण
लखन
लखनऊ
लग
लगञ
लगड
लगढ
लगत
लगन
लगभग
लगम
लघ
लङ
लज
लझ
लट
लड
लण
लत
लतम
लतल
लद
लध
लधर
लन
लनक
लनम
लनल
लप
लपक
लपत
लफ
लब
लबअन
लबक
लबठ
लबर
लबल
लबह
लभ
लम
लमगन
लमज
लमन
लय
लयअन
लयक
लयन
लयब
लयबठ
लयम
लयल
लयहर
लर
लरक
लल
लव
लवस
लश
लस
लसम
लह
लहर
ळ
व
वअन
वक
वकप
वकपक
वकर
वगञ
वच
वचन
वज
वजन
वट
वड
वण
वणक
वणल
वत
वतक
वतन
वतम
वद
वदन
वध
वन
वनक
वनड
वनब
वनम
वनल
वनस
वप
वब
वभ
वभर
वभरण
वम
वय
वयन
वयम
वयस
वर
वरअन
वरक
वरण
वरणक
वरद
वरप
वरपर
वरपरक
वरम
वरल
वरहर
वल
वलम
वव
ववह
वश
वस
वसक
वसन
वसम
वह
वहन
वहर
श
शअन
शअनम
शअनल
शआ
शक
शकअन
शकक
शगर
शङ
शज
शजल
शत
शतक
शतकहर
शद
शन
शनक
शनम
शनल
शनश
शप
शपथ
शब
शभर
शम
शमश
शय
शर
शरण
शरणम
शरद
शल
शव
शस
शह
शहर
शहरअन
शहरक
शहरम
शहरल
शहरहर
ष
षअन
षक
षकअन
षकक
षकब
षकम
षकहर
षगर
षज
षड
षडयन
षण
षणक
षणम
षणल
षणहर
षत
षद
षध
षप
षपछ
षभ
षम
षमण
षमत
षय
षयअन
षयक
षयम
षयर
षयहर
षर
षरत
षल
षश
षस
षसक
षसम
षहर
स
सअन
सअनल
सआ
सओ
सक
सकक
सकन
सकर
सकल
सकहर
सख
सग
सगढ
सगर
सगरम
सघ
सङ
सङत
सच
सछ
सज
सञ
सट
सठ
सड
सडक
सडकक
सढ
सत
सतख
सतह
सतहब
सद
सदक
सदर
सदरम
सदस
सध
सन
सनक
सनम
सनर
सनल
सप
सपन
सफ
सफत
सफल
सफलत
सब
सबभन
सबर
सबस
सबह
सभ
सम
समक
समग
समत
समन
समम
समय
समयक
समयम
समयसम
समर
समल
समस
सय
सयदप
सर
सरक
सरण
सरद
सरम
सरल
सरस
सरह
सल
सलम
सलह
सव
सवक
सवम
सश
सशक
सशस
सस
सह
सहक
सहज
सहन
सहभ
सहमत
सहय
सहर
सहरअन
सहरक
सहरम
सहरहर
सहस
ह
हअन
हक
हङ
हङकङ
हज
हट
हटक
हड
हण
हत
हद
हदरब
हन
हनर
हप
हब
हम
हमन
हमर
हमल
हय
हर
हरअन
हरण
हरणक
हल
हलक
हलय
हव
हस
हहर
़
ऽ
ऽथ
ऽल
ऽह
ा
ि
ी
ु
ू
ृ
ॄ
ॅ
ॆ
े
ै
ॉ
ॊ
ो
ौ
्
ॐ
॑
॒
॓
॔
ॢ
ॣ
।
॥
०
००
०००
०१
०२
०३
०४
०५
०६
०७
०८
०९
१
१०
१००
१०००
१०६
११
११०
१२
१२०
१२५
१३
१४
१४५
१५
१५०
१६
१६०
१७
१७९९
१८
१८००
१८१५
१९
१९०१
१९०३
१९०४
१९०६
१९१०
१९१४
१९१८
१९१९
१९२०
१९२१
१९२३
१९२४
१९३०
१९३८
१९४०
१९४२
१९४४
१९४५
१९४६
१९४७
१९४८
१९४९
१९५०
१९५१
१९५२
१९५३
१९५४
१९५५
१९५६
१९५७
१९५८
१९५९
१९६०
१९६१
१९६२
१९६३
१९६४
१९६५
१९६६
१९६७
१९६८
१९६९
१९७०
१९७१
१९७२
१९७३
१९७४
१९७५
१९७६
१९७७
१९७८
१९७९
१९८०
१९८१
१९८२
१९८३
१९८४
१९८५
१९८६
१९८७
१९८८
१९८९
१९९०
१९९१
१९९२
१९९३
१९९४
१९९५
१९९६
१९९७
१९९८
१९९९
२
२०
२००
२०००
२००१
२००२
२००३
२००४
२००५
२००६
२००७
२००८
२००९
२०१०
२०११
२०१२
२०१३
२०१४
२०१५
२०१६
२०१७
२०१८
२०१९
२०२०
२०२१
२०२२
२०२३
२०२४
२०२५
२०२६
२०२८
२०३०
२०३२
२०३३
२०३४
२०३५
२०३६
२०३७
२०३८
२०३९
२०४०
२०४२
२०४३
२०४४
२०४५
२०४६
२०४७
२०४८
२०४९
२०५०
२०५१
२०५२
२०५३
२०५४
२०५५
२०५६
२०५७
२०५८
२०५९
२०६०
२०६१
२०६२
२०६३
२०६४
२०६५
२०६६
२०६७
२०६८
२०६९
२०७०
२०७१
२०७२
२०७३
२०७४
२०७५
२०७६
२०७७
२१
२२
२३
२४
२५
२५०
२६
२७
२८
२९
३
३०
३००
३१
३२
३३
३४
३५
३५०
३६
३७
३८
३९
४
४०
४००
४१
४२
४३
४४
४५
४६
४७
४८
४९
५
५०
५००
५०००००
५१
५२
५३
५४
५५
५६
५७
५८
५९
६
६०
६००
६१
६२
६३
६४
६५
६६
६७
६८
६९
७
७०
७००
७२
७३
७४
७४४
७५
७५००००
७६
७७
७८
७९
८
८०
८००
८१
८२
८३
८४
८५
८६
८७
८८
८९
९
९०
९००
९१
९२
९३
९४
९५
९६
९७
९८
९९
॰
ঁ
ং
অ
ই
এ
ও
ক
খ
গ
ঘ
ঙ
চ
ছ
জ
ঝ
ঞ
ট
ঠ
ড
ঢ
ণ
ত
থ
দ
ধ
ন
প
ফ
ব
ভ
ম
মপ
য
র
ল
শ
ষ
স
হ
়
া
ি
ী
ু
ূ
ৃ
ে
ৈ
্
০
ਖ
ਗ
ਚ
ਜ
ਡ
ਪ
ਫ
ਬ
ਮ
ਲ
ਸ
ਹ
਼
ਾ
ਿ
ੀ
ੁ
੍
ੰ
ં
ગ
ચ
ઢ
ત
દ
પ
બ
મ
ર
હ
ા
િ
ી
ુ
ો
ଆ
ଟ
ମ
଼
ି
େ
୍
ஒ
க
ச
ட
ந
ன
ப
ம
ர
ல
ழ
வ
ஷ
ஹ
ா
ி
ு
ெ
ே
ை
்
ௗ
ం
ఆ
గ
డ
ణ
త
థ
ద
ధ
న
ప
బ
మ
ర
ల
శ
హ
ా
ు
ె
ొ
్
ತ
ಳ
ಿ
ು
ೂ
ೆ
್
ೕ
ೖ
ം
ക
ഡ
ത
ദ
ന
പ
ഫലക
യ
ല
ള
വ
സ
ാ
ി
ീ
െ
േ
്
ൗ
ං
ක
ත
න
ය
ල
ව
ස
්
ා
ැ
ි
ු
ෙ
ิ
ื
่
ທ
່
་
ཁ
ག
ང
ད
བ
མ
ཡ
ར
ལ
ས
ི
ུ
ེ
ོ
ྫ
ྱ
တ
န
ဘ
မ
ယ
သ
ာ
း
်
ြ
ၢ
ၵ
ႂ
ႆ
თარგი
틀
ᜈ
ᜒ
᜔
ខ
ទ
ប
ព
ភ
ម
រ
ស
ា
ូ
ែ
ំ
័
្
ᨁ
ᨕ
ᨗ
ᨙ
ᬶ
ᮓ
ᮔ
ᮞ
ᮥ
᮪
ᴇ
ᵊ
ᵏ
ᵑ
ᵝ
ᵝː
ᵝːː
ᵝˑ
ᵻ
ᵿ
ᶢ
​
‌
‍
‎
‏
‐
‑
–
—
―
‖
‘
’
“
”
†
‡
•
…
‪
‬
‰
′
″
‼
⁄
⁵
⁷
ⁿ
₂
₠
₩
€
₱
₹
₽
⅞
←
↑
→
↓
↔
↖
↗
↘
↙
↵
↷
↹
⇧
⇪
∅
∇
∈
−
√
≃
≈
≡
≣
≤
≥
⊂
⊕
⊗
⊞
⋅
⌘
⌥
③
④
⑦
─
○
◌
●
☃
☉
♠
✉
✓
✗
⟨
⟩
ⰲ
ⰽ
ⰾ
ⱀ
ⱁ
ⱄ
ⱏ
ⱐ
ⱑ
ⱪ
ⴰ
ⵉ
ⵎ
ⵖ
ⵜ
ⵣ
⺀
⺄
⺆
⺈
⺊
⺌
⺕
⺝
⺸
⺼
⿰
⿱
⿲
⿳
⿴
⿵
⿶
⿷
⿸
⿹
⿺
⿻
〢
あ
か
ら
゙
ア
カ
ク
コ
シ
タ
チ
ッ
ト
ノ
ュ
ユ
ョ
リ
ル
ワ
ン
ー
ㄐ
ㄓ
ㄜ
ㄤ
ㄧ
㇁
㇂
㇄
㇇
㇈
㇉
㇓
㐁
㐄
㐅
㐌
㐫
㐬
㐭
㐮
㐱
㑒
㒵
㒸
㒼
㓁
㓞
㔾
㕛
㕣
㖾
㘝
㚅
㚇
㚔
㚘
㝉
㝡
㝴
㝵
㞋
㞢
㞷
㠩
㠭
㠯
㡀
㡭
㡿
㢲
㢴
㣇
㣺
㥯
㪅
㫄
㫐
㫒
㫺
㬅
㬎
㬥
㬰
㲋
㳄
㷠
㸒
㸚
㸦
㼌
㼲
㽞
㿟
䀠
䂞
䍃
䏍
䒑
䖍
䖒
䖝
䖵
䙴
䚻
䜌
䝿
䡛
䧹
䪞
一
丁
丂
七
丄
丅
丆
万
丈
三
上
下
丌
不
与
丏
丐
丑
专
且
丕
世
丘
丙
业
东
丞
丢
丣
两
严
並
丨
丩
个
丫
丬
中
丮
丰
丱
串
丵
丶
丷
丸
丹
为
主
丽
丿
乀
乂
乃
久
乆
乇
么
义
之
乌
乍
乎
乏
乐
乑
乔
乖
乗
乘
乙
乚
乛
乜
九
乞
也
习
乡
乳
乾
亀
亅
了
亇
予
争
事
二
亍
于
亏
亐
云
互
亓
五
井
亘
亚
亜
亞
亟
亠
亡
亢
交
亥
亦
产
亨
亩
享
京
亭
亮
亯
亰
亲
亳
亶
亷
人
亻
亼
亾
仁
今
介
仌
从
仐
仑
仒
仓
仕
他
付
仝
代
令
以
任
企
伊
伏
伐
休
会
伯
但
位
体
何
佘
余
作
佥
使
來
侈
侌
侖
侯
侵
便
保
俞
信
修
倉
倍
候
倠
備
僉
僕
僮
儿
兀
允
兂
元
兄
充
兆
兇
先
光
兊
克
兌
免
兑
兒
兓
兔
党
兜
兟
入
全
兩
兪
八
公
六
兮
兰
共
关
兵
其
具
典
兹
兼
冀
冂
冃
冄
内
冈
冉
冊
冋
册
再
冎
冏
冐
冒
冓
冖
冗
冘
军
农
冝
冡
冥
冫
冬
冰
冷
几
凡
凢
凵
凶
凷
凸
凹
出
函
凾
刀
刁
刂
刃
刄
刅
分
切
刍
刑
刕
刖
列
刘
则
初
別
利
别
到
制
刺
則
削
剌
前
剡
剽
劉
力
功
加
劦
助
劫
劳
劵
勃
勇
勉
勒
動
務
勞
勤
勹
勺
勻
勾
勿
匀
匂
包
匆
匈
匊
匋
匍
匕
化
北
匚
匝
匡
匪
匱
匸
匹
区
医
匽
匿
區
十
卂
千
卄
卅
卆
升
午
卉
半
卌
华
卑
卒
卓
单
卖
南
卜
卝
卞
占
卡
卢
卣
卤
卦
卩
卪
卬
卯
印
危
即
却
卵
卷
卸
卻
厂
厃
厄
历
厈
厉
厌
厓
厘
厚
原
厤
厥
厨
厭
厲
厶
厷
厸
去
厼
厽
叀
参
參
叅
又
叉
及
友
双
反
叐
发
叒
叔
叕
取
受
叚
叜
叟
口
古
句
另
叩
只
召
可
台
叱
史
右
叵
号
司
叹
吂
各
吅
合
吉
吊
吋
同
名
后
吏
向
吕
君
吝
吞
否
含
启
吳
吴
吹
吾
呂
呆
呈
告
员
呙
周
命
咅
和
咎
咠
咢
咨
咸
咼
哀
品
哉
員
哥
哲
唐
商
啇
問
啚
啬
啻
善
喜
喬
單
喿
嗇
噩
嚴
囊
囗
囘
囙
囚
四
回
囟
因
囧
囬
困
囱
囷
固
国
圂
圅
國
圍
圓
土
圡
圣
圥
在
圭
地
圶
场
圼
坐
坒
坚
坴
垂
垔
垚
埀
埋
埶
執
基
堂
堅
堆
堇
堯
塞
墨
壘
士
壬
壯
声
壳
壴
壹
壺
壽
夂
处
夅
夆
备
夊
夋
夌
复
夏
夒
夕
外
夗
夘
多
夜
夢
大
夨
天
太
夫
夬
夭
央
失
夲
头
夷
夸
夹
夻
夾
奂
奄
奇
奈
奉
奎
奏
奐
契
奓
奔
奚
奞
奠
奢
奥
奭
女
奴
奻
好
如
妄
妙
妟
妥
妻
妾
姑
委
姜
威
娄
婁
婴
嬰
嬴
子
孑
孔
孕
孖
字
存
孚
孛
孝
孟
季
孤
学
孫
孱
學
宀
宁
宂
它
宅
宇
守
安
宋
完
宏
宓
宗
官
定
宛
宜
宝
客
宣
室
宮
宰
害
家
容
宾
宿
寄
寅
密
富
寒
察
寧
審
寫
寬
寮
寸
对
寺
寻
寽
対
寿
封
尃
射
将
將
專
尉
尊
尋
尌
對
小
少
尒
尓
尔
尖
尗
尚
尞
尢
尣
尤
尧
尨
尭
就
尸
尹
尺
尻
尼
尽
尾
尿
局
居
屈
屋
屎
屏
屑
展
屖
屚
属
屠
屡
屬
屮
屯
屰
山
屵
屾
岁
岂
岑
岡
岩
岳
岸
峯
島
崇
崑
崔
崖
崙
崩
嵬
嶲
巂
巛
川
州
巟
巠
巢
巤
工
左
巧
巨
巩
巫
差
己
已
巳
巴
巷
巸
巽
巾
巿
帀
市
布
希
帚
帛
帝
带
師
席
帶
常
干
平
年
幵
并
幷
幸
幺
幻
幼
幽
幾
广
広
庄
床
底
店
庚
府
度
庫
庭
庶
康
庸
廉
廌
廛
廣
廩
廴
延
廷
建
廾
廿
开
弁
弃
弄
弇
弋
式
弓
弔
引
弗
弘
弜
弟
弥
弦
弱
張
強
强
彊
彌
彎
彐
彑
当
彔
录
彖
彗
彡
形
彥
彦
彧
彭
彳
役
彼
往
待
律
徒
得
徙
從
復
微
徵
心
忄
必
忌
忍
志
忝
忠
忩
快
念
忽
忿
思
怠
急
怱
恆
恒
恩
恭
息
悉
患
悤
悲
悶
惠
惡
惢
愁
愈
意
愛
感
慈
慧
慮
憂
憲
應
戀
戈
戉
戊
戋
戌
戍
戎
成
我
戒
戔
或
戚
戠
戢
截
戲
戶
户
戹
戼
戾
房
所
扁
扇
手
扌
才
打
托
执
承
折
拉
拜
拿
掌
推
提
摩
撒
支
攴
攵
收
攸
改
放
政
敄
敏
敕
敖
敗
敝
敞
敢
散
敦
敫
敬
数
敷
數
斂
文
斉
斊
斗
斤
斥
斩
斬
斯
新
方
於
施
斿
旁
旋
族
无
旡
既
旣
日
旦
旧
旨
早
旬
旱
旲
时
旾
昆
昇
昌
昍
明
昏
易
昔
昗
昜
星
春
昬
是
昱
昴
昷
時
晃
晋
晏
普
景
晶
智
暑
暴
曇
曩
曰
曲
曳
更
曷
書
曹
曼
曾
替
最
朁
會
月
有
朋
服
朔
朕
朗
望
朝
木
朩
未
末
本
札
朮
术
朱
朵
朶
机
朿
杀
杏
杜
束
条
来
東
杲
杳
松
析
林
枚
果
枝
枲
枼
某
柔
查
柬
柰
柴
栗
桀
桑
桼
梁
條
梟
梨
棘
棠
棥
森
楚
業
楽
榮
樂
樊
欠
次
欣
欮
欲
欶
欽
款
歆
歇
歛
止
正
此
步
武
歨
歪
歮
歯
歰
歲
歴
歷
歸
歹
歺
死
殳
段
殷
殸
殹
殺
殻
殿
毋
毌
母
每
毒
比
毕
毚
毛
毳
氏
氐
民
气
氣
水
氵
氶
氷
永
氺
氾
求
汝
汞
江
沃
沓
沙
沝
泉
法
波
泣
泥
泰
洛
津
洪
活
派
流
浦
浪
浮
淡
淮
清
渚
渠
港
湯
源
滿
漸
火
灬
灭
灰
灵
灷
炅
炎
炏
炗
炙
炭
為
烈
烏
烝
焉
無
焦
焱
然
煞
熊
熏
燕
營
燮
爪
爫
爭
爯
爰
爱
爲
爵
父
爻
爽
爾
爿
片
牙
牚
牛
牜
牟
牢
牧
牪
牽
犀
犬
犭
犮
狂
狄
狊
独
狺
猋
猒
猪
献
獻
玄
率
玉
王
玟
玨
珎
班
琴
瑟
瑩
瓜
瓦
甘
甚
生
産
用
甫
甬
田
由
甲
申
电
甶
男
甸
甹
画
甾
畀
界
畏
畐
留
畜
畟
畢
畧
畨
番
畫
異
畱
當
畺
畾
疊
疋
疌
疑
疒
疾
癶
癸
癹
登
發
白
百
皀
皃
的
皆
皇
皋
皐
皕
皮
皷
皿
盃
盆
盇
盈
益
盍
盎
监
盒
盖
盛
盡
監
盤
盧
目
直
相
盾
省
眇
眉
看
眔
眞
真
眷
眼
眾
着
睘
睪
睿
瞏
瞢
瞿
矍
矛
矞
矢
矣
知
矦
短
石
研
破
碎
磊
磨
示
礻
礼
祟
票
祭
禀
禁
禸
禹
禺
离
禽
禾
禿
秀
秃
秉
秋
科
秝
秦
移
稟
穀
穌
穴
究
穹
空
穿
突
窄
窒
立
竒
竜
竝
竟
章
童
竹
笑
笠
第
筆
等
答
箕
算
箴
節
篤
篭
米
粉
粛
粟
粤
粦
粲
粵
糞
糸
糹
系
約
納
素
索
紫
累
細
絜
絫
統
絲
絵
維
綿
縣
繇
纍
纟
缶
网
罒
罔
罕
罗
罙
罡
罢
罪
署
罷
羅
羊
羌
羍
美
羔
羕
羗
羞
羡
羣
群
義
羲
羸
羽
翁
翏
習
翕
翟
翠
翼
老
耂
考
者
耆
而
耎
耑
耒
耳
耴
耶
耷
聂
聊
聖
聚
聶
聿
肀
肃
肅
肉
肖
肙
肥
肩
肯
育
肴
胃
背
胡
胥
能
脊
脩
膚
臣
臤
臧
自
臬
臭
臯
臱
至
致
臺
臼
臽
臾
臿
舀
舂
舄
與
興
舉
舌
舍
舛
舜
舞
舟
般
艮
良
色
艸
艹
艾
芒
芔
芬
芮
花
芳
芺
芻
苔
苗
苟
若
苦
英
茶
茸
荅
草
荒
荣
荼
莆
莧
莫
莱
莽
菆
菊
菐
華
萬
落
葉
著
葛
董
葵
蒙
蒦
蒼
蓋
蓬
蓺
蔑
蔡
蕉
蕭
薄
薛
薦
薰
藍
藏
藥
蘭
虍
虎
虐
虒
虔
處
虖
虗
虘
虚
虛
虜
虞
虫
虽
蚤
蚩
蜀
蜜
蟲
蠡
血
行
衍
衛
衣
衤
表
衮
衰
袁
袞
褭
褱
襄
襾
西
覀
要
覃
見
規
覓
覧
親
覽
见
角
解
言
訁
訇
計
話
詹
語
誩
諸
讠
语
谷
豆
豈
豊
豐
豕
豖
豙
象
豦
豩
豪
豸
貇
貝
貞
貟
負
貢
貧
貪
貫
責
貳
貴
買
費
賁
資
賈
賏
賓
賔
賛
賞
賢
賣
質
賴
贊
贛
贝
贡
责
贯
贲
贵
赖
赞
赤
赦
走
越
足
路
蹇
身
躬
車
軍
軎
軟
輦
车
辛
辜
辟
辥
辰
辱
農
辵
辶
边
达
过
近
连
迷
追
退
送
逆
逐
通
速
造
逢
連
逮
進
遀
遂
過
道
達
遣
適
遷
遺
邊
邑
邕
那
邦
邪
郎
部
郭
都
鄉
酉
酋
配
酓
釆
采
里
重
野
量
金
釒
錢
钅
長
镸
长
門
閃
閉
開
閏
閑
閒
間
閔
閩
閵
閻
闌
门
间
闷
闽
阑
阜
阝
阿
际
降
陳
隆
隊
隋
隡
隨
隱
隶
隹
隺
隻
隼
隽
难
雀
雁
雅
集
雈
雋
雍
雐
雔
雙
雚
雜
雝
離
難
雨
雩
雪
雲
零
雷
需
霍
霜
霝
霞
霸
靈
靑
青
非
靡
面
靣
革
韋
韦
韭
韯
韱
音
頁
頃
項
須
頗
領
頡
頻
顛
页
風
风
飛
飞
食
飠
養
饣
首
香
馬
馮
駦
马
骨
體
高
髟
鬥
鬯
鬲
鬼
魚
魯
鮮
鱼
鲁
鳥
鳳
鸟
鹵
鹿
麃
麗
麥
麦
麻
黃
黄
黍
黎
黑
黒
黨
黹
黽
黾
鼎
鼓
鼠
鼻
齊
齋
齐
齒
齿
龍
龙
龜
龟
龠
龰
龱
龴
龵
龶
龷
龸
龹
ꆇ
ꉙ
ꜛ
ꜜ
ꞌ
ꡃ
ꡏ
ꡐ
ꡙ
ꡜ
ꡞ
ꡡ
ꡣ
ꦗ
ꦧ
ꦮ
ꦱ
ꭹ
ꮃ
ꮳ
ꯂ
ꯃ
ꯇ
ꯟ
ꯣ
ꯩ










者
艹
﷼
︠
︡
ﺍ
ﺎ
ﺟ
ﺪ
ﺬ
ﺭ
ﺮ
ﺰ
ﺳ
ﺶ
ﻗ
ﻨ
ﻮ
（
）
？
𐌲
𐌹
𐌺
𐌿
𐍃
𐍄
𒂠
𒅆
𒅴
𒇷
𒉈
𞤢
𞤤
𞤨
𞤪
𞤵
🇳
🇵
📲
🚀
𠀁
𠀃
𠀆
𠀉
𠀎
𠀐
𠁁
𠁣
𠂆
𠂇
𠂈
𠂉
𠂊
𠂋
𠂎
𠂒
𠂔
𠂛
𠂡
𠂢
𠂤
𠂬
𠂭
𠂹
𠃊
𠃋
𠃌
𠃍
𠃎
𠃑
𠃓
𠃔
𠃜
𠄌
𠄎
𠄠
𠄢
𠆢
𠆥
𠇍
𠈌
𠌵
𠓜
𠔉
𠔥
𠔼
𠔽
𠔿
𠕀
𠕁
𠕋
𠘧
𠘨
𠙻
𠙼
𠚏
𠚒
𠚤
𠚪
𠣏
𠤎
𠤕
𠥓
𠦄
𠦑
𠦝
𠧒
𠧗
𠧪
𠩺
𠪚
𠫓
𠫔
𠫤
𠬛
𠬝
𠬞
𠬢
𠬤
𠬶
𠮛
𠮦
𠮷
𠯑
𠱠
𠳮
𠷎
𡈼
𡉀
𡉵
𡌥
𡍮
𡏳
𡕒
𡕩
𡕰
𡖅
𡗗
𡗜
𡘆
𡘤
𡧱
𡨄
𡩧
𡬠
𡭽
𡰣
𡰥
𡰪
𡰯
𡰱
𡷈
𡸁
𡿨
𡿩
𡿪
𡿺
𢀖
𢀛
𢀩
𢁙
𢆉
𢆰
𢆶
𢇁
𢇇
𢉖
𢌬
𢌿
𢏚
𢑑
𢑚
𢖻
𢙣
𢛳
𢦏
𢦒
𢧵
𢼄
𢾕
𣁋
𣄼
𣅀
𣅽
𣍘
𣎳
𣎵
𣏋
𣏼
𣗥
𣥂
𣥖
𣦵
𣦼
𣧄
𣪊
𣪠
𣬉
𣳾
𣶒
𤇾
𤊽
𤐫
𤓰
𤔔
𤕨
𤣩
𤰇
𤰔
𤰞
𤴓
𤴔
𤽄
𥁑
𥁕
𥃦
𥃩
𥃭
𥇡
𥑟
𥘅
𥘈
𥝢
𥫗
𥱡
𦈢
𦉪
𦉬
𦉼
𦍌
𦍒
𦎧
𦐇
𦓔
𦔮
𦘒
𦙃
𦚏
𦣝
𦣞
𦣻
𦥑
𦥔
𦥯
𦨉
𦭝
𦰩
𧆞
𧈧
𧘇
𧰨
𧴪
𧴮
𧵩
𧾷
𨸏
𨾴
𩙿
𩠐
𩫏
𩵋
𪉷
𪜀
𪟽
𪠲
𪩲
𫇦
𫔭
𫜸
𫝀
𫠣
𫠩
𫢉
𫥞
𫩏
𫩠
𫪡
𫲽
𫶧
𬀷
𬐘
𬗌
𬙙
𬛸
𬜯
𬟩
𬯁
𬴘
𬺻
𬼉
𬼖
𭀰
𭁈
𭁨
𭅰
𭑈
𭕄
𭗼
𭤨
𭥫
𭻾
𮅕
𮊿
𮍌
𮍏
𮓗
𮥼
𮧮
廾
𰀁
𰀄
𰀈
𰀉
𰀕
𰀠
𰀡
𰀢
𰀪
𰁜
𰃮
𰆊
𰆘
𰋙
𰕎
𰢴
𰧭
𰯲
00--
001--
01--
010--
02--
03--
04--
05--
06--
07--
08--
103--
11--
12--
121--
125--
13--
14--
15--
16--
17--
172--
18--
19--
198--
20--
21--
22--
23--
24--
25--
26--
27--
28--
29--
30--
32--
33--
34--
35--
35110--
36--
37--
38--
39--
41--
42--
43--
44--
45--
46--
47--
48--
49--
50--
52--
54--
55--
56--
58--
59--
60--
61--
64--
65--
67--
68--
69--
70--
71--
72--
73--
75--
79--
80--
84--
85--
90--
92--
95--
98--
99--
a--
aa--
ab--
abc--
abu--
ac--
accid--
ach--
ad--
add--
advant--
ae--
af--
ag--
age--
agua--
ah--
ahua--
ai--
air--
aj--
ak--
ako--
al--
ala--
alb--
alco--
ali--
all--
alt--
am--
ama--
amp--
an--
ana--
and--
ang--
ann--
anniver--
anti--
ao--
ap--
apa--
api--
apo--
appo--
ar--
ara--
arc--
archaeo--
arg--
args--
ari--
arp--
arr--
arv--
as--
asso--
associa--
ast--
asu--
asy--
at--
ath--
au--
aus--
austr--
auto--
av--
ava--
aw--
awe--
az--
b--
ba--
back--
bact--
bad--
bah--
bai--
bal--
bam--
ban--
bar--
bas--
base--
basiony--
bat--
bau--
bay--
bc--
bd--
be--
ben--
ber--
best--
bg--
bh--
bi--
biblio--
bin--
bio--
bir--
bird--
bit--
bl--
blis--
blo--
block--
bo--
bol--
bold--
bom--
bon--
book--
bor--
bot--
box--
br--
bra--
bri--
bro--
brok--
bs--
bu--
bud--
buff--
bug--
build--
bul--
bum--
bun--
bur--
burd--
bus--
but--
bw--
bwa--
by--
c--
ca--
cal--
call--
can--
cap--
car--
cast--
cat--
cb--
cc--
cd--
ce--
cel--
cfg--
ch--
cha--
chang--
change--
che--
check--
chi--
chitt--
cho--
chr--
chrono--
chu--
ci--
cl--
claim--
cn--
co--
code--
col--
com--
comp--
con--
concat--
content--
cop--
corn--
correspon--
cos--
cot--
cr--
create--
csdcriteria--
ct--
cu--
cur--
current--
custom--
cut--
cy--
d--
da--
dab--
dan--
dar--
dark--
data--
date--
daw--
day--
db--
de--
death--
dec--
def--
default--
deg--
del--
delete--
deli--
demo--
den--
des--
dev--
dha--
dhi--
dho--
dhu--
di--
dia--
dim--
disa--
disc--
disco--
display--
dist--
distr--
div--
dj--
dm--
do--
doc--
doi--
dom--
down--
dr--
dra--
dres--
dt--
du--
dum--
dup--
dupes--
dy--
dza--
e--
ea--
eb--
ec--
econo--
ed--
edit--
ee--
ef--
effective--
effici--
eg--
eh--
el--
elo--
em--
empha--
en--
end--
eng--
ep--
epi--
equi--
er--
err--
error--
es--
escape--
et--
eu--
eur--
ev--
ew--
ex--
exem--
exp--
ext--
extra--
f--
fa--
faci--
facilit--
fan--
far--
fas--
fb--
fc--
fe--
fern--
fetch--
ff--
fi--
file--
fin--
find--
first--
fl--
flag--
fmt--
fn--
fo--
font--
for--
format--
fort--
fr--
frame--
free--
from--
ft--
fu--
ful--
full--
fund--
fy--
g--
ga--
gad--
gal--
gan--
gap--
gar--
gb--
ge--
gem--
geo--
ger--
get--
getall--
getutc--
gf--
gh--
gha--
gi--
giga--
gl--
gn--
go--
good--
gor--
got--
gr--
gro--
group--
gt--
gu--
gua--
gui--
gun--
gwa--
gy--
h--
ha--
hai--
hand--
har--
hard--
has--
he--
head--
help--
her--
hex--
hh--
hi--
hide--
high--
him--
his--
hle--
hn--
ho--
home--
hot--
hr--
html--
hu--
hua--
hun--
hurr--
hut--
hy--
i--
ia--
iba--
ic--
id--
ik--
il--
ili--
illustr--
ilo--
im--
image--
img--
imp--
in--
inaug--
inc--
incid--
incor--
incre--
infe--
infl--
info--
infra--
inhab--
inner--
insert--
inst--
int--
inter--
inv--
ip--
iq--
ir--
is--
isc--
isl--
iso--
ist--
istem--
isvalid--
it--
item--
iu--
iv--
ix--
iz--
j--
ja--
jam--
je--
ji--
joh--
jos--
jou--
ju--
judi--
jur--
k--
ka--
kab--
kai--
kaik--
kal--
kala--
kam--
kan--
kana--
kap--
kar--
kawa--
kb--
ke--
ken--
ket--
key--
kg--
kh--
khi--
kho--
ki--
kilo--
kim--
kina--
kir--
kit--
kl--
kn--
ko--
koi--
kok--
kom--
kon--
kor--
kos--
kp--
kpa--
kr--
kt--
ku--
kua--
kur--
kut--
kw--
kwa--
ky--
kyr--
l--
la--
label--
lager--
land--
lang--
lar--
last--
lat--
lau--
lay--
le--
len--
leo--
lg--
lh--
li--
liber--
light--
lin--
line--
link--
list--
lo--
load--
log--
long--
lu--
lua--
lui--
lun--
lus--
ly--
m--
ma--
mad--
mag--
mah--
mai--
make--
mal--
mam--
man--
manipul--
manuf--
map--
mar--
mark--
mas--
mask--
master--
mauri--
max--
maybe--
maza--
mb--
mba--
mbo--
mc--
me--
mega--
men--
mer--
merge--
met--
meteoro--
mez--
mf--
mi--
mic--
micro--
mid--
migr--
mil--
milli--
min--
mis--
mit--
ml--
mm--
mo--
mod--
mok--
mom--
mon--
mono--
mor--
more--
mos--
mozambi--
mp--
mt--
mu--
multi--
mun--
mur--
mus--
mw--
my--
myr--
n--
na--
nah--
name--
namespace--
nan--
nav--
naz--
nc--
nd--
nda--
nde--
ndo--
ndu--
ne--
net--
new--
news--
next--
nf--
ng--
nga--
nge--
nh--
ni--
nic--
nil--
nj--
nl--
nn--
no--
nob--
noc--
node--
nom--
non--
not--
nr--
ns--
nt--
nu--
nuk--
num--
ny--
nya--
nyan--
nyi--
nz--
o--
oc--
oco--
od--
oe--
ogb--
ol--
old--
olu--
olym--
om--
on--
one--
ono--
op--
open--
or--
ord--
org--
ori--
os--
other--
otu--
ou--
out--
outer--
over--
oz--
p--
pa--
pad--
page--
pai--
pal--
pam--
pan--
papia--
par--
para--
param--
parent--
parse--
parser--
pas--
pass--
pau--
pay--
pc--
pe--
pen--
per--
pf--
ph--
phi--
photo--
phu--
pi--
pic--
picto--
pie--
pin--
pl--
pm--
pn--
po--
pol--
post--
pow--
pp--
pra--
pre--
prevalence--
pri--
primary--
print--
pro--
pron--
prop--
provi--
pu--
pur--
py--
q--
qing--
qu--
quan--
quanti--
que--
quick--
r--
ra--
raj--
ram--
rang--
rap--
raw--
re--
reci--
red--
ref--
reg--
rel--
rem--
remove--
ren--
render--
rep--
res--
respo--
ret--
rev--
rever--
rho--
ri--
ro--
roll--
root--
row--
rr--
ru--
run--
rus--
s--
sa--
sai--
sal--
sam--
san--
sandbox--
sar--
sat--
saura--
sc--
scient--
sco--
script--
se--
sea--
search--
sec--
second--
see--
sek--
self--
sem--
semi--
sen--
sep--
sepa--
series--
set--
sex--
sey--
sg--
sh--
sha--
she--
shi--
show--
shu--
si--
sia--
sibl--
sic--
sil--
sin--
site--
six--
size--
sk--
skip--
sl--
sla--
slo--
small--
sno--
so--
sochi--
sock--
som--
some--
sort--
sp--
span--
spec--
speedy--
spo--
sq--
sr--
st--
stat--
state--
status--
stop--
str--
su--
sub--
subtr--
sum--
sun--
sup--
super--
sur--
sustain--
sv--
sy--
syll--
t--
ta--
tab--
table--
tac--
tag--
tagging--
tai--
tal--
talk--
tam--
tan--
tar--
target--
tat--
taw--
taxon--
tb--
tc--
te--
tea--
team--
tem--
temp--
ten--
ter--
test--
tex--
text--
tfd--
th--
tha--
the--
thir--
thom--
thu--
thumb--
ti--
tic--
time--
timu--
title--
tl--
tlac--
tm--
tn--
to--
toc--
toggle--
toi--
tom--
ton--
top--
tor--
tr--
trans--
tre--
tri--
tril--
trun--
trus--
ts--
tso--
tsu--
ttl--
ttlsizeclass--
tu--
tup--
tur--
tut--
tw--
twinkle--
ty--
type--
u--
ua--
uc--
ug--
ui--
uk--
ul--
ulo--
ulx--
um--
un--
under--
unit--
unlink--
unlinkimage--
up--
ur--
url--
uru--
us--
use--
user--
uses--
ut--
v--
va--
val--
var--
vc--
ve--
veget--
ven--
ver--
vi--
vice--
vir--
vla--
vo--
vol--
vs--
vu--
w--
wa--
wai--
wak--
wal--
wam--
wan--
wangg--
want--
war--
wat--
watch--
water--
way--
wd--
we--
web--
wg--
whe--
wi--
wiki--
with--
wo--
wol--
wor--
wp--
wu--
x--
xa--
xe--
xfd--
xin--
y--
ya--
yan--
yatz--
ye--
yes--
yi--
yindji--
ym--
yo--
yong--
yu--
yy--
z--
za--
zambo--
zem--
zen--
zh--
zheng--
zim--
zoo--
zoro--
ŋ--
ǀ--
ǁ--
ǂ--
ǃ--
ɔ--
ə--
ɡ--
ا--
فا--
م--
अ--
अग--
अज--
अन--
अस--
आ--
आइ--
आई--
आर--
इ--
इन--
इर--
इल--
ई--
उ--
ऊ--
ऋ--
ए--
एक--
एच--
एन--
एम--
एल--
एस--
ऐ--
ओ--
औ--
क--
कट--
कर--
ख--
खड--
खर--
ग--
गण--
गम--
गर--
गल--
घ--
घर--
ङ--
च--
चल--
छ--
ज--
जद--
जन--
जम--
जय--
जल--
झ--
ञ--
ट--
टर--
टल--
ठ--
ठक--
ड--
डर--
ढ--
ण--
त--
तर--
तह--
थ--
थर--
द--
दक--
दश--
ध--
धक--
धन--
न--
नभ--
नर--
नव--
प--
पक--
पच--
पद--
पन--
पर--
पस--
फ--
फल--
ब--
बच--
बन--
बम--
भ--
भई--
भए--
म--
मत--
मन--
य--
यन--
यम--
यर--
यस--
र--
रक--
रण--
रत--
रम--
रव--
रह--
ल--
लक--
लग--
लव--
व--
वक--
वन--
वर--
श--
शक--
शन--
ष--
षण--
षय--
स--
सक--
सद--
सन--
सम--
सय--
सर--
ह--
हक--
हन--
हर--
ऽ--
१०--
११--
१२--
१३--
१४--
१५--
१६--
१७--
१८--
१९--
२०--
२२--
२४--
७--
আ--
ই--
এ--
ব--
ম--
--0
--00
--000
--0000
--003
--0077
--008
--0084
--01
--0103
--011
--02
--028
--03
--037
--038
--04
--05
--052
--057
--058
--06
--065
--07
--071
--072
--074
--08
--084
--09
--092
--099
--1
--101
--102
--103
--105
--106
--109
--11
--111
--112
--113
--114
--116
--117
--118
--12
--13
--14
--15
--16
--17
--18
--19
--2
--20
--21
--22
--23
--24
--25
--26
--27
--28
--29
--3
--30
--31
--32
--33
--34
--35
--36
--37
--38
--39
--4
--40
--41
--42
--43
--44
--45
--46
--47
--48
--49
--5
--50
--51
--52
--53
--54
--55
--56
--57
--58
--59
--6
--60
--61
--62
--63
--64
--65
--66
--67
--68
--69
--7
--70
--71
--72
--73
--74
--75
--76
--77
--78
--79
--8
--80
--81
--82
--83
--84
--85
--86
--87
--88
--89
--9
--90
--91
--92
--93
--937
--94
--95
--956
--96
--97
--98
--982
--99
--a
--aa
--abbr
--able
--ably
--ac
--action
--ad
--ade
--ado
--ae
--aean
--ag
--aga
--age
--agh
--agua
--ah
--ahi
--ahua
--ai
--aic
--aion
--ait
--ak
--ako
--al
--ala
--ald
--ale
--ali
--alias
--all
--ally
--alt
--am
--ambu
--ame
--an
--ana
--ance
--and
--ane
--ang
--anha
--ani
--anian
--ano
--ans
--ant
--anu
--ao
--ap
--api
--aq
--ar
--ard
--area
--arg
--args
--ari
--aro
--array
--aru
--ary
--as
--asa
--ase
--at
--ata
--ate
--ated
--ates
--atic
--ation
--ations
--atm
--ator
--ators
--ats
--att
--atus
--au
--av
--awa
--axon
--ay
--aya
--b
--ba
--bak
--bal
--base
--bb
--be
--bi
--bian
--blank
--ble
--block
--blue
--blurb
--bo
--bot
--bound
--box
--bri
--bu
--by
--c
--ca
--cal
--caps
--cat
--ce
--ced
--cell
--cer
--ces
--cfg
--ch
--cha
--che
--check
--chi
--ci
--cies
--cing
--ck
--clade
--class
--cle
--co
--code
--colon
--color
--colour
--count
--cs
--css
--d
--da
--data
--date
--day
--de
--deleter
--des
--dham
--dhi
--di
--dir
--div
--do
--doc
--dor
--ds
--du
--dy
--e
--ea
--eam
--ean
--ear
--earch
--ec
--eca
--eci
--eco
--econd
--ect
--ection
--ed
--edi
--edit
--ee
--een
--eer
--eg
--eh
--ei
--ein
--ejo
--ek
--eka
--el
--ela
--ele
--eli
--els
--em
--embo
--en
--ena
--ence
--ency
--end
--ene
--eni
--ensis
--ent
--entry
--eo
--ep
--eparator
--epec
--eq
--er
--era
--ere
--eri
--erian
--ero
--error
--ers
--ery
--es
--ese
--esi
--ess
--est
--et
--ete
--etre
--ets
--ev
--ex
--exists
--expiry
--ext
--extlink
--ey
--f
--fa
--failure
--fe
--ff
--file
--fix
--flag
--form
--format
--ft
--ful
--func
--fy
--g
--ga
--gai
--gaka
--gami
--gang
--gar
--gas
--ge
--ger
--gga
--ggi
--gh
--ghe
--ghian
--ght
--gi
--gil
--ging
--gir
--gka
--go
--grad
--green
--group
--gs
--gu
--gue
--gus
--gy
--h
--ha
--ham
--hari
--hd
--he
--header
--heading
--hed
--hep
--hes
--hhi
--hi
--hian
--hip
--hm
--ho
--honi
--how
--ht
--html
--hu
--hua
--huitla
--i
--ia
--iae
--ial
--ian
--iance
--iard
--ib
--ible
--ibo
--ic
--ica
--iche
--ick
--icon
--ics
--id
--ide
--ids
--idx
--ie
--ies
--if
--iff
--ifiable
--ification
--ified
--ifies
--ifolia
--ify
--ig
--iga
--ign
--ii
--ik
--ika
--iki
--il
--illa
--ille
--illion
--illionth
--illionths
--ily
--im
--ima
--image
--imo
--in
--ination
--index
--ine
--info
--ing
--ings
--ini
--inian
--ink
--ins
--iny
--io
--ion
--ional
--ions
--ionth
--ionths
--ior
--ious
--ip
--ipa
--ipt
--ique
--ir
--ire
--iri
--is
--isation
--isch
--ise
--ised
--ism
--isplay
--ist
--istan
--istic
--ists
--it
--ite
--item
--ities
--ition
--itle
--itre
--ity
--ium
--ius
--iv
--ive
--ively
--ives
--ivity
--iwa
--ix
--iya
--iyya
--ization
--ize
--ized
--izing
--j
--ja
--jaq
--jar
--je
--ji
--jin
--jo
--join
--js
--json
--ju
--k
--ka
--kar
--kari
--kas
--kat
--kau
--kawa
--kay
--ke
--kel
--ker
--key
--keys
--ki
--kia
--kin
--ko
--kot
--kou
--ks
--ktur
--ku
--kum
--l
--la
--label
--labs
--lai
--lam
--lang
--lc
--ld
--le
--leader
--led
--left
--len
--ler
--less
--level
--ley
--li
--lian
--ling
--link
--links
--lis
--list
--lk
--ll
--lla
--lle
--lly
--lm
--lo
--loader
--loc
--log
--ls
--lt
--ltepec
--lu
--ly
--m
--ma
--magicword
--main
--man
--map
--mark
--me
--media
--ment
--ments
--mes
--mi
--mian
--ml
--mo
--mode
--most
--ms
--msg
--mu
--mw
--my
--n
--na
--nak
--nal
--name
--names
--nan
--nawa
--nce
--nces
--nd
--ndex
--ndi
--ne
--nel
--ner
--nes
--nese
--ness
--next
--ney
--ng
--nga
--ngan
--nge
--ngi
--ngo
--ngu
--ni
--nia
--nian
--nid
--nie
--ning
--nja
--nk
--no
--node
--non
--none
--notice
--ns
--nt
--nta
--ntillion
--nts
--nu
--num
--number
--nus
--nx
--ny
--nym
--o
--oa
--obj
--oc
--ocene
--ock
--od
--oda
--ode
--odi
--oe
--of
--og
--oh
--oi
--ok
--ol
--ola
--ole
--oli
--olving
--om
--oma
--on
--ona
--ond
--onde
--ondo
--one
--ong
--onian
--only
--ons
--ont
--oo
--oon
--oot
--op
--or
--ore
--ories
--ort
--ory
--os
--ose
--ot
--ote
--ou
--ource
--ous
--out
--ov
--ow
--owa
--ox
--oy
--oyo
--p
--pa
--pace
--page
--pages
--pagesasminor
--param
--parameter
--params
--pe
--pec
--ped
--pho
--pi
--ping
--plit
--po
--pref
--prefix
--prot
--ps
--pt
--ption
--pu
--pur
--puri
--q
--qid
--r
--ra
--ral
--ran
--rano
--rant
--ras
--rasi
--rd
--rdi
--re
--reason
--red
--regex
--ret
--retries
--revert
--rg
--rgs
--ri
--ria
--rian
--ric
--rict
--riction
--ried
--ries
--right
--rin
--ring
--ris
--rk
--rl
--rm
--rn
--ro
--role
--ron
--route
--row
--rra
--rs
--rt
--ru
--ry
--s
--sa
--sable
--se
--set
--sh
--shi
--shire
--si
--sia
--sibling
--sive
--sk
--sm
--so
--son
--sor
--space
--span
--ss
--st
--sta
--stan
--state
--ster
--stitution
--ston
--str
--stream
--style
--su
--success
--sus
--sy
--t
--ta
--table
--tag
--taglist
--tags
--talk
--tan
--tao
--tart
--tate
--tbl
--te
--ted
--template
--tepec
--ter
--tes
--tese
--text
--th
--ths
--ti
--tia
--tian
--tic
--ties
--tik
--til
--time
--ting
--tion
--tional
--tions
--tish
--title
--tive
--tla
--tle
--tm
--to
--ton
--top
--tor
--tr
--tre
--tring
--ts
--tsa
--tsch
--tt
--tta
--tti
--tu
--tus
--ty
--tyle
--type
--typeerror
--tz
--u
--ua
--uan
--uar
--uba
--uca
--uccess
--uced
--uction
--ud
--udu
--ue
--uel
--ug
--ugh
--ui
--uing
--uk
--uka
--ukh
--uku
--ul
--ula
--ular
--ule
--ulo
--ulu
--um
--ummary
--un
--ung
--unga
--unt
--uo
--up
--ups
--ur
--ure
--urg
--url
--us
--use
--user
--usi
--ut
--ute
--uting
--utla
--uu
--ux
--v
--va
--val
--value
--van
--vation
--ve
--ver
--ves
--vi
--vio
--vo
--voyage
--vu
--w
--wa
--wai
--ware
--way
--we
--weight
--wi
--width
--wiki
--wise
--wo
--wood
--wy
--x
--xa
--xi
--xo
--xt
--y
--ya
--yan
--yara
--ye
--year
--years
--yi
--ying
--yo
--ys
--yu
--z
--za
--ze
--zed
--zi
--zing
--zo
--zu
--α
--η
--ς
--а
--т
--و
--अ
--अन
--आ
--इ
--ई
--ए
--ओ
--क
--ख
--ग
--घ
--ङ
--च
--चन
--छ
--ज
--झ
--ञ
--ट
--ठ
--ड
--ढ
--ण
--त
--थ
--द
--ध
--न
--प
--फ
--ब
--बठ
--भ
--म
--य
--र
--ल
--व
--श
--स
--ह
--हर
--०
--००
--१
--२
--३
--४
--५
--६
--७
--७१
--८
--९
--ন
