!
"
#
##0
##1
##10
##11
##12
##13
##14
##15
##16
##17
##18
##19
##2
##20
##21
##22
##23
##24
##25
##26
##27
##28
##29
##3
##30
##31
##32
##33
##34
##35
##36
##37
##38
##39
##4
##40
##41
##42
##43
##44
##45
##46
##47
##48
##49
##5
##50
##51
##52
##53
##54
##55
##56
##57
##58
##59
##6
##60
##61
##62
##63
##64
##65
##66
##67
##68
##69
##7
##70
##71
##72
##73
##74
##75
##76
##77
##78
##79
##8
##80
##81
##82
##83
##84
##85
##86
##87
##88
##89
##9
##90
##91
##92
##93
##94
##95
##96
##97
##98
##99
$
%
&
'
(
)
*
+
,
-
.
/
0
000
06
08
1
10
100
1000
115
12
125
129
13
1300
131
14
140
15
150
15000
153
16
1600
17
170
1700
1721
1756
1759
1764
1773
1775
18
180
1800
1801
1849
1850
1863
19
1900
1925
1926
1927
1931
1933
1940
1946
1950
1953
1956
1958
1960
1961
1962
1967
197
1970
1975
1976
1977
1978
1979
1980
1981
1982
1983
1985
1986
1987
1988
1990
1991
1993
1995
1997
1998
1999
2
20
200
2000
2001
2002
2003
2004
2005
2006
2007
2008
2009
2010
2011
2012
2013
2014
2015
2017
2018
2019
2020
2021
2022
21
212
22
24
25
250
26
27
28
280
29
3
30
300
31
32
35
350
4
40
400
43
44
45
450
5
50
500
55
56
6
60
600
65
66
7
70
7000
78
79
8
80
800
87
9
90
900
:
;
<
=
>
?
^
_
`
a
aak
aalaaneq
aalajaatsunik
aalajangersimasoq
aalajangiisartut
aalisagaq
aalisakkanik
aalisakkat
aalisarneq
aalisarnerlu
aalisarnermik
aallaavia
aallaavigalugit
aallaqqaataani
aallarnerfigalugu
aallartinneqarpoq
aallartitai
aallartittut
aamarsuup
aamma
aammali
aammalu
aammattaaq
aapakaanit
aapakaaq
aapakaat
aappaa
aappaat
aappalaartoq
aappilattoq
aaqqissuulluakkamik
aaqqissuuttarpaat
aarluk
aasaanerani
aasakkut
aasiaat
aatsaat
aatsitassallu
abba
adventit
af
afrika
afrikami
ag
agguaqatigiissillugu
agguiviit
aglukark
air
airbus
ajoqersuiartortitat
ajorput
akerliusumik
akoorutissallu
akoorutissanik
akornaniittoq
akornanni
akorngini
akunnaaq
akusarlugit
akuutissat
alapernaalluni
albums
alces
allaanerusumik
allaaserisanik
allaaserisat
allaat
allaffeqarpoq
allaffissornikkut
allagaa
allagaasa
allagai
allakkat
allallu
allamiut
allamut
allani
allanik
allanillu
allanilluunniit
allanit
allanneq
allanut
allaq
allat
allatat
allatulli
allatut
alle
alliance
alluitsup
almindelig
alpina
alpinum
alpinus
alternativet
amaqqut
amaroq
amarua
amerika
amerikami
amerikarmiuuvoq
amerlanerni
amerlasuunik
amerlasuut
amia
amiinik
ammassalik
ammassivik
ammasumik
ammasunik
ammillu
ammut
anas
anatidae
and
angalaneq
angallanneq
angallassissutit
anginerpaaq
angissusaa
angiver
anguniarlugu
angutit
angutivissallu
animalia
aningaasanik
aningaasaqarnermikkut
aningaasarsiornikkut
annerpaaq
annersaata
annersaraat
annertuumik
annerusumik
annette
anni
anno
annoraaq
anser
anseriformes
antarktis
apeqqutit
appisimaartartut
april
aqqa
aqqartartoq
aqqartartumut
aqqi
aqqinik
aqqit
aqqutigalugit
aqqutigalugu
aqunneqarpoq
aqutsineq
archangelica
arctic
arctos
arfanniarneq
arfanniat
arferit
arfineq
arfiviit
arfivik
arktisk
arlaannut
arlaatigut
arlalinnik
arlallit
arnaq
arnat
arnavissat
aron
arsaannermik
arsuk
artiodactyla
asia
asiamilu
asiilasooq
assartuineq
assersuutigalugu
assigalugit
assigiinngisitsinertaqanngitsumik
assigiinngitsuni
assigiinngitsunik
assigiinngitsunut
assigiinngitsut
assigiinngittut
assiginagit
assigisaallu
assigivaa
assingusut
assinik
assut
asummiuni
at
ataani
ataaniittoq
ataasiakkaani
ataasiakkaat
ataatarpooq
ataatsimeersuarnerit
ataatsimiitsitaliaq
ataatsimik
ataatsimut
ataavartumik
atalerpoq
ataqatigiit
atasoq
atassuseq
atassut
atasulik
atatillugu
ateqarpoq
atia
atilik
atissatut
atlantiku
atlantikup
atm
atmosfære
atorlugit
atorlugu
atorneqarsinnaasut
atorneqartarluni
atorneqartarpoq
atorneqartarput
atorneqartut
atortarpaat
atortorissaarutillu
atortunik
atortussanik
atortussiat
atortut
atsigisumik
atsiunneqartassapput
attaveqaqatigiinneq
attaveqatigiinneq
attu
atuakkiortutut
atuarfik
atuartitaaneq
atugaasut
atugassatut
atuineq
atuisartunut
atuisartut
atuisoq
atuisut
atulersinneqarpoq
atuuttoq
august
av
avammut
avannaani
avannaaniit
avannaata
avannamut
avannarleq
avannarlermi
avannarlerni
avannarliit
avannarliup
avannarpasissumi
avataa
avataani
avatangiisiminut
aves
b
banner
be
beast
beatles
bergling
bernicla
bertel
berthelsen
biibili
biibilimik
biilitut
birgitte
bjerg
bla
brachyrhynchus
branta
brave
brodersen
brugere
by
c
calidris
canada
canadami
canadap
capreolus
carex
carey
carl
category
cd
ce
center
cervidae
chinese
chordata
christensen
christian
church
cie
cm
cocker
columbia
com
commons
corax
corvus
country
cs
d
da
dam
daniel
danmark
danmarki
danmarkimi
danmarkip
dansk
danskit
day
de
dec
december
deep
demo
den
dencker
denne
der
det
di
digte
din
dion
discogs
dit
dk
dorset
draba
dronning
dværg
e
eddie
efron
egede
el
en
encyklopædi
engel
enhedslisten
enoksen
eqalugaarsuit
eqaluk
eqalussuaq
eqalussuit
eqimattaat
eqqaani
eqqarlerit
eqqarsaatigalugit
eqqarsaatigalugu
eqqissisimatitaq
eqqumiitsuliat
eqqumiitsuliorneq
eqqunneqarsimavoq
er
erfalasuat
eriagisariallit
erik
erinaq
erinarsornermik
erinarsortartoq
erinarsortartorlu
erinarsortuat
erinarsuut
erinnamik
erinnat
erlinnartut
erneq
erngup
es
et
eu
eurasia
eurobonus
europa
europami
europamilu
europamiut
europamut
europap
eurovision
eyjafjallajo
f
feb
februaari
februar
festuca
file
film
filosofi
finale
fink
finland
fjeld
fn
folkeparti
folketingi
folketingimi
folketingimut
fond
for
foundation
fr
francis
frankrig
frederik
free
fucus
fysik
g
gaardsted
ge
gl
gra
greenland
group
grækerineersuuvoq
grækerit
grønland
grønlandsk
grønlandske
gto
guitar
gustav
guuti
guutimut
guutip
h
haarder
hans
har
harris
hav
hawaii
heavy
henrik
high
holsteinsborg
home
http
https
humaniora
i
ia
ianni
iffiorneq
iffiornermi
iginniarfik
ii
iivangkiiliu
ikannerit
ike
ikerasaarsuk
ikerasak
ikkunni
ikkunnili
ikkut
ikuallatat
il
ilaallutik
ilaanni
ilaannut
ilaapput
ilaasa
ilaasoq
ilaasortaasut
ilaasortaatitaqarput
ilaasortaavoq
ilaasortaq
ilaasortaqarpoq
ilaasortat
ilaasunik
ilaat
ilaatigut
ilaavoq
ilagaat
ilagiit
ilangalugit
ilanngukkaanni
ilanngullugit
ilanngullugu
ilaqutariit
ilaraat
ilatutariit
ilimagaat
ilimanaq
ilinniarfiit
ilinniarfinni
ilinniarneq
ilinniarsimasutut
ilinniartitaanermut
ilinniartitsineq
iliorsinnaatitaaffiit
ilisarnaaqqutaat
ilisarnaataa
ilisimaneqartut
ilisimasanik
ilisimasassarsiornermi
ilisimasat
ilisimatooq
ilisimatusaatit
ilisimatusarneq
ilisimatusarnermi
ilisimatuussutsikkut
ilisimatuut
ilisserut
ilisserutit
iliuuseqarfigissallugit
illoqarfiit
illoqarfik
illoqarfimmi
illoqarfimmullu
illoqarfinni
illoqarfittut
illoqarfiullu
illoqarfiup
illoqqortoormiut
illorsua
illorsuit
illu
illuni
illut
ilu
iluani
iluatsilluarpoq
iluatsitsilluni
ilulissat
ilumoortumik
ilusilersugaaneq
ilusilersuineq
ilusilersuisut
ilusinik
ilutigalugu
ima
imaappoq
image
imak
imalik
imalt
imaluunniit
imaluunnit
imaq
imaqarnera
imaqarpoq
imaqartoq
imarisai
imartaani
imdb
imeerluni
imeersoq
imeq
imermik
imermillu
imi
imiilli
imiit
imik
imili
imillu
imilu
imit
immakkut
immap
immaqa
immikkoortoq
immikkoortortaani
immikkoortuini
immikkut
imminnut
imminut
immiussaminni
immiussat
immiussipput
immuk
imut
in
inaat
inassut
inatsimmi
inatsisartuni
inatsisartunut
inatsisartut
inatsisit
inatsisitigut
independence
ineqi
ineriartornera
ineriartornerani
ineriartorneranik
ineriartortitsineq
inernerit
ingammik
inganeq
inganermi
ingeniør
ingerlaariaatsit
ingerlaarnerata
ingerlanerani
ingerlaneranni
ingerlanerini
ingerlanneqarnera
ingerlanneqarpoq
ingerlanneqartarput
ingerlatsiviini
ingerlatsiviit
ingrid
ini
inik
inillu
inissinneqarpoq
inissisimalluni
inissisimanera
inissisimanerit
inissisimapput
inissisimasoq
inissisimavoq
innaarsuit
inneq
innermik
innk
innuttaasut
inooqatigiinnermi
inooqatigiinnik
inoqarluni
inoqarpoq
inoqartoq
inuiaqatigiinni
inuiaqatigiit
inuiattut
inuii
inuillu
inuinnaat
inuisa
inuit
inuk
inulik
inummut
inungasunik
inunngorpoq
inunnik
inunnit
inunnut
inuppassuit
inut
inuttai
inuttut
inuuneq
inuunerup
inuup
inuusimapput
inuusimasut
inuusoq
inuussutissarsiutinut
inuusut
inuusuttunut
inuutissarsiutini
inuuvoq
ip
ippoq
iron
is
iserartussuseqarlutik
isigalugu
isiginnaartitsisartoq
isiginnaartitsisartut
isikkamik
isikkua
islam
island
islandi
islandip
isortoq
issittumi
issittup
issuatsiaat
isumaat
isumaliutersuutit
isumannaatsumik
isumaqarpoq
isumaqarsinnaasoq
isumaqartoq
isumaqartoqarpoq
isumasiornermi
isut
it
itilleq
ittoq
ittoqqortoormiillu
ittoqqortoormiit
ittumik
ittut
itut
iusoq
iuvoq
ivigaasaq
ivigaq
ivissuaq
j
jackson
jakob
jan
januar
jenis
jens
jensen
jerkel
jesusip
jo
joe
johan
johannesip
john
jonas
jonathan
jpg
juhl
juli
julie
juncus
juni
juutit
jørgensen
k
kaarsi
kajortoq
kakillalik
kal
kalaaliuvoq
kalaallini
kalaallisut
kalaallisuua
kalaallit
kalattoorneq
kalerrisaarutinik
kangaatsiap
kangaatsiaq
kangerlua
kangerluata
kangerlussuaq
kangerlussuarmi
kangerlussuarmut
kangerluup
kangersuatsiaq
kangia
kangimut
kaniinaq
karen
karin
kategori
katillugit
katinnerat
katisimalluni
kattuffiat
kattuffiit
kattuffik
kattuttut
katuap
katuaq
kelly
kemi
kendskab
kenneth
kg
kgh
kiak
kianneranit
kiattup
kielsen
kiinamiut
kiisalu
kikkulluunniit
kikkunnit
killeqarfigivai
killigigaa
killilersugaanngitsumik
killilersugaanngitsumillu
killillit
kilo
kimmernaq
kina
kinaluunniit
kinami
king
kingoqqiviat
kingorna
kingornagullu
kinguaarit
kingullerni
kingulliit
kinguneqarpoq
kingunerani
kinguneranik
kingusinnerusukkullu
kingusinnerusukkut
kisalu
kisianni
kisiannili
kisiat
kisimi
kisimiilluni
kisimik
kisitsinermi
kisitsisinik
kisitsisit
kiss
kitaa
kitaamiusut
kitaani
kitsissuarsuit
kkut
kl
klimaa
klint
klintskov
klippe
km
kni
knr
knud
knuth
kommune
kommunea
kommuneani
kommuneanni
kommuneanut
kommuneqarfik
kommuneqarfimmut
kommunerigaluani
kommuni
kommunia
kommuniani
kommunianut
kommunit
konservative
kr
kreutzmann
kristensen
kristiansen
kristumiut
kronprinsesse
kuanneq
kujalleq
kujallermi
kujallermut
kujammullu
kujammut
kujasinnerulluni
kujataani
kujataaniittoq
kujataanilu
kujataata
kull
kullorsuaq
kultur
kulturi
kulturimut
kulusuk
kunngeqarfik
kunngeqarfimmi
kunngeqarfiuk
kunngeqarfiup
kunni
kuulti
kuultimi
kuultimik
kuultip
kuummiut
kvadratcentimeterimut
kvadratcentimeterit
københavn
københavnimi
l
la
land
landsra
larus
lat
latiinerisut
latin
latinerisut
lav
lech
left
leksikon
leksikoni
leucopsis
liberal
lind
line
link
llu
london
love
lu
m
ma
maani
maanna
maannakkut
madeleine
maiden
maj
makku
makkuupput
maleraasaaqqanik
malillugit
mamaa
mammalia
maniitsoq
maniitsup
manna
manniit
manniup
map
marcus
margrethe
mariah
maritima
maritimus
marloqiusanik
marluk
marlunnik
marlunnut
marluusut
marriornerup
marts
massakkullu
massakkut
matematikki
matuma
med
meeqqanut
meeqqat
meersut
messmann
metal
meterinik
meterit
mi
michael
middelhavet
miit
mik
mikisoq
mikkel
mill
million
millionit
milu
miluumasoq
miluumasunik
miluumasuupput
miluumasuuvoq
ministerra
minnerpaamik
minnerunngitsumillu
mio
misissoqqissaakkat
misissuineq
misissuinerit
misissuinermi
miss
missaa
missaani
missaanik
missaanni
missaanniipput
missaat
missiliorlugit
mit
mittarfeqarfiit
mittarfiit
mittarfik
mittarfinni
mittarfinnik
miðflokkurin
mm
mogens
monarki
moriusaq
mosesimik
moto
motzfeldt
movie
muhammad
murray
musical
mut
n
naak
naalagaaffiit
naalagaaffik
naalagaaffimmi
naalagaaffinni
naalagaaffiup
naalagaq
naalagaqarfittut
naalakkersuinikkut
naalakkersuisui
naalakkersuisuisa
naalakkersuisunit
naalakkersuisut
naallugu
naanii
naapertorlugit
naassaanngitsumik
naasut
naggorissuni
nagguaatsut
najugallit
najugaqarfigineqarpoq
najugaqarlutik
najugaqarput
najugaqartut
nalaani
naligiimmik
naliginnaasoq
naliginnaasumik
naliginnaasutut
nalunaarasuartaat
nalunaarsuutit
nalunaarummi
nalunnginneqarpoq
nammineerluni
nammineq
namminersorlutik
namminersorlutillu
namminersornerullutik
namminneq
nannup
nannut
nanoq
nanortalik
nanortalliup
napasoq
nappagaq
nappartat
naqitsineq
naqitsinera
narsami
narsap
narsaq
narsarsuaq
nassaarineqarsimapput
nassaassaapput
nassaat
nerisassaat
nerisassanik
nerisassat
nerleq
nerlerit
nerlernaarsuk
nerlernaq
nerlernarnaq
nerriviup
nersornaataa
nersut
new
newton
ni
niaqornaarsuk
niaqornat
niaqua
nik
nillu
nina
nioqqutissanik
nioqqutissat
nipiaa
nipilersoqatigiit
nipilersoqatigiittarput
nipilersoqatigiiupput
nipilersoriaasertillu
nipilersorneq
nipilersortartut
nit
nittaalaq
nittartagaa
nittartakkat
niuerneq
niuernermik
niuernermut
niuernerup
niuertoqarfik
niuertoqarfiup
nivalis
niviarsiaqqat
no
nora
norden
nordisk
norge
nr
nujuartaq
nukik
nukimmik
nukissat
number
nun
nuna
nunaallu
nunaanni
nunaannut
nunaat
nunaata
nunaateqarneq
nunaavoq
nunalerineq
nunallu
nunami
nunamik
nunamut
nunani
nunanik
nunanilu
nunanit
nunanut
nunap
nunaqarfii
nunaqarfiit
nunaqarfik
nunaqarfimmi
nunaqarfinni
nunaqarfiup
nunaqarfiuvoq
nunarput
nunarsualerineq
nunarsuaq
nunarsuarmi
nunarsuarmilu
nunarsuup
nunat
nunataa
nunataata
nunatsinni
nunatsinnilu
nunatta
nunavimmut
nunavissuaq
nunavissuit
nunavut
nunnittarfiit
nut
nutaaliaq
nutaamik
nutaanik
nutaap
nutaaq
nutaat
nuuk
nuummi
nuummut
nuuneqarluni
nuunneqarpoq
nuup
nuussualiaq
nuussuaq
o
obama
oceania
odense
of
og
oh
ol
om
on
oqaaseq
oqaaseqatigiinni
oqaaseqatigiinnik
oqaaserineqartut
oqaaserpassualeriffik
oqaaserpassualerineq
oqaasiat
oqaasii
oqaasiinik
oqaasiisa
oqaasileriffik
oqaasileriffiup
oqaasiliortut
oqaasiupput
oqaatigineqarsinnaavoq
oqaatsinik
oqaatsit
oqaluffik
oqaluffiup
oqaluttuarisaaneq
oqaluttuarisaanera
oqaluttuarisaanerani
oqaluttuarisaanermi
oqaluttuassartaa
oqaluttut
oqartussanut
oqartussat
ordbogi
org
orla
orsua
orsuaasat
orsuanik
orsui
orsut
our
out
p
pa
paa
paamiut
paarlakaallutik
paarnaqutit
paarnarsuarnik
paarsisut
paarsisutoqqat
paasillugu
paasisat
paasissutissanik
paasissutissat
paasivarput
paavani
partii
partiini
paul
pauli
paulusip
pdf
peqarpoq
peqataatitaqanngilaq
peqatigalugu
peqatigiiffik
peqatigiit
peqqinneq
peqqutaalluni
peqqutigalugu
periaatsit
periarfissat
petersen
piffiit
piffissami
piffissap
piffissaq
pikkoriffigisat
pil
pilersinneqarluni
pilersinneqarmat
pilersinneqarpoq
pilersinneqarput
pilersinneqartoq
pilersitsineq
pilersitsinissaq
pilersitsisarpoq
pillugit
pillugu
pilutai
pineqarnerupput
pineqarput
pineranik
pinerluttulerinermi
pingaarnerit
pingaarnersaapput
pingaarnersaat
pingaarnersaavoq
pingaarnersaraat
pingaarnertut
pingaartumik
pingaaruteqartuuvoq
pingaarutillit
pingasuni
pingasunik
pingasut
pingasuupput
piniagaanera
piniarneq
piniarnerlu
piniarnermillu
pinngorsimasulerinermi
pinngortitami
pinngortitamik
pinngortuusut
piorsarsimasut
pipput
pisariaqartitaai
pisat
pisiniarfiit
pisinnaatitaaffiit
pisinnaatitaaffinnik
pisinnaatitaaffinnut
pisinnaatitaavoq
pisoqaanersaat
pisortanit
pisortaqarfiit
pisortat
pisortatigoortumik
pissusaa
pissusaanik
pissuseqatigiit
pissusilerineq
pissusissamisoortumik
pissutaavoq
pissutigalugit
pissutigalugu
pissutissaqarluni
pissutsit
pisunik
pisut
pitsaasumik
piumasaqaatit
polen
poleni
polenimiut
politik
politikkeri
politikki
politikkikkut
politikkimut
poll
pop
potentil
potentilla
prins
prinsesse
præsidentiat
puisi
puisip
puisit
pujoorineq
pukkitsormiut
punk
pupik
px
q
qaammat
qaammataani
qaanaaq
qaangiummata
qaangiuttut
qaanut
qaarsut
qaasuitsup
qaava
qaavata
qajaq
qalaassineq
qalasersuaq
qalipaataa
qall
qallunaat
qallunaatsiaat
qallunaatut
qanga
qangaanerusoq
qangarnisarsiorneq
qanoq
qanorlu
qaqortaq
qaqortoq
qaqortortaa
qaqortup
qaqqaq
qaqqat
qarasaasiaq
qarasaasiat
qasertoq
qasigiannguit
qassimiut
qeqertamiippoq
qeqertaq
qeqertarsuaq
qeqertarsuarmi
qeqertarsuarmilu
qeqertarsuarmit
qeqertarsuarmut
qeqertarsuup
qeqertat
qeqqata
qerattarsaat
qernertaq
qernertormioq
qilaatai
qilalugaq
qilammi
qinerneqartarput
qinikkat
qisummik
qiteriaaseq
qiteriaatsit
qitigissat
qitinneq
qitiusumik
qulaallugu
qulimiguulinnut
qulinik
qullersaqarfeqarpoq
qummut
quo
r
ra
rana
ranunculus
reykjavi
rhead
right
rnet
rock
roll
rossi
royal
ru
ryle
rød
s
sa
saarloq
saarngi
saarullik
saattut
saffiugassat
sakkut
salix
salomonsen
sammisat
sanaaminnik
sanaartorneq
sanaat
sananeqaatiaqqanik
sananeqaatiaraqatigiinnik
sananeqarpoq
sanasartoq
saniatigullu
saniatigut
sannaa
sanne
saqqaq
sarfannguaq
sas
savalimmiut
savissivik
saxifraca
saxifraga
schmidt
se
semi
sep
septemberip
seqernup
seqineq
sermeq
sermersooq
sermersuup
sermiligaaq
sermitsiaq
services
shania
si
siaasaaneq
sialuk
siatsineq
siggukitsoq
siiliki
siissisoq
sikalaarineq
silaannaa
silaannaap
silaannarmik
silaannarsuup
silap
silarsuarmi
simapput
sinaa
sineriaa
sineriaani
sinerissami
single
sinnera
sinneri
sinnerlugit
sinnerlugu
sinniisua
sinnilaarlugit
sioraasaq
sioraasat
siorapaluk
siorna
siornatigornit
siornatigut
sisamanik
sisamat
sisimiuni
sisimiuniit
sisimiunut
sisimiut
siuaasaat
siuleriit
siulersuisunut
siulii
siulittaasoq
siulittaasorivaat
siulittaasuattut
siulleq
siullermik
siullerpaamik
siullertut
siulliit
siumut
siunertaralugu
siunissami
siunnersuisooqatigiinni
siunnersuisooqatigiit
siunnersuisoqatigiit
siunnersuutit
siusinnerusukkut
siv
sivisuumik
sk
sletningsforslag
sne
so
socialdemokratiet
sol
soorlu
sorlak
sorlernut
sorsunnersuup
sp
spangled
spanien
sprog
sproget
ssp
star
status
stenbræk
stercorarius
steve
stockholmimi
stor
sukkasuumik
sukkasuunik
suleqatigalugit
suleqatigiiffik
suleqatigiinnermut
suleqatigissallugit
suleriaatsit
suli
suliaat
suliaqarneq
suliarineqartarput
suliassaraat
suliassarai
suliassarigaat
suliassat
suliat
suliffeqarfiit
suliffeqarfik
suliffeqarfiup
suliffissualerineq
sulilu
sulineq
sulinermik
sulisartut
sulisut
sului
sumi
sumiiffimmi
sumiiffinni
sumiiffinnut
sumiluunniit
sumit
sumut
sunaanersoq
sunik
susan
sv
sverige
svingel
sydbay
sølvi
t
taakku
taakkua
taakkualu
taakkulu
taakkunannga
taakkuninnga
taakkununnga
taama
taamaalilluni
taamaalilluta
taamaalillutik
taamaallaalli
taamaallaat
taamaammat
taamaattoq
taamaattorli
taamaattumik
taamaattumillu
taamaattut
taamak
taamani
taamatullu
taamatut
taamatuttaaq
taana
taaneqarsinnaasoq
taaneqartarnera
taaneqartarpoq
taaneqartarput
taaneqartartoq
taanna
taannaasoq
taannalu
taasarpaat
taassuma
taassumalu
taava
taavalu
takisooq
takissuseqarpoq
takissusilik
takisuumik
takornariaqarneq
takornarissanut
takukkit
takuneqarsinnaapput
takutippaat
takuuk
tallimani
tallimanik
tallimat
tamaani
tamaasa
tamaat
tamagajammik
tamakkerlugu
tamakkiisumik
tamakku
tamalaani
tamalaat
tamani
tamanik
tamanit
tamanna
tamannalu
tamanut
tamarmi
tamarmik
tamarmut
tamassumalu
tamat
tamatigut
tamatuma
tamatumani
tamatumuuna
taparneq
tappiorannartut
tarajua
taratsut
tarnip
tasiilap
tasiilaq
tasiusaq
tassa
tassaapput
tassaasoq
tassaavoq
tassalu
tassami
tassani
tassanilu
tassanngaanniit
tassunga
tassungalu
tassuunakkut
tassuunalu
teleta
teqeqqulinnut
that
the
their
through
thule
thumb
thumbnail
thymus
tikillugu
til
tim
timaani
timersorneq
timikkut
timissanik
timissat
timiup
timmiaq
timmisartortitseqatigiiffiup
timmisartunik
timmisartunut
timmisartup
timmisartut
timmisartuussinerit
timmissat
tina
tingui
tiniteqilaaq
titartaaneq
tjo
to
tons
toqqaannartumik
trond
tue
tulleraat
tullerit
tullerunnaq
tullia
tulliani
tulugaq
tuluit
tuluttut
tungaannut
tungaanut
tungaatigut
tungujortoq
tunngasuni
tunngasunik
tunngasunut
tunngasut
tunngasutigut
tunngatillugu
tunngavigalugit
tunngavigalugu
tunngavilerneqarluni
tunngavilerneqarpoq
tunnulik
tunnullit
tunu
tunua
tunuani
tunumi
tunumiit
tunup
turner
tut
tuttu
tuttunnguit
tuttut
tv
twain
tyskisut
tyskland
u
uani
uiffak
ujaqqanik
ujaraaqqanik
uk
ukiakkut
ukioq
ukioqarluni
ukioqartoq
ukiualuit
ukiukkut
ukiullu
ukiumi
ukiumoortumik
ukiumut
ukiuni
ukiunik
ukiup
ukiut
ukiuunerani
ukkusissat
uku
ukunani
ukuupput
ukuusut
ulikkaartoq
ulloq
ulloriaasaq
ulloriarsiorneq
ulloriarsiornermi
ullorissanik
ullorissat
ullormut
ullorsiut
ullorsiutit
ulluinnarni
ulluisa
ullumi
ullumikkullu
ullumikkumut
ullumikkut
ullup
ullut
ullutsinni
ullutsinnilu
umimmaat
umimmak
una
university
upernavik
upernaviup
upperisaq
upperisarsiorneq
upperisarsiornermi
uppernarsaatitut
uppernarsarpaat
ursus
us
usa
user
ussuk
utoqqarsuanngoravit
uumaatsulerineq
uumasoq
uumassuseqartulerineq
uumasullu
uumasunik
uumasut
uumasuuvoq
uummannap
uummannaq
uunartumi
uunnaaneq
uunnaanermi
v
va
vaccinium
venstre
verden
victoria
villum
vitamin
w
wave
we
web
wehr
when
where
who
wiki
wikimedia
wikipedia
wikipediami
wikipediap
wilcock
winoujs
world
www
x
y
you
z
zac
zebra
|
§
«
°
²
´
»
½
ð
ðveldi
øje
˚
̀
́
̂
̃
̄
̆
̇
̈
̊
̌
̧
̨
α
‎
–
—
’
“
”
„
↔
↷
−
③
④
⑦
☾
⺀
⺄
⺆
⺈
⺊
⺌
⺕
⺝
⺸
⺼
⿰
⿱
⿲
⿳
⿴
⿵
⿶
⿷
⿸
⿹
⿺
⿻
〢
コ
ユ
㇁
㇂
㇄
㇇
㇈
㇉
㇓
㐁
㐄
㐅
㐌
㐫
㐬
㐭
㐮
㐱
㑒
㒵
㒸
㒼
㓁
㓞
㔾
㕛
㕣
㖾
㘝
㚅
㚇
㚔
㚘
㝉
㝡
㝴
㝵
㞋
㞢
㞷
㠩
㠭
㠯
㡀
㡭
㡿
㢲
㢴
㣇
㣺
㥯
㪅
㫄
㫐
㫒
㫺
㬅
㬎
㬥
㬰
㲋
㳄
㷠
㸒
㸚
㸦
㼌
㼲
㽞
㿟
䀠
䂞
䍃
䏍
䒑
䖍
䖒
䖝
䖵
䙴
䚻
䜌
䝿
䡛
䧹
䪞
一
丁
丂
七
丄
丅
丆
万
丈
三
上
下
丌
不
与
丏
丐
丑
专
且
丕
世
丘
丙
业
东
丞
丢
丣
两
严
並
丨
丩
个
丫
丬
中
丮
丰
丱
串
丵
丶
丷
丸
丹
为
主
丽
丿
乀
乂
乃
久
乆
乇
么
义
之
乌
乍
乎
乏
乐
乑
乔
乖
乗
乘
乙
乚
乛
乜
九
乞
也
习
乡
乳
乾
亀
亅
了
亇
予
争
事
二
亍
于
亏
亐
云
互
亓
五
井
亘
亚
亜
亞
亟
亠
亡
亢
交
亥
亦
产
亨
亩
享
京
亭
亮
亯
亰
亲
亳
亶
亷
人
亻
亼
亾
仁
今
介
仌
从
仐
仑
仒
仓
仕
他
付
仝
代
令
以
任
企
伊
伏
伐
休
会
伯
但
位
何
佘
余
作
佥
使
來
侈
侌
侖
侯
侵
便
保
俞
信
修
倉
倍
候
倠
備
僉
僕
儿
兀
允
兂
元
兄
充
兆
兇
先
光
兊
克
兌
免
兑
兒
兓
兔
党
兜
兟
入
全
兩
兪
八
公
六
兮
兰
共
关
兵
其
具
典
兹
兼
冀
冂
冃
冄
内
冈
冉
冊
冋
册
再
冎
冏
冐
冒
冓
冖
冗
冘
军
农
冝
冡
冥
冫
冬
冷
几
凡
凢
凵
凶
凷
凸
凹
出
函
凾
刀
刁
刂
刃
刄
刅
分
切
刍
刑
刕
刖
列
刘
则
初
別
利
别
到
制
刺
則
削
剌
前
剡
剽
劉
力
功
加
劦
助
劫
劳
劵
勃
勇
勉
勒
動
務
勞
勤
勹
勺
勻
勾
勿
匀
匂
包
匆
匈
匊
匋
匍
匕
化
北
匚
匝
匡
匪
匱
匸
匹
区
医
匽
匿
區
十
卂
千
卄
卅
卆
升
午
卉
半
卌
华
卑
卒
卓
单
卖
南
卜
卝
卞
占
卡
卢
卣
卤
卦
卩
卪
卬
卯
印
危
即
却
卵
卷
卸
卻
厂
厃
厄
历
厈
厉
厌
厓
厘
厚
原
厤
厥
厨
厭
厲
厶
厷
厸
去
厼
厽
叀
参
參
叅
又
叉
及
友
双
反
叐
发
叒
叔
叕
取
受
叚
叜
叟
口
古
句
另
叩
只
召
可
台
叱
史
右
叵
号
司
叹
吂
各
吅
合
吉
吊
吋
同
名
后
吏
向
吕
君
吝
吞
否
含
启
吳
吴
吹
吾
呂
呆
呈
告
员
呙
周
命
咅
和
咎
咠
咢
咨
咸
咼
哀
品
哉
員
哥
哲
唐
商
啇
問
啚
啬
啻
善
喜
喬
單
喿
嗇
噩
嚴
囊
囗
囘
囙
囚
四
回
囟
因
囧
囬
困
囱
囷
固
国
圂
圅
國
圍
圓
土
圡
圣
圥
在
圭
地
圶
圼
坐
坒
坚
坴
垂
垔
垚
埀
埋
埶
執
基
堂
堅
堆
堇
堯
塞
墨
壘
士
壬
壯
声
壳
壴
壹
壺
壽
夂
处
夅
夆
备
夊
夋
夌
复
夏
夒
夕
外
夗
夘
多
夜
夢
大
夨
天
太
夫
夬
夭
央
失
夲
头
夷
夸
夹
夻
夾
奂
奄
奇
奈
奉
奎
奏
奐
契
奓
奔
奚
奞
奠
奢
奥
奭
女
奴
奻
好
如
妄
妙
妟
妥
妻
妾
姑
委
姜
威
娄
婁
婴
嬰
嬴
子
孑
孔
孕
孖
字
存
孚
孛
孝
孟
季
孤
学
孫
孱
學
宀
宁
宂
它
宅
宇
守
安
宋
完
宏
宓
宗
官
定
宛
宜
宝
客
宣
室
宮
宰
害
家
容
宾
宿
寄
寅
密
富
寒
察
寧
審
寫
寬
寮
寸
对
寺
寻
寽
対
寿
封
尃
射
将
將
專
尉
尊
尋
尌
對
小
少
尒
尓
尔
尖
尗
尚
尞
尢
尣
尤
尧
尨
尭
就
尸
尹
尺
尻
尼
尽
尾
尿
局
居
屈
屋
屎
屏
屑
展
屖
屚
属
屠
屡
屬
屮
屯
屰
山
屵
屾
岁
岂
岑
岡
岩
岳
岸
峯
島
崇
崑
崔
崖
崙
崩
嵬
嶲
巂
巛
川
州
巟
巠
巢
巤
工
左
巧
巨
巩
巫
差
己
已
巳
巴
巷
巸
巽
巾
巿
帀
市
布
希
帚
帛
帝
带
師
席
帶
常
干
平
年
幵
并
幷
幸
幺
幻
幼
幽
幾
广
広
庄
床
底
店
庚
府
度
庫
庭
庶
康
庸
廉
廌
廛
廣
廩
廴
延
廷
建
廾
廿
开
弁
弃
弄
弇
弋
式
弓
弔
引
弗
弘
弜
弟
弥
弦
弱
張
強
强
彊
彌
彎
彐
彑
当
彔
录
彖
彗
彡
形
彥
彦
彧
彭
彳
役
彼
往
待
律
徒
得
徙
從
復
微
徵
心
忄
必
忌
忍
志
忝
忠
忩
快
念
忽
忿
思
怠
急
怱
恆
恒
恩
恭
息
悉
患
悤
悲
悶
惠
惡
惢
愁
愈
意
愛
感
慈
慧
慮
憂
憲
應
戀
戈
戉
戊
戋
戌
戍
戎
成
我
戒
戔
或
戚
戠
戢
截
戲
戶
户
戹
戼
戾
房
所
扁
扇
手
扌
才
打
托
执
承
折
拉
拜
拿
掌
推
提
摩
支
攴
攵
收
攸
改
放
政
敄
敏
敕
敖
敗
敝
敞
敢
散
敦
敫
敬
数
敷
數
斂
文
斉
斊
斗
斤
斥
斩
斬
斯
新
方
於
施
斿
旁
旋
族
无
旡
既
旣
日
旦
旧
旨
早
旬
旱
旲
时
旾
昆
昇
昌
昍
明
昏
易
昔
昗
昜
星
春
昬
是
昱
昴
昷
時
晃
晋
晏
普
景
晶
智
暑
暴
曇
曩
曰
曲
曳
更
曷
書
曹
曼
曾
替
最
朁
會
月
有
朋
服
朔
朕
朗
望
朝
木
朩
未
末
本
札
朮
术
朱
朵
朶
朿
杀
杏
杜
束
条
来
東
杲
杳
松
析
林
枚
果
枝
枲
枼
某
柔
查
柬
柰
柴
栗
桀
桑
桼
梁
條
梟
梨
棘
棠
棥
森
楚
業
楽
榮
樂
樊
欠
次
欣
欮
欲
欶
欽
款
歆
歇
歛
止
正
此
步
武
歨
歪
歮
歯
歰
歲
歴
歷
歸
歹
歺
死
殳
段
殷
殸
殹
殺
殻
殿
毋
毌
母
每
毒
比
毕
毚
毛
毳
氏
氐
民
气
氣
水
氵
氶
氷
永
氺
氾
求
汝
汞
江
沃
沓
沙
沝
泉
法
波
泣
泥
泰
洛
洪
活
派
流
浦
浪
浮
淡
淮
清
渚
渠
湯
滿
漸
火
灬
灭
灰
灵
灷
炅
炎
炏
炗
炙
炭
為
烈
烏
烝
焉
無
焦
焱
然
煞
熊
熏
燕
營
燮
爪
爫
爭
爯
爰
爱
爲
爵
父
爻
爽
爾
爿
片
牙
牚
牛
牜
牟
牢
牧
牪
牽
犀
犬
犭
犮
狂
狄
狊
独
狺
猋
猒
猪
献
獻
玄
率
玉
王
玟
玨
珎
班
琴
瑟
瑩
瓜
瓦
甘
甚
生
産
用
甫
甬
田
由
甲
申
电
甶
男
甸
甹
画
甾
畀
界
畏
畐
留
畜
畟
畢
畧
畨
番
畫
異
畱
當
畺
畾
疊
疋
疌
疑
疒
疾
癶
癸
癹
登
發
白
百
皀
皃
的
皆
皇
皋
皐
皕
皮
皷
皿
盃
盆
盇
盈
益
盍
盎
监
盒
盖
盛
盡
監
盤
盧
目
直
相
盾
省
眇
眉
看
眔
眞
真
眷
眼
眾
着
睘
睪
睿
瞏
瞢
瞿
矍
矛
矞
矢
矣
知
矦
短
石
破
碎
磊
磨
示
礻
礼
祟
票
祭
禀
禁
禸
禹
禺
离
禽
禾
禿
秀
秃
秉
秋
科
秝
秦
移
稟
穀
穌
穴
究
穹
空
穿
突
窄
窒
立
竒
竜
竝
竟
章
童
竹
笑
笠
筆
等
答
箕
算
箴
節
篤
篭
米
粉
粛
粟
粤
粦
粲
糞
糸
糹
系
約
納
素
索
紫
累
細
絜
絫
絲
維
綿
縣
繇
纍
纟
缶
网
罒
罔
罕
罗
罙
罡
罢
罪
署
罷
羅
羊
羌
羍
美
羔
羕
羗
羞
羡
羣
群
義
羲
羸
羽
翁
翏
習
翕
翟
翠
翼
老
耂
考
者
耆
而
耎
耑
耒
耳
耴
耶
耷
聂
聊
聖
聚
聶
聿
肀
肃
肅
肉
肖
肙
肥
肩
肯
育
肴
胃
背
胡
胥
能
脊
脩
膚
臣
臤
臧
自
臬
臭
臯
臱
至
致
臺
臼
臽
臾
臿
舀
舂
舄
與
興
舉
舌
舍
舛
舜
舞
舟
般
艮
良
色
艸
艹
艾
芒
芔
芬
芮
花
芳
芺
芻
苔
苗
苟
若
苦
英
茶
茸
荅
草
荒
荣
荼
莆
莧
莫
莽
菆
菊
菐
華
萬
落
葉
著
葛
董
葵
蒙
蒦
蒼
蓋
蓬
蓺
蔑
蔡
蕉
蕭
薄
薛
薦
薰
藍
藏
藥
蘭
虍
虎
虐
虒
虔
處
虖
虗
虘
虚
虛
虜
虞
虫
虽
蚤
蚩
蜀
蜜
蟲
蠡
血
行
衍
衛
衣
衤
表
衮
衰
袁
袞
褭
褱
襄
襾
西
覀
要
覃
見
規
覓
覧
親
覽
见
角
解
言
訁
訇
計
詹
誩
諸
讠
谷
豆
豈
豊
豐
豕
豖
豙
象
豦
豩
豪
豸
貇
貝
貞
貟
負
貢
貧
貪
貫
責
貳
貴
買
費
賁
資
賈
賏
賓
賔
賛
賞
賢
賣
質
賴
贊
贝
贡
责
贯
贲
贵
赖
赞
赤
赦
走
越
足
路
蹇
身
躬
車
軍
軎
軟
輦
车
辛
辜
辟
辥
辰
辱
農
辵
辶
边
达
过
近
连
迷
追
退
送
逆
逐
通
速
造
逢
連
逮
進
遀
遂
過
道
達
遣
適
遷
遺
邊
邑
邕
那
邦
邪
郎
部
郭
都
鄉
酉
酋
配
酓
釆
采
里
重
野
量
金
釒
錢
钅
長
镸
长
門
閃
閉
開
閏
閑
閒
間
閔
閵
閻
闌
门
间
闷
阑
阜
阝
阿
降
陳
隆
隊
隋
隡
隨
隱
隶
隹
隺
隻
隼
隽
难
雀
雁
集
雈
雋
雍
雐
雔
雙
雚
雜
雝
離
難
雨
雩
雪
雲
零
雷
需
霍
霜
霝
霞
霸
靈
靑
青
非
靡
面
靣
革
韋
韦
韭
韯
韱
音
頁
頃
項
須
頗
頡
頻
顛
页
風
风
飛
飞
食
飠
養
饣
首
香
馬
馮
駦
马
骨
高
髟
鬥
鬯
鬲
鬼
魚
魯
鮮
鱼
鲁
鳥
鳳
鸟
鹵
鹿
麃
麗
麥
麦
麻
黃
黄
黍
黎
黑
黒
黨
黹
黽
黾
鼎
鼓
鼠
鼻
齊
齋
齐
齒
齿
龍
龙
龜
龟
龠
龰
龱
龴
龵
龶
龷
龸
龹
者
艹
？
🜨
𠀁
𠀃
𠀆
𠀉
𠀎
𠀐
𠁁
𠁣
𠂆
𠂇
𠂈
𠂉
𠂊
𠂋
𠂎
𠂒
𠂔
𠂛
𠂡
𠂢
𠂤
𠂬
𠂭
𠂹
𠃊
𠃋
𠃌
𠃍
𠃎
𠃑
𠃓
𠃔
𠃜
𠄌
𠄎
𠄠
𠄢
𠆢
𠆥
𠇍
𠈌
𠌵
𠓜
𠔉
𠔥
𠔼
𠔽
𠔿
𠕀
𠕁
𠕋
𠘧
𠘨
𠙻
𠙼
𠚏
𠚒
𠚤
𠚪
𠣏
𠤎
𠤕
𠥓
𠦄
𠦑
𠦝
𠧒
𠧗
𠧪
𠩺
𠪚
𠫓
𠫔
𠫤
𠬛
𠬝
𠬞
𠬢
𠬤
𠬶
𠮛
𠮦
𠮷
𠯑
𠱠
𠳮
𠷎
𡈼
𡉀
𡉵
𡌥
𡍮
𡏳
𡕒
𡕩
𡕰
𡖅
𡗗
𡗜
𡘆
𡘤
𡧱
𡨄
𡩧
𡬠
𡭽
𡰣
𡰥
𡰪
𡰯
𡰱
𡷈
𡸁
𡿨
𡿩
𡿪
𡿺
𢀖
𢀛
𢀩
𢁙
𢆉
𢆰
𢆶
𢇁
𢇇
𢉖
𢌬
𢌿
𢏚
𢑑
𢑚
𢖻
𢙣
𢛳
𢦏
𢦒
𢧵
𢼄
𢾕
𣁋
𣄼
𣅀
𣅽
𣍘
𣎳
𣎵
𣏋
𣏼
𣗥
𣥂
𣥖
𣦵
𣦼
𣧄
𣪊
𣪠
𣬉
𣳾
𣶒
𤇾
𤊽
𤐫
𤓰
𤔔
𤕨
𤣩
𤰇
𤰔
𤰞
𤴓
𤴔
𤽄
𥁑
𥁕
𥃦
𥃩
𥃭
𥇡
𥑟
𥘅
𥘈
𥝢
𥫗
𥱡
𦈢
𦉪
𦉬
𦉼
𦍌
𦍒
𦎧
𦐇
𦓔
𦔮
𦘒
𦙃
𦚏
𦣝
𦣞
𦣻
𦥑
𦥔
𦥯
𦨉
𦭝
𦰩
𧆞
𧈧
𧘇
𧰨
𧴪
𧴮
𧵩
𧾷
𨸏
𨾴
𩙿
𩠐
𩫏
𩵋
𪉷
𪜀
𪟽
𪠲
𪩲
𫇦
𫔭
𫜸
𫝀
𫠣
𫠩
𫢉
𫥞
𫩏
𫩠
𫪡
𫲽
𫶧
𬀷
𬐘
𬗌
𬙙
𬛸
𬜯
𬟩
𬯁
𬴘
𬺻
𬼉
𬼖
𭀰
𭁈
𭁨
𭅰
𭑈
𭕄
𭗼
𭤨
𭥫
𭻾
𮅕
𮊿
𮍌
𮍏
𮓗
𮥼
𮧮
廾
𰀁
𰀄
𰀈
𰀉
𰀕
𰀠
𰀡
𰀢
𰀪
𰁜
𰃮
𰆊
𰆘
𰋙
𰕎
𰢴
𰧭
𰯲
0--
1--
17--
18--
19--
2--
3--
4--
5--
6--
7--
8--
9--
a--
aa--
aal--
aala--
aalajangersima--
aalisakk--
aalisar--
aalla--
aallar--
aallarn--
aallarner--
aallarni--
aallart--
aapa--
aapakaa--
aappa--
aappalut--
aappar--
aappariil--
aaqqissuuteqq--
aasa--
aat--
aatsi--
affar--
ag--
agg--
agguaqatigiisi--
air--
ajor--
ajornartor--
ajortu--
ak--
akisus--
aku--
akuer--
akunn--
akunner--
al--
alapernaann--
aliana--
alla--
allaa--
allaaser--
allanngo--
allanngortit--
am--
amer--
amerl--
amerlan--
amerlaner--
ami--
amm--
amma--
ammaannartu--
amut--
an--
ana--
anersaar--
ang--
anga--
angajoqqa--
angala--
angerlar--
anginer--
angiss--
angu--
aniatit--
aningaa--
aningaasal--
aningaasaqar--
ann--
anner--
annert--
annertun--
annertuss--
ap--
apeqqut--
appis--
apriil--
aqq--
aqutsi--
ar--
arab--
arf--
argen--
arla--
arlal--
arna--
arnav--
arsaattar--
as--
assa--
assersuut--
assi--
assig--
assigiinng--
assigiinngis--
assigiinngit--
assigisa--
assil--
assingusu--
at--
ata--
ataa--
ataasiinnar--
ataat--
ataatsi--
ataatsimi--
ataqatig--
ataqatigiissaakka--
ateqar--
atoqqaart--
ator--
atorf--
atorn--
atorneqar--
atorneqarner--
atorneqarsinnaa--
atorneqartar--
atort--
atortar--
atortoris--
atortu--
atortussanngort--
atsi--
atu--
atuakk--
atuakka--
atuar--
atuarf--
atuarneqar--
atuga--
atugaa--
atugaal--
atugartu--
atuu--
au--
av--
avanna--
avannarler--
avannarpasinn--
avannarpasinner--
avatang--
avatangiisi--
b--
ba--
barcel--
ber--
bi--
bl--
bo--
brit--
c--
ca--
ce--
ch--
chimpan--
co--
conf--
d--
dan--
de--
di--
disk--
do--
du--
dun--
e--
edw--
elektr--
en--
eq--
eqqa--
eqqaa--
eqqarsa--
eqqarsaat--
eqqartuus--
eqqartuussi--
eqqissisi--
eqqissisimat--
eqqortu--
eqqu--
eqqumiit--
er--
erfa--
erin--
erinar--
erseqqis--
esp--
f--
fa--
fi--
fla--
fr--
g--
gal--
ge--
ger--
gr--
gre--
groen--
h--
ha--
hi--
ho--
hol--
hv--
hø--
højsk--
høn--
i--
ice--
iga--
ik--
ikittu--
il--
ila--
ilaa--
ilaasor--
ilaasorta--
ilaat--
ilag--
ilagis--
ilanngu--
ilin--
ilinniar--
ilinniart--
ilinniartitsiner--
iliorn--
iliorsinnaatitaaffin--
ilis--
ilisarna--
ilisima--
ilisimat--
iliu--
ill--
illoqarf--
ilu--
ime--
imer--
imerpa--
imm--
imma--
immikkoor--
immikkoort--
immius--
in--
inat--
inatsi--
inatsisartu--
iner--
ineriar--
ineriartort--
inga--
ingaria--
inger--
ingerla--
ingerlaar--
ingerlat--
ingerlatseqatigiiff--
inissisima--
inissisimaff--
inn--
innaal--
innuttaasu--
int--
inu--
inuinnar--
inunngor--
inunngu--
inuu--
inuun--
inuuniarner--
inuutis--
ipp--
is--
isig--
isiginna--
iss--
isu--
isuma--
isumag--
isumali--
isumaq--
isumaqar--
isumaqart--
isumaqatig--
isumma--
it--
itinerusu--
itissut--
j--
ja--
japani--
jo--
ju--
juu--
juutiuss--
k--
ka--
kaav--
kakil--
kalaall--
kanger--
kangerlu--
kat--
kater--
kateris--
katersugaa--
katis--
kattuff--
kiass--
kii--
kiilu--
kil--
kill--
killeqarf--
kis--
kisermaassi--
kle--
ko--
komm--
kon--
kr--
ku--
kuj--
kujasinner--
kujasis--
kunng--
kunngeqarf--
kunngis--
kus--
kuu--
kuummiu--
l--
lab--
lapp--
le--
li--
lit--
ly--
m--
ma--
maaj--
mal--
mama--
man--
mar--
marloqiusa--
marloria--
marlu--
marlun--
marriorn--
meeqq--
meeraa--
meqq--
meqqu--
meter--
mi--
mik--
misig--
misis--
misissu--
misissueqq--
misissueqqis--
mo--
n--
na--
naa--
naalaga--
naalagaaff--
naalagaaffeq--
naalakk--
naalakkersu--
naalakkersuisu--
naalern--
naalis--
naanera--
naapertu--
naasu--
naat--
naatita--
naatitani--
najuga--
najugaqar--
nal--
nala--
naleq--
nalig--
naliginnar--
nalil--
naling--
naluna--
nalunaa--
nalunaaqqutserneqar--
nalunng--
nammin--
namminersortu--
nap--
nappar--
napparsi--
napparsimmav--
naqit--
naqitsi--
narsar--
narsarsuar--
nassaar--
nassaas--
nassuiaaser--
nat--
nati--
ne--
neandertaler--
neq--
ner--
neru--
ni--
nim--
nip--
nipilersoria--
nipilersoriaatsi--
nipilersorner--
nipilersortar--
nipilersortartu--
niu--
niuer--
niv--
noorlermiu--
nor--
nu--
nuannar--
nuannarineqaatigiler--
nuannarineqal--
nuk--
nukapp--
nuu--
nuussuar--
o--
offic--
okto--
oq--
oqa--
oqaaser--
oqaasil--
oqaasiler--
oqaat--
oqaatig--
oqaatsi--
oqaluff--
oqaluttuar--
oqartus--
oqartussa--
oqartussaasu--
oqartussaqarf--
or--
orp--
orpi--
orpip--
p--
pa--
paarnaqu--
paasi--
par--
pass--
pe--
peq--
peqataa--
peqateqar--
peqatig--
peqq--
peqqinnis--
per--
periarf--
ph--
pi--
piareer--
piffin--
piffis--
pig--
pigisa--
pigisaa--
pin--
pineqar--
pingaa--
pingaarn--
pingaarner--
pingaaru--
pingaaruteqar--
pingasor--
pingasu--
piniaqq--
piniar--
piniartu--
pinner--
pinnersa--
pinngit--
pinngor--
pinngort--
piorsarsimassutsi--
pis--
pisa--
pisar--
pisariaqart--
pisinna--
pisinnaat--
pisoqaaner--
pissar--
pissartanngor--
pissus--
pissutaa--
pisus--
pitsaanerpaa--
pitsanngor--
piuma--
po--
poor--
port--
portuner--
pro--
pu--
pur--
q--
qa--
qaa--
qaama--
qaaman--
qaamaner--
qaanger--
qal--
qala--
qalaassin--
qalipa--
qall--
qaqort--
qaqortu--
qar--
qarasa--
qassi--
qeqerta--
qeqqani--
qerner--
qila--
qill--
qimm--
qin--
qiner--
qit--
qiterl--
qiterler--
qitinn--
qiv--
qu--
qul--
qullis--
qung--
qunga--
r--
ra--
raaj--
rh--
ri--
ro--
ru--
rus--
s--
sa--
saa--
saffiugas--
samm--
san--
sana--
sanaa--
sanaaj--
sanan--
sananeqa--
sanarf--
sap--
saqqar--
saqqu--
saqqumm--
saqqummer--
saqqummersit--
sav--
savali--
savalimmiu--
sc--
se--
sequ--
sequt--
ser--
serm--
sh--
si--
sia--
siat--
siatsi--
sik--
sil--
sin--
siner--
sinneqar--
sinni--
sio--
sioqqu--
sioraa--
sis--
sisa--
sisama--
sissa--
siuaa--
siul--
siulersu--
siulersuisu--
siulittaa--
siull--
siuller--
siun--
siunerta--
siunn--
siunnersu--
siunnersuisar--
siunnersuisoq--
siut--
siuttu--
siv--
sk--
sl--
soqutig--
sor--
spa--
ssa--
st--
stat--
stel--
su--
suleqatig--
suliffeqarf--
sull--
suluusalin--
sun--
sungaar--
sunn--
sunni--
sup--
sv--
t--
ta--
taa--
taaguuta--
taal--
taalliar--
taallior--
taarusuttar--
tak--
takk--
takus--
takussut--
tal--
tall--
tamakkii--
tap--
tar--
tasiila--
te--
tech--
teknikk--
ter--
terr--
testam--
th--
ti--
tig--
tigune--
tik--
tiki--
timmisartu--
to--
toqqamm--
toqqammaviusu--
toqu--
tor--
tr--
tri--
tu--
tuller--
tuni--
tunisi--
tunng--
tunnga--
tunngav--
tunngaveqar--
tunngavi--
tunngavig--
tunngavil--
tunngaviusu--
tunniu--
tus--
tuttor--
tysk--
u--
uivertit--
uj--
uk--
ukal--
ukior--
ullor--
ulloriar--
umiarsu--
umiatsia--
un--
ungalu--
ungasinng--
up--
upper--
upperis--
upperisa--
ur--
utoqqaass--
uu--
uuma--
uumassus--
uumasu--
uummanna--
uunna--
uuttu--
v--
ver--
vest--
vi--
w--
wa--
wal--
wh--
y--
z--
ð--
--0
--00
--1
--2
--3
--38
--4
--47
--48
--5
--6
--63
--7
--8
--82
--9
--96
--97
--a
--aa
--aaneq
--aani
--aaq
--aasa
--aasaq
--aat
--aata
--aavoq
--ad
--ae
--affeqartoq
--ai
--air
--ak
--al
--alerluni
--alerpoq
--alerput
--alik
--allu
--alu
--aluartoq
--ami
--amik
--an
--ana
--aneq
--ang
--anga
--ani
--aniit
--anik
--ap
--apput
--aq
--aqarpoq
--aqarput
--ar
--araat
--arai
--araq
--arlu
--arlugit
--arlugu
--arluni
--arlutik
--armat
--armata
--arneq
--arneqarpoq
--arneqartarpoq
--arnera
--arnerani
--arneranni
--arnerat
--arneri
--arnerit
--arnermi
--arnerup
--arnissaa
--arnissaat
--arnissamut
--arnissaq
--arpai
--arpoq
--arput
--arsimasoq
--arsimasut
--arsimavoq
--arsinnaavoq
--artarluni
--artarpoq
--artarput
--artartoq
--artitsineq
--artoq
--artumik
--artut
--artuuvoq
--ary
--as
--asarput
--aseq
--assaaq
--assapput
--assaq
--asut
--at
--ata
--atigiit
--atigut
--atsiarput
--atungaani
--atut
--avik
--avoq
--bo
--c
--ca
--ce
--ch
--ck
--co
--d
--dae
--de
--ds
--e
--ea
--ed
--en
--ep
--eq
--eqarluni
--eqarlutik
--eqarneq
--eqarnera
--eqarnerup
--eqarpoq
--eqarput
--eqarsimavoq
--eqartoq
--eqassapput
--er
--era
--ermi
--et
--eter
--f
--ffiat
--ffigaa
--ffii
--ffiit
--ffik
--ffimmut
--ffiup
--fiat
--fiisa
--g
--ga
--gaa
--gaat
--gaq
--ght
--gi
--giaq
--git
--go
--gu
--gulu
--gut
--h
--ht
--i
--ia
--iaaseq
--ian
--iat
--ic
--ica
--icum
--icus
--ie
--ien
--iffik
--igaa
--igaavoq
--igai
--igalugu
--igiissut
--igiit
--igivaa
--igullu
--igut
--ii
--iit
--iittartoq
--ik
--ilerineq
--ilik
--illi
--illit
--illu
--illutik
--imi
--imiutut
--immi
--immik
--immut
--imut
--ineq
--innarpoq
--innartoq
--inut
--ion
--ionelt
--ip
--ippoq
--ipput
--is
--isa
--isigut
--isk
--issut
--it
--itaavoq
--itat
--ittartoq
--ittoq
--ittuni
--ittut
--itut
--ium
--ivaa
--ivik
--juvoq
--k
--ke
--kel
--kkat
--kkut
--ku
--kut
--l
--la
--larmat
--lasut
--ld
--le
--leq
--ler
--lerineq
--lerpoq
--li
--lik
--lis
--lit
--liupput
--ll
--lla
--lli
--llit
--llu
--lluunniit
--lo
--ls
--lt
--lu
--lugit
--lugu
--lugulu
--luk
--luni
--lunilu
--lutik
--ly
--m
--ma
--masoq
--masut
--mat
--mata
--mavaa
--mavaat
--mavoq
--me
--mi
--migut
--mik
--mini
--minni
--mit
--miullu
--miusut
--miut
--mmat
--mmi
--mmik
--mmut
--mos
--mullu
--mut
--myg
--n
--na
--naapput
--naat
--nani
--naq
--naqaaq
--narpoq
--nartoq
--nd
--ne
--neersut
--neq
--neqalerpoq
--neqarpoq
--nera
--nerani
--nerit
--nerli
--nermi
--nerup
--net
--ng
--nga
--ngit
--ngorpoq
--ngu
--nguaq
--ni
--nia
--niarneq
--niit
--nik
--nili
--nilu
--nip
--nissaa
--nissaq
--nit
--nnaapput
--nnaaq
--nnaasarput
--nnaasoq
--nnaavoq
--nneq
--nnerup
--nngippat
--nngorneq
--nni
--nnik
--nnut
--ns
--nut
--o
--od
--okke
--on
--ooq
--oorneq
--oq
--oqaq
--oqqani
--ornermi
--orsuup
--os
--osum
--osus
--p
--pe
--pi
--poq
--ppoq
--pput
--put
--q
--qa
--qaat
--qarfiit
--qarfimmut
--qarneq
--qarpoq
--qarput
--qartugut
--qqat
--r
--ra
--raa
--raat
--raq
--rd
--rds
--re
--ri
--ria
--rineqarpoq
--rip
--ris
--rlu
--rlugu
--rluni
--rlutik
--rmi
--rmiu
--rmiut
--rnaq
--rneq
--rnera
--rneri
--rnermi
--rnik
--rnini
--ro
--rpoq
--rput
--rs
--rsimavoq
--rsiorneq
--rsuaq
--rsuit
--rsuk
--rt
--rtaa
--rtai
--rtaqarpoq
--rtarpoq
--rtooq
--rtoq
--rtorput
--rtut
--rujussuuvoq
--s
--sa
--saa
--saapput
--saaq
--saat
--sap
--sapput
--saq
--sarpoq
--sarput
--sat
--sen
--sh
--si
--sia
--sii
--sikkut
--simavoq
--siminik
--sineq
--sinermi
--sinnaavoq
--sip
--sis
--sisoq
--sisut
--sit
--sk
--soq
--soqarpoq
--sorneq
--ssaa
--ssaaq
--ssaat
--ssai
--ssaq
--ssat
--ssoq
--ssuit
--st
--suaq
--suaqarpoq
--suineq
--suit
--sup
--sussat
--sut
--sutit
--suutit
--suuvoq
--t
--ta
--taa
--taaq
--taasui
--taavoq
--tai
--talerput
--talu
--taqarpoq
--tarfik
--tarpoq
--tarput
--tartoq
--tat
--te
--th
--ti
--tigut
--tik
--tip
--tit
--toq
--ttaaq
--ttaq
--ttoq
--ttumik
--tulli
--tullu
--tumi
--tungaani
--tunik
--tup
--tut
--u
--ua
--uaa
--uaq
--uarpoq
--ui
--ujussua
--uk
--ulersimavoq
--ulliup
--um
--umi
--uni
--unniit
--unnit
--up
--upput
--ur
--urt
--us
--usoq
--usortaani
--usumi
--usut
--ut
--utaa
--utai
--utaq
--utit
--uunniit
--uupput
--uusut
--uut
--uuvoq
--uvoq
--vaa
--vaat
--ve
--viup
--voq
--w
--x
--y
--yg
--yng
