!
"
#
##0
##1
##10
##11
##12
##13
##14
##15
##16
##17
##18
##19
##2
##20
##21
##22
##23
##24
##25
##26
##27
##28
##29
##3
##30
##31
##32
##33
##34
##35
##36
##37
##38
##39
##4
##40
##41
##42
##43
##44
##45
##46
##47
##48
##49
##5
##50
##51
##52
##53
##54
##55
##56
##57
##58
##59
##6
##60
##61
##62
##63
##64
##65
##66
##67
##68
##69
##7
##70
##71
##72
##73
##74
##75
##76
##77
##78
##79
##8
##80
##81
##82
##83
##84
##85
##86
##87
##88
##89
##9
##90
##91
##92
##93
##94
##95
##96
##97
##98
##99
$
%
&
'
(
)
*
+
,
-
.
/
0
00
000
0000
0003
001
002
003
004
005
008
01
010
011
012
014
016
0195504526
02
026
03
030
031
033
04
048
05
051
056
06
061
062
068
07
073
077
08
084
088
09
096
097
098
0995
1
10
100
1000
101
1014
1018
102
1021
1025
103
1030
1037
104
1046
105
106
107
1071
108
1085
109
1091
1093
11
110
1100
110016
111
112
113
114
115
1152
116
1162
117
118
1185
119
12
120
1200
12000
1204
121
122
1227
123
124
125
126
1261
127
1276
128
129
1291
13
130
1300
131
132
133
1337
134
135
1355
136
1368
137
138
1383
139
1390
14
140
1400
141
1418
142
143
1431
144
145
1451
1452
1453
1458
146
1468
147
1471
1475
148
1480
1483
1489
149
1491
1492
1493
149333
1493330752
1499
15
150
1500
1501
1502
1503
1504
1505
1506
1507
1508
1509
151
1510
1511
1512
1513
1514
1515
1516
1517
1518
1519
152
1520
1521
1524
1525
1528
1529
153
154
1541
1542
1543
1546
1547
1549
155
1550
1556
156
1564
1565
1566
1569
157
1575
1577
158
1580
1588
159
1594
1599
16
160
1600
1603
1605
1606
161
1610
1616
162
1627
1628
163
1630
1632
1634
1635
1637
1638
164
1640
1641
1643
1644
1645
1648
165
1654
1655
1656
1658
166
1660
1669
167
168
1685
169
1694
17
170
1700
1703
1704
171
1712
172
1727
173
1732
1736
1739
174
1740
1743
1746
1749
175
1750
1756
1759
176
1760
1763
1768
1769
177
1770
1771
1772
1773
1774
1775
1776
1778
1779
178
1780
1781
1783
1787
1788
1789
179
1790
1791
1792
1793
1795
1797
1799
18
180
1800
1801
1802
1803
1804
1805
1806
1807
1808
1809
181
1810
1811
1812
1813
1814
1815
1816
1817
1818
1819
182
1820
1821
1822
1823
1824
1825
1826
1827
1828
1829
183
1830
1831
1832
1833
1834
1835
1836
1837
1838
1839
184
1840
1841
1842
1843
1844
1845
1846
1847
1848
1849
185
1850
1851
1852
1853
1854
1855
1856
1857
1858
1859
186
1860
1861
1862
1863
1864
1865
1866
1867
1868
1869
187
1870
1871
1872
1873
1874
1875
1876
1877
1878
1879
188
1880
1881
1882
1883
1884
1885
1886
1887
1888
1889
189
1890
1891
1892
1893
1894
1895
1896
1897
1898
1899
19
190
1900
1901
1902
1903
1904
1905
1906
1907
1908
1909
191
1910
1911
1912
1913
1914
1915
1916
1917
1918
1919
192
1920
1921
1922
1923
1924
1925
1926
1927
1928
1929
193
1930
1931
1932
1933
1934
1935
1936
1937
1938
1939
194
1940
1941
1942
1943
1944
1945
1946
1947
1948
1949
195
1950
1951
1952
1953
1954
1955
19550
1956
1957
1958
1959
196
1960
1961
1962
1963
1964
1965
1966
1967
1968
1969
197
1970
1971
1972
1973
1974
1975
1976
1977
1978
1979
198
1980
1981
1982
1983
1984
1985
1986
1987
1988
1989
199
1990
1991
1992
1993
1994
1995
1996
1997
1998
1999
2
20
200
2000
2001
2002
2003
2004
2005
2006
2007
2008
2009
201
2010
2011
2012
2013
2014
2015
2016
2017
2018
2019
202
2020
2021
2022
2029
203
2030
204
2040
205
206
207
208
209
21
210
2100
211
212
213
214
215
216
217
218
219
22
220
221
222
223
224
225
226
227
228
229
23
230
231
232
233
234
235
236
237
238
239
24
240
241
242
243
244
245
246
247
248
249
25
250
2500
251
252
253
254
255
2556
256
257
258
259
26
260
261
262
263
264
265
266
267
268
269
27
270
271
272
273
274
275
276
277
278
279
28
280
2800
281
282
283
284
285
286
287
288
289
29
290
291
292
293
294
295
296
297
298
299
3
30
300
3000
301
302
303
304
305
306
307
308
309
31
310
311
312
313
314
315
316
317
318
319
32
320
321
322
323
324
325
326
327
328
329
33
330
331
332
333
3333
334
335
336
337
338
339
34
340
341
342
343
344
345
346
347
348
349
35
350
351
352
353
354
355
356
357
358
359
36
360
361
362
363
364
365
366
37
370
371
373
375
379
38
380
381
382
384
385
386
388
389
39
391
392
393
395
397
399
4
40
400
4000
403
405
409
41
411
414
415
418
42
420
421
423
424
425
426
43
430
436
438
439
44
441
442
443
445
447
448
45
450
45021
452
453
457
458
46
461
462
463
464
467
468
47
470
473
475
476
477
479
48
480
483
486
487
49
490
491
493
494
495
496
497
498
5
50
500
5000
501
503
506
507
508
509
51
510
511
52
520
523
525
527
53
537
539
54
540
541
544
547
549
55
550
550452
553
554
557
56
567
568
57
570
572
573
574
575
577
578
58
580
585
588
589
59
590
591
595
598
6
60
600
604
61
615
618
62
620
625
627
628
63
632
634
636
639
64
640
642
65
650
651
653
66
666
667
67
670
674
677
679
68
680
686
69
692
693
697
7
70
700
702
703
704
7081
71
711
712
717
72
721
727
73
730
735
737
74
740
743
745
747
75
750
752
753
755
759
76
762
763
77
770
773
774
7748
775
776
777
778
78
786
79
790
791
798
799
8
80
800
801
802
804
809
81
810
814
816
818
82
8248
825
826
827
829
83
834
837
84
840
843
8431
843302
844
846
848
85
850
854
86
860
863
865
8682
87
873
878
879
88
881
885
887
889
89
890
891
892
896
897
9
90
900
904
905
905617
909
909524394
91
913
917
918
92
923
925
926
93
930
933
94
95
950
956
96
960
965
968
97
971
972
973
977
978
98
984
988
989
99
998
999
:
;
<
=
>
?
@
\
^
_
`
a
aa
aaaaiaaj
aabaadee
aabadi
aabhaas
aachaary
aadar
aadat
aadesh
aadha
aadhaar
aadhaarit
aadhar
aadhe
aadhi
aadhikaarik
aadhunik
aadhyaatmik
aadi
aadim
aadinaath
aadivaasee
aadivaasiyon
aadmi
aadu
aae
aaee
aaeemopholojee
aaeen
aaeepeeseesee
aag
aagaman
aagamana
aage
aagi
aago
aagrah
aahvaan
aai
aailaindar
aailainds
aain
aais
aaj
aaja
aajakal
aajeevan
aaji
aajkal
aakaar
aakalan
aakarshan
aakarshit
aakhir
aakhirakaar
aakhri
aakraman
aal
aala
aalochana
aalochanaatmak
aam
aamantrit
aamataur
aamdani
aamir
aan
aanand
aandolan
aandolanon
aandre
aane
aankhen
aankhi
aankrra
aant
aantarik
aao
aap
aapada
aapake
aapakee
aapako
aapan
aaparaadhik
aapas
aapn
aapoorti
aapul
aar
aarakshit
aarambh
aaranbh
aardrabhoomi
aare
aark
aarmastraang
aaron
aarop
aaropon
aart
aarthik
aarts
aary
aas
aasapaas
aasheervaad
aashram
aasmaan
aastreliyaee
aata
aatankavaad
aatankavaadee
aate
aath
aati
aatm
aatmaa
aaur
aautareech
aavaaj
aavaas
aavaaseey
aavaaz
aavashyakata
aavedan
aawe
aay
aaya
aayaralaind
aayarish
aayars
aaye
aayog
aayojak
aayojan
aayojit
aayu
aayukt
ab
aba
abaadi
ababa
abandon
abandoned
abat
abba
abbas
abbey
abbott
abc
abd
abduction
abdul
abdullah
abe
abel
aberdeen
abhay
abhee
abhi
abhijan
abhijn
abhinay
abhineta
abhinetree
abhinetri
abhishek
abhivyakti
abhiyaan
abhiyaanon
abhiyantriki
abhya
abhyaas
abi
abida
abinesh
abkhaz
abkhazia
able
abode
abolition
aboriginal
abortion
about
above
abraham
abrahami
abrams
abreu
abroad
abroginal
abs
absence
absolutely
abstract
abu
abuja
ac
academic
academy
acapulco
acaulis
accent
accents
accepted
access
accessed
acchi
accident
accidental
accommodations
accompaniment
according
accoude
account
accounting
accounts
accra
accuse
accused
ace
aceh
acha
achaanak
acharya
achcha
achchaa
achchha
achchhaa
achchhai
achchhee
achchhi
ache
acheevament
achham
achieve
achievement
achievements
acid
acids
acquired
acre
acres
acrobate
acropolis
across
act
acting
actinide
actinium
actinoids
action
actions
active
activist
activists
activities
activity
actor
actress
actually
acuna
ad
ada
adaalat
adam
adami
adams
adamson
adan
adana
adapt
adb
addams
adde
added
addiction
addis
addition
address
adds
adelaide
adelbert
aden
adha
adhaatu
adharit
adheen
adhi
adhik
adhika
adhikaansh
adhikaar
adhikaaree
adhikaariyon
adhikaaron
adhikar
adhikarik
adhikatama
adhikatar
adhiniyam
adhisochit
adhivakta
adhunik
adhyaapan
adhyaay
adhyaksh
adhyakshata
adhyayan
adi
adiga
adjacent
adler
admi
admii
administration
administrative
administrator
admiral
admission
ado
adolescents
adolf
adopt
adopted
adoration
adrenal
adrian
adriatic
adrien
adult
advance
advanced
advances
adventure
adventures
adversities
advertisement
advertisements
advice
adviser
advisor
advisory
adzuba
ae
aegean
aerial
aerodynamic
aeroplane
aesaa
aesi
aewa
aewahoecamqag
aewaxoecauqag
aewb
aewbhoecaeqaw
af
afc
affair
affairs
affect
affected
affiliation
affleck
afflictions
afghan
afghanistan
afr
africa
africake
african
afrikaans
afroz
afshin
after
aftermath
afternoon
afterwards
afu
afzal
ag
again
against
agais
agale
agantuk
agar
agartala
agast
age
aged
agencies
agency
agent
ages
agincourt
agle
agnes
agni
agnieszka
agnihotri
agnimitra
agnostic
ago
agony
agra
agranee
agrasar
agree
agreement
agricultural
agriculture
agua
aguwai
agwai
agyaat
ah
ahaa
ahamad
ahara
ahari
aharo
ahe
ahi
ahin
ahmad
ahmadiyya
ahmed
ahmedabad
ahu
ahukewi
ahukewifwjrhyb
ahukewj
ahukewjbwbw
ahukewjxhv
ahukewjxxdul
ahukewjz
ai
aiatsis
aicte
aid
aida
aidan
aided
aids
aik
ailes
ailis
ailments
aim
aimak
aimee
air
aircraft
aires
airforce
airlines
airplane
airport
airports
airtel
airways
ais
aisa
aisan
aise
aisea
aisee
aisi
aitihaasik
aiyaz
aiz
aj
ajaad
ajaadi
ajaawe
ajamgarh
ajavaad
ajay
ajedrez
ajesh
aji
ajit
ajmer
ak
aka
akaadamee
akaadamik
akaahoshee
akaapulko
akademi
akal
akan
akar
akara
akariva
akarthappa
akash
akbal
akbar
akc
akchhar
akele
akhabaar
akhabaaron
akhchhar
akhil
akhri
akhtar
aki
akira
akkare
akkineni
akongjamba
akra
akram
aksar
akshar
aksharon
akshay
aktas
akti
aktoobar
al
ala
alaava
alaavaa
alabama
aladdin
alag
alaga
alagaav
alak
alam
alan
alaska
alawa
alba
albania
albanian
albatross
albert
alberta
alberto
albrecht
albums
albuquerque
alchemical
alchemist
alcohol
aldrin
aldrine
ale
alee
aleeyeva
alejandro
alekjendar
alekseyeva
alessandro
alex
alexander
alexandra
alexandre
alexandria
alexei
alexis
alfonso
alfred
algebra
alger
algeria
algerian
algiers
alguer
ali
alia
alias
alice
alicia
alick
alien
aliens
alifereti
alighieri
alison
alive
aliya
alkali
alkohal
all
allah
allahabad
allan
allanshaw
allegedly
allegorical
allegory
allen
alleviation
alliance
allied
allies
allison
allow
allowed
alloy
allvar
almost
alofa
alois
alone
along
alonso
alpes
alpha
alphabet
alphabets
alphonse
alphredo
alpina
alpine
alpinum
alps
also
alt
alta
altaic
altar
altarpiece
alte
altered
alternative
although
altitude
alto
altoviti
aluminium
alvin
alwar
always
am
ama
amadeus
amal
amalric
aman
amanda
amani
amar
amaranth
amaravati
amarna
amateur
amatoria
amazing
amazon
ambassador
ambedkar
amber
ambika
amdani
ame
ameer
ameesha
amen
amendment
america
american
americans
americas
amerika
amerikaa
amerikan
amerikee
amerikiyon
amezain
ami
amico
amin
amino
amir
amit
amitabh
amjad
amman
amnesty
amol
among
amonny
amore
amores
amoris
amount
amp
ampurdan
ampurdanese
amr
amrish
amrit
amritsar
amsterdam
amundsen
amy
an
ana
anaaj
anaar
anaemia
anagan
anai
anais
analysis
anand
anany
anaphylaxis
anarchism
anarchist
anarchists
anastasia
anat
anatolia
anatomical
anatomy
anaupachaarik
anay
ancestry
anchal
anchalka
anchalko
anchalon
anche
ancient
and
andaman
andar
andersen
anderson
andersson
andes
andhra
andolan
andorra
andrade
andre
andrea
andreas
andrew
andrews
andrey
androsace
andy
ane
anek
anerood
ang
angatesh
angel
angela
angeles
angelic
angelica
angelina
angels
angelus
angie
anglada
anglican
anglo
angola
angreja
angrejee
angreji
angrejon
angrezi
anguilla
angus
anil
animal
animals
animated
animation
animations
anirudh
anish
aniston
anita
anjana
anjelica
anjuman
ankara
ann
anna
annan
anne
annette
annie
anniversary
anno
announce
announced
announcement
announcer
announces
annt
annual
annunciation
another
ans
ansari
answers
ant
antaarkatik
antahvishay
antalya
antani
antar
antararaashtreey
antarctic
antarctica
antargat
antarim
antarraashtreey
antartica
antatah
anterior
anteriores
anthem
anthology
anthony
anthropomorphic
anti
antibacterial
antibiotic
antibodies
antigua
antihistamine
antilles
antim
antimon
antimony
antino
antioch
antiochusi
anto
anton
antoni
antonia
antoninianus
antonio
antony
antrobus
ants
antwerp
anu
anubandh
anubhav
anubhavee
anubhavon
anudaan
anukool
anumaan
anumati
anup
anupam
anurodh
anusa
anusaar
anusandha
anusandhaan
anusandhan
anusar
anusaran
anuvaad
anuvaadak
anuvaadit
anuyaayiyon
any
anything
anz
anzac
ao
aomic
aor
aortic
ap
apaaja
apaharan
apamaanajanak
apan
apana
apanaa
apane
apanee
apani
aparaadh
aparaadhon
aparajito
apart
apartheid
apartment
apashisht
apaza
apbhans
ape
apeel
apekshaakrt
apendix
aphagaanistaan
aphreeka
aphreekee
aphreekiyon
aphrika
aphrikaa
aphrodisiac
apia
apisai
apisalome
apna
apne
apni
apocalypse
apokpa
apollo
apostolof
apotheosis
appan
apparition
apparitions
appeal
appear
appearance
appearing
appears
appendage
appendicitis
appendix
apple
applicable
application
applied
appoint
appointed
appointment
apprenticeship
approximately
apr
aprail
apravaasee
april
apsara
apsimon
aptar
apu
apur
aq
aqeeq
aquatics
aquila
aquinas
ar
ara
arab
arabi
arabia
arabian
arabic
arabii
arabs
aracataca
arago
aragon
aragonese
aral
aramaic
aranya
arap
araria
aravind
arazi
arber
arbii
arc
arceus
arch
archana
archangel
archbishop
archibald
archie
archipelago
architect
architects
architectural
architecture
archive
archives
arctic
arda
ardhasainik
are
area
areas
arena
arest
aretha
argenteus
argentina
argentine
argentino
argentum
argon
argus
ari
arias
ariel
aristotle
arithmetic
arizona
arjenteena
arjit
arjun
arjuna
ark
arkansas
arki
arlequin
armchair
armed
armenia
armenian
armeniyaee
arms
armstrong
army
arnaut
arnett
arno
arnold
arora
around
arp
arquette
arrest
arrested
arrival
arrows
ars
arsen
arsenal
arsenic
art
arterton
arth
artha
arthaat
arthachaild
arthashaastr
arthashaastree
arthavyavastha
arthsaastr
arthur
article
articleid
articles
artificial
artist
artistic
artists
arts
artu
artwork
arun
aruna
arunachal
arvid
arvind
arvindra
arwal
arya
aryan
as
asa
asaamaany
asaani
asaeli
asal
asam
asamaanata
asantusht
asantushton
asar
ascension
asean
asha
ashaaninka
ashani
ashe
ashgabat
ashish
ashley
ashneel
ashok
ashoka
ashram
ashton
ashtray
asia
asian
asish
ask
asked
asli
aslii
asliyat
asmara
asokan
asp
aspataal
aspataalon
aspatal
aspects
aspx
aspxhttps
asrani
assam
assamese
assembly
assimakopoulos
assis
assise
assistance
assistant
assisted
associate
associated
associates
association
associations
assumed
assumption
astana
astatine
asters
asthaayee
astin
astitv
astley
astrolabe
astronaut
astronomer
astronomy
asunasiyan
asuncio
asveekaar
aswan
asylum
at
ata
atacama
atal
atalaanta
atatu
atena
ath
athaarah
atheism
athens
athlete
athletes
athletics
ati
atikraman
atingkok
atirikt
atithi
atkinson
atlanta
atlantic
atlas
atm
atma
atmospheric
atoll
atom
atomic
atomica
atoms
atornee
attack
attacking
attacks
attar
attempted
attend
attendance
attended
attica
attorney
attractions
attrice
atyaachaar
atyadhik
atyadhika
atyant
au
auckland
aud
audio
audrey
auf
aug
august
auguste
augustine
augustus
aujaar
aull
aupachaarik
aupaniveshik
aur
aura
aurangabad
aurat
auratein
auraten
auraton
aurobindo
aurora
aurr
aus
ausata
austin
austral
australasia
australia
australian
australians
australis
austria
austrian
austro
austronesian
aut
autar
author
authority
authors
autiko
auto
autobiography
automatic
automobile
autonomous
autoportrait
autumn
aux
ava
avaard
avaards
avadhi
avagya
avaidh
available
avalanche
avar
avaruddh
avasar
avasaron
avashesh
avasthaa
avasthit
avataar
avatar
avec
average
avery
aveugle
avhikrit
aviation
avicenna
avicii
avignon
avila
avinesh
avinyo
aviv
avon
avtar
avus
awa
awaaj
awaaz
awadhi
awaj
awakening
awami
award
awarded
awards
awat
away
awe
axel
axelrod
aya
ayala
ayangba
ayangpa
aye
ayesha
ayman
ayo
ayodhya
ayrshire
ayub
ayuntamiento
ayyıldız
az
azad
azadi
azam
azerbaijan
azerbaijani
azharuddin
aziz
azmat
azmi
azriel
aztec
aztecs
azzudin
b
ba
baaaamaaj
baad
baadal
baadh
baadha
baahar
baajaar
baaki
baal
baalamuth
baaltazar
baan
baandh
baandhon
baanglaadesh
baap
baaphta
baar
baarabor
baarah
baaravik
baardasle
baare
baaro
baarr
baarsle
baask
baat
baata
baate
baatis
baavajood
baayolojee
baba
babbar
babi
babla
babu
baby
babylon
bacchanale
bach
bacha
bachaa
bachaane
bachaav
bachae
bachapan
bacharach
bachawa
bachcha
bachchan
bachche
bachchee
bachchon
bache
bachelor
bachelors
bachpan
back
backdrop
background
bacon
bacteria
bacterium
bactrian
bad
bada
badaavee
badal
badala
badalaav
badalane
badale
badalte
bade
badee
badh
badha
badhaana
badhaane
badhaava
badhaee
badhane
badhe
badhee
badhshah
badi
badiya
badla
badlao
badlapur
badle
badminton
badri
badrinath
badshah
bael
baez
bafelo
baffin
bafta
bag
bagaavutadeenova
bagal
bageshwar
bagh
bagha
baghdad
baghoi
baghua
bagmati
bagula
baha
bahaai
bahaane
bahaar
bahaari
bahadur
bahamas
bahan
bahanon
bahar
bahari
bahas
bahasa
bahe
bahini
bahira
bahis
bahishkaar
bahit
bahrain
baht
bahu
bahumat
bahumati
bahut
bahuta
bai
baibal
baig
baigani
baigneuse
baij
baik
baikal
bailey
bain
baind
baindalar
baineemaaraama
bainimarama
baink
baiptee
baire
bairenkos
bairistar
bairiyos
bais
bait
baith
baithais
baithak
baithawa
baithe
bajaar
bajaay
bajae
bajawa
bajawat
baje
bajhang
bajpai
bajpan
bajura
bak
baker
bakhurst
baki
bakrri
baku
bal
bala
balaatkaar
balae
balance
balasingham
balata
balavu
balawa
balbuk
baldini
bale
baleloa
bali
balia
balinese
balkan
balki
ball
ballantyne
balle
ballerina
ballet
ballon
baloch
balochi
balochistan
balon
baltasar
balti
baltic
baltimore
baltistan
balwant
bam
bamako
bambar
bambara
bamber
ban
bana
banaa
banaae
banaana
banaane
banaavali
banaawa
banaawat
banaaya
banae
banaee
banai
banain
banais
banana
bananas
banane
banaras
banate
banava
banawa
banawat
banaya
banaye
banayi
band
banda
bandar
bandaranaike
banded
banderas
bandhan
bandler
bandook
banduuk
bane
banee
baneen
banerjee
bang
bangaal
bangaalee
bangalore
bangkok
bangla
bangladesh
bangladeshi
bangui
bani
banin
banis
banjul
bank
bankat
banking
banknotes
banks
banne
banner
bansuri
banting
bantu
banu
banwa
banyard
bappa
baprince
baptie
baptise
baptised
baptist
baptiste
bar
bara
baraa
baraabar
baraabri
baraamad
barabar
barack
barah
barahmasia
barak
barbaad
barbados
barbara
barbeau
barbour
barbra
barbuda
barcelona
barcelone
bardi
bardot
bare
bared
barents
barf
barhae
barhawa
bari
bariarpur
barish
barium
bark
barker
barkett
barma
barmingham
barn
barnes
baro
baroda
baron
baroque
barque
barr
barra
barraa
barracks
barrage
barrancos
barre
barrha
barrhaa
barrhae
barrhais
barrhawa
barrhe
barri
barrier
barrios
barrister
barrraa
barrse
barry
barsaat
barse
barsih
bart
barth
barton
baruch
baruchel
baruj
barwick
bas
basa
basaa
basae
basane
basawaiya
basdeo
basdiha
base
baseball
based
bashar
basho
basic
basil
basilica
basin
basis
basket
basketball
bass
bassett
basshunter
basti
bastille
bastiyon
basu
bat
bata
bataala
bataaya
batae
batain
batais
batak
bataralee
batawa
batawat
batawe
bataya
bate
bateman
bates
bath
bather
bathers
bathing
bathurst
batidegei
batiki
batina
batinikama
batman
bator
batore
batsman
batsmen
battan
battery
batting
battle
bau
bauddhik
bauer
baulevu
bavadra
bawaal
bawajuut
bawal
bay
baya
bayaan
bayani
bayard
bayefsky
baysal
baysalhttps
bayyati
bazar
bazil
bb
bbad
bbat
bbc
bc
bce
bdi
be
beach
beachcomber
beaches
bead
beadle
bean
beans
bear
bears
beast
beat
beatles
beats
beatty
beau
beaufort
beautiful
beauty
beauvoir
bec
became
because
bech
becha
bechat
beche
becker
becklin
become
becomes
becoming
bed
bedi
bedside
bee
beebeesee
beech
beee
beef
beeings
beejing
beemaaree
beeman
been
beer
bees
beethoven
beeyar
before
beg
begam
began
begawan
begaye
begg
beghar
begin
beginning
beginnings
begins
begum
behari
behatar
behaviour
behind
behring
beijing
being
beings
beirut
bej
beja
bel
bela
belarus
belarusfilm
belarusian
belfast
belgian
belgica
belgium
belgrade
belief
beliefs
beliyar
belize
bell
bella
belle
bellear
bello
bellocchio
belo
belong
belongs
below
belushi
bemaar
bemaari
bemana
bemari
ben
benacerraf
benaminio
beneath
benedict
benedicta
benet
bengal
bengali
benghalensis
bengt
beni
benin
benito
benjaamin
benjamin
bennett
benson
bentale
bentley
benvenuto
beqa
ber
berar
berber
berenice
berg
bergman
bergstro
beri
bering
berkman
berlin
berlioz
bermuda
bern
bernard
bernardo
bernardt
berners
bernhardt
bernini
berry
bert
berta
beryllium
bes
besal
besharam
bessie
best
bet
beta
bete
betee
beth
betiyaan
betiyon
bette
better
betting
betty
between
beubeu
beverly
beyas
beyond
bf
bg
bh
bha
bhaag
bhaagane
bhaage
bhaageedaaree
bhaai
bhaajapa
bhaal
bhaap
bhaar
bhaarat
bhaarateey
bhaarateeyon
bhaaratiy
bhaaree
bhaari
bhaasha
bhaashaa
bhaashaaon
bhaashaen
bhaashan
bhaashaon
bhaashee
bhadakaane
bhadrapur
bhae
bhaee
bhaen
bhaes
bhaeya
bhaeyya
bhag
bhaga
bhagal
bhagalpur
bhagat
bhagavaan
bhagavad
bhagavadgita
bhagirathi
bhagwaan
bhagwan
bhagwandas
bhai
bhain
bhaini
bhais
bhaiya
bhaiyon
bhakt
bhakta
bhaktapur
bhaktas
bhakti
bhakton
bhaluwari
bhamji
bhan
bhandaar
bhandari
bhang
bhar
bharaa
bharana
bharat
bharata
bharath
bharatiya
bharatiye
bhare
bhari
bharosa
bharrat
bhartee
bharti
bhartiy
bhartiya
bhas
bhasa
bhasan
bhasha
bhatia
bhatnagar
bhatt
bhaugolik
bhaus
bhautik
bhavan
bhavishy
bhawan
bhawani
bhayi
bhed
bhedabhaav
bhee
bheetar
bhej
bheja
bhejane
bhejat
bheje
bhejis
bhenta
bheri
bherraa
bhi
bhian
bhias
bhima
bhindi
bhinna
bhitar
bhittar
bho
bhoj
bhojan
bhojpur
bhojpuri
bhookamp
bhookh
bhookhi
bhoomi
bhoomika
bhopaal
bhopal
bhosle
bhrashtaachaar
bhu
bhubaneswar
bhugataan
bhumi
bhurkunda
bhushan
bhutan
bhutani
bhutia
bhutto
bi
bia
bibhajan
bibhajit
bibi
bible
bibliography
biblioteca
bich
bichar
bichawa
bichhae
bichhawa
bichir
bicknell
bid
biden
bidesi
bidhya
bidsar
bieber
biehn
biel
bif
big
bigaha
bigger
biggest
bigha
bight
bigkay
bihar
bihari
biich
biis
bijalee
bijanes
bijli
bijnor
bika
bikanel
bikini
bil
bilaspur
bilee
biletzki
bilingual
bilious
biliyan
bill
billie
billion
billy
bimaari
bimal
biman
bimari
bin
bina
binaa
bindee
bindi
bindo
bindu
binesh
bing
binh
bio
biographical
biographies
biography
biogs
biological
biologist
biologists
biology
bipasha
bir
bird
birds
birmingham
birth
birthday
births
bisaria
bishkek
bishop
bishunpur
bismarck
bismut
bismuth
bismutity
bissau
bistar
bistrot
biswa
biswas
bitaaya
bitae
bitaeen
bitais
bitar
bitiyeva
bitter
bjo
black
blacks
blacksmith
blackstock
blade
blaik
blaikastok
blair
blake
blanc
blanchett
bled
bleeding
bless
blessed
blessing
bleu
blica
bligh
blind
blindness
bliss
blitz
blobel
bloch
block
blocking
blog
blogar
blogging
bloging
blogs
blogspot
blok
blood
blooded
bloody
bloom
blooz
blue
blues
blumberg
blunt
bna
bnae
bo
boa
board
boarding
boat
boats
bob
bobby
bobo
boccoli
bochk
bock
bodies
body
boe
boer
bog
bogart
bogota
bohat
bohol
boiled
boishakh
bok
bokini
bol
bola
bolaa
bolaitoga
bolane
bolat
bolate
bolatee
bold
bole
boleeviya
boletawa
boli
bolin
bolis
bolivia
bolivian
boll
bollywood
bolne
bolshevik
bolsheviks
bolt
bolu
bolywood
bom
bomb
bombay
bon
bonaparte
bonaplata
bonar
bond
bondita
bone
bones
bong
bonham
boniadi
boniyaadee
bonn
bonner
bonnie
book
booker
books
boone
boorganna
boot
booth
bora
bord
borde
bordeaux
border
borders
bordet
borges
borghese
borgo
boris
borja
born
boron
bos
bosamain
bose
boseilala
bosna
bosnia
bosnian
bosniya
boss
bossman
bostick
boston
botanical
botanist
botany
both
botswana
bottle
bottom
boubale
bouffon
bougainvillea
bougainvilleas
boulevard
bound
boundary
bounty
bouquet
bourne
bournemouth
boutros
bovet
bow
bowa
bowers
bowl
bowler
bowling
box
boxer
boxing
boy
boya
boycott
boyer
boyle
boyne
boys
bozok
br
bra
braajeel
braand
braayant
brachylophus
bracket
brad
bradley
brady
brahaspati
brahm
brahma
brahman
brahmanandam
brahmaputra
brahmin
brahui
braidee
brain
braj
branch
branches
brand
brando
brandon
bras
braschi
brasi
brasil
brass
bratislava
braun
braunau
brave
brazil
brazilian
brazzaville
breach
bread
break
breakdown
breaking
breaks
breathing
bred
brenan
brenda
brendan
brennan
brenner
brent
brenton
brescia
breton
brett
brewer
brian
brick
brickman
bridge
bridges
bridgetown
brief
brien
briggs
bright
brigitte
brigs
brij
brill
bringing
brisbane
bristal
bristol
brit
britain
britannica
briten
british
britney
brittain
brittany
brny
bro
broadcast
broadcasting
broadway
broderick
brodie
brody
broken
brolin
bromehead
bromine
bromwich
bronze
brooke
brooklyn
brooks
brosnan
brother
brothers
brought
brown
browne
brownell
browska
bru
bruce
bruckner
bruecke
brunei
bruno
brunswick
brush
brussels
bryan
bryant
bryce
bs
bsp
bt
bu
bua
buadromo
bubble
bucaisau
buck
buckhurst
buckley
bud
buda
budaapest
budapest
buddha
buddhi
buddhism
buddhist
budget
budh
budhi
budiardjo
budiyaardo
buenos
buginese
builder
building
buildings
built
bujumbura
bujurg
bujurgon
buk
bukalidi
bukar
buke
buks
buksh
bukuru
bula
bulaaya
bulabula
bulaya
bulb
bulgaria
bulgarian
bulileka
bulivou
bulk
bull
bulldog
bulletin
bullock
bulu
bun
bunaee
bunce
bune
buniyaadee
buon
bura
bure
bureau
bureaucrat
burebasaga
buree
burj
burke
burkina
burma
burmese
burnet
burning
burnley
burns
burnt
burr
burra
burstyn
burt
burton
burundi
bus
bush
business
businessman
businesswoman
bust
buste
but
bute
butler
butterflies
butterfly
button
buy
buzurg
buzz
bw
by
bye
byne
byoonas
byoondiya
byooro
byrne
byron
byzantine
byzantines
byzantium
c
ca
caan
cabaret
cabildo
cabinet
cabot
cadaque
caddy
cadet
cadmium
caesar
caesium
caetano
cafe
cage
cahate
cahill
caillou
cain
caine
cairo
caitlin
cajal
cakau
cakaudrove
cakkar
cakobau
cala
calais
calcium
calculus
calcutta
caldero
cale
caledonia
calendar
calf
calia
calicut
california
caliph
call
called
calligraphy
calling
callixtus
calls
callum
calum
calvin
camacho
cambodge
cambodia
cambridge
came
camel
cameo
camera
cameron
cameroon
camilla
camillo
camp
campaign
campaigner
campbell
campus
can
cana
canada
canadian
canal
canals
canary
canberra
cancelled
cancer
candice
candidate
candidates
candy
cane
cannes
cannibal
cannibalism
cannon
cannot
canova
canteen
canterbury
canton
cantonese
cantonment
cantt
canvas
canyon
cao
cap
cape
capecchi
capillaries
capita
capital
capitalism
capitals
capitol
capped
captain
captivity
capture
car
cara
caracas
caravan
carbohydrates
carbon
carbona
carbonate
carcassonne
card
cardiff
cardinal
cardiovascular
cards
care
career
carell
carew
carey
cargo
cargoe
carib
caribbean
caricom
carl
carleton
carlifornia
carling
carlo
carlos
carlotto
carlson
carlsson
carmel
carmen
carmine
carnation
carnaval
carnegie
carnival
carol
carolina
caroline
carolus
carolyn
carpenter
carrara
carrel
carrey
carrie
carried
carries
carroll
carry
carrying
carson
cart
carter
carthage
cartier
cartoon
cartoons
carving
cary
casa
casagemas
casals
casanova
casas
cascade
casco
case
cases
casey
caspian
cassia
cassidy
cassini
cast
caste
castielli
castiglione
castilian
castillo
castle
castration
castro
cat
catala
catalan
catalogue
catalonia
catalonian
catalytic
catarogo
catastrophe
catastrophic
catch
catching
cate
catedral
categoria
category
caterina
cathedral
catherine
catheterization
catholic
catholics
cattle
caucas
caucasian
caucasus
cause
caused
causes
causing
cava
cavalier
cave
caves
cb
cbc
cbn
cc
cd
ce
cecilia
cede
cedric
ceiba
ceiling
celebes
celebrate
celebrated
celebrating
celebrations
celestial
celestina
celine
cell
cellini
cello
cells
celtic
cem
censor
census
cent
cental
centaurs
center
centerbury
centers
central
centre
cents
centuries
century
ceo
cerda
cerebral
ceremonies
ceremony
ceres
cerium
cerro
certain
certificate
cervantes
cervical
cesium
cession
ceuta
ceyhan
ceylon
cf
cfa
cfm
cfp
cgi
ch
cha
chaacha
chaad
chaadiyan
chaahane
chaahat
chaahata
chaahate
chaahatee
chaahe
chaahi
chaahie
chaahiye
chaakon
chaal
chaalis
chaand
chaapa
chaape
chaapis
chaar
chaarls
chaaro
chaaron
chaaronasiree
chaavez
chabutare
chachere
chaco
chad
chaddha
chadha
chae
chaen
chaerman
chahe
chai
chaild
chaimbar
chaimpiyan
chaimpiyanaship
chaina
chainal
chair
chairitee
chairman
chaitanya
chak
chakla
chakrabarti
chakraborty
chakravartee
chal
chala
chalaa
chalaane
chalaata
chalaatee
chalaaya
chalae
chalais
chalakar
chalane
chalat
chalata
chalate
chalatee
chalawa
chalawat
chalawe
chale
chalee
chalice
chalisa
challenge
chalmers
chalo
chalta
chamber
chambre
chaminda
chamke
chamorchis
champadan
champion
champions
championship
championships
champs
chamrraa
chan
chanakya
chance
chancellor
chand
chandan
chandar
chandarma
chandigarh
chandler
chandra
chandragupta
chandrasenan
chandrayaan
chang
change
changed
changes
changing
channa
channel
channels
channing
chantilly
chants
chapa
chapeau
chapel
chapis
chaplin
chapman
chapter
chapters
char
character
characteristics
characters
charan
charantia
charavaahe
charch
charcha
charge
charitr
charitra
charity
charlemagne
charles
charleston
charlie
charlize
charlotte
charo
charr
charrhae
charrhawa
charter
charulata
chase
chateau
chatham
chatian
chattan
chatterjee
chattopadhyay
chatttur
chattur
chatu
chau
chauaa
chaucer
chaudah
chaudhry
chauhan
chauraa
chaurra
chaurraa
chaurrai
chautha
chauthe
chaux
chavez
chawla
che
cheadle
chechan
chechanya
chechnya
check
cheddi
cheen
cheenee
cheerful
cheez
chef
chehra
chein
chekhov
chekoslavakia
chela
chelsea
cheltanahaim
chemical
chemise
chemist
chemistry
chemists
chen
chenab
chenai
cheng
chenj
chennai
cherevatenko
cherry
chess
chestnut
chetaavanee
chetauni
chetelain
chetty
cheung
cheval
cheveux
cheyaraparsan
chfch
chha
chhaapa
chhaape
chhaatr
chhaatra
chhaatravrtti
chhaatron
chhah
chhapa
chhapaak
chhapas
chhattisgarh
chhe
chhetri
chhhota
chhin
chhod
chhodakar
chhodane
chhor
chhoraa
chhorr
chhorra
chhorraa
chhorre
chhorris
chhorrr
chhota
chhotaa
chhote
chhotee
chhoti
chhurri
chhuttee
chhutti
chi
chiang
chiara
chib
chicago
chicaje
chief
chiefly
chiefs
chien
chigi
chihn
chiij
chiit
chij
chikitsa
chikitsak
child
childhood
childran
children
chile
chilee
chili
chilia
chillia
chin
china
chinatown
chinese
ching
chinh
chini
chinitas
chinta
chintit
chipako
chipko
chipmunks
chippenham
chirag
chirriya
chirrya
chis
chit
chithi
chitr
chitra
chitral
chitrali
chitrapat
chitrit
chitrkaar
chitrkar
chitthi
chitwan
chloride
chlorine
cho
chocolate
chocu
chocue
choi
choice
cholera
cholesterol
chomsky
choonki
choose
chop
chopra
chor
choris
chorr
chorraa
chorris
chorus
chosen
chot
chota
chotaa
chote
choti
choudhary
chow
chowdhury
chris
christ
christensen
christiaan
christian
christiane
christianity
christians
christina
christmas
christoph
christopher
chrom
chromista
chromity
chromium
chromosomes
chronicleofcurrentevents
chronicles
chronology
chsisch
chuadhry
chuck
chuharr
chuka
chukaa
chukchi
chuke
chukee
chuki
chun
chuna
chunaav
chunaavee
chunaavon
chunak
chunautee
chune
chunee
chung
chunis
chunk
chup
chuppe
church
churches
churchill
chutha
chutti
chuuk
ci
cia
ciara
cicia
cigarette
cikobia
cima
cimit
cinca
cincinnati
cindy
cinema
cinq
circassian
circle
circulatory
circus
cis
cistophor
cit
citibank
cities
citizen
citizens
citizenship
citric
citron
citrus
citta
city
ciudad
ciuta
civic
civil
civilian
civilisation
civilization
ck
cl
clague
claim
claims
clair
claire
clan
clare
clarence
clarin
clark
clarke
clash
clashes
class
classes
classic
classical
classification
classified
classroom
claude
claudia
claudio
clause
clay
cle
clear
clearwater
clemens
clements
cleopatra
clerk
cliff
clifford
clifton
climate
climatic
climatological
climatology
clint
clinton
clip
clive
clock
clooney
close
closed
cloth
clothed
clothes
clothing
cloud
clouds
clown
club
clubs
clyde
cm
cnn
co
coach
coaching
coal
coalition
coast
coastal
coastline
coat
cobalt
cobar
cocbaaaamaaj
coccinia
cochlea
coco
cocoa
cocoon
cocos
code
codenamed
codro
cody
coffee
cogeloa
cohen
coin
coincil
coins
cold
cole
coleman
colin
collected
collection
collections
collectivity
collector
college
colleges
collette
collins
colman
colo
cologne
colombia
colombian
colombo
colonel
colonial
colonialism
colonies
colony
color
colorado
colors
colosseum
colossus
colour
coloured
colours
coltrane
columbia
columbus
column
com
coma
combat
combine
combined
come
comedies
comedy
comes
comic
coming
commander
commedia
commentary
comments
commerce
commercial
commission
commissioner
commitment
committee
commodity
commodore
common
commonly
commons
commonwealth
communal
commune
communication
communications
communion
communism
communist
communists
communities
community
comoros
companies
companion
company
comparative
compare
compared
comparison
compass
compete
competition
competitions
compiled
complain
complete
completely
complex
complexion
compnay
component
components
compose
composer
composers
composition
compotier
compound
compounds
comprehensive
compromise
compton
compulsive
computer
computers
con
conakry
conan
concepcio
concept
concerning
concert
concerto
concise
conde
condemn
condition
conditions
condottiere
conduct
conductivity
conductor
confederacy
confederate
confederation
conference
confidence
conflict
conflicts
confucianism
confucius
congo
congress
connected
connecticut
connell
connor
conor
conquer
conqueror
conquest
conrad
consecutive
consent
consequences
conservation
conservative
considered
consisting
consituency
consonant
consortium
constance
constans
constantine
constantinople
constantius
constitency
constiteuncy
constituencies
constituency
constitution
constitutional
construction
consul
consumption
contact
containing
contains
contemplating
contemporary
content
contes
contest
continent
continental
continents
continue
continued
continues
contituencies
contortion
contract
contrast
contreras
contribution
control
controlled
controls
convention
conversion
converted
convict
coogan
cook
cool
coolies
cooling
cooper
coordinated
coordinates
coordinator
cop
copa
copenhagen
copernicus
copper
copra
coprotagonista
coptic
copy
coquitlam
coracias
coral
corbett
corbin
corbusier
corddry
cordoba
core
corey
cori
corina
coriolanus
cork
cormack
corneas
corneille
cornell
corner
coronation
coronel
corporation
corps
corpus
corrado
correa
correctly
correlogram
corridor
corroded
corruption
corsica
corte
cortex
corti
corus
cosio
cosmic
cost
costa
costello
coster
costume
costumes
cote
cottingham
cotton
couche
could
couldn
council
councillor
councillors
count
counter
countess
countries
country
county
coup
couple
coups
courage
courier
cournand
course
courses
court
courtenay
courtney
courts
courtyard
cousin
cove
cover
covered
covers
covid
cow
coward
cox
cr
cra
crab
crackdown
cradle
craftivist
craftsmanship
craig
crayola
crazy
cream
create
created
creates
creation
creative
creatures
credit
creek
creole
crescent
crested
crete
creus
crevel
crew
crick
cricket
cricketer
cricketers
cries
crime
crimes
criminal
crimson
cripps
crisis
cristina
critic
critical
criticism
critics
critique
croatia
croatian
croce
croise
cromwell
crop
cropped
crops
cross
crossing
crown
cruche
crucifixion
cruise
crusade
crusaders
crusades
crusafont
crushed
cruz
cry
crystal
crystalline
crystals
cs
cse
csr
css
ctor
cu
cuaro
cuba
cube
cubic
cubist
cuka
cuki
cultural
culture
cummins
cuna
cunningham
cup
cupids
cups
cure
curie
curitiba
currency
current
currently
curriculum
currie
curtain
curtis
curves
cusack
cusano
cushman
customs
cut
cuthbert
cuvu
cv
cvc
cycle
cycling
cyclone
cyclopedia
cyclops
cylinder
cynthia
cypress
cyprus
cyrillic
cyrus
cz
czech
czechia
d
da
daada
daadee
daag
daagistaan
daak
daakhila
daal
daala
daalenge
daam
daan
daar
daarshanik
daaru
daarvin
daas
daava
daavo
daayar
dabaav
dabal
dabalin
dabao
dabinga
dabura
dacca
dach
dad
dada
daddy
dadra
dae
daemi
dafe
dag
dah
dahej
dai
dailekh
daily
dais
daisy
dakaica
dakar
dakcchin
dakkani
dakonivosa
dakota
daks
dakshin
dakshina
dakshinee
dakshineshvar
daku
dal
dala
dale
dali
dalit
dallas
dalmatian
dalpat
daly
dam
damage
daman
damascus
dame
damian
damon
dampati
dams
damsel
damu
damudamu
dan
dana
danaus
dance
dancers
dancing
dand
danda
dane
danger
dangerous
dangra
daniel
daniela
daniele
daniels
danish
danny
dans
danse
danseuse
dante
danube
daphanaaya
dapharin
daphne
dar
dara
darcy
dare
darha
dari
dario
darj
darja
darjanon
dark
darkness
darmi
daro
darren
darshakon
darshan
darshanashaastr
dartee
darwin
daryl
das
dashak
dashakon
dass
dassak
dastaavejeekaran
dastaavez
data
database
date
dates
dating
datt
dau
daudnagar
daughter
daughters
daunataun
daunisaka
dauniseka
daur
daura
dauraan
dauran
dausset
dav
dava
dave
davendra
david
davies
davis
davison
davota
davuilevu
dawa
dawai
dawat
dawn
dawson
day
daya
dayaanand
dayal
dayanand
dayananda
days
db
dbaq
dc
dd
ddc
ddewa
ddt
de
dea
deacon
dead
deaf
dean
dear
death
deaths
debate
debbie
debee
deborah
debout
debra
debris
debut
dec
decade
decades
decay
december
decide
decided
decision
decker
declaration
declare
declared
declares
declension
decline
decoration
decree
dedicated
dee
deen
deep
deepak
deepika
deer
deerghakaalik
deesee
default
defeated
defence
defend
defender
defenders
defending
defense
define
defined
definition
defunct
deg
degli
degree
degrees
dehin
dehradun
dehri
dei
deities
deity
dekh
dekha
dekhaa
dekhabhaal
dekhae
dekhaes
dekhai
dekhais
dekhakar
dekhane
dekharekh
dekhat
dekhate
dekhawa
dekhawe
dekhe
dekhen
dekhin
dekhis
dekhiye
dekhne
dekho
dekker
del
delaimatuku
delaware
delbru
delegate
delft
delgado
delhi
delicious
deliver
deliverance
dell
della
delle
delphine
delta
deluise
demand
demanded
dematerialization
demee
demerara
demi
demia
democracy
democratic
demographics
demoiselles
demokretik
demons
den
dena
denarius
denavar
dench
dene
denis
denmark
denning
dennis
denny
density
dentistry
denver
denverpost
denzel
denzongpa
deo
deoki
deol
deoxyribonucleic
department
departments
departures
dependency
deport
deposed
deposit
deposition
depot
depp
depressed
depression
depth
deputies
deputy
der
dera
derawar
derby
derek
dergisi
deri
derian
deriyan
dermot
dern
derrick
des
desai
descartes
descendants
descendent
descendents
descent
deschanel
describe
described
describes
description
desert
desh
deshe
deshee
desho
deshon
design
designed
designs
desire
desires
despite
destination
destinations
destino
destiny
destroy
destroyed
destroyer
deta
detaabes
detail
detailed
details
dete
detective
detee
determination
determine
determined
deth
deti
detroit
deuba
deutsche
deutschland
deux
dev
deva
devalapament
devana
devanaagari
devanagari
devanagri
devanesh
devant
devata
devataaon
devatas
devee
develop
developed
development
devendra
devgan
devi
devid
devil
devin
devis
devon
devotee
devotion
devrimol
dewa
dewais
dewan
dewata
dewatawong
dewe
dewey
dewi
dewitt
dey
deyama
deyaree
dha
dhaan
dhaaraapravaah
dhaaran
dhaarmik
dhaatu
dhabi
dhaka
dhakka
dhallywood
dham
dhamakee
dhamakiyon
dhan
dhana
dhanawan
dhang
dhani
dhankuta
dhanyavaad
dharam
dharatee
dharati
dharm
dharma
dharmagranth
dharmendra
dharmic
dharmik
dharti
dhaualagiri
dhaulagiri
dheere
dher
dhere
dhi
dhika
dhillon
dhire
dhiren
dhivehi
dhoe
dhoj
dholak
dhone
dhritarashtra
dhruveey
dhvani
dhyaan
dhyam
dhyamik
dhyan
di
dia
diacritics
diagram
dialect
dialects
diameter
diamond
diamonds
diana
diane
dianne
diary
diaspora
diaz
dick
dickens
dickinson
dickson
dictator
dictatorship
dictionaries
dictionary
did
die
died
diego
diemen
dies
diesel
dietrich
difference
differences
different
differently
digestion
diggs
digital
digitised
digree
dihra
diin
diis
dijain
dijendra
dijital
dikha
dikhaai
dikhaane
dikhaave
dikhaaya
dikhaee
dikshit
dil
dildar
dileep
dileqa
dili
dilip
dilithium
dilkusha
dillee
dilli
dillon
dimaag
dimag
dimensions
dimple
din
dina
dinar
dinesh
dinger
dinner
dinon
dinosaur
dinosaurs
dion
dioxide
dipaartament
diphendars
diphens
diphtheria
diploma
diplomacy
diplomat
diplomatic
diptee
dir
dire
direct
directed
directing
direction
director
directors
directory
dirty
dis
disambar
disambiguation
disanbara
disappearing
disappears
disaster
discharge
disciples
disciplinary
disciplines
discography
discover
discoveries
discovery
discrimination
discuss
discussed
disease
diseases
disepshan
dish
disha
dishaa
disintegration
dismiss
disney
dispenser
displaced
display
dispur
dispute
disputed
dissolve
distance
distant
distinguished
district
districts
disturbing
ditya
diu
diurnal
diva
divan
divas
diveejan
divide
divided
divine
division
divisions
divorce
divyam
diwaal
diwali
diwan
dixit
dixton
diya
diyaa
diyaarabakir
diye
dizain
dj
djamena
djibouti
djiraibe
dmitriy
dmx
dna
do
doc
dock
docs
doctor
doctors
document
documentary
documents
does
dog
dogabadazee
doggart
dogs
doha
doherty
doi
doidoi
doisy
doka
doktar
doktaret
dokyoomentree
dolan
dolar
doli
dollar
dollars
dom
domagk
domain
dome
domenech
domestic
dominance
dominate
domingo
dominic
dominica
dominican
dominion
dominique
don
dona
donal
donald
donatello
donda
done
dong
donna
donnall
donnelly
donnie
donno
dono
donon
donong
donovan
door
doosara
doosare
doosaree
doosaron
doosra
doosre
dootaavaas
dor
dora
dordenma
doreen
dorff
doria
doris
dormant
dorsami
dortmund
dos
doshee
dost
dosti
doston
dotars
doti
douala
double
doug
douglas
douran
dourif
dove
down
downey
download
downloads
downs
downtown
dowry
doxford
dp
dq
dr
draama
draft
drag
dragon
drain
draiving
drake
draladamu
drama
dramatic
draperie
drapery
drasa
draselny
drauna
dravuni
draw
drawaqa
drawers
drawing
drawings
draws
dre
dream
dreams
dreketi
dress
dressed
drew
dried
drink
drir
drive
driven
driver
driving
dromaibau
drop
drova
drshti
drshtikon
drudru
drug
drum
drumasi
drummond
drums
dry
ds
dt
du
dual
duane
duavata
duba
dubae
dubai
dube
dubey
dublin
dubliners
dubois
dubuffet
duchy
duck
dudh
dudley
due
duff
dugucagi
duguid
dui
dujardin
duk
dukaan
dukandaar
duke
dukh
dukvet
dulbecco
dulhan
dum
duman
dumas
dumbarton
dunadamu
dunbartonshire
duncan
dundamu
dundee
dunes
dunia
duniya
duniyaa
dunn
dunne
duno
dunoo
dunst
dunya
duomo
dur
dura
durbar
durdasha
durg
durga
durghatana
duri
during
duris
durvyavahaar
dusari
dushman
dushyanta
dusic
dusman
dusra
dusre
dust
dustin
dutch
dutt
dutta
dutton
duty
duub
duuno
duur
duusar
duusra
duusre
duve
duwara
dux
dva
dvaar
dvaara
dvaaraa
dvara
dveep
dveepon
dvi
dvibhaashee
dviteey
dvor
dwa
dwara
dwarf
dwight
dwip
dy
dyer
dying
dylan
dynamic
dynamics
dynasties
dynasty
dyodhee
dysprosium
dz
e
ea
each
eagle
ear
earl
earlier
early
ears
earth
earthquake
easily
east
easter
eastern
eastwood
easy
eating
eb
ebaaaamaaj
eborijinal
eborijins
ebre
ebu
ec
eccles
ece
ech
echaeevee
echo
eco
economic
economics
economictimes
economist
economy
ecstasy
ecuador
ecuadorian
ecumenical
ed
edavaansament
edavaijaree
edavard
edavards
eddie
edelgase
edelman
eden
edgar
edged
edges
ediciones
edificio
ediled
edinabarg
edinburgh
edirne
edison
edit
editar
edith
edition
editions
editor
editorial
edmond
edmund
edo
eds
edu
eduard
eduardo
education
educational
educationist
educator
edule
edwar
edward
edwards
edwin
ee
eedan
eek
eelam
eenayoo
eendhan
eeraan
eeraanee
eesaee
eeseetee
eeshu
eeshvar
eest
eestaden
eetok
eeyar
efate
effect
effects
efforts
eg
egas
egg
eggs
egypt
egyptian
egyptians
ehir
ehrlich
ei
eia
eid
eiffel
eight
eijkman
eilat
ein
einstein
einthoven
eisenberg
either
ej
ejensee
ejensiyon
ek
eka
ekaant
ekajut
ekajutata
ekal
ekamaatr
ekatr
ekatrit
ekdam
ekeekaran
ekeekrt
ekke
ekko
eko
eksachenj
ekshan
ekt
el
ela
elaayans
elamu
elba
elbam
elbe
elction
elder
elders
eleanor
elect
elected
election
elections
elector
electoral
electorate
electorates
electors
electric
electrical
electricity
electrocardiogram
electromagnetic
electron
electronic
electrons
eleksee
element
elements
elena
elephant
elephants
eles
eleta
eleven
elezity
eli
elias
elijaabeth
elik
eliki
elimination
elion
elis
elisabeth
elisabetta
elisha
elisiya
eliza
elizabeth
ella
ellen
ellice
ellie
ellington
elliott
ellis
elman
elo
elpais
elphik
eluard
elvis
em
emabeeee
emanestee
embassies
embassy
emblem
embraced
embracing
embryonic
eme
emen
emergency
emesasee
emi
emic
emigration
emil
emile
emilio
emily
emirate
emirates
emma
emmanuel
emmanuelle
emmerich
emoinu
emori
emotion
emperor
emperors
empire
empires
employee
employees
employment
emporer
emporis
empress
emraan
ems
emuseum
en
ena
enajeeo
enavaayaranament
encarta
enchanted
encounter
encourage
encrier
encyc
encyclopaedia
encyclopedia
encyclopædia
end
endarasan
ended
enders
ending
endless
endorse
endowed
endrayooj
endred
ends
enee
enei
enemy
energy
enesadablyoo
enfant
enforce
eng
engels
engine
engineer
engineering
england
english
engraver
engraving
eni
enigma
enigmas
enjel
enjela
enjils
enlightenment
enough
entee
enter
enters
entertainer
entertainment
entire
entladungsroehren
entoniyo
entrance
entrepreneur
entrobas
entry
environment
environmental
enzyme
enzymes
eori
epeli
epenisa
eph
ephajeeem
epi
epic
episode
epistulae
epps
eps
epsimon
epsubpageextractor
eqbal
equador
equal
equality
equation
equations
equator
equatorial
equestrian
equipment
er
era
erasmus
erbium
erectus
ereima
erenio
eric
erie
erik
erika
erin
eritrea
eriyal
erlanger
erne
ernest
ernesto
ernie
ernst
erosion
erotic
errors
erwin
es
esadeejee
esala
esat
esava
escape
escaped
escobar
escorial
ese
eseks
esesaar
eshiya
eshiyaee
esid
eskis
esma
esosieshan
espan
esperanto
espn
espncricinfo
esquivel
essay
essayist
essays
essential
essex
essie
est
establish
established
estae
estate
estela
estemirova
estimate
estimates
estonia
estonian
et
etakinsan
etc
etching
eternal
eternalized
ethaletik
ethan
ethics
ethiopia
ethiopian
ethnic
ethnicity
ethnologue
etna
etudes
etwaar
etwar
etymology
eu
euclid
euge
eugen
eugene
euler
eun
euphrates
eurasia
euro
europa
europe
european
europeans
europi
europium
eva
evan
evangelista
evans
evaragleds
eve
evelyn
even
evening
event
events
eventually
ever
everest
everton
every
everything
evidence
evil
evin
evolution
evolve
ewa
ewam
ewan
ex
exact
exam
examination
example
examples
excellent
except
exception
exchange
exchanges
executed
execution
executive
exhibition
exhibitions
exile
exist
expansion
expectancy
expedition
expeditionary
experience
experiment
expert
expires
explain
explained
explains
explanation
exploded
exploding
exploration
explore
explorer
explorers
explosion
export
expulsion
exquisite
extant
extend
extended
extension
extensive
external
extra
extraordinary
extreme
extremely
eye
eyes
eyhler
ez
ezechiel
ezra
f
fa
faansi
faarr
faartun
fabriciano
fabrizio
face
facebook
faced
faces
facilities
facility
facsimile
fact
factbook
faction
facto
factor
factors
factory
facts
faculty
faeda
fael
faesla
fagen
fahnbulleh
fail
faila
failae
failais
faile
failed
failure
fair
fairy
faisal
faith
faiyaz
faiz
faku
fal
falco
falkland
fall
fallen
falling
falls
false
falsehttps
fame
familiar
families
famille
family
famour
famous
fan
fancy
fanning
fanny
fans
fanta
fantastic
fantasy
fap
far
faraday
farah
farebrother
farfan
farhan
faria
farida
farley
farm
farmers
farmiga
farming
farnesina
faroe
farooq
farouk
farrah
farrow
farsi
farsii
fartuun
farzan
fas
fasanoc
fashion
fashioned
faso
fassbender
fassee
fast
fastest
fasti
fat
fate
fateh
fatehgarh
fatehpur
fatel
father
fathers
fatima
fatty
fauj
faundeshan
faust
fauteuil
favour
fawcett
fay
faye
fazilka
fazu
fbc
fc
fe
fear
feather
feature
features
featuring
feb
february
fed
federal
federated
federation
federer
federico
feel
feeling
feet
feke
feldman
felicity
felipe
felix
fellow
fellowship
felunath
fem
female
feminine
feminism
femme
femmes
fence
fencing
feodor
ferdinand
ferguson
ferid
feriha
ferna
fernande
fernando
ferociously
feroz
ferrer
ferries
ferrugineum
fertile
fertility
fertilizer
festival
festivals
fever
few
ff
ffa
ffb
ffipp
fgm
fhrc
fi
fianl
fibiger
fibonacci
fibres
ficac
fichtner
fiction
ficus
fide
fidel
field
fielding
fields
fiennes
fiesta
fifa
fifteenth
fifth
fifty
fig
fight
fighter
fighting
fights
figs
figueras
figueres
figura
figure
figures
fij
fiji
fijian
fijians
fijifirst
fijike
fijitimes
fikile
filadelfeia
filam
file
files
filimone
filipe
filipino
fille
fillette
film
filmen
filmfare
filmography
filmon
films
fils
final
finale
finalist
finally
finals
finance
financial
finau
find
finding
findlay
finds
fine
finish
finished
finishing
finland
finn
finnish
finsen
fiona
fiorentini
fipresci
fir
fire
firered
fireworks
firi
firm
firozabad
first
firth
fischer
fish
fisher
fisheries
fisherman
fishermen
fishes
fishing
fission
fit
five
fixed
fixture
fixtures
fiziyan
fj
fl
flag
flags
flame
flames
flaming
flammenfa
flanagan
flash
flat
flats
fleece
fleet
fleischer
fleming
flemish
flesh
fletcher
fleurs
flick
flickr
flies
flight
flights
float
floating
flora
florence
flores
florey
florez
florida
flow
flower
flowers
flowing
flows
floyd
flp
flu
fluorid
fluorine
flute
fly
flying
flynn
fm
fnpf
focus
focused
foil
foley
folk
folks
folktale
follow
followers
following
follows
fom
fonda
fonds
fonseca
font
fonts
food
foot
football
footballer
footnotes
for
forau
forbes
force
forced
forces
forche
ford
fore
foreign
forest
forests
forever
forget
forgotten
form
formal
format
formation
formed
former
formerly
forms
formula
formulated
forrest
forssmann
forster
fort
forth
fortress
fortuna
forty
forum
forward
foster
fou
fought
foul
found
foundation
founded
founder
founding
fountain
four
fourier
fourth
fox
foxx
fr
fragasso
fragment
frame
frameless
franc
franca
france
frances
francesca
francesco
franchise
francia
francis
francisca
francisco
francium
franco
francs
frank
frankel
frankenstein
frankfurt
frankie
franklin
franklyn
franks
franny
franz
fraser
fre
freak
fred
freddie
frederick
fredrikstad
free
freed
freedom
freehold
freeing
freeman
freestyle
freetown
freire
french
fresco
fresh
freud
frey
friction
frida
friday
frideric
fried
friedrich
friend
friendly
friends
friendship
fright
frisch
frisian
fritz
frog
from
fromm
front
frontier
frontispiece
frontlinedefenders
frost
fru
fruit
fruits
fry
fsc
ft
ftu
ftuc
fu
fuendetodos
fuji
fujian
fulaga
full
fully
fultala
fumaric
fun
functional
functioning
functions
fund
fundacio
fundamental
funeral
fungi
funnel
furchgott
furious
furniture
further
futuna
future
fuul
fuus
fuut
g
ga
gaana
gaandhi
gaane
gaanv
gaari
gaarjiyan
gaarri
gaarsiya
gaayab
gaayak
gaayika
gabon
gabor
gaborone
gabriel
gabriela
gabrielle
gachh
gad
gadaadhar
gadha
gadolinium
gadwani
gae
gaee
gaeen
gaelic
gaffar
gagana
gagarin
gagra
gahan
gahiarai
gahira
gahirai
gai
gailaaghar
gailaagher
gailaree
gain
gair
gais
gaiya
gajdusek
gal
gala
galaagher
galarina
galat
galatea
galaura
galaxies
galaxy
gale
galee
galega
galego
galen
gali
galician
galilee
galileo
gallagher
gallenfieber
galleria
galleries
gallery
gallia
gallium
gallner
galloway
galoa
gam
gama
gambheer
gambhir
gambia
gambian
gambier
game
games
gamharia
gamma
gan
gana
ganaa
ganaga
ganaraajy
ganashatru
ganda
gandaki
gandhi
gandhinagar
gane
ganesh
ganga
gangadhar
ganges
gangotri
ganilau
ganit
ganna
gannushakina
gannushkina
gantlos
ganv
gao
gaon
gap
gara
garage
garam
garbhapaat
garbhavatee
garc
garcetti
garci
garcia
garda
gardan
garden
gardens
gareeb
gareebee
garfil
garhwal
gari
garib
garibi
garibon
garland
garls
garm
garments
garmi
garmii
garmiyon
garner
garrel
garrett
garrhu
garvey
gary
gas
gase
gases
gasser
gastritis
gate
gates
gateway
gathabandhan
gathan
gathering
gati
gatividhi
gatividhiyaan
gatividhiyon
gatt
gau
gaudi
gauge
gaul
gaulle
gaunavou
gaura
gaurav
gauss
gautam
gautama
gauthier
gavarnar
gavaskar
gave
gavidi
gavin
gaw
gawaiya
gay
gaya
gayaa
gaye
gayi
gaza
gazeta
gaziantep
gbla
gdp
ge
gear
gec
geet
geeta
geetakaar
geeton
gege
geline
gem
gema
gemma
gender
gene
genealogy
general
generation
generations
genes
genesis
genetic
genetically
genetics
geneva
geng
genghis
genhu
genital
genius
genre
gentiana
gentlemen
genus
geo
geodesic
geoff
geoffrey
geographer
geographic
geographical
geographically
geography
geological
geology
geometry
georg
georgakis
george
georges
georgetown
georgia
georgian
georgina
ger
gerald
geraldine
gerard
gerede
gerhard
geris
german
germanic
germanium
germans
germany
geronimi
gertrude
gerty
get
gets
getting
gg
ghaana
ghaat
ghaatak
ghaati
ghaayal
ghai
ghais
ghamand
ghana
ghananand
ghandruk
ghanishth
ghanta
ghante
ghar
ghara
ghare
ghareloo
gharon
gharruu
ghasi
ghasita
ghat
ghatana
ghatanaon
ghatna
ghazi
ghazni
ghee
gher
ghi
ghimire
ghodon
ghoomata
ghora
ghorra
ghorraa
ghosh
ghoshana
ghoshit
ghost
ghp
ghulam
ghumis
ghus
ghusapaith
gi
giacomo
giais
gian
giant
giants
gias
gibraltar
gibs
gibson
gif
gift
giki
gikuyu
gil
gilbert
gilbertese
gild
gilgit
gill
gillen
gilles
gillion
gilman
gilroy
gimitya
gina
ginaa
gine
ginee
ginti
giordani
giordano
giorgio
giovanna
giovanni
giovannini
gir
giraas
giraffe
girajaghar
giraphtaar
giraphtaaree
gird
gire
giri
girija
girijaghar
girl
girls
girmit
girmitayas
girmitya
girmityas
girona
gis
gita
giuliano
giulio
giuseppe
give
given
gives
giving
giza
gje
glaasago
glacialis
glacier
gladys
gland
glasgow
glass
gledis
gleeson
glen
glenn
glob
global
globe
gloria
glorious
gloriya
glory
glossary
glover
glow
glowing
glucose
glycogen
gmina
gmt
gnimitra
go
goa
goal
goals
goalscorer
gob
gobind
god
godavari
goddard
goddess
godfrey
gods
godwin
goes
goethe
gogh
gogo
goh
going
gokhale
gola
gold
goldamain
goldan
goldberg
golden
goldman
goldstein
golee
golf
golfer
golgi
goli
golian
gomaans
gomez
goncourt
gone
gonerau
goneyali
gonza
gonzaga
gonzalo
good
goodman
goods
google
goopy
gopal
gopalan
gopalganj
gopi
gora
goraa
goran
gordan
gordianusisest
gordiha
gordon
gore
gorr
gosling
gospel
got
goth
gottfried
gould
goundar
gounder
gourd
gourielli
gov
govan
govern
governing
government
governmental
governor
governors
govind
govinda
govorukhin
govt
gowland
goya
gp
gr
graam
graameen
grace
graces
grade
gradiva
graduate
graduates
grafton
grah
graha
graham
grahan
grain
gram
grammar
gran
granada
grand
grande
grandfather
grandis
grandmaster
grandmother
grandparents
grandson
granit
grant
granth
granthon
grape
graphics
grass
grassland
grasslands
grave
gravida
gravity
gray
gre
great
greater
greatest
greco
greece
greek
greeks
green
greene
greengard
greenland
greenwood
greeshmakaaleen
greg
gregg
gregory
gremi
grenada
grenadines
grenedains
gres
gresiela
gret
greta
gretchen
gretta
grey
greyhound
grh
grhanagar
grhayuddh
grhinee
gri
grib
gridcolor
griffin
griffith
griffiths
grilled
grillo
griphin
gross
ground
grounds
group
groups
grover
growers
growing
growth
groznee
gruffudd
grup
gu
guaalinga
guaanaajuaato
guadeloupe
gualinga
guam
guangxi
guangzhou
guarani
guarantee
guard
guardian
guatemala
guatemalteca
guerra
guest
guevara
guez
gufa
gufaa
guiana
guide
guides
guido
guild
guillemin
guillermo
guilty
guinea
guitar
guitarist
gujar
gujara
gujaraat
gujarat
gujarati
gujerati
gulaabi
gulaam
gulaami
gulabdas
gulam
gulami
gulf
gullstrand
gulu
gulzar
gun
gunasagaran
gunn
guns
guntur
gupha
gupt
gupta
gurdaspur
gurion
gurmehar
gurmukhi
guru
gurudev
gurukul
gurunanak
gussae
gustav
gustave
gut
gutenberg
gutti
guy
guyana
gvaaliyar
gvaantaanaamo
gvaatemaala
gwalior
gwent
gwi
gwyneth
gxqedwaaqbaj
gya
gyaan
gyaarah
gyaat
gyan
gyanendra
gyaneshwar
gyani
gyarah
gye
gyllenhaal
gymnasium
gymnastics
gyne
gyo
gypsy
gyrah
gyu
h
ha
haabre
haadeen
haal
haalaanki
haali
haan
haangakaang
haanth
haanthi
haar
haara
haare
haaris
haarvard
haashie
haasil
haasy
haath
haathi
haathon
habit
habsburg
hackman
hacılar
had
hadataal
haddi
haddiyaan
haden
hader
hadi
hae
haedara
haee
haei
haeja
haem
haen
hafez
hafhai
hafhaveiaglolo
hafiz
hafnium
hafta
haftaa
hague
hai
haifa
haim
hain
hair
hairo
hais
haitee
haiti
haitian
hajaar
hajaaro
haji
hajj
hak
hakka
hal
halanki
halat
haldan
hale
half
halhalia
hall
hallett
hallucination
hallucinogenic
halogens
halves
ham
hamaar
hamaara
hamaare
hamaaree
hamala
hamale
hamalon
hamburg
hamen
hamesha
hamid
hamilton
hamla
hamlet
hammer
hammond
hampshire
hampton
hamriyya
han
hanaa
hanan
hanau
hanba
hancock
hand
handbook
handed
handel
handle
hands
hank
hanks
hannah
hannibal
hans
hansard
hansen
hanta
hanth
hanuman
happens
happiness
happy
haq
har
hara
harae
harais
harald
harassment
harbour
hard
hardam
hardie
harding
hardy
hare
harem
hargovind
hari
harilal
haris
harish
hariyar
harlequin
harlin
harmandir
harmensz
harmony
harnam
harold
harp
harper
harppaa
harppaai
harpur
harrelson
harris
harrison
harrtaal
harrtali
harrtall
harry
harsh
hart
hartlepool
hartline
hartwell
haru
harun
harvard
harvey
haryana
haryanvi
has
hasan
hasanpur
hashmi
hasil
hassan
hassanali
hastaakshar
hastakshep
hat
hata
hataane
hataawa
hatae
hatana
hatawa
hate
hated
hathaway
hati
hatoon
hatya
hatyaa
hatyaon
hau
hauj
haus
hausa
hausen
hauser
hava
havaana
havaee
havana
have
haveli
haven
having
haviside
hawa
hawaa
hawai
hawaii
hawaiian
hawala
hawke
hay
haya
hayden
haydn
hayek
hazal
hazara
hazari
hazim
he
head
heading
headquarter
headquarters
heads
headteacher
health
heap
hear
heard
heart
hearts
heat
heath
heather
heaven
heavy
hebrew
hebrides
hector
hed
hee
heedar
heemskerck
heero
heesters
heethar
heg
hegel
hei
heidi
height
hein
heinrich
heirs
hekari
helasinkee
held
helen
helena
helia
helicobacter
helium
hell
hellenic
helloi
helms
heloi
help
helped
helps
helsinki
helth
hema
hemisphere
hemispheres
hemsworth
hen
henaree
hence
hench
hendricks
hendrix
hengel
henjunaha
henley
henri
henriette
henrik
henry
hensen
hepburn
her
heraald
herae
herald
herat
herb
herbert
herbs
hercegovina
hercules
here
heredity
hereford
heritage
herman
hermann
hermitage
herna
hero
heroes
heroides
herrera
hershey
herzegovina
herzog
hess
het
heterosexual
hetu
hex
hexagram
hey
heymans
hf
hg
hhohho
hi
hian
hibiscus
hidden
hides
high
highest
highland
highlands
highly
highway
hijo
hil
hilary
hill
hillary
hills
him
himaalay
himachal
himal
himalaya
himalayas
himself
hin
hina
hind
hindi
hindistani
hindko
hindoo
hindu
hinduism
hinduon
hindus
hindustan
hindustani
hingua
hinsa
hinsak
hippo
hiraasat
hiragana
hirak
hiroyuki
hirsch
his
hisaab
hisab
hispahan
hispainik
hispanic
hispaniola
hissa
hisse
historia
historian
historians
historic
historical
histories
history
histree
hit
hitchcock
hitchings
hitler
hiton
hiv
hiyaa
hiyar
hl
hler
hlinity
hmae
hmas
hms
ho
hoa
hobart
hobb
hockey
hoda
hodgkin
hoe
hoffman
hofhahoi
hoga
hogaa
hogan
hogee
hogi
hoi
hokar
hokusai
hol
hold
holding
holds
hole
holes
holiday
holidays
holland
hollandaise
holley
holloway
holly
hollywood
holmes
holmhurst
holocaust
hologram
holokost
holos
holy
hom
homage
home
homecentres
homepage
homer
hommage
homme
homo
hon
hona
honaa
honduras
hone
honey
hong
honge
honiara
honor
honorary
honors
honour
honourable
honoured
honours
hood
hooghly
hoon
hoover
hop
hope
hopkins
hopper
hor
horace
horizon
hormonal
hormone
hormones
horn
horne
horns
horse
horseback
horseman
horsemen
horses
horta
horvitz
hospital
hospitals
host
hostage
hostages
hosted
hosts
hot
hota
hotaa
hotal
hote
hotee
hotel
hotels
hoti
hotspur
hoult
hounsfield
hour
hours
house
houses
housing
houssay
how
howard
howat
howe
howein
however
howick
howrah
hoy
hoyt
hp
hq
hr
hrday
hriday
hrithik
hrv
hrw
hs
htm
htmhttp
htmhttps
html
htmlhttp
htmlhttps
http
https
hu
hua
huaa
huan
huang
huasteca
hubel
huckle
hudson
hue
huee
hueen
huge
huggins
hugh
hughes
hugo
hui
huitoto
hukum
hum
human
humanist
humanities
humanrights
humboldt
hume
humphrey
hundred
hungarian
hungary
hunger
hunt
hunter
huron
hurt
husain
husaina
husband
husia
hussain
hussein
husseini
huston
huwa
huxley
huye
huyi
hwa
hyam
hyderabad
hydrabad
hydrogen
hydroxid
hydroxide
hydroxyl
hye
hyoog
hyooman
hyper
hypothesis
hysterical
hyun
i
ia
iaf
ian
iata
ib
ibara
iberian
ibibio
ibid
ibn
ibraaheem
ibrahim
ic
icao
icc
ice
iceland
icelandic
icha
ichchha
icon
id
ida
idarees
idc
idea
ideal
ideas
ideology
idi
idiot
idle
idol
idris
ie
ies
if
ifrah
iftekhar
ig
ignarro
ignored
igor
igri
iguana
ih
iha
iho
ii
iihae
iii
iiit
iiitd
iirleri
iise
ij
ijaajat
ijajat
ijaraayal
ijaraayalee
ik
ika
ikaee
ikalautee
ikattha
ike
ikk
ikonomiks
iks
ikvaador
ikya
il
ila
ilaaj
ilaaka
ilaitia
ilaka
ilam
ile
ili
iliad
ilimeleki
ilimotama
ilisoni
illegal
illegally
illinois
illness
illnesses
illusion
illustrate
illustration
illustrations
illustre
iloilo
ilokano
iloko
ilya
ilyich
im
ima
imaarat
image
images
imaginary
imaging
imdb
imf
img
immanuel
immediate
immigrant
immigrants
immigration
immune
immunity
immunodeficiency
immunological
impact
imperial
imperialism
imphal
import
importance
important
impossible
impressionist
impressions
impressive
imprisonment
improve
improved
improvements
impulses
impurities
imung
in
ina
inakaar
inake
inaki
inamen
inaugural
inayat
inc
inca
inch
inchallah
include
included
includes
including
incorrectly
increased
increment
indaur
indefinitely
indenture
indentured
independence
independencia
independent
independents
index
india
indian
indiana
indianexpress
indians
indiatimes
indica
indicated
indications
indies
indigenous
indijinas
indira
indium
individual
indiyan
indo
indoneshiya
indoneshiyaee
indonesia
indonesian
indoor
indore
indra
indus
industrial
industries
industry
infancy
infant
infanta
infect
infected
infection
infectious
inferno
influence
influenced
influential
info
information
infrastructure
ing
ingin
inglaind
ingmar
inhabitants
inhe
inhen
inia
inis
initially
initials
initiative
injeeniyar
injustice
inka
inkaar
inkar
inke
inki
inn
inner
inoculation
inoke
inosi
inox
inquirer
inquiry
inr
insaan
insane
insects
insee
inside
inspiration
inspire
inspired
instagram
instant
instead
insteetyooshan
insteetyoot
institut
institute
institutes
institution
institutions
instityoot
instructions
instrument
instrumental
instruments
insulin
insurance
int
intaraneshanal
intaranet
intellect
intellectual
intelligence
inter
interact
interaction
interactive
interdistrict
interest
interesting
interface
interference
interim
interior
internal
international
internationale
internet
interprets
interview
interviews
into
inton
introduce
introduction
inuit
invade
invasion
invent
inventing
invention
inventor
inventors
investigate
investiture
investment
invisible
involved
io
ioan
ioana
iodide
iodine
ion
ionian
iowa
ipa
iphara
iprage
ipsavich
iqbal
ir
iraak
irai
iran
irani
iranian
iranica
iraq
iraqi
ird
ireima
ireland
irene
iridium
iris
irish
iron
irradiation
irreparably
irrfan
irrigation
irving
irwin
is
isa
isaa
isaabel
isaac
isaai
isabel
isabella
isabelle
isai
isaka
isakaa
isake
isakee
isala
isalie
isaliye
isame
isamen
isane
isase
isbn
ise
isee
isen
ishaat
ishaq
ishevuahwbbyskhstvdcqq
ishmael
ishvar
ishwari
isi
isikeli
isimeli
isireli
iska
iske
iski
isko
isla
islaam
islaamee
islaamik
islam
islamabad
islamds
islami
islamia
islamic
island
islander
islanders
islands
isle
isles
islets
isme
isne
iso
isoa
isolde
isotopes
isotopic
ispahan
ispe
israel
israeli
israelis
israelites
iss
issac
isse
issn
issue
issues
ist
istamrar
istanbul
isteepha
istemaal
istemal
istva
isvi
it
ita
itaipu
italee
italia
italian
italy
itan
itana
itanagar
item
items
itgo
iti
itihaas
itihaasakaar
itihaasik
itihas
itihass
itimi
its
itself
ity
itya
iuniverce
iuniverse
iupac
iv
ivaans
ivan
ivanov
ivoire
ivory
iwoc
iya
iyama
iye
iyer
iyintk
iyo
iz
izarail
izarailee
izzat
izzo
j
ja
jaa
jaaae
jaada
jaae
jaagarook
jaagarookata
jaai
jaakar
jaambiya
jaambiyan
jaan
jaana
jaanakaaree
jaanane
jaanat
jaanate
jaanavaron
jaanch
jaane
jaanee
jaanis
jaankari
jaanwar
jaao
jaapaanee
jaaree
jaari
jaat
jaata
jaataa
jaate
jaatee
jaateey
jaati
jaawa
jaawat
jaawe
jaaya
jab
jaba
jabaki
jabaran
jabarjasti
jacint
jack
jacket
jackie
jackman
jackson
jacob
jacqueline
jacques
jada
jadha
jadhav
jae
jaega
jaen
jaesaa
jaese
jafar
jaffrey
jag
jaga
jagah
jagaha
jagan
jagannath
jagat
jagdeo
jagdish
jagh
jagha
jagir
jaha
jahaaj
jahaaji
jahaan
jahajj
jahan
jahangir
jahar
jahel
jaheli
jahir
jai
jaik
jaiksan
jail
jaime
jain
jaina
jaipur
jaisa
jaise
jaisee
jaisi
jaiv
jaivik
jaiye
jajarkot
jakarta
jake
jakhim
jal
jala
jalaane
jalal
jalandhar
jalavaayu
jalavidyut
jald
jaldee
jaldi
jale
jalebi
jaliya
jallianwala
jalsaghar
jam
jama
jamaa
jamaana
jamaanat
jamaica
jamana
jame
jameen
jameenee
james
jamhaur
jamie
jamiin
jamin
jammu
jamnagar
jamp
jampar
jamshed
jamshedpur
jamuna
jan
jana
janaganana
janagananita
janajaati
janakpur
janam
janamat
jananaang
janaral
janasan
janasankhya
janat
janata
janavaree
jane
janeiro
janeman
janet
jang
jangal
jangalon
jangle
jani
janitesh
jankari
janm
janma
janmasthaan
janme
janmee
jannam
jannif
jano
jansankhya
janta
january
janwar
japan
japanese
jar
jarae
jardin
jarie
jariye
jarman
jarmanee
jarnal
jaroorat
jarsee
jarurat
jaruri
jasmine
jason
jasper
jast
jastis
jata
jate
jati
jatil
jau
jaume
jauregg
java
javaab
javan
javanese
javans
javed
javier
jawa
jawaani
jawab
jawaharlal
jawan
jawani
jawat
jawe
jay
jaya
jayanti
jayaram
jayasuriya
jaye
jaynesh
jayson
jaza
jazz
jd
je
jeaaraar
jean
jeanne
jeanneret
jeath
jedda
jeddah
jeen
jeet
jeeta
jeetane
jeete
jeetee
jeetendra
jeev
jeevaashm
jeevan
jeevanee
jeevavigyaanee
jeevit
jeff
jefferson
jeffery
jeffrey
jel
jelks
jems
jen
jenareshan
jendar
jenkins
jenna
jennifer
jenny
jeong
jerazee
jeremy
jerne
jerome
jerry
jersey
jerusalem
jerzy
jese
jesoni
jesse
jessica
jesuit
jesus
jet
jetaneel
jetna
jeune
jew
jewish
jews
jfp
jha
jhaaj
jhaan
jhaarru
jhamak
jhan
jhanda
jhande
jhapa
jharkhand
jheel
jhelum
jhi
jhinga
jhund
jhuura
ji
jiate
jie
jii
jiit
jiita
jiite
jiitin
jiitis
jike
jiko
jila
jilaka
jilake
jile
jill
jilla
jilon
jim
jimbaabve
jime
jimee
jimi
jimmedaar
jimmedaaree
jimmy
jin
jinaka
jinakaa
jinake
jinakee
jinamen
jinase
jinda
jindagi
jineva
jinhe
jinhen
jinho
jinhonne
jinka
jinke
jinnah
jinsi
jiraibe
jis
jisaka
jisakaa
jisake
jisakee
jisame
jisamen
jisane
jisase
jise
jiska
jiske
jisko
jism
jisme
jispe
jisse
jisske
jita
jitae
jitanee
jitendra
jitis
jiu
jivan
jiwan
jiya
jjae
jjawat
jjawe
jn
jnr
jo
joa
joan
joanna
joannah
joanot
joaquin
job
jobs
joda
jodaro
jodee
jodhpur
jodie
jodorowsky
joe
joel
joeli
joey
joging
johan
johann
johannes
johannesburg
johansson
johar
john
johnny
johnson
johnston
johra
joi
join
joined
joining
joins
joint
joji
joker
jokhan
jokhim
joki
jon
jona
jonah
jonas
jonathan
jone
jones
joni
jonke
joon
jooniyar
jope
jor
jorahaat
jordan
jordi
jordon
jorge
jorj
jorneta
jorr
jorra
jorraa
jorre
jorree
jorri
jos
josaia
josateki
jose
josef
josefa
josefata
josep
joseph
josh
joshi
joshua
joske
journal
journalism
journalist
journals
journey
joven
jovilisi
jovovich
joy
joyce
joyful
jp
jpeg
jpg
jpost
jr
jtuaaaamaaj
ju
juaan
juaarez
juan
jubilee
jublee
juda
judaav
judaism
judd
jude
judge
judgement
judi
judith
judy
jugnauth
juhi
jul
julaee
jules
julia
julian
julianne
julie
julien
juliet
juliette
julius
july
jumna
jumne
jun
junction
june
jung
jungle
junior
junoon
junta
junyer
jupiter
jur
juraa
jurassic
jurist
jurra
jurraa
jury
just
justice
justin
justinian
jutiyaapa
jwala
jya
jyaada
jyada
jyotish
k
ka
kaa
kaaam
kaaba
kaacho
kaafi
kaagaj
kaahe
kaaheki
kaaka
kaakal
kaakeshas
kaal
kaala
kaale
kaalibangaan
kaam
kaamayaab
kaamme
kaangari
kaango
kaangres
kaanoon
kaanoonee
kaanoonon
kaansy
kaanun
kaaphee
kaar
kaaraakas
kaaraavaas
kaarakhaane
kaaran
kaaranon
kaaravaan
kaarban
kaarlasan
kaarlos
kaarloto
kaarn
kaarravaee
kaartar
kaartaret
kaary
kaarya
kaaryaalay
kaaryakaal
kaaryakaaree
kaaryakarta
kaaryakartaon
kaaryakram
kaaryakramon
kaaryarat
kaaryashaalaon
kaaryasthal
kaaryon
kaat
kaata
kaatane
kaate
kaatis
kab
kabar
kabara
kabardian
kabeele
kabhee
kabhi
kabile
kabilon
kabir
kabjaa
kabje
kabristaan
kabul
kabutu
kacal
kachara
kadam
kadavu
kadiahi
kadija
kadomo
kae
kaee
kafi
kafka
kagaj
kagaz
kagbeni
kaha
kahaa
kahaan
kahaanee
kahaaniyaan
kahaaniyon
kahae
kahani
kahate
kahatee
kahe
kaheen
kahi
kahlo
kahn
kai
kaibinet
kaibu
kaid
kaidee
kaidiyon
kaii
kaiindianz
kailiforniya
kailiphorniya
kailoree
kaimbrij
kaimp
kain
kainabara
kainahewe
kainedee
kainediyan
kaintarabaree
kairebiyan
kairibiyan
kairiyar
kairolina
kais
kaise
kaisko
kaistilo
kaithee
kaithi
kaitholik
kaiviti
kak
kakheti
kaksh
kaksha
kakshaon
kal
kala
kalaa
kalaakaar
kalaakaaron
kalaakrti
kalabhavan
kalakaar
kalakar
kalakatta
kalakattaa
kalan
kalden
kale
kalesa
kali
kalikot
kaliova
kalisito
kalita
kalki
kalou
kalsoum
kalu
kalyaan
kalyan
kalyanji
kam
kama
kamal
kamala
kamar
kamara
kamaraagunja
kamare
kamat
kambal
kamee
kameeshan
kametee
kamikamica
kamil
kamini
kamins
kamisese
kamishnars
kamjor
kamlapati
kamlesh
kamodor
kampala
kampanee
kampaniya
kampaniyo
kampaniyon
kamrupi
kamti
kamtii
kamyunist
kamyunitee
kan
kanaada
kanaadaee
kanace
kanacea
kanchanpur
kandahar
kandel
kane
kang
kangchenjunga
kangeroo
kangla
kanglasha
kangleipak
kangri
kanhai
kanihewe
kanjarveshan
kanji
kanker
kannada
kanpur
kans
kansas
kant
kantaap
kanti
kanun
kanuni
kanuri
kanuun
kanvenshan
kanwal
kanya
kao
kapaas
kapadia
kapare
kapdo
kapjaa
kaplan
kapok
kapoor
kapre
kaprraa
kaptaan
kar
kara
karaa
karaakaas
karaane
karaaya
karaayaa
karacadag
karachi
karae
karaee
karais
karake
karam
karamchand
karamua
karan
karana
karanaa
karane
karat
karata
karataa
karatas
karate
karatee
karati
karavi
karawa
karaye
kare
kareeb
kareem
kareena
karej
kareja
karel
karela
karen
kari
karia
karii
karimnagar
karin
karis
karisma
kariyar
karjaa
karke
karl
karloff
karlovy
karma
karman
karna
karnaa
karnali
karnataka
karne
karo
karra
karraa
kars
karta
karte
karti
karuna
karunesh
karwae
karwais
karwaya
kas
kasami
kasavu
kasdan
kashmir
kat
kataee
katai
katakana
katakata
katal
katana
katar
kate
katha
katharina
katharine
katherine
kathin
kathit
kathleen
kathmandu
kathor
kathryn
kathy
katie
katika
katil
katrina
katsoulis
katsushika
kattar
kattarapanthee
katz
kau
kaufman
kaunsil
kauntee
kaur
kaushal
kaushik
kautoga
kavaia
kavanagasau
kavar
kavi
kavita
kaviti
kawakawa
kawango
kay
kaya
kayaamat
kaye
kayi
kazakh
kazakhstan
kazan
kazuyuki
kbe
kc
ke
keanu
kee
keek
keeling
keemat
keen
keep
keeper
keffer
kehte
kei
keira
keith
kekrra
kelepi
kella
keller
kelly
kelsey
kemal
ken
kenahewe
kendall
kendr
kendra
kendreey
kendrick
kendrit
kendriye
kendron
keni
kennedy
kenneth
kenny
kent
kentakee
kentucky
kenya
kep
kepler
ker
kerala
kerevanua
kerr
kerry
kes
kesari
ketna
keval
kevin
kevueli
key
keyar
keyaring
keyboard
keyboards
keynes
keys
kg
kh
kha
khaady
khaae
khaaki
khaali
khaan
khaana
khaara
khaari
khaas
khaatir
khaawe
khabar
khada
khadaan
khadee
khadeeja
khader
khadija
khady
khae
khair
khaira
khairi
khait
khaiyum
khajuri
khalaa
khalaas
khalas
khaldun
khali
khalifa
khalil
khalkas
khalsa
khamlangba
khan
khana
khanan
khand
khandahar
khane
khanh
khanna
khap
khapat
khar
khara
kharaa
kharaab
kharab
kharcha
kharchaa
khardiha
khareed
khari
kharid
kharida
kharide
kharidis
kharra
kharraa
khartoum
khas
khatam
khatara
khatare
khataron
khati
khatir
khatis
khatm
khatra
khatta
khawa
khaya
khayal
khe
khejri
khel
khela
khelaa
khelais
khelari
khelat
khelauna
khelawan
khele
kheli
khelin
khelis
khelne
khelo
khels
khelte
khemendra
kher
khet
khetee
kheti
khetra
khiche
khiich
khila
khilaadee
khilaaph
khilaari
khilaarri
khiladi
khilari
khilarri
khissa
khmer
kho
khoj
khojane
khoje
khojee
khol
khola
khole
kholis
khoon
khorana
khoriphaba
khote
khowar
khpg
khraab
kht
khud
khula
khule
khuman
khunthok
khunu
khurd
khus
khush
khushi
khusi
khuun
khwa
khya
khyber
ki
kia
kiambu
kiarostami
kichava
kichhava
kick
kicks
kid
kidman
kidney
kids
kie
kierkegaard
kiev
kigali
kii
kijaner
kila
kilimanjaro
kill
killed
killer
killing
kilo
kilometer
kilometers
kilometre
kilometres
kilomitar
kilua
kim
kimat
kimbundu
kimee
kimi
kina
kinaare
kinare
kinatre
kind
king
kingadam
kingdom
kingdoms
kings
kingsley
kingston
kingstown
kini
kiniviliame
kinross
kinsaku
kinshasa
kintu
kioa
kira
kirae
kiran
kirby
kiribati
kirk
kirsten
kirundi
kirwa
kis
kisaan
kisaanon
kisan
kisani
kisee
kishan
kishor
kishoraavastha
kishore
kishoree
kisi
kism
kismat
kiss
kista
kita
kitaab
kitaaben
kitione
kitsch
kitts
kiya
kiyaa
kiye
kk
klaas
klab
klaig
klaimet
klara
klein
klerens
kleyar
kluivert
klyazma
km
knesset
knew
knight
knightley
knights
kno
knockout
knots
know
knowledge
known
knows
ko
kobaltnaty
kobe
koch
kocher
kod
koee
kofee
kofi
kohli
koi
koila
koiren
kol
kola
kolambiya
kolambiyaee
kolde
kolej
kolins
kolkata
koloale
kolonee
koloraado
komo
kon
kong
konrad
konthoujam
koo
kood
koodane
koodate
kooree
kootamundra
kor
koraba
korbet
kordilera
korea
korean
koriya
kornberg
koro
koronakis
koronivia
koronubu
koroqaqa
korotari
korouhanba
korovou
korovuto
koroyanitu
kors
kort
kosciol
kosh
koshi
koshish
kosis
kosovo
kosrae
kossel
kosta
kota
kotdwar
koteas
kothaar
kotte
kotz
koubru
koumbo
kounu
kovy
koya
koyala
koyale
kr
kraanti
kraantikaaree
kramashah
kramnik
krause
kre
krebs
kredit
kreek
krietiv
kris
krishak
krishan
krishchiyan
krishi
krishna
krishnan
krishneel
kristeen
kristeena
kristen
krogh
krolewskie
krone
kroon
krooz
kros
krshi
krypton
ks
kshamata
kshan
kshetr
kshetra
kshetrafal
kshetraphal
kshetreey
kshetro
kshetron
kt
ku
kuaaron
kuala
kuar
kuata
kubuna
kuch
kucha
kuchh
kuk
kukhyaat
kuku
kul
kula
kulambar
kulana
kuli
kull
kuma
kumar
kumari
kun
kunal
kunda
kundan
kundru
kunduz
kunis
kunji
kuntala
kuppswami
kuppuswami
kuppuswamy
kurd
kurdish
kurivitu
kurnool
kuro
kurosawa
kurow
kurt
kurta
kurtlar
kuru
kurwa
kush
kushabhau
kushal
kusti
kutoka
kutta
kuttaa
kuttee
kutuba
kuud
kuver
kuveskar
kuwait
kveen
kveensalaind
kvekar
kvich
ky
kya
kyaa
kyle
kylie
kyo
kyoki
kyon
kyonki
kyooba
kyoto
kyrgyz
kyrgyzstan
kıbrıscık
l
la
laabh
laabhakaaree
laad
laae
laagoo
laai
laain
laais
laal
laane
laapata
laata
laawa
laawe
laaya
labasa
labasaa
label
labeouf
labor
laboratory
labour
labourers
labyrinth
lace
lacemaker
lachhmipur
lack
lactic
lad
ladaakon
ladaee
ladakee
ladakiyon
ladana
ladane
lade
ladee
laden
ladki
lads
lady
lae
laeeseniya
laeke
lafz
lag
laga
lagaa
lagaakar
lagaane
lagaataar
lagaaya
lagabhag
lagabhaga
lagae
lagain
lagais
lagat
lagataa
lagawa
lagbag
lagbhag
lage
laghu
lagi
lagin
lagis
lago
lagoon
lagos
lagta
laguna
lahar
lahiyat
lahore
lai
laib
laiberiya
laikhurembi
lailai
lain
laingik
laiphataim
lairembi
lais
laisenia
laisens
laitin
laivaleehud
laivs
lajpat
laka
lakadahaare
lake
lakeba
lakena
lakes
lakhan
lakhha
lakrri
lakshadweep
lakshman
lakshmana
lakshmee
lakshmi
lakshy
lakun
lal
lala
lalita
lalu
lam
lamb
lamba
lambaa
lambai
lambe
lambee
lambi
lami
lamine
lamiya
lamont
lamp
lan
lana
lanacion
lanarkshire
lanbaa
lancaster
lance
land
landan
landlocked
landmark
landmarks
landport
lands
landscape
landslide
landsteiner
lane
lang
langar
lange
langella
langhan
language
languages
lanie
lanka
lankan
lantern
lanthanide
lanthanum
lao
laos
laozi
lar
lara
larai
large
largest
laris
larka
larkaa
larkan
larki
larkin
larraa
larrai
larrat
larre
larrin
larris
larrka
larrkaa
larrkan
larrki
larry
larson
las
lascar
lasemarawa
lasse
last
lata
latchan
late
lateef
later
latest
lathanides
lati
latianara
latif
latimes
latin
latitude
latter
latvia
lau
laucala
launch
launches
laura
laure
laureates
laurel
lauren
laurence
laurent
laurie
laurier
laut
lautaar
lautae
lautane
lautat
laute
lauterbur
lautis
lautoka
lautreamont
lava
lavalette
lave
lavenia
laveran
lavika
lavinia
law
lawa
lawaqa
lawat
lawe
lawika
lawn
lawrence
lawrencium
lawrie
laws
lawson
lawyer
lawyers
laxman
laxmangarh
laxmi
laxon
lay
laya
layak
layer
layla
layout
lazienki
lcu
ldegalerie
le
lead
leader
leaders
leadership
leading
leads
leaf
leafgreen
league
leagues
leaning
leap
lear
learn
learned
learning
leary
lease
leasehold
leave
leaves
leaving
lebanaan
lebanese
lebanon
lebar
lebron
lecturer
lectures
led
leda
lederberg
ledeuff
lee
leeg
leela
leema
leena
lefevre
left
leg
legacy
legal
legalega
legend
legislation
legislative
legs
lei
leibniz
leicester
leiden
leigh
leila
leima
leimarel
leimaren
leinaotabi
leinye
lek
lekar
lekcharar
lekh
lekhak
lekhakon
lekhan
lekhika
lekhon
lekima
lekin
leland
leleuvia
lemita
lemons
len
lena
lene
lenfilm
length
lenin
leninagraad
lenins
lennon
leo
leon
leonard
leonardo
leone
leonidas
leonor
leontopodium
leopold
leornado
ler
les
leslee
leslie
lesotho
less
lesser
lesson
lessons
leste
lester
let
lete
letee
letter
letters
leucotomy
leung
lev
leve
level
lever
levi
levin
levine
levitt
levu
levuka
levy
lewa
lewat
lewe
lewenivanua
lewis
lex
leyala
lez
li
lia
liam
liang
lias
lib
libaral
libareshan
libartee
liberal
liberation
liberia
liberty
library
libreville
libro
libya
licence
lida
lie
lieberman
liechtenstein
lieutenant
life
lifestyle
lifetime
lifter
lifting
liga
ligan
light
lighthouse
lights
ligne
ligurian
lii
liin
liis
lika
like
likely
likh
likha
likhae
likhai
likhana
likhane
likhat
likhate
likhe
likhee
likhi
likhin
likhis
likhit
likis
lilanath
lili
liliana
lilies
liliya
liliyan
lillete
lilongwe
lily
lima
limestone
limit
limited
limits
lin
linares
lincoln
lincolnshire
linda
linden
lindsay
lindsey
line
linear
linegrey
liner
lines
linetsky
ling
lingua
linguist
linguistic
linguistics
link
linklater
links
linn
linnean
linz
lio
lion
lionel
lions
lipi
lipid
lipids
lipmann
lips
liquid
lira
lis
lisa
lisala
lisbon
liss
lissabon
list
listbiship
listed
listen
listening
lists
lit
litanar
literacy
literary
literates
literature
lithium
lithuania
lithuanian
litigeshan
litil
little
liu
liua
liv
livada
livatalo
live
lived
lively
liver
liverpool
lives
living
liya
liyaa
liye
liyon
liyonaard
liyonee
liz
ljubljana
lkin
ll
lla
llane
llaner
llangattock
llar
llb
lle
ller
lletra
lligat
lloyd
llu
llui
llull
lo
loaf
loag
loagn
loan
loanword
lobe
lobster
loc
local
localization
locally
located
location
locations
lochan
locke
locomotive
lodhia
lodoni
loewi
log
logaivou
logan
logbaat
logging
logic
logician
loging
logo
logon
logs
loha
loharkhana
loire
lok
lokapaal
lokapriy
lokataantrik
lokatantr
loki
lokia
loktak
lola
lolita
loma
lomaiviti
lomaloma
lomawai
lombok
lomiviti
lomolomo
lomu
london
lone
lonely
long
longer
longitude
longmans
longs
look
looking
looks
lope
lopez
lora
lorca
lord
lordi
loren
lorentz
lorenz
lorenzo
loreto
lorima
los
lose
loses
losing
losses
lost
lot
lote
lothal
lothian
lotto
lotu
lotus
lou
louis
louisa
louise
louisiana
louvre
love
lovely
lovers
loves
lovneel
lovu
low
lowe
lower
loyalakpa
loyarakpa
lpu
lpuaaaamaaj
lt
ltd
ltesi
ltte
lu
luanda
lublin
luc
luca
lucas
luci
lucia
lucian
luciano
lucinda
lucknow
lucky
luco
lucy
ludhiana
ludwig
luee
luganda
lugu
lugubrious
lui
luis
luisa
luisavile
luise
luka
luke
luko
lull
lullus
lulu
lumaad
lumad
lumbini
lumpur
lun
luna
lune
lupe
lupus
luria
lusaka
luske
lutetium
luther
lutheran
luveni
luxembourg
luxembourgish
luyia
luzio
lvpuaaaamaaj
lwoff
lydia
lying
lyn
lynch
lyndon
lynen
lynn
lynne
lynx
lyon
lyric
lyrics
lzl
lık
m
ma
maa
maadhyam
maadhyamik
maaf
maafu
maalik
maaloo
maama
maamala
maamale
maamalon
maamoolee
maan
maana
maanaa
maanad
maanak
maanakon
maanana
maanane
maanasik
maanat
maanata
maanate
maanav
maanavaadhikaar
maanavaadhikaaron
maanavata
maanavavigyaanee
maanaveey
maane
maang
maangat
maange
maansapeshiyon
maanyata
maap
maar
maara
maarakar
maarane
maarch
maare
maaree
maarg
maargadarshan
maargaret
maarin
maariya
maarjoree
maark
maaro
maarshal
maas
maasko
maastar
maata
maataa
maataon
maatr
maatra
maavarovo
maaya
macao
macau
macbeth
macdonald
macedonia
macedonian
macfarlane
machchhri
machhalee
machhri
machhuaaron
machiavelli
machine
maciu
mackenzie
macleod
macrophotographic
macuata
mad
mada
madad
madagascar
madame
madan
madanpur
madar
madars
madarsa
madat
madden
made
madeleine
madeline
mademoiselle
madhavan
madhbedh
madhmakkhi
madhubala
madhubani
madhuri
madhy
madhya
madhyam
madhyamanchal
madigi
madison
madonna
madraiwiwi
madras
madrasi
madre
madrid
mads
madurai
mae
maee
maejaban
maemae
mafane
magaas
magadha
maganlal
magar
magazine
magdalena
magellan
maggie
magic
magistral
magistrate
magnesium
magnet
magnetic
magnetism
magnus
mago
magodro
maguire
mah
maha
mahaan
mahaasaagar
mahaasabha
mahaasachiv
mahaataapu
mahaatmaa
mahabharata
mahadeo
mahak
mahakali
mahal
mahala
mahalla
mahan
mahanagar
maharaj
maharaja
maharashtra
maharishi
mahasoos
mahatma
mahatmya
mahatv
mahatvapoorn
mahatvapurn
maheene
maheenon
mahendra
mahesh
mahfouz
mahila
mahilaen
mahilaon
mahina
mahine
mahler
mahotsav
mai
maida
maidrid
maids
maigania
maika
maikagil
maikal
maikali
maikaliyod
maiksikan
maiksiko
maiksima
mail
maim
main
maina
maine
mainejar
maining
mainitoba
mainland
mainly
mainne
mains
maintained
maintains
mainz
mairee
maisons
mait
maithili
maiya
maja
majaboor
majaboot
majabur
majadoor
majdur
majduur
majesty
majhab
majistret
major
majority
majra
majuro
majuur
maka
make
maker
makers
makes
making
makka
makkah
makoe
makogai
makoi
mala
malaavee
malabo
malagasy
malakai
malala
malapa
malaria
malau
malawi
malay
malaya
malayalam
malaysia
malaysian
malcolm
maldives
maldoror
male
maleriya
maleshiya
maleshiyaee
mali
malik
malika
malima
malini
malo
malolo
malomalo
malta
maltese
maluku
malumu
mamanuca
mammal
mammootty
man
mana
manaa
manaabee
manage
managed
management
manager
managua
manama
manana
manasa
manawa
manaya
manch
manchester
manchu
mandal
mandarin
mandela
mandi
mandir
mandira
mandolin
mandoline
mandovi
mandy
mane
manekshaw
mangal
mangalgrah
mangan
manganaty
manganerz
manganese
mangar
mangat
mange
mangeshkar
mangi
mangis
mango
mangrove
manhattan
manhatton
mani
manifesto
manikpur
manila
manilal
maninka
manipur
manipuri
manish
manjil
manjooree
mankiewicz
manmohan
mann
manna
mannequin
mano
manoa
manobo
manochikitsa
manochikitsak
manoharanand
manoj
manonit
manoranjan
manorog
mansfield
mansi
mansoor
manta
mante
mantegna
mantra
mantraalay
mantree
mantri
manu
manual
manuca
manuel
manueli
manufacturing
manukau
manuscripts
manushy
many
manyata
mao
maori
map
mapalli
maplandia
maps
maputo
maqam
mar
mara
maraa
maratha
marathi
marc
marcel
marcello
march
marcia
marco
marcus
mard
mardon
mare
margaret
margarita
marginal
margoth
marguerite
mari
maria
mariana
marianne
marie
marika
marilyn
marin
marina
marine
marines
marino
mario
marion
maris
marist
maritime
marjing
mark
market
marketing
markup
marlene
marley
marlon
marmara
marmota
maro
maroon
marquesas
marquez
marquis
marr
marriage
married
mars
marseilles
marshall
marshank
marsupial
marta
martha
martial
martin
martina
martinez
martinique
martorell
martov
martyr
maru
marwan
marx
marxism
marxist
mary
maryam
mas
masala
masauda
maseeh
maseru
mashhuur
mashuur
masi
masih
masjid
masjida
mask
mason
masque
masquerading
mass
massachusetts
massacre
massey
massimiliano
massimo
mast
master
masters
masts
masturbator
mat
mata
matacawa
matagi
matalab
matale
matamanoa
matar
matbhed
match
matches
mate
matei
mateinaqara
material
materials
maternite
math
mathematical
mathematician
mathematicians
mathematics
mathieu
mathrm
maths
mati
matisse
matlab
matra
matsuo
matsy
matt
matteo
matter
matthew
matthias
matthiassuessen
matti
matuku
mauka
maunten
maureen
maurice
mauritania
mauritius
maurizio
maurya
mausam
mausamee
mausoleum
maut
maveliko
maveshee
mavji
max
maxima
maximilian
maximum
maxwell
may
maya
mayawati
maynard
mayo
mayor
mayors
mayotte
maza
mazandarani
mazar
mazhabi
mazzilli
mb
mbabane
mbe
mboro
mbundu
mcadams
mcavoy
mccarthy
mccarty
mcclintock
mcconaughey
mccoy
mcdonald
mcfarland
mcgill
mcgrath
mcgregor
mckay
mckellen
mckenna
mcllwain
mcshane
md
me
mea
meadow
meal
mean
meaning
means
measles
measure
measurement
measures
meat
mebhaes
mecca
mechanics
mechanism
mechanisms
mechi
mechnikov
medaagaasikaara
medaagaaskar
medal
medallists
medals
medawar
medea
media
median
mediawiki
medical
medici
medicine
medico
medieval
medikal
medina
meditation
mediterranean
medium
medusa
mee
meediya
meel
meen
meet
meetar
meeting
meets
meg
megan
meghalaya
meh
mehar
mehdi
mehta
mei
meighen
meigunyah
meiji
mein
meirelles
meitei
mej
mejabaan
mejabaanee
mejar
mekong
meksiko
mel
mela
melabarn
melancholy
melanesia
melanie
melawa
melbourne
meli
melissa
mello
melo
melody
member
members
membership
membeship
membrane
memeber
memoirs
memorial
memories
memoriyal
memory
men
mende
mending
mendoza
meninas
menon
ment
mental
mention
mer
mera
mercedes
mercer
merchant
mercier
mercury
mere
mereke
merged
meri
meridian
merit
mermaid
merono
mersey
mersin
mesa
mesolithic
mesopotaamiyaa
mesopotamia
messenger
messi
mestizo
met
meta
metabolism
metal
metals
metamorphosed
metamorphoses
metamorphosis
metaxas
meteorological
meteorology
meter
meters
method
methodist
metre
metres
metro
metropolitan
mewar
mexican
mexico
mey
meyar
meyerhof
meyo
mg
mgm
mgogwana
mi
mia
mian
miandad
miatta
mice
michael
miche
michel
michelangelo
michele
micheli
michelle
michigan
mick
mickey
micronesia
microphysical
microwave
mid
middle
middleman
midway
mie
mifune
migrant
migrants
migrate
migration
miguel
miinister
mik
mike
mikhail
mikkelsen
miko
mikosukee
mil
mila
milaa
milaan
milae
milakar
milan
milane
milat
milataa
milate
milawa
mile
milee
mileen
miles
mili
miliaresion
milik
milin
milis
military
miliyan
milk
milking
milky
mill
milla
millennium
miller
millet
milligan
million
millionaire
milne
milo
milstein
milte
milton
mimar
min
minat
mind
mindaanao
minds
mine
mineral
miners
mines
ming
minghella
minh
minhas
mining
minister
ministers
ministr
ministry
minkoff
minnesota
minogue
minor
minorities
minority
minot
minotaure
minsk
minute
minutes
mir
mira
miracle
miravidles
mirbeau
mircha
mirganj
mirko
miro
mirren
mirror
mirrors
mirza
mis
miscellaneous
mishan
mishanaree
mishel
mishigan
mishra
misir
misisipee
misr
misra
miss
mission
missionaries
missionary
missions
mississippi
missouri
mit
mitar
mitchell
mites
mithun
mitieli
mitr
mitra
mittee
mitter
mittha
mitti
mixed
mixture
miyaamee
mizoram
mk
mm
mmange
mmember
mn
mo
moala
mobile
moce
mocelutu
modal
modaling
model
models
modern
modi
mogaadishoo
mogaadishu
mogadishu
moglie
mohali
mohamed
mohammad
mohammed
mohan
mohandas
mohanlal
mohanpur
mohenjo
mohsam
mohun
moidin
moira
moja
mojud
moka
mokaald
moksh
moksha
molana
moldova
molecular
molecule
molecules
molie
moliere
molinero
mollie
molly
moluccas
molybdenum
mom
momaivalu
moment
momordica
mon
mona
monaco
monarch
monarchy
monastery
monazite
monday
monde
monetary
money
mongba
mongol
mongolia
mongolian
mongols
monica
monika
monit
monitor
moniz
monk
monmouth
monmouthshire
monnow
monoclonal
monod
monroe
monrovia
monsoro
monster
monsters
mont
montagnier
montalcini
montale
montana
monte
montenegro
montevideo
montgomerie
montgomery
month
monthly
montseny
montserrat
montsoreau
monu
monument
monuments
monuriki
mool
moon
moonlight
moonlit
moontide
moor
moore
moovament
morais
moral
moran
morarji
more
moreau
moreira
morena
moreno
moresby
morgan
moris
morning
moroccans
morocco
moroni
morphological
morphology
morra
morris
morrison
morse
mort
mortal
morte
morton
mosah
mosaic
moscow
moses
mosese
mosfilm
moshin
mosko
mosque
most
mostly
mota
motar
mother
moti
motilal
motion
moto
motor
motorway
motto
moturiki
moulin
mount
mountain
mountains
mourns
mouse
mouth
move
moved
movement
moves
movie
movies
moving
moy
mozambique
mozart
mozilla
mp
mps
mr
mrityu
mrs
mrtyu
ms
msn
msu
mt
mtr
mu
muaavaja
muanidevo
muaniveni
much
mud
mudaliar
mudde
muddon
mudliar
mudra
mudrika
mudurnu
mueller
mug
mugala
mughal
mughalsarai
mugo
muh
muham
muhammad
muhammed
muimbaji
mujer
mujeres
mujhe
mujibur
mukaabala
mukabla
mukadama
mukadame
mukadma
mukerji
mukesh
mukeshpuri
mukhar
mukherjee
mukhi
mukhy
mukhya
mukhyaalay
mukt
mukti
mul
mulaakaat
mulakat
mulk
muller
mullet
mulroney
multi
multiple
multiplex
multiracial
multitree
mumbai
mummy
mumtaz
mun
mundo
mune
munger
muni
munia
munich
municipal
municipality
muniswamy
muniz
munroe
munshiraam
muntakila
mupnar
muraad
murad
mural
muralitharan
murasaki
murcha
murder
murgi
murphy
murr
murray
murthy
murti
musa
musalamaan
muscat
muscles
muse
museo
museum
museums
mushkil
music
musica
musical
musicale
musician
musicians
musingakon
muskil
muslim
muslima
muslims
mussalman
mussolini
must
mustafa
mustang
mutabik
mutations
mutha
muthu
mutilation
mutiny
mutlah
muttiah
mw
mwaka
mwanzo
mwimbaji
mx
my
myanmar
myself
mysterious
mystery
mystical
myth
mythological
mythology
myzomela
n
na
naa
naadiya
naagarik
naagarikon
naajee
naakaate
naam
naamaankan
naamaankit
naamak
naamit
naana
naani
naapa
naareevaad
naareevaadee
naasa
naatak
naati
naav
nabaro
nabbu
nabi
nabil
nabinagar
nabu
nabua
nacewa
nachdik
nacional
nacula
nadan
nadar
naddi
naddii
nadee
nadera
nadi
nadia
nadiad
nadii
nadira
nadiyon
nadogo
nadroga
nadu
naduna
nae
naee
naeem
nafesha
naff
naga
nagaland
nagar
nagara
nagarapaalika
nagari
nagaro
nagaron
nagarpalika
nagindas
nagpur
naguib
nagyrapolt
nahar
nahi
nahii
nahin
nahuatl
nahwand
nai
naicker
naidu
naika
nailatikau
nailogi
nain
naipaul
nair
nairai
nairobi
naishanal
nait
naitaba
naitasari
naitasiri
najarabandee
naka
nakaaraatmak
nakacia
nakalee
nakama
nakasi
naked
nakelo
nakita
nakosia
nakta
nalawa
naleca
nalinesh
naloto
nalovo
nam
namak
namaka
namalata
namaqa
namata
namaz
name
named
namely
namena
names
namibia
namibian
namm
namoce
namoli
namosau
namosi
namuka
nan
nana
nanak
nananu
nancy
nand
nanda
nandamuri
nandan
nang
nanga
nangi
nangich
nangio
nangona
nans
nanuku
nanuya
naomi
napf
naples
napole
napoleon
naqeleca
narain
naram
narasanhaar
narasimha
narayan
narayani
narbahadur
narci
narcissus
nareish
narendr
narendra
narere
naresia
narewka
nargis
nariyal
narongi
narrative
narrow
nars
narsey
narsing
nasa
nasara
nasau
naseeruddin
nasema
nasha
nasht
nasilai
nasinu
naskh
nasl
naslavaad
nasleey
naso
nasoni
nasorolevu
nasrin
nassau
nasser
nastos
nat
natabua
natak
natal
natalia
natalie
natama
natamastak
natasha
natasiwai
natawa
nateejon
nath
nathan
nathaniel
nathans
natiija
natija
nation
national
nationale
nationalism
nationalist
nationalpost
nations
native
nativity
nato
natova
natrium
natua
natural
nature
naty
nau
naua
naukaree
naukri
naumi
naura
nauru
nausena
nausori
nausorigovind
nautilus
nav
naval
navambar
navami
navanbar
navara
naveekaraneey
naveen
navigation
navin
navinesh
naviti
navoli
navosa
navua
navy
nawa
nawaa
nawabganj
nawada
nawaicoba
nawaka
nawalgarh
nawalu
nawatu
nawaz
nay
naya
nayaa
nayak
nayau
naye
nayi
nazan
nazanin
nazareth
nazhat
nazi
nazim
nazionale
nazir
nazis
nazneen
nb
nbd
nchez
ncipe
nd
ndez
ndhra
ndra
ne
nea
neal
neanderthal
near
nearest
nech
neck
necklace
nee
neecha
neeche
need
needaralaind
needs
neel
neela
neelam
neem
neena
neeson
neeti
neetiyon
neetu
negotiate
negotiations
neher
nehru
neil
neill
nell
nelson
nemani
nemonte
nenquimo
neo
neolithic
neon
nepal
nepali
nepalka
nepalke
nepals
neptune
nero
nerve
nervous
neshan
neshanal
neshans
nest
net
neta
netaji
netani
netaon
netavark
netball
netherlands
netiv
netrebko
netrtv
network
neura
neurologist
neurons
neurotransmitters
neutral
neutron
neutrons
nevada
never
nevil
nevis
new
newcastle
newfoundland
newly
newman
newnham
news
newsom
newspaper
newspapers
newton
newworld
newyork
next
ney
nf
nfd
nfp
ng
nga
ngaleima
nganu
ngareima
ngerulmud
ngu
ngyang
nh
nha
nhat
nhp
ni
nia
nian
nibat
nibha
nibhaane
nibhae
nibhaee
nic
nicaragua
niccolo
nice
niche
nicholas
nick
nickel
nickname
nicky
nico
nicobar
nicola
nicolas
nicolaus
nicole
nicolle
nicosia
nicotine
nideshak
nidhan
nidhi
niels
nieto
nietzsche
nig
nigam
nigama
nigaraanee
niger
nigeria
nigerian
night
nightingale
nightmare
nights
nihit
nihon
nihongo
nija
nijee
nikaal
nikaaraagua
nikaayon
nikal
nikala
nikalane
nikale
nikat
nike
nikelnaty
niketan
nikla
nikle
niko
nikola
nikolaas
nikolai
nil
nile
niloufar
nima
nimak
niman
nimariau
nin
nina
ninda
nine
nineteenth
ningthou
ninka
nino
nintendo
ninth
niobium
nipatane
nippon
nirantar
nirast
nirastreekaran
nirbhar
nirbharata
nirdeshak
nirdeshan
nirdeshit
nirdhaarit
nireekshan
nirenberg
nirma
nirmaan
nirmaata
nirmaataon
nirmal
nirman
nirmata
nirmit
nirnay
niro
nirodh
nirva
nirvaachit
nirvaasan
nirvaasit
nisaan
nisha
nishaan
nishpaksh
nitan
niti
nitin
nitrate
nitric
nitrogen
niue
niulevu
niumaia
nivaas
nivaasee
nivaasiyon
nivas
nive
nivedita
niversitesi
nivesh
nixon
niyam
niyamit
niyantran
niyantrit
niyukt
niza
nizamabad
nkisch
nkrumah
nla
nlup
nm
nn
nne
no
noa
noailles
noam
nobel
nobelprize
nobility
noble
nobleman
noda
node
noe
noeditsection
noel
noemee
noida
noir
nokari
nomadesc
nomenclature
nominae
nominate
nominated
nomination
nominee
nominees
non
none
nongpok
nongshaba
nongthang
nonmetals
noon
noongar
noor
nora
nord
nordic
norfolk
norm
norma
normal
norman
normans
norte
north
northeast
northeastern
northern
northwest
northwestern
norton
norway
norwegian
norwich
nose
nostalgic
not
notable
notas
note
noted
notes
nothing
notice
noticia
noticias
notified
notis
notoc
notre
notte
nouakchott
noume
noun
nourse
nov
nova
novel
novelist
novels
november
novocherkask
now
nowitna
np
nritya
nrty
nskr
nsl
nsw
nt
nter
ntgen
nti
ntshangase
nu
nuclear
nucleic
nucleus
nude
nue
nues
nueva
nugget
nui
nuimaia
nukasaan
nuku
nukualofa
nukulau
numaindgi
number
numbered
numbers
numerical
numerous
numit
nun
nunavut
nur
nurcan
nuremberg
nuristani
nurse
nursing
nus
nutrition
nuva
nuwas
nw
nxuahuolesfhflmdy
ny
nyaay
nyaayaadheesh
nyaayaadheeshon
nyaayaalay
nyaayik
nymph
nyoo
nyooj
nyoojeelaind
nyoonatam
nyooyork
nyregion
nytimes
nz
nzfc
o
oa
oak
oas
oau
obaama
obama
obe
obelisk
oberoi
obituaries
obituary
object
objects
obliqua
observatory
observed
observer
obstetrishiyan
obtain
obtained
obtains
obverse
oc
occasion
occasions
occitan
occupation
occupy
ocean
oceania
oceanian
oceans
och
ochoa
ochopee
ocic
oclc
oct
octave
octavian
october
odalisque
oddi
odessa
odin
odisha
odorant
oe
oecayqag
oedipus
of
ofc
off
offer
offered
officail
office
officer
officers
offices
official
officially
officials
offrande
offset
offshore
oficer
often
og
ogea
ogron
oh
ohio
oi
oil
ois
oise
okalaind
okavango
oklahoma
oksaaka
oksaphord
ol
olampik
old
older
oldest
ole
olea
olfactory
olga
oliba
olive
oliver
olivia
olivier
oller
olosara
olovic
olovnaty
olsen
olto
olympian
olympians
olympic
olympics
olympus
om
oman
omar
ombudsman
omelette
omelettes
omer
on
onalain
onar
once
one
oneata
onepage
online
only
ono
ontario
oo
oopar
oorja
op
opan
opareshan
opec
open
opened
opener
opening
opera
operas
operate
operating
operation
operations
operator
oph
opinion
opp
opponent
opportunities
opposed
opposite
opposition
optics
or
ora
oral
oraliyans
orange
orbit
orchard
orchestra
orchid
ordar
order
ordinance
ordinary
ore
org
organ
organaijeshan
organic
organisation
organisations
organise
organism
organist
organization
organizations
organized
organizer
organs
ori
oriental
orientation
origin
original
originally
orisi
orissa
oriya
orleans
orthodox
orthography
ortiz
os
osaka
osborne
osbourne
oscar
oscars
osceola
osea
oskar
osmium
ossification
ossiyola
ostin
ostreliya
ostreliyaee
ostreliyan
osturiyas
oswald
ota
otago
other
others
otis
otna
otorhinological
ottawa
otto
ottoman
ou
ouagadougou
our
out
outclasses
outdoor
outer
outlet
outline
outlying
outre
outside
outstanding
ovalau
over
overall
overcome
overcomes
overpowering
overs
overseas
overseer
overthrow
overview
ovid
ovidius
ovini
owen
owl
own
owned
owner
owners
ox
oxford
oxid
oxidation
oxide
oxidizing
oxygen
oz
ozfootball
p
pa
paadaree
paae
paai
paain
paais
paakistaan
paal
paala
paalan
paale
paan
paanch
paancho
paanchwa
paane
paanee
paani
paapua
paar
paaramparik
paaristhitik
paaristhitikee
paarit
paarivaarik
paark
paarshad
paartee
paas
paaso
paasta
paath
paathyakram
paathyakramon
paatr
paavalov
paavar
paawa
paawat
paawe
paaya
paayaa
paaz
pablik
pablo
pace
pachaas
pachchhim
pachethar
pachhiari
pachhim
pachim
pacific
packing
pad
pada
padaarthon
padak
padarath
padasth
padata
pade
padh
padha
padhaana
padhaate
padhaaya
padhaee
padhai
padhane
padhri
padma
pados
padre
padri
padta
padukone
pae
paeda
paedaa
paemaane
pagan
page
pages
pagoda
paha
pahaar
pahaarr
pahachaan
pahachaana
pahal
pahala
pahale
pahalee
pahar
pahara
pahari
paharr
pahela
pahila
pahile
pahine
pahiya
pahla
pahle
pahli
pahuch
pahucha
pahuche
pahuchin
pahuchis
pahuja
pahunch
pahuncha
pahunchaa
pahunchaata
pahunchane
pahunche
pahunchee
pahunchis
paichl
paid
paida
paidal
paidar
paige
paile
paimaane
pain
painal
paine
pains
paint
painted
painter
painters
painthar
painting
paintings
paipalain
pair
paira
pairavee
pairol
pairon
paisa
paise
paisiphik
paitrk
pak
paka
pakadane
pakarr
pakhangba
pakhna
paki
pakistan
pakistani
pakka
pakki
pakpattan
pakrre
pakuranga
pal
pala
palace
palacio
palade
palais
palast
palat
palau
palazzo
pale
palee
paleolithic
palestine
palestinian
palestrina
palette
palika
palkia
palladio
palladium
palm
palma
palmer
palmiers
palmyra
palte
paltrow
palwaar
palwar
pama
pamela
pamoja
pan
pana
panafrican
panafril
panaji
panam
panama
panch
panchali
panchayat
panchi
panchkula
pandemic
pandey
pandit
panditji
pandrah
pandu
pandya
panel
pani
panjaab
panjab
panjabi
panjeekrt
panjim
panna
panne
pannu
panorama
panoramas
panoramic
panoramio
panthera
panthoibi
panu
pao
paola
paolo
papanikolaou
papeete
paper
papilio
papilloma
papillon
papua
papuan
par
para
paraaguaayan
paraagve
paraamarsh
paraasnaatak
parade
paradise
paraffin
paraguay
paralysis
param
paramaanu
paramahans
paramaribo
paramhansa
parampara
paranoia
paranoiac
parantu
parasi
paratroopers
paravarish
pardesh
pardhaan
pardhan
pare
pareekshan
parekh
parents
paresh
pareshaan
parhae
parhai
parhat
pari
parichay
parichit
parin
parinaam
parinaamasvaroop
parinaamon
paripakv
paris
parisangh
parisar
parisara
parish
parishad
paristhitiyon
parivaar
parivaaron
parivahan
parivar
parivartan
pariyojana
pariyojanaon
park
parker
parkkris
parks
parl
parliament
parliamentarian
parliamentarians
parliamentary
parma
parmaanu
parmanand
parmanandam
parmukh
parnassius
parnitha
parr
parra
parraa
parrat
parre
parrha
parrhae
parrhaes
parrhai
parrhais
parrhat
parrhawa
parrhe
parrhis
parrho
parri
parris
parrosi
parrot
parry
parsa
parsawan
part
parta
parth
parthenon
partially
participation
particle
particles
parties
partition
partner
parts
party
parvat
parveen
paryaapt
paryaavaran
paryaavaranavid
paryaavaranavidon
paryaavaraneey
paryatan
paryavekshak
paryavekshakon
pas
pasand
pascale
paschim
pascua
pashchim
pashchimanchal
pashchimee
pashto
pashtun
pashu
pashupaalan
pass
passage
passed
passenger
passengers
passes
passion
passive
passport
past
pat
pata
pataa
pataal
patagonia
patan
patel
patent
patents
path
patha
pathak
pathan
pather
pathhar
pathik
pathshala
pati
patiala
patient
patio
patna
patnee
patni
patr
patra
patraa
patrakaar
patrakaarita
patrakaaritaa
patras
patricia
patrick
patrika
patron
patta
patte
pattern
patterns
patterson
patthar
patthara
patti
pau
paudha
paul
paula
pauli
pauliasi
pauline
paulinia
paulo
pauni
pavitr
pavitrataa
pavlov
paw
pawa
pawar
paxton
paya
payne
pays
paysage
paz
pb
pbo
pbs
pca
pd
pdf
pdfhttp
pdfhttps
pe
peace
peaceful
peak
peaks
peanuts
pearce
pearl
pearson
pecl
ped
peda
pedon
pedro
peechha
peechhe
peeda
peedhee
peedhi
peedhiyon
peedit
peediton
peeechadee
peel
peepal
peepals
peepuls
peer
pees
peet
peeta
peetar
peetarsabarg
peeth
pegged
peggy
pehla
pehle
pehli
pehnati
peisa
pek
peking
pellet
pen
pena
penaia
penality
penalty
penang
penaty
pencil
pene
penguin
penh
peni
peniame
peniasi
penicillin
peninsula
penn
pennsylvania
penny
pentagonal
pentandra
people
peoples
pep
pepper
peptic
peptide
per
peralta
percent
percussion
percy
pere
perez
perform
performance
performing
perfume
pericles
period
periodic
peris
perkins
perlman
permanent
permanently
pernambuco
peron
peronist
peroo
perpignan
perr
perry
perseus
persia
persian
persians
persistence
person
personal
personality
persons
perspective
perth
peru
perugino
perumal
pesh
pesha
peshakash
peshawar
peshe
peshevar
peshevaron
pesident
peso
pest
pet
pete
peter
petero
peters
petersburg
petersen
peterson
petit
petition
petreesiya
petrograd
petroleum
petroliyam
petrovich
peyton
pez
pfeiffer
pfennig
pg
ph
pha
phaiktree
phaila
phailane
phailoship
phaimilee
phairo
phaisala
phaisale
phaishan
phal
phand
phanding
phane
phanee
phantom
pharaansisi
pharavaree
pharmacist
pharsee
pharsh
pharst
phasal
phasalon
phase
phassee
phaundeshan
phd
phe
phedareshan
pheeld
phelo
pheloship
pheminist
phenkane
phenomenon
pheraaree
phestival
pheth
phethaphul
phi
phijee
phil
phila
philadelphia
philandras
phileepeen
phileepeens
philip
philippe
philippine
philippines
philisteen
philisteenee
phillip
phillips
philm
philma
philmen
philmon
philosaphee
philosopher
philosophers
philosophical
philosophies
philosophy
phir
phitanes
phitzaroy
phle
phlik
phlorez
phlorida
phnom
pho
phoenicians
phoenix
phoks
phon
phone
phonology
phonseka
phool
phor
phoram
phosphate
phosphene
phosphorus
phosphorylation
photo
photograaphar
photograph
photographer
photographs
photography
photons
photos
phou
phouningthou
phouoibi
php
phphttps
phraans
phraanseesee
phraansis
phraansisko
phraink
phransi
phrant
phrase
phrasebook
phrases
phree
phreestail
phrejar
phrench
phulpur
phyllis
phyoochar
physical
physician
physicist
physicists
physics
pi
pia
piae
piaf
pianist
piano
pias
piazza
picasso
pichchhe
piche
pichhale
pichhalee
pichhe
pichhla
pichhle
pichla
pichola
pick
pickering
pickers
pico
picture
pictures
pid
pidit
pie
piece
pieces
pied
pierce
pierluigi
pierpoint
pierre
pierrot
pieta
pieter
pietro
pigeon
piit
piitin
pila
pilabaara
pile
pilgrim
pilgrimage
pilgrims
pilla
pillai
pillar
pillay
pilot
pim
pimp
pin
pinacoteca
pinakothek
pine
pink
pinkard
pinto
pinus
pinyin
pioneer
pipe
pipeline
piper
pipra
pips
pirates
pirthu
pita
pitaa
pitaji
pitcairn
pitch
pitt
pitti
pittsburgh
pituitary
pitxot
piu
piyar
piye
piz
pl
pla
plaaja
plaastik
plaata
place
places
placido
plague
plain
plains
plan
planation
planck
plane
planet
planets
planning
plant
plantation
planter
planters
planting
plants
plaque
plasma
plastic
plata
plate
plateau
platform
platinum
plato
platoon
platt
platz
play
playa
playback
played
player
players
playing
playoff
plays
playwright
plaza
ple
pleasures
ples
plexippus
plot
plotdata
plural
plus
pluto
plutonium
plymouth
pm
png
po
poal
podcast
pods
poe
poehler
poem
poems
poet
poetry
poets
point
points
poireiton
poires
poison
poke
pokeemon
pokemon
pokpa
pol
polaind
poland
polanski
polar
pole
poles
poli
police
policy
poliomyelitis
polis
polish
politakovaskaaya
politica
political
politically
politician
politicians
politics
politikal
politiks
polizia
poll
polling
pollution
polo
polonium
polska
poltician
polycrystalline
polynesia
polynesian
polytheism
polytheistic
pom
pomegranate
pomelo
pomme
pondicherry
pont
poochha
poochhataachh
pooja
pool
pools
poon
poonah
poonam
poor
poora
poore
pooree
poornakaalik
poorv
poorvee
poorvottar
pop
pope
popular
populated
population
por
port
portal
portdogue
portej
porter
portfolio
porto
portrait
portraits
portsmouth
portugal
portuguese
pose
poseci
poshan
poshit
posiano
position
positions
positive
possession
possible
possibly
post
postage
postal
postcard
poster
posthumously
postponed
pot
potaa
potash
potassium
potato
pote
potter
pottery
pound
pounds
pour
pouranik
poverty
powder
powell
power
powerful
powers
poyla
pp
pr
pra
praacheen
praachin
praachinatam
praakrtik
praan
praant
praanteey
praapt
praaptakarta
praapti
praarambhik
praarthana
praathamik
prabal
prabandh
prabandhak
prabandhan
prabandhit
prabha
prabhaav
prabhaavashaalee
prabhaavee
prabhaavit
prabhaavon
prabhakaran
prabhat
prabhu
prabhudas
prabhutv
praca
prachaar
prachaarak
prachalit
pracheen
prachin
practice
prada
pradaan
pradarshan
pradarshanakaariyon
pradarshanee
pradarshaniyon
pradarshanon
pradarshit
prade
pradeep
prades
pradesh
pradhaan
pradhan
pradhuman
pradip
prado
pradooshan
prague
praia
praiktis
praimaree
praise
prajaati
prajaatiyon
prajanan
prakaar
prakaash
prakaashan
prakaashanon
prakaashit
prakar
prakash
prakat
prakriya
prakriyaon
prakrti
pramaan
pramaanapatr
pramesh
pramod
pramoshan
pramukh
pramukha
pran
pranaalee
pranaali
pranay
pranesh
pranil
prant
prapt
prarambh
pras
prasaar
prasaarak
prasaaran
prasaarit
prasad
praseodymium
prashaant
prashaasan
prashansa
prashast
prashikshak
prashikshan
prashikshit
prashn
prasid
prasiddh
prasidh
prasooti
prastaav
prastaavit
prastao
prasthao
prastithi
prastut
prat
prataadit
pratap
prateek
pratha
pratham
prathama
prathao
prathaon
prati
pratibaddh
pratibaddhata
pratibandh
pratibha
pratidwandi
pratiik
pratikriya
pratikriyaon
pratinidhi
pratinidhimandal
pratinidhitv
pratinidhiyon
pratirodh
pratishat
pratishodh
pratishthit
pratiyaan
pratiyogita
pratyaksh
pratye
pratyek
prau
praudyo
praudyogikee
pravaasan
pravaasee
pravachan
pravakta
pravesh
pravin
pray
prayaas
prayaason
prayer
praying
prayo
prayog
prayukt
prayukta
prc
pre
preacher
preceding
predator
predella
preemiyar
preity
preliminary
prem
premature
premiazione
premier
premio
premises
premonition
preparatory
prepared
prerak
prerana
prerit
pres
presbiteriyan
present
presentation
presentations
presented
presenting
preservation
preserve
presidency
president
presidente
presidential
presidents
presley
press
presso
pressure
preston
pretoria
prevalence
previous
previously
preyaree
pri
price
pride
priest
prim
primary
prime
prince
princely
princess
principal
principe
prins
print
printed
printer
printing
prions
prior
priscilla
prison
prisoner
prisoners
prisons
pritchard
pritesh
prithvi
private
privileges
prix
priyanka
prize
prizes
prk
pro
probe
problem
problems
proc
proceedings
process
processing
prodigal
produce
produced
producer
product
production
productivity
products
professional
professionals
professor
profil
profile
profiles
profit
prograam
program
programme
programmed
programmes
programs
progress
progressive
project
projects
projekt
proktar
promethium
promise
promote
promotion
pronounced
prontosil
pronunciation
proper
properties
property
prophesar
prophet
proportion
propos
prose
prosecution
prosecutions
prosperity
prostaglandins
prostatic
prostituta
protagonista
protection
protector
protectorate
protein
proteins
protest
protestant
protestantism
protestants
protokol
proton
protons
protozoa
protsaahit
proud
provide
provided
providence
provides
province
provinces
provincial
provisionally
prudential
prusiner
prussia
prussian
psychoanalysis
psychologist
psychology
pt
pta
ptarmigan
pu
pub
public
publication
publications
publicity
publique
publish
published
publisher
publishing
publius
pubol
puccini
puducherry
puebla
pueblo
puerta
puerto
puja
pujaa
pul
pulis
pulisa
pulp
pulsatilla
puna
punaragaman
punarchakran
punargathan
punarvaas
punch
pune
punja
punjab
punjabi
punji
punt
punta
puntata
pur
pura
puraa
puraan
puraana
puraanan
puraane
puraani
puraanon
puraatan
purab
purana
puranas
purane
purani
puraska
puraskaar
puraskaaron
puraskar
purav
purba
purcell
pure
pureiromba
puri
purna
purnia
purohit
purple
purpose
purposes
purus
purush
purushon
purv
purvanchal
purvi
purwaj
pushkar
pushkin
pushti
pusi
pustak
pustaka
pustakaalay
pustaken
pustakon
put
putaji
putin
putnam
putonghua
putr
putra
putri
puts
puura
puya
puyo
puzzle
puławy
pvaint
px
py
pya
pyaar
pyar
pylori
pyo
pyoorto
pyotr
pyramid
pyramids
pyre
pytor
q
qadian
qaem
qalitu
qamea
qanoon
qaqa
qarardad
qarase
qarz
qatar
qatari
qaumi
qb
qeleloa
qi
qian
qibla
qin
qing
qoli
qu
quaid
qualification
qualified
qualifier
qualify
qualifying
quang
quantum
quarantine
quark
quarter
quarters
quarto
que
quebec
quechua
queen
queens
queensland
quentin
quest
question
questions
qui
quick
quietly
quinarius
quinn
quito
quixote
quiz
quo
quote
quotes
quran
r
ra
raa
raaj
raaja
raajadhaanee
raajadoot
raajanaetik
raajanayik
raajaneeti
raajaneetigy
raajaneetik
raajaneta
raajasthaan
raajasv
raajdhaani
raaji
raajy
raajyon
raakhee
raamakrishn
raamirez
raanee
raashtr
raashtrabhakt
raashtramandal
raashtrapati
raashtreey
raashtriy
raasta
raaste
raat
raatoo
raay
rabat
rabbit
rabi
rabies
rabindranath
rabobank
rabuka
rabulu
race
races
rachael
rachel
racial
racine
racing
racism
radcliffe
radd
radiation
radical
radike
radio
radioactive
radioactivity
radioimmunoassays
radium
radnitz
radon
radrodro
rae
rafael
raffael
raffaello
rafi
rafiganj
rafiq
raft
raftaar
ragata
ragazzi
ragho
raghu
raghubar
raghunath
raghunathpur
raghwan
ragnar
rah
raha
rahaa
rahaaa
rahaainternational
rahan
rahane
rahat
rahata
rahate
rahatee
rahe
rahee
raheen
rahen
rahene
rahha
rahi
rahii
rahiis
rahima
rahin
rahis
rahiss
rahm
rahman
rahmat
rahne
raht
rahtaa
rahte
rahul
rai
raids
rail
railway
railways
raimi
raimundus
rain
rainey
rainforest
rains
rainy
raipur
raised
raits
raj
raja
rajan
rajar
rajaram
rajaratnam
rajas
rajasthan
rajdhani
rajendra
rajendraprasad
rajesh
rajeshwar
rajgarh
rajiv
rajneel
rajneesh
rajnesh
rajniti
rajput
rajputs
raju
rajya
rakam
rakesh
rakh
rakha
rakhaa
rakhane
rakharakhaav
rakhata
rakhate
rakhatee
rakhe
rakhee
rakhis
rakhna
rakhne
rakiraki
rakkha
rakkhaa
rakkhat
rakkhe
rakkhin
rakkhis
rakm
rakova
raksha
rakshak
rakshakon
rale
ralph
ralulu
ram
rama
ramachandran
ramakrishna
raman
ramayana
rambha
rambhadracharya
rambhadradas
rambisheswar
ramchandar
ramcharitmanas
ramendra
ramgoolam
rami
ramji
ramlu
ramo
ramon
ramosaea
ramphal
rampur
ramrakha
ramsay
ramzan
ran
rana
rananeeti
ranbanka
ranchi
rand
randall
randhir
randomdot
randy
rang
ranga
rangabhed
range
ranges
rani
raniga
ranitu
ranjit
rank
ranked
ranunculus
rao
raoul
rapa
rape
raphael
raphaelesque
rapid
rapper
rapti
rara
rarawai
rare
rarotonga
ras
rasa
rasaayan
rashid
rashtra
rashtrapati
rasiga
rasmus
raspberry
rassee
rast
rasta
rastriya
rat
rata
ratan
rate
rated
rather
rathod
rati
ratio
ration
rations
ratna
ratnam
ratu
ratuva
ravaanaa
ravaanda
ravana
ravi
ravikesh
ravindra
ravinesh
raviravi
ravosai
ravuama
rawadamu
rawal
rawaqa
ray
raymond
rays
razack
razafimanahaka
razi
rb
rc
rd
re
reach
reached
react
reaction
reactions
reactive
read
reading
readings
reads
ready
reagan
real
reali
realist
reality
really
rear
reason
reasons
rebecca
rebel
rebellion
rebuilding
rec
received
receives
receiving
recent
recently
receptors
recipients
reclining
recognise
recognised
recognition
recognized
recommend
recommended
reconstructed
reconstruction
record
recorded
recordings
records
recruit
recruiting
red
reddy
redgrave
redikal
rediyo
reed
reef
reema
reena
reese
reeves
ref
referee
reference
references
refers
refinery
refining
reflect
reflected
reflecting
reflection
reflections
reform
reformation
refraction
refree
refuge
refugee
refusal
refuse
refused
reg
regatta
regia
regime
regiment
region
regional
regions
register
registered
registrar
registration
regular
reh
rehman
rehmat
rehne
rehta
rehte
rehti
reich
reichstag
reichstein
reid
reilly
reine
reiner
reintegrationist
reitherman
reject
rekh
rekha
related
relations
relationship
relativity
relave
release
released
releases
relegation
relief
religion
religions
religious
remain
remaining
rembrandt
remedia
remember
remorse
ren
rena
renaissance
renamed
renata
renato
renaud
renbas
rene
renee
renfrewshire
renfro
rengi
rengu
renj
renner
renny
reno
renowned
rentkammersekreta
rep
repapis
repeat
repesentatives
replace
replaced
report
reports
repository
represent
representation
representative
representatives
represented
representing
reproduce
reproduction
repu
republic
republican
republics
republika
requiem
required
requires
requisition
rer
res
rescue
research
researcher
reserve
reserved
reservoir
reside
residence
resident
resign
resigned
resistance
resolution
resonance
resort
resorts
resource
resources
respiratory
responsibility
responsible
rest
restales
restaurant
restaurants
restoration
restored
restriction
result
resulted
results
resurrection
retains
retire
retired
retirement
retrato
retrieved
retrospective
return
returned
returning
reubeuss
reunion
reuters
rev
revenue
reverend
reverse
reversible
review
reviews
revised
revision
revive
revolt
revolution
revolutionary
revolutionibus
rewa
rex
reyes
reynolds
rez
reza
rferl
rfmf
rg
rga
rgb
rgyi
rh
rha
rhaa
rhae
rhe
rhead
rhenium
rhesus
rhi
rhine
rhinoceros
rhinocerotic
rhode
rhodes
rhodium
rhododendron
rhone
rhythm
ri
riba
ribandar
ribonucleic
ric
rica
ricardo
riccardo
rice
rich
richard
richards
richardson
richet
richie
richman
rick
rickman
ricky
rico
ride
rides
riding
ridley
rie
rifle
rift
right
rights
riha
rihaee
rijarv
rijarveshan
rijn
rika
rikord
rikt
rileez
riley
rin
rinal
ring
rings
ringwald
rio
riot
riots
ripablik
ripoll
riport
riportar
riporting
riporton
risarch
rise
rises
risheel
rishi
rishikesh
rishikul
rishte
rishtedaaron
rising
risk
riste
rita
rite
ritendra
ritesh
ritter
rivar
riven
river
rivera
rivers
riya
riyal
riyo
riyos
rk
rkc
rma
rn
rna
ro
road
roadways
roald
roasted
rob
robart
robb
robbie
robbins
robert
roberto
roberts
robertson
robin
robinsan
robinson
robot
robotics
robots
robson
rocco
rock
rockefeller
rocket
rocks
rocky
rod
rodbell
roderick
rodney
rodri
rodrigo
rodrigues
rodriguez
rodu
roe
rog
rogen
roger
rogers
rohit
rohitendra
rohtak
roi
roj
rojagaar
rok
roka
rokane
rokathaam
roke
rokis
roko
rokobulou
rokotakala
rol
roland
role
rolf
roll
roller
rolls
roma
romaaniya
romain
roman
romance
romani
romania
romanian
romanization
romans
romansh
romantic
romanus
rome
romeo
ron
ronald
ronaldo
ronan
roneel
ronil
rooben
rookh
room
rooms
rooney
roop
roopon
roos
roosee
roosevelt
root
rooth
roots
rop
rope
rosa
rosaariyo
rosalyn
rosario
rosas
rose
rosenthal
roses
rosetta
roshan
roskill
ross
rossana
rossella
rossi
rosy
roth
rothko
roti
rotterdam
rotuma
rotuman
rouge
round
rounds
rous
rousseau
route
routh
routledge
row
rowley
roxy
roy
royal
roychoudhury
roz
rquez
rr
rs
rt
rta
rthika
rttemberg
ru
rubber
ruben
rubens
rubidium
rubinstein
ruby
ruchi
rudd
rudolf
rudolph
rudrananda
rudy
rue
ruffalo
rugby
ruin
ruins
ruiz
rukawat
ruke
rukh
rulahaku
rule
ruled
ruler
rules
rum
rumeru
run
runner
runners
running
runs
ruolo
rup
rupee
rupeni
rupicapra
rural
rush
rusiate
russ
russel
russell
russi
russia
russian
ruth
ruthenium
rutherford
ruup
ruy
rva
rwanda
rya
ryan
ryberg
ryder
ryu
s
sa
saaal
saaathe
saab
saadhanaa
saadharan
saadi
saagar
saahas
saahel
saahity
saahitya
saahityik
saait
saajha
saajhedaaree
saakshaatkaar
saaksharata
saakshy
saal
saamaajik
saamaany
saamagree
saamana
saamane
saamna
saamne
saamoohik
saamp
saamraajy
saamudaayik
saanskrtik
saanta
saantaakrooj
saaph
saaptaahik
saara
saare
saari
saarvajanik
saat
saatci
saath
saathe
saathee
saathi
saathiyon
sab
sabarte
sabase
sabd
sabere
sabeto
sabha
sabhee
sabhi
sabhyata
sabmaribe
saboot
sabramati
sabse
sabutu
saccharum
sacchi
sach
sachchaa
sachin
sachiv
sachivaalay
sack
sacos
sacrament
sacred
sacrifice
sad
sada
sadaa
sadak
sadakon
sadanand
sadasiwan
sadasy
sadasya
sadasyon
sadat
sadee
sadgati
sadharan
sadhu
sadi
sadiq
sadr
saeed
safaa
safal
safalta
safaltaa
safe
safeed
safok
sagar
sagarmatha
sagnak
sah
saha
sahaayak
sahaayata
sahadeo
sahaj
sahakaaree
sahamat
sahamati
sahan
sahar
sahara
saharan
saharsa
sahayog
sahayogee
sahayogi
sahayogiyon
sahe
saheb
saheli
sahi
sahib
sahim
sahit
sahitya
sahu
sai
said
saidpur
saif
saikadon
saikil
sail
sailing
sailor
sailosi
saiman
saimata
saimoni
sain
saina
sainikon
sains
saint
sainte
saints
sainy
sair
saira
sairusi
sait
saja
sajaa
saka
sakaa
sakaaraatmak
sakama
sakat
sakata
sakataa
sakate
sakatee
sakati
sakatin
sake
sakhaarov
sakharov
saki
sakin
sakis
sakiusa
sakmann
sakriy
sakriyata
sakriyataavaad
saksham
sakta
sakte
sakutaro
sal
sala
salaah
salaahakaar
salaam
salaaphee
saladin
salah
salailen
salas
saldana
sale
salem
salendra
sales
salesh
salim
salisbury
sally
salman
salmon
salochna
salt
saltanat
saltanata
saltimbanques
salvador
salzburg
sam
sama
samaachaar
samaadhaan
samaadhi
samaaj
samaaja
samaajashaastr
samaajashaastree
samaajon
samaan
samaanata
samaapt
samaaroh
samaaveshee
samabula
samad
samadon
samagr
samaj
samajh
samajhane
samajhauta
samajhaute
samajhauton
samaji
samakaaleen
samaksh
saman
samana
samantha
samanvay
samanvayak
samar
samarpit
samarthak
samarthakon
samarthan
samarthit
samasya
samasyaon
samay
samaya
sambaddh
samband
sambandh
sambandhee
sambandhi
sambandhit
sambandhon
sambhaalane
sambhav
sambodhit
same
sameeksha
sameer
sami
samindasr
samir
samit
samiti
samitiyon
samj
samjhaes
samjhauta
samjhe
sammaan
sammaanajanak
sammaanit
sammanit
sammelan
samoa
samoan
samooh
samoohon
sampaadak
sampaadan
sampaadit
sampada
sampadak
sampann
sampark
sampatti
sample
samrajya
samridhi
samson
samthar
samudaay
samudaayon
samudr
samudra
samudree
samuel
samuela
samuelsson
samundar
samurai
samy
san
sana
sanaatan
sanada
sanadhya
sanaila
sanamahi
sanamahism
sanatan
sanatani
sanath
sanbandh
sanchaalan
sanchaalit
sanchaar
sand
sandalwood
sandarbh
sandarbhit
sandarm
sandeep
sandeh
sanders
sandesh
sandharb
sandharbh
sandharv
sandhi
sandra
sandrine
sandwich
sang
sangakkara
sangam
sangathan
sangathanon
sangathit
sangeet
sangh
sangharsh
sangharshon
sanghe
sangheey
sangola
sangrah
sangrahaalay
sanhita
sanichar
sanjay
sanjeet
sanjeev
sanjha
sanjit
sankaay
sankalp
sankat
sankatagrast
sanket
sankhya
sankhyaa
sankriti
sankshep
sankshipt
sankulan
sanmarga
sannyaas
sanrachana
sanrakshak
sanrakshan
sanrakshanavaadee
sanrakshit
sans
sansa
sansaadhan
sansaadhanon
sansaar
sansad
sansar
sanshodhan
sanskaar
sanskr
sanskrit
sanskriti
sanskrti
sanstha
sansthaagat
sansthaan
sansthaanon
sansthaapak
sansthaapakon
sansthan
sant
santa
santaan
santamouris
santhia
santi
santiago
santo
santos
santulan
sanvaad
sanvaidhaanik
sanvedanasheel
sanvidhaan
sanyasi
sanyukt
sanzio
sao
saoodee
sapane
sapat
saphaee
saphal
saphalata
saphalataapoorvak
saphed
sapiens
sapna
saptaah
sar
sara
sarah
saraiki
saraikistan
sarajevo
saraka
sarakaar
sarakaaree
sarakaaron
sarakr
saral
saramago
saran
sarasvati
saraswati
saray
sarayaakoo
sardana
sardar
sardiha
sardinia
sardinian
sardou
sare
sareem
sari
sarir
sarita
sarjan
sarkaar
sarkar
sarkari
sarkon
sarojini
sarsgaard
sartre
sarv
sarva
sarvapratham
sarvas
sarvashreshth
sarvis
sarvochch
sasha
sashakt
sashastr
sashi
saskia
sat
satat
sateepo
satellite
satendra
sath
satha
sathe
sathi
satirical
satish
satlesh
satrah
satta
sattar
saturday
saturn
saty
satya
satyajit
satyanand
satyanarayana
satyendra
sau
saud
saudi
saukuru
saul
saundary
saunders
saur
saurashtra
sauth
savaaree
savage
savasava
savdarbh
save
savenaca
saves
saving
savusavu
saw
sawa
sawaal
sawani
saweni
say
sayed
saying
says
sb
sbs
sc
scale
scandinavia
scandium
scar
scarabelli
scarlet
scene
scenery
schack
schally
scheme
schilling
schmidt
schneider
scholar
scholars
scholarship
school
schools
schopenhauer
schro
schubert
schwarzenegger
science
sciences
scientific
scientist
scientists
scilly
score
scored
scorer
scores
scorsese
scotland
scotlandspeople
scots
scott
scottish
scout
scouts
scrap
scrapped
screen
screenplay
screw
script
sculptor
sculpture
sculptures
scuola
sdl
se
sea
seal
seals
sean
seaport
seapro
seaqaqa
search
searchwithinvolume
sears
seas
season
seasons
seat
seated
seats
sebastia
sebastian
seben
secade
second
secondary
secret
secretariat
secretary
secrets
section
sections
sector
secular
security
see
seebeees
seed
seedhe
seeds
seeeeo
seeesaeeaaro
seekha
seekhana
seekhane
seema
seemabaddha
seemit
seen
seenet
seenetar
seereez
sees
seet
seewoosagur
seezeriyan
segel
seh
sei
seimata
sej
seks
sekshan
sel
selassie
select
selected
selection
selector
seleeta
selena
selenide
selenium
self
selia
seliya
sell
sellers
selling
selman
selznick
semesa
semi
semiconductors
semifinal
semifinals
semimetal
semimetals
semis
semitic
semra
sen
sena
senaanee
senate
senator
senators
sends
senegal
senibuli
senior
senna
sense
sent
sentar
sentence
sentences
sentral
senza
seoni
seoul
sep
separate
separated
separatists
sepiyotyoothis
september
sequence
ser
serampore
serbia
serbian
serbo
serbs
sergio
seri
serial
serie
series
serpent
serratus
seru
serua
serum
servant
servants
serve
served
serves
service
services
sesotho
session
sestertius
set
seth
seti
setsuko
settled
settlement
settlements
settler
settlers
seule
seung
seva
sevaa
sevaarat
sevaen
sevak
sevaon
sevastopol
seveci
seven
sevens
seventh
seventy
several
severe
severn
severo
seville
sevuloni
sewa
sewak
sewing
sex
sexual
sey
seychelles
seymour
sfkizr
sh
sha
shaabdik
shaadee
shaadi
shaakha
shaamil
shaanti
shaareerik
shaarlot
shaasak
shaasan
shaasit
shaayad
shabana
shabd
shabdon
shabi
shadow
shadows
shaeli
shah
shahanshah
shahar
shaharee
shahari
shaharon
shaheed
shaheedi
shahmukhi
shahpur
shahr
shahrukh
shaikshik
shailene
shakespeare
shakespearean
shakib
shakti
shakuntala
shalen
shalesh
shall
shamal
shameel
shameem
shami
shamil
shamima
shamiti
shamshad
shamshernagar
shamshud
shan
shanghae
shanghai
shanghainese
shankar
shankbone
shannon
shantanu
shanti
shape
shaped
shapes
sharam
sharan
sharanaarthee
sharanaarthiyon
sharda
shardha
share
shareer
sharif
sharm
sharma
sharmila
sharon
sharp
sharpe
sharq
shart
sharton
shashi
shastri
shataabdee
shatranj
shatrughan
shaukat
shav
shaw
shawkat
shawn
she
sheep
sheersh
sheershak
sheet
shehar
shehr
sheik
sheikh
sheil
shek
shekh
shelf
shell
shelly
shelvin
shepard
sheph
shepherd
sher
sheridan
sherkot
sherman
sherrington
shesh
sheshadri
shetra
shi
shia
shield
shift
shikaago
shikaar
shikaayat
shikhar
shikhara
shikibu
shiksha
shikshaa
shikshak
shikshakon
shikshika
shikshit
shilling
shillong
shilp
shimla
shine
shines
shining
shinto
ship
shipht
shipping
ships
shire
shirley
shiromaniam
shirov
shirt
shishy
shiu
shiv
shiva
shivam
shivir
shiviron
shivlal
shivpuri
shlokon
sho
shoals
shodh
shodhakarta
shoe
shoes
shok
shonal
shoony
shoot
shooting
shop
shopping
shops
shore
shoreline
short
shorts
shoshan
shot
should
shoulder
show
showalter
shower
showing
shown
shows
shraddhaanand
shraddhaananda
shraddhaanjali
shraddhanand
shram
shramik
shramikon
shree
shrenee
shrew
shrey
shreyas
shri
shridath
shrine
shriraamakrishn
shroff
shrrnkhala
shtmlhttp
shtmlhttps
shu
shuddh
shuddhi
shuddhikaran
shudh
shulk
shunli
shurat
shuroo
shuru
shuruaat
shuruaatee
shuruwat
shvet
shyor
si
siam
siberia
sibil
siblings
sicilia
sicily
sick
sid
sida
sidabi
sidanee
siddha
siddhaant
siddharth
siddiq
side
sided
sidenastrikar
sidiq
sidney
siege
siegen
siemens
siena
siera
sierra
siga
sigatoka
sight
sigmund
sign
signal
signalling
signals
signature
signed
significant
significantly
signing
signs
sigourney
sik
sika
sikah
sikandara
sikar
sikawee
sikchha
sikchhaa
sikchhak
sikeli
sikh
sikhawa
sikhe
sikhin
sikhis
sikhism
sikhs
sikkim
sikri
siksha
sikti
sil
silence
silent
silesian
siletee
silhouette
silicon
siligo
siliqua
silizium
silsaly
silva
silver
sima
simana
simione
simla
simmons
simo
simon
simone
simple
simplified
simpson
simra
simri
sims
sin
sina
sinan
sinatra
since
sind
sindh
sindhi
sindhu
sindhuli
sindoni
sinensis
sing
singa
singapore
singe
singer
singh
singing
single
singles
singular
singularities
sinh
sinha
sinhala
sinhalese
sinoussi
sinus
sio
sioux
sipahi
siphon
siprage
sir
sirf
siri
sirikan
sirimavo
siris
sirsia
sisal
sistam
sistars
sister
sisters
sistine
sit
sita
sitamarhi
sitambar
site
sitee
sites
sitiveni
sitting
situated
situation
sivika
sivil
siwan
six
sixth
sixto
sixty
size
sk
skarsga
skeleton
sketch
ski
skill
skills
skin
skins
skiping
skipping
skm
skool
skoolee
skoolon
skootar
skopje
skot
skotalaind
skotish
skowola
skull
skulls
skuul
skvaayar
sky
skyline
skyscrapers
skłodowska
slate
slave
slavery
slaves
slavic
sleep
sleeping
slim
sloan
slovak
slovakia
slovenia
slovenian
slumdog
sm
smaarak
smaarakon
small
smallpox
smarak
smell
smetana
smh
smith
smithies
smoker
smriti
smrti
sn
snaatak
snaatakottar
snap
sneha
snell
snow
so
sobon
soccer
soccerway
soch
socha
sochat
soche
sochis
social
socialism
socialist
socie
sociedad
societies
society
sociological
sociologists
sociology
socrates
sodium
sodny
sofad
sofia
soft
software
soina
sol
solah
solar
soldier
soldiers
sole
soler
solid
solisitar
solitude
solkope
solnohu
solomon
solomone
solomoni
solove
solution
somaalee
somaaliya
somakhele
somali
somalia
somaravile
sombaar
sombar
some
something
sometimes
sommers
son
sona
sonar
sonata
sonbarsa
sone
sonee
song
songs
songwriter
sonia
sonnenfeld
sono
sons
sonu
sony
soo
soochana
soochee
soocheebaddh
soochit
sood
sop
sophia
sophie
sophocles
soqosoqo
soraren
sorella
sorolo
soroman
soros
sosaayatee
sosaitee
soshal
soshalist
sotho
soti
sotii
soto
soul
sound
sounds
source
sources
south
southampton
southeast
southeastern
southern
southwest
southwestern
sovereignty
soviet
soviets
soviyat
spaark
space
spain
spanish
sparta
spasht
speak
speaker
speakers
speaking
spears
special
species
specific
specimen
spectabilis
spectral
spectre
spectrum
speech
speed
speight
spell
spellbound
spelling
spemann
spen
spence
spencer
spenish
sperry
spheres
sphinx
spider
spielberg
spike
spin
spire
spirit
spirited
spirits
spiritual
splinter
split
spoken
sponsor
spoon
sport
sporting
sports
spot
spotlight
spreading
spring
springs
sq
squad
square
sr
src
sreenivasan
sreesanth
sri
sridevi
srinagar
srinivasa
srishti
srot
sroton
sruu
ss
ssathe
sslein
st
sta
staalin
staaph
staart
stable
stacey
stacy
stadeej
stadium
stadiums
staff
stage
stahl
stair
stalemate
stalin
stamp
stan
stanbul
stand
standard
standing
standings
stands
stanford
stanislav
stanlake
stanley
stanton
stanza
stapleton
star
starr
stars
starship
start
started
starts
state
statement
states
statesman
statham
station
stationery
stations
statistical
statistics
stats
statue
statues
status
stay
ste
steam
steamship
steel
steenberg
steep
steering
steevart
stefan
stefano
stella
stem
step
stephanie
stephen
stephens
stereoscopic
sterling
steshan
steshanon
stet
stets
steve
steven
stevens
stevenson
stewart
stha
sthaan
sthaanaantarit
sthaaneey
sthaaniy
sthaanon
sthaapana
sthaapanaa
sthaapit
sthaayee
sthal
sthalon
sthan
sthirata
sthit
sthita
sthiti
sthitiyon
still
stiller
stith
stmhttp
stmhttps
stock
stockholm
stockwell
stoke
stolan
stone
stones
stoodents
stop
stops
storage
store
storey
storied
stories
storm
stormare
stormy
stortinget
story
str
stra
strait
stranger
strauss
streak
stream
streams
stree
street
streets
streisand
strength
streptomycin
stret
stri
strict
strike
striker
string
strings
strip
striped
stroke
strong
stronghold
strontium
strosanar
structure
structures
struggle
stste
stuart
stub
student
students
studies
studio
study
studying
stupa
sturt
stutchbury
stuttgart
style
styler
stylised
su
suar
sub
suba
subah
subara
subcontinent
subedar
subgroup
subhas
subhash
subject
subjects
sublime
sublimed
submarine
submission
subrail
subramani
subse
subsequently
substances
suburb
suburban
suburbs
succeeded
success
successful
successor
such
suchana
suchi
sudan
sudanese
sudh
sudhaar
sudhakar
sudhar
sudharak
sudhare
sudoor
sudur
suez
sufferings
sufi
sugar
sugauli
sui
suibuka
suicide
suisse
suit
sujhao
suk
sukhi
sukhna
sukhum
sukhumi
sukumaran
sukuna
sulajha
sulawesi
suleiman
suleman
sulfide
sulfur
sullivan
sulston
sultan
sultana
sultanate
sultanpur
sulu
suman
sumatra
sumeet
summary
summer
sun
suna
sunaane
sunaaya
sunaee
sunavaee
sundar
sundarta
sunday
sunderland
sune
sung
sunil
sunis
sunni
sunny
sunsari
sunset
sunshine
super
superintendent
superior
supernatural
supervisor
supper
supplies
supply
support
supporter
supporters
supreem
supreme
sur
sura
suraj
surakchhit
suraksha
surakshit
surat
sure
surely
surendra
suresh
surface
surgeon
surgery
surinam
suriname
surjeet
surkhet
surkhi
surprise
surrealism
surrealist
surrender
surrounded
surrounding
suru
suruat
suruj
suruu
suruwaat
suruwat
survey
survived
surviving
surya
susaan
susan
susana
sushil
suspend
suspended
sustainable
susumu
sutherland
sutlej
suuu
suva
suvidha
suwamy
suzanne
sv
sva
svaadhinataa
svaagat
svaami
svaasthy
svachchh
svadeshee
svarg
svarn
svarup
svasth
svatantr
svatantra
svatantrata
svatantrataa
svayam
svayan
svayanseva
svayansevak
svayansevakon
svayansevee
svechchha
sveedish
sveekaar
sven
svetlana
svg
svi
svt
sw
swadesh
swagat
swahili
swallow
swami
swamy
swan
swanberg
swans
swansea
swarag
swardson
swarga
swaziland
sweden
swedish
sweeney
sweet
sweeter
swift
swimming
swiss
switch
switzerland
sworn
sy
sydney
sydow
syed
syllable
sylvester
sylvia
symbol
symbolically
symbols
symphony
symptoms
syndrome
syntax
synthesis
syoodaad
syracuse
syria
syrup
system
systems
szent
søren
t
ta
taa
taagat
taagatwar
taaki
taanaashaahee
taapamaan
taapu
taara
taarik
tab
taba
tabhee
tabia
tabiyat
table
tables
tablet
tabua
tabusau
tadad
tadapani
tadeusz
tadu
tae
tafea
tag
tagalog
tagat
tagatwar
tagi
tagimaucia
tagitagi
tagore
tagrra
tagrraa
tah
tahat
tahir
tahiti
tahitian
taieri
tail
tailevi
tailevu
taim
taims
taione
tait
taiwan
taiyaar
taiyaaree
taiyar
taj
tajik
tajikistan
tajja
tak
taka
takala
takaneek
takaneekee
takaneekon
takar
take
taken
takht
takhtaapalat
taki
taking
takkar
tal
tala
talaak
talaash
talab
talak
talao
tale
taleem
talent
tales
talingod
talk
talking
talks
tallinn
tama
tamam
tamanisau
tamannaah
tamanua
tamarind
tamavua
tamazight
tamganj
tamil
taming
tamoi
tan
tana
tanasahi
tanavapurn
tanawal
tang
tanganyika
taniela
tanjaaniya
tanjong
tank
tanni
tanoa
tanoli
tantalum
tantr
tanya
tanzania
tao
taoism
taormina
taoroinai
tap
tapeworm
tar
tara
taraf
tarah
taraha
taraka
tarakki
tarantino
taraqqi
tarawa
tareeke
tareekon
taret
tarf
target
tarha
tarik
tarika
tarin
tark
tarnovo
tas
tasere
tashkent
task
taskaree
taskaron
tasking
tasks
tasmaaniya
tasman
tasmania
tasse
tasveer
tasveeron
tat
tatar
tate
tatha
tathaa
tatkaal
tatkaaleen
tatum
tau
taught
taukei
tauli
taun
taur
tautou
tavarau
taveuni
tavua
tawa
tawake
tax
taxi
taxonomie
taye
tayfun
taylor
tb
tbilisi
tc
tchaikovsky
te
tea
teacher
teachers
teaching
teachings
teal
team
teams
tean
tears
teatrale
teatro
teau
tech
technetium
technical
technique
technology
tecna
tectonic
ted
tee
teej
teem
teen
teesare
teesaree
teesra
teevee
teevr
teevrata
tefana
teharaan
tehran
tehsil
teja
tejaab
tejee
tek
teksaas
tel
telangana
telecom
teleevijan
teleevizan
telegraph
telemotor
telephone
television
tell
telling
tellurium
telugu
temin
tempera
temperature
temperatures
tempest
template
temple
temples
temporary
temps
ten
tenants
tendua
tendulkar
tennessee
tennis
tenorio
tens
tense
tension
teohaar
teohar
terah
terence
teresa
teritory
term
terminal
terminals
terra
terre
terrence
terrestrial
terri
terrible
terrier
territories
territory
terrorist
terry
tesla
test
testaament
testament
tetuan
tevita
text
textiles
texts
tfl
th
tha
thaa
thaee
thaeelaind
thaeland
thaharaaya
thai
thailand
thakre
thakur
thallium
thames
than
thana
thanda
thandie
thanga
thangjing
thanh
thanjavur
thara
tharia
that
the
theage
theater
theatre
thee
theek
theen
theesis
theguardian
thehindu
theiler
their
theistic
them
themanipurpage
themselves
then
thence
theni
theo
theodor
theodore
theologian
theological
theology
theorell
theorem
theoretical
theories
theory
there
therefore
theresa
thermal
theron
these
theses
thesis
thestar
they
thi
thietar
thiik
thik
thikkurisi
thimphu
thin
things
think
thinker
thinking
third
thirst
thirty
thiruvananthapuram
this
tho
thoda
thom
thoman
thomas
thompson
thomson
thongalel
thongarel
thongaren
thor
thora
thoraa
thorium
thornton
thorra
those
thou
though
thought
thousand
thread
threat
threaten
three
thrilar
thriller
throne
through
throughout
thulium
thumb
thumbnail
thumbs
thumbtime
thumleima
thumps
thunabarg
thunder
thursday
thurston
thus
thy
thyroid
ti
tia
tiber
tibet
tibetan
tibymmbwqgsc
tica
tick
ticket
tie
tiger
tigers
tigris
tiin
tiino
tiisra
tika
tikaoo
tikaram
tike
tikina
til
tilak
tilda
till
tim
timber
timberlake
time
timeline
times
timgad
timmy
timoci
timor
timothy
timur
timuri
tin
tina
tinbergen
tinker
tino
tip
tippanee
tips
tirana
tirth
tirunelveli
tisdale
tisi
tit
titanic
titanium
title
titles
titli
tito
titus
tiv
tiwa
tiwari
tiyo
tld
tm
tn
to
toba
tobacco
tobago
tobaigo
tobey
tobias
toby
today
todd
toga
toganivalu
together
togo
toh
toilette
toits
tok
tokelau
tokyo
tola
told
tole
toledo
tolgay
tolstoy
tom
toma
tomanivi
tomasevic
tomasi
tomb
tome
tommy
tomography
ton
tone
tonee
tonegawa
tones
tonga
tongan
tongatapu
tongue
toni
tonne
tony
too
took
tools
toorak
top
topalov
topic
topics
topline
topography
topological
tor
toranto
toreador
toreo
torero
tores
torn
torneo
toro
toronto
torre
torres
torsten
torun
toss
total
totaram
totori
totoya
tottenham
tough
toulouse
tour
tourism
tourist
tourists
tournament
tournaments
tourney
tours
tovata
tow
towards
tower
towers
town
towns
township
toy
tr
tra
track
tracks
tracy
trade
trader
trades
trading
tradition
traditional
traffic
tragedies
tragedy
trail
trailer
train
training
trajan
tramp
trang
transduction
transfer
transfiguration
transformation
transformed
transition
translate
translated
translation
translations
translator
transliteration
transmittors
transplantation
transport
transportation
trast
trastee
travel
travels
travis
tre
treas
treasure
treasurer
treasures
treating
treatise
treatment
treaty
tred
tree
treinte
trel
tren
trent
trento
tres
trial
triangular
tribal
tribe
tribes
tribhuvan
tribute
tricks
trilogy
trinidaad
trinidad
trinity
triomphe
trip
triple
tripod
tripoli
tripura
trisha
tristan
triumph
triumphal
triumphs
triveni
tro
trois
trokosee
troops
trophy
tropical
trost
trotar
trotsky
trove
troy
truck
trudeau
true
trump
trumpet
trunk
trust
truth
try
tsang
tsar
tschaikowski
tschiatura
tsonga
tsui
tsuyoshi
tt
ttin
tu
tuamotu
tuba
tube
tuberculosis
tubuna
tucci
tucker
tude
tudiant
tuena
tuesday
tui
tuilau
tuimasi
tuivaga
tukai
tukania
tukumaan
tula
tulana
tularam
tulsi
tulsidas
tum
tumhaar
tumkur
tumour
tumours
tun
tuna
tungsten
tunis
tunisia
tunnel
tupeni
tupou
tuqalu
turagarere
turant
turing
turk
turkaili
turkee
turkey
turkic
turkish
turkmen
turkmenistan
turks
turn
turnbull
turner
turtle
turup
turuva
tuscany
tuufan
tuurre
tuut
tuva
tuvalu
tuvaluan
tuvana
tuvuca
tv
tvacha
tvarita
tvitar
twahir
twain
twelfth
twelve
twentieth
twenty
twice
twilight
twin
twist
twisted
twitter
two
tyaag
tycoon
tyler
tyne
tyohar
type
types
typhoid
typhus
typical
typing
tyranny
tyrian
tyser
tz
tzu
u
ua
uaaaamaaj
uae
uahwxbsskhygcbscq
uar
ubaaldo
ubangi
uchch
uchchaaran
uchchaayukt
uchchatar
uchit
uciwai
ucla
ud
udaaharan
udaipur
uday
uddeshy
uddhaar
uddharan
uddhrt
udghaatan
udhyog
udit
udyaan
udyamee
udyo
udyog
uea
uefa
uel
uetersen
uffizi
ug
uganda
ugc
ugravaadee
uhlic
ujaagar
ujagar
ujjar
ujuahwcwhwkhracbd
uk
uke
ukhaad
ukraine
ukrainian
ul
ulan
ulcer
ulf
uli
uliasi
ullanghan
ullekh
ullekhaneey
ulta
ultra
uluigalau
uluinakauvadra
uma
umang
umar
umaria
umarkot
umbrella
umesh
umm
ummeed
ummeedavaar
umr
umra
umrao
un
una
unaka
unakaa
unake
unakee
unaki
unam
unamen
unane
unanimously
unase
unasur
unbeaten
uncle
und
under
underground
understanding
undisputed
undressing
une
unesco
unfinished
ungaliyon
unhe
unhein
unhen
unhone
unhonne
unicode
unicorn
uniform
union
unionist
unionists
unions
unique
unit
unitarian
unite
united
units
unity
universal
universe
universidad
universita
universities
university
unka
unke
unkee
unki
unknown
unko
unlawful
unlp
unmoolan
unnat
unnati
unofficial
unone
unopposed
unown
unregistered
until
untitled
ununoctium
unvanquished
uomo
up
upa
upaadhi
upaadhyaksh
upajaau
upakaran
upalabdh
upalabdha
upalabdhiyon
upanaam
upanagar
upanishad
upanivesh
upanyaas
upanyaasakaar
upar
upasthiti
upayog
upayogakarta
uplabdh
uploads
upon
uppar
upper
upright
uprising
upset
uq
uragenda
uraia
ural
uranium
uranus
urban
urbanization
urbino
urdu
url
urre
urs
ursula
uru
uruguay
urvarataa
us
usa
usage
usaia
usaka
usake
usakee
usaki
usane
usase
usatoday
usd
use
used
usee
user
users
uses
usey
usgs
usha
usi
using
uska
uske
uskee
uski
usko
usme
usne
usp
uss
usse
ussr
usually
ut
utah
utar
utc
utd
uthaaya
uthaee
uthaes
uthais
utkhanan
utkrsht
utpa
utpaadan
utpeedan
utre
utrecht
utris
utsarjan
uttar
uttara
uttaraadhikaar
uttaraardh
uttarakhand
uttaree
uttari
uu
uucha
uunch
uuncha
uunchai
uuo
uwe
uyghur
uzbek
uzbekistan
uzel
v
va
vaadajuk
vaah
vaahan
vaala
vaale
vaalee
vaali
vaalon
vaan
vaanchhit
vaapas
vaapasee
vaarant
vaaraso
vaard
vaarshik
vaarta
vaas
vaasar
vaashingatan
vaastav
vaastavikata
vaatarashed
vaayu
vacancy
vadala
vaedik
vaee
vah
vaha
vahaan
vahee
vahid
vai
vaigyaanik
vaigyaanikon
vaikalpik
vailee
vaileka
vaili
vainkoovar
vais
vaishvik
vaisi
vaivai
vajah
vajan
vajhe
vajpayee
vajra
vakaalat
vakasaukuru
vakatalai
vakatalesau
vakavulewa
vakeel
vakeelon
vakta
val
vale
valencia
valencian
valentin
valentine
valerio
valette
vali
valid
vallabhbhae
vallabhbhai
vallejo
valletta
valley
valmiki
valo
valparai
valsad
value
values
vam
van
vana
vanadium
vanchit
vancouver
vandals
vane
vanessa
vanon
vansh
vanshaj
vanua
vanuatu
vanyajeev
vapas
vaqia
var
vara
varadhan
varadoli
varanasi
varavu
varg
vargas
vargeekaran
vargon
variables
variant
variants
varies
varieties
variety
varinava
various
varishth
varjeeniya
vark
varkar
varkars
varld
varma
varmus
varnamaala
varnan
varnana
varnit
varoko
vars
varsh
varsha
varshaa
varshaavan
varshagaanth
varsheey
varshon
vartamaan
varun
vary
vasa
vase
vashist
vastu
vat
vatican
vaticana
vatiyaka
vatoa
vatu
vatukoula
vatulaulau
vatulele
vatuwaqa
vaughn
vayask
vayeshnoi
vayu
vdc
ve
vebasait
vechten
ved
veda
vedaant
vedas
vedic
vedon
vee
veediyo
veemen
veen
veena
vega
vegetable
vegetables
veh
vehicle
vehicles
veil
veisaru
veiseisei
vela
velazquez
velenteena
veliko
vella
vels
velupillai
ven
vendangeurs
venejuela
venera
venereal
venezuela
venice
ventail
ventura
venue
venus
vera
verata
verb
verbinski
verdaguer
verde
verdi
veresa
vereti
verma
vermeer
vermont
vernon
veronica
verre
versailles
verse
verses
version
versions
verso
versus
vertebrate
vertical
vertigo
very
veseisei
veshyaavrtti
vesi
vesikula
vessels
vest
vetan
vetaukula
veteran
veterans
veto
vi
via
viam
vibha
vibhaag
vibhag
vibhajan
vibhajit
vibhinn
vibhinna
vibhushan
vic
vice
vicente
vichaar
vichaaron
vichitravirya
vicomtesse
victim
victims
victor
victoria
victorian
victorious
victory
vid
vidal
video
videos
videsh
videshee
videshon
vidhaan
vidhaanamandal
vidhava
vidhya
vidroh
vidvaan
vidvaanon
vidya
vidyaalay
vidyarthi
vie
viejo
vienna
viennese
vientiane
vierge
vietminh
vietnam
vietnamese
vieux
view
views
vighatan
vigyaan
vigyaanee
vigyaapan
vigyan
vii
viii
vijay
vijaya
vijaypur
vijayta
vijendra
vijeta
vijn
vika
vikaas
vikalaang
vikalaangata
vikalp
vikalpon
vikas
vikash
vikasit
vikasita
viking
vikram
vikrama
vikrant
vikrti
viktor
viktoriya
viktoriyan
vila
vilaariyal
vilabertran
viliame
viliyam
villa
village
villages
ville
villeneuve
vilnius
vilupt
vima
vimal
vimen
vimlesh
vin
vinaash
vinaka
vinay
vince
vincent
vinci
vinivesh
vinnie
vinod
vinsent
viola
violante
violence
violin
vipareet
viphal
viphalata
vipul
viraasat
virajen
viraswamy
virat
virawa
virgil
virgin
virginia
viria
virod
virodh
virodhee
virodhi
virodhon
virodi
virtual
virtues
virus
viruses
vis
visage
visakhapatnam
visama
visawaqa
vishaal
vishal
vishay
vishayon
vishesh
visheshagy
visheshagyata
visheshagyon
visheshata
vishisht
vishleshan
vishnu
vishraam
vishram
vishv
vishvaas
vishvakosh
vishvavidyaalay
vishvavidyaalayon
vishwa
visible
vision
visit
visiting
visitors
visphot
vista
vistaar
visthaapit
vistrt
visual
viswa
viswanathan
vita
vitamin
vitamins
vitaran
vitarit
viti
vitogo
vitt
vitteey
vittorio
vivaad
vivaadaaspad
vivaah
vivaahit
vivaldi
vivante
vivaran
vivek
vivekaanand
vivekaanandaji
vivekanand
vivekananda
vives
vivian
vivid
vividhata
viwa
viyana
viyatanaam
vj
vladimir
vlv
vo
vocabulary
vocal
vocals
voch
vodafone
voice
voices
vojvodina
vok
vokaajee
vol
volavola
volcanic
volcano
volga
volhard
voli
volta
voltaire
volume
volumes
volunteer
vom
voma
vomo
von
vono
vonu
voomen
vor
voraanee
voriyars
vosa
vot
vote
voted
voter
voters
votes
voting
votkinsk
votua
votualevu
vowel
vox
voyage
voyas
vr
vrddhi
vreeland
vriddhi
vrindavan
vrttachitr
vs
vuanirewa
vuaqava
vuci
vuda
vuko
vula
vulcan
vulgaris
vulivuli
vulture
vuman
vuna
vung
vunidawa
vunikavikaloa
vunimoli
vunimono
vunisa
vunisamaloa
vunisea
vunivalu
vunivau
vuravura
vurukania
vya
vyaakaran
vyaakhyaan
vyaakhyaana
vyaakhyaata
vyaapaar
vyaapak
vyaavasaayik
vyaayaam
vyakt
vyakti
vyaktigat
vyaktitv
vyaktiyon
vyan
vyanjana
vyanjanon
vyarth
vyas
vyasa
vyavaha
vyavasaayee
vyavasthit
w
wa
waada
waal
waala
waale
wadan
wafaadar
wagga
wagner
waha
wahan
waheeda
wahi
wahii
wahlberg
wahwo
wahwv
wai
wailevu
wainibuka
wainikoro
wainiqolo
waiqele
wairuku
waisake
waise
waisea
waisele
waisiki
wait
waita
waitakere
waiting
waits
waiwai
waja
wajan
wakaya
wake
wakiil
wakiili
waksman
wala
wald
wale
wales
wali
walk
walken
walker
walking
wall
wallace
wallis
walloon
wallops
walls
walon
walsh
walt
walter
walters
waltz
wan
wang
wangbren
want
wanted
waqa
waqt
war
waran
warangal
warburg
ward
wardha
warfare
warhol
warhola
warlord
warm
warming
warner
warning
warren
warrior
warriors
wars
warsaw
warszawa
was
wash
washington
washingtonpost
wasikowska
wasim
wasti
wat
watch
watches
watching
wate
water
waterfall
waters
watershed
waterston
watford
wati
watisoni
watkins
watson
watt
watts
watykan
wave
wavelength
waves
wax
way
waya
wayne
ways
wbd
we
weak
wealth
weaning
weapons
wear
wearing
weather
weaver
weaving
web
webb
webber
webelements
weber
webpage
website
websites
wedding
weed
week
weekend
weekly
weighs
weight
weightlifting
weights
weisz
weitz
welch
welcome
welfare
well
weller
wellington
wells
welsh
wena
wendy
went
wentworth
weqqaaaayaaj
were
werner
wertenbaker
wesley
west
western
westminster
weston
westpac
westphalia
wet
whaling
wharf
what
wheat
wheel
when
where
whether
which
while
whip
whipple
whit
whitaker
white
whitecross
who
whole
whom
whose
why
wi
wicket
wide
widely
widow
width
wien
wieschaus
wiesel
wife
wight
wiig
wijk
wiki
wikimapia
wikimedia
wikipedia
wikisource
wikivoyage
wiktionary
wild
wilde
wilder
wildlife
wilfred
wilhelm
wilkins
wilkinson
will
willard
willem
william
williams
willis
wilson
win
wind
windhoek
winding
window
windows
winds
windsor
wine
winer
winfield
wing
wingard
winged
wings
winner
winners
winning
winona
wins
winslet
winston
winter
winx
wire
wisconsin
wisdom
wise
wish
witches
with
withdrew
witherspoon
within
without
witness
witt
wittgenstein
wizard
wjrf
wle
wm
wmt
wo
woh
wolf
wolff
wolfgang
wolfram
wollongong
wolof
wolves
woman
womb
women
womenaustralia
womenhttps
womens
won
wonderland
wong
woo
wood
woodley
woodrow
woods
woody
wook
wool
word
wordpress
words
work
worked
worker
workers
working
works
worksheet
workshop
world
worldflicks
worlds
worldwide
worms
worship
worth
worthington
would
wounded
wp
wraith
wrestling
wright
write
writer
writers
writing
writings
written
wrong
wrote
wta
wto
wu
wuf
ww
www
wye
wyoming
x
xavier
xenon
xhosa
xi
xima
xiv
xls
xmbhqj
xmbhxhacuk
xona
xv
xx
y
ya
yaa
yaachika
yaad
yaaneki
yaani
yaatana
yaatra
yaatraa
yaatraen
yaatraon
yacata
yadav
yadi
yadua
yadyapi
yag
yagasa
yaguas
yah
yaha
yahaan
yahan
yahee
yahi
yahii
yahin
yahoo
yahoodee
yahoodiyon
yahudi
yahya
yako
yaladro
yalalevu
yalow
yama
yamoussoukro
yamuna
yan
yana
yang
yangon
yangtze
yannick
yanuca
yaounde
yap
yard
yards
yaren
yasawa
yat
yatra
yaun
ye
yea
year
years
yeeshu
yegal
yeh
yeha
yel
yellow
yemen
yen
yeni
yeong
yerevan
yes
yesterday
yet
yha
yi
yiddish
yidish
ynu
yo
yoga
yogadaan
yogadaanakarta
yogdaan
yogesh
yogi
yogy
yojana
yojanaon
yola
yolaanda
yolanda
yoo
yooesesaar
yooke
yookren
yookrenee
yoon
yoonaited
yoonesko
yooniseph
yoonivarsidaid
yoonivarsitee
yooniyan
yoonus
yoorop
yooropeey
yooropiyan
yoote
yooth
york
yoru
you
young
youngest
your
yousafzai
youth
youtube
yttrium
yu
yuan
yuddh
yuddhon
yudh
yug
yugaanda
yugm
yugoslavia
yukta
yukteswar
yumjao
yuri
yusuf
yuva
yuvak
yuvaon
yyqoaqaamaaj
yyyy
z
za
zach
zachary
zack
zagreb
zahir
zaire
zaman
zambia
zamenhof
zaragoza
zawahiri
zayeed
ze
zealand
zedong
zee
zegers
zeno
zero
zeus
zhang
zheng
zhou
zhuang
zi
zila
zimbabwe
zinc
zindagee
zindagi
zinec
zinkernagel
zinta
zirconium
zmir
zn
zoe
zone
zonjic
zoo
zquez
zr
zu
zuban
zuleman
zulfikar
zulu
zur
zz
{
|
}
~
£
¥
§
©
«
°
²
³
·
¹
º
»
½
×
đa
ı
ın
ıs
ız
łobez
łobzie
ɑ
ə
ɛ
ɲ
ɾ
ʃ
ʊ
ʒu
ʕ
ʰ
ʱ
ʲ
ʻ
ʼ
ʿ
ˀ
ˈ
ˌ
ː
ˤ
̀
́
̂
̃
̄
̆
̇
̈
̉
̊
̋
̌
̐
̓
̛
̞
̣
̥
̧
̨
̩
̪
̱
͟
͡
α
ας
β
γ
επι
θ
ι
μ
ν
ο
ς
τ
της
а
в
е
и
л
м
н
на
пе
тр
украі
ч
ь
я
،
ا
ابن
باد
بن
ث
د
ر
شاد
م
محمد
و
ِ
ّ
ٓ
ٔ
ٕ
ے
މ
ލ
ާ
ެ
ँ
ं
ः
अ
अपन
अलग
आ
आत
आमत
इ
इस
इसक
ई
उच
उत
उपय
ऊ
ऋ
ए
एक
ऑ
और
क
कई
कट
कप
कर
ख
ग
गन
गय
गर
ङ
च
छ
ज
जन
जनज
जह
झ
ञ
ट
ड
ढ
ण
त
तर
थ
द
दक
ध
न
नद
नन
नह
प
पक
पर
पश
फ
ब
बन
भ
म
य
यन
यल
यस
यह
र
रण
रत
रभ
रव
रश
रस
रहत
ल
लत
व
वर
श
शत
ष
स
सकत
सद
सब
सबस
सम
सर
ह
हर
़
ा
ि
ी
ु
ू
ृ
े
ै
ॉ
ो
ौ
्
।
॰
ক
খ
গ
ঘ
চ
জ
ঠ
ত
থ
দ
ন
প
ফ
ব
ভ
ম
য
র
ল
শ
ষ
স
হ
়
া
ি
ী
ু
ে
ৈ
্
ৗ
ਆ
ਇ
ਜ
ਡ
ਪ
ਬ
ਮ
ਰ
ਸ
ਹ
ਾ
ਿ
ੀ
ੇ
ੰ
ੳ
ં
ગ
દ
ધ
મ
સ
ા
ી
ો
க
கள
ங
ச
ட
த
தம
ப
ம
ர
ல
ள
ழ
வ
ஸ
ா
ி
ீ
ு
ெ
ே
ை
்
ం
గ
త
ద
బ
య
ల
హ
ా
ు
ె
ొ
ౖ
ം
ക
ത
ന
മ
ല
ാ
ി
ീ
ു
ൃ
െ
േ
്
ං
ක
ග
ට
ත
ද
ම
ර
ල
ශ
්
ා
ි
ී
ු
ෙ
ร
ี
ุ
ນ
ັ
་
ག
ང
ཐ
ད
ཕ
བ
མ
ས
ི
ུ
ོ
ྒ
ញ
ន
ព
ភ
េ
្
៓
​
‌
‍
‎
‐
–
—
‘
’
“
”
†
•
…
′
″
€
₹
↔
↷
−
③
④
⑦
●
☉
☾
☿
♀
♂
♃
♄
♆
♦
⛢
ⴰ
ⴷ
ⴻ
ⵉ
ⵎ
ⵔ
ⵖ
ⵜ
ⵢ
ⵣ
⺀
⺄
⺆
⺈
⺊
⺌
⺕
⺝
⺸
⺼
⿰
⿱
⿲
⿳
⿴
⿵
⿶
⿷
⿸
⿹
⿺
⿻
、
々
《
》
〢
い
う
え
お
か
き
こ
さ
し
す
た
ち
と
な
に
の
は
ひ
へ
ほ
ま
み
ょ
よ
ら
り
る
わ
を
ん
゙
ア
イ
ウ
カ
キ
ク
ケ
コ
シ
タ
ツ
ト
ナ
ニ
ノ
メ
モ
ユ
ョ
リ
ワ
ン
ー
㇁
㇂
㇄
㇇
㇈
㇉
㇓
㐁
㐄
㐅
㐌
㐫
㐬
㐭
㐮
㐱
㑒
㒵
㒸
㒼
㓁
㓞
㔾
㕛
㕣
㖾
㘝
㚅
㚇
㚔
㚘
㝉
㝡
㝴
㝵
㞋
㞢
㞷
㠩
㠭
㠯
㡀
㡭
㡿
㢲
㢴
㣇
㣺
㥯
㪅
㫄
㫐
㫒
㫺
㬅
㬎
㬥
㬰
㲋
㳄
㷠
㸒
㸚
㸦
㼌
㼲
㽞
㿟
䀠
䂞
䍃
䏍
䒑
䖍
䖒
䖝
䖵
䙴
䚻
䜌
䝿
䡛
䧹
䪞
一
丁
丂
七
丄
丅
丆
万
丈
三
上
下
丌
不
与
丏
丐
丑
专
且
丕
世
丘
丙
业
丛
东
丞
丢
丣
两
严
並
丨
丩
个
丫
丬
中
丮
丰
丱
串
丵
丶
丷
丸
丹
为
主
丽
丿
乀
乂
乃
久
乆
乇
么
义
之
乌
乍
乎
乏
乐
乑
乔
乖
乗
乘
乙
乚
乛
乜
九
乞
也
习
乡
乳
乾
亀
亅
了
亇
予
争
事
二
亍
于
亏
亐
云
互
亓
五
井
亘
亚
亜
亞
亟
亠
亡
亢
交
亥
亦
产
亨
亩
享
京
亭
亮
亯
亰
亲
亳
亶
亷
人
亻
亼
亾
仁
今
介
仌
从
仐
仑
仒
仓
仕
他
付
仝
代
令
以
仲
任
企
伊
伏
伐
休
会
伯
但
位
佐
何
佘
余
作
佥
使
來
侈
侌
侖
侯
侵
便
保
俞
信
修
倉
倍
候
倠
備
僉
僕
儿
兀
允
兂
元
兄
充
兆
兇
先
光
兊
克
兌
免
兑
兒
兓
兔
党
兜
兟
入
全
兩
兪
八
公
六
兮
兰
共
关
兵
其
具
典
兹
兼
冀
冂
冃
冄
内
円
冈
冉
冊
冋
册
再
冎
冏
冐
冒
冓
冖
冗
冘
写
军
农
冝
冡
冥
冫
冬
决
冷
几
凡
凢
凵
凶
凷
凸
凹
出
函
凾
刀
刁
刂
刃
刄
刅
分
切
刍
刑
刕
刖
列
刘
则
初
別
利
别
到
制
刺
則
削
剌
前
剡
剽
劉
力
功
加
劦
助
劫
劳
劵
勃
勇
勉
勒
動
務
勞
勤
勹
勺
勻
勾
勿
匀
匂
包
匆
匈
匊
匋
匍
匕
化
北
匚
匝
匡
匪
匱
匸
匹
区
医
匽
匿
區
十
卂
千
卄
卅
卆
升
午
卉
半
卌
华
卑
卒
卓
单
卖
南
卜
卝
卞
占
卡
卢
卣
卤
卦
卩
卪
卬
卯
印
危
即
却
卵
卷
卸
卻
厂
厃
厄
历
厈
厉
厌
厓
厘
厚
原
厤
厥
厨
厭
厲
厶
厷
厸
去
厼
厽
叀
参
參
叅
又
叉
及
友
双
反
叐
发
叒
叔
叕
取
受
叚
叜
叟
口
古
句
另
叩
只
召
可
台
叱
史
右
叵
号
司
叹
吂
各
吅
合
吉
吊
吋
同
名
后
吏
向
吕
君
吝
吞
否
含
启
吳
吴
吹
吾
呂
呆
呈
告
员
呙
周
命
咅
和
咎
咠
咢
咨
咸
咼
哀
品
哉
員
哥
哲
唐
商
啇
問
啚
啬
啻
善
喜
喬
單
喿
嗇
噩
嚴
囊
囗
囘
囙
囚
四
回
囟
因
囧
囬
困
囱
囷
固
国
圂
圅
國
圍
園
圓
土
圡
圣
圥
在
圭
地
圶
圼
坐
坒
坚
坴
垂
垔
垚
垣
埀
埋
埶
執
基
堂
堅
堆
堇
堯
塞
墨
壘
壤
士
壬
壯
声
壳
壴
壹
壺
壽
夂
处
夅
夆
备
変
夊
夋
夌
复
夏
夒
夕
外
夗
夘
多
夜
夢
大
夨
天
太
夫
夬
夭
央
失
夲
头
夷
夸
夹
夻
夾
奂
奄
奇
奈
奉
奎
奏
奐
契
奓
奔
奚
奞
奠
奢
奥
奭
女
奴
奻
好
如
妄
妙
妟
妥
妻
妾
姑
委
姜
威
娄
婁
婴
嬰
嬴
子
孑
孔
孕
孖
字
存
孚
孛
孝
孟
季
孤
学
孫
孱
學
宀
宁
宂
它
宅
宇
守
安
宋
完
宏
宓
宗
官
定
宛
宜
宝
客
宣
室
宮
宰
害
家
容
宾
宿
寄
寅
密
富
寒
察
寧
審
寫
寬
寮
寸
对
寺
寻
寽
対
寿
封
尃
射
将
將
專
尉
尊
尋
尌
對
小
少
尒
尓
尔
尖
尗
尚
尞
尢
尣
尤
尧
尨
尭
就
尸
尹
尺
尻
尼
尽
尾
尿
局
居
屈
屋
屎
屏
屑
展
屖
屚
属
屠
屡
屬
屮
屯
屰
山
屵
屾
岁
岂
岑
岡
岩
岳
岸
峯
島
崇
崑
崔
崖
崙
崩
嵬
嶲
巂
巛
川
州
巟
巠
巢
巤
工
左
巧
巨
巩
巫
差
己
已
巳
巴
巷
巸
巽
巾
巿
帀
市
布
希
帚
帛
帝
带
師
席
帶
常
干
平
年
幵
并
幷
幸
幺
幻
幼
幽
幾
广
広
庄
床
底
店
庚
府
度
庫
庭
庶
康
庸
廉
廌
廛
廣
廩
廴
延
廷
建
廾
廿
开
弁
弃
弄
弇
弋
式
弓
弔
引
弗
弘
弜
弟
张
弥
弦
弱
張
強
强
弼
彊
彌
彎
彐
彑
当
彔
录
彖
彗
彡
形
彥
彦
彧
彭
彳
役
彼
往
待
律
徒
得
徙
從
復
微
徵
德
心
忄
必
忌
忍
志
忝
忠
忩
快
念
忽
忿
怎
思
怠
急
怱
恆
恒
恩
恭
息
悉
患
悤
悲
悶
惠
惡
惢
愁
愈
意
愛
感
慈
態
慧
慮
憂
憲
應
戀
戈
戉
戊
戋
戌
戍
戎
成
我
戒
戔
或
戚
戠
戢
截
戲
戶
户
戹
戼
戾
房
所
扁
扇
手
扌
才
打
托
执
承
折
拉
拜
拼
拿
掌
推
提
摩
支
攴
攵
收
攸
改
放
政
敄
故
敏
敕
敖
敗
敝
敞
敢
散
敦
敫
敬
数
敷
數
斂
文
斉
斊
斗
斤
斥
斩
斬
斯
新
方
於
施
斿
旁
旋
族
无
旡
既
旣
日
旦
旧
旨
早
旬
旱
旲
时
旾
昆
昇
昌
昍
明
昏
易
昔
昗
昜
星
春
昬
是
昱
昴
昷
時
晃
晋
晏
普
景
晶
智
暑
暴
曇
曩
曰
曲
曳
更
曷
書
曹
曼
曾
替
最
朁
會
月
有
朋
服
朔
朕
朗
望
朝
木
朩
未
末
本
札
朮
术
朱
朵
朶
朿
杀
李
杏
村
杜
束
条
来
東
杲
杳
松
析
林
枚
果
枝
枲
枼
某
柔
查
柬
柰
柴
栗
样
桀
桑
桼
梁
條
梟
梨
棘
棠
棥
森
楚
業
楽
榮
樂
樊
欠
次
欣
欮
欲
欶
欽
款
歆
歇
歛
止
正
此
步
武
歨
歪
歮
歯
歰
歲
歴
歷
歸
歹
歺
死
殳
段
殷
殸
殹
殺
殻
殿
毋
毌
母
每
毒
比
毕
毚
毛
毳
氏
氐
民
气
氣
水
氵
氶
氷
永
氺
氾
求
汝
汞
江
決
沃
沓
沙
沝
河
治
泉
法
波
泣
泥
注
泰
泽
洛
洪
活
派
流
浅
浦
浪
浮
淡
淮
清
渚
渠
港
湯
滿
漢
漸
澤
火
灬
灭
灰
灵
灷
炅
炎
炏
炗
炙
炭
為
烈
烏
烝
焉
無
焦
焱
然
煞
熊
熏
熹
燕
營
燮
爪
爫
爭
爯
爰
爱
爲
爵
父
爻
爽
爾
爿
片
版
牙
牚
牛
牜
牟
牢
牧
牪
特
牽
犀
犬
犭
犮
狂
狄
狊
独
狺
猋
猒
猪
献
獻
玄
率
玉
王
玟
玨
现
珎
班
琴
瑟
瑩
璠
瓜
瓦
甘
甚
生
產
産
用
甫
甬
田
由
甲
申
电
甶
男
甸
甹
画
甾
畀
界
畏
畐
留
畜
畟
畢
畧
畨
番
畫
異
畱
當
畺
畾
疊
疋
疌
疑
疒
疾
癶
癸
癹
登
發
白
百
皀
皃
的
皆
皇
皋
皐
皕
皮
皷
皿
盃
盆
盇
盈
益
盍
盎
监
盒
盖
盛
盡
監
盤
盧
目
直
相
盾
省
眇
眉
看
眔
眞
真
眷
眼
眾
着
睘
睪
睿
瞏
瞢
瞿
矍
矛
矞
矢
矣
知
矦
短
石
研
破
碎
磊
磨
示
礻
礼
社
祟
票
祭
禀
禁
禸
禹
禺
离
禽
禾
禿
秀
私
秃
秉
秋
科
秝
秦
移
稟
穀
穌
穴
究
穹
空
穿
突
窄
窒
立
竒
竜
竝
竟
章
童
竹
笑
笠
筆
等
答
箕
算
箴
節
篤
篭
米
粉
粛
粟
粤
粦
粲
糞
糸
糹
系
約
納
級
素
索
紫
累
細
絜
絫
絲
經
維
綿
縣
繇
纍
纟
纥
级
缶
网
罒
罔
罕
罗
罙
罡
罢
罪
署
罷
羅
羊
羌
羍
美
羔
羕
羗
羞
羡
羣
群
義
羲
羸
羽
翁
翏
習
翕
翟
翠
翼
老
耂
考
者
耆
而
耎
耑
耒
耳
耴
耶
耷
聂
聊
聖
聚
聞
聶
聿
肀
肃
肅
肉
肖
肙
肥
肩
肯
育
肴
胃
背
胡
胥
能
脊
脩
膚
臣
臤
臧
自
臬
臭
臯
臱
至
致
臺
臼
臽
臾
臿
舀
舂
舄
與
興
舉
舌
舍
舛
舜
舞
舟
般
艮
良
色
艸
艹
艾
芒
芔
芬
芭
芮
花
芳
芺
芻
苔
苗
苟
若
苦
英
茶
茸
荅
草
荒
荣
荼
莆
莧
莫
莽
菆
菊
菐
華
萬
落
葉
著
葛
董
葵
蒙
蒦
蒼
蓋
蓟
蓬
蓺
蔑
蔡
蕉
蕭
薄
薊
薛
薦
薰
藍
藏
藥
蘭
虍
虎
虐
虒
虔
處
虖
虗
虘
虚
虛
虜
虞
虫
虽
蚤
蚩
蜀
蜜
蟲
蠡
血
行
衍
衛
衣
衤
表
衮
衰
袁
袞
褭
褱
襄
襾
西
覀
要
覃
見
規
覓
覧
親
覽
见
角
解
言
訁
訇
計
詹
語
誩
読
諸
讠
访
谈
谷
豆
豈
豊
豐
豕
豖
豙
象
豦
豩
豪
豸
貇
貝
貞
貟
負
貢
貧
貪
貫
責
貳
貴
買
費
賁
資
賈
賏
賓
賔
賛
賞
賢
賣
質
賴
贊
贝
贡
责
贯
贲
贵
赖
赞
赤
赦
走
越
足
路
蹇
身
躬
車
軍
軎
軟
輦
轄
车
辑
辛
辜
辟
辥
辰
辱
農
辵
辶
边
达
迁
过
近
连
迷
追
退
送
逆
逐
通
速
造
逢
連
逮
進
遀
遂
過
道
達
遣
適
遷
遺
邊
邑
邕
那
邦
邪
郎
郑
部
郭
都
鄉
鄭
酉
酋
配
酓
釆
采
釋
里
重
野
量
金
釒
錢
钅
長
镸
长
門
閃
閉
開
閏
閑
閒
間
閔
閵
閻
闌
门
间
闷
阑
阜
阝
阶
阿
降
陰
陳
隆
隊
隋
階
隡
隨
隱
隶
隹
隺
隻
隼
隽
难
雀
雁
集
雈
雋
雍
雐
雔
雙
雚
雜
雝
離
難
雨
雩
雪
雲
零
雷
需
霍
霜
霝
霞
霸
靈
靑
青
非
靡
面
靣
革
韋
韓
韦
韭
韯
韱
音
頁
頃
項
須
頗
頡
頻
顏
顛
页
風
风
飛
飞
食
飠
養
饣
首
香
馬
馮
駦
马
骨
高
髟
鬥
鬯
鬲
鬼
魚
魯
鮮
鱼
鲁
鲜
鳥
鳳
鸟
鹵
鹿
麃
麗
麥
麦
麻
黃
黄
黍
黎
黑
黒
黨
黹
黽
黾
鼎
鼓
鼠
鼻
齊
齋
齐
齒
齿
龍
龙
龜
龟
龠
龰
龱
龴
龵
龶
龷
龸
龹
ꯀ
ꯂ
ꯃ
ꯅ
ꯈ
ꯊ
ꯑ
ꯒ
ꯔ
ꯝ
ꯡ
ꯢ
ꯣ
ꯤ
ꯥ
ꯧ
ꯨ
ꯩ

者
艹
（
）
，
：
？
～
🜨
𠀁
𠀃
𠀆
𠀉
𠀎
𠀐
𠁁
𠁣
𠂆
𠂇
𠂈
𠂉
𠂊
𠂋
𠂎
𠂒
𠂔
𠂛
𠂡
𠂢
𠂤
𠂬
𠂭
𠂹
𠃊
𠃋
𠃌
𠃍
𠃎
𠃑
𠃓
𠃔
𠃜
𠄌
𠄎
𠄠
𠄢
𠆢
𠆥
𠇍
𠈌
𠌵
𠓜
𠔉
𠔥
𠔼
𠔽
𠔿
𠕀
𠕁
𠕋
𠘧
𠘨
𠙻
𠙼
𠚏
𠚒
𠚤
𠚪
𠣏
𠤎
𠤕
𠥓
𠦄
𠦑
𠦝
𠧒
𠧗
𠧪
𠩺
𠪚
𠫓
𠫔
𠫤
𠬛
𠬝
𠬞
𠬢
𠬤
𠬶
𠮛
𠮦
𠮷
𠯑
𠱠
𠳮
𠷎
𡈼
𡉀
𡉵
𡌥
𡍮
𡏳
𡕒
𡕩
𡕰
𡖅
𡗗
𡗜
𡘆
𡘤
𡧱
𡨄
𡩧
𡬠
𡭽
𡰣
𡰥
𡰪
𡰯
𡰱
𡷈
𡸁
𡿨
𡿩
𡿪
𡿺
𢀖
𢀛
𢀩
𢁙
𢆉
𢆰
𢆶
𢇁
𢇇
𢉖
𢌬
𢌿
𢏚
𢑑
𢑚
𢖻
𢙣
𢛳
𢦏
𢦒
𢧵
𢼄
𢾕
𣁋
𣄼
𣅀
𣅽
𣍘
𣎳
𣎵
𣏋
𣏼
𣗥
𣥂
𣥖
𣦵
𣦼
𣧄
𣪊
𣪠
𣬉
𣳾
𣶒
𤇾
𤊽
𤐫
𤓰
𤔔
𤕨
𤣩
𤰇
𤰔
𤰞
𤴓
𤴔
𤽄
𥁑
𥁕
𥃦
𥃩
𥃭
𥇡
𥑟
𥘅
𥘈
𥝢
𥫗
𥱡
𦈢
𦉪
𦉬
𦉼
𦍌
𦍒
𦎧
𦐇
𦓔
𦔮
𦘒
𦙃
𦚏
𦣝
𦣞
𦣻
𦥑
𦥔
𦥯
𦨉
𦭝
𦰩
𧆞
𧈧
𧘇
𧰨
𧴪
𧴮
𧵩
𧾷
𨸏
𨾴
𩙿
𩠐
𩫏
𩵋
𪉷
𪜀
𪟽
𪠲
𪩲
𫇦
𫔭
𫜸
𫝀
𫠣
𫠩
𫢉
𫥞
𫩏
𫩠
𫪡
𫲽
𫶧
𬀷
𬐘
𬗌
𬙙
𬛸
𬜯
𬟩
𬯁
𬴘
𬺻
𬼉
𬼖
𭀰
𭁈
𭁨
𭅰
𭑈
𭕄
𭗼
𭤨
𭥫
𭻾
𮅕
𮊿
𮍌
𮍏
𮓗
𮥼
𮧮
廾
𰀁
𰀄
𰀈
𰀉
𰀕
𰀠
𰀡
𰀢
𰀪
𰁜
𰃮
𰆊
𰆘
𰋙
𰕎
𰢴
𰧭
𰯲
00--
0000--
00000000--
01--
02--
03--
04--
06--
07--
08--
09--
113--
140--
201202--
211--
313--
38--
40--
41--
42--
44--
46--
48--
51--
53--
54--
55--
59--
60--
61--
62--
64--
68--
70--
71--
73--
74--
76--
78--
79--
80--
81--
83--
84--
85--
86--
87--
88--
89--
90--
91--
92--
93--
94--
95--
978--
98--
99--
a--
aa--
aadh--
aaee--
aai--
aakr--
aal--
aan--
aap--
aapra--
aas--
aashi--
aaut--
aava--
ab--
aba--
abbre--
abd--
abhi--
abi--
ac--
accu--
ach--
ad--
adjec--
admini--
ae--
af--
afgan--
afr--
ag--
agni--
agu--
ah--
ai--
air--
ais--
aj--
ak--
aksha--
al--
ala--
alak--
ale--
alee--
aleks--
ali--
all--
alleg--
alpasan--
alpen--
alt--
alte--
alu--
am--
ama--
amar--
ambi--
ame--
ami--
amphit--
amr--
an--
ana--
anaath--
anamor--
anant--
ance--
and--
andal--
ane--
ang--
anna--
ano--
ans--
ant--
antar--
anti--
anu--
any--
ao--
ap--
appro--
apr--
aq--
ar--
ara--
arb--
argu--
ari--
ark--
arri--
art--
as--
asa--
asam--
ash--
ask--
asp--
assa--
assass--
assemb--
astro--
asu--
at--
ata--
ath--
atmos--
attach--
attrac--
au--
aud--
aur--
aus--
auto--
ava--
aven--
avi--
avuk--
aww--
ax--
ay--
ayi--
ayo--
az--
b--
ba--
baba--
back--
bad--
bag--
baha--
bahu--
bai--
baij--
bajar--
bak--
bal--
bala--
balu--
bam--
ban--
bank--
bapt--
bar--
bas--
bat--
bau--
bax--
bay--
bb--
be--
bed--
bee--
beg--
beh--
bel--
ben--
ber--
bes--
bet--
bh--
bha--
bhag--
bhalu--
bhan--
bhar--
bhi--
bho--
bhu--
bi--
bid--
big--
bil--
bin--
bio--
bir--
bism--
bit--
blo--
blu--
blue--
bo--
body--
bog--
bok--
bol--
bon--
borg--
bos--
bou--
bow--
boy--
boz--
br--
bra--
brad--
bre--
bres--
brig--
bro--
brow--
bru--
bry--
bt--
bu--
buk--
bul--
bull--
bun--
bundes--
bur--
burg--
bus--
but--
by--
byoo--
byza--
c--
ca--
cac--
cal--
cali--
can--
cap--
car--
cas--
cass--
cat--
ce--
cele--
ch--
cha--
chal--
champ--
chau--
chdoataaegqi--
che--
chh--
chhi--
chhit--
chhu--
chi--
cho--
chu--
chuu--
ci--
cit--
city--
cl--
cle--
club--
co--
cock--
code--
cog--
col--
coll--
colla--
collec--
com--
commemo--
compl--
comple--
con--
conqui--
contemp--
convers--
cop--
cor--
cord--
corn--
corr--
cors--
cosm--
cou--
coun--
cr--
cra--
crea--
crist--
cro--
crus--
cu--
cumm--
cut--
cy--
cycl--
d--
da--
daa--
daaya--
dad--
daf--
dag--
dah--
dai--
daina--
dal--
dam--
damo--
dar--
das--
dau--
day--
de--
dea--
dead--
dec--
dedi--
dedicat--
dee--
deen--
defi--
del--
deleg--
demo--
den--
deo--
depic--
depy--
des--
descend--
desh--
deu--
dev--
dha--
dhan--
dhe--
dhi--
dho--
dhr--
dhu--
di--
dia--
dici--
diff--
dig--
dil--
dimen--
din--
dir--
dis--
diyo--
dj--
do--
dog--
dol--
dom--
don--
dor--
doro--
dos--
dou--
dr--
drai--
drauni--
dre--
ds--
du--
dub--
duk--
dum--
dur--
dush--
dy--
dyoo--
dz--
e--
ea--
ear--
eb--
ec--
ece--
eco--
ed--
edo--
edu--
ee--
eg--
ei--
eisen--
ej--
ejuke--
ek--
eka--
ektiv--
el--
ela--
eleva--
eli--
em--
eme--
emi--
en--
ena--
end--
eng--
epe--
eph--
epi--
equi--
er--
ero--
erup--
eryth--
es--
escu--
espe--
est--
et--
ethno--
eu--
euro--
ev--
eva--
ex--
excl--
expl--
ey--
f--
fa--
fal--
fan--
far--
fareb--
fas--
fat--
fc--
fe--
fem--
fer--
ferr--
feuer--
feuil--
fi--
fic--
fiji--
fil--
fish--
fitz--
fl--
fla--
fly--
fog--
fol--
foot--
for--
fore--
fos--
fr--
frat--
fre--
fred--
fu--
ful--
full--
fun--
g--
ga--
gaar--
gaayane--
gai--
gal--
gam--
gamb--
gan--
gana--
gang--
gar--
garr--
gas--
gau--
ge--
gend--
gene--
geno--
geo--
ger--
get--
gg--
gha--
ghi--
gho--
ghor--
ghr--
ghu--
gi--
gid--
gil--
gip--
gir--
gle--
glo--
global--
gly--
go--
god--
goh--
gol--
gong--
good--
gr--
grand--
grass--
gre--
green--
gri--
gro--
gron--
gru--
gu--
guer--
gul--
gun--
gur--
guri--
guru--
h--
ha--
habi--
hacı--
had--
hae--
hai--
hair--
hak--
hal--
ham--
han--
har--
hara--
hari--
has--
hat--
hau--
haw--
hay--
haza--
he--
head--
heat--
hed--
hee--
hei--
hel--
hen--
her--
hi--
hid--
high--
hil--
him--
his--
hit--
hmb--
hmbh--
ho--
hol--
hom--
home--
homo--
hon--
hong--
hoo--
hor--
hr--
hs--
hu--
hub--
hum--
hur--
hy--
hyoo--
hyper--
i--
ia--
ib--
ic--
id--
iden--
ie--
if--
ig--
ii--
ij--
ik--
ika--
iko--
il--
illu--
im--
ima--
impl--
in--
ina--
incom--
incu--
inde--
indi--
indie--
induc--
infi--
ing--
inn--
inno--
inst--
insta--
int--
integ--
inter--
inve--
io--
ip--
ir--
is--
isa--
isi--
iso--
ist--
it--
ita--
iu--
iv--
iz--
j--
ja--
jaa--
jab--
jag--
jai--
jal--
jala--
jam--
jan--
jana--
janma--
jar--
jash--
jat--
jay--
jaya--
je--
jen--
jere--
jet--
jewel--
jha--
jhi--
jho--
jhoo--
jhu--
ji--
jo--
joa--
joo--
jool--
jor--
ju--
judg--
jum--
jur--
k--
ka--
kaa--
kaar--
kab--
kah--
kai--
kaj--
kak--
kal--
kam--
kamyunike--
kan--
kar--
kara--
karma--
karya--
kas--
kat--
kath--
kau--
kav--
kaw--
kc--
ke--
kel--
ken--
ker--
kes--
kh--
kha--
khal--
khar--
kho--
khun--
khut--
ki--
kie--
kii--
kil--
kilo--
kim--
kin--
king--
kis--
kk--
kle--
kli--
ko--
kol--
kola--
komp--
kon--
koo--
kor--
koro--
kot--
kova--
koz--
kr--
kraaph--
kris--
kron--
kry--
ks--
kt--
ku--
kuch--
kul--
kum--
kun--
kuz--
kva--
kwa--
kwe--
ky--
kyo--
kı--
kızıl--
l--
la--
lad--
lag--
lai--
lam--
lan--
land--
las--
lau--
le--
lec--
led--
lee--
leg--
leh--
lei--
lek--
len--
lep--
ler--
les--
lev--
ley--
li--
lib--
life--
light--
lin--
lit--
liv--
ll--
lla--
lo--
loc--
lod--
lodo--
log--
lok--
long--
lot--
lou--
lt--
lu--
lud--
ludo--
ly--
lyca--
m--
ma--
maa--
mach--
macl--
mad--
madhu--
mae--
mag--
mah--
maha--
mai--
maj--
maka--
makr--
mal--
mala--
mall--
mam--
mama--
man--
mani--
manife--
mano--
manu--
manvan--
map--
mar--
mari--
mas--
mascu--
mata--
mau--
mavi--
may--
mb--
mc--
mca--
mcc--
mcd--
mcgu--
mck--
md--
me--
medi--
meg--
meh--
mei--
mel--
men--
mer--
mess--
met--
meta--
mi--
mia--
micr--
micro--
mid--
mig--
mik--
mili--
min--
mir--
mis--
mit--
mix--
mm--
mn--
mo--
mog--
mola--
molyb--
mon--
mono--
monog--
mont--
mor--
mos--
mousta--
mp--
mr--
mt--
mu--
mud--
muh--
mul--
multi--
mun--
mur--
murs--
mush--
musk--
mutt--
my--
n--
na--
naa--
nag--
naga--
nai--
naijeer--
nam--
nan--
naq--
nat--
nau--
nav--
naza--
nd--
ne--
nea--
net--
neu--
new--
ng--
nga--
ni--
nia--
nic--
nil--
nir--
niraa--
niran--
nisc--
nish--
nishpa--
nit--
nm--
no--
non--
nor--
north--
not--
note--
nou--
nouve--
now--
ns--
nt--
nu--
nuck--
nur--
nutr--
nv--
ny--
nyoo--
o--
oa--
observat--
oc--
ody--
oe--
of--
og--
ogan--
oi--
ol--
old--
oly--
om--
on--
oo--
oon--
op--
open--
oph--
or--
ora--
org--
ori--
os--
ostr--
ott--
ou--
out--
over--
oy--
oyu--
oz--
p--
pa--
paar--
pad--
pak--
pal--
pan--
par--
para--
pari--
parl--
pas--
pat--
path--
pau--
pe--
pee--
peh--
pen--
per--
peri--
pet--
ph--
pha--
phe--
phi--
phina--
pho--
photo--
phul--
phy--
pi--
pia--
pied--
pig--
pil--
pin--
pl--
pla--
plu--
po--
pob--
poiti--
pol--
poly--
pom--
pon--
pop--
por--
port--
post--
pot--
power--
pp--
pr--
pra--
prakr--
pras--
prati--
pre--
preest--
prefe--
pri--
princi--
priya--
pro--
profess--
prud--
psy--
psycho--
pu--
pul--
pumm--
punar--
pur--
push--
put--
py--
pɾ--
q--
qad--
qi--
qu--
quad--
quat--
qui--
r--
ra--
raa--
raaj--
raaja--
raama--
rachan--
radia--
rag--
rahaa--
rai--
rain--
raj--
raja--
ram--
rama--
ran--
rat--
rath--
raut--
rav--
ray--
rb--
re--
rec--
red--
ref--
refer--
reg--
reh--
ren--
rep--
res--
respec--
retr--
reu--
rev--
rh--
rhe--
ri--
rid--
rif--
rit--
riv--
rivolyoo--
riz--
rk--
ro--
rob--
roche--
rod--
roe--
rog--
roo--
roop--
rox--
roz--
rs--
rt--
ru--
rum--
run--
rup--
rut--
ruth--
s--
sa--
sab--
sach--
sad--
sag--
sah--
saha--
sai--
sal--
sam--
sama--
samj--
san--
sans--
sar--
sara--
saro--
sarv--
sarı--
sat--
sau--
sav--
sax--
say--
sbag--
sc--
scale--
scena--
sch--
schl--
schr--
se--
sea--
see--
seh--
sei--
sel--
sen--
sep--
ser--
set--
sey--
sh--
sha--
shan--
she--
shi--
shiv--
shiva--
sho--
show--
shri--
shrungara--
shu--
shukr--
si--
sid--
sik--
sikh--
sil--
sin--
sir--
siso--
siva--
sk--
sky--
sla--
sm--
sn--
snaan--
sni--
so--
soh--
sol--
son--
soo--
sop--
soro--
sou--
spa--
spe--
spec--
spi--
spur--
sq--
sr--
sri--
ss--
st--
sta--
stain--
stall--
ste--
stein--
stem--
sto--
stol--
str--
stu--
su--
sub--
suff--
sugg--
sugi--
suk--
sul--
sun--
super--
sur--
suruu--
survi--
surya--
suspi--
suva--
sv--
sva--
sw--
sy--
syl--
symb--
symp--
syna--
t--
ta--
taa--
tab--
tai--
tak--
tal--
tala--
tan--
tap--
tar--
tas--
tat--
tau--
tax--
tay--
tb--
tc--
te--
tea--
tee--
teh--
tek--
tel--
telee--
temp--
ten--
ter--
text--
th--
tha--
the--
theo--
thermo--
thi--
thiru--
tho--
thu--
thy--
ti--
tiko--
til--
time--
tin--
tip--
tiru--
tirup--
tit--
tn--
to--
tok--
tol--
tom--
tomb--
too--
top--
tor--
tou--
tour--
tr--
tra--
traib--
tran--
trans--
tre--
trib--
trin--
tro--
tru--
true--
tt--
tu--
tui--
tum--
turk--
tuu--
tv--
ty--
tyoo--
u--
ua--
uah--
uch--
ud--
ug--
uk--
uku--
ul--
ulu--
un--
una--
under--
unun--
up--
upa--
ur--
urd--
urg--
urr--
us--
usa--
user--
uske--
ut--
utsa--
uu--
v--
va--
vaata--
vai--
val--
vale--
van--
var--
vara--
ve--
ved--
vel--
ven--
ver--
ves--
vey--
vha--
vhi--
vi--
vic--
vice--
vid--
view--
vig--
vijaya--
vill--
vin--
viol--
vis--
visit--
vo--
vocat--
vol--
vr--
vu--
vua--
vuda--
vya--
vyava--
vysot--
w--
wa--
wad--
wafa--
wai--
waini--
wal--
wan--
war--
water--
we--
web--
wei--
welt--
west--
wet--
whis--
whit--
wi--
wiki--
wil--
win--
wind--
with--
wo--
won--
wood--
world--
wu--
wy--
x--
xi--
xiao--
xmb--
y--
ya--
yaa--
yan--
yaq--
yar--
yat--
yazı--
ye--
yel--
yi--
yo--
yoo--
york--
yu--
yuva--
z--
za--
ze--
zee--
zi--
ziaud--
zn--
zom--
zon--
zoo--
zoroastr--
zu--
zul--
zwi--
zy--
zya--
ð--
ı--
ɾ--
ʎ--
α--
ν--
ил--
к--
м--
ч--
ال--
ت--
ج--
ر--
س--
سو--
م--
پ--
अ--
आ--
इ--
उ--
ए--
क--
ग--
च--
ज--
ट--
त--
द--
न--
प--
ब--
म--
य--
र--
ल--
व--
श--
स--
প--
র--
க--
ர--
--0
--00
--0001
--04
--06
--07
--1
--12
--13
--16
--2
--21
--3
--30
--31
--34
--36
--4
--40
--42
--46
--5
--51
--53
--55
--6
--60
--61
--62
--65
--67
--68
--7
--71
--76
--79
--8
--82
--85
--87
--9
--98
--a
--aa
--aad
--aadhyaksh
--aah
--aaj
--aal
--aan
--aana
--aar
--aara
--aat
--aatmak
--aav
--ab
--abad
--abarg
--abe
--able
--abyoo
--ac
--ach
--acio
--ack
--ad
--ada
--adaata
--ade
--adee
--ader
--ades
--adi
--ado
--ady
--ae
--aee
--aen
--aes
--af
--ag
--aga
--agam
--agat
--age
--agy
--ah
--aha
--ahl
--ai
--aia
--aiaaj
--aib
--aid
--ail
--aim
--ain
--aind
--aine
--aire
--ais
--aiya
--aj
--ak
--aka
--akaal
--akaar
--akaaree
--akar
--akarta
--ake
--akon
--al
--ala
--alaind
--aldo
--ale
--alis
--all
--ally
--als
--am
--amain
--an
--ana
--ance
--and
--ane
--anee
--ang
--ani
--ania
--anka
--ano
--anon
--ans
--ant
--ao
--aon
--ap
--api
--aqa
--aqbaj
--ar
--ara
--aran
--arat
--ard
--arded
--ards
--are
--aree
--ari
--arian
--aries
--aro
--aron
--aroo
--aroop
--arr
--arri
--arro
--ars
--arth
--ary
--as
--asa
--asar
--ase
--asee
--ash
--asi
--at
--ata
--ataa
--atam
--atan
--ate
--ated
--atee
--ates
--ath
--ation
--atmak
--ato
--ator
--atti
--au
--auli
--aun
--aur
--av
--avaad
--avaadee
--avaadiyon
--avaan
--avaasiyon
--avana
--avati
--ave
--avua
--avyaapee
--awa
--awan
--ay
--aya
--az
--aza
--azi
--b
--ba
--bable
--back
--bad
--baj
--bal
--ball
--ban
--bar
--bd
--be
--berg
--bh
--bi
--bin
--ble
--blik
--bn
--bo
--book
--bow
--box
--br
--bs
--bu
--bul
--burg
--by
--c
--ca
--cal
--cas
--cat
--cco
--ce
--ced
--ces
--ch
--cha
--che
--chh
--chi
--chu
--ci
--cida
--cie
--cies
--cik
--cing
--cini
--cio
--ck
--cker
--cks
--co
--cot
--cott
--craft
--croft
--cs
--ct
--ction
--ctions
--cu
--cuc
--cup
--cus
--cuts
--cy
--cık
--cılar
--d
--da
--daa
--daad
--daha
--dal
--dam
--dan
--dar
--date
--dd
--ddh
--de
--ded
--dee
--den
--der
--dev
--dh
--dha
--di
--dia
--dih
--dik
--din
--ding
--dla
--dle
--do
--dog
--dom
--don
--dor
--dpur
--dra
--ds
--dt
--du
--dua
--dus
--duusra
--dy
--e
--ea
--ean
--eater
--eau
--ebe
--ec
--ech
--ecik
--ed
--eda
--edan
--edia
--ee
--eed
--eej
--eekaran
--eel
--eem
--een
--eena
--eer
--eers
--eet
--eey
--eez
--ef
--ega
--eh
--ei
--ein
--ej
--ek
--eke
--ekh
--el
--ela
--ele
--ell
--elle
--em
--ema
--en
--ena
--enburg
--ence
--end
--ene
--ening
--eno
--ens
--ensis
--ent
--ental
--ente
--entes
--eo
--ep
--eq
--er
--ered
--erenes
--eri
--erly
--ero
--ers
--ert
--eru
--ery
--es
--esa
--ese
--esh
--esi
--eson
--ess
--essa
--est
--et
--eta
--eter
--eth
--eti
--eton
--ets
--ett
--ette
--etti
--ety
--eu
--eur
--ev
--ews
--ey
--ez
--f
--fa
--fe
--feld
--feldt
--fer
--ff
--ffe
--fg
--fi
--fication
--fied
--field
--fies
--fiji
--fp
--ful
--g
--ga
--gaa
--gais
--gan
--ganj
--gar
--garee
--garh
--gat
--ge
--ged
--gee
--gel
--gen
--ger
--ges
--gh
--ght
--gi
--gia
--gie
--gin
--ging
--gins
--gio
--git
--gla
--gle
--gn
--gna
--gne
--gnosis
--gny
--go
--gon
--gor
--gpur
--gra
--grad
--grafia
--gs
--gu
--gua
--guchi
--gue
--gupta
--gus
--gve
--gya
--h
--ha
--haa
--had
--hae
--hai
--hal
--ham
--han
--hani
--hap
--har
--hat
--hd
--he
--head
--hel
--her
--hes
--hi
--hia
--hie
--hik
--hip
--hir
--history
--hit
--hl
--hli
--hma
--hn
--hna
--hne
--ho
--hoecaeqag
--hoecaqqag
--hoff
--hood
--how
--hpur
--hq
--hra
--hre
--hri
--ht
--hta
--http
--https
--hu
--hua
--hur
--hura
--hy
--hya
--i
--ia
--ial
--iam
--ian
--iari
--iary
--ias
--iat
--iation
--ib
--ibe
--ible
--ic
--ica
--ical
--ice
--ich
--iche
--ici
--icle
--ics
--id
--ida
--ide
--ie
--ied
--ield
--ien
--ier
--ies
--iet
--iev
--if
--ification
--ify
--ig
--igan
--igator
--ight
--ih
--iha
--ii
--iin
--ij
--ija
--ijm
--ik
--ika
--iki
--iko
--il
--ila
--ile
--illa
--ily
--im
--imer
--imes
--imeters
--in
--ina
--ind
--ine
--inee
--ines
--ing
--ingham
--ings
--ington
--inh
--ini
--inian
--ino
--ins
--inus
--io
--ion
--ions
--ios
--iot
--ip
--ipedes
--iq
--ir
--ira
--ire
--iri
--iro
--is
--isan
--isation
--isch
--ise
--ised
--ish
--isi
--ism
--ist
--ista
--istic
--ists
--it
--ita
--ite
--ites
--ithi
--iti
--ities
--ity
--iu
--ium
--ius
--iv
--iva
--ivalu
--ive
--ix
--iy
--iya
--iyaa
--iyaan
--iyan
--iyar
--iyo
--iyon
--iz
--ization
--ize
--ized
--izer
--j
--ja
--jah
--jan
--je
--jee
--jesh
--jh
--ji
--jit
--jk
--jo
--jor
--ju
--jud
--juk
--k
--ka
--kaand
--kaar
--kaaron
--kal
--kam
--kan
--kant
--kar
--karan
--karmee
--kc
--ke
--ked
--kee
--kel
--kh
--khi
--ki
--kin
--kka
--kku
--ko
--kol
--kom
--kon
--kot
--kou
--kpur
--kq
--ks
--kt
--kta
--ktas
--ku
--kur
--kus
--ky
--l
--la
--lah
--lal
--lan
--land
--lar
--lative
--lay
--laya
--ld
--ldo
--le
--led
--lee
--leen
--lej
--ler
--les
--less
--let
--ley
--li
--lia
--lic
--lik
--lin
--lina
--line
--lis
--lity
--lk
--ll
--lla
--lle
--llo
--lly
--lm
--lo
--lock
--log
--loid
--lon
--loo
--lova
--lpur
--ls
--lt
--lter
--lu
--lur
--ly
--lı
--m
--ma
--mal
--man
--mba
--mber
--mbh
--mbha
--mbo
--mbu
--me
--men
--ment
--mento
--mer
--mes
--metalusgov
--mha
--mi
--mm
--mo
--mol
--mood
--more
--mos
--mp
--mpa
--mpe
--mpi
--mpur
--ms
--mu
--mus
--mut
--my
--n
--na
--naa
--naath
--nagar
--nagh
--nak
--nal
--nam
--nar
--nas
--nath
--naz
--nberg
--nc
--nce
--ncial
--nco
--ncy
--nd
--nda
--ndar
--nde
--nder
--ndi
--ndo
--ne
--nect
--ned
--nee
--nel
--nen
--ner
--ners
--nes
--nese
--ness
--net
--news
--ney
--ng
--nga
--nge
--ngo
--ni
--nia
--nie
--nier
--nik
--niki
--ning
--nis
--nisau
--nity
--niya
--nj
--nk
--nka
--nke
--nn
--nna
--nne
--no
--non
--nos
--npur
--nri
--ns
--nse
--nsk
--nt
--nta
--nte
--ntee
--nth
--nto
--nton
--ntpur
--nts
--nu
--ny
--nya
--nye
--nze
--nzo
--o
--oa
--ob
--obi
--ock
--od
--oda
--odh
--odi
--oe
--oee
--of
--og
--oga
--ogy
--oh
--oi
--oit
--oj
--ok
--oko
--ol
--ola
--ole
--oli
--olis
--olo
--ology
--olojee
--om
--oma
--ome
--on
--ona
--onal
--one
--ong
--oni
--onme
--ons
--ont
--oo
--ool
--oon
--oor
--oori
--oot
--op
--or
--ora
--ore
--oreusgov
--orha
--orn
--oro
--ors
--os
--osa
--ose
--osi
--oska
--oso
--ot
--oto
--ots
--otti
--ou
--ous
--out
--ov
--ova
--ove
--ovi
--ovich
--ovsk
--ow
--owed
--ows
--oy
--p
--pa
--pan
--para
--pat
--pati
--pe
--ped
--pee
--pes
--pet
--pf
--ph
--pi
--pire
--pit
--pna
--po
--pov
--ppo
--pra
--pretations
--prize
--ps
--pt
--pu
--pur
--pura
--py
--q
--qa
--qq
--que
--r
--ra
--raa
--rad
--rada
--rahaa
--rai
--raj
--rak
--ram
--ran
--rapy
--rau
--rciler
--rd
--rda
--re
--red
--ree
--reima
--rel
--rell
--ret
--rf
--rg
--rh
--ri
--ria
--ric
--rie
--ries
--rif
--rij
--rik
--rina
--rio
--ris
--rit
--river
--rjee
--rki
--rl
--rler
--rm
--rma
--rn
--ro
--roa
--ron
--ror
--ros
--rov
--rova
--rpur
--rr
--rra
--rraa
--rri
--rs
--rsch
--rt
--rte
--rtee
--rth
--rti
--rto
--rts
--ru
--rua
--ruk
--rur
--rus
--rva
--rwa
--ry
--rya
--ryl
--rz
--rı
--s
--sa
--saan
--sac
--sak
--san
--sar
--sberg
--sbury
--sca
--sch
--scious
--se
--sed
--see
--sen
--ses
--sh
--sha
--shaastr
--sheel
--shi
--ship
--ships
--shire
--shtha
--shttps
--shwar
--shya
--si
--sia
--side
--sie
--singh
--sis
--sists
--sive
--ska
--ske
--skee
--sko
--sm
--sman
--so
--son
--sp
--spur
--sr
--sra
--ss
--ssa
--sse
--ssen
--ssi
--sson
--st
--star
--stein
--ster
--sth
--stitute
--sto
--ston
--su
--sun
--sus
--sy
--sya
--t
--ta
--taa
--taan
--tai
--tain
--tal
--tam
--tan
--tant
--tar
--tari
--tation
--tch
--te
--tead
--ted
--tee
--ter
--ters
--tes
--th
--tha
--the
--thi
--thu
--ti
--tian
--tic
--time
--times
--tin
--ting
--tinus
--tion
--tions
--tis
--tist
--tium
--tive
--tja
--tka
--tle
--tner
--to
--ton
--tor
--tori
--tr
--tra
--tri
--ts
--tse
--tsk
--tt
--tta
--ttar
--tte
--tti
--tto
--ttp
--ttps
--tty
--tu
--tur
--ture
--tus
--tv
--twa
--ty
--tya
--tz
--u
--ua
--uain
--ual
--uan
--ub
--uch
--ud
--uda
--uddin
--ue
--uency
--ugue
--uh
--ui
--uit
--uk
--uka
--ukh
--ul
--ula
--ular
--uli
--ullah
--ult
--um
--umi
--un
--una
--ung
--uni
--uo
--up
--ur
--ura
--urat
--ure
--uri
--uru
--ury
--us
--use
--usgov
--ush
--uso
--ust
--ut
--uta
--ute
--uth
--uti
--utu
--uu
--uum
--uur
--uut
--uve
--uwa
--ux
--uya
--uzzi
--v
--va
--vaad
--vaadee
--vaar
--vadar
--vah
--vali
--vamsha
--var
--varti
--vat
--vata
--vcic
--ve
--ved
--vee
--vel
--ver
--ves
--vi
--vic
--vik
--vil
--vile
--vit
--vo
--vu
--vud
--vue
--vy
--w
--wa
--waad
--waan
--waar
--wada
--wah
--wal
--wan
--waqa
--war
--ware
--wat
--way
--we
--wear
--web
--wg
--wi
--wick
--wide
--wig
--wk
--wong
--wood
--work
--wr
--ws
--x
--xi
--xy
--y
--ya
--yaan
--yak
--yaka
--yal
--yam
--yan
--yar
--ye
--yen
--yer
--yera
--yeva
--yi
--yk
--yn
--yna
--yne
--yo
--yon
--yong
--ys
--yu
--yy
--yya
--z
--za
--zada
--zai
--zan
--zar
--zawa
--ze
--zed
--zee
--zel
--zi
--zia
--zing
--zo
--zon
--zy
--zza
--zzi
--zzo
--ı
--ık
--ι
--ς
--τι
--а
--и
--ич
--к
--ка
--н
--р
--я
--ء
--ة
--ت
--د
--سى
--ل
--لله
--ن
--ي
--ین
--क
--ण
--त
--न
--म
--ह
--ன
