!
"
#
##0
##1
##10
##11
##12
##13
##14
##15
##16
##17
##18
##19
##2
##20
##21
##22
##23
##24
##25
##26
##27
##28
##29
##3
##30
##31
##32
##33
##34
##35
##36
##37
##38
##39
##4
##40
##41
##42
##43
##44
##45
##46
##47
##48
##49
##5
##50
##51
##52
##53
##54
##55
##56
##57
##58
##59
##6
##60
##61
##62
##63
##64
##65
##66
##67
##68
##69
##7
##70
##71
##72
##73
##74
##75
##76
##77
##78
##79
##8
##80
##81
##82
##83
##84
##85
##86
##87
##88
##89
##9
##90
##91
##92
##93
##94
##95
##96
##97
##98
##99
$
%
&
'
(
)
*
+
,
-
.
/
0
00
000
001
002
003
004
005
006
007
008
009
01
010
011
012
013
014
015
016
017
018
019
02
020
021
022
023
024
025
026
027
028
029
03
030
031
032
033
034
035
036
037
038
039
04
040
041
042
043
044
045
046
047
048
049
05
050
051
052
053
054
055
056
057
058
059
06
060
061
062
063
064
065
066
067
068
069
07
070
071
072
073
074
075
076
077
078
079
08
080
081
082
083
084
085
086
087
088
089
09
090
091
092
093
094
095
096
097
098
099
1
10
100
1000
10000
1001
1002
1003
1004
1005
1006
1007
1008
1009
101
1010
1011
1012
1013
1014
1015
1016
1017
1018
1019
102
1020
1021
1022
1023
1024
1025
1026
1027
1028
1029
103
1030
1031
1032
1033
1034
1035
1036
1037
1038
1039
104
1040
1041
1042
1043
1044
1045
1046
1047
1048
1049
105
1050
1051
1052
1053
1054
1055
1056
1057
1058
1059
106
1060
1061
1062
1063
1064
1065
1066
1067
1068
1069
107
1070
1071
1072
1073
1074
1075
1076
1077
1078
1079
108
1080
1081
1082
1083
1084
1085
1086
1087
1088
1089
109
1090
1091
1092
1093
1094
1095
1096
1097
1098
1099
11
110
1100
1101
1102
1103
1104
1105
1106
1107
1108
1109
111
1110
1111
1112
1113
1114
1115
1116
1117
1118
1119
112
1120
1121
1122
1123
1124
1125
1126
1127
1128
1129
113
1130
1131
1132
1133
1134
1135
1136
1137
1138
1139
114
1140
1141
1142
1143
1144
1145
1146
1147
1148
1149
115
1150
1151
1152
1153
1154
1155
1156
1157
1158
1159
116
1160
1161
1162
1163
1164
1165
1166
1167
1168
1169
117
1170
1171
1172
1173
1174
1175
1176
1177
1178
1179
118
1180
1181
1182
1183
1184
1185
1186
1187
1188
1189
119
1190
1191
1192
1193
1194
1195
1196
1197
1198
1199
12
120
1200
1201
1202
1203
1204
1205
1206
1207
1208
1209
121
1210
1211
1212
1213
1214
1215
1216
1217
1218
1219
122
1220
1221
1222
1223
1224
1225
1226
1227
1228
1229
123
1230
1231
1232
1233
1234
1235
1236
1237
1238
1239
124
1240
1241
1242
1243
1244
1245
1246
1247
1248
1249
125
1250
1251
1252
1253
1254
1255
1256
1257
1258
1259
126
1260
1261
1262
1263
1264
1265
1266
1267
1268
1269
127
1270
1271
1272
1273
1274
1275
1276
1277
1278
1279
128
1280
1281
1282
1283
1284
1285
1286
1287
1288
1289
129
1290
1291
1292
1293
1294
1295
1296
1297
1298
1299
13
130
1300
1301
1302
1303
1304
1305
1306
1307
1308
1309
131
1310
1311
1312
1313
1314
1315
1316
1317
1318
1319
132
1320
1321
1322
1323
1324
1325
1326
1327
1328
1329
133
1330
1331
1332
1333
1334
1335
1336
1337
1338
1339
134
1340
1341
1342
1343
1344
1345
1346
1347
1348
1349
135
1350
1351
1352
1353
1354
1355
1356
1357
1358
1359
136
1360
1361
1362
1363
1364
1365
1366
1367
1368
1369
137
1370
1371
1372
1373
1374
1375
1376
1377
1378
1379
138
1380
1381
1382
1383
1384
1385
1386
1387
1388
1389
139
1390
1391
1392
1393
1394
1395
1396
1397
1398
1399
14
140
1400
1401
1402
1403
1404
1405
1406
1407
1408
1409
141
1410
1411
1412
1413
1414
1415
1416
1417
1418
1419
142
1420
1421
1422
1423
1424
1425
1426
1427
1428
1429
143
1430
1431
1432
1433
1434
1435
1436
1437
1438
1439
144
1440
1441
1442
1443
1444
1445
1446
1447
1448
1449
145
1450
1451
1452
1453
1454
1455
1456
1457
1458
1459
146
1460
1461
1462
1463
1464
1465
1466
1467
1468
1469
147
1470
1471
1472
1473
1474
1475
1476
1477
1478
1479
148
1480
1481
1482
1483
1484
1485
1486
1487
1488
1489
149
1490
1491
1492
1493
1494
1495
1496
1497
1498
1499
15
150
1500
15000
1501
1502
1503
1504
1505
1506
1507
1508
1509
151
1510
1511
1512
1513
1514
1515
1516
1517
1518
1519
152
1520
1521
1522
1523
1524
1525
1526
1527
1528
1529
153
1530
1531
1532
1533
1534
1535
1536
1537
1538
1539
154
1540
1541
1542
1543
1544
1545
1546
1547
1548
1549
155
1550
1551
1553
1554
1555
1556
1557
1558
1559
156
1560
1561
1562
1563
1564
1565
1566
1567
1568
1569
157
1570
1571
1572
1573
1574
1575
1576
1577
1578
1579
158
1580
1581
1582
1583
1584
1585
1586
1587
1588
1589
159
1590
1591
1592
1593
1594
1595
1596
1597
1598
16
160
1600
1601
1602
1603
1604
1605
1606
1607
1608
1609
161
1610
1611
1612
1613
1614
1615
1616
1617
1618
1619
162
1620
1621
1622
1623
1624
1625
1626
1627
1628
1629
163
1630
1631
1632
1633
1635
1636
1637
1638
1639
164
1640
1641
1642
1643
1644
1645
1646
1647
1648
1649
165
1650
1651
1652
1653
1654
1655
1656
1657
1658
1659
166
1660
1661
1662
1663
1664
1665
1666
1667
1668
1669
167
1670
1671
1672
1673
1674
1675
1676
1678
168
1680
1681
1682
1683
1684
1685
1686
1687
1688
1689
169
1690
1691
1692
1693
1694
1695
1696
1697
1698
1699
17
170
1700
1701
1702
1703
1704
1705
1706
1707
1708
1709
171
1710
1711
1712
1713
1714
1715
1716
1717
1718
1719
172
1720
1721
1722
1723
1724
1725
1727
1728
1729
173
1730
1731
1732
1733
1734
1735
1736
1737
1738
1739
174
1740
1741
1742
1743
1744
1745
1746
1747
1748
1749
175
1750
1751
1752
1753
1754
1755
1756
1757
1758
1759
176
1760
1761
1762
1763
1764
1765
1766
1767
1768
1769
177
1770
1771
1772
1773
1774
1775
1776
1777
1778
1779
178
1780
1781
1782
1783
1784
1785
1786
1787
1788
1789
179
1790
1791
1792
1793
1794
1795
1796
1797
1798
1799
18
180
1800
1801
1802
1803
1804
1805
1806
1807
1808
1809
181
1810
1811
1812
1813
1814
1815
1816
1817
1818
1819
182
1820
1821
1822
1823
1824
1825
1826
1827
1828
1829
183
1830
1831
1832
1833
1834
1835
1836
1837
1838
1839
184
1840
1841
1842
1843
1844
1845
1846
1847
1848
1849
185
1850
1851
1852
1853
1854
1855
1856
1857
1858
1859
186
1860
1861
1862
1863
1864
1865
1866
1867
1868
1869
187
1870
1871
1872
1873
1874
1875
1876
1877
1878
1879
188
1880
1881
1882
1883
1884
1885
1886
1887
1888
1889
189
1890
1891
1892
1893
1894
1895
1896
1897
1898
1899
19
190
1900
1901
1902
1903
1904
1905
1906
1907
1908
1909
191
1910
1911
1912
1913
1914
1915
1916
1917
1918
1919
192
1920
1921
1922
1923
1924
1925
1926
1927
1928
1929
193
1930
1931
1932
1933
1934
1935
1936
1937
1938
1939
194
1940
1941
1942
1943
1944
1945
1946
1947
1948
1949
195
1950
1951
1952
1953
1954
1955
1956
1957
1958
1959
196
1960
1961
1962
1963
1964
1965
1966
1967
1968
1969
197
1970
1971
1972
1973
1974
1975
1976
1977
1978
1979
198
1980
1981
1982
1983
1984
1985
1986
1987
1988
1989
199
1990
1991
1992
1993
1994
1995
1996
1997
1998
1999
2
20
200
2000
20000
2001
2002
2003
2004
2005
2006
2007
2008
2009
201
2010
2011
2012
2013
2014
2015
2016
2017
2018
2019
202
2020
2021
2022
2023
2024
2025
2026
2027
2029
203
2030
2037
204
2040
205
2054
2055
2058
206
2061
207
2071
208
2081
2089
209
21
210
2100
211
2113
212
2123
2128
213
2135
2139
214
215
2152
2157
216
2167
2168
217
218
219
2196
22
220
2200
2205
2209
221
2216
222
223
224
225
226
2260
227
228
2283
2289
229
23
230
2300
231
232
233
234
2347
235
2356
236
237
238
2385
239
24
240
2400
241
242
243
244
245
246
247
248
249
25
250
2500
25000
251
252
253
254
255
256
257
258
259
26
260
2600
261
262
263
264
265
2653
266
267
268
269
27
270
2700
271
272
273
274
275
276
277
278
279
28
280
2800
281
282
283
284
285
286
287
288
289
29
290
2900
291
2917
292
293
294
295
296
297
298
299
3
30
300
3000
30000
301
302
303
304
305
306
307
308
309
31
310
3100
311
312
313
314
315
316
3166
317
318
319
32
320
3200
321
322
323
324
325
326
327
328
329
33
330
3300
331
332
333
334
335
336
337
338
339
34
340
341
342
343
344
345
346
347
348
349
35
350
3500
35000
351
352
353
354
355
356
357
358
359
36
360
3600
361
362
363
364
365
366
367
368
369
37
370
3700
371
372
373
374
375
376
377
378
379
38
380
381
382
383
384
385
386
387
388
389
39
390
3900
391
392
393
394
395
396
397
398
399
4
40
400
4000
40000
401
402
403
404
405
406
407
408
409
41
410
4100
411
412
413
414
415
416
417
418
419
42
420
4200
421
422
423
424
425
426
427
428
429
43
430
431
432
433
434
435
436
437
438
439
44
440
441
442
443
444
445
446
447
448
449
45
450
4500
451
452
453
454
455
456
457
458
459
46
460
4600
461
462
463
464
465
466
467
468
469
47
470
471
472
473
474
475
476
477
478
479
48
480
481
482
483
484
485
486
487
488
489
49
490
491
492
493
494
495
496
497
498
499
5
50
500
5000
50000
501
502
503
504
505
506
507
508
509
51
510
511
512
513
514
515
516
517
518
519
52
520
521
522
523
524
525
526
527
528
529
53
530
531
532
533
534
535
536
537
538
539
54
540
541
542
543
544
545
546
547
548
549
55
550
5500
551
552
553
554
555
556
557
558
559
56
560
561
562
563
564
565
566
567
568
569
57
570
571
572
573
574
575
576
577
578
579
58
580
581
582
583
584
585
586
587
588
589
59
590
591
592
593
594
595
596
597
598
599
6
60
600
6000
601
602
603
604
605
606
607
608
609
61
610
611
612
613
614
615
616
617
618
619
62
620
621
622
623
624
625
626
627
628
629
63
630
631
632
633
634
635
636
637
638
639
64
640
641
642
643
644
645
646
647
648
649
65
650
6500
651
652
653
654
655
656
657
658
659
66
660
661
662
663
664
665
666
667
668
669
67
670
671
672
673
674
675
676
677
678
679
68
680
681
682
683
684
685
686
687
688
689
69
690
691
692
693
694
695
696
697
698
699
7
70
700
7000
701
702
703
704
705
706
707
708
709
71
710
711
712
713
714
715
716
717
718
719
72
720
721
722
723
724
725
726
727
728
729
73
730
731
732
733
734
735
736
737
738
739
74
740
741
742
743
744
745
746
747
748
749
75
750
7500
751
752
753
754
755
756
757
758
759
76
760
761
762
763
764
765
766
767
768
769
77
770
771
772
773
774
775
776
777
778
779
78
780
781
782
783
784
785
786
787
788
789
79
790
791
792
793
794
795
796
797
798
799
8
80
800
8000
801
802
803
804
805
806
807
808
809
81
810
811
812
813
814
815
816
817
818
819
82
820
821
822
823
824
825
826
827
828
829
83
830
831
832
833
834
835
836
837
838
839
84
840
841
842
843
844
845
846
847
848
849
85
850
8500
851
852
853
854
855
856
857
858
859
86
860
861
862
863
864
865
866
867
868
869
87
870
871
872
873
874
875
876
877
878
879
88
880
881
882
883
884
885
886
887
888
889
89
890
891
892
893
894
895
896
897
898
899
9
90
900
9000
901
902
903
904
905
906
907
908
909
91
910
911
912
913
914
915
916
917
918
919
92
920
921
922
923
924
925
926
927
928
929
93
930
931
932
933
934
935
936
937
938
939
94
940
941
942
943
944
945
946
947
948
949
95
950
9500
951
952
953
954
955
956
957
958
959
96
960
961
962
963
964
965
966
967
968
969
97
970
971
972
973
974
975
976
977
978
979
98
980
981
982
983
984
985
986
987
988
989
99
990
991
992
993
994
995
996
997
998
999
:
;
<
=
>
?
@
\
^
_
`
a
aa
aaron
ab
abado
abandon
abandona
abandonar
abasia
abate
abatudo
abba
abbaye
abbia
abbiamo
abbie
abc
abi
abia
abiando
abie
abita
abitada
abitanti
abitasion
abitava
abiti
abito
abiłita
abondanzia
about
abołision
abraham
abruso
abside
abu
abudo
abuo
ac
acade
academia
academy
acca
accademia
accennando
accio
accosta
aceso
aceta
achille
acio
aco
acorda
acordi
acordo
acqua
acque
acredita
acro
act
action
actv
acu
acua
acue
acuitania
acuizision
acusa
acuto
acuxativo
acuza
ad
ada
adam
adamo
adams
adata
addio
ade
adese
adeso
adessadesso
adesso
adevene
adexe
adezion
adi
adio
adiritura
adisionałi
ado
adolf
adolfo
adoncha
adonqua
adosion
adosso
adota
adotada
adria
adriano
adriatico
adventures
ae
aea
aerea
aerei
aereo
aeroporto
afacia
afar
afari
afasa
aferma
afermasion
afghanistan
afianca
afida
afluente
afluenti
afregada
afreschi
afresco
africa
african
africana
africane
africani
africano
afronta
after
ag
aga
again
agaricus
agata
age
agente
aghi
agiuto
agli
agn
agnelli
agnese
agno
ago
agostino
agosto
agra
agresion
agri
agricola
agricoltori
agricoltura
agricołe
agricultura
agrixento
agro
agrumi
aguilera
agustin
ah
ahi
ai
aia
aida
ain
air
aires
airlines
aisne
aix
ajax
ajensia
ajetivo
ajo
ajuto
al
ala
alan
alaska
alba
albacete
alban
albania
albano
albari
albaro
albergo
albert
alberto
alboreto
albori
alboro
album
albun
alcatel
alchuna
alchuno
alcun
alcuna
alcune
alcuni
aldi
aldo
ale
alegrec
alenc
alessandria
alessandro
alessio
alevamento
alex
alexander
alexandre
alfa
alfabeti
alfabeto
alfin
alfonso
alfred
alfredo
algeria
algun
alguna
algune
alguni
ali
alicante
alice
aliegra
aliegro
alighieri
align
alignbars
all
alla
alle
allegramente
allegria
allen
allenatore
allier
allmusic
allo
allora
almanacco
almanco
almeno
almeri
alo
alora
alpago
alpe
alpes
alpha
alpi
alpin
alpina
alpini
als
alsa
alt
alta
altar
altare
alte
alterna
alternativa
altesa
alti
altimetrica
altipian
altipiani
altitu
altitudine
alto
altopian
altra
altre
altri
altro
altrosi
altura
alvaro
alveołare
alvergna
alvise
alza
am
ama
amalfi
amante
amanti
amantinente
amar
amara
amare
amaro
amato
amava
ambox
ame
amedeo
amen
america
american
americana
americane
americani
ami
amica
amici
amicisia
amicizia
amico
amiga
amighe
amighi
amigo
aministra
aministradiva
aministrador
aministrasion
aministrativa
aministrativamente
aministrative
aministrativi
aministrativo
amira
amisi
amo
amoled
amoni
amor
amorato
amore
amori
amoroso
amsterdam
amstetten
amtsbezirk
amy
an
ana
anare
anatomia
anałixi
anbedo
anbienta
anbiente
anbienti
anbision
anbito
anburgo
anc
anca
anch
anche
anchora
anci
anco
ancona
ancor
ancora
ancu
ancuo
and
anda
andada
andado
andai
andalusia
andamento
andando
andar
andara
andare
andaremo
andaro
andasse
andata
andate
andava
andałusia
ande
andemo
andera
andere
anderemo
andero
anderson
andeu
andeva
andiamo
ando
andora
andove
andre
andrea
andreotti
andrew
andrews
andria
android
andy
ane
anello
anelo
anema
anemałi
aneme
anemo
anesion
angel
angela
angeles
angeli
angelini
angelo
angels
angiola
anglo
angola
angołi
angoło
ani
anima
animal
animali
animasion
animałe
animałi
anime
animo
aniversa
aniversario
ann
anna
anne
anni
anno
ano
anonimo
another
anpia
anpio
anpli
anpo
ans
anselmi
ansi
anta
ante
antena
antenati
anteprima
anteriore
anthony
anti
antica
antiche
antichi
antichita
antico
antiga
antighe
antighi
antighita
antigo
antisipa
antiłe
anto
antoine
antologia
anton
antonello
antonio
antra
antro
anualmente
anuałe
anuncia
anunsa
anunsia
anuła
anz
anzi
anzola
anzoleto
anzoletta
anzoletto
anzolo
ao
aonde
aosta
aparato
apare
aparensa
apari
aparise
aparision
apartheid
apartien
apelado
apena
apenxeło
aplegasion
aplica
aplicasion
apo
apollo
apologhi
aponto
aposta
apostoło
app
apple
apre
apresa
apreso
apresso
april
aprile
apriłe
aprosimante
aprova
aprovada
aprovasion
aprovo
apunto
aqua
aque
aquila
aquitania
aquiła
aquiłeja
ar
ara
araba
arabi
arabia
arabo
aragona
aramu
aranti
arbore
arc
arca
archi
architeti
architeto
architettura
architetura
architeture
archive
archivio
arcipelago
arcivescovo
arco
arcuanti
arde
ardennes
ardidamentre
ardido
ardir
are
area
arecordo
aree
arena
arent
arente
areso
aresta
arezo
argentina
argento
argomento
argonne
argovia
ari
aria
arido
arie
aristocrasia
ariston
ariva
arivo
arizona
arl
arlecchino
arlevamento
arma
armada
armadi
armado
armae
armagnac
armai
armando
arme
armenia
armi
armo
armonia
armor
army
arno
arnold
around
arpa
arr
arriva
arrondissement
arrows
ars
arsena
arsenal
arsenale
arsipe
arsipełago
art
arte
artegołasion
arthur
arti
articolo
articołi
articoło
artista
artistega
artistego
artisti
arts
artus
arxento
arzentina
arzento
as
asa
asai
asalto
asaver
asburgo
ascoli
ascolta
ascolti
ascolto
ascołi
ase
asedio
asegna
asenblea
asenja
aseno
asensa
asento
aseta
asi
asia
asiago
asieme
asion
asistensa
asistente
aso
asocia
asociasion
asołuta
asołuto
asparagus
aspeta
aspeti
aspeto
aspetta
aspettar
aspette
aspetto
assae
assai
asse
assedio
assisi
asso
association
associazione
asta
astero
asteroide
asti
astro
astrona
astrono
astronomia
astu
asturian
asturie
asumesto
asunto
at
ataca
atachi
ataco
atalanta
atanto
atene
atension
atenta
atentai
atentato
atesta
ati
ativa
ativi
ativita
ativo
atla
atlantego
atlantic
atlantico
atlantique
atlantiques
atmosfe
atmosfera
ato
ator
atora
atore
atori
atorno
atrasion
atraversa
atraverso
atribui
atti
attilio
attimo
atto
atual
atuale
atualmente
atuałe
atuałi
au
aube
aubin
aude
audio
audision
audret
auge
august
augusta
auguste
augusto
aumenta
aumentar
aumento
aurantium
austin
austra
australe
australia
australian
austrałia
austri
austria
austriaca
austriaci
austriaco
austro
aut
auto
autobiografia
autobus
autogol
automa
automatego
automo
automobiłi
autonoma
autonome
autonomi
autonomia
autonomo
autor
autore
autori
autorita
autostrada
autuno
aux
ava
avanti
avati
ave
avea
avegnimenti
avegnimento
avegniminti
avegnu
avemo
avena
avendo
avento
aventura
aventure
avenue
aver
avera
averave
avere
averghe
averia
avero
aversario
avertaura
averto
avesse
avessi
avesto
avete
aveu
aveva
aveyron
avełin
avi
avien
aviso
avixo
avocato
avorio
avra
avri
avril
avrił
avriłe
avu
avudo
avuo
avuto
award
awards
away
ax
axia
axienda
axiende
axura
ay
az
azia
azienda
aziende
azion
azione
ał
ała
ałe
ałeansa
ałenador
ałesandria
ałevamento
ałi
ałimentari
ałora
ałuvion
b
ba
baby
bacio
back
background
backgroundcolors
bad
bada
badajoz
baden
badia
baffo
baglioni
bagna
bagnada
bagni
bahamas
bai
baia
bains
baja
baker
bal
balanso
balar
balcani
balcon
balconi
baldini
baldwin
ball
balla
ballar
ballarin
ballo
balo
balon
bambino
ban
banca
banche
banco
band
banda
bande
bandiera
bandiere
bandierine
bando
bang
bangladesh
bank
bano
bantu
baptiste
bar
bara
baranja
barb
barba
barbara
barbarani
barbari
barbarigo
barbaro
barbarossa
barca
barcariol
barcarole
barcelona
barcełona
barche
bardata
bare
bari
bariera
barilla
barleta
barnaba
baro
baroco
baron
baroni
barra
barry
barsełona
barthe
bartolomeo
barufa
bas
basa
basan
basca
baschi
basco
base
baseggio
basi
basin
basis
basista
basket
baso
bass
bassa
basse
bassi
basso
basta
bastansa
basten
bastia
bastian
bastiana
bastion
baston
bat
batagia
bataglia
bataia
bataja
bataje
batalia
bataria
bataya
bate
bateri
bateria
baterista
batista
batman
battaglia
batte
battiato
battista
battisti
battle
batu
baudo
bautta
bavaria
baviera
baxa
baxe
baxełega
baxi
baxilea
baxiłicata
bay
baza
bazarelo
baze
bała
bałacanestro
bałanso
bałeari
bałi
bało
bałon
bbc
be
bea
beach
beat
beata
beati
beatles
beato
beatrice
beaulieu
beaumont
beautiful
bec
beck
beethoven
before
begin
behind
bei
bel
bela
belche
bele
belfort
belga
belgrado
beli
believe
bell
bella
belle
bellec
bellezza
belli
bellini
bello
belmont
belo
belun
belzo
ben
benche
bene
benedeta
benedeto
benedetta
benedetto
benedito
beneficensa
benetto
benetton
benevento
beni
benin
benissimo
benito
benjamin
benvenuti
bep
bepi
bepo
beppe
beppo
ber
berberi
bere
bergamo
bering
berlin
berlino
berlusconi
berna
bernard
bernardin
bernardo
bernexe
berry
bertagna
berte
berto
besogna
besogno
best
bestia
bestie
bet
beta
beti
betina
bett
betta
bettina
beve
bever
bevere
bezzi
bezzo
beła
bełe
bełesa
bełun
bg
bi
bia
biagio
bianca
bianche
bianchi
bianco
biasio
bibia
bibliografia
biblioteca
biden
bie
bieber
bien
bieła
big
bilancio
bilbao
bile
bili
bill
billboard
billy
bilora
bin
bio
biografia
biografie
biography
bionda
bira
bis
bisestiłi
bisogna
bisognera
bisogno
bissau
bit
bito
bixogno
bizantin
bizantini
bizesti
bizkaia
bizzarre
biłabiałe
biłe
biłi
biłogora
bjelovar
bl
bla
black
blackmore
blanc
blanche
blanor
blast
ble
blega
bleghe
bleghi
blego
blica
bliomberis
bloca
block
bloco
blog
blogspot
blood
blu
bludenz
blue
blues
bluetooth
bmatrix
bmw
bo
boat
bob
bobby
boca
bocalon
bocca
boccon
bocelli
boche
body
boeri
bogart
bois
bol
boldo
boletus
bolivia
bologna
bolxan
bolzan
bon
bona
bonagrazia
bonaparte
bonba
bonbarda
bonbardamento
bondi
bone
bongusto
boni
bonifacio
bonnet
bono
bonora
bonta
bontade
bonus
boogie
book
books
boom
border
bordi
bordo
borgo
borgogna
born
borsa
bort
bortolo
bosc
boschi
bosco
boss
bossi
boston
bot
bota
botega
boteghe
boto
botswana
bottega
bottom
bouches
boulogne
bourg
bourgogne
box
boy
boys
boła
bołe
bołi
bołivia
bołogna
br
brabante
brac
braccio
bragadin
braghe
brainstorming
branca
brandan
brando
brani
brano
brasil
braso
brassica
braunau
brava
bravi
bravo
braxil
bray
braziłe
brazzo
bre
brega
bregenz
brenchaina
brendani
brenta
bresa
brescia
bresia
bresse
bretagna
bretagne
breuil
breve
breveta
breveto
bri
bria
brian
briansa
bridge
brie
briga
brigh
brighella
brigida
brindixi
brita
britanica
britanico
britannica
british
bro
broadway
brod
brodo
bronxo
bronzo
brooklyn
brooks
bros
brothers
brown
browser
broye
bru
bruce
bruck
brunate
bruno
brusa
bruta
bruto
brutta
brutto
bruxelles
bu
buc
budget
buenos
build
bul
bulgaria
bull
buo
buon
buona
buoni
buono
buran
buratti
burgenland
burgos
burkina
burla
buro
burundi
bus
bush
business
busio
bussie
busto
buta
butar
butta
buzarona
by
c
ca
cabaret
cac
cacao
cacia
cada
cade
cadena
cadene
cador
cadore
caduta
cae
caena
caene
cafe
caffe
cagliari
cai
cairo
cajari
cala
calabria
calc
calche
calcio
calcosa
calda
calde
caldo
cale
calendario
california
call
calle
calma
calmo
calor
calsi
calsiasi
caltaniseta
calvados
calvi
cam
camara
camare
cambia
cambio
cambridge
cameo
camera
cameron
camerun
camillo
camin
caminar
camisa
camp
campagna
campagne
campana
campania
campanile
campi
campionato
campo
campos
can
cana
canada
canadexe
canadeze
canal
canale
canaregio
canałe
canałi
canbi
canbia
canbiamenti
canbiamento
canbiaminti
canbiar
canbio
cancaro
canciano
cancro
candela
candia
candida
candidai
candidatura
cane
cani
cannes
cano
canon
canone
canoni
canova
canpagna
canpagne
canpana
canpane
canpania
canpanie
canpaniłe
canpi
canpion
canpiona
canpionati
canpionato
canpioni
canpo
canpobaso
canso
canson
cansoni
canta
cantada
cantal
cantando
cantante
cantanti
cantar
cantare
cantaudor
cantautore
cantautori
canti
canto
canton
cantoni
canvas
canzio
canzon
canzone
canzonete
canzoni
canzonieri
canzonissima
cao
caologo
caołogo
cap
capa
capac
capace
capasita
capasitiva
cape
capel
capello
capeła
capeło
capi
capio
capir
capire
capise
capisso
capita
capital
capitale
capitan
capitani
capitałe
capitoli
capitolo
capo
capoluogo
capołogo
cappello
capra
captain
car
cara
carabinieri
caraibi
carara
caratari
caratariza
caratere
carateri
carateristega
carateristeghe
carateristica
carateristiche
caraterixa
caraterixada
carateriza
caraterizada
carbo
carbon
carbonio
card
cardi
cardinal
cardinale
cardinałe
care
carega
careghe
carey
carga
cargo
cari
carica
carie
cariera
carinsia
carita
carl
carla
carlo
carlos
carlota
carlotta
carmagnola
carmen
carne
carneval
carnioła
caro
carol
carolina
carosello
carpasi
carra
carriera
carso
carta
carte
cartełi
cartełin
casa
casale
casanova
casca
cascada
cascar
case
casi
casino
casion
caso
caspita
cassa
cast
caste
casteja
castel
castellano
castello
castelnau
castelnuovo
castelo
castełi
casteło
castiglia
castro
cat
cata
catai
catania
catanxaro
catar
catare
catarina
catarse
catava
catałan
cate
catechismo
catedral
catedrałe
categoria
categorie
catemo
catena
caterina
catełan
catełogna
catina
cativa
cativo
cato
catolega
catoleghi
catołega
catołic
catołica
catt
catte
cattina
cattiva
cattivo
cattolica
catura
causa
cauxa
cauza
cava
caval
cavalarie
cavalcha
cavali
cavalier
cavaliere
cavalieri
cavallo
cavalo
cavar
cavałi
cavałier
cavało
cave
cavedal
cavedałe
cavedałi
cavei
cavita
cavo
cavołogo
caxa
caxe
caxerta
caxi
caxo
caza
cazada
caze
cazi
cazo
cazza
cazzo
cała
całabria
całe
całenda
całendario
całifornia
całor
cbs
cc
cd
cdot
ce
cea
cec
ceca
ceccaroni
cecilia
ceco
cedu
cee
cei
celentano
cell
celle
cena
cenno
censi
censii
censimento
center
cento
central
centrale
centralino
centre
centri
centro
century
ceo
cerca
cercar
ceres
cerimonia
ceriotto
certa
certe
certi
certo
cervo
cesa
cesare
cesena
cetra
cexa
cexe
ceza
ceze
ceła
cf
cfr
cgd
ch
cha
chaan
chac
chamera
chamin
champ
champagne
champions
champs
chan
change
chani
chapelle
chaplin
charente
charles
charlie
charlot
charne
chart
chastelle
chastello
chaux
chavalarie
chavalcha
chavali
chavalier
chavalieri
chavalo
chavo
chaxa
che
checa
checca
checchina
chei
chel
chela
cheli
chelo
cher
chess
chevrolet
cheł
cheła
chełe
chełi
cheło
chi
chia
chialo
chiama
chiamar
chiapa
chiar
chiara
chiaretta
chiaro
chiavar
chiave
chicago
chie
chies
chiesa
chiese
chieti
child
chilometri
china
chine
chitara
chitare
chitarista
chitaristi
chive
chiło
chiłometri
cho
choice
chome
chomo
chon
chontra
chorpo
chorte
chossa
chosse
chris
christian
christmas
christophe
christopher
chului
church
churchill
chusi
chussi
chustui
ci
cia
ciad
ciafuxa
ciama
ciamada
ciamade
ciamadi
ciamae
ciamai
ciamar
ciamava
cianta
ciao
ciapa
ciapando
ciapar
ciapare
ciapava
ciara
ciaramente
ciare
ciaro
ciave
ciavi
ciavitu
ciclo
ciclone
cie
ciel
cielo
ciera
ciesa
cieza
cile
cilento
cima
cimento
cina
cine
cinema
cinese
cinexe
cineze
cinquanta
cinque
cio
ciocołato
cioe
ciopa
ciopo
cipro
cir
circa
circo
circoli
circoscrision
cismon
cit
cita
citade
citasion
citrullus
citrus
citta
cittadella
city
ciudad
ciurma
civico
civil
civile
civilta
ciłe
cklabruck
cl
cla
clair
clan
clapton
clara
clark
clarke
clase
clasi
clasica
clasico
clasifega
clasifegasion
clasifeghe
clasifica
clasificasion
class
classe
claude
claudia
claudio
cle
clega
clemente
cleo
clermont
clero
cli
client
cliff
clima
climi
clinton
cln
club
cm
cmbox
cnega
cneghe
cnego
co
coa
coalision
coast
coałision
cocciante
cochi
coco
coda
codaxe
code
codexe
codice
coe
cofa
cognome
cognoser
cognosse
cognosso
cognossu
coi
col
cola
cold
cole
colega
colegamenti
colera
coli
colina
coline
coll
colla
collapse
colle
collection
collegamenti
college
collera
collezione
collins
collo
colo
cologneblue
colombe
colombo
colona
colone
coloni
colonia
colonie
colonna
color
colorado
colore
colori
colors
colpa
colpe
colpi
colpise
colpo
coltiva
coltivasion
colu
columbia
com
coma
comanda
comandante
comandar
comandi
comando
comare
come
comedia
comedie
comemorasion
comenc
comencini
comenza
comerc
comerciali
comerciałe
comerciałi
comercio
comersiałe
comersiałi
comersio
comerso
comes
comici
comico
comision
comita
comitato
commedia
commons
commonwealth
communications
como
comoda
comore
compact
compagna
compagni
compagnia
compagno
company
compare
compassion
compatissa
compatisso
compilation
completamente
composto
compra
comprar
comprende
compton
computer
comte
comu
comun
comuna
comunal
comunale
comunałe
comuncue
comune
comunegasion
comunemente
comuni
comunica
comunicasion
comunida
comunismo
comunista
comunisti
comunita
comunque
con
conan
conbate
conbater
conbatimento
conbatu
conbina
conbinasion
conc
conca
concert
concerti
concerto
concesion
conceti
conceto
conci
concilio
conciłio
concluzion
concorensa
concorente
concorso
concuista
condado
condana
conde
condision
condusion
condutor
condutora
condutori
conduxe
conduxesto
conduze
conduzesto
conegliano
conejan
conesion
confarensa
confederasion
conferensa
conferma
confesion
confidenza
configurasion
confin
confina
confinanti
confine
confini
confliti
conflito
confluensa
confronti
confronto
confusion
confuso
congiuntiv
congo
congreso
congress
conmandamento
conmenc
conmenza
cono
conose
conosensa
conosense
conosesta
conoseste
conosesti
conosesto
conoseva
conosu
conosua
conosuo
conpagna
conpagne
conpagni
conpagnia
conpagnie
conpagno
conpagnoni
conpania
conpanja
conpanji
conpanjo
conpare
conpari
conparise
conparsa
conpetensa
conpetense
conpetision
conpito
conplesi
conpleso
conpleta
conpletamente
conpleto
conpone
conponente
conponenti
conponesta
conponesto
conporta
conportamento
conposta
conposti
conposto
conpoxision
conpozidor
conpozision
conpra
conprende
conprendeva
conprexa
conquista
conquistar
consacra
consacrasion
conse
consecutive
consegio
consegna
consegue
conseguensa
conseguente
conseio
consejeri
conseji
consejo
consensi
consenso
consente
consenti
consentra
conserti
conserto
conserva
conservasion
consevensa
consi
considara
considera
considerada
considerae
considerai
considerando
considerar
considerasion
considere
consiglio
consilio
consiste
conso
consola
consolazion
consolo
consonante
consonanti
consorsio
consorte
consulta
consuma
consumo
conta
contadin
contadina
contadini
contado
contar
contarini
contati
contato
contava
conte
contea
contee
contegnente
contegnu
contegnui
contegnuo
contenjente
contenpo
contenporanea
contenporaneamente
content
contenta
contenti
contento
contero
contessa
contest
contesto
conti
contien
continental
continentałe
continente
continenti
continua
continuamente
continuar
continue
continuita
continuo
conto
contra
contrada
contrade
contrari
contrario
contrasto
contrato
contribui
contribuio
contribuise
contributi
contributo
contro
control
controla
controlar
controlava
controlo
controła
controło
convension
convento
conversazion
conversion
convien
convinto
conza
cook
cooper
coordinate
copa
copai
copando
copar
cope
copia
copie
coppa
coppola
copyright
cor
coraggio
corajo
corbie
corbucci
corda
corde
cordoba
core
corea
corente
corenti
corer
coresponde
coretamente
coreła
corełade
corełae
corfu
cori
corisponde
corispondensa
corispondente
corner
corni
corno
cornovagia
cornovaia
cornovaya
coro
coroc
corona
coronavirus
corpi
corpo
corporation
corpus
corrado
corre
correr
corriere
corsa
corsari
corse
corsi
corsia
corsica
corso
corsse
corte
cortesan
cortese
cortesia
cortina
corun
corusion
cos
cosa
cosby
cose
cosenza
cosi
cosita
cosmo
cospetto
coss
cossa
cosse
cossi
costa
costansa
costante
costantino
costantinopoli
costantinopołi
costanza
coste
costi
costiera
costituente
costitui
costituia
costituio
costituise
costitusion
costitusionałe
costo
costreto
costrui
costruia
costruio
costruir
costrusion
costrutori
costu
costuma
costume
costumi
cosworth
cotal
coton
country
courcelles
court
cover
coverta
covertina
coverto
covid
coxensa
coła
cołabora
cołaborasion
cołe
cołega
cołegamenti
cołegamento
cołeghi
cołejo
cołesion
cołi
cołina
cołine
coło
cołona
cołone
cołonia
cołoniałe
cołonie
cołor
cołore
cołori
cpu
craxi
crazy
cre
crea
creada
creando
creanza
crear
creasion
creatura
creature
creda
crede
credenza
creder
credesse
credeu
credeva
credita
credito
credo
creek
crema
cremona
crese
cresente
cresesto
cresimento
cresita
cresu
creta
crete
creuse
cri
cria
criar
crida
crimea
crisi
crist
cristian
cristiana
cristiane
cristianesimo
cristiani
cristiano
cristina
cristo
cristofolo
cristoforo
critega
criteri
critica
critiche
critici
critico
crixi
crize
crizi
crnigoj
cro
croa
croasia
croata
croati
croato
croce
croix
croma
cronaca
cronpa
cros
cross
crosta
croton
croxe
croze
crudel
cruz
cry
cs
css
cstn
cu
cua
cuadra
cuadro
cual
cualche
cualita
cuande
cuando
cuanti
cuantita
cuanto
cuaranta
cuarta
cuartier
cuartieri
cuartiero
cuarto
cuatro
cuaxi
cuazi
cuała
cuałe
cuałi
cuałita
cuało
cuba
cuban
cubana
cubia
cucchetti
cucumis
cucurbita
cue
cuei
cuel
cuela
cuenca
cuerto
cuerze
cuesta
cuesti
cuestion
cuesto
cueła
cuełe
cuełi
cueło
cugna
cugnada
cui
cuindi
cuinta
cuinto
cuisance
cul
culi
culo
cultivar
cultivasion
culto
cultura
cultural
culturale
culturałe
culturałi
culture
cului
cum
cun
cuna
cuneo
cunta
cuor
cuore
cuori
cuota
cup
cupa
cura
cure
curiosita
curioxita
curta
curte
curti
curtis
curto
curva
cusi
cusina
cusita
cussi
cussita
custi
custom
custui
cuxina
cuxio
cuxo
cuzina
cuła
cułi
cuło
cv
cy
cyr
d
da
dada
dado
dadri
dae
daga
dago
dai
dal
dala
dale
dali
dall
dalla
dallas
dalle
dalmancio
dalmasia
dalmata
dalmazia
dalo
dama
dame
damisela
damisele
damisella
dampierre
dan
dana
danari
dance
dando
danemarca
dani
daniel
daniela
daniele
danimarca
danno
danny
dano
dante
dao
dapartuto
dapo
dapuo
dar
dara
dard
dare
darente
darghe
dario
dark
darkgrey
darme
daro
darse
darwin
das
dasa
daspo
daspuo
dasse
dasseno
dat
data
database
date
dateformat
dati
dativo
dato
datorno
dava
davanti
dave
david
davide
davis
daxe
day
days
daze
dazesto
dazi
dał
dała
dc
dd
de
dea
dead
death
debia
debiti
debito
deboto
debotto
debuta
debuto
dec
decadensa
decide
decidesto
decima
decision
deciso
decixo
decizion
declara
declarasion
declin
declinasion
decora
decorasion
decreto
dedega
dedica
dedicada
dedicarse
dee
deejay
deenta
deep
defati
default
defender
defeza
defini
definia
definie
definii
definio
definir
definise
definision
definitiva
definitivamente
definitivo
dega
deghe
deghi
degli
degna
degno
dego
deh
dei
del
dela
dele
deli
dell
della
delle
delli
dello
delo
delta
deme
demo
democra
democrasia
democratego
demogra
demografega
demografia
demografica
demografico
demora
demorado
demoramento
demorar
demostra
den
denari
dene
denis
deno
denomena
denomenada
denomenasion
denomina
denominasion
densita
dentałe
dente
denti
dentro
deo
departementi
departemento
depeche
depende
depresion
deputa
deputai
deputati
deputato
der
derby
deriti
derito
deriva
derivante
derivanti
derivasion
derrick
des
descorso
descri
description
descrisio
descrision
descrito
descrive
descuerta
descuerto
descuerze
dese
desenbre
deserto
desfa
desfada
desfar
desfere
desfruta
desgrazia
desid
deside
desiderio
desidesto
design
desizion
desktop
desmentega
desmonta
deso
desovra
despiase
dess
desso
destaca
desti
destin
destina
destinada
destinasion
destingue
destino
destra
destribusion
destriga
desviłupa
desviłupo
deta
detective
determena
determina
detien
detroit
detta
dette
detti
detto
deu
deus
deux
deva
devant
deve
devegner
devegnesta
devegnesto
devenjesta
devenjesto
deventa
deventada
deventando
deventar
deventara
devesse
deveva
devien
dexe
dexerto
dexinensa
dexinense
deza
dezastro
deze
dezi
deł
deła
dełimita
di
dia
dialeti
dialeto
dialetto
dialogo
diamanti
diana
diane
diario
diavolo
diaz
diałeti
diałeto
dic
dica
dice
dicembre
dicenbre
dichiara
dichiarasion
dici
dick
dico
dictionary
diddley
didier
die
dieci
diego
dies
diese
dieta
dietro
diexe
dieze
difare
difarensa
difarense
difarensia
difarente
difarentemente
difarenti
difati
diferensa
diferenti
difesa
difexa
difficolta
difi
dificolta
difisiłe
difondesta
difondeste
difondesti
difondesto
difusion
difuxion
difuzion
diga
digando
dighe
digital
digo
dimanda
dime
dimension
dimision
dimostra
din
dina
dinadan
dinastia
dino
dintorn
dio
diocesi
diocexi
dipartimento
dipende
dipendente
dipendenti
dipinti
dipinto
diploma
dir
dira
dirama
dirave
dire
diresion
direta
diretamente
direte
direti
direto
diretor
diretore
dirghe
dirigente
diriti
dirito
dirixesto
dirizesto
dirme
diro
dis
dischi
disco
discogra
discografega
discografego
discografia
discogs
discorsi
discorso
discusion
dise
diseghe
disela
diseme
disenbre
disendenti
disesse
diseu
diseva
disi
disionałe
disiplina
disipline
disna
disnar
disney
display
disponi
disponibiłe
dispoxidivi
dispoxidivo
dispoxision
dispozidivi
disputa
disse
distansa
distante
distanti
distingue
distinsion
distret
distreti
distreto
distribui
distribusion
district
distrusion
distu
dit
dita
ditator
ditatura
dite
diti
dito
ditto
div
divegnendo
divegnesto
diventa
diventando
diventar
diversa
diversamente
diverse
diversi
diverso
divertimento
divi
divide
dividesta
dividesto
divien
divina
divinita
divisa
division
divisioni
diviso
divixa
divixi
divixion
divixo
divizion
divorsia
divorsio
dixe
dixea
dixendo
dixeno
dize
dizesto
dizionario
dizitałe
dj
django
djvu
dl
dling
dna
do
doa
doc
documenta
documentario
documentasion
documenti
documento
dodese
dodexe
dodicesima
doe
dog
dogado
dogal
doi
dolc
dolce
dolente
dollari
dolomiti
dolor
dolori
dolse
doman
domanda
domandar
domandava
domande
domando
domani
dome
domenega
domenica
domenico
domi
domina
dominasion
domine
domini
dominio
dommartin
domo
dompierre
don
dona
donald
donar
donasion
donatello
donca
donde
done
donna
donne
dono
donqua
dopa
dopara
doparada
doparae
doparai
doparando
doparar
doparare
doparasion
doparava
dopera
doperada
dopia
dopio
dopo
dopoguera
dopra
dor
dora
dordogna
dorme
dormi
dormir
dormiva
dorotea
dorsoduro
dos
doststeiermark
dota
dote
doti
doto
dotor
dotrina
dott
dottor
dottore
dottrina
double
doubs
douglas
dov
dova
dovari
dove
dovea
dover
dovesto
doveva
dovu
down
download
doxe
doze
dołari
dołomiti
dr
drago
dragon
drama
drapi
drau
dre
dream
drento
dreta
dreto
dri
driedo
drio
drioman
drita
drito
drive
driver
dro
droga
ds
du
dual
dubi
dubio
dublin
duca
ducati
ducato
due
dun
duncan
dunque
duo
duol
duomo
dura
durada
duramentre
duran
durando
durante
durar
durata
dure
duri
durium
duro
dusento
dux
dvd
dx
dy
dybala
dylan
dz
e
ea
eano
earth
east
easy
ebra
ebrei
ec
ecc
ecco
ecesion
echo
eclexiastica
eco
econo
economega
economego
economi
economia
ecrise
ecuador
ecuipajo
ed
eddy
edge
edifega
edifici
edificio
edifisi
edifisio
edision
edison
edition
editor
editore
editori
editrice
edizione
edizioni
edoardo
eds
edu
eduardo
educasion
edulis
edward
efeti
efetivamente
efeto
efetua
ega
eghe
egisiani
egito
egli
ego
eh
ei
einaudi
einstein
eisenstadt
el
ela
elaborasion
ele
electronics
elementi
elemento
elena
elenco
elenetta
eleon
eleonora
elesion
elesioni
eleto
elezioni
eli
elia
elio
elisa
elisabetta
elizabeth
ell
ella
elle
elli
ello
elly
elmi
elmo
elo
elvis
em
emana
emanuele
emi
emigrasion
emilia
emilio
emisfero
emision
emitente
emmental
emo
empoli
en
ena
enbre
enbrion
enciclopedia
enclave
encyclopedia
end
endo
ene
energia
enerxia
enerzia
engl
english
enorme
enrico
ensi
ente
entertainment
enti
entil
entita
ento
entra
entrada
entranbe
entranbi
entrando
entrar
entre
entro
enzo
eo
eora
eoro
eoropa
eoropea
eoropee
eoropei
eoropeo
ep
epidemia
epiphone
episodi
episodio
epixo
epixodi
epixodio
epizodi
epizodio
epoca
equasion
er
era
eraclea
erada
erano
erba
erbe
erca
ere
erede
eredita
eremita
eric
erik
eritrea
ernest
ernesto
ernst
ero
eroe
eroi
eror
erori
eros
erta
erti
erto
es
esa
esar
esare
esce
escobar
ese
esempio
esendo
esenpio
eser
esercito
esere
esi
esiste
eso
espan
espansion
espariensa
esperiensa
esperiense
esperimenti
esperti
esplorasion
esponente
esponenti
esportasion
esposito
espozision
espresion
esprime
espulso
essa
essar
esse
esser
essere
essi
esso
essonne
est
esta
estate
este
estende
estendesto
estension
esteri
esterna
esterne
esterni
esterno
estero
estexo
estinguesta
estinguesto
estivo
esto
estonia
estor
estrae
estraesto
estrato
estre
estrema
estremadura
estremamente
estremita
estremo
estuario
et
eta
etc
eterno
eticheta
etimołozia
etiopia
etnia
etnici
etnie
eto
ettore
eu
euganei
euge
eugenio
eure
euro
europa
europe
europea
european
europee
europei
europeo
eurovision
euskal
euskara
eustadio
eva
evangelista
evans
eve
evento
eventuałe
evidente
evitar
evo
evolusion
evołusion
evviva
ex
exe
executivo
exenpi
exenpio
exercito
exersito
exibirse
exibise
exibision
existe
existensa
exordi
exordio
explorer
express
extra
exynos
eye
eyes
ez
eze
ezecusion
ezecutivo
ezenpi
ezenpio
ezibi
ezibirse
ezibise
ezibision
eziste
ezistensa
ezito
ezordi
ezordio
eł
eła
ełaborasion
ełe
ełebre
ełebri
ełementi
ełemento
ełenco
ełesion
ełeto
ełetorałe
ełetorałi
ełetori
ełetro
ełetromagne
ełetronega
ełeva
ełevada
ełezesti
ełezesto
ełi
ełimina
eło
ełora
f
fa
fabio
fabr
fabrica
fabrizio
fac
facchin
faccia
faccio
face
facebook
facendo
faciada
facile
facilmente
facolta
faconde
facto
factor
fadiga
faghe
fai
fala
falcon
falo
falsa
false
falso
fama
fame
famegia
fameja
fameje
famiglia
family
famo
famosa
famose
famosi
famoso
famoxa
famoxe
famoxi
famoxo
famoza
famozi
famozo
fan
fanfani
fanno
fano
fans
fantastico
fantasy
fante
fanteria
far
fara
farave
fare
faremo
faressi
farghe
fari
faria
farina
farla
farli
farlo
farme
faro
farrow
farse
farve
fasa
fasada
fase
fasea
fasendo
faseva
fasi
fasilmente
fasismo
fasista
fasisti
faso
fassa
fasse
fast
fat
fata
fate
fati
fato
fator
fatori
fatta
fatti
fatto
fatura
fauna
fausto
fava
favor
favore
favori
favorir
faxe
faxea
faxendo
faxesto
faxeva
faza
faze
fazendo
fazesta
fazesto
fazeva
fazza
fazzo
fałi
fałimento
fało
fc
fe
fea
feat
febbraio
febbre
febraro
fede
fedeli
fedelta
federa
federal
federasion
federałe
federico
fedełi
fega
feghe
feghi
fego
fegura
fegure
fel
feldkirch
felice
felicita
felipe
felix
fellini
feltre
femena
femene
feminiłe
femo
fender
fenestra
fenestre
feni
fenice
fenici
fenio
fenir
feno
fenomeni
fenomeno
fer
ferara
ferdinand
ferdinando
feri
ferii
ferma
fermar
ferme
fermi
fermo
fernando
fero
ferovia
feroviaria
ferovie
ferrara
ferrari
ferrero
ferrie
ferro
ferrovie
fese
fesse
festa
feste
festeja
festival
festivalbar
feu
feva
fexe
ff
fi
fia
fiada
fiade
fianco
fiat
fica
fico
fiction
fida
fide
fidel
fido
fie
fiera
fiere
fifa
figa
figli
figlia
figlio
figura
figurarse
figure
figureve
fila
file
filipine
filippetto
filippi
filippo
film
filmografia
filo
fimi
fin
fina
final
finale
finalmente
finansa
finanse
finansia
finansiari
finansiaria
finałe
finałi
finche
fine
finestra
finestre
finezza
finezze
fini
finia
finindo
finio
finir
finise
finisse
finiste
finke
finla
finlandia
finmente
fino
finta
fio
fioi
fiol
fiola
fioli
fior
fiordilino
fiore
fiorella
fiorentin
fiorentina
fiori
fioła
fiołi
fioło
fire
firense
firenze
firma
firmar
first
fisa
fiscałe
fisi
fisica
fiso
fiume
fiumi
five
fixega
fiła
fiłipine
fiłipo
fiło
fiłoxofia
fiłoxofo
fiłozofia
fl
flachgau
flash
flavio
fleury
flex
flora
florence
florida
flota
floyd
flume
fluso
fly
fo
foa
foesse
fogo
foje
folk
fonda
fondada
fondador
fondamenta
fondamental
fondamentałe
fondamentałi
fondamente
fondamento
fondar
fondasion
fondator
fondatore
fondatori
fondazione
fonde
fondi
fondo
fone
fonema
fonemi
fonghi
foni
fonit
fono
font
fontaine
fontaines
fontana
fonte
fontego
fontenay
fonti
fontsize
football
for
fora
foral
forbes
forc
force
ford
fore
forest
foresta
foreste
foresti
forestier
foresto
forever
forges
forli
forma
formada
formae
formai
formajo
formalmente
formando
formar
formasion
format
formatasion
formato
formałe
forme
formento
formenton
formula
formuła
formułe
forni
fornise
forno
foro
forsa
forse
forsi
forssi
fort
forte
fortemente
fortesa
forti
fortran
fortuna
fortunata
fortunato
fortune
forum
forza
fosa
foscari
foscarini
fose
fosse
fossi
foto
fotoca
fotocamara
fotogra
fotografega
fotografia
fotografie
foundation
four
fox
foxa
fr
fra
frac
frade
fradei
fradel
fradello
fradelo
fradeo
fradełi
fradeło
franc
franca
france
francesca
francesco
francese
francesi
francexe
francexi
franche
franchi
francia
francis
francisco
franco
frank
franklin
fransa
franse
fransese
fransexe
fransexi
franseza
franseze
fransezi
franz
franza
frar
frari
frase
frasion
frate
fratelli
fratello
fratenpo
frati
frauenfeld
fraxe
fraxi
fraze
fre
frecuensa
frecuense
frecuenta
frecuente
frecuentemente
frecuenti
fred
freda
frederick
fredi
fredo
free
frega
fregadiva
fregadive
freistadt
frequensa
frequenta
fresca
freschi
fresco
freska
fri
friburgo
frica
friedrich
friends
friul
friuli
friułi
from
front
frontal
fronte
frontiera
frontiere
frosinone
froxinon
fruta
fruti
fruto
fu
fuga
fui
full
fumeti
fumo
fun
funebre
funsion
funsiona
funsionamento
fuoco
fuogo
fuora
fuori
furia
furlan
fursi
fuse
fusion
fusse
fussi
fusto
futura
future
futuro
fuxion
fuxo
g
ga
gabia
gabineto
gabon
gabriel
gabriele
gaetano
gain
gala
galantomeni
galantomo
galantuomo
galaxy
galeoto
galeria
gali
galiac
galileo
galleria
gallo
galvan
galzignan
gama
gamba
gambe
game
ganba
ganbe
ganbo
gapia
gara
garantir
garantise
garbo
garci
gard
garda
garden
gare
garia
garibaldi
garona
garonne
gary
gas
gasp
gasparina
gasparo
gasperi
gastu
gato
gatteau
gatti
gatto
gavara
gavari
gavaria
gave
gavea
gavemo
gavendo
gaver
gavese
gavesta
gavesto
gaveva
gay
gaza
gazzetta
gałari
gałaria
gałasie
gałeria
gałerie
gałi
gało
gb
ge
gear
gegia
gemeła
gemełagi
gen
genaro
gene
genera
general
generale
generalitat
generalmente
generasion
generałe
genere
genesis
genio
genitori
gennaio
geno
genoa
genova
genovese
gente
geografia
georg
george
georges
georgia
ger
gera
geri
germain
germania
gerry
gers
gervais
gesti
gestion
gesu
get
geta
getta
ggio
gh
gha
ghana
ghe
ghea
ghel
gheldria
ghen
ghene
ghera
gheva
ghi
ghil
ghin
ghitara
ghitare
ghitarista
ghost
ghz
gi
gia
giac
giacinto
giacometto
giacomina
giacomo
giambattista
gian
giancarlo
gianfranco
gianluca
gianni
giapon
gibson
gibuti
gie
giera
gieri
giersera
gigi
giglio
gilbert
gilera
gillan
ginevra
gino
gio
giochi
gioco
gioia
giometria
giorgio
giornale
giornata
giornałista
giorni
giorno
giovane
giovani
giovanna
giovanni
giovine
gipuzkoa
gira
girl
girls
giro
girolami
girolamo
giu
giudizio
giulia
giuliano
giulio
giunio
giuro
giuseppe
giusta
giusti
giustizia
giusto
gje
gla
glan
glasgow
gli
glise
global
globałe
globe
globo
gloria
gloriosa
gmu
gmunden
gna
gnan
gnanca
gnancora
gne
gnea
gnen
gnente
gner
gnese
gni
gno
gnoła
gnoło
gnu
go
god
gode
godo
goe
goerna
goernatore
goerni
goerno
going
gol
gola
gold
golden
goldoni
golfo
goma
gondola
gondoleta
good
goodbye
google
gordon
gore
gorisia
got
goto
governa
governal
governi
governo
goła
gołe
goło
gp
gps
gra
grace
gracia
gradi
grado
grafega
grafia
grafica
grafo
graham
grama
grami
grammy
gramo
gran
grana
granada
granata
grand
granda
grande
grandesa
grandi
grandisima
grando
grani
granmentre
grant
grapa
grasi
grasia
grasie
grasso
grata
gratis
grave
gravi
gravita
gray
graz
grazia
grazie
gre
great
greatest
greca
greci
grecia
greco
green
greg
grega
greghi
grego
gregorian
gregorio
gresa
gresia
grid
gridcolor
grieskirchen
grillo
grimani
gritti
grixo
grixoni
gro
groenlandia
gros
grosa
grose
groseto
grosi
groso
grossa
grosso
grote
group
gru
grupi
grupo
gruppo
gsm
gsma
gt
gu
gua
guadagna
guadalajara
guai
guarda
guardando
guardar
guarde
guardia
guardie
guatemała
gue
guera
guere
guerieri
guerra
guest
guevara
guez
guglielmo
guida
guidada
guidae
guidai
guide
guido
guillaume
guinea
guitar
guitarist
gulielmo
gus
gustav
gustavo
gusti
gusto
guy
guyana
h
ha
habitat
hai
haiti
hall
hamilton
han
handbook
hanno
hans
happy
haps
harald
hard
hardware
hardy
harold
harris
harrison
harry
hartberg
harvard
harvey
has
haut
haute
hautes
hauts
have
havea
haver
havesse
haveva
hawaii
haye
hd
he
head
heart
heaven
heavy
height
heinrich
heinz
hel
hell
hellas
henderson
henri
henry
her
herbert
here
herman
hermann
hero
herria
hey
hi
hic
high
hilaire
hill
hills
his
histoire
historia
history
hit
hitler
hits
hlist
ho
hogeita
hollabrunn
hollywood
hom
home
homeni
homini
homo
honduras
hong
honor
hook
hora
horn
hospital
hot
hotel
hour
house
houston
hovedstaden
how
howard
htc
htm
html
http
https
hu
huawei
hudson
huelva
huesca
hugo
hutu
i
ia
ian
iałe
iałi
ibi
ibrahimovic
ic
icon
icona
id
ide
idea
ideal
idee
identałe
identi
identifega
identita
ideoloxia
ideołoxie
idesto
idi
ido
idol
idolle
idro
idrografia
ie
iera
ieri
iesu
if
iglesias
ih
ii
iib
iic
iii
iiii
ika
il
ille
illinois
im
ima
image
imagesize
imagine
imagini
imajine
imajini
imaxene
imbox
imdb
ime
img
imigrasion
immagine
impara
impegna
impegno
imperfett
impero
impianta
importa
importansa
importante
importanti
improvviso
imst
in
ina
inamora
inaugura
inaugurada
inaugurasion
inaxonta
inazonta
inbarcasio
inbarcasion
inc
inca
incarga
incargo
incendio
incidente
incixion
incixo
include
includesta
includesto
inco
incoi
incomodo
incontra
incontri
incontro
incorona
incorpora
increment
incursion
indega
independensa
independente
index
indi
india
indian
indiana
indiani
indica
indicar
indicasion
indicativ
indicativo
indice
indie
indietro
indipendensa
indipendente
indipendentemente
indipendenti
indipendentiza
indipendenza
individua
individuałe
indo
indonexia
indosa
indove
indre
indri
indriedo
indrio
indu
industria
industrial
industriałe
industriałi
industrie
ine
inedite
inediti
inedito
infansia
infarto
infati
inferior
inferiore
inferiori
infermieri
inferno
infin
infina
infine
influensa
influense
influenza
info
infobox
informa
informadega
informasion
infra
infrastruture
ingagia
ingeniose
inghiltera
ingle
inglese
inglesi
inglexe
inglexi
ingleza
ingleze
inglezi
inglezo
ingreso
ingrexe
ini
inimisi
inisi
inisia
inisialmente
inisiativa
inisiałe
inisio
inizio
inn
innamora
innamorato
innkreis
innocenzo
innsbruck
ino
inoltre
inovasion
inpara
inpato
inpegna
inpegno
inperador
inperadori
inperator
inperatore
inpercio
inperia
inperiałe
inpero
inpianti
inpianto
inpiega
inpone
inportansa
inportante
inportanti
inportasion
inprenditor
inprexe
inpreza
inprezona
input
inque
insari
inse
insediamenti
insediamento
insee
insegna
insegnamento
insegnante
insegnar
insembre
insenbre
inseri
inserio
inserir
inserire
insi
inside
insidente
insidesto
insie
insieme
insima
insir
institute
insuresion
int
intanto
intaresa
intarese
intaresi
intarnasionałe
intarpreta
intarpretada
intarpretasion
intarvista
inte
integra
integrasion
intel
intelligence
intende
intender
intendi
intendo
intension
intensita
intento
intenzion
inter
intera
interasion
interesa
interese
interesi
interesse
interessi
interior
interlaken
interna
internasional
internasionale
internasionali
internasionałe
internasionałi
international
internazionale
interne
internet
interni
interno
interpreta
interpretando
interpretasion
interprete
interpreti
interventi
intervento
intervista
intese
inteso
intestin
inteła
intełe
intełijente
intełijenti
intie
intiera
intieramente
intiero
intitoła
intitołada
into
intorno
intoro
intra
intrada
intrami
intranbi
intraprendesto
intrar
intrigo
intro
introdoto
introdusion
introduzesto
inuit
inuktitut
invade
invadesto
invasion
invaso
invaxion
invazion
inve
invec
invece
invenessian
invension
inventa
inventor
inver
inverni
inverno
inversso
invese
invesse
inveze
invia
invida
invidia
invita
invito
inzegno
io
ion
ios
ip
ipa
ipalmente
ipałe
ipałi
iphone
ipio
ipo
ipod
ipotesi
ipotexi
ips
ira
iran
iraq
irca
ircondario
ireland
irlanda
irlandexe
irlandeze
iron
ironia
irpino
is
isaac
isbn
iscrision
iscrito
iscrive
ise
isi
isidoro
isla
islam
islamego
islamica
island
islanda
isle
iso
isola
isole
isota
ispira
ispirasion
israel
israele
israełe
ista
istanbul
istat
istesa
isteso
istesso
istitui
istituia
istituio
istitusion
istituto
isto
istorego
istoria
istria
istriana
istrusion
it
ita
italia
italian
italiana
italiane
italiani
italiano
italo
italy
itałia
itałian
itałiana
itałiane
itałiani
itałiano
itało
item
itinerario
ito
itunes
iulio
iure
iv
ivan
ix
ixernia
ixola
ixolla
ixoła
ixołe
izoła
iłustra
j
ja
jack
jackie
jackson
jacob
jacopo
jacques
jae
jake
james
jan
jane
janeiro
japon
japonexe
japoneze
japonezi
jardin
jardini
jaso
jason
java
jay
jazz
je
jean
jeff
jefferson
jenerasion
jennifer
jera
jerry
jersey
jeruzałeme
jesus
jexu
jezu
jim
jimmy
jina
jine
jo
joa
joan
joani
jobs
joe
johan
johann
johannes
john
johnny
johnsen
johnson
jon
jonathan
jones
jordan
jorge
joronen
jose
josef
joseph
joshua
journal
jpg
jr
ju
juan
jugosla
jugoslavia
jules
julia
julien
julio
julius
junior
juniperus
jura
just
justa
justice
justify
justin
justo
juta
jutar
jutland
juto
juve
juventus
juzepe
k
ka
kai
kanji
kansas
karl
karlovac
katy
ke
keaton
keith
kellogg
kelly
kennedy
kent
kenya
kevin
kg
khan
ki
kid
kids
kikuyu
kill
killer
kim
kinder
king
kirchdorf
kiss
kit
kitzbu
kiyine
klagenfurt
klaus
km
knight
know
ko
kong
koprivnica
korneuburg
kosovo
krapina
krems
krisevci
ku
kufstein
l
la
labastide
label
labia
lac
lach
ladi
ladin
ladri
ladro
lady
laga
laghe
laghi
lago
lagreme
laguna
lai
laiche
lake
lama
lambert
lamberti
lana
lanatus
lanc
lance
lancia
lanciloto
land
lande
landeck
landes
lane
language
languages
lansa
lansada
lanso
lanza
lao
laora
laorar
laorare
laorasion
laori
laoro
lapurdi
lapurtera
larga
larghesa
largo
larry
larus
las
lasa
lasar
lascia
lasio
lassa
lassar
lasse
lasseme
lassemo
lasso
last
lat
late
latera
laterałe
laterałi
lati
latin
latina
latine
latini
latino
latitu
latitudine
lato
laura
laurea
laurel
laurent
laurenti
lava
laval
lavora
lavoratori
lavori
lavoro
law
lawrence
laws
lazaro
lazio
lbare
lbaro
lbun
lcd
ld
le
lea
lead
leader
league
leali
lebern
lecce
lece
leco
led
lee
left
lega
legałe
lege
legend
legge
leggenda
legn
legno
lego
lei
leibnitz
leitha
leje
lejenda
leji
lejislativo
lel
lelio
lemy
lengoa
lengoe
lengua
lenguaji
lenguajo
lengue
lengui
lenguistega
lenin
lennon
leo
leon
leonard
leonardo
leone
leopoldo
lera
les
lesotho
let
letare
letera
leteralmente
leteratura
letere
leto
lettera
lettere
letto
leva
levante
levar
levi
lewis
lex
lexe
lexi
lez
leze
li
lia
liae
liai
liam
liansa
lib
libara
libarasion
libare
libaro
libarta
libera
liberamente
liberasion
liberi
liberia
liberliber
libero
liberta
liberty
libia
libri
libro
licensa
license
licenza
licenzia
liceo
lido
lie
liechtenstein
lienz
lieva
liezen
life
liga
ligabue
ligada
ligae
ligai
ligamenti
ligami
light
lightgrey
liguori
ligure
liguria
like
lima
limita
limite
limon
lin
lina
linburgo
lincoln
line
linea
linee
lingambi
linganbi
lingua
lingue
link
lino
linux
linz
lio
liogo
lion
lioni
lionis
lira
lire
lisa
lisbona
liss
lissandro
list
lista
liste
lite
litfiba
little
live
livel
livelo
liverpool
livełi
liveło
livorno
lix
ll
lla
lle
lleida
ller
lli
llo
llor
llui
lly
lmata
lo
locai
local
locale
locali
localita
locanda
locarno
locałe
locałi
locałita
loco
locomotiva
lod
lodi
lodovica
lodovico
loga
loghi
logo
loir
loira
loire
loiret
lombardi
lombardia
lombardo
lome
lonbardia
lonbardo
london
londra
londres
long
longa
longhe
longhesa
longhi
longitudine
longo
longobardi
lontan
lontana
lontano
lonzi
lonzitu
look
loop
lopez
lor
lora
lord
lore
loredan
loredana
lorena
lorenso
lorenzin
lorenzo
lori
loro
los
lost
lot
lota
lotto
lotus
lou
louis
louisiana
loup
love
loy
loze
lp
lta
ltd
lte
ltema
lteme
ltemi
ltemo
lten
ltima
ltimi
lto
lu
luc
luca
lucas
luce
luci
lucia
luciano
lucietta
lucindo
lucio
lucy
lud
ludovico
ludro
ludwig
luffy
lug
lugio
luglio
lugo
lugrezia
lui
luigi
luis
luisa
luizi
lujo
lule
lulio
lume
lun
luna
lunardo
lunare
lungo
luni
luo
luoghi
luogi
luogo
lupo
lur
luse
lusenburgo
lustri
lustrissima
lustrissimo
luxe
luy
luze
lułio
lvare
ly
m
ma
maasai
mabel
mac
macedonia
machina
machine
mad
madagascar
madalena
madama
madame
made
madona
madonna
madre
madrid
mae
maenpaa
maestra
maestro
maffio
mafia
magari
magazine
maggio
maggiore
maghreb
magic
magio
magior
magna
magnar
magnare
magne
magnera
magni
magno
magnus
magny
mah
mai
main
maine
mais
maistra
maistro
maitin
maja
majo
major
majoransa
majore
majori
majoria
make
mal
mala
malatia
malatie
malawi
male
maledetta
maledetto
malga
malgrado
mali
malignazo
malo
malora
malta
mama
mami
mamma
man
management
manager
manc
manca
mancansa
mancava
manche
manchester
manco
manda
mandama
mandar
mandato
mande
mandela
mandero
mando
mandona
mane
manfredi
manga
mangi
manhattan
mani
manie
maniera
maniere
manifesta
manifestasion
manifesto
manin
manjiera
mano
manoscriti
manoscritto
mans
mantegner
mantegnere
mantegnesto
mantegnir
mantegnu
mantien
mantoa
mantova
manuel
manutension
manzano
manzar
mao
maor
map
mapa
mape
mar
mara
maran
maraveggio
maravegia
marc
marca
marcai
marcante
marcanti
marcantonio
marce
marcel
marcello
march
marche
marchesa
marchese
marcheza
marchi
marchio
marchioro
marcho
marcia
marcilly
marco
marcolina
marconi
mare
marea
marg
margaret
margarita
marghera
margherita
margin
mari
maria
mariano
marida
maridada
maridar
maridarme
maridauro
marido
marie
marii
marin
marina
marinai
marinare
marine
mariner
marinetta
marini
marino
mario
maritima
maritime
marito
mark
marlon
marmo
marmottina
marna
marne
maro
maroco
maron
mars
marshall
marso
marta
marte
marti
martial
martigny
martin
martini
martino
martire
martiri
martirio
marx
marxista
mary
marzo
mas
masa
masacro
mascara
mascare
maschera
maschere
mase
masi
masicio
masima
masime
masimo
masini
mason
massa
massachusetts
masse
massera
massere
massime
massimo
master
mata
mate
matema
mater
matera
materia
material
materiałe
materiałi
materie
mathbb
mati
matina
mato
matri
matrimoni
matrimonio
matta
matteo
matteotti
mattersburg
matthew
matthews
mattia
mattina
matto
mau
maurice
mauritania
mauritius
maurizio
mauro
max
maxo
maxor
maxori
may
maya
mayenne
mazor
mazori
mazzocchi
mazzola
mała
małamoco
małatia
małatie
małe
mbox
mc
mclaren
me
mec
meca
mecanica
meco
medaja
mede
medesimo
medexina
medezina
media
mediante
mediaset
mediawiki
medica
medici
medico
mediesima
mediesimo
medieval
medievałe
medio
medioevo
meditera
mediteraneo
mega
meggio
meghe
meghi
megio
megior
meglia
meglio
mego
mei
meine
meio
meior
mejo
mejor
mel
melbourne
meliagans
melk
melo
membri
memmo
memo
memoria
memorie
men
mena
menado
menar
menato
menava
menbrana
menbri
menbro
mendrixio
mene
meneg
meneghetto
meneghina
menego
mengoni
meni
meno
menor
menori
ment
mente
menti
mentre
meoła
mer
merca
mercante
mercanti
mercato
mercedes
merchadanti
merchadantie
merci
mercury
meri
merican
mericana
mericane
mericani
meridian
meridional
meridionale
meridionałe
meridionałi
merita
meriti
merito
merlin
mero
merry
mes
mesa
mesaji
mesajo
mese
mesegan
mesegana
meser
mesi
mesia
mesina
mesnil
meso
messa
messe
messi
messo
mestier
mestieri
mestre
mestro
mesura
meta
metal
metar
metare
metało
mete
metendo
meter
metesto
meti
meto
metodi
metodo
metri
metro
metropolitana
metropołitana
metropułitana
mette
metter
metto
meurthe
meuse
mexe
mexi
mexo
mexura
meyo
mez
meza
meze
mezi
mezo
mezodi
mezura
mezza
mezzo
mi
mia
miami
mica
michael
michel
michelangelo
michele
michelle
michiel
michigan
mickey
micro
microsoft
middle
midnight
mie
miegio
miei
miga
miglior
migliore
migliori
migrasion
miguel
mii
mike
mila
milan
milano
mile
miles
miliardi
milion
milione
milioni
militar
militare
militari
mill
mille
millennio
miller
min
mina
mind
minerałi
mines
ming
mini
miniatura
miniere
minima
miniserie
minister
ministero
ministrative
ministri
ministro
mino
minor
minoransa
minoranse
minore
minori
minuetto
minuti
minuto
mio
mior
mira
miracoli
miracolo
mirage
mis
miser
misericordia
misier
mision
misionari
miss
missier
mission
mississippi
missouri
mistelbach
mister
mistero
mistier
misto
misura
mit
mita
mite
miti
mito
mix
mixura
miła
miłan
miłe
miłenio
miłi
miłiardi
miłion
miłioni
miłita
miłitar
miłitare
miłitari
mm
mo
mobile
mobili
mobiłe
mobiłi
mocenigo
moda
modałita
mode
model
modeli
modelo
modena
modern
moderna
moderne
moderni
modernita
moderno
modeła
modełi
modeło
modi
modifega
modifeghe
modifica
modo
modor
modori
moglie
moi
moier
moise
mojer
mojere
mola
mole
molin
molo
molta
molte
molti
molto
mom
mombasa
momenti
momento
momola
momolo
mon
mona
monaco
monarchi
monarchia
monastie
mondadori
mondial
mondiale
mondiałe
mondiałi
mondo
mone
moneda
monede
monestier
moneta
monica
monicelli
monitor
monkey
mono
monobook
monocromo
mons
monsa
monsieur
mont
monta
montagna
montagne
montagnie
montagnoza
montagnoze
montagnozo
montana
montar
monte
montebełuna
montel
montenegro
montfort
monti
montigny
montre
montreuil
monts
monumenti
monumento
monxa
monza
moon
moore
mor
mora
morandi
morbihan
more
morea
moretti
morfema
morfemi
morfołozia
morgan
morges
mori
morir
morire
moro
morosa
morosini
moroso
moroto
morrison
morse
mort
morta
mortal
morte
morti
morto
mosa
mosca
moscovia
mose
moselle
moslavina
moso
mostra
mostrando
mostrar
mostrava
mostre
mostri
mostro
mother
moti
motivasion
motivi
motivo
moto
motor
motore
motori
motte
moulins
mount
mountain
mouse
move
mover
movie
movimenti
movimento
mozanbico
moła
mołe
mołixe
moło
mp
mpx
mr
ms
mt
mtv
mu
mucio
muge
muggier
mugier
mugiwara
muier
mujer
multi
multinasionałe
mundo
munic
municipio
munisipałita
munisipi
munisipio
munti
muo
muodo
mur
mura
muran
murania
murcia
mure
muri
murir
muro
murray
murtal
mus
museo
museum
musi
music
musica
musical
muso
mussolini
musulmani
muta
muxega
muxei
muxeo
muxica
muxicałe
muxicałi
muxicista
muxicisti
muzegałe
muzegałi
muzei
muzeo
mw
mwc
my
mymovies
n
na
nacional
naco
nada
nadal
nadałe
nadivi
nadivo
nadura
nago
nairobi
nale
nalin
naltra
naltri
naltro
name
namibia
nan
nana
nancy
nando
nane
nani
nanni
nano
napoleon
napoleone
napoli
napołeon
napołi
napułi
nar
nara
narc
narciso
nare
narentana
nari
naro
nas
nasa
nasar
nase
nasesta
nasesti
nasesto
nasie
nasimento
nasion
nasional
nasionale
nasionali
nasionałe
nasionałi
nasionałista
nasita
naso
nasse
nasser
nastro
nasu
nasui
nat
nata
natale
natalie
nati
nation
national
nations
nativi
nato
natura
natural
naturale
naturali
naturalmente
naturałe
naturałi
nature
nava
navada
naval
navara
navarra
navałe
navbox
nave
navega
navegar
navegasion
navi
navigasion
navigatio
navrado
navy
naxałe
nazionale
nazista
nazisti
nba
nbc
nbia
nbio
nbito
nbołi
nboło
nbre
nca
ncaro
ncia
ncipe
nco
ncora
ncue
nd
nda
ndando
ndar
ndare
ndarse
ndava
ndaze
ndało
nde
ndega
nder
ndexe
ndez
ndeze
ndia
ndico
ndio
ndita
ndo
ndoe
ndoghe
ndoghene
ndose
ndove
ndoła
ndoło
ne
nea
nec
necesita
necessario
nee
nega
negativo
neghe
neghi
negli
nego
negosi
negozio
negri
negro
nei
neil
nek
nel
nell
nella
nelle
nelson
nema
neme
nemi
nemigo
nemo
nena
nene
neo
nera
nere
neri
nero
nes
nesesa
nesesario
nesesita
nessun
nessuno
nestle
nesun
net
neta
nete
neti
neto
network
neuilly
neunkirchen
neusiedl
neustadt
neuville
neve
never
nevodo
nevvero
new
news
newton
nexus
nezza
neła
nełe
nf
ng
nga
ngo
ngołi
ngoło
ngua
ngue
ngułi
ni
nia
nica
nicaragua
niccolo
nichols
nicholson
nick
nico
nicol
nicola
nicolas
nicoletto
nicolo
nicoło
nidvaldo
nie
niente
nievo
night
nightingale
nigun
niguna
nil
nilo
nimo
nina
nino
nio
niora
niovo
nissun
nissuna
nisun
nisuna
nisuni
niuno
nixon
nizer
nizeria
njente
njien
nl
no
noa
nobel
nobile
nobili
nobilta
nobis
nobiłe
nobiłi
noe
noel
nofa
noflip
noi
nokia
nol
nom
noma
nomadi
nome
nomen
nomena
nomenclatura
nomi
nomina
nomination
nominativo
nomo
non
nona
nonche
none
nonn
nono
nonostante
nor
nord
nordest
nordoriental
nordovest
norgales
norma
normal
normale
normalmente
norman
normandia
normałe
norme
noro
north
norvegia
norveja
nos
nose
nostalgia
nostra
nostre
nostri
nostro
not
nota
notar
notasio
notasion
note
notevolmente
notevołe
noti
notice
notisia
notisie
notizia
notizie
noto
notoc
notorieta
notre
notte
notti
nova
novakovich
novanta
novara
nove
novele
novella
novelle
novembre
novenbre
novesento
novi
novita
novizza
novizzo
novo
novocasteło
now
nozze
npeghi
npi
npio
npo
npre
nsa
nse
nserndorf
nsi
nsia
nsio
nsipe
nso
nt
nta
nte
ntega
ntego
ntel
ntela
nteła
nti
nto
ntolo
ntre
ntro
nu
nua
nualtre
nualtri
nubia
nucleare
nucleari
nucleo
nuda
nui
nulla
numare
numari
numaro
numaroxe
numaroxi
numaroze
numarozi
number
numeri
numero
nunavut
nuova
nuove
nuovo
nutella
nuy
nyon
nz
o
oasis
obama
oberhasli
oberland
oberpullendorf
oberwart
obietivi
obietivo
obliga
obligato
oc
oca
ocasion
ocaxion
ocazion
occasion
occhi
occhio
occorre
oceano
ochi
oci
ocidental
ocidentale
ocidentałe
ocio
oclc
ocluxiva
octa
ocupa
ocupada
ocupar
ocupasion
ocupava
oda
ode
odi
odierna
odio
odo
odor
oe
of
ofensiva
oferta
oferto
off
office
official
ofic
oficial
ofisial
ofisialmente
ofisiałe
ofixial
ofre
ogeti
ogeto
oggi
oggio
ogia
ogio
ogna
ogni
ognun
ognuno
oh
ohio
oi
oime
ois
oise
ojeti
ojeto
ojo
okereke
ol
ola
olanda
olandexe
olandexi
old
oldando
olde
oldido
oldir
oldoini
ole
oliver
olivier
olta
olte
olten
oltra
oltre
oltredrava
om
omajo
oman
omani
ombox
ombra
omeni
omero
omnia
omo
omonema
omonemo
omonima
omonimo
on
ona
onbria
onco
oncor
oncora
onda
onde
one
onesta
ongaria
onji
online
only
ono
onor
onorata
onorato
onore
onori
onta
ontario
onu
onuesc
op
opara
oparasion
opare
open
opera
operadivi
operadivo
operai
operasion
operativo
opere
opinion
oposision
oposto
opoxision
opozision
oppo
opu
opur
opure
or
ora
oramai
orange
orari
orario
orasion
oratorio
orazio
orbita
orbo
orchestra
ordena
ordenamento
ordene
ordina
ordine
ore
oregon
oreste
org
orga
organi
organisa
organismi
organismo
organixa
organixasion
organiza
organizada
organizasion
organo
ori
oria
orienta
oriental
orientale
orientales
orientamento
orientation
orientałe
orientałi
oriente
original
originale
origine
origini
oristan
orixane
orixene
orixina
orixinałe
orixine
orizena
orizenałe
orizene
orizinałe
orlando
orle
orleans
ormai
ormoni
orne
orni
orno
oro
oron
ors
orsetta
orso
orsola
orsolina
orsu
orto
ortodosa
ortografia
os
oscar
ose
osea
oserva
oservasion
osi
osidental
osidentale
osidentałe
osidentałi
osidente
osijek
osita
oslo
osoła
ospea
ospedałe
ospita
ospite
ospiti
ostante
ostaria
oste
osteria
osto
ostra
otanta
otava
otavo
otegnendo
otegner
otegnere
otegnesto
otegnu
otenjendo
otenjer
otenjesto
otenju
other
otien
otimo
oto
otobre
otoman
otomana
otomani
otosento
ott
ottava
ottave
ottavio
otto
ottobre
ou
ouen
our
ourense
out
output
ova
ove
over
overijssel
overo
overosi
ovest
ovi
oviamente
ovo
owen
oxełi
oxford
ołanda
ołandeze
ołi
ołinpi
p
pa
pablo
pace
pacifico
padana
padding
padoa
padova
padovan
padre
padri
pae
paes
paese
paesi
paexe
paexi
paezajo
paeze
paezi
pag
paga
pagamento
pagar
pagare
page
paghera
paghero
pagina
pagine
pago
pagoło
pai
paise
paja
pajina
pajine
pakistan
pal
palac
palais
palamides
palaso
palazo
palazzo
palco
pale
palencia
palermo
palladio
palma
palmare
palmas
palu
pan
panama
panariello
pandemia
pane
pani
pano
panorama
panoramio
pant
pantalon
pantalone
paola
paolo
papa
papi
par
para
parade
paradiso
paraguay
parametri
parametro
parar
parałeło
parche
parchi
parco
parcorso
pare
parece
pareci
parecia
parecio
parede
parentado
parente
parenti
parer
parete
pareva
parfin
pari
parigi
pariodo
paris
parixe
parize
park
parke
parla
parlada
parlae
parlamentar
parlamentare
parlamentari
parlamento
parlando
parlanti
parlar
parlare
parlava
parle
parlemo
parlero
parli
parlo
parlophon
parma
parmeso
parmete
paro
parochia
parochiałe
parola
parole
paron
parona
paroni
paroła
parołe
parsialmente
parsiałe
parso
parsona
parsonaji
parsonajo
parsonałe
parsone
part
parta
partanto
parte
partec
partecipa
partecipasion
partegołar
partegołare
partegołari
partegołarmente
partendo
partensa
partesipa
partesipando
partesipanti
partesipar
partesipasion
partezełe
parti
partia
particolar
particolare
particolari
particolarmente
particołar
particołare
particołari
particołarmente
particułare
partien
partii
partindo
partio
partir
partire
parto
partono
party
pas
pasa
pasada
pasado
pasagio
pasajo
pasando
pasar
pasava
pase
pasi
pasie
pasiente
pasion
pasiona
pasivo
paso
pasqua
pasqual
pasquale
pasqualin
pasqualino
pass
passa
passar
passato
passi
passion
passione
passo
pasta
pasto
pastori
pasubio
pata
patate
pati
pato
patria
patriarca
patrick
patrimoni
patrimonio
patron
patrona
patrone
patroni
patrono
paul
paulo
paura
pausini
pauza
pavarotti
pavia
pavion
paxe
pay
pays
paze
pazenzia
pazienza
pazzo
pała
paładio
pałasi
pałaso
pałatałe
pałermo
pałestina
pało
pału
pc
pci
pd
pdf
pe
peace
pearl
pec
peca
pecca
pechin
pedon
pedoni
pedro
pega
peghe
peghi
pegno
pego
pel
pele
pell
pelle
pellegrini
pelu
pen
pena
penałe
pendensa
pene
peni
penixoła
penn
pennsylvania
pensa
pensando
pensar
pensare
pensava
pense
pensier
pensieri
pensiero
penso
pentato
people
per
pera
perc
perche
percio
percorso
percossa
percusion
perde
perder
perdere
perdesto
perdita
perdo
perdon
perdona
perdono
perdudo
pere
performance
perg
peri
pericolo
perio
period
periodi
periodo
perle
permanente
permanenti
perme
permeso
permete
permetesto
permette
pero
perque
perry
pers
persentuałe
persi
persia
persian
persiani
perso
persona
personaggi
personagi
personaji
personajo
personal
personale
personaxi
personaxo
personazi
personałe
personałi
personałita
persone
peru
perugia
peruxa
pesa
pesaro
pesca
pescadori
pescara
pescatorie
pesce
pese
pesi
peso
peste
pete
peter
petit
petite
petrarca
petrojo
petrolio
petrołio
petto
peugeot
pevare
pexaro
pexo
pezo
pezzali
pezzi
pezzo
pełe
pełi
phil
philip
philippe
php
pi
pia
piace
piacensa
piacere
piaggio
pian
piana
pianefegasion
pianeta
pianeti
piange
piangendo
piani
pianista
piano
pianoforte
pianta
piante
pianura
pianure
pianze
pianzer
piasa
piasal
piase
piaser
piassa
piasse
piataforma
piati
piato
piatto
piave
piaxe
piaza
piazza
pic
pica
piccola
piccolo
picenin
picenina
picenine
picenini
piceno
pick
pico
picola
picoli
picolo
picoła
picołe
picołi
picoło
picture
pie
piece
piedi
piemonte
piemontexe
pien
piena
piene
pieni
pier
piera
pieraccioni
piere
pierini
piero
pierre
piese
pieta
pietade
pietra
pietro
pieve
pigmei
pil
pilota
pin
pina
pink
pino
pinyin
pinzgau
pio
pionbo
piova
piove
pippo
pirata
pirati
pirenei
pisa
pisani
pista
pistoja
pita
pitaro
pito
pitor
pitori
pitosto
pitura
piture
piu
piutosto
piuttosto
pixa
pixel
piłota
pl
pla
plac
place
plaga
plage
plaine
plan
planc
planet
planning
plant
planto
plase
platino
platinum
plaxe
play
player
plaza
ple
please
plen
plena
plessis
plotarea
plotdata
plu
plui
plural
plurałe
plus
png
po
poareti
poc
poca
poche
pocheto
pochetto
pochi
pocho
poco
podara
podarea
podari
podaria
pode
podea
podemo
poder
poderave
podere
poderi
poderia
podese
podesse
podesta
podesto
podeva
podu
poe
poema
poemi
poesia
poesie
poeta
poeti
poetici
poexia
poga
poh
pohjanpalo
poi
poiche
poidego
point
pol
pola
pole
polenta
poli
police
polifemo
politega
politego
polo
polonia
polxeła
pomo
pone
ponente
ponesta
ponesto
pongau
pont
ponta
pontada
pontade
ponte
pontedera
pontevedra
ponti
pontificato
ponto
pooh
pop
pope
popola
popolar
popolare
popolari
popolasion
popoli
popolo
popoła
popołada
popołar
popołare
popołari
popołarita
popołasion
popołaxion
popołi
popoło
por
pora
porave
pordenon
pore
poremo
porsche
porsion
port
porta
portada
portae
portal
portale
portando
portano
portar
portara
portare
portava
portałe
porte
porti
portier
porto
portogalo
portogało
portoghexe
portoghexi
portogheze
pos
posa
poseso
posi
posibilita
posibiłe
posibiłita
posision
position
poso
possa
posse
possi
posso
post
posta
poste
posteriore
posti
posto
pota
pote
potensa
potense
potente
potenti
potenza
poter
potere
poteri
potete
potta
povera
poverazza
poverazzo
povere
povereta
poveretta
poveretto
poveri
povero
power
poxavina
poxision
poxisiona
poy
poza
pozision
pozisiona
pozzo
pozzobon
poła
połaco
połe
połenta
połi
połisia
połitega
połiteghe
połiteghi
połitego
połitica
połitico
poło
połonia
pp
pra
praga
pratega
pratica
praticamente
praticar
pratiche
prato
pre
prealpi
prec
precedensa
precedente
precedenti
precipitasion
prefazione
preferi
preferise
prefetura
prefisi
prefiso
prega
pregar
preghiera
prego
preistoria
preme
premi
premia
premier
premio
premura
prende
prender
prendere
prensipałe
prensipałi
prepara
preparasion
prepoxision
presa
presbiterio
prese
presedensa
presedente
presedentemente
presedenti
presensa
present
presenta
presente
presenti
presenza
presi
presidensa
presidensiałe
presidensiałi
presidente
presidenti
presio
presion
preso
preson
press
pressa
presso
presta
prestamentre
prestasion
presto
prete
preti
prevałentemente
prevede
prevedesta
prevedesto
prevedeva
previsto
prexe
prexensa
prexenta
prexente
prexenti
prexidente
prexo
prexon
prezensa
prezenta
prezentar
prezente
prezenti
prezidente
preziose
prezon
pri
priego
priest
prim
prima
primaria
primato
primavera
prime
primi
primier
primo
princ
prince
principal
principali
principe
principio
prinsi
prinsipai
prinsipal
prinsipale
prinsipali
prinsipalmente
prinsipato
prinsipałe
prinsipałi
prinsipe
prinsipi
prinsipio
prison
priva
privada
privai
privata
private
privo
pro
proa
proba
probabilmente
problema
problemi
proc
procedimento
procesi
proceso
processo
proclama
proclamasion
procura
prodec
prodece
prodi
prodo
prodomini
prodomo
prodota
prodoti
prodoto
produ
productions
produse
produsio
produsion
produtor
produtora
produtori
produxe
produxesto
produze
produzesta
produzesti
produzesto
profesion
profesionałe
profesor
profeta
profiło
profondita
profondo
proge
progeta
progeti
progeto
progetto
programa
programasion
programi
programma
progresivamente
progresivo
proietti
proje
project
projeta
projetasion
projeti
projeto
promessa
promesso
prometto
promo
promosion
promosionałe
promoso
promovesto
pronome
pronomi
pronostici
pronto
pronuncia
pronunsa
pronunsia
propaganda
propi
propia
propiamente
propie
propieta
propio
propone
proponesto
proporsion
proporsionałe
proposito
proposta
proposte
proposto
propri
propria
propriamente
proprieta
proprio
prosedimento
proseso
prost
protagonista
protagonisti
prote
proteine
protesion
protesta
protestante
protestanti
proteste
protetorato
proto
protocoło
prova
provar
prove
provence
provenienti
provensa
proverbio
provi
provien
provinc
province
provincia
provinsa
provinse
provinsia
provinsie
provinzia
provinzie
provoca
provocando
proxeti
pru
prudenza
prunus
pseudo
psi
pt
pu
pubblico
publega
publegada
publegasion
publego
public
publica
publicasion
publico
publisita
puccini
puebla
puerto
puglia
puigdemont
puja
pulitega
pulito
pulp
punision
punk
punta
punti
punto
puo
puoco
puoi
puol
puote
pupi
pur
pura
pure
purpio
purple
pusi
pusibiłita
puta
pute
putei
putela
putelo
putełi
puteło
puti
putin
puto
putta
puttana
putte
putti
putto
puy
pułi
pułitega
pułiteghe
pułitego
px
pyre
pyrus
q
qe
qi
qu
qua
quadri
quadro
quai
qual
quala
qualche
qualchedun
qualcomm
qualcosa
qualcossa
qualcun
quale
quali
qualita
qualsiasi
qualunque
quam
quand
quando
quant
quanta
quante
quanti
quantita
quanto
quaranta
quarta
quartier
quarto
quasi
quatro
quattordicesima
quattro
quaxi
quałita
que
quea
quechua
quedin
queen
quei
quel
quela
quele
queli
quell
quella
quelle
quelli
quello
quelo
quentin
queo
querini
quest
questa
queste
questi
question
questo
queła
quełe
quełi
queło
qui
quiaramentre
quindese
quindi
quinta
quinto
quiz
quo
quod
quota
r
ra
rabbia
rabi
rabia
rabo
rac
raccolta
raccomando
racconto
racing
racolta
racolte
raconti
raconto
racuante
racuanti
racuanto
radiasion
radio
radiofo
raf
rafael
raffaele
raffaella
ragazza
ragazze
ragazzi
ragazzo
ragione
raguxa
raguxeo
rai
raim
raimondo
rain
raina
rainbow
raiuno
raixa
raixe
raize
raji
rajo
ralph
ram
rama
ramazzotti
rame
rami
ramo
ran
rancura
rancurada
randall
random
rango
ranieri
rapida
rapidamente
raporti
raporto
rapper
rapresenta
rapresentanti
raprexenta
raprexentada
raprexentanti
raprexentasion
raprezenta
raprezentanti
raprezentasion
raquanti
rar
raramente
rard
rare
raro
raron
ras
rasa
rasion
rason
rati
rault
ravena
raxo
raxon
raxonxe
ray
razon
razonze
razonzesto
rbia
rbita
rca
rcia
rcio
rd
rdena
rdene
rdeni
rdia
rding
re
rea
real
reale
reality
realta
reasion
reałe
reałi
reałixa
reałixasion
reałiza
reałizasion
rebełi
rec
recava
recente
recenti
reciapa
recita
reconose
reconosesta
reconosesto
reconosimento
record
recorda
recordar
recordings
recordo
records
recorense
recostrusion
rectifier
red
rede
redentor
redi
redmi
redusion
redutto
ree
refarimento
referendum
referimento
reforma
reforme
refuda
rega
regalo
regata
regex
reggio
reghe
reghi
regi
regia
regime
regina
regio
region
regionale
regista
registi
registra
registrasion
registro
regname
regni
regniame
regno
rego
regola
regole
regoła
regołamento
regołar
regołare
regołari
regołarmente
regołe
reguarda
rei
reich
rejista
rejistra
rejistrar
rejistrasion
rejo
rejon
rejonal
rejonałe
rejonałi
rejone
rejoni
relasion
relative
relativita
religion
religione
religioni
rem
remake
remedio
remi
remix
remo
remy
ren
renania
renato
renault
rende
render
rendesta
rendesto
rene
renjo
reno
rente
rento
rentro
renzo
reo
reparto
reperti
repertorio
reporta
represion
repu
repubblica
republega
republegan
republica
republiche
reputazion
required
res
research
resente
resenti
reserca
reserva
resevu
resistensa
resistenza
resita
reso
resorse
resołusion
respetivamente
respeto
respetto
responde
responsa
respose
resposta
respoxe
resta
restada
restai
restando
restar
restara
restaura
restaurasion
restauro
restava
resti
resto
rete
reti
retira
retiro
retorna
retroflesa
return
reunion
reunise
reutte
revarda
revardo
reverbero
reverse
reveła
review
revista
revolta
revołusion
revołusiona
rex
rexa
rexime
rexistensa
rexistiva
rexulta
rey
reyer
rez
reza
rezalto
rezi
rezidensa
rezime
rezina
rezista
rezistensa
rezistra
rezistrasion
rezulta
rezultadi
rezultado
rełasion
rełativa
rełativamente
rełative
rełativi
rełativo
rełigion
rełigioxe
rełijon
rełijoza
rełijoze
rełijozi
rełijozo
rełogio
rgani
rgano
rgb
rghene
rhin
rho
rhodes
rhodesia
rhythm
ri
ria
rialto
ribeli
ric
rica
ricardo
ricatamenti
riccardo
ricchi
ricci
ricco
ricerca
riceve
rich
richa
richard
riche
richesa
richi
richo
riciama
riciapa
rico
riconose
riconosimento
ricorda
ricordar
ricordemo
ricordi
ricordo
ricorense
ricostrui
ricostrusion
rida
riddle
ride
ridendo
rider
ridere
ridi
rie
ried
rieleto
rientra
riese
rieti
rifarise
riferi
riferimenti
riferimento
riferirse
riferise
rifiuta
riflesion
riforma
riforme
riformista
rift
rifugio
riga
righe
righeira
right
rigo
rigor
riguarda
riguardo
rilievo
rima
rimanda
rimane
rime
rimini
rinasimento
ringrazio
rio
rioja
riosa
riporta
ripreze
riprodusion
ris
risada
risałe
rise
riserca
riserva
riserve
riseve
risevesto
risevu
risi
riso
risorgimento
risorse
risołusion
rispeta
rispetivamente
rispeto
rispetto
risponde
risposta
risposto
risso
risulta
risultai
risultati
risultato
rita
ritegnu
riti
ritien
ritira
ritirarse
ritiro
ritmo
rito
ritorna
ritorno
ritrato
ritratto
ritrova
riuni
riunion
riusi
riva
rivada
rivai
rivando
rivar
rivarda
rivare
rivava
rive
river
rivera
riverenza
riveła
rivie
riviera
rivista
rivo
rivolta
rivolusion
rivołusion
rixo
rixolusion
rixulta
rizzoli
rma
rmani
rmano
rme
rmene
rmeno
rmine
rna
rni
rno
ro
roach
road
rob
roba
robe
robert
roberto
roberts
robin
robinson
robot
roc
roca
rocca
rocco
roce
rocha
roche
rock
rockol
rocky
roco
rod
roda
rodano
rode
rodolfo
rodonda
rodondada
rodri
rodriguez
roger
rogers
rohrbach
roi
rois
roland
roll
rolling
rom
roma
romagna
romagnir
romagnoło
romain
roman
romana
romane
romani
romania
romano
romanxo
romanzi
romanzo
romase
romeo
rompe
ron
ronald
ronaldo
roosevelt
ros
rosa
rosario
rose
rosega
rosi
rosina
roso
rosoneri
ross
rossa
rossi
rosso
rota
rotasion
rote
roth
roto
rotonda
rotura
rouge
rovigo
rovina
roxa
roy
royal
roza
rołi
roło
rse
rsega
rsego
rsio
rsito
rso
rstenfeld
rstetten
rta
rte
rtego
rti
rtire
rtiri
rto
rttemberg
ru
ruanda
rudolf
rugby
ruggeri
ruggero
rum
rumen
rumor
run
ruolo
ruoło
rurałe
rurałi
rusa
rush
rusi
rusia
ruso
russell
russia
russo
ruzante
ry
ryan
rzene
s
sa
saba
sabato
sabia
sabo
saca
sacco
sacerdote
saco
sacra
sacramento
sacri
sacro
saga
saggio
sagra
sagremor
sahara
saharawi
sahel
sai
saint
sainte
sal
sala
salamanca
salario
saldo
sale
salerno
sales
salesiana
salles
salo
salsa
salt
salta
saltar
salto
saluda
saludo
salute
salva
salvador
salvar
salvatore
salve
salvi
salvo
sam
same
samese
sampdoria
samsung
samuel
samuele
san
sana
sanca
sanco
sancti
sandra
sandro
sangue
sanita
sankt
sannita
sano
sanremo
sansion
sansuga
sant
santa
santana
sante
santi
santiago
santo
santuario
sao
saor
sape
sapere
sapete
sapia
sapiate
sapie
sapiens
sappia
sappie
sar
sara
sarada
sarae
saragosa
sarah
sarave
sardegna
sardo
sare
sarea
saremo
sarfatti
sarghe
sari
saria
saro
sarthe
sasari
sasi
saso
sass
sassuolo
sastu
sate
satire
sativa
satriani
saturno
sauber
sauveur
save
savea
savemo
saver
savera
savere
savesse
savessi
savesto
saveu
saveva
savigny
savinjska
savio
savoia
savoja
savona
say
sała
sałe
sałerno
sałi
sałisburghexe
sałon
sałute
sbalia
sbandona
sbarca
sbasa
sboco
sc
sca
scachi
scachie
scachiera
scaco
scala
scalda
scale
scalemajor
scaleminor
scamozzi
scampa
scampar
scan
scanbi
scanbio
scanpa
scanpar
scapa
scarpa
scarpe
scarsa
scarsela
scartamento
scati
scatola
scava
scała
scałada
scałe
scena
scene
scha
sche
scheda
schede
schei
schema
scheo
schermada
schermo
scherzi
schiavo
schio
schmidt
schneider
scho
school
schott
schumacher
schwaz
scia
sciavi
science
scienze
scio
sco
scola
scole
scolta
scoltar
scomenza
scominsi
scominsia
scominsio
scomisia
sconde
scondon
sconfita
sconfito
sconfize
sconfizesta
sconta
sconto
scontra
scontri
scontro
scoperta
scoperto
scopi
scopo
score
scorpions
scorsa
scosexe
scott
scotti
scoverto
scovo
scozia
scoła
scołe
screen
scri
scrita
scrite
scriti
scrito
scritor
scritore
scritori
scritte
scritto
scritura
scrivar
scrivare
scrive
scrivendo
scriver
scrivere
scrivesta
scriveste
scrivesti
scrivesto
scuadra
scuadre
scuaxi
scuazi
scuderia
scudeti
scudeto
scudi
scudier
scudo
scultor
scultura
scumi
scuminsia
scumisia
scuola
scuro
scursa
scusa
sdegno
se
sea
seagal
sean
search
sebastian
sebastiano
seben
sebenego
sec
seca
secchio
secesion
seco
secoli
secolo
second
seconda
secondi
secondo
secont
secołi
secoło
secret
sed
seda
sede
sedere
sedi
sedia
see
seeland
sega
segna
segnałe
segnałi
segni
segnior
segno
segnor
segnoria
sego
segonda
segondo
segovia
segreta
segretario
segreti
segreto
segue
seguente
seguenti
segui
seguia
seguio
seguir
seguita
seguito
segura
seguresa
seguro
sei
seine
seita
sela
selo
selva
sem
sema
seme
semi
semo
semper
sempre
sen
sena
senato
senc
sendo
sene
senegal
senejador
senejadura
senja
senna
senno
seno
senplice
senplicemente
senplise
senplisemente
senpre
sensa
sense
sensi
senso
sensore
senta
sente
sentenari
senti
sentimenti
sentimento
sentio
sentir
sentire
sentiva
sento
sentral
sentrale
sentrałe
sentrałi
sentri
sentro
senz
senza
seo
sepa
separa
separae
separasion
sepełi
sepolcro
ser
sera
serada
serata
serave
serbi
serbia
serbo
serca
sercando
sercar
sercava
sere
sereałi
serena
sereni
serenisima
serenissima
sergio
seri
seria
serie
series
serimonia
serio
serni
sero
serra
serre
serta
serte
serti
sertifega
serto
serva
serve
server
serveło
servi
servia
service
servida
servio
servir
servirla
serviro
servisi
servisio
servitor
servitore
servitori
servitu
serviva
servizio
servo
ses
sesanta
sesion
seso
sesso
sesta
sesti
sestie
sesto
sesuałe
set
seta
setanta
sete
setemana
setemane
setembre
setenbre
setentrional
setentrionałe
setentrionałi
setesento
setimana
setimane
setor
setore
setori
sette
settembre
settima
seu
seven
sevente
seventi
sevija
sevita
sex
sexy
seychelles
sezion
seła
sełebra
sełebrasion
sełesion
sfera
sfida
sfondo
sforso
sfruta
sfrutamento
sg
sgu
shadow
shaka
shanghai
she
sheeran
shift
shop
show
si
sia
siamo
siando
siano
sibe
siben
sic
sica
siche
sici
sicilia
siciłia
siclo
sicome
sicura
sicuresa
sicuro
side
sidi
sidney
sido
sie
siede
sielta
sielto
siena
siensa
siense
sienti
sientifega
sientifego
sier
siera
sierra
siestu
siete
sieło
sifre
sigla
sign
signature
signi
signifega
significa
signior
signor
signora
signore
signori
signoria
sii
silv
silva
silver
silvestra
silvestro
silvio
sima
simbolo
simboło
sime
simel
simenta
simile
simitero
simiłari
simiłe
simo
simon
simone
simonelli
simul
sin
sina
sinatra
sinbołi
sinboło
sincuanta
sincue
sindaco
sine
sinema
sinematogra
sinematografega
sing
singapore
single
singles
singoli
singolo
singołar
singołare
singołi
singoło
sinistra
sino
sinque
sintagma
sintasi
sio
sion
sior
siora
siore
siori
sioria
sipia
sipro
sir
siracuxa
sirca
sirconda
sircuito
siria
sirmia
siro
sis
sisak
sissach
siste
sistema
sistemi
sit
sita
sitade
sitadin
sitadina
sitadinansa
sitadini
sitcom
site
siti
sito
situa
situada
situasion
sivile
sivili
sivilta
siviłe
siviłi
six
size
siłe
siłi
skardy
skin
sky
slansa
slarga
slave
slonga
slovachia
slove
sloven
slovenia
sloveno
sm
small
smarido
smart
smartphone
smer
smeraldina
smile
smith
snapdragon
snow
so
soa
soap
soave
soc
soceta
soci
social
sociale
sociali
socialista
sociałe
sociałi
sociałismo
sociałista
sociałisti
societa
society
socio
socorso
sodalitium
soe
soeo
soffrir
sofia
sofito
software
sogeto
sogni
sogno
soi
sojeti
sojeto
sol
sola
solamente
solamentre
solche
solda
soldadi
soldai
soldati
soldi
soldo
sole
soli
solid
solito
solo
soltanto
soma
somalia
some
someja
someje
something
somma
somme
son
sona
sonada
sonando
sonar
sonava
sonda
sonde
sondrio
sone
soneti
sonetti
sonetto
song
songio
songs
soni
sono
sonora
sonore
sonorita
sonoro
sony
soo
sopra
soprano
sopresion
sora
sorabito
soranome
soratuto
sorda
sordi
sordo
sore
sorela
sorella
soreła
soria
sormonta
sorpasa
sorpresa
sorta
sorte
sorti
sortive
sorze
sosiałe
sosieta
sostansa
sostanse
sostegno
sostegnu
sostien
sostitui
sostituio
sostituir
sostituise
sostitusion
sot
soto
sotofameja
sotomodełi
sotto
soul
sound
source
sous
south
sovie
sovra
sovran
sovrani
sovranita
soy
soła
sołare
sołe
sołeta
sołi
sołista
sołitamente
sołito
soło
sołusion
sp
spa
spaca
space
spada
spade
spagna
spagnola
spagnoli
spagnolo
spagnoła
spagnołe
spagnołi
spagnoło
spanja
spanjoła
spanjoło
spara
sparti
spasi
spasiałe
spasiałi
spasio
spassio
spasso
spazio
spała
spałatin
spałe
spe
speaker
spec
spece
special
speciale
specialmente
speciałe
speciałi
specie
spedision
spende
spender
spera
speransa
speranza
sperar
sperimentałe
spero
spesa
spese
spesi
spesia
spesialmente
spesiałe
spesiałi
spesie
spesifega
speso
spesse
spesso
speta
spetacołi
spetacoło
spetadori
spetro
spexe
spezia
spezie
spi
spia
spica
spice
spiega
spiegar
spiegasion
spiere
spin
spina
spinto
spiriti
spirito
spironi
spittal
splendor
spo
sponda
spor
sporco
sport
sportiva
sportive
sportivi
sportivo
sposa
sposar
sposi
sposo
sposta
spostamento
spot
spoxa
spoza
springsteen
sputnik
squadra
squadre
squasi
squaxi
sri
srl
ss
ssa
sse
ssi
ssimo
ssing
sso
st
sta
stabili
stabilio
stabiłi
stabiłimento
stabiłio
stabiłir
stabiłise
stabiłita
staca
stada
stadi
stadio
stado
stae
staga
stagion
stagione
stagioni
stagno
stago
stai
stajon
stalin
staltra
staltri
staltro
stamattina
stampa
stan
standard
stando
stanley
stanpa
stansa
stante
stanza
stao
star
stara
stare
staro
stars
start
stasera
stasion
stassera
stat
stata
statałe
state
statementplus
states
stati
statistega
statisteghe
statistica
statistiche
stato
statua
statudo
statue
statunite
statunitense
statunitensi
status
statuto
stava
stavolta
staxo
staxon
stazon
ste
stefania
stefano
stega
steghe
steghi
stego
stella
stelle
stema
stemma
stemo
steno
step
stephen
stesa
stese
stesi
steso
stessa
stessi
stesso
stete
steve
steven
stewart
steyr
steła
stełe
sti
stica
stile
stili
still
stilo
stima
stimana
stimane
stimo
sting
stiria
stiłe
stiłi
sto
stomego
stone
stones
stop
store
storega
storegamente
storeghe
storeghi
storego
storia
storica
storiche
storici
storico
storie
stories
storiografia
story
stołi
stoło
stra
stracca
strada
stradałe
strade
straje
stranieri
strapazza
strate
strati
strato
stratocaster
stre
streaming
street
streta
stretamente
streti
streto
stria
string
stro
strumenti
strumento
strutura
struture
stu
stuart
studente
studenti
studi
studia
studiar
studio
studios
studioxi
stufa
style
su
sua
sub
subi
subio
subise
subito
subsp
suca
sucaro
successo
sucede
sucesi
sucesion
sucesiva
sucesivamente
sucesive
sucesivi
sucesivo
suceso
sucesor
sucesso
sud
suda
sudafrica
sudan
sudest
sudivixion
sudivizion
sudorientałe
sudosidental
sudovest
sue
sufiso
sufrajo
sufrir
suggizion
sui
suite
suito
sul
sula
sull
sulla
sulle
sulpice
sultan
sum
suma
summer
sun
sunt
suo
suoi
suoni
suono
suore
supara
suparior
super
supera
supercopa
superfic
superfice
superficie
superfise
superfisie
superior
superiore
superiori
suporta
suporto
suprema
supremo
sur
susiste
suso
suxo
suła
sułe
sve
sved
svedexe
svesia
svezia
svg
svi
svilupa
svilupo
svisara
svisaro
svisera
svisero
svito
sviłupa
sviłupo
svoboda
svolta
swahili
swing
sydney
system
t
ta
tabaco
tabaro
tabarro
tabeła
table
tablet
taca
tacada
tacar
tagliac
tai
taiwan
taja
tajo
take
tal
tale
talent
tales
talian
talk
talvolta
tanaka
tant
tanta
tante
tanti
tanto
tanzania
tapa
tape
tar
tara
tarantino
taranto
tardi
tardo
tare
targa
tari
tarn
taro
tarragona
tartari
tartaro
tasa
tasca
tase
tasi
taso
tasonomia
tastiera
tastiere
tavola
tavolino
taylor
tałe
tałento
tałi
tałian
tałiana
td
te
tea
team
teatrałe
teatrałi
teatri
teatro
teau
teauneuf
technology
tecia
tecneghe
tecnica
tecniche
tecnico
ted
tedeschi
tedesco
teenage
tega
teghe
teghi
tegna
tegnar
tegnendo
tegner
tegnesto
tegni
tegnir
tegno
tegnu
tego
tei
tel
tela
tele
telefoni
telefono
telegatto
television
tema
teme
temi
temo
tempesta
tempi
tempio
template
temple
tempo
ten
tenco
tende
tendensa
tene
tenente
tenerife
tenin
tenju
tennessee
tenore
tenperadura
tenperadure
tenperatura
tenperature
tenpi
tenpio
tenpo
tension
tenta
tentativi
tentativo
teo
teodoro
teoria
teorie
ter
tera
teraferma
teramo
teramoto
tere
teremoto
teren
tereni
teresa
terestre
terestri
teri
terito
teritori
teritoriałe
teritoriałi
teritorio
terme
termena
termene
termina
termine
termini
terni
terori
teroristego
terra
terre
territoriale
territorio
terry
tersa
tersi
terso
teruel
terza
terzo
tes
tesiłi
tesoro
tessmann
test
testa
testamento
teste
testi
testimoni
testimonia
testimonial
testimoniansa
testimonianse
testo
tesu
teto
texas
texi
texoro
text
textdata
teze
teła
tełe
tełecomunicasion
tełefilm
tełefo
tełefonego
tełefonia
tełefono
tełevixion
tełevixiva
tełevixive
tełevixivi
tełevixivo
tełevizion
tełeviziva
tełevizive
tełevizivi
tełevizivo
tft
th
that
the
theatre
theo
theory
there
thie
thiene
thing
this
thomas
three
thumb
thumbnail
thun
ti
tica
tico
tien
tienne
tiepolo
tignir
tigniva
tigre
tigri
till
tillon
tim
time
timeaxis
timeless
times
timo
timor
tinpano
tintoretto
tio
tiole
tior
tip
tipegamente
tipi
tipica
tipici
tipico
tipo
tira
tirada
tirar
tire
tiro
tiroło
tisin
tit
tita
titanic
title
tito
titolo
titołi
titoło
titta
tiziano
tiłe
tiłi
tmbox
to
toa
toc
toca
tocar
tocca
tocco
tochi
toco
tod
tode
todero
todesca
todesche
todeschi
todesco
todi
todo
toe
tof
toga
togo
tokyo
tol
tola
tole
toledo
tolse
tolta
tolte
tolto
tom
tomaso
tomba
tome
tomi
tommaso
tomo
ton
tonba
tondo
tone
toni
tonin
tonina
tonino
tono
tony
too
top
topo
topogra
tor
tora
tore
torente
tori
torin
torino
torismo
tormento
torna
tornada
tornado
tornando
tornar
tornara
tornare
torne
tornei
torneo
torniamento
torno
toro
toronto
torre
torres
torse
torto
tosa
tosca
toscan
toscana
tosto
total
totale
totalmente
totałe
toto
touch
tour
touring
tourne
tours
town
toyota
toza
toze
tozi
tozo
tozzi
toła
tołe
tołi
toło
tr
tra
trabuto
trace
track
tracy
trade
tradimento
tradision
tradisional
tradisionali
tradisionalmente
tradisionałe
tradisionałi
tradoto
tradusion
traduzion
traersa
traerso
trafego
trafico
tragedia
tram
trama
tramite
tramontana
tramonto
trani
trans
transeto
trapani
trar
trasa
trascrision
trase
trasferi
trasferimento
trasferio
trasferise
trasforma
trasformasion
trasion
trasmesa
trasmeso
trasmetesta
trasmision
trasporta
trasporti
trasporto
trasse
trata
tratai
tratamento
tratar
tratato
tratava
trate
trati
trato
tratta
tratto
traversa
traversada
traverso
travolta
traxmision
trazmision
tre
treccani
tredicesima
tree
trega
treghe
trego
tren
treni
treno
trent
trenta
trentin
trento
tres
trevisan
treviso
trevixo
trevizo
tri
tria
triangoło
tribu
tribunałe
tributo
trieste
triestin
triestino
trinita
trio
trionfo
tristan
tristo
triticum
tro
troi
troia
tromba
trono
tropo
troppo
trova
trovado
trovar
trovasse
trovava
trovera
trovero
trovo
true
truff
truffaldino
truova
trupe
ts
tt
tu
tua
tube
tullio
tulln
tunixia
tuo
tuor
turca
turchi
turchia
turco
turgovia
turi
turin
turismo
turisti
turner
turno
tut
tuta
tutavia
tute
tuteła
tuti
tuto
tutora
tutsi
tutta
tutte
tutti
tutto
tułi
tuło
tv
twitter
two
type
tyrrell
u
ua
ubaldo
ubi
ucraina
udine
udo
ue
uefa
ufficiale
ufic
uficial
uficiale
uficialmente
uficiałe
uficiałi
uficio
ufisalmente
ufisałe
ufisałi
ufisi
ufisial
ufisialmente
ufisiałe
uganda
ugo
uh
ui
uk
ul
ultema
ultemo
ultima
ultime
ultimi
ultimo
ultra
uman
umana
umane
umani
umanita
umano
umberto
umgebung
umidita
umido
umilissimo
umts
un
una
unco
uncora
uncuo
und
unde
under
undicesima
une
unesco
ungaria
uni
unica
unici
unico
unida
unie
unifica
unii
unio
union
unione
unise
unita
united
uniti
universal
universale
universałe
universita
university
universo
uno
uomini
uomo
up
upright
ur
uragan
urban
urbana
urbani
urbano
urbin
urfahr
uri
url
uro
urss
urta
uruguay
us
usa
usanza
usar
usb
use
usgs
usi
usida
uso
uss
usto
ustria
ut
utc
utente
utenti
uti
utile
utilixa
utiłixa
utiłixo
utiłiza
utrecht
utuno
uvułare
uxa
uxando
uxar
uxi
uxo
uxuario
uza
uzo
v
va
vaca
vacanza
vacanze
vacca
vache
vada
vadagna
vadagnar
vado
vaga
vagabondo
vago
vai
vajo
val
vala
vale
valencia
valente
valentino
valeria
valerio
valeto
valladolid
valle
valley
valmarana
valor
valore
valori
valtri
value
valvoe
van
vandia
vane
vani
vanno
vano
vansa
vanta
vantagio
vantajo
vanti
vanxeli
vanzeło
vanzina
vapor
vapore
var
vara
varaxdin
varda
vardando
vardar
vardare
vardava
varde
vare
varennes
varexe
vari
varia
variansa
varianse
variante
varianti
variasion
varie
varieta
vario
varo
varsa
varsion
vas
vasca
vasco
vasi
vasin
vasta
vasto
vategan
vatican
vaticano
vaucluse
vaud
vaudois
vaux
vavasor
vałe
vałensia
vałexe
vałi
vałor
vałore
vałori
vałuta
vałutasion
ve
vec
vecchi
vecchia
vecchio
vece
vechio
veci
vecia
vecie
vecio
vector
veda
vedar
vedara
vedare
vede
vedemo
vedendo
veder
vedera
vedere
vederemo
vedesse
vedessi
vedesta
vedesto
vedeu
vedeva
vedi
vedo
vedoa
vedova
veduta
vega
vegando
vegas
vegna
vegnara
vegne
vegnea
vegnendo
vegner
vegnesta
vegnesti
vegnesto
vegneva
vegni
vegnimo
vegnir
vegnira
vegnire
vegniro
vegnisse
vegniva
vegno
vegnu
vegnua
vegnuo
vego
vei
veicołi
veit
vel
vela
velo
velocita
ven
vena
vende
vendendo
vender
vendesti
vendesto
vendeta
vendita
vendite
vendo
vendu
vene
venera
venere
venesia
venesian
venesiana
venesiane
venesiani
venessia
venesueła
veneta
venete
veneteghi
veneti
venetia
veneto
venexia
venexian
venexiana
venexiani
venezia
venezian
veneziana
veneziane
veneziani
veneziano
venga
veni
venice
venier
venieresca
venir
venite
veniva
venjara
venjesto
venjiva
venju
venne
vent
venti
vento
ventura
vequio
ver
vera
veramente
verasiamentre
verbano
verbałe
verbi
verbo
verc
verde
verdi
verdo
verdone
verdure
vere
verghe
vergine
vergogna
vergognado
vergogno
vergoncia
verheyen
veri
verifega
verita
veritade
vermegio
vernacola
vero
verona
veronese
veronesi
veronexe
verra
versa
versailles
versante
versi
versio
version
versione
verso
vert
verta
verte
verti
vertical
vertigo
verto
vertu
vertura
verxe
verze
verzesto
ves
vescovi
vescovo
vespa
vest
vesta
veste
vesti
vestiario
vestir
vestito
vesto
vete
vetura
veture
vexin
vezu
vezudo
vełare
vełosita
vga
vhs
vi
via
viaggio
viajo
vianello
viazo
vibo
vic
vicario
vice
vicende
vicensa
vicentini
vicentino
vicenza
vicenzo
vicepresidente
vicino
victor
victoria
vida
vidal
vide
video
videoclip
videoxughi
vie
vien
viena
viene
vienna
vienne
vieta
vietnam
vietnamita
vieux
view
vignera
vignes
vignir
vignisse
vigniva
vignuda
vignudi
vignudo
vigor
vigore
vii
viii
vila
vilagio
vilaine
vile
villa
villach
village
villanueva
villar
villars
ville
villeneuve
villers
villiers
vin
vinc
vince
vincent
vincenzo
vini
vino
vinovo
vinse
vinsendo
vinser
vinsesto
vinsidor
vint
vinta
vinti
vinto
vio
viola
violensa
vioła
viołensa
virgilio
virginia
virtu
virus
vis
visentin
visentina
visi
visin
visina
visine
visini
vision
visita
viso
visp
vista
visti
visto
visu
vita
vitamina
vite
viterbo
viti
vito
vitoria
vitorie
vittore
vittoria
vittorio
viva
vivar
vive
vivea
viveno
viventi
viver
vivere
vivesto
viveva
vivi
vivo
vixentin
vixi
vixion
vixita
vizi
vizio
vizion
vizita
viła
viłajo
viłe
vladimir
vo
voca
vocabolario
vocal
vocale
vocali
vocałe
vocałi
voce
voci
vodo
voga
voggia
voggio
vogia
vogio
voglia
voglio
voi
voia
voice
voio
voivodato
vojo
vol
volante
volare
vole
volea
volemo
volentiera
volentieri
voler
volesse
volesto
volete
voleu
voleva
volgare
voli
volo
volonta
volontade
volontiera
volpe
volse
volsse
volta
volte
volto
volume
von
vora
vorae
vorarlberg
vorave
vore
voressi
vori
voria
vorla
vorlo
vorra
vorrebbe
vorrei
vorria
vos
vose
vosges
vostra
vostre
vostri
vostro
vosu
vota
votar
votasion
voti
voto
vous
voxe
voxi
voze
voła
vołe
vołer
vołesto
vołeva
vołi
voło
vołonta
vołontari
vołume
vołumi
vr
vre
vres
vs
vu
vualtri
vudo
vui
vukovar
vul
vuo
vuogio
vuoi
vuol
vuole
vussustrissima
vustu
vuy
vułi
vv
w
wa
walk
walker
wall
wallace
walt
walter
want
war
warner
wars
was
washington
wasseramt
watch
water
waters
watt
way
wayne
we
web
weiz
wels
west
wester
western
westminster
what
when
where
white
whiteman
who
wi
wide
width
wien
wiener
wiki
wikidata
wikilink
wikimedia
wikipedia
wikisource
wild
wilhelm
will
william
williams
wilson
wind
windows
wireless
with
without
wlx
wolf
wolfgang
woman
women
wood
woody
world
wright
wu
www
x
xa
xagabria
xało
xe
xega
xeghi
xego
xela
xeli
xelo
xemeła
xemełagi
xena
xenare
xenaro
xene
xenera
xeneral
xeneralmente
xenerałe
xenere
xenevra
xeni
xenoa
xente
xera
xermania
xestionae
xestu
xełanda
xi
xia
xiaomi
xica
xico
xii
xiii
xine
xira
xiri
xiro
xirona
xironda
xiv
xix
xl
xlovenia
xo
xoga
xogador
xogadori
xogo
xona
xone
xonta
xontando
xorna
xovane
xovani
xoventu
xoła
xołe
xuga
xugador
xugadore
xugadori
xughi
xugo
xurigo
xv
xvi
xvii
xviii
xvilupa
xvisara
xx
xxi
xxii
xxiii
xxiv
xxix
xxv
xxvi
xxvii
xxviii
xxx
xxxi
xxxii
xxxviii
y
ya
year
years
yera
yi
yo
yonne
york
you
young
your
youtube
yrlanda
ysota
yu
yvelines
z
za
zagorje
zamaria
zamora
zampano
zan
zanbia
zane
zanetta
zanetto
zanzibar
zappa
zar
zara
zaratina
zare
zaschuno
zało
ze
zecchini
zega
zeghe
zeghi
zego
zema
zemo
zen
zena
zenaro
zenda
zene
zeneral
zenerale
zeneralmente
zenerasion
zenerałe
zenerałi
zeni
zeno
zent
zente
zento
zentro
zeogra
zeografia
zeppelin
zer
zera
zerma
zerman
zermania
zero
zerto
zestion
zełanda
zi
zia
zie
zilio
zinbabwe
zinevra
zinque
zio
ziogar
ziogo
ziogra
zira
zirada
zirar
ziri
ziro
zita
zitade
zito
zitto
zo
zoe
zoga
zogador
zogadori
zogar
zoggia
zogo
zona
zone
zonta
zornada
zornade
zornate
zorni
zorno
zorzetto
zorzi
zoso
zostra
zovane
zovani
zovene
zoveni
zoventu
zoła
zołe
zu
zuane
zuberera
zucchero
zuckermann
zueca
zuga
zughi
zugno
zugo
zulian
zulu
zum
zunjo
zura
zuri
zurigo
zurisdision
zuro
zusti
zviłupa
zviłupo
zwettl
{
|
}
~
¡
¢
£
§
©
ª
«
­
®
°
²
³
´
µ
·
¹
º
»
½
¿
×
ß
æ
ð
÷
ø
ł
ła
łado
łaga
łaghi
łago
łaguna
łagunar
łagunari
łansa
łanso
łaor
łaora
łaorar
łaorasion
łaori
łaoro
łargo
łari
łasa
łasando
łasar
łate
łatin
łatina
łaurea
łavora
łavori
łe
łebre
łega
łegałe
łeghe
łeghi
łegno
łego
łeje
łengua
łenguajo
łengue
łengui
łes
łesion
łetera
łeteratura
łeto
łeva
łexe
łeze
łi
łia
łibara
łibaro
łibarta
łibri
łibro
łica
łido
łiga
łigadure
łigae
łigamenti
łimita
łimitada
łimite
łinea
łinee
łingambi
łinganbi
łista
łite
łiti
łito
łitoraneo
łiveło
ło
łocałe
łocałi
łocałita
łoghi
łogo
łoira
łonbardia
łonbardo
łondra
łonga
łonghe
łonghesa
łonghi
łongo
łontan
łora
łore
łori
łoro
łota
łu
łuca
ługa
ługan
łujo
łuri
łuxe
łuxerna
łuze
łułe
ɑ
ɔ
ə
ɛ
ɜ
ɤ
ɨ
ɪ
ɯ
ʃ
ʒ
ʤ
ʧ
ʰ
ʲ
ʻ
ʿ
ˈ
ˌ
ː
̀
́
̂
̃
̄
̆
̇
̈
̉
̊
̋
̌
̓
̔
̛
̞
̣
̦
̧
̨
̪
̯
̱
͂
ͅ
͡
α
β
γ
δ
ε
η
θ
ι
και
ν
ο
π
ρ
ς
υ
φ
χ
ω
а
в
е
и
к
н
о
у
я
і
ְ
ַ
ּ
ה
י
ש
ا
َ
ِ
ٔ
र
ा
ी
्
গ
ব
ভ
া
ি
்
་
ᵝ
​
‎
–
—
‘
’
“
”
†
•
…
′
€
™
→
↔
↷
−
③
④
⑦
─
│
└
├
█
♭
♯
⟨
⟩
⺀
⺄
⺆
⺈
⺊
⺌
⺕
⺝
⺸
⺼
⿰
⿱
⿲
⿳
⿴
⿵
⿶
⿷
⿸
⿹
⿺
⿻
〢
の
は
ん
゙
゚
ア
イ
カ
キ
ク
ケ
コ
サ
シ
ス
ソ
ッ
ト
ナ
ニ
ハ
ヒ
フ
ユ
ラ
リ
ル
ロ
ン
・
ー
㇁
㇂
㇄
㇇
㇈
㇉
㇓
㐁
㐄
㐅
㐌
㐫
㐬
㐭
㐮
㐱
㑒
㒵
㒸
㒼
㓁
㓞
㔾
㕛
㕣
㖾
㘝
㚅
㚇
㚔
㚘
㝉
㝡
㝴
㝵
㞋
㞢
㞷
㠩
㠭
㠯
㡀
㡭
㡿
㢲
㢴
㣇
㣺
㥯
㪅
㫄
㫐
㫒
㫺
㬅
㬎
㬥
㬰
㲋
㳄
㷠
㸒
㸚
㸦
㼌
㼲
㽞
㿟
䀠
䂞
䍃
䏍
䒑
䖍
䖒
䖝
䖵
䙴
䚻
䜌
䝿
䡛
䧹
䪞
一
丁
丂
七
丄
丅
丆
万
丈
三
上
下
丌
不
与
丏
丐
丑
专
且
丕
世
丘
丙
业
东
丞
丢
丣
两
严
並
丨
丩
个
丫
丬
中
丮
丰
丱
串
丵
丶
丷
丸
丹
为
主
丽
丿
乀
乂
乃
久
乆
乇
么
义
之
乌
乍
乎
乏
乐
乑
乔
乖
乗
乘
乙
乚
乛
乜
九
乞
也
习
乡
乳
乾
亀
亅
了
亇
予
争
事
二
亍
于
亏
亐
云
互
亓
五
井
亘
亚
亜
亞
亟
亠
亡
亢
交
亥
亦
产
亨
亩
享
京
亭
亮
亯
亰
亲
亳
亶
亷
人
亻
亼
亾
仁
今
介
仌
从
仐
仑
仒
仓
仕
他
付
仝
代
令
以
任
企
伊
伏
伐
休
会
伯
但
位
何
佘
余
作
佥
使
來
侈
侌
侖
侯
侵
便
保
俞
信
修
倉
個
倍
候
倠
備
僉
僕
儿
兀
允
兂
元
兄
充
兆
兇
先
光
兊
克
兌
免
兑
兒
兓
兔
党
兜
兟
入
全
兩
兪
八
公
六
兮
兰
共
关
兵
其
具
典
兹
兼
冀
冂
冃
冄
内
冈
冉
冊
冋
册
再
冎
冏
冐
冒
冓
冖
冗
冘
军
农
冝
冡
冥
冫
冬
冷
几
凡
凢
凵
凶
凷
凸
凹
出
函
凾
刀
刁
刂
刃
刄
刅
分
切
刍
刑
刕
刖
列
刘
则
初
別
利
别
到
制
刺
則
削
剌
前
剡
剽
劉
力
功
加
劦
助
劫
劳
劵
勃
勇
勉
勒
動
務
勞
勤
勹
勺
勻
勾
勿
匀
匂
包
匆
匈
匊
匋
匍
匕
化
北
匚
匝
匡
匪
匱
匸
匹
区
医
匽
匿
區
十
卂
千
卄
卅
卆
升
午
卉
半
卌
华
卑
卒
卓
单
卖
南
卜
卝
卞
占
卡
卢
卣
卤
卦
卩
卪
卬
卯
印
危
即
却
卵
卷
卸
卻
厂
厃
厄
历
厈
厉
厌
厓
厘
厚
原
厤
厥
厨
厭
厲
厶
厷
厸
去
厼
厽
叀
参
參
叅
又
叉
及
友
双
反
叐
发
叒
叔
叕
取
受
叚
叜
叟
口
古
句
另
叩
只
召
可
台
叱
史
右
叵
号
司
叹
吂
各
吅
合
吉
吊
吋
同
名
后
吏
向
吕
君
吝
吞
否
含
启
吳
吴
吹
吾
呂
呆
呈
告
员
呙
周
命
咅
和
咎
咠
咢
咨
咸
咼
哀
品
哉
員
哥
哲
唐
商
啇
問
啚
啬
啻
善
喜
喬
單
喿
嗇
噩
嚴
囊
囗
囘
囙
囚
四
回
囟
因
囧
囬
困
囱
囷
固
国
圂
圅
國
圍
圓
土
圡
圣
圥
在
圭
地
圶
圼
坐
坒
坚
坴
垂
垔
垚
埀
埋
埶
執
基
堂
堅
堆
堇
堯
塞
墨
壘
士
壬
壯
声
壳
壴
壹
壺
壽
夂
处
夅
夆
备
夊
夋
夌
复
夏
夒
夕
外
夗
夘
多
夜
夢
大
夨
天
太
夫
夬
夭
央
失
夲
头
夷
夸
夹
夻
夾
奂
奄
奇
奈
奉
奎
奏
奐
契
奓
奔
奚
奞
奠
奢
奥
奭
女
奴
奻
好
如
妄
妙
妟
妥
妻
妾
姑
委
姜
威
娄
婁
婴
嬰
嬴
子
孑
孔
孕
孖
字
存
孚
孛
孝
孟
季
孤
学
孫
孱
學
宀
宁
宂
它
宅
宇
守
安
宋
完
宏
宓
宗
官
定
宛
宜
宝
客
宣
室
宮
宰
害
家
容
宾
宿
寄
寅
密
富
寒
察
寧
審
寫
寬
寮
寸
对
寺
寻
寽
対
寿
封
尃
射
将
將
專
尉
尊
尋
尌
對
小
少
尒
尓
尔
尖
尗
尚
尞
尢
尣
尤
尧
尨
尭
就
尸
尹
尺
尻
尼
尽
尾
尿
局
居
屈
屋
屎
屏
屑
展
屖
屚
属
屠
屡
屬
屮
屯
屰
山
屵
屾
岁
岂
岑
岡
岩
岳
岸
峯
島
崇
崑
崔
崖
崙
崩
嵬
嶲
巂
巛
川
州
巟
巠
巢
巤
工
左
巧
巨
巩
巫
差
己
已
巳
巴
巷
巸
巽
巾
巿
帀
市
布
希
帚
帛
帝
带
師
席
帶
常
干
平
年
幵
并
幷
幸
幺
幻
幼
幽
幾
广
広
庄
床
底
店
庚
府
度
庫
庭
庶
康
庸
廉
廌
廛
廣
廩
廴
延
廷
建
廾
廿
开
弁
弃
弄
弇
弋
式
弓
弔
引
弗
弘
弜
弟
弥
弦
弱
張
強
强
彊
彌
彎
彐
彑
当
彔
录
彖
彗
彡
形
彥
彦
彧
彭
彳
役
彼
往
待
律
徒
得
徙
從
復
微
徵
心
忄
必
忌
忍
志
忝
忠
忩
快
念
忽
忿
思
怠
急
怱
恆
恒
恩
恭
息
悉
患
悤
悲
悶
惠
惡
惢
愁
愈
意
愛
感
慈
慧
慮
憂
憲
應
戀
戈
戉
戊
戋
戌
戍
戎
成
我
戒
戔
或
戚
戠
戢
截
戲
戶
户
戹
戼
戾
房
所
扁
扇
手
扌
才
打
托
执
承
折
拉
拜
拿
掌
推
提
摩
支
攴
攵
收
攸
改
放
政
敄
敏
敕
敖
敗
敝
敞
敢
散
敦
敫
敬
数
敷
數
斂
文
斉
斊
斗
斤
斥
斩
斬
斯
新
方
於
施
斿
旁
旋
族
无
旡
既
旣
日
旦
旧
旨
早
旬
旱
旲
时
旾
昆
昇
昌
昍
明
昏
易
昔
昗
昜
星
春
昬
是
昱
昴
昷
時
晃
晋
晏
普
景
晶
智
暑
暴
曇
曩
曰
曲
曳
更
曷
書
曹
曼
曾
替
最
朁
會
月
有
朋
服
朔
朕
朗
望
朝
木
朩
未
末
本
札
朮
术
朱
朵
朶
朿
杀
杏
杜
束
条
来
東
杲
杳
松
析
林
枚
果
枝
枲
枼
某
柔
查
柬
柰
柴
栗
桀
桑
桼
梁
條
梟
梨
棘
棠
棥
森
楚
業
楽
榮
樂
樊
欠
次
欣
欮
欲
欶
欽
款
歆
歇
歛
止
正
此
步
武
歨
歪
歮
歯
歰
歲
歴
歷
歸
歹
歺
死
殳
段
殷
殸
殹
殺
殻
殿
毋
毌
母
每
毒
比
毕
毚
毛
毳
氏
氐
民
气
氣
水
氵
氶
氷
永
氺
氾
求
汝
汞
江
沃
沓
沙
沝
泉
法
波
泣
泥
泰
洛
洪
活
派
流
浦
浪
浮
海
淡
淮
清
渚
渠
湯
滿
漸
火
灬
灭
灰
灵
灷
炅
炎
炏
炗
炙
炭
為
烈
烏
烝
焉
無
焦
焱
然
煞
熊
熏
燕
營
燮
爪
爫
爭
爯
爰
爱
爲
爵
父
爻
爽
爾
爿
片
牙
牚
牛
牜
牟
牢
牧
牪
牽
犀
犬
犭
犮
狂
狄
狊
独
狺
猋
猒
猪
献
獻
玄
率
玉
王
玟
玨
珎
班
琴
瑟
瑩
瓜
瓦
甘
甚
生
産
用
甫
甬
田
由
甲
申
电
甶
男
甸
甹
画
甾
畀
界
畏
畐
留
畜
畟
畢
畧
畨
番
畫
異
畱
當
畺
畾
疊
疋
疌
疑
疒
疾
癶
癸
癹
登
發
白
百
皀
皃
的
皆
皇
皋
皐
皕
皮
皷
皿
盃
盆
盇
盈
益
盍
盎
监
盒
盖
盛
盡
監
盤
盧
目
直
相
盾
省
眇
眉
看
眔
眞
真
眷
眼
眾
着
睘
睪
睿
瞏
瞢
瞿
矍
矛
矞
矢
矣
知
矦
短
石
破
碎
磊
磨
示
礻
礼
祟
票
祭
禀
禁
禸
禹
禺
离
禽
禾
禿
秀
秃
秉
秋
科
秝
秦
移
稟
穀
穌
穴
究
穹
空
穿
突
窄
窒
立
竒
竜
竝
竟
章
童
竹
笑
笠
筆
等
答
箕
算
箴
節
篤
篭
米
粉
粛
粟
粤
粦
粲
糞
糸
糹
系
約
納
素
索
紫
累
細
絜
絫
絲
維
綿
縣
繇
纍
纟
缶
网
罒
罔
罕
罗
罙
罡
罢
罪
署
罷
羅
羊
羌
羍
美
羔
羕
羗
羞
羡
羣
群
義
羲
羸
羽
翁
翏
習
翕
翟
翠
翼
老
耂
考
者
耆
而
耎
耑
耒
耳
耴
耶
耷
聂
聊
聖
聚
聶
聿
肀
肃
肅
肉
肖
肙
肥
肩
肯
育
肴
胃
背
胡
胥
能
脊
脩
膚
臣
臤
臧
自
臬
臭
臯
臱
至
致
臺
臼
臽
臾
臿
舀
舂
舄
與
興
舉
舌
舍
舛
舜
舞
舟
般
艮
良
色
艸
艹
艾
芒
芔
芬
芮
花
芳
芺
芻
苔
苗
苟
若
苦
英
茶
茸
荅
草
荒
荣
荼
莆
莧
莫
莽
菆
菊
菐
華
萬
落
葉
著
葛
董
葵
蒙
蒦
蒼
蓋
蓬
蓺
蔑
蔡
蕉
蕭
薄
薛
薦
薰
藍
藏
藥
蘭
虍
虎
虐
虒
虔
處
虖
虗
虘
虚
虛
虜
虞
虫
虽
蚤
蚩
蜀
蜜
蟲
蠡
血
行
衍
衛
衣
衤
表
衮
衰
袁
袞
褭
褱
襄
襾
西
覀
要
覃
見
規
覓
覧
親
覽
见
角
解
言
訁
訇
計
詹
誩
調
諸
讠
谷
豆
豈
豊
豐
豕
豖
豙
象
豦
豩
豪
豸
貇
貝
貞
貟
負
貢
貧
貪
貫
責
貳
貴
買
費
賁
資
賈
賏
賓
賔
賛
賞
賢
賣
質
賴
贊
贝
贡
责
贯
贲
贵
赖
赞
赤
赦
走
越
足
路
蹇
身
躬
車
軍
軎
軟
輦
车
辛
辜
辟
辥
辰
辱
農
辵
辶
边
达
过
近
连
迷
追
退
送
逆
逐
通
速
造
逢
連
逮
進
遀
遂
過
道
達
遣
適
遷
遺
邊
邑
邕
那
邦
邪
郎
部
郭
都
鄉
酉
酋
配
酓
釆
采
里
重
野
量
金
釒
錢
钅
長
镸
长
門
閃
閉
開
閏
閑
閒
間
閔
閵
閻
闌
门
间
闷
阑
阜
阝
阿
降
陳
隆
隊
隋
隡
隨
隱
隶
隹
隺
隻
隼
隽
难
雀
雁
集
雈
雋
雍
雐
雔
雙
雚
雜
雝
離
難
雨
雩
雪
雲
零
雷
需
霍
霜
霝
霞
霸
靈
靑
青
非
靡
面
靣
革
韋
韦
韭
韯
韱
音
頁
頃
項
須
頗
頡
頻
顛
页
風
风
飛
飞
食
飠
養
饣
首
香
馬
馮
駦
马
骨
高
髟
鬥
鬯
鬲
鬼
魚
魯
鮮
鱼
鲁
鳥
鳳
鸟
鹵
鹿
麃
麗
麥
麦
麻
黃
黄
黍
黎
黑
黒
黨
黹
黽
黾
鼎
鼓
鼠
鼻
齊
齋
齐
齒
齿
龍
龙
龜
龟
龠
龰
龱
龴
龵
龶
龷
龸
龹
者
艹
？
𠀁
𠀃
𠀆
𠀉
𠀎
𠀐
𠁁
𠁣
𠂆
𠂇
𠂈
𠂉
𠂊
𠂋
𠂎
𠂒
𠂔
𠂛
𠂡
𠂢
𠂤
𠂬
𠂭
𠂹
𠃊
𠃋
𠃌
𠃍
𠃎
𠃑
𠃓
𠃔
𠃜
𠄌
𠄎
𠄠
𠄢
𠆢
𠆥
𠇍
𠈌
𠌵
𠓜
𠔉
𠔥
𠔼
𠔽
𠔿
𠕀
𠕁
𠕋
𠘧
𠘨
𠙻
𠙼
𠚏
𠚒
𠚤
𠚪
𠣏
𠤎
𠤕
𠥓
𠦄
𠦑
𠦝
𠧒
𠧗
𠧪
𠩺
𠪚
𠫓
𠫔
𠫤
𠬛
𠬝
𠬞
𠬢
𠬤
𠬶
𠮛
𠮦
𠮷
𠯑
𠱠
𠳮
𠷎
𡈼
𡉀
𡉵
𡌥
𡍮
𡏳
𡕒
𡕩
𡕰
𡖅
𡗗
𡗜
𡘆
𡘤
𡧱
𡨄
𡩧
𡬠
𡭽
𡰣
𡰥
𡰪
𡰯
𡰱
𡷈
𡸁
𡿨
𡿩
𡿪
𡿺
𢀖
𢀛
𢀩
𢁙
𢆉
𢆰
𢆶
𢇁
𢇇
𢉖
𢌬
𢌿
𢏚
𢑑
𢑚
𢖻
𢙣
𢛳
𢦏
𢦒
𢧵
𢼄
𢾕
𣁋
𣄼
𣅀
𣅽
𣍘
𣎳
𣎵
𣏋
𣏼
𣗥
𣥂
𣥖
𣦵
𣦼
𣧄
𣪊
𣪠
𣬉
𣳾
𣶒
𤇾
𤊽
𤐫
𤓰
𤔔
𤕨
𤣩
𤰇
𤰔
𤰞
𤴓
𤴔
𤽄
𥁑
𥁕
𥃦
𥃩
𥃭
𥇡
𥑟
𥘅
𥘈
𥝢
𥫗
𥱡
𦈢
𦉪
𦉬
𦉼
𦍌
𦍒
𦎧
𦐇
𦓔
𦔮
𦘒
𦙃
𦚏
𦣝
𦣞
𦣻
𦥑
𦥔
𦥯
𦨉
𦭝
𦰩
𧆞
𧈧
𧘇
𧰨
𧴪
𧴮
𧵩
𧾷
𨸏
𨾴
𩙿
𩠐
𩫏
𩵋
𪉷
𪜀
𪟽
𪠲
𪩲
𫇦
𫔭
𫜸
𫝀
𫠣
𫠩
𫢉
𫥞
𫩏
𫩠
𫪡
𫲽
𫶧
𬀷
𬐘
𬗌
𬙙
𬛸
𬜯
𬟩
𬯁
𬴘
𬺻
𬼉
𬼖
𭀰
𭁈
𭁨
𭅰
𭑈
𭕄
𭗼
𭤨
𭥫
𭻾
𮅕
𮊿
𮍌
𮍏
𮓗
𮥼
𮧮
廾
𰀁
𰀄
𰀈
𰀉
𰀕
𰀠
𰀡
𰀢
𰀪
𰁜
𰃮
𰆊
𰆘
𰋙
𰕎
𰢴
𰧭
𰯲
a--
aa--
ab--
abi--
ac--
acce--
acci--
aco--
acon--
acor--
acqui--
acro--
acu--
ad--
ada--
ade--
adi--
ado--
ae--
aero--
afe--
aff--
afi--
ag--
aga--
age--
agi--
agio--
agn--
ago--
agri--
ah--
ai--
aig--
air--
aje--
ajo--
ajorna--
ak--
al--
ala--
alber--
alci--
ale--
alek--
ali--
all--
alo--
alta--
alti--
alto--
altra--
altre--
alu--
am--
ama--
ame--
ami--
ammini--
an--
ana--
anar--
and--
ane--
anfi--
ang--
angio--
angli--
angu--
ani--
annun--
ano--
ans--
ante--
anti--
anun--
any--
anz--
ao--
apar--
apel--
apo--
app--
apro--
aqui--
ar--
ara--
arangia--
arc--
archeoło--
are--
argo--
ari--
aristo--
arl--
arma--
arr--
ars--
art--
arte--
arti--
arxe--
as--
asa--
ase--
asen--
ash--
asi--
aso--
asu--
asun--
at--
atend--
atri--
atti--
au--
aut--
auto--
auxi--
ava--
ave--
aveni--
avenje--
aver--
avi--
avv--
avven--
ax--
ay--
az--
azu--
ał--
ała--
ałe--
ałi--
ałiment--
b--
ba--
bad--
baga--
bah--
bai--
bal--
bam--
ban--
bar--
bas--
base--
bat--
bau--
bazo--
be--
bea--
beau--
bec--
bel--
ben--
bene--
ber--
berg--
bern--
beu--
bi--
bia--
bib--
biblio--
bici--
bie--
big--
bin--
bio--
bioło--
bir--
bis--
bit--
bix--
bixa--
bixe--
bixo--
biz--
bl--
bla--
ble--
bo--
bob--
bol--
bom--
bon--
bona--
boni--
bonne--
bor--
bord--
bos--
bot--
bota--
bote--
bou--
boul--
bour--
br--
braxi--
bre--
bri--
briła--
bro--
broad--
bru--
bu--
buc--
bul--
bur--
bus--
by--
c--
ca--
cac--
cae--
cai--
cal--
cala--
cam--
camer--
camp--
can--
cana--
cance--
cao--
cap--
capi--
capo--
car--
cara--
cari--
caro--
carto--
casa--
cassi--
cast--
castel--
cat--
cata--
cato--
cau--
cavo--
cay--
cc--
ccc--
cccl--
ccl--
cd--
cdl--
ce--
cec--
cel--
cele--
celebr--
cen--
cent--
cer--
ceri--
ch--
cha--
cham--
chan--
char--
chau--
che--
chi--
chia--
chirur--
cho--
chon--
chu--
ci--
cia--
cin--
cio--
cir--
circo--
cita--
ciu--
cl--
cla--
cle--
cli--
cm--
cml--
co--
coa--
coe--
cogno--
coi--
coin--
col--
com--
come--
comer--
comis--
competi--
compl--
comple--
con--
conc--
conced--
conclud--
condi--
condu--
confe--
cono--
conpl--
conple--
conpoxi--
conpre--
conpro--
conputa--
contra--
contro--
cor--
core--
cori--
cos--
costr--
costru--
coti--
cou--
coul--
coun--
cour--
coło--
cra--
cre--
cresc--
cri--
cro--
cru--
cu--
cua--
cue--
cui--
cul--
cum--
cuo--
cuoti--
cup--
cur--
cusi--
custo--
cutu--
cy--
d--
da--
dal--
dam--
dan--
dar--
dc--
dcc--
dccc--
dcccl--
dccl--
dcl--
de--
dec--
decix--
defe--
dei--
del--
deli--
deme--
den--
deo--
depo--
der--
des--
dese--
desol--
destr--
deuts--
deutsch--
deva--
deve--
dexi--
dez--
deł--
di--
dia--
dici--
die--
dife--
difer--
diff--
difi--
digi--
dij--
dime--
din--
dina--
dio--
diri--
dis--
dista--
disti--
div--
dive--
diver--
divi--
dixi--
diz--
dj--
dl--
do--
doc--
docu--
dog--
dol--
dom--
dome--
don--
dor--
dos--
dou--
dr--
dra--
dreta--
dro--
dru--
du--
dun--
duo--
dur--
dura--
dx--
dy--
e--
ea--
ear--
ec--
ecc--
eco--
econo--
ecu--
ecua--
ecui--
ed--
edi--
edif--
edix--
edu--
eff--
egi--
ei--
el--
elabora--
ele--
elec--
eletro--
eli--
em--
eman--
emend--
emer--
emerze--
emi--
emo--
en--
end--
ene--
engi--
eo--
ep--
epi--
epide--
epis--
epit--
equa--
equi--
er--
era--
ere--
erga--
ero--
es--
esa--
escl--
esclu--
escu--
ese--
eser--
esi--
espl--
esplo--
esplora--
est--
este--
estin--
et--
etimoło--
etio--
etru--
eu--
eus--
eva--
evang--
eve--
every--
evide--
evolu--
ex--
exe--
exer--
exi--
exo--
extra--
ey--
ez--
eze--
ezen--
ezer--
ełe--
ełega--
ełeze--
f--
fa--
fab--
fai--
fal--
fami--
fan--
fanta--
far--
fasc--
fat--
fau--
fe--
fega--
fel--
femm--
feno--
fer--
ferma--
feu--
ff--
fi--
fia--
fie--
fijo--
fil--
fila--
fili--
filo--
fin--
finla--
fir--
fl--
flami--
flo--
flore--
flu--
fo--
fol--
fone--
foo--
for--
fora--
fos--
fou--
fr--
fra--
fre--
fred--
fres--
fri--
fu--
ful--
fun--
fur--
g--
ga--
gab--
gal--
gam--
gar--
gara--
gas--
gau--
gaz--
ge--
gen--
gene--
genti--
geo--
geolo--
ger--
ghi--
gi--
gia--
gian--
giard--
giga--
gil--
gio--
giord--
giorna--
gipuz--
giu--
giuris--
gla--
gli--
gno--
go--
god--
gol--
gon--
gondo--
gonf--
gonz--
gor--
got--
gott--
gou--
gra--
gre--
gri--
gro--
gru--
gu--
gua--
guada--
gue--
guer--
gueri--
gus--
h--
ha--
hab--
han--
har--
has--
hawa--
hay--
he--
hel--
hen--
her--
hi--
hin--
his--
ho--
hol--
hom--
hor--
hou--
hu--
hum--
hur--
hy--
i--
ia--
ial--
ic--
id--
ide--
ideoło--
idro--
ie--
if--
igna--
igno--
il--
illu--
im--
ima--
imagi--
imbro--
ime--
imi--
imita--
imma--
imo--
impe--
impera--
in--
ina--
inc--
inca--
inchi--
inco--
incui--
inde--
indi--
indo--
indu--
ine--
infan--
infe--
infiore--
infl--
influe--
infra--
ing--
inga--
inge--
ingre--
ini--
inn--
innoc--
ino--
inoce--
inpe--
inpro--
inqui--
inse--
inso--
inst--
insti--
int--
intar--
inte--
inter--
into--
intra--
inva--
investi--
inxe--
inze--
io--
ip--
ipa--
iper--
ipo--
ir--
ira--
is--
isab--
iso--
istit--
it--
ita--
iu--
iv--
ix--
iłu--
j--
ja--
jan--
jar--
je--
jen--
jo--
joa--
jon--
ju--
k--
ka--
kai--
kal--
kar--
kata--
ke--
ken--
ker--
kha--
kho--
ki--
kir--
ko--
kon--
kra--
kru--
ku--
ky--
l--
la--
labio--
labo--
labora--
lac--
lai--
lam--
lan--
lang--
lar--
las--
lat--
lau--
lava--
laz--
le--
lea--
legis--
leh--
lei--
lejis--
lem--
leo--
leri--
les--
let--
ley--
lez--
li--
lia--
lib--
libre--
lie--
liga--
ligna--
lin--
linguis--
lio--
living--
lla--
lo--
lod--
lom--
lon--
long--
longua--
lor--
lou--
lte--
lu--
luc--
lug--
lun--
ly--
m--
ma--
mac--
mad--
mae--
mag--
maga--
mage--
magi--
mah--
mai--
major--
mal--
mala--
male--
man--
mani--
mano--
mante--
manu--
mao--
mar--
mara--
mare--
mari--
mars--
mas--
massimi--
mastro--
mat--
matt--
mau--
max--
may--
maz--
mazi--
mc--
mcm--
mdc--
me--
mec--
meca--
mede--
mega--
mei--
mel--
mem--
men--
mer--
meri--
mes--
meta--
mey--
meło--
mi--
micro--
mie--
mil--
mili--
min--
mini--
mir--
mira--
mis--
mit--
mm--
mo--
moi--
mol--
mold--
mon--
mono--
mont--
monte--
monu--
mor--
mos--
mou--
mołe--
mp--
mu--
multi--
muni--
muo--
mur--
mus--
musul--
muzi--
muzici--
mw--
my--
n--
na--
nan--
nar--
nas--
nasional--
nat--
nau--
navr--
naxi--
nd--
ne--
nec--
negro--
neo--
ner--
nes--
net--
neu--
neut--
new--
ng--
ngu--
ni--
nia--
nie--
njo--
no--
noa--
noi--
non--
nor--
nord--
nos--
note--
nou--
nova--
nove--
noy--
nt--
nte--
nti--
nu--
numer--
nutri--
ny--
nz--
nzo--
o--
ob--
obbe--
obbli--
obe--
ober--
obli--
oc--
occiden--
oci--
oclu--
ode--
odi--
of--
off--
offic--
ofisi--
og--
oh--
oi--
ol--
ola--
olci--
ole--
olim--
oly--
om--
omni--
omo--
on--
one--
op--
opone--
opor--
or--
ora--
ore--
ori--
origi--
oro--
ors--
orti--
os--
ose--
osi--
ospe--
osta--
osti--
ostro--
ota--
otegne--
oto--
ott--
otto--
ou--
out--
over--
oxe--
oła--
p--
pa--
paci--
pag--
pai--
pal--
pan--
pano--
paol--
papa--
par--
para--
pari--
parte--
pas--
passa--
patri--
pavi--
paz--
pała--
pe--
pec--
pel--
pen--
peni--
per--
peri--
perpe--
petro--
pett--
pey--
pez--
pho--
phy--
pi--
pia--
pic--
pie--
pier--
pil--
pin--
pio--
pira--
pit--
pitt--
piz--
piła--
pl--
pla--
play--
ple--
plou--
plu--
po--
pod--
poe--
poi--
pol--
pole--
poli--
pomp--
pon--
pop--
popul--
por--
pos--
posed--
posi--
pote--
pou--
poui--
poxi--
poz--
pozi--
połe--
połi--
pp--
pra--
pre--
pres--
pri--
princ--
pro--
proc--
profe--
promo--
proto--
prove--
prołe--
pru--
psi--
pu--
pub--
publ--
pul--
pun--
puo--
pur--
put--
puy--
px--
q--
qua--
quadr--
quator--
que--
qui--
quoti--
r--
ra--
rab--
rac--
radio--
raf--
rafegu--
rai--
ram--
ran--
rapp--
ras--
rati--
ray--
raz--
rd--
re--
rea--
rec--
rechi--
reco--
recon--
recono--
recup--
red--
reduze--
ree--
reg--
rei--
rein--
reli--
relo--
rem--
ren--
reno--
reo--
res--
resis--
respo--
resur--
reta--
reti--
retro--
revol--
rex--
rexis--
rez--
rezi--
reła--
rełi--
ri--
ria--
ric--
rica--
rico--
ridi--
ridu--
rie--
rifari--
rifl--
rifu--
rin--
rinas--
rinf--
ringra--
rinova--
rinu--
rio--
ris--
rit--
rive--
riz--
rmu--
ro--
rob--
roc--
rod--
rom--
ron--
roque--
ros--
roso--
ross--
rou--
rte--
ru--
ruff--
ruo--
s--
sa--
sab--
sagre--
sai--
sal--
salva--
sam--
san--
sangu--
sanso--
sar--
saso--
sate--
satu--
sau--
saul--
savi--
sba--
sbir--
sbo--
sc--
sca--
scal--
scali--
scam--
scan--
scar--
scałi--
sch--
schi--
schu--
scie--
sco--
scomp--
scon--
scor--
scu--
scud--
scul--
se--
sea--
sec--
secue--
sede--
sedi--
seg--
segu--
sei--
sel--
sem--
seme--
semi--
sen--
sentra--
seo--
ser--
sera--
ses--
set--
sete--
sey--
sełe--
sełu--
sfo--
sfu--
sg--
sgu--
sh--
sha--
shakespe--
she--
shi--
sho--
show--
shu--
si--
sia--
sic--
sie--
sig--
sile--
sim--
simp--
sin--
since--
sinda--
sino--
sio--
sir--
sis--
sky--
sla--
sle--
sli--
slo--
sm--
smisi--
so--
soc--
social--
sodis--
soff--
sog--
soi--
sol--
soli--
some--
son--
sop--
sor--
sora--
sospe--
sospi--
soste--
sosteni--
sosti--
sot--
soto--
sotto--
sou--
sound--
sovra--
sp--
spa--
spar--
spe--
spett--
spi--
spiri--
spo--
spro--
spuz--
st--
sta--
stan--
ste--
ster--
sti--
sto--
stra--
stre--
stri--
stris--
stro--
stru--
stu--
stupi--
su--
sub--
subita--
succ--
suce--
sud--
suda--
sudiv--
sum--
sun--
suo--
supar--
super--
supp--
sur--
suss--
sve--
svi--
swa--
swe--
swit--
sy--
syl--
sympho--
t--
ta--
tag--
tai--
tal--
tam--
tan--
tar--
tał--
te--
tea--
tec--
tecno--
tecnolo--
tecnoło--
tegne--
tel--
tele--
temp--
ten--
tenje--
tenpe--
teo--
teoło--
ter--
tera--
tes--
tełe--
th--
the--
thi--
thou--
ti--
tim--
tin--
tio--
tip--
tipo--
tir--
to--
tol--
tom--
ton--
topo--
tor--
tou--
tour--
tova--
tr--
tra--
tradi--
tradu--
traduze--
tran--
trans--
tranz--
tras--
trasmet--
trava--
trax--
traxe--
traz--
tre--
tres--
trevi--
tri--
tro--
tron--
tru--
ts--
tt--
tu--
tuni--
tur--
turi--
twe--
twi--
ty--
u--
uc--
ucc--
ue--
uff--
ufi--
uk--
ul--
um--
umi--
un--
unga--
unghe--
uni--
univar--
up--
ur--
us--
usa--
ut--
v--
va--
vai--
val--
van--
var--
vas--
vau--
ve--
ved--
vei--
vel--
ven--
venje--
ver--
vergo--
veri--
vero--
ves--
vesu--
veze--
veło--
vi--
via--
vibr--
vic--
vice--
video--
vie--
vil--
vila--
villa--
ville--
vin--
vinti--
vio--
viołe--
vir--
vis--
vitt--
viz--
viła--
vo--
voca--
voi--
voivo--
vol--
vor--
vr--
vu--
vul--
vuo--
w--
wa--
wal--
wald--
wan--
war--
we--
web--
wei--
wel--
wer--
wi--
wiki--
wil--
win--
wis--
wit--
wol--
wor--
wu--
x--
xa--
xe--
xi--
xio--
xl--
xo--
xu--
xuri--
y--
ya--
yem--
yi--
yo--
yu--
z--
za--
zam--
zan--
zar--
ze--
zecc--
zeni--
zentil--
zer--
zi--
zo--
zog--
zor--
zorna--
zu--
zur--
zura--
đ--
ł--
ła--
łar--
łe--
łen--
łi--
łiber--
ło--
łu--
α--
δ--
μ--
ν--
ο--
π--
τ--
το--
н--
--0
--00
--01
--02
--03
--04
--05
--06
--07
--08
--09
--1
--10
--11
--12
--13
--14
--15
--16
--17
--18
--19
--2
--20
--21
--22
--23
--24
--25
--26
--27
--28
--29
--3
--30
--31
--32
--33
--34
--35
--36
--37
--38
--39
--4
--40
--41
--42
--43
--44
--45
--46
--47
--48
--49
--5
--50
--51
--52
--53
--54
--55
--56
--57
--58
--59
--6
--60
--61
--62
--63
--64
--65
--66
--67
--68
--69
--7
--70
--71
--72
--73
--74
--75
--76
--77
--78
--79
--8
--80
--81
--82
--83
--84
--85
--86
--87
--88
--89
--9
--90
--91
--92
--93
--94
--95
--96
--97
--98
--99
--a
--ac
--aca
--acci
--ad
--ada
--ade
--adi
--ado
--ae
--agio
--ago
--ah
--ai
--aio
--ais
--aja
--ajo
--ak
--al
--ale
--ali
--almente
--am
--ame
--amente
--amenti
--amento
--amo
--an
--ana
--and
--ando
--ane
--ani
--ano
--ansa
--ant
--anza
--ao
--ar
--ara
--ard
--ardi
--ardo
--are
--ari
--aria
--arie
--ario
--aro
--arse
--ary
--as
--asion
--asure
--at
--ata
--ate
--ati
--ation
--ato
--au
--aux
--ava
--ave
--ax
--ay
--aye
--azi
--azzi
--ał
--ałe
--ałi
--ałita
--b
--ba
--bach
--bbe
--bbs
--be
--berg
--bes
--bi
--bile
--bili
--bilita
--biłe
--biłi
--biłita
--ble
--bo
--bon
--bora
--bra
--brai
--bs
--burg
--burgo
--bus
--by
--c
--ca
--cal
--camente
--car
--carpo
--cas
--cca
--cchi
--cchia
--cchio
--cci
--ccia
--ccio
--cco
--ce
--ceae
--cer
--cere
--ces
--cey
--cfr
--ch
--che
--chi
--chio
--cho
--cht
--chy
--ci
--cia
--cida
--cin
--cio
--cion
--ck
--cle
--co
--col
--coła
--cq
--cra
--cs
--ct
--cta
--ction
--cu
--cus
--cutivo
--cy
--d
--da
--dad
--dam
--dar
--de
--dega
--dego
--delfia
--dent
--der
--dero
--des
--desto
--deti
--deto
--dez
--dha
--dhe
--dhi
--dho
--di
--dia
--dido
--die
--din
--dini
--dio
--dir
--diva
--dive
--divi
--divo
--do
--dola
--dom
--don
--donia
--dor
--dora
--dore
--dori
--doro
--dos
--dose
--dosi
--doux
--dra
--ds
--dt
--du
--dum
--dun
--dur
--dura
--dure
--duto
--dy
--e
--ea
--eau
--eaux
--ec
--ed
--eda
--ede
--edo
--edy
--ee
--ega
--eghi
--ego
--ei
--eja
--ek
--el
--ella
--ello
--em
--emo
--en
--ence
--engo
--eni
--enio
--eno
--ens
--ensa
--ense
--ent
--enta
--ente
--enza
--eo
--er
--era
--ere
--eri
--eria
--ern
--ero
--ers
--erte
--es
--esa
--esca
--ese
--esi
--ess
--esta
--et
--eta
--ete
--eti
--eto
--ets
--etta
--ette
--etti
--etto
--eu
--eux
--ev
--eva
--evi
--evu
--exa
--exe
--exi
--ey
--ez
--eza
--eze
--ezi
--ezo
--ełi
--eło
--f
--fa
--fe
--fega
--fegasion
--feghe
--fego
--fen
--feta
--feto
--fetto
--ff
--ffa
--ffe
--fi
--fia
--fic
--fica
--ficasion
--fice
--fiche
--fici
--ficio
--fico
--fiso
--fo
--folo
--fort
--ft
--ful
--fur
--g
--ga
--gada
--gado
--gae
--gai
--gal
--gan
--gar
--gari
--gate
--ge
--gen
--ger
--ges
--gg
--ggi
--ggia
--ggio
--ggy
--gh
--ghe
--ghi
--ght
--gi
--gia
--giatura
--gico
--gie
--gin
--gina
--gio
--gis
--gli
--glia
--glio
--gn
--gna
--gnac
--gne
--gnensa
--gnenti
--gneva
--gni
--gnia
--gno
--gnu
--gny
--go
--gon
--goni
--gono
--gra
--gri
--grin
--grino
--ground
--gs
--gu
--gua
--gues
--gui
--guin
--gy
--h
--ha
--hac
--ham
--har
--he
--heim
--her
--hes
--hi
--hia
--hie
--hin
--hing
--hl
--hn
--ho
--hon
--hr
--ht
--http
--hu
--hun
--hy
--i
--ia
--iac
--iae
--iai
--ial
--iale
--ian
--iana
--iani
--iano
--iar
--ias
--ic
--ica
--ice
--iche
--ici
--ico
--ics
--id
--ida
--ide
--idi
--ido
--ie
--ier
--ieri
--iero
--iers
--ies
--ieu
--ifica
--igi
--igny
--igo
--ii
--ik
--il
--ile
--illa
--illo
--illon
--illy
--im
--ima
--imi
--imo
--in
--ina
--ine
--ing
--ini
--ino
--ins
--io
--ion
--ione
--ior
--ir
--ira
--ire
--iro
--is
--isa
--ise
--isia
--ision
--ismo
--isse
--ist
--ista
--iste
--isti
--isy
--it
--ita
--ite
--iti
--ito
--ity
--iu
--ium
--ius
--iva
--ival
--ive
--ivi
--ivo
--ix
--ixa
--ixi
--ixo
--iz
--iza
--izasion
--ize
--izi
--izo
--iłe
--iło
--j
--ja
--jada
--jai
--jar
--je
--jer
--jeri
--ji
--jio
--jo
--jon
--ju
--k
--ka
--ke
--ken
--ker
--kh
--ki
--kin
--ko
--ks
--ky
--l
--la
--lada
--lae
--lan
--land
--lani
--lar
--lare
--lari
--lay
--lba
--lco
--ld
--lde
--ldi
--ldo
--le
--lei
--lem
--leme
--len
--ler
--les
--let
--ley
--lf
--lhac
--li
--lia
--lica
--lici
--lico
--lier
--lin
--lini
--lino
--lio
--lis
--lismo
--lita
--lk
--ll
--lla
--lle
--lles
--lli
--llo
--lly
--lm
--lme
--lmente
--lo
--logia
--logy
--lon
--lona
--lone
--loni
--lph
--lpi
--ls
--lsa
--lsi
--lso
--lt
--lta
--lti
--lto
--ltri
--ltro
--lu
--lus
--luxo
--lve
--lveołare
--ly
--lz
--m
--ma
--mada
--mai
--man
--mar
--mare
--mb
--mba
--mbe
--mbi
--mbo
--mbre
--me
--ment
--menta
--mentałe
--mentałi
--mente
--menti
--mento
--mentre
--metrajo
--mi
--mia
--mic
--mico
--migo
--mila
--milia
--minti
--mio
--mme
--mn
--mo
--mon
--mont
--mpi
--mpio
--mpo
--ms
--mu
--my
--n
--na
--nac
--nae
--nai
--nais
--nal
--nali
--nansa
--nante
--nar
--nay
--nałe
--nałi
--nbe
--nbi
--nbo
--nburg
--nc
--nce
--ncer
--nch
--ncia
--ncourt
--ncy
--nd
--nda
--nde
--ndente
--ndenti
--ndi
--ndo
--ndola
--ndolo
--ndose
--ndosi
--ndra
--ndre
--ndri
--ndro
--ne
--nea
--nega
--nego
--nel
--nen
--nente
--ner
--nera
--nes
--net
--neuil
--nexe
--nexi
--ney
--ng
--nga
--nge
--ngelo
--nger
--nges
--ngo
--ngs
--nheim
--ni
--nia
--nian
--nic
--niche
--nici
--nico
--nie
--nika
--nin
--ning
--nio
--nis
--nismo
--nita
--nja
--nje
--nji
--njo
--nju
--nk
--nker
--nn
--nna
--nne
--nnes
--nni
--nno
--nny
--no
--non
--nova
--ns
--nsa
--nse
--nsi
--nsis
--nso
--nson
--nt
--nta
--ntana
--ntar
--ntałi
--nte
--nti
--ntia
--ntin
--ntina
--ntini
--nto
--ntra
--ntre
--nts
--nu
--nui
--num
--nus
--nx
--nxa
--nxe
--ny
--nz
--nza
--nze
--nzi
--nzia
--nzo
--o
--oa
--oba
--oco
--od
--oi
--ois
--ok
--ol
--ola
--oli
--olo
--om
--oma
--ome
--on
--ona
--onal
--ond
--one
--oni
--onia
--onne
--ons
--ont
--or
--ora
--orda
--ordia
--ore
--ori
--orsi
--os
--osa
--ose
--osi
--oso
--osta
--ot
--ota
--oti
--oto
--ou
--ourt
--ous
--out
--oux
--ov
--ow
--oxa
--oxo
--oy
--oza
--oła
--ołe
--oło
--p
--pa
--pe
--pes
--peto
--ph
--phy
--pi
--pia
--pie
--pio
--piti
--pli
--plice
--plo
--po
--pon
--ppa
--ppe
--ppi
--ppo
--ps
--pt
--pu
--pus
--py
--q
--que
--r
--ra
--rada
--rae
--rai
--ral
--rale
--rar
--ras
--rata
--rate
--rato
--rava
--rave
--rałe
--rałi
--rbi
--rc
--rca
--rche
--rco
--rd
--rda
--rde
--rdi
--rdin
--rdo
--rds
--re
--rea
--remo
--ren
--rer
--rera
--res
--ret
--reta
--reto
--rett
--rey
--rezza
--rg
--rga
--rge
--rghe
--rghi
--rgo
--ri
--ria
--riamente
--rici
--rie
--rii
--rin
--rina
--ring
--rini
--rino
--rio
--rior
--riori
--rir
--ris
--rit
--rium
--rk
--rke
--rl
--rla
--rle
--rli
--rlo
--rm
--rma
--rme
--rmente
--rmi
--rmo
--rn
--rna
--rne
--rnita
--rno
--rns
--rny
--ro
--roe
--rol
--ron
--row
--rp
--rra
--rre
--rro
--rs
--rsa
--rse
--rsi
--rso
--rt
--rta
--rte
--rti
--rtico
--rto
--ru
--rum
--rus
--rve
--rvi
--rxe
--ry
--rz
--rza
--rze
--rzi
--rzo
--s
--sa
--sac
--sada
--sar
--sberg
--sburg
--sburgo
--sca
--sce
--sch
--schi
--sco
--scun
--se
--sei
--sel
--semo
--sen
--sento
--seto
--seva
--sey
--sh
--si
--sia
--sian
--sida
--sie
--sima
--simi
--simo
--sin
--sio
--sion
--sipo
--sis
--siva
--sk
--ska
--ski
--sley
--sma
--sman
--sme
--smi
--smo
--sne
--snoy
--so
--sofo
--son
--sor
--ss
--ssa
--sse
--ssi
--ssie
--ssima
--ssime
--ssimi
--ssimo
--ssion
--sso
--sson
--ssu
--ssuda
--ssy
--st
--sta
--star
--ste
--stega
--steghe
--stego
--ster
--sti
--stia
--stica
--stico
--stie
--sto
--stri
--stu
--su
--sus
--sy
--t
--ta
--tada
--tade
--tae
--tal
--tan
--tana
--tani
--tano
--tar
--tari
--tas
--tat
--tałi
--tch
--te
--teca
--ted
--tega
--teghi
--tego
--temi
--ten
--ter
--tera
--tes
--tevi
--teło
--th
--tha
--ti
--tia
--tic
--tica
--tiche
--tici
--tico
--tics
--tie
--tier
--til
--tile
--tin
--tina
--tine
--ting
--tini
--tino
--tio
--tion
--tions
--tir
--tis
--tisi
--tismo
--tiu
--tiva
--tive
--tivi
--tivo
--tney
--to
--ton
--tona
--tor
--tora
--tore
--tori
--torio
--tot
--tou
--tov
--town
--tra
--tre
--tri
--trice
--tro
--truto
--try
--ts
--tsch
--tt
--tta
--tte
--ttes
--tti
--tto
--tu
--tuałe
--tudine
--tudo
--tui
--tum
--tur
--tura
--ture
--tus
--ty
--tz
--u
--ua
--ual
--uale
--uałe
--uałi
--ub
--uc
--ucci
--uce
--uck
--ud
--uda
--ude
--udi
--ue
--uf
--ug
--uga
--ugh
--ui
--uil
--uir
--ul
--ula
--ule
--uli
--ulo
--ult
--um
--ume
--umi
--un
--una
--uno
--unt
--unto
--uo
--up
--ur
--ura
--ure
--uri
--urs
--urt
--us
--usion
--uso
--ut
--uta
--ute
--uti
--uto
--utor
--uvy
--ux
--uy
--uz
--uze
--uło
--v
--va
--vae
--val
--vano
--var
--vare
--ve
--vemo
--ver
--vesi
--vet
--vey
--vi
--via
--vie
--ville
--vimo
--vina
--vo
--vole
--vołe
--vra
--vre
--vy
--w
--wa
--way
--we
--ween
--well
--wich
--wn
--wski
--x
--xa
--xada
--xan
--xana
--xani
--xar
--xare
--xasion
--xe
--xemo
--xento
--xi
--xia
--xie
--ximo
--xini
--xio
--xion
--xioni
--xmo
--xo
--xon
--xor
--xt
--xu
--y
--ya
--ye
--yer
--yl
--yn
--yo
--yon
--ys
--z
--za
--zac
--zada
--zai
--zani
--zar
--zasion
--zay
--ze
--zel
--zer
--zesta
--zeste
--zesto
--zeva
--zeła
--zi
--zia
--zie
--zin
--zina
--zio
--zion
--zione
--zioni
--zmo
--zo
--zon
--zoni
--zu
--zy
--zz
--zza
--zze
--zzi
--zzo
--đa
--ł
--ła
--łada
--łae
--łaji
--łar
--łare
--łasion
--łe
--łea
--łi
--łida
--łin
--łina
--łini
--łio
--łismo
--łista
--łisti
--łita
--łiza
--ło
--łogia
--łon
--łoxia
--łoxie
--łozi
--łozia
--ι
--ν
--ς
--υ
--а
--и
--н
