!
"
#
##0
##1
##10
##11
##12
##13
##14
##15
##16
##17
##18
##19
##2
##20
##21
##22
##23
##24
##25
##26
##27
##28
##29
##3
##30
##31
##32
##33
##34
##35
##36
##37
##38
##39
##4
##40
##41
##42
##43
##44
##45
##46
##47
##48
##49
##5
##50
##51
##52
##53
##54
##55
##56
##57
##58
##59
##6
##60
##61
##62
##63
##64
##65
##66
##67
##68
##69
##7
##70
##71
##72
##73
##74
##75
##76
##77
##78
##79
##8
##80
##81
##82
##83
##84
##85
##86
##87
##88
##89
##9
##90
##91
##92
##93
##94
##95
##96
##97
##98
##99
$
%
&
'
(
)
*
+
,
-
.
/
0
00
000
01
02
03
04
05
06
07
08
09
1
10
100
1000
101
107
11
110
111
115
12
120
123
13
14
15
150
16
17
18
180
1826
19
1900
1910
1920
1930
1940
1950
1957
1960
1965
1968
1970
1971
1972
1973
1975
1976
1977
1978
1980
1981
1982
1983
1984
1985
1986
1987
1988
1989
1990
1991
1992
1993
1994
1995
1996
1997
1998
1999
2
20
200
2000
2001
2002
2003
2004
2005
2006
2007
2008
2009
2010
2011
2012
2013
2014
2015
2016
2017
2018
2019
2020
2021
2022
21
22
220
23
24
25
250
26
27
28
29
3
30
300
31
32
33
34
35
350
36
37
38
39
4
40
400
41
42
43
44
45
46
47
48
49
5
50
500
51
52
521
53
54
55
56
57
58
59
6
60
61
62
63
639
64
65
66
67
68
69
7
70
71
72
73
74
75
76
77
78
79
8
80
81
82
83
84
85
86
87
88
89
9
90
91
92
93
94
95
96
97
978
98
99
:
;
<
=
>
?
@
\
^
_
`
a
aa
ab
abbreviated
abbreviation
abbreviations
ability
able
ablon
ablono
about
above
absence
absolute
abstract
abuse
ac
academic
academy
accept
acceptable
accepted
access
accessdate
accessed
according
account
accounts
accurate
acid
across
act
acting
action
actions
active
activities
activity
actor
acts
actual
actually
ad
add
added
adding
addition
additional
address
addresses
adds
adj
admin
administration
administrative
administrator
administrators
adopted
adv
advance
advanced
advice
af
affairs
affect
affected
affection
afghanistan
africa
african
after
again
against
age
agency
agent
ago
agree
agreement
ahom
ahoms
ai
aid
air
aircraft
airport
akademi
al
album
alert
ali
aliases
align
alignment
all
allow
allowed
allowing
allows
almost
alone
along
alpha
alphabet
already
als
also
alt
altered
alternate
alternative
alternatively
alternatives
although
always
am
ambiguous
america
american
among
amount
an
analysis
anchor
ancient
and
anger
angry
animal
animals
annual
another
answer
anti
anxiety
any
anyone
anything
ap
apart
api
appeal
appear
appearance
appears
append
appendchild
apple
applicable
application
applications
applied
applies
apply
appointed
approach
appropriate
approval
april
ar
arabic
arbitration
architecture
archive
archived
archives
archiving
are
area
areas
argument
arguments
arms
army
around
art
article
articles
artist
arts
aryan
as
asia
asian
ask
asked
asp
aspects
aspx
assam
assamese
assembly
assessment
assigned
associated
association
assume
at
ata
atan
atc
athletics
attached
attack
attacks
attempt
attention
attr
attribute
attribution
au
audio
aug
august
australia
australian
austrian
author
authority
authorlink
authors
auto
automated
automatic
automatically
available
average
avoid
avoided
award
awarded
awards
aware
away
b
ba
babel
back
background
bad
bag
baker
balance
ball
bamboo
band
bangla
bangladesh
bank
banner
banners
bar
bare
bark
barnstar
barua
baruah
base
baseball
based
basic
basis
basketball
battle
bbc
bc
be
bear
beat
beautiful
beauty
became
because
become
becomes
bed
been
before
begin
beginning
begins
behalf
behavior
behaviour
behind
being
belgian
believe
belong
belonging
below
benefit
bengal
bengali
best
beta
better
between
beyond
bf
bg
bha
bhuyan
bi
bieber
big
bill
biographical
biographies
biography
biological
biology
bird
birds
birth
births
bit
black
blank
block
blocked
blocking
blocks
blog
blood
blow
blp
blue
bn
bo
board
boat
body
bold
bombay
book
books
border
bordoloi
born
bot
both
bots
bottom
bound
box
boxes
boxing
boy
brackets
braille
branch
brazilian
break
breaking
breaks
breast
breeding
bridge
brief
bring
britain
britannica
british
broad
broken
brother
brought
brown
browser
browsers
buddhism
buddhist
bug
build
building
built
buragohain
buranji
burma
burning
business
but
butterflies
button
by
c
ca
calcutta
calendar
california
call
called
calling
calls
cambridge
came
campaign
can
canada
canadian
candidates
cannot
canoeist
canton
capacity
capital
capitalized
caption
care
careful
caribbean
carried
carrying
case
cases
cast
caste
cat
categories
categorization
categorize
category
cattle
cause
caused
causes
causing
cc
cd
cdot
ce
cell
cells
census
center
central
centre
century
ceremony
certain
ceylon
cf
ch
chain
chance
chandra
change
changed
changes
changing
channel
chapter
character
characters
charge
charles
chart
chat
check
checked
chembox
chemical
chemistry
chicago
chief
child
children
china
chinese
choice
choose
chosen
choudhury
christian
church
cinema
circle
circumstances
cis
citation
citations
cite
cited
citetb
cities
citing
city
civil
civilization
claim
claims
class
classes
classical
classification
clean
cleanup
clear
clearly
click
clicking
climate
close
closed
closely
closing
cloth
club
cm
co
coast
code
codes
col
cold
collaboration
collapse
collapsed
collapsible
collected
collection
college
colon
color
colors
colour
colours
columbia
column
columns
com
combination
combined
come
comes
comics
coming
comma
command
commander
commas
comment
commentary
comments
commercial
commission
committee
common
commonly
commons
communication
communities
community
companion
company
comparative
compare
comparison
compatible
competition
complete
completed
completely
complex
component
composed
composer
composition
compound
comprehensive
computer
con
concept
concern
concerns
concise
condition
conditions
conduct
conducted
conference
config
confirmed
conflict
confused
confusion
congress
conjunction
connection
consensus
conservation
consider
considered
consistent
consisting
constitution
construction
consultation
contact
contain
container
containing
contains
contemporary
content
contents
contest
context
continue
contribute
contribution
contributions
contributor
contributors
control
controversial
convention
conventions
conversation
conversion
convert
converted
cooking
coord
coordinates
copied
copy
copying
copyright
copyrighted
core
corner
corporation
correct
correctly
corresponding
cost
cotton
could
council
count
countries
country
county
course
court
cover
coverage
covered
covering
covers
covid
cow
create
created
creates
creating
creation
creative
creator
cricket
crime
criteria
criterion
critical
crop
cross
crown
cry
cs
css
ctx
cultural
culture
cup
curid
currency
current
currently
custom
cut
cutting
czech
d
da
daily
dance
danish
dark
das
dash
dashes
data
database
date
dated
dates
daughter
david
day
days
dd
de
dead
deal
dealing
dear
death
dec
december
decimal
decision
deep
def
default
defaults
defender
defined
defines
definition
degree
degrees
deity
deka
del
delete
deleted
deletion
delhi
delivery
delta
demand
dendrobium
department
dependent
depending
depends
deprecated
depth
der
derivation
derived
des
describe
described
describes
description
descriptions
descriptive
design
designation
designed
desire
desired
detail
detailed
details
determine
determined
deva
develop
developed
development
devi
di
diagram
dialect
dialog
dictionary
did
die
died
diff
difference
differences
different
difficult
difficulty
digital
digitized
digits
din
direct
direction
directly
director
dis
disabled
disambiguation
disambiguous
discuss
discussed
discussion
discussions
disease
diseases
disorder
display
displayed
displays
dispute
disputed
disputes
disruption
disruptive
distance
distinct
distress
distribution
district
div
diversity
divided
divine
division
divisions
djvu
dl
dms
dna
do
doc
document
documentary
documentation
documents
does
doesn
dog
doi
doing
domain
domestic
don
done
door
dot
double
doubt
down
download
dr
draft
drama
draw
drawing
dress
drink
drop
drug
dry
du
due
duration
during
dutch
dutta
duty
e
each
ear
earlier
early
earth
easier
easily
east
eastern
easy
eat
eating
economic
economics
economy
ed
edge
edit
edited
editing
edition
editor
editors
edits
eds
edu
education
educational
edward
effect
effects
effort
efforts
eg
eggs
eight
either
el
elder
election
elections
element
elements
elephant
else
elsewhere
em
email
emphasis
empire
empty
en
enable
enabled
enclosed
encourage
encouraged
encyclopedia
encyclopedic
encyclopædia
end
ending
ends
energy
enforcement
eng
engine
engineering
england
english
enough
ensure
enter
entered
entertainment
entire
entirely
entries
entry
environment
eo
equal
equals
equivalent
er
era
error
errors
es
escape
especially
essays
essential
established
et
etc
eu
europe
european
even
evening
event
events
ever
every
everyone
everything
evidence
evil
evolution
ex
exact
exactly
examination
example
examples
excellent
except
exception
exceptions
excessive
exchange
exist
existence
existing
exists
expand
expanded
expansion
expected
experience
experienced
explain
explanation
explanatory
explicitly
explorer
express
expression
extended
extension
extent
external
extra
extract
extremely
eye
eyes
f
fa
face
facebook
fact
facts
fail
failed
fair
faith
fall
falling
falls
false
familiar
family
famous
faq
far
fast
fat
father
fault
fe
fear
feature
featured
features
february
fed
federal
feed
feedback
feeds
feel
feeling
feet
fellow
fem
female
fencing
festival
few
ff
fi
fiction
field
fields
fifa
fifth
fight
figure
figures
file
filename
files
fill
filled
film
films
final
financial
find
finding
fine
finger
finnish
fire
firefox
first
fish
fit
five
fix
fixed
flag
flat
float
floating
flood
florida
flow
flower
flowers
fo
focus
folk
folklore
follow
followed
following
follows
font
fonts
foo
food
foot
football
footer
footnote
footnotes
for
force
forces
foreign
forest
form
formal
format
formats
formatted
formatting
formed
former
formerly
forms
formula
fort
forth
forum
forward
found
foundation
four
fourth
fr
frac
frame
france
frank
free
freedom
freely
french
frequently
friend
friends
from
front
fruit
ft
fu
full
fully
function
functionality
functions
further
future
g
ga
gadget
gain
gait
gallery
game
games
gandhi
garden
gate
gauhati
gay
ge
gender
general
generally
generate
generated
generates
generation
generic
genus
geographic
geographical
geography
george
german
germany
get
getelementbyid
gets
getting
gfdl
girl
gitartha
give
given
gives
giving
global
go
goal
goalkeeper
god
goddess
godfather
gods
goes
going
gold
golden
gone
good
google
goswami
got
gov
government
govt
grain
grammar
grand
grant
granted
grass
gray
great
greater
greatest
greek
green
gregorian
grey
ground
group
groups
grow
growing
grown
growth
guardian
guidance
guide
guideline
guidelines
guwahati
h
ha
had
hair
half
hall
han
hand
handbook
handle
hands
happen
happy
harassment
hard
harry
harvard
has
hatnote
have
having
he
head
header
heading
headings
health
hear
heart
heat
heaven
heavy
height
held
hello
help
helpful
helps
hem
hence
henry
her
here
heritage
hi
hidden
hiddencat
hide
high
higher
highest
highly
hill
hills
him
himself
hindi
hindoo
hindu
hinduism
his
hist
historic
historical
history
ho
hockey
hold
holder
holding
hole
holy
home
hong
hope
horizontal
horse
hospital
host
hot
hour
hours
house
how
however
htm
html
http
https
hu
human
hundred
hungarian
husband
hy
hyderabad
hyphen
i
ice
icon
icons
id
idea
ideas
identification
identified
identifier
identifiers
identify
identity
idiomatical
ie
if
ignored
ii
iii
il
ill
illustrated
im
image
images
imdb
img
imitative
immediately
impact
imperial
implementation
importance
important
improve
improvement
improving
in
inactive
inappropriate
inc
include
included
includes
including
inclusion
incorrect
increase
increased
independent
index
india
indian
indiatimes
indic
indicate
indicated
indicates
individual
individuals
indo
indonesia
industrial
industry
infection
infectious
inferior
inflation
influence
info
infobox
infoboxes
inform
information
ing
initial
inline
inner
input
insect
insert
inserted
inside
instance
instances
instead
institute
instructions
instrument
int
integer
intended
inter
interest
interested
interface
internal
internally
international
internet
interview
interwiki
into
introduced
introduction
invalid
investopedia
invite
involved
ioc
ip
ipa
ipsum
ireland
irish
iron
is
isbn
islam
island
islands
isn
iso
issn
issue
issues
ist
it
italian
italic
italics
italy
item
items
its
itself
iucn
iv
j
ja
james
jan
january
japan
japanese
javascript
john
join
joined
joint
joseph
journ
journal
journals
journey
jpg
js
jstor
judgment
jul
julian
july
june
jungle
just
justice
jyoti
k
ka
keep
keeping
kept
key
keyboard
khan
ki
kind
kinds
king
kingdom
kings
km
know
knowledge
known
ko
kolkata
kong
korean
krishna
ku
kumar
l
la
label
labels
labour
lack
laid
lake
land
lang
language
languages
lanka
large
larger
largest
last
late
later
latest
latin
latter
law
laws
lawyers
lay
layout
lb
le
lead
leader
leading
leaf
league
leap
learn
learning
least
leave
leaves
leaving
led
left
legal
legend
length
less
let
letter
letters
level
levels
li
library
license
licensed
licenses
licensing
lie
life
light
like
likely
limit
limited
line
lines
link
linked
linking
links
list
listed
listing
lists
lit
literary
literature
little
live
lives
living
ll
lo
load
local
located
location
locations
locomotive
log
logged
logic
logo
london
long
longer
longitude
look
looking
looks
loose
lord
lorem
loss
lost
lot
loud
louis
love
low
lower
lt
ltd
lua
lunar
ly
m
ma
machine
made
magazine
magic
mahabharata
mail
main
mainly
maintain
maintenance
major
majority
make
makes
making
mal
male
mall
man
management
mandatory
manner
mantra
manual
manually
many
map
maps
march
margin
mark
marked
marker
market
marks
markup
marriage
martin
mass
massachusetts
master
match
matches
material
materials
math
mathbf
mathematical
mathematics
matisse
matter
matters
max
maximum
may
me
mean
meaning
means
meant
measure
medal
medalist
medhi
media
mediawiki
medical
medicine
medium
meet
meeting
member
members
memory
men
ment
mental
mention
mentioned
menu
merely
merged
message
messages
met
meta
metal
method
methods
mexico
mg
mi
michael
microformat
microformats
microsoft
mid
middle
midfielder
might
military
milk
million
min
mind
minister
ministry
minor
minority
minutes
missing
mission
mixed
mk
ml
mm
mobile
mode
model
modern
modified
module
moi
moment
money
month
monthly
months
moon
moral
more
morning
mos
most
mostly
mother
motilal
motion
mountain
mountains
mouth
move
moved
movement
movie
movies
moving
mp
mr
ms
mu
much
multi
multiple
mumbai
museum
music
musical
musician
must
mw
my
mythology
n
na
name
named
names
namespace
namespaces
naming
narrow
nat
nath
nation
national
nations
native
natural
nature
navbox
navboxes
navigation
navigational
nd
ne
near
nearly
necessary
neck
need
needed
needing
needs
negative
neither
nepal
ness
nest
nested
net
netherlands
network
neutral
never
new
news
newsletter
newspaper
newton
next
ng
ni
nic
night
nine
nl
no
nobel
noble
node
noise
non
none
nor
normal
normally
north
northern
norwegian
nose
not
notability
notable
notation
note
noted
notes
nothing
notice
noticeboard
notices
notification
notify
notoc
noun
nouns
nov
novel
november
now
ns
null
number
numbered
numbers
numeric
o
object
oblast
obtain
obtained
obvious
occasionally
occupation
occurs
ocean
oct
october
odd
of
off
offensive
offer
office
officer
official
offset
often
oil
old
older
olympic
olympics
omit
omitted
on
once
one
ones
online
only
open
opening
opera
operating
operation
operator
opinion
opinions
opportunity
opposed
opposite
option
optional
optionally
options
opts
or
order
ordinary
org
organisation
organization
origin
original
originally
os
other
others
otherwise
otrs
our
out
outer
output
outside
over
override
overrides
overview
owl
own
owner
oxford
p
pa
padding
paddy
page
pagename
pages
pain
painter
pair
pakistan
pan
paper
papers
paragraph
parameter
parameters
params
parent
parentheses
paris
park
parser
part
partial
participants
participate
participation
particle
particular
particularly
parties
parts
party
pass
passage
passed
passing
past
paste
path
pattern
paul
pay
pdf
peace
peer
people
per
perfect
perform
performance
performed
perhaps
period
periods
permanent
permission
permitted
person
personal
persondata
persons
pertaining
peter
pg
ph
phase
philosophy
phonetic
photo
photograph
photographs
photos
php
phrase
phrases
physical
physics
pi
picture
pictures
piece
pieces
pipe
piped
pixels
pl
place
placed
places
placing
plagiarism
plain
plan
planning
plant
plantilla
plants
plate
play
player
please
pleasure
plural
plus
pm
png
po
poem
poems
poet
poetry
point
pointed
points
pole
police
policies
policy
polish
political
politician
politics
poly
poor
pop
popular
population
portal
portion
portrait
portuguese
position
positive
possible
possibly
post
posted
poster
posts
pot
potential
potter
power
powerful
pp
pr
practice
practices
pradesh
praise
prakash
pre
preceding
precision
predefinic
predloga
prefer
preferable
preferences
preferred
prefix
prepared
presence
present
presentation
presented
president
press
pressure
prevent
preview
previous
previously
price
pride
primarily
primary
prime
prince
princeton
principal
principle
principles
print
printed
prior
privacy
private
prize
pro
probably
problem
problems
process
processes
produce
produced
produces
producing
product
production
products
prof
professional
professor
profile
profit
program
programme
programming
progress
project
projects
pron
pronunciation
proper
properly
properties
property
proposal
proposals
propose
proposed
prose
protect
protected
protection
proverb
provide
provided
provides
providing
province
ps
psychology
pt
public
publication
publications
published
publisher
publishers
publishing
punctuation
pure
purpose
purposes
push
put
putting
px
q
quality
quantity
queen
query
question
questions
quick
quickly
quite
quotation
quotations
quote
quoted
quotes
qur
quran
r
ra
race
radio
rai
rail
railway
rain
raised
raja
ram
random
range
rank
rapid
rare
rate
rather
ratio
rationale
raw
ray
rayon
rd
re
reach
reached
read
reader
readers
reading
ready
real
really
reason
reasonable
reasons
receive
received
recent
recently
recommendations
recommended
record
records
red
rediff
redirect
redirects
reduce
reduced
ref
refer
reference
referenced
references
referencing
referred
refers
regard
regarding
regardless
regards
region
regional
regions
register
registered
regular
related
relating
relations
relationship
relative
release
released
relevant
reliable
religion
religious
remain
remains
rembrandt
remember
removal
remove
removed
removing
render
rendered
rendering
renders
repeat
repeated
replace
replaced
reply
report
reported
reports
represent
representation
represented
republic
request
requested
requests
require
required
requirements
requires
research
reserve
resolution
resolved
resource
resources
respect
respectively
response
responsible
rest
restrictions
result
resulting
results
retrieved
return
returns
revert
review
reviews
revised
revision
ri
rice
rich
richard
right
rights
ring
rise
risk
river
ro
road
robert
rock
role
roman
romanization
romanized
room
root
roots
rose
round
route
routledge
row
rowling
rows
roy
royal
rs
ru
rugby
rule
rules
run
running
rural
russia
russian
s
sa
sabha
sacred
sage
sahitya
said
saint
salt
same
sample
san
sand
sandbox
sanskrit
save
saved
say
saying
says
sc
scale
sch
scheme
school
schools
science
sciences
scientific
scientist
scope
score
scotland
scottish
screen
screenshot
script
scripts
se
sea
search
season
seats
sec
second
secondary
seconds
secret
section
sections
security
see
seed
seeds
seen
select
selected
selection
self
semi
send
sensation
sense
sensitive
sent
sentence
sentences
separate
separated
separator
september
series
serious
serve
server
service
services
session
set
sets
setting
settings
seven
several
severe
sex
sexual
shall
shape
share
shared
sharma
sharp
she
ship
shiva
short
shortcut
shortcuts
shorter
should
show
showing
shown
shows
shri
si
side
sides
sight
sigma
sign
signature
significant
signs
silent
silk
silver
similar
similarly
simple
simply
sin
since
singer
singh
single
singular
sir
sister
sit
site
sites
situation
situations
six
size
sjabloon
sk
skating
skin
sl
sleep
slight
slightly
slow
small
smaller
smith
snake
so
soc
soccer
social
society
soft
software
solid
solution
some
someone
something
sometimes
son
song
songs
soon
sort
sorting
soul
sound
sounds
source
sourced
sources
south
southern
soviet
space
spaces
spain
span
spanish
speak
speaking
special
species
specific
specifically
specified
specifies
specify
specifying
speech
speed
speedy
spelling
spirit
split
spoken
sport
sports
sportspeople
spread
spring
sqrt
square
sr
sri
st
staff
stage
stall
stand
standard
standards
standing
star
stars
start
started
starting
starts
state
stated
statement
statements
states
station
statistical
statistics
status
stay
step
steps
stick
still
stone
stop
stories
story
str
straight
strategy
stream
street
strength
strike
striking
string
strong
strongly
structure
structures
struggle
stub
stubs
student
students
studies
study
stupid
style
styles
su
sub
subcategories
subcategory
subject
subjects
submit
subpage
subpages
subst
substance
substitute
substituted
substitution
subtemplates
success
successful
succession
such
sudden
suddenly
suffering
sufficient
suffix
suggest
suggested
suggestions
suitable
sum
summaries
summary
summer
sun
supplied
supply
support
supported
supports
supposed
suppress
supreme
sur
sure
surface
surname
survey
sv
svg
swami
swedish
sweet
swimming
swiss
switch
symbol
symbols
symptoms
syntax
system
systems
t
ta
tab
table
tables
tag
tagged
tags
tai
tail
take
taken
takes
taking
talk
tamil
target
task
tasks
taste
taxobox
taxon
taxonomy
td
te
tea
teacher
teachers
teaching
team
technical
technology
teeth
telegraph
television
tell
templat
template
templates
temple
temporary
ten
tennis
term
terms
territory
test
testing
texas
text
texts
tf
tfrac
th
than
thank
thanks
that
the
theatre
their
them
themselves
then
theory
there
therefore
these
theta
they
thick
thin
thing
things
think
third
this
thomas
thon
those
thou
though
thought
thoughts
thousand
thousands
thread
three
through
throughout
thumb
thumbnail
thus
ti
tie
tiger
till
time
times
tion
title
titles
to
toc
today
together
toi
tone
tongue
too
took
tool
toolbar
tools
tooltip
top
topic
topics
total
towards
town
tr
track
tracking
trade
tradition
traditional
train
training
trans
transcluded
transclusion
transcription
translate
translated
translation
translations
translator
transparent
transport
travel
treated
treatment
tree
trees
tribes
tribune
trouble
true
trust
trustees
truth
try
trying
tt
tu
turkish
turn
tv
twenty
twice
twinkle
two
ty
type
typeof
types
typical
typically
typing
u
uk
un
undefined
under
understand
understanding
unesco
unicode
union
unique
unit
united
units
universal
universe
university
unknown
unless
unlike
unnamed
unnecessary
until
up
update
updated
updates
upload
uploaded
uploading
upon
upper
upright
url
urls
us
usa
usage
use
used
useful
user
username
users
userspace
uses
using
usual
usually
ut
utc
v
va
valid
valley
valuable
value
values
van
vandalism
var
variable
variant
variants
variety
various
ve
vector
vedic
verifiability
version
versions
vertical
very
vessel
vi
via
vice
victoria
video
videos
view
viewing
views
vii
village
violation
violations
violence
virginia
vishnu
visible
visit
visual
visualeditor
voice
vol
volume
volumes
volunteers
vorlage
vote
voting
w
wa
wait
wales
walk
wall
want
war
warn
warning
warring
was
washington
watch
watchlist
water
way
ways
we
weak
wealth
web
website
websites
week
weight
welcome
well
were
west
western
what
whatever
wheel
when
where
whether
which
while
white
who
whole
whom
whose
why
wicked
wide
widely
width
wife
wiki
wikidata
wikilink
wikilinked
wikilinks
wikimedia
wikimedians
wikipedia
wikipedians
wikipedias
wikiproject
wikiprojects
wikis
wikisource
wikitext
wiktionary
wild
wildlife
will
william
williams
wind
window
windows
winter
wish
wishes
wishlist
with
within
without
wmf
woman
women
won
wood
word
wording
words
work
working
works
workshop
world
worn
worship
worth
would
wp
wrap
write
writer
writers
writing
written
wrong
wrote
www
x
xobdo
xx
y
ya
year
years
yellow
yes
yet
york
you
young
your
yourself
youtube
z
zealand
zero
zh
zone
{
|
}
~
¢
£
¥
§
©
«
¬
­
®
°
±
²
³
´
·
º
»
½
×
æ
÷
ø
ə
ʰ
ʼ
ʾ
ʿ
ˈ
ˌ
ː
̀
́
̂
̃
̄
̆
̇
̈
̉
̊
̋
̌
̍
̓
̔
̛
̣
̤
̦
̧
̨
̪
̶
̸
͂
ͅ
͡
α
β
γ
δ
ε
η
θ
ι
λ
μ
ο
π
ς
τ
υ
φ
ω
н
шабле
шаблон
ا
الگو
ب
ت
ح
د
ر
س
ع
ق
قالب
ك
ل
م
ن
ه
و
ى
ي
َ
ُ
ِ
ّ
ْ
ٓ
ٔ
ٕ
ٰ
ۡ
ނ
ވ
ަ
ް
ँ
ं
ः
अ
आ
इ
ई
उ
ए
ओ
और
क
कर
ख
ग
गवत
घ
ङ
च
छ
ज
झ
ञ
ट
ठ
ड
ढ
ण
त
थ
द
ध
न
प
पर
फ
ब
भ
म
य
र
रह
ल
व
श
ष
स
ह
़
ा
ि
ी
ु
ू
ृ
े
ै
ॉ
ो
ौ
्
।
॥
०
१
२
५
७
८
९
॰
ঁ
ং
ঃ
অ
অই
অইড
অইন
অইল
অক
অকণ
অকণম
অকপট
অকল
অকলশৰ
অকস
অকৰ
অখ
অখণ
অগ
অগণন
অগত
অগন
অগস
অগৰ
অঘ
অঘৰ
অঙ
অচ
অচল
অচৰপ
অছ
অজ
অজগৰ
অজন
অজয
অজস
অঞ
অট
অটল
অড
অণ
অত
অথ
অথচ
অথন
অথব
অথৰ
অদ
অদভ
অদম
অধ
অধম
অধৰ
অন
অনঙ
অনত
অনন
অনবৰত
অনভ
অনল
অনস
অনৰ
অপ
অপক
অপত
অপদ
অপপ
অপব
অপভ
অপম
অপস
অপহৰণ
অপৰ
অফ
অব
অবত
অবদ
অবয
অবল
অবশ
অবস
অবৰ
অভ
অভয
অম
অমঙ
অমন
অমল
অমৰ
অয
অর
অল
অলক
অলঙ
অলপ
অলপক
অলপত
অলপম
অলৰ
অশ
অষ
অস
অসঙ
অসত
অসন
অসভ
অসম
অসমক
অসমত
অসমব
অসময
অসমল
অসমৰ
অসহ
অসহন
অসহয
অসৎ
অহ
অহঙ
অহম
অহল
অহৰ
অহৰহ
অৎ
অৰ
অৰণ
অৰব
অৱ
অৱক
অৱগত
অৱজ
অৱত
অৱতৰণ
অৱদ
অৱধ
অৱন
অৱনত
অৱব
অৱয
অৱল
অৱলম
অৱশ
অৱস
অৱসৰ
অৱসৰপ
অৱসৰৰ
অৱহ
অৱৰ
আ
আই
আইক
আইচ
আইছ
আইজ
আইট
আইড
আইত
আইদ
আইন
আইনখন
আইনত
আইনষ
আইনৰ
আইব
আইভ
আইয
আইল
আইৰ
আউট
আউন
আউল
আউৰ
আও
আওক
আওৰ
আক
আকও
আকবৰ
আকল
আকস
আকৰ
আখ
আখত
আখৰ
আখৰৰ
আগ
আগচ
আগছ
আগত
আগতক
আগদ
আগধৰ
আগন
আগফ
আগব
আগবঢ
আগভ
আগম
আগমণ
আগমন
আগমনৰ
আগল
আগশ
আগষ
আগৰ
আগৰপৰ
আগৰৱ
আঘ
আঘণ
আঙ
আঙঠ
আচ
আচব
আচম
আচল
আচলত
আচহ
আচৰ
আচৰণ
আচৰণৰ
আছ
আছন
আছয
আজ
আজম
আজল
আজৰ
আঞ
আট
আটক
আটল
আঠ
আঠট
আড
আঢ
আণ
আণৱ
আত
আতন
আতৰ
আথ
আদ
আদম
আদৰ
আদৰণ
আদৰৰ
আধ
আধৰ
আন
আনক
আনখন
আনজন
আনট
আনত
আনন
আনফ
আনব
আনল
আনহ
আনৰ
আপ
আপড
আপত
আপদ
আপদৰ
আপন
আপল
আফ
আফগ
আব
আবদ
আবশ
আবৰ
আভ
আম
আমদ
আমন
আমল
আমলখ
আমৰ
আয
আর
আল
আলগ
আলচ
আলজ
আলত
আলফ
আলব
আলম
আলমত
আলস
আলহ
আশ
আশঙ
আষ
আস
আসক
আসন
আসনত
আসনৰ
আহ
আহক
আহত
আহম
আহমদ
আহল
আহৰ
আহৰণ
আৰ
আৰক
আৰত
আৰব
আৰম
আৰৰ
আৰৱ
আৱ
আৱত
আৱদ
আৱশ
আৱৰ
আৱৰণ
ই
ইউ
ইউএসএস
ইউক
ইউছ
ইউট
ইউন
ইউৰ
ইও
ইক
ইকছপ
ইকনম
ইকব
ইকৰ
ইখ
ইখন
ইখনত
ইখনম
ইখনৰ
ইগ
ইগৰ
ইঘ
ইঙ
ইচ
ইচল
ইছ
ইছল
ইছৰ
ইজ
ইজক
ইজন
ইজনক
ইজনম
ইজনৰ
ইজৰ
ইঞ
ইট
ইটট
ইটত
ইটন
ইটব
ইটৰ
ইঠ
ইড
ইডৰ
ইণ
ইত
ইতক
ইতৰ
ইথ
ইদ
ইদৰ
ইন
ইনক
ইনচ
ইনছ
ইনট
ইনত
ইনফ
ইনম
ইনল
ইনষ
ইনৰ
ইপ
ইপত
ইপথ
ইপথৰ
ইফ
ইফল
ইব
ইবছৰম
ইবন
ইভ
ইম
ইমচ
ইমছ
ইমত
ইমন
ইমৰ
ইয
ইর
ইল
ইলক
ইলট
ইলত
ইলন
ইলম
ইলৰ
ইশ
ইষ
ইস
ইসকল
ইসকলৰ
ইসব
ইসম
ইসময
ইহ
ইহল
ইৰ
ইৰইড
ইৰপৰ
ইৰয
ইৰৰ
ইৱ
ঈ
ঈদ
ঈশ
ঈশৰ
ঈৰ
উ
উআ
উই
উইক
উইণ
উইল
উক
উকল
উখ
উখহ
উগ
উঘ
উচ
উচন
উচপ
উচৰ
উছ
উছৰ
উজ
উজন
উজব
উজল
উজৰ
উঞ
উট
উটন
উটনৰ
উটৰ
উঠ
উড
উডত
উডৰ
উণ
উত
উতম
উতল
উতৰ
উথ
উথল
উদ
উদগ
উদগন
উদঙ
উদয
উদৰ
উধ
উন
উনব
উনল
উনৰ
উপ
উপক
উপকথ
উপকৰণ
উপগ
উপচ
উপজ
উপত
উপদ
উপদফ
উপন
উপনয
উপপ
উপপত
উপব
উপবন
উপভ
উপম
উপমহ
উপয
উপল
উপলক
উপলব
উপশ
উপশম
উপস
উপসৰ
উপহ
উপৰ
উপৰত
উফ
উফৰ
উব
উভ
উভক
উভট
উভত
উভয
উম
উমন
উমল
উমৰ
উয
উল
উলঙ
উলট
উলম
উলৰ
উশ
উষ
উস
উহ
উৎ
উৎক
উৎকণ
উৎকৰ
উৎপ
উৎপত
উৎপন
উৎপল
উৎস
উৎসত
উৎসর
উৎসৰ
উৎসৱ
উৎসৱট
উৎসৱত
উৎসৱসম
উৎসৱৰ
উৰ
উৰণ
উৱ
ঊ
ঊন
ঊনব
ঊষ
ঊৰ
ঋ
ঋক
ঋকব
ঋণ
ঋত
ঋষ
এ
এই
এইক
এইকথ
এইখ
এইখন
এইগৰ
এইচ
এইছ
এইজন
এইট
এইড
এইদ
এইদৰ
এইপ
এইফ
এইব
এইম
এইয
এইসকল
এইসকলৰ
এইসম
এইহ
এইৰ
এউল
এও
এক
একই
একক
একগ
একচ
একজন
একট
একত
একদ
একধৰণৰ
একন
একপ
একব
একবচন
একম
একমত
একল
একশ
একৰ
এখ
এখন
এখনক
এখনত
এখনৰ
এগ
এগৰ
এঘ
এঘণ
এঘৰ
এঙ
এচ
এছ
এজ
এজন
এজনক
এজনৰ
এঞ
এট
এটক
এঠ
এড
এডভ
এডম
এডৱ
এণ
এত
এথ
এথল
এদ
এদল
এধ
এন
এনচ
এনড
এপ
এপৰ
এফ
এফল
এব
এবছৰ
এবছৰৰ
এভ
এম
এমন
এমব
এয
এর
এল
এলক
এলজ
এলব
এলৰ
এশ
এষ
এস
এসপ
এসময
এহ
এৰ
এৱ
ঐ
ঐক
ঐত
ঐশ
ঐৰ
ও
ওআ
ওই
ওক
ওখ
ওখন
ওখনৰ
ওগ
ওগৰ
ওচ
ওচৰ
ওচৰত
ওচৰল
ওচৰৰ
ওছ
ওজ
ওজন
ওজনৰ
ওট
ওঠ
ওঠৰ
ওড
ওণ
ওত
ওতপ
ওথ
ওদ
ওধ
ওধন
ওন
ওপ
ওপঙ
ওপজ
ওপর
ওপৰ
ওপৰঞ
ওপৰত
ওপৰল
ওপৰৰ
ওফ
ওফন
ওফৰ
ওব
ওভ
ওভত
ওম
ওমল
ওমৰ
ওয
ওর
ওল
ওলট
ওলম
ওস
ওহ
ওৰ
ওৰণ
ওৰফ
ওৱ
ঔ
ঔদ
ঔপন
ঔষধ
ঔষধৰ
ঔৰ
ক
কই
কইছ
কইন
কও
কওক
কওকচ
কক
ককথ
ককল
ককৰ
কখ
কখন
কগ
কঘৰ
কঙ
কচ
কচক
কচন
কছ
কজ
কজন
কঞ
কট
কটক
কটকট
কটত
কটতম
কটন
কটল
কটৰ
কটৱৰ
কঠ
কড
কঢ
কণ
কণক
কণচ
কণম
কণৰ
কত
কতক
কতখন
কতখনৰ
কতত
কতন
কতব
কতৰ
কথ
কথক
কথন
কথমপ
কদ
কদম
কদল
কদৰ
কন
কনক
কনকলত
কনচ
কনন
কনফ
কনভ
কনৰ
কপ
কপট
কফ
কব
কবন
কবল
কবৰ
কভ
কম
কমক
কমণ
কমত
কমন
কমনৱ
কমপ
কমল
কমলল
কমলৰ
কমৰ
কয
কর
কল
কলক
কলঙ
কলচ
কলত
কলন
কলনট
কলনৰ
কলপ
কলম
কলহ
কলৰ
কশ
কষ
কস
কসকল
কসকলক
কসকলৰ
কসভ
কসম
কহ
কহন
কহয
কৰ
কৰক
কৰণ
কৰণক
কৰণট
কৰণত
কৰণৰ
কৰত
কৰদ
কৰন
কৰপৰ
কৰব
কৰম
কৰয
কৰল
কৰহ
কৰৰ
কৱ
কৱচ
খ
খক
খকক
খকসকল
খকসকলৰ
খকৰ
খখন
খগ
খঙ
খঙত
খচ
খচৰ
খছ
খজ
খট
খটখট
খড
খণ
খত
খতক
খদ
খন
খনক
খনত
খনতক
খনন
খনম
খনল
খনৰ
খপ
খপত
খব
খবৰ
খবৰট
খভ
খম
খমণ
খয
খর
খল
খলক
খলত
খলন
খলপ
খস
খহ
খহন
খৰ
খৰক
খৰচ
খৰচত
খৰচৰ
খৰছ
খৰত
খৰপৰ
খৰৰ
গ
গই
গও
গক
গগ
গগণ
গগন
গঙ
গচ
গচক
গচৰ
গছ
গছক
গছজ
গছত
গছন
গছব
গছৰ
গজ
গজত
গজন
গজপ
গজল
গজৰ
গঞ
গট
গঠ
গঠন
গঠনট
গঠনত
গঠনৰ
গড
গঢ
গণ
গণক
গণত
গণতন
গণন
গণপত
গণৰ
গত
গতক
গতভ
গতম
গতৰ
গদ
গদত
গদৰ
গধ
গন
গনৰ
গপ
গপত
গফ
গফল
গব
গবত
গবৰ
গভ
গভৰ
গম
গমঞ
গমত
গমন
গমৰ
গয
গর
গল
গলক
গলগ
গলত
গলদ
গলব
গলময
গলৰ
গশ
গস
গসম
গহ
গহন
গহপ
গহৰ
গৰ
গৰক
গৰখ
গৰণ
গৰণৰ
গৰত
গৰপৰ
গৰম
গৰমৰ
গৰল
গৰৰ
গৱ
গৱত
গৱতৰ
গৱৰ
ঘ
ঘই
ঘক
ঘজ
ঘট
ঘটক
ঘটন
ঘড
ঘণ
ঘত
ঘদ
ঘধ
ঘন
ঘনক
ঘনত
ঘনশ
ঘপ
ঘব
ঘম
ঘর
ঘল
ঘলক
ঘস
ঘহ
ঘৰ
ঘৰক
ঘৰখন
ঘৰখনত
ঘৰখনৰ
ঘৰচ
ঘৰট
ঘৰত
ঘৰব
ঘৰম
ঘৰল
ঘৰৰ
ঘৰৰপৰ
ঘৱ
ঘৱৰ
ঙ
ঙক
ঙত
ঙন
ঙল
ঙৰ
ঙৰক
চ
চই
চক
চকল
চকসকল
চকৰ
চখ
চখন
চগ
চঙ
চচ
চছ
চজন
চঞ
চট
চড
চণ
চত
চতম
চতৰ
চদ
চদশ
চন
চনক
চনট
চনত
চনতৰ
চনল
চনৰ
চনৰপৰ
চপ
চপৰ
চফ
চব
চভ
চম
চমক
চমত
চমৎক
চমৰ
চয
চর
চল
চলক
চলচ
চলট
চলত
চলন
চলব
চলম
চলল
চলসম
চলৰ
চশ
চস
চসম
চহ
চহক
চহৰ
চহৰখন
চহৰখনৰ
চহৰত
চহৰল
চহৰৰ
চৰ
চৰক
চৰট
চৰণ
চৰণত
চৰণৰ
চৰত
চৰপৰ
চৰম
চৰল
চৰৰ
ছ
ছক
ছখন
ছজন
ছট
ছড
ছত
ছতহ
ছদ
ছন
ছনৰ
ছপ
ছপৰ
ছফ
ছব
ছভ
ছম
ছমৰ
ছয
ছল
ছলন
ছলম
ছসকল
ছহ
ছৰ
ছৰপৰ
ছৱ
জ
জই
জক
জকন
জকৰ
জখ
জখন
জখনৰ
জখল
জগ
জগণ
জগত
জগতক
জগতত
জগতল
জগতৰ
জগদ
জগন
জগৎ
জগৰ
জঘন
জঙ
জজ
জঞ
জট
জঠৰ
জড
জণ
জত
জতত
জতন
জদ
জধ
জন
জনক
জনকৰ
জনগ
জনগণৰ
জনচ
জনজ
জনত
জনতক
জনন
জনপ
জনব
জনবসত
জনবৰ
জনম
জনমত
জনমভ
জনয
জনল
জনশ
জনস
জনসম
জনৰ
জপ
জপত
জপন
জপৰ
জব
জবৰ
জভ
জম
জমক
জমন
জমৰ
জয
জল
জলক
জলচৰ
জলজ
জলত
জলন
জলপ
জলব
জলস
জলৰ
জশ
জস
জসভ
জসম
জহ
জহৰ
জৰ
জৰপৰ
জৱ
ঝ
ঝত
ঝৰ
ঞ
ঞত
ঞৰ
ট
টই
টক
টকখন
টকট
টকত
টকল
টকৰ
টখ
টখন
টগ
টঙ
টচ
টছ
টছৰ
টজ
টজম
টট
টত
টদ
টন
টনক
টনত
টনৰ
টপ
টফ
টফৰ
টব
টবল
টভ
টম
টমৰ
টয
টল
টলৰ
টশ
টস
টসম
টহ
টৰ
টৰপৰ
টৰৰ
টৱ
টৱৰ
ঠ
ঠক
ঠকক
ঠকত
ঠকৰ
ঠগ
ঠট
ঠত
ঠতম
ঠদ
ঠন
ঠপ
ঠব
ঠভ
ঠম
ঠল
ঠশ
ঠস
ঠৰ
ড
ডই
ডক
ডগ
ডচ
ডছ
ডট
ডত
ডন
ডনত
ডনৰ
ডপ
ডফল
ডব
ডম
ডয
ডল
ডলত
ডলৰ
ডস
ডসম
ডহ
ডৰ
ডৱ
ডৱক
ডৱৰ
ঢ
ঢক
ঢল
ণ
ণই
ণক
ণকৰ
ণখ
ণগ
ণগত
ণচ
ণচন
ণজ
ণট
ণণ
ণত
ণতক
ণতৰ
ণদ
ণদণ
ণন
ণপ
ণপণ
ণপত
ণপৰ
ণফ
ণব
ণবজ
ণবয
ণবৰ
ণভ
ণম
ণময
ণয
ণর
ণল
ণশ
ণস
ণসম
ণহ
ণৰ
ণৱ
ণৱৰ
ত
তই
তও
তক
তকক
তকণ
তকত
তকৰ
তকৰণ
তকৰণৰ
তখ
তখন
তগ
তগণ
তগত
তগৰ
তঙ
তচ
তচদ
তজ
তজন
তঞ
তট
তড
তণ
তত
ততক
তথ
তদ
তদন
তদনন
তদশ
তধ
তধৰ
তন
তনক
তনত
তনব
তনয
তনশ
তনৰ
তপ
তপক
তপত
তপন
তপস
তপৰ
তফ
তব
তবধ
তবয
তবল
তবৰ
তভ
তম
তমন
তময
তমৰ
তয
তর
তল
তলক
তলত
তলম
তলল
তলৰ
তশ
তষ
তস
তসকল
তসকলক
তসকলৰ
তসম
তসৰ
তহ
তৎ
তৎক
তৎসম
তৰ
তৰক
তৰখন
তৰঙ
তৰট
তৰণ
তৰণৰ
তৰত
তৰপ
তৰপৰ
তৰফ
তৰফৰ
তৰব
তৰভ
তৰম
তৰল
তৰস
তৰহৰ
তৰৰ
তৰৰপৰ
তৱ
তৱত
তৱব
তৱৰ
থ
থই
থও
থক
থকত
থখন
থখনত
থখনৰ
থগ
থট
থত
থন
থনত
থনৰ
থপ
থপঞ
থপত
থপৰ
থব
থবল
থভ
থম
থমক
থয
থল
থলত
থশ
থস
থসম
থহ
থৰ
থৰক
থৰৰ
দ
দই
দও
দক
দকৰ
দখ
দখল
দগ
দঙ
দচ
দচন
দজ
দজগত
দজনক
দট
দঢ
দণ
দত
দদ
দধ
দন
দনক
দনত
দনশ
দনৰ
দপ
দপত
দপদ
দফ
দব
দবস
দভ
দম
দমন
দময
দমৰ
দয
দযন
দর
দল
দলক
দলট
দলত
দলন
দলপত
দলব
দলসম
দলৰ
দশ
দশক
দশকত
দশকৰ
দশন
দশম
দশৰথ
দশৰথৰ
দস
দসকল
দসকলৰ
দসম
দহ
দহট
দহন
দৰ
দৰক
দৰঙ
দৰট
দৰত
দৰদ
দৰপৰ
দৰব
দৰমহ
দৰশন
দৰৰ
দৰৱ
দৱ
দৱস
দৱৰ
ধ
ধই
ধও
ধক
ধকত
ধকৰ
ধকৰণ
ধগ
ধগম
ধচ
ধচন
ধট
ধত
ধদ
ধধৰ
ধন
ধনক
ধনঞ
ধনত
ধনপ
ধনম
ধনশ
ধনৰ
ধনৱন
ধপ
ধপৰ
ধব
ধবদ
ধভ
ধম
ধমক
ধমন
ধয
ধর
ধল
ধস
ধসম
ধহ
ধহয
ধৰ
ধৰক
ধৰণ
ধৰণৰ
ধৰম
ধৰৰ
ধৱ
ধৱক
ধৱদ
ধৱল
ধৱৰ
ন
নই
নও
নক
নকও
নকব
নকয
নকল
নকৰ
নখ
নখন
নখনৰ
নগ
নগণ
নগদ
নগর
নগল
নগৰ
নগৰখন
নগৰখনৰ
নগৰত
নগৰব
নগৰল
নগৰৰ
নঘট
নচ
নচন
নচল
নছ
নছন
নজ
নজন
নজনক
নজৰ
নট
নটৰ
নড
নত
নতক
নতত
নতম
নতৰ
নথ
নথক
নদ
নদণ
নধৰ
নন
ননৰ
নপ
নপঞ
নপট
নপঢ
নপত
নপল
নপৰ
নফ
নব
নবজ
নবন
নবম
নবহ
নবৰ
নভ
নম
নমণ
নমত
নমন
নময
নমস
নমৰ
নয
নর
নল
নলগ
নলব
নলয
নলৰ
নশ
নষ
নস
নসকল
নসকলক
নসকলৰ
নসত
নসন
নসভ
নসম
নসহ
নহ
নহই
নহও
নহওক
নহব
নহয
নহল
নহৰ
নৰ
নৰক
নৰকত
নৰকৰ
নৰখ
নৰত
নৰন
নৰপ
নৰপত
নৰপৰ
নৰব
নৰম
নৰস
নৰহৰ
নৰৰ
নৰৱ
নৱ
নৱক
নৱজ
নৱত
নৱন
নৱপ
নৱব
নৱবৰ
নৱম
নৱৰ
প
পই
পইচ
পইণ
পক
পকত
পকথন
পকভ
পকল
পকৰ
পখ
পখন
পখনত
পখনৰ
পখৰ
পগ
পগত
পগল
পঘ
পঙ
পচ
পচন
পছ
পছন
পজ
পঞ
পট
পটত
পটন
পটভ
পঠ
পঠন
পড
পঢ
পণ
পণৰ
পত
পতঙ
পতন
পতনৰ
পতৰ
পথ
পথট
পথত
পথল
পথৰ
পদ
পদক
পদজনক
পদট
পদত
পদব
পদল
পদস
পদসম
পদৰ
পধ
পন
পনখ
পনত
পনৰ
পপ
পব
পবৰ
পভ
পম
পমত
পয
পর
পল
পলক
পলম
পলমক
পলৰ
পশ
পষ
পস
পসম
পহ
পহৰ
পৰ
পৰক
পৰগণ
পৰজ
পৰণ
পৰত
পৰদ
পৰন
পৰপৰ
পৰব
পৰবৰ
পৰম
পৰমহ
পৰয
পৰল
পৰশ
পৰস
পৰহ
পৰৰ
পৰৱৰ
পৱ
পৱত
পৱন
পৱৰ
ফ
ফক
ফকৰ
ফছফ
ফট
ফটফট
ফণ
ফত
ফন
ফয
ফর
ফল
ফলক
ফলত
ফলন
ফলপ
ফলব
ফলম
ফলশ
ফলস
ফলৰ
ফৰ
ফৰক
ফৰম
ব
বই
বও
বক
বকত
বকৰ
বখ
বগ
বগত
বগল
বগৰ
বঙ
বঙল
বচ
বচন
বচনত
বচনৰ
বচৰ
বছ
বছর
বছৰ
বছৰক
বছৰট
বছৰত
বছৰতক
বছৰম
বছৰল
বছৰৰ
বজ
বজন
বজৰ
বঞ
বট
বটল
বঠ
বড
বঢ
বণ
বত
বতক
বতত
বতন
বতব
বতম
বতল
বতৰ
বতৰত
বতৰৰ
বথ
বদ
বদত
বদন
বদনচন
বদল
বদৰ
বধ
বধৰ
বন
বনক
বনগ
বনজ
বনত
বনন
বনব
বনম
বনল
বনলত
বনৰ
বপ
বপৰ
বব
ববল
ববৰ
বভ
বম
বয
বর
বল
বলই
বলক
বলগ
বলট
বলড
বলত
বলদ
বলন
বলপ
বলব
বলবৎ
বলভদ
বলম
বলয
বলল
বলৰ
বলৱন
বশ
বশক
বশত
বষ
বস
বসত
বসন
বসব
বসম
বহ
বহণ
বহণৰ
বহত
বহন
বহনক
বহল
বহৰ
বৎ
বৎস
বৎসৰ
বৰ
বৰক
বৰকটক
বৰগ
বৰঙণ
বৰঙন
বৰচ
বৰজ
বৰজন
বৰঞ
বৰট
বৰঠ
বৰণ
বৰণৰ
বৰত
বৰদ
বৰদল
বৰন
বৰনগৰ
বৰনদ
বৰপ
বৰপৰ
বৰফ
বৰফৰ
বৰব
বৰবৰ
বৰভ
বৰম
বৰল
বৰশ
বৰষ
বৰস
বৰহ
বৰৰ
বৱ
বৱন
বৱৰ
ভ
ভই
ভক
ভকত
ভকতক
ভকতসকল
ভকতৰ
ভকৰ
ভগ
ভগদত
ভগন
ভগব
ভগৱ
ভগৱত
ভগৱন
ভঙ
ভজ
ভজন
ভজনক
ভঞ
ভট
ভড
ভণ
ভত
ভদ
ভধ
ভন
ভপ
ভব
ভবত
ভবন
ভম
ভয
ভর
ভল
ভলড
ভষ
ভস
ভৰ
ভৰণ
ভৰত
ভৰতক
ভৰতৰ
ভৰদ
ভৰপ
ভৰব
ভৰয
ভৰল
ভৰশ
ভৰস
ভৰৰ
ভৱ
ভৱত
ভৱন
ভৱনট
ভৱনত
ভৱনৰ
ভৱপৰ
ভৱৰ
ম
মই
মইও
মইত
মইন
মইয
মইহ
মও
মক
মকথ
মকল
মকৰ
মকৰণ
মখ
মখন
মগ
মগজ
মগঞ
মগত
মগন
মগৰ
মঘ
মঘৰ
মঘৰত
মঘৰৰ
মঙ
মঙহ
মঙহৰ
মচ
মচন
মচল
মচৰ
মচৰণ
মছ
মছজ
মছত
মছল
মছলম
মছৰ
মজ
মজব
মজল
মঞ
মট
মটক
মটৰ
মঠ
মঠৰ
মড
মণ
মণক
মণব
মণসকল
মণসকলৰ
মণৰ
মত
মতক
মতত
মতদ
মতব
মতভ
মতল
মতৰ
মথ
মথন
মদ
মদত
মদন
মদৰ
মধ
মধন
মধৰ
মন
মনক
মনচ
মনট
মনত
মনন
মনপ
মনব
মনবৰ
মনম
মনল
মনস
মনৰ
মপ
মপত
মপৰ
মফ
মফল
মব
মবঙ
মবল
মবৰ
মভ
মভৰ
মম
মমত
মময
মমৰ
ময
মর
মল
মলক
মলত
মলপ
মলয
মলৰ
মশ
মষ
মস
মসকল
মসকলৰ
মসম
মসমৰ
মহ
মহক
মহত
মহন
মহম
মহল
মহলৰ
মহৎ
মহৰ
মৎস
মৰ
মৰক
মৰঙ
মৰণ
মৰণত
মৰণৰ
মৰত
মৰন
মৰপৰ
মৰম
মৰমত
মৰমৰ
মৰল
মৰস
মৰহ
য
যই
যউৎস
যও
যক
যকত
যকল
যকশ
যকৰ
যখ
যখন
যখনত
যখনৰ
যগ
যগত
যঙ
যচ
যজ
যজন
যজনক
যঞ
যট
যটকৰ
যটন
যটনস
যণ
যত
যতক
যতত
যতন
যতব
যতবক
যতম
যতৰ
যথ
যদ
যধ
যধৰ
যন
যনত
যনৰ
যপ
যপদ
যপন
যপৰ
যব
যবন
যবশত
যবস
যবহ
যবৰ
যভ
যভট
যম
যমক
যমজ
যমণ
যমত
যমদ
যমন
যমপ
যময
যমৰ
যয
যযন
যর
যল
যশ
যশস
যষ
যস
যসকল
যসকলক
যসকলৰ
যসন
যসভ
যসম
যহ
যহত
যৎ
যৰ
যৰত
যৰপৰ
যৰস
যৱ
যৱত
যৱধ
যৱন
যৱস
যৱহ
যৱৰ
র
রক
রচ
রচণ
রজ
রণ
রত
রথম
রদ
রধ
রন
রপ
রব
রবন
রভ
রম
রমণ
রয
রর
রল
রশ
রস
রহ
রহণ
ল
লই
লও
লওক
লক
লকক
লকণ
লকন
লকব
লকভ
লকৰ
লখ
লখন
লখনত
লখনৰ
লগ
লগত
লগল
লগৰ
লঘ
লঙ
লঙত
লঙৰ
লচ
লচন
লচৰ
লছ
লছব
লছৰ
লজ
লঞ
লট
লঠ
লড
লণ
লত
লতক
লতত
লতল
লতৰ
লথ
লদ
লদৰ
লধ
লধন
লধনৰ
লধৰ
লন
লনক
লনত
লনৰ
লপ
লপথ
লপৰ
লফ
লব
লবল
লবৰ
লভ
লভন
লম
লমণ
লমত
লমন
লমৰ
লয
লর
লল
লশ
লষ
লস
লসকল
লসকলৰ
লসম
লসলন
লহ
লহকৰ
লহৰ
লৰ
লৰচৰ
লৰত
লৰপৰ
লৱ
লৱণ
লৱৰ
শ
শই
শইক
শও
শক
শকক
শকত
শকৰ
শখ
শখন
শখনত
শখনৰ
শগ
শগত
শঙ
শচ
শচন
শজ
শট
শণ
শত
শতক
শতকৰ
শতৰ
শদ
শধ
শধৰ
শধৰসকল
শন
শনক
শনত
শনৰ
শপ
শপত
শপথ
শপন
শব
শবদ
শভ
শম
শমণ
শমত
শয
শর
শল
শলগ
শলত
শলৰ
শশ
শষ
শস
শসম
শহ
শহৰ
শৰ
শৰক
শৰণ
শৰত
শৰদ
শৰপৰ
শৰৎ
শৰৎচন
শৰৰ
শৱ
শৱত
শৱদ
শৱৰ
ষ
ষই
ষক
ষকক
ষকত
ষকসকল
ষকসকলৰ
ষকৰ
ষঙ
ষজ
ষজন
ষজনক
ষট
ষড
ষণ
ষণক
ষণত
ষণব
ষণম
ষণশ
ষণসম
ষণৰ
ষত
ষদ
ষদত
ষদৰ
ষধ
ষন
ষপ
ষপঞ
ষব
ষভ
ষম
ষমত
ষয
ষল
ষশ
ষষ
ষস
ষসকল
ষসকলৰ
ষসৰ
ষহ
ষৰ
ষৰণ
ষৰত
ষৰপৰ
ষৰফ
স
সই
সইত
সক
সকত
সকল
সকলক
সকলল
সকলৰ
সকৰ
সখ
সখন
সখনত
সখনৰ
সগ
সঘ
সঘন
সঙ
সচ
সচৰ
সজ
সঞ
সট
সঠ
সড
সত
সতক
সতত
সতৰ
সদ
সদত
সদন
সদনত
সদনৰ
সদয
সদস
সদৰ
সধ
সন
সনক
সনকৰ
সনত
সনভ
সনৰ
সপ
সপক
সপত
সপৰ
সফ
সফল
সফলত
সফৰ
সব
সবক
সবল
সবৰ
সভ
সম
সমক
সমকক
সমগ
সমজ
সমত
সমতল
সমদল
সমন
সমপৰ
সমব
সমভ
সমম
সময
সমর
সমল
সমলৰ
সমষ
সমস
সমসৰ
সমৰ
সমৰত
সমৰৰ
সয
সর
সল
সলন
সশ
সশস
সষ
সস
সসম
সহ
সহক
সহকৰ
সহজ
সহজত
সহদ
সহধৰ
সহন
সহপ
সহব
সহয
সহস
সৎ
সৎক
সৎন
সৎৰ
সৰ
সৰক
সৰঞ
সৰণ
সৰত
সৰবৰ
সৰল
সৰলত
সৰস
সৰহ
সৰহক
সৰহভ
সৰৰ
সৱ
সৱক
সৱৰ
হ
হই
হইছ
হইত
হইব
হইয
হইল
হও
হওক
হওয
হক
হকৰ
হখ
হগ
হগৰ
হগৱ
হচ
হজ
হজন
হজনক
হজনৰ
হজম
হজৰত
হট
হঠ
হণ
হত
হতক
হতৰ
হদ
হদত
হদৰ
হন
হনত
হনৰ
হপ
হফ
হব
হবই
হবন
হবল
হবলগ
হবৰ
হভ
হম
হয
হর
হল
হলক
হলগ
হলত
হলধৰ
হলহ
হলৰ
হস
হহ
হৎ
হৰ
হৰক
হৰগ
হৰণ
হৰণস
হৰণৰ
হৰত
হৰদত
হৰন
হৰপ
হৰপৰ
হৰফ
হৰব
হৰম
হৰল
হৰৰ
হৱ
়
া
ি
ী
ু
ূ
ৃ
ৄ
ে
ৈ
্
ৎ
ৎক
ৎজ
ৎপ
ৎপত
ৎপৰ
ৎশ
ৎস
ৎসক
ৎসকৰ
ৎসৱ
ৎসৱত
ৎসৱৰ
ৎৰ
ৗ
০
০০
০০০
০১
০২
০৩
০৪
০৫
০৬
০৭
০৮
০৯
১
১০
১০০
১০০০
১০১
১০২
১০৩
১০৪
১০৫
১০৬
১০৭
১০৮
১০৯
১১
১১০
১১১
১১২
১১৩
১১৪
১১৫
১১৬
১১৭
১১৮
১১৯
১২
১২০
১২০০
১২১
১২২
১২৩
১২৪
১২৫
১২৬
১২৭
১২৮
১২৯
১৩
১৩০
১৩১
১৩২
১৩৩
১৩৪
১৩৫
১৩৬
১৩৭
১৪
১৪০
১৪১
১৪২
১৪৩
১৪৪
১৪৫
১৪৬
১৪৭
১৪৮
১৪৯
১৫
১৫০
১৫০০
১৫১
১৫২
১৫৩
১৫৫
১৫৭
১৫৮
১৬
১৬০
১৬৫
১৬৭
১৬৮
১৭
১৭০
১৭৫
১৮
১৮০
১৮০০
১৮১
১৮২৬
১৮৩
১৮৩১
১৮৩২
১৮৩৩
১৮৫০
১৮৫৩
১৮৫৭
১৮৫৮
১৮৫৯
১৮৬০
১৮৬১
১৮৬৭
১৮৬৯
১৮৭০
১৮৭১
১৮৭২
১৮৭৩
১৮৭৪
১৮৭৬
১৮৭৭
১৮৭৯
১৮৮
১৮৮০
১৮৮১
১৮৮২
১৮৮৩
১৮৮৪
১৮৮৫
১৮৮৬
১৮৮৭
১৮৮৮
১৮৮৯
১৮৯০
১৮৯১
১৮৯২
১৮৯৩
১৮৯৪
১৮৯৫
১৮৯৬
১৮৯৭
১৮৯৮
১৮৯৯
১৯
১৯০০
১৯০১
১৯০২
১৯০৩
১৯০৪
১৯০৫
১৯০৬
১৯০৭
১৯০৮
১৯০৯
১৯১০
১৯১১
১৯১২
১৯১৩
১৯১৪
১৯১৫
১৯১৬
১৯১৭
১৯১৮
১৯১৯
১৯২০
১৯২১
১৯২২
১৯২৩
১৯২৪
১৯২৫
১৯২৬
১৯২৭
১৯২৮
১৯২৯
১৯৩০
১৯৩১
১৯৩২
১৯৩৩
১৯৩৪
১৯৩৫
১৯৩৬
১৯৩৭
১৯৩৮
১৯৩৯
১৯৪০
১৯৪১
১৯৪২
১৯৪৩
১৯৪৪
১৯৪৫
১৯৪৬
১৯৪৭
১৯৪৮
১৯৪৯
১৯৫০
১৯৫১
১৯৫২
১৯৫৩
১৯৫৪
১৯৫৫
১৯৫৬
১৯৫৭
১৯৫৮
১৯৫৯
১৯৬০
১৯৬১
১৯৬২
১৯৬৩
১৯৬৪
১৯৬৫
১৯৬৬
১৯৬৭
১৯৬৮
১৯৬৯
১৯৭০
১৯৭১
১৯৭২
১৯৭৩
১৯৭৪
১৯৭৫
১৯৭৬
১৯৭৭
১৯৭৮
১৯৭৯
১৯৮০
১৯৮১
১৯৮২
১৯৮৩
১৯৮৪
১৯৮৫
১৯৮৬
১৯৮৭
১৯৮৮
১৯৮৯
১৯৯০
১৯৯১
১৯৯২
১৯৯৩
১৯৯৪
১৯৯৫
১৯৯৬
১৯৯৭
১৯৯৮
১৯৯৯
২
২০
২০০
২০০০
২০০১
২০০২
২০০৩
২০০৪
২০০৫
২০০৬
২০০৭
২০০৮
২০০৯
২০১০
২০১১
২০১২
২০১৩
২০১৪
২০১৫
২০১৬
২০১৭
২০১৮
২০১৯
২০২০
২০২১
২০২২
২১
২১০
২১৩
২১৮
২২
২২০
২৩
২৪
২৪৩
২৫
২৫০
২৬
২৭
২৮
২৮৯
২৯
৩
৩০
৩০০
৩১
৩২
৩৩
৩৩৫
৩৩৮
৩৪
৩৪০
৩৫
৩৫০
৩৫২
৩৬
৩৭
৩৮
৩৯
৪
৪০
৪০০
৪০৪
৪১
৪২
৪২১
৪৩
৪৩০
৪৩৪
৪৪
৪৪১
৪৪৩
৪৪৫
৪৫
৪৬
৪৭
৪৮
৪৯
৫
৫০
৫০০
৫১
৫২
৫৩
৫৪
৫৫
৫৬
৫৭
৫৮
৫৯
৬
৬০
৬০০
৬১
৬২
৬৩
৬৪
৬৫
৬৬
৬৭
৬৮
৬৯
৭
৭০
৭০০
৭১
৭২
৭৩
৭৪
৭৫
৭৬
৭৭
৭৮
৭৯
৮
৮০
৮০০
৮১
৮২
৮৩
৮৪
৮৫
৮৬
৮৭
৮৮
৮৯
৯
৯০
৯০০
৯১
৯২
৯৩
৯৪
৯৫
৯৬
৯৭
৯৮
৯৯
ৰ
ৰআন
ৰআনৰ
ৰই
ৰইড
ৰও
ৰক
ৰকট
ৰকত
ৰকম
ৰকমৰ
ৰকল
ৰকসম
ৰকৰ
ৰকৰণ
ৰখ
ৰখণ
ৰখন
ৰখনক
ৰখনত
ৰখনল
ৰখনৰ
ৰখৰ
ৰগ
ৰগণ
ৰগত
ৰগৰ
ৰঘ
ৰঘৰ
ৰঙ
ৰঙচ
ৰঙত
ৰঙৰ
ৰচ
ৰচক
ৰচণ
ৰচন
ৰচয
ৰচল
ৰচলন
ৰচৰ
ৰছ
ৰজ
ৰজত
ৰজন
ৰজনন
ৰজননৰ
ৰজনৰ
ৰজব
ৰজৰ
ৰঞ
ৰট
ৰঠ
ৰড
ৰণ
ৰণক
ৰণট
ৰণত
ৰণব
ৰণভ
ৰণম
ৰণয
ৰণল
ৰণৰ
ৰণৱ
ৰত
ৰতক
ৰতত
ৰতন
ৰতনপ
ৰতব
ৰতবৰ
ৰতম
ৰতল
ৰতহ
ৰতৰ
ৰথ
ৰথত
ৰথম
ৰথমখন
ৰথমগৰ
ৰথমজন
ৰথমট
ৰথমত
ৰথমব
ৰথমৰ
ৰথৰ
ৰদ
ৰদক
ৰদত
ৰদৰ
ৰধ
ৰধৰ
ৰন
ৰনৰ
ৰপ
ৰপঞ
ৰপত
ৰপন
ৰপৰ
ৰফ
ৰফল
ৰফৰ
ৰব
ৰবক
ৰবঞ
ৰবণ
ৰবন
ৰবল
ৰবৰ
ৰভ
ৰম
ৰমক
ৰমজ
ৰমণ
ৰমণক
ৰমণত
ৰমণৰ
ৰমত
ৰমন
ৰমব
ৰময
ৰমল
ৰমশ
ৰমৰ
ৰয
ৰল
ৰলয
ৰশ
ৰশক
ৰশস
ৰষ
ৰস
ৰসকল
ৰসকলক
ৰসকলৰ
ৰসঙ
ৰসত
ৰসন
ৰসব
ৰসভ
ৰসম
ৰসৰ
ৰসৱ
ৰসৱৰ
ৰহ
ৰহক
ৰহট
ৰহণ
ৰহণক
ৰহণয
ৰহণৰ
ৰহত
ৰহদ
ৰহন
ৰহব
ৰহম
ৰহল
ৰহস
ৰহৰ
ৰৰ
ৰৰপৰ
ৰৱ
ৰৱক
ৰৱঞ
ৰৱণ
ৰৱণত
ৰৱত
ৰৱন
ৰৱল
ৰৱস
ৰৱৰ
ৱ
ৱই
ৱক
ৱকসকল
ৱকৰ
ৱগ
ৱগণ
ৱগন
ৱচ
ৱজ
ৱট
ৱণ
ৱণক
ৱণশ
ৱণৰ
ৱত
ৱদ
ৱধ
ৱন
ৱনক
ৱনজ
ৱনট
ৱনত
ৱনল
ৱনশ
ৱনৰ
ৱপ
ৱব
ৱম
ৱমৰ
ৱয
ৱল
ৱলম
ৱশ
ৱস
ৱসত
ৱসম
ৱসসম
ৱসৰ
ৱহ
ৱৰ
ৱৰক
ৱৰণ
ৱৰণত
ৱৰণৰ
ৱৰপৰ
ৱৰৰ
৲
৷
৷৷
৹
৺
ં
ક
ા
ો
ଚ
ଛ
ଞ
ା
ି
େ
୍
ட
த
ப
ர
வ
ா
ி
ு
்
మ
స
ా
ి
ు
ూ
్
ಟ
ಿ
ು
ೆ
್
ೕ
ം
ക
ത
ന
പ
യ
ല
വ
ാ
ി
ു
െ
്
ක
ල
ස
්
ැ
ි
ෙ
ั
ิ
ี
แบบ
แม
่
้
་
ိ
ု
်
틀
ទ
ព
រ
ូ
ំ
័
​
‌
‍
‎
‏
–
—
―
‘
’
“
”
„
†
‡
•
…
′
″
‹
›
⁄
⁓
⁕
€
₹
ℛ
←
↑
→
↓
↔
↷
⇒
−
≈
≤
≥
③
④
⑦
─
■
□
○
●
★
♦
✉
❐
⟨
⟩
ⵓ
⸺
⸻
⺀
⺄
⺆
⺈
⺊
⺌
⺕
⺝
⺸
⺼
⿰
⿱
⿲
⿳
⿴
⿵
⿶
⿷
⿸
⿹
⿺
⿻
〢
゙
コ
ユ
ー
㇁
㇂
㇄
㇇
㇈
㇉
㇓
㐁
㐄
㐅
㐌
㐫
㐬
㐭
㐮
㐱
㑒
㒵
㒸
㒼
㓁
㓞
㔾
㕛
㕣
㖾
㘝
㚅
㚇
㚔
㚘
㝉
㝡
㝴
㝵
㞋
㞢
㞷
㠩
㠭
㠯
㡀
㡭
㡿
㢲
㢴
㣇
㣺
㥯
㪅
㫄
㫐
㫒
㫺
㬅
㬎
㬥
㬰
㲋
㳄
㷠
㸒
㸚
㸦
㼌
㼲
㽞
㿟
䀠
䂞
䍃
䏍
䒑
䖍
䖒
䖝
䖵
䙴
䚻
䜌
䝿
䡛
䧹
䪞
一
丁
丂
七
丄
丅
丆
万
丈
三
上
下
丌
不
与
丏
丐
丑
专
且
丕
世
丘
丙
业
东
丞
丢
丣
两
严
並
丨
丩
个
丫
丬
中
丮
丰
丱
串
丵
丶
丷
丸
丹
为
主
丽
丿
乀
乂
乃
久
乆
乇
么
义
之
乌
乍
乎
乏
乐
乑
乔
乖
乗
乘
乙
乚
乛
乜
九
乞
也
习
乡
乳
乾
亀
亅
了
亇
予
争
事
二
亍
于
亏
亐
云
互
亓
五
井
亘
亚
亜
亞
亟
亠
亡
亢
交
亥
亦
产
亨
亩
享
京
亭
亮
亯
亰
亲
亳
亶
亷
人
亻
亼
亾
仁
今
介
仌
从
仐
仑
仒
仓
仕
他
付
仝
代
令
以
任
企
伊
伏
伐
休
会
伯
但
位
何
佘
余
作
佥
使
來
侈
侌
侖
侯
侵
便
保
俞
信
修
倉
倍
候
倠
備
僉
僕
儿
兀
允
兂
元
兄
充
兆
兇
先
光
兊
克
兌
免
兑
兒
兓
兔
党
兜
兟
入
全
兩
兪
八
公
六
兮
兰
共
关
兵
其
具
典
兹
兼
冀
冂
冃
冄
内
冈
冉
冊
冋
册
再
冎
冏
冐
冒
冓
冖
冗
冘
军
农
冝
冡
冥
冫
冬
冷
几
凡
凢
凵
凶
凷
凸
凹
出
函
凾
刀
刁
刂
刃
刄
刅
分
切
刍
刑
刕
刖
列
刘
则
初
別
利
别
到
制
刺
則
削
剌
前
剡
剽
劉
力
功
加
劦
助
劫
劳
劵
勃
勇
勉
勒
動
務
勞
勤
勹
勺
勻
勾
勿
匀
匂
包
匆
匈
匊
匋
匍
匕
化
北
匚
匝
匡
匪
匱
匸
匹
区
医
匽
匿
區
十
卂
千
卄
卅
卆
升
午
卉
半
卌
华
卑
卒
卓
单
卖
南
卜
卝
卞
占
卡
卢
卣
卤
卦
卩
卪
卬
卯
印
危
即
却
卵
卷
卸
卻
厂
厃
厄
历
厈
厉
厌
厓
厘
厚
原
厤
厥
厨
厭
厲
厶
厷
厸
去
厼
厽
叀
参
參
叅
又
叉
及
友
双
反
叐
发
叒
叔
叕
取
受
叚
叜
叟
口
古
句
另
叩
只
召
可
台
叱
史
右
叵
号
司
叹
吂
各
吅
合
吉
吊
吋
同
名
后
吏
向
吕
君
吝
吞
否
含
启
吳
吴
吹
吾
呂
呆
呈
告
员
呙
周
命
咅
和
咎
咠
咢
咨
咸
咼
哀
品
哉
員
哥
哲
唐
商
啇
問
啚
啬
啻
善
喜
喬
單
喿
嗇
噩
嚴
囊
囗
囘
囙
囚
四
回
囟
因
囧
囬
困
囱
囷
固
国
圂
圅
國
圍
圓
土
圡
圣
圥
在
圭
地
圶
圼
坐
坒
坚
坴
垂
垔
垚
埀
埋
埶
執
基
堂
堅
堆
堇
堯
塞
墨
壘
士
壬
壯
声
壳
壴
壹
壺
壽
夂
处
夅
夆
备
夊
夋
夌
复
夏
夒
夕
外
夗
夘
多
夜
夢
大
夨
天
太
夫
夬
夭
央
失
夲
头
夷
夸
夹
夻
夾
奂
奄
奇
奈
奉
奎
奏
奐
契
奓
奔
奚
奞
奠
奢
奥
奭
女
奴
奻
好
如
妄
妙
妟
妥
妻
妾
姑
委
姜
威
娄
婁
婴
嬰
嬴
子
孑
孔
孕
孖
字
存
孚
孛
孝
孟
季
孤
学
孫
孱
學
宀
宁
宂
它
宅
宇
守
安
宋
完
宏
宓
宗
官
定
宛
宜
宝
客
宣
室
宮
宰
害
家
容
宾
宿
寄
寅
密
富
寒
察
寧
審
寫
寬
寮
寸
对
寺
寻
寽
対
寿
封
尃
射
将
將
專
尉
尊
尋
尌
對
小
少
尒
尓
尔
尖
尗
尚
尞
尢
尣
尤
尧
尨
尭
就
尸
尹
尺
尻
尼
尽
尾
尿
局
居
屈
屋
屎
屏
屑
展
屖
屚
属
屠
屡
屬
屮
屯
屰
山
屵
屾
岁
岂
岑
岡
岩
岳
岸
峯
島
崇
崑
崔
崖
崙
崩
嵬
嶲
巂
巛
川
州
巟
巠
巢
巤
工
左
巧
巨
巩
巫
差
己
已
巳
巴
巷
巸
巽
巾
巿
帀
市
布
希
帚
帛
帝
带
師
席
帶
常
干
平
年
幵
并
幷
幸
幺
幻
幼
幽
幾
广
広
庄
床
底
店
庚
府
度
庫
庭
庶
康
庸
廉
廌
廛
廣
廩
廴
延
廷
建
廾
廿
开
弁
弃
弄
弇
弋
式
弓
弔
引
弗
弘
弜
弟
弥
弦
弱
張
強
强
彊
彌
彎
彐
彑
当
彔
录
彖
彗
彡
形
彥
彦
彧
彭
彳
役
彼
往
待
律
徒
得
徙
從
復
微
徵
心
忄
必
忌
忍
志
忝
忠
忩
快
念
忽
忿
思
怠
急
怱
恆
恒
恩
恭
息
悉
患
悤
悲
悶
惠
惡
惢
愁
愈
意
愛
感
慈
慧
慮
憂
憲
應
戀
戈
戉
戊
戋
戌
戍
戎
成
我
戒
戔
或
戚
戠
戢
截
戲
戶
户
戹
戼
戾
房
所
扁
扇
手
扌
才
打
托
执
承
折
拉
拜
拿
掌
推
提
摩
支
攴
攵
收
攸
改
放
政
敄
敏
敕
敖
敗
敝
敞
敢
散
敦
敫
敬
数
敷
數
斂
文
斉
斊
斗
斤
斥
斩
斬
斯
新
方
於
施
斿
旁
旋
族
无
旡
既
旣
日
旦
旧
旨
早
旬
旱
旲
时
旾
昆
昇
昌
昍
明
昏
易
昔
昗
昜
星
春
昬
是
昱
昴
昷
時
晃
晋
晏
普
景
晶
智
暑
暴
曇
曩
曰
曲
曳
更
曷
書
曹
曼
曾
替
最
朁
會
月
有
朋
服
朔
朕
朗
望
朝
木
朩
未
末
本
札
朮
术
朱
朵
朶
朿
杀
杏
杜
束
条
来
東
杲
杳
松
析
林
枚
果
枝
枲
枼
某
柔
查
柬
柰
柴
栗
桀
桑
桼
梁
條
梟
梨
棘
棠
棥
森
楚
業
楽
榮
樂
樊
欠
次
欣
欮
欲
欶
欽
款
歆
歇
歛
止
正
此
步
武
歨
歪
歮
歯
歰
歲
歴
歷
歸
歹
歺
死
殳
段
殷
殸
殹
殺
殻
殿
毋
毌
母
每
毒
比
毕
毚
毛
毳
氏
氐
民
气
氣
水
氵
氶
氷
永
氺
氾
求
汝
汞
江
沃
沓
沙
沝
泉
法
波
泣
泥
泰
洛
洪
活
派
流
浦
浪
浮
淡
淮
清
渚
渠
湯
滿
漸
火
灬
灭
灰
灵
灷
炅
炎
炏
炗
炙
炭
為
烈
烏
烝
焉
無
焦
焱
然
煞
熊
熏
燕
營
燮
爪
爫
爭
爯
爰
爱
爲
爵
父
爻
爽
爾
爿
片
牙
牚
牛
牜
牟
牢
牧
牪
牽
犀
犬
犭
犮
狂
狄
狊
独
狺
猋
猒
猪
献
獻
玄
率
玉
王
玟
玨
珎
班
琴
瑟
瑩
瓜
瓦
甘
甚
生
産
用
甫
甬
田
由
甲
申
电
甶
男
甸
甹
画
甾
畀
界
畏
畐
留
畜
畟
畢
畧
畨
番
畫
異
畱
當
畺
畾
疊
疋
疌
疑
疒
疾
癶
癸
癹
登
發
白
百
皀
皃
的
皆
皇
皋
皐
皕
皮
皷
皿
盃
盆
盇
盈
益
盍
盎
监
盒
盖
盛
盡
監
盤
盧
目
直
相
盾
省
眇
眉
看
眔
眞
真
眷
眼
眾
着
睘
睪
睿
瞏
瞢
瞿
矍
矛
矞
矢
矣
知
矦
短
石
破
碎
磊
磨
示
礻
礼
祟
票
祭
禀
禁
禸
禹
禺
离
禽
禾
禿
秀
秃
秉
秋
科
秝
秦
移
稟
穀
穌
穴
究
穹
空
穿
突
窄
窒
立
竒
竜
竝
竟
章
童
竹
笑
笠
筆
等
答
箕
算
箴
節
篤
篭
米
粉
粛
粟
粤
粦
粲
糞
糸
糹
系
約
納
素
索
紫
累
細
絜
絫
絲
維
綿
縣
繇
纍
纟
缶
网
罒
罔
罕
罗
罙
罡
罢
罪
署
罷
羅
羊
羌
羍
美
羔
羕
羗
羞
羡
羣
群
義
羲
羸
羽
翁
翏
習
翕
翟
翠
翼
老
耂
考
者
耆
而
耎
耑
耒
耳
耴
耶
耷
聂
聊
聖
聚
聶
聿
肀
肃
肅
肉
肖
肙
肥
肩
肯
育
肴
胃
背
胡
胥
能
脊
脩
膚
臣
臤
臧
自
臬
臭
臯
臱
至
致
臺
臼
臽
臾
臿
舀
舂
舄
與
興
舉
舌
舍
舛
舜
舞
舟
般
艮
良
色
艸
艹
艾
芒
芔
芬
芮
花
芳
芺
芻
苔
苗
苟
若
苦
英
茶
茸
荅
草
荒
荣
荼
莆
莧
莫
莽
菆
菊
菐
華
萬
落
葉
著
葛
董
葵
蒙
蒦
蒼
蓋
蓬
蓺
蔑
蔡
蕉
蕭
薄
薛
薦
薰
藍
藏
藥
蘭
虍
虎
虐
虒
虔
處
虖
虗
虘
虚
虛
虜
虞
虫
虽
蚤
蚩
蜀
蜜
蟲
蠡
血
行
衍
衛
衣
衤
表
衮
衰
袁
袞
褭
褱
襄
襾
西
覀
要
覃
見
規
覓
覧
親
覽
见
角
解
言
訁
訇
計
詹
誩
諸
讠
谷
豆
豈
豊
豐
豕
豖
豙
象
豦
豩
豪
豸
貇
貝
貞
貟
負
貢
貧
貪
貫
責
貳
貴
買
費
賁
資
賈
賏
賓
賔
賛
賞
賢
賣
質
賴
贊
贝
贡
责
贯
贲
贵
赖
赞
赤
赦
走
越
足
路
蹇
身
躬
車
軍
軎
軟
輦
车
辛
辜
辟
辥
辰
辱
農
辵
辶
边
达
过
近
连
迷
追
退
送
逆
逐
通
速
造
逢
連
逮
進
遀
遂
過
道
達
遣
適
遷
遺
邊
邑
邕
那
邦
邪
郎
部
郭
都
鄉
酉
酋
配
酓
釆
采
里
重
野
量
金
釒
錢
钅
長
镸
长
門
閃
閉
開
閏
閑
閒
間
閔
閵
閻
闌
门
间
闷
阑
阜
阝
阿
降
陳
隆
隊
隋
隡
隨
隱
隶
隹
隺
隻
隼
隽
难
雀
雁
集
雈
雋
雍
雐
雔
雙
雚
雜
雝
離
難
雨
雩
雪
雲
零
雷
需
霍
霜
霝
霞
霸
靈
靑
青
非
靡
面
靣
革
韋
韦
韭
韯
韱
音
頁
頃
項
須
頗
頡
頻
顛
页
風
风
飛
飞
食
飠
養
饣
首
香
馬
馮
駦
马
骨
高
髟
鬥
鬯
鬲
鬼
魚
魯
鮮
鱼
鲁
鳥
鳳
鸟
鹵
鹿
麃
麗
麥
麦
麻
黃
黄
黍
黎
黑
黒
黨
黹
黽
黾
鼎
鼓
鼠
鼻
齊
齋
齐
齒
齿
龍
龙
龜
龟
龠
龰
龱
龴
龵
龶
龷
龸
龹
者
艹
﹕
﻿
？
𑜂
𑜃
𑜉
𑜢
𑜤
𑜫
𝒦
𝒯
𝒶
𝒷
𝒹
𝒽
𝓀
𝓁
𝓇
𝓊
𝓪
𝖓
𠀁
𠀃
𠀆
𠀉
𠀎
𠀐
𠁁
𠁣
𠂆
𠂇
𠂈
𠂉
𠂊
𠂋
𠂎
𠂒
𠂔
𠂛
𠂡
𠂢
𠂤
𠂬
𠂭
𠂹
𠃊
𠃋
𠃌
𠃍
𠃎
𠃑
𠃓
𠃔
𠃜
𠄌
𠄎
𠄠
𠄢
𠆢
𠆥
𠇍
𠈌
𠌵
𠓜
𠔉
𠔥
𠔼
𠔽
𠔿
𠕀
𠕁
𠕋
𠘧
𠘨
𠙻
𠙼
𠚏
𠚒
𠚤
𠚪
𠣏
𠤎
𠤕
𠥓
𠦄
𠦑
𠦝
𠧒
𠧗
𠧪
𠩺
𠪚
𠫓
𠫔
𠫤
𠬛
𠬝
𠬞
𠬢
𠬤
𠬶
𠮛
𠮦
𠮷
𠯑
𠱠
𠳮
𠷎
𡈼
𡉀
𡉵
𡌥
𡍮
𡏳
𡕒
𡕩
𡕰
𡖅
𡗗
𡗜
𡘆
𡘤
𡧱
𡨄
𡩧
𡬠
𡭽
𡰣
𡰥
𡰪
𡰯
𡰱
𡷈
𡸁
𡿨
𡿩
𡿪
𡿺
𢀖
𢀛
𢀩
𢁙
𢆉
𢆰
𢆶
𢇁
𢇇
𢉖
𢌬
𢌿
𢏚
𢑑
𢑚
𢖻
𢙣
𢛳
𢦏
𢦒
𢧵
𢼄
𢾕
𣁋
𣄼
𣅀
𣅽
𣍘
𣎳
𣎵
𣏋
𣏼
𣗥
𣥂
𣥖
𣦵
𣦼
𣧄
𣪊
𣪠
𣬉
𣳾
𣶒
𤇾
𤊽
𤐫
𤓰
𤔔
𤕨
𤣩
𤰇
𤰔
𤰞
𤴓
𤴔
𤽄
𥁑
𥁕
𥃦
𥃩
𥃭
𥇡
𥑟
𥘅
𥘈
𥝢
𥫗
𥱡
𦈢
𦉪
𦉬
𦉼
𦍌
𦍒
𦎧
𦐇
𦓔
𦔮
𦘒
𦙃
𦚏
𦣝
𦣞
𦣻
𦥑
𦥔
𦥯
𦨉
𦭝
𦰩
𧆞
𧈧
𧘇
𧰨
𧴪
𧴮
𧵩
𧾷
𨸏
𨾴
𩙿
𩠐
𩫏
𩵋
𪉷
𪜀
𪟽
𪠲
𪩲
𫇦
𫔭
𫜸
𫝀
𫠣
𫠩
𫢉
𫥞
𫩏
𫩠
𫪡
𫲽
𫶧
𬀷
𬐘
𬗌
𬙙
𬛸
𬜯
𬟩
𬯁
𬴘
𬺻
𬼉
𬼖
𭀰
𭁈
𭁨
𭅰
𭑈
𭕄
𭗼
𭤨
𭥫
𭻾
𮅕
𮊿
𮍌
𮍏
𮓗
𮥼
𮧮
廾
𰀁
𰀄
𰀈
𰀉
𰀕
𰀠
𰀡
𰀢
𰀪
𰁜
𰃮
𰆊
𰆘
𰋙
𰕎
𰢴
𰧭
𰯲
00--
01--
07--
09--
10--
11--
12--
13--
14--
15--
16--
17--
18--
19--
20--
21--
23--
31--
40--
41--
47--
51--
59--
60--
67--
69--
71--
77--
78--
79--
80--
81--
86--
87--
91--
97--
99--
a--
aa--
ab--
ac--
acc--
acqui--
ad--
add--
adu--
advan--
af--
affi--
ag--
agri--
ah--
ai--
al--
alex--
am--
amaz--
an--
ance--
ang--
anim--
announce--
any--
ap--
apo--
apos--
ar--
arch--
archaeo--
argen--
art--
as--
ash--
assi--
astr--
at--
ath--
au--
auto--
ax--
b--
ba--
ban--
bana--
bar--
be--
ber--
bez--
bhu--
bi--
bibliog--
bio--
bis--
bla--
bli--
bo--
bolly--
bor--
bra--
brah--
bre--
bri--
bru--
bu--
budd--
buff--
bull--
bun--
bur--
burd--
bure--
by--
c--
ca--
cal--
calcu--
call--
can--
car--
caro--
cas--
cat--
ce--
celeb--
ch--
chakra--
chall--
cham--
char--
che--
chi--
cho--
chri--
chro--
chrono--
circu--
cit--
cite--
cla--
cle--
cli--
co--
col--
com--
con--
contr--
coo--
cor--
cou--
cra--
cre--
create--
cri--
cro--
cru--
cu--
cultiv--
cur--
cy--
d--
da--
dar--
de--
dec--
decla--
dedi--
def--
democ--
demon--
den--
dep--
dha--
di--
dic--
dig--
dis--
disam--
distri--
do--
dr--
dre--
du--
dupli--
dur--
dy--
dyna--
e--
ear--
ed--
edit--
eg--
egy--
el--
elec--
em--
emb--
en--
encyclo--
end--
eng--
entr--
epi--
er--
es--
esti--
et--
eth--
eu--
eva--
ex--
exc--
exclu--
exe--
exer--
exp--
f--
fa--
facil--
fan--
fav--
fe--
fer--
fi--
flo--
flu--
fly--
fo--
for--
fore--
fr--
frac--
frag--
fran--
frequ--
fu--
ful--
fund--
fuw--
g--
ga--
gar--
gau--
gaz--
ge--
gen--
gene--
gent--
geo--
get--
gi--
glo--
go--
gover--
gra--
gre--
gri--
gro--
gu--
gup--
gut--
h--
ha--
har--
harm--
haz--
he--
her--
hi--
high--
ho--
holi--
home--
hor--
hot--
hu--
hy--
i--
id--
iden--
ig--
il--
im--
image--
impl--
in--
incorpo--
incre--
infi--
infr--
initi--
inju--
inst--
instruc--
integ--
inten--
inter--
ir--
is--
it--
j--
ja--
je--
jer--
jo--
jor--
ju--
jud--
k--
ka--
kan--
kar--
kate--
ke--
ken--
kha--
ki--
ko--
ku--
l--
la--
laksh--
last--
lau--
lay--
le--
lec--
legis--
les--
li--
libe--
lin--
lingu--
liqu--
lit--
lo--
lu--
ly--
m--
ma--
mac--
mad--
mag--
maha--
main--
mal--
man--
mar--
me--
mech--
mem--
men--
mer--
meta--
mi--
mic--
micro--
mid--
mig--
min--
mir--
mis--
mo--
molecu--
mon--
mono--
monu--
mor--
mu--
muk--
mur--
my--
n--
na--
nar--
nav--
nd--
ne--
neces--
neg--
neu--
new--
ni--
no--
non--
nor--
nu--
nume--
o--
ob--
oc--
occ--
occur--
of--
off--
on--
opp--
opt--
or--
os--
out--
over--
p--
pa--
pac--
pad--
page--
pal--
par--
para--
parli--
pass--
pat--
pay--
pe--
pen--
pepp--
per--
pet--
ph--
phil--
phy--
pi--
pit--
pl--
plat--
po--
popu--
popup--
por--
pos--
pow--
pr--
pray--
pre--
prepa--
pri--
pro--
prohi--
proof--
pros--
pu--
pub--
pun--
pur--
pura--
py--
q--
qu--
quar--
r--
ra--
rac--
raj--
re--
read--
rec--
rece--
recog--
red--
ref--
reg--
rela--
reli--
res--
resemb--
resi--
rest--
retr--
reve--
ri--
ro--
roll--
row--
ru--
rub--
rus--
s--
sa--
sacri--
sai--
sal--
sar--
satis--
sc--
sch--
sco--
scul--
se--
see--
semi--
sepa--
sequ--
ser--
set--
settle--
sh--
sha--
shi--
sho--
show--
si--
sim--
sk--
sl--
sla--
slo--
small--
sme--
smi--
so--
sol--
some--
sor--
sp--
spa--
spi--
spo--
squ--
st--
stan--
ste--
sto--
str--
stu--
sty--
su--
sub--
sun--
super--
supple--
sur--
sus--
sw--
swa--
swe--
sy--
t--
ta--
tan--
te--
tech--
temp--
ten--
ter--
terri--
text--
th--
the--
thre--
ti--
tick--
tim--
time--
to--
tok--
tor--
tou--
tr--
trans--
tre--
tri--
tro--
tru--
tu--
tur--
tw--
twit--
ty--
u--
uk--
un--
under--
up--
ur--
us--
user--
ut--
v--
va--
ve--
veget--
ven--
ver--
verifi--
vi--
vic--
view--
vio--
vir--
vo--
w--
wa--
we--
wea--
web--
wel--
wg--
wi--
wiki--
wil--
win--
wit--
wo--
won--
wor--
work--
wp--
x--
y--
ya--
yo--
yu--
z--
ا--
अ--
आ--
इ--
उ--
क--
ग--
च--
ज--
त--
द--
न--
प--
ब--
भ--
म--
य--
र--
ल--
व--
श--
स--
ह--
অ--
অত--
অন--
অপ--
অব--
অস--
আ--
আই--
আও--
আগ--
আঠ--
আন--
আম--
আল--
আৰ--
ই--
ইউ--
ইক--
ইঘ--
ইচ--
ইট--
ইন--
ইব--
ঈ--
উ--
উই--
উত--
উন--
উপ--
ঊ--
ঋ--
এ--
এই--
এক--
এচ--
এছ--
এন--
এপ--
এব--
এম--
এল--
এশ--
ঐ--
ও--
ঔ--
ঔৰ--
ক--
কট--
কন--
কল--
কৰ--
খ--
খৰ--
গ--
গজ--
গণ--
গল--
গৰ--
ঘ--
ঘৰ--
ঙ--
ঙৰ--
চ--
চক--
চট--
চন--
চপ--
চব--
চৰ--
ছ--
ছব--
জ--
জক--
জগত--
জন--
জপ--
জম--
জল--
জস--
জৰ--
ঝ--
ঞ--
ট--
টক--
টম--
টল--
টস--
ঠ--
ঠক--
ড--
ডৱ--
ঢ--
ণ--
ণস--
ণৰ--
ণৱ--
ত--
তক--
তন--
তৎ--
তৰ--
তৱ--
থ--
থল--
থস--
থৰ--
দ--
দক--
দন--
দল--
দশ--
দহ--
দৰ--
ধ--
ধন--
ধস--
ধৰ--
ন--
নব--
নৰ--
নৱ--
প--
পট--
পদ--
পৰ--
ফ--
ফল--
ব--
বন--
বল--
বশ--
বস--
বৰ--
ভ--
ম--
মই--
মঙ--
মন--
মল--
মহ--
য--
যদ--
যম--
র--
ল--
লক--
লন--
শ--
শক--
শত--
শৰ--
ষ--
ষক--
ষপ--
স--
সক--
সদ--
সন--
সভ--
সম--
সহ--
সৎ--
সৰ--
হ--
হক--
হত--
হৰ--
ৎ--
১৩--
১৫--
১৬--
১৭--
১৮--
২০--
২১--
২২--
২৩--
২৪--
২৫--
২৬--
২৮--
৩১--
৩৪--
৪১--
৪৩--
ৰ--
ৰক--
ৰজ--
ৰণ--
ৰব--
ৰম--
ৰহ--
ৰৰ--
ৰৱ--
ৱ--
ৱন--
৷৷--
--0
--1
--2
--3
--4
--5
--6
--7
--8
--9
--a
--able
--ably
--aceae
--act
--acy
--ad
--ae
--ag
--age
--ah
--ai
--ain
--ak
--aka
--ake
--al
--ala
--all
--ally
--am
--ama
--an
--ana
--ance
--ani
--ans
--ant
--ants
--ar
--ara
--ard
--ari
--aries
--ary
--as
--at
--ate
--ated
--ates
--ath
--atic
--ating
--ation
--ations
--ative
--ator
--ats
--ay
--ayana
--b
--ba
--bar
--be
--ber
--berg
--ble
--box
--br
--bs
--by
--c
--ca
--cal
--case
--ce
--ceae
--ced
--cent
--ces
--ch
--chi
--cious
--ck
--cks
--cle
--co
--cs
--ct
--cted
--cy
--d
--da
--dant
--data
--day
--de
--ded
--di
--do
--dor
--ds
--dy
--e
--ea
--east
--ec
--ect
--ed
--ee
--ef
--ei
--ein
--ek
--el
--ell
--ely
--em
--eme
--en
--ence
--ened
--ening
--ens
--ense
--ent
--ental
--ep
--er
--ers
--ery
--es
--ese
--ess
--est
--et
--ets
--ew
--ey
--f
--fa
--fer
--fied
--form
--fs
--ful
--fy
--g
--ga
--gal
--ge
--ged
--ger
--gh
--go
--gs
--gue
--h
--ha
--hal
--ham
--he
--hed
--her
--hes
--hetical
--hi
--hing
--hip
--hood
--how
--ht
--i
--ia
--ial
--ian
--iate
--iations
--ibility
--ible
--ic
--ica
--ical
--icit
--ick
--ics
--id
--ide
--ided
--ie
--ied
--ient
--ier
--ies
--ified
--ify
--ig
--ight
--ii
--ik
--ika
--il
--ile
--ily
--im
--iment
--in
--ination
--ine
--ing
--ings
--ini
--io
--ion
--ions
--ior
--iot
--ious
--ip
--ir
--irable
--is
--isation
--ise
--ised
--ish
--ism
--ist
--it
--ita
--ite
--ities
--ition
--ity
--ium
--ius
--ive
--ively
--ix
--iya
--ization
--ize
--ized
--j
--ji
--ju
--k
--ka
--kar
--ke
--kh
--ki
--ks
--ky
--l
--la
--lar
--ld
--lds
--le
--lect
--led
--ler
--les
--less
--ley
--lf
--li
--lin
--line
--ling
--link
--lio
--lis
--lish
--list
--ll
--lly
--lm
--ls
--lt
--ly
--m
--ma
--man
--mb
--me
--med
--ment
--mit
--mn
--mo
--ms
--n
--na
--nal
--nam
--name
--nce
--ncy
--nd
--nda
--ne
--nected
--ned
--ner
--nes
--ness
--ng
--ngs
--ni
--nia
--ning
--nk
--nn
--no
--nous
--ns
--nt
--nta
--ntal
--nted
--ntly
--nts
--nue
--ny
--o
--ock
--od
--oe
--of
--og
--ogy
--ok
--ol
--ola
--om
--ome
--omy
--on
--ong
--onic
--ons
--op
--or
--ore
--ories
--orm
--ors
--ory
--os
--ose
--ot
--ough
--ous
--ow
--oy
--p
--pa
--pe
--ped
--phy
--ping
--ps
--pur
--q
--que
--r
--ra
--ral
--ran
--rb
--rd
--re
--res
--ress
--rg
--ri
--ria
--ric
--ries
--rily
--ring
--rk
--rl
--rm
--rn
--ro
--rry
--rs
--rt
--rta
--rted
--rty
--ry
--s
--sa
--scribe
--se
--sed
--ses
--sh
--sha
--ship
--si
--sia
--sian
--sion
--sis
--sive
--sm
--son
--ss
--ssed
--st
--sy
--t
--ta
--tal
--te
--ted
--ten
--ter
--tes
--text
--th
--thi
--ti
--tic
--ting
--tis
--tive
--tle
--tly
--to
--ton
--tor
--tory
--tr
--tra
--ts
--ture
--ty
--tyle
--u
--ual
--uck
--uct
--ud
--ue
--ugh
--ught
--uin
--ul
--ular
--um
--un
--une
--up
--ur
--ure
--ures
--uri
--url
--us
--ust
--ut
--ute
--ution
--v
--va
--val
--ve
--ved
--ves
--ving
--vy
--w
--wan
--ward
--way
--wn
--x
--y
--ya
--ymous
--z
--za
--ze
--zed
--zy
--क
--त
--न
--म
--र
--ই
--এ
--ও
--ক
--কল
--খ
--খন
--গ
--গত
--গৰ
--ঘ
--ঙ
--চ
--চন
--ছ
--জ
--জন
--ঞ
--ট
--ঠ
--ড
--ঢ
--ণ
--ণৰ
--ত
--তক
--তল
--থ
--দ
--দৰ
--ধ
--ন
--নৰ
--প
--পৰ
--ফ
--ব
--ভ
--ম
--মত
--য
--র
--ল
--শ
--ষ
--স
--সম
--হ
--ৎ
--০
--০০
--১
--২
--৩
--৪
--৫
--৬
--৭
--৮
--৯
--ৰ
--ৰণ
--ৱ
--৷
