!
"
#
##0
##1
##10
##11
##12
##13
##14
##15
##16
##17
##18
##19
##2
##20
##21
##22
##23
##24
##25
##26
##27
##28
##29
##3
##30
##31
##32
##33
##34
##35
##36
##37
##38
##39
##4
##40
##41
##42
##43
##44
##45
##46
##47
##48
##49
##5
##50
##51
##52
##53
##54
##55
##56
##57
##58
##59
##6
##60
##61
##62
##63
##64
##65
##66
##67
##68
##69
##7
##70
##71
##72
##73
##74
##75
##76
##77
##78
##79
##8
##80
##81
##82
##83
##84
##85
##86
##87
##88
##89
##9
##90
##91
##92
##93
##94
##95
##96
##97
##98
##99
$
%
&
'
(
)
*
+
,
-
.
/
0
00
000
01
02
04
06
1
10
100
1000
101
11
12
13
14
140
15
150
1595
16
164
17
170
175
18
180
19
1920
1923
1933
1941
1942
1943
1946
1948
1949
1950
1952
1955
1960
1963
1964
1965
1966
1967
1968
1969
1970
1971
1972
1973
1974
1975
1976
1977
1978
1979
1980
1981
1982
1983
1984
1985
1986
1987
1988
1989
1990
1991
1992
1993
1994
1995
1996
1997
1998
1999
2
20
200
2000
2001
2002
2003
2004
2005
2006
2007
2008
2009
2010
2011
2012
2013
2014
2015
2016
2017
2020
2021
2022
2023
21
210
212
215
216
218
22
220
221
223
225
229
23
230
237
24
242
245
246
249
25
250
255
26
260
264
266
267
268
27
270
28
280
284
29
290
295
3
30
300
31
32
320
33
34
340
345
35
350
352
353
36
360
373
374
375
378
379
38
380
381
383
385
388
39
392
4
40
400
41
42
420
422
425
428
43
44
440
45
46
47
48
49
5
50
500
501
503
508
51
54
56
57
58
590
593
595
6
60
600
61
632
649
65
67
670
671
676
680
684
685
7
700
76
8
80
809
81
83
84
85
850
856
86
876
88
885
89
9
90
91
910
93
939
95
967
97
971
975
98
991
993
994
:
;
=
?
@
_
`
a
abeceda
ablativ
above
abp
absolute
abu
abugida
ac
acest
acesta
achilo
act
active
ad
adaja
adel
adies
adive
administrative
adriyan
adult
afganistan
afghanistan
africa
afrika
afrikiyako
agor
agorinya
agorinyola
agorinyona
agorune
agyahar
ai
aj
ajensiya
akala
akale
akana
akanak
akanutne
akanutni
akanutno
akate
akava
akaya
ake
akharde
akhardo
akharenas
aktoro
aku
al
alav
alava
alavari
alavesko
albaniya
album
albuma
albumurya
ale
aleksandru
alfabeta
ali
all
almaza
alosardo
also
alt
alto
am
ama
amare
amari
amaro
ambolde
ame
amen
amende
amenge
america
american
amerika
amerikani
amerikiyake
amerikurya
amor
amperetsia
amsterdam
an
anatoliya
anav
anava
anavensa
and
anda
andai
andal
andalusiya
andaman
andar
ande
andej
andek
andel
ander
anderiyarel
anderyarel
anderyaren
anderyarindoy
anderyaripnasko
andi
ando
andorra
andre
andro
andrutno
anel
angel
angla
anglal
angle
angleder
anglesikanes
anglesikani
anglezikanes
anglezikani
anglezikano
anglikanes
anglikani
anglo
anglune
anglunes
angluni
angluno
angola
anguilla
ani
animal
ankara
anlimaskere
anmaro
ano
antarktika
antigua
antofagasta
apa
apoi
april
aprilo
arab
arabikanes
arakhadilo
arakhel
arakhen
arakhenpe
arakhlola
arakhlona
archive
are
area
areas
argentina
arianikani
ariyane
ariyani
ariyanikane
ariyanikani
arli
armenikani
armeniya
articol
articole
aruba
arxentina
aryane
aryano
as
asamikani
asavke
asavko
ascension
asemenea
asia
asiatikani
asiya
asiyake
asiyako
assigned
assignments
asta
astarel
at
ator
atunch
atunchi
au
augusto
australia
australian
australiya
austria
austriya
autonomiya
autonomous
avaze
avazi
avazune
avazuno
avel
avela
aven
avena
aver
avere
avet
avile
avilen
avili
avilo
avol
avre
avreste
avri
avrune
avrutne
avryal
avstriya
avtonomikani
ax
azbalipen
azerbaijan
b
ba
baar
babo
bahamas
bahrain
baliardo
balkanurya
baltikane
baltikani
balto
banda
banderi
bangladesh
banjara
banjarenge
bank
barack
barbados
barbuda
bare
bareder
baredz
bareste
bari
bariolas
baripen
baro
barodvip
barodvipenge
barodvipkane
barodvipturya
barodvipurya
bars
barvalo
baryaripen
baryaripenasko
baryaripnasko
bas
base
bashavne
bashavno
basshunter
batas
bayash
baza
bbc
bc
be
beatles
been
beijing
belarus
belfast
belgium
belize
beljiya
ben
bengal
bengali
benin
berlin
bers
bersh
bersha
bershengo
bershesko
bershestar
bersheste
bes
beshel
beshelas
beshen
beshena
beshenas
beshle
best
bharat
bharatesko
bhutan
bi
bibarile
bibliographiclimitquerybuilder
biblioteka
bibliotekakoro
bibliyografiya
biboldengo
biboldurya
bic
biden
bidino
bidudalo
big
bihar
bihari
bimeste
binh
binomio
biobi
bioficijalno
biprinjardo
bish
bissau
biyandili
biyandilo
biyandilyas
biyografiya
blica
boas
bodli
bogdan
boksa
bolivia
boliviya
book
born
bosnia
bosniya
botswana
br
brahman
brahmi
branch
brazil
braziliyake
brazilyako
breinigerberg
britanikane
britaniya
britaniyako
brunei
bruto
buchi
budapest
buddhism
budeshti
budor
buenos
buhle
buhli
bukureshti
bulgaria
bulgarian
bulgarikani
bulgariya
bulgariyako
bun
buna
bundesla
bundesrepublik
bureau
burkina
burma
burundi
bush
bushol
busholas
but
buteder
buti
butipa
butipen
butirel
butivar
butvar
butvaripen
butya
butyi
buxlyarimos
by
c
ca
cai
cambodia
cambridge
campbell
campo
campora
can
canada
capital
care
cargo
carpenters
caselle
castro
category
ccitt
ce
cea
cel
central
ceva
ch
chache
chaches
chachi
chachimata
chacho
chad
chakra
chalga
chandigarh
char
chave
chavo
chexanipen
chexay
chexaya
chexikani
chexiya
chhattisgarh
chhib
chhiba
chhibake
chhibange
chhibango
chhibavipen
chhibavipnaske
chhibavipnaski
chhibavipnasko
chhon
chi
chib
chiba
chibya
chibyaki
chibyako
chile
china
chipro
chitro
chon
christmas
churarya
ci
citate
city
ciuni
close
cm
co
coast
cocos
code
codes
colo
com
commons
commonscat
communist
como
comoros
con
concepcio
confucius
congo
constitutional
control
copii
costa
countries
country
couples
covered
cres
crimea
cu
cuba
cultura
cum
cunha
cunoscut
curitiba
cut
cyprus
d
da
daca
dad
dadra
dai
daje
daki
daman
danemarka
danko
dar
dark
das
dasikane
dat
data
database
dativ
day
de
dechembra
dei
del
delegated
delhi
deli
deliya
demirovich
democratic
democratikani
demokratikane
den
dena
dendoy
denipena
denise
deo
der
derya
des
desh
deshbersh
deshi
deshtoduynay
deshtonai
deshtonay
deshtoyeknay
desi
despre
deum
deus
deutschland
deva
devanagari
devel
devla
devleski
devlesko
devleskro
dey
deyekh
dhaka
dharm
di
dialekti
dialektia
dialekto
dialekturya
die
diego
dieli
dies
digit
dikh
dikha
dikhel
dikhen
dikhena
dikhimos
dikhipe
dikhlen
dikhlia
dikhyola
dilli
dilo
dimineat
diminutiv
din
dine
dintre
direkto
disave
discontinued
disiplo
diskografiya
diskriminaciya
diskriminasiya
district
distrikto
distrikturengo
distrikturya
diu
dive
dives
divesa
divided
diyalekti
diyalekto
diyalekturenge
diyalekturya
diyalektya
diyanaki
diz
django
djivdipen
dna
do
doar
dokumento
domestic
dominica
dominikani
donald
doors
dopash
dorint
dosh
dosha
doshalo
dosta
dr
drabara
drabarel
drabaryol
drabaryola
drago
dragoste
dravidikani
dreapta
drom
du
dud
dudalo
duero
dui
duito
duj
dujto
dukh
dulce
duma
dunarya
dupa
dur
durutne
duxosko
duy
duyto
duytonay
dvip
dvipa
dvipenge
dvipengo
dy
dz
e
each
east
ec
echipa
ed
ederlezi
edeya
edgar
edirne
edit
editori
editura
edu
ee
efta
eftatonay
ek
ekh
ekhe
ekhipen
ekhto
ekipen
ekto
ekuador
ekvador
el
elementurya
ella
em
emirates
en
enge
england
english
eritrea
eropa
es
est
estado
este
esto
estonia
estonikani
estoniya
estrexa
estuni
estutne
estutni
et
ethiopia
ethnologue
ethnology
etnic
euro
europa
europako
european
europikane
europikani
europikano
evrasiya
evropa
evropikane
evropikani
evropikano
evropyako
ex
example
executive
exiko
exista
external
externe
f
fa
facto
fal
falimata
falkland
familiya
familiye
fana
fari
faroe
farsikani
faso
feder
federal
federalni
federatikane
federatikano
federation
ferdi
festival
fi
fiecare
fielo
figura
fiji
file
film
filmurya
fingo
finikane
finikani
finland
fino
first
fishtesavo
flamenko
flores
fo
folosit
for
form
forma
forme
formerly
foro
forosko
forovipen
forovipnasko
forura
forurenge
forurengo
forurya
forutne
forutno
fost
fotbal
fotografie
fr
franc
france
franchezikani
franchiya
fransekani
fransikani
fransiya
franz
friends
from
fuego
full
future
g
ga
gabon
gadje
gadjikane
gadjo
gajikane
galeria
gallery
galyero
gambiya
gandhi
gandhiskri
gandindoy
gatlif
gav
gava
ge
gele
gelem
gelen
geli
gen
general
george
germany
ghana
gheorghe
ghii
gi
gilabno
gilavne
gilavni
gilavno
gili
gilya
gin
gina
ginavipen
gindil
gindo
ginepaskro
ginipen
giovanni
gipsy
gitara
gje
glaso
go
goddard
godi
godyate
goes
gormaz
gov
government
governments
grafem
grafema
gramatika
gramatikake
gramatikako
gramatikane
granted
grast
graszt
greece
greenland
grenada
gretsia
greu
grigore
group
grupa
grupe
grupi
grupo
grupuria
gu
guam
guatemala
guide
guinea
guiney
guineya
gujarati
gurbet
guru
guvernamentesko
guverno
guyana
gy
gyorge
gypsies
gypsy
h
ha
haiti
haliarel
hamburg
han
hancock
handbook
hankock
hans
hari
harne
haryana
has
have
haveli
he
head
hedina
hem
henry
her
hercegovina
herzegovina
hi
hib
hiba
himachal
himno
hin
hindi
hindikane
hindikanes
hindikani
hinduismo
hine
his
historia
ho
hoa
honduras
hong
hotel
however
hram
hramensa
hrameya
hramimi
hramina
hraminde
hramindoy
hraminelpe
hraminen
hraminena
hraminyem
hraminyol
hramipa
hramipasko
hramipe
hramisale
hramya
hramyensa
htm
html
http
https
hungary
i
ia
ian
iar
iceland
identificat
ides
ie
iek
iekh
ii
il
ilo
ilor
image
imb
imediat
importante
importanto
in
ina
included
including
inde
indekso
independent
index
india
indian
indikane
indikano
indiya
indiyake
indiyako
indo
indonesia
indymedia
info
information
ingerel
inka
inke
inker
inklen
instituciye
institute
institution
instituto
insula
int
internacionalno
international
internet
into
ipa
ipen
iran
irane
ire
ireland
irinelpe
iripe
irland
irlanda
irlandesko
irlandikanes
is
isbn
isi
islam
islami
islamice
islamichi
island
islands
israel
istanbul
istoria
it
italiya
italiyake
italy
its
itu
iubit
ivoire
izidor
izmir
j
ja
jal
jamaica
jamiya
jamu
jan
jana
janel
janelpe
janen
jangle
jangli
janglimata
janglipen
janglo
janglyovel
janglyoven
janindoy
japan
jats
jegeya
jek
jekh
jelem
jene
jeremy
jermani
jermanikane
jermanikanes
jermanikani
jermanikano
jermaniya
jermaniyake
jermano
jerusalem
jesus
ji
jik
jindo
jipen
jivel
jiven
jivipen
jivipenasko
jivisarden
jivisaren
joe
johann
john
jorjiya
jose
jpg
judea
jukhol
jure
juric
jutisarel
juv
juvla
juvli
juvlikane
juvlikani
juvlikano
jy
k
ka
kadala
kadale
kadava
kadaya
kadia
kado
kadya
kahte
kai
kaj
kalderash
kale
kali
kalo
kamen
kampiyono
kana
kanada
kanadake
kannada
kantabriya
kanuni
kar
kareybe
karing
karnataka
kashmir
kashte
kaske
kaski
kasta
kastiliya
katar
katari
kathar
kathe
katoliko
kau
kava
kaver
kay
kayro
kazakhstan
ke
kenya
ker
kera
kerala
kerch
kerdas
kerde
kerden
kerdi
kerdia
kerdile
kerdili
kerdilo
kerdini
kerdino
kerdipen
kerdivel
kerdo
kerdya
kerdyas
kerel
kerela
kerelpe
keren
kerena
kerindoy
kerolpe
keryem
ketnepen
ketor
kham
khangeri
khangeria
khangerya
khangeryaki
khani
khanya
khares
khedipe
khel
kheldya
khelimos
kher
khera
khere
kheresko
khereste
khetanes
khetani
khetanipen
khonik
khuv
khuvel
khuvela
khuven
ki
kiderel
kideren
kidipen
kidipnasko
king
kingdom
kings
kipo
kiribati
kirilikane
kirilikanes
kitts
kiŋ
kkz
klishka
km
ko
kodia
kodo
kodola
kodole
kodoya
kodurya
kodya
kola
kolaver
kolaya
kole
kolen
kolensa
kolombiya
kolumbiya
komi
kompetisiya
kompyuteri
komunitaturya
komunitatya
kon
kong
kongo
kongresi
kongreso
konsonante
konsonanti
konsonanturya
konsonantya
konstantin
kontrakto
kordoba
korea
koreya
korkore
korkori
korkoro
kortes
kosova
kosovo
kotar
kote
kothar
kothe
kotor
kotora
kotse
kova
kovle
koya
kraton
kreyolikane
krimeya
krimeyake
krimeyaki
krimeyako
krisako
kristiyanipen
kristiyanismo
kristo
kristoske
kristosko
kroatikani
kroatiya
kror
kruezi
ksha
kuba
kultur
kultura
kulturalno
kurepen
kuror
kyrgyzstan
l
la
labyarde
labyardi
labyardo
labyardyovel
labyarel
labyaren
labyarindoi
lafi
lakatos
lake
lakh
laki
lako
lakshadvip
landi
language
languages
lanka
laos
larger
las
lashi
lasso
late
latinikane
latinikanes
latinikani
latinikano
latinitska
latino
latvia
latviya
lav
lava
lavenge
lavensa
lavesko
lavustik
lavutari
lda
le
lea
leader
left
legislature
lekciye
leke
lekh
lekha
lekhavdo
lekhavdyovel
lekhavel
lekhaven
lekhavimata
lekhavipen
lekhavno
lekhimata
lekhipen
lekipen
lekipnasa
lel
lele
lelem
lelilo
lelpe
len
lena
lendar
lende
lenge
lengo
lenpe
leon
leone
les
leske
leski
lesko
lesotho
leste
li
lia
libya
liechtenstein
lil
lila
limba
line
linguistic
links
linkuri
lino
liparde
liparyem
list
lista
listed
literatura
lithuania
lithuaniya
lituaniya
lium
live
liviya
lo
loc
loko
lokyara
lola
lolita
lolpe
london
los
losh
love
lovo
lublin
luca
lugi
lui
luksemburgo
luludi
lume
lumea
lumia
lumiake
lumiyake
lumya
lungo
luni
lyas
lyle
m
ma
macau
macedonia
made
madrid
magyarikane
magyarikanes
magyarikani
maharashtra
mahatma
mai
makedoniya
makedoniyaki
makine
makyarekanes
makyarestan
makyarikanes
malawi
malaysia
maldive
mali
malta
mamusha
man
mandar
manga
mangel
mangela
mangen
mangena
mangimata
mangipe
manglape
mangle
manjor
manus
manush
manusha
manushanipen
manushego
manushen
manushendar
manushenge
manushengo
manushengro
manushikane
manushtne
manushutne
manushutni
map
mapa
marathi
marden
mare
maren
mari
maria
mariana
marianne
marino
maripen
maritime
maro
marshall
martia
mas
mashkar
mashkarthemutno
mashkarune
mashkaruni
mashkarutne
mashkarutni
mashkarutno
mateo
materiali
mauritania
mauritius
may
maybut
mayotte
mcmurdo
me
mea
mele
melodiya
membro
membrurya
mendoza
meras
merel
meren
mesaje
mesjid
messiah
meste
mesti
mestipen
mesto
metoda
meu
mexico
mexiko
mi
microneziyake
mila
miliardar
military
miliyonurya
milyonurya
mine
mines
mini
miniatura
minister
ministro
minre
minune
mire
miri
misal
misala
misali
misalya
misalyake
mishto
mo
mobile
mod
moderno
moldova
mombay
monaco
monarch
monarchies
mongolia
monsters
montenegro
montevideo
montt
mora
more
moro
morocco
morrison
mort
mos
moseom
mosocz
mosovce
mothava
mothavav
mothavela
mothavena
mothavipe
mothavol
mothavyem
mothol
mothon
mothonas
motivat
movie
mtdna
mu
mudarde
muhammad
mui
mule
muli
mulo
mult
munichipaliti
municipalities
municipality
muntenegro
mursh
mursha
murshikano
musical
muslimos
musulmana
muy
muzika
muzkake
my
myanmar
n
na
nabahha
naciye
nadu
naga
nagar
nai
najanelpe
namanglape
name
namibia
namibiya
nane
nani
nanpa
napal
narodno
narodo
nas
nasho
nashti
nasiya
nasiye
nasyonalno
nation
national
nations
native
natura
nauc
nauru
nav
nava
navyarde
navyardo
navyaren
nay
nazareth
nazista
nca
ncepe
nceput
ncipe
nd
nder
ne
neasca
nego
nekvan
nenge
neolojismurya
nepal
nesave
net
netherlands
network
neve
nevi
nevimata
nevis
nevo
nevoie
new
news
ni
nicaragua
nichi
nicolaye
nigeria
nijer
nijeriya
nika
nikana
nikita
nishte
nit
niyekh
nja
no
nobis
nominativ
non
nora
nord
nordo
norduni
nordutne
nordutni
nordutno
norfolk
nort
north
northern
nortutno
norvejiya
nos
not
novembra
novoselsky
now
ntotdeauna
ntr
ntreaga
nu
numa
numay
numbering
nva
o
obama
oblast
ochii
odola
odole
odoleske
odoleya
odova
of
off
office
official
officially
oficial
oficialno
ofis
ofisyalni
ofisyalno
oglinda
okeyanu
okeyanuriya
oksidentalutni
oksidento
ol
ola
olake
olako
olanda
old
olen
olenge
olengo
oleske
olesko
oljen
ollepaskro
oman
on
one
online
only
open
opralutni
opre
opretele
or
ora
org
organizasiya
organo
ori
originally
oriya
orizari
oro
ortodoksikani
os
osma
osmano
othe
other
otna
otomano
ov
ovce
ovel
ovela
oven
over
ovestuni
ovestutne
ovestutni
ovidiu
ovol
oxto
oy
p
pa
pachaiepe
pachamos
pachanpe
pahndimata
pai
paiesa
pakiaiben
pakistan
pakya
pal
pala
palal
palau
pale
palem
palenciya
pali
palo
palpale
paluno
palutne
panama
panda
pani
panj
panjabi
panjto
panjtonay
panorama
papua
papuan
para
paraguay
paris
parko
parlamento
parlimento
parne
parno
parte
partia
partida
party
parudipe
paruvde
paruvipen
pas
pash
pasha
pashal
pasharne
pasharni
pasharno
pashdvip
pashlola
pashte
pativ
patre
patrin
patrinimata
patrinipen
patrinipena
patrya
paul
paulo
paxro
pdf
pe
pec
pech
pedro
pekenk
pel
pen
pendi
penge
pentru
people
per
pere
perel
perela
perena
pero
personalune
peru
perutne
perutno
pervo
pervonay
pes
pescuit
peshta
peske
peski
pesko
ph
phal
phandavde
phanden
phandimata
phandipen
phandipena
phandle
phandlo
pharnovon
phena
phende
phenden
phendi
phendia
phendo
phenel
phenen
phenena
pherena
philippines
phiravdili
phiripen
phirne
phirno
php
phsa
phth
phurane
phurano
phurd
phure
phuro
phuv
phuveskro
phuvipen
phuvipnaske
phuvipnasko
phuviyako
phuvja
phuvyake
phuvyaki
phuvyako
pi
pierre
pijin
pinjardo
place
plan
play
please
plovdiv
png
po
pobut
pobuter
poe
polaniya
policy
political
politika
polska
polskyake
pondisheri
popale
por
poraimos
poraymos
pordo
poro
poronchinas
portugal
portugaliya
portugezikanes
pot
power
powers
poxtan
pozitiva
pozitive
pradesh
praga
prandime
pre
president
press
prezidentikane
prezidento
pri
prima
prime
prinjarde
prinjardi
prinjardo
prinjarel
prinjaren
print
private
prizren
problemi
problemurya
produkto
profeto
programo
pronomya
provinces
provinchiye
provinciya
provinsya
psalmo
pu
public
puerto
pulavy
punjab
punto
puqelpe
puqipa
purane
puraneder
purani
puranipen
puranipnaske
purano
pustik
putardo
px
q
qaqipa
qatar
qhano
qhave
qhavo
qhavoro
qhay
qhaya
qhib
qhiba
qhibyake
qhibyako
qhuri
quang
queen
qui
r
ra
rahor
rai
rajastan
rajputa
rakhepen
ramome
rapper
rasha
rasismo
rasistikane
rayan
rayono
rdoba
re
reality
recommendations
region
regional
regions
regule
reinhardt
rejyune
rekshan
rekshoriya
religio
religious
remenikane
remenikanes
remeniya
renge
reporto
repu
republic
republics
republik
republika
reserved
respublika
reyes
reyhan
ri
ria
rica
richard
rig
riga
right
rigyardi
rigyardo
rigyarimata
rigyaripen
rik
rika
rimol
river
rmy
ro
robert
roby
roda
rodel
roden
rodimata
rodrigez
rola
rom
roma
romale
romana
romane
romanes
romani
romania
romanian
romanikane
romanipen
romano
romanuria
romany
romayako
romen
romendar
romenge
romengi
romengo
romensa
romi
romni
romyaneski
ronald
rosenberg
rromani
rromii
rromilor
ru
ruga
rukeli
rukh
rumunikane
rumunikanes
rumunikani
rumunikano
rumuniya
rumuniyake
rumuniyako
rumunurya
rusikanes
rusikani
rusikano
rusiya
s
sa
sagda
sahara
sahgepte
sai
saint
sajto
sakana
sako
sakote
sakova
sale
salvador
sama
sami
samikani
samoa
samodor
samoyed
samoyedikane
san
sandro
sane
sano
sanskritikanes
sanskritikani
sanskrtikani
sanskrtipen
santa
santiago
sap
sar
sara
sarayevo
sare
sas
sasa
sasti
satem
sau
save
saven
savi
savo
savore
sb
scandoromani
scotland
scris
se
sea
secolul
seduce
see
sel
sela
selahetin
self
selore
selyange
semi
semnen
semno
senegal
sentiment
sentimentele
sentum
separate
sepec
serbia
serbikani
serbiya
serbo
serie
serves
service
services
sestemi
sfinto
sh
shagede
shai
shani
shared
shav
shave
shay
shaypen
shayutnipen
shei
shel
shelbersh
shelbersha
shelbershesko
shelbersheste
shero
sherotno
sherutne
sherutni
sherutno
shi
shib
shiba
shil
shile
shirden
shirdipen
shirdya
shirdyas
shiyaron
shiyaronuria
shkiperiya
shkola
shkole
shopni
shopnya
shov
shovto
shovtonay
shri
shtar
shtarto
shtas
shtefan
shtorso
shukar
shukor
shunyarol
shunyola
shunyona
si
sicharel
sicharimos
siddham
siempre
sierra
sigo
sikavel
sikavela
sikaven
sikh
sikhism
siklilyas
siklolpe
siklovipasko
siklyaren
siklyaripen
siklyaripnaske
siklyaripnasko
sikrekher
siligo
simbol
simferopol
simplesearch
sin
sindh
sindhi
sine
singapore
singur
sino
sinte
sinti
sira
sire
sirkumsisyon
sirkunsision
sistemeske
sistemeya
sistemi
sistemo
sistemurya
site
siyan
skepil
skepitori
skopiye
slavikane
slavikani
slovaiko
slovak
slovakia
slovakiya
slovayko
sloveniya
smithsonian
so
society
sofia
software
solomon
somalia
somdasno
some
somkerdipen
somn
somnal
somos
soria
soriya
soske
sostar
soste
south
sovyetikano
sp
spain
spaniya
spaniyake
spaniyako
spaniyolikanes
spaniyolikani
spanyolikanes
spanyolikano
special
sport
sportesko
spune
sri
st
stadt
stago
standardization
standardizuyimi
stanford
state
states
statesko
stato
staturya
status
statuto
ste
sterreich
still
stilo
stimula
stra
strato
studio
styago
style
su
sub
subbarodvip
sud
sudan
sudestuni
sudo
sudosko
suduni
sudutne
sudutni
sudutno
sufikseya
sufiksi
sultan
sumnal
sundalake
sundalyaki
sunt
superbarodvib
superbarodvip
superbarodvipturya
suriname
sva
svedo
sveko
sveto
svunto
swako
swaziland
switzerland
swunto
system
t
ta
tagaripen
tai
taikon
taiwan
tajikistan
talcahuano
taluka
talukdar
tamil
tamilikani
tana
tane
tani
tano
tanzania
tar
tarnovo
taro
tastatura
tata
tatarurya
tawil
tay
te
team
teapta
tefan
tegani
tehsil
tehsildar
teksto
telal
telaryola
telaryona
tele
telecommunications
telefonoske
telefonosko
telephone
televiziune
telugu
telyarden
telyaripe
tempel
teritoriyo
teritorurya
teritoryo
termenul
terne
terno
territories
territory
th
thagar
thagaripen
thagaripnasko
thai
thailand
thaj
than
thana
thanesko
thanimata
thanipen
that
thay
the
their
them
thema
themende
themenge
themengo
themeske
themeski
themesko
themutne
themutno
thera
therela
therena
they
this
thodino
thol
thomas
thovena
three
thule
thulo
thumb
ti
tiam
tibetani
tignestar
tikne
tikneder
tikno
tiknyaripe
time
timp
timpul
tin
tipurya
tiro
titlo
tld
to
toata
toate
tobago
togo
tokyo
tome
tonga
tony
top
torii
toronto
tot
tour
tr
tra
trachikani
tradino
traiin
traio
trajo
transilvaniya
transnistria
transporen
tratato
tre
trebuie
trebul
trebulas
trezes
trezesc
triburya
trin
trinidad
trinto
tristan
trito
tritonai
tro
trollman
trollmann
trump
trushul
truyal
truyarel
truyaren
ts
tu
tua
tuam
tulu
tumen
turi
turkey
turkija
turkikanes
turkikani
turkish
turkiske
turkiya
turkiyake
turkmenistan
turko
tut
tuum
tuvalu
tv
two
ty
tyatroske
u
uetersen
uganda
ugrikane
uit
ukraina
ukraini
ulavdo
ulavyona
umal
umalenge
umalengo
umalurya
un
una
und
unde
under
ungaricki
ungarikani
ungarikano
ungariya
uni
union
unitary
united
universal
universiteto
university
unui
unul
unum
up
upre
upright
ura
uralikane
urdu
urnell
ursari
uruguay
us
usa
used
ut
uto
uttar
uz
uzalutne
uzalutno
uzbekistan
uŋ
v
va
vai
vakar
vakara
vakarela
vakarelpe
vakaren
vakarena
vakarindoy
vakaripa
vakaripe
vakaripya
vakarolpe
vakaryem
vakaryola
vakti
vakyarde
vakyaren
vakyarne
vakyarnengo
valaxiya
valery
vali
vallenato
van
vanuatu
var
varas
varekon
varesave
variyanta
vash
vasho
vasile
vatican
vatikan
vaxt
vaxta
vaxteske
vaxtesko
vay
ve
vedia
veliko
venesuela
venezuela
verde
veres
version
verver
ververimata
vestutni
vi
viasta
viat
vida
videshi
vietnam
vikipidiya
viktor
viktoriya
villar
vimaan
vincent
vinya
viram
virgin
virtual
vitsa
viv
vizheliye
vlax
vo
voi
voiku
voj
vokaleya
vokali
vokalya
vol
von
vor
vorba
vorbi
vov
voy
voyevodato
vriama
vunivar
vurdon
vya
w
wade
wales
was
washington
web
website
were
west
where
which
white
who
wiki
with
within
witt
wo
woi
won
world
www
x
xaben
xakaya
xalyarimata
xamome
xamomi
xanro
xantsi
xapen
xarnes
xatyaripen
xix
xoakin
xoraxane
xulavipen
xulayarde
xulayardo
xulyaripen
xulyaripnaske
xulyaripnasko
xviii
xx
xxx
y
yag
yalta
yama
yanko
yanosh
yanuara
yaroka
yasheske
yashi
yaver
yavre
ye
year
yek
yeke
yekh
yekhe
yekhipe
yekhto
yekipen
yekipnaske
yekipnasko
yekto
yekvar
yelenikani
yelenistan
yemen
yer
yere
yeri
yerosalem
yesu
yet
yon
yonesko
york
you
yt
yugoslavia
yuliyo
z
za
zakono
zakonuria
zanya
zaro
zealand
zeleno
zero
zhal
zhanen
zhene
zhi
zhiduvuria
zhudetso
zhukel
zi
zigeuner
zile
ziua
znachil
zone
zor
zorale
zorali
zoralo
zurales
zvan
zvonko
{
|
}
~
¡
£
«
²
º
»
×
ɛ
ʲ
ʿ
ˈ
ˌ
̀
́
̂
̃
̄
̆
̇
̈
̊
̋
̌
̔
̦
̧
̨
͂
α
β
η
θ
ν
в
ж
и
к
късмет
я
ַ
ּ
ה
י
ת
المسجد
ة
ّ
ٔ
ं
ः
आ
इ
ओ
क
ख
ग
घ
ज
ट
ड
ढ
त
द
ध
न
प
पत
ब
भ
म
य
र
ल
व
श
ष
स
ह
़
ा
ि
ी
ु
ू
े
ो
्
খ
ল
া
ਗ
ਦ
ਮ
ਾ
ਿ
ં
ગ
દ
ધ
મ
સ
ા
ી
ો
க
த
ந
ம
ஸ
ா
ீ
ு
ே
்
ం
గ
చ
ద
ధ
మ
స
ా
ీ
ో
్
ಂ
ಗ
ಚ
ದ
ಧ
ಮ
ಸ
ಾ
ಿ
ೂ
ೆ
್
ೕ
‎
‏
–
—
‘
’
“
”
„
†
•
…
↔
↷
③
④
⑦
☉
☾
☿
♀
♂
♃
♄
♆
♇
⛢
⯓
⺀
⺄
⺆
⺈
⺊
⺌
⺕
⺝
⺸
⺼
⿰
⿱
⿲
⿳
⿴
⿵
⿶
⿷
⿸
⿹
⿺
⿻
〢
゙
ク
コ
タ
ト
モ
ユ
ワ
ン
ー
㇁
㇂
㇄
㇇
㇈
㇉
㇓
㐁
㐄
㐅
㐌
㐫
㐬
㐭
㐮
㐱
㑒
㒵
㒸
㒼
㓁
㓞
㔾
㕛
㕣
㖾
㘝
㚅
㚇
㚔
㚘
㝉
㝡
㝴
㝵
㞋
㞢
㞷
㠩
㠭
㠯
㡀
㡭
㡿
㢲
㢴
㣇
㣺
㥯
㪅
㫄
㫐
㫒
㫺
㬅
㬎
㬥
㬰
㲋
㳄
㷠
㸒
㸚
㸦
㼌
㼲
㽞
㿟
䀠
䂞
䍃
䏍
䒑
䖍
䖒
䖝
䖵
䙴
䚻
䜌
䝿
䡛
䧹
䪞
一
丁
丂
七
丄
丅
丆
万
丈
三
上
下
丌
不
与
丏
丐
丑
专
且
丕
世
丘
丙
业
东
丞
丢
丣
两
严
並
丨
丩
个
丫
丬
中
丮
丰
丱
串
丵
丶
丷
丸
丹
为
主
丽
丿
乀
乂
乃
久
乆
乇
么
义
之
乌
乍
乎
乏
乐
乑
乔
乖
乗
乘
乙
乚
乛
乜
九
乞
也
习
乡
乳
乾
亀
亅
了
亇
予
争
事
二
亍
于
亏
亐
云
互
亓
五
井
亘
亚
亜
亞
亟
亠
亡
亢
交
亥
亦
产
亨
亩
享
京
亭
亮
亯
亰
亲
亳
亶
亷
人
亻
亼
亾
仁
今
介
仌
从
仐
仑
仒
仓
仕
他
付
仝
代
令
以
任
企
伊
伏
伐
休
会
伯
但
位
何
佘
余
作
佥
使
來
侈
侌
侖
侯
侵
便
保
俞
信
修
倉
倍
候
倠
備
僉
僕
儿
兀
允
兂
元
兄
充
兆
兇
先
光
兊
克
兌
免
兑
兒
兓
兔
党
兜
兟
入
全
兩
兪
八
公
六
兮
兰
共
关
兵
其
具
典
兹
兼
冀
冂
冃
冄
内
冈
冉
冊
冋
册
再
冎
冏
冐
冒
冓
冖
冗
冘
军
农
冝
冡
冥
冫
冬
冷
几
凡
凢
凵
凶
凷
凸
凹
出
函
凾
刀
刁
刂
刃
刄
刅
分
切
刍
刑
刕
刖
列
刘
则
初
別
利
别
到
制
刺
則
削
剌
前
剡
剽
劉
力
功
加
劦
助
劫
劳
劵
勃
勇
勉
勒
動
務
勞
勤
勹
勺
勻
勾
勿
匀
匂
包
匆
匈
匊
匋
匍
匕
化
北
匚
匝
匡
匪
匱
匸
匹
区
医
匽
匿
區
十
卂
千
卄
卅
卆
升
午
卉
半
卌
华
卑
卒
卓
单
卖
南
卜
卝
卞
占
卡
卢
卣
卤
卦
卩
卪
卬
卯
印
危
即
却
卵
卷
卸
卻
厂
厃
厄
历
厈
厉
厌
厓
厘
厚
原
厤
厥
厨
厭
厲
厶
厷
厸
去
厼
厽
叀
参
參
叅
又
叉
及
友
双
反
叐
发
叒
叔
叕
取
受
叚
叜
叟
口
古
句
另
叩
只
召
可
台
叱
史
右
叵
号
司
叹
吂
各
吅
合
吉
吊
吋
同
名
后
吏
向
吕
君
吝
吞
否
含
启
吳
吴
吹
吾
呂
呆
呈
告
员
呙
周
命
咅
和
咎
咠
咢
咨
咸
咼
哀
品
哉
員
哥
哲
唐
商
啇
問
啚
啬
啻
善
喜
喬
單
喿
嗇
噩
嚴
囊
囗
囘
囙
囚
四
回
囟
因
囧
囬
困
囱
囷
固
国
圂
圅
國
圍
園
圓
土
圡
圣
圥
在
圭
地
圶
圼
坐
坒
坚
坴
垂
垔
垚
埀
埋
埶
執
基
堂
堅
堆
堇
堯
塞
墨
壘
士
壬
壯
声
壳
壴
壹
壺
壽
夂
处
夅
夆
备
夊
夋
夌
复
夏
夒
夕
外
夗
夘
多
夜
夢
大
夨
天
太
夫
夬
夭
央
失
夲
头
夷
夸
夹
夻
夾
奂
奄
奇
奈
奉
奎
奏
奐
契
奓
奔
奚
奞
奠
奢
奥
奭
女
奴
奻
好
如
妄
妙
妟
妥
妻
妾
姑
委
姜
威
娄
婁
婴
嬰
嬴
子
孑
孔
孕
孖
字
存
孚
孛
孝
孟
季
孤
学
孫
孱
學
宀
宁
宂
它
宅
宇
守
安
宋
完
宏
宓
宗
官
定
宛
宜
宝
客
宣
室
宮
宰
害
家
容
宾
宿
寄
寅
密
富
寒
察
寧
審
寫
寬
寮
寸
对
寺
寻
寽
対
寿
封
尃
射
将
將
專
尉
尊
尋
尌
對
小
少
尒
尓
尔
尖
尗
尚
尞
尢
尣
尤
尧
尨
尭
就
尸
尹
尺
尻
尼
尽
尾
尿
局
居
屈
屋
屎
屏
屑
展
屖
屚
属
屠
屡
屬
屮
屯
屰
山
屵
屾
岁
岂
岑
岡
岩
岳
岸
峯
島
崇
崑
崔
崖
崙
崩
嵬
嶲
巂
巛
川
州
巟
巠
巢
巤
工
左
巧
巨
巩
巫
差
己
已
巳
巴
巷
巸
巽
巾
巿
帀
市
布
希
帚
帛
帝
带
師
席
帶
常
干
平
年
幵
并
幷
幸
幺
幻
幼
幽
幾
广
広
庄
床
底
店
庚
府
度
庫
庭
庶
康
庸
廉
廌
廛
廣
廩
廴
延
廷
建
廾
廿
开
弁
弃
弄
弇
弋
式
弓
弔
引
弗
弘
弜
弟
弥
弦
弱
張
強
强
彊
彌
彎
彐
彑
当
彔
录
彖
彗
彡
形
彥
彦
彧
彭
彳
役
彼
往
待
律
徒
得
徙
從
復
微
徵
心
忄
必
忌
忍
志
忝
忠
忩
快
念
忽
忿
思
怠
急
怱
恆
恒
恩
恭
息
悉
患
悤
悲
悶
惠
惡
惢
愁
愈
意
愛
感
慈
慧
慮
憂
憲
應
戀
戈
戉
戊
戋
戌
戍
戎
成
我
戒
戔
或
戚
戠
戢
截
戲
戶
户
戹
戼
戾
房
所
扁
扇
手
扌
才
打
托
执
承
折
拉
拜
拿
掌
推
提
摩
支
攴
攵
收
攸
改
放
政
敄
敏
敕
敖
敗
敝
敞
敢
散
敦
敫
敬
数
敷
數
斂
文
斉
斊
斗
斤
斥
斩
斬
斯
新
方
於
施
斿
旁
旋
族
无
旡
既
旣
日
旦
旧
旨
早
旬
旱
旲
时
旾
昆
昇
昌
昍
明
昏
易
昔
昗
昜
星
春
昬
是
昱
昴
昷
時
晃
晋
晏
普
景
晶
智
暑
暴
曇
曩
曰
曲
曳
更
曷
書
曹
曼
曾
替
最
朁
會
月
有
朋
服
朔
朕
朗
望
朝
木
朩
未
末
本
札
朮
术
朱
朵
朶
朿
杀
杏
杜
束
条
来
東
杲
杳
松
析
林
枚
果
枝
枲
枼
某
柔
查
柬
柰
柴
栗
桀
桑
桼
梁
條
梟
梨
棘
棠
棥
森
楚
業
楽
榮
樂
樊
欠
次
欣
欮
欲
欶
欽
款
歆
歇
歛
止
正
此
步
武
歨
歪
歮
歯
歰
歲
歴
歷
歸
歹
歺
死
殳
段
殷
殸
殹
殺
殻
殿
毋
毌
母
每
毒
比
毕
毚
毛
毳
氏
氐
民
气
氣
水
氵
氶
氷
永
氺
氾
求
汝
汞
江
沃
沓
沙
沝
泉
法
波
泣
泥
泰
洛
洪
活
派
流
浦
浪
浮
淡
淮
清
渚
渠
湯
滿
漸
火
灬
灭
灰
灵
灷
炅
炎
炏
炗
炙
炭
為
烈
烏
烝
焉
無
焦
焱
然
煞
熊
熏
燕
營
燮
爪
爫
爭
爯
爰
爱
爲
爵
父
爻
爽
爾
爿
片
牙
牚
牛
牜
牟
牢
牧
牪
牽
犀
犬
犭
犮
狂
狄
狊
独
狺
猋
猒
猪
献
獻
玄
率
玉
王
玟
玨
珎
班
琴
瑟
瑩
瓜
瓦
甘
甚
生
産
用
甫
甬
田
由
甲
申
电
甶
男
甸
甹
画
甾
畀
界
畏
畐
留
畜
畟
畢
畧
畨
番
畫
異
畱
當
畺
畾
疊
疋
疌
疑
疒
疾
癶
癸
癹
登
發
白
百
皀
皃
的
皆
皇
皋
皐
皕
皮
皷
皿
盃
盆
盇
盈
益
盍
盎
监
盒
盖
盛
盡
監
盤
盧
目
直
相
盾
省
眇
眉
看
眔
眞
真
眷
眼
眾
着
睘
睪
睿
瞏
瞢
瞿
矍
矛
矞
矢
矣
知
矦
短
石
破
碎
磊
磨
示
礻
礼
祟
票
祭
禀
禁
禸
禹
禺
离
禽
禾
禿
秀
秃
秉
秋
科
秝
秦
移
稟
穀
穌
穴
究
穹
空
穿
突
窄
窒
立
竒
竜
竝
竟
章
童
竹
笑
笠
筆
等
答
箕
算
箴
節
篤
篭
米
粉
粛
粟
粤
粦
粲
糞
糸
糹
系
約
納
素
索
紫
累
細
絜
絫
絲
維
綿
縣
繇
纍
纟
缶
网
罒
罔
罕
罗
罙
罡
罢
罪
署
罷
羅
羊
羌
羍
美
羔
羕
羗
羞
羡
羣
群
義
羲
羸
羽
翁
翏
習
翕
翟
翠
翼
老
耂
考
者
耆
而
耎
耑
耒
耳
耴
耶
耷
聂
聊
聖
聚
聶
聿
肀
肃
肅
肉
肖
肙
肥
肩
肯
育
肴
胃
背
胡
胥
能
脊
脩
膚
臣
臤
臧
自
臬
臭
臯
臱
至
致
臺
臼
臽
臾
臿
舀
舂
舄
與
興
舉
舌
舍
舛
舜
舞
舟
般
艮
良
色
艸
艹
艾
芒
芔
芬
芮
花
芳
芺
芻
苔
苗
苟
若
苦
英
茶
茸
荅
草
荒
荣
荼
莆
莧
莫
莽
菆
菊
菐
華
萬
落
葉
著
葛
董
葵
蒙
蒦
蒼
蓋
蓬
蓺
蔑
蔡
蕉
蕭
薄
薛
薦
薰
藍
藏
藥
蘭
虍
虎
虐
虒
虔
處
虖
虗
虘
虚
虛
虜
虞
虫
虽
蚤
蚩
蜀
蜜
蟲
蠡
血
行
衍
衛
衣
衤
表
衮
衰
袁
袞
褭
褱
襄
襾
西
覀
要
覃
見
規
覓
覧
親
覽
见
角
解
言
訁
訇
計
詹
誩
諸
讠
谷
豆
豈
豊
豐
豕
豖
豙
象
豦
豩
豪
豸
貇
貝
貞
貟
負
貢
貧
貪
貫
責
貳
貴
買
費
賁
資
賈
賏
賓
賔
賛
賞
賢
賣
質
賴
贊
贝
贡
责
贯
贲
贵
赖
赞
赤
赦
走
越
足
路
蹇
身
躬
車
軍
軎
軟
輦
车
辛
辜
辟
辥
辰
辱
農
辵
辶
边
达
过
近
连
迷
追
退
送
逆
逐
通
速
造
逢
連
逮
進
遀
遂
過
道
達
遣
適
遷
遺
邊
邑
邕
那
邦
邪
郎
部
郭
都
鄉
酉
酋
配
酓
釆
采
里
重
野
量
金
釒
錢
钅
長
镸
长
門
閃
閉
開
閏
閑
閒
間
閔
閵
閻
闌
门
间
闷
阑
阜
阝
阿
降
陳
隆
隊
隋
隡
隨
隱
隶
隹
隺
隻
隼
隽
难
雀
雁
集
雈
雋
雍
雐
雔
雙
雚
雜
雝
離
難
雨
雩
雪
雲
零
雷
需
霍
霜
霝
霞
霸
靈
靑
青
非
靡
面
靣
革
韋
韦
韭
韯
韱
音
頁
頃
項
須
頗
頡
頻
顛
页
風
风
飛
飞
食
飠
養
饣
首
香
馬
馮
駦
马
骨
高
髟
鬥
鬯
鬲
鬼
魚
魯
鮮
鱼
鲁
鳥
鳳
鸟
鹵
鹿
麃
麗
麥
麦
麻
黃
黄
黍
黎
黑
黒
黨
黹
黽
黾
鼎
鼓
鼠
鼻
齊
齋
齐
齒
齿
龍
龙
龜
龟
龠
龰
龱
龴
龵
龶
龷
龸
龹
者
艹
？
�
🜨
𠀁
𠀃
𠀆
𠀉
𠀎
𠀐
𠁁
𠁣
𠂆
𠂇
𠂈
𠂉
𠂊
𠂋
𠂎
𠂒
𠂔
𠂛
𠂡
𠂢
𠂤
𠂬
𠂭
𠂹
𠃊
𠃋
𠃌
𠃍
𠃎
𠃑
𠃓
𠃔
𠃜
𠄌
𠄎
𠄠
𠄢
𠆢
𠆥
𠇍
𠈌
𠌵
𠓜
𠔉
𠔥
𠔼
𠔽
𠔿
𠕀
𠕁
𠕋
𠘧
𠘨
𠙻
𠙼
𠚏
𠚒
𠚤
𠚪
𠣏
𠤎
𠤕
𠥓
𠦄
𠦑
𠦝
𠧒
𠧗
𠧪
𠩺
𠪚
𠫓
𠫔
𠫤
𠬛
𠬝
𠬞
𠬢
𠬤
𠬶
𠮛
𠮦
𠮷
𠯑
𠱠
𠳮
𠷎
𡈼
𡉀
𡉵
𡌥
𡍮
𡏳
𡕒
𡕩
𡕰
𡖅
𡗗
𡗜
𡘆
𡘤
𡧱
𡨄
𡩧
𡬠
𡭽
𡰣
𡰥
𡰪
𡰯
𡰱
𡷈
𡸁
𡿨
𡿩
𡿪
𡿺
𢀖
𢀛
𢀩
𢁙
𢆉
𢆰
𢆶
𢇁
𢇇
𢉖
𢌬
𢌿
𢏚
𢑑
𢑚
𢖻
𢙣
𢛳
𢦏
𢦒
𢧵
𢼄
𢾕
𣁋
𣄼
𣅀
𣅽
𣍘
𣎳
𣎵
𣏋
𣏼
𣗥
𣥂
𣥖
𣦵
𣦼
𣧄
𣪊
𣪠
𣬉
𣳾
𣶒
𤇾
𤊽
𤐫
𤓰
𤔔
𤕨
𤣩
𤰇
𤰔
𤰞
𤴓
𤴔
𤽄
𥁑
𥁕
𥃦
𥃩
𥃭
𥇡
𥑟
𥘅
𥘈
𥝢
𥫗
𥱡
𦈢
𦉪
𦉬
𦉼
𦍌
𦍒
𦎧
𦐇
𦓔
𦔮
𦘒
𦙃
𦚏
𦣝
𦣞
𦣻
𦥑
𦥔
𦥯
𦨉
𦭝
𦰩
𧆞
𧈧
𧘇
𧰨
𧴪
𧴮
𧵩
𧾷
𨸏
𨾴
𩙿
𩠐
𩫏
𩵋
𪉷
𪜀
𪟽
𪠲
𪩲
𫇦
𫔭
𫜸
𫝀
𫠣
𫠩
𫢉
𫥞
𫩏
𫩠
𫪡
𫲽
𫶧
𬀷
𬐘
𬗌
𬙙
𬛸
𬜯
𬟩
𬯁
𬴘
𬺻
𬼉
𬼖
𭀰
𭁈
𭁨
𭅰
𭑈
𭕄
𭗼
𭤨
𭥫
𭻾
𮅕
𮊿
𮍌
𮍏
𮓗
𮥼
𮧮
廾
𰀁
𰀄
𰀈
𰀉
𰀕
𰀠
𰀡
𰀢
𰀪
𰁜
𰃮
𰆊
𰆘
𰋙
𰕎
𰢴
𰧭
𰯲
0--
10--
11--
13--
14--
15--
16--
17--
18--
19--
20--
3--
5--
6--
7--
8--
80--
9--
a--
ab--
abkha--
ac--
accor--
ach--
acha--
ad--
admini--
af--
ag--
ai--
aj--
ak--
akade--
akhar--
al--
alde--
alosardy--
am--
amb--
ame--
an--
anat--
ang--
angli--
anglo--
ansuri--
aqho--
ar--
arakh--
arakha--
arau--
arme--
arti--
ary--
as--
ash--
at--
atlan--
au--
auth--
autono--
autori--
av--
avi--
avrut--
avus--
avut--
ax--
ay--
b--
ba--
bak--
bal--
balka--
bar--
be--
bel--
ber--
beze--
bhi--
bi--
bib--
biblio--
bibold--
bidud--
bisan--
bistar--
biy--
bo--
bol--
bole--
bolle--
bos--
br--
bres--
bu--
bucu--
buda--
bulga--
bun--
bur--
but--
butsh--
buxlyari--
c--
ca--
cal--
cali--
cap--
car--
cara--
cast--
ce--
cen--
cer--
ch--
che--
cher--
chi--
chor--
christ--
chu--
ci--
ciu--
cl--
co--
com--
commonwe--
con--
consi--
constan--
cop--
cre--
cu--
cur--
d--
da--
dan--
de--
defi--
dej--
demok--
des--
dev--
di--
dife--
divini--
diy--
do--
dokumen--
dop--
dr--
dra--
du--
dur--
dz--
e--
edi--
ek--
el--
ele--
em--
en--
epi--
er--
ere--
es--
et--
evan--
evro--
ex--
explo--
f--
fa--
fac--
fami--
family--
fan--
far--
farsi--
fi--
fili--
fin--
fo--
fol--
fotog--
fr--
fran--
fri--
fu--
fuen--
fuente--
fut--
g--
ga--
gal--
gand--
gar--
gaz--
ge--
geog--
ger--
gi--
gil--
gin--
glo--
go--
godi--
gody--
gol--
gra--
gre--
grena--
gro--
gu--
h--
ha--
haky--
hal--
haly--
har--
he--
hel--
hi--
him--
ho--
hol--
hot--
hu--
hy--
i--
ii--
il--
im--
in--
ini--
ink--
inst--
institu--
inter--
internaci--
inve--
iri--
is--
it--
iu--
j--
ja--
jam--
jar--
je--
jer--
ji--
jiv--
jor--
ju--
jude--
juk--
jun--
jus--
k--
ka--
kam--
kan--
kar--
kate--
kato--
ke--
kh--
ki--
kider--
kir--
ko--
kol--
kom--
kompy--
kon--
konst--
kor--
kri--
ku--
kut--
ky--
l--
la--
lam--
lar--
lat--
le--
li--
libe--
lil--
lin--
lo--
loc--
lu--
luc--
lulu--
lut--
lux--
m--
ma--
mag--
magya--
mah--
maha--
maj--
mak--
makedo--
makh--
mala--
maladi--
man--
mar--
mas--
matema--
maxi--
may--
me--
meg--
meh--
mek--
melo--
men--
mer--
meta--
mi--
miaz--
micro--
mil--
mili--
min--
miyaz--
mo--
moar--
moldo--
mon--
mor--
moth--
moy--
mu--
mudar--
muk--
mun--
mur--
musul--
muth--
my--
myaz--
n--
na--
nak--
nakh--
nar--
nas--
nd--
ne--
ni--
no--
nort--
nu--
ny--
nz--
o--
oksi--
ol--
on--
opti--
or--
org--
oriyen--
os--
oto--
otto--
ov--
ox--
p--
pa--
pach--
palem--
pan--
par--
parhu--
paru--
pat--
patse--
pax--
pe--
per--
perav--
ph--
pha--
phag--
phar--
phe--
phen--
pher--
phi--
phra--
pi--
pier--
pla--
po--
poli--
popu--
porte--
pra--
pre--
princi--
pro--
prob--
prof--
prog--
prono--
pu--
puq--
pur--
q--
qaq--
qaqika--
qu--
r--
ra--
raj--
rak--
re--
res--
resp--
ri--
rin--
ro--
rodi--
ru--
rumu--
s--
sa--
sac--
sah--
sal--
sanskriti--
sanskrtip--
sch--
se--
sec--
sel--
sem--
ser--
sev--
sh--
sha--
she--
sheli--
shir--
shirdip--
shtandardi--
shu--
shuni--
si--
sik--
sikly--
sim--
sl--
slo--
so--
soci--
soli--
som--
sp--
spi--
srps--
st--
sta--
stu--
su--
sub--
sud--
suf--
sur--
swed--
t--
ta--
tal--
tam--
tar--
tata--
te--
ter--
tex--
th--
than--
tho--
thov--
thu--
ti--
tit--
to--
tor--
tr--
tra--
tre--
tri--
tsin--
tu--
tur--
ty--
u--
uch--
uk--
ukray--
ung--
up--
ur--
uri--
ut--
uy--
uŋ--
v--
va--
vakyar--
vakyari--
val--
var--
vast--
ve--
ven--
ver--
vi--
vil--
vo--
vokal--
vor--
vre--
vu--
w--
wai--
wel--
wil--
wo--
wri--
x--
xasar--
xu--
y--
ya--
yan--
ye--
yehu--
yo--
z--
za--
zam--
zan--
zhido--
zhude--
zhut--
zhuv--
zi--
zim--
zumavi--
--0
--1
--2
--3
--4
--5
--6
--64
--7
--8
--9
--a
--ab
--abad
--ad
--ai
--ak
--aki
--ako
--al
--alno
--aluni
--an
--ana
--anu
--ao
--ape
--ar
--ara
--arde
--ardi
--ardo
--ary
--as
--asa
--ase
--asko
--askro
--aspe
--aste
--at
--ate
--ated
--ation
--au
--av
--ava
--ay
--ayas
--b
--ba
--bar
--be
--berg
--bi
--bo
--bu
--c
--ca
--cal
--ce
--ces
--ch
--che
--ci
--cia
--ciya
--ck
--cko
--co
--cos
--ct
--cu
--d
--da
--de
--di
--dia
--dikani
--dili
--do
--dos
--doy
--du
--dus
--dy
--dz
--e
--ea
--ed
--ef
--ei
--el
--en
--endar
--enge
--engo
--engro
--ensa
--epen
--er
--era
--eri
--ers
--es
--esa
--eske
--eski
--esko
--eskro
--eso
--estar
--et
--eya
--ez
--f
--fi
--fiya
--g
--ga
--ge
--gh
--gi
--go
--gs
--h
--ha
--hala
--he
--ho
--hs
--ht
--i
--ia
--ial
--ic
--ie
--ies
--ig
--ii
--ik
--ika
--ikane
--ikanes
--ikani
--ikano
--iko
--il
--ile
--im
--imata
--imo
--in
--ing
--io
--ipa
--ipe
--ipnaski
--ir
--irs
--is
--iso
--it
--iv
--ix
--iya
--j
--ja
--je
--jiya
--jo
--k
--ka
--kane
--kanes
--kani
--kano
--ke
--ket
--kh
--ki
--kiri
--ko
--koro
--koy
--kro
--l
--la
--land
--laya
--ld
--le
--lem
--len
--li
--lin
--liya
--ll
--lla
--lle
--llo
--lly
--lno
--lo
--lor
--lpe
--ls
--lt
--lta
--lu
--lul
--lum
--lurya
--ly
--lya
--m
--ma
--masko
--mata
--mbo
--me
--ment
--mesko
--meya
--mi
--mir
--mme
--mni
--mo
--mos
--ms
--mya
--n
--na
--nai
--nak
--nam
--nay
--nc
--nca
--nce
--nd
--nda
--ndar
--nde
--ndo
--ndoi
--ndos
--ndoy
--ne
--nel
--nen
--ner
--nes
--ng
--nge
--ngi
--ngo
--ni
--nia
--nikani
--niya
--nk
--no
--ns
--nsa
--nt
--nte
--nto
--ntul
--nturya
--nurya
--nya
--o
--od
--ol
--olpe
--on
--ons
--onurya
--or
--orul
--os
--oske
--oski
--osko
--p
--pa
--pe
--pen
--pt
--q
--que
--r
--ra
--ral
--rd
--rde
--rdo
--re
--rea
--rel
--ren
--res
--rg
--ri
--rindoy
--ris
--rit
--riya
--rn
--rno
--ro
--rs
--rt
--rte
--ru
--rul
--ry
--rya
--s
--sa
--sc
--sche
--se
--sen
--sent
--ses
--sh
--sia
--siya
--ske
--ski
--sko
--skro
--so
--ss
--st
--sta
--star
--sti
--sto
--t
--ta
--tar
--tat
--tate
--te
--tenge
--ter
--tes
--teti
--th
--ti
--tia
--tikane
--tikani
--tiko
--tion
--tiv
--tiya
--tne
--to
--tor
--tori
--tos
--toske
--tri
--ts
--tsiya
--tt
--tul
--tum
--turya
--ty
--tza
--u
--ua
--ue
--ul
--um
--une
--uni
--uno
--urya
--us
--ut
--utni
--utno
--v
--va
--vde
--vdi
--vdo
--vdya
--ve
--vel
--ven
--ver
--vesto
--vestuni
--vi
--vic
--vich
--vipnaske
--vipnaski
--vne
--vno
--vo
--vre
--vurya
--w
--wn
--x
--xt
--y
--ya
--yake
--yaki
--yako
--yal
--yan
--yar
--yarde
--yarindoi
--yas
--yatar
--ye
--yengo
--yo
--yol
--ys
--yu
--z
--za
--ze
--zi
--ziya
--zon
--ŋ
--а
--е
--м
--о
