!
"
#
##0
##1
##10
##11
##12
##13
##14
##15
##16
##17
##18
##19
##2
##20
##21
##22
##23
##24
##25
##26
##27
##28
##29
##3
##30
##31
##32
##33
##34
##35
##36
##37
##38
##39
##4
##40
##41
##42
##43
##44
##45
##46
##47
##48
##49
##5
##50
##51
##52
##53
##54
##55
##56
##57
##58
##59
##6
##60
##61
##62
##63
##64
##65
##66
##67
##68
##69
##7
##70
##71
##72
##73
##74
##75
##76
##77
##78
##79
##8
##80
##81
##82
##83
##84
##85
##86
##87
##88
##89
##9
##90
##91
##92
##93
##94
##95
##96
##97
##98
##99
$
%
&
'
(
)
*
+
,
-
.
/
0
000
01
02
04
05
06
08
1
10
100
11
112
117
12
120
126
13
138
1380
14
1420
1435
1450
1465
1482
15
150
1543
1545
1561
1566
1587
16
1600
161
1614
1615
1622
1624
1626
1631
1636
1661
1665
1669
1670
1673
1674
1680
1685
169
1695
17
1700
1709
1718
1743
1752
1764
1778
1785
1788
1793
18
180
1800
1803
1830
1842
1857
1859
1879
1880
1885
1886
1891
1895
1896
1899
19
1900
1901
1908
1910
1911
1914
1917
192
1920
1924
1925
1929
193
1930
1931
1933
1939
1943
1945
1946
1955
1957
1958
1959
1960
1961
1962
1963
1964
1965
1966
1967
1968
1969
1970
1971
1972
1973
1975
1977
1978
1979
198
1980
1981
1982
1983
1984
1986
1987
1988
1989
1990
1991
1992
1993
1994
1996
1997
1998
1999
2
20
200
2000
2001
2002
2003
2004
2005
2006
2007
2008
2009
2010
2011
2012
2013
2014
2015
2016
2017
2018
2019
2020
2021
2022
2023
21
211
217
218
22
23
238
24
240
244
249
25
250
251
253
26
268
27
270
275
276
28
280
29
290
294
3
30
300
305
306
31
32
337
340
350
36
364
37
380
383
388
4
40
400
407
41
411
421
423
450
455
456
457
461
472
475
476
48
5
50
500
51
54
6
60
600
68
69
7
70
78
79
8
80
81
84
9
90
94
96
98
99
:
;
<
=
>
?
_
`
a
abako
abba
abeba
about
abuja
adis
adoula
afelika
afghanistan
afin
afonso
afrika
afrique
agen
aguila
ain
aires
ais
aisne
ake
aku
al
albania
albi
album
alemanyi
alger
algeria
all
allafrica
allier
alpes
alphonse
alvaro
amelika
america
amerika
amosi
an
ana
anali
and
andre
angola
angoule
anjo
anne
ans
antananarivo
anthu
antoine
antoninus
antonio
anzor
apamwamba
api
arab
arabia
archive
arde
ardennes
argentina
arhentina
arie
armenia
art
asia
asring
assistant
association
associe
at
ata
atlantique
au
aube
aude
audiovisual
august
augustus
aurelius
aussi
australia
autres
autriche
aux
avec
aveyron
awa
awards
ayiti
azerbaidjan
azia
b
ba
babantu
babo
babwala
baden
badi
bafundisi
baganda
bahrain
bahumbu
bahutu
baka
bakala
bakamba
bako
bakomina
bakongo
baku
bakunyi
bala
balabu
balandi
balari
balazavile
balgaria
baluangu
baluba
balukaya
balumbu
baluvila
bamagazini
bamba
bambala
bambangi
bambanza
bambenga
bamboma
bambosi
bambundu
bambuta
bampangi
bampika
bampova
bampovo
bamvula
bana
banana
banda
bandaka
bandambu
bandi
bandibu
bandinga
bandundu
bangala
bangladesh
bangunza
bankaka
bankento
bankundu
bankwa
bansa
bansango
bansangu
bansi
bantandu
banti
bantinu
bantotila
bantu
bantumwa
bantwadisi
banuani
banuni
banyama
banyarwanda
banzo
bapatua
bapolitiki
bapunu
bar
baraza
barcelona
baridi
bas
basansala
basi
basilamu
basolongo
basuku
basundi
baswahili
bateke
bato
batubi
batutsi
bau
bavaria
bavili
bavokali
bavua
bawoyo
bawu
bayaka
bayansi
bayinsi
bayombe
bayuda
bazina
bazulunalo
be
beatles
beijing
belezi
belize
belus
bena
beneswela
bengela
bengo
benguela
benin
beno
berat
berlin
bernard
besi
beti
beto
betu
bhutan
bi
biblia
bibulu
bidimbu
bienfaits
bijoux
bikalulu
bilanga
biloko
bilu
bilumbu
bima
bingaka
binh
biobi
bisa
bisalu
bisau
bisina
bisono
biye
bizabu
bizansia
bizu
bizunga
black
bo
bokilaka
boko
boles
bolivia
boma
bond
bonso
border
bosna
bosnia
bote
botswana
bouches
bouillon
bourg
bracelet
brandenburg
braza
brazil
brazilia
brazza
brazzaville
bremen
bresse
brunei
bu
buala
bubu
buenos
buenza
building
bula
buleva
bulgaria
bumosi
bundu
bunene
burkina
burundi
business
busula
butama
butamaka
butuka
butukaka
bwala
by
c
ca
cabinda
caesar
calvados
cambodia
canis
cantal
cape
capital
cappadocia
car
catedral
categories
category
cathetan
cc
cd
ce
ceeba
celui
center
centrale
centre
ces
cette
cfco
cha
chad
chakra
charente
charge
che
cher
chikwangue
chile
china
cite
citrus
city
clarisse
claude
claudius
climate
co
cobar
com
comme
commons
composition
conakry
concepcio
confiance
congo
constantinus
constantius
contact
contre
corre
corse
courage
court
cremet
creuse
crocidolite
culture
curitiba
cusano
d
da
dalapo
dame
dande
dans
data
date
day
de
deba
demokratiki
deni
denis
densite
des
dhuwur
di
dia
diadumenianus
diaka
diambu
dibanza
dibe
diboko
dibu
dibuku
dibundu
dibungu
dibuta
dictionnaire
didius
die
diesel
dieu
digestion
digunakake
dika
dikanda
dikatukilu
diku
dikulu
dikuti
dilala
dimokalasi
dingala
dinu
diogo
dioso
dipanda
directed
director
ditions
ditu
dizanga
djaul
djazairia
djibuti
do
documentaire
documentary
dolisie
domeni
domesticus
dominika
dondo
dong
dordogne
doubs
dresden
dric
dro
du
duki
durre
dya
dyambu
e
eau
ebimisamaki
ecuador
ed
education
ekwador
ekwatelo
el
elbasan
elle
elsevier
em
emirates
emmanuel
en
enchai
encore
english
entertainment
entrepo
epulo
equity
eritrea
es
esalemaki
esete
espania
essonne
est
estoni
et
ete
ethiopia
etienne
eto
eure
europe
euti
evo
exemple
externe
externes
ezalaki
ezali
ezwaki
f
faire
falansa
falanse
faso
favorise
fe
feature
ferrand
fier
file
film
finlandi
fioti
firenze
fisye
flag
flavius
flec
for
force
forme
foto
fr
frameless
franc
france
francisco
free
frida
friends
from
fufu
fulbert
full
funda
funkin
fuseau
fwa
fwalansa
fyoti
g
gaitana
galba
galement
gallus
gambia
game
gana
gap
garcia
garonne
garten
gatives
gawo
ge
gelesi
george
georgia
germanicus
gers
gevart
gine
ginea
girl
gironde
gisements
gitar
gizenga
gje
gjirokaste
global
go
godet
goma
gombe
gordianus
grammaire
granada
grand
grande
guglielmo
guillaume
gulu
guyana
gwatemala
h
hadrianus
hamburg
hangu
happiness
haut
haute
hautes
he
hebei
helsinki
henrique
herzegovina
hessen
higher
his
histoire
history
holy
honduras
hongrie
horaire
houlihan
house
htmlhttps
http
https
hugo
i
id
ii
iii
ikele
il
ilebo
image
in
ina
inali
inauguracion
incarnam
india
indicatif
indonesia
indre
inflexion
infos
institut
institution
international
inza
ipa
iprage
iran
iraq
is
isbn
ise
israel
israele
issu
italia
itiopia
iv
ivoire
iya
j
jae
jah
jamaika
janeiro
japan
jaune
je
jean
jehovah
jerusalem
joa
joachim
john
jones
jordani
jose
joseph
journal
jpg
juillet
julianus
julius
july
june
jura
justice
k
ka
kabila
kabinda
kabu
kabukaka
kahlo
kaka
kakongo
kala
kalasi
kalati
kale
kalunga
kamerun
kamina
kana
kanada
kananga
kanda
kansi
kanza
kap
kapoti
karate
karibe
karl
kasa
kasayi
kasi
katanga
katar
kathedrale
kathmandu
kati
katolika
katuka
katukaka
kaye
kazakhstan
ke
kele
kena
kenge
kengo
kenya
ki
kia
kialemani
kibaha
kibakala
kibangu
kibantu
kibende
kibeni
kibubu
kibuka
kibulu
kickstarter
kidimbu
kieleka
kifalanse
kifarsi
kifulu
kifwalansa
kihindi
kikalulu
kiko
kikongo
kikwa
kikwit
kila
kilabu
kilatini
kilima
kiluba
kilumbu
kima
kimbangu
kimbundu
kimenina
kimfumu
kimfunu
kimpa
kimpeve
kimpuanza
kimputuki
kimputulukesi
kimpwanza
kimuntu
kimvuka
kingala
kingelezi
kingelezo
kingenga
kingunza
kinkisi
kinkulu
kinsasa
kinshasa
kinsinsya
kintandu
kintinu
kinyarwanda
kinzabu
kiowa
kirgizstan
kisadilu
kisalu
kisangani
kisantu
kisika
kisikongo
kisilamu
kisina
kispanya
kiswahili
kiswedi
kitadi
kiteni
kiti
kitini
kitoko
kitsunkwo
kitu
kituba
kitupi
kitutu
kiunsita
kivili
kivu
kivumu
kiwoyo
kixhosa
kiyesu
kiyombe
kizabu
kizu
kizulu
kizunga
km
ko
kodivua
kodivwa
koko
kole
kolombia
koloni
komanso
komina
komine
komoro
komune
konde
kondi
kongo
konso
konsone
kontina
korc
korea
korinto
kosta
ku
kua
kuando
kuanza
kuba
kubango
kubuta
kuchokera
kudya
kufua
kufwaka
kuilu
kuke
kukonda
kukula
kukwenda
kula
kulonga
kulumbimbi
kuluta
kuma
kumaka
kumbi
kumi
kuna
kunata
kuntwala
kunwana
kuopio
kupona
kusala
kusonika
kutanga
kuteka
kuti
kutuba
kutunga
kuvanda
kuvete
kuvwanda
kuwait
kuwakana
kuyimba
kuzaba
kuzenga
kuzinga
kuzola
kwa
kwanga
kwango
kwenda
kwendaka
kwilu
kwiza
kwizaka
kya
kyamvu
kyeleka
kyeto
l
la
lachisanu
lafrique
laga
lagu
lake
lan
land
landaka
landes
lando
langi
language
languages
lanka
laos
las
lasimorpha
laurent
le
leaf
leaves
lebanon
left
legend
lekumu
lenda
lendo
length
leone
les
lesotho
leta
leur
leurs
lezhe
liberia
libia
libor
liechtenstein
lien
liens
lietuva
likasi
likwala
liloba
lima
linegrey
lingala
lingomba
lisuba
lithothe
live
lix
lo
loir
loire
loiret
lokey
lomami
lomwe
londe
longo
longuka
lordi
los
lot
loze
lp
lu
lua
luanda
luangu
lubantiku
lubomo
lubumbashi
lucius
luemba
luena
luka
lukalu
luke
lukeni
lukolo
lukula
lukumu
lukwikilu
lumingu
lumonso
lumumba
lunda
lunene
lunuanu
lusansu
luta
luyalu
luyalumunu
luyantiku
luzingu
luzolo
lwa
lwanda
lwangu
lydnevi
m
ma
mabele
maboko
mabu
mabuku
made
madidi
madingu
madya
mafuta
magazine
magaziniyi
magribia
maine
mais
maj
maka
makambo
makanda
makaya
makelekele
makoso
maku
makumi
maladi
malagasi
malala
malanzi
malawi
malaysia
maldives
male
malebo
mali
malonda
malongi
malta
malu
maluangu
mama
mambu
mana
manche
mandioko
mandyoko
manima
manioc
manuel
map
mapa
mapapu
maphunziro
mapi
maplandia
maponama
march
marche
marconi
marcus
maria
marien
maritime
maritimes
mariya
market
marko
marne
maroko
mars
masa
masamba
masanjidwe
masewera
masewerawa
masi
maswa
matadi
matamba
matayi
mate
matt
matu
mau
mauretania
mauritius
mauvais
mauvignier
mawa
maximus
mayele
mayenne
mayi
mays
maza
mazabu
mazita
mba
mbaka
mbala
mbanda
mbandu
mbanza
mbata
mbe
mbele
mbi
mbisi
mbizi
mbo
mboma
mbongo
mbote
mboti
mbu
mbuji
mbuku
mbula
mbuma
mbuta
mbwa
mbwila
me
media
medium
meksiko
member
mena
merkure
mes
mexico
mfinda
mfumu
mfunu
mgwirizano
mi
mia
mika
mikanda
milio
minani
mindele
minduki
mine
mingi
minoko
misa
misiku
misioni
misiri
miti
mitindu
mitiu
mitte
miyimbu
mkembo
mo
mobimba
mobutu
mocratique
modern
mokili
moko
mombongo
monde
mongala
mongolia
mono
mont
monte
montsoreau
moritania
morrison
mosala
mose
moselle
mosi
moto
moyen
mpa
mpaka
mpamba
mpanzu
mpasi
mpe
mpeve
mphotho
mpi
mpila
mpili
mpo
mposo
mpovo
mpunda
mputu
mputucategory
mputuki
mputulukezo
mu
mua
muamba
muanda
mubu
mue
mukanda
mukidi
mukoko
mukuku
mulumba
muna
munisipio
munoko
muntu
munu
munukutuba
mupelo
mupolitiki
muritania
musambiki
musi
musical
musiku
mustang
mutako
muti
mutindu
muvimba
muyimbi
muyimbu
muzika
muziki
mvemba
mvimba
mvita
mvizi
mvu
mvula
mvumba
mvumbe
mvutu
mwa
mwamba
mwana
mwanda
mwe
mwela
mwene
mweta
my
mya
myanmar
n
na
naku
nam
nama
name
namibia
nana
nanasi
nang
nanga
nanjing
nantes
naruhito
nataka
national
ncipe
nda
ndakisa
ndambu
nde
ndeke
ndenge
ndi
ndilu
ndimbola
ndindi
ndinga
ndipo
ndo
ndombe
ndongo
ndu
ndunda
ne
negro
nene
nepal
nergie
nergies
nerva
net
neti
network
new
newgrounds
news
ng
nga
ngabu
nganda
ngandu
nganga
ngange
nganti
ngati
ngazi
nge
ngele
ngemba
ngeso
ngeye
ngi
ngindu
ngo
ngogo
ngola
ngolo
ngonda
ngu
nguabi
ngulu
ngungu
ngunza
nguza
ngwisani
nha
ni
niari
niccolo
nie
niger
nigeria
night
nijer
nikaragwa
nilo
nima
nimi
nini
nitoni
nitu
nixon
nizeria
nk
nkaka
nkama
nkanda
nkanga
nkangu
nkayi
nke
nkento
nko
nkombo
nkosi
nku
nkubu
nkufi
nkulu
nkumbi
nkumbu
nkunga
nkuwu
nkwezo
nlongi
no
node
nodi
noio
noire
noki
nombo
nord
norge
north
norway
notes
notre
nous
novo
nsa
nsadisa
nsaka
nsambuadi
nsambwadi
nsangu
nse
nseke
nsemi
nsi
nsimba
nso
nsuka
nta
ntalu
ntama
ntamba
ntambo
ntango
ntangu
ntchito
ntekolo
ntela
ntete
nti
ntinta
ntinu
ntivila
nto
ntomosono
ntotila
ntoto
ntu
ntuadisi
ntuala
ntumba
ntumua
ntumwa
ntwadisi
ntwala
nu
nueva
numelo
nungaka
nus
nusamu
nwale
nwana
nyama
nyoka
nyonso
nyosi
nza
nzadi
nzambi
nzau
nzela
nzenze
nzeto
nzila
nzinga
nzita
nzo
nzoko
nzyetolo
o
oeil
of
official
officiel
ogowe
ois
oise
okutobala
omwe
on
ondura
one
ont
opango
ophunzira
opoldville
or
org
orne
ou
ouest
out
owando
oyo
p
pa
pages
pakistan
palais
palaki
palestine
paling
panama
pandunia
par
paragway
paramore
paris
pas
pascal
patua
paul
paulo
pays
pe
pedro
pelezida
pembeni
pendant
pendentif
pene
people
permet
pertinax
peru
pesa
pesaka
petelo
petersburg
petolo
peut
phaseolus
phil
philippines
phonique
piblisite
pierre
pierres
pili
pius
placer
placide
plan
plateaux
plaza
please
plexus
plus
png
po
pointe
poitiers
politiki
pologne
polonia
pool
pop
port
portail
portal
porte
porter
porto
portugal
poto
potsdam
pour
pouvez
pre
prendre
pres
president
press
pri
prime
private
proble
producer
proprie
prote
protection
protectrice
province
psv
puati
publique
publius
puissance
puissante
purification
puy
pwente
px
pyre
q
qu
que
qui
quilibre
r
radio
rafael
rage
ral
rammstein
rang
rangi
rankings
rapie
rault
rdc
re
recharger
rement
rences
repubilika
republic
republika
retrieved
rhead
rhin
rho
rieux
right
rika
rio
rituel
river
rkd
rn
ro
road
rock
roma
rose
roubaix
royaume
rttemberg
ru
rusia
rwanda
s
sa
sabala
sadila
sadisa
safar
safari
sahara
saint
saka
sala
salaka
salama
salu
salvador
sambanu
sambu
sambwadi
samu
samuele
sanduku
sanga
sankuru
santu
sanza
sarthe
sasu
saturne
saudi
savoie
savorgnan
sayi
school
se
see
seko
senangale
senar
senegalensis
seoul
september
septimius
serebro
ses
sese
severus
seychell
shanghai
shenyang
shift
shijiazhuang
shkode
short
si
sida
sident
sierra
sika
sikisiki
sil
simba
simoni
simu
sina
sing
singapore
singer
siprage
sire
sista
site
sizo
so
society
soi
soka
solaire
solanum
soleil
somalia
somme
son
sonikaka
soria
sous
south
souvent
soyo
sozo
spirituel
spirituelle
sri
st
standar
stanford
state
states
stories
studio
studyportals
su
sud
sudan
sude
sudi
sudia
suedi
suicide
suisi
suka
sumbula
sung
supefisi
sur
svg
sw
swati
syria
sztemon
t
ta
tait
taiyuan
tajikistan
tala
talcahuano
tampere
tanganyika
tangu
tanu
tanzania
tarn
tarnovo
tasadi
tat
tata
tati
tats
tatu
tau
taylor
te
teheran
temps
territoire
tes
tesalonika
teta
text
thailand
that
the
then
theodosius
thierry
thing
thomas
thumb
thumbnail
ti
tiago
tianjin
tiberius
tienne
tigre
tila
till
times
timor
timoteo
tirana
titus
to
togo
toma
tomabi
tome
ton
tosa
total
toto
tours
tout
toutes
tower
tpg
traduit
trage
traianus
trang
transition
tre
tshikapa
tshiluba
tshisekedi
tsiowa
tsl
tu
tua
tuba
tubaka
tubamaka
tuberosum
tuka
tuku
tula
tulama
tunga
tungaka
tuning
tunis
tunisia
turki
turkmenistan
u
ubangi
ubuntu
uga
uganda
ui
uk
umosi
un
une
uni
unis
united
universite
university
upright
uranus
url
urugway
usa
usiku
utc
uvua
uvwa
uwele
uzbekistan
v
va
valentinianus
value
vana
vanda
vandaka
var
vatican
vaucluse
ve
veliko
velo
vende
verbe
verde
vertus
verus
vespasianus
vi
video
vienne
vietnam
view
vilnius
vita
vitellius
vivi
vlore
vo
vos
vosges
votre
vous
voyager
vre
vuanda
vuandaka
vubu
vulgaris
vung
vwanda
vwandaka
vyborg
vyetunami
w
wa
wakala
wambu
wantete
wanzio
wapi
watu
we
web
wesete
western
width
wiesbaden
wikipedia
windhoek
wise
with
witnesses
wizi
wo
wolo
world
wu
www
x
xi
y
ya
yai
yaku
yalumuka
yandi
yango
yau
yawu
yayi
ye
year
yearning
yehowa
yemen
yesu
yeto
yhombi
yi
yimbaka
yimpa
yina
yinda
yingo
yinki
yinsi
yinti
yinwa
yinza
yinzo
yiya
yo
yoane
yomwe
yonne
yonso
you
yoy
yozue
yulu
yuni
yunivesite
yves
z
za
zaba
zai
zaire
zambia
zambiri
ze
zea
zi
zimbabwe
zina
zinga
zingaka
zingilaka
zo
zola
zole
zulu
zulunalo
zwinger
{
|
}
~
£
«
°
²
»
×
łobez
œil
ʱ
ʲ
ʾ
ˈ
ː
̀
́
̂
̃
̄
̆
̇
̈
̌
̛
̣
̧
̯
͡
α
б
в
и
о
ّ
ٔ
ٕ
ं
ग
च
त
न
प
भ
म
य
र
ा
ो
ং
ত
দ
ব
র
ল
শ
া
ী
ে
্
‎
–
—
‘
’
“
”
†
•
…
↔
↷
③
④
⑦
☉
☿
♀
♂
♃
♄
♆
⛢
⺀
⺄
⺆
⺈
⺊
⺌
⺕
⺝
⺸
⺼
⿰
⿱
⿲
⿳
⿴
⿵
⿶
⿷
⿸
⿹
⿺
⿻
〢
コ
ユ
㇁
㇂
㇄
㇇
㇈
㇉
㇓
㐁
㐄
㐅
㐌
㐫
㐬
㐭
㐮
㐱
㑒
㒵
㒸
㒼
㓁
㓞
㔾
㕛
㕣
㖾
㘝
㚅
㚇
㚔
㚘
㝉
㝡
㝴
㝵
㞋
㞢
㞷
㠩
㠭
㠯
㡀
㡭
㡿
㢲
㢴
㣇
㣺
㥯
㪅
㫄
㫐
㫒
㫺
㬅
㬎
㬥
㬰
㲋
㳄
㷠
㸒
㸚
㸦
㼌
㼲
㽞
㿟
䀠
䂞
䍃
䏍
䒑
䖍
䖒
䖝
䖵
䙴
䚻
䜌
䝿
䡛
䧹
䪞
一
丁
丂
七
丄
丅
丆
万
丈
三
上
下
丌
不
与
丏
丐
丑
专
且
丕
世
丘
丙
业
东
丞
丢
丣
两
严
並
丨
丩
个
丫
丬
中
丮
丰
丱
串
丵
丶
丷
丸
丹
为
主
丽
丿
乀
乂
乃
久
乆
乇
么
义
之
乌
乍
乎
乏
乐
乑
乔
乖
乗
乘
乙
乚
乛
乜
九
乞
也
习
乡
乳
乾
亀
亅
了
亇
予
争
事
二
亍
于
亏
亐
云
互
亓
五
井
亘
亚
亜
亞
亟
亠
亡
亢
交
亥
亦
产
亨
亩
享
京
亭
亮
亯
亰
亲
亳
亶
亷
人
亻
亼
亾
仁
今
介
仌
从
仐
仑
仒
仓
仕
他
付
仝
代
令
以
任
企
伊
伏
伐
休
会
伯
但
位
何
佘
余
作
佥
使
來
侈
侌
侖
侯
侵
便
保
俞
信
修
倉
倍
候
倠
備
僉
僕
儿
兀
允
兂
元
兄
充
兆
兇
先
光
兊
克
兌
免
兑
兒
兓
兔
党
兜
兟
入
全
兩
兪
八
公
六
兮
兰
共
关
兵
其
具
典
兹
兼
冀
冂
冃
冄
内
冈
冉
冊
冋
册
再
冎
冏
冐
冒
冓
冖
冗
冘
军
农
冝
冡
冥
冫
冬
冷
几
凡
凢
凵
凶
凷
凸
凹
出
函
凾
刀
刁
刂
刃
刄
刅
分
切
刍
刑
刕
刖
列
刘
则
初
別
利
别
到
制
刺
則
削
剌
前
剡
剽
劉
力
功
加
劦
助
劫
劳
劵
勃
勇
勉
勒
動
務
勞
勤
勹
勺
勻
勾
勿
匀
匂
包
匆
匈
匊
匋
匍
匕
化
北
匚
匝
匡
匪
匱
匸
匹
区
医
匽
匿
區
十
卂
千
卄
卅
卆
升
午
卉
半
卌
华
卑
卒
卓
单
卖
南
卜
卝
卞
占
卡
卢
卣
卤
卦
卩
卪
卬
卯
印
危
即
却
卵
卷
卸
卻
厂
厃
厄
历
厈
厉
厌
厓
厘
厚
原
厤
厥
厨
厭
厲
厶
厷
厸
去
厼
厽
叀
参
參
叅
又
叉
及
友
双
反
叐
发
叒
叔
叕
取
受
叚
叜
叟
口
古
句
另
叩
只
召
可
台
叱
史
右
叵
号
司
叹
吂
各
吅
合
吉
吊
吋
同
名
后
吏
向
吕
君
吝
吞
否
含
启
吳
吴
吹
吾
呂
呆
呈
告
员
呙
周
命
咅
和
咎
咠
咢
咨
咸
咼
哀
品
哉
員
哥
哲
唐
商
啇
問
啚
啬
啻
善
喜
喬
單
喿
嗇
噩
嚴
囊
囗
囘
囙
囚
四
回
囟
因
囧
囬
困
囱
囷
固
国
圂
圅
國
圍
圓
土
圡
圣
圥
在
圭
地
圶
圼
坐
坒
坚
坴
垂
垔
垚
埀
埋
埶
執
基
堂
堅
堆
堇
堯
塞
墨
壘
士
壬
壯
声
壳
壴
壹
壺
壽
夂
处
夅
夆
备
夊
夋
夌
复
夏
夒
夕
外
夗
夘
多
夜
夢
大
夨
天
太
夫
夬
夭
央
失
夲
头
夷
夸
夹
夻
夾
奂
奄
奇
奈
奉
奎
奏
奐
契
奓
奔
奚
奞
奠
奢
奥
奭
女
奴
奻
好
如
妄
妙
妟
妥
妻
妾
姑
委
姜
威
娄
婁
婴
嬰
嬴
子
孑
孔
孕
孖
字
存
孚
孛
孝
孟
季
孤
学
孫
孱
學
宀
宁
宂
它
宅
宇
守
安
宋
完
宏
宓
宗
官
定
宛
宜
宝
客
宣
室
宮
宰
害
家
容
宾
宿
寄
寅
密
富
寒
察
寧
審
寫
寬
寮
寸
对
寺
寻
寽
対
寿
封
尃
射
将
將
專
尉
尊
尋
尌
對
小
少
尒
尓
尔
尖
尗
尚
尞
尢
尣
尤
尧
尨
尭
就
尸
尹
尺
尻
尼
尽
尾
尿
局
居
屈
屋
屎
屏
屑
展
屖
屚
属
屠
屡
屬
屮
屯
屰
山
屵
屾
岁
岂
岑
岡
岩
岳
岸
峯
島
崇
崑
崔
崖
崙
崩
嵬
嶲
巂
巛
川
州
巟
巠
巢
巤
工
左
巧
巨
巩
巫
差
己
已
巳
巴
巷
巸
巽
巾
巿
帀
市
布
希
帚
帛
帝
带
師
席
帶
常
干
平
年
幵
并
幷
幸
幺
幻
幼
幽
幾
广
広
庄
床
底
店
庚
府
度
庫
庭
庶
康
庸
廉
廌
廛
廣
廩
廴
延
廷
建
廾
廿
开
弁
弃
弄
弇
弋
式
弓
弔
引
弗
弘
弜
弟
弥
弦
弱
張
強
强
彊
彌
彎
彐
彑
当
彔
录
彖
彗
彡
形
彥
彦
彧
彭
彳
役
彼
往
待
律
徒
得
徙
從
復
微
徵
心
忄
必
忌
忍
志
忝
忠
忩
快
念
忽
忿
思
怠
急
怱
恆
恒
恩
恭
息
悉
患
悤
悲
悶
惠
惡
惢
愁
愈
意
愛
感
慈
慧
慮
憂
憲
應
戀
戈
戉
戊
戋
戌
戍
戎
成
我
戒
戔
或
戚
戠
戢
截
戲
戶
户
戹
戼
戾
房
所
扁
扇
手
扌
才
打
托
执
承
折
拉
拜
拿
掌
推
提
摩
支
攴
攵
收
攸
改
放
政
敄
敏
敕
敖
敗
敝
敞
敢
散
敦
敫
敬
数
敷
數
斂
文
斉
斊
斗
斤
斥
斩
斬
斯
新
方
於
施
斿
旁
旋
族
无
旡
既
旣
日
旦
旧
旨
早
旬
旱
旲
时
旾
昆
昇
昌
昍
明
昏
易
昔
昗
昜
星
春
昬
是
昱
昴
昷
時
晃
晋
晏
普
景
晶
智
暑
暴
曇
曩
曰
曲
曳
更
曷
書
曹
曼
曾
替
最
朁
會
月
有
朋
服
朔
朕
朗
望
朝
木
朩
未
末
本
札
朮
术
朱
朵
朶
朿
杀
杏
杜
束
条
来
東
杲
杳
松
析
林
枚
果
枝
枲
枼
某
柔
查
柬
柰
柴
栗
桀
桑
桼
梁
條
梟
梨
棘
棠
棥
森
楚
業
楽
榮
樂
樊
欠
次
欣
欮
欲
欶
欽
款
歆
歇
歛
止
正
此
步
武
歨
歪
歮
歯
歰
歲
歴
歷
歸
歹
歺
死
殳
段
殷
殸
殹
殺
殻
殿
毋
毌
母
每
毒
比
毕
毚
毛
毳
氏
氐
民
气
氣
水
氵
氶
氷
永
氺
氾
求
汝
汞
江
沃
沓
沙
沝
泉
法
波
泣
泥
泰
洛
洪
活
派
流
浦
浪
浮
淡
淮
清
渚
渠
湯
滿
漸
火
灬
灭
灰
灵
灷
炅
炎
炏
炗
炙
炭
為
烈
烏
烝
焉
無
焦
焱
然
煞
熊
熏
燕
營
燮
爪
爫
爭
爯
爰
爱
爲
爵
父
爻
爽
爾
爿
片
牙
牚
牛
牜
牟
牢
牧
牪
牽
犀
犬
犭
犮
狂
狄
狊
独
狺
猋
猒
猪
献
獻
玄
率
玉
王
玟
玨
珎
班
琴
瑟
瑩
瓜
瓦
甘
甚
生
産
用
甫
甬
田
由
甲
申
电
甶
男
甸
甹
画
甾
畀
界
畏
畐
留
畜
畟
畢
畧
畨
番
畫
異
畱
當
畺
畾
疊
疋
疌
疑
疒
疾
癶
癸
癹
登
發
白
百
皀
皃
的
皆
皇
皋
皐
皕
皮
皷
皿
盃
盆
盇
盈
益
盍
盎
监
盒
盖
盛
盡
監
盤
盧
目
直
相
盾
省
眇
眉
看
眔
眞
真
眷
眼
眾
着
睘
睪
睿
瞏
瞢
瞿
矍
矛
矞
矢
矣
知
矦
短
石
破
碎
磊
磨
示
礻
礼
祟
票
祭
禀
禁
禸
禹
禺
离
禽
禾
禿
秀
秃
秉
秋
科
秝
秦
移
稟
穀
穌
穴
究
穹
空
穿
突
窄
窒
立
竒
竜
竝
竟
章
童
竹
笑
笠
筆
等
答
箕
算
箴
節
篤
篭
米
粉
粛
粟
粤
粦
粲
糞
糸
糹
系
約
納
素
索
紫
累
細
絜
絫
絲
維
綿
縣
繇
纍
纟
缶
网
罒
罔
罕
罗
罙
罡
罢
罪
署
罷
羅
羊
羌
羍
美
羔
羕
羗
羞
羡
羣
群
義
羲
羸
羽
翁
翏
習
翕
翟
翠
翼
老
耂
考
者
耆
而
耎
耑
耒
耳
耴
耶
耷
聂
聊
聖
聚
聶
聿
肀
肃
肅
肉
肖
肙
肥
肩
肯
育
肴
胃
背
胡
胥
能
脊
脩
膚
臣
臤
臧
自
臬
臭
臯
臱
至
致
臺
臼
臽
臾
臿
舀
舂
舄
與
興
舉
舌
舍
舛
舜
舞
舟
般
艮
良
色
艸
艹
艾
芒
芔
芬
芮
花
芳
芺
芻
苔
苗
苟
若
苦
英
茶
茸
荅
草
荒
荣
荼
莆
莧
莫
莽
菆
菊
菐
華
萬
落
葉
著
葛
董
葵
蒙
蒦
蒼
蓋
蓬
蓺
蔑
蔡
蕉
蕭
薄
薛
薦
薰
藍
藏
藥
蘭
虍
虎
虐
虒
虔
處
虖
虗
虘
虚
虛
虜
虞
虫
虽
蚤
蚩
蜀
蜜
蟲
蠡
血
行
衍
衛
衣
衤
表
衮
衰
袁
袞
褭
褱
襄
襾
西
覀
要
覃
見
規
覓
覧
親
覽
见
角
解
言
訁
訇
計
詹
誩
諸
讠
谷
豆
豈
豊
豐
豕
豖
豙
象
豦
豩
豪
豸
貇
貝
貞
貟
負
貢
貧
貪
貫
責
貳
貴
買
費
賁
資
賈
賏
賓
賔
賛
賞
賢
賣
質
賴
贊
贝
贡
责
贯
贲
贵
赖
赞
赤
赦
走
越
足
路
蹇
身
躬
車
軍
軎
軟
輦
车
辛
辜
辟
辥
辰
辱
農
辵
辶
边
达
过
近
连
迷
追
退
送
逆
逐
通
速
造
逢
連
逮
進
遀
遂
過
道
達
遣
適
遷
遺
邊
邑
邕
那
邦
邪
郎
部
郭
都
鄉
酉
酋
配
酓
釆
采
里
重
野
量
金
釒
錢
钅
長
镸
长
門
閃
閉
開
閏
閑
閒
間
閔
閵
閻
闌
门
间
闷
阑
阜
阝
阿
降
陳
隆
隊
隋
隡
隨
隱
隶
隹
隺
隻
隼
隽
难
雀
雁
集
雈
雋
雍
雐
雔
雙
雚
雜
雝
離
難
雨
雩
雪
雲
零
雷
需
霍
霜
霝
霞
霸
靈
靑
青
非
靡
面
靣
革
韋
韦
韭
韯
韱
音
頁
頃
項
須
頗
頡
頻
顛
页
風
风
飛
飞
食
飠
養
饣
首
香
馬
馮
駦
马
骨
高
髟
鬥
鬯
鬲
鬼
魚
魯
鮮
鱼
鲁
鳥
鳳
鸟
鹵
鹿
麃
麗
麥
麦
麻
黃
黄
黍
黎
黑
黒
黨
黹
黽
黾
鼎
鼓
鼠
鼻
齊
齋
齐
齒
齿
龍
龙
龜
龟
龠
龰
龱
龴
龵
龶
龷
龸
龹
者
艹
？
🜨
𠀁
𠀃
𠀆
𠀉
𠀎
𠀐
𠁁
𠁣
𠂆
𠂇
𠂈
𠂉
𠂊
𠂋
𠂎
𠂒
𠂔
𠂛
𠂡
𠂢
𠂤
𠂬
𠂭
𠂹
𠃊
𠃋
𠃌
𠃍
𠃎
𠃑
𠃓
𠃔
𠃜
𠄌
𠄎
𠄠
𠄢
𠆢
𠆥
𠇍
𠈌
𠌵
𠓜
𠔉
𠔥
𠔼
𠔽
𠔿
𠕀
𠕁
𠕋
𠘧
𠘨
𠙻
𠙼
𠚏
𠚒
𠚤
𠚪
𠣏
𠤎
𠤕
𠥓
𠦄
𠦑
𠦝
𠧒
𠧗
𠧪
𠩺
𠪚
𠫓
𠫔
𠫤
𠬛
𠬝
𠬞
𠬢
𠬤
𠬶
𠮛
𠮦
𠮷
𠯑
𠱠
𠳮
𠷎
𡈼
𡉀
𡉵
𡌥
𡍮
𡏳
𡕒
𡕩
𡕰
𡖅
𡗗
𡗜
𡘆
𡘤
𡧱
𡨄
𡩧
𡬠
𡭽
𡰣
𡰥
𡰪
𡰯
𡰱
𡷈
𡸁
𡿨
𡿩
𡿪
𡿺
𢀖
𢀛
𢀩
𢁙
𢆉
𢆰
𢆶
𢇁
𢇇
𢉖
𢌬
𢌿
𢏚
𢑑
𢑚
𢖻
𢙣
𢛳
𢦏
𢦒
𢧵
𢼄
𢾕
𣁋
𣄼
𣅀
𣅽
𣍘
𣎳
𣎵
𣏋
𣏼
𣗥
𣥂
𣥖
𣦵
𣦼
𣧄
𣪊
𣪠
𣬉
𣳾
𣶒
𤇾
𤊽
𤐫
𤓰
𤔔
𤕨
𤣩
𤰇
𤰔
𤰞
𤴓
𤴔
𤽄
𥁑
𥁕
𥃦
𥃩
𥃭
𥇡
𥑟
𥘅
𥘈
𥝢
𥫗
𥱡
𦈢
𦉪
𦉬
𦉼
𦍌
𦍒
𦎧
𦐇
𦓔
𦔮
𦘒
𦙃
𦚏
𦣝
𦣞
𦣻
𦥑
𦥔
𦥯
𦨉
𦭝
𦰩
𧆞
𧈧
𧘇
𧰨
𧴪
𧴮
𧵩
𧾷
𨸏
𨾴
𩙿
𩠐
𩫏
𩵋
𪉷
𪜀
𪟽
𪠲
𪩲
𫇦
𫔭
𫜸
𫝀
𫠣
𫠩
𫢉
𫥞
𫩏
𫩠
𫪡
𫲽
𫶧
𬀷
𬐘
𬗌
𬙙
𬛸
𬜯
𬟩
𬯁
𬴘
𬺻
𬼉
𬼖
𭀰
𭁈
𭁨
𭅰
𭑈
𭕄
𭗼
𭤨
𭥫
𭻾
𮅕
𮊿
𮍌
𮍏
𮓗
𮥼
𮧮
廾
𰀁
𰀄
𰀈
𰀉
𰀕
𰀠
𰀡
𰀢
𰀪
𰁜
𰃮
𰆊
𰆘
𰋙
𰕎
𰢴
𰧭
𰯲
0--
14--
15--
16--
17--
18--
19--
3--
4--
5--
6--
7--
8--
9--
a--
ab--
abij--
ac--
acti--
ada--
adapa--
ado--
af--
afri--
ag--
al--
ale--
ama--
amb--
an--
ange--
ap--
apa--
ar--
as--
at--
au--
b--
ba--
babe--
bafu--
baka--
bal--
bama--
ban--
basi--
bat--
baza--
be--
beg--
bel--
bi--
bis--
blo--
bo--
bor--
bos--
bra--
bre--
bri--
bu--
bwe--
c--
ca--
ch--
cha--
chroni--
co--
coch--
colo--
com--
con--
cor--
cou--
cre--
cris--
cup--
d--
da--
de--
den--
dha--
di--
dia--
dis--
dist--
do--
domi--
dra--
du--
dy--
e--
edi--
eko--
el--
elo--
en--
eng--
es--
et--
ex--
eze--
f--
fa--
fal--
fala--
fau--
fe--
feder--
fi--
fin--
fr--
fu--
g--
ga--
gabri--
gat--
ge--
gene--
go--
gr--
gre--
gu--
gui--
h--
ha--
har--
harmo--
he--
hel--
herce--
heu--
ho--
hol--
hon--
hu--
i--
ida--
in--
inte--
ir--
is--
j--
ja--
je--
ju--
k--
ka--
kar--
kau--
ke--
ki--
kibe--
kig--
kih--
kika--
kile--
kin--
kisu--
ko--
kon--
kosa--
koya--
ku--
kua--
kub--
kubi--
kubo--
kuka--
kun--
kuya--
kuz--
kwa--
l--
la--
le--
len--
li--
libo--
lil--
lin--
lo--
lole--
lors--
lu--
lug--
m--
ma--
madi--
mag--
maga--
make--
man--
mani--
mar--
mash--
mba--
mbo--
mbu--
mcc--
me--
met--
mf--
mi--
mili--
mis--
mo--
mog--
monte--
mor--
mos--
moti--
mpi--
mpu--
mu--
mua--
mun--
mva--
mvi--
mvu--
my--
n--
na--
nan--
natu--
ndi--
ndo--
ne--
nga--
ngu--
ni--
nia--
nj--
nk--
nka--
nke--
nko--
nle--
no--
nsa--
nsi--
nte--
ntu--
nu--
nya--
nzi--
nzu--
o--
objec--
of--
on--
or--
ori--
os--
osas--
ou--
p--
pa--
pe--
per--
perspec--
peu--
ph--
physi--
pi--
pisi--
pla--
po--
poli--
popple--
pos--
pou--
pr--
pri--
pro--
profi--
pu--
q--
qu--
qui--
quoti--
r--
ra--
ran--
re--
ren--
ret--
ri--
rin--
ro--
rou--
ru--
rus--
s--
sa--
sau--
se--
sec--
sen--
ser--
si--
so--
sof--
sor--
sour--
st--
stras--
stu--
su--
sur--
sy--
t--
ta--
tai--
tal--
tar--
te--
tech--
tel--
ter--
th--
thi--
ti--
to--
tr--
tra--
trava--
tri--
tro--
trou--
tsa--
tsho--
tsi--
tu--
tube--
tur--
u--
uk--
util--
v--
va--
ve--
ver--
vi--
vic--
vo--
voi--
vu--
vuk--
vutu--
w--
wa--
we--
wi--
wiki--
wo--
x--
xi--
ya--
ye--
yel--
yi--
yo--
yu--
z--
za--
ze--
zi--
zo--
đ--
--0
--00
--03
--1
--2
--3
--4
--42
--44
--47
--49
--5
--6
--66
--7
--73
--76
--8
--87
--9
--95
--a
--ad
--ae
--aka
--al
--am
--ama
--an
--ana
--anga
--anu
--anus
--ation
--au
--b
--ba
--be
--bele
--bi
--ble
--bo
--bru
--bu
--c
--ca
--ce
--ch
--ci
--ck
--d
--da
--dae
--de
--der
--di
--do
--du
--dwa
--e
--ed
--el
--ele
--en
--ent
--er
--es
--et
--eur
--eux
--f
--fa
--fera
--fi
--ft
--g
--ga
--ge
--ges
--gi
--go
--gu
--gua
--gue
--h
--ha
--ht
--i
--ia
--ica
--ie
--il
--in
--ine
--ing
--ion
--ir
--ira
--ire
--is
--it
--ita
--ite
--itsa
--ius
--iz
--ja
--ji
--jo
--k
--ka
--ke
--ki
--kisa
--ko
--ku
--l
--la
--lac
--lais
--laka
--ld
--le
--ler
--li
--lia
--lisa
--lisi
--lite
--ll
--lle
--lo
--logie
--lu
--lukesi
--lus
--ly
--m
--ma
--mba
--mble
--me
--ment
--mi
--min
--mo
--modus
--mu
--mune
--n
--na
--naka
--nc
--nce
--nd
--nda
--ne
--ng
--nga
--ngs
--ngu
--ni
--nia
--nja
--nn
--nne
--no
--ns
--nt
--nts
--nu
--num
--nya
--nye
--nyi
--nzi
--o
--oi
--ok
--on
--ons
--ot
--ov
--p
--pa
--pe
--pi
--po
--pu
--r
--ra
--rah
--rama
--rd
--rds
--re
--rea
--rf
--ri
--ria
--rie
--rira
--risa
--rius
--rk
--ro
--ros
--rs
--rt
--ry
--s
--sa
--scus
--se
--ser
--sh
--si
--so
--ss
--st
--ste
--su
--t
--ta
--te
--ted
--ter
--tha
--ti
--tia
--tion
--to
--town
--ts
--tsa
--tsidwa
--tu
--ty
--u
--ue
--ugh
--ul
--um
--ur
--urs
--us
--ux
--v
--va
--ve
--via
--w
--wa
--we
--wi
--wu
--x
--y
--ya
--yi
--yo
--z
--za
--zi
--zo
--zu
--ɔ
