!
"
#
##0
##1
##10
##11
##12
##13
##14
##15
##16
##17
##18
##19
##2
##20
##21
##22
##23
##24
##25
##26
##27
##28
##29
##3
##30
##31
##32
##33
##34
##35
##36
##37
##38
##39
##4
##40
##41
##42
##43
##44
##45
##46
##47
##48
##49
##5
##50
##51
##52
##53
##54
##55
##56
##57
##58
##59
##6
##60
##61
##62
##63
##64
##65
##66
##67
##68
##69
##7
##70
##71
##72
##73
##74
##75
##76
##77
##78
##79
##8
##80
##81
##82
##83
##84
##85
##86
##87
##88
##89
##9
##90
##91
##92
##93
##94
##95
##96
##97
##98
##99
$
%
&
'
(
)
*
+
,
-
.
/
0
00
000
000000
001
002
004000
009
01
012
02
03
04
05
06
07
08
09
1
10
100
1000
10000
101
102
105
108
11
110
11000
113
115
118
119
12
120
1200
12000
123
125
127
128
13
130
1300
13000
135
14
1400
14000
1498
15
150
1500
15000
1501
1502
1510
1526
1540
1542
1543
1560
1565
1580
1582
15919
1597
16
160
1600
16000
1605
1636
1656
1686
17
170
1700
17000
1707
175
1759
1776
1784
1787
1793
1798
18
180
1800
18000
1809
1812
1818
1825
1828
1829
1830
1835
1839
184
1843
1847
1848
1850
1851
1852
1853
1854
1856
1857
1858
1859
1860
1861
1862
1863
1864
1865
1867
1868
1869
1870
1871
1872
1873
1874
1875
1876
1877
1878
1879
1880
1881
1882
1883
1884
1885
1886
1887
1888
1889
1890
1891
1892
1893
1894
1895
1896
1897
1898
1899
19
1900
19000
1901
1902
1903
1904
1905
1906
1907
1908
1909
1910
1911
1912
1913
1914
1915
1916
1917
1918
1919
1920
1921
1922
1923
1924
1925
1926
1927
1928
1929
1930
1931
1932
1933
1934
1935
1936
1937
1938
1939
1940
1941
1942
1943
1944
1945
1946
1947
1948
1949
195
1950
1951
1952
1953
1954
1955
1956
1957
1958
1959
1960
1961
1962
1963
1964
1965
1966
1967
1968
1969
1970
1971
1972
1973
1974
1975
1976
1977
1978
1979
1980
1981
1982
1983
1984
1985
1986
1987
1988
1989
1990
1991
1992
1993
1994
1995
1996
1997
1998
1999
2
20
200
2000
20000
2001
2002
2003
2004
2005
2006
2007
2008
2009
2010
2011
2012
2013
2014
2015
2016
2017
2018
2019
2021
21
2100
21000
22
220
2200
22000
225
23
2300
23000
24
240
2400
25
250
2500
25000
26
2600
27
2700
27000
28
2800
29
2900
3
30
300
3000
30000
31
3100
31000
3166
32
320
3200
33
330
3300
34
3400
35
350
3500
35000
36
360
3600
37
3700
38
3800
39
3900
4
40
400
4000
402
403
41
4100
42
4200
43
4300
44
4400
44000
45
450
4500
46
47
4700
48
4800
49
4900
5
50
500
5000
51
5100
52
53
54
5400
55
550
56
5600
57
5700
58
5800
59
6
60
600
6000
61
62
6200
625
63
6300
639
64
6400
65
650
6500
66
67
68
6800
69
7
70
700
7000
71
72
7200
73
74
75
750
76
77
7700
78
79
8
80
800
8000
80665
81
8100
82
8200
828
83
84
85
86
87
8700
88
89
9
90
900
91
92
93
94
95
96
97
98
99
:
;
<
=
>
?
@
\
^
_
`
a
aa
aaa
aache
aani
aasa
ab
abbr
abbreviation
abc
able
abolim
abort
abortion
about
above
abovestyle
abraham
abreu
abril
abs
absolute
ac
academy
accept
acceptable
accepted
accepts
access
accessdate
accident
according
account
accounts
achary
ache
achea
achem
achi
acho
aclass
acre
acres
across
act
action
actioncompleted
actions
active
actress
acts
actual
actually
ad
adapted
adar
adaran
adaril
adarit
adarun
add
addclass
added
addeventlistener
addfooterlink
adding
addition
additional
addkholl
addnamv
addnamvam
addoption
addportletlink
address
adds
adeus
adhar
adhunik
adi
adil
adim
adinch
adivasi
adj
adjust
adle
adlea
adlem
adli
adlo
admin
administrative
administrator
administrators
admins
adminship
advanced
advertising
ae
aeristtottolan
af
afd
affect
affected
afonso
africa
african
afrika
after
ag
aga
again
against
age
agency
ages
agf
agitation
agnel
agnelo
agney
ago
agost
agostache
agra
agree
agri
agricultural
agta
ahar
ahom
ai
aichea
aid
aidonam
aikolam
aikona
aikotat
aikun
aikunk
ail
aila
ailam
aile
ailea
ailear
aileat
ailem
aileo
aili
ailim
ailo
ailolo
air
ais
aitar
aitara
aitarak
aiz
ajax
ak
aka
akademi
akar
akbar
akh
akhea
akromonn
al
alaxiro
albanian
album
albuquerque
albuquerqueak
aldona
alem
alert
alex
alexander
alfred
ali
alias
aliases
aliaseslist
align
alignment
alive
all
alleluia
allow
allowed
allowing
allows
almeida
almighty
almost
alone
along
alpha
alphabet
already
also
alt
altar
alternate
alternative
although
altnames
alto
alvares
always
am
ambe
ambeachi
ambedem
ambo
ambox
amche
amchea
amcheam
amchem
amchi
amchim
amcho
amen
america
american
americas
ami
amim
amkam
among
amontronn
amos
amount
amplifier
an
ana
anand
anchim
anchor
anchors
ancient
and
andhr
andre
ang
angar
angel
angelus
ani
anic
anik
anikui
anim
animals
anink
anjediva
anjuna
ank
ankddo
anklets
ankvar
ankvari
anni
annotations
anond
anonymous
another
ant
anthony
anto
anton
antonio
antororaxttri
any
anyone
anything
ap
api
apiobj
aple
aplea
apleach
apleak
apleam
aplem
apleo
apli
aplim
aplo
apnna
apnnak
apnnank
apnnem
apostle
apostles
apostrophe
apoun
apovnnem
apparent
appear
appearance
appears
append
appendchild
appendtext
applicable
applied
applies
apply
approach
appropriate
apr
april
apunn
apunnuch
ar
arab
arabia
arabian
arabic
aramaic
arbi
arch
archangel
architectural
archive
archived
archivedate
archives
archiveurl
are
area
areanche
areancho
areas
arecanuts
aren
arg
argnumber
args
argsi
argsk
argument
arguments
aria
aristocracy
arjuna
armar
armenian
arms
army
arogy
arop
arose
around
array
arrow
arso
art
article
articles
articletags
artist
arts
arv
arvil
arxiv
ary
as
asa
asai
asam
asamant
asami
asat
asche
aschi
ascho
ascribed
asgamv
asgamvan
ashe
ashoka
asia
asian
asin
ask
asking
asle
aslear
aslelea
aslem
asleo
asli
aslim
aslo
aslole
aslolea
aslolean
asloleank
aslolem
asloleo
asloli
aslolim
aslolo
ason
asop
asot
asp
aspak
aspautat
aspav
aspavo
aspavtat
aspects
asro
ass
assa
assat
assess
assessment
assigned
assisi
asso
associated
association
assolna
assoti
assume
asta
astale
astalem
astali
astalim
astalo
astana
astanam
astat
astolo
astona
astonach
asum
asun
asunk
at
ata
atam
atanchea
atlantic
atm
atmea
atmean
atmik
atmo
atmosphere
atta
attack
attempt
attempts
attention
atth
atthvea
attr
attribs
attribute
attributes
attribution
au
audd
audio
august
aum
australia
auth
author
authority
authorlink
authormask
authorn
authors
auto
autoblock
autoconfirmed
autofillprop
autofix
automatic
automatically
autoreview
auy
av
available
avaz
avazachem
avazachi
avazacho
ave
avedem
average
avixkar
avoi
avoid
avoik
avoy
award
awards
aware
away
axia
axil
axirvad
ayat
ayil
az
azad
azhad
azpilcueta
azun
b
ba
bab
baba
babtint
back
background
backlinks
bad
bada
bag
baga
bai
bail
bailam
bailank
bailek
bailen
bailo
baim
bakery
bal
bali
bambolim
bamboo
bamonn
ban
banana
band
banda
bandhlolem
bandil
bandla
bandle
bandlem
bandli
bandlo
bandlolem
bandlolo
bandora
bandpant
bandtat
bandun
bandunk
bangalore
bank
bann
bannaule
banned
banner
banners
bap
bapa
bapaichea
bapaichem
bapaik
bapain
bapak
bapan
bappa
baptist
bapui
bapuy
bar
bara
baravea
bardez
bare
barik
barrel
barrels
barreto
base
based
basestyle
basic
basilica
basis
batak
batch
batchdelete
batchoperation
bati
battle
bay
bazaar
bazar
bazarant
bbc
bc
bce
bd
be
beach
beautiful
became
because
become
becomes
been
before
began
begin
beginning
begins
behavior
behind
being
belgaum
beliefs
believe
below
belowstyle
benaulim
beng
bengllur
benin
besanv
best
betalbatim
betim
better
between
bf
bg
bhag
bhagak
bhagant
bhagevont
bhaile
bhailea
bhaileo
bhaillo
bhailo
bhair
bhaji
bhakit
bhangar
bhangor
bhangra
bhar
bharat
bharot
bharotache
bharotachea
bharotachem
bharotachi
bharotacho
bharotak
bharotant
bharotantlea
bharotantlim
bharoti
bhartache
bhartachea
bhartacho
bhartant
bhartantlea
bharti
bhas
bhasabhas
bhaso
bhat
bhatpal
bhatt
bhauna
bhav
bhavak
bhavam
bhavan
bhavart
bhavarth
bhavo
bhaxa
bhaxantor
bhaxe
bhaxechea
bhaxechi
bhaxecho
bhaxek
bhaxen
bhaxent
bhaxentlean
bhaxentlem
bhaxik
bhed
bhere
bhes
bhett
bhettoitat
bhi
bhirant
bhitl
bhito
bhitor
bhitorlea
bho
bhogta
bhogvan
bhoinn
bhokt
bhokti
bholaiki
bhomvddi
bhomvtonni
bhonvddi
bhor
bhoril
bhoron
bhorpur
bhorsonn
bhorta
bhortat
bhorti
bhorun
bhorvanso
bhosm
bhott
bhoutik
bhouxik
bhov
bhoxen
bhugol
bhugolik
bhuk
bhum
bhumika
bhumyvrnnon
bhurge
bhurgeak
bhurgeam
bhurgeank
bhurgem
bhurgeponn
bhurgim
bhurgo
bi
bias
biased
bibcode
bible
bicholim
big
bihar
bikol
billion
bim
bin
binary
bio
biographical
biographies
biography
biorxiv
birth
bis
bishop
bisp
black
blacklist
blank
blanking
blatant
blessed
block
blocked
blocking
blockoptions
blocks
blog
blood
blp
blue
blurb
bo
board
boatman
bob
bodlot
bodlun
bodlunk
bodol
body
bodyclass
bodycontent
bodystyle
bogor
bogtavaddo
bol
bolaiki
bold
boli
boll
bollan
bollgem
bolli
bollixtt
bom
bombay
bond
bondd
bondi
bondkhonnint
bondor
bondram
bongal
bongali
book
bookdata
books
boolean
borabo
borabor
border
bore
borea
boreach
borech
borem
borench
boreo
boreponn
borf
bori
borich
borim
borinch
borkar
born
boro
borobor
boroch
boroil
boroilam
boroile
boroileat
boroilem
boroilim
boroilolem
boroinnar
boroita
borop
boroun
borounk
boroupi
borovp
borovpak
borovpi
bos
bose
bosi
boska
bosla
boslo
bosun
bot
both
bots
bott
botti
bottom
boud
boudhd
box
boxes
boy
bpl
br
brackets
braganc
braganza
brahmin
brahmo
brahmonn
brazil
break
bridal
bride
bridge
brief
britain
british
britona
brittix
brittixamni
britton
brohm
brohmodex
broken
bronze
brother
brothers
brought
browser
browsers
btu
bu
bud
buddha
budhd
bug
build
builder
building
buildings
built
bullet
bunead
buniad
burial
bus
but
button
buttons
by
bye
bypass
byte
byzantine
c
ca
cache
cacora
cactions
caetano
cal
calangute
calendar
calicut
california
call
callback
callbacks
called
calling
calls
calorie
calvim
came
cameroon
can
canacona
canada
canadian
cancel
candidate
candidates
candola
candolim
cannot
cantarancho
cap
cape
capital
caption
capture
caravaggio
card
cardozo
care
carlos
carnival
carrier
carvalho
case
cases
cashew
cat
cataract
catch
categories
categorise
categorization
categorize
category
categoryhandler
categorylink
cathedral
catholic
catholics
cats
cause
caution
cb
cbb
cc
cd
ce
cecilia
cell
cells
census
censusindia
center
centimeter
centimetre
central
centre
centred
centuries
century
ceremonies
certain
cf
cfd
cfds
cfg
cfm
ch
chad
chakor
chakra
chakrank
chal
chali
chalik
challenged
challis
chalu
chaluch
chamundeshwari
chandi
chandor
chandra
change
changed
changes
changeslist
changing
chapel
chapora
chapter
char
character
characters
charles
che
chea
chear
check
checkbox
checked
checking
checks
checktype
checkuser
cheddum
chem
chembox
chemical
cheo
cher
chhap
chi
chief
child
children
chillies
chim
chin
china
chinantec
chinchinim
chinese
chini
chintnam
chit
chitr
chitra
chitram
chitt
chitti
cho
chod
chodd
choddant
choddkorun
choddso
choddun
choddxa
choddxe
choddxem
choddxi
choddxim
choi
choice
chol
cholchitr
chole
choleo
choli
choliek
chollvoll
cholo
choloilem
choloita
choloitat
cholot
cholounk
cholpi
cholta
choltali
choltalo
choltat
cholun
choose
chora
chorao
choritr
chorus
chosen
chouthea
chovo
christ
christi
christian
christianity
christians
chuddi
chuk
church
churches
chusmo
chzn
ci
cia
cid
cidr
cinema
circa
circumstances
citation
citationclass
citations
cite
cited
citemain
citeref
cites
citeseerx
citeselect
citetb
cities
citing
city
civil
civilization
civilizations
cjk
cl
claim
claimed
claims
class
classes
classic
classical
classified
classname
clean
cleanup
clear
clearly
click
clicked
clickies
clicking
clicky
clickyelements
close
closed
closing
club
cluster
cm
cmbox
cmd
cn
co
coast
coat
coauthors
coconut
coconuts
code
codepoint
codes
coelho
coin
coins
col
collapse
collapsed
collapsible
collect
collection
college
colon
colonial
colonized
color
colors
colour
colspan
colstyle
column
columns
colva
colvale
com
combination
combined
combo
come
comes
coming
comma
commas
comment
commentary
comments
commercial
committee
common
commonly
commons
commonssitelink
communidade
community
comp
compact
company
compare
compatibility
compatible
complete
completed
complex
composed
composers
composite
computer
concat
concatenate
concatenation
conceived
concept
condition
conference
confess
config
configurable
configuration
confirm
conflict
conflicts
confused
congo
congress
conjunction
consensus
consider
considered
consistent
consisting
consists
console
constructor
contact
contain
contained
container
containing
contains
content
contents
context
continue
contrast
contribs
contribution
contributions
contributor
contributors
control
controls
controversial
controversy
convent
conventions
conversion
convert
converted
cookie
coord
coordinate
coordinates
copied
copy
copypaste
copyright
copyrighted
core
corinthians
corner
cornish
corporate
corporation
correct
correctly
corresponding
costa
could
council
count
counter
countries
country
county
course
court
coutinho
cover
covered
cr
create
created
createelement
createlevel
creates
createtextnode
creating
creation
creative
creator
credible
creed
creole
criminal
criteria
criterion
critical
cross
crossing
cruz
cs
cscr
csd
css
csstext
ct
ctx
ctype
cu
cubic
cuft
cuin
cultural
culture
cuncolim
cunha
cur
curchorem
currency
current
currently
currentparams
currenttitle
cursor
curtorim
custom
customary
cut
cvt
cyrillic
cyrl
d
da
dab
dabolim
dada
dadle
dadleak
dadlo
dadra
dai
daily
daiz
dakhoilam
dakhoili
dakhoita
dakhoitat
dakhoun
dakhounk
dakhvonn
dal
dalgado
dam
damanv
dan
dance
danced
dancers
dances
dancing
daniel
dantas
dar
darar
dark
das
dash
dashes
data
database
datacode
dataset
date
dated
dates
datestr
datt
datta
daughter
david
day
days
db
dchb
dd
ddd
dde
ddea
ddi
ddisembor
ddo
ddoch
ddun
de
dead
deal
deals
dear
death
debate
debug
dec
decade
december
decimal
decimals
declined
decoration
def
defamatory
default
defaultconfig
defaults
define
defined
definition
deg
deger
degik
degree
degrees
dei
dekh
dekhavo
dekhik
dekhlo
dekhn
dekhnni
dekhun
dekik
dekni
deknni
deknnis
dekun
del
delay
delete
deleted
deleting
deletion
deletions
delhi
demand
democratic
demographics
demospace
dempo
dennem
denominator
density
deo
department
depend
depending
depends
depicted
depicting
depiction
deprecated
depth
der
des
desai
desant
desc
descended
describe
described
describes
description
descriptions
descriptive
desired
destination
destruction
detail
details
detect
detected
detection
detects
determine
determined
determines
deu
deudasi
deullam
deullant
deus
deusthan
deuta
dev
deva
devache
devachea
devachem
devacher
devachi
devacho
devak
devan
devanagari
devank
devasthan
devchar
develop
developed
development
devi
devichi
devik
devllam
devmondirant
devnagori
devnagri
devo
devonagori
devotion
devsthan
devul
devull
dex
dexache
dexachea
dexachi
dexacho
dexak
dexamni
dexant
dexantlea
dexi
dezembr
dezembrache
df
dh
dha
dhaddla
dhaddle
dhaddlo
dhaktem
dhaktte
dhalo
dhamplole
dharma
dharmik
dharonn
dharvadd
dhavea
dhin
dho
dhobdhobo
dhom
dhon
dhondo
dhongor
dhoni
dhonia
dhor
dhorm
dhorma
dhormache
dhormachea
dhormachi
dhormacho
dhorman
dhormant
dhormik
dhoronn
dhortat
dhorun
dhorunk
dhot
dhotin
dhove
dhovo
dhuv
dhvoni
di
dialect
dialects
dialog
dialogue
dias
dict
dictionary
did
die
died
diff
difference
differences
different
digdorspi
digdorxon
digit
digits
dikek
dil
dila
dilam
dile
dilea
dileat
dilem
dileo
dili
dilo
dim
din
dina
diogo
dir
direct
direction
directives
directly
director
dis
disa
disable
disabled
disabletalk
disachea
disagree
disak
disam
disambig
disambiguation
disamni
disamnim
disani
disanim
dischem
discouraged
discovered
discoverer
discuss
discussed
discussion
discussionpage
discussions
disease
dislem
disna
disona
disp
display
displayed
displays
dispute
disputed
disputes
disruptive
dissertation
dissun
dista
distance
distat
disti
distinct
distinguish
district
disun
disunk
dit
dita
ditale
ditalo
ditam
ditat
ditolo
diu
diun
diunk
div
divided
divine
division
divn
divnk
divo
divop
divp
divpachem
divpachi
divpacho
divpak
divpant
divpi
dixtti
dl
dm
dms
dmy
do
dobajean
doc
doctitle
document
documentation
does
doesn
dog
dogam
dogon
dogui
doi
doing
dokxinn
dokxinnek
dokxinnent
dokxinneutten
dol
dolle
dolleam
dolleamnim
dolleank
dolleant
dollo
dom
domain
domains
dominated
dominus
don
dona
done
dongor
dongrachea
dongrar
dongri
dongul
donoi
donui
donuy
door
dor
dorea
doreadeg
doreadeger
doreant
dorek
doria
dorxon
dorzo
dos
dosro
dot
doti
doticho
dotin
dotor
double
douril
dourolem
dourolo
dourop
dourota
dourotat
dourun
dovorlem
dovorli
dovorlo
dovorta
dovortat
dovrun
dovrunk
down
download
downloader
dox
dr
draft
drafts
draupadi
drop
dropdown
drouy
drovidd
drug
dry
dst
dt
du
dubav
dud
duddu
due
duet
dukh
dulpod
dulpodam
dunam
dunams
duo
duplicate
duplicates
duration
during
durust
dus
dusman
dusre
dusrea
dusream
dusrem
dusri
dusrim
dusro
dusun
dut
dutch
dutt
dutta
duyems
dv
dy
dynasty
e
ea
each
earlier
earliest
early
earth
easier
easily
east
eastern
easy
ec
ech
echo
economic
economy
ed
edit
edited
editing
edition
editlevel
editor
editorial
editorlink
editors
editprot
edits
editsection
editsummaddoptiontodropdown
editsummary
edittools
edo
edokter
education
educational
ee
ef
effect
efis
egostt
egypt
egyptian
eh
eighth
either
ek
eka
ekach
ekamekak
ekdam
ekdom
eke
ekech
ekleach
ekleak
eklo
ekloch
ekok
eksizon
ekttaim
ektthaim
ekttham
ekttobor
ekuch
ekunn
ekunnisavea
ekvott
el
elder
elem
element
elements
elevation
eligible
ella
else
elseif
elsewhere
em
email
embargo
embargoed
embedded
emblem
embrace
emerentiana
emperor
empire
empires
empty
en
enable
enabled
enclosed
encode
encodeuricomponent
encyclopedia
end
endash
ended
endorse
energy
engine
engineer
engines
england
english
enhanced
enough
ensure
enter
entered
entire
entirely
entities
entity
entrance
entries
entry
enum
enumerable
enumerated
env
enwiki
eo
episode
epistle
epril
equal
equals
equivalent
era
err
error
errorcheck
errors
es
escape
escstr
especially
est
established
establishment
esther
esttrelia
et
etal
etc
ethi
ethiopia
ethnological
europachim
europe
european
evaluate
evangelist
eve
even
event
events
eventually
ever
everlasting
every
everyone
everything
evidence
evil
evolution
evropi
evt
ex
exact
exactly
example
examples
except
exception
exceptional
exceptions
excerpt
exclude
excludes
exec
exhaust
exist
existing
exists
expand
expanded
expansion
expected
experiment
expert
expiry
explain
explains
explanation
explicitly
exponent
export
expression
ext
extended
extension
extensive
extent
external
extra
extract
extraneous
eye
eyes
ezekiel
f
fa
face
facing
fact
factbook
factor
factors
facts
fado
fador
faido
fail
failed
fails
fair
faith
fall
fallback
falls
false
famad
famadh
famil
family
famous
fancy
fans
fantte
fantto
far
farewell
faria
farik
farsi
father
fator
fatorda
fattboll
fattim
fattlea
fattlean
fautt
favo
fb
fc
fd
fe
feast
feature
featured
features
feb
february
februvari
feedback
feel
feet
fell
female
feni
fernandes
fest
festa
festak
festam
festival
festive
fetch
few
ff
fff
fi
fiction
field
fieldobj
fields
fifth
fig
figure
figures
fiji
file
filename
files
fill
film
filma
filmank
filmant
filter
final
find
finding
finds
finnish
fire
firefox
firgojent
firgoz
first
firstchild
firstheading
firstn
fish
fit
five
fix
fixed
fl
flag
flags
flat
flex
flick
flip
float
floor
florida
flow
flower
flowers
fluff
fm
fmt
fn
fo
focus
fokot
fokt
folk
foll
folladik
follam
follow
followed
following
follows
fondd
fonddem
font
fontsize
foo
food
foot
football
footer
footnote
footnotes
for
force
foreign
forest
forgiveness
form
formal
format
formatdate
formatlink
formats
formatted
formatting
formed
former
formonn
forms
formsgadget
forok
forregisteredonly
fort
forth
forum
forward
found
foundation
founded
four
fourth
fouz
fr
fra
frac
fraction
fragment
frame
franca
france
francis
franciscan
francisco
franciskan
frank
fransisk
fransiskani
free
frei
french
frequency
friend
frisian
from
front
fruit
fruits
ft
fuddar
fuddarak
fuddari
fuddem
fuddle
fuddlea
fuddo
fuel
fukott
ful
fulam
fulambai
full
fullam
fullurl
fully
func
function
functions
furniture
further
futbol
futt
future
g
ga
gabriel
gadget
gai
gained
gaion
gaionacho
gaionnam
gaitat
gajil
gal
galileiant
gallery
gallerylink
gallon
gama
gamachea
gaman
game
gamv
gamvak
gamvant
gamvchea
gamvgirea
gan
gandhi
gandhichea
gandhin
ganv
ganva
ganvak
ganvam
ganvamni
ganvank
ganvant
ganvche
ganvchea
ganvchem
ganvchi
ganvcho
ganvkar
garden
garo
gas
gaupi
gavant
gave
gavpi
gb
gbe
ge
gel
gele
gelea
gelear
gelem
geli
gelo
general
generally
generate
generated
generates
generic
genre
geo
geographical
geography
geomask
geonotice
geos
german
germany
get
getarg
getargs
getcallbackparameters
getchecked
getcurrentframe
getcurrenttitle
getelementbyid
getelements
getelementsbytagname
getexpandedmessage
getfriendlypref
getmsg
getopt
getpagetext
getparameters
getparametervalue
getparent
getpref
getprototypeof
gets
getstatuselement
getting
gettitle
geturl
getutcfullyear
getutcmonthname
getvalueof
ghal
ghale
ghali
ghalo
ghalop
ghalpak
ghalpi
ghalta
ghaltat
ghalun
ghalunk
ghanvant
ghar
ghara
ghat
ghatli
ghatlo
ghavant
ghay
ghe
gheta
ghetat
ghetil
ghetla
ghetlam
ghetle
ghetlea
ghetlear
ghetlem
ghetli
ghetlim
ghetlo
ghetolo
gheun
gheunchi
gheunk
gheup
gheupak
ghevn
ghevop
ghevpak
ghevun
gho
ghoddiek
ghoddlem
ghoddnnuko
ghoddoun
ghoddun
ghor
ghora
ghoram
ghoramni
ghorant
ghorguti
ghorkan
ghorkar
ghott
ghottok
ghov
ghoxnna
ghureo
ghuri
gi
gif
gimachea
ginean
girest
girestkai
girl
girls
git
gita
gitam
give
given
gives
giving
gj
gje
gl
glo
global
globalize
gloria
glorious
glory
gmatch
gn
go
goa
goan
goanet
goavelha
god
godd
gody
goeam
goeank
goeant
goem
goembab
goemche
goemchem
goemchim
goemkar
goenche
goenchea
goenchem
goenchi
goencho
goenkar
going
gol
gold
golden
golleant
gom
gomantak
gombhir
gomes
gomv
gonga
gonsalves
gonvlli
good
goods
google
gopant
gor
gorbh
gorbhopat
gorib
gorjechem
gorom
goroz
gorvam
gorzo
gospel
gospels
got
goti
gott
gottenassessment
gov
gova
govai
government
goy
goyant
goychea
goychi
gozal
gozali
gr
grace
gradient
gram
gran
grand
grande
gray
grc
gre
great
greater
greece
greek
green
greg
gregorian
gregory
grek
gren
grik
gronth
gronthant
group
groups
groupstyle
growing
gsub
gu
gue
guide
guideline
guidelines
guinea
gujr
gujrat
gujrati
gulab
gulam
guneanv
gunn
guntn
gupit
gupt
guru
guruji
gutt
h
ha
hache
hachea
hachem
hacher
hachi
hacho
had
haddil
haddle
haddlem
haddli
haddlim
haddlo
haddtta
haddttat
haddun
haddunk
hai
haiddrozon
hail
hair
hajir
haka
hakach
hal
half
halim
halinch
halinchea
hall
hamnni
han
hanche
hanchea
hanchem
hanchemodim
hancheo
hancher
hanchi
hanchim
hancho
hand
handkerchiefs
handle
handled
handler
handlers
handling
hands
hang
hanga
hangache
hangachea
hangachem
hangachi
hangachim
hangacho
hangam
hangasor
hani
hanka
hankam
hannem
hanni
hannim
hans
hantunt
hanuman
hanv
hanvem
hanvuch
happiness
happy
har
hard
harvard
has
hash
hasn
hat
hatant
hatnote
hatnotes
hatunt
hatuntlean
have
havem
having
hdl
he
hea
heach
head
header
headers
heading
heam
hear
hearing
heart
hearts
heaven
hebrev
hebrew
hech
hectare
hectares
height
hekttor
held
hello
help
helper
helpful
helps
helptip
hem
hemisphere
hence
hench
henvui
heo
her
heram
herank
here
heritage
het
hetu
hey
hi
hich
hidden
hide
hif
high
higher
highest
highland
hika
hill
him
hind
hindi
hindu
hinnem
hint
his
historians
historical
history
hivalleat
hlist
hmong
ho
hoaxes
hoch
hoi
hoidrabad
hokk
hol
hold
holder
holding
holds
holy
home
hook
hope
hora
horizontal
horsepower
hospital
host
hostname
hot
hotcat
hour
hours
house
houses
hovaman
hover
how
however
hoya
hozar
hozaramni
hp
hr
href
htm
html
http
https
huishui
hukum
human
humans
hunalleant
hundredweight
husband
husko
huxar
hya
hymn
hyphen
hyphenated
hyphens
i
ia
iadnik
iana
ibadd
ice
icon
icons
id
idea
ideals
ideas
identical
identifier
identifiers
identify
ideograph
idnumber
ids
idx
ie
ieta
ietale
ietalo
ietat
ietf
ietolo
ieun
ieunk
ievzonn
iezman
if
ig
ignore
ignored
igorje
igorjeche
igorjechea
igorjechi
igorjecho
igorjek
igorjent
igorz
igorzo
igroz
igrz
ii
iii
ijhrael
ijipt
ijiptant
ikravea
il
ilhas
illustration
im
image
imageannotator
imagediv
imageleft
imageright
images
imarot
imaroti
imaz
imbox
imdb
img
immaculate
immediately
imperial
impgal
implements
imply
import
importance
important
imported
importing
importscript
improper
improve
in
inactive
inam
inappropriate
inarray
inc
inch
inches
include
included
includes
including
incorrect
increase
increased
increment
inddia
inddiyon
inddonexia
indef
indefinite
indefinitely
indent
independence
independent
index
indexof
india
indian
indiatimes
indic
indicate
indicates
indicating
indicator
indie
indira
individual
indo
indonesia
indr
industrial
industries
infant
infinity
influence
info
infobox
infoboxes
information
infriendlyconfig
infringement
inglez
inglix
inglixint
inglonddak
inherit
init
initial
initialcontrib
initialise
initialize
initially
initials
inline
inner
innerhtml
inout
input
inputs
insert
inserted
inset
inside
inspired
instance
instanceof
instances
instead
institute
institution
instructions
integer
intended
interaction
interest
interface
internal
international
internet
internetarchivebot
interpreted
interview
interviewer
interwiki
into
intro
invalid
inventor
invert
invisible
invocation
invoke
invoked
involved
io
ip
ipa
ipairs
iqbal
irann
iranni
ireland
irish
iron
is
isaiah
isbn
iskol
iskolam
islam
islamic
island
islands
ismn
isn
isnegative
isnotempty
iso
isoname
israel
issn
issue
issues
ist
isxn
it
italian
italic
italics
italy
item
items
iti
itihas
itihasant
itihasik
itle
itlea
itlem
itlench
itli
itlo
its
itsa
itself
ittaliyon
iv
ixany
ixtt
ixtta
ixttagot
izaias
izaiasan
j
ja
jack
jakob
james
jan
jane
janer
janerache
january
japan
japanese
jasso
jatra
javascript
jayanti
je
jea
jedna
jednam
jem
jen
jeo
jeremiah
jeremias
jerusalem
jesus
jeunn
jevnna
jevnnak
jevonn
jewish
jezu
jezuche
jezuchea
jezuchem
jezucheo
jezuchi
jezucho
jezuit
jezuk
jezun
jfm
jhelo
ji
jieunk
jikhlem
jikhun
jil
jilheant
jim
jin
jinn
jinnent
jiv
jivall
jivea
jivexim
jivit
jivita
jivitacher
jivitachi
jivitacho
jivitak
jivitant
jivo
jivont
jo
joa
joao
job
joel
john
join
joins
jose
joseph
joshua
journal
joy
jpeg
jpg
jquery
js
json
jstor
ju
juan
juanv
juanvan
judas
jude
judeo
judev
judevam
judevamnim
judevanche
judevancho
judevank
judge
judgment
judith
julian
july
jun
june
junhache
just
juze
jvalamukhi
jyu
k
ka
kabar
kabul
kadamba
kaddil
kaddlem
kaddli
kaddlo
kaddop
kaddpak
kaddta
kaddtat
kaddtta
kaddttat
kaddun
kaddunk
kadombori
kai
kaich
kaide
kaidea
kaido
kaim
kainch
kaklut
kakut
kal
kala
kalas
kalinga
kall
kalla
kallachea
kallak
kallant
kallantlea
kallar
kallasaun
kallea
kalliz
kallkhondd
kallzam
kallzan
kallzant
kalo
kam
kama
kamak
kamakhatir
kamam
kamat
kamgar
kan
kana
kanamnim
kanant
kangla
kangres
kannada
kanni
kannio
kant
kantar
kantaram
kantte
kapus
kara
karan
karann
karbhar
kareavolli
karen
kario
karkhane
karkhano
karnataka
karnnan
karnnank
karolin
karonn
kartat
kary
karya
katolik
katolk
kauy
kaveant
kaxi
kayan
kazar
kazari
kazu
kcal
ke
kedna
kednanch
keep
kel
kela
kelam
kele
kelea
keleant
kelear
keleat
kelem
keleo
keli
kelim
kellim
kelo
kelolea
kelolem
keloli
kelolo
kems
ken
kendr
kendra
kendram
kendri
kendrit
kens
kept
kerala
kern
keroll
key
keys
keyword
keywords
kg
khajgi
khal
khala
kham
khambe
khan
khandar
khann
khanno
kharvi
khas
khasa
khasgi
khasi
khast
khata
khatat
khatem
khatir
khatri
khaun
khaxa
khaxele
khaxelea
khaxelem
khaxeleponn
khaxeli
khea
kheast
khel
khell
khella
khellam
khellgodde
khellgoddi
khellttat
khepe
kherit
khmer
kho
khobor
khoi
khoicho
khoim
khoinchea
khoincheach
khoinchyai
khol
khondd
khonddant
khoniz
khor
khorch
khorea
khorem
khorench
khori
khoro
khottea
khub
khubuch
khun
khunna
khup
khuris
khursa
khursar
khuxal
khuxi
ki
kigre
kil
kilogram
kilograms
kilometer
kilometers
kilometr
kilometre
kilomittor
kilomittorachea
kimi
kind
king
kingdom
kingdoms
kings
kiristamv
kiss
kitab
kiteak
kitem
kitlexech
kitlo
kj
kk
km
kms
kn
knda
knn
know
knowledge
known
ko
koblat
kodd
kodde
koddem
kodden
koddi
koddlean
koddlem
koddok
koddsun
kodinch
kok
kol
kola
kolakar
kole
kolej
kolejint
kolez
kolhapur
koll
kollon
kolltta
kolokt
kolpona
komi
kon
kong
konkani
konkanibible
konknne
konknni
konknnichi
konknnik
konknnint
konkonn
konn
konnak
konnem
konnench
konnuch
kopdde
kopel
kopelam
kopelant
kor
korachi
korar
korarachim
korarant
korat
korche
korchem
korchi
korcho
korea
korean
kori
korin
korintkarank
korit
kornattok
kornattokant
kornneo
korop
korotati
korpa
korpache
korpachea
korpachem
korpachi
korpachim
korpacho
korpak
korpakhatir
korpant
korpi
korta
kortai
kortale
kortalem
kortali
kortalo
kortam
kortana
kortanam
kortanv
kortat
kortokoch
kortolo
kortolom
kortona
korum
korun
korunk
koslem
koslench
kosli
koslich
kosloch
koso
kotha
kothanok
kott
kotthinn
kotti
kovi
kovita
koxe
koxem
koxi
koxtt
kpa
kranti
kria
krishna
krist
krista
kristachea
kristachem
kristamv
kristanv
kristanvam
kristanvank
kristi
krixnn
krixnna
krixnnan
kroistt
kromank
krur
ku
kudd
kuddchoddem
kuddi
kuddicho
kuddint
kuddke
kuddko
kumar
kumsar
kunbi
kurdish
kurtorim
kuttumb
kuttumba
kuttumbachi
kuttumbant
kuvempu
kuxik
kuxin
kuxttoba
kv
kw
kwh
kxetrofoll
kɑ
l
la
label
labels
labour
lack
lacking
lady
lagim
laginch
lagle
laglem
lagli
laglim
laglo
lagon
lagoudd
lagpi
lagsar
lagsor
lagta
lagtat
lagtolem
lagu
lagun
laili
lailo
laita
laitat
lake
lakh
lala
lam
lamb
lambai
lambayeche
land
lang
language
languages
languishing
lanka
lao
laos
lapi
large
largely
larger
largest
last
lastn
lat
late
later
latest
latin
latitude
latn
laun
law
lay
layout
laysummary
lazily
lb
lbf
lccn
lcfirst
le
lea
leachem
leachi
leacho
lead
leader
leading
league
leak
leam
lean
leank
leant
least
leat
leave
leaves
leaving
led
left
legal
legit
legun
leisurely
lek
lekh
lekhok
lele
lem
len
length
lens
leo
less
let
letter
letters
lettin
level
levels
lhan
lhou
lhs
li
lia
liberation
library
libraryutil
libsettings
license
licensing
life
light
like
likely
likhnni
lim
limit
limited
line
linear
lines
lingua
link
linked
linkedarticle
linking
linkn
links
linktext
lion
lipi
lipiantor
lipient
lipio
liquor
lisboa
lisbon
list
listed
listing
lists
liststyle
listtype
lit
liter
literacy
literary
literature
litre
little
live
living
lk
ll
lla
llam
lle
llea
lleat
llem
lli
llo
lo
load
loadapi
loaddata
loaded
loader
loading
lobo
loc
local
located
location
locations
lock
loddai
log
logged
logic
logn
logna
lognacho
lognam
logo
logoreo
logpage
lohia
lok
loka
lokachea
lokachem
lokachi
lokacho
lokak
lokam
lokamni
lokan
lokanche
lokanchea
lokanchem
lokanchi
lokancho
lokank
lokanni
lokh
lokhonn
lokpriy
loksankya
loksonkhea
lokved
lokvosti
lokx
lokxmonn
lokxonnam
lole
lon
london
long
longer
longitude
lonnchem
look
looking
looks
lookup
loop
lord
lorna
lost
lot
lou
loukik
lourdes
lourdinho
lourenc
love
lover
loving
low
lower
lowercase
loxkori
loya
ls
lt
ltf
lu
lua
lui
luis
luk
lukas
luke
luksann
lum
lve
lyrics
m
ma
maca
machi
machier
machine
machyer
macrolanguage
made
madhyomik
madr
mae
maem
mag
magazine
magic
magir
maglem
maglo
magnnem
magnni
magnnim
magos
magtam
magtanv
magtat
magunk
maha
mahabaleshwar
mahamaya
maharashtrian
mahiti
mai
maidan
maie
mail
maim
main
mainly
mainsnak
mainspace
mainstream
maint
maintenance
maiye
major
majorda
majority
maka
make
makes
makeurllink
makewikilink
making
mal
malacca
malachi
malagasy
malay
malayalam
male
mall
malvani
malvonni
mama
mams
man
manak
manan
mand
mandatory
mandd
manddavoll
mandde
manddo
mandir
mando
mandos
mandovi
mandun
maniotai
mankam
manner
manobo
manohar
mansik
mansions
manta
mantat
manual
manually
manuel
manun
manuscript
many
manya
manyotai
map
mapam
mapframe
mappings
maps
mapusa
mar
marathi
march
marg
marga
margan
margao
margin
marguments
mari
maria
marian
marie
mariechea
mariek
mario
mark
marked
marker
markers
market
marks
marku
markup
marle
marli
marlo
marna
marpi
married
marta
martat
martin
martins
marun
marunk
mary
mas
mascarenhas
mashan
mask
maskitem
maslli
mass
master
mat
match
matches
matching
mater
material
matev
math
mathear
mati
matso
matter
matthew
matxe
matxem
max
maximum
may
maya
mayem
mazarello
mazatec
mbox
mcal
md
mdy
me
mean
meaning
means
measurement
media
mediawiki
medical
medicine
meditation
mediterranean
meet
meets
mel
mell
mellcheak
mellil
mellna
mello
melloilem
melloili
melloilo
mellona
melloun
mellovpak
mellpak
mellpi
mellta
melltat
melltolem
melltta
mellttat
mellun
mellunk
melo
melody
melta
member
members
memorable
memorial
men
menddram
mendes
menezes
mentioned
menu
menus
mercy
meren
merge
merged
merger
mergers
merging
message
messagebox
messages
met
meta
metadata
metatable
meter
meters
method
methods
metr
metre
metric
metro
metropolitan
mettrik
mexico
mfd
mg
mha
mhaiti
mhaka
mhal
mhan
mhantat
mharaxttr
mharaxttrant
mhatnote
mhoima
mhoine
mhoineant
mhoisur
mhoje
mhojea
mhojeam
mhojech
mhojem
mhojer
mhoji
mhojim
mhollam
mhollear
mhollem
mhonllear
mhonn
mhonnche
mhonnge
mhonni
mhonnlear
mhonnlem
mhonnta
mhonntat
mhonntoch
mhonntta
mhonnttale
mhonnttat
mhonntto
mhonnttoch
mhonnttokoch
mhonnu
mhonnum
mhonnun
mhonnunk
mhonv
mhonvant
mhotv
mhotvache
mhotvachea
mhotvachem
mhotvacheo
mhotvachi
mhotvachim
mhotvacho
mhozo
mhun
mhunn
mhunnon
mhunntat
mhunta
mhuntat
mhunttat
mhz
mi
miao
micael
michael
michelangelo
microformat
microformats
mid
middle
might
mile
miles
military
million
mimi
min
mind
mine
mini
minimum
minister
minor
minority
minus
minuscule
minute
minutes
mirror
mirsango
mis
misc
misleading
mismatch
misoll
miss
missing
mister
mitth
mittor
mixe
mixronn
mixtec
mj
mk
ml
mm
mmmm
mn
mo
mobile
mod
modal
moddganv
moddun
mode
modekat
model
modem
modern
modhy
modhyom
modi
modified
modify
modim
modlea
modli
modlo
modot
module
modules
mog
moga
mogache
mogachea
mogachi
mogacho
mogall
mogalle
mogan
mogi
mogol
mogrim
mohabharot
mohamarg
moharaxttr
moharaxttrant
mohavidealoi
moidan
moira
moje
mojea
mojem
mojgotim
mol
moladik
molar
mole
moles
moll
mollar
mom
moment
mon
monan
monant
monddoll
mondir
money
mong
mongol
mongolian
monis
mono
monobook
monoitat
monologue
monte
month
monthly
months
monti
montri
monument
monxache
monxachea
monxachem
monxachi
monxacho
monxak
monxam
monxan
monxank
monxeam
monzat
moon
mor
morattha
moratthi
moratthint
more
moreadit
morebits
mori
morjai
morjen
morji
mormugao
mornna
mornnachea
moron
moronn
moronno
mos
mosalo
moses
most
mostly
mot
motam
motan
motbhed
mother
motherhood
motibindu
motint
motte
mottea
motth
motto
mount
mouse
move
moved
movelevel
movement
moves
movie
moz
mozot
mp
mr
mrs
ms
msfs
msg
mt
mtabletools
mu
much
mud
mughal
muhammad
muhm
muhom
muja
mukhar
mukhel
mukheli
mukheloponnan
mukt
mukti
mukutt
mul
mull
mullam
mullant
mullavea
mullavem
multi
multilingual
multiple
multiplier
mum
mumbai
mumboi
mumboint
mun
mundo
mungllurkar
municipal
munn
murt
murteo
murti
mus
museum
music
musical
muslim
musloman
muslomani
musolman
must
mut
muzo
mw
my
myanmar
mysteries
n
na
nach
nachtat
nag
naga
nagar
nagoa
nagri
nagrik
nahuatl
nai
naik
nail
naitts
nak
naka
nakat
nal
nam
name
named
namedrefs
namelist
namely
names
namespace
namespaces
naming
namna
namneche
namnecho
namnek
namv
namvachea
namvachem
namvacho
namvajil
namvam
namvan
nan
nant
nanv
nanva
nanvachea
nanvacho
nanvadik
nanvam
nanvan
nanvim
narainn
narayan
nari
narrative
nas
nasle
naslem
nasli
naslo
nasta
nastana
nastat
nastik
nasun
nat
natalam
natem
national
nations
native
nattkam
nattkokar
nattok
natty
natural
nature
nav
navam
navarre
navbar
navbox
navboxes
navelim
navigation
navik
navpop
navpopup
nax
naxil
nazuk
nd
ne
near
necessary
need
needed
needing
needle
needs
negative
nehru
neither
nem
neman
nemlo
nemnnuk
neo
nepal
nested
net
nett
nettan
network
neutral
neutrality
never
new
newdescription
newline
newlines
newly
newoption
news
newsgroup
newspaper
newspapers
newwin
next
ng
nh
nhoi
nhoim
nhoinche
nhoinchea
nhomyo
ni
niall
nibor
nickname
nigeria
night
nikobar
nil
nim
nimanne
nimannea
nimannem
nimanno
nimtan
ninth
nio
nireat
nirmann
nirmato
nirmiti
nirmonni
nirnnoi
nisontton
nit
niti
nitidar
nitoll
nitt
nivar
nivas
nixedh
niyontronn
niz
nl
nm
nn
nneo
nni
nnim
nnou
no
nobis
nocat
nocreate
nodd
noddo
node
nodi
nodichea
nodor
nodrek
nodren
nodrentlean
noflip
nogor
nogrant
noinclude
noirity
noitik
nokllo
nokri
noman
nominated
nomination
nomoskar
nomuno
non
nond
none
nonstandard
nopp
nor
norm
normal
normalized
normalizeds
normally
noronha
north
northern
northwest
northwestern
nortoki
norwegian
nos
nose
nossa
not
notability
notable
notation
note
noted
notes
nothing
notice
noticeboard
notices
notification
notify
notifying
notifytext
nott
notti
nouhembor
nov
nove
novea
novean
novem
november
novembr
novembrache
novena
noveo
novi
novim
novo
now
nowiki
nowrap
noxib
noxtt
nozo
npov
nr
nrity
ns
nt
ntitle
nuclear
null
num
number
numbered
numbering
numbers
numdot
numeral
numerator
numeric
numforms
nums
numsep
nustem
nustemari
nuts
nuvem
nw
nyu
o
obheas
obhinoi
obj
object
objects
obviously
oc
occasions
occurs
ocinsoutput
oclc
october
odd
oddun
oddvu
odhik
odhikar
odhikari
odhikrut
odhyai
odhyokx
odik
of
off
offer
office
official
offset
ofgannistan
often
oh
ohimsa
oil
ojap
ok
okhil
ol
old
older
oldest
oldfield
oldformhide
oldid
oli
olonkar
om
oman
ombox
omerika
omit
omitted
omonia
omor
on
once
onda
ondd
ondman
one
ones
onfailure
oni
onit
online
only
onnkar
onsuccess
onto
ontor
ontoraxttrio
ontracher
ony
oo
opacity
open
opened
opening
opera
operation
opinion
opinions
oppose
opposite
opt
option
optional
optionally
options
optionsconfig
or
ora
orbi
order
ordered
orebiyon
org
organization
organizations
orig
origargs
origin
original
originally
origink
orob
oromb
orponn
orth
orthan
orthik
orthodox
orthography
orunnachol
orya
os
oscillator
osle
oslea
oslem
oslo
oso
osti
ostitv
ostitvant
ostompt
ostont
ostontechea
ostontek
ostonti
ostoreo
ostori
osur
ot
other
others
otherwise
otmik
otmo
otomi
ott
otthravea
ottok
ottoman
our
out
outcome
outer
outinfo
output
outputs
outside
outubr
ov
over
overall
overflow
overridden
override
overrides
ovesvor
ovi
ovtar
ovxex
own
owner
oxa
oxe
oxea
oxem
oxeo
oxi
oxim
oxir
oxo
oz
ozun
p
pa
pachartat
pacific
pad
padding
paddy
padlock
padr
padre
padri
padrink
padua
page
pagedescription
pagelink
pagename
pagenamenorm
pageobj
pageparam
pages
pagetext
pagetitle
pagetype
pai
paiam
paim
pain
painting
pair
pairs
pakistan
pal
palace
palkar
pallon
pallunk
palou
palov
palvan
pam
pan
panaji
panam
panch
panchayat
panchvea
pandavaddo
panel
panjim
pap
paper
papia
papua
papyrus
par
para
parable
parables
paragraph
paragraphs
param
parameter
parameterfuncs
parameters
params
paramval
parent
parentheses
parenthetical
parentnode
parentonly
pargs
paris
parish
park
parliament
parm
parms
paromparik
paromporik
parra
parse
parsed
parseint
parser
part
partial
participating
particular
particularly
partners
parts
party
parvoti
pas
pasot
pass
passed
past
paste
pastoral
pasun
patent
path
patkam
patki
patll
patllil
patok
patoll
patr
patram
patri
patris
patron
pattern
patterns
patthoilo
pattlav
pattlean
pattoila
patxai
paul
paula
paulam
paule
pauli
paulo
paulu
pauluchem
paulucho
pauluk
paulun
paus
pausachea
pauta
pautt
pav
pavil
pavlam
pavle
pavlem
pavli
pavlo
pavta
pavtt
pavtti
pavunk
pay
pc
pcall
pd
pdf
pe
peace
peddi
pedro
pedru
pedruk
pedrun
peer
pel
pela
pen
pending
penha
peninsula
people
peoples
per
percent
pereira
performance
performed
perhaps
period
periodical
periods
permanent
permission
permitted
pernem
pernni
persian
persistent
person
personal
persons
peru
peter
pez
pg
phabricator
philippines
philosophy
photo
photograph
php
pi
pia
picture
pidda
pidgin
pie
piece
piety
pik
pikall
pikam
pilar
pilatan
pinto
pio
pipe
pirai
pirayechea
pittho
pl
place
placed
placeholder
places
plain
plainlinks
plane
plant
plausible
play
player
playing
please
plural
plus
pm
pmc
pmid
png
po
pod
podam
podarth
podd
poddbimb
poddil
poddla
poddlam
poddle
poddlea
poddlem
poddli
poddlim
poddlo
poddpi
poddta
poddtat
poddtta
poddttat
poddun
poddunk
podhdot
podta
podven
podvi
poetry
poile
poilea
poilech
poilem
poili
poilim
poilinchea
poilo
point
pointer
points
pois
poixe
pokx
pol
police
policies
policy
polis
polish
political
polka
poll
polle
polleait
polleiat
pollelem
polleta
polleun
polleunk
polloi
polloita
polloun
pollounk
polloupak
pollovpak
pollun
poltoddi
pon
ponchait
ponda
ponddit
pondra
pondravea
pongddant
pongodd
ponnje
ponnji
pontprodhan
ponzab
ponzabant
ponzabi
poor
poorly
pop
pope
popoloca
popular
populated
population
popup
popups
popupstring
popuptoplinks
por
porbe
porbechea
porbek
porbo
pordexi
poreant
porgott
porian
poriant
porikxa
porim
porinnam
poriotton
poristhiti
porivhon
porixod
porje
porjek
porki
pormannem
pormoll
pormonem
pormonnem
porne
pornea
pornnea
porob
porom
porompora
porompore
poros
porot
port
portal
portavaddo
porthun
portion
portipall
portlet
portleti
porto
portolo
portrait
portugal
portugez
portuguese
portun
porvangi
porvorim
porvot
porvoti
poryotton
porza
pos
position
positional
positive
possible
possibly
post
postal
postscript
postt
posun
pot
potential
poti
potr
potrachi
potracho
potram
potrant
pott
potthari
pound
poundd
pounds
pov
povitr
power
poxonn
pp
practice
practices
praie
pranni
prant
prantant
prapt
prat
prathmik
pray
prayer
prayers
pre
preceding
precision
predefined
pref
prefer
preference
preferences
preferred
prefix
prefixed
prefixedtext
prefixes
prefixindex
prekxokam
preload
prepend
preprocess
preprocesssinglearg
present
presentation
presented
preset
president
press
pressure
preunit
prev
prevent
preventdefault
preview
previewbox
previous
previously
pri
price
priest
primarily
primary
prince
print
prior
private
pro
probably
probhav
probhavi
probhavo
problem
problems
procedure
proceed
process
processing
prochar
procharant
prochlit
prod
prodex
prodexant
prodhan
prodhanomontri
prodorxon
prodorxonn
produce
produced
produces
production
products
professional
profile
program
progress
proitn
project
projects
prokar
prokarant
prokarchea
prokaxon
prokria
promann
promannant
promannem
promannik
promannit
prominence
prominent
promote
promotion
promotional
prompt
prop
proper
properly
properties
property
prophet
proposal
propose
proposed
prosar
prosaronn
prosid
prosidh
prosn
prostav
prostavna
prosthapit
protect
protected
protection
protectionlevels
protectionobj
protha
protima
protinidhi
proto
protocol
prototype
protyokx
prourit
provadi
provadiachem
provas
proveit
proverbs
proves
provex
provide
provided
provides
province
proxason
proxikxonn
proyog
prozast
ps
pt
ptr
public
publication
publicationdate
publications
published
publisher
puja
pul
pun
punctuation
pune
punji
punn
purai
puraiponnan
purann
purannant
purave
purge
purnn
puro
puroskar
purounn
purpose
purposes
pursanv
purskar
purtugalak
purtugez
purtugezamni
purtugezanchea
purtugezank
purv
purvil
push
pushpin
pustok
pustokacho
pustokam
pustokant
put
puta
putacho
putak
puz
puza
px
q
qid
qualify
quality
quarter
que
quechua
queen
quela
quepem
query
querystring
question
qui
quia
quichua
quick
quickform
quickly
quotation
quote
quoted
quotes
r
ra
rabito
rachol
radio
radius
rag
rai
raia
raigad
rail
railway
raised
raiturche
raj
raja
rajbhas
rajdhani
rajeache
rajeachea
rajeachem
rajeachi
rajeacho
rajeak
rajeam
rajeamni
rajeant
rajeantlea
rajio
rajivo
rajki
rajy
rajya
rajyam
rakhonn
raknno
rakxos
ram
rama
ramainn
ramak
ramani
ran
ranam
ranamni
ranant
random
rane
range
ranges
rank
ranni
rannie
rao
rare
rat
ratchea
ratcho
rate
rather
rati
rating
ratio
rationale
raule
raulo
raun
raunn
raupi
rauta
rautat
ravi
ravlo
ravpak
ravta
ravtat
ravun
ravunk
raw
raxttr
raxttradhyokx
raxttram
raxttri
raxttrio
raxttropoti
ray
raz
raza
razachea
razacho
razak
razamni
razan
razouttint
rc
rcat
rcfilters
rcid
rd
re
reached
read
reader
readers
readings
reads
ready
real
really
reason
reasonable
reasons
receive
received
recent
recently
recognized
recommended
record
recreate
red
redir
redirect
redirects
redundant
ref
refer
reference
references
referred
refers
reflects
reflist
reflisti
refname
reformat
reformatting
refrain
refs
reftagurl
reftoolbar
reg
regardless
regex
regexp
regina
region
regional
regions
registered
registration
regular
rehman
reis
related
relative
release
released
relevant
reliable
relief
religion
religious
reload
relve
relvemarg
remain
remained
remaining
remains
rembrandt
remember
remo
removal
remove
removed
removes
removing
ren
renaissance
render
rendered
rendering
renders
rep
repeat
repeated
replace
replacechild
replaced
replacement
replaces
report
reported
reports
represent
representing
republic
request
requested
requesting
requests
require
required
requires
rer
res
research
reset
resistance
resolution
resolve
resources
respect
respectively
response
responsexml
rest
result
results
resurrection
ret
retreat
retrieved
return
returned
returns
retval
rev
revert
reverted
revid
review
reviewed
reviews
revision
revisions
revolution
rfc
rft
rhs
rhythm
ri
ria
rice
rich
right
rights
rinn
rio
rise
risk
rit
rita
rite
riti
ritin
river
ro
road
rochloleak
rochna
rochnnuk
rock
rod
rodrigues
rog
rogot
roi
roitat
rokddoch
rokhddoch
role
rollback
rom
roma
romak
roman
romani
romanian
romano
romans
rome
romi
romon
rong
rongit
root
ros
rosainik
rosario
rosary
rose
roste
rostear
rosto
rough
round
rounded
row
rowargs
rows
rowstyle
roxia
rs
rt
rtl
ru
ruch
ruchik
rugnnaloi
rui
rukh
rule
ruled
rules
run
rund
running
rup
rupam
rupan
rupant
rupantor
rupia
rural
russia
russian
ruth
ruzai
rvprop
s
sa
sabar
sacrament
sacred
sacrifice
sad
sadaronn
sadaronnoponnan
sadhon
sador
safe
sahiteant
sahiteo
sahitik
sahity
sahitya
sahityik
saib
saiba
saibinn
saibinni
saibinniche
saibinnichem
saibinnichi
said
sail
saint
saints
sakor
sakun
sakxor
sal
salcete
saligao
salt
salvador
salve
salvosav
sam
samajik
samany
samaritan
samball
samballun
same
sami
samkar
samko
sampddotta
sampddottat
samskritik
samuel
san
sancta
sancto
sanctuary
sandarbh
sandbox
sandboxtitle
sang
sangat
sangata
sangatak
sangati
sangatim
sangil
sanglam
sangleat
sanglem
sangli
sanglolem
sangolda
sangta
sangtam
sangtat
sanguem
sangun
sangunk
sanje
sankya
sannam
sanquelim
sanskrit
sant
santa
sanvordem
sao
sar
sara
sardesai
sardinian
sarem
sarke
sarkea
sarkem
sarkeo
sarki
sarkil
sarkim
sarko
sarosvot
sarpanch
sarvozonik
sasnnachea
sasnnachem
sasnnak
sat
satollem
sattari
satvea
saudi
saukari
saun
save
saved
saving
savn
saw
saxtti
say
says
sbn
scale
schedule
scheme
scholars
school
schools
science
scientific
scope
screen
screenshot
screenshots
script
scripts
scroll
scrollbox
sdh
se
sea
seal
search
searches
season
seat
sebastian
sec
second
secondary
seconds
section
sections
see
seem
seems
seen
seg
sel
select
selected
selection
selector
self
selfref
sem
semi
sen
senapoti
send
senhora
senoufo
sense
sentence
sep
separate
separated
separator
separators
sepc
september
sequeira
sequence
serial
series
serula
servant
serve
server
service
set
setappendtext
setattribute
setbuttonsenabled
setcallbackparameters
setcontent
setcreateoption
seteditsummary
setembrache
setfollowredirect
setmetatable
setpagetext
setprototypeof
sets
setscriptname
setting
settings
settitle
settlement
setup
setwatchlist
setwatchlistfrompreferences
seva
sevadhormik
seven
seventh
several
sevok
shackle
shadow
shah
shall
shantadurga
shape
share
shared
she
sheaf
sheet
sheets
shenoy
shetty
shield
shift
shirsat
shiva
shivaji
shop
short
shortcut
shortcuts
shortform
shortlink
should
shouldn
show
showing
shown
shows
shree
shri
shristhal
si
sid
side
sidebar
sidhd
sidhdant
sierra
sig
sigfig
sign
signal
signature
significance
significant
signs
silva
silver
simanv
simhli
similar
similarly
siminar
siminarint
simple
simplewindow
simply
sin
sinai
since
sindhi
sindhu
sing
singh
single
singular
sinh
sinners
sins
siole
siolim
sir
siria
siroda
sister
sita
site
sitelink
six
sixth
size
sj
skin
skins
skip
skoll
sl
slash
slice
slightly
slow
small
smaller
smith
snan
so
sobar
sobha
sobhek
sobhent
sobit
social
societies
society
sock
sod
sodam
sodanch
soddlear
soddlo
soddun
soddunk
soddvonn
soddvonnar
sodea
sodhea
sodheak
sodoiv
sodta
sodtale
sodtat
sodun
sodunk
soft
software
sogle
soglea
sogleam
soglle
sogllea
soglleak
soglleam
soglleank
soglleant
sogllekodden
sogllem
soglleo
soglli
sogllim
sogllo
soglo
sogott
soheadri
soi
soimik
soinik
soiny
soirigot
soit
sokallim
sokoil
sokoilea
sokol
sokolo
soktichem
sol
solar
solid
solla
sollavea
solo
solomon
som
somadhi
somajik
somavex
somaz
somazachea
somazacho
somazak
somazant
sombond
sombondit
some
someone
somest
something
sometimes
somi
somia
somiak
somiti
somoiar
somoti
somoz
sompadnni
sompadok
sompadon
sompem
somplo
sompta
somratt
somskar
somskrit
somskritai
somskritayecho
somskriti
somskritik
somstha
somurt
somvad
somvidhan
somvsar
somvsarant
somvsarik
somyukt
somzo
somzochem
somzonni
somzotat
somzotolem
somzun
son
sondex
sondorb
sondorbh
song
songh
songhrx
songhttona
songit
songitachea
songitkar
songrohaloi
songs
sonia
sonkhea
sonn
sonskrutai
sonskrutik
sonstha
sont
sonvsar
sonvsarachea
sonvsarachim
sonvsaracho
sonvsarak
sonvsarant
sonvstha
sonxodhon
soon
sopatt
sopttembor
sor
sorasori
sordar
sorg
sorga
sorgar
sorginchea
sorginchem
sorgincho
sorim
sorkar
sorkara
sorkarachea
sorkaran
sorkari
sorle
sorli
sorlo
soro
sorop
sorsvoti
sort
sorta
sortable
sortint
sortkey
sorun
sorunk
sorv
sorvespor
sorvhis
sorxim
sot
sotman
sotravea
soul
sound
source
sourced
sources
south
southeast
southeastern
southern
southwestern
souza
sov
sovea
sovem
soviet
sovloti
sp
space
spaces
spacing
spacious
spain
spam
span
spanish
spantag
speaking
spec
special
speciallink
specialpage
species
specific
specifically
specified
specify
specifying
speed
speedy
spell
spelled
spelling
spenix
spi
spin
spirit
split
sports
spoxtt
spread
sq
sqft
sqmi
square
sr
src
sri
ss
ssrn
st
stabilize
staffnotation
stand
standard
standards
stands
star
start
started
starting
starts
state
statelem
stately
statement
statements
states
static
station
statue
status
statuselement
step
stephens
stf
sthan
sthapit
sthapli
sthapna
sthapnnuk
sthapon
sthiti
stholantor
stholl
still
stone
stop
stories
story
str
strange
stratas
street
string
strings
strip
striping
stripmarker
stripped
stroke
strong
structure
structures
stub
stuff
style
styles
styling
su
sub
subcategories
subcategory
subdiv
subdivision
subdivisions
subdivs
subgroup
subi
subject
subjectlink
subjects
subjectspace
submit
subpage
subpages
subscription
subst
substantial
substitute
substitution
substring
subtables
subtags
succeeded
success
successfully
such
sudan
sudaronna
sufficient
suffix
sugarcane
suggest
suggested
suggestion
suggestions
suitable
sukh
suknnim
sultan
sumar
sumarak
sumatra
summaries
summary
summaryad
summarytext
summer
sun
sunday
sundor
sung
supari
super
supl
supplied
support
supported
supports
suppress
suppressed
sur
sure
surname
suru
survat
survatechea
survatek
survek
survey
sury
sushilmishra
sutt
suttka
suttke
suvat
suvater
suvidha
svami
svater
svatontry
svg
svorup
svorupant
svota
svotachea
svotontr
svotontrai
svotontrotai
swahili
sweet
swiss
switch
switcher
switzerland
sym
symbol
synoptic
syntax
sysop
sysops
system
t
ta
tab
tabeant
table
tables
tabletools
tabo
tabs
tache
tachea
tacheam
tachean
tachem
tacheo
tacher
tachi
tachim
tacho
tag
tagged
tagging
tags
tai
tail
tak
taka
takach
takalagun
take
taken
takes
taking
talent
talk
talkback
talkpage
tallo
taluka
talukeant
tam
tambddea
tamil
taml
tamnni
tamnnim
tan
tanche
tanchea
tancheant
tanchem
tancheo
tancher
tanchi
tanchim
tancho
tandull
tang
tank
tanka
tankam
tanne
tannem
tannench
tanni
tannim
tantle
tantunt
tanzania
tapman
tapmanant
tar
target
tari
tarker
taronn
task
tasmanian
tat
tatar
tatunt
tatuntlea
tatuntlean
tatuntleo
tatuntole
taxonomy
tb
tbl
tbody
tcommon
td
tdata
te
tea
teach
teag
team
tears
tebhair
tech
teche
techi
technical
technological
technology
techo
techpori
tedna
tednam
teg
teka
teke
tekhala
tekhatir
tekija
tel
television
tell
telu
telugu
tem
temp
tempar
template
templatedata
templateeditor
templatename
templates
templatestyles
templatetitle
temple
temporarily
temporary
ten
tench
tenko
teo
ter
tera
teravea
term
terminal
terms
ternary
territory
ters
tertiary
test
testament
testcases
testcasestitle
tested
testing
tests
text
textarea
textcontent
textpart
texts
textstyle
tfd
tg
th
thai
thaim
than
thank
thapnnuk
tharailem
tharta
that
thaun
thavn
the
theatre
thee
their
them
themselves
then
theories
theory
there
therefore
thermal
these
they
thing
things
think
thir
third
this
thispage
tho
thodde
thoddea
thoddeach
thoddem
thoddeo
thoddi
thoddim
thoddo
thoi
thoim
thoinch
thoinche
thoinchea
thoinchean
thoinsor
tholl
thollam
thollave
thollavea
thollavi
thomas
thon
thondd
thor
those
thou
though
thought
thousand
three
throne
through
throughout
throw
thuim
thumb
thumbinner
thumbnail
thus
thy
ti
tiatr
tiatrache
tiatrachea
tiatrachem
tiatrachi
tiatrant
tiatrist
tibetan
tich
tiche
tichea
tichem
ticher
tichi
ticho
tie
tiger
tigun
tika
till
tim
time
times
timestamp
timezone
timor
timot
timotak
timothy
tin
tinnem
tinuy
tiny
tip
tis
tisre
tisrea
tisrem
tisro
tiswadi
titak
title
titlebar
titlem
titleobj
titlepart
titles
titlestyle
titletype
tiurota
tj
tl
tld
tmbox
tmp
tnt
to
tobit
toc
toch
today
todayslist
todo
together
toggle
toiar
toiari
token
tokens
tokhnnai
tokler
tokli
tolem
toll
tollem
tolli
tollim
tom
tomazinho
tomb
tombakhu
tomill
ton
tondd
tonddar
tone
tonga
tonn
tonne
tonumber
too
tool
toolbar
tools
tooltip
tooltipnode
top
topic
topics
tor
tora
tore
toreche
torechea
torechem
torechi
torechim
torecho
torek
torekovar
torekvar
toren
toreutten
tori
toripunn
tornatte
tornnatto
torque
torui
toslea
toso
tosoch
tosrip
tostring
total
totonac
totv
totvam
totvaxastr
totvoginean
towards
tower
town
toxech
toxem
toxench
toxi
toxich
toyar
toyari
tprintf
tr
track
tracking
trade
tradition
traditional
traditionally
trailing
tranquil
trans
transcluded
transcluder
transcript
transform
transl
translate
translated
translation
translations
translator
translators
translit
transliteration
transparent
transport
transtitle
transwiki
tras
treat
treated
tree
tribunal
trick
trim
trio
true
trust
truthy
try
ts
tskk
tsoi
tt
tthikann
tti
ttoke
tton
ttopal
ttu
tu
tuca
tuem
tui
tuje
tujea
tujeam
tujem
tujer
tuji
tujim
tuka
tum
tuma
tumche
tumchea
tumchean
tumcho
tumi
tumim
tumkam
tunvem
tur
turki
turkish
turn
turned
tust
tuvem
tuzo
tv
tw
twelve
twinkle
twinkleconfig
twitter
two
txt
tya
type
typeerror
typeof
types
typically
u
ube
ubem
ubi
ubo
uchch
ud
udar
uddoilo
uddoitat
udent
udente
udentek
udexim
udka
udkache
udkachea
udkachem
udkachi
udkacho
udkan
udkant
udok
udorgot
udrogot
ugddas
ugom
ugtem
ugttavnni
ui
uiconfig
uid
ujvadd
ujvaddak
uk
ukteo
ul
ulo
uloi
uloita
uloitai
uloitam
uloitat
uloitolom
ulounk
uloupi
ulovpi
um
umed
umedin
un
unch
unchai
unchelea
unchlea
uncle
unclear
undde
unddo
undefined
undeletion
under
understand
understanding
undo
undue
unicode
unified
union
unique
unit
unitcode
united
units
universal
university
unknown
unless
unlike
unlink
unlinker
unnamed
unne
unnea
unnem
unni
unno
unpack
unreferenced
unset
unsourced
until
unto
untt
up
upai
upas
upchar
update
updated
upeg
upegi
upeog
upkar
upload
uploading
upolbdh
upon
upper
uppercase
uprant
uprantchea
upright
ur
urban
urdu
uri
uril
url
urlo
urls
urta
urtat
us
usa
usability
usage
usccb
use
used
useful
usename
user
userisingroup
username
usernotification
userpage
users
userspace
usertalk
usertalkpage
uses
usgal
using
usoz
ustring
usual
usually
ut
utc
util
utilities
utor
utorda
utpadon
utpon
utpot
utram
utravoll
utsav
utsou
utsov
utth
utthun
utype
uw
uxnn
uzbekistan
uzo
uzvadd
uzvaddak
v
va
vachnaloi
vachop
vachunk
vad
vadd
vadde
vaddeant
vaddear
vaddlo
vaddo
vaddoilem
vaddot
vaddpi
vaddtta
vaddttat
vaddunk
vadoll
vag
vailankanni
vaishali
vaitt
vakhann
val
valid
validate
validation
valinfo
valley
valmiki
valpoi
valsavina
value
valuefunc
values
vam
van
vanc
vancouver
vandal
vandalism
vangdda
vangddach
vangddi
vannijy
vantt
vantte
vantto
vanttun
vapor
vaporpant
vaportat
vaprant
vaprotale
vaprotat
vaprun
vaprunk
var
varca
varem
variable
variables
variant
variants
variations
various
varsa
vas
vasco
vast
vastu
vat
vatauronn
vatican
vatt
vatten
vatter
vatthar
vattharacher
vattharak
vattharamni
vattharant
vattharantlea
vaur
vauthors
vavr
vavrak
vavrant
vavurlo
vavurta
vayu
vaz
ve
vea
veakhea
veakronn
vector
ved
vedant
vedic
veditors
veg
vegim
veglle
vegllea
vegllem
veglleo
veglli
vegllim
vegllo
vegvegllea
vegveglleo
vegvegolle
vel
velar
velean
velim
vell
vellan
vellar
veller
vello
vem
venchnnuk
venchun
ventris
vepar
vepari
ver
verde
verem
verifiability
verifiable
verna
verse
verses
version
versions
vertical
very
veta
vetam
vetat
veuhar
veusai
veusayik
veustha
vhanvta
vheli
vhelo
vhi
vhodd
vhodda
vhoddle
vhoddlea
vhoddlem
vhoddli
vhoddlo
vhoir
vhor
vhorta
vhorun
vhorunk
vi
via
viaj
vibhag
vibhagant
vice
vicente
vichar
vicharlem
vichitr
victor
vid
videapitth
videarthi
videarthink
video
vidhan
vidhi
vidhimonddoll
vidhva
vidyut
vienna
view
viewer
viewers
viewpoint
viewpoints
views
vigar
vigean
vikas
vikria
viktem
vilin
villa
village
vilyom
viman
vimanotoll
vimantoll
vincent
vinchun
vingddovingodd
vingodd
vinnem
vinodi
violation
violations
virgin
virodh
virodhi
virtues
virudh
vis
visado
visavea
vishnu
vishwakosh
visibility
visible
vision
vistar
visual
visvas
visvaxi
viswakosh
vital
vixex
vixim
vixnnu
vixoi
vixv
vixvovidealoi
viz
vo
vocabulary
voch
vochpak
vochpi
vochun
vochunk
voice
void
voidik
voijki
voile
voilea
voilean
voilo
voir
voixnnou
voiz
vojnam
vokhdam
vokhdi
vokhod
vol
voll
volleri
volli
vollkhotale
vollkhotat
vollkhun
vollkhunchem
vollkhunk
vollokh
volume
von
vonspot
vonx
vonxache
vopar
vopareo
voparimnim
voparincho
vor
voram
vorg
vorgant
vornnon
voros
vors
vorsa
vorsachea
vorsacho
vorsak
vorsam
vorsamni
vorsan
vorsanche
vorsanchea
vorsanchem
vorsanchi
vorsancho
vorsant
vorsantlea
vorsuki
vorvim
vosnnuk
vosnnuke
vosnnuko
vosro
vost
vosti
vostu
vota
votat
vote
vott
votten
vozon
vrit
vulgo
vyokti
w
wa
wait
waiting
wales
wall
waltz
want
wanted
war
warn
warning
warnings
warring
wars
was
watch
watched
watchlist
water
watt
way
ways
wcc
wd
we
wealth
weapons
web
webkit
website
websites
wedding
weddings
week
weeks
weeping
weight
welcome
welcomeen
well
went
were
west
western
wgaction
wgarticleid
wgnamespacenumber
wgpagename
wgrelevantusername
wgtitle
wgusername
what
whatever
when
where
whether
which
while
white
whitelist
whitespace
who
whole
wholestr
whose
why
wide
widely
widget
width
wife
wiki
wikibase
wikicode
wikidata
wikieditor
wikilink
wikilinks
wikimedia
wikipage
wikipedia
wikipedians
wikipedias
wikiproject
wikis
wikiscript
wikisource
wikitable
wikitext
wikivoyage
wiktionary
wild
will
william
wilson
window
wish
with
within
without
wl
woman
womb
women
won
word
words
work
workflow
working
works
world
worldwide
worth
would
wp
wptextbox
wrap
wrapped
wrapper
wrappers
writable
write
writer
writing
written
wrong
ws
wt
www
x
xa
xachea
xacho
xak
xalla
xallent
xam
xan
xank
xant
xantadurga
xanti
xar
xara
xarachea
xarachi
xaracho
xarak
xaram
xaramni
xarant
xarantlea
xaririk
xaski
xason
xastr
xastri
xavier
xe
xek
xekatolla
xekddeant
xekim
xem
xenkddeachea
xenkddeant
xer
xerpa
xet
xetam
xetant
xetkamti
xetkar
xetki
xetoudd
xett
xeuttak
xevott
xevottak
xevttim
xezarchea
xezari
xfd
xfdcat
xfdtarget
xharam
xi
xiddkavnni
xikar
xikh
xikoita
xikop
xikounn
xikovnn
xikovpi
xikunk
xikxa
xikxok
xikxonn
xikxonnik
xim
ximer
ximpnnaull
xio
xis
xisam
xisamnim
xisank
xit
xiv
xivachem
xivai
xivaji
xivak
xivan
xivrak
xixy
xml
xmldoc
xobd
xobdkox
xoiv
xokna
xokt
xokta
xoktat
xokti
xoky
xonkh
xoronn
xostrokria
xotman
xotmana
xotmanachea
xotmanant
xrad
xrextt
xri
xrilonka
xroi
xubhvortoman
xud
xudhd
xx
xxx
y
ya
yant
yap
yard
yche
ychea
ychem
ychi
ycho
yd
year
yearly
years
yellow
yeradari
yes
yesno
yet
yeta
yetalo
yetat
yetkoch
yeun
yeunk
yeup
yeupi
yeuzonn
yi
ymd
yo
yoga
yogdan
yogone
yogy
york
yotn
you
young
your
yourself
yug
yuropi
yyyy
z
za
zabab
zache
zachea
zachem
zacher
zachi
zacho
zaddam
zage
zageak
zageancher
zagear
zago
zagor
zahir
zai
zaiat
zaina
zainam
zait
zaite
zaitea
zaiteach
zaiteam
zaitech
zaitem
zaiteo
zaiti
zaitim
zaito
zaka
zal
zala
zalam
zale
zalea
zaleant
zalear
zaleat
zalem
zaleo
zali
zalim
zalo
zalolo
zanevari
zankam
zann
zanna
zannam
zannamni
zannanchea
zannank
zannem
zannim
zanno
zannom
zannvai
zannvikai
zantunt
zanv
zanvk
zap
zapotec
zat
zata
zatale
zatalem
zatali
zatalim
zatalo
zatat
zati
zatiche
zatichea
zatichim
zatkoch
zatoch
zatolem
zatoli
zatolo
zatra
zatunt
zaum
zaun
zaunche
zauncheak
zaunchem
zaunchi
zaunk
zaunu
zaup
zaupachi
zaupak
zaupi
zavn
zavnk
zavpak
zay
zbl
zealand
zero
zh
zhadd
zhaddak
zhaddam
zhogddim
zhor
zhori
zhuang
zhuz
zhuza
zhuzam
zhuzant
zhuzari
zinh
zm
zo
zobab
zobabdari
zodd
zoddil
zoddlem
zoddlo
zoddpi
zoddun
zoddunk
zogant
zoi
zoim
zoin
zoit
zoitivont
zol
zolm
zolma
zolmacho
zolmak
zolmank
zolmol
zolmolo
zom
zomat
zomati
zomin
zomnint
zomnir
zomo
zon
zonauram
zone
zonn
zoom
zoomlevel
zopan
zopani
zor
zori
zormon
zormoni
zorui
zorz
zoso
zotnai
zoxe
zoxem
zoxi
zoxim
zuari
zullovnneo
zuloi
zumve
zumveacher
zumvo
zun
zunveam
zunvear
zunvim
zunvo
zyyy
{
|
}
~



¢
£
§
¨
©
«
¯
°
±
²
´
¶
·
»
¼
½
×
ß
æ
ð
÷
ø
þ
đ
ħ
ŀ
ł
ŋ
œ
ƨ
ǃ
ǝ
ɏ
ɔ
ə
ɛ
ʱ
ʹ
ʻ
ʼ
ˈ
ː
˚
̀
́
̂
̃
̄
̆
̇
̈
̉
̊
̋
̌
̒
̓
̔
̛
̣
̥
̦
̧
̨
̪
̱
̸
͂
ͅ
α
ε
η
θ
ι
μ
ο
π
ρ
υ
χ
ω
а
в
г
е
ж
з
и
к
о
у
ч
ы
і
ا
ٔ
ँ
ं
ः
अ
अक
अकबर
अकस
अख
अग
अगस
अघ
अच
अचक
अज
अजम
अझ
अट
अटक
अटल
अठर
अड
अडचण
अडव
अण
अणक
अणभव
अणसर
अत
अथ
अथर
अथव
अद
अदम
अदर
अध
अन
अप
अपघ
अपभ
अपम
अपर
अफ
अफग
अब
अभ
अभय
अम
अमक
अमर
अमरक
अय
अर
अरण
अरब
अरबस
अरव
अल
अलक
अलम
अळ
अळक
अळकत
अळम
अव
अवक
अवत
अवध
अवयव
अवर
अवल
अवश
अवस
अवसर
अश
अशक
अष
अस
असत
असतर
असम
असल
असहक
अह
अहमद
अहमदनगर
अहव
आ
आइस
आइसल
आई
आक
आकर
आख
आग
आगग
आगर
आगरकर
आगळ
आगस
आघ
आच
आचरण
आज
आझ
आट
आठ
आठव
आठवडय
आड
आडखळ
आडन
आडम
आडव
आण
आत
आतश
आद
आदन
आदर
आदल
आध
आन
आप
आपआपल
आपज
आपट
आपण
आपयत
आपयल
आपल
आपव
आपवन
आपश
आपस
आफ
आब
आबर
आभ
आम
आमक
आमच
आमद
आमल
आय
आयक
आयकत
आयकन
आयकप
आयकल
आयच
आयज
आयजम
आयझ
आयत
आयदन
आयन
आयर
आयल
आयस
आर
आरण
आरत
आरम
आल
आलत
आलफ
आलव
आळ
आळव
आव
आवड
आवडट
आवडल
आवत
आवय
आवयक
आवयच
आवयन
आवयब
आवर
आवरण
आश
आशय
आष
आस
आसग
आसच
आसत
आसतन
आसतल
आसन
आसप
आसर
आसल
आसलल
आसस
आह
इ
इक
इकर
इग
इगर
इच
इज
इजल
इझ
इट
इटल
इड
इत
इतर
इतल
इथ
इद
इन
इनप
इनस
इप
इब
इम
इय
इर
इल
इलमन
इव
इश
इष
इस
इसर
इसव
ई
ईक
ईच
ईज
ईत
ईद
ईन
ईम
ईल
ईश
ईस
उ
उक
उकड
उकत
उखल
उखलप
उग
उगड
उगडल
उगम
उघ
उघड
उच
उज
उजव
उट
उठ
उड
उडप
उडय
उडयत
उडयल
उण
उत
उतर
उद
उदक
उदग
उदद
उदय
उदयप
उदरगत
उध
उन
उप
उपक
उपकरण
उपग
उपगण
उपघटक
उपच
उपज
उपजल
उपद
उपन
उपप
उपभ
उपम
उपय
उपर
उपलब
उपळस
उपस
उपसर
उफ
उब
उभ
उम
उमर
उय
उर
उरच
उरत
उरतल
उरन
उरप
उरफ
उरल
उल
उलय
उलयत
उलयतल
उलयल
उश
उष
उस
उसर
ऊ
ऊत
ऊन
ऊय
ऊर
ऊल
ऊस
ऋ
ऋग
ऋच
ऋत
ऋष
ऌ
ऍ
ऍन
ऎ
ए
एक
एकक
एकच
एकज
एकट
एकठ
एकत
एकद
एकदम
एकन
एकम
एकमत
एकर
एकल
एकलव
एकव
एकवचन
एकवट
एकस
एख
एग
एच
एज
एझ
एट
एटर
एड
एडवर
एत
एतन
एथ
एद
एन
एप
एफ
एम
एमब
एर
एल
एव
एवरप
एश
एशन
एस
एसस
एह
ऐ
ऑ
ऑक
ऑग
ऑगस
ऑट
ऑड
ऑन
ऑप
ऑपर
ऑफ
ऑर
ऑल
ऑस
ऒ
ऒव
ओ
ओक
ओग
ओच
ओट
ओड
ओडल
ओढ
ओत
ओद
ओन
ओप
ओपन
ओफ
ओब
ओम
ओर
ओल
ओलस
ओळ
ओव
ओश
ओशन
ओस
औ
औद
और
क
कक
ककथ
ककल
कग
कच
कज
कझ
कट
कटक
कटर
कठ
कड
कडक
कडच
कडय
कडल
कडस
कण
कणक
कणस
कत
कतकच
कतन
कथ
कथकळ
कथन
कद
कदम
कन
कप
कपट
कपड
कपण
कपल
कफ
कब
कबड
कबर
कबल
कभ
कम
कमत
कमर
कमल
कमळ
कय
कयत
कयतन
कयल
कर
करच
करण
करणक
करत
करतकच
करतन
करतल
करद
करन
करप
करब
करम
करमण
करमल
करमळ
करर
करव
करश
कल
कलक
कलकत
कलन
कलम
कलश
कळ
कळच
कळट
कळटकच
कळन
कळप
कळश
कळस
कव
कवचन
कवड
कवण
कवन
कवप
कवय
कवळ
कश
कस
कसब
कसभ
कसल
कह
ख
खक
खग
खच
खज
खट
खटल
खड
खडप
खण
खणद
खणप
खत
खतखत
खद
खन
खनन
खप
खबर
खम
खय
खयच
खयत
खयल
खर
खरस
खल
खळ
खव
खवळ
खस
ग
गक
गच
गज
गझल
गट
गटण
गठ
गड
गडकर
गडय
गडव
गढ
गण
गणक
गणन
गणपत
गत
गतकच
गतन
गतल
गद
गदर
गध
गन
गप
गपट
गब
गभ
गम
गमरवर
गय
गयत
गयल
गर
गरज
गरण
गरब
गरभ
गरम
गल
गलल
गळ
गळय
गव
गवड
गवडय
गवण
गवत
गवर
गवळ
गश
गस
गसर
गसल
गह
घ
घट
घटक
घटण
घटन
घटम
घटस
घड
घडट
घडण
घडत
घडप
घडय
घडयत
घडयल
घडल
घन
घनत
घम
घर
घरक
घरग
घरच
घव
ङ
ङमय
च
चक
चकचक
चकड
चख
चच
चड
चडकर
चडट
चडल
चडश
चडस
चण
चत
चतर
चद
चन
चप
चपघर
चपर
चब
चम
चमच
चमत
चय
चयत
चयल
चर
चरण
चरब
चल
चलच
चलण
चलत
चलन
चलप
चलय
चलयत
चलयल
चलल
चळ
चळवळ
चव
चवक
चवकश
चवट
चवथ
चवद
चवर
चश
चस
छ
छत
छप
छळ
ज
जक
जकर
जकरण
जखम
जग
जगत
जगद
जगन
जगप
जगभर
जघर
जच
जज
जट
जड
जण
जत
जतन
जतल
जद
जध
जन
जनक
जनगणन
जनत
जनन
जनपद
जनम
जनरल
जनश
जनस
जप
जफन
जब
जबरदस
जभ
जम
जमत
जमन
जमल
जमह
जय
जयच
जयत
जयद
जयनगर
जयनगरच
जयप
जयल
जयव
जयस
जर
जरत
जल
जलद
जलम
जलस
जळ
जळजळ
जळत
जव
जवट
जवटक
जवण
जश
जस
जसत
जह
जहन
झ
झग
झगड
झडप
झबर
झम
झर
झल
झव
ञ
ञवल
ञस
ट
टक
टकक
टकच
टकन
टकर
टग
टच
टज
टट
टड
टण
टणम
टत
टद
टन
टप
टपण
टब
टबळ
टभ
टम
टमटम
टय
टयत
टयल
टर
टरन
टल
टलच
टलर
टव
टस
ठ
ठक
ठण
ठभ
ठय
ठयल
ठर
ठल
ठव
ठवण
ठश
ड
डक
डकर
डग
डच
डचड
डट
डटकच
डटन
डण
डत
डतर
डतल
डद
डन
डनच
डप
डपत
डफ
डब
डम
डय
डयत
डयल
डर
डल
डलल
डळ
डव
डवण
डवन
डवल
डश
डस
ढ
ढर
ढरप
ढव
ण
णक
णकथ
णकर
णग
णच
णज
णट
णत
णद
णधर
णन
णप
णपत
णब
णभ
णम
णय
णर
णल
णव
णवत
णवल
णवव
णश
णस
त
तक
तकच
तकड
तकथ
तकर
तकल
तकव
तख
तग
तच
तचड
तज
तजव
तट
तटस
तड
तण
तणय
तत
ततज
तथ
तद
तन
तप
तपक
तपण
तपत
तपश
तपस
तफ
तब
तबरप
तबल
तभ
तभर
तम
तय
तर
तरक
तरग
तरच
तरण
तरत
तरन
तरप
तरब
तरम
तरर
तरल
तरस
तल
तलय
तलल
तलव
तळ
तळट
तळप
तळमळ
तळय
तळव
तळस
तव
तवड
तवत
तवन
तवश
तश
तस
तसर
तसल
तह
थ
थक
थड
थत
थन
थप
थपण
थम
थय
थर
थरत
थरयत
थरयल
थरल
थल
थळ
थव
थश
थस
द
दक
दख
दखण
दखल
दग
दच
दज
दड
दण
दत
दतल
दतश
दद
दन
दनप
दनपर
दनश
दप
दपण
दब
दबर
दभ
दम
दमट
दमण
दय
दर
दरब
दरम
दल
दलल
दळ
दळण
दळणवळण
दव
दवर
दवरच
दवरण
दवरत
दवरप
दवरल
दवल
दश
दशक
दशम
दशरथ
दशलक
दशह
दस
दसक
दसम
दसर
दह
ध
धक
धच
धड
धत
धद
धन
धनक
धनगर
धनत
धनय
धनस
धप
धबधब
धम
धर
धरच
धरण
धरत
धरप
धरल
धल
धळ
धव
धवद
धवर
धवस
धश
धस
न
नई
नक
नकर
नकळ
नकळत
नकस
नख
नग
नगर
नगरप
नच
नज
नझड
नट
नटर
नड
नडण
नडल
नडलल
नत
नतळ
नद
नदर
नध
नन
नप
नपण
नपत
नपर
नफ
नब
नबर
नभ
नम
नमन
नमस
नय
नयन
नर
नरक
नरस
नरहर
नल
नळ
नळय
नव
नवज
नवट
नवण
नवत
नवन
नवर
नवल
नवलकथ
नवव
नवश
नवस
नश
नस
नसन
नसभ
नसर
नसश
नह
प
पक
पकल
पख
पखव
पग
पगड
पच
पचन
पज
पट
पटन
पटल
पठ
पड
पडच
पडट
पडटल
पडत
पडतल
पडन
पडप
पडब
पडल
पडलल
पण
पणज
पणट
पणस
पत
पतकच
पथ
पथक
पद
पदक
पदम
पदर
पदव
पध
पन
पप
पपट
पब
पम
पय
पयत
पयतल
पयल
पयश
पयस
पर
परक
परगट
परच
परज
परत
परतत
परतल
परद
परप
परब
परम
परमण
परमळ
परमह
परर
परल
परव
परश
परस
पल
पलतड
पलल
पळ
पळय
पळयत
पळयल
पव
पवन
पश
पस
पसत
पसर
पह
फ
फक
फकत
फच
फट
फटक
फड
फडक
फडत
फत
फन
फर
फरक
फल
फळ
फव
फस
ब
बई
बक
बकड
बग
बगर
बच
बज
बट
बड
बडय
बडव
बत
बद
बदक
बदल
बदलत
बदलप
बदलल
बध
बन
बप
बम
बय
बयच
बयत
बयल
बर
बरख
बरच
बरप
बरय
बरयण
बरयत
बरयतन
बरयल
बरयलल
बरवप
बल
बलर
बळ
बळग
बव
बश
बस
बसक
बसत
बसप
बसयत
बसयल
बसल
बसव
बह
भ
भक
भग
भगत
भगतस
भगव
भगवत
भगवद
भगसण
भजत
भजन
भट
भत
भद
भप
भय
भयग
भयण
भर
भरच
भरण
भरत
भरतक
भरतकल
भरतन
भरतम
भरन
भरप
भरभर
भरल
भरव
भरश
भरस
भरसण
भरसल
भल
भळ
भव
भवत
भवन
भवर
भश
भस
म
मक
मकत
मकथ
मकर
मकव
मख
मखण
मग
मगध
मच
मचर
मज
मजगत
मजत
मजल
मझ
मट
मठ
मड
मडक
मडग
मण
मणर
मत
मतद
मतभ
मथ
मद
मदत
मदन
मदर
मदल
मध
मन
मनम
मनयत
मनर
मनश
मनष
मनस
मप
मपण
मपद
मपर
मब
मभ
मम
मय
मयज
मर
मरच
मरण
मरत
मरतकच
मरन
मरप
मरस
मल
मलब
मलय
मळ
मळब
मव
मश
मशह
मस
मसत
मसन
मसम
मह
महत
य
यक
यकड
यकत
यकर
यकल
यख
यग
यगड
यगत
यच
यज
यजम
यझ
यट
यटक
यटन
यड
यण
यत
यतक
यतन
यतर
यतल
यथ
यद
यध
यन
यनच
यनर
यनश
यप
यपण
यपद
यपर
यफ
यफळ
यब
यबल
यभ
यभर
यम
यमच
यमध
यमन
यमय
यमवर
यमस
यय
ययन
यर
यरचण
यरचन
यरत
यरस
यल
यलट
यळ
यव
यवट
यवत
यवन
यवर
यवस
यश
यशव
यशस
यस
यसन
यसभ
यसम
यसर
यसळ
यह
र
रक
रकट
रकड
रकम
रकर
रकरण
रकल
रख
रखन
रखप
रग
रगट
रगत
रगतप
रगळ
रगळट
रघ
रच
रचण
रचत
रचन
रचप
रचल
रचलल
रज
रजत
रजन
रझ
रट
रठ
रड
रडत
रण
रणज
रणपण
रणम
रणमन
रणय
रत
रतकच
रतन
रतभर
रतम
रतल
रथ
रथम
रथर
रद
रदक
रदर
रध
रन
रनल
रप
रपट
रपटग
रपटघर
रपटन
रपटल
रपटस
रपण
रपत
रपद
रपर
रफ
रफळ
रब
रबर
रभ
रभद
रभर
रम
रमक
रमण
रमतव
रमर
रमव
रय
रयत
रयल
रर
रल
रळ
रव
रवचन
रवट
रवण
रवत
रवर
रवळन
रश
रशस
रष
रस
रसक
रसत
रसन
रसर
रसरण
रह
रहण
रहम
रहस
रहसन
ल
लक
लकर
लकल
लख
लखन
लखब
लग
लगड
लघ
लच
लज
लट
लड
लढ
लत
लतकच
लद
लन
लप
लपट
लपण
लपत
लफ
लब
लबर
लभ
लम
लमत
लमतव
लय
लयत
लयल
लर
लल
लव
लवच
लवण
लश
लशह
लस
लसण
लह
ळ
ळक
ळकर
ळख
ळग
ळगड
ळगडय
ळच
ळज
ळट
ळटकच
ळटन
ळटल
ळण
ळत
ळतल
ळद
ळन
ळप
ळपय
ळब
ळम
ळय
ळयत
ळयल
ळर
ळल
ळळ
ळव
ळवण
ळवळ
ळश
ळस
व
वक
वकर
वखद
वग
वगड
वघ
वच
वचच
वचत
वचन
वचप
वचल
वज
वजण
वजन
वझ
वझर
वट
वठ
वड
वडय
वडल
वण
वत
वतक
वतकच
वतण
वतणच
वतन
वतनद
वतल
वथ
वद
वदर
वध
वधर
वन
वनगर
वनच
वनव
वनस
वनसत
वप
वपण
वब
वभ
वभक
वम
वमत
वय
वयत
वयर
वयल
वयव
वर
वरक
वरच
वरण
वरत
वरद
वरन
वरम
वरर
वरल
वरव
वरस
वल
वलल
वळ
वळख
वळखत
वळखल
वळण
वळवय
वव
वश
वस
वसण
वसत
वसन
वसयल
वसल
वह
वहन
श
शक
शकत
शकन
शकर
शकल
शच
शज
शट
शण
शत
शतक
शतपथ
शतम
शद
शन
शनच
शनर
शनल
शप
शपर
शब
शभ
शभक
शभर
शम
शय
शर
शरण
शरद
शल
शळ
शव
शवच
शवर
शश
शस
शह
शहर
ष
षक
षग
षच
षण
षणक
षत
षद
षन
षप
षपण
षपद
षभ
षम
षमत
षय
षयर
षर
षरत
षव
षश
षष
षस
स
सक
सकट
सकड
सकत
सकयल
सकयलद
सकर
सकल
सख
सग
सगट
सगल
सगळ
सगळय
सघ
सच
सज
सजयत
सजयल
सट
सड
सडवण
सण
सत
सतक
सतत
सतन
सतम
सतर
सतल
सतलज
सद
सदच
सदत
सदर
सदळ
सदस
सध
सन
सनव
सप
सपट
सपण
सपन
सफ
सफर
सफरच
सब
सबर
सभ
सभर
सम
समक
समज
समजच
समजण
समजत
समजतल
समजय
समजल
समत
समन
समय
समर
समश
समस
सय
सयत
सयर
सर
सरक
सरग
सरच
सरण
सरत
सरद
सरन
सरप
सरभ
सरय
सरल
सरळ
सरश
सरस
सल
सलम
सलल
सळ
सव
सवक
सवण
सवन
सवर
सवलत
सवळ
सवस
सश
सशस
सस
सह
सहक
सहज
सहजत
सहन
सहभ
सहव
सहस
ह
हक
हकल
हच
हज
हट
हड
हडप
हडपण
हडल
हडव
हण
हणक
हणग
हणच
हणज
हणट
हणटकच
हणटच
हणटल
हणण
हणत
हणतच
हणप
हणल
हणसर
हत
हतव
हद
हन
हप
हब
हम
हय
हयक
हयन
हर
हरच
हरण
हरत
हरद
हरप
हरय
हरर
हरल
हरव
हरश
हल
हलक
हळ
हळड
हळद
हळय
हळर
हव
हवन
हवर
हश
हस
हसन
़
ऽ
ा
ि
ी
ु
ू
ृ
ॄ
ॅ
ॆ
े
ै
ॉ
ॊ
ो
ौ
्
ॐ
॑
॔
ॠ
ॡ
।
॥
०
००
०००
०१
०२
०३
०४
०५
०६
०७
०८
०९
१
१०
१००
१०००
११
११०
११३
१२
१२०
१२००
१२५
१३
१४
१४०
१४९८
१५
१५०
१५००
१५१०
१६
१६०
१७
१८
१८६८
१८८०
१८८१
१८९२
१८९३
१८९५
१८९७
१८९९
१९
१९००
१९०२
१९०३
१९०५
१९०६
१९०८
१९११
१९१२
१९१३
१९१४
१९१५
१९१६
१९१७
१९१८
१९१९
१९२०
१९२१
१९२२
१९२३
१९२४
१९२५
१९२७
१९२८
१९२९
१९३०
१९३१
१९३२
१९३३
१९३४
१९३५
१९३६
१९३७
१९३८
१९३९
१९४०
१९४१
१९४२
१९४३
१९४४
१९४५
१९४६
१९४७
१९४८
१९४९
१९५०
१९५१
१९५२
१९५३
१९५४
१९५५
१९५६
१९५७
१९५८
१९५९
१९६०
१९६१
१९६२
१९६३
१९६४
१९६५
१९६६
१९६७
१९६८
१९६९
१९७०
१९७१
१९७२
१९७३
१९७४
१९७५
१९७६
१९७७
१९७८
१९७९
१९८०
१९८१
१९८२
१९८३
१९८४
१९८५
१९८६
१९८७
१९८८
१९८९
१९९०
१९९१
१९९२
१९९३
१९९४
१९९५
१९९६
१९९७
१९९८
१९९९
२
२०
२००
२०००
२००१
२००२
२००३
२००४
२००५
२००६
२००७
२००८
२००९
२०१०
२०११
२०१२
२०१३
२०१४
२०१५
२०१६
२०१७
२१
२२
२३
२४
२५
२५०
२६
२७
२८
२९
३
३०
३००
३१
३२
३३
३४
३५
३६
३७
३८
३९
४
४०
४००
४०३५०६
४०३७०३
४०३७०४
४१
४२
४३
४४
४५
४६
४७
४८
४९
५
५०
५००
५१
५२
५३
५४
५५
५६
५७
५८
५९
६
६०
६००
६१
६२
६३
६४
६५
६६
६७
६८
६९
७
७०
७००
७१
७२
७३
७४
७५
७५०
७६
७७
७८
७९
८
८०
८००
८१
८२
८३
८४
८५
८६
८७
८८
८९
९
९०
९१
९२
९३
९४
९५
९६
९७
९८
९९
९९९
॰
ॲ
ॲटल
ॲन
ॲर
ॲस
ন
ভ
য
র
ল
ষ
়
া
ি
ু
ে
্
க
ட
ப
ம
ய
ர
ல
ா
ி
ு
ெ
ை
்
ಂ
ಅ
ಅಕ
ಅಗ
ಅಜ
ಅತ
ಅದ
ಅಧ
ಅನ
ಅಪ
ಅಭ
ಅಮ
ಅರ
ಅಲ
ಅವ
ಅಶ
ಅಸ
ಆ
ಆಕ
ಆಚರಣ
ಆಜ
ಆಡ
ಆತ
ಆದ
ಆಧ
ಆನ
ಆಪ
ಆಪಯ
ಆಫ
ಆಮ
ಆಯ
ಆರ
ಆಲ
ಆವ
ಆವಯ
ಆಶ
ಆಸ
ಇ
ಇಗರ
ಇಜ
ಇತ
ಇನ
ಇಯ
ಇರ
ಇಲ
ಇಸ
ಈ
ಉ
ಉಕ
ಉಗ
ಉಚ
ಉಜ
ಉಡ
ಉತ
ಉತರ
ಉದ
ಉಪ
ಉಯ
ಉರ
ಉಲ
ಉಲಯ
ಊ
ಎ
ಎಕ
ಎಜ
ಎಪ
ಎಫ
ಎಲ
ಎಸ
ಏ
ಏಕ
ಏಸ
ಐ
ಒ
ಒವ
ಓ
ಓಪ
ಕ
ಕಟ
ಕಡ
ಕಣ
ಕಥ
ಕನ
ಕಬ
ಕಯ
ಕರ
ಕರಚ
ಕರತ
ಕಲ
ಕಲಸ
ಕಳ
ಕವ
ಕಶ
ಕಸ
ಖ
ಖಟ
ಖಣ
ಖತ
ಖನ
ಖಬರ
ಖಯ
ಖರ
ಖಲ
ಖವ
ಗ
ಗಜ
ಗಟ
ಗಡ
ಗಣ
ಗತ
ಗಯ
ಗರ
ಗರಜ
ಗಲ
ಗಳ
ಘ
ಘಟ
ಘಡ
ಘರ
ಚ
ಚಡ
ಚರ
ಚಲ
ಚಲಯ
ಚವ
ಛ
ಜ
ಜಕ
ಜಡ
ಜಣ
ಜನ
ಜಬ
ಜಮ
ಜಯ
ಜರ
ಜಲ
ಜಸ
ಝ
ಝಡ
ಞ
ಟ
ಟಕ
ಟನ
ಟಯ
ಟರ
ಠ
ಡ
ಡಲ
ಢ
ಣ
ತ
ತಕ
ತಚ
ತತ
ತನ
ತಮ
ತಯ
ತರ
ತಲ
ತಳ
ತಶ
ತಸ
ಥ
ಥಡ
ದ
ದಕ
ದನ
ದಯ
ದರ
ದಳ
ದವ
ದವರ
ಧ
ಧನ
ಧರ
ನ
ನಗ
ನಡ
ನತ
ನಮ
ನಯ
ನರ
ನವ
ನಶ
ಪ
ಪಕ
ಪಟ
ಪಡ
ಪಣ
ಪತ
ಪದ
ಪನ
ಪಯ
ಪರ
ಪರತ
ಪಳ
ಪವ
ಪಶ
ಫ
ಫಳ
ಬ
ಬದ
ಬರ
ಬರಯ
ಬರವ
ಬಳ
ಬಸ
ಭ
ಭಕ
ಭಗ
ಭಯ
ಭರ
ಭವ
ಭಸ
ಮ
ಮಕ
ಮಗ
ಮಟ
ಮಣ
ಮತ
ಮದ
ಮಧ
ಮನ
ಮರ
ಮರಣ
ಮಲ
ಮಳ
ಮಸ
ಮಹ
ಯ
ಯಕ
ಯಚ
ಯನ
ಯಪ
ಯರ
ಯಲ
ಯವ
ರ
ರಕ
ರಚ
ರಜ
ರಣ
ರತ
ರದ
ರನ
ರಪ
ರಭ
ರಮ
ರಮಣ
ರಯ
ರಲ
ರಳ
ರವ
ರಶಸ
ರಸ
ರಹ
ಲ
ಲಕ
ಲಗ
ಲಗಡ
ಲತ
ಲನ
ಲಯ
ಲಲ
ಳ
ಳನ
ಳಲ
ವ
ವಕ
ವಚ
ವಜ
ವಟ
ವಣ
ವತ
ವನ
ವಪ
ವಯ
ವರ
ವಳ
ವವ
ವಸ
ಶ
ಶಕ
ಶತಮ
ಶನ
ಶಬ
ಶಯ
ಷ
ಷಣ
ಸ
ಸಕ
ಸಗ
ಸಚ
ಸಡ
ಸತ
ಸದ
ಸನ
ಸಬ
ಸಭ
ಸಮ
ಸರ
ಸಲ
ಸವ
ಸಸ
ಹ
ಹಜ
ಹಡ
ಹಣ
ಹತ
ಹಯ
ಹರ
ಹಳ
ಹಸ
಼
ಾ
ಿ
ು
ೂ
ೃ
ೆ
ೌ
್
ೕ
ೖ
೦
೧
೨
೨೦೦೫
೨೦೦೬
೨೦೦೭
೨೦೦೮
೨೦೦೯
೨೦೧೦
೩
೪
೫
೬
೭
೮
೯
ം
ക
ാ
‌
‍
‑
–
—
‘
’
‚
“
”
‟
•
…
′
″
›
€
₹
℟
℣
⅓
←
↑
→
↓
↔
↷
−
≈
≤
≥
⋅
␥
③
④
⑦
♠
✗
⺀
⺄
⺆
⺈
⺊
⺌
⺕
⺝
⺸
⺼
⿰
⿱
⿲
⿳
⿴
⿵
⿶
⿷
⿸
⿹
⿺
⿻
〢
コ
ユ
㇁
㇂
㇄
㇇
㇈
㇉
㇓
㐁
㐄
㐅
㐌
㐫
㐬
㐭
㐮
㐱
㑒
㒵
㒸
㒼
㓁
㓞
㔾
㕛
㕣
㖾
㘝
㚅
㚇
㚔
㚘
㝉
㝡
㝴
㝵
㞋
㞢
㞷
㠩
㠭
㠯
㡀
㡭
㡿
㢲
㢴
㣇
㣺
㥯
㪅
㫄
㫐
㫒
㫺
㬅
㬎
㬥
㬰
㲋
㳄
㷠
㸒
㸚
㸦
㼌
㼲
㽞
㿟
䀠
䂞
䍃
䏍
䒑
䖍
䖒
䖝
䖵
䙴
䚻
䜌
䝿
䡛
䧹
䪞
一
丁
丂
七
丄
丅
丆
万
丈
三
上
下
丌
不
与
丏
丐
丑
专
且
丕
世
丘
丙
业
东
丞
丢
丣
两
严
並
丨
丩
个
丫
丬
中
丮
丰
丱
串
丵
丶
丷
丸
丹
为
主
丽
丿
乀
乂
乃
久
乆
乇
么
义
之
乌
乍
乎
乏
乐
乑
乔
乖
乗
乘
乙
乚
乛
乜
九
乞
也
习
乡
乳
乾
亀
亅
了
亇
予
争
事
二
亍
于
亏
亐
云
互
亓
五
井
亘
亚
亜
亞
亟
亠
亡
亢
交
亥
亦
产
亨
亩
享
京
亭
亮
亯
亰
亲
亳
亶
亷
人
亻
亼
亾
仁
今
介
仌
从
仐
仑
仒
仓
仕
他
付
仝
代
令
以
任
企
伊
伏
伐
休
会
伯
但
位
何
佘
余
作
佥
使
來
侈
侌
侖
侯
侵
便
保
俞
信
修
倉
倍
候
倠
備
僉
僕
儿
兀
允
兂
元
兄
充
兆
兇
先
光
兊
克
兌
免
兑
兒
兓
兔
党
兜
兟
入
全
兩
兪
八
公
六
兮
兰
共
关
兵
其
具
典
兹
兼
冀
冂
冃
冄
内
冈
冉
冊
冋
册
再
冎
冏
冐
冒
冓
冖
冗
冘
军
农
冝
冡
冥
冫
冬
冷
几
凡
凢
凵
凶
凷
凸
凹
出
函
凾
刀
刁
刂
刃
刄
刅
分
切
刍
刑
刕
刖
列
刘
则
初
別
利
别
到
制
刺
則
削
剌
前
剡
剽
劉
力
功
加
劦
助
劫
劳
劵
勃
勇
勉
勒
動
務
勞
勤
勹
勺
勻
勾
勿
匀
匂
包
匆
匈
匊
匋
匍
匕
化
北
匚
匝
匡
匪
匱
匸
匹
区
医
匽
匿
區
十
卂
千
卄
卅
卆
升
午
卉
半
卌
华
卑
卒
卓
单
卖
南
卜
卝
卞
占
卡
卢
卣
卤
卦
卩
卪
卬
卯
印
危
即
却
卵
卷
卸
卻
厂
厃
厄
历
厈
厉
厌
厓
厘
厚
原
厤
厥
厨
厭
厲
厶
厷
厸
去
厼
厽
叀
参
參
叅
又
叉
及
友
双
反
叐
发
叒
叔
叕
取
受
叚
叜
叟
口
古
句
另
叩
只
召
可
台
叱
史
右
叵
号
司
叹
吂
各
吅
合
吉
吊
吋
同
名
后
吏
向
吕
君
吝
吞
否
含
启
吳
吴
吹
吾
呂
呆
呈
告
员
呙
周
命
咅
和
咎
咠
咢
咨
咸
咼
哀
品
哉
員
哥
哲
唐
商
啇
問
啚
啬
啻
善
喜
喬
單
喿
嗇
噩
嚴
囊
囗
囘
囙
囚
四
回
囟
因
囧
囬
困
囱
囷
固
国
圂
圅
國
圍
圓
土
圡
圣
圥
在
圭
地
圶
圼
坐
坒
坚
坴
垂
垔
垚
埀
埋
埶
執
基
堂
堅
堆
堇
堯
塞
墨
壘
士
壬
壯
声
壳
壴
壹
壺
壽
夂
处
夅
夆
备
夊
夋
夌
复
夏
夒
夕
外
夗
夘
多
夜
夢
大
夨
天
太
夫
夬
夭
央
失
夲
头
夷
夸
夹
夻
夾
奂
奄
奇
奈
奉
奎
奏
奐
契
奓
奔
奚
奞
奠
奢
奥
奭
女
奴
奻
好
如
妄
妙
妟
妥
妻
妾
姑
委
姜
威
娄
婁
婴
嬰
嬴
子
孑
孔
孕
孖
字
存
孚
孛
孝
孟
季
孤
学
孫
孱
學
宀
宁
宂
它
宅
宇
守
安
宋
完
宏
宓
宗
官
定
宛
宜
宝
客
宣
室
宮
宰
害
家
容
宾
宿
寄
寅
密
富
寒
察
寧
審
寫
寬
寮
寸
对
寺
寻
寽
対
寿
封
尃
射
将
將
專
尉
尊
尋
尌
對
小
少
尒
尓
尔
尖
尗
尚
尞
尢
尣
尤
尧
尨
尭
就
尸
尹
尺
尻
尼
尽
尾
尿
局
居
屈
屋
屎
屏
屑
展
屖
屚
属
屠
屡
屬
屮
屯
屰
山
屵
屾
岁
岂
岑
岡
岩
岳
岸
峯
島
崇
崑
崔
崖
崙
崩
嵬
嶲
巂
巛
川
州
巟
巠
巢
巤
工
左
巧
巨
巩
巫
差
己
已
巳
巴
巷
巸
巽
巾
巿
帀
市
布
希
帚
帛
帝
带
師
席
帶
常
干
平
年
幵
并
幷
幸
幺
幻
幼
幽
幾
广
広
庄
床
底
店
庚
府
度
庫
庭
庶
康
庸
廉
廌
廛
廣
廩
廴
延
廷
建
廾
廿
开
弁
弃
弄
弇
弋
式
弓
弔
引
弗
弘
弜
弟
弥
弦
弱
張
強
强
彊
彌
彎
彐
彑
当
彔
录
彖
彗
彡
形
彥
彦
彧
彭
彳
役
彼
往
待
律
徒
得
徙
從
復
微
徵
心
忄
必
忌
忍
志
忝
忠
忩
快
念
忽
忿
思
怠
急
怱
恆
恒
恩
恭
息
悉
患
悤
悲
悶
惠
惡
惢
愁
愈
意
愛
感
慈
慧
慮
憂
憲
應
戀
戈
戉
戊
戋
戌
戍
戎
成
我
戒
戔
或
戚
戠
戢
截
戲
戶
户
戹
戼
戾
房
所
扁
扇
手
扌
才
打
托
执
承
折
拉
拜
拿
掌
推
提
摩
支
攴
攵
收
攸
改
放
政
敄
敏
敕
敖
敗
敝
敞
敢
散
敦
敫
敬
数
敷
數
斂
文
斉
斊
斗
斤
斥
斩
斬
斯
新
方
於
施
斿
旁
旋
族
无
旡
既
旣
日
旦
旧
旨
早
旬
旱
旲
时
旾
昆
昇
昌
昍
明
昏
易
昔
昗
昜
星
春
昬
是
昱
昴
昷
時
晃
晋
晏
普
景
晶
智
暑
暴
曇
曩
曰
曲
曳
更
曷
書
曹
曼
曾
替
最
朁
會
月
有
朋
服
朔
朕
朗
望
朝
木
朩
未
末
本
札
朮
术
朱
朵
朶
朿
杀
杏
杜
束
条
来
東
杲
杳
松
析
林
枚
果
枝
枲
枼
某
柔
查
柬
柰
柴
栗
根
桀
桑
桼
梁
條
梟
梨
棘
棠
棥
森
楚
業
楽
榮
樂
樊
欠
次
欣
欮
欲
欶
欽
款
歆
歇
歛
止
正
此
步
武
歨
歪
歮
歯
歰
歲
歴
歷
歸
歹
歺
死
殳
段
殷
殸
殹
殺
殻
殿
毋
毌
母
每
毒
比
毕
毚
毛
毳
氏
氐
民
气
氣
水
氵
氶
氷
永
氺
氾
求
汝
汞
江
沃
沓
沙
沝
泉
法
波
泣
泥
泰
洛
洪
活
派
流
浦
浪
浮
淡
淮
清
渚
渠
湯
滿
漸
火
灬
灭
灰
灵
灷
炅
炎
炏
炗
炙
炭
為
烈
烏
烝
焉
無
焦
焱
然
煞
熊
熏
燕
營
燮
爪
爫
爭
爯
爰
爱
爲
爵
父
爻
爽
爾
爿
片
牙
牚
牛
牜
牟
牢
牧
牪
牽
犀
犬
犭
犮
狂
狄
狊
独
狺
猋
猒
猪
献
獻
玄
率
玉
王
玟
玨
珎
班
琴
瑟
瑩
瓜
瓦
甘
甚
生
産
用
甫
甬
田
由
甲
申
电
甶
男
甸
甹
画
甾
畀
界
畏
畐
留
畜
畟
畢
畧
畨
番
畫
異
畱
當
畺
畾
疊
疋
疌
疑
疒
疾
癶
癸
癹
登
發
白
百
皀
皃
的
皆
皇
皋
皐
皕
皮
皷
皿
盃
盆
盇
盈
益
盍
盎
监
盒
盖
盛
盡
監
盤
盧
目
直
相
盾
省
眇
眉
看
眔
眞
真
眷
眼
眾
着
睘
睪
睿
瞏
瞢
瞿
矍
矛
矞
矢
矣
知
矦
短
石
破
碎
磊
磨
示
礻
礼
祟
票
祭
禀
禁
禸
禹
禺
离
禽
禾
禿
秀
秃
秉
秋
科
秝
秦
移
稟
穀
穌
穴
究
穹
空
穿
突
窄
窒
立
竒
竜
竝
竟
章
童
竹
笑
笠
筆
等
答
箕
算
箴
節
篤
篭
米
粉
粛
粟
粤
粦
粲
糞
糸
糹
系
約
納
素
索
紫
累
細
絜
絫
絲
維
綿
縣
繇
纍
纟
缶
网
罒
罔
罕
罗
罙
罡
罢
罪
署
罷
羅
羊
羌
羍
美
羔
羕
羗
羞
羡
羣
群
義
羲
羸
羽
翁
翏
習
翕
翟
翠
翼
老
耂
考
者
耆
而
耎
耑
耒
耳
耴
耶
耷
聂
聊
聖
聚
聶
聿
肀
肃
肅
肉
肖
肙
肥
肩
肯
育
肴
胃
背
胡
胥
能
脊
脩
膚
臣
臤
臧
自
臬
臭
臯
臱
至
致
臺
臼
臽
臾
臿
舀
舂
舄
與
興
舉
舌
舍
舛
舜
舞
舟
般
艮
良
色
艸
艹
艾
芒
芔
芬
芮
花
芳
芺
芻
苔
苗
苟
若
苦
英
茶
茸
荅
草
荒
荣
荼
莆
莧
莫
莽
菆
菊
菐
華
萬
落
葉
著
葛
董
葵
蒙
蒦
蒼
蓋
蓬
蓺
蔑
蔡
蕉
蕭
薄
薛
薦
薰
藍
藏
藥
蘭
虍
虎
虐
虒
虔
處
虖
虗
虘
虚
虛
虜
虞
虫
虽
蚤
蚩
蜀
蜜
蟲
蠡
血
行
衍
衛
衣
衤
表
衮
衰
袁
袞
褭
褱
襄
襾
西
覀
要
覃
見
規
覓
覧
親
覽
见
角
解
言
訁
訇
計
詹
誩
諸
讠
谷
豆
豈
豊
豐
豕
豖
豙
象
豦
豩
豪
豸
貇
貝
貞
貟
負
貢
貧
貪
貫
責
貳
貴
買
費
賁
資
賈
賏
賓
賔
賛
賞
賢
賣
質
賴
贊
贝
贡
责
贯
贲
贵
赖
赞
赤
赦
走
越
足
路
蹇
身
躬
車
軍
軎
軟
輦
车
辛
辜
辟
辥
辰
辱
農
辵
辶
边
达
过
近
连
迷
追
退
送
逆
逐
通
速
造
逢
連
逮
進
遀
遂
過
道
達
遣
適
遷
遺
邊
邑
邕
那
邦
邪
郎
部
郭
都
鄉
酉
酋
配
酓
釆
采
里
重
野
量
金
釒
錢
钅
長
镸
长
門
閃
閉
開
閏
閑
閒
間
閔
閵
閻
闌
门
间
闷
阑
阜
阝
阿
降
陳
隆
隊
隋
隡
隨
隱
隶
隹
隺
隻
隼
隽
难
雀
雁
集
雈
雋
雍
雐
雔
雙
雚
雜
雝
離
難
雨
雩
雪
雲
零
雷
需
霍
霜
霝
霞
霸
靈
靑
青
非
靡
面
靣
革
韋
韦
韭
韯
韱
音
頁
頃
項
須
頗
頡
頻
顛
页
風
风
飛
飞
食
飠
養
饣
首
香
馬
馮
駦
马
骨
高
髟
鬥
鬯
鬲
鬼
魚
魯
鮮
鱼
鲁
鳥
鳳
鸟
鹵
鹿
麃
麗
麥
麦
麻
黃
黄
黍
黎
黑
黒
黨
黹
黽
黾
鼎
鼓
鼠
鼻
齊
齋
齐
齒
齿
龍
龙
龜
龟
龠
龰
龱
龴
龵
龶
龷
龸
龹
者
艹
﻿
？
𠀁
𠀃
𠀆
𠀉
𠀎
𠀐
𠁁
𠁣
𠂆
𠂇
𠂈
𠂉
𠂊
𠂋
𠂎
𠂒
𠂔
𠂛
𠂡
𠂢
𠂤
𠂬
𠂭
𠂹
𠃊
𠃋
𠃌
𠃍
𠃎
𠃑
𠃓
𠃔
𠃜
𠄌
𠄎
𠄠
𠄢
𠆢
𠆥
𠇍
𠈌
𠌵
𠓜
𠔉
𠔥
𠔼
𠔽
𠔿
𠕀
𠕁
𠕋
𠘧
𠘨
𠙻
𠙼
𠚏
𠚒
𠚤
𠚪
𠣏
𠤎
𠤕
𠥓
𠦄
𠦑
𠦝
𠧒
𠧗
𠧪
𠩺
𠪚
𠫓
𠫔
𠫤
𠬛
𠬝
𠬞
𠬢
𠬤
𠬶
𠮛
𠮦
𠮷
𠯑
𠱠
𠳮
𠷎
𡈼
𡉀
𡉵
𡌥
𡍮
𡏳
𡕒
𡕩
𡕰
𡖅
𡗗
𡗜
𡘆
𡘤
𡧱
𡨄
𡩧
𡬠
𡭽
𡰣
𡰥
𡰪
𡰯
𡰱
𡷈
𡸁
𡿨
𡿩
𡿪
𡿺
𢀖
𢀛
𢀩
𢁙
𢆉
𢆰
𢆶
𢇁
𢇇
𢉖
𢌬
𢌿
𢏚
𢑑
𢑚
𢖻
𢙣
𢛳
𢦏
𢦒
𢧵
𢼄
𢾕
𣁋
𣄼
𣅀
𣅽
𣍘
𣎳
𣎵
𣏋
𣏼
𣗥
𣥂
𣥖
𣦵
𣦼
𣧄
𣪊
𣪠
𣬉
𣳾
𣶒
𤇾
𤊽
𤐫
𤓰
𤔔
𤕨
𤣩
𤰇
𤰔
𤰞
𤴓
𤴔
𤽄
𥁑
𥁕
𥃦
𥃩
𥃭
𥇡
𥑟
𥘅
𥘈
𥝢
𥫗
𥱡
𦈢
𦉪
𦉬
𦉼
𦍌
𦍒
𦎧
𦐇
𦓔
𦔮
𦘒
𦙃
𦚏
𦣝
𦣞
𦣻
𦥑
𦥔
𦥯
𦨉
𦭝
𦰩
𧆞
𧈧
𧘇
𧰨
𧴪
𧴮
𧵩
𧾷
𨸏
𨾴
𩙿
𩠐
𩫏
𩵋
𪉷
𪜀
𪟽
𪠲
𪩲
𫇦
𫔭
𫜸
𫝀
𫠣
𫠩
𫢉
𫥞
𫩏
𫩠
𫪡
𫲽
𫶧
𬀷
𬐘
𬗌
𬙙
𬛸
𬜯
𬟩
𬯁
𬴘
𬺻
𬼉
𬼖
𭀰
𭁈
𭁨
𭅰
𭑈
𭕄
𭗼
𭤨
𭥫
𭻾
𮅕
𮊿
𮍌
𮍏
𮓗
𮥼
𮧮
廾
𰀁
𰀄
𰀈
𰀉
𰀕
𰀠
𰀡
𰀢
𰀪
𰁜
𰃮
𰆊
𰆘
𰋙
𰕎
𰢴
𰧭
𰯲
00--
01--
02--
03--
10--
11--
12--
13--
14--
15--
16--
17--
18--
20--
21--
22--
23--
24--
25--
26--
28--
29--
31--
38--
39--
41--
46--
52--
53--
59--
61--
66--
67--
69--
70--
71--
73--
74--
76--
78--
85--
86--
89--
91--
94--
97--
98--
99--
a--
aa--
ab--
ac--
accele--
activ--
ad--
adar--
add--
adi--
ae--
aeristtottol--
af--
afg--
afri--
afrike--
ag--
agga--
ah--
ai--
aiko--
air--
aisol--
aj--
ak--
akar--
akax--
akh--
al--
ale--
alje--
aljeria--
all--
alt--
am--
ambe--
an--
ana--
ang--
angli--
ank--
ant--
anv--
any--
ap--
api--
apo--
append--
appro--
ar--
arch--
arg--
args--
arjen--
arjentti--
arse--
as--
asa--
asam--
asce--
ash--
ass--
at--
atan--
ath--
au--
auto--
auy--
av--
avoi--
aw--
ax--
ay--
ayur--
ayurved--
az--
b--
ba--
bab--
babil--
back--
bad--
bai--
baibol--
bail--
bailan--
baki--
bal--
bam--
bamn--
ban--
band--
banner--
bapa--
bar--
bas--
base--
batch--
baz--
be--
bel--
bell--
ben--
bene--
ber--
bh--
bha--
bhag--
bhak--
bhas--
bhav--
bhaz--
bhe--
bhi--
bho--
bhog--
bhomv--
bhond--
bhonv--
bhonvdde--
bhor--
bhu--
bhur--
bhut--
bi--
bibli--
bin--
bio--
bir--
bla--
blo--
block--
bo--
bog--
bok--
bol--
boll--
bom--
bon--
bor--
bore--
bos--
bospa--
bostod--
boun--
box--
br--
brah--
bram--
bro--
bu--
bud--
bur--
but--
c--
ca--
cal--
calcu--
cam--
camp--
can--
cap--
car--
caro--
carpen--
cas--
cat--
cate--
cc--
ce--
cele--
ch--
cham--
chap--
char--
che--
check--
chedd--
chi--
cho--
chond--
chondro--
chouk--
chov--
chovki--
chu--
ci--
circ--
cite--
cl--
co--
col--
com--
comme--
comp--
con--
concl--
conf--
cong--
conn--
cons--
cont--
content--
contri--
conve--
copy--
cor--
cr--
create--
cro--
cruci--
cs--
cu--
cur--
current--
cy--
cycl--
d--
da--
dab--
dai--
daiz--
dak--
dakh--
dam--
damo--
dan--
dar--
dark--
dars--
data--
date--
day--
dd--
de--
dec--
decla--
dedi--
dee--
default--
deg--
degnn--
del--
delete--
demo--
demon--
demv--
den--
denv--
des--
desig--
deu--
deulla--
dev--
deva--
devi--
dex--
dexan--
dh--
dha--
dhak--
dhatu--
dhi--
dho--
dhor--
dhorm--
di--
diff--
dig--
dik--
din--
dioc--
dis--
disa--
display--
diun--
div--
dlg--
do--
doc--
dog--
doi--
dok--
dol--
dolle--
dom--
domini--
don--
dongr--
dor--
dorea--
dos--
doti--
dour--
dov--
dovor--
dox--
dr--
drakxan--
du--
dub--
dud--
dukh--
dukra--
dul--
dur--
dus--
dv--
dy--
e--
ea--
ec--
ed--
edit--
ef--
effi--
eg--
ek--
eka--
ekame--
ekameka--
ektt--
el--
elec--
electr--
elim--
em--
emer--
emis--
empty--
en--
encyclo--
end--
enum--
env--
equat--
er--
es--
escape--
est--
et--
ethno--
euge--
ex--
exce--
excl--
expand--
expi--
ext--
extra--
ez--
f--
fa--
faci--
faidea--
farize--
fatr--
fatran--
fatt--
fav--
fb--
fe--
fer--
fetch--
ff--
fi--
file--
filo--
fir--
firgoje--
fl--
flag--
fm--
fo--
fodd--
foll--
font--
for--
form--
format--
fos--
fott--
fou--
fr--
frame--
fre--
friendly--
fru--
ft--
fu--
fud--
fug--
ful--
fulan--
full--
fun--
fur--
g--
ga--
gai--
gaj--
gal--
gali--
gan--
gar--
gas--
gaunsa--
gav--
gava--
gavpa--
gaz--
gb--
gba--
ge--
gene--
geo--
get--
getutc--
gh--
gha--
ghal--
ghe--
gheu--
ghev--
ghevpa--
gho--
ghodd--
ghor--
ghora--
ghov--
ghum--
ghus--
gi--
gir--
git--
gl--
go--
goa--
god--
gol--
gom--
gon--
gong--
gonn--
gor--
gorje--
gov--
goy--
gr--
gradu--
grants--
gro--
gu--
guar--
gui--
gune--
gunn--
gur--
h--
ha--
hache--
had--
haddpa--
hal--
han--
har--
hard--
has--
hat--
he--
head--
help--
henri--
her--
hi--
hide--
hie--
high--
him--
himaloya--
hindu--
hir--
his--
ho--
hondduros--
hor--
hot--
hove--
html--
hu--
hum--
hun--
hup--
hus--
hy--
i--
ia--
id--
iden--
ie--
iera--
ieun--
iev--
if--
ig--
igr--
ik--
il--
ilek--
illu--
im--
image--
imp--
impl--
in--
incor--
indr--
info--
inglond--
init--
inner--
insert--
inst--
inter--
inve--
io--
ip--
ir--
is--
iso--
ispan--
ist--
it--
iu--
iv--
ix--
j--
ja--
jag--
jan--
jas--
je--
jer--
jeru--
jerusal--
jev--
jhe--
ji--
jie--
jik--
jikh--
jil--
jiv--
jo--
joa--
join--
js--
ju--
juanv--
juda--
jun--
k--
ka--
kadd--
kaddpa--
kai--
kal--
kall--
kalla--
kam--
kan--
kana--
kann--
kapu--
kar--
kare--
kareak--
karia--
kas--
ke--
kel--
ker--
key--
kh--
kha--
khan--
khar--
khat--
khe--
kho--
khoin--
khonti--
khot--
khus--
ki--
kil--
kilo--
kina--
kir--
kitl--
klo--
kn--
ko--
kodd--
koi--
kok--
kol--
kole--
kolos--
kom--
komp--
kon--
konn--
kor--
kormo--
korto--
kosl--
kou--
koul--
kov--
kovi--
kri--
kru--
ku--
kuk--
kul--
kull--
kulla--
kum--
kun--
kur--
kurpe--
kus--
kux--
kv--
kw--
kxet--
kxot--
l--
la--
lab--
lag--
lagxi--
lakdd--
lam--
land--
lang--
last--
lat--
laup--
lav--
law--
lax--
lay--
lb--
le--
lea--
legi--
levi--
li--
libe--
ling--
link--
list--
liv--
lo--
load--
log--
lok--
lokam--
lokh--
lon--
lookup--
losnni--
low--
ls--
lu--
luthe--
m--
ma--
mace--
mad--
madd--
madhyo--
mag--
magnn--
maha--
mai--
main--
make--
makh--
mal--
man--
map--
mar--
mark--
marpa--
mas--
mask--
mat--
maty--
mav--
max--
may--
me--
mech--
mega--
mek--
meka--
mel--
mell--
men--
merc--
meso--
mesopot--
mess--
meta--
mh--
mha--
mhalo--
mho--
mhuk--
mhun--
mi--
micr--
mid--
migr--
mikro--
mila--
mille--
milli--
min--
mir--
mis--
misc--
missio--
mix--
ml--
mm--
mo--
mod--
modd--
mog--
moh--
moha--
moiz--
moizes--
moj--
mok--
mol--
moll--
mon--
monas--
mondd--
mono--
montri--
mor--
mos--
mosal--
mot--
move--
moz--
mozambi--
mp--
mr--
ms--
msg--
mu--
muk--
mul--
mull--
mun--
mur--
mus--
mw--
my--
n--
na--
nach--
nag--
nagve--
nah--
nam--
namv--
nan--
nar--
narla--
nas--
nat--
natalan--
natt--
nattka--
nav--
naza--
nd--
ne--
neigh--
nem--
neo--
ner--
new--
ng--
nh--
nhes--
nhomy--
nhomyan--
ni--
nil--
nim--
nin--
nir--
nird--
niti--
niv--
nix--
niz--
nizam--
nn--
no--
node--
nogr--
nok--
non--
nor--
nou--
nov--
novre--
nr--
ns--
nt--
nu--
nuk--
num--
nus--
ny--
nya--
nyi--
o--
ob--
obd--
obhi--
oc--
och--
odd--
odh--
odm--
of--
off--
og--
oh--
oi--
ojib--
ok--
okx--
ol--
old--
oli--
ollk--
oly--
om--
omeri--
omerike--
on--
onn--
onsave--
onu--
onuk--
oo--
op--
open--
opp--
opra--
opt--
or--
ore--
org--
orig--
oronne--
orp--
os--
oso--
ot--
oun--
out--
ov--
over--
ovst--
ox--
oz--
p--
pa--
pad--
page--
pai--
pak--
pal--
pam--
pamv--
pamvddea--
pan--
pandd--
panv--
pap--
par--
param--
parse--
parya--
pas--
pass--
pat--
patkan--
patr--
patt--
paus--
pauy--
pav--
pc--
pe--
pecc--
pel--
pen--
per--
pett--
ph--
phi--
philosop--
pho--
phr--
physi--
pi--
pidde--
pie--
pik--
pin--
piray--
pitt--
pivpa--
pl--
plat--
po--
pod--
podd--
poi--
pokx--
pol--
poly--
pon--
ponch--
pongdd--
ponth--
pop--
popup--
por--
porak--
pori--
pospa--
post--
potr--
pott--
pox--
pra--
prak--
pranne--
prart--
pre--
prefix--
pri--
print--
pro--
prod--
proti--
ps--
pseudos--
pu--
pub--
pul--
pun--
punor--
pup--
pur--
purtu--
purtugal--
pus--
put--
puta--
pux--
pya--
q--
qu--
quad--
quot--
r--
ra--
radha--
radi--
rai--
raj--
rajea--
rajean--
rajyokaro--
rak--
rakh--
ram--
rama--
ran--
rat--
rav--
ravpa--
raw--
raz--
raza--
re--
rebe--
rece--
red--
redir--
ref--
reg--
remove--
ren--
render--
res--
rev--
reverttore--
ri--
rig--
ro--
roch--
rod--
rog--
rok--
rokh--
rom--
rong--
ronnjito--
ros--
rot--
row--
rpp--
rt--
ru--
rup--
rv--
s--
sa--
sad--
sadh--
sahi--
sak--
sal--
salgaon--
sall--
sam--
samb--
sampd--
samyo--
san--
sandd--
sang--
sank--
sant--
sar--
sas--
sasu--
sat--
satol--
sav--
save--
sax--
sce--
sch--
sco--
scri--
se--
search--
seba--
sec--
seg--
sek--
sem--
semi--
sen--
ser--
set--
setup--
seve--
sfur--
sh--
sha--
shar--
shashi--
shi--
shig--
shiks--
sho--
show--
si--
sibe--
sik--
sim--
sin--
siol--
situ--
sky--
sl--
so--
sob--
sod--
sodd--
sog--
soh--
soi--
soimba--
soine--
sok--
sokall--
sol--
som--
somarombh--
somaz--
some--
sompe--
somst--
son--
songh--
sonst--
sontos--
sop--
sopt--
sor--
sorg--
sorv--
sot--
soteagroh--
soun--
sov--
sox--
sp--
spo--
spor--
sq--
squ--
sr--
ss--
st--
start--
stat--
stha--
sthap--
stot--
str--
su--
sub--
subse--
suffe--
suk--
sukh--
sum--
sun--
sup--
super--
supp--
sur--
surve--
survi--
suval--
svi--
svo--
swa--
switch--
sy--
synt--
t--
ta--
tab--
tache--
tag--
tal--
talk--
tall--
taluke--
tam--
tan--
tar--
tat--
tb--
td--
te--
tea--
tech--
tel--
ten--
ter--
test--
text--
th--
thar--
the--
thev--
thi--
tho--
thumb--
ti--
tik--
tike--
time--
tin--
tirt--
tis--
title--
tl--
to--
toc--
tok--
toll--
tom--
ton--
tontr--
top--
tor--
toran--
torko--
tornnat--
tou--
tr--
trans--
trea--
tri--
trim--
trin--
trun--
ts--
tt--
tti--
tu--
tum--
tur--
turko--
tv--
tw--
twinkle--
ty--
type--
typi--
u--
ubar--
uch--
ud--
uddoi--
udka--
udye--
ug--
ui--
uj--
uk--
ul--
ulov--
um--
un--
unam--
under--
untt--
up--
upnixo--
upra--
ur--
us--
use--
user--
ut--
utra--
utran--
uz--
v--
va--
vach--
vad--
vag--
vah--
vainge--
val--
valen--
vall--
van--
vang--
vap--
var--
vas--
vat--
vav--
vavr--
vaz--
ve--
vea--
vech--
ved--
vedan--
veg--
vell--
ven--
ver--
veren--
veus--
vev--
vhamv--
vhe--
vhene--
vhenezhuel--
vho--
vi--
vid--
vidya--
viet--
vije--
vik--
vin--
vinn--
viol--
vir--
vis--
vishwa--
vive--
vixe--
vixean--
vixvovi--
vo--
voch--
vodd--
voi--
voixali--
voj--
vok--
vol--
voll--
von--
vonx--
vor--
voran--
vorg--
vorsam--
vosa--
w--
wa--
want--
war--
watch--
we--
wg--
wgcanonical--
wguser--
wi--
wiki--
wil--
win--
wl--
wol--
woo--
wor--
work--
wp--
x--
xa--
xalle--
xan--
xara--
xe--
xek--
xenk--
xenkddea--
xet--
xev--
xfd--
xi--
xik--
xiko--
xikpa--
xim--
ximya--
xin--
xis--
xiv--
xo--
xobd--
xoh--
xok--
xom--
xon--
xonkra--
xor--
xori--
xos--
xot--
xri--
y--
ya--
ye--
yen--
yes--
yeu--
yeup--
yev--
yi--
yo--
yont--
yu--
yug--
yuro--
z--
za--
zage--
zagr--
zal--
zam--
zamb--
zan--
zann--
zat--
zau--
zaup--
zav--
zavpa--
zh--
zho--
zhog--
zhuj--
zil--
zim--
zo--
zodd--
zog--
zom--
zomni--
zon--
zonau--
zor--
zu--
zul--
zun--
zunvean--
zut--
шабл--
अ--
अग--
अन--
अप--
अळ--
आ--
आक--
आड--
आप--
आय--
इ--
ई--
उ--
उद--
उम--
उल--
ऊ--
ऋ--
ऍ--
ऎ--
ए--
एल--
ऐ--
ऑ--
ओ--
औ--
क--
कल--
कळ--
कस--
ख--
खड--
खर--
ग--
गज--
गड--
गद--
गल--
घ--
घन--
घर--
ङ--
च--
चड--
छ--
ज--
जन--
जम--
जय--
झ--
ञ--
ट--
टक--
टर--
ठ--
ड--
डर--
ढ--
ण--
त--
तन--
तस--
थ--
थर--
द--
दग--
दर--
दह--
ध--
धव--
न--
नट--
नव--
प--
पट--
पद--
पर--
पळ--
फ--
फट--
ब--
बर--
बळ--
भ--
भट--
म--
मक--
मड--
मन--
मह--
य--
यल--
र--
रण--
रत--
रम--
रस--
ल--
लक--
ळ--
व--
वन--
वर--
वल--
वळ--
वस--
श--
शय--
ष--
स--
सन--
सम--
सर--
ह--
हट--
हड--
हम--
हर--
ऽ--
१०--
११--
१२--
१३--
१४--
१५--
१६--
१७--
१८--
१९--
२०--
२१--
२२--
२३--
२४--
२५--
२६--
२७--
२८--
२९--
३०--
३१--
३२--
३५--
३६--
३८--
४०--
६२--
८०--
ॲ--
ಅ--
ಆ--
ಇ--
ಉ--
ಎ--
ಏ--
ಒ--
ಓ--
ಕ--
ಖ--
ಗ--
ಚ--
ಜ--
ಝ--
ಟ--
ಡ--
ಣ--
ತ--
ಥ--
ದ--
ಧ--
ನ--
ಪ--
ಫ--
ಬ--
ಭ--
ಮ--
ಯ--
ರ--
ಲ--
ಳ--
ವ--
ಶ--
ಷ--
ಸ--
ಹ--
೧--
೧೯--
೨--
೨೦--
೩--
೪--
೬--
--0
--00
--1
--2
--3
--4
--5
--6
--6592
--7
--8
--9
--a
--abad
--able
--ably
--ac
--ach
--ache
--achea
--achem
--acheo
--acher
--achi
--achim
--acho
--aco
--acy
--ad
--ada
--add
--ade
--ado
--ae
--age
--ah
--ai
--aic
--aien
--aim
--ain
--ained
--ains
--aita
--aj
--ak
--akhatir
--aki
--ako
--akodden
--al
--ala
--ald
--ale
--ali
--all
--ally
--alo
--aloi
--als
--alu
--am
--ama
--aman
--ame
--amed
--amni
--amnim
--amp
--an
--ana
--ance
--anche
--anchea
--anchem
--ancheo
--ancher
--anchi
--ancho
--ane
--ani
--anim
--ank
--ankodden
--ann
--ano
--ans
--ant
--antle
--antlea
--antlean
--antlo
--antole
--antolem
--anv
--ao
--ap
--aphy
--api
--aporos
--apromann
--apu
--apur
--ar
--ara
--arak
--ard
--area
--arg
--args
--ari
--arily
--ary
--as
--asa
--asaun
--at
--ate
--ated
--ately
--ates
--ath
--atha
--ati
--atic
--ating
--ation
--ations
--atir
--ative
--ator
--att
--ature
--au
--aull
--aun
--aunk
--av
--avangodda
--ave
--avi
--avik
--avixim
--avo
--avoll
--aw
--awi
--ax
--ay
--aya
--ayechea
--ayechi
--ayen
--b
--ba
--base
--bb
--bbl
--be
--bem
--bh
--bhu
--bhut
--bi
--ble
--block
--blurb
--bo
--bor
--box
--bra
--bs
--bu
--by
--c
--ca
--cal
--cat
--ce
--cell
--ces
--cfg
--ch
--cha
--che
--chea
--chem
--cheo
--cher
--chi
--chim
--cho
--chya
--ci
--cite
--ck
--cks
--class
--cle
--co
--code
--count
--cs
--ct
--cy
--d
--da
--dak
--dan
--dar
--data
--date
--day
--dd
--dda
--ddli
--ddtta
--de
--deak
--dean
--ded
--dem
--der
--desc
--dh
--dhi
--di
--dia
--dialog
--dic
--dio
--div
--dkar
--dle
--dlem
--dlo
--do
--dop
--dpak
--dpi
--dr
--dra
--ds
--dta
--dtat
--du
--dun
--dunk
--dy
--e
--ea
--eak
--eam
--eamni
--eamnim
--ean
--eanchi
--eancho
--eank
--eant
--ear
--eat
--ec
--eche
--echea
--echem
--echer
--echi
--echim
--echo
--ect
--ection
--ed
--edia
--edit
--ee
--ees
--eg
--ei
--ein
--ek
--el
--ela
--ele
--eli
--elim
--elo
--ely
--em
--ema
--ement
--emic
--en
--ena
--ence
--encies
--ency
--ene
--eni
--ens
--ent
--eo
--eor
--ep
--epec
--er
--ere
--eren
--eri
--error
--ers
--erse
--ert
--ery
--es
--esa
--ese
--esh
--ess
--est
--et
--eth
--ets
--ett
--eum
--ew
--ex
--exi
--ey
--ez
--f
--fa
--failure
--fi
--fied
--fies
--file
--flag
--fo
--form
--format
--ft
--ful
--func
--g
--ga
--gad
--gam
--gao
--ge
--ged
--gem
--ger
--ges
--gh
--gi
--gik
--gim
--giri
--gly
--go
--got
--gra
--gri
--group
--gs
--gu
--gua
--h
--ha
--hak
--ham
--han
--har
--hatir
--he
--hea
--hel
--hen
--heo
--hes
--hi
--hic
--hik
--hin
--hing
--hint
--hip
--hit
--hli
--hna
--ho
--hon
--hood
--hor
--how
--hra
--ht
--html
--hu
--hua
--hun
--hunk
--hy
--i
--ia
--iah
--iak
--ial
--iam
--ian
--ias
--ible
--ic
--ica
--ical
--ich
--iche
--ichea
--ichem
--icher
--ichi
--icho
--ics
--id
--ide
--ie
--ied
--iek
--ien
--ienced
--ier
--ies
--ification
--ified
--ifies
--ify
--ign
--ik
--ika
--ikoronn
--il
--ila
--ilam
--ile
--ilea
--ilem
--ili
--illa
--ilo
--im
--ima
--image
--imni
--in
--ina
--inate
--ination
--ind
--index
--ine
--iness
--info
--ing
--ings
--inho
--ini
--ink
--inn
--inni
--ino
--input
--int
--io
--ion
--ions
--ior
--ious
--ip
--ir
--ira
--ire
--iri
--iro
--is
--isation
--ise
--ised
--ish
--ism
--ist
--it
--ita
--itat
--ite
--ities
--itt
--ity
--ius
--iv
--ive
--ively
--ivity
--ivont
--ix
--iya
--iyn
--iyom
--iz
--ization
--ize
--ized
--izing
--j
--ja
--jab
--jabi
--je
--jek
--jh
--ji
--k
--ka
--kai
--kak
--kam
--kar
--kari
--ke
--kea
--kek
--kem
--kent
--ket
--key
--kh
--khi
--khy
--ki
--kia
--kin
--klp
--ko
--kodden
--koi
--koronn
--kot
--ks
--kt
--ku
--kuch
--kun
--kur
--kx
--kxa
--kxok
--ky
--l
--la
--label
--lai
--lak
--lam
--lan
--lant
--lar
--lay
--ld
--le
--lea
--lean
--lear
--leat
--led
--left
--leli
--lem
--len
--leo
--les
--level
--lh
--li
--lie
--lik
--lim
--lin
--line
--ling
--link
--links
--list
--lit
--ll
--lo
--log
--loi
--lolem
--loli
--lolo
--lom
--londd
--lor
--ls
--lta
--lu
--lun
--ly
--lya
--m
--ma
--mak
--man
--mb
--mba
--me
--ment
--ments
--menu
--messages
--mi
--mit
--mni
--mnim
--mo
--mode
--modim
--mok
--ms
--msg
--mv
--my
--n
--na
--nak
--nam
--name
--names
--nan
--nant
--nar
--nc
--nce
--nch
--nche
--nchea
--nchem
--ncher
--nchi
--nchim
--ncho
--ncy
--nd
--nda
--ndd
--ndr
--ndra
--ne
--nea
--neak
--ned
--nem
--nen
--ner
--nes
--nese
--ness
--ng
--nga
--ngs
--ni
--nia
--nian
--nic
--nik
--nim
--nin
--ning
--nis
--nk
--nki
--nn
--nna
--nnak
--nnam
--nne
--nnea
--nneak
--nnean
--nneant
--nnechea
--nnem
--nni
--nno
--nnuk
--no
--node
--noi
--nom
--notice
--nous
--ns
--nt
--nta
--nte
--ntle
--ntlea
--ntlean
--ntlem
--ntleo
--ntli
--ntlo
--ntly
--nto
--ntole
--nts
--ntti
--nu
--nuch
--nuk
--num
--nums
--nv
--ny
--o
--oa
--obj
--och
--oche
--ochem
--ochi
--ocho
--ock
--od
--oda
--odd
--odde
--odden
--oddlea
--oddlean
--ode
--odhrm
--of
--og
--ogy
--oh
--oi
--oilam
--oilea
--oilem
--oilo
--oita
--oitat
--ok
--okai
--okar
--okh
--oki
--okoch
--okola
--ol
--ola
--ole
--olea
--olem
--oli
--olim
--oll
--olled
--olo
--ology
--om
--oma
--ombia
--on
--ona
--onam
--ond
--onents
--ong
--onk
--only
--onn
--onni
--ons
--ont
--op
--opi
--oponn
--oponnakhal
--oponnan
--or
--ore
--ori
--orm
--ors
--ort
--os
--ose
--osing
--ost
--osun
--ot
--ota
--otai
--otat
--otechem
--oti
--otona
--ott
--otta
--ou
--oun
--ounk
--ounn
--oupa
--oupi
--ous
--out
--ov
--ovad
--ovadi
--oveustha
--ovn
--ovnk
--ovpak
--ow
--ox
--oxai
--oxastr
--oxoha
--oy
--oyam
--oz
--p
--pa
--pache
--pachem
--pachi
--pacho
--page
--pages
--pak
--pal
--pan
--pant
--pe
--pec
--ped
--pi
--pidd
--ping
--pitth
--ple
--po
--pok
--ponn
--ponna
--ponnacho
--ponnan
--ponni
--posun
--prot
--pt
--pu
--pur
--q
--r
--ra
--rak
--ral
--ram
--ras
--rashtra
--rd
--rdo
--re
--rea
--ref
--rek
--rem
--reo
--rg
--ri
--ries
--rik
--rim
--ring
--rit
--rl
--rm
--rn
--ro
--roh
--rok
--rol
--ron
--ror
--row
--rry
--rs
--rt
--rta
--ru
--rus
--rx
--ry
--s
--sa
--sai
--sak
--san
--sann
--saun
--se
--sed
--ses
--sh
--sha
--shi
--ship
--si
--sia
--sis
--sive
--sk
--sm
--so
--son
--sor
--ss
--st
--sta
--stan
--ster
--sti
--stic
--str
--sts
--style
--su
--sudar
--sun
--sy
--t
--ta
--tag
--tags
--tai
--tak
--tal
--tale
--tali
--talo
--tam
--tana
--tanv
--tat
--tation
--te
--ted
--tek
--teleat
--ter
--tes
--text
--th
--tha
--the
--thi
--ti
--tian
--tic
--tik
--ting
--tio
--tion
--tions
--tir
--tit
--title
--tius
--tive
--tla
--tle
--tlea
--tlean
--tlem
--tli
--tlo
--tma
--tmik
--tmok
--tn
--to
--tok
--tokoch
--tol
--tole
--toli
--tolo
--tolom
--ton
--tona
--top
--tor
--tr
--tra
--tri
--trik
--tring
--trum
--ts
--tso
--tt
--tta
--ttam
--ttat
--tte
--ttea
--tth
--tti
--ttik
--tto
--ttokoch
--ttol
--tu
--tun
--tut
--tv
--ty
--tyle
--type
--u
--ua
--ual
--uan
--ub
--uce
--uch
--uct
--uction
--ud
--ude
--udr
--ue
--uela
--ught
--uh
--ui
--uit
--uk
--uki
--ul
--ula
--ulation
--ule
--uli
--ull
--um
--uma
--uman
--un
--una
--ung
--uni
--unk
--unn
--unt
--uo
--uous
--up
--upa
--upak
--upakhatir
--upi
--uporant
--ur
--ura
--ure
--uri
--url
--urs
--us
--user
--ut
--ute
--uti
--ution
--utt
--utten
--ux
--uy
--uylean
--uz
--v
--va
--vak
--val
--value
--vangodda
--var
--vaxi
--ve
--velea
--velem
--ves
--vi
--vik
--vin
--vio
--vn
--vnk
--vo
--voll
--von
--vont
--vop
--vp
--vpak
--vpi
--vt
--vta
--vu
--w
--wa
--wards
--we
--wi
--width
--wo
--x
--xa
--xasit
--xe
--xea
--xem
--xi
--xik
--xil
--xim
--xo
--xok
--xon
--xonn
--xors
--xtt
--xy
--y
--ya
--yai
--yak
--yam
--yan
--yar
--ye
--yek
--yen
--yer
--yi
--ym
--yn
--yo
--yom
--yon
--yr
--yu
--z
--za
--zak
--ze
--zed
--zi
--zo
--zu
--आ
--ई
--ए
--क
--कच
--ख
--ग
--घ
--च
--ज
--झ
--ट
--ठ
--ड
--ढ
--ण
--त
--थ
--द
--ध
--न
--प
--पण
--फ
--ब
--भ
--म
--य
--र
--ल
--ळ
--व
--श
--स
--ह
--०
--०२
--०५
--०८
--१
--१०
--१२
--१३
--२
--३
--४
--५
--६
--७
--८
--९
--ಕ
--ಗ
--ಚ
--ಣ
--ತ
--ದ
--ನ
--ಪ
--ಮ
--ಯ
--ರ
--ಲ
--ಳ
--ವ
--ಸ
--೦
--೧
--೨
--೩
--೪
--೫
--೬
--೭
--೮
--೯
