!
"
#
##0
##1
##10
##11
##12
##13
##14
##15
##16
##17
##18
##19
##2
##20
##21
##22
##23
##24
##25
##26
##27
##28
##29
##3
##30
##31
##32
##33
##34
##35
##36
##37
##38
##39
##4
##40
##41
##42
##43
##44
##45
##46
##47
##48
##49
##5
##50
##51
##52
##53
##54
##55
##56
##57
##58
##59
##6
##60
##61
##62
##63
##64
##65
##66
##67
##68
##69
##7
##70
##71
##72
##73
##74
##75
##76
##77
##78
##79
##8
##80
##81
##82
##83
##84
##85
##86
##87
##88
##89
##9
##90
##91
##92
##93
##94
##95
##96
##97
##98
##99
$
%
&
'
(
)
*
+
,
-
.
/
0
000
01
02
035
04
06
07
08
085
093
1
10
100
1000
100000
101
102
103
104
105
107
108
109
10953
11
111
1139189
114
115
116
117
118
119
12
120
121
123
124
125
1289000
13
133
14
1400
141
144
145
146
148
1492
15
150
1500
151
1511
1538
1539
154
1545
1547
1549
157
1576
159
16
1600
1610471
1616
163
165
166
1666
167
17
170
1700
1713
172
174
1740
1749
1765
1767
1779
178
1781
1782
1783
1784
1785
1786
1789
1790
1791
1792
1794
1795
1797
1798
1799
18
180
1800
1801
1803
1805
1807
1808
1809
1810
1811
1813
1814
1816
1817
1818
1819
1820
1821
1822
1823
1824
1825
1826
1827
1828
1829
183
1830
1831
1832
1833
1834
1835
1836
1837
1838
1839
1840
1841
1842
1843
1844
1845
1846
1847
1848
1849
185
1850
1851
1852
1853
1854
1855
1856
1857
1858
1859
186
1860
1861
1862
1863
1864
1865
1866
1867
1868
1869
1870
1871
1872
1873
1874
1875
1876
1877
1878
1879
1880
1881
1882
1883
1884
1885
1886
1887
1888
1889
1890
1891
1892
1893
1894
1895
1896
1897
1898
1899
19
1900
1901
1902
1903
1904
1905
1906
1907
1908
1909
191
1910
1911
1912
1913
1914
1915
1916
1917
1918
1919
192
1920
1921
1922
1923
1924
1925
1926
1927
1928
1929
1930
1931
1932
1933
1934
1935
1936
1937
1938
1939
194
1940
1941
1942
1943
1944
1945
1946
1947
1948
1949
195
1950
1951
1952
1953
1954
1955
1956
1957
1958
1959
196
1960
1961
1962
1963
1964
1965
1966
1967
1968
1969
197
1970
1971
1972
1973
1974
1975
1976
1977
1978
1979
198
1980
1981
1982
1983
1984
1985
1986
1987
1988
1989
1990
1991
1992
1993
1994
1995
1996
1997
1998
1999
2
20
200
2000
2001
2002
2003
2004
2005
2006
2007
2008
2009
201
2010
2011
2012
2013
2014
2015
2016
2017
2018
2019
2020
2021
2022
208
21
211
212
217
219
22
221
223
224
226
227
228
23
230
235
23591
238
24
242
243
245
248
25
250
251
258
259
26
260
261
263
264
266
27
270
272
276
278
279
28
280
285
287
288
29
293
294
295
296
299
3
30
300
301
303
306
308
309
31
310
312
314
315
317
319
32
320
321
322
323
325
326
328
329
33
330
331
332
333
335
336
337
338
339
34
340
341
342
343
345
348
349
35
350
351
352
353
354
356
359
36
360
365
366
368
369
37
370
371
372
373
374
375
378
379
38
381
384
385
386
39
390
391
393
397
398
399
4
40
400
401
402
403
404
405
406
408
409
41
410
413
414
416
417
42
420
422
422000
423
425
427
428
429
43
430
431
432
433
434
435
437
439
44
443
444
445
447
449
45
453
457
459
46
460
462
463
464
467
47
471
475
48
48000
489
49
490
493
494
5
50
500
501
502
505
507
51
522
526
53
530
54
547
55
550
557
56
57
58
59
590
6
60
600
605
61
610
612
616
617
62
63
631
632
633
63400
637
64
6500
66
67
68
684
69
7
70
700
701
709
710
716
718
72
720
73
737
743
744987
761
77
78
797
8
80
800
81
82
83
837
840
859
865
87
88
880
881
9
90
900
91
93
974
98
:
;
<
=
>
?
@
\
^
_
a
aba
ababa
abbasid
abdi
abdul
abdullah
abel
abo
aborigine
abortion
about
abraham
abreus
abu
ac
academy
acceleration
access
achew
achewa
achi
acid
acosta
actorsedit
acute
ad
adair
adam
adams
adan
adangilili
addiction
addis
addressing
adhadha
adolf
adolfo
aeroton
afghanistan
afilika
africa
african
afrika
afternoon
afwa
aganizi
age
ages
agha
agho
ago
agogo
agriculture
agricultureedit
agua
aguada
aguas
aguila
agusti
ahenga
ahmed
aids
aircraft
aires
airport
airtel
aja
aji
aka
akababizgana
akafula
akafumila
akagaw
akakhala
akale
akaluta
akamba
akapanganga
akapolo
akaswiil
akati
akatola
akatondeka
akaw
akawa
akayamba
akbar
ake
akhala
akhristu
akira
akiza
ako
aku
akubabika
akuchemeka
akudow
akufumila
akufwa
akujumpha
akukhala
akukwana
akulichema
akumanyikwa
akupanga
akusangika
akuti
akuyowoya
akwamba
akwimba
al
ala
alala
alan
alaska
albania
albert
alberto
albrecht
albus
alca
alcohol
alembi
alembindakatulo
alembisew
ales
alexander
alexandra
alfred
alfredo
algebra
algeria
algorithm
ali
alighieri
align
alignbars
alijebra
alikubabizgana
alimbikiski
alizaliwa
all
alleghany
allen
alliance
alloy
alo
alongozgi
alonso
alphabet
alpine
alps
alqui
alquizar
also
alt
alta
aluminium
alvaro
alzheimer
am
amadeus
amasamu
amazon
ambique
ame
amelika
america
american
amerika
amphibian
amsterdam
amu
amundsen
an
ana
anafe
anakazi
analume
analysis
analytical
anamula
anamulo
anandi
anarchism
anatomy
anatomyedit
ancient
and
andale
andersen
anderson
andes
andorra
andre
andrew
andy
anga
angeles
angkor
angle
angola
angonde
angoni
anguilla
angulo
ani
anika
animal
animation
anji
ankara
anne
ant
antarctica
antelope
anthu
anti
antibiotic
antigua
antilla
antilles
anto
anton
antoni
antonio
anyake
anyakhe
anyina
apa
apapi
apartheid
ape
apo
apoka
appeal
apple
april
apulelo
aquinas
ar
arab
arabia
arabic
arabos
arabs
arachnid
arc
arce
arch
archaea
archimedes
architectsedit
architecture
arcos
arctic
are
area
arellano
arena
argentina
arifimetiki
ariska
aristocrat
ariston
aristotle
arithmetic
arizona
arkansas
armenia
arms
armstrong
arriba
arroyo
arroyos
art
artemisa
arthropod
arthur
article
articles
artificial
artists
arts
aruba
as
asambili
asankhi
asean
asena
asew
ashoka
asia
asian
asibweni
asilamu
asilikali
asinthi
aso
aspx
assembly
assisi
association
asteroid
astronome
astronomy
astronomyedit
aswan
at
atatu
atheism
athele
athens
athletics
ati
atlanta
atlantic
atom
atomu
atonga
atowi
attack
atumbuka
au
augastine
august
augusta
augustine
augustus
aunt
austen
austin
australia
austria
authors
auto
automobile
avakachi
avalanche
avicenna
avila
avini
avoid
aw
awa
awili
awiske
awo
aya
ayao
ayati
ayezgesa
ayo
az
azelu
azengi
azga
aztec
azulu
azungu
b
ba
babali
babika
bach
bachali
bachoko
backgammon
bacteria
bacunagua
badada
baden
bageremani
baghdad
bahamas
bahi
bai
baibolo
baikal
baja
bajare
baka
bakaba
bakachemekanga
bakachimbilila
bakafumila
bakakhumbanga
bakalongozgeka
bakaluta
bakasankha
bakatemwa
bakati
bakatondeka
bakayamba
bake
bakili
bakiza
baku
bakuchemeka
bakufumila
bakughana
bakughanaghanika
bakugona
bakukhala
bakulu
bakumanyikwa
bakupenta
bakusangika
bakuti
bakuyoboya
bakuyowoya
bakwamba
bakwimba
bal
balaguer
balaka
balembi
bali
ball
ballard
balnaca
balo
balongozgi
baltic
balwi
bamalaw
bamama
ban
bana
banana
banandi
band
banda
bandera
banes
bang
bangerezi
bangkok
bangladesh
bangoni
banja
bank
banki
banthu
bantu
banyakhe
bar
bara
baracoa
baragua
barbados
barco
bari
barley
barrier
bartolome
basankhe
base
baseball
basho
basic
basilica
basin
basketball
batabano
batebeti
bath
bati
batista
batlle
battuta
batumbuka
bauta
bautista
bawa
bay
bayamo
bayoloje
bayona
bazungu
bc
bce
be
beat
beatles
beauty
beauvoir
beaver
bedford
bedr
bee
beer
beethoven
before
behavior
bei
beijing
bejucal
bekha
belarus
belgium
bell
belu
ben
bena
bengali
benin
benito
berea
bergen
bergman
bergnes
berlin
berlioz
bermuda
bernardino
berners
bernhardt
bertie
betancourt
beveragesedit
beverley
bha
bhutan
bi
bicolor
bicycle
big
bina
bingu
binh
biochemistry
biography
biological
biology
biologyedit
biotechnology
bird
bisa
bismarck
bissau
bizinesi
black
blaise
blanco
blantyre
blas
blica
blindness
blood
blue
blues
bo
board
boat
boca
bocarro
bodies
bogota
boise
bola
boli
bolivar
bolivia
boma
bomba
bona
bonaparte
bondo
bongo
bonilla
book
boone
booth
border
borges
born
bosna
bosnia
botany
botswana
bottom
bourg
boyeros
boys
br
brahe
brahmagupta
brahms
brain
brau
bravo
brazil
bread
break
breast
breathing
bridge
briones
britain
british
bronze
brooks
brother
brown
bruckner
bruno
brunswick
brussels
bryan
bs
buchanan
buckingham
buddha
buddhism
buena
buenavista
buenos
buey
buffalo
building
buku
bulgaria
bunda
bungwe
burj
burke
burkina
burma
burriel
burundi
bush
business
bustamante
butler
buuri
by
byron
byzantine
c
ca
cabaigua
caban
cabeza
cabo
cabrera
cacocum
cadenas
caesar
cafetal
cagigal
caibarie
caicos
caiguanabo
caimito
cairo
calculus
caldwell
caledonia
calendar
calhoun
california
calimete
caliphate
calixto
calvo
camagu
camajuani
cambodia
cambridge
camden
camel
cameron
cameroon
camilo
campbell
campeche
campechuela
campo
can
canada
canal
canasi
cancer
candelaria
candidate
cangrejeras
cannes
canoa
capacitor
cape
capita
capital
capitalism
capriles
carbohydrate
carbon
caribbean
carl
carlos
carmen
carmita
caro
carolina
carrasco
carren
carrillo
carroll
carson
cartas
carter
cartier
caspian
cass
cassim
castellano
castiella
castile
castilian
castillo
castle
castro
cat
catalan
catalonia
category
catholic
catholicism
cattle
cauto
cayajabo
cayajabos
cayman
cayo
ce
cedar
ceferino
ceiba
ceja
celestino
cell
celso
census
center
central
centre
centro
century
cerdanya
cereal
cerro
cervantes
cespedes
cha
chababi
chachi
chachitatu
chachiw
chad
chadza
chaholi
chairman
chaka
chake
chaku
chakuchemeka
chakukwana
chakulinga
chakulya
chakumafumilo
chakumanjililo
chakumanyikwa
chakummwela
chakumwela
chakupasa
chakurya
chakuti
chakuyowoya
chakuyowoyeka
chakuzingilizgika
chakwamba
chala
chalo
chambo
chambula
chamoyo
chanakya
chanya
chapakati
chapasi
chaplin
chara
character
charlemagne
charles
charleston
charlie
charlotte
charo
charu
chasa
chasefu
chatham
chaucer
chawe
che
cheese
chekha
chekhov
chemical
chemistry
chemistryedit
chenechicho
chenecho
cheneko
chepere
cherokee
chess
chew
chewa
chi
chibanja
chibumila
chibwana
chicharo
chichew
chichewa
chichiri
chicken
chidindo
chief
chifukwa
chigaba
chigaw
chigawa
chigodi
chigumula
chigwele
chihuahua
chikachemekanga
chikachitika
chikafumila
chikanga
chikapangiska
chikasangika
chikaw
chikawa
chikaya
chikayamba
chikayambika
chikhaze
chikho
chikhumi
chikonde
chikuchemeka
chikulamayembe
chikulu
chikusangika
chikuyowoyeka
chikwawa
chikwi
chilambya
chilanga
chilato
child
children
chile
chileka
chilembwe
chilengiwa
chili
chilichose
chilikhala
chilikhla
chilinda
chilipa
chilipanga
chilli
chilomwe
chilumba
chilumpha
chilute
chilwa
chimalhuaca
chimbwe
chimoza
chimpeni
chimwala
china
chinayi
chindew
chindi
chinese
ching
chingelezi
chingerezi
chingoma
chingonde
chingoni
chinguwo
chinkhondi
chinthu
chinyake
chinyakhe
chinyamata
chinyanja
chipani
chipaso
chipata
chipatala
chipatulo
chipedi
chipeli
chipembele
chipembere
chipembezo
chiphya
chipili
chiponde
chiradzulu
chirwa
chisaghala
chisamba
chisankho
chisena
chiseng
chisenga
chisesotho
chispanish
chisuthu
chiswati
chitedze
chitemwa
chitetezo
chitipa
chitonga
chitsime
chitsonga
chitswana
chitukuko
chitumbuka
chitundu
chiuta
chivenda
chivuvuzi
chiw
chiwelengelo
chiwerengelo
chixhosa
chiyamwaka
chiyawo
chiyowoyelo
chiyowyelo
chizulu
chizungu
cho
chocolate
cholera
choli
chomene
chomenechomene
chomsky
chongo
chopin
chordate
chose
chowdhury
chris
christian
christianity
christopher
chronic
chuma
chungu
church
churchill
cia
ciboney
cie
ciego
cienfuegos
cifuentes
cigaw
cikomyunizimu
cimanyikwiro
circulatory
ciro
cities
citiesedit
citrus
city
citypopulation
ciudad
ciuta
civil
civilization
cixi
claire
clan
clara
claras
clark
clarke
classical
classification
claude
clay
cleopatra
clerk
cleveland
climate
clinton
clock
close
clothing
cloud
co
coast
coat
cobar
cocos
codrus
coffee
cold
college
coloma
colombia
colonialism
color
colorado
colors
colosseum
columbia
columbus
columns
com
combate
combustion
comesa
comet
comics
common
commonwealth
communication
communicationedit
communism
comoros
complex
components
composers
compound
computer
computers
conca
concepcio
conchita
conde
conflict
confucianism
confucius
congo
congress
connacht
connecticut
consejo
conservation
conservatism
consolacio
constancia
constantia
constantine
constituencies
constituency
constitution
continent
continents
cook
coordinate
copd
copernicus
copper
copperbelt
copyright
corbusier
corojal
corojo
corona
coronavirus
corralillo
corte
corvus
cosmoglotta
costa
costalago
cotorro
cotton
council
councils
count
counties
countries
countriesedit
country
county
court
covid
cpa
craighall
crawford
crescent
cricket
cristo
croatia
cross
crown
crucero
cruces
crusades
cruz
cu
cuba
cuban
cubano
cue
cueto
cultural
culture
cumanayagua
cumberland
cumbre
curie
curitiba
currency
current
custer
cuyuji
cycle
cyclone
cyprus
cyrillic
cyrus
czech
czechoslovakia
d
da
dada
dade
dagame
dakota
dali
dallas
dam
damascus
dambo
dance
dango
daniel
dante
danube
dar
darwin
dateformat
david
davis
dawson
day
dazi
dazo
de
dead
deafness
death
decay
december
declaration
dedza
degree
dekalb
del
dela
delaware
delhi
delicias
delta
dema
democracy
democratic
demoklase
denis
denmark
dentistry
denver
depression
des
descartes
description
desembala
desert
deserts
desertsedit
development
dhaka
di
diabetes
dialectic
diamond
dickens
dictatorship
did
diego
dietrich
diez
different
differential
digestion
dimas
dindi
dinger
dinosaur
diode
dios
diplomacy
direct
director
directorate
directors
disability
disaster
disease
disembala
disk
disney
disorder
display
distance
distanceedit
district
dj
djibouti
dmitri
dna
do
dog
dokotala
dollar
dolphins
dome
domestic
domestication
domingo
dominica
dominican
don
donatello
doornfontein
dos
dostoevsky
dostoyevsky
douglas
dove
doves
dowa
dowager
dr
drive
drug
drum
ds
du
dubai
dublin
duchess
duke
dunkeld
durango
durkheim
dutch
dvor
dwangwa
dwo
dynasty
dz
dzikoli
də
dʒi
e
each
eagle
ear
earl
early
earth
earthquake
east
eastern
echevarri
ecology
economics
economicsedit
economy
ecuador
ecured
ed
edgar
edinburgh
edison
eduardo
education
edward
efp
egypt
eiffel
einstein
eisenstein
ekurhuleni
ekwendeni
el
elangeni
elbert
elder
ele
electric
electricity
electromagnetic
electromagnetism
electronic
electronics
electronicsedit
element
elenga
elengelo
elengero
elephant
eli
elizabeth
elliott
elo
els
elu
elvis
em
email
embu
emil
emilio
emirates
emma
emotion
emotionedit
empire
emporda
empress
en
ena
encrucijada
encyclopedia
endangered
endocrine
energy
enero
engine
engineering
engineeringedit
england
english
enlightenment
enrico
enrique
ensenada
entronque
enya
enzyme
epic
epilepsy
epistemology
epulelo
epulo
epurelo
equation
equatorial
era
erie
eritrea
ernest
erra
erwin
es
escambray
escudo
espan
esperanto
esperanza
essex
estado
estate
este
estonia
eswatini
et
ethanol
ethics
ethiopia
ethnologue
euclid
euclides
eugenio
euler
euro
europe
european
eusebio
euthini
evans
eventually
everest
every
evolution
explorers
explosive
external
ey
eye
eyjafjoerdur
ez
ezi
eŋkɾusi
f
facebook
factbook
fairfield
family
fannin
faraday
farmland
faroe
fascism
fashion
faso
fayette
fe
february
febuluwale
feburuwar
federation
federico
felipe
feliu
fellini
feminism
feo
ferdinand
fermi
ferna
fernando
ferro
fibonacci
fiction
fidel
field
figures
fiji
file
filimi
filimu
film
fine
finland
fire
firearm
first
fish
fisher
fission
five
flag
flamenco
flood
florence
florencia
flores
florida
flower
floyd
flute
fo
fomento
foni
fonseca
font
fontsize
food
foodedit
football
for
force
ford
forest
former
forsyth
fossil
foundation
foundations
fountain
fourier
fr
franc
france
francis
francisco
francolinus
frank
frankfurt
franklin
franz
fre
frederick
free
french
frequency
freud
freyre
frida
frideric
friedrich
frog
from
front
fructuoso
fruit
fu
fuel
fuelsedit
fuko
fulgencio
fulton
fulu
fumu
fumukazi
function
fund
fundamentalism
fungus
fupi
fyodor
g
ga
gabon
gabriel
gagarin
galafre
galaxy
galen
galilei
galileo
gallatin
galope
gama
gambia
gambling
game
games
gamma
gandhi
ganges
ganizo
ganyu
garci
gardens
garfield
garissa
gas
gaspar
gaston
gastroenteritis
gastrointestinal
gaulle
gauss
gauteng
gawo
ge
general
genghis
genres
geo
geoffrey
geographical
geography
geology
geologyedit
geometry
georg
george
georges
georgetown
georgia
germa
german
germany
gha
ghachi
ghachoko
ghakakhalika
ghakapangika
ghakasangika
ghakaw
ghake
ghaku
ghakuchemeka
ghakuchita
ghakufuma
ghakukwana
ghakukwela
ghakulamulilika
ghakulu
ghakumanjililo
ghakumanyikwa
ghakung
ghakurya
ghakusangika
ghakusazgapo
ghakutchuka
ghakuthyeka
ghakuti
ghakuyana
ghakuzingilizgika
ghakwamba
ghali
ghaliko
ghalikugaw
ghalikupanga
ghaliwose
ghamu
ghamusumba
ghana
ghanandi
ghananga
ghanayi
ghangapo
ghano
ghanyake
ghanyakhe
ghapachanya
ghaphya
ghatatu
ghati
ghaw
ghawo
ghazali
ghose
giacomo
gibara
gif
gil
gilgamesh
giordano
giovanni
girona
giuseppe
giza
gje
glass
glen
global
globalization
gloria
gloucester
go
goat
god
goethe
gogh
gogo
gold
golden
goldman
golf
golide
golpe
gombe
gomes
gonza
gonzalo
good
gordo
gordon
gorges
gottfried
gov
government
governor
goya
graham
grammar
grand
grande
grandmother
granma
grant
grape
gravitation
gray
grayson
great
greater
greece
greek
green
greene
greenland
greetings
gregorian
gregorio
grenada
grenadines
gridcolor
group
groups
grove
gu
guabina
guadalajara
guadalupe
guadeloupe
guam
guanabacoa
guanahacabibes
guanahatabey
guanajay
guane
guani
guanta
guantanamo
guatemala
guernsey
guerra
guerrero
guevara
guez
guiana
guillermo
guinea
guitar
gule
gulf
gulu
gun
gunpowder
gupta
gurion
gustav
gutenberg
gutie
guyana
guzma
gymnasium
h
ha
habana
hacha
hafez
hagia
haile
haiti
haji
halifax
hall
hamilton
hampshire
han
hancock
handel
handiledi
hanging
hanover
hans
harare
harbour
hard
hardin
hare
harlem
harris
harrisburg
harrison
harry
hart
hassan
hastings
hatnote
havana
have
hawaii
haydn
he
headache
health
heard
hearing
heart
hebrew
hector
hegel
heidegger
heidelberg
height
heights
helen
helena
helium
helsinki
henderson
hendrix
heneque
henga
henri
henrik
henry
hera
hercegovina
here
hermann
hermanos
hermoso
herna
hernando
herodotus
herradura
herrera
herzegovina
hi
higashio
high
highland
hilbert
hill
hills
himalayas
hindi
hinduism
hip
hippo
hippocrates
hippopotamus
hirohito
hispania
hispaniola
historical
history
hitchcock
hitler
hiv
ho
hockey
hokusai
hole
holgu
holgui
holocaust
holy
homer
hon
hona
honda
honduras
honey
hong
honolulu
hop
hopkins
horace
hormone
horse
house
houston
how
howard
howell
however
hoyo
http
https
huang
hugo
human
humboldt
hundred
hungary
hunt
hurlingham
hussein
hyde
hydrogen
hyena
i
ibn
ibsen
ice
iceland
ich
ichi
icho
ichoko
ichoso
id
idaho
ideology
idoko
if
igembe
ignacio
igor
ii
iii
ika
ikadikizgika
ikakhala
ikakhalila
ikalembeka
ikapangika
ikaso
ikaw
ikika
ikuchemeka
ikugwiliska
ikulu
ikusangika
ili
iliad
iliyose
illinois
illness
ilo
iloso
im
imagesize
imenti
imf
immanuel
immune
imo
imoza
impairment
imperial
imperialism
imu
imwe
in
ina
inandi
inauguracion
inca
increment
indents
independent
india
indian
indiana
indies
indiya
indo
indonesia
inductor
indus
industrial
industry
ines
infinity
influenza
info
infobox
information
infrared
ingapo
inge
inglesas
ingmar
inherit
inia
inline
inorganic
insect
inside
institute
instruments
intaneti
integumentary
intelligence
interaction
interlingue
internacional
internal
international
internet
internetedit
intestine
into
inventors
inyake
iowa
iprage
ira
iran
iraq
ireland
iri
iro
iron
irrigation
is
isaac
isabel
isidoro
isidro
isla
islam
island
islands
iso
israel
israeli
issa
issuesedit
istanbul
it
itali
italy
ivi
ivo
ivory
ivyo
iw
iwo
iye
iyi
iyo
izi
izo
j
ja
jacinto
jackson
jacques
jagu
jagua
jaime
jainism
jakarta
jakob
jalisco
jamaica
james
jan
jane
janeiro
january
janyuwale
japan
japanese
japani
jaruco
jason
jasper
jatibonico
javier
jawaharlal
jazz
jean
jeff
jefferson
jenkins
jere
jeremusi
jersey
jerusalem
jesu
jesus
ji
jiguani
jime
jimi
jiyometri
jo
joa
joan
joaqui
jobabo
johann
johannes
johannesburg
john
johnson
jones
jordan
jorge
jose
joseph
joule
journalism
jovellanos
joyce
jp
jpg
jr
jua
juan
jubilee
judaism
judith
judo
juice
julayi
julia
julio
julius
july
jumbe
june
juni
jupiter
justice
justices
justin
juventud
k
ka
kabelu
kachere
kachibungu
kachoko
kadoko
kafka
kafukufuku
kagolide
kahlo
kakhalilo
kakuchemeka
kakwambiska
kalambo
kalanga
kalata
kale
kalira
kalulu
kam
kamanga
kambala
kambwamu
kamoza
kamungongonda
kamupani
kamuzu
kaning
kanjedza
kansas
kant
kanthu
kanyerere
kapena
kaphiri
kapiri
kapolo
karachi
karamchand
karate
karl
karonga
kasenga
kasungu
kasupe
katekisma
katete
kathmandu
katolika
katondo
katsushika
katumbi
katundu
kaw
kawale
kaweche
kayendelo
kazakhstan
ke
keeling
keller
kelvin
kemal
kempton
kendelo
kendeskelo
kensington
kent
kentucky
kenya
kepler
key
keynes
kg
khaldun
khan
khayyam
khilisitu
khirisitu
khola
khomesi
khoti
khristu
khumi
khwarizmi
kilifi
kilimanjaro
kilogram
kilometers
kilometre
kilometres
kilomita
kilwa
kindela
king
kingdom
kings
kingston
kinshasa
kitts
klipriviersberg
kloof
km
know
knowledge
knox
ko
koleji
kolkata
komanso
komboni
kompyuta
kong
kongolo
korea
korean
kota
kowloon
ku
kuba
kubabika
kube
kubili
kubrick
kuchanya
kuchapa
kuchimbila
kufika
kufuma
kufumila
kufumira
kufupi
kufwa
kugaw
kugomezga
kugula
kuguliskika
kugundana
kugwila
kugwiliska
kugwira
kujambula
kujilamulila
kujumpha
kukaba
kukakhala
kukapangiska
kukata
kukaw
kukaya
kukayamba
kukhala
kukhalapo
kukhazikiska
kukhumba
kuko
kukonza
kukuchemeka
kukula
kuleka
kulekezga
kulemba
kuli
kulije
kulikose
kulima
kulondezgana
kulongola
kulthum
kuluska
kuluta
kulya
kumafumilo
kumala
kumanjililo
kumanjiliro
kumanyikwa
kumanyikwaso
kummwela
kummwera
kumpoto
kumwela
kung
kunjizga
kunowa
kunozga
kunyengelela
kuoneka
kupambana
kupanda
kupandika
kupanga
kupangika
kupatula
kupha
kuphedwa
kupitilila
kupoka
kupokela
kurosawa
kurya
kusaka
kusambila
kusambizgika
kusanga
kusangika
kusazgapo
kusazgirapo
kusew
kusintha
kusunga
kusuzga
kusuzgika
kutauzgana
kuthuta
kuthya
kuti
kutola
kutolela
kuumalilo
kuuskako
kuvina
kuw
kuwa
kuwait
kuwalo
kuyamba
kuyambila
kuyambiska
kuyenda
kuyezga
kuyowoya
kuzenga
kuzgoka
kuzizima
kuzomelezga
kwa
kwafumila
kwake
kwakuyana
kwale
kwali
kwamasambilo
kwamba
kwambila
kwambiri
kwambula
kwame
kwati
kwawo
kwe
kwenda
kwendela
kwendeska
kwene
kwenekuko
kweneso
kweni
kweniso
kwiba
kwimba
kwiza
kwizila
kyo
l
la
lacalle
lagos
lajas
lakale
lake
lakes
lakhe
lakubabikila
lakuchemeka
lakumanyikwa
lakusangika
lakuti
lakwa
lakwamba
lamar
lamu
lancaster
lango
language
languages
lanka
laos
laozi
lara
large
largo
las
late
lati
latin
latvia
laurel
lavandero
law
lawedit
lawo
lawrence
lazo
le
leadersedit
league
least
lebanon
lee
left
legend
leibniz
leinster
lemon
leneko
length
lengua
lenguas
lenin
leo
leonardo
leone
leonhard
lero
les
lesotho
letter
levisa
lewis
lez
li
lia
liberalism
liberia
liberty
libre
libya
lida
liechtenstein
life
light
likafumila
likapangika
likasamukila
likaw
likhubula
likiza
likoma
likufumila
likulu
likumanyikwa
likung
likuni
likusachizgika
likusambizga
likusangika
lili
lililose
lilongwe
limonar
limoza
limpopo
lina
linares
lincoln
line
linear
linegrey
linguistics
link
linked
links
linnaeus
linyake
lion
liphya
lipid
liquid
lisa
list
listed
listen
literacy
literature
literatureedit
lithuania
litre
little
liver
livingston
livingstone
livingstonia
liwonde
lix
lizgu
llar
lleida
lloyd
lo
locke
logan
logarithm
logic
logo
lome
lomwe
london
long
lora
lorenzo
los
loti
louis
louisiana
love
luangwa
luapula
luba
lucas
lucia
ludwig
luis
luitpold
luka
lulanga
lumezi
lumoza
luna
lundazi
lung
lunga
lusaka
luskaka
luso
luther
luw
luwande
luxembourg
luxemburg
luz
lvez
lwa
lynn
lyon
m
ma
maalim
mabili
maboma
mabuku
mabungwe
mac
macedonia
machiavelli
machine
machinga
macon
macurije
madagascar
madambo
madazi
made
madera
madison
madrid
madruga
maestra
mafumilo
mafumu
magalimoto
maganizo
magellan
magesi
maghreb
magnet
magnetic
magnificent
magomero
magule
magulu
maha
mahal
mahfouz
mahler
maholo
mail
main
maine
maize
majagua
maji
majiga
major
makalabu
makamupani
makani
makhalilo
makhoti
makhumi
makilomita
makina
makola
makomboni
makuni
makuwa
malabo
malango
malaria
malati
malaw
malawi
malaya
malaysia
malemba
malembo
mali
malibwe
malichi
malile
malimba
malindi
malinga
malnutrition
malo
malombe
malonda
malowolo
malta
maluso
mama
mammal
mamphina
man
manati
mandela
mandera
mangochi
manicaragua
manjililo
mankhamba
mankhwala
manor
mantua
manuel
manufacturing
manzanillo
mao
maoko
map
mapanga
mapeyala
maphunziro
mapili
mapiri
maplandia
mapu
mar
maragoto
maravi
marcel
march
marco
marcoleta
margaret
margin
mari
maria
marianao
mariano
marie
mariel
marilyn
marine
marino
marion
mark
market
marlene
marque
marriage
mars
marsabit
marshall
martei
marti
martial
martin
marx
marxism
mary
maryland
masambilo
masamu
masasa
masenjere
maseru
masese
masew
masewera
maso
mason
mass
massachusetts
masuku
masuzgo
matahambre
mataka
matanzas
matenda
mateo
material
materialism
materials
materialsedit
maternal
mathanilo
mathematical
mathematiciansedit
mathematics
mathematicsedit
matika
matilde
matisse
matope
matter
matumbuka
maufumu
maulendo
mauritania
mauritius
maw
mawira
max
maxwell
may
maya
mayabeque
mayan
mayari
mayendelo
mayera
mayfair
mayfield
maynard
mayorqui
mayowoyelo
mayowoyeskelano
mays
mazgo
mazgu
mazina
mazuba
mba
mbabala
mbalachanda
mbalame
mbali
mbamoza
mbelele
mbelwa
mbendela
mbendera
mberere
mbewu
mbili
mbiri
mbuzi
mbwe
mcdonald
mchema
mchenga
mchinji
mcintosh
mclean
mcp
mdangilili
mdauko
me
measurement
meat
mecca
mechanics
mecklenburg
media
medication
medicine
medicineedit
medina
mediterranean
mei
meiji
melena
mellitus
member
members
memory
mendeleev
mendelo
mene
menstruation
mental
mercer
mercury
meru
mesiya
mesopotamia
metabolism
metal
metallurgy
metals
metre
metropolitan
mexicali
mexico
meyi
mez
mfecane
mfumilo
mi
miami
michael
michelangelo
michigan
michoaca
micronesia
middle
middlesex
midland
miguel
mikangano
mikundi
mil
milala
milandu
mile
miles
military
militaryedit
miliyoni
milk
milky
miller
million
milliyoni
milonga
mimar
minas
mind
minda
mineral
ming
minh
minnesota
mipingo
miss
missing
mississippi
missouri
misumba
mitchell
mitundu
mitunduso
miyezi
mizgezgela
mizi
mizilo
mizinda
mkati
mkolano
mkulu
mlala
mlambe
mlembi
mlengalenga
mlimi
mlimo
mlisko
mlomba
mlomo
mlongozgi
mmmwela
mmwela
mmwera
mndandanda
mnene
mnkhwele
mo
moa
moc
modern
modernedit
mohamed
mohandas
mojica
moldova
molecule
molie
molina
mollusca
mombasa
monagas
monarchy
moncada
monetary
money
monga
mongol
mongolia
monica
monkey
mono
monotheism
monroe
montana
monte
monterrey
montezuelo
montgomery
month
montoto
montserrat
montt
moon
moore
mora
morales
morality
more
morelia
moreno
morgan
moro
morocco
moroni
moschee
moscow
mose
moses
mosque
mosquito
most
mother
moto
mount
mountain
mountains
mountbatten
movement
movimiento
movwili
moya
moyo
moza
mozambique
mozart
mozy
mpaka
mpandi
mpando
mpatsa
mpezeni
mphaka
mphala
mphanda
mphangwe
mphepete
mphepo
mphesko
mphondo
mphoto
mphuno
mpingo
mponda
mpoto
mpumbe
mpunga
mronga
ms
msasa
mseche
msintho
msonkho
msumba
msungwana
msweni
mtima
mtunda
mtundu
mu
muchinga
muchoko
mudauko
mudumbu
muhammad
muhanya
mukati
mukulu
mukupenja
mukwati
mulala
mulamulili
mulanje
muli
mulinga
mulonga
mulongozgi
muluma
muluzi
muma
mumalo
mumbai
mumoza
mumphepete
mun
munayi
munda
mung
munich
municipality
municipio
municipios
munkhwele
munster
munthu
munung
munyake
munyakhe
murray
musa
muscle
musi
music
musical
musicedit
musiciansedit
mussolini
mustafa
mustang
muswela
mutatu
mutharika
mutu
muw
muwoli
muwuso
muzi
mwa
mwahuno
mwake
mwakudumula
mwakukolelanako
mwakuti
mwakutolela
mwakuyowoya
mwama
mwambo
mwambula
mwana
mwanakazi
mwanalume
mwanje
mwanza
mwela
mwezi
my
myanmar
myati
mythology
mzele
mzengero
mzilikazi
mzimba
mzinda
mzuzu
n
na
nabokov
nac
nacho
nadi
naga
nagarjuna
naguib
nairobi
nako
nakufika
nakukhazikika
nakuluta
nakuti
nakutola
nakuw
nakwamba
nam
namatapa
namatubi
nambala
name
namibia
namitete
namo
nan
nane
nanga
nangauli
nangawuli
nanotechnology
napoleon
naranjo
nas
natal
national
nationalism
nations
nato
natural
nature
navarro
navbar
navia
navo
navy
navyo
naw
nawo
nayi
nayo
nazi
nazism
nchebe
nchimoza
ncipe
nda
ndalama
ndale
ndara
ndez
ndi
ndicho
ndiko
ndilo
ndimoza
ndipo
ndiposo
ndivo
ndiwo
ndiye
ndiyo
ndlovu
ndondomeko
ndopa
nduna
ndyali
ne
nebraska
need
nehru
neil
nelson
nematode
neno
neon
nepal
nepomuceno
neptune
nerve
nervous
netherlands
neu
nevada
nevis
new
newspaper
newton
nez
nezahualco
ng
nga
ngakuzingilizgika
ngati
ngdpd
nge
ngeti
ngoni
nguema
ngulube
ngwa
ngwakupanga
ngwakuvwila
ngwakwimba
ngwamalonda
ngwandale
nhat
ni
nicaragua
niccolo
nicola
nicolas
nicolaus
nicotine
nietzsche
niger
nigeria
nightingale
nights
nikola
nile
nin
nio
niquero
nithi
nito
nitrogen
niue
njakukhwaskana
njati
njiba
njidoko
njimoza
njizgani
njoka
nkha
nkhakusangika
nkhalamu
nkhalwe
nkhamanga
nkhamusumba
nkhande
nkhanga
nkhani
nkhanira
nkhaska
nkhata
nkhokwe
nkhomi
nkhonde
nkhondo
nkhongono
nkhongonoyi
nkhope
nkhoska
nkhota
nkhotakota
nkhuku
nkhule
nkhumano
nkhumba
nkhung
nkhuzgo
nkhwali
nkhwantha
nkrumah
nl
no
noam
nobel
noble
none
normal
norte
north
northampton
northern
northumberland
norway
nose
not
noun
novel
novemba
novembala
november
now
nozga
nsanje
nsenga
ntara
ntcha
ntchalo
ntcheu
ntchi
ntchigaw
ntchigawa
ntchimoza
ntchindi
ntchisi
ntchito
ntchiyowoyelo
ntchunga
nthaka
nthalwe
nthantha
nthavwa
nthe
nthena
nthenda
nthengwa
ntheula
ntheura
nthowa
nthunthu
nthuzi
ntibatiba
ntonda
nu
nuclear
nueva
nuevitas
nuevo
number
numerical
nut
nuwas
nxaba
nyakanyaka
nyakheso
nyalubwe
nyama
nyanja
nyasaland
nyengo
nyeno
nyenyezi
nyifwa
nyika
nyimbo
nyiska
nyumba
nyumbazi
o
oat
obama
obesity
obrego
obstructive
occidental
ocean
oceania
ochitira
october
octubre
oedipus
oeste
of
offenbach
official
ogasiti
ogona
ogulitsa
ohio
ois
ojeda
okhala
oklahoma
okutoba
okutobala
okwerera
ol
ola
olas
old
older
oldham
olympic
oma
oman
omar
ombe
omwe
on
one
onga
ongo
opec
opera
operating
opium
or
orange
oregon
org
organic
organism
organismsedit
organization
organizationsedit
orientation
oriente
orlando
ortiz
os
oscillation
ose
osorio
osuna
osungira
osvaldo
other
ottawa
otto
ottoman
out
ovas
ovid
oxygen
oz
p
pa
pablo
pachanya
pachekha
pachingelezi
pachizungu
pachoko
pacific
padding
padoko
padre
padro
pafupi
pafupifupi
page
pai
painting
pajumpha
paka
pakati
pakaw
pakistan
pakubabika
pakung
pakuti
pakutola
pakwamba
pala
palace
palacio
palacios
palau
palestrina
pali
palipose
palizadas
palma
palmira
pamalo
pambana
pambele
pambere
pambula
pamoza
panama
pandemic
pando
panji
pano
panoramio
pansi
panthazi
panyengo
papayi
paper
papua
para
paraguay
paris
park
parker
parktown
parliament
part
parthenon
party
pasada
pasajeros
pascal
pasi
paso
pasono
pasteur
patali
paternal
pati
patrick
pau
paul
paulding
paulo
paumalilo
pavia
paw
pawekha
payekha
paz
pe
peace
pedro
pei
pekha
pela
penicillin
peninsula
pennsylvania
people
pera
perez
perico
perictione
period
periodic
perry
persian
pertiwi
peru
peter
petersburg
petr
pez
phalombe
phambu
pharmaceutical
phase
phereni
philip
philippines
phillips
philosophers
philosophies
philosophy
phiri
photography
photosynthesis
php
phu
phululu
phwitikizi
physical
physics
physicsedit
physiology
pi
piano
picasso
pierce
pierluigi
pierre
pig
pigeons
pike
pilo
pilotos
pinar
pinjesi
pino
pinto
pitcairn
pla
placetas
planck
planet
plant
plasma
plastic
plate
plateau
plato
platonic
platonism
play
playa
playuela
playwrights
plaza
pleasant
plotarea
plotdata
plough
pmc
pneumonia
png
po
poblado
poe
poetry
poetsedit
poka
poland
polavieja
pole
poliomyelitis
political
politics
politicsedit
polity
polk
polo
polynesia
polytheism
pons
pont
pop
popanga
popular
population
porpoises
port
portage
portales
portugal
portuguese
potato
potosi
pottery
poverty
powell
power
pozas
pp
pr
pregnancy
prehistory
prescott
president
presidents
presley
press
pretoria
prezident
prezidenti
pri
primary
primate
primero
prince
princess
principe
printing
priority
prize
probability
processesedit
processing
producer
programming
pronunciation
proof
propaganda
prose
protectorate
protein
protestant
protist
proust
providence
province
provincia
psychology
psychologyedit
pt
pu
public
published
puccini
puebla
pueblo
puerta
puerto
pulaski
pulido
pulika
pulmonary
punishment
punta
pushkin
putin
putnam
putri
px
pyramid
pythagoras
pythagorean
q
qatar
qian
qin
qing
quang
quantum
quemado
quiebra
quintana
quivica
r
ra
rabbit
rabindranath
racing
racism
radiation
radio
radioactive
radioactivity
rafael
rahman
rain
ramayana
rami
ramirez
ramo
ran
rancho
ranchuelo
randolph
random
randpark
rango
raphael
rata
rau
raven
raw
rawalpindi
ray
raymond
rd
rdenas
rdova
re
real
reality
recreation
recreationedit
red
redondo
reef
refbegin
references
reformation
regents
reggae
regions
regionsedit
regla
reine
relationshipsedit
relativity
religion
religions
religious
rembrandt
remedios
renaissance
rene
renewable
reparto
reproduction
reproductive
reptile
repu
republic
rer
reserve
resistor
respiration
respiratory
restoration
retiro
revolucio
revolution
revolutionary
rey
reyes
reynolds
rez
rgb
rhine
rhinoceros
rhode
rhodesia
rhythm
ri
ribera
ric
rica
rice
richard
richland
richmond
rico
ridge
right
rights
rimbaud
rinco
rincon
rio
ripabuliki
riquelme
ritus
river
rivera
rivi
rk
ro
road
roald
robert
roberto
robertson
roble
roca
rock
rockingham
rocky
rodas
rodent
rodri
rodrigo
rojas
rolling
roman
romania
romanz
rome
romero
roosevelt
ros
rosa
ross
rousseau
rowan
roy
royal
rquez
rrez
rttemberg
ru
rubens
rubi
rugby
ruiz
rukulu
rukuru
rumphi
rural
russell
russia
russian
rutherford
rwanda
rye
s
sa
saba
sabana
sabas
sachizgo
sacramento
sagua
sahara
saint
saiz
salaam
saladin
salem
salima
salinas
salt
salvador
samba
same
samoa
samu
samuel
samuzi
san
sancti
sandino
sanguily
sanjika
sanskrit
sant
santa
santiago
santo
santos
sao
sappho
sarah
sarajevo
saramago
sartre
satemwa
saturn
satyajit
saudi
sayansi
scalemajor
scaleminor
school
schro
schubert
schumann
schuyler
science
scienceedit
sciences
scientists
scientistsedit
scioto
scotland
scott
screenwriters
screw
scsm
sculpture
se
sea
seal
sebastia
sebastian
seco
second
secondary
section
see
segarra
sekutemba
sekutembala
selassie
selva
semiconductor
sen
seneca
sensory
sentences
seoul
september
seputembala
sergei
set
settled
several
severe
sewelo
sex
sexually
seychelles
sfne
sha
shaka
shakespeare
shanghai
shannon
shark
sheep
sheikh
shelby
sheridan
shi
shield
shift
ship
shire
short
should
shu
si
siberia
sibling
sierra
sigmund
sikhism
siku
silamu
siles
silver
silvio
sima
simo
simone
simple
simpson
sinan
sing
singapore
sio
sioux
siprage
sir
sister
sita
sitima
size
sk
skaba
skeleton
skin
skonombo
skopje
slavery
slovakia
slovenia
small
smaller
smallpox
smetana
smith
snake
snow
so
soccer
social
socialism
socialist
society
socrates
software
solar
soledad
solid
solomon
solon
somalia
somaliland
somba
some
sometime
son
song
songo
sono
sophia
sophocles
sorghum
soriano
sort
sosa
soshangane
sotho
soto
soul
sound
south
southeast
southern
soweto
soybean
spaceflight
spain
spanish
special
species
specific
spectrum
spedes
speed
spencer
spi
spider
spielberg
spirituality
spiritus
sport
spring
springfield
sq
square
squez
sri
ssd
st
stafford
stalin
standard
stanley
star
stark
start
starting
stary
state
states
station
statistics
statue
steam
steel
stephens
steven
stewart
stone
stones
stravinsky
stroke
strong
structures
style
sua
sub
submarine
sucre
sudan
suero
suez
sugar
suicide
sukulu
suleiman
sullivan
sumer
sumidero
summit
sumo
sun
supreme
sur
suriname
surry
sussex
suzgo
sv
sveinbjarnargerdi
svg
swahili
sweden
switzerland
sword
sy
sydney
symmetry
symphony
syndrome
syracuse
system
sɑ
t
ta
table
tagore
taguasco
taguayabo
tai
taino
taironas
taita
taiwan
taj
tajikistan
tallahassee
tallinn
tamerlane
tamil
tan
tana
tang
tanganyika
tank
tanzania
taoism
tarafa
tarsus
tatu
tauni
taveta
tax
taylor
tchaikovsky
tchaka
tchalichi
tchalitchi
te
tea
technology
tectonics
tehran
tejada
telephone
television
televisionedit
tembo
temperature
ten
teneri
tennessee
tennis
ter
teresa
terrell
territories
terrorism
tesla
texas
text
textcolor
th
thailand
tharaka
that
thatcher
thawale
the
theatre
themba
thengele
thengere
theologiansedit
theorem
theory
there
theresa
thermodynamics
these
thirty
this
thomas
thought
thousand
three
thumb
thumba
thumbnail
thupi
thupo
thyolo
tigania
tijuana
tiku
till
tim
time
timeaxis
timeedit
timekeepingedit
times
timor
timothy
tin
tingati
tisa
titi
tna
to
tobacco
togo
tokyo
toledo
tolstoy
toma
tome
tonga
top
topics
tork
tornado
toro
torre
torres
tose
tourism
tower
town
toy
track
tract
trade
train
transformer
transistor
translate
transmitted
transport
transportationedit
travel
travelersedit
treasure
treaty
tree
trenton
trigonometry
trinidad
trinity
trojany
tropical
trueba
trujillo
trumpet
truth
tsabango
tsunami
tu
tuberculosis
tubili
tuchoko
tukaba
tuli
tumagulu
tumbuka
tumisumba
tumitundu
tunandi
tunas
tunisia
turing
turkey
turkish
turks
tuvalu
tuyuni
tv
twa
twain
tycho
type
tzu
u
uchoko
udf
udindo
udoko
ufulu
ufumu
uganda
ughu
uk
ukaboni
ukafumila
ukalimbana
ukamala
ukapolo
ukasazgikana
ukavu
ukaw
ukawa
ukayamba
ukhalilo
ukhristu
uko
ukraine
uku
ukuchemeka
ukulu
ukumanyikwa
ukusangika
ukuyowoya
ul
ulamulili
ulamulilo
ulamuliro
ulaya
ulendo
uli
ulimi
ulongozgi
ulongwe
ulster
ultraviolet
umalilo
umanyi
umar
umboni
umm
umo
umoyo
umoza
umu
una
unandi
uncle
under
unenesko
unesco
ungagaw
ungano
ungwelu
unio
union
unit
united
units
unitsedit
universal
universe
university
unknown
unyakhe
up
uphalazgi
upright
upusu
uranus
urbano
urbina
urgell
uruguay
us
usa
usani
use
used
usilikali
usintho
usually
utah
utali
utheka
uto
uw
uwo
uwoso
uwu
uyo
uyoso
uyu
uzbekistan
v
va
vaccine
vacuum
vajumpha
vakukhwaskana
vakupambana
valde
valembeka
valencia
valencian
vall
valle
valley
valleys
valmaseda
value
van
vancouver
var
vargas
vasco
vatican
ve
vega
vegetable
vela
velasco
velocity
venezuela
venus
ver
verb
verbinski
verde
verdi
vereda
vermont
vernon
versailles
version
vertical
vez
vi
vibili
vibiri
vice
vicente
victor
victoria
vidal
video
vidinda
vidoko
vieja
vienna
vietnam
view
vifukwa
vigaba
vigaw
vigawa
vigomezgo
vikapangiska
vikaw
vikayamba
vikhondi
vikhwi
vikings
viktor
vikuchemeka
vikukhala
vikulongola
vikulu
vikulya
vikumanyikwa
vikusangika
vikuwoneska
vikuyowoyeka
vikwi
vila
vilanova
vilengiwa
vili
villa
villanueva
villar
villas
villate
vilonda
vilumba
vimanyikwilo
vimbundi
vimbuza
vin
vina
vinandi
vinayi
vincent
vinci
vinenesko
vingapo
vingaw
vingoma
vinthu
vinyake
vinyakhe
vinyama
vinyo
violin
vipani
vipaso
vipatulo
viphya
vipingo
virgil
virgin
virginia
virus
visaghala
visakasa
visankho
visible
visola
vista
visulo
visungunu
vitatu
vithuzi
vitukuko
vivaldi
vivero
viw
viwangwa
viyowoyelo
viyuni
vizcai
vladimir
vol
volcano
volga
volt
voltaire
volume
von
vrayu
vueltas
vula
vya
vyachi
vyachidoski
vyachilengiwa
vyajumpha
vyaka
vyakale
vyakaw
vyake
vyakhe
vyaku
vyakuchita
vyakuchitika
vyakuganiza
vyakugaw
vyakujumpha
vyakukhwaskana
vyakulemba
vyakulondezga
vyakulya
vyakumela
vyakupambana
vyakusintha
vyakuti
vyakuw
vyakuyowoya
vyalo
vyamagesi
vyamankhwala
vyamoyo
vyamu
vyanyenyezi
vyaru
vyasono
vyaumoyo
vyaw
vyawo
vyazeru
vyolemba
vyomela
vyongo
vyose
w
wa
wabe
wachali
wachi
wachibili
wachibiri
wachikhumi
wachinkhondi
wachitatu
wachiw
wachiwili
wafika
wafwa
wagner
wahl
wajir
waka
wakaba
wakababatizika
wakababika
wakababikila
wakachemekanga
wakachimbilila
wakafika
wakafuma
wakafwa
wakafwila
wakagaw
wakaghana
wakagwilapo
wakakhala
wakakhalapo
wakakomeka
wakakwela
wakalamulila
wakale
wakalemba
wakaluta
wakamanyikwa
wakanjila
wakanyamuka
wakapanga
wakapangika
wakaphala
wakasambila
wakasanga
wakasankha
wakasankhika
wakasintha
wakasoleka
wakasuskana
wakatengwa
wakathula
wakathyeka
wakati
wakatola
wakatondeka
wakaw
wakawa
wakawina
wakawukako
wakayamba
wakayambiska
wakayezga
wakazenga
wakazgoka
wakazomela
wake
wakhala
wakhe
wakiza
waku
wakuchemeka
wakudinda
wakufuma
wakufumila
wakuguliska
wakujilamulila
wakukolelelako
wakukwana
wakulamulila
wakulemba
wakulizga
wakumanyikwa
wakumpoto
wakunozga
wakupanga
wakupenta
wakusangika
wakutchaya
wakuti
wakuvina
wakuyamba
wakuyowoya
wakwamba
wakwendeska
wakwimba
waleke
wales
wali
walikukhala
walipanga
waliyose
walker
walking
wall
walo
walt
walter
wamalizga
wamuvwila
wan
wana
wanandi
wanangwa
wandababike
wandale
wane
wangang
want
wanthu
wapasuka
war
ward
warhol
warming
warren
warszawa
warthog
washington
wasungi
wat
water
wateredit
wati
watola
watondeka
watt
waw
wawo
way
wayamba
wayambe
wayilesi
wayne
ways
we
weak
weapon
weaponsedit
weather
web
weber
website
webster
week
weight
wekha
well
wells
wentworth
wenya
weo
wessex
west
western
westmoreland
whales
wheat
wheel
wheeler
when
whether
which
white
wide
width
wiki
wikidata
wikipedia
wikipedias
wikipediya
wilhelm
wilkes
will
william
williams
wilson
wind
wine
winston
wise
with
wittgenstein
wiza
wogwila
wojilamulila
wolfgang
woman
wonaniso
wongo
wood
word
world
worldedit
worldview
worth
wosankhika
wose
would
wovwe
wovwili
wright
writing
wu
wuhan
wukaba
wukhalilo
wukulu
wuli
wupu
wuwo
www
wyoming
x
xaða
xi
xico
ximo
xiv
y
ya
yabili
yabiri
yachi
yachiw
yaguajay
yakaba
yakale
yake
yakhe
yaku
yakuchemeka
yakukola
yakukozgana
yakulamulila
yakulongola
yakupambana
yakusangika
yakususka
yakuti
yakwa
yakwamba
yakwambilila
yama
yambula
yamu
yanandi
yanayi
yangtze
yankhondi
yanyakhe
yao
yapachanya
yapafupi
yara
yat
yati
yaumalilo
yawo
yayamba
yayi
year
years
yehova
yekha
yellow
yemen
yen
yeneko
yesu
yikaw
yikazgoka
yikuchemeka
yikulu
yikumanyikwa
yili
yilina
yimoza
yina
yinandi
yinyakhe
yitali
yllas
yo
yohane
yokaka
yokhwaska
yokhwaskana
york
yose
yotl
you
young
younger
your
youth
yulaya
yumoza
yuri
yyyy
z
za
zake
zakukwana
zakupambana
zakusangika
zakuti
zakwamba
zambezi
zambia
zambiri
zamora
zamtunduwu
zamu
zanzibar
zapachanya
zapata
zapatali
zapopan
zar
zawo
zaya
zea
zealand
zebra
zedong
zeru
zheng
zhu
zidoko
zikayamba
zikulu
zikuphatikiza
zikusangika
zili
zilipanga
zimagwiritsidwa
zimbabwe
zina
zinandi
zinc
zinduna
zintchito
zinthengwa
zinthu
zinyake
zinyakhe
zipatala
ziw
zizima
zmir
zo
zobala
zomangamanga
zomba
zomwe
zone
zoroastrianism
zose
zosungira
zovu
zquez
zuba
zulu
zuriz
zuw
zwangendaba
zwide
{
|
}
~
£
©
°
²
¶
×
ð
ðe
łobez
ɐ
ɑ
ə
ɣ
ʁəne
ʒɑ
ʒɔʁʒ
ʰ
ʲ
ʻ
ʾ
ˈ
ˌ
ː
˥
˩
̀
́
̂
̃
̄
̆
̇
̈
̉
̊
̌
̍
̓
̔
̛
̞
̣
̥
̦
̧
̯
͂
α
β
θ
ο
ς
υ
ְ
ִ
ֵ
ַ
ָ
ּ
ׂ
א
י
ל
פ
ר
ש
ا
ب
ر
س
محمد
ي
ً
َ
ِ
ْ
ٔ
ٕ
۲
भ
ा
्
ং
দ
ব
ভ
ল
শ
া
ে
ਭ
ਾ
ભ
ા
ଭ
ା
த
ய
ா
ி
்
ಭ
ಾ
ത
യ
്
ື
་
ག
ཡ
ལ
ུ
ྲ
​
‌
‎
–
—
‘
’
“
”
•
‪
‬
′
″
‿
⁶
↔
↷
③
④
⑦
☉
☾
☿
♀
♂
♃
♄
♅
♆
♇
♦
⛢
⯓
⺀
⺄
⺆
⺈
⺊
⺌
⺕
⺝
⺸
⺼
⿰
⿱
⿲
⿳
⿴
⿵
⿶
⿷
⿸
⿹
⿺
⿻
〢
コ
ユ
㇁
㇂
㇄
㇇
㇈
㇉
㇓
㐁
㐄
㐅
㐌
㐫
㐬
㐭
㐮
㐱
㑒
㒵
㒸
㒼
㓁
㓞
㔾
㕛
㕣
㖾
㘝
㚅
㚇
㚔
㚘
㝉
㝡
㝴
㝵
㞋
㞢
㞷
㠩
㠭
㠯
㡀
㡭
㡿
㢲
㢴
㣇
㣺
㥯
㪅
㫄
㫐
㫒
㫺
㬅
㬎
㬥
㬰
㲋
㳄
㷠
㸒
㸚
㸦
㼌
㼲
㽞
㿟
䀠
䂞
䍃
䏍
䒑
䖍
䖒
䖝
䖵
䙴
䚻
䜌
䝿
䡛
䧹
䪞
一
丁
丂
七
丄
丅
丆
万
丈
三
上
下
丌
不
与
丏
丐
丑
专
且
丕
世
丘
丙
业
东
丞
丢
丣
两
严
並
丨
丩
个
丫
丬
中
丮
丰
丱
串
丵
丶
丷
丸
丹
为
主
丽
丿
乀
乂
乃
久
乆
乇
么
义
之
乌
乍
乎
乏
乐
乑
乔
乖
乗
乘
乙
乚
乛
乜
九
乞
也
习
乡
乳
乾
亀
亅
了
亇
予
争
事
二
亍
于
亏
亐
云
互
亓
五
井
亘
亚
亜
亞
亟
亠
亡
亢
交
亥
亦
产
亨
亩
享
京
亭
亮
亯
亰
亲
亳
亶
亷
人
亻
亼
亾
仁
今
介
仌
从
仐
仑
仒
仓
仕
他
付
仝
代
令
以
任
企
伊
伏
伐
休
会
伯
但
位
何
佘
余
作
佥
使
來
侈
侌
侖
侯
侵
便
保
俞
信
修
倉
倍
候
倠
備
僉
僕
儿
兀
允
兂
元
兄
充
兆
兇
先
光
兊
克
兌
免
兑
兒
兓
兔
党
兜
兟
入
全
兩
兪
八
公
六
兮
兰
共
关
兵
其
具
典
兹
兼
冀
冂
冃
冄
内
冈
冉
冊
冋
册
再
冎
冏
冐
冒
冓
冖
冗
冘
军
农
冝
冡
冥
冫
冬
冷
几
凡
凢
凵
凶
凷
凸
凹
出
函
凾
刀
刁
刂
刃
刄
刅
分
切
刍
刑
刕
刖
列
刘
则
初
別
利
别
到
制
刺
則
削
剌
前
剡
剽
劉
力
功
加
劦
助
劫
劳
劵
勃
勇
勉
勒
動
務
勞
勤
勹
勺
勻
勾
勿
匀
匂
包
匆
匈
匊
匋
匍
匕
化
北
匚
匝
匡
匪
匱
匸
匹
区
医
匽
匿
區
十
卂
千
卄
卅
卆
升
午
卉
半
卌
华
卑
卒
卓
单
卖
南
卜
卝
卞
占
卡
卢
卣
卤
卦
卩
卪
卬
卯
印
危
即
却
卵
卷
卸
卻
厂
厃
厄
历
厈
厉
厌
厓
厘
厚
原
厤
厥
厨
厭
厲
厶
厷
厸
去
厼
厽
叀
参
參
叅
又
叉
及
友
双
反
叐
发
叒
叔
叕
取
受
叚
叜
叟
口
古
句
另
叩
只
召
可
台
叱
史
右
叵
号
司
叹
吂
各
吅
合
吉
吊
吋
同
名
后
吏
向
吕
君
吝
吞
否
含
启
吳
吴
吹
吾
呂
呆
呈
告
员
呙
周
命
咅
和
咎
咠
咢
咨
咸
咼
哀
品
哉
員
哥
哲
唐
商
啇
問
啚
啬
啻
善
喜
喬
單
喿
嗇
噩
嚴
囊
囗
囘
囙
囚
四
回
囟
因
囧
囬
困
囱
囷
固
国
圂
圅
國
圍
圓
土
圡
圣
圥
在
圭
地
圶
圼
坐
坒
坚
坴
垂
垔
垚
埀
埋
埶
執
基
堂
堅
堆
堇
堯
塞
墨
壘
士
壬
壯
声
壳
壴
壹
壺
壽
夂
处
夅
夆
备
夊
夋
夌
复
夏
夒
夕
外
夗
夘
多
夜
夢
大
夨
天
太
夫
夬
夭
央
失
夲
头
夷
夸
夹
夻
夾
奂
奄
奇
奈
奉
奎
奏
奐
契
奓
奔
奚
奞
奠
奢
奥
奭
女
奴
奻
好
如
妄
妙
妟
妥
妻
妾
姑
委
姜
威
娄
婁
婴
嬰
嬴
子
孑
孔
孕
孖
字
存
孚
孛
孝
孟
季
孤
学
孫
孱
學
宀
宁
宂
它
宅
宇
守
安
宋
完
宏
宓
宗
官
定
宛
宜
宝
客
宣
室
宮
宰
害
家
容
宾
宿
寄
寅
密
富
寒
察
寧
審
寫
寬
寮
寸
对
寺
寻
寽
対
寿
封
尃
射
将
將
專
尉
尊
尋
尌
對
小
少
尒
尓
尔
尖
尗
尚
尞
尢
尣
尤
尧
尨
尭
就
尸
尹
尺
尻
尼
尽
尾
尿
局
居
屈
屋
屎
屏
屑
展
屖
屚
属
屠
屡
屬
屮
屯
屰
山
屵
屾
岁
岂
岑
岡
岩
岳
岸
峯
島
崇
崑
崔
崖
崙
崩
嵬
嶲
巂
巛
川
州
巟
巠
巢
巤
工
左
巧
巨
巩
巫
差
己
已
巳
巴
巷
巸
巽
巾
巿
帀
市
布
希
帚
帛
帝
带
師
席
帶
常
干
平
年
幵
并
幷
幸
幺
幻
幼
幽
幾
广
広
庄
床
底
店
庚
府
度
庫
庭
庶
康
庸
廉
廌
廛
廣
廩
廴
延
廷
建
廾
廿
开
弁
弃
弄
弇
弋
式
弓
弔
引
弗
弘
弜
弟
弥
弦
弱
張
強
强
彊
彌
彎
彐
彑
当
彔
录
彖
彗
彡
形
彥
彦
彧
彭
彳
役
彼
往
待
律
徒
得
徙
從
復
微
徵
心
忄
必
忌
忍
志
忝
忠
忩
快
念
忽
忿
思
怠
急
怱
恆
恒
恩
恭
息
悉
患
悤
悲
悶
惠
惡
惢
愁
愈
意
愛
感
慈
慧
慮
憂
憲
應
戀
戈
戉
戊
戋
戌
戍
戎
成
我
戒
戔
或
戚
戠
戢
截
戲
戶
户
戹
戼
戾
房
所
扁
扇
手
扌
才
打
托
执
承
折
拉
拜
拿
掌
推
提
摩
支
攴
攵
收
攸
改
放
政
敄
敏
敕
敖
敗
敝
敞
敢
散
敦
敫
敬
数
敷
數
斂
文
斉
斊
斎
斗
斤
斥
斩
斬
斯
新
方
於
施
斿
旁
旋
族
无
旡
既
旣
日
旦
旧
旨
早
旬
旱
旲
时
旾
昆
昇
昌
昍
明
昏
易
昔
昗
昜
星
春
昬
是
昱
昴
昷
時
晃
晋
晏
普
景
晶
智
暑
暴
曇
曩
曰
曲
曳
更
曷
書
曹
曼
曾
替
最
朁
會
月
有
朋
服
朔
朕
朗
望
朝
木
朩
未
末
本
札
朮
术
朱
朵
朶
朿
杀
李
杏
杜
束
条
来
東
杲
杳
松
析
林
枚
果
枝
枲
枼
某
柔
查
柬
柰
柴
栗
桀
桑
桼
梁
條
梟
梨
棘
棠
棥
森
楚
業
楽
榮
樂
樊
欠
次
欣
欮
欲
欶
欽
款
歆
歇
歛
止
正
此
步
武
歨
歪
歮
歯
歰
歲
歴
歷
歸
歹
歺
死
殳
段
殷
殸
殹
殺
殻
殿
毋
毌
母
每
毒
比
毕
毚
毛
毳
氏
氐
民
气
氣
水
氵
氶
氷
永
氺
氾
求
汝
汞
江
沃
沓
沙
沝
泉
法
波
泣
泥
泰
洛
洪
活
派
流
浦
浪
浮
淡
淮
清
渚
渠
湯
滿
漸
火
灬
灭
灰
灵
灷
炅
炎
炏
炗
炙
炭
為
烈
烏
烝
焉
無
焦
焱
然
煞
熊
熏
燕
營
燮
爪
爫
爭
爯
爰
爱
爲
爵
父
爻
爽
爾
爿
片
牙
牚
牛
牜
牟
牢
牧
牪
牽
犀
犬
犭
犮
狂
狄
狊
独
狺
猋
猒
猪
献
獻
玄
率
玉
王
玟
玨
珎
班
琴
瑟
瑩
瓜
瓦
甘
甚
生
産
用
甫
甬
田
由
甲
申
电
甶
男
甸
甹
画
甾
畀
界
畏
畐
留
畜
畟
畢
畧
畨
番
畫
異
畱
當
畺
畾
疊
疋
疌
疑
疒
疾
癶
癸
癹
登
發
白
百
皀
皃
的
皆
皇
皋
皐
皕
皮
皷
皿
盃
盆
盇
盈
益
盍
盎
监
盒
盖
盛
盡
監
盤
盧
目
直
相
盾
省
眇
眉
看
眔
眞
真
眷
眼
眾
着
睘
睪
睿
瞏
瞢
瞿
矍
矛
矞
矢
矣
知
矦
短
石
破
碎
磊
磨
示
礻
礼
祟
票
祭
禀
禁
禸
禹
禺
离
禽
禾
禿
秀
秃
秉
秋
科
秝
秦
移
稟
穀
穌
穴
究
穹
空
穿
突
窄
窒
立
竒
竜
竝
竟
章
童
竹
笑
笠
筆
等
答
箕
算
箴
節
篤
篭
米
粉
粛
粟
粤
粦
粲
糞
糸
糹
系
約
納
素
索
紫
累
細
絜
絫
絲
維
綿
縣
繇
纍
纟
缶
网
罒
罔
罕
罗
罙
罡
罢
罪
署
罷
羅
羊
羌
羍
美
羔
羕
羗
羞
羡
羣
群
義
羲
羸
羽
翁
翏
習
翕
翟
翠
翼
老
耂
考
者
耆
而
耎
耑
耒
耳
耴
耶
耷
聂
聊
聖
聚
聶
聿
肀
肃
肅
肉
肖
肙
肥
肩
肯
育
肴
胃
背
胡
胥
能
脊
脩
膚
臣
臤
臧
自
臬
臭
臯
臱
至
致
臺
臼
臽
臾
臿
舀
舂
舄
與
興
舉
舌
舍
舛
舜
舞
舟
般
艮
良
色
艸
艹
艾
芒
芔
芬
芮
花
芳
芺
芻
苔
苗
苟
若
苦
英
茶
茸
荅
草
荒
荣
荼
莆
莧
莫
莽
菆
菊
菐
華
萬
落
葉
著
葛
董
葵
蒙
蒦
蒼
蓋
蓬
蓮
蓺
蔑
蔡
蕉
蕭
薄
薛
薦
薰
藍
藏
藥
蘭
虍
虎
虐
虒
虔
處
虖
虗
虘
虚
虛
虜
虞
虫
虽
蚤
蚩
蜀
蜜
蟲
蠡
血
行
衍
衛
衣
衤
表
衮
衰
袁
袞
褭
褱
襄
襾
西
覀
要
覃
見
規
覓
覧
親
覽
见
角
解
言
訁
訇
計
詹
誩
諸
讠
谷
豆
豈
豊
豐
豕
豖
豙
象
豦
豩
豪
豸
貇
貝
貞
貟
負
貢
貧
貪
貫
責
貳
貴
買
費
賁
資
賈
賏
賓
賔
賛
賞
賢
賣
質
賴
贊
贝
贡
责
贯
贲
贵
赖
赞
赤
赦
走
越
足
路
蹇
身
躬
車
軍
軎
軟
輦
车
辛
辜
辟
辥
辰
辱
農
辵
辶
边
达
过
近
连
迷
追
退
送
逆
逐
通
速
造
逢
連
逮
進
遀
遂
過
道
達
遣
適
遷
遺
邊
邑
邕
那
邦
邪
郎
部
郭
都
鄉
酉
酋
配
酓
釆
采
里
重
野
量
金
釒
錢
钅
長
镸
长
門
閃
閉
開
閏
閑
閒
間
閔
閵
閻
闌
门
间
闷
阑
阜
阝
阿
降
陳
隆
隊
隋
隡
隨
隱
隶
隹
隺
隻
隼
隽
难
雀
雁
集
雈
雋
雍
雐
雔
雙
雚
雜
雝
離
難
雨
雩
雪
雲
零
雷
需
霍
霜
霝
霞
霸
靈
靑
青
非
靡
面
靣
革
韋
韦
韭
韯
韱
音
頁
頃
項
須
頗
頡
頻
顛
页
風
风
飛
飞
食
飠
飾
養
饣
首
香
馬
馮
駦
马
骨
高
髟
鬥
鬯
鬲
鬼
魚
魯
鮮
鱼
鲁
鳥
鳳
鸟
鹵
鹿
麃
麗
麥
麦
麻
黃
黄
黍
黎
黑
黒
黨
黹
黽
黾
鼎
鼓
鼠
鼻
齊
齋
齐
齒
齿
龍
龙
龜
龟
龠
龰
龱
龴
龵
龶
龷
龸
龹
者
艹
？
🜨
𠀁
𠀃
𠀆
𠀉
𠀎
𠀐
𠁁
𠁣
𠂆
𠂇
𠂈
𠂉
𠂊
𠂋
𠂎
𠂒
𠂔
𠂛
𠂡
𠂢
𠂤
𠂬
𠂭
𠂹
𠃊
𠃋
𠃌
𠃍
𠃎
𠃑
𠃓
𠃔
𠃜
𠄌
𠄎
𠄠
𠄢
𠆢
𠆥
𠇍
𠈌
𠌵
𠓜
𠔉
𠔥
𠔼
𠔽
𠔿
𠕀
𠕁
𠕋
𠘧
𠘨
𠙻
𠙼
𠚏
𠚒
𠚤
𠚪
𠣏
𠤎
𠤕
𠥓
𠦄
𠦑
𠦝
𠧒
𠧗
𠧪
𠩺
𠪚
𠫓
𠫔
𠫤
𠬛
𠬝
𠬞
𠬢
𠬤
𠬶
𠮛
𠮦
𠮷
𠯑
𠱠
𠳮
𠷎
𡈼
𡉀
𡉵
𡌥
𡍮
𡏳
𡕒
𡕩
𡕰
𡖅
𡗗
𡗜
𡘆
𡘤
𡧱
𡨄
𡩧
𡬠
𡭽
𡰣
𡰥
𡰪
𡰯
𡰱
𡷈
𡸁
𡿨
𡿩
𡿪
𡿺
𢀖
𢀛
𢀩
𢁙
𢆉
𢆰
𢆶
𢇁
𢇇
𢉖
𢌬
𢌿
𢏚
𢑑
𢑚
𢖻
𢙣
𢛳
𢦏
𢦒
𢧵
𢼄
𢾕
𣁋
𣄼
𣅀
𣅽
𣍘
𣎳
𣎵
𣏋
𣏼
𣗥
𣥂
𣥖
𣦵
𣦼
𣧄
𣪊
𣪠
𣬉
𣳾
𣶒
𤇾
𤊽
𤐫
𤓰
𤔔
𤕨
𤣩
𤰇
𤰔
𤰞
𤴓
𤴔
𤽄
𥁑
𥁕
𥃦
𥃩
𥃭
𥇡
𥑟
𥘅
𥘈
𥝢
𥫗
𥱡
𦈢
𦉪
𦉬
𦉼
𦍌
𦍒
𦎧
𦐇
𦓔
𦔮
𦘒
𦙃
𦚏
𦣝
𦣞
𦣻
𦥑
𦥔
𦥯
𦨉
𦭝
𦰩
𧆞
𧈧
𧘇
𧰨
𧴪
𧴮
𧵩
𧾷
𨸏
𨾴
𩙿
𩠐
𩫏
𩵋
𪉷
𪜀
𪟽
𪠲
𪩲
𫇦
𫔭
𫜸
𫝀
𫠣
𫠩
𫢉
𫥞
𫩏
𫩠
𫪡
𫲽
𫶧
𬀷
𬐘
𬗌
𬙙
𬛸
𬜯
𬟩
𬯁
𬴘
𬺻
𬼉
𬼖
𭀰
𭁈
𭁨
𭅰
𭑈
𭕄
𭗼
𭤨
𭥫
𭻾
𮅕
𮊿
𮍌
𮍏
𮓗
𮥼
𮧮
廾
𰀁
𰀄
𰀈
𰀉
𰀕
𰀠
𰀡
𰀢
𰀪
𰁜
𰃮
𰆊
𰆘
𰋙
𰕎
𰢴
𰧭
𰯲
0--
11--
13--
15--
16--
17--
5--
51--
6--
63--
64--
67--
7--
73--
8--
9--
a--
ab--
aba--
ac--
achi--
ad--
ag--
aga--
agu--
ah--
aka--
akat--
aku--
al--
ala--
ale--
alf--
am--
amat--
an--
ana--
ange--
ank--
ant--
apa--
app--
ar--
archi--
ari--
as--
ash--
ast--
astu--
at--
au--
aw--
ay--
az--
b--
ba--
bad--
baf--
bak--
baka--
baku--
ban--
bao--
bapt--
bar--
bas--
basa--
be--
bel--
ben--
ber--
bert--
bes--
bi--
bil--
bir--
bla--
bo--
bor--
bos--
bow--
br--
bra--
bri--
broad--
bu--
bul--
bun--
bur--
bvu--
bwe--
c--
ca--
cal--
cam--
can--
car--
cas--
cast--
cat--
ce--
cer--
ch--
cha--
chapa--
che--
chi--
chika--
chiku--
chili--
chim--
chin--
chipe--
chis--
chiu--
chiz--
cho--
chu--
ci--
cla--
co--
col--
com--
con--
cont--
cor--
cos--
cre--
cri--
cro--
cu--
cur--
cy--
d--
da--
de--
defi--
di--
dio--
do--
dr--
du--
dz--
dzu--
e--
ed--
ek--
el--
em--
en--
es--
esca--
esk--
est--
et--
exo--
f--
fa--
fair--
fal--
fam--
far--
fat--
fe--
fer--
ferre--
fin--
fle--
flo--
flu--
fo--
fu--
fʁ--
g--
ga--
gal--
gali--
gar--
garri--
gc--
ge--
gene--
gha--
ghaka--
gi--
gil--
gla--
glen--
go--
gu--
guana--
gui--
guil--
gwe--
h--
ha--
har--
hay--
he--
hel--
hen--
her--
hert--
hi--
hic--
hil--
ho--
hol--
hu--
huds--
i--
ibe--
ig--
ika--
ikaya--
iku--
ila--
ile--
im--
in--
inda--
inf--
iroka--
is--
ishi--
it--
iw--
j--
ja--
je--
ji--
jo--
ju--
jus--
k--
ka--
kab--
kabu--
kach--
kaf--
kafu--
kako--
kal--
kala--
kam--
kamp--
kamu--
kan--
kap--
kape--
kapi--
kapu--
kar--
kas--
kat--
kata--
kato--
kau--
kavi--
kaw--
kay--
kazu--
ke--
kemi--
ken--
kh--
kha--
kho--
khwa--
ki--
kib--
kil--
kim--
kis--
kit--
ko--
kot--
kra--
krasno--
ku--
kuchi--
kugo--
kugu--
kuji--
kuk--
kuka--
kuku--
kul--
kulem--
kulo--
kuma--
kun--
kunji--
kunoz--
kup--
kupa--
kupe--
kuro--
kusa--
kusaz--
kut--
kuth--
kutu--
kuw--
kw--
kwa--
l--
la--
lac--
laku--
lam--
lamb--
lan--
lar--
las--
lau--
le--
let--
li--
lic--
lika--
liku--
liliku--
lime--
lin--
lis--
lla--
llo--
lo--
lou--
lu--
luf--
lun--
lup--
lus--
lusu--
luw--
lwa--
ly--
m--
ma--
mab--
mac--
machit--
madzi--
maf--
mag--
maga--
mak--
maku--
mal--
mala--
mali--
malu--
man--
mar--
masa--
mat--
mata--
matsu--
matundu--
mau--
maw--
mb--
mba--
mbe--
mbi--
mbo--
mc--
mde--
me--
mel--
men--
mer--
met--
mgo--
mi--
mil--
min--
miqu--
mis--
mit--
miya--
mka--
mko--
mku--
mkw--
mla--
mle--
mli--
mlo--
mn--
mo--
mol--
mom--
mon--
mont--
mor--
mp--
mpa--
mpe--
mpha--
mphe--
mpi--
mpo--
ms--
msam--
msu--
mt--
mte--
mtema--
mth--
mto--
mu--
muku--
mula--
mulo--
muph--
mus--
mut--
muw--
muz--
mvu--
mw--
mwa--
mwaku--
mwe--
mwim--
my--
mz--
mza--
mzu--
n--
na--
naha--
naka--
naku--
nali--
nam--
namw--
nan--
nank--
nankhu--
nap--
nas--
nau--
nda--
nde--
ndi--
ndo--
ne--
new--
ng--
nga--
ngo--
ngwa--
ni--
nii--
nj--
nja--
nje--
nji--
nk--
nka--
nkh--
nkha--
nkho--
nkhu--
nko--
nku--
nl--
no--
nor--
nsa--
nta--
nth--
nti--
nto--
ntu--
nu--
nur--
ny--
nya--
o--
obi--
of--
off--
oli--
olive--
on--
or--
ori--
os--
ovw--
ow--
oz--
p--
pa--
page--
paku--
pal--
pam--
pan--
par--
park--
pat--
pe--
pen--
per--
pha--
phi--
pho--
pi--
pic--
po--
poly--
pom--
pon--
pot--
pr--
pra--
pract--
pro--
pu--
puig--
q--
qu--
que--
quin--
r--
ra--
re--
refe--
ren--
res--
ri--
rie--
riu--
ro--
rock--
rol--
rou--
ru--
s--
sa--
sal--
sala--
sam--
san--
sar--
sch--
scri--
se--
seg--
sen--
ser--
ses--
she--
shi--
si--
sin--
sk--
sky--
slo--
so--
sol--
spe--
spre--
st--
ste--
stef--
sto--
stu--
su--
suf--
sut--
sw--
swe--
sy--
syl--
t--
ta--
tal--
tam--
tar--
tat--
te--
tem--
th--
tho--
thu--
thun--
ti--
to--
toko--
tor--
tra--
tri--
tro--
tru--
tsu--
tu--
tun--
tur--
ty--
u--
uk--
ukam--
ukapa--
ukas--
uku--
ul--
une--
up--
ur--
ura--
uru--
us--
ut--
uta--
utu--
uw--
uz--
v--
va--
vaku--
ve--
ven--
vi--
vibu--
vik--
vika--
viku--
vil--
vin--
vis--
visam--
viw--
vor--
vy--
vya--
vyaku--
vyo--
vyu--
w--
wa--
wak--
waka--
waku--
wali--
wan--
wat--
wau--
waw--
we--
web--
whit--
wi--
wil--
wis--
wo--
wu--
wuka--
x--
y--
ya--
yaku--
yan--
yar--
ye--
yi--
yika--
yiku--
yiw--
yo--
yu--
z--
za--
zaku--
zam--
zama--
ze--
zem--
zgo--
zi--
zif--
zikuw--
zim--
zin--
zit--
ziw--
zo--
zolem--
zoli--
zolo--
zom--
zu--
ɡ--
ɪ--
ʁ--
ʒ--
ال--
ع--
--0
--00
--000
--1
--2
--3
--4
--5
--6
--65
--7
--8
--86
--9
--92
--a
--ad
--ada
--adzi
--agaya
--ah
--ai
--ain
--ak
--al
--ala
--ale
--am
--ama
--amba
--ambe
--an
--ang
--anga
--angwa
--ano
--ans
--anya
--ao
--ar
--as
--ase
--au
--awa
--ay
--aza
--azi
--b
--ba
--bb
--be
--betsu
--bi
--bili
--bira
--ble
--bo
--bu
--buck
--bula
--bulu
--burg
--bvu
--bwa
--bwe
--by
--c
--ca
--ce
--cer
--ch
--che
--chema
--chemeka
--chi
--chimbila
--cho
--cio
--ck
--cliff
--co
--cock
--ct
--cy
--d
--da
--dala
--dale
--danga
--dani
--de
--den
--der
--di
--do
--doko
--dor
--dula
--dumbiskana
--dwa
--dwe
--dy
--dzi
--e
--ea
--ean
--eau
--ed
--edit
--egal
--ein
--eka
--el
--ela
--ell
--embe
--eme
--emi
--en
--eni
--ent
--ep
--er
--era
--ere
--ero
--ers
--ery
--es
--esa
--ess
--et
--eta
--eto
--eville
--ew
--ey
--ez
--f
--fa
--ff
--fi
--fula
--fuma
--fumila
--fwila
--g
--ga
--ganiza
--gano
--gapo
--gate
--gaw
--ge
--geka
--geni
--ger
--gg
--ggs
--gha
--gho
--ght
--gi
--gika
--go
--graphy
--gs
--gu
--gula
--gwa
--gwe
--gwila
--gwiliska
--h
--ha
--hara
--hazi
--he
--head
--hi
--hima
--ht
--hu
--i
--ia
--ian
--ic
--ig
--igh
--ike
--il
--ila
--ile
--ili
--illa
--ille
--imba
--in
--ine
--ing
--inga
--ini
--ino
--io
--ion
--ir
--ira
--ire
--iri
--is
--isa
--iska
--it
--ita
--ite
--iwa
--iz
--j
--ja
--jambula
--je
--jeni
--ji
--jima
--jo
--ju
--jumpha
--k
--ka
--kachema
--kala
--kana
--kaso
--ke
--kela
--kelo
--ken
--kera
--kero
--kha
--khala
--khe
--khika
--khozgela
--khumba
--khutu
--ki
--kika
--kila
--kizga
--ko
--kola
--koma
--komeka
--komekela
--ks
--ku
--kuka
--kulu
--kuzingilizgika
--kwana
--l
--la
--lala
--lana
--land
--langa
--ld
--ldo
--le
--leka
--lemba
--lembeka
--leni
--lera
--les
--let
--ley
--li
--lier
--lika
--lila
--lilo
--limbana
--lindizga
--lio
--lira
--lis
--lk
--ll
--lla
--lle
--llo
--lls
--lo
--loje
--longosola
--lowa
--ls
--lt
--lu
--lulu
--lus
--ly
--m
--ma
--mala
--manya
--manyikwa
--mba
--mbana
--mbanizga
--mbe
--mbeka
--mbere
--mbi
--mbila
--mbira
--mbiska
--mbiya
--mbizga
--mbo
--mbu
--mbuka
--mbula
--me
--meka
--mela
--mi
--mika
--mila
--mizga
--mizu
--mo
--mola
--mont
--mp
--ms
--mu
--muvwile
--mvu
--mvuu
--mwa
--mwe
--n
--na
--nai
--nayi
--nburg
--nc
--nce
--nd
--nda
--nde
--nder
--ndi
--ndo
--nds
--ndu
--ndwa
--ndwe
--ne
--nen
--nera
--nes
--neska
--net
--ng
--nga
--nge
--ngi
--ngo
--ngs
--ngu
--ngwe
--ni
--nika
--niska
--niza
--nja
--nje
--njila
--nn
--no
--nock
--ns
--nsko
--nso
--nt
--nta
--nte
--ntes
--nthu
--ntry
--nu
--ny
--nya
--nyi
--nyu
--nza
--nzi
--o
--oka
--oko
--oleum
--om
--omi
--on
--ona
--onde
--or
--ort
--os
--oso
--osola
--ot
--oti
--oto
--ow
--ozgeka
--p
--pa
--panga
--pani
--pc
--pe
--pempha
--per
--pgdp
--phaska
--pi
--po
--pona
--ps
--pusu
--q
--que
--r
--ra
--ral
--rd
--rda
--rdo
--re
--res
--rey
--rf
--rg
--ri
--rm
--rn
--ro
--row
--rra
--rri
--rry
--rs
--rsk
--rt
--rto
--ru
--rus
--rwa
--ry
--s
--sa
--sachizga
--saki
--sama
--sambila
--sambizga
--sanga
--sanganga
--sangika
--sazga
--sburg
--se
--ses
--sh
--si
--side
--ska
--skika
--so
--sola
--son
--sor
--ss
--ssa
--st
--ster
--ston
--su
--suzga
--sville
--t
--ta
--tal
--tali
--tas
--tch
--tchuka
--te
--ted
--temwa
--tes
--th
--tha
--thu
--ti
--tia
--tike
--tion
--tive
--to
--tol
--tola
--tolera
--ton
--tonda
--tov
--town
--ts
--tsa
--tsera
--tsi
--tsidwa
--tsk
--tsu
--tt
--tte
--tu
--tukuka
--tula
--ty
--u
--ue
--uka
--ula
--ulu
--um
--uma
--un
--uni
--unti
--ur
--ura
--ure
--uri
--us
--uta
--uti
--uwa
--uzga
--uzi
--v
--va
--ve
--ves
--vi
--ville
--vota
--vu
--vwi
--vwila
--w
--wa
--way
--we
--wi
--wini
--wn
--wo
--wood
--woyeka
--wu
--x
--y
--ya
--yamwaka
--yana
--yani
--yata
--ye
--yeka
--yer
--yi
--yo
--yowa
--yu
--z
--za
--zano
--zawa
--ze
--zenga
--zengeka
--zga
--zgana
--zgano
--zge
--zgi
--zgika
--zgo
--zgoka
--zi
--zika
--zingilila
--zo
--zomelezgeka
--zu
--ɐ
--ɑ
--ɛ
--ɪ
--ʁ
--ʊ
--ت
--ل
--ن
