!
"
#
##0
##1
##10
##11
##12
##13
##14
##15
##16
##17
##18
##19
##2
##20
##21
##22
##23
##24
##25
##26
##27
##28
##29
##3
##30
##31
##32
##33
##34
##35
##36
##37
##38
##39
##4
##40
##41
##42
##43
##44
##45
##46
##47
##48
##49
##5
##50
##51
##52
##53
##54
##55
##56
##57
##58
##59
##6
##60
##61
##62
##63
##64
##65
##66
##67
##68
##69
##7
##70
##71
##72
##73
##74
##75
##76
##77
##78
##79
##8
##80
##81
##82
##83
##84
##85
##86
##87
##88
##89
##9
##90
##91
##92
##93
##94
##95
##96
##97
##98
##99
$
%
&
'
(
)
*
+
,
-
.
/
0
000
001
002
008
01
02
020803
03
030807
031108
0371
04
0403
05
06
07
08
0959378731
0963
1
10
100
1000
102
1046
11
12
12628
128
13
14
143
148
15
150
152
1528
16
1600
1643
165
1650
168
17
1700
17034
173
174
175
1773
1777
1781
1793
1797
1799
18
180
1800
1806
1807
18077
1808
1810
1817
1820
1826
1829
1835
1837
1842
1846
185
1852
1854
1862
1863
1865
1868
1874
1875
1876
1877
1880
1881
1885
1887
1889
1891
1893
1898
19
1900
1905
1910
1911
1912
1914
1917
1918
1919
192
1920
1921
1924
1926
1928
1929
1930
1931
1933
1934
1936
1938
1939
1941
1943
1945
1946
1952
1953
1959
1960
1961
1962
1963
1965
1967
1968
1970
1971
1972
1973
1974
1979
1980
1982
1983
1984
1985
1988
1990
1991
1992
1993
1994
1995
1996
1998
1999
2
20
200
2000
2001
2002
20030311031225
20030315012835
2004
2005
2006
2007
20070305044302
2008
2009
2010
2011
20110123015211
2012
2013
2014
2015
2016
20160306114957
2017
2018
2019
2020
2021
2022
20554487
20991
21
213
22
220
23
232
2375
24
240
25
250
257
26
264
27
272
28
288
29
3
30
300
31
315
31750
32
320
33
34
340
35
350
36
38
39
4
40
400
41
410
42
43
44
45
450
47
5
50
500
53
540
55
562
57
58
59
6
60
600
61
628
64
65
69
7
70
700
71
75
76
764
78
7900
8
80
800
815
8248
83
86
894
9
90
92
944710
952
953
955
964
978
9789829806215
98
9800
98007
982
99
:
;
<
=
>
?
@
\
_
`
a
aa
abel
abelmoschus
able
abongi
about
above
abstract
acacia
acalypha
according
account
aciculatus
acidus
act
actinopterygii
acuminata
acuta
add
administration
adopted
ae
aealani
aepuaka
aere
aerial
aerodramus
af
afa
afai
afaka
afanga
afe
afeva
afi
afifio
afilika
afio
after
afu
afua
afuha
afulele
afutoka
again
against
ageratum
aglaia
ago
agree
agreed
agroforestry
ah
ahau
ahi
ahikehe
ahina
ahine
ahinga
ahio
ahisiaina
ahita
ahivao
ahivi
aho
ahome
ahu
ai
aia
air
aires
airlines
airport
aisea
aitu
aka
akai
akame
akana
akapulu
akataha
akau
ake
aki
akifu
akio
akiu
ako
akolo
akonaki
aku
akula
akuma
al
ala
alafolau
alaivahamama
alakifonua
alakipeau
alalo
alamea
alanga
alasika
alata
alaufuli
alava
alavilavi
alba
albizzia
alea
aleamotu
alepea
alfa
algae
ali
alifaleti
align
aliki
aliku
alipate
all
allamanda
allowed
almost
alo
aloalo
aloe
alofa
alofi
along
aloo
alotolu
already
also
alternanthera
alternata
alternative
although
alu
always
alysicarpus
alyxia
ama
amanaki
amango
amau
amaua
amautolu
amboinensis
ame
amea
amelika
america
american
americana
americanum
amisetami
amo
amoa
amomum
among
amonga
amotu
amou
amoua
amoutolu
amu
an
ana
anaethetus
anahulu
anakivale
anas
anaseini
anau
anaua
anautolu
ancestry
and
andropogon
ane
anea
anekivale
aneta
anga
angaha
angamaheni
angana
ange
angi
angiopteris
angiospermae
ango
angoango
angry
ani
animalia
animals
aniu
annona
announced
ano
another
anous
anovai
anthem
antonio
anu
anuku
anus
any
anymore
ao
aofia
aoka
aokalani
aokosi
aonga
aositele
aositelelia
aotealoa
apa
apai
ape
apele
api
apia
apiako
apiko
apo
apocynaceae
apongipongi
aposetolohina
aposetolopulu
apple
appointed
appointments
approximately
april
apuaka
apule
ara
arachnis
arborescens
archipelago
archive
ardea
are
area
arenaria
arg
argentea
ariel
arminjoniana
arms
around
arrived
arten
article
articles
artman
arts
as
asapaisani
asc
asenitina
asi
asia
asian
asiasi
asiatica
asiaticum
asila
asini
asino
asleep
asp
asparagus
asplenium
aspx
assembly
associated
association
at
ata
atafu
atakai
atakalaua
atalava
atamai
atata
atau
ataua
atautolu
ate
atea
ateiho
atenisi
atevalu
ati
atimosifia
ato
atokoni
atoll
atonga
atono
atoto
atoutai
atropurpureum
atu
atuna
au
auckland
auhama
auhe
auhi
aukava
aulahi
aupito
aureum
australasicum
australia
australian
australis
austronesians
aute
automatically
ava
available
avakatolo
avala
avale
avalisi
ave
aveave
awa
awaiting
awapuhi
away
axes
azadirachta
b
babai
back
bacteria
bad
baker
bangladesh
bank
banyan
baptism
baptiste
bar
barrier
based
basket
bataillon
battle
bauml
bay
be
bea
beach
bean
beautiful
became
because
become
been
before
beginning
begotten
behaviour
behind
beijing
being
believed
belonging
belongs
below
belt
benincasa
bergii
bernice
besuntado
beta
better
between
biflora
big
bilateria
bin
biology
bird
birds
birth
bishop
bishopmuseum
bitter
black
blessing
blood
blue
boat
boatshed
body
boerhavia
bongi
book
borders
bore
born
boro
botany
both
bott
bottle
bottom
box
boy
boys
bpb
br
branch
branches
brasiliensis
break
breath
breynia
briefs
bright
bring
british
broadcasting
broke
brother
brothers
brought
broussonetia
brown
brugmansia
bruguiera
bryophyllum
buchananii
buenos
built
bulletin
burley
bush
but
butorides
by
c
ca
cabinet
cacala
caesalpinia
cajan
cajanus
called
calophyllum
came
campbell
can
canarium
canavalia
candida
candidate
canoe
canterbury
cape
capense
capital
capsicoides
captain
carambola
carruthersii
carry
case
cassia
casuarina
categories
category
cathartica
catholic
cattleianum
caucau
cedar
cedrela
cell
celled
cells
centauri
center
centosteca
central
centre
centrosema
century
cerbera
ceremony
cernua
cestrum
cevuga
cfm
cgi
ch
chamaesyce
chanel
chief
chiefly
chiefs
child
children
china
chinensis
chinese
choose
chordata
christ
christian
christianity
church
churchward
circus
citrus
city
civil
claim
claimed
clan
clans
classification
clear
clerodendrum
close
closeup
cloud
clouded
clouds
co
coalsack
coast
coastline
coat
cobar
coccinea
coconut
coconuts
coelenterata
coleus
college
collina
collinsiana
com
come
comes
coming
command
common
commoner
commonwealth
communion
completely
complex
concolor
consequence
considered
constellation
constitution
consul
content
contest
converted
converts
convolvulaceae
conyza
conyzoides
cook
cookislands
cooperation
corallinus
corded
cordia
cordyline
cotton
could
council
countries
country
course
cover
created
creatures
crinum
critical
cropped
cross
crotalaria
croton
crowed
crown
crux
cry
cultural
culture
curcas
current
cut
cyathea
cyatheaceae
cyathophora
cycadophyta
cyperaceae
cyperus
d
da
dactylatra
daigremontianum
dance
daption
data
date
daughter
david
dawn
day
daylight
days
dc
de
dead
death
december
decided
declared
defeated
defence
defend
define
del
delagoense
deletion
democracy
dennstaedtia
deported
deposed
depression
der
descend
descendants
described
describes
desmodium
despite
deuterostomata
development
devices
diameter
dichotoma
dicotyledones
dicranaceae
dicranopteris
dictionary
did
die
died
different
difficult
digitaria
diomedea
dioscorea
diospyros
directly
distance
distinct
district
division
do
does
domestica
don
done
down
drake
drala
dress
drown
dsc
duck
due
dug
dulcis
during
dynasty
e
ea
each
earlier
early
east
eastern
eat
eaten
eating
ecdysozoa
echinatus
echinodermata
edirne
editors
edu
edulis
ee
efa
efakalakanga
efakalao
eff
efiafi
efiema
efuefu
efuoloa
egretta
ehala
ehe
ehi
ehingoa
ehokohoko
ehongofulu
ehoosi
eiki
eikivaka
either
eitu
eki
ekiaki
ekina
ekiu
ekonomika
ekosi
eku
ekueta
ekula
elaeocarpus
elahi
elango
eldest
ele
elegans
elevated
elevitch
ellem
elo
eloki
emau
emilia
emipaea
emoa
en
ena
enau
end
ene
eng
enga
engata
engeenga
english
eni
enisinia
enough
entada
entrance
enua
eono
epau
epeleli
epikopo
epilo
epipremnum
epopua
epress
equal
equisetifolia
ere
erecta
eruption
ervatamia
erythrina
escape
escaped
esculenta
esculentus
esi
esia
esitenga
especially
essays
essentially
established
estate
et
eta
etau
ete
eternal
eua
euafo
euaiki
euakafa
euamotu
eueiki
eugenia
eulope
euphorbia
euphorbiaceae
eva
eve
evecta
even
evening
ever
every
everything
ex
exactly
example
excelsa
exec
exist
extremily
exulans
eye
f
fa
faa
faakinanga
fabaceae
fact
fafa
fafanga
fafangu
fafine
faha
fahu
fai
faifai
faifatongia
faifekau
failed
failolo
faina
faingama
faingata
faingofua
faioa
fair
faita
faitaa
faito
faiva
faka
fakaafe
fakaako
fakaava
fakaenga
fakaesino
fakafa
fakafalanise
fakafanau
fakafefine
fakafepaki
fakafeta
fakafetongi
fakafetonginauna
fakafetu
fakafisi
fakafofonga
fakafoki
fakafonu
fakafonua
fakafuluta
fakafuofua
fakafutuna
fakaha
fakahaa
fakahauai
fakaheliaki
fakahifo
fakahiku
fakahingoa
fakahiniti
fakahisito
fakaho
fakahoa
fakahoko
fakahokohoko
fakahounga
fakahu
fakaka
fakakakai
fakakakato
fakakalisitiane
fakakaukau
fakakautau
fakakavakava
fakakehe
fakakilipasi
fakakona
fakakuki
fakala
fakalahi
fakalakalaka
fakalakanga
fakalao
fakalatina
fakalauma
fakalava
fakalea
fakalelei
fakalilifu
fakaloki
fakalotu
fakalotuma
fakaloupata
fakalu
fakama
fakamaau
fakamafola
fakamalohi
fakamalu
fakamanatu
fakamangareva
fakamatala
fakamate
fakamatelie
fakamatemate
fakamauli
fakamelomelo
fakamisinale
fakamo
fakamui
fakamuimui
fakanatula
fakangata
fakangatangata
fakaniue
fakano
fakanofo
fakaofo
fakaongosia
fakapa
fakapapau
fakapilita
fakapo
fakapolinisia
fakapolitikale
fakapoongi
fakapu
fakapule
fakapuputu
fakasaienisi
fakasi
fakasosiale
fakata
fakatafe
fakataha
fakatahataha
fakatahisi
fakatamaki
fakatata
fakatatau
fakatau
fakatauhingoa
fakatefito
fakatenetene
fakato
fakatoka
fakatokanga
fakatokelau
fakatonga
fakatotolo
fakatou
fakatu
fakatulolo
fakatupu
fakatupulaki
fakau
fakava
fakavaha
fala
falala
falaniki
falanise
falcon
fale
falealea
faleloa
falelotu
falemahaki
faleono
falevai
famili
families
family
familyid
familysearch
fana
fanakavakilangi
fanau
fanetupouvava
fanga
fangale
fangatapu
fangatongo
fangatua
fangu
fangupo
fanongo
fanongonongo
fao
far
fasi
fata
fatafata
fatafehi
fatai
fatakau
father
fatongia
fatu
fau
faumalila
favoured
fe
features
february
feet
fefafa
fefakatau
fefe
fefeka
fefine
feha
fehangahangai
fehi
fehikitaki
fehimuli
fehoko
fehokomoelangi
fehokotaki
fehu
fehuhu
fehuluni
feinga
feitama
feitu
fekai
fekau
feke
fekika
fekumi
felemea
feleoko
feletoa
felila
fell
female
femotumotuhi
fenga
feo
feohi
fepaki
fepiupiuaki
ferrea
feta
fetaulaki
feto
fetongi
fetonginauna
fetu
fetuku
feu
fevanga
few
ffk
fi
fia
fiat
ficus
fie
fiefia
fieha
fielakepa
field
fiema
fieta
fifisi
fihi
fiji
fijian
fika
fiki
file
fili
filimoe
filimoto
filo
filohako
filomatolu
final
finally
finangalo
findarticles
fine
fingota
finow
fio
first
fish
fishes
fishing
fisi
fisihina
fisiki
fisilauma
fisipuna
fitu
five
flacourtia
flag
flats
fleurya
flight
floribunda
flower
flowers
fly
fo
foa
foaki
foetida
fofoa
fofonga
foha
foiata
foilifuka
foki
fokonofo
fokotu
fola
folaha
folau
foliage
followed
following
folo
folofola
fonnooa
fonoifua
fononga
fonongahina
fonongo
fonu
fonua
fonuafo
fonualei
fonuamamala
foo
food
fool
for
force
foreign
foreigner
forest
form
former
forsteri
fort
forth
fortunecity
forum
forums
fotofili
fotu
fotua
fotuha
fotulona
fotunga
fou
fought
found
founga
fragaria
fragrans
frameless
francisco
frederica
free
freepages
fregata
freycinetia
friend
friendly
friends
from
frompage
front
fruit
fruits
fruticosa
fu
fua
fuakava
fualele
fualu
fuamelie
fuasiliva
fue
fuefue
fuehina
fuekula
fuelalahi
fuemea
fuemoa
fuetahi
fuevao
fufulu
fuifui
fuifuilupe
fuiva
fuka
fukahi
fukave
fukofuka
fuleheu
fulivai
full
fulu
fulufulu
fulufulua
fululupe
fulva
funafuti
funeral
funga
fungamisi
fungavaka
fungi
fuo
fuofua
fuofuanga
fuofuoloa
fuohenga
fuoloa
fuopotopoto
furcraea
further
fusca
fuscata
fusi
fusipala
fusitu
futa
fute
futu
futuna
future
g
gadrogadro
galactia
gallicolumba
gallirallus
gallus
garcinia
garden
gardenia
gatae
gave
gemini
gender
genealogy
general
generations
geniostoma
gentle
geography
geophila
george
ger
get
getperson
geysir
gi
gia
giant
gifford
gift
gigantea
giganteus
ginkgophyta
girdle
give
given
gje
glabra
globosa
glochidion
gloriosa
gnetophyta
go
god
gods
goes
going
gold
golden
gomphrena
gooa
good
gooseberry
got
gourd
gov
government
governor
gracilis
grandiflora
grandis
grandson
grass
gray
great
green
grenada
grew
gridcolor
group
grow
growing
grown
gu
guinea
gulf
gygis
gymnospermae
h
ha
had
hae
hafoka
hafokame
hahake
hai
haka
hakato
hakau
hakaufasi
hake
hako
hakoloa
hala
halaevalu
halatoaongo
halepense
half
halo
hama
hamilitoni
hamilton
hamula
hana
hanau
hand
hands
hanga
hangatonu
hange
hano
hao
haole
happened
happy
harbour
harveyi
has
hated
hau
hauai
have
havea
havelu
haveluliku
haveluloto
having
hawai
he
hea
head
hear
heart
heaven
heavula
hefa
heilala
heir
heirs
heka
heketa
heketala
held
helekosi
heletui
heliaki
heliconia
help
helu
hema
henga
hengehenga
hengihengi
heni
henquel
her
herb
here
hereditary
hernandia
hero
herself
het
heterophylla
heteroscelus
hi
hia
hiapo
hibiscus
hifo
hifoanga
hifofua
high
higher
highest
highly
hihifo
hiki
hikihiki
hiko
hiku
hikule
hili
hilifaki
him
himself
hina
hinaekiaki
hinehina
hingano
hingoa
hirsutula
hirta
his
hisito
hisitolia
hispida
histfam
history
hit
hiva
hivangofulu
hixon
ho
hoa
hoamofaleono
hoe
hofoa
hoha
hoi
hoihoifua
hoko
hokohoko
hokosi
hokosia
hoku
hola
holani
hole
holeva
holi
holisi
holo
holonga
holopeka
holy
homau
home
homou
hona
honau
hone
hongofulu
hono
honolulu
honour
hoosi
hopa
hopaati
hope
hopo
hopoate
horizon
hotau
hotele
hoto
hou
houma
house
how
howard
however
htm
html
http
https
hu
hua
huafa
hue
huhu
hui
huihui
huitu
hule
huli
hulohula
hulu
hulufe
humu
hunga
huni
huo
huufi
hymenocallis
hypnaceae
i
ia
iai
iate
id
ie
if
ifekika
ifi
ifisi
ifo
igi
iha
ihi
ihingano
ihu
ii
iii
iiki
ika
ikahui
ikai
ikanokupolu
iki
iku
ikuli
ikuma
ikuna
ikunonou
iky
ila
ilaheva
ilaisa
ilaisahelu
ilakelo
ilakepa
ilamutu
ilangileka
ilavalu
ile
ilikutapu
illegitimate
ilo
iloa
iloaki
ilonga
image
images
imala
imata
imatala
img
imo
imoa
important
in
ina
inasi
incana
incanum
incanus
including
increasing
increment
indeed
independence
index
india
indian
indica
individual
indonesia
ine
influence
information
inga
ingalotu
ingilani
ingo
inherited
ini
inise
initia
inito
iniu
inland
installed
instead
insularum
interesting
international
interpres
into
introduced
inu
inutilis
invasives
io
ioake
ioke
ion
ipelehake
ipomoea
ipu
ipulotu
ipusi
iris
is
isaake
isbn
isi
isileli
island
islands
isoso
issg
it
ita
itaha
itaki
itelinga
itemid
itohi
itoka
itongo
its
itself
iua
iukosila
iulope
iuniti
iv
iva
ivahe
ivakano
ivi
ixora
j
jambos
january
japonica
jasminum
jatropha
java
javanica
jean
jesus
jiaji
jiaoji
john
joseph
journal
jpeg
jpg
july
just
k
ka
kae
kaekehe
kaeppler
kafa
kafika
kafiu
kafoa
kaha
kahiva
kaho
kahoa
kahokaho
kahoua
kai
kaia
kaiha
kaikai
kainga
kainikavea
kaivai
kaivao
kaka
kakai
kakala
kakamika
kakatisi
kakato
kakau
kala
kalae
kalaisi
kalakala
kalame
kalanchoe
kalaniuvalu
kalapu
kalasi
kalau
kalauni
kalavite
kaleto
kaleva
kalia
kalipea
kalipiane
kalisitiane
kalo
kaloni
kalonikakala
kalonikali
kalosipani
kalukalu
kamani
kamata
kame
kamikuati
kana
kanata
kane
kanga
kanipela
kanivatu
kano
kanokupolu
kao
kaopui
kapa
kapakapa
kapakau
kapau
kape
kapineti
kapiteni
kaponga
kapukapu
kapusi
kara
katafa
katakata
katea
kato
katoa
katolika
kau
kauhala
kauhalalalo
kaukau
kaukauloa
kauli
kaume
kaumeile
kaunga
kaungao
kautaha
kaute
kauvai
kauvaka
kava
kavahaha
kavahuhu
kavakava
kave
kaveinga
ke
kea
kefukefu
kehe
kehekehe
kei
keina
kele
kelekele
kelemutu
keli
kelitali
kelo
kemi
kemikale
kenutu
kept
keta
kete
ketika
ki
kia
kiato
kiawe
kie
kiekie
kihe
kihi
kihikihi
kihikihilanumata
kihikihimaka
kihikihingingie
kihikihipa
kihikihitahi
kiki
kili
kilisimasi
kilisitahi
kill
killed
kilometres
kilomita
kilu
kimu
kinaua
kinautolu
king
kingdom
kingdoms
kingi
kings
kini
kinoha
kisikisi
kita
kite
kitea
kitwithers
kiu
kiukamipa
kiupa
kivi
km
knew
knives
known
ko
koa
koali
koane
koe
kofe
kofi
kofu
koka
koko
kola
kole
koli
kolinito
kolisi
kolivao
kolo
koloa
kolofo
kolokakala
kolomaile
kolomipia
kolomotu
kolomu
kolonga
kolonitini
kolose
kolosi
kolotau
koloua
kolovai
kolukalu
kona
konga
kongaloto
konifelenisi
konisela
konisitu
konitineniti
konstantin
kopa
kosi
kosterm
kota
kotia
kotoa
kotu
kou
koukau
koula
koulo
kov
kovi
koviti
ku
kuamu
kuava
kuawa
kufua
kui
kuiana
kuini
kuise
kuki
kuku
kukuvalu
kula
kulamaama
kulamu
kuli
kulikuli
kulo
kulokula
kulufau
kulukulu
kulupu
kulutuma
kuma
kumala
kumete
kumi
kumukumutahi
kunth
kuo
kuonga
kupesi
kupu
kura
kuru
kuta
kuusi
kyllinga
l
la
lady
lafa
lafalafa
laferr
lafi
lafo
lafu
lagenaria
lagi
lagoon
lahelahe
lahi
lai
laifone
laimi
laine
laka
lakalaka
lakanga
lake
lakeba
lakepa
laku
lala
lalahi
lalanga
lalatahi
lalo
lama
lanceolata
land
lang
langa
langakali
langi
language
langue
lani
lanu
lanufekika
lanufisi
lanumata
lanumoli
lanupulu
lao
lapaha
lape
lapponica
large
larger
largest
lasi
lasike
last
lata
latai
late
later
lathyroides
latin
latter
lau
lauaki
laufale
laufilitonga
laukaupo
laulahi
laulau
lauma
laumea
lauraceae
laurifolia
lausi
lautenga
lautohi
lautolu
lava
lave
lavea
lavelua
lavengatonga
lavilavi
lavinia
lavuso
law
lawful
lds
le
lea
leafakalatina
least
leave
leaves
leaving
lebbeck
left
legislation
legislative
lehia
lehua
lei
leihuni
leima
leisi
lejeuneaceae
leka
lekeleka
lekileki
lekooti
lele
lelei
lemani
leo
leonurus
leopard
lepa
lepi
lepo
lepturus
lepuha
lepupelika
lesi
lesieli
less
let
leti
leucaena
leucobryaceae
leucogaster
leva
levu
li
lia
liahona
licoo
lie
life
lifuka
light
liiki
like
likely
liki
liku
lile
lili
liliko
liliu
lily
lima
limited
limosa
limu
limufonua
limutahi
limuvai
line
linegrey
lingatoni
lini
lio
lisi
listen
lists
literal
literature
little
littoralis
liufau
liukava
live
lived
living
ll
lo
loa
lobata
local
located
lofa
lofanga
lohi
loi
loki
lokoloka
lole
loli
lolie
lolo
loloa
loloto
lolotonga
loma
lomaiviti
lomi
london
long
longer
longiflora
longo
longolongo
longomapu
longopoa
longoteme
loni
lonitoni
loo
look
looking
lopa
lophotrochozoa
lord
lords
lose
lost
lotauai
lote
loti
loto
lotofoa
lotofonua
lotoha
lotokehekehe
lotoloto
lotoma
lototo
lotoue
lotu
lotuma
lou
louniu
loupata
loupua
loutoko
love
low
lu
lua
luani
luckily
luffa
lulu
lulunga
lunata
luo
lupe
lupemeitakui
lupepau
lusa
luseane
lutu
luva
lycopersicon
lycopodiophyta
lyricstranslate
m
ma
maa
maama
maau
macadamia
macronectes
macroptilium
made
mae
maea
maealiuaki
mafai
mafana
mafataki
mafatakikoula
mafi
mafile
mafoa
mafola
mafolalahia
mafu
mafuike
magelhanic
mageso
magiho
magnoliophyta
magnoliopsida
mahaki
mahalo
mahei
maheikau
mahelehele
mahi
mahino
maholi
mahu
mai
maile
mailefihi
maileminiti
maili
main
mainly
maire
majesty
major
maka
makaha
makahokovalu
makamaka
makapuna
makatu
makaunga
make
makehe
makes
maketi
maki
makia
mala
malakai
malala
malapo
malaspina
malau
malava
maldives
male
maleisia
malekini
maletile
mali
malia
malila
malinoa
malohi
malu
malupo
mama
mamae
mamaea
mamafa
mamaha
mamahi
mamamama
mamange
mamani
mamata
mamate
mami
man
mana
manafau
manako
manakoa
manatoo
manatu
manava
manavahe
manga
mangaia
manghas
mango
mani
manima
mano
manogi
manongi
manono
manu
manufo
manuka
manuma
manumataongo
manupuna
manuve
many
mapa
mape
mapilitoa
mapitoa
mapu
mara
marchantiophyta
marina
mariner
maritima
marriage
married
marry
martin
masalu
masi
masikoka
masila
masilamea
masipa
massive
mata
mataele
mataeleha
mataeletu
matafanga
matafonua
matahau
matahiva
mataika
matakali
matala
matalateau
mataliti
matamaka
matangi
matangiake
matangitonga
matapa
matapaa
matapekepeka
matataha
matatahi
matavivi
mate
mateialona
mateloi
mati
matie
matolu
matoto
matter
matters
matu
matui
matuku
mau
maui
mauku
maumau
maurelle
mautofu
mavaetangi
mavahe
mavava
maveuveu
mavu
maxima
may
maybe
me
mea
meal
meama
meaning
means
meanwhile
meet
mei
meia
meimei
mekesiko
mekisiko
mekisikou
melanisia
mele
meleni
melia
melie
melinis
melino
melipoane
melo
melomelo
member
members
memipa
men
merely
merremia
mess
meters
methodist
metis
metisi
metotisi
mfuoloa
mi
mia
mic
micromelum
middle
mightiest
mikaele
mikolonisia
milan
milemila
mili
milimita
miliona
military
mill
miller
million
milo
mimi
mimosa
mind
minisita
minister
ministers
minks
minor
minutum
minutus
mipa
miro
misa
misi
misilaite
misimisi
misinale
missed
mission
mita
miti
mm
mo
moa
moala
moan
moana
mobile
mode
moe
moeakiola
moemoepo
moenga
mohe
mohemohe
moheofo
moho
mohokoi
mohuku
moimoi
moko
mokopuna
molasipei
mole
molemole
molesipi
moli
molle
molomona
molu
momili
momo
momoho
momoko
momona
monacantha
mone
money
monga
monomono
mont
months
montserrat
monu
monumanu
mooa
more
morning
morus
mosekou
mosese
mosie
most
motelolo
mother
moto
motou
motu
motuku
motuliki
motutapu
mou
mount
mountain
mouth
move
moved
ms
mu
much
mucronata
mui
muifonua
muileleu
muimui
muitoa
muitolotolo
muli
multi
multipurpose
mumui
muni
murder
murdered
murraya
musa
museum
musie
mussaenda
must
mutia
mutica
my
myanmar
myristica
myrtaceae
myth
mythology
myths
n
na
nafualu
nai
nainusi
nakau
naki
nakita
nakolo
name
named
names
namu
namuku
namulelei
napa
napua
nasi
nasturtium
nata
nati
nation
national
nations
native
natula
natural
nau
naua
naufahu
nauhu
nauna
nauru
nava
navigation
navutoka
ne
near
need
needed
neiafu
neighbouring
neiufi
neongo
nephrolepis
nerium
net
never
nevertheless
new
news
next
nga
ngaahi
ngaaki
ngahau
ngahu
ngali
ngalingali
ngalo
ngalu
ngaluope
ngana
nganatatafu
ngangana
ngangie
ngaohi
ngaolo
ngata
ngatae
ngatata
ngatu
ngau
ngaue
nge
ngia
ngila
ngingie
ngingila
ngofe
ngofua
ngongo
ngoto
ngoue
ngu
ngutu
ngutukaka
ngutulei
ni
nia
nice
nidus
nienie
nifo
night
nightshade
nigra
nik
nima
nimi
niniva
nioke
nise
niti
niu
niua
niuafo
niuatoputapu
niue
niuka
niukapu
niuniu
niuto
no
noa
noaue
noble
nobles
nodiflora
nofo
nominated
nomuka
non
none
nono
nonofo
nonou
nonu
norfolk
normal
normalis
normally
north
northern
norway
not
note
noumea
nounou
nova
novaehollandiae
now
nowadays
nu
nua
nuali
nuapapu
nuku
nukufaiau
nukulei
nukuleka
nukunamo
nukunuku
nukunukumotu
nukupule
nukutula
num
nume
nusi
nut
nymphaea
nz
o
oa
oange
oatu
occasions
occidentalis
ocean
ocimum
odontonema
odorata
odoratissimus
oe
oetau
of
ofa
ofanga
ofe
ofefafa
ofefine
off
office
official
officially
offspring
ofi
ofisa
ofisiale
ofo
ofolanga
often
ofu
ogoogo
ohe
ohema
ohi
ohoana
ohofi
ohomohe
ohonua
oi
oil
oka
okalani
okatopa
oke
okete
oketelele
oketi
okoa
oku
ola
olahi
olalo
olamaka
olavai
old
older
oldest
ole
oleander
oleracea
olimuloa
olive
ollectivite
olo
olunga
oma
omai
omata
omaua
omautolu
omi
omo
omou
omoua
omoutolu
omu
on
ona
onaona
onau
onaua
onautolu
once
one
oneata
onelua
onetaka
onevai
onevao
onga
ongo
ongoongo
ongoongoa
oni
onia
onioni
only
ono
onopooni
onychoprion
open
ophioglossophyta
opiesi
opo
opponents
opposite
option
opuntia
or
oralhistories
orbiculatum
order
ordered
org
organisms
ori
orientalis
origin
original
originally
origins
orion
oseania
osi
osikena
osipo
osteichthyes
ota
otago
otaua
otautolu
otea
other
others
oti
oto
otolu
otonga
otu
otua
otumotu
ou
oua
ouau
ounga
our
ourselves
ousenia
out
outrigger
outside
ovaka
ovala
ovalau
ovava
over
own
p
pa
paame
paati
pacific
pacifica
paenga
paepae
page
pages
pai
paie
paingani
paini
paipa
paka
pakaka
pako
pakopako
paku
pala
palaceoffice
palangi
palanite
palataisi
palatavake
palau
pale
palefau
paleinangalu
palemia
palesi
palesipita
palesiteni
palm
palmae
paloni
palu
palustris
pandanus
pangai
pangaimotu
pangike
pango
paniculata
panicum
panoramio
pao
paongo
papa
papai
papeete
papi
papitaiso
papua
papyrifera
paradise
paradisiaca
paradox
parazoa
parents
park
parliament
part
particular
parts
pasifiki
pasivaka
paso
passed
passes
passing
pata
pate
pateta
pati
patiale
patita
pato
pau
pauahi
paula
paz
pdf
pe
pea
peas
peau
pedilanthus
pedunculatum
peesi
pehe
pehee
peito
peka
pekepeka
pekepekatea
pekia
peko
pele
pelehake
peli
pelu
peni
pentas
people
pepa
pepe
pepea
perhaps
persian
person
personal
personid
peruviana
peseti
petani
petelo
petepete
peter
peters
pg
phaethon
phaseolus
philippensis
photo
php
phyla
phyllanthus
phylum
physalis
pi
pia
picture
piece
pieces
pier
pierre
pig
pigeon
pihia
piini
piinipapa
piinivao
piisi
piki
piko
pikopiko
pili
pilinisesi
pilisipeini
pilisipeni
pilita
pilolevu
pilosa
pimenta
pimpinellifolium
pine
pinga
pinnata
pinnatum
pinophyta
piper
pipi
pipifailolo
pipiki
pipivao
piripiri
pisi
pita
pitema
piteni
piti
pittosporum
pitu
piu
place
placed
plait
planchonella
planet
plant
plantae
plantain
plants
platform
playing
pleiogynium
plotdata
plumeria
plumosus
pluvialis
pm
pmo
png
po
poa
poaceae
pod
poems
point
pol
polani
polata
police
polinisia
polisi
political
polo
polokalama
polokanite
polutele
polynesia
polynesian
polynesien
polypodiaceae
polypodium
polyporaceae
polyscias
pomea
pompallier
pond
ponga
pongipongi
pooti
popa
popua
popula
popular
population
populous
poro
porphyrio
port
position
possible
possibly
postdays
postorder
potential
poto
potu
potufonua
potunga
potupotuma
potupotutatau
potutahi
pou
poumuli
poupou
pousini
power
pp
precipice
predecessor
pregnant
premna
president
press
previous
prime
primordial
prince
princess
principal
probably
procelsterna
profile
properties
protectorate
protista
protists
protostomata
proverbs
pruriens
pseuderanthemum
psilotophyta
psilotum
psychotria
pteridophyta
pterodroma
ptilinopus
pu
pua
puaka
puakatau
pualele
pualiki
puapua
puatalefusi
puataukanave
pubescens
publish
pueli
pueraria
puerto
puffinus
puha
puhi
pui
puipuifatu
puka
pukapuka
puke
puko
pukotala
puku
pula
pulcherrima
pule
puleako
pulelulu
puli
pulia
pulotu
pulu
pulupulu
pulusinga
puna
punake
pungakaitofola
puni
pununga
pupu
pupunga
puputu
purposes
puru
pusi
put
putalinga
putu
px
q
qatar
quadrupeds
queen
queensland
quickly
quite
r
ra
racemosa
radial
radiata
radionz
rain
raintree
ramiflorum
ramiflorus
ran
rango
rank
ranked
ranking
rapa
rarotonga
rastislav
rather
ratu
rau
ravenna
re
reached
real
reality
really
reason
received
recid
record
red
reed
reef
reefs
refer
reflective
refractus
reinwardtiana
related
relations
relatives
releases
remained
remaining
remains
remembered
remu
renga
rengarenga
repens
report
research
residence
resort
respect
rest
result
reticulata
return
returned
retz
rev
revenge
rgb
rhizophora
rhoeo
rhombifolia
rhomboidea
richii
right
rio
riri
rising
river
ro
roa
road
rock
roem
rooster
rootsweb
rorippa
roro
rose
rosea
rostrata
rough
royal
royalty
rubiaceae
rubra
rubricauda
rugby
rugosula
rukam
s
sa
saafa
sacrament
sacred
sage
sai
said
saienisi
sailoame
saint
saipan
saisai
salapona
salato
salesi
salisb
salusalu
salvation
salvia
samaika
saman
sambucina
same
samiuela
samoa
samoense
samoensis
sand
sandwicensis
sanele
sangato
sani
santiago
sanualio
sapa
sapientum
sapindaceae
sarcopterygii
sarmentosa
sat
satelaite
sauele
saute
saw
say
scabra
scaevola
scented
schizopetalus
school
schools
science
scolopacidae
scolopendria
scripts
scutellarioides
se
sea
search
seashore
seastars
seaweeds
second
secondary
see
seeds
seem
seems
seen
sefa
sefo
seketo
sekoni
select
semisi
sene
senita
seniti
senitimita
senituli
senna
sense
sent
sepania
separate
sepeni
sessilis
setaceus
setaleki
sevelo
seventh
several
shall
shape
shares
shark
she
shell
shelled
shift
ship
shirley
shit
shore
short
shortly
shot
should
showing
shtml
si
sia
siaina
siaine
siale
sialehaehae
siamane
siana
siaosi
siapani
siasi
sic
siceraria
sid
sida
side
siemu
siesia
sika
sikau
sikei
sikenitinevia
sikiviu
sikota
sikovata
sikuea
sila
silapa
sili
silia
siliana
silini
siliva
simi
simuoko
sina
sinaitakala
sinamoni
since
sinensis
singapore
single
singulalitualipalulali
sini
sinifu
sinilau
sinisa
sino
sinou
sio
sioeli
sioka
siola
sione
siosaia
siosefa
sipeini
sipela
sipelahala
sipilini
sipooti
sipoti
sir
sisi
sisia
sisimata
sisita
sister
sisters
sita
siteiti
sitokiholimi
situlo
siu
siulai
siulolovao
sivi
sivilaise
sivoli
skin
skinned
skirt
sky
slowly
sm
small
smallest
smell
smile
so
soakai
soane
society
sofele
soft
soka
sola
solanum
solenostemon
solida
solomone
some
sometimes
son
sonchus
song
songs
sons
soon
sopu
sorghum
sosaieti
sources
south
southern
sp
space
spathacea
speak
speaking
spears
species
speciosum
spectabilis
speedy
spermatophytes
spiky
spinal
spirit
spodiopygius
spoke
spouse
spp
spring
spunges
sq
square
ss
st
stachytarpheta
standing
stans
star
starpath
starr
stars
start
started
starts
state
states
status
stayed
stenochlaena
stercorarius
sterna
sternidae
sterninae
still
stolidus
stone
stones
stopped
store
story
street
striatus
strings
strobilifera
strong
strung
stt
stupid
sturnus
su
sub
succeed
succeeded
succession
successor
such
sue
suffruticosa
suggested
suipi
sukau
sukini
sula
sumatrana
sun
sune
suni
sunset
superciliosa
superphylum
supiesi
support
supposed
sur
sure
sutt
suva
svg
sw
swam
sweet
symmetrical
synedrella
syriacus
system
syzygium
t
ta
taa
tabuensis
tae
tafa
tafahi
tafe
tafitafi
taha
tahi
tahisi
tahiti
tai
taiamita
taiamoni
taimi
taimionline
taiosisi
taiseni
taitensis
taka
takafalu
takai
takalaua
takataka
takatakai
take
taken
taki
takilotu
takimamata
takipo
takitaha
takitakima
takua
takuilau
takulevu
tala
talafaiva
talafale
talafo
talakite
talanoa
talasiu
talata
talatahi
talatala
talateu
talatukufakaholo
talatupu
talau
talavou
talekita
tales
tali
talingelinga
taliui
talo
talu
talupite
tama
tamaha
tamai
tamaiki
tamale
tamaline
tamanu
tamasi
tamasia
tamatama
tamate
tamole
tamuni
tanetane
tanga
tangai
tangaloa
tangata
tangi
tangitangi
tanoa
tanu
tanupou
tao
taoa
tapa
tapaka
tapana
tapatapa
tapatolu
tapu
tapueluelu
tapui
tapukitea
taratara
tarawa
tarenna
task
tasman
tasmania
tata
tatafa
tatafu
tatakamotonga
tataku
tatala
tatali
tatau
tau
tauataina
taufa
taufatofua
tauhi
taukei
taulanga
tauloto
taumafa
taumaia
taumoefolau
taumoepeau
taumu
taunga
taupotu
tautau
tautautefito
tautea
tava
tavake
taxonomie
te
tea
teatea
teau
teaupa
teauta
technology
tefa
tefisi
tefito
tehina
teiko
teine
teitei
teka
teke
teki
tele
telefoni
telefua
teleki
telekitonga
telekivava
telie
telio
tell
temata
teneia
tenetene
tenga
tengaefuefu
teni
tenuiflora
tenuirostris
term
terminalia
terminalis
tern
territory
tesalonaika
teuila
teukava
teukihe
teunga
teuteu
teve
tevita
text
th
thaman
than
thani
that
the
their
them
themselves
then
there
therefore
these
thevetia
they
thing
think
third
this
thomas
those
though
thought
three
threw
throne
through
thrown
thumb
thumbnail
thunbergia
thus
ti
tia
tiaka
tiare
tidal
tide
tika
till
time
times
timi
timorense
timote
tinctoria
tini
tipolo
tisema
tisi
tithonia
tithymaloides
titilupe
title
titles
tiu
tiulipe
to
toa
toafa
toake
toanga
today
toe
toenga
toetu
tofanga
tofi
tofoa
tofua
toga
together
togo
tohi
tohitapu
toho
toi
toka
tokanga
toke
tokelau
tokelauhahake
toki
tokio
tokiukamea
toko
tokolahi
tokomololo
tokonaki
tokoni
tokotaha
tokotolu
tokoua
toku
tokua
told
toli
tolo
toloa
tolopona
tolotalo
tolu
tomato
tomentosa
tominika
tomorrow
tone
tonga
tongahahake
tongahihifo
tongamama
tongan
tonganews
tongans
tonganus
tongatapu
tongatimes
tongense
tongi
tongo
tongolei
tongoleleka
tongotea
tongotongo
tonight
tono
tonu
too
took
toona
toonga
top
topic
topics
toputapu
toto
totoa
totoe
totoka
totokafonua
totokamaka
totolo
totonu
totototo
tou
touhuni
toula
tour
tourism
toutai
toutaitokotaha
toutou
tow
towards
town
township
traders
tradescantia
traditional
traditionally
translated
translation
traub
tree
trees
trema
tried
triflorum
triggerfish
trilobata
tringa
trip
triumfetta
true
try
tsunami
tti
tu
tua
tuai
tue
tufa
tufunga
tufuvai
tugi
tuha
tui
tuifio
tuise
tuita
tuitui
tuku
tukufakaholo
tukukehe
tukumisi
tukutala
tuli
tulituli
tulu
tumu
tuna
tungi
tungua
tununga
tunungatofua
tuofefine
tuonga
tupa
tupe
tupenu
tupou
tupoulahi
tupoulahimu
tupouma
tupoumoheofo
tupouniua
tupouto
tupu
tupunga
turned
tutoe
tutu
tutue
tutuhina
tutuku
tutuna
twin
two
type
tyto
u
ua
uafu
uaki
uakitau
uanga
uatekini
uatoloa
ue
uelingatoni
uesiliana
ufa
ufanga
ufatofua
ufi
ufilei
ufonua
uga
uha
uhamaka
uhetoka
uhi
uhila
uhinga
uhiuhi
uho
uhu
ui
uiha
uike
uiliami
uimu
uini
uk
ukamea
ukave
ukimu
uku
ula
ulahi
ulalo
ulapepe
uli
ulie
ulo
ulu
ulua
uluaki
uluakimata
ulufeholoi
ulufonua
uluka
ulukalala
ulunga
ulutolu
uma
umoto
umu
umukisia
umuna
unau
under
unga
ungaafi
ungafonua
ungalangi
ungamotu
uni
unification
uniflora
unima
union
unit
united
unive
university
unoho
until
unu
unuaki
unufe
unuoi
uo
uoasoa
uofulu
uoiiki
uoleva
uonukuhahake
uonukuhihifo
uoua
up
upe
upo
upolu
upon
upper
upright
uq
ura
uraria
urchins
urochloa
uru
us
use
used
usi
usia
usila
usneaceae
usp
usually
uta
utaki
uteau
uto
utu
utulau
utulei
utuma
utungake
utuvai
uvea
v
va
vaa
vae
vaea
vaeua
vaginalis
vaha
vahamama
vahe
vahefonua
vahenga
vaheope
vahevahe
vai
vaihi
vaikopuna
vailahi
vailasi
vailea
vailima
vaima
vaimalo
vaine
vaingaue
vaini
vaioleti
vaipoa
vaipu
vaitafe
vaitohi
vaivai
vaka
vakafuhu
vakai
vakapuna
vakataumai
vala
vale
valeni
valevale
vali
valu
value
vana
vanila
vanilla
vanuatu
vao
vaoa
vaolo
vaota
vaotu
var
variegata
vatu
vatuke
vava
vavae
vavaekona
vavai
vavalagi
vavalangi
vave
vayavaya
ve
veape
vegetation
veikune
veiongo
veitongo
veka
vela
velata
veli
velitoa
vema
venevene
venus
version
very
vesivesi
vete
veve
veveli
vi
via
victoria
view
viewtopic
vigna
vila
vili
viliami
village
vilo
vine
vini
violacea
virgin
viruses
visible
visit
vita
viti
vitiense
vitiensis
vitio
vito
viviku
vnum
voka
volcanic
volcano
voli
volo
volovalo
vue
vulgaris
vuna
vunga
vunivalu
w
wa
wait
wake
waldemar
wales
wallis
want
wanted
war
warriors
was
washing
water
waters
watling
way
we
wear
web
wedding
wedelia
wedlock
weeds
well
wellington
went
were
wesleyan
west
western
weta
whai
whales
what
whatever
when
where
whether
which
while
whistler
white
who
whole
whose
width
wife
wikipedia
wild
wilkesiana
wilkinson
will
willd
william
wings
wish
with
without
wives
woman
women
won
wood
word
work
world
worldstatesmen
worn
would
wto
www
x
xii
xylosma
y
year
years
yet
you
young
younger
youngia
your
yuncker
yunker
z
zealand
zizanioides
zzhsoszy
{
|
}
~
£
«
®
°
²
´
º
»
×
ŋ
ʻ
̀
́
̂
̃
̄
̆
̈
̊
̌
̣
̧
в
с
،
ٔ
।
গ
ঙ
ট
ড
ণ
ত
ন
প
ভ
য
র
শ
ষ
স
়
া
ি
ে
্
‎
–
—
‘
’
“
”
†
…
₂
→
↔
↷
③
④
⑦
☉
☾
☿
♀
♂
♃
♄
♆
⛢
⯓
⺀
⺄
⺆
⺈
⺊
⺌
⺕
⺝
⺸
⺼
⿰
⿱
⿲
⿳
⿴
⿵
⿶
⿷
⿸
⿹
⿺
⿻
、
。
〢
こ
す
て
の
は
れ
゙
゚
ア
ィ
イ
ウ
オ
カ
キ
コ
シ
テ
ト
ネ
ヘ
ホ
ユ
リ
ロ
ン
㇁
㇂
㇄
㇇
㇈
㇉
㇓
㐁
㐄
㐅
㐌
㐫
㐬
㐭
㐮
㐱
㑒
㒵
㒸
㒼
㓁
㓞
㔾
㕛
㕣
㖾
㘝
㚅
㚇
㚔
㚘
㝉
㝡
㝴
㝵
㞋
㞢
㞷
㠩
㠭
㠯
㡀
㡭
㡿
㢲
㢴
㣇
㣺
㥯
㪅
㫄
㫐
㫒
㫺
㬅
㬎
㬥
㬰
㲋
㳄
㷠
㸒
㸚
㸦
㼌
㼲
㽞
㿟
䀠
䂞
䍃
䏍
䒑
䖍
䖒
䖝
䖵
䙴
䚻
䜌
䝿
䡛
䧹
䪞
一
丁
丂
七
丄
丅
丆
万
丈
三
上
下
丌
不
与
丏
丐
丑
专
且
丕
世
丘
丙
业
东
丞
丢
丣
两
严
並
丨
丩
个
丫
丬
中
丮
丰
丱
串
丵
丶
丷
丸
丹
为
主
丽
丿
乀
乂
乃
久
乆
乇
么
义
之
乌
乍
乎
乏
乐
乑
乔
乖
乗
乘
乙
乚
乛
乜
九
乞
也
习
乡
乳
乾
亀
亅
了
亇
予
争
事
二
亍
于
亏
亐
云
互
亓
五
井
亘
亚
亜
亞
亟
亠
亡
亢
交
亥
亦
产
亨
亩
享
京
亭
亮
亯
亰
亲
亳
亶
亷
人
亻
亼
亾
仁
今
介
仌
从
仐
仑
仒
仓
仕
他
付
仝
代
令
以
任
企
伊
伏
伐
休
会
伯
但
位
何
佘
余
作
佥
使
來
侈
侌
侖
侯
侵
便
保
俞
信
修
倉
倍
候
倠
備
僉
僕
儿
兀
允
兂
元
兄
充
兆
兇
先
光
兊
克
兌
免
兑
兒
兓
兔
党
兜
兟
入
全
兩
兪
八
公
六
兮
兰
共
关
兵
其
具
典
兹
兼
冀
冂
冃
冄
内
冈
冉
冊
冋
册
再
冎
冏
冐
冒
冓
冖
冗
冘
军
农
冝
冡
冥
冫
冬
冷
几
凡
凢
凵
凶
凷
凸
凹
出
函
凾
刀
刁
刂
刃
刄
刅
分
切
刍
刑
刕
刖
列
刘
则
初
別
利
别
到
制
刺
則
削
剌
前
剡
剽
劉
力
功
加
劦
助
劫
劳
劵
勃
勇
勉
勒
動
務
勞
勤
勹
勺
勻
勾
勿
匀
匂
包
匆
匈
匊
匋
匍
匕
化
北
匚
匝
匡
匪
匱
匸
匹
区
医
匽
匿
區
十
卂
千
卄
卅
卆
升
午
卉
半
卌
华
卑
卒
卓
单
卖
南
卜
卝
卞
占
卡
卢
卣
卤
卦
卩
卪
卬
卯
印
危
即
却
卵
卷
卸
卻
厂
厃
厄
历
厈
厉
厌
厓
厘
厚
原
厤
厥
厨
厭
厲
厶
厷
厸
去
厼
厽
叀
参
參
叅
又
叉
及
友
双
反
叐
发
叒
叔
叕
取
受
叚
叜
叟
口
古
句
另
叩
只
召
可
台
叱
史
右
叵
号
司
叹
吂
各
吅
合
吉
吊
吋
同
名
后
吏
向
吕
君
吝
吞
否
含
启
吳
吴
吹
吾
呂
呆
呈
告
员
呙
周
命
咅
和
咎
咠
咢
咨
咸
咼
哀
品
哉
員
哥
哲
唐
商
啇
問
啚
啬
啻
善
喜
喬
單
喿
嗇
噩
嚴
囊
囗
囘
囙
囚
四
回
囟
因
囧
囬
困
囱
囷
固
国
圂
圅
國
圍
圓
土
圡
圣
圥
在
圭
地
圶
圼
坐
坒
坚
坴
垂
垔
垚
埀
埋
埶
執
基
堂
堅
堆
堇
堯
塞
墨
壘
士
壬
壯
声
壳
壴
壹
壺
壽
夂
处
夅
夆
备
夊
夋
夌
复
夏
夒
夕
外
夗
夘
多
夜
夢
大
夨
天
太
夫
夬
夭
央
失
夲
头
夷
夸
夹
夻
夾
奂
奄
奇
奈
奉
奎
奏
奐
契
奓
奔
奚
奞
奠
奢
奥
奭
女
奴
奻
好
如
妄
妙
妟
妥
妻
妾
姑
委
姜
威
娄
婁
婴
嬰
嬴
子
孑
孔
孕
孖
字
存
孚
孛
孝
孟
季
孤
学
孫
孱
學
宀
宁
宂
它
宅
宇
守
安
宋
完
宏
宓
宗
官
定
宛
宜
宝
客
宣
室
宮
宰
害
家
容
宾
宿
寄
寅
密
富
寒
察
寧
審
寫
寬
寮
寸
对
寺
寻
寽
対
寿
封
尃
射
将
將
專
尉
尊
尋
尌
對
小
少
尒
尓
尔
尖
尗
尚
尞
尢
尣
尤
尧
尨
尭
就
尸
尹
尺
尻
尼
尽
尾
尿
局
居
屈
屋
屎
屏
屑
展
屖
屚
属
屠
屡
屬
屮
屯
屰
山
屵
屾
岁
岂
岑
岡
岩
岳
岸
峯
島
崇
崑
崔
崖
崙
崩
嵬
嶲
巂
巛
川
州
巟
巠
巢
巤
工
左
巧
巨
巩
巫
差
己
已
巳
巴
巷
巸
巽
巾
巿
帀
市
布
希
帚
帛
帝
带
師
席
帶
常
干
平
年
幵
并
幷
幸
幺
幻
幼
幽
幾
广
広
庄
床
底
店
庚
府
度
庫
庭
庶
康
庸
廉
廌
廛
廣
廩
廴
延
廷
建
廾
廿
开
弁
弃
弄
弇
弋
式
弓
弔
引
弗
弘
弜
弟
弥
弦
弱
張
強
强
彊
彌
彎
彐
彑
当
彔
录
彖
彗
彡
形
彥
彦
彧
彭
彳
役
彼
往
待
律
徒
得
徙
從
復
微
徵
心
忄
必
忌
忍
志
忝
忠
忩
快
念
忽
忿
思
怠
急
怱
恆
恒
恩
恭
息
悉
患
悤
悲
悶
惠
惡
惢
愁
愈
意
愛
感
慈
慧
慮
憂
憲
應
戀
戈
戉
戊
戋
戌
戍
戎
成
我
戒
戔
或
戚
戠
戢
截
戲
戶
户
戹
戼
戾
房
所
扁
扇
手
扌
才
打
托
执
承
折
拉
拜
拿
掌
推
提
摩
支
攴
攵
收
攸
改
放
政
敄
敏
敕
敖
敗
敝
敞
敢
散
敦
敫
敬
数
敷
數
斂
文
斉
斊
斗
斤
斥
斩
斬
斯
新
方
於
施
斿
旁
旋
族
无
旡
既
旣
日
旦
旧
旨
早
旬
旱
旲
时
旾
昆
昇
昌
昍
明
昏
易
昔
昗
昜
星
春
昬
是
昱
昴
昷
時
晃
晋
晏
普
景
晶
智
暑
暴
曇
曩
曰
曲
曳
更
曷
書
曹
曼
曾
替
最
朁
會
月
有
朋
服
朔
朕
朗
望
朝
木
朩
未
末
本
札
朮
术
朱
朵
朶
朿
杀
杏
杜
束
条
来
東
杲
杳
松
析
林
枚
果
枝
枲
枼
某
柔
查
柬
柰
柴
栗
桀
桑
桼
梁
條
梟
梨
棘
棠
棥
森
楚
業
楽
榮
樂
樊
欠
次
欣
欮
欲
欶
欽
款
歆
歇
歛
止
正
此
步
武
歨
歪
歮
歯
歰
歲
歴
歷
歸
歹
歺
死
殳
段
殷
殸
殹
殺
殻
殿
毋
毌
母
每
毒
比
毕
毚
毛
毳
氏
氐
民
气
氣
水
氵
氶
氷
永
氺
氾
求
汝
汞
江
汤
沃
沓
沙
沝
泉
法
波
泣
泥
泰
洋
洛
洪
活
派
流
浦
浪
浮
淡
淮
清
渚
渠
湯
滿
漸
火
灬
灭
灰
灵
灷
炅
炎
炏
炗
炙
炭
為
烈
烏
烝
焉
無
焦
焱
然
煞
熊
熏
燕
營
燮
爪
爫
爭
爯
爰
爱
爲
爵
父
爻
爽
爾
爿
片
牙
牚
牛
牜
牟
牢
牧
牪
牽
犀
犬
犭
犮
狂
狄
狊
独
狺
猋
猒
猪
献
獻
玄
率
玉
王
玟
玨
珎
班
琴
瑟
瑩
瓜
瓦
甘
甚
生
産
用
甫
甬
田
由
甲
申
电
甶
男
甸
甹
画
甾
畀
界
畏
畐
留
畜
畟
畢
畧
畨
番
畫
異
畱
當
畺
畾
疊
疋
疌
疑
疒
疾
癶
癸
癹
登
發
白
百
皀
皃
的
皆
皇
皋
皐
皕
皮
皷
皿
盃
盆
盇
盈
益
盍
盎
监
盒
盖
盛
盡
監
盤
盧
目
直
相
盾
省
眇
眉
看
眔
眞
真
眷
眼
眾
着
睘
睪
睿
瞏
瞢
瞿
矍
矛
矞
矢
矣
知
矦
短
石
破
碎
磊
磨
示
礻
礼
祟
票
祭
禀
禁
禸
禹
禺
离
禽
禾
禿
秀
秃
秉
秋
科
秝
秦
移
稟
穀
穌
穴
究
穹
空
穿
突
窄
窒
立
竒
竜
竝
竟
章
童
竹
笑
笠
筆
等
答
箕
算
箴
節
篤
篭
米
粉
粛
粟
粤
粦
粲
糞
糸
糹
系
約
納
素
索
紫
累
細
絜
絫
絲
維
綿
縣
繇
纍
纟
维
缶
网
罒
罔
罕
罗
罙
罡
罢
罪
署
罷
羅
羊
羌
羍
美
羔
羕
羗
羞
羡
羣
群
義
羲
羸
羽
翁
翏
習
翕
翟
翠
翼
老
耂
考
者
耆
而
耎
耑
耒
耳
耴
耶
耷
聂
聊
聖
聚
聶
聿
肀
肃
肅
肉
肖
肙
肥
肩
肯
育
肴
胃
背
胡
胥
能
脊
脩
膚
臣
臤
臧
自
臬
臭
臯
臱
至
致
臺
臼
臽
臾
臿
舀
舂
舄
與
興
舉
舌
舍
舛
舜
舞
舟
般
艮
良
色
艸
艹
艾
芒
芔
芬
芮
花
芳
芺
芻
苔
苗
苟
若
苦
英
茶
茸
荅
草
荒
荣
荼
莆
莧
莫
莽
菆
菊
菐
華
萬
落
葉
著
葛
董
葵
蒙
蒦
蒼
蓋
蓬
蓺
蔑
蔡
蕉
蕭
薄
薛
薦
薰
藍
藏
藥
蘭
虍
虎
虐
虒
虔
處
虖
虗
虘
虚
虛
虜
虞
虫
虽
蚤
蚩
蜀
蜜
蟲
蠡
血
行
衍
衛
衣
衤
表
衮
衰
袁
袞
褭
褱
襄
襾
西
覀
要
覃
見
規
覓
覧
親
覽
见
角
解
言
訁
訇
計
詹
語
誩
諸
讠
语
谷
豆
豈
豊
豐
豕
豖
豙
象
豦
豩
豪
豸
貇
貝
貞
貟
負
貢
貧
貪
貫
責
貳
貴
買
費
賁
資
賈
賏
賓
賔
賛
賞
賢
賣
質
賴
贊
贝
贡
责
贯
贲
贵
赖
赞
赤
赦
走
越
足
路
蹇
身
躬
車
軍
軎
軟
輦
车
辛
辜
辟
辥
辰
辱
農
辵
辶
边
达
过
近
这
连
迷
追
退
送
逆
逐
這
通
速
造
逢
連
逮
進
遀
遂
過
道
達
遣
適
遷
遺
邊
邑
邕
那
邦
邪
郎
部
郭
都
鄉
酉
酋
配
酓
釆
采
里
重
野
量
金
釒
錢
钅
長
镸
长
門
閃
閉
開
閏
閑
閒
間
閔
閵
閻
闌
门
间
闷
阑
阜
阝
阿
降
陳
隆
隊
隋
隡
隨
隱
隶
隹
隺
隻
隼
隽
难
雀
雁
集
雈
雋
雍
雐
雔
雙
雚
雜
雝
離
難
雨
雩
雪
雲
零
雷
需
霍
霜
霝
霞
霸
靈
靑
青
非
靡
面
靣
革
韋
韦
韭
韯
韱
音
頁
頃
項
須
頗
頡
頻
顛
页
風
风
飛
飞
食
飠
養
饣
首
香
馬
馮
駦
马
骨
高
髟
鬥
鬯
鬲
鬼
魚
魯
鮮
鱼
鲁
鳥
鳳
鸟
鹵
鹿
麃
麗
麥
麦
麻
黃
黄
黍
黎
黑
黒
黨
黹
黽
黾
鼎
鼓
鼠
鼻
齊
齋
齐
齒
齿
龍
龙
龜
龟
龠
龰
龱
龴
龵
龶
龷
龸
龹
者
艹
，
？
🜨
𠀁
𠀃
𠀆
𠀉
𠀎
𠀐
𠁁
𠁣
𠂆
𠂇
𠂈
𠂉
𠂊
𠂋
𠂎
𠂒
𠂔
𠂛
𠂡
𠂢
𠂤
𠂬
𠂭
𠂹
𠃊
𠃋
𠃌
𠃍
𠃎
𠃑
𠃓
𠃔
𠃜
𠄌
𠄎
𠄠
𠄢
𠆢
𠆥
𠇍
𠈌
𠌵
𠓜
𠔉
𠔥
𠔼
𠔽
𠔿
𠕀
𠕁
𠕋
𠘧
𠘨
𠙻
𠙼
𠚏
𠚒
𠚤
𠚪
𠣏
𠤎
𠤕
𠥓
𠦄
𠦑
𠦝
𠧒
𠧗
𠧪
𠩺
𠪚
𠫓
𠫔
𠫤
𠬛
𠬝
𠬞
𠬢
𠬤
𠬶
𠮛
𠮦
𠮷
𠯑
𠱠
𠳮
𠷎
𡈼
𡉀
𡉵
𡌥
𡍮
𡏳
𡕒
𡕩
𡕰
𡖅
𡗗
𡗜
𡘆
𡘤
𡧱
𡨄
𡩧
𡬠
𡭽
𡰣
𡰥
𡰪
𡰯
𡰱
𡷈
𡸁
𡿨
𡿩
𡿪
𡿺
𢀖
𢀛
𢀩
𢁙
𢆉
𢆰
𢆶
𢇁
𢇇
𢉖
𢌬
𢌿
𢏚
𢑑
𢑚
𢖻
𢙣
𢛳
𢦏
𢦒
𢧵
𢼄
𢾕
𣁋
𣄼
𣅀
𣅽
𣍘
𣎳
𣎵
𣏋
𣏼
𣗥
𣥂
𣥖
𣦵
𣦼
𣧄
𣪊
𣪠
𣬉
𣳾
𣶒
𤇾
𤊽
𤐫
𤓰
𤔔
𤕨
𤣩
𤰇
𤰔
𤰞
𤴓
𤴔
𤽄
𥁑
𥁕
𥃦
𥃩
𥃭
𥇡
𥑟
𥘅
𥘈
𥝢
𥫗
𥱡
𦈢
𦉪
𦉬
𦉼
𦍌
𦍒
𦎧
𦐇
𦓔
𦔮
𦘒
𦙃
𦚏
𦣝
𦣞
𦣻
𦥑
𦥔
𦥯
𦨉
𦭝
𦰩
𧆞
𧈧
𧘇
𧰨
𧴪
𧴮
𧵩
𧾷
𨸏
𨾴
𩙿
𩠐
𩫏
𩵋
𪉷
𪜀
𪟽
𪠲
𪩲
𫇦
𫔭
𫜸
𫝀
𫠣
𫠩
𫢉
𫥞
𫩏
𫩠
𫪡
𫲽
𫶧
𬀷
𬐘
𬗌
𬙙
𬛸
𬜯
𬟩
𬯁
𬴘
𬺻
𬼉
𬼖
𭀰
𭁈
𭁨
𭅰
𭑈
𭕄
𭗼
𭤨
𭥫
𭻾
𮅕
𮊿
𮍌
𮍏
𮓗
𮥼
𮧮
廾
𰀁
𰀄
𰀈
𰀉
𰀕
𰀠
𰀡
𰀢
𰀪
𰁜
𰃮
𰆊
𰆘
𰋙
𰕎
𰢴
𰧭
𰯲
0--
00--
01--
02--
03--
04--
05--
06--
07--
08--
13--
14--
16--
17--
18--
19--
3--
30--
38--
4--
5--
53--
56--
57--
58--
59--
6--
60--
61--
64--
66--
67--
7--
8--
83--
9--
90--
a--
ab--
ac--
acrid--
acro--
act--
ad--
addit--
adenan--
admini--
ae--
aero--
af--
ag--
aho--
ai--
aka--
ake--
aki--
al--
alb--
ali--
alo--
an--
ance--
anga--
any--
ao--
apo--
app--
ar--
aris--
aro--
as--
asc--
asple--
aste--
astro--
at--
ata--
ate--
au--
auric--
auth--
ava--
b--
ba--
bah--
bapti--
bartra--
bas--
bat--
be--
beg--
ber--
bere--
bib--
biser--
blu--
bo--
boli--
br--
brach--
brachy--
bras--
bryophy--
bu--
bur--
c--
ca--
call--
calyc--
cap--
car--
cass--
ce--
cen--
cer--
ch--
chall--
che--
chit--
chlo--
ci--
circ--
cla--
cle--
clu--
co--
com--
comp--
con--
concu--
cor--
coro--
corr--
cr--
cre--
cric--
crown--
cucurb--
cur--
cus--
cy--
d--
da--
de--
dec--
deg--
dia--
dip--
direc--
dis--
disc--
discus--
distri--
do--
doc--
dro--
du--
e--
ea--
eco--
econo--
ecua--
ed--
efa--
el--
ele--
eli--
en--
eng--
ensi--
er--
et--
euro--
evi--
ex--
expla--
f--
fa--
fag--
fai--
faka--
fakafe--
fal--
fala--
fale--
fana--
far--
fatu--
fe--
fi--
fie--
fili--
fir--
fist--
fk--
fo--
for--
frag--
fu--
fue--
fui--
fuli--
fuo--
g--
ga--
gai--
gar--
ge--
gi--
gna--
gra--
gross--
gu--
h--
ha--
hab--
hala--
happ--
har--
he--
hedy--
hi--
hir--
ho--
hol--
holo--
hor--
hosp--
hou--
hu--
hulu--
hur--
husb--
hy--
i--
ia--
id--
if--
ika--
im--
in--
inc--
inst--
inter--
is--
it--
ite--
j--
ja--
jelly--
jo--
ju--
k--
ka--
kafa--
kai--
kau--
kava--
ke--
kei--
kele--
ker--
ki--
kili--
ko--
kolo--
komi--
ku--
kuata--
kulu--
l--
la--
lab--
lac--
lago--
lalo--
lan--
langi--
lanu--
lau--
le--
lea--
li--
lit--
lo--
lob--
loto--
lou--
loy--
lu--
lua--
ly--
lyco--
m--
ma--
mac--
mae--
maka--
mal--
man--
mar--
mata--
mau--
maxi--
me--
mea--
medi--
meg--
mer--
mi--
mic--
mid--
mili--
misi--
mist--
mo--
moa--
moe--
moeren--
moko--
molo--
mon--
mor--
motu--
mu--
mui--
mur--
mus--
myr--
n--
na--
nai--
nau--
ne--
neg--
nemo--
nep--
nga--
ngi--
ngo--
ni--
nic--
nik--
niu--
no--
nuku--
o--
oa--
ob--
occup--
octo--
offic--
ofi--
oi--
olo--
on--
ongo--
opi--
or--
orth--
osi--
otu--
ou--
over--
ox--
p--
pa--
paka--
paki--
pala--
pan--
papa--
par--
para--
passion--
pe--
pea--
pel--
pend--
peni--
per--
pesi--
phy--
pi--
pic--
pip--
piti--
plu--
po--
pol--
polo--
pome--
pou--
pr--
pre--
prit--
pro--
pter--
pu--
pua--
pub--
pue--
pur--
purpu--
q--
qui--
r--
ra--
rad--
re--
rece--
recog--
repre--
resp--
ri--
ro--
ru--
rus--
s--
sa--
sac--
sag--
sagi--
sai--
san--
sapo--
scale--
sch--
schiz--
scien--
se--
sea--
sec--
secur--
ser--
sett--
sha--
shi--
si--
sia--
simp--
sio--
siu--
sm--
so--
some--
sop--
sp--
spe--
spec--
sq--
squa--
st--
sten--
sterc--
str--
su--
sw--
t--
ta--
tac--
tafa--
tai--
taka--
tal--
tala--
talo--
tan--
tao--
tapa--
tasi--
tau--
tav--
te--
tec--
tele--
temp--
ter--
tet--
th--
thou--
ti--
tin--
to--
toa--
toe--
toke--
tonga--
tor--
toro--
tou--
tr--
tra--
tradit--
tre--
tri--
trifo--
tu--
tua--
tub--
tui--
tuku--
tur--
u--
ua--
ue--
ufa--
ui--
uli--
ulu--
umbell--
un--
unga--
uo--
up--
us--
uta--
utu--
v--
va--
vahe--
vai--
vao--
varieg--
ve--
ver--
vi--
vili--
vir--
w--
wa--
wal--
war--
wat--
wor--
wre--
x--
y--
ya--
ye--
z--
--0
--00
--000
--04
--06
--07
--09
--1
--12
--18
--2
--20
--22
--3
--37
--4
--48
--49
--5
--54
--6
--7
--74
--77
--79
--8
--81
--82
--84
--87
--9
--91
--94
--95
--97
--a
--aceae
--ae
--afe
--ages
--ai
--aki
--al
--ale
--am
--an
--ana
--anga
--ans
--ant
--ants
--ar
--ard
--as
--ased
--at
--ata
--ation
--au
--ax
--b
--ba
--be
--ber
--ble
--bo
--boo
--c
--ca
--cal
--ccensis
--ce
--cea
--ceae
--ces
--ceus
--ch
--chia
--ci
--cium
--ck
--ct
--cta
--cted
--cting
--cum
--cus
--d
--da
--de
--dea
--ded
--dens
--des
--ding
--dium
--dly
--dra
--ds
--e
--ea
--ect
--ed
--ei
--el
--ely
--em
--en
--ence
--ens
--ensis
--eo
--ep
--er
--era
--eri
--erma
--ern
--ers
--es
--ess
--est
--ey
--f
--fa
--fe
--fer
--fi
--fo
--folium
--fu
--ful
--g
--ga
--gar
--ge
--ged
--ght
--gi
--gio
--gn
--go
--gon
--gy
--h
--ha
--hau
--he
--hele
--hi
--hihifo
--hina
--hinga
--hl
--ho
--hu
--hyta
--i
--ia
--iaceae
--iana
--ical
--ice
--ick
--icks
--icola
--ics
--icum
--id
--ides
--ifolius
--ight
--ii
--ika
--iki
--ily
--ing
--ion
--iri
--is
--ish
--it
--ium
--ive
--ize
--ja
--k
--ka
--kai
--kamu
--ke
--kehe
--ki
--kia
--kiha
--ko
--ku
--kua
--kula
--l
--la
--lau
--ld
--le
--les
--ley
--li
--lia
--lika
--ling
--lis
--lium
--lk
--ll
--llo
--lly
--lm
--lo
--loa
--ls
--lu
--ly
--m
--ma
--maama
--mahi
--mber
--me
--mea
--meimu
--ment
--mi
--mo
--ms
--mu
--mum
--my
--n
--na
--nce
--nces
--nd
--ndra
--nds
--ne
--ned
--nel
--nes
--ness
--ng
--nga
--ngi
--ngo
--ni
--nia
--nicus
--nisi
--nita
--nite
--nk
--nly
--no
--nolosia
--ns
--nse
--nsis
--nt
--nta
--nted
--ntly
--nts
--nu
--nui
--o
--oa
--ol
--ola
--on
--one
--ono
--ons
--oo
--or
--ore
--ot
--ow
--ows
--p
--pa
--pasi
--pau
--pe
--ped
--pes
--phon
--phylla
--phyta
--pi
--po
--pt
--pu
--pua
--pus
--q
--que
--r
--ra
--ration
--rchy
--rd
--re
--rea
--res
--ri
--ria
--riaceae
--rial
--rida
--rily
--ring
--ris
--rius
--rk
--rl
--rmis
--rn
--ro
--rpa
--rpus
--rry
--rs
--rt
--ru
--rua
--rum
--rus
--ry
--s
--sa
--se
--sed
--sh
--si
--sia
--sii
--sito
--siu
--sk
--ss
--st
--sta
--stry
--sts
--sum
--sus
--sy
--t
--ta
--taha
--tahi
--tala
--tara
--tati
--tau
--te
--tea
--ted
--tefua
--ter
--tes
--th
--tha
--thum
--ti
--tic
--ting
--tion
--tions
--tly
--to
--toa
--tolu
--ton
--toni
--ts
--tu
--tui
--tum
--tus
--ty
--u
--ua
--ue
--ught
--ui
--um
--und
--ur
--us
--ute
--v
--va
--vahe
--vai
--vao
--ve
--vi
--vu
--vy
--w
--wa
--wl
--ws
--x
--xa
--y
--ya
--yed
--ys
--z
--za
--ze
--zoa
