!
"
#
##0
##1
##10
##11
##12
##13
##14
##15
##16
##17
##18
##19
##2
##20
##21
##22
##23
##24
##25
##26
##27
##28
##29
##3
##30
##31
##32
##33
##34
##35
##36
##37
##38
##39
##4
##40
##41
##42
##43
##44
##45
##46
##47
##48
##49
##5
##50
##51
##52
##53
##54
##55
##56
##57
##58
##59
##6
##60
##61
##62
##63
##64
##65
##66
##67
##68
##69
##7
##70
##71
##72
##73
##74
##75
##76
##77
##78
##79
##8
##80
##81
##82
##83
##84
##85
##86
##87
##88
##89
##9
##90
##91
##92
##93
##94
##95
##96
##97
##98
##99
$
%
&
'
(
)
*
+
,
-
.
/
0
00
000
002
01
0140
02
03
04
05
06
07
08
081
09
1
10
100
1000
10000
1001
1002
1003
1016
102
103
104
105
106
108
11
110
112
114
115
117
119
12
120
1200
122
123
125
1254
126
128
1289
13
130
132
1324
133
1340
1372
138
1385
14
140
1400
141
1436
14651858
15
150
1500
1506
153
154
158
1582
159
16
160
1600
1616
1623
1639
164
1642
165
1651
1653
1659
166
1697
17
170
1700
1711
1720
1749
1765
1774
1775
1776
1781
1783
1789
179
1791
18
180
1800
1807
1810
1819
1820
1821
183
1830
1831
1832
1835
1837
1838
184
1842
1845
1846
1847
1850
1851
1853
1854
1855
1856
1857
1860
1861
1863
1865
1866
1867
1868
1869
187
1870
1871
1873
1874
1875
1876
1877
188
1880
1881
1882
1884
1885
1886
1887
1888
1889
1890
1891
1892
1893
1894
1895
1896
1897
1898
1899
19
190
1900
1901
1902
1903
1904
1905
1906
1907
1908
1909
1910
1911
1912
1913
1914
1915
1916
1917
1918
1919
192
1920
1921
1922
1923
1924
1925
1926
1927
1928
1929
193
1930
1931
1932
1933
1934
1935
1936
1937
1938
1939
194
1940
1941
1942
1943
1944
1945
1946
1947
1948
1949
1950
1951
1952
1953
1954
1955
1956
1957
1958
1959
1960
1961
1962
1963
1964
1965
1966
1967
1968
1969
197
1970
1971
1972
1973
1974
1975
1976
1977
1978
1979
1980
1981
1982
1983
1984
1985
1986
1987
1988
1989
1990
1991
1992
1993
1994
1995
1996
1997
1998
1999
2
20
200
2000
2001
2002
2003
2004
2005
2006
2007
2008
2009
2010
2011
2012
2013
2014
2015
2016
2017
2018
2019
2020
2021
2022
207
208
209
21
210
212
215
216
219
22
220
222
224
225
228
23
230
232
233
234
23591
236
24
240
243
249
25
250
251
2510
252
25530442
256
257
258
26
260
261
264
2655
267
27
270
272
274
275
279
28
280
282
283
284
286
287
29
293
294
298
299
3
30
300
301
302
303
305
306
307
308
309
31
312
313
314
315
3166
317
319
32
320
3200
321
323
326
329
33
330
3315
332
333
334
336
337
338
34
340
342
343
346
35
350
352
354
355
36
360
363
365
37
370
371
372
375
3753
378
38
380
383
385
3880
39
390
4
40
400
406
4066
41
411
414
415
419
42
420
423
427
428
429
43
431
44
440
441
442
443
45
456
46
460
461
462
463
47
4715
474
48
49
494
497
5
50
500
508
51
513
52
525
528
53
532
538
54
5429
55
555
559
56
57
570
574
58
59
596
6
60
600
604
607
61
61682
62
63
6366
64
65
650
66
67
670
6736
68
680
686
69
6979
7
70
700
71
715
72
720
73
737
74
740
744987
75
750
76
77
78
783
7874
79
8
80
800
800000
81
82
828
83
830
838
84
840
841
85
86
8601
87
870
88
880
89
890
9
90
900
91
92
93
94
95
96
962
97
978
9781284057560
98
985
986
987
99
992
997
:
;
<
=
?
@
_
`
a
aafupi
aakazi
aakulu
aamuna
aang
aarabu
aatali
ab
abale
abambo
abayidwa
abbey
abc
abdalla
abdelaziz
abdirahman
abdul
abdullah
abdullahi
abdulrazak
abe
abel
aberdeen
abereke
abhishek
aboma
about
abraham
abrahamu
abu
abuja
abulu
abusa
abwenzi
abwerere
abwezeretsedwe
abwino
ac
academia
academic
academy
accdc
acceptable
account
accra
acct
achepe
achepetse
achepetsedwa
achewa
achi
achiarabu
achibale
achichepere
achidule
achievement
achifundo
achifupi
achifwamba
achigiriki
achijeremani
achikasu
achikatolika
achikomyunizimu
achikuda
achikulire
achikunja
achilendo
achilengedwe
achimereka
achingerezi
achinsinsi
achinyamata
achinyengo
achipani
achipatala
achipembedzo
achisangalalo
achisanu
achisilamu
achita
achitatu
achite
achitepo
achitetezo
achiwewe
achiwiri
achiyuda
achoka
achoke
achotsa
achotsedwe
act
actress
acts
ad
ada
adabadwa
adabadwira
adabwera
adabwerera
adabweza
adabwezeretsedwanso
adachepetsa
adachiritsidwa
adachita
adachitapo
adachitika
adachitira
adachitsogolera
adachoka
adachokera
adachotsa
adachotsedwa
adadi
adadula
adadutsa
adadzakhala
adadzifotokozera
adadzitcha
adadziwa
adadziwika
adadzudzula
adadzudzulidwa
adafalitsa
adafanizira
adafera
adafika
adafotokoza
adafotokozedwa
adafuna
adafunafuna
adafunsa
adafunsira
adaganiza
adagawana
adagawidwa
adagoletsa
adagoletsanso
adagona
adagonja
adagonjetsa
adagonjetsedwa
adagula
adagulitsa
adagwetsedwa
adagwidwa
adagwira
adagwiranso
adagwirapo
adagwiritsa
adagwiritsanso
adagwiritsidwa
adagwirizana
adagwirizananso
adagwirizanitsa
adagwirizanitsidwa
adaika
adaimba
adaimbidwa
adaimira
adaitana
adajambula
adakakamiza
adakali
adakalipo
adakambirana
adakana
adakhala
adakhalabe
adakhalako
adakhalapo
adakhazikika
adakhazikitsa
adakhazikitsidwa
adakhudzidwa
adakhulupirira
adakonda
adakondana
adakondwera
adakonza
adakopa
adakula
adakulitsa
adakumana
adakumbukira
adakwaniritsa
adakwanitsa
adakwatirana
adakwera
adakwezedwa
adakwiya
adal
adalamula
adalamulira
adalanda
adalandira
adalandiridwa
adalankhula
adalemba
adalembanso
adalembedwa
adalembedwanso
adalembetsa
adalembetsanso
adalembetsedwa
adalenga
adalengedwa
adalengeza
adalengezanso
adalengezedwa
adalephera
adaleredwa
adaletsa
adali
adalimbana
adalimbikitsa
adalimbikitsanso
adalimbikitsidwa
adalinso
adalitse
adaloledwa
adalongosola
adalonjeza
adalowa
adalowetsedwa
adalumbira
adalumbiritsidwa
adalumikizana
adalumikizidwa
adam
adamaliza
adamangidwa
adamasulidwa
adamenyana
adamuchonderera
adamuchotsa
adamuika
adamukonda
adamulimbikitsa
adamupanga
adamupatsa
adamupempha
adamutcha
adamuthandiza
adamuuza
adamuvomereza
adamuwona
adamuyitana
adamva
adamwalira
adanena
adanenanso
adanenedwa
adaneneratu
adangoyang
adani
adanong
adanyamula
adapambana
adapambananso
adapanga
adapangidwa
adapatsa
adapatsidwa
adapempha
adapepesa
adapereka
adaperekedwa
adapeza
adapezanso
adapezazi
adapezedwa
adapezeka
adapha
adaphatikizana
adaphatikizidwa
adaphedwa
adaphunzira
adaphunzitsa
adaphunzitsidwa
adaphwanya
adapikisana
adapindula
adapita
adapitilizabe
adaponyedwa
adapulumutsa
adapuma
adasaina
adasainira
adasamukira
adasamutsidwa
adasamutsirako
adasandulika
adasandutsa
adasankha
adasankhidwa
adasankhidwanso
adaseka
adasewera
adaseweredwa
adasindikiza
adasindikizidwa
adasintha
adasinthidwa
adasinthira
adasinthiratu
adasiya
adasonkhanitsa
adasudzulana
adasunga
adasungabe
adasungidwa
adataya
adatayika
adatcha
adatchedwa
adatchuka
adatchulidwa
adatembenuka
adatembenuza
adatenga
adatengedwa
adatengedwera
adatengera
adatero
adateteza
adatha
adathamangira
adathamangitsidwa
adathandizidwa
adathandizidwabe
adathandizira
adathawa
adathokoza
adati
adatinso
adatsagana
adatsata
adatsatiridwa
adatsekedwa
adatsika
adatsimikiza
adatsimikizira
adatsimikiziranso
adatsimikiziridwa
adatsindika
adatsitsimutsanso
adatsogola
adatsogolera
adatsutsa
adatsutsana
adatsutsidwa
adatuluka
adatulutsa
adatulutsidwa
adatumikira
adatumikiranso
adatumiza
adatumizidwa
adautengera
adauza
adavomera
adavomereza
adavomerezedwa
adavota
adavotera
adavulala
adawerengedwa
adawerengera
adaweruzidwa
adawombera
adawona
adawonedwa
adawoneka
adawonekera
adawonekeranso
adawonetsa
adawonetsanso
adawonetsera
adawongoleredwa
adawonjezera
adawopseza
adawotchedwa
adawulula
adayamba
adayambanso
adayambiranso
adayambitsa
adayambitsidwa
adayamika
adayamikira
adayamikiridwa
adayang
adayankha
adayankhula
adayenda
adayendera
adayenera
adayesetsa
adayika
adayikidwa
adayimilira
adayimira
adayitana
adayitanidwa
adayitanitsa
adazemba
adazindikira
adazipeza
adazitcha
adazunzidwa
ademokalase
aden
adilesi
admarc
administration
administrative
adolf
adventist
adventists
adventures
advisor
advisory
adwala
adye
adzabweranso
adzabwezeretsa
adzakhala
adzalandira
adzalandire
adzatembenuka
adziko
adziwe
adzukulu
ae
aek
aeronautics
af
afa
afcon
afe
affair
affairs
afghanistan
afika
afike
afikire
afilika
afilipi
afirika
aford
afotokoze
africa
african
africanism
afrika
afro
after
afufuze
again
against
agalu
age
agency
ages
aggrey
agiriki
agnes
agogo
agreement
agricultural
agriculture
aguila
agulugufe
agwire
agwiritse
agwiritsidwe
agwirizana
agwirizane
ahebri
ahmed
ai
aids
aikidwe
ailesi
air
airborne
aires
airfield
airlines
airport
aja
ajeremani
aka
akachenjede
akachite
akadakhala
akadali
akafika
akafula
akaidi
akakhala
akakhale
akakhosomola
akakwanitsa
akalandira
akale
akalowa
akalumikizane
akamakula
akambirane
akampani
akan
akanakhala
akanatha
akangaude
akangobadwa
akangobereka
akangolandira
akangoyamba
akaperekedwa
akapeze
akaphunzire
akapolo
akasa
akashic
akasinja
akasupe
akatolika
akatsogolere
akatswiri
akaunti
akayamba
akazi
ake
akenten
akhala
akhalapo
akhale
akhalebe
akhazikike
akhazikitse
akhoza
akhristu
akhudzidwa
akolose
akomweko
akonze
akorinto
akristu
aku
akuba
akubwera
akubwerera
akuchipatala
akuchita
akuda
akudandaula
akudutsa
akudwala
akudzionetsa
akudziwa
akudziwika
akufa
akufika
akufotokoza
akufotokozedwa
akufotokozera
akufuna
akufunika
akufunira
akuganiza
akuganiziranso
akuganiziridwa
akugwa
akugwira
akugwiritsa
akugwirizana
akuimba
akuimbidwa
akukambirana
akukhala
akukhamukira
akukhudzana
akukonzekera
akukula
akukumana
akukwera
akulamulidwa
akulandira
akulekana
akulimbana
akulimbikitsa
akulira
akulu
akuluakulu
akum
akumadzulo
akumangiriza
akumapereka
akumenya
akumenyana
akumenyera
akumidzi
akummwera
akumva
akumwa
akumwera
akunena
akunja
akunyoza
akunyumba
akuoneka
akuopa
akupempha
akupereka
akupeza
akupezeka
akupha
akuphatikizana
akuphatikizapo
akupikisana
akupita
akupitiliza
akupitilizabe
akuponya
akusankha
akusewera
akusintha
akusiya
akusonyeza
akusowa
akutali
akutanthauza
akutchulidwa
akutenga
akuthamangira
akuthandiza
akuthandizira
akuti
akutsatira
akutsogola
akutsogolera
akutsutsa
akutsutsana
akutumikira
akutumizidwa
akuvina
akuvutika
akuwayimbira
akuwona
akuwoneka
akuwonekera
akuwonetsa
akuwongolera
akuyaka
akuyamba
akuyamikira
akuyamwitsa
akuyang
akuyankhula
akuyembekeza
akuyembekezeka
akuyenda
akuyendetsa
akuyenera
akuyesera
akuyesetsa
akuyimira
akwaniritse
akwatire
al
alabama
alan
alandira
alandirapo
alangizi
alankhule
alaska
albamu
albania
albert
albertisii
album
albums
albumyi
alec
aleksandar
alembe
alembetsedwe
alendo
alengeza
aletse
alex
alexander
alexandra
alexandria
alexei
alfred
alfredo
algebraic
algeria
algiers
ali
alibe
alice
align
alignbars
aligned
alimi
alingane
alinso
alionse
alipo
aliwonse
aliyense
all
allen
alliance
allied
allies
alma
almaty
almeida
almeri
alofa
alole
alonda
alongo
alopecia
alowa
alowe
alpha
also
alt
aluya
am
amabereka
amabwera
amabweretsa
amachita
amachitidwa
amachitika
amachitira
amachititsa
amachiza
amachokera
amachotsa
amadalira
amadutsa
amadwala
amadyetsa
amadzi
amadzipha
amadzitcha
amadziwa
amadziwika
amadziwikanso
amafa
amafala
amafalikira
amafalitsidwa
amafika
amafotokozedwa
amafuna
amafunika
amafunikira
amaganiza
amagawidwa
amagetsi
amagula
amagwira
amagwiritsa
amagwiritsanso
amagwiritsidwa
amagwiritsidwanso
amagwirizana
amai
amaika
amaikidwa
amaima
amakana
amakayikira
amakhala
amakhalabe
amakhalanso
amakhudzidwa
amakhulupilira
amakhulupirira
amakonda
amakono
amakonzekera
amakula
amakumana
amakumananso
amakwaniritsa
amalandila
amalandira
amalankhula
amalawi
amalemba
amalembedwa
amaletsa
amalimbikitsa
amalimbikitsidwa
amalingalira
amalipira
amalira
amalola
amaloledwa
amalonda
amalowa
amalume
amamudzudzula
amamukonda
amamutsutsa
amamutumizira
amamuuza
amamuwona
amamuyamikira
amamva
amamwalira
amanda
amanena
amanenera
amangoimbidwa
amangokhala
amaona
amaonedwa
amapambana
amapambanidwa
amapanga
amapangidwa
amapangira
amapatsidwa
amapatsirana
amapereka
amaperekedwa
amapeza
amapezeka
amaphatikizapo
amaphatikizidwa
amaphunzira
amapikisana
amapita
amasangalala
amasankha
amasankhidwa
amasewera
amaseweredwa
amasintha
amasinthana
amasiya
amasiyana
amasiye
amasonyeza
amasulidwe
amasunga
amatanthauza
amatanthauzira
amataya
amatcha
amatchedwa
amatchedwanso
amatchula
amatchulidwa
amatchulidwanso
amatenda
amatenga
amatengedwa
amateteza
amatetezedwa
amatetezeka
amatha
amathandiza
amathandizidwa
amathandizira
amathanso
amathawa
amati
amatsata
amatsimikizira
amatsogolera
amatsutsa
amatsutsana
amatuluka
amatumiza
amatumizidwa
amauza
amavala
amavomereza
amavutika
amawerengedwa
amawona
amawonedwa
amawoneka
amawonekera
amawu
amayamba
amayambitsa
amayambitsidwa
amayang
amayankhula
amayenda
amayendetsa
amayenera
amayeneranso
amayesa
amayesetsa
amayeza
amayi
amazon
amazunza
amba
ambassador
amber
ambiri
ambirimbiri
ambulansi
ambuye
amchere
ame
amendment
amene
amenenso
amenew
amenewa
amenewo
ameneyu
amenyetse
amereka
america
american
amerika
amess
amgwirizano
amina
amisala
amitundu
amkati
ammayi
amnesia
amnesty
amodzi
amos
amoto
amour
amoyo
amphamvu
ampikisano
ampira
amsterdam
amtundu
amtunduwu
amuna
amunawa
amupatse
amupulumutse
amuse
amuthandize
amuuze
amwalira
amwalire
amwenye
amworth
amy
an
ana
anabadwa
anabadwira
anabatizidwa
anabereka
anabwera
anabwerera
anabweretsa
anachirikiza
anachita
anachitanso
anachitidwa
anachoka
anachokera
anachotsedwa
anadandaula
anadodometsedwa
anadwala
anadwalapo
anadzipereka
anadzipha
anadziwika
anafa
anafika
anafotokoza
anafuna
anafunika
anaganiza
anagawa
anagawidwa
anagona
anagonjetsa
anagonjetsedwa
anagula
anagulitsa
anagulitsanso
anagulitsidwa
anagwidwa
anagwira
anagwiranso
anagwiritsa
anagwirizana
anagwirizananso
anaikidwa
anaimba
anaimitsidwa
anakakamizika
anakambirana
anakana
anakhala
anakhalabe
anakhalanso
anakhalapo
anakhazikitsa
anakhazikitsidwa
anakhudzidwa
anakhulupirira
anakonza
anakulira
anakumana
anakumbukira
anakwanitsa
anakwatira
anakwatirana
anakwatiwa
anakwiya
analamula
analamulira
analanda
analandila
analandira
analandiridwa
analankhula
analemba
analembedwa
analemekezedwa
analenga
analengeza
analephera
anali
analibe
analimbikitsidwa
analinso
analipo
analoledwa
analowa
analumbirira
analysis
anamaliza
anamangidwa
anamasulidwa
anamasulira
anamenya
anamenyana
anamudziwitsa
anamupeza
anamwalira
ananena
ananenanso
ananyamuka
anaona
anaonekera
anapambana
anapanga
anapanganso
anapangidwa
anapangitsa
anapatsa
anapatsidwa
anapempha
anapereka
anapeza
anapezanso
anapezeka
anapha
anaphatikiza
anaphatikizapo
anaphatikizidwa
anaphedwa
anaphunzira
anaphunzitsidwa
anapita
anapitanso
anapitiliza
anapitiriza
anapitirizabe
anapitirizanso
anaponyedwa
anapulumuka
anasaina
anasamuka
anasamukira
anasangalala
anasankha
anasankhidwa
anasewera
anasindikiza
anasintha
anasiya
anasudzulana
anatambasula
anataya
anatchedwa
anatchula
anatchulanso
anatenga
anatha
anathamangira
anathandiza
anathandizira
anathawa
anathetsa
anati
anatol
anatsatira
anatsiriza
anatsogolera
anatsogoleredwa
anatsutsa
anatuluka
anatulukira
anatulutsa
anatulutsidwa
anatumikira
anatumiza
anatumizidwa
anaukira
anauza
anauzidwa
anauziridwa
anavomera
anavomerezedwa
anavulala
anavulazidwa
anawauza
anawo
anawonekera
anawonjezera
anawonjezeredwa
anayamba
anayambanso
anayambitsa
anayandikana
anayang
anayankha
anayenda
anayenera
anayesa
anayesera
anayi
anazindikira
anazunzidwa
anc
anchor
and
andale
anderlecht
anderson
andes
andorra
andre
andresen
andrew
andrews
andy
ane
anena
anene
aneneri
aneurysm
anfield
ang
anga
angadwale
angadziwe
angafunikire
angagwiritsidwe
angagwiritsidwenso
angakhale
angakhalenso
angakhalepo
angalandire
angalole
angamwalire
anganene
angapangitse
angapatsidwe
angapatsidwenso
angapewe
angapewedwe
angapo
angasankhe
angasonyeze
angatenge
angathamangire
angathamangirenso
angathandize
angathandizidwe
angathe
angathenso
angathere
angayambe
angayambitse
angel
angela
angeles
angelezi
angelina
angelo
angerezi
anglo
anglophone
angola
anima
anira
aniridwa
anita
anitsitsa
anizana
ankabwera
ankachita
ankadziwa
ankadziwika
ankafuna
ankafunika
ankaganiza
ankagulitsidwa
ankagwira
ankagwiritsa
ankaimba
ankakhala
ankakhulupirira
ankakonda
ankalamulidwa
ankalamulira
ankalankhula
ankamangidwa
ankamuona
ankamvera
ankanenedwa
ankaona
ankaonedwa
ankapereka
ankasangalala
ankasewera
ankatchedwa
ankathandizira
ankathanso
ankati
ankavala
ankawoneka
ankayesa
ankayimira
ankhondo
ann
anna
annakin
anne
annie
annual
ano
antarctica
antchito
antebellum
anthem
anthology
anthony
anthroposophy
anthu
anthuwa
anthuwo
anti
antidepressants
antigua
antipsychotics
anu
anyamata
anyani
anzake
anzathu
anzawo
anzeru
aone
apa
apadera
apadziko
apakati
apakompyuta
apamadzi
apambana
apambane
apampando
apamtima
apamwamba
apange
apangidwa
apangidwe
apano
apansi
apanyanja
apanyumba
apathengo
apatsidwa
apaulendo
apawiri
apereke
apewe
apeza
apeze
apezeka
aphedwa
aphedwe
aphid
aphids
aphungu
aphunzitsi
apilo
apita
apite
apitiliza
apitirire
apitirize
apo
apolisi
apongozi
apostle
apostles
appointment
approaches
appropriations
april
apulezidenti
apulo
apuma
apumule
apwitikizi
ar
arab
arabia
arabic
arbiter
arc
archipelago
archive
archived
archives
arctic
are
area
arena
argentina
argentine
ariska
ariste
ariston
aristotle
arizona
arkansas
armenia
armstrong
army
aroma
around
arrizabalaga
arsenal
art
arthur
article
articles
artist
arts
arusha
as
asachoke
asadwale
asafalikire
asafe
asalowe
asanabadwe
asanabwerere
asanafike
asanakhale
asanakhalepo
asanakwane
asanakwanitse
asanalowe
asanamalize
asanamvepo
asanamwalire
asanapite
asanasankhidwe
asanayambe
asankha
asankhe
asankhidwenso
asanu
asayansi
ashley
asia
asian
asif
asilamu
asilikali
asinthe
asitikali
asiye
asonyeze
aspx
assaught
assembly
associated
association
assr
assurances
astana
astronomical
astronomy
asukulu
asuncio
asungidwe
asymmetric
at
ata
atabadwa
atabadwira
atabweranso
atabwerera
atachita
atachoka
atachotsedwa
atadwala
atadzudzulidwa
atafika
atafunsidwa
atagona
atagonjetsa
atagonjetsedwa
atagwira
atakhala
atakumana
atakwanitsa
atakwatirana
atalandira
atalengeza
atalephera
ataliatali
atalolera
atalowa
atalumidwa
atamaliza
atamasulidwa
atamwalira
atangofika
atangomaliza
atangotsala
atanyamula
atapachikidwa
atapambana
atapanga
atapatsidwa
atapereka
atapeza
ataphedwa
atapita
atapuma
atasankha
atasankhidwa
atasewera
atasinthidwa
atasiya
atataya
atate
atatenga
atatha
atatsala
atatsegula
atatu
atatuluka
atatulutsidwa
atatumizidwa
atatuwa
atavala
atavomereza
atavulala
atawona
atayamba
atayendera
atazindikira
atene
atenge
atesalonika
ateteze
atha
athandize
athandizidwe
athandizire
athane
athe
athens
athetse
athetsere
athlete
athletic
athu
athunthu
ati
atlanta
atlantic
atlantis
atlas
atmospheric
atolankhani
atoleza
atomic
atsala
atsamunda
atsegule
atseke
atsikana
atsimikizira
atsimikizire
atsitsi
atsogolere
atsogoleri
atsogoza
atsopano
atsopanowa
attati
attorney
atukuke
atuluke
atulukira
atumiki
atumikire
atumizidwa
atumwi
au
aubongo
august
augusto
aukadaulo
aukhondo
auli
australia
austria
austrian
authority
autism
autonomous
auxiliari
aveiro
avenue
avereji
avery
aviation
avomereze
avril
avulala
aw
awa
awachotse
award
awards
awiri
awiriwa
awiriwo
awo
awonedwe
awonekere
awonetsetse
awonjezere
axis
ayamba
ayambe
ayenera
ayi
ayime
ayuda
az
azachipatala
azachuma
azaka
azaumoyo
azerbaijan
azichita
azigwira
azigwiritsa
azikayezetsa
azikhala
azikhalidwe
azilandira
azimayi
azipatsidwa
aziperekedwa
azisewera
azisunthira
azitha
azungu
b
ba
bach
bachelor
backgroundcolors
backing
bacterial
bad
badwo
baghdad
bahamas
bahrain
baibulo
bail
bailey
bajeti
baker
bakili
bakiteriya
baku
bala
balaka
balaton
bale
balkan
ball
ballet
ballon
ballons
balmoral
balochistan
baltic
bamako
bambo
band
banda
bang
bangalore
bangkok
bangladesh
bangula
banja
banjali
banjul
bank
banki
banknote
bantu
baptist
baptisti
bar
barack
barbados
barbara
barbuda
barcelona
barney
barotziland
barre
barry
bars
bartlett
base
based
basel
basi
basic
basildon
basketball
baskin
bass
bastia
bata
batak
batani
bath
batman
battle
bay
bb
bbc
bc
bcg
be
beach
beachcomber
bear
bears
beatles
beats
beau
begawan
beijing
bel
belarus
belgian
belgium
belgrade
belize
ben
benin
benjamin
benjamini
benkler
bennett
benz
benzodiazepines
berber
bering
berkeley
berkman
berlin
bermuda
bernabe
bernard
bertrand
best
bethel
betty
bgp
bhat
bhutan
bible
biblical
biden
big
bilbao
biliyoni
bill
billboard
billed
billie
billy
bin
bing
bingu
biography
biology
birth
birthplace
bisau
bishop
bishops
bishopu
bitcoin
bitcoins
bizinesi
bizzy
black
blackburn
blacks
blantyre
blica
blind
bloc
block
blockchain
bloemfontein
blog
blogs
blood
bloomberg
bloomington
blue
bo
board
bob
bodyline
boehner
boeing
boggs
bogota
bohemia
bokosi
bokosilo
bola
bolivia
bolodi
boma
bomba
bomis
bondo
bongo
book
booker
books
boot
booth
bordeaux
border
bordoni
boris
bork
born
borneo
borough
borrell
borussia
bosna
bosnia
boston
botanical
botrytis
botswana
bottom
bourg
bourgeois
bouteflika
bowa
bowles
box
boy
brand
brandywine
brasi
bratislava
braun
brazil
brazzaville
bre
break
breaking
breaks
brexit
brezhnev
brian
bride
bridge
bridgetown
brigade
briggs
brighton
brigitte
bristol
britain
britannica
briteni
british
britons
broadway
brody
brondesbury
bronze
brooks
bros
brother
brothers
brown
brownish
bruce
brugge
brunei
brunswick
brussels
bruyne
bsac
bst
bucharest
buckingham
budapest
budget
buenos
buet
buffaloes
bufi
bug
buhari
build
building
bujumbura
bukhu
buku
bukuli
bulauni
bulgaria
bulu
buluu
bundesliga
bundeswahlleiter
bungie
bungwe
bungweli
burden
bureau
burger
burisma
burkina
burma
burundi
bush
business
butler
butterfly
bwalo
bwaloli
bwana
bwanamkubwa
bwanji
bwato
bwenzi
bwezani
bwino
bwinobwino
by
byrne
c
ca
caac
caan
cabinda
cabinet
cabo
caesar
caf
cai
cairo
cajanus
calabria
california
caligari
callista
calmette
cambodia
cambridge
cameroon
camilla
camp
campaign
campus
can
canada
canal
canon
canterbury
cantwell
canvas
cape
capital
capitol
captain
carbon
card
cardiff
care
caribbean
carl
carlo
carlos
carnegie
carolina
caroline
carson
carter
carvalho
case
cases
caspian
cassius
castle
cataract
category
cathedral
catherine
catholic
cause
causes
cayce
cbs
cc
ccam
ccdc
cd
cdc
ce
cecilia
ceev
celtic
censorship
census
center
centers
central
century
ceo
ceylon
cg
ch
cha
chabe
chabodza
chabwino
chachikhristu
chachikulu
chachinayi
chaching
chachinsinsi
chachisanu
chachitatu
chachiwiri
chad
chadziko
chain
chairman
chaka
chakale
chake
chakuamba
chakudya
chakufwa
chakum
chakumadzulo
chakumapeto
chakumpoto
chakumwera
chakupambana
chakupha
chakutali
chakuti
chakwera
chalamulo
chalo
cham
chamadzi
chamadzulo
chamakono
chamankhwala
chamayiko
chamba
chamber
chambers
champhamvu
champion
champions
championship
championships
chancellor
chandalama
chandale
chandamale
changa
change
channel
chansa
chapadera
chapadziko
chapafupi
chapakati
chapamwamba
chapel
chapman
chaposachedwa
chapter
charity
charles
charlie
charlotte
chart
charter
chatha
chati
chatsopano
chatsopanochi
chatu
chaucer
chaukwati
chaumoyo
chauncy
chawo
chawonjezeka
chazamalamulo
chazovuta
cheers
chef
chelsea
chemistry
chengdu
chenicheni
chenjezo
chernihiv
chernobyl
chernomyrdin
chester
chete
chewa
chi
chiarabu
chibayo
chiberekero
chiberekerocho
chibvumbulutso
chibwenzi
chicago
chichew
chichewa
chichirikizo
chida
chidachitika
chidakali
chidakhala
chidali
chidaliro
chidani
chidapambana
chidaperekedwa
chidindo
chidole
chidule
chidwi
chidziw
chidziwikiranso
chidziwitso
chief
chiefs
chiesperanto
chiestonia
chifalansa
chifaniziro
chifrenchi
chifu
chifukwa
chifundo
chifuwa
chigamulo
chigamulochi
chigamulocho
chiganizo
chigawo
chigawochi
chigiriki
chigoli
chigololo
chigonjetso
chigumula
chigwa
chigwirizano
chihana
chiheberi
chihebri
chijeremani
chijojiya
chikalata
chikanakhala
chikasu
chikatolika
chikhale
chikhalidwe
chikho
chikhomo
chikhoza
chikhristu
chikhulupiliro
chikhulupiriro
chikhumbo
chikoka
chikominisi
chikomyunizimu
chikondi
chikondwerero
chikristu
chikubwera
chikuku
chikulamayembe
chikumbumtima
chikumbutso
chikuyenda
chikwama
chikwangwani
chikwawa
chikwi
chilamulo
chilango
chilankhulo
chilankhulochi
chilatini
child
children
chile
chilembwe
chilengedwe
chilengezo
chili
chilichonse
chililabombwe
chilimbikitso
chilimwe
chilipo
chilolezo
chilonda
chiluba
chilumba
chilumbachi
chilungamo
chimachititsa
chimachokera
chimadutsa
chimadziwika
chimafika
chimagwira
chimagwiritsidwa
chimakhala
chimakwirira
chimalankhulidwa
chimanga
chimapangidwa
chimaphatikizapo
chimatanthawuza
chimatchedwa
chimatha
chimawoneka
chimayambitsa
chimayang
chimayankhulidwa
chimene
chimenechi
chimenecho
chimfine
chimodzi
chimodzimodzi
chimwevo
china
chinachake
chinachitika
chinakhazikitsidwa
chinakula
chinalengeza
chinali
chinalipo
chinalow
chinangwa
chinanso
chinapambana
chinapangidwa
chinapatsa
chinaperekedwa
chinapeza
chinasintha
chinathetsedwa
chinayamba
chinayambira
chinayambitsidwa
chinayi
chindapusa
chinenero
chinenerocho
chinese
chingelezi
chingerezi
chingwe
chino
chinsinsi
chinterligue
chinthu
chinyanja
chinyengo
chinyezi
chionglo
chiopsezo
chip
chipangano
chipani
chipanichi
chipata
chipatala
chipatso
chipembedzo
chipembere
chipepeso
chipewa
chiphunzitso
chipika
chipikacho
chipinda
chipolopolo
chipongwe
chiprotestanti
chipululu
chipulumutso
chipwirikiti
chipwitikizi
chiradzulu
chirasha
chiri
chirichonse
chirwa
chisamaliro
chisanachitike
chisanafike
chisangalalo
chisankho
chisankhochi
chisankhocho
chisanu
chisenga
chishango
chisilamu
chisindikizo
chisipanishi
chisiza
chisokonezo
chisomo
chisoni
chispanya
chisudzulo
chitaganya
chitaliyana
chitani
chitatu
chitetezo
chithandizo
chithunzi
chithunzichi
chithunzicho
chitsamunda
chitsanzo
chitsimikiziro
chitsogozo
chitsulo
chitsutso
chitukuke
chitukuko
chitumbuka
chiukitsiro
chiume
chiuno
chivalencia
chivomerezi
chivomerezichi
chivomerezo
chivundikiro
chiwanga
chiwawa
chiwembu
chiwembuchi
chiwembucho
chiwerengero
chiwerengerochi
chiweruzo
chiwetel
chiwewe
chiwindi
chiwindicho
chiwiri
chiwombankhanga
chiwonetsero
chiwongola
chiwongolero
chiwonongeko
chiwopsezo
chiyambi
chiyambireni
chiyanjanitso
chiyanjano
chiyankhulo
chiyembekezo
chiyenera
chiyero
chiyuda
chiyukireniya
chizindikiritso
chizindikiro
chizindikirocho
chizolow
chizolowezi
chizungu
chloe
chochepa
chochita
chochitika
chochitikacho
chochititsa
chochokera
chochuluka
chodalirika
chodana
chododometsa
chodyera
chodziwika
chofala
chofanana
chofananira
chofotokozera
chofuna
chofunika
chofunikira
chogona
chogonjetsa
chogulitsa
chogwiritsira
chogwirizana
chojambula
chojambulidwa
chojambulira
choka
chokha
chokhacho
chokhala
chokhazikika
chokhudza
chokoka
chokomera
chokonzekera
chokwanira
chokwera
cholakwa
cholakwika
cholamula
cholamulira
cholankhula
cholankhulana
cholembedwa
cholembera
cholengedwa
cholimba
cholimbana
cholimbikitsa
cholinga
cholowa
cholozera
cholumidwa
chomaliza
chombo
chomera
chomeracho
chomveka
chomwe
chomwecho
chonchi
choncho
chonde
chongofuna
chongwe
chonse
choonadi
choopsa
chopanda
chopanga
chopangidwa
chopeza
chopha
chophimba
chophwanya
chosadana
chosagwirizana
chosankha
chosapikisana
chosintha
chosiyana
chosonyeza
chosowa
chotchedwa
chotenga
chotero
chothandizira
choti
chotsatira
chotsatiracho
chotsika
chotsogola
chotsutsa
chotsutsana
chovala
chovomerezeka
chovulala
chovuta
chowala
chowiringula
chowombera
chowona
chowonadi
chowonetsa
choyamba
choyambiranso
choyambirira
choyambitsa
choyenera
choyenerera
choyera
chris
christian
christianity
christina
christine
christmas
christon
christopher
chrysalis
chuma
church
churchill
cinderella
cinema
cinematic
cinerea
circle
circus
city
civil
cke
cla
claire
clapham
clara
clarence
clarendon
clark
claspers
class
classical
clemence
climate
clinch
clinical
clinton
cloud
clowns
club
cm
co
coalition
coast
coat
cobar
cobbe
cocaine
cochrane
cocoons
code
col
cold
coleman
collaborators
collection
college
collegeville
collins
cologne
colombia
colombo
colonel
colonial
colonialism
color
colorado
colors
columbia
columbian
columbus
com
combat
come
comedy
comes
comesa
comics
command
commentary
commerce
commission
commissioner
committee
commodore
common
commons
commonwealth
communications
communism
communist
community
companion
company
compilation
complete
conakry
concern
concussion
conde
conference
congo
congress
connor
conservation
conservatism
conservative
conservatives
conservatory
console
constantine
constantinople
constitution
constitutional
continental
continuing
control
convention
convert
conway
cools
cooper
cooperation
copa
copenhagen
corinna
corinth
cornelia
cornwall
coronavirus
corporation
corps
cortana
corun
cosmoglot
cosmoglott
cosmoglotta
costa
costalago
cough
council
countries
country
county
court
courts
cov
covid
cox
cp
cpsu
crato
creative
cretaceous
crete
crew
cricket
crime
crimea
crisis
cristal
cristiano
criticism
croatia
cropped
crosby
cross
crown
cruz
css
cuba
culmer
cultural
culture
cunningham
cup
cups
curitiba
current
curve
cygni
cynthia
cyprus
czech
czechia
czechoslovakia
d
da
daar
daily
daka
dakar
daley
damasiko
dambisa
dambo
dame
damn
damselflies
damu
dan
dance
dancehall
dancers
dane
danica
daniel
danieli
danish
danny
danube
dark
darkgrey
data
database
dateformat
daughters
david
davide
davies
davis
dawn
day
dc
dcs
de
dean
dear
death
debbie
deborah
debut
december
declaration
dedza
deep
defence
defense
degree
del
delari
delaware
delhi
delicate
delimar
delta
deluxe
dem
demi
democracy
democrat
democratic
democrats
demographics
demokalase
demokilase
den
denis
denmark
dennis
department
deportivo
deputy
der
dera
derali
deralo
dervishes
deryck
des
design
despite
deta
detective
detroit
deuce
deuteronomo
development
devil
devious
devpols
dhabi
dhaka
di
dia
diana
diane
dick
dictionary
die
diego
dies
digiri
digital
digito
dikishonale
dimbleby
dionysius
dipatimenti
diploma
diplomacy
diplomatic
dipuloma
dir
directiv
director
directorate
disambig
discography
discussion
discussiones
disease
diseases
disembala
disney
diso
disorder
distance
district
divine
division
dj
djibouti
dna
dnipro
dns
do
doctor
doctrine
documentary
doi
doko
dokotala
dolly
dom
domain
domecq
dominica
dominican
dominion
don
donald
donbas
donetsk
donetskii
dong
dongosolo
dongosololi
donkey
donut
doo
doors
dos
dothi
dotolo
double
douglas
doumbouya
down
dpp
dpr
dr
draft
dragon
dragonflies
dragonfly
drama
dre
dream
dresden
drone
drones
drug
drum
dslr
dslrs
dsm
du
dubai
dublin
duchess
duchy
duke
dunduzu
dunn
duo
dupont
durban
during
durvesh
dutch
dvd
dx
dxomark
dynamo
dynamos
dzanja
dziko
dzikoli
dzikolo
dzilo
dzina
dzinali
dzinalo
dzinja
dzira
dziralo
dziwani
dziwe
dzuw
dzuwa
e
ea
eaqf
earl
earlier
early
earth
east
eastern
eastman
easy
ebola
economic
economics
ecuador
ed
eden
edgar
edge
edin
edinburgh
edit
edita
edition
editions
edmund
edu
education
edward
edzi
eerdmans
effect
efl
egypt
eintracht
ejiofor
ek
ekesodo
ekwendeni
el
election
elections
electoral
electric
electronic
elementary
elft
elias
elina
elisabeth
elite
elites
elizabeth
elizabeti
ellen
ellis
elsevier
elvis
emanuel
embolism
emergency
emetica
emiliano
eminem
emirates
emma
emmerson
emmy
emperor
empire
en
ena
enaake
enamul
enanso
enawo
enciclope
encomium
encore
encyclopaedia
encyclopedia
encyclopædia
end
ended
energy
enforcement
engagement
engelbert
engineering
england
english
eni
enieni
entertainment
ep
epidemiol
epidemiological
epidemiology
epulo
equatorial
era
eredivisie
erengero
eric
ericsson
eritrea
ernest
ero
es
esino
esperanto
essential
essentialmedicines
essex
estere
esther
estla
estonia
estonian
eswatini
et
etc
ethiopia
etsedwamo
eu
eurasia
euro
euromaidan
europa
europe
european
europu
eva
evan
evans
everard
evic
evolved
examinations
excellency
exchange
executive
expeed
expert
expo
exuberant
eyapoti
eye
ezara
ezekieli
ezi
f
fa
faa
fabian
facebook
fact
facts
faculty
failed
fainali
fair
falcon
falkland
falls
fam
fame
family
famu
fanani
fano
faq
far
farm
fashion
faso
fast
father
fbk
fc
fcc
fe
feature
february
febuluale
febuluwale
fed
federal
federalization
federation
feduro
feeding
feet
fellow
fellowship
female
fenty
ferguson
fernandez
festival
feteleza
fever
few
feyenoord
fgm
fi
fiction
field
fifa
fifth
figuera
fiji
fikirani
file
filimu
filimuyi
filimuyo
film
filmography
filosofi
final
finals
finance
financial
finch
fine
finland
fireteam
firimuyi
first
fkutchulidwa
flash
fleet
flight
florida
flow
flower
flowering
flowers
fm
fodya
foetidus
folio
folsom
fomu
foni
fonseca
fontsize
food
fool
football
for
forbes
force
forces
foreign
forerunner
forerunners
forest
forge
form
format
fort
forum
forward
foundation
four
fox
fr
frameless
franc
france
franchise
francis
francisco
frank
frankfurt
franklin
franks
frans
fred
frederick
free
freedom
frelimo
french
frieda
friedrich
friends
frog
from
front
frontline
frs
ft
fu
fuko
fumio
funafuti
fund
fundo
fungal
fungo
funso
fupi
fyuluta
g
gabriel
galamala
galasi
galaxy
galimoto
galimotoyo
gallery
galu
gambia
game
games
gamespot
ganges
ganizo
ganizoli
garci
garcia
garden
gardner
gareth
garrick
gary
gas
gasi
gates
gateway
gawo
gawoli
gawolo
gay
gazette
gazprom
gbd
gclm
gcmg
gcvo
gdan
gdp
ge
gehena
gelb
gender
general
genesis
geneva
genital
genoa
geoffrey
geographical
geography
george
georgetown
georgia
german
germany
gertie
get
getafe
gh
ghana
ghetto
gi
gilbert
giovanni
girl
girls
gitala
giuffre
give
gje
glasgow
glaucon
glazyev
global
glossary
glyn
glynis
go
god
godfrey
gogh
gold
goldberg
golden
golide
gombe
gomez
good
gordon
gorilla
gospel
gov
government
governor
gowrie
gps
gr
grade
grammar
grammy
granada
grand
grande
graphic
gravemind
gray
great
greater
greece
greek
green
greenland
greenville
greg
gregorian
gregory
grenada
grenade
grenadines
grey
gridcolor
griffith
grimwood
groove
ground
group
gruberova
gt
guangxi
guangzhou
guard
guardian
guardians
guatemala
gue
guiana
guidance
guide
guidelines
guido
guillain
guilty
guinea
guinness
guitar
gulf
gulu
gulugufe
gululi
gululo
gun
gurnah
gustav
guy
guyana
gwanda
gwelo
gwero
gweru
gymnophaps
h
ha
haangala
habakuku
haddish
hafu
hagai
haifa
haiti
hakainde
hale
halfway
hall
halo
halos
halsey
halyna
hamburg
hamdok
hamilton
hammock
hampshire
hangzhou
hanna
hanoi
hanover
hans
hansen
happy
haque
harare
harbin
harbor
hardwick
hare
hargrett
harlesden
harnai
harold
harper
harpercollins
harris
harry
hart
harvard
has
hashi
hashim
hassan
hastings
hat
hathaway
haus
hauv
have
haven
hawaii
hawk
hbo
hbv
hdr
he
health
heart
heath
heather
hedge
heidelberg
height
heighway
helen
helena
helikopita
hellebore
hellebores
hellebori
helleborus
helsinki
hemisphere
hemsworth
henga
henry
hepataitisi
hepatitis
hepburn
her
heraklion
herald
herbert
here
heritage
herodi
herzegovina
hetman
hewitt
hib
hichilema
high
higher
highland
highway
hilda
hill
hillary
hills
hilter
hilton
himanshu
hip
hippies
hira
his
historical
history
hit
hitler
hiv
ho
hockessin
hoffmann
holdings
holiday
holidays
hollande
hollywood
holmes
holo
holocaust
home
honduras
hong
honiara
hood
hook
hoop
hoopers
hooping
hop
hope
horn
horror
horton
hoseya
hospital
hot
hotel
hotelo
hotels
hotspur
hour
house
hovenkamp
how
howard
hoyle
hsbc
html
http
https
hu
huawei
hubert
hudson
hug
hughes
hugo
hula
human
humphrey
hungarian
hungary
hunter
husband
hussein
hutabarat
hutchins
hyderabad
hydro
i
iafrika
ian
ibrahim
ic
icd
iceland
ichi
icho
ict
id
idabwereranso
idachita
idachitika
idachitikira
idachokera
idachotsedwa
idafanana
idafika
idagawika
idagoletsa
idagonja
idagonjetsa
idagundidwa
idagwa
idagwiritsa
idagwiritsidwa
idakana
idakhala
idakhalabe
idakhazikitsa
idakhazikitsidwa
idakonzedwa
idakonzedwanso
idakumana
idakumananso
idakwanitsa
idakwera
idalanda
idalandidwa
idalandira
idalemba
idalengeza
idali
idalimbikitsa
idalowa
idamenya
idamenyedwa
idanyamuka
idapambana
idapambananso
idapangidwa
idapatsidwa
idapempha
idapereka
idaperekedwa
idapeza
idapita
idapitilira
idasaina
idasankha
idasankhidwa
idasewera
idaseweredwa
idasinthidwa
idasinthidwanso
idatenga
idatha
idathetsa
idati
idatsegulidwa
idatsika
idatsimikizira
idatsogola
idatsogolera
idatulutsa
idavomereza
idavomerezedwanso
idawona
idayamba
idayang
idayenera
ideal
idzachitike
idzakhala
idzatsatira
idzayamba
ie
if
ife
iffhs
ifike
igwire
ii
iii
iis
ija
ika
ikadagwiritsidwa
ike
ikhale
ikhoza
ikubwera
ikufalikira
ikufotokoza
ikufuna
ikugwedezeka
ikugwira
ikugwiritsidwa
ikugwirizana
ikukula
ikulemba
ikuluikulu
ikupambana
ikuphatikizapo
ikupita
ikupitirira
ikuthandizira
ikutsogolera
ikuyendera
il
ili
ilia
ilibe
ilinso
ilipo
iliyonse
iliza
illinois
ilo
im
imabweretsa
imachitika
imachokera
imadalira
imadutsa
imadwalitsa
imadziwika
imadziwikanso
imagawidwa
image
images
imagesize
imagwera
imagwira
imagwiritsa
imagwiritsidwa
imagwiritsidwanso
imakhala
imakonda
imakula
imalandira
imalola
imalongosola
imani
imapanga
imapangidwa
imapangitsa
imapereka
imaperekedwa
imapezeka
imaphatikizapo
imapikisana
imasewera
imaseweredwa
imasinthidwa
imasonyeza
imatchedwa
imatchedwanso
imatenga
imatengedwa
imatha
imathamanga
imathandiza
imathandizira
imati
imayamba
imayambira
imayambitsa
imayang
imayendetsa
imayenera
imelo
imene
imeneyi
imeneyo
imfa
img
imodzi
imodzimodziyo
impact
imperial
imperialism
impso
in
ina
inachita
inachitika
inachitikira
inachititsa
inachokera
inachotsedwa
inadutsa
inafotokoza
inafotokozedwa
inagonjetsa
inagwa
inagwiritsanso
inakambidwa
inakhala
inakhazikitsa
inakhazikitsidwa
inakonza
inakonzedwa
inakula
inalandira
inalemba
inalembedwa
inalengeza
inali
inalimbikitsa
inalinso
inalowa
inamangidwa
inamuthera
inanena
inapanga
inapangidwa
inapereka
inaphatikizapo
inasankhidwa
inasindikizidwa
inatengera
inatha
inathandiza
inati
inatsegulidwa
inatsekedwa
inatulutsidwa
inaugural
inavomereza
inayake
inayamba
inayambika
inayang
inayi
inayo
inc
include
including
increment
independence
independent
index
india
indian
indiana
indicator
indies
indonesia
indonesian
industrial
industry
ine
infantry
infection
infibulation
infinite
infinity
influential
information
ingakhale
ingapo
initiative
injini
injiniya
inkafunika
inkagwira
ino
inspector
instagram
institut
institute
int
intaneti
intelligence
inter
interactive
intercontinental
interface
interim
interlingue
internacional
internal
international
internationale
internet
into
introduction
inu
inurme
iowa
ip
ipa
ipambane
ipange
ipita
ipl
iprage
ipswich
iran
iraq
iraqi
ire
ireland
iri
iridium
irikaw
irish
irving
is
isaac
isaaq
isaki
isanachitike
isanafike
isanagwe
isanakwane
isanayambe
isanu
isbn
isi
isil
isitala
isixhosa
iskander
islam
islamabad
islamic
island
islands
isle
iso
israel
israeli
istanbul
it
itabwerera
itagonjetsa
itakonzedwanso
italia
italiya
italy
itatha
itatu
itf
itha
its
itso
itu
iulian
iv
ivory
iwiri
iwiriyi
iwo
iwonetseke
iwowa
iwowo
iye
iyemwini
iyenera
iyenso
iyeyo
iyeyu
iyi
iyo
izi
izipangitse
izo
j
jaan
jack
jackson
jacob
jacobs
jacqueline
jada
jakarta
jakiseni
jakisoni
jam
jamaica
james
jameson
jan
jane
janet
january
januwale
januware
japan
japanese
jarrett
jason
jay
jazz
je
jean
jeans
jedi
jen
jenner
jennifer
jenny
jepkosgei
jeremy
jerome
jersey
jerusalem
jesse
jester
jesus
jewish
jibril
jill
jim
jimmie
jimmy
jinping
jjarts
jo
joan
job
jobs
joe
johan
johann
johannesburg
john
johns
johnson
johnston
joint
jolie
jomsom
jon
jonathan
jones
jonker
jorge
jose
joseph
josephine
joshi
journal
journey
joyce
jpg
jr
ju
juba
judaism
judiciary
judith
judy
jul
julaye
julayi
julian
julien
juliet
julius
july
june
juni
junior
juris
jus
just
justice
justin
juventus
k
ka
kaamba
kabwe
kachilombo
kachilomboka
kachirombo
kachitatu
kachitidwe
kachiwalo
kachiwiri
kadumphidwe
kadzamira
kafukufuku
kaiserslautern
kakang
kake
kalabu
kalabuyo
kalasi
kalata
kale
kalekale
kalembedwe
kalembera
kalendala
kalli
kalonga
kamanga
kamene
kameneka
kamera
kamkwamba
kammersa
kamodzi
kampala
kampani
kampaniyo
kampeni
kampu
kampuchea
kamuzu
kamwa
kan
kanali
kanayi
kanema
kanemayo
kangapo
kangwa
kanpur
kansas
kanthawi
kanthu
kantu
kanyama
kanyumba
kapangidwe
kapena
kapenanso
kapitolo
kapu
kaputeni
kapwepwe
karachi
karanj
karlsruhe
karonga
kasambara
kasanu
kaseba
kashmir
kasungu
katangale
katatu
katekisma
katekismayi
katemera
katemerayi
katemerayu
katherine
kathleen
kati
katie
katolika
katswiri
katundu
kaunda
kavalidwe
kaw
kawiri
kawirikawiri
kaya
kaye
kayendedwe
kayendetsedwe
kazakhstan
kazembe
kcmg
ke
keegan
keith
kelbergstadion
kelley
ken
kenaka
kenako
kennedy
kennelly
kenneth
kensington
kent
kenya
kepa
kerensky
kev
kevin
keyes
kg
kgb
kgomotso
khadi
khalani
khalidwe
khalidweli
khama
khamu
khan
khanda
khansa
khansala
kharkiv
khartoum
khate
khazikitsani
kherson
khirisimasi
khmer
khoisan
khola
kholo
khomo
khonsolo
khosi
khothi
khoti
khrisimasi
khristu
khumi
khungu
kick
kilabu
kilburn
killa
kilomita
kim
king
kingdom
kingston
kinnock
kinshasa
kippur
kiribati
kishida
kiss
kiste
kitts
kitty
kitwe
kiwanis
kiyi
klabu
klerk
km
knesset
knight
knights
known
ko
kochepa
kochokera
kodak
kodi
kodziwika
kofala
kofanana
kofulumira
kofunika
kofunikira
kokha
kokhala
kokhazikika
kokwanira
kolala
koleji
koletsedwa
kolkata
koloko
koma
komabe
komaliza
komanso
komiti
komitiyi
komitiyo
kompasu
komwe
komweko
komweku
konami
kong
kono
konotop
konse
kontinenti
kontinentiyi
koopsa
kopambana
kope
koposa
korc
korea
korona
kosadziwika
kosalekeza
kosayembekezereka
kosovo
kotala
kotentha
kotereku
kotero
kothandiza
kotheka
kotheratu
kotsika
kovidi
kovomerezeka
kovuta
koyamba
koyambilira
koyambirira
koyambitsa
kozungulira
krako
krein
krements
krete
kristu
kroeger
ku
kuala
kubadwa
kubandwa
kubanja
kubatizidwa
kubereka
kublai
kubwalo
kubwera
kubwerera
kubwereranso
kubweretsa
kubwereza
kubwezanso
kubwezera
kubwezeretsa
kubwezeretsanso
kubzala
kuchedwa
kuchenjeza
kuchepa
kuchepetsa
kucheza
kuchigawo
kuchipatala
kuchira
kuchita
kuchitanso
kuchitapo
kuchitidwa
kuchitika
kuchitikira
kuchitira
kuchitiridwa
kuchititsa
kuchiza
kuchoka
kuchokela
kuchokera
kuchotsa
kuchotsedwa
kuchotsera
kuchuluka
kuchulukitsa
kudachitika
kudakhala
kudalira
kudana
kudandaula
kudapangitsa
kudatsika
kudatulutsidwa
kudayamba
kudera
kudikirira
kudula
kudutsa
kudwala
kudya
kudyera
kudyetsa
kudyetsedwa
kudzabwera
kudzakhala
kudzayamba
kudzaza
kudzera
kudziko
kudzikwanilitsa
kudzilamulira
kudziletsa
kudzimanganso
kudzipatula
kudzipereka
kudzipha
kudzisamalira
kudziwa
kudziwika
kudziwitsa
kudziyimira
kudzoza
kudzudzula
kudzutsidwa
kufa
kufala
kufalikira
kufalitsa
kufalitsidwa
kufanana
kufiira
kufika
kufikira
kufooka
kufota
kufotokoza
kufotokozedwa
kufotokozera
kufufuza
kufufuzidwa
kufuna
kufunafuna
kufunika
kufunikira
kufunitsitsa
kufunsa
kufupi
kufuula
kuganiza
kuganizira
kuganiziranso
kugawa
kugawidwa
kugawidwanso
kugawira
kugoletsa
kugombe
kugonana
kugonja
kugonjetsa
kugonjetsedwa
kugula
kugulitsa
kugulu
kugunda
kugwa
kugwedeza
kugwidwa
kugwira
kugwirana
kugwiriridwa
kugwiritsa
kugwiritsidwa
kugwiritsidwanso
kugwiritsira
kugwiritsiridwa
kugwirizana
kugwirizanitsa
kuika
kuikidwa
kuima
kuimba
kuimira
kuimitsa
kuitana
kuitanidwa
kuitanitsa
kujambula
kukachezera
kukachita
kukafika
kukagula
kukakamiza
kukakamizidwa
kukakumana
kukambirana
kukamenyana
kukana
kukangana
kukankha
kukankhira
kukantha
kukapezeka
kukaphunzira
kukatenga
kukayezetsa
kukayikira
kukha
kukhala
kukhalabe
kukhalanso
kukhalapo
kukhale
kukhazikika
kukhazikitsa
kukhazikitsidwa
kukhetsa
kukhosomola
kukhothi
kukhudza
kukhudzidwa
kukhulupirika
kukhumudwa
kukhutitsidwa
kukokera
kukonda
kukondwerera
kukondweretsa
kukongola
kukonza
kukonzanso
kukonzekera
kukopa
kukucheperachepera
kukula
kukulitsa
kukumana
kukumbatira
kukumbukira
kukuyembekezeka
kukwaniritsa
kukwatirana
kukwera
kukweza
kulakwitsa
kulamulidwa
kulamulira
kulanda
kulandidwa
kulandira
kulankhula
kulankhulana
kulawa
kulemba
kulembedwa
kulembera
kulembetsa
kulemekeza
kulemera
kulenga
kulengeza
kulephera
kulepheretsa
kulera
kuletsa
kuletsedwa
kuli
kulibe
kulikonse
kulima
kulimba
kulimbana
kulimbikitsa
kulimbitsa
kulipira
kulira
kulola
kuloledwa
kulow
kulowa
kulowera
kulowererapo
kulowetsa
kulumbira
kulumikiza
kulumikizana
kulumpha
kum
kumachita
kumachitika
kumadera
kumadzulo
kumagwiritsidwa
kumakhala
kumalandira
kumalephera
kumalila
kumalire
kumaliseche
kumaliza
kumalo
kumanda
kumanga
kumangidwa
kumangidwanso
kumanja
kumanzere
kumapangitsa
kumapereka
kumapeto
kumapezeka
kumasewera
kumaso
kumasula
kumasulidwa
kumasulira
kumasuliridwa
kumatanthauza
kumatanthawuza
kumatchedwa
kumatchulidwa
kumatendawa
kumatha
kumathandiza
kumawoneka
kumayambira
kumayambiriro
kumayambitsa
kumayang
kumayiko
kumbali
kumbuyo
kumene
kumeneko
kumeneku
kumenya
kumenyana
kumenyedwa
kumeta
kumidzi
kuminyewa
kummawa
kummwera
kumodzi
kumpoto
kumsonkhano
kumtsinje
kumtunda
kumtundu
kumudzi
kumukakamiza
kumulandira
kumumeta
kumunsi
kumupatsa
kumuthandiza
kumutu
kumuuza
kumuvina
kumuyamikira
kumuyeza
kumva
kumveka
kumvera
kumvetsetsa
kumvuma
kumwa
kumwalira
kumwamba
kumwera
kunachitika
kunachititsa
kunakhala
kunalepheretsedwa
kunali
kunalibe
kunamupangitsa
kunapangitsa
kunapezeka
kunatanthauza
kunatsegulidwa
kunatsiriza
kunayamba
kunayambika
kunayambira
kunayambitsa
kundende
kunena
kungoyerekeza
kungoyitana
kunja
kunjenjemera
kunjira
kunkhondo
kunming
kuntchito
kunyada
kunyamuka
kunyamula
kunyamulidwa
kunyozedwa
kunyumba
kuofesi
kuona
kuonedwa
kuoneka
kuonekera
kuonetsetsa
kuonjezera
kuopa
kuopsa
kuopseza
kupachikidwa
kupambana
kupanga
kupangidwa
kupanikizika
kupatsa
kupatsidwa
kupatsira
kupatula
kupatulapo
kupatutsa
kupembedza
kupempha
kuperedwa
kupereka
kuperekedwa
kuperewera
kupewa
kupeza
kupezeka
kupha
kuphana
kuphatikiza
kuphatikizapo
kuphatikizidwa
kuphatikizira
kuphedwa
kuphika
kuphimba
kuphulika
kuphulitsa
kuphunzira
kuphunzitsa
kuphwanya
kupikisana
kupirira
kupita
kupitilira
kupitiliza
kupitirira
kupitiriza
kupititsa
kupondereza
kuponyedwa
kuponyera
kupopera
kuposa
kuposerapo
kupulumuka
kupulumutsa
kupuma
kupumula
kupweteka
kupyola
kupyolera
kurt
kusachita
kusadalila
kusadulidwa
kusagwirizana
kusaina
kusaka
kusakhala
kusakhazikika
kusakhulupirika
kusakhutira
kusamalidwa
kusamalira
kusamba
kusamuka
kusamukira
kusamutsidwa
kusamvana
kusamvera
kusanachitike
kusanduka
kusangalala
kusangalatsa
kusankha
kusankhana
kusankhidwa
kusankhidwanso
kusanza
kusefukira
kuseka
kusekondale
kuseri
kusewera
kuseweredwa
kusindikiza
kusindikizidwa
kusintha
kusinthaku
kusinthana
kusinthanitsa
kusinthasintha
kusinthidwa
kusinthika
kusiya
kusiyana
kusiyanasiyana
kusiyanitsa
kusokoneza
kusokonezeka
kusonkhanitsa
kusonyeza
kusowa
kusukulu
kusunga
kusungidwa
kusungitsa
kusuntha
kusuta
kuswana
kutali
kutalika
kutanthauza
kutanthauzira
kutatsala
kutaya
kutayika
kutcha
kutchalitchi
kutchedwa
kutchuka
kutchula
kutchulidwa
kutembenuka
kutembenukirana
kutenga
kutengapo
kutengera
kutentha
kutero
kuteteza
kutetezedwa
kutetezera
kutha
kuthamanga
kuthamangira
kuthamangitsa
kuthamangitsidwa
kuthana
kuthandiza
kuthandizidwa
kuthandizira
kuthaw
kuthawa
kuthawira
kuthekera
kutheratu
kuthetsa
kuthirira
kuti
kutonthoza
kutsanzira
kutsata
kutsatila
kutsatira
kutsatiridwa
kutsatizana
kutsatsa
kutseguka
kutsegula
kutsegulira
kutseka
kutsekedwa
kutsekera
kutsekeredwa
kutsekereza
kutsika
kutsimikizira
kutsiriza
kutsogola
kutsogolera
kutsogolo
kutsogozedwa
kutsutsa
kutsutsana
kutsutsidwa
kutukula
kutuluka
kutulutsa
kutulutsidwa
kutumikira
kutumiza
kutumizidwa
kutupa
kuuka
kuukira
kuukiraku
kuukitsidwa
kuupereka
kuvala
kuvina
kuvomera
kuvomereza
kuvomerezedwa
kuvomerezeka
kuvulala
kuvulaza
kuvutika
kuvutitsidwa
kuwait
kuwala
kuwalamula
kuwalimbikitsa
kuwapanga
kuwapatsa
kuwathandiza
kuwawona
kuwerenga
kuwerengera
kuwirikiza
kuwoloka
kuwombera
kuwomberako
kuwomberana
kuwona
kuwonedwa
kuwonekera
kuwonetsa
kuwonetsera
kuwonetsetsa
kuwongolera
kuwonjezeka
kuwonjezera
kuwonjezereka
kuwononga
kuwonongedwa
kuwonongeka
kuwopa
kuwopseza
kuwukira
kuwuluka
kuwulutsa
kuwulutsidwa
kuwunika
kuya
kuyamba
kuyambika
kuyambira
kuyambiranso
kuyambitsa
kuyamika
kuyamwira
kuyang
kuyanjana
kuyanjanitsa
kuyankha
kuyankhula
kuyankhulana
kuyembekezera
kuyenda
kuyendayenda
kuyendera
kuyendetsa
kuyenera
kuyenerera
kuyerekezera
kuyesa
kuyesayesa
kuyesedwa
kuyesera
kuyesetsa
kuyetsemula
kuyeza
kuyezetsa
kuyika
kuyimba
kuyimilira
kuyimira
kuyimitsa
kuzambia
kuzambwe
kuzilumba
kuzindikira
kuzinthu
kuzizira
kuzungulira
kuzunza
kuzunzidwa
kuzunzika
kwa
kwabwino
kwacha
kwachangu
kwachinayi
kwachitatu
kwachiwiri
kwachuma
kwadongosolo
kwakanthawi
kwake
kwakhala
kwakukulu
kwakuti
kwamadzi
kwamakalata
kwamakono
kwamankhwala
kwamatauni
kwambili
kwambiri
kwamitengo
kwamphamvu
kwanthawi
kwanu
kwanyengo
kwapadera
kwapamwamba
kwathunthu
kwaulere
kwautali
kwawo
kwazaka
kwelagobe
kwenikweni
kweyir
kwina
kwinaku
ky
kyiv
kyoto
l
la
lab
labor
laboratory
labwino
lachi
lachidani
lachifiira
lachifumu
lachigawo
lachijeremani
lachilendo
lachinayi
lachindunji
lachingelezi
lachingerezi
lachinsinsi
lachipani
lachisanu
lachitatu
lachitetezo
lachitukuko
lachiwiri
lachiyuda
laden
lady
ladybug
ladziko
laga
lagos
lakale
lake
lakes
lakhala
lakhanda
lakhudzidwa
lakhungu
laku
lakum
lakumbuyo
lakumpoto
lakumwera
lakunja
lakuti
lakwawo
lalamulo
lalikulu
laling
lalitali
lamakono
lamalamulo
lamanja
lamapiri
lamasewera
lambert
lamilandu
lamlungu
lamphamvu
lamtundu
lamulo
lamuloli
lancet
land
lane
langa
language
languages
lanka
lankhondo
lanu
lanyumba
laos
lap
lapadera
lapadziko
lapakati
lapamtima
lapamwamba
lapansi
lapansili
lapitalo
laptop
lario
larry
las
lasky
last
late
lathu
lati
latin
latsopano
latsopanoli
latsopanolo
latvia
laufulu
laumunthu
launch
laura
lauren
lavigne
law
lawo
lawrence
lazachuma
lazarus
lcd
ldp
le
lead
leader
leaders
leadership
leading
league
learning
leaves
lebanon
lebenzon
lecture
lectureship
lee
left
legacy
legal
legend
legendary
leicester
leigh
leishmania
lemba
lembani
lemma
lenileni
lenten
leo
leonardo
leone
lero
lerole
lerolino
lesotho
let
letter
letters
levante
level
levesque
levy
lewis
leyden
lez
lgbt
lhasa
li
lia
lib
liberal
liberals
liberation
liberia
libor
library
libya
lichite
lidachita
lidakhala
lidakhazikitsidwa
lidakumana
lidalandira
lidalengeza
lidalimbikira
lidalimbikitsa
lidapanga
lidapangidwa
lidasankha
lidasankhidwa
lidasinthidwa
lidatchedwa
lidathetsedwa
lidawalimbikitsa
lidayamba
lidayambitsa
lidazindikira
lidzakhala
lidzapanga
lidzathetsa
liechtenstein
lieutenant
life
lifetime
lifike
lifupi
liga
light
lightgrey
ligi
ligue
likasa
like
likhale
likhazikitsidwe
likhoza
likodzo
likuchita
likufunika
likugwiritsidwa
likulimbana
likulu
likuphatikizapo
likuyang
likuyembekezeka
likuyesera
lili
lililonse
lilly
lilongwe
lily
lima
limachitika
limachokera
limadziwika
limadziwikanso
limagwiritsidwa
limakhala
limakhudza
limalimbikitsa
limanena
limangotulutsa
limapanga
limapangidwa
limapereka
limapezeka
limaphatikizapo
limasonyeza
limatanthauza
limatanthawuza
limatchedwa
limatha
limayamba
limayambira
limayang
limayenera
limbe
limene
limeneli
limenelo
limited
limodzi
lina
linachokela
linachokera
linagawanika
linagonjetsa
linakana
linakhala
linakhazikitsa
linakhazikitsidwa
linalake
linalanda
linalembedwa
linalephera
linali
linanena
linapangidwa
linapatsidwa
linapereka
linaperekedwa
linasamukira
linasinthidwa
linathetsa
linatulutsidwa
linavomereza
linavomerezedwa
linayamba
linayambika
linayambitsa
lincoln
linda
lindsay
line
linegrey
lingakhale
lingaliro
lingaliroli
lingue
lingues
linguist
linguistics
lingyin
link
linkakonda
linkayang
links
lino
linwood
linzbach
lionel
lipoti
liri
lirilonse
lisa
lisbon
list
listening
lists
litalandira
litali
litalowa
litatha
literature
lithetse
lithuania
liti
little
litukule
litulutsidwe
liturgical
liu
live
lived
liverpool
livingstone
livingstonia
liwiro
liwu
liyenera
liza
lizitha
liziyankha
ljubljana
lk
ller
lloyd
ln
lo
lobadwa
location
locke
lodziimira
lodzitcha
lodziwika
lodziyimira
lofalitsidwa
lofanana
lofiira
lofunika
lofunikira
logo
loipa
loire
lokha
lokhala
lokhalo
lokhazikika
lokongola
lokonzekera
lokumbukira
lokuta
lokwera
lolamulira
lolankhula
lole
lolemba
lolembedwa
lolemekezeka
lolemera
loletsa
lolowa
lomaliza
lome
lomenyera
lomwe
lomwelo
lomwenso
london
lonely
long
lonnie
lonse
lonselo
loona
lopambana
lopanda
lopanga
lopangidwa
lopatulika
lophatikizana
lora
lord
los
losamutsa
loser
losiyana
lost
lotambasula
lotchedwa
lothandizira
loti
lotsatira
lotsogola
lotsogozedwa
lou
louis
louisiana
love
lovemore
loves
lovomerezeka
lower
loweruka
lowoneka
loya
loyamba
loyambalo
loyambirira
loyandikana
loyandikira
loyang
loyankhula
loyendera
loyendetsa
loyenera
loyenerera
loyera
loyima
loyimba
loyimira
lozungulira
lrcp
lrcpsg
lrcs
lt
luanda
lub
lucas
lucia
lucky
luhansk
luis
luka
lulu
lumpur
lunar
lungu
lunisolar
lupanga
lusaka
luso
luxembourg
luyanna
luzhniki
lvov
lydia
lydnevi
lynn
m
ma
mabaibulo
mabakiteriya
mabala
mabanja
mabanki
mabasi
mabasiketi
mabere
mabizinesi
mabokosi
maboma
mabomba
mabukhu
mabuku
mabulosi
mabungwe
mabwalo
mabwenzi
mabwinja
macau
macedonia
macheke
machel
machesi
macheza
machinga
machiritso
machitidwe
mackenzie
macky
macmillan
macron
macrosiphum
mad
madagascar
madalitso
madambo
madandaulo
made
madeira
madela
madera
madigiri
madiresi
madokotala
madola
madonna
madontho
madrid
madzi
madzulo
maekala
mafakitale
mafani
mafano
mafashoni
mafayilo
mafilimu
mafoni
mafuko
mafumu
mafunde
mafunso
mafupa
mafuta
magalasi
magalimoto
maganizo
magawo
magazi
magazine
magazini
magetsi
magic
magnolia
magulu
magwero
mahatchi
mahiga
mahotela
maids
maiko
maikolofoni
mail
main
maina
mainchesi
maine
majeerteen
majness
major
majors
majuro
maka
makadi
makalabu
makalasi
makalata
makalendala
makamaka
makampani
makampeni
makamu
makanda
makanema
make
makhadi
makhadiwa
makhalidwe
makhansala
makhothi
makhoti
makhwala
makilomita
makina
makiyi
makolo
makoma
makomiti
makompyuta
makondomu
makontinenti
makonzedwe
makope
makoswe
makumi
makungwa
malaki
malamulo
malamulowa
malamulowo
malangizo
malasha
malaw
malawi
malawian
malay
malaya
malaysia
malcolm
maldives
male
malekebu
malemba
maleme
malemu
malewezi
mali
malichi
malifalensi
maliko
malinga
malingaliro
malingana
malipabuliki
malipiro
malipoti
malire
maliro
mallorca
malo
malonda
maloto
malovu
malowa
malowo
malta
malungo
maluso
maluwa
mama
mamady
mamembala
mamiliyoni
mamina
maminiti
maminitsi
mamita
mampi
man
management
managua
manambala
manchester
manda
mandela
manejala
mango
mangochi
manja
mankhwala
mankhwalawa
mankhwalawo
manning
mano
mans
mantha
manual
manyuzipepala
maofesi
maola
maonekedwe
maopaleshoni
map
mapaipi
mapangano
mapangidwe
mapasa
mapaundi
mapazi
mapemphero
mapepala
mapeto
maphunziro
maphwando
mapikisano
mapiko
mapilisi
mapiri
maplandia
maples
mapologalamu
maps
mapu
mapulaneti
mapulani
mapulogalamu
mapulogalamuwa
maputo
maradona
maramba
marathon
maravi
march
marco
mare
margaret
maria
marichi
marie
marine
mariner
maring
marino
mario
marisol
mariupol
mark
market
marketing
marquise
marriage
mars
marshall
martin
martinville
marvel
marxist
mary
masabata
masalimo
masamba
masamu
masana
masauzande
masayansi
maselo
masentimita
maseru
maseti
masew
masewera
masewerawa
masewerawo
maseweredwe
masewero
masewerowa
masheya
mashombe
masika
masiketi
masiku
masitampu
masiye
maso
masoka
masomphenya
mason
massachusetts
master
masters
masukulu
matabwa
matani
matauni
matawuni
match
matelefoni
matenda
matendawa
matendawo
matenje
matepi
mateyu
mathalauza
mathematics
mathers
mathis
mathithi
mathithiwo
matimu
matope
matsamba
matt
matthew
matumbo
matupi
matuza
mau
maubale
maubwenzi
maudindo
maufumu
maukonde
maukwati
maulalo
maulamuliro
maulemu
maulendo
maulosi
maumboni
maunyolo
mauritania
mauritius
mausoleum
mauthenga
mautumiki
mavailasi
mavesi
mavidiyo
mavoti
mavuto
mavutowo
maw
mawa
mawebusaiti
mawebusayiti
mawere
mawerengedwe
mawindo
mawondo
mawonedwe
mawonekedwe
mawu
mawuwa
max
maxilla
maximilian
may
mayadi
mayankho
mayendedwe
mayeso
mayfield
mayi
mayiko
mayimidwe
mayina
mayitanidwe
mayiyo
mayunitsi
mazana
maziko
mazikowo
mazimayi
mazira
mazirawo
mazoka
mazunzo
mbabane
mbadwa
mbalame
mbalameyi
mbale
mbali
mbatizi
mbc
mbendera
mbeu
mbewe
mbewu
mbira
mbiri
mbiriyakale
mbolo
mboma
mboni
mbozi
mbusa
mbuye
mbuyo
mbuyomo
mbuyomu
mc
mccain
mcconnell
mchaka
mchemwali
mchenga
mchere
mcheza
mchigawo
mchimwene
mchira
mchitidwe
mchitidwewu
mcmahon
mcp
md
mdama
mdani
mdc
mdera
mderali
mdierekezi
mdima
mdulidwe
mdulidwewu
mdzakazi
mdziko
mdzikoli
mdzikolo
mdzukulu
me
measles
mecca
mecklenburg
medal
medan
media
mediawiki
medical
medicine
medicines
mediterranean
meem
meer
meharry
mehcad
meiji
mel
melia
melinda
melitopol
membala
member
members
memoir
memoirs
memorandum
memorial
men
mendulo
mene
meng
meningitis
meningococcal
mercedes
merene
meridian
mesiya
messi
messick
meta
metacritic
metasearch
metgod
methodist
metres
metro
metropolitan
mexico
meya
meyi
mezzala
mfarisi
mfiti
mfula
mfumu
mfumukazi
mfumukaziyi
mfumuyi
mfumuyo
mfundo
mfundoyi
mfungulo
mfuti
mgawo
mgodi
mgonero
mgulu
mgwirizano
mgwirizanowo
mgwirizanowu
mi
miami
mibadwo
michael
michel
michelle
michigan
micronesia
microsoft
midadada
middle
midzi
migodi
mika
mikangano
mike
mikheil
mikiver
mikwingwirima
milan
milandu
milanduyi
mileme
milioni
miliri
military
miliyoni
milky
million
milomo
milos
milungu
mimba
minda
mine
minerer
mines
minister
ministry
minn
minnesota
minofu
minor
minsk
mipando
mipango
mipikisano
mipingo
mipira
mipiringidzo
mipukutu
miquelon
miranda
mirriam
misa
misala
misasa
misewu
mishoni
mishra
misika
misinkhu
misonkhano
misonkho
miss
mission
mississippi
missouri
mita
mitambo
mitch
mitchell
mitembo
mitengo
mitengoyi
mitsempha
mitsinje
mitt
mitu
mitundu
miyala
miyambi
miyambo
miyanda
miyendo
miyeso
miyezi
miyezo
miyoyo
mizere
mizinda
mizinga
mizu
mk
mkaka
mkamwa
mkangano
mkanganowo
mkango
mkati
mkatikati
mkatolika
mkazi
mkaziyo
mkhalidwe
mkhristu
mkodzo
mkono
mkonzi
mkulu
mkuntho
mkwatibwi
mkwiyo
mlalang
mlaliki
mlamu
mlandu
mlanduwu
mlangizi
mlembi
mlendo
mlengalenga
mlengi
mlimi
mlingo
mliri
mlongo
mls
mlungu
mm
mma
mmalo
mmawa
mmbuyo
mmd
mmene
mmishonale
mmodzi
mmrv
mnangagwa
mndandanda
mndandandawu
mndende
mneneri
mng
mngelo
mnyamata
mnyewa
mnyungo
mnzake
mo
mobile
mobisa
mobwerezabwereza
mochedwa
mochita
modabwitsa
mode
model
modzi
modzidzimutsa
modzifunira
mofanana
mofananamo
moffat
mofulumira
mogadishu
mogwirizana
mohamed
mohammed
mohamud
mokayikira
mokomera
mokwanira
molakwika
molamulidwa
mold
moldova
molimba
molimbika
molingana
molodezhne
molondola
momasuka
mommas
momoa
momveka
momwe
momwemonso
monaco
monarchy
monastir
monetary
monga
monganso
mongol
mongolia
monkey
monte
montecito
montenegro
monterrey
montreal
montsoreau
monument
moon
mopanda
moravia
more
morgan
morning
morocco
moroni
mortality
morton
mosadziwa
mosakayikira
mosamala
mosapita
mosasamala
mosavuta
mosayenera
mosby
moscow
moses
mosi
mosiyana
mosiyanasiyana
mosque
most
motalika
motengera
motere
motero
mothandizidwa
mother
moti
moto
motsatana
motsatira
motsatizana
motsogoleredwa
motsogozedwa
motsutsana
motul
mount
mountain
mountbatten
movement
movie
movomerezeka
movutikira
mowa
moyandikana
moyang
moyenera
moyera
moyo
mozama
mozambique
mozungulira
mp
mpaka
mpakana
mpakati
mpando
mpandowo
mpata
mpatuko
mpd
mpeni
mphambano
mphambu
mphamvu
mphatso
mphekesera
mphepete
mphepo
mphesa
mphete
mpheteyo
mphetezo
mphezi
mphindi
mphinthi
mphoko
mphotho
mphothoyi
mphothoyo
mphoto
mphukira
mphuno
mphunzitsi
mphutsi
mpikisano
mpikisanowo
mpikisanowu
mpingo
mpira
mpirawo
mpongozi
mpoto
mpu
mpule
mpulumutsi
mpumu
mpumulo
mpundu
mpweya
mr
mroma
mrs
ms
msana
msanga
msewu
msika
msilikali
msinkhu
msirikali
msonkhano
msonkhanowo
msonkhanowu
msonkho
msosa
mstinge
mt
mtambo
mtanda
mtendere
mtengo
mtengowo
mthunzi
mtima
mtn
mtolankhani
mtsikana
mtsinje
mtsinjewu
mtsogoleli
mtsogoleri
mtsogolo
mtukudzi
mtumiki
mtumwi
mtunda
mtundu
mu
muaj
mubarak
mubongo
mubungwe
muchaka
muchisankho
mudzapeza
mudzi
mudziwe
mufilimu
mufulira
mugabe
mugawo
muhammad
mukamasewera
mukhale
mukuchitika
mukudziwa
mulandu
mulanje
mulenga
muli
mulikita
mulingo
mulitali
mulole
multi
multiparty
mulungu
muluzi
muma
mumasewera
mumayang
mumba
mumbai
mumkangano
mumlengalenga
mumpikisano
mumsasa
mumsewu
mumsinkhu
mumtsinje
mumtunda
mumzinda
mumzindawu
munali
munda
mundende
mungachotsere
munich
municipality
munjira
munlo
muno
munsi
muntharika
munthawi
munthu
munthuyo
munyaule
muofesi
murphy
murray
musanene
museum
museums
music
muslim
musokotwane
musonda
mustang
mutale
mutha
mutharika
mutilation
mutinta
mutsogoleli
mutu
muubongo
muulamuliro
muvidiyo
muwone
muwonetsero
muyeso
muyezo
muzaka
muzigawo
muzinthu
muzipinda
muzitsulo
muzorewa
mv
mverani
mvula
mw
mwa
mwachangu
mwachibadwa
mwachidule
mwachilungamo
mwachindunji
mwachinsinsi
mwachinyengo
mwachisawawa
mwachitsanzo
mwadala
mwadzidzidzi
mwake
mwakhama
mwakuya
mwala
mwalamulo
mwale
mwamasewera
mwambi
mwambo
mwambowu
mwamphamvu
mwamsanga
mwamseri
mwamtendere
mwamuna
mwamwambo
mwamwayi
mwana
mwanawasa
mwanayo
mwanayu
mwanba
mwangozi
mwanjira
mwankhanza
mwansa
mwanza
mwape
mwase
mwatsatanetsatane
mwauchidakwa
mwaukadaulo
mwawo
mwayi
mwazinthu
mwazomwe
mwendo
mweni
mwera
mwezi
mwimbi
mwina
mwinamwake
mwini
mwiniwake
mwiniwakeyo
mwiniyo
my
myanmar
mycobacterium
mykolaiv
myp
mzaka
mzake
mzanga
mzera
mzere
mzerewu
mzika
mzimayi
mzimba
mzimu
mzinda
mzindau
mzindawo
mzindawu
mzuzu
n
na
nacho
nagoya
nahamu
nahyan
nairobi
nakamoto
nalo
nalonso
nalumango
nambala
name
namibia
nana
nandalo
nanjing
nantes
naomi
naples
napoleon
napoli
napoule
naruhito
nasa
nashville
natasha
nathan
nati
nation
national
nations
native
nato
natural
nauru
naval
navalny
navy
nawo
nawonso
naye
nayenso
nayo
nazi
nazo
nbc
nchengladbach
nchez
nchito
ncis
nd
ndakatulo
ndakhala
ndalama
ndalamazi
ndalamazo
ndale
ndandanda
ndawala
ndege
ndegeyo
ndemanga
ndende
ndi
ndicho
ndikhale
ndikubwerera
ndikubweretsa
ndikubwezeretsa
ndikubwezeretsanso
ndikuchepetsa
ndikuchita
ndikuchotsa
ndikuchotsedwa
ndikudalitsidwa
ndikufalitsa
ndikufika
ndikufotokozera
ndikufufuza
ndikufuna
ndikuganiza
ndikuganizira
ndikugawa
ndikugonjetsa
ndikugulitsa
ndikugwira
ndikuimbidwa
ndikukambirana
ndikukhala
ndikukhazikitsa
ndikukhazikitsidwa
ndikukhulupirira
ndikukula
ndikukulira
ndikulangiza
ndikulemba
ndikuletsa
ndikulimbikitsa
ndikulola
ndikulowa
ndikumasulira
ndikumenya
ndikumupanga
ndikumupatsa
ndikupambana
ndikupanga
ndikupangitsa
ndikupatsa
ndikupempha
ndikupereka
ndikuperekedwa
ndikupeza
ndikupha
ndikupita
ndikupulumutsa
ndikusamukira
ndikusankhidwa
ndikusewera
ndikusintha
ndikusinthanso
ndikusinthidwa
ndikusiya
ndikusunga
ndikutha
ndikuthandizira
ndikuthokoza
ndikuti
ndikutsegulira
ndikutsimikizira
ndikutsitsimutsa
ndikutsutsa
ndikutulutsa
ndikutumiza
ndikuvomereza
ndikuvulaza
ndikuwathandizira
ndikuwombera
ndikuwona
ndikuwoneka
ndikuwonetsa
ndikuwonetsetsa
ndikuwongolera
ndikuwonjezera
ndikuwononga
ndikuwopseza
ndikuyamba
ndikuyambitsa
ndikuyamika
ndikuyamikira
ndikuyendetsa
ndikuyika
ndikuyitanitsa
ndili
ndilo
ndilomwe
ndilonjezeni
ndimadziona
ndimasewera
ndime
ndinali
ndinganene
ndingathe
ndiomwe
ndipo
ndiponso
ndipotu
ndithamanga
ndithu
ndithudi
ndiudindo
ndiwe
ndiwo
ndiwosintha
ndiye
ndiyeno
ndiyo
ndizo
ndizogwirizana
ndizomwe
ndizovuta
ndodo
ndola
ndondomeko
ndondomekoyi
nduna
ndya
ne
near
nebula
need
neeg
nehemiya
neil
neilia
nelson
neno
nepal
neria
nero
net
netanyahu
netflix
netherlands
netiweki
network
networking
neutral
nevada
neves
nevis
new
newcastle
news
newton
ng
ngakhale
ngakhalenso
ngalande
ngalawa
ngalawamo
ngati
ngc
ngerin
ngodya
ngoma
ngongole
ngongoleyo
ngozi
ngoziyi
ngoziyo
ngwazi
ni
nicaragua
nicholas
nickelback
nicolas
niger
nigeria
night
nika
nikon
nimu
nintendo
nixon
njala
njanji
njata
njenjete
njinga
njira
njirayi
njirazi
njiwa
nkana
nkhalango
nkhani
nkhaniyi
nkhaniyo
nkhanizi
nkhanu
nkhanza
nkhata
nkhawa
nkhokwe
nkhondo
nkhondoyi
nkhondoyo
nkhono
nkhope
nkhosa
nkhotakota
nkhuku
nkhumba
nkhunda
nkhungu
nkhunguyo
nkhuni
nkhupa
nkhwangwa
nkomo
nkosi
nl
no
nobel
noble
node
nokia
non
nonse
noor
north
northern
norway
not
note
notes
notre
nov
novel
novembala
novembara
november
now
nr
nsadsi
nsalu
nsanja
nsanje
nsapato
nseru
nsewu
nsomba
ntawd
ntawm
ntchafu
ntchentche
ntcheu
ntchisi
ntchito
ntchitoyi
ntchitoyo
ntes
nthabwala
nthaka
nthambi
nthano
nthanoyo
nthaw
nthawi
nthawiyi
nthawizina
nthawizonse
nthcito
nthenda
nthenga
nthiti
nthumwi
ntsb
ntxiv
nu
nuclear
nuku
number
numbers
numeri
nursing
nuuk
nyama
nyamazi
nyanga
nyani
nyanja
nyanjayi
nyasa
nyasaland
nyemba
nyengo
nyengoyi
nyenyezi
nyimbo
nyimboyi
nyirenda
nyob
nyongolosi
nyukiliya
nyumba
nyumbayi
nyumbayo
nyuzipepala
nzeru
nzika
o
oa
oakland
obadiya
obadwa
obadwira
obama
obe
obisika
obituaries
oblast
observance
obwera
occidental
ocd
ocean
oceania
ochedwa
ochepa
ochepera
ocheperako
ochezera
ochimwa
ochirikiza
ochiritsira
ochita
ochitira
ochititsa
ochoka
ochokela
ochokera
ochuluka
ochulukirapo
oct
october
odalirika
odana
odesa
odetsa
odi
odst
odutsa
odwala
odyera
odyetsa
odziimira
odzipatula
odzipereka
odziwa
odziwika
odziyimira
odzudzula
of
ofala
ofanana
ofesi
ofesiyi
ofesiyo
offenbach
office
officer
official
ofiira
ofooka
ofufuza
ofuna
ofunika
ofunikira
ofunsira
ogasiti
ogona
ogula
ogulitsa
ogulitsira
ogwira
ogwiritsa
ogwirizana
ohio
oiii
oika
oil
oimba
oimira
oipa
ois
ojalo
ojambula
ojambulidwa
okalamba
okha
okhala
okhalamo
okhaokha
okhawo
okhazikika
okhudza
okhudzana
okhulupirika
okhulupirira
okhuza
okhwima
oklahoma
okonda
okondedwa
okongola
okonza
okotobala
oktoba
okuti
okutobala
okwana
okwanira
okwatirana
okwatiranawo
okwera
ola
olakwika
olambira
olamulidwa
olamulira
olanda
olandila
olankhula
olcott
old
older
olekanitsa
olemba
olembedwa
olembetsa
olemekezeka
olemera
oletsa
oletsedwa
olev
olimba
olimbana
olimbikitsa
olimbirana
olimbitsa
olimpiki
olipira
oliver
olowa
olsen
olumala
olviopol
olympiastadion
olympic
oma
omaliza
oman
omanga
omari
omasuka
omasula
omasuliridwa
ombe
omenyera
omuthandizira
omutsatira
omveka
omvera
omwe
omwenso
omwewo
on
onani
onaninso
ondo
one
onena
oneza
oni
online
only
ono
onoang
onopang
onoting
onozing
onse
onsewa
onsewo
ontario
onyamula
oona
oonetsera
oopsa
opaleshoni
opambana
opanda
opanga
opangidwa
opangira
opareshoni
opatsirana
opatulika
open
openstreetmap
opera
operation
opereka
opezeka
opezekapo
opha
ophatikizika
ophera
ophunzira
ophunzitsira
ophwanya
opindula
opita
opitilira
opitirira
opondereza
oponya
oposa
opposition
oprah
opulumuka
opumira
opusa
or
orange
orbit
orbital
orchestra
order
oregon
org
organic
organisation
organization
organocatalysis
ori
orientation
original
orinoco
orlando
orthodox
ortiz
orton
os
osabadwa
osachepera
osadziwika
osagwirizana
osaka
osakhala
osakwana
osakwanira
osakwanitsa
osalongosoka
osalowerera
osama
osamukira
osangalatsa
osankhidwa
osankhika
osapambana
osapitirira
osasamala
osasiya
osasokonezedwa
osatetezeka
osati
osatsimikiza
osauka
osavomerezeka
osawerengeka
oscar
osewera
osewerera
osindikizidwa
osindikizira
osintha
osinthika
osiris
osiyana
osiyanasiyana
osiyanasiyananso
osiyidwa
oskar
oslo
osm
osman
osokoneza
osonyeza
osowa
osunga
osungika
osungira
osungirako
osweka
otahuhu
otchedwa
otchuka
otchulidwa
otengedwa
otentha
otere
oterewa
oterowo
oteteza
otetezedwa
otetezeka
otetezera
othamanga
othandiza
othandizira
othawa
other
oti
otsala
otsalawo
otsatira
otsatirawa
otsatirawo
otsatiridwa
otsatizana
otsatsa
otseguka
otsegulira
otsekedwa
otsika
otsiriza
otsogola
otsogolera
otsutsa
otsutsana
otsutsawo
ottawa
otukuka
otumiza
otupa
otuwa
oumisa
oumitsa
our
out
outstanding
over
ovomerezedwa
ovomerezeka
ovota
ovulala
ovuta
ovutika
owerengera
oweruza
own
owned
owo
owona
owonera
owonetsa
owonetsedwa
owonetsera
owonjezera
owopsa
owukira
oxford
oyaka
oyamba
oyambilira
oyambira
oyambirira
oyambitsa
oyambitsidwa
oyandikana
oyandikira
oyang
oyembekezera
oyenda
oyendayenda
oyendetsa
oyendetsera
oyenera
oyenerera
oyera
oyerekezera
oyesa
oyezera
oyimilira
oyimira
oyipa
ozama
ozenga
ozimitsa
ozizira
ozungulira
ozunguza
ozunza
ozunzidwa
p
pa
pabedi
pabwalo
pac
pachaka
pachibwenzi
pachikuto
pachilumba
pachilumbachi
pachimake
pachiopsezo
pachisankho
pachitatu
pachithunzichi
pachiwopsezo
pachiyambi
pachuma
pacific
padakali
paddington
padera
padziko
padzikoli
pafupi
pafupifupi
pafupipafupi
pagawo
page
pageant
pages
pagulu
paicv
paisley
pakadali
pakali
pakalipano
pakampani
pakamwa
pakangopita
pakapita
pakatha
pakati
pakatikati
pake
pakhala
pakhale
pakhoma
pakhomo
pakhoza
pakhungu
pakistan
pakistani
pakompyuta
pakona
pakuchita
pakufuna
pakukhala
pakukonza
pakukonzekera
pakukula
pakumanga
pakuopseza
pakupambana
pakupanga
pakuphatikiza
pakusintha
pakuti
pakuwongolera
pakuwukira
pakuyesa
palace
palau
pali
palibe
palibenso
palimodzi
palin
palinso
palmer
palokha
pama
pamabuku
pamadutsa
pamadzi
pamafiira
pamafunika
pamagulu
pamakhala
pamakina
pamalamulo
pamalingaliro
pamalire
pamaliro
pamalo
pamalopo
pamalowa
pamanja
pamapeto
pamaphunziro
pamasamba
pamasankho
pamasewera
pamasewerawa
pamasewero
pamasewerowa
pamaso
pamasukulu
pamasulidwe
pamatenga
pamavuto
pamaziko
pambali
pambuyo
pamene
pamenepo
pamilandu
pamimba
pamipikisano
pamisonkhano
pamitengo
pamiyendo
pamlengalenga
pamlingo
pamndandanda
pamndandandawo
pamodzi
pamoyo
pampando
pamphepete
pamphindi
pampikisano
pamsasa
pamsewu
pamsika
pamsonkhano
pamsonkhanowu
pamtengo
pamtengowo
pamthunzi
pamtima
pamtunda
pamtundu
pamunda
pamutu
pamwamba
pamwambo
pamwambowu
pamwezi
pamzere
pamzerewu
pan
panali
panalibe
panama
pandale
pandege
pang
pangafunike
pangano
panganoli
pangatenge
pangozi
panja
panjira
pankhani
pankhondo
pankhondoyo
pano
panopa
panorama
pansi
pantchito
pantchitoyi
panthaka
panthaw
panthawi
panthawiyi
panthawiyo
panu
panyanja
panyumba
paokha
papa
paparazzi
papepala
paper
papita
papua
papuan
parachuti
paraguay
parallel
paramount
parana
parasitic
paratroopers
paris
parishi
park
parker
parliament
partners
parton
parts
party
pasaka
pasanapite
pasanathe
pascha
paschal
pasipoti
paskha
pass
pasukulu
pasukulupo
patadutsa
patangopita
patangotha
patapita
patatha
patchuthi
patel
patent
patricia
patrick
patriotic
patsa
patsamba
patsiku
patsogolo
paudindo
paudindowu
paukwati
paul
paulendo
paulendowu
paulo
paulus
pautali
pautsogoleri
pautumiki
pavuto
pawailesi
pawayilesi
pawiri
pawo
pawokha
payekha
payokha
pazachipongwe
pazachitsanzo
pazachuma
pazaka
pazakudya
pazandale
pazifukwa
pazinthu
pazisankho
pazithunzi
pazochitika
pazokambirana
pazomwe
pazophatikiza
pazotsatira
pc
pdf
peace
peake
pearl
peb
pele
pemphero
pempho
pempholi
penalty
pence
penh
peninsula
penn
pennsylvania
people
pepala
pepsodent
per
percival
percy
peresenti
perfect
performance
period
perry
persia
persian
person
personal
pertiwi
pertussis
peru
pes
petals
peter
peters
petersburg
petersen
peterson
petro
pett
petty
pew
pf
pfa
ph
phalombe
phanga
pharmacopoeia
phazi
phd
phil
philadelphia
philharmonic
philip
philippe
philippines
philosophy
phindu
phiri
phirili
phnom
phoenix
phokoso
phokosoli
photography
phoya
phulusa
phungu
phunzirani
phunziro
phwando
physics
phytomyza
pictures
pierre
pigal
pikipiki
pilato
pink
pinkett
pinki
pinnata
pioneers
piper
pisky
pittsburgh
pixels
piyano
pizza
pkk
pl
place
plan
planet
planning
plant
plants
plate
platinum
plato
player
players
playstation
plot
plotarea
plotdata
plumber
pm
pmid
png
pobadwa
pobereka
pochita
pochotsa
pocket
podcast
podgorica
podium
podzudzula
pofika
pofotokoza
pofuna
poganiza
poganizira
pogonana
pogonjetsa
pogwiritsa
pogwirizana
poika
poipa
pojambula
pokhala
pokhapokha
pokhara
pokhazikitsa
pokondwerera
pokonzekera
poland
polandira
polankhula
polemba
polemekeza
poletsa
police
policies
policy
polimbana
polisi
political
politics
poliyo
polo
polojekiti
polojekitiyi
polowa
polytechnic
pomaliza
pomalizira
pomanga
pomenya
pompo
pomupatsa
pomwe
pomwepo
ponena
pongamia
ponseponse
poonekera
poonetsetsa
poonjezera
pop
popanda
popanga
popangidwa
pope
popereka
popewa
popeza
pophunzitsa
poponyedwa
poppins
population
por
port
portal
porter
portman
portofino
portugal
posachedwa
posachedwapa
posakhalitsa
posankha
posintha
positi
position
posonyeza
post
potengera
potero
poti
potomac
potsatira
potsiriza
potsirizira
potsutsana
pov
pow
powell
power
powonjezera
poyamba
poyambilira
poyambirira
poyambitsa
poyang
poyankha
poyankhulana
poyenda
poyera
poyerekeza
poyerekezera
poyesa
pozindikira
pp
pr
practice
prague
praia
precursors
premier
premiership
pres
presbyterian
present
president
presidenti
presidential
presley
press
pretoria
preventing
prevention
prezidenti
price
prickett
pride
primary
prime
prince
princess
princeton
principe
principia
prison
privy
prize
prk
pro
prof
professional
professor
profile
program
progreso
progress
progressive
prohack
project
projects
promethean
prospero
protagonist
protect
protection
protectorate
protocol
province
pseudonym
pss
psv
pt
ptsd
pub
public
puerto
pulaimale
pulasitiki
pulezident
pulezidenti
pulmonary
pulofesa
pulogalamu
pulogalamuyi
pulogalamuyo
pune
punk
pupa
pupate
purezidenti
putin
putri
px
pygmies
q
qa
qatar
qeb
qhia
qhov
quakers
quarter
quarterfinals
que
quebec
queen
queens
queensland
question
quetta
quiet
qur
r
ra
rabbinic
racing
racontas
radicarium
radio
raducanu
rahm
ralph
rand
rangers
raoul
rap
raphael
rapids
rapper
ras
ration
rau
raug
ray
raymond
rd
re
reaction
reagan
real
rebecca
rec
recoilless
recommended
record
records
red
redoubts
reed
ref
reference
referendum
reform
reforma
reformed
refugees
reggae
region
regional
reid
reine
rekodi
related
relation
relations
relief
ren
renamo
report
representatives
repu
repubblica
republic
republican
republics
req
requiem
rescue
research
reserve
resorts
response
results
retail
retrieved
return
reuters
rev
review
reviews
revolution
rey
rf
rgb
rhine
rhode
rhodeia
rhodes
rhodesia
rhodesian
rhymes
rhythm
ri
rica
riccarton
rice
rich
richard
richart
rico
riding
riesenkampff
rifles
riggs
right
rights
rihanna
riley
rin
ring
ringworld
rio
ritter
road
rob
robb
robbins
robert
roberto
robinette
robson
rock
rocket
rockford
rog
roger
rogers
rogue
roketi
roland
role
roles
rolihlahla
roll
roma
roman
romance
romania
romanized
rome
romney
ronald
ronaldo
room
rose
rosenberger
rosenstiehl
ross
rostow
rotterdam
roubaix
rouge
round
roxy
roy
royal
rozani
rp
rpm
rts
ruah
rubella
rubeola
rudaviro
rudolf
rue
rugby
rukuru
rumble
rumphi
rupiah
rus
russell
russia
russian
russo
rute
rutskoy
rwanda
ryan
s
sa
saakashvili
sabam
sabata
sabbatarian
sabbath
sabweretsa
sacramento
saddam
sadwala
sadzaloledwa
safuna
saga
sahaidachny
sahara
saharan
saib
saint
sakala
sakanatha
sakhala
sakhalitsa
sakuchira
sakudwala
sakudziwa
sakugwirizana
sala
sali
salima
salma
salome
salt
salvador
salzburg
samakhala
samara
samatchedwa
samoa
samsung
samuel
samueli
san
sanachedwe
sanachirikize
sanachite
sanachitepo
sanafune
sanagwiritse
sanagwirizane
sanakhale
sanakhalepo
sanakonde
sanalandire
sanali
sanalow
sanamusangalatse
sanamvere
sanaone
sanapambane
sanapange
sanapatsidwe
sanapereke
sanapeze
sanapite
sanasankhidwe
sanaseweredwe
sanatengepo
sanathe
sanayambe
sanayimire
sanders
sandra
sandringham
sandwich
sandy
sanfourche
sangadulidwe
sangadwale
sangafalikire
sangapatsire
sangathe
sangheili
sanghelios
sanguinis
sankaloledwa
sankatanthauza
sanskrit
santander
santiago
santo
santos
sanu
sao
sapatsidwa
sapir
sapporo
sarah
sarajevo
sarawoga
sars
sasonyeza
sata
satana
satelayiti
satelesi
satellite
satoshi
satoshis
saudi
saulo
saunders
sawaya
sayansi
sayenera
sbn
sc
scalemajor
scaleminor
scha
schengen
scholar
scholarship
school
schuster
science
sciences
scooby
scotland
scott
scottish
scranton
sd
se
sea
search
season
second
secondary
secret
secretariat
secretary
security
see
seekers
seewald
segal
segment
sejal
sekondale
selected
sellers
semesita
semi
senate
senator
senegal
senior
sensor
seoul
sepitembala
september
seputembala
seputembara
serbia
serbian
sergey
seri
serie
series
service
services
session
set
seti
seva
sevastopol
sevayo
seventh
several
severe
sevilla
seville
sewero
sex
sexual
seychelles
sfondo
sfsr
sha
shabaab
shakespeare
shanda
shanghai
shania
sharif
sharpe
shasta
she
sheet
sheikh
shenzhen
sheridan
sheti
shields
shift
shinzo
shire
shlesinger
shock
shokin
shona
shopu
short
show
shrike
shuga
si
sib
sichidalira
sichinali
sicos
sierra
sign
signs
sijhawm
sikawirikawiri
sikelel
sikhala
sikuletsedwa
sikutanthauza
sikuti
sikweya
silika
sililimbikitsa
silinali
silinena
siliva
siliyenera
silver
simon
simpson
sinatra
since
sindidzanena
sing
singakhale
singapore
singh
single
singles
siprage
sir
sirait
sitcom
site
sitediyamu
siteji
sitepe
sites
sitima
sitimayi
sitimayo
sitolo
situation
situdiyo
siwamphamvu
siyana
sizidziwika
sizikhala
sizikudziwika
sizinachite
sizinali
sizinapangidwe
sizinaphule
sizingatheke
sizinthu
sk
skaneateles
skin
skinner
sky
slam
slaughter
slovak
slovakia
slovenia
small
smallwood
smith
sn
snake
sniper
so
soccer
soche
social
socialist
socialtext
society
socrates
sofia
solo
solomo
solomon
solution
somali
somalia
somaliland
some
somerset
song
songs
sophocles
sopo
soprano
soundtrack
source
sources
south
southeast
southend
southern
sovereignty
soviet
sp
space
spacecraft
spacex
spain
spanish
spark
spartak
spartan
spartans
spavor
spearhead
special
species
specific
spencer
spider
spika
spores
sporting
sports
sportsman
spurs
sq
squad
sr
sri
srivaddhanaprabha
ss
ssr
st
stadion
stadium
stadt
staff
stand
standard
stanford
stanley
star
starlink
starr
stars
starship
start
state
states
station
statistical
statistics
ste
steel
steele
steiner
stephen
stephenson
steve
stewart
still
stith
stock
stockholm
stop
storm
story
strangers
strasberg
strategic
stratford
strauss
stream
street
stretford
students
studies
studio
studios
study
su
suarez
sub
success
succor
such
sudan
sue
suga
sukulu
sukuluyi
sulaiman
sullivan
sultan
sultanate
sum
sumatra
summer
sumpter
sumy
sun
sunday
sundowners
sung
sungani
sunni
super
supersoldier
superstar
support
supreme
suriname
survey
surveys
sussex
suti
suva
svg
svitolina
swallow
swan
swann
sweden
swift
swiss
switch
switzerland
sword
sydney
syndrome
syracuse
syria
system
systematic
sztemon
t
ta
table
taipei
taiwan
taiwanese
tajikistan
takambiranazi
takes
talent
talente
tales
talk
tallinn
talowa
tamanda
tamaselo
tamoyo
tanaka
tank
tanthauzo
tanthawuzo
tanya
tanzania
tara
tarascon
tariso
tarnovo
tarsus
tartu
tashkent
task
tasmania
tasmanian
tate
tating
tau
taught
tauni
tauniyi
tawm
tawuni
tawuniyi
taxpayer
tayi
taylor
tb
tbilisi
tbwoy
tchalitchi
tchalitchicho
tchati
tcheru
tcheyamani
tchuthi
td
te
team
teams
teau
tech
technical
technology
ted
teddy
teeb
tehran
teknoloji
telecom
telecommunication
telecommunications
telegraph
telescope
television
televizioni
telmo
tembo
tempel
tempest
template
tenesi
teng
tenisi
tennessee
tennis
tepi
term
terms
territory
terrorism
terry
test
testament
texas
text
textcolor
tfg
th
thailand
thalauza
thandizani
thandizo
thandizoli
thanthwe
thanzi
that
thawj
the
theatre
their
theka
thel
thelma
them
then
theo
theodorus
theological
theology
theosophical
therapy
there
they
thijssen
thimerosal
thimphu
thing
third
this
thomas
thompson
thomson
thonje
thor
thornton
through
thumb
thumba
thumbnail
thupi
thyolo
tianjin
tias
tiebreaks
tiffany
tika
tikalowa
tikayerekezera
tikiti
tikudziwa
tili
till
tim
timadzi
timalowa
time
timeaxis
timene
times
timor
timoteyo
timothy
timu
timuyi
timuyo
tina
tinalowa
tinapeza
tinsungu
tinthu
tipeze
tisawonongeke
titafika
title
tito
tiyenera
tiyeni
tizigawo
tizilombo
tizilomboti
tizilonda
tizolombo
to
tobago
tobing
today
todd
togo
tokoma
tokyo
tol
tom
tome
tomwe
tonga
tonse
tony
too
toothpaste
top
topology
toronto
tottenham
tour
towards
tower
town
toyambitsa
tracy
trade
traffic
trafford
trailer
transitional
translations
translit
transmission
trav
travels
travis
treaty
tree
treijtel
trewella
trial
trichilia
trilogy
trinidad
trinity
triple
tripoli
trophyless
tropical
trudeau
true
trump
trust
truth
ts
tsam
tsamba
tsambali
tsankho
tsatanetsatane
tseem
tsev
tshawb
tsiku
tsikuli
tsikulo
tsim
tsinde
tsis
tsitsi
tsogolo
tsoka
tsopano
tsvangirai
tua
tub
tuberculosis
tuku
tulo
tumbuka
tumizani
tunisia
tunya
turkey
turkmenistan
tus
tuvalu
tv
tweets
twente
twi
twitter
two
txhaum
txom
tyler
tyne
u
ua
uae
ubale
ubatizo
ubereki
ubongo
ubwana
ubwenzi
ubwino
uchi
udachitika
udachitikira
udafika
udakhala
udakhalanso
udakhazikitsidwa
udakonzedwa
udakwiyitsa
udali
udani
udapangitsa
udaseweredwa
udasokonekera
udayamba
udf
udi
udindo
udindowu
udokotala
udzu
udzudzu
uefa
ufa
ufulu
ufumu
ufumuwo
uganda
ugly
uinjiniya
uja
uk
ukachenjede
ukadaulo
ukalamba
ukali
ukapolo
ukhala
ukhondo
ukhoza
uko
ukonde
ukondewo
ukraine
ukrainian
uku
ukugwiritsidwa
ukumeza
ukwati
ukwatiwo
ula
ulamuliro
ulaya
ulemerero
ulemu
ulendo
uli
ulimi
ulipo
uliwonse
ulova
ululu
umachitika
umadutsa
umadziwika
umagwira
umakhala
umalumikiza
umapanga
umaperekedwa
umapezeka
umatchedwa
umatuluka
umawonetsa
umayambira
umboni
umembala
umene
umenewo
umenewu
umodzi
umoyo
umphawi
umuna
umunthu
umwini
un
unabwera
unachitika
unachitikira
unakhala
unakhazikitsidwa
unakhudza
unakula
unakwera
unali
unamangidwa
unanenedwa
unapangidwira
unaperekedwa
unaphatikizapo
unapitilira
unatha
unathetsedwa
unatsika
unayamba
unayambika
uncredited
und
under
understanding
unduna
unesco
unfpa
unhcr
unicef
union
unip
unit
united
unity
universe
university
unkadziwika
unkafotokozedwa
unkaonedwa
unkayambira
unreviewed
unsc
until
unwired
unyamata
unyolo
up
upangiri
uphungu
upnd
upon
upper
upright
upulezidenti
urbex
uruguay
us
usa
usaid
usanachitike
usanayambe
used
usiku
usilikali
using
utatha
utatu
utc
utha
uthenga
utoto
utsi
utsogoleri
utumiki
utundu
uvalde
uwu
uyenera
uyu
uzbekistan
v
vaccination
vaccine
vaccines
vadam
vailasi
valencia
valencian
valentina
valerie
valley
value
van
vancouver
vanuatu
variant
variflight
vasylkiv
vatican
vault
vegas
veiga
veliko
venetian
venezuela
venice
venus
vera
verde
verdean
version
vertical
verve
vespers
vi
vic
vice
vicente
vichai
victor
victoria
video
vidiyo
vienna
vientiane
vietnam
view
vii
viktor
vila
villarreal
vilumba
vim
vince
vincent
violence
violent
viral
virginia
virus
visa
vladimir
vocals
vog
voice
voight
vol
volapu
volga
volhard
volnovakha
volodymyr
volta
vom
von
vote
voti
voyager
vs
vuc
vumbulutso
vuto
vutoli
vya
w
wa
wabayidwa
wabereka
wabizinesi
waboma
wabwino
wachi
wachibadwidwe
wachichepere
wachichiwiri
wachifumu
wachifundo
wachigawo
wachikhalidwe
wachikulire
wachilendo
wachimalawi
wachinayi
wachingerezi
wachinsinsi
wachinyamata
wachipani
wachipanichi
wachipatala
wachipembedzo
wachipiku
wachisanu
wachita
wachitatu
wachitetezo
wachitsanzo
wachiw
wachiwewe
wachiwiri
wachiyuda
wadoo
wadziko
wagner
wagoletsa
wagulitsa
wahl
wailesi
wainui
wakale
wake
wakhala
wakhudza
waku
wakuda
wakufa
wakulla
wakumadzulo
wakunja
wakuti
wakuubwana
wakwatiwa
waledzera
waledzeretsa
wales
walk
walker
wall
wallis
walt
walter
walton
waluso
wam
wama
wamagetsi
wamagulu
wamakhalidwe
wamakono
wamaliseche
wamalonda
wamanga
wamankhwala
wamanyazi
wamaphunziro
wamasewera
wamasiye
wamatsenga
wamayiko
wamba
wambach
wambiri
wamdziko
wamisala
wamkati
wamkazi
wamkulu
wamkuru
wamng
wamoyo
wampando
wamphamvu
wampikisano
wamtendere
wamtengo
wamtundu
wamuyaya
wamwamuna
wandale
wanderers
wanena
wanga
wankhanza
wankhondo
wansembe
wantchito
wanthawi
wanu
wanyumba
wanzeru
wanzhou
wao
wapachaka
wapadera
wapadziko
wapafupi
wapakati
wapakhomo
wapambana
wapampando
wapamtima
wapamwamba
wapanga
wapano
wapansi
wapata
wapatali
wapatsidwa
waperekedwa
wapolisi
waposachedwa
wapulezidenti
wapurezidenti
war
ward
warden
wark
warnapura
warner
warren
warriors
wars
warsaw
warwick
was
wasankhidwa
wasayansi
washington
wasp
watch
wathanzi
wathu
wathunthu
watkins
watson
watsopano
watt
waufulu
waufupi
waukadaulo
waukapolo
waukazembe
waukulu
waulere
waumunthu
waumwini
waung
wautali
wawayilesi
wawo
wawukulu
way
wayamba
wayilesi
wazachuma
wazaka
wazamalamulo
wazamalonda
wazolemba
we
weather
web
website
websites
webusaiti
webusaitiyi
webusayiti
weekend
weekly
welensky
well
wellington
welzl
wembley
weniweni
went
were
west
western
westminster
what
whatsapp
when
where
whibley
which
whisk
whitburn
white
whitish
who
whoopi
whooping
why
wiafe
width
wieden
wien
wiki
wikia
wikidata
wikimania
wikimedia
wikipedia
wikipedias
wikipediya
wikis
wikitongues
wikiversity
wilberforce
will
willem
william
williams
willingham
wilmington
wilson
wimbledon
wina
winawake
windhoek
windows
windsor
winfrey
wingfield
winifred
winners
winston
winter
with
without
witwatersrand
wkly
wm
wo
wobadwa
wobadwira
wobiriwira
wobwereka
wochepa
wochepera
wocheperako
wochirikiza
wochita
wochokera
wochuluka
wochulukirapo
wodetsedwa
wodwala
wodwalayo
wodzilamulira
wodzipereka
wodziwa
wodziwika
wodziyimira
wofalitsa
wofanana
wofiira
wofooka
wofotokoza
wofufuza
wofuna
wofunika
wofunikira
wofunsidwa
wogonjetsa
wogula
wogulitsa
wogwira
wogwiritsa
wogwirizira
woimba
woimira
wojambula
wokambirana
wokha
wokhala
wokhalitsa
wokhazikika
wokhotakhota
wokhudza
wokhudzana
wokhulupirika
wokhumudwa
wokonda
wokondedwa
wokondweretsedwa
wokongola
wokonza
wokonzedwa
wokonzeka
wokumbukira
wokwanira
wokwera
wolakwa
wolamulira
wolandila
wolandira
wolandirayo
wolankhula
wolankhulira
wolemba
wolembedwa
wolemekezeka
wolemera
wolimba
wolimbana
wolimbikitsa
wolipidwa
wolondola
wolowa
wolumikiza
womaliza
womasuka
womasulidwa
womasulira
women
womenya
womenyera
womuyimira
womwe
womwewo
wongopeka
wonse
wood
woodard
woona
wooneka
woopsa
wopambana
wopanda
wopanga
wopangidwa
wopatsa
wopatulika
wopereka
wopeza
wopha
wophika
wophunzira
wopikisana
wopita
wopitilira
woposa
wopuma
wopusa
works
world
worldcat
wosabadwa
wosabadwayo
wosakwatiwa
wosamala
wosamalira
wosangalatsa
wosankha
wosankhidwa
wosatha
wosewera
wosewerayo
wosinthika
wosiyana
wosonyeza
wotaya
wotchedwa
wotchi
wotchuka
wotereyu
woteteza
wothamanga
wothandiza
wothandizidwa
wothandizila
wothandizira
wothetsa
woti
wotopa
wotsatila
wotsatira
wotsatizana
wotsatsa
wotsegulira
wotsika
wotsiriza
wotsogola
wotsogolera
wotsogozedwa
wotsutsa
wotsutsana
wotuluka
wotumiza
woukira
wouma
wovomerezeka
wovuta
wovutika
wowasamalira
woweruza
woweruzayo
wowombera
wowongoka
wowonjezera
wowukira
woyamba
woyambira
woyambirira
woyambitsa
woyang
woyembekezera
woyendera
woyendetsa
woyenera
woyenerera
woyera
woyimba
woyimbira
woyimbirayo
woyimilira
woyimira
wozindikira
wozizira
wozungulira
wr
wrestlemania
wrestler
wrestling
wright
writer
writing
wta
wuhan
wuzhou
wwe
www
x
xbox
xi
xwm
xxv
xyuas
xyz
y
ya
yabizinesi
yaboma
yabwino
yachi
yachibadwa
yachidule
yachifumu
yachigawo
yachikhristu
yachikristu
yachilendo
yachilengedwe
yachilungamo
yachinayi
yachinsinsi
yachipatala
yachipembedzo
yachisanu
yachitatu
yachitetezo
yachiw
yachiwewe
yachiwiri
yacht
yadav
yadziko
yagalimoto
yagolide
yahoo
yaifupi
yaikulu
yaing
yaitali
yakale
yakanema
yake
yakhala
yakhazikitsa
yakhazikitsidwa
yakobo
yakomweko
yaku
yakuda
yakufa
yakunja
yakuti
yalamulo
yale
yam
yamabizinesi
yamafuta
yamagetsi
yamagulu
yamaha
yamakanema
yamakono
yamalamulo
yamalonda
yamapiri
yambiri
yamchere
yamitundu
yamkuntho
yamoto
yamoyo
yamphamvu
yampikisano
yamtengo
yamtundu
yamtunduwu
yamvula
yandalama
yandale
yanga
yangtze
yankho
yankhondo
yanukovych
yao
yaounde
yapachiweniweni
yapadera
yapadziko
yapakati
yapambana
yapamtunda
yapamwamba
yapatsidwa
yapaulendo
yapitayi
yaposachedwapa
yapurezidenti
yasekondale
yatha
yathanzi
yathu
yatsegulidwa
yatsopano
yatsopanoyi
yaufulu
yaukadaulo
yaulere
yaulimi
yaumwini
yautsamunda
yawo
yayikulu
yaying
yayitali
yazachuma
yazaka
yazamalamulo
yazimayi
yazolinga
year
years
yehova
yekha
yekhayo
yellow
yeltsin
yemen
yemwe
yemwenso
yemweyo
yeniyeni
yense
yeremiya
yerevan
yerusalemu
yesaya
yesu
yili
yina
yo
yobadwa
yobiriwira
yobu
yochai
yochedwa
yochenjeza
yochepa
yochita
yochoka
yochokera
yochotsa
yochotsera
yochuluka
yodabwitsa
yodutsa
yodzaza
yodzifunira
yodziwika
yodziyimira
yofalitsa
yofalitsidwa
yofanana
yofananira
yofewa
yofiira
yofikira
yofufuza
yofunika
yofunikira
yog
yoga
yogulitsa
yogwira
yogwiritsira
yogwirizana
yohane
yojambula
yojambulidwa
yokambirana
yokha
yokhala
yokhayo
yokhazikika
yokhazikitsa
yokhudza
yokhudzana
yokohama
yokoi
yokoka
yokutidwa
yokwanira
yolamulira
yolankhulira
yolemba
yolembedwa
yolimba
yolimbana
yolimbikitsa
yolimbikitsira
yolola
yolondola
yolowera
yolumikizana
yolumikizidwa
yom
yomaliza
yomanga
yomanganso
yomangidwa
yomenyera
yomwe
yomweyi
yomweyo
yona
yonga
yonse
yonseyi
yonyamula
yoona
yooneka
yoopsa
yopambana
yopanda
yopanga
yopangidwa
yopangira
yopatulika
yopeka
yopereka
yophunzitsa
yopindulitsa
yopita
yopitilira
yopititsa
yoposa
yordani
york
yosachepera
yosagwirizana
yosangalatsa
yosankhanso
yosankhidwa
yosasinthika
yoshihide
yosintha
yosinthana
yosinthira
yosiyana
yosiyanasiyana
yosokoneza
yoswa
yotchedwa
yotchuka
yotentha
yoteroyo
yothandiza
yothandizira
yothetsa
yothetsera
yoti
yotsala
yotsatira
yotsegula
yotsegulira
yotsiriza
yotsogozedwa
yotsutsana
yotukuka
yotumizidwa
you
youma
young
your
youth
youtube
yovomerezeka
yovuta
yowala
yoweri
yoweruza
yowona
yowonekera
yowonjezera
yowonongeka
yowunikira
yoyamba
yoyambira
yoyambirira
yoyang
yoyendetsa
yoyendetsedwa
yoyenera
yoyera
yoyeza
yoyipa
yozizira
yozungulira
yu
yuda
yugoslavia
yukon
yung
yunifolomu
yunivesite
yusuf
yyyy
z
za
zabodza
zaboma
zabwino
zachi
zachikhalidwe
zachikhristu
zachilendo
zachilengedwe
zachilungamo
zachindunji
zachipatala
zachipembedzo
zachisilamu
zachisoni
zachitetezo
zachitika
zachititsa
zachiwerewere
zachuma
zadzidzidzi
zadziko
zagorski
zagreb
zaka
zakale
zake
zakhala
zaku
zakubadwa
zakuda
zakudya
zakufa
zakum
zakumadzulo
zakumwa
zakunja
zakupha
zakusintha
zakutali
zakutchire
zakuthambo
zakuti
zakuukira
zalamulo
zalembedwa
zaluso
zam
zamadzi
zamagalimoto
zamaganizo
zamagetsi
zamagulu
zamakina
zamakompyuta
zamakono
zamalamulo
zamalawi
zamalonda
zamankhwala
zamaphunziro
zamasewera
zamayiko
zambezi
zambia
zambian
zambiri
zambiya
zamigodi
zamisewu
zamitundu
zamoto
zamoyo
zamphamvu
zamtel
zamtundu
zana
zanaco
zandale
zandege
zanga
zankhondo
zantchito
zanu
zanyukiliya
zanyumba
zanzeru
zanzibar
zapadera
zapadziko
zapagulu
zapakati
zapakhomo
zapakhungu
zapamadzi
zapamwamba
zapansi
zapitazi
zapitazo
zaporizhzhia
zaposachedwa
zapu
zapurezidenti
zarra
zasowa
zatchulidwa
zathandiza
zathu
zatsala
zatsopano
zaukazitape
zaulere
zaulimi
zaumoyo
zaumulungu
zawo
zayamba
zayambitsa
zayed
zazikulu
zazikuluzikulu
zazing
zazitali
zazitsamba
zealand
zedi
zefaniya
zekariya
zelenskyy
zendaya
zenizeni
zero
zesco
zhengfei
zhytomyr
ziboliboli
zida
zidabweretsa
zidachitika
zidachitikira
zidadzetsa
zidafotokozedwa
zidagoleredwa
zidakakamiza
zidakakamizidwa
zidakalipo
zidakhala
zidakhazikitsidwa
zidakhudza
zidakonzedwa
zidakula
zidakumana
zidakwezedwa
zidakwiyitsa
zidalengezedwa
zidali
zidalipo
zidamulepheretsa
zidamupanga
zidamupangitsa
zidamupatsa
zidanenedwa
zidapambana
zidapangitsa
zidaperekedwa
zidapindula
zidatha
zidathandizira
zidathetsedwa
zidati
zidatsatiridwa
zidatsitsimutsidwa
zidatumizidwa
zidawonekera
zidawonetsa
zidayamba
zidayambitsa
zidutswa
zidzachitika
zidzaika
zidzakhala
zidzasanduka
zidzasintha
ziegler
zier
zifukwa
zig
ziganizo
zigawenga
zigawengazo
zigawo
zigoli
zigwa
zika
zikachitika
zikalata
zikhale
zikhalidwe
zikhazikitsidwe
zikhazikitso
zikho
zikhoza
zikhulupiliro
zikhulupiriro
zikomo
zikondwerero
zikopa
zikubwera
zikuchitika
zikufanana
zikuluzikulu
zikuoneka
zikupezeka
zikuphatikiza
zikuphatikizapo
zikutanthauza
zikuwoneka
zikuwonetsa
zikuwonetsanso
zikuyang
zikuyenda
zikwi
zilango
zilankhulo
zilembo
ziletsozi
zili
zilili
zilipo
zilizonse
zilombo
zilonda
zilumba
zima
zimachepa
zimachitika
zimachititsa
zimachokera
zimadalira
zimadya
zimadziwika
zimagwira
zimagwiritsa
zimagwiritsidwa
zimagwirizana
zimakhala
zimakhalira
zimakhudza
zimakonda
zimakula
zimangokhala
zimaonekera
zimapanga
zimapangidwa
zimapangitsa
zimapereka
zimapezeka
zimaphatikizapo
zimaseweredwa
zimasiyanasiyana
zimasonyeza
zimasowa
zimasunga
zimatchedwa
zimatchedwanso
zimatchula
zimatenga
zimatengera
zimatha
zimathandiza
zimathandizira
zimatsimikizika
zimawerengedwa
zimawoneka
zimayamba
zimayambira
zimayambitsa
zimayesedwa
zimbabwe
zimbudzi
zimene
zimenezi
zimenezo
zimmerman
zina
zinabwerera
zinachitika
zinachitikazo
zinachititsa
zinagwidwa
zinagwirizanitsidwa
zinakhala
zinalembedwa
zinali
zinalili
zinalipo
zinamupangitsa
zinanenedwa
zinanso
zinapanga
zinapangidwa
zinapangitsa
zinaperekedwa
zinapezeka
zinaphatikizapo
zinasintha
zinasonyeza
zinatha
zinatsatidwa
zinatulutsidwa
zinawonekera
zinayamba
zinayambira
zinayambitsa
zinayi
zinayikidwa
zinazake
zinenero
zing
zingachititse
zingagwiritsidwe
zingakhale
zingapo
zingathandize
zingathe
zingatheke
zingayambitse
zingwe
zinkafunika
zinkakhala
zinsinsi
zinthu
zinyalala
zinyama
zionetsero
zipangizo
zipani
zipata
zipatala
zipatso
zipembedzo
zipewa
ziphaso
ziphunzitso
ziphuphu
zipilala
zipinda
zipolopolo
zipolowe
ziri
ziro
zisanachitike
zisankho
zisankhozi
zisanu
zisudzo
zitachitika
zitadziwika
zitatha
zitatu
zitatuzi
zitha
zithandize
zitheke
zithunzi
zitsanzo
zitsulo
ziwalo
ziwanda
ziwawa
ziwerengero
ziweto
ziwiri
ziwirizi
ziwirizo
ziwombankhanga
ziwonetsero
ziwonongeke
ziwopsezo
ziyambe
ziyenera
ziyeneretso
zizigwira
zizikhala
zizindikiro
zizindikirozi
zizindikirozo
zm
zns
zobwerera
zochepa
zocheperapo
zochita
zochitika
zochitikazo
zochititsa
zochokera
zodabwitsa
zodzitetezera
zodziwika
zofala
zofalitsa
zofanana
zofananira
zofiira
zofuna
zofunika
zofunikira
zogonana
zogulira
zogulitsa
zogulitsidwa
zogwiritsa
zogwiritsira
zogwirizana
zojambula
zojambulajambula
zojambulidwa
zojambulira
zokamba
zokambilana
zokambirana
zokayikitsa
zokha
zokhala
zokhazikitsa
zokhazokha
zokhudza
zokhudzana
zokhumba
zokhuza
zokolola
zokonda
zokongola
zokonzekera
zokopa
zokumbukira
zokwana
zokwanira
zolakwa
zolakwika
zolambirira
zolankhula
zolemba
zolembedwa
zolembedwera
zolembera
zolemera
zolengedwa
zolera
zoletsa
zoletsedwa
zolimba
zolimbana
zolimbikitsa
zolimbikitsira
zolinga
zolipirira
zolumikizirana
zomaliza
zomangamanga
zomangira
zomba
zombo
zomenyera
zomera
zomerazo
zomveka
zomwe
zomwezo
zone
zonena
zongopeka
zonse
zonsezi
zonsezo
zonyansa
zonyoza
zoona
zooneka
zoopsa
zopambana
zopanda
zopanga
zopangidwa
zopangira
zopangitsa
zopatsa
zopeka
zopempha
zopereka
zopezera
zophulitsa
zophwanya
zopinga
zopita
zopitilira
zoponya
zoposa
zopulumutsa
zosachepera
zosagwiritsidwa
zosagwirizana
zosaka
zosakanikirana
zosakhala
zosakwana
zosamukira
zosangalatsa
zosankha
zosankhidwa
zosasinthika
zosatheka
zosavomerezeka
zosavuta
zosayembekezereka
zosemphana
zosewera
zosewerera
zosintha
zosiyana
zosiyanasiyana
zosokoneza
zosonyeza
zosowa
zosungira
zosungiramo
zotchedwa
zoterezi
zotero
zothandiza
zothandizana
zothandizira
zotheka
zoti
zotsalira
zotsatila
zotsatira
zotsatirapo
zotsatirazi
zotsatizana
zotsogola
zotsutsa
zotsutsana
zouluka
zoulutsira
zovala
zovomerezeka
zovuta
zowala
zowawa
zoweta
zowombera
zowoneka
zowonekera
zowonetsera
zowongolera
zowonjezera
zowonjezereka
zowonongeka
zowopsa
zoyamba
zoyambilira
zoyambira
zoyambirira
zoyambitsa
zoyang
zoyendera
zoyendetsedwa
zoyendetsera
zoyenera
zoyera
zoyesayesa
zoyeserera
zoyimira
zoyimitsa
zoyipa
zozizira
zozizwitsa
zozungulira
zu
zuckerberg
zulu
{
|
}
~
¡
¢
£
¤
¥
§
©
«
®
°
±
²
¶
·
»
¿
×
ß
æ
ð
÷
ø
þ
đ
ħ
ı
ŀ
ł
łobez
ŋ
œ
ƒ
ǀ
ǁ
ǂ
ǃ
ǝ
ɐ
ɑ
ɒ
ɓ
ɔ
ɕ
ɖ
ɗ
ɘ
ə
ɚ
ɛ
ɜ
ɝ
ɞ
ɟ
ɠ
ɡ
ɢ
ɣ
ɤ
ɥ
ɦ
ɧ
ɨ
ɪ
ɫ
ɬ
ɭ
ɮ
ɯ
ɰ
ɱ
ɲ
ɳ
ɴ
ɵ
ɶ
ɸ
ɹ
ɺ
ɻ
ɽ
ɾ
ʀ
ʁ
ʂ
ʃ
ʄ
ʈ
ʉ
ʊ
ʋ
ʌ
ʍ
ʎ
ʏ
ʐ
ʑ
ʒ
ʔ
ʕ
ʘ
ʙ
ʛ
ʜ
ʝ
ʟ
ʡ
ʢ
ʰ
ʱ
ʲ
ʷ
ʼ
ʾ
ʿ
ˀ
ˈ
ˌ
ː
ˑ
ˠ
ˡ
ˤ
̀
́
̂
̃
̄
̆
̇
̈
̊
̋
̌
̓
̔
̣
̦
̧
̨
̩
̪
̯
̱
̸
̻
͂
͎
α
β
γ
δ
ε
ζ
η
θ
ι
κ
λ
λος
μ
μη
ν
να
νιγξ
ξ
ο
π
ρ
ς
σ
τ
υ
φ
χ
ψ
ω
а
б
в
г
д
е
ж
з
и
к
л
м
н
о
п
р
россии
с
т
у
ф
х
ц
ч
ш
щ
ъ
ы
ь
э
ю
я
ђ
є
ѕ
і
ј
љ
њ
ћ
џ
ґ
ְ
ֶ
ַ
ָ
ּ
ׁ
א
ב
ה
ח
ל
ם
ס
פ
ר
ש
ا
العربية
س
ه
و
َ
ُ
ٔ
ٕ
߫
߬
߲
श
ा
৳
ද
ර
ල
්
ු
฿
ក
ង
ជ
ត
ទ
ន
វ
ហ
ា
ិ
ឹ
ៃ
ំ
៛
​
‎
‑
–
—
‘
’
“
”
†
‡
•
…
‬
′
″
‹
›
⁄
ⁿ
₠
₡
₢
₣
₤
₥
₦
₧
₨
₩
₪
₫
€
₭
₮
₯
₰
₱
₳
₴
₵
₿
№
™
ℳ
⅝
⅞
←
↑
→
↓
↔
↷
−
∞
≈
≤
≥
③
④
⑦
☉
☾
♀
♠
♣
♥
♦
♭
♮
♯
ⱱ
ⲁ
ⲗ
ⲟ
ⲡ
ⲥ
ⲩ
ⴰ
ⵉ
ⵍ
ⵎ
ⵏ
ⵖ
ⵛ
ⵢ
ⵣ
⺀
⺄
⺆
⺈
⺊
⺌
⺕
⺝
⺸
⺼
⿰
⿱
⿲
⿳
⿴
⿵
⿶
⿷
⿸
⿹
⿺
⿻
〢
え
も
ん
゙
ウ
オ
コ
チ
ッ
ト
ユ
ラ
ー
㇁
㇂
㇄
㇇
㇈
㇉
㇓
㐁
㐄
㐅
㐌
㐫
㐬
㐭
㐮
㐱
㑒
㒵
㒸
㒼
㓁
㓞
㔾
㕛
㕣
㖾
㘝
㚅
㚇
㚔
㚘
㝉
㝡
㝴
㝵
㞋
㞢
㞷
㠩
㠭
㠯
㡀
㡭
㡿
㢲
㢴
㣇
㣺
㥯
㪅
㫄
㫐
㫒
㫺
㬅
㬎
㬥
㬰
㲋
㳄
㷠
㸒
㸚
㸦
㼌
㼲
㽞
㿟
䀠
䂞
䍃
䏍
䒑
䖍
䖒
䖝
䖵
䙴
䚻
䜌
䝿
䡛
䧹
䪞
一
丁
丂
七
丄
丅
丆
万
丈
三
上
下
丌
不
与
丏
丐
丑
专
且
丕
世
丘
丙
业
东
丞
丢
丣
两
严
並
丨
丩
个
丫
丬
中
丮
丰
丱
串
丵
丶
丷
丸
丹
为
主
丽
丿
乀
乂
乃
久
乆
乇
么
义
之
乌
乍
乎
乏
乐
乑
乔
乖
乗
乘
乙
乚
乛
乜
九
乞
也
习
乡
乳
乾
亀
亅
了
亇
予
争
事
二
亍
于
亏
亐
云
互
亓
五
井
亘
亚
亜
亞
亟
亠
亡
亢
交
亥
亦
产
亨
亩
享
京
亭
亮
亯
亰
亲
亳
亶
亷
人
亻
亼
亾
仁
今
介
仌
从
仐
仑
仒
仓
仕
他
付
仝
代
令
以
件
任
企
伊
伏
伐
休
会
伯
但
位
何
佘
余
作
佥
使
來
侈
侌
侖
侯
侵
便
保
俞
信
修
倉
倍
候
倠
偉
備
僉
僕
儿
兀
允
兂
元
兄
充
兆
兇
先
光
兊
克
兌
免
兑
兒
兓
兔
党
兜
兟
入
全
兩
兪
八
公
六
兮
兰
共
关
兵
其
具
典
兹
兼
冀
冂
冃
冄
内
冈
冉
冊
冋
册
再
冎
冏
冐
冒
冓
冖
冗
冘
军
农
冝
冡
冥
冫
冬
冷
几
凡
凢
凵
凶
凷
凸
凹
出
函
凾
刀
刁
刂
刃
刄
刅
分
切
刍
刑
刕
刖
列
刘
则
初
別
利
别
到
制
刺
則
削
剌
前
剡
剽
劉
力
功
加
劦
助
劫
劳
劵
勃
勇
勉
勒
動
務
勞
勤
勹
勺
勻
勾
勿
匀
匂
包
匆
匈
匊
匋
匍
匕
化
北
匚
匝
匡
匪
匱
匸
匹
区
医
匽
匿
區
十
卂
千
卄
卅
卆
升
午
卉
半
卌
华
卑
卒
卓
单
卖
南
卜
卝
卞
占
卡
卢
卣
卤
卦
卩
卪
卬
卯
印
危
即
却
卵
卷
卸
卻
厂
厃
厄
历
厈
厉
厌
厓
厘
厚
原
厤
厥
厨
厭
厲
厶
厷
厸
去
厼
厽
叀
参
參
叅
又
叉
及
友
双
反
叐
发
叒
叔
叕
取
受
叚
叜
叟
口
古
句
另
叩
只
召
可
台
叱
史
右
叵
号
司
叹
吂
各
吅
合
吉
吊
吋
同
名
后
吏
向
吕
君
吝
吞
否
含
启
吳
吴
吹
吾
呂
呆
呈
告
员
呙
周
命
咅
和
咎
咠
咢
咨
咸
咼
哀
品
哉
員
哥
哲
唐
商
啇
問
啚
啬
啻
善
喜
喬
單
喿
嗇
噩
嚴
囊
囗
囘
囙
囚
四
回
囟
因
囧
囬
困
囱
囷
固
国
圂
圅
國
圍
圓
土
圡
圣
圥
在
圭
地
圶
圼
坐
坒
坚
坴
垂
垔
垚
埀
埋
埶
執
基
堂
堅
堆
堇
堯
塞
墨
壘
士
壬
壯
声
壳
壴
壹
壺
壽
夂
处
夅
夆
备
夊
夋
夌
复
夏
夒
夕
外
夗
夘
多
夜
夢
大
夨
天
太
夫
夬
夭
央
失
夲
头
夷
夸
夹
夻
夾
奂
奄
奇
奈
奉
奎
奏
奐
契
奓
奔
奚
奞
奠
奢
奥
奭
女
奴
奻
好
如
妄
妙
妟
妥
妻
妾
姑
委
姜
威
娄
婁
婴
嬰
嬴
子
孑
孔
孕
孖
字
存
孚
孛
孝
孟
季
孤
学
孫
孱
學
宀
宁
宂
它
宅
宇
守
安
宋
完
宏
宓
宗
官
定
宛
宜
宝
客
宣
室
宮
宰
害
家
容
宾
宿
寄
寅
密
富
寒
察
寧
審
寫
寬
寮
寸
对
寺
寻
寽
対
寿
封
尃
射
将
將
專
尉
尊
尋
尌
對
小
少
尒
尓
尔
尖
尗
尚
尞
尢
尣
尤
尧
尨
尭
就
尸
尹
尺
尻
尼
尽
尾
尿
局
居
屈
屋
屎
屏
屑
展
屖
屚
属
屠
屡
屬
屮
屯
屰
山
屵
屾
岁
岂
岑
岡
岩
岳
岸
峯
島
崇
崑
崔
崖
崙
崩
嵬
嶲
巂
巛
川
州
巟
巠
巢
巤
工
左
巧
巨
巩
巫
差
己
已
巳
巴
巷
巸
巽
巾
巿
帀
市
布
希
帚
帛
帝
带
師
席
帶
常
干
平
年
幵
并
幷
幸
幺
幻
幼
幽
幾
广
広
庄
床
底
店
庚
府
度
庫
庭
庶
康
庸
廉
廌
廛
廣
廩
廴
延
廷
建
廾
廿
开
弁
弃
弄
弇
弋
式
弓
弔
引
弗
弘
弜
弟
弥
弦
弱
張
強
强
彊
彌
彎
彐
彑
当
彔
录
彖
彗
彡
形
彥
彦
彧
彭
彳
役
彼
往
待
律
徒
得
徙
從
復
微
徵
心
忄
必
忌
忍
志
忝
忠
忩
快
念
忽
忿
思
怠
急
怱
恆
恒
恩
恭
息
悉
患
悤
悲
悶
惠
惡
惢
愁
愈
意
愛
感
慈
慧
慮
憂
憲
應
戀
戈
戉
戊
戋
戌
戍
戎
成
我
戒
戔
或
戚
戠
戢
截
戲
戶
户
戹
戼
戾
房
所
扁
扇
手
扌
才
打
托
执
承
折
拉
拜
拿
掌
推
提
摩
撃
支
攴
攵
收
攸
改
放
政
敄
敏
敕
敖
敗
敝
敞
敢
散
敦
敫
敬
数
敷
數
斂
文
斉
斊
斗
斤
斥
斩
斬
斯
新
方
於
施
斿
旁
旋
族
无
旡
既
旣
日
旦
旧
旨
早
旬
旱
旲
时
旾
昆
昇
昌
昍
明
昏
易
昔
昗
昜
星
春
昬
是
昱
昴
昷
時
晃
晋
晏
晚
普
景
晶
智
暑
暴
曇
曩
曰
曲
曳
更
曷
書
曹
曼
曾
替
最
朁
會
月
有
朋
服
朔
朕
朗
望
朝
期
木
朩
未
末
本
札
朮
术
朱
朵
朶
朿
杀
杏
杜
束
条
来
東
杲
杳
松
析
林
枚
果
枝
枲
枼
某
柔
查
柬
柰
柴
栗
桀
桑
桼
梁
條
梟
梨
棘
棠
棥
森
楚
業
楽
榮
樂
樊
欠
次
欣
欮
欲
欶
欽
款
歆
歇
歛
止
正
此
步
武
歨
歪
歮
歯
歰
歲
歴
歷
歸
歹
歺
死
殳
段
殷
殸
殹
殺
殻
殿
毋
毌
母
每
毒
比
毕
毚
毛
毳
氏
氐
民
气
氣
水
氵
氶
氷
永
氺
氾
求
汝
汞
江
沃
沓
沙
沝
泉
法
波
泣
泥
泰
洛
洪
活
派
流
浦
浪
浮
淡
淮
清
渚
渠
湯
滿
漸
火
灬
灭
灰
灵
灷
炅
炎
炏
炗
炙
炭
為
烈
烏
烝
焉
無
焦
焱
然
煞
熊
熏
燕
營
燮
爪
爫
爭
爯
爰
爱
爲
爵
父
爻
爽
爾
爿
片
牙
牚
牛
牜
牟
牢
牧
牪
牽
犀
犬
犭
犮
狂
狄
狊
独
狺
猋
猒
猪
献
獻
玄
率
玉
王
玟
玨
珎
班
琴
瑟
瑩
瓜
瓦
甘
甚
生
産
用
甫
甬
田
由
甲
申
电
甶
男
甸
甹
画
甾
畀
界
畏
畐
留
畜
畟
畢
畧
畨
番
畫
異
畱
當
畺
畾
疊
疋
疌
疑
疒
疾
癶
癸
癹
登
發
白
百
皀
皃
的
皆
皇
皋
皐
皕
皮
皷
皿
盃
盆
盇
盈
益
盍
盎
监
盒
盖
盛
盡
監
盤
盧
目
直
相
盾
省
眇
眉
看
眔
眞
真
眷
眼
眾
着
睘
睪
睿
瞏
瞢
瞿
矍
矛
矞
矢
矣
知
矦
短
石
破
碎
磊
磨
示
礻
礼
祟
票
祭
禀
禁
禸
禹
禺
离
禽
禾
禿
秀
秃
秉
秋
科
秝
秦
移
稟
穀
穌
穴
究
穹
空
穿
突
窄
窒
立
竒
竜
竝
竟
章
童
竹
笑
笠
筆
等
答
箕
算
箴
節
篤
篭
米
粉
粛
粟
粤
粦
粲
糞
糸
糹
系
約
納
素
索
紫
累
細
絜
絫
絲
維
綿
縣
繇
纍
纟
缶
网
罒
罔
罕
罗
罙
罡
罢
罪
署
罷
羅
羊
羌
羍
美
羔
羕
羗
羞
羡
羣
群
義
羲
羸
羽
翁
翏
習
翕
翟
翠
翼
老
耂
考
者
耆
而
耎
耑
耒
耳
耴
耶
耷
聂
聊
聖
聚
聶
聿
肀
肃
肅
肉
肖
肙
肥
肩
肯
育
肴
胃
背
胡
胥
能
脊
脩
膚
臣
臤
臧
自
臬
臭
臯
臱
至
致
臺
臼
臽
臾
臿
舀
舂
舄
與
興
舉
舌
舍
舛
舜
舞
舟
般
艮
良
色
艸
艹
艾
芒
芔
芬
芮
花
芳
芺
芻
苔
苗
苟
若
苦
英
茶
茸
荅
草
荒
荣
荼
莆
莧
莫
莽
菅
菆
菊
菐
華
萬
落
葉
著
葛
董
葵
蒙
蒦
蒼
蓋
蓬
蓺
蔑
蔡
蕉
蕭
薄
薛
薦
薰
藍
藏
藥
蘭
虍
虎
虐
虒
虔
處
虖
虗
虘
虚
虛
虜
虞
虫
虽
蚤
蚩
蜀
蜜
蟲
蠡
血
行
衍
衛
衣
衤
表
衮
衰
袁
袞
褭
褱
襄
襾
西
覀
要
覃
見
規
覓
覧
親
覽
见
角
解
言
訁
訇
計
詹
誩
諸
讠
谷
豆
豈
豊
豐
豕
豖
豙
象
豦
豩
豪
豸
貇
貝
貞
貟
負
貢
貧
貪
貫
責
貳
貴
買
費
賁
資
賈
賏
賓
賔
賛
賞
賢
賣
質
賴
贊
贝
贡
责
贯
贲
贵
赖
赞
赤
赦
走
越
足
路
蹇
身
躬
車
軍
軎
軟
輦
车
辛
辜
辟
辥
辰
辱
農
辵
辶
边
达
过
近
连
迷
追
退
送
逆
逐
通
速
造
逢
連
逮
進
遀
遂
過
道
達
遣
適
遷
遺
邊
邑
邕
那
邦
邪
郎
部
郭
都
鄉
酉
酋
配
酓
釆
采
里
重
野
量
金
釒
銃
錢
钅
長
镸
长
門
閃
閉
開
閏
閑
閒
間
閔
閵
閻
闌
门
间
闷
阑
阜
阝
阿
降
陳
隆
隊
隋
隡
隨
隱
隶
隹
隺
隻
隼
隽
难
雀
雁
雄
集
雈
雋
雍
雐
雔
雙
雚
雜
雝
離
難
雨
雩
雪
雲
零
雷
需
霍
霜
霝
霞
霸
靈
靑
青
非
靡
面
靣
革
韋
韦
韭
韯
韱
音
頁
頃
項
須
頗
頡
頻
顛
页
風
风
飛
飞
食
飠
養
饣
首
香
馬
馮
駦
马
骨
高
髟
鬥
鬯
鬲
鬼
魚
魯
鮮
鱼
鲁
鳥
鳳
鸟
鹵
鹿
麃
麗
麥
麦
麻
黃
黄
黍
黎
黑
黒
黨
黹
黽
黾
鼎
鼓
鼠
鼻
齊
齋
齐
齒
齿
龍
龙
龜
龟
龠
龰
龱
龴
龵
龶
龷
龸
龹
者
艹
？
🜨
𠀁
𠀃
𠀆
𠀉
𠀎
𠀐
𠁁
𠁣
𠂆
𠂇
𠂈
𠂉
𠂊
𠂋
𠂎
𠂒
𠂔
𠂛
𠂡
𠂢
𠂤
𠂬
𠂭
𠂹
𠃊
𠃋
𠃌
𠃍
𠃎
𠃑
𠃓
𠃔
𠃜
𠄌
𠄎
𠄠
𠄢
𠆢
𠆥
𠇍
𠈌
𠌵
𠓜
𠔉
𠔥
𠔼
𠔽
𠔿
𠕀
𠕁
𠕋
𠘧
𠘨
𠙻
𠙼
𠚏
𠚒
𠚤
𠚪
𠣏
𠤎
𠤕
𠥓
𠦄
𠦑
𠦝
𠧒
𠧗
𠧪
𠩺
𠪚
𠫓
𠫔
𠫤
𠬛
𠬝
𠬞
𠬢
𠬤
𠬶
𠮛
𠮦
𠮷
𠯑
𠱠
𠳮
𠷎
𡈼
𡉀
𡉵
𡌥
𡍮
𡏳
𡕒
𡕩
𡕰
𡖅
𡗗
𡗜
𡘆
𡘤
𡧱
𡨄
𡩧
𡬠
𡭽
𡰣
𡰥
𡰪
𡰯
𡰱
𡷈
𡸁
𡿨
𡿩
𡿪
𡿺
𢀖
𢀛
𢀩
𢁙
𢆉
𢆰
𢆶
𢇁
𢇇
𢉖
𢌬
𢌿
𢏚
𢑑
𢑚
𢖻
𢙣
𢛳
𢦏
𢦒
𢧵
𢼄
𢾕
𣁋
𣄼
𣅀
𣅽
𣍘
𣎳
𣎵
𣏋
𣏼
𣗥
𣥂
𣥖
𣦵
𣦼
𣧄
𣪊
𣪠
𣬉
𣳾
𣶒
𤇾
𤊽
𤐫
𤓰
𤔔
𤕨
𤣩
𤰇
𤰔
𤰞
𤴓
𤴔
𤽄
𥁑
𥁕
𥃦
𥃩
𥃭
𥇡
𥑟
𥘅
𥘈
𥝢
𥫗
𥱡
𦈢
𦉪
𦉬
𦉼
𦍌
𦍒
𦎧
𦐇
𦓔
𦔮
𦘒
𦙃
𦚏
𦣝
𦣞
𦣻
𦥑
𦥔
𦥯
𦨉
𦭝
𦰩
𧆞
𧈧
𧘇
𧰨
𧴪
𧴮
𧵩
𧾷
𨸏
𨾴
𩙿
𩠐
𩫏
𩵋
𪉷
𪜀
𪟽
𪠲
𪩲
𫇦
𫔭
𫜸
𫝀
𫠣
𫠩
𫢉
𫥞
𫩏
𫩠
𫪡
𫲽
𫶧
𬀷
𬐘
𬗌
𬙙
𬛸
𬜯
𬟩
𬯁
𬴘
𬺻
𬼉
𬼖
𭀰
𭁈
𭁨
𭅰
𭑈
𭕄
𭗼
𭤨
𭥫
𭻾
𮅕
𮊿
𮍌
𮍏
𮓗
𮥼
𮧮
廾
𰀁
𰀄
𰀈
𰀉
𰀕
𰀠
𰀡
𰀢
𰀪
𰁜
𰃮
𰆊
𰆘
𰋙
𰕎
𰢴
𰧭
𰯲
00--
10--
11--
13--
14--
15--
16--
17--
18--
20--
21--
23--
24--
25--
250--
26--
29--
38--
45--
46--
47--
51--
54--
59--
62--
66--
68--
69--
70--
73--
76--
85--
90--
978--
99--
a--
aar--
ab--
abdi--
ac--
acce--
achi--
ad--
ada--
adab--
adadz--
adadziw--
adag--
adakond--
adam--
adang--
adaph--
adapit--
adason--
adatch--
adats--
adawa--
adawo--
adawul--
aday--
adayim--
adaz--
ado--
adz--
adza--
adzagw--
adzawa--
adzay--
adzayim--
adzud--
ae--
af--
ag--
agu--
agw--
ai--
aka--
akan--
aku--
akug--
akugw--
akukhulup--
akum--
akuphunz--
akupit--
akuwo--
al--
alen--
alimbik--
all--
am--
ama--
amab--
amad--
amag--
amagan--
amagw--
amaka--
amakhud--
amalam--
amalep--
amam--
amamu--
amang--
amas--
amason--
amat--
amatch--
amatem--
amath--
amawa--
amawe--
amawo--
amaz--
ambu--
ami--
amu--
amup--
amv--
an--
ana--
anab--
anaka--
analu--
anamu--
anats--
anayank--
ang--
anga--
anka--
ankagw--
ankath--
anti--
any--
ap--
apa--
aph--
apikis--
apit--
app--
apulumu--
ar--
arc--
arch--
as--
asada--
asam--
asana--
asankh--
ash--
ast--
at--
ata--
atamu--
atang--
atango--
atats--
atch--
ato--
atu--
au--
awa--
awo--
ay--
ayamb--
az--
azi--
azid--
azil--
azis--
azit--
b--
ba--
bac--
bag--
bam--
ban--
bar--
bat--
bay--
be--
bee--
begin--
ben--
ber--
berg--
bet--
bi--
biblio--
bis--
ble--
bo--
bol--
bor--
br--
bra--
brad--
bri--
brit--
bu--
budd--
bul--
bur--
burle--
bus--
c--
ca--
cal--
cale--
car--
cata--
cau--
cav--
ce--
ch--
cha--
cham--
chap--
chats--
che--
chi--
chid--
chig--
chima--
chin--
ching--
chit--
chiwo--
cho--
chof--
cholo--
chop--
chos--
choy--
chr--
cit--
cle--
cli--
co--
cof--
col--
con--
const--
cont--
cor--
cot--
cr--
cre--
cri--
crist--
cro--
cru--
crypto--
cur--
cy--
cyc--
d--
da--
dai--
dar--
de--
defi--
deu--
dev--
di--
dio--
disc--
dj--
do--
dom--
don--
dr--
dra--
du--
dyna--
dz--
dza--
e--
ea--
eco--
ed--
ek--
el--
em--
eme--
emi--
emp--
en--
environ--
ep--
epis--
ere--
es--
esper--
et--
eu--
ev--
even--
ex--
f--
fa--
fe--
feb--
fed--
fer--
fi--
fil--
fin--
fle--
fo--
fr--
fred--
free--
fu--
g--
ga--
gaf--
gal--
gam--
gar--
ge--
geo--
geolo--
ger--
gh--
gi--
gle--
glo--
go--
golo--
gor--
gr--
grim--
gro--
grow--
gu--
gua--
guil--
guild--
gw--
h--
ha--
ham--
han--
har--
hat--
hay--
he--
head--
hel--
helio--
hen--
her--
him--
ho--
hol--
home--
hor--
hu--
hy--
i--
ic--
id--
ida--
idad--
idadz--
idaf--
idag--
idak--
idalep--
idaph--
idasoko--
idat--
idawo--
iday--
idayamb--
ident--
idu--
idza--
idzay--
if--
ig--
igw--
ikang--
iku--
ikum--
ikuyembe--
il--
im--
ima--
imab--
imag--
imagw--
imakhazik--
imam--
imang--
imas--
imasi--
imasindik--
in--
ina--
inagw--
inawo--
indu--
infe--
ing--
inka--
inter--
inv--
ip--
ir--
is--
isana--
isun--
it--
ita--
itag--
iv--
iwo--
j--
ja--
jar--
jay--
je--
jo--
joaqu--
ju--
k--
ka--
kah--
kaiser--
kala--
kali--
kar--
kat--
kaw--
ke--
ker--
key--
kh--
kha--
kho--
kil--
ko--
konk--
kopit--
kosa--
koy--
kri--
kry--
ku--
kub--
kud--
kuda--
kudak--
kudats--
kudu--
kudz--
kudza--
kufu--
kug--
kugo--
kugw--
kuk--
kuka--
kuko--
kula--
kule--
kulekan--
kulu--
kum--
kuma--
kumaph--
kumu--
kun--
kuna--
kunab--
kunaph--
kung--
kup--
kuph--
kupin--
kupu--
kusa--
kusakhulup--
kusin--
kut--
kuts--
kuu--
kuun--
kuwa--
kuwo--
kuy--
kuyim--
kuz--
kuzigw--
kwa--
kwe--
ky--
l--
la--
lachi--
ladz--
ladziw--
lakhazik--
laku--
lama--
lanca--
lap--
lar--
lau--
lav--
le--
legis--
leop--
li--
lib--
lid--
lida--
lidagw--
lidapit--
lidawo--
lidza--
likada--
lima--
lina--
ling--
link--
lita--
lithand--
litu--
live--
liwa--
liwo--
lo--
lochep--
lofotokoz--
logw--
lon--
lop--
loph--
los--
lots--
lov--
loy--
lu--
lun--
ly--
m--
ma--
mac--
mad--
mag--
magw--
mah--
maho--
maj--
mal--
man--
map--
mapo--
mar--
masa--
mase--
mat--
mav--
maw--
may--
mb--
mba--
mbe--
mc--
mch--
md--
me--
meg--
mel--
mer--
mexi--
mha--
mi--
mic--
mid--
mil--
mip--
mk--
mm--
mma--
mo--
mom--
mon--
mopit--
mor--
mosa--
mou--
moy--
mp--
mph--
ms--
msik--
mt--
mu--
muk--
muka--
muku--
muma--
mung--
mwa--
my--
mzik--
mzu--
n--
na--
natu--
nc--
nd--
ndi--
ndiku--
ndikuwa--
ndikuz--
ndima--
ne--
ng--
ni--
no--
nor--
nov--
nth--
nu--
nyan--
nyo--
nyu--
nz--
o--
ob--
observ--
od--
of--
og--
ogo--
ogw--
ok--
oka--
oko--
okonz--
ola--
oli--
olumik--
on--
op--
oph--
or--
os--
osa--
osaph--
osas--
osay--
osoko--
osun--
ot--
othamang--
ots--
ou--
out--
ov--
ovi--
owo--
oy--
oya--
p--
pa--
pac--
pach--
paku--
palest--
pama--
pan--
pang--
par--
para--
part--
partic--
pass--
pat--
patri--
pav--
pay--
paz--
pe--
pear--
pek--
pen--
pengu--
pente--
per--
pet--
ph--
pho--
pi--
pige--
pis--
pit--
pl--
play--
po--
pob--
pol--
poly--
poo--
pop--
popit--
pos--
pots--
pow--
pr--
pre--
prev--
princ--
pro--
psy--
pu--
publi--
py--
q--
qa--
qu--
quo--
r--
ra--
rail--
rat--
re--
red--
reg--
regi--
rest--
ri--
ric--
rie--
rif--
ro--
rodri--
ru--
ry--
s--
sa--
salv--
sama--
san--
sana--
sanam--
sanawe--
sang--
sc--
sch--
se--
sen--
ser--
sh--
she--
sher--
sho--
shu--
shutt--
si--
sid--
siku--
sikuna--
sikung--
sil--
sili--
sin--
sina--
sindi--
sit--
siti--
siz--
sizi--
sizimang--
sizina--
sizing--
sk--
slavi--
slo--
so--
son--
sooma--
sor--
sp--
sport--
spring--
sq--
st--
stab--
ste--
su--
subst--
sun--
sung--
suo--
super--
sur--
sura--
sw--
sy--
symp--
syn--
t--
ta--
tab--
taf--
tar--
tat--
te--
tele--
terri--
th--
the--
thou--
ti--
tibe--
tim--
tima--
ting--
tis--
tit--
to--
tor--
tou--
tr--
tra--
tran--
trans--
transp--
tre--
tri--
trib--
tro--
ts--
tu--
tun--
tur--
twa--
tx--
typho--
u--
ub--
ud--
uda--
ug--
uk--
uku--
ul--
ult--
uma--
umagw--
umap--
umay--
un--
una--
unab--
unas--
unayamb--
unazim--
ung--
up--
ur--
us--
usana--
usanak--
ut--
uta--
v--
val--
vas--
ve--
vel--
ver--
ves--
vi--
victo--
vir--
w--
wa--
wach--
wachi--
wadza--
wagwi--
wako--
waku--
wal--
wald--
wam--
wama--
wan--
wapit--
wath--
waw--
we--
wed--
wel--
wiki--
wil--
win--
wit--
wo--
wob--
wodz--
wog--
wogw--
woko--
wokond--
wola--
womasu--
wop--
wophunz--
wopik--
wor--
wosa--
wose--
wote--
woth--
wots--
wowo--
woy--
wr--
wy--
x--
xi--
y--
ya--
yachi--
yah--
yaku--
yam--
yama--
yatu--
yo--
yobe--
yochep--
yogw--
yok--
yokonz--
yole--
yom--
yomas--
yoph--
yopu--
yosa--
yote--
yoth--
yots--
yotso--
yotu--
yowo--
yowon--
yoy--
yoyamb--
yoyes--
yu--
z--
za--
zachi--
zaku--
zam--
zama--
zamat--
zapa--
zasin--
zats--
zi--
zid--
zida--
zidang--
zidziw--
zif--
zima--
zimamu--
zin--
zina--
zing--
zinka--
zinkaw--
zip--
zipe--
zit--
zitsimik--
ziw--
zizi--
zo--
zob--
zof--
zofu--
zole--
zolo--
zoph--
zos--
zose--
zot--
zotu--
zoya--
zu--
æ--
ɡ--
ɪ--
δ--
κ--
λ--
π--
τ--
к--
нед--
ск--
الص--
--0
--00
--000
--1
--2
--23
--29
--3
--33
--4
--5
--51
--53
--57
--6
--7
--8
--87
--9
--938
--a
--ach
--achedwa
--ad
--ade
--adziw
--adzulo
--ae
--afuna
--age
--ah
--ai
--ak
--akhudze
--al
--ala
--ald
--ale
--all
--alo
--aloko
--als
--am
--ama
--ambira
--amu
--an
--ana
--and
--angizo
--ani
--anja
--ano
--ans
--anso
--ant
--aphy
--aps
--aq
--ar
--ary
--as
--ase
--asew
--asewera
--asi
--asula
--at
--ate
--atenga
--ation
--ations
--ative
--atsa
--atsenga
--au
--avuta
--awo
--ax
--ay
--aya
--az
--b
--ba
--bacillary
--badwa
--be
--bedwa
--bell
--bereka
--bi
--bican
--bidwa
--bike
--bira
--bo
--br
--bu
--buda
--buka
--bukira
--bula
--burg
--burn
--butsanso
--buyo
--bwa
--bwera
--bwezeretsanso
--by
--c
--ca
--cal
--cas
--ce
--ch
--che
--chedwa
--chen
--chenjeza
--chenjezedwa
--chepetsedwa
--cher
--chi
--chita
--chite
--chitidwa
--chitikira
--chitira
--cho
--chokera
--chotsedwa
--ci
--cin
--cio
--ck
--co
--cs
--ct
--ctive
--cts
--cus
--cy
--d
--da
--dad
--dae
--dal
--dalira
--de
--di
--didwa
--dikira
--dire
--do
--ds
--du
--duka
--dula
--dule
--dutsa
--dwa
--dwanso
--dwayo
--dwe
--dwera
--dweratu
--dwira
--dy
--dya
--dz
--dza
--dzala
--dzanja
--dzi
--dziw
--dziwa
--dziwika
--dzudzula
--e
--ed
--edwa
--edwe
--ee
--ees
--ef
--eg
--eguka
--eh
--ej
--eka
--eke
--ekedwa
--ekedwe
--eko
--el
--ela
--eli
--em
--ema
--en
--enga
--enso
--ent
--eo
--epa
--er
--era
--ere
--ereka
--erera
--eretsa
--ereza
--erezedwa
--ers
--ert
--es
--esa
--ese
--est
--et
--eta
--eteze
--ets
--etsa
--etse
--etsedwa
--etta
--eus
--ev
--ewera
--ey
--eza
--eze
--ezedwa
--ezeka
--f
--fa
--fala
--falikira
--falitsa
--falitsidwa
--fanizidwa
--fe
--fer
--ff
--fika
--fike
--fikira
--fotokoza
--fotokozedwa
--fotokozera
--fufuza
--fumu
--funa
--funikira
--funse
--funsidwa
--futa
--futi
--g
--ga
--gala
--galala
--galatsa
--gamu
--gana
--gate
--gawenga
--gawidwa
--gawo
--ge
--gedwa
--geka
--geke
--ger
--gera
--gi
--gidwa
--gins
--go
--gona
--gonekedwa
--gonja
--gonjetsa
--gonjetsedwa
--grad
--griki
--gs
--gu
--gulitsa
--gulitsidwa
--gwa
--gwe
--gwedeza
--gwera
--gwetsa
--gwidwa
--gwira
--gwiridwa
--gwiritsa
--gwiritsidwa
--gwiritsidwanso
--gwirizano
--gy
--h
--ha
--ham
--han
--hana
--he
--head
--hebri
--hidwa
--hidwe
--hikidwa
--hip
--ho
--honi
--hu
--hunzi
--i
--ia
--ian
--ic
--ical
--ics
--id
--idae
--ides
--idwa
--idwanso
--idwe
--idwira
--ie
--ied
--ier
--ies
--ig
--ik
--ika
--iki
--ikidwa
--ikila
--ikira
--ikiza
--ikizidwa
--ikizidwe
--ikizika
--ikizira
--ikiziranso
--ikiziridwa
--iku
--il
--ila
--ile
--im
--ima
--imira
--in
--ina
--inda
--ine
--ing
--ings
--ini
--ins
--intha
--io
--ion
--ique
--ir
--ira
--irako
--ire
--iridwa
--iro
--is
--ish
--ism
--ist
--isti
--it
--ita
--itanidwa
--ite
--itsa
--itse
--ity
--ius
--ive
--ivka
--ix
--iya
--iyala
--iza
--ization
--ize
--izidwa
--j
--ja
--je
--jekiti
--jera
--ji
--k
--ka
--kakamiza
--kakamizidwa
--kakhala
--kali
--kamizidwa
--kaphunzira
--kapita
--kasu
--kati
--kazi
--ke
--kedwa
--ker
--kera
--ketsa
--keza
--kezeka
--kha
--khala
--khazikitsidwa
--khidwa
--kho
--khoza
--khudza
--khudze
--khudzidwa
--ki
--kidwa
--kidwe
--kila
--kir
--kira
--kiritsa
--kitsidwa
--kiza
--kizapo
--kizepo
--ko
--konda
--kondi
--kondwera
--koneza
--konzedwa
--konzedweratu
--kopa
--koza
--ks
--ku
--kula
--kulu
--kwa
--kwaniritsa
--kwera
--kweza
--ky
--l
--la
--lala
--lale
--lana
--lav
--ld
--lds
--le
--ledwa
--lembedwa
--lembetsa
--lengedwa
--lengedwe
--lengeza
--lengezedwa
--lephereka
--ler
--lera
--les
--less
--letsa
--ley
--lf
--li
--lidwa
--lidwe
--lika
--liki
--likira
--limwe
--lipo
--lira
--litchi
--litsa
--ll
--lle
--lles
--lly
--lm
--lo
--logy
--lola
--lombo
--lonjeza
--lowa
--ls
--lsh
--lu
--luya
--ly
--m
--ma
--madzi
--makonda
--man
--mana
--manga
--mangidwa
--mangira
--mangitsidwa
--mangitsidwe
--masulidwa
--mba
--mbana
--mbane
--mbe
--mbedwa
--mbera
--mbi
--mbidwa
--mbikira
--mbikitsa
--mbikitsidwa
--mbitsa
--mbo
--mbudzi
--me
--mer
--mera
--merika
--meter
--meza
--mi
--mira
--mitsidwa
--miza
--mo
--mola
--mond
--ms
--mu
--mula
--mulepheretsa
--mutsidwa
--muuza
--mva
--mveka
--mwe
--mwitsa
--my
--n
--na
--nagar
--nanso
--napo
--nc
--nce
--ncy
--nd
--nda
--nde
--ndetsa
--ndikira
--ndira
--ndiza
--ndizidwa
--ndizira
--ndo
--ndu
--ne
--nedwa
--neka
--neke
--nekera
--nenedwa
--ner
--nera
--nes
--netsa
--netsedwa
--netsero
--ney
--neza
--neze
--nezeka
--ng
--nga
--ngaliro
--ngana
--nganiza
--nge
--ngedwa
--ngeka
--ngelezi
--ngera
--ngeza
--ngira
--ngirira
--ngo
--ngoletsera
--ngouzidwa
--ngrad
--ngu
--ni
--nia
--nic
--nidwa
--nie
--nika
--nikira
--nira
--niritsa
--niritse
--nitsa
--nitse
--nitsidwa
--nium
--niza
--nja
--nje
--njezeka
--nji
--nk
--nka
--nki
--nn
--nne
--no
--nongeka
--nor
--ns
--nsa
--nse
--nsi
--nso
--nt
--nta
--nte
--ntha
--nthauza
--nthu
--nti
--nts
--nu
--ny
--nya
--nyaza
--nye
--nyeza
--nyidwa
--nza
--nze
--o
--ody
--oe
--oga
--ogy
--ok
--oke
--oko
--ol
--ola
--ole
--oletsera
--olo
--ology
--om
--on
--ona
--onekera
--ons
--op
--opa
--ope
--opo
--or
--ors
--ort
--ory
--os
--osi
--osola
--otsa
--otte
--ov
--ow
--owa
--ows
--p
--pa
--pambana
--pambanidwa
--panga
--pangitsa
--pe
--pereka
--perekedwa
--petsa
--peza
--peze
--pezedwa
--pezeka
--pha
--phatikiza
--phatikizidwa
--phedwa
--pheretsa
--phunzira
--phwanya
--pi
--pidwa
--pil
--ping
--pira
--pita
--po
--pobe
--poto
--ps
--psa
--psompsona
--pt
--putala
--pwitikizi
--py
--q
--r
--ra
--rabe
--ral
--ran
--rana
--rani
--ranso
--rator
--ratu
--rc
--rch
--rck
--rd
--rds
--re
--redwa
--reka
--rera
--res
--ress
--reza
--rezi
--rg
--ri
--ria
--ridwa
--rie
--ries
--rika
--rira
--rise
--ritsa
--rk
--rkey
--rm
--rn
--ro
--roma
--ron
--row
--rp
--rr
--rra
--rry
--rs
--rt
--rta
--rte
--rth
--ru
--ry
--s
--sa
--sainidwa
--samukira
--samutsidwa
--sankha
--sankhidwa
--sankho
--sanso
--sby
--se
--seche
--sed
--sedwa
--seka
--sera
--setsa
--sewera
--sh
--shi
--shire
--si
--sia
--side
--sidwa
--sika
--sintha
--sinthe
--sinthidwa
--sinthika
--sio
--sis
--sitomala
--situ
--siya
--siyana
--siyidwa
--so
--sokoneza
--sokonezeka
--son
--soni
--sonyeza
--sowa
--ss
--st
--sti
--sts
--style
--su
--sulidwa
--sulira
--sus
--swa
--t
--ta
--tal
--tali
--tambo
--tanthauzidwa
--tas
--tation
--taya
--tcha
--tchedwa
--tchuka
--tchulidwa
--tchulidwe
--te
--tendere
--tentha
--ter
--tera
--tero
--tes
--tetezedwa
--tezeka
--th
--tha
--thaw
--thetsa
--thetsedwa
--thi
--thira
--tho
--thu
--thunthu
--ti
--tic
--tidwa
--tifomu
--tike
--tikila
--tikira
--tikiza
--tikizidwa
--tikizira
--ting
--tion
--tions
--tira
--tis
--titsa
--tive
--tiwa
--tiza
--to
--ton
--tor
--tric
--try
--ts
--tsa
--tsala
--tsanso
--tsata
--tsatira
--tse
--tsedwa
--tsedwe
--tseka
--tsero
--tsi
--tsidwa
--tsidwanso
--tsidwe
--tsidwira
--tsika
--tsira
--tso
--tsogolera
--tsogozedwa
--tsulo
--tsutsa
--tt
--tte
--tu
--tula
--tulutsa
--tumikira
--tumiza
--tumizidwa
--tumizira
--ture
--ty
--tz
--u
--ud
--udziwa
--ue
--ug
--ui
--uimba
--uka
--ukira
--ul
--ula
--ule
--ulere
--ulidwanso
--ulo
--ulutsa
--um
--umbu
--un
--una
--unda
--unga
--unuka
--uona
--upi
--ur
--ure
--us
--ut
--uta
--uth
--utsa
--uza
--uzidwa
--v
--va
--ve
--ven
--ver
--verly
--vers
--vetsera
--ville
--vka
--vo
--vre
--vu
--vuta
--w
--wa
--wafunse
--wana
--wanso
--wawa
--we
--wera
--weruza
--wi
--wini
--wira
--wo
--womba
--wombera
--wona
--woneka
--woneke
--wonekera
--wonongeka
--wopsa
--wopseza
--wu
--wuka
--wulukira
--wuni
--wv
--x
--y
--ya
--yambe
--yambika
--yambitsa
--yambitsidwa
--yana
--yani
--yankha
--ye
--yedwa
--yenda
--yendetsedwa
--yenera
--yenga
--yer
--yerekeza
--yesa
--yesedwa
--yesetsa
--yeza
--yi
--yikira
--yiko
--yima
--yimba
--yimitsidwa
--yn
--yo
--ys
--yu
--z
--za
--zabe
--zane
--zanitsa
--zano
--ze
--zedwa
--zedwe
--zeka
--zere
--zereka
--zeretsa
--zi
--zia
--zidwa
--zidzi
--zika
--zikitsa
--zikitsidwa
--zindikira
--zing
--zira
--ziw
--ziwa
--zo
--zungu
--zy
--zzo
--ə
--α
--ε
--ι
--ος
--υ
--ω
--и
--на
--ское
