!
"
#
##0
##1
##10
##11
##12
##13
##14
##15
##16
##17
##18
##19
##2
##20
##21
##22
##23
##24
##25
##26
##27
##28
##29
##3
##30
##31
##32
##33
##34
##35
##36
##37
##38
##39
##4
##40
##41
##42
##43
##44
##45
##46
##47
##48
##49
##5
##50
##51
##52
##53
##54
##55
##56
##57
##58
##59
##6
##60
##61
##62
##63
##64
##65
##66
##67
##68
##69
##7
##70
##71
##72
##73
##74
##75
##76
##77
##78
##79
##8
##80
##81
##82
##83
##84
##85
##86
##87
##88
##89
##9
##90
##91
##92
##93
##94
##95
##96
##97
##98
##99
$
%
&
'
(
)
*
+
,
-
.
/
0
00
000
0000
001
002
003
004
006
008
009
01
011
02
0203
022
03
035
04
041
046
049
05
06
062
063
07
072
075
08
086
089
09
1
10
100
1000
10000
100000
101
102
102398
103
104
105
105690470
106
107
108
109
11
110
111
112
113
114
115
116
1160
117
118
119
12
120
1200
121
1215
122
1227
123
124
125
126
127
128
129
13
130
131
132
1343
135
136
137
1376
14
140
14005
141
143
1433
14331
1448
145
1453
1458
146
1464
1471
1476
148
1480
1490
1492
1497
15
150
1500
1502
1504
151
151223
1545
1559
156
15616276
156376
1568
1571
1580
159
16
160
1600
161
162
163
1630
1635
164
165
166
1665
167
1680
1692
17
170
1705
171
172
173
1730
1740
1758
1767
178
1794
18
180
1800
1810
1813
1814
1828
183
1839
1842
1849
185
1850
1860
1861
1863
1864
1870
1871
1872
1873
1875
1876
1877
1878
1879
1880
1881
1882
1885
1887
1888
1889
1890
1893
1895
1896
1897
1899
19
190
1900
1902
1904
1905
1906
1907
1908
191
1910
1911
1912
1913
1914
1915
1918
1919
1920
1921
1922
1923
1925
1926
1927
1928
193
1930
1932
1933
1934
1935
1936
1937
1938
1939
1940
1941
1942
1943
1944
1945
1946
1947
1948
1949
1950
1951
1953
1954
1955
1956
1957
1958
1959
1960
1961
1962
1963
1964
1967
1968
1969
1970
1971
1972
1973
1974
1975
1977
1978
1980
1981
1982
1983
1984
1986
1987
1988
1989
1990
1991
1992
1993
1994
1995
1996
1997
1998
1999
2
20
200
2000
20000
2001
2002
2003
2004
2005
2006
2007
2008
2009
2010
2011
2012
2013
2014
2015
2016
2017
2018
2019
202
2020
2021
2022
2023
203
2030
204
2044
206
2070
209
2096
21
211
211274
212
213
214
215
217
218
219
219523
22
220
220509
222
224
225
227
23
230
231
232
235
237
23701
24
240
241
2415901
242
245
247
248
2481
25
250
2521
2522
255
26
260
262
2629164
267
268
269
27
271
275
279
28
2800
281
282
29
290
291
293
296
3
30
300
3000
30000
3008
301
304
31
310
311
31165
31181
31964
32
320
33
330
3372
34
3419343
345
35
350
351
355
36
360
361
364
365
36578
366
37
373
374
38
380
3831
384060
39
4
40
400
4000
405
40629
407
409
41
412
413
41304
42
425
43
433
434
435
44
444
45
450
456
46
47
478
479
48
483
486
49
490
496
499
5
50
500
5000
50000
501
502
504063
505
508
51
52
520
527
53
53049
535
54
544
55
550
551
553
558
56
568769
569
57
570
571
576
577
578
58
580
582
585
5851
59
591
6
60
600
60000
602243
61
62
625
63
6357
639
64
65
65000
651
656
66
660
666
67
670
676
678
68
69
691
7
70
700
70000
70425
71
719
72
720
724
73
730
7314
7318
74
747
748
75
754454
755
76
77
7737
78
786
789
79
794
8
80
800
80000
805
8051
81
813
82
828
83
839
84
844
85
850
854
86
8601
866
87
875
88
881
884
89
891
9
90
900
901
91
910
911
917
92
93
938726
94
941
947
95
953
955
95696
957
958
96
97
972
978
98
98085
99
990
995
999
9999
:
;
<
=
>
?
@
\
^
_
a
aa
aakhmedova
aaron
ab
abandoned
abbey
abbr
abe
abendsonne
ability
able
about
above
abraham
abs
absorption
abstract
abtei
abuse
abusefilter
abusefilters
ac
academic
academy
acb
accept
acceptable
accepted
accepting
accepts
access
accessdate
accessed
accessibility
accessible
accipiter
according
accordingly
account
accounts
ace
acer
achieve
achieved
acigastra
acinonyx
acr
across
act
action
actions
activate
active
activities
activity
actm
actors
actualdate
actualdateboundariesproperties
actually
aculeata
acutus
adac
adam
adana
adansonia
add
addclass
added
adding
addition
additional
addnewline
addpipe
address
addresses
adds
adf
adi
adippe
adiyaman
adjust
adm
admin
administrators
admins
adminship
adult
advance
advanced
advancedsearch
advocate
ady
ae
aegagrus
aepyceros
aerial
aero
aeshna
af
afar
affect
affected
affecting
affects
affiliate
affiliates
africa
african
africana
africano
africanus
afrikaans
after
afterparam
afterwards
ag
again
against
agama
age
ageimpl
agenda
aggregator
agilis
ago
agra
agraulis
agriocnemis
agrius
ahead
ai
aiguille
aims
air
airbus
airport
ais
aix
ak
aka
akc
ako
aksaray
akseki
aksu
akyurt
al
aladag
alanya
alaska
alba
albarraci
albert
albiceps
album
alcedo
alcelaphus
alemania
aleph
aleut
alexander
alexandre
alhambra
alias
aliases
aliaseslist
align
all
allclaims
alleborgobot
allegra
allied
alligator
allium
allmovie
allmusic
allocate
allocine
allow
allowed
allowing
allows
allowtables
allpropertyclaims
allsnaks
almana
almost
aloe
along
alongside
alouatta
alpha
alphabet
alps
already
als
also
alt
alta
altaica
altar
alte
altenburg
alter
alternative
altes
although
alto
altstadt
altındag
always
am
amanita
amasya
ambassador
ambassadors
amber
amendment
america
american
americana
americanus
americas
amikeco
amir
amk
amlıdere
among
amount
amphibius
amphiprion
amsterdam
an
ana
analysis
anas
anatomy
anax
anchor
and
android
anemone
anemonefish
anfiteatro
angkor
angle
angustifolia
ani
anidb
animal
animated
animation
anime
animenewsnetwork
ankara
anna
annam
annona
announce
announced
announcement
announcements
announcing
annual
another
anse
anser
ansicht
answer
antalya
antarctica
antelope
anthophora
antiquity
anubis
any
anyone
ap
apatura
apex
api
apis
apollo
apologies
apologize
app
appeal
appear
appearance
appearances
appeared
appears
appendimpl
appendproperty
appendqualifiers
appendsnaks
apple
applicable
applicants
application
applications
applied
apply
appreciate
appreciated
approach
appropriate
approved
approximately
apr
april
aqua
aquila
ar
ara
arabic
aralam
aramaic
araneus
arashiyama
arbitrary
arc
arcdate
arch
architectural
archive
archives
arclink
arctic
arctos
ardahan
ardanuc
ardea
are
area
areas
aren
arg
argiope
argname
argnumber
args
argsi
argsk
argskey
argsname
argtables
argtableval
argument
arguments
argynnis
arhavi
arietinum
armenia
armenian
arms
armstrong
army
around
arr
arrange
array
arrive
art
arte
artes
article
articles
articulatio
artificialsnaks
artist
artists
arts
artvin
arvense
arvensis
arxiv
as
asclepias
asia
asian
asinus
ask
asked
asking
asks
asp
aspects
aspx
assembly
assertnotnull
assign
assigned
assist
assistance
assisted
associate
associated
ast
asv
at
atacama
ateles
athene
athens
athlete
athletes
athletics
atlas
atleta
atlites
attacus
attend
attended
attention
atthis
attica
attr
attributes
attrstring
atymnus
au
audi
audience
audiences
audio
audios
auf
aug
august
aurata
aurelia
auritus
aurora
australia
australian
australis
aut
auth
author
authority
authoritycontrol
authorlink
authormain
authorname
authors
auto
autofill
autoheaders
automated
automatic
automatically
autonomous
autovalue
autumn
av
availability
available
avena
avenida
average
avoid
avwiki
award
awarddata
awardentity
awardfields
awardid
awardorder
awardsorder
aware
awareness
away
axis
ay
ayas
aydin
ayuntamiento
az
azerbaijani
azerbaiya
aziziye
azərbaycan
b
ba
babel
baby
bac
bachas
back
background
backtranslate
backward
bad
baden
badius
badtwins
bahc
bahi
bahir
baileyi
baku
bal
bala
balance
bald
baldus
ball
ballet
balloon
balteatus
baltimore
bamberg
ban
bangkok
bank
banner
bans
baobab
bar
barbara
barriers
bars
bartz
bas
basa
base
baseball
based
baseresult
basestyle
basi
basic
basilica
basilika
basis
basket
basketball
bassel
bat
bath
bauerschaft
bay
baylor
bb
bbg
bd
bdfutbol
be
beach
beans
bear
bec
because
become
becoming
bee
beech
been
beetle
before
beforeparam
begin
beginning
begins
begun
behalf
behavior
behaviour
behesht
behind
bei
beilstein
being
beinn
bel
belfast
belfort
bell
belle
bellied
below
ben
bend
bengal
benidorm
benz
ber
bergtocht
beringei
berkenzwam
berli
berlin
berliner
bernina
bes
besni
best
beta
betawiki
better
betulinus
between
bg
bho
bi
biathlon
biathlonrus
bibliographic
biblioteca
bibliothek
bicolor
bicornis
bicycle
big
bigger
biggest
billed
billion
bin
bingen
bio
biographies
biography
bird
birds
birgit
bisaltide
bison
bit
black
blanter
blaubeuren
blaue
bld
blica
blick
block
blockargs
blocker
blocks
bloem
bloemknoppen
blog
bloomsbury
blossom
blue
bm
bms
bmw
bn
bnf
bo
board
boat
body
bodyclass
bodystyle
boeing
bog
bold
boletus
bolivia
boliviensis
boloria
bombus
bonasus
bonn
book
bookmark
books
bookseries
bookseriesentity
bookseriesissue
bookseriesvolume
boolean
borc
border
borealis
bos
boselaphus
bosnia
bot
bota
botanic
both
botmultichill
bots
botsuana
bottom
boulevard
bound
boundaries
box
boxes
boy
bprecision
bpy
br
brachypelma
brachyteles
brackets
branch
brasil
brassicae
brauchle
brazil
brazilian
break
breaking
breaks
brennerei
bresson
breton
bridge
brighter
brighton
brillonline
brimstone
bring
bringing
britain
britannica
british
broadway
broken
brooklyn
brown
browser
browsers
bru
bruennichi
brunnen
brussels
bryce
bs
bst
bstructure
btable
bu
bua
bubble
bubbles
bubo
bucak
bucarest
buffalo
bufo
bug
bugs
bugzilla
buharkent
build
building
built
buldern
bulgaria
bullet
bullockoides
bunker
burdwan
burg
bush
business
but
buteo
buteogallus
butterfly
button
buttons
buzau
bvalue
bw
bxr
by
bytemplate
c
ca
cabo
cache
cached
caenorhabditis
caffer
cairn
calama
calatayud
calculatedage
calendar
calendarmodel
calidris
california
californianus
call
callargs
calle
called
calliphora
callparserfunction
calopteryx
calumma
camboya
cambridge
camelopardalis
camelus
camera
camp
campaign
campestris
campo
can
canada
canadensis
canadian
canal
cancel
candidacy
candidate
candidates
canidae
canis
cannot
canon
canorus
cant
canterbury
canyon
cape
capital
capitalid
capitalsnaks
capitol
capofstate
capra
caption
captions
car
caracara
carbo
card
cardinal
cards
care
cargonet
carica
carina
carl
carolinensis
carota
carrera
cart
caryocar
casa
casasia
casco
case
cases
cassius
cast
castillo
castle
cat
catalan
catalogue
catambiguousgeochains
catar
catedral
categories
categorizebyplace
category
categoryclaims
categorylink
categorynameprefix
categoryunknowndeathdate
catentityid
caterpillar
cathedral
catherine
catholic
catloopingeochains
catonly
catopsilia
catsitelink
cattle
caudata
caused
cave
cb
cc
cdo
ce
ceb
cebus
cee
ceiling
celebration
cell
cells
cementerio
cemetery
centaurea
center
centeralt
centered
centers
central
centralnotice
centre
centro
century
cephalophus
ceratotherium
cerca
cercopis
ceremonies
ceremony
ceriagrion
cerinorubellum
certain
cervidae
cervus
cest
cetonia
ceyhan
cf
cg
cgi
ch
cha
chain
chair
challenge
chamaeleo
chameleon
championship
championships
chan
chance
change
changed
changer
changes
changing
channel
character
characters
charadrius
charaxes
charles
charlotte
charter
charts
chat
chateau
che
check
checkaliases
checkbox
checked
checkelaliases
checking
checks
checktype
cheers
cheetah
chelonia
chemical
chess
chi
chicago
chick
chicken
child
children
chile
china
chinensis
chinese
chlorocebus
chobe
chocolate
choice
choose
choosing
chorraum
chosen
christchurch
christmas
chrome
chrysomya
chs
chugach
church
chy
cicer
ciconia
ciencias
cilindros
cinerea
circumstances
citation
citations
cite
citeref
citetype
cities
citoid
citroe
citrus
city
ciudad
civil
cke
ckoerner
claim
claimid
claims
claimspropertyid
class
classes
classical
clean
clear
clearer
click
clicked
clicking
clock
clone
cloneoptions
close
closeup
closing
clouds
club
clusiana
clytia
cm
cme
cmp
cn
co
coa
coach
coaches
coalabel
coast
coat
cobar
coccinella
cochrane
cocos
code
coded
codes
codesbyid
cog
collaborate
collaboration
collaborative
collapsed
colleagues
collect
collected
collection
collections
college
cologne
colombia
colon
color
colorarg
colors
colour
colspan
columbia
column
columns
com
combine
combined
come
comercio
coming
comma
command
commands
commas
comment
comments
committee
common
commons
commonsmedia
communicate
communication
communities
community
communityhealth
compact
compan
company
compare
compat
competition
competitions
competitorid
complaint
complaints
complete
completed
completely
complex
composite
composition
computer
computerhotline
comu
concat
concatenated
concatstyles
concerns
condition
conduct
cone
conference
config
configuration
configured
confirmed
conflict
conflicting
conflicts
confusion
congress
conjunction
conjunctor
connected
connochaetes
conor
consensus
consider
consideration
consistent
constraints
constructive
consultation
consultations
contact
contain
containing
contains
content
contenthostingproperties
contentlanguagecode
contents
contenttranslation
contest
context
continue
contrast
contraststyle
contribute
contributing
contributions
contributor
contributors
control
controlled
conversation
conversiontosiunit
convert
converted
convolvuli
convolvulus
cook
cooperation
coord
coordinate
coordinates
coordinatespec
coordinator
coords
copied
copper
copulation
copy
copyright
copyto
coracias
coral
core
cornuta
coromandelianum
corporation
correct
corrected
corrections
correctly
corresponding
corun
corvus
corythornis
cot
coturnix
could
count
countbythousands
counting
countries
country
countryentityid
countryentityorid
countryflags
countryoptions
county
couple
course
court
cover
covering
covid
covo
cp
cr
crassula
crater
cream
create
created
creating
creation
creative
creator
credit
credo
creek
crepuscular
crh
crimea
cristatus
cristo
criteria
critical
croacia
crocodylus
crocus
crop
cropped
cross
crossing
crowned
crs
cruiser
cruz
crystal
crystals
cs
css
csstext
ct
cu
cub
cube
cucullatus
cuculus
cucurbita
cugtun
cuisine
cultural
culture
cultures
cunicularia
cup
curr
current
currententity
currentframe
currently
cursor
cursoring
custom
customizing
customtitle
cv
cvn
cy
cyanea
cyathigerum
cycle
cygnus
cymbium
cynocephalus
cyprus
cyrillic
cz
czech
d
da
dactylorhiza
dag
daily
dallol
damal
damaliscus
dame
damselflies
damselfly
dan
danaus
dance
dancers
dansk
dante
dar
dark
darter
darwin
data
database
databases
datatype
datatypes
datavalue
date
datecat
dateclaims
daten
datenbanken
dateofcreation
dateofpublication
datepart
dates
datesfromqualifier
datevalue
daucus
david
day
days
daytime
db
dc
dd
ddg
de
dead
deadline
deal
dealing
dear
death
debt
dec
december
decide
decided
decimal
decimals
decision
decisions
deckenfresken
deckenfresko
decode
decoded
dedicated
deepcopy
deezer
default
defaultinfobox
defaults
define
definitions
deg
degree
degrees
degruyter
del
delete
deleted
delhi
delias
delicata
delink
delinklinkclass
delivered
delivery
della
dem
demo
demodocus
demoleus
demre
den
dendritic
dendrobates
dendrocygna
denmark
denny
denoised
dens
department
depending
deploy
deployed
deployment
deployments
deprecated
deprecatedsources
depuis
der
dera
des
described
describing
description
descriptions
desde
desert
desierto
design
designed
designers
designs
desired
desktop
desna
destination
detail
detailed
details
determine
determined
deutsch
deutsche
deutschland
develop
developed
developer
developers
developing
development
device
devices
dewikisource
df
di
diadematus
diagram
dialog
dialogs
diamonds
diceros
dictionaries
dictionary
dictyophorus
did
didim
didn
die
diff
differ
difference
different
difficult
diffs
diffy
digital
digitata
digits
dil
diliff
dinamik
dinghausen
diq
dir
dirce
direct
direction
directional
directly
dis
disable
disabled
disambig
disambiguation
disambiguationspage
disaster
discogs
discover
discovery
discuss
discussion
discussions
display
displaycount
displayed
displaying
displays
displaytitle
disruption
dissemination
dissernet
distribute
distributed
distribution
district
div
diverse
diversity
diyadin
diz
dk
dm
dms
do
doc
document
documentation
documents
does
doesn
dog
doha
doi
doignore
doing
doleschallia
dollars
dom
domain
dome
domestica
domesticus
domingo
dominulus
don
donan
donation
donations
done
donepairs
donors
door
dore
dorsal
dortmund
dot
double
douglas
down
dozen
dozens
dprecision
draft
drafting
drafts
drag
dragging
dravidarum
drawing
draws
driver
drop
dropdown
dropped
dryas
ds
dsb
dsc
dstructure
dtable
dtm
du
dubrovnik
duck
due
duisburg
duma
dunes
during
dusk
dust
dutch
dv
dvalue
dynamics
dz
e
each
eaecf
eagle
earlier
early
earth
easier
easily
east
eastern
easy
eating
ebook
ebooks
ebsco
ec
ecce
echinacea
echium
echo
eclipse
ecuador
ed
edit
edited
editing
edition
editions
editor
editors
edits
edt
edu
education
educational
edvard
edwardsi
ee
een
eesti
ef
effect
effects
efficient
effort
eg
egret
egretta
ehem
ehir
ehri
eiffel
eilean
eines
eishockey
either
el
elaphus
election
elections
electrolytic
elegans
element
elementid
elements
elephantidae
elephas
elibrary
eligible
elikhan
elite
elitre
elmadag
else
elseif
elsevier
elymnias
em
email
emaus
emausbot
embankment
eml
emperor
empty
emptywikidataentity
ems
en
enable
enabled
enables
enabling
enallagma
enciclopedia
encode
encodedvalue
encounter
encourage
encouraged
encyclopaedia
encyclopedia
encyclopedias
end
enddates
endeavour
ending
enforcement
engagement
engine
engineer
engineering
england
english
enhance
enhancement
enjoy
enriching
ensure
entities
entity
entityid
entityoptions
entityorid
entrance
entries
entriestolookupcategory
entry
environment
environments
enwikisource
eo
episyrphus
equals
equus
era
erbaa
ereg
erinaceus
eristalinus
erithacus
ermita
error
errors
eruption
erythrocephalus
erythropus
erzurum
es
escape
escapepattern
esculentus
eskil
espan
especially
espn
espritbleu
essential
estados
estatal
estonia
et
etc
etimesgut
etnosmi
etosha
eu
eucharis
eudorcas
euphorbia
euro
eurobasket
euroleague
europa
europe
european
evad
evaluate
evaluated
evaluation
evalwikimediaorg
even
evening
evenodd
event
events
eventually
every
everybody
everyone
everything
evolution
evren
exactly
example
examples
except
excepting
exceptions
excited
excude
executive
exercise
exist
existent
existing
exists
expand
expanded
expanding
expandspecialsqualifiers
expandtemplate
expansions
expect
expected
experience
experienced
experimental
experiments
explain
explaining
explains
explorer
exposure
express
expression
ext
extension
extensions
extensiontag
extensively
external
externalid
extra
extractcategory
extraliiga
eye
eyed
f
fa
facade
face
facebook
fact
factor
factory
fagus
fair
fairy
falco
falcon
fall
falls
false
famberhorst
fame
family
fantlab
faq
far
fargs
farm
faro
faroesoccer
farsi
fascicularis
fashion
faster
fastest
favorite
fdc
fe
feature
featured
features
feb
february
feedback
feeding
feel
feels
fees
feke
felder
feldweg
felidae
felipe
felis
fellow
female
feminism
femlabels
fenster
fernsehturm
ferrocarril
festival
festivals
few
ff
fg
fh
fi
fiction
field
fields
fifa
fighting
fil
file
filedefaultsize
fileexporter
fileimporter
files
fill
filled
film
filter
filterbylanguage
filterbyrank
filtercapitalof
filtered
filteredclaims
fin
final
finally
find
findclaimsbyvalue
findings
finds
finike
finish
finished
finland
finnish
fira
fire
fires
fireworks
first
firstchar
fis
fish
fishing
fit
fiu
five
fix
fixdouble
fixed
fixing
fj
flag
flagbegindate
flagclaims
flagimage
flagimagestatement
flaglabel
flags
flagstarttime
flashscore
flavescens
flickr
flight
flood
floor
floridanus
flow
flower
flowers
flu
fly
flying
fm
fma
fo
focus
focused
fog
folders
folk
folklore
follow
followed
following
font
fonts
fooentity
football
footballdatabase
footballfacts
footnotes
for
foradejogo
forall
forallimpl
force
ford
foresee
forest
forget
form
formal
format
formatangle
formatcommonsmedia
formatdatavalue
formatdate
formatentityid
formatentitywithgenderclaim
formatexternalid
formation
formatmath
formatnum
formatproperty
formatpropertydefault
formatpropertywithmostrecentclaimandindicator
formatredlinkwithinfobox
formatrefs
formats
formatsnak
formatstatement
formatstatementdefault
formatted
formattedcaption
formattedclaims
formatteddata
formattedstatement
formatter
formattest
formatting
formaturlimpl
formaturlsingle
formaturlvalue
formatvaluedefault
formdate
former
formica
formula
formulas
formulæ
forrester
fort
fortress
fortunella
forum
forward
foto
found
foundation
fountain
four
fox
fr
fra
fract
fractal
frame
frameless
framework
franc
france
francis
francisco
frankfurt
franklin
franzo
frecce
free
freezes
freiburg
french
frequently
fresco
frhdkazan
frica
friday
friendly
fritillary
frog
from
front
frontera
frp
frr
fru
fruit
fu
fuente
full
fullname
fully
fulva
fun
func
function
functionality
functions
functiontocall
fund
funding
fundraiser
fundraising
funds
fur
further
fusciceps
fuscicollis
fussballdaten
future
fuzzy
fws
fy
g
ga
gadget
gadgets
gag
gaillardia
gala
galaxy
gale
galericulata
galerie
galiza
galleries
gallery
gallinago
gallus
galuzzi
game
games
gamespot
gan
garden
gardens
gate
gather
gathering
gave
gazella
gb
gd
ge
gear
gegen
geiranger
gelaltar
gemeinsame
gen
gender
genealogy
general
generate
generatelink
genigraves
genitivusmonthesnm
genitivusmonthesom
genius
genutia
geo
geoffroyi
geographicus
georg
george
georgia
gerardm
gerger
german
germany
germencik
get
getallstatements
getargs
getbeststatements
getboolean
getcategory
getcategorybycode
getcode
getconfig
getcontentlanguage
getcurrentframe
getcurrenttitle
getdate
getelementlink
getentity
getentityidforcurrentpage
getentityobject
geterrormessage
getimagefromclaims
getimagefromentity
getlabel
getlabelwithlang
getline
getlinkdata
getmetatable
getparameters
getparent
getparentsinboundariessnakimpl
getpeopleaswikitext
getpersonnameaslabel
getpropertydatatype
getpropertyparams
gets
getsingle
getsinglestringqualifiervalue
getsisterprojectlink
getsitelink
getsourcingcircumstances
gettemplate
gettimeboundariesfromqualifier
getting
gettitle
getuserfunction
getvaluefromsnak
gewo
geyser
gh
ghost
gi
giallo
giant
gif
giganteus
giraffa
girl
git
github
give
given
giving
gje
gl
glabrum
glaciar
glacier
glass
global
globalframe
globally
globe
glossary
gmatch
gnd
gniezno
go
goal
goals
god
gogh
going
gold
golden
golesta
gone
gonepteryx
good
goodflag
google
goose
gorges
gorilla
goshawk
got
gottlieb
gov
governing
government
gp
gr
grab
gran
grand
grande
grant
granted
grants
graphs
grapsus
grass
grasshopper
grateful
grave
gray
great
greater
greatly
greda
greece
green
greenland
greetings
gregorian
gregory
grey
grfc
gripen
group
groupdata
groupelements
grouplabel
groups
groupschildaliases
groupstyle
growth
grumman
gs
gsub
gsw
gu
guadalajara
guarantee
guard
guide
guidelines
guillaume
gull
gustave
gutenberg
gv
gyps
h
ha
hack
hackathon
had
hafen
hakka
half
haliaeetus
hall
hallstatt
haltern
hamburg
hamburger
hamur
hanak
hand
handball
handle
handling
hangout
happen
happening
happens
happy
harassment
harbour
hard
haren
has
hasadditionalqualifiers
hash
hasht
hasloop
hasnotdeprecated
haspreferred
haspreffered
hauptbahnhof
haus
hausdu
have
haven
having
haw
hawaii
hawk
hawkeye
haymana
hdr
he
head
headed
header
headers
headings
health
healthy
hear
heard
hearing
heart
hebrew
hecale
hedionda
hedwig
heide
height
heilig
heiligengrabe
heiliggrabkapelle
held
helena
heliaca
helianthus
heliconius
helicopter
hello
helophilus
help
helped
helper
helpful
helping
helps
helsinki
hemerocallis
her
herbert
herbst
hercules
here
heritage
hero
herodias
heron
herzegovina
herzogenburg
hesperia
het
heteractis
hey
hh
hi
hidalgo
hidden
hide
high
highbeam
highlight
highlighted
highlighting
highlights
highly
hill
hills
him
hippeastrum
hippopotamus
hippotragus
hires
his
histo
historians
historical
historically
histories
history
hiw
hle
hlist
hms
hning
ho
hobgood
hochaltar
hockey
hof
hold
hole
holy
holzer
home
hommik
homo
honda
hong
honor
hoolock
hopa
hope
hopefully
horasan
hornet
horse
hortus
hospital
host
hosta
hostdelimeterposition
hosted
hosting
hoststartposition
hot
hotel
hour
hourmin
hours
house
hovercards
how
however
hp
hq
hr
hrac
hsb
hst
ht
htm
html
http
https
hu
huasca
hub
hubble
hue
huerta
huesca
huge
human
humanities
humbly
hummingbird
hundreds
hungarian
hunting
hvb
hy
hydrangea
hyemalis
hypermnestra
hz
i
ia
iat
ibdb
ibex
ic
ice
iceland
icon
icons
id
idaslabel
idea
idealab
ideas
identical
identified
identifiers
identify
identities
idr
ie
ieg
if
ifsc
ig
iglesia
ignore
ignoreblank
ignoredtypes
iguana
ii
iii
ik
il
ilc
ilchi
ile
illinois
illustrated
ilo
im
image
imageclaims
imageclass
imageleft
imagemap
images
imagestyle
imdb
img
immature
immediate
impact
imperator
implement
implementation
implemented
implementing
implements
import
important
imported
impression
impressions
improve
improved
improvement
improvements
improving
in
ina
inachis
incarnata
include
includemetatable
includes
including
inclusive
incorrect
increase
increased
incubator
independent
index
indexed
india
indian
indiana
indica
indicate
indicating
indices
indigo
individual
individually
individuals
ine
inetlink
info
infobox
infoboxes
infocardclass
infocardtemplate
inform
information
informed
infrastructure
inglaterra
inh
inhabitants
initcontext
initial
initially
initiative
initpos
inline
innenansicht
innenhafen
innenraum
input
insan
insert
inserted
inserter
insertfromsnak
inserting
inside
inspector
inspire
instead
institute
instructions
int
integer
integrated
intended
interact
interest
interested
interface
interior
interlanguage
internal
international
internet
interwiki
interwikis
intgr
into
introduce
introduced
introduction
intuitive
invalid
invalides
invariant
inversed
inversion
investigates
investigations
invisible
invitation
invite
invited
invites
inviting
invoke
invoked
involved
involvement
io
iof
ios
ip
ipa
ipairs
ipni
iprage
ipv
ir
ira
iran
irc
ireland
iris
is
isa
isabsorptionfound
isauthoritycontrol
isbn
isbns
ischnura
iscountry
isempty
isfaha
isfdb
isfemale
isgoodformat
isinstanceof
isinversed
isla
islam
island
islandia
islands
islas
ismatchlanguage
ismatchunit
isn
isnew
isni
isnotempty
iso
isqualifierfound
israel
isranked
isreferencedeprecated
iss
issn
issue
issues
ist
istanbul
istestpage
isunion
isvalidrank
it
italia
italian
italiano
italic
italie
italy
item
itemid
items
iteration
iterator
its
itself
iu
iulia
ivan
ivanovo
iw
iyn
j
ja
jacea
jaguar
jaipur
james
jan
jane
janeiro
january
japan
japanese
japonica
jardi
jas
jatrophae
javanus
javascript
jbwr
jean
jefferson
jem
jerez
jerusalem
jethrobt
jezebel
ji
jo
jobs
joe
johan
johanna
johannes
john
join
joining
jordan
jose
joseph
joueur
journal
journals
jp
jpeg
jpg
jr
js
jsp
jst
jstor
ju
juan
jubatus
juin
jukoff
julian
juliancomment
july
jump
june
junonia
just
juvenile
jv
k
ka
kaa
kadavoor
kaeng
kahramanmaras
kahta
kaiyr
kale
kalecik
kalidasa
kanal
kaohsiung
kapelle
karacasu
karaman
karapınar
karatas
karpuzlu
kars
karte
kas
kashan
kaspi
kastanje
kath
katie
kazakh
kazakhstan
kazan
kbd
kc
ke
kec
keegan
keep
keeping
kefermarkt
keila
keilas
kemer
ken
kent
kepez
kept
key
keyboard
keys
keyvalue
kg
khw
ki
kiel
kind
kindly
king
kingdom
kingfisher
kirche
kirchspiel
kirik
kitts
kiyomizu
kk
kleiner
kloster
klosterkirche
km
know
knowledge
known
knownflag
ko
kobus
koi
komodo
kong
kopenhagen
korean
korfu
korkuteli
kozan
krachan
krc
kremlin
kreuz
kreuzgang
kruger
ksh
ku
kumluca
kurier
kuyucak
kv
kw
ky
kyoto
kyrenia
kyrgyz
l
la
laach
label
labelclass
labeled
labels
labelstyle
laboratory
labs
lacerta
lack
lacroix
ladies
lady
lago
lagoon
laguna
lak
lake
lama
lambis
lamborghini
lamprotornis
lanata
landing
landscape
landschaftspark
lang
langcode
langentityid
langrefcodeclaims
langrefentity
langrefs
langs
language
languages
languagescode
lanzarote
laon
laos
lar
large
larger
largest
larix
larus
las
lasiodora
lassa
last
lastheight
lasts
lat
late
later
latest
latex
latin
latitude
launch
launched
lavender
law
lb
lbas
lbe
lbs
lc
le
lea
lead
leading
leaf
league
learn
learned
learning
least
leave
leaves
leaving
led
left
leftbracket
legal
leipzig
len
lenbach
length
leo
leonina
leontopithecus
leopard
lepidoptera
leptosia
leptotes
ler
les
less
lesser
let
lets
letter
letterpos
letters
leucocephalus
level
levskisofia
lez
lg
li
liaison
libellula
library
libraryutil
libris
lica
licence
license
licenses
lichen
life
lift
light
lighthouse
lights
lij
lika
like
likely
lilium
lima
limit
limitations
limited
line
linegrey
lines
link
linkdata
linked
linkedin
linking
links
linnaeus
lion
lions
lipos
liquidthreads
lis
list
listclass
listed
listforcheck
listofcountries
listofprofessions
listpadding
lists
liststyle
listtotext
literature
litoria
little
live
livida
lix
lja
ll
lle
ller
lmen
lmener
lmo
ln
lng
lngstr
lo
load
loaddata
loaded
loading
lobos
loc
local
localcaption
localisation
localisations
localisationupdate
localise
localised
localising
localization
localize
locally
localvalue
located
locatie
location
loch
lockheed
locomotive
lodo
log
logged
login
logo
lon
london
londres
long
longer
longitude
look
looking
lopesan
los
lose
lost
lot
lotterie
louis
louvre
love
loves
low
lower
loxodonta
loxura
lr
lt
lticos
lu
lua
luaargs
luc
luca
ludovicianus
lum
lupus
lutea
luxembourg
luzonicum
lv
lvm
lvova
lydia
lynx
lyriothemis
lzh
lər
m
ma
mac
macaca
macao
macedonia
macedonian
machaon
machu
macrophylla
macropus
made
madonna
madoqua
magazine
magazines
magic
magnifica
magnirostris
mahal
mail
mailing
mailto
maimboeuf
main
mainly
mainsnak
mainsnakdatavalue
mainsnakdatavaluevalue
mainsnakdatavaluevaluelanguage
mainsnakdatavaluevalueunit
maintain
maintenance
major
make
makegeneralcategories
makeinvokefunc
makes
maketitle
makgadikgadi
making
malachite
malbork
male
mall
mallard
mallnitz
mamak
mammea
man
manage
manager
manages
manavgat
manhattan
mannheim
manor
mantis
manual
manually
many
map
mapframe
maps
mar
maras
marble
march
mare
margarita
margin
mari
maria
marie
marina
marine
maritimus
mark
marked
marker
markers
market
marks
markup
marmoratus
marruecos
mars
martagon
martes
martin
martinsi
marula
mas
mask
masonry
mass
massmessage
massmessages
master
match
matched
matches
matchestitle
matching
material
materials
math
mathematics
mating
matter
mausoleo
max
maxauthors
maxima
maximus
maxnumber
may
maybe
mays
mazama
mc
mcdonnell
mdennis
mdf
me
meadow
mean
meaningful
means
meant
meantime
mechanism
media
mediawiki
medical
medium
meerkat
meet
meeting
meetings
melampus
melanerpes
meleagris
meles
melk
melker
mellifera
member
members
memoized
memorial
men
menu
menus
mercedes
mercury
merfeld
merge
mergeargs
merkez
merkezi
merops
merzifon
message
messages
messier
met
meta
metaargs
metaargskey
metal
metallum
metatable
metawiki
method
methods
metro
metropolitan
mexico
mezquita
mhnt
mhr
mi
michael
microlophus
microsoft
mid
midas
middle
midi
mig
might
migrate
migration
miguel
mike
miles
miliaris
military
milky
mill
million
min
mina
minh
mini
minimize
minimum
minimus
minut
minutes
mirounga
mis
miscanti
missing
mission
mississippiensis
mist
misumena
mit
mitte
mitterbach
mix
mk
ml
mlb
mm
mma
mnhn
mo
mobile
mobygames
mockups
mod
mode
model
models
modern
modes
modifying
module
moduledate
modulelanguages
modulenavbox
moduleurl
modulewikidata
moment
mona
monarch
monasterio
monastery
mongolian
monitor
monitoring
monkey
monobook
monolinguallangtemplate
monolingualtext
monte
montenegro
month
monthg
monthgm
monthgom
monthly
months
monticola
montreal
monument
moon
more
moritz
morning
moscow
moscu
mosmetro
mosque
most
mostly
moth
motorsportstats
mount
mountain
mountains
move
moved
movement
movementcharter
moving
mp
mr
mrj
mrs
ms
msg
mt
mu
much
muenster
mujeres
mulstatement
mult
multi
multichill
multilingual
multimedia
multiple
mumbai
munch
mundo
munich
municipal
muntiacus
mural
muratpas
mus
musca
muscaria
muse
musee
museo
museum
music
musicbrainz
musicians
must
mustelidae
mute
mw
my
myanmar
mycalesis
mycena
mydas
mylanguage
myspace
mystax
mythology
myv
n
na
naar
nacht
nachts
nacional
nadar
nallıhan
name
named
names
namespace
namespaces
namib
namibia
naming
nan
nanger
nap
nara
narcissus
narman
nasa
nasirolmolk
natalensis
national
nationale
nationalmuseum
native
natrix
natural
nature
naukluft
nav
navarra
navbar
navbox
navboxdata
navigation
navy
nayikayam
nazca
nazi
nazilli
nb
nbg
ncbi
nd
ndefaultlanguage
ndog
nds
ne
near
nearly
neas
nebel
nebula
necessarily
necessary
nederlands
neditors
need
needed
needle
needs
nelumbo
nembrotha
nemo
neon
neopithecops
neorthacris
neotragus
nephelium
neptune
nest
net
network
networks
neuschwanstein
neutral
nevada
nevsky
new
newattributes
newclaim
newclaims
newcomers
newer
newly
newoptions
newparentsnaks
newplacesindex
newplacestr
news
newsletter
newsletters
newspaper
newspaperarchive
newspapers
next
nextlabel
nextwikitext
nez
nf
ng
ngc
nich
nicholas
nick
nico
niger
nigeria
night
nigricollis
nikon
nil
nilargs
nilargskey
nina
nissue
nl
nlr
nm
nn
nnumberofpages
no
nobel
nocat
nocoord
node
nolink
nolinks
nominate
nominations
nominativeyear
non
none
noon
nor
nord
norderney
normal
normativetitle
normdatei
norsk
north
northern
norway
not
notable
note
noted
notes
nothing
notice
notification
notifications
notified
notify
notoc
notre
nov
nova
novalue
november
now
nowiki
nowikidataentity
noxc
np
npages
nr
ns
nsk
nster
ntirage
ntranslators
nu
nucifera
nudibranch
nuestra
num
number
numbered
numberofpages
numbers
numeric
nums
nv
nvolume
nw
ny
nya
nyc
nycticorax
nymphaea
nz
nzst
o
obama
obj
object
oc
ocaasi
ocampo
occidentale
occidentalis
occupation
occupied
occurrence
ocean
ocellaris
oclc
oct
october
od
odd
oddeven
oe
oedipus
oerstedii
of
off
offer
offered
office
official
offline
offset
often
og
ogg
oh
oil
oj
ok
ol
old
older
oliva
olive
olo
olor
oltu
olur
olympiastadion
olympic
olympics
om
ombuds
ombudsperson
on
once
one
ones
onevar
ongoing
online
only
onlyparams
oojs
ooui
op
opac
open
opened
opening
opera
operation
operations
operator
opinion
opinions
oporto
opportunities
opportunity
oppose
opt
option
optional
optionalarg
options
or
ora
orange
orb
orbiter
order
ordered
ordereddata
orders
oreotragus
org
organ
organization
organize
organized
organizing
orgel
orientalis
orig
original
orion
orphan
orphancat
ortako
orthetrum
oryx
os
osaka
oslo
ospizio
osprey
ostseite
other
others
otherwise
otrs
ottofile
otvetstv
otvetstvennie
otvetstvennye
our
out
outdated
output
outreach
outside
outtype
outvalue
ouvrage
ova
over
overlay
override
overview
overwritten
owl
own
oxyopes
oy
p
pa
pacher
pachliopta
pachygrapsus
pacific
pad
padding
page
pageid
pages
pagos
paid
painted
pair
pairs
paisaje
palace
palacio
palais
palando
pale
pallas
palm
palma
palustris
pam
pamukkale
pan
pandora
panel
pano
panora
panorama
panoramic
pans
panthera
papaver
paphia
papilio
papio
par
parade
paragraphs
parahybana
param
parameter
parameters
params
paramvalue
pardus
parent
parentargs
parententityids
parentid
parentoptions
parentsnak
parentsnaks
pargs
paris
park
parliament
parque
parscal
parse
parseclaim
parsedec
parsedflagstarttime
parsedms
parsedtime
parseiso
parser
parsetimefromsnak
part
partial
partially
participants
participate
participated
participating
participation
particular
particularly
partim
partners
partnerships
parts
parturl
party
pasinler
pass
passage
passed
password
passwords
past
paste
path
pathoschild
patnos
patrick
pattern
patterns
paul
paulo
paulus
paumier
pavilion
pavo
pawn
pazar
pazaryolu
pcall
pdf
pdt
peace
peacock
peahoone
peak
pearl
pecari
pedro
peel
pelecanus
pelophylax
pencil
penguin
peninsula
people
per
percentage
peregrinus
perform
performance
performed
perhaps
period
permission
permissions
perodicticus
perse
persian
person
personal
personname
personnametoauthorname
personnametoresponsiblename
persons
perspective
perth
peru
peter
petra
pfarrkirche
pfennig
pfg
pfl
pframe
phabricator
phacochoerus
phalacrocorax
phase
phaseolus
phases
phasianidae
pheucticus
phi
philantomba
phoenicoparrus
phoenicopterus
phonetic
photo
photography
photos
php
physalis
pi
pia
picchu
picture
pictures
pid
piece
pied
pier
pieris
pill
pilot
pine
pinging
pink
pintscher
pinus
pipe
piped
pipep
pipepbot
piptoporus
pithecia
pitt
pk
pl
place
placed
placeid
places
plain
plaindata
plainlist
plains
plan
planned
planning
plans
plant
plate
platform
platforms
platyrhynchos
play
playa
player
playerid
players
playing
playmakerstats
playmarkerstats
plaza
please
pleased
plexippus
ploceus
plural
plus
pluto
pmid
pmids
pms
png
po
point
poker
pol
poland
polar
polatlı
policy
polis
polish
polistes
polonia
polska
polski
polymnestor
polyommatus
polyporus
polytes
pond
pongo
pont
ponte
pool
pop
popular
populate
populatedatafromclaims
populatesourcedataimpl
population
populus
popups
porsche
port
porta
portal
porte
porto
portrait
portraits
portugal
portugue
portuguese
pos
position
positions
positive
posof
possible
possibleage
possiblebookseriesentityid
possibly
post
posted
poster
postfix
postfixdelimeterposition
posting
postponed
posts
potential
potentially
potto
pouteria
power
powerful
poznan
pp
ppelberg
prabook
practice
practices
prado
prague
praha
prasina
pre
prec
precision
prefer
preference
preferences
preferids
preferred
prefix
prefixes
prefsection
premierliga
prepare
prepared
preparing
preprocess
presbytis
present
presentation
presentations
preserve
preset
presets
president
press
pressing
prev
prevent
preview
previews
previous
previously
prevlabel
prey
primarily
primary
principal
print
prior
priorities
prioritize
prismas
privacy
private
privileged
prizes
pro
probably
problem
problems
procapra
process
processed
processes
processtext
prodasineura
produce
product
production
productive
prof
professional
professions
professionscategories
professionslist
profil
profile
profit
program
programming
programs
progress
project
projectinterwikilettter
projectname
projects
projecttocheck
promodj
promote
prompted
proof
propclaim
proper
properly
properties
property
propertyclaims
propertyentity
propertyid
propertyids
propertyparams
propertyselector
propithecus
proportion
proposal
proposals
propose
proposed
propvalues
prospects
prototype
prototypes
provide
provided
providedlabel
provides
providing
province
pru
prunus
ps
pst
pt
pterois
pu
pubentity
public
publication
publications
publish
published
publisher
publishers
publishes
publishing
puck
pudelek
pudu
puente
puerto
puesta
pula
pump
punta
purana
purbo
purodha
purple
purpose
purpurea
pursaklar
put
puzzle
px
py
pygmaea
pygmaeus
pyrus
python
pywikibot
pywikipedia
pywikipediabot
q
qh
qid
qqq
qtl
qu
qualconfig
qualifier
qualifierentityid
qualifierid
qualifierids
qualifiername
qualifierpropertyid
qualifiers
qualifiervalue
qualifiervalues
quality
quant
quantity
quarter
quarzwerke
quay
que
quercus
questia
question
questions
quick
quickly
quiddity
quito
quotation
qɑzɑq
r
ra
rabas
racing
radom
raftsundet
railway
rainbow
raise
ralfr
rally
ramosus
ran
rana
rang
range
ranges
rank
rapae
raphicerus
raptor
raszka
rate
rathaus
rather
ratings
ratio
rault
rawrule
rawrulepattern
rays
rb
rc
rca
rcules
rd
re
reach
read
readers
reading
ready
real
realgm
really
reason
reasons
receive
receives
recent
recently
recipientcategory
recognize
recommend
recommendations
recommended
reconnaissance
record
recorded
red
redesigned
redirect
redirects
redlink
reduce
reduced
redunca
ref
refanchor
refer
referee
reference
references
referenceworks
referencing
reflabel
reflabels
reflection
reflections
refqid
refresh
refreshed
refs
reftext
reg
regarding
regardless
regards
regex
regexp
regexps
regio
region
regions
registered
registration
regnum
regular
reichstag
reina
relate
related
relatively
release
released
releases
relevant
reliable
reliably
remain
remaining
remains
remember
reminder
remove
removeblanks
removed
removing
ren
render
rendered
renderlabel
renderline
renderlink
renderlinkwithref
renderreferenceimpl
rendersource
rendervalue
rep
repair
repetitions
repl
replace
replaced
replacement
reply
report
reported
reports
repository
represented
repu
republic
request
requested
requesting
requests
require
required
requirements
requires
res
rescue
research
researchgate
reserva
reserve
resolution
resolve
resource
resourcedata
resourcedatas
resourceid
resourcelabel
resources
respond
responsible
rest
restitch
restoration
restored
result
resultclaims
resultlist
resultproperty
resultresultproperty
results
resultwikitext
reticulata
retouched
return
returning
returns
reverse
reverseorder
review
reviewing
reviews
revision
revisions
revisionslider
rfc
rhagio
rhamni
rhb
rhein
rhinoceros
rhinocerotidae
ri
rica
rich
richard
rico
rider
riga
right
rightbracket
rights
ring
rings
rio
ripon
river
rk
rkc
rm
rmf
rmy
rnberg
rnste
ro
roa
road
roadmap
roadster
robby
robert
roca
rock
role
roles
roll
rolled
rolling
roma
romania
rome
roof
room
roppe
roquebrun
rosa
rose
rosea
rostock
rote
round
rounds
row
rowargs
rowindex
rows
rowspan
royal
rrach
rs
rsl
ru
rua
rubecula
rudis
rue
rufa
ruficornis
rufus
rugby
rule
rules
rumani
run
runa
running
runs
rup
rus
rusia
russia
russian
russianfem
rutube
ruwikisource
rv
rve
rw
ryu
s
sa
saab
sabah
sacred
sacsayhuama
safe
safety
saguinus
sagunto
sah
sahib
saimbeyli
saimiri
saint
sala
salar
salineras
salisbury
salt
salvador
salvatore
salzburg
same
samsat
samuel
san
sand
sandbox
sankt
sant
santa
santiago
santo
santorin
santorini
santuario
saray
satellite
sativa
saturday
saturn
save
saved
saving
saw
say
says
sc
scale
scene
scheda
schedule
scheduled
scheme
schemedelimeterposition
schloss
scholarly
scholarship
scholarships
schweiz
schwetzingen
science
sciences
scientific
scientists
sciureus
sciurus
scn
sco
scolopaceus
scope
scoresway
scotland
scottish
screen
screens
screenshot
scripta
scripts
scroll
scrub
sculpture
scutellarioides
sd
se
sea
seal
seamless
search
searching
seats
seattle
sebastian
sec
second
secondary
secondmostrecentvalue
seconds
section
sections
sectorcode
secttitlestyle
securepoll
security
see
seebachtal
seeking
seen
segovia
seitenschiff
seitenstetten
select
selectclaims
selected
selectedsnaks
selecting
selection
selector
selectors
selectorsstring
self
selo
selskab
sen
send
senden
sending
senegalensis
seniculus
sent
sep
separate
separated
separatelabel
separator
sept
september
septentrionis
sequences
serbia
serbian
serengeti
series
serik
serve
server
service
session
sessions
set
setmetatable
setting
settings
seven
sevens
several
sevilla
sex
seyhan
sf
sg
sgrabarczuk
sgs
sh
shah
shakedown
shamakhi
shanghai
share
shared
sharing
sharpei
she
sheet
shell
shift
shinjuku
ship
shiraz
shop
short
shortcut
shortcuts
shorter
shortly
should
shouldn
show
showed
showing
shown
shownproperties
shows
shtml
shuttle
si
sib
siconversion
side
sidebar
sidney
siebot
siebrand
sierra
sig
sigfig
sign
significant
significantly
signs
signup
signups
silent
silver
silvestris
similar
simple
simplelabel
simpler
simplified
simply
simulans
simum
sincan
since
sincik
singapore
single
sister
sisters
site
sitelink
sitelinks
sites
sitewide
sitta
situation
situations
six
size
sizes
sk
skagens
skater
ski
skills
skin
skipper
skippropertyids
skopie
skulptur
sky
skyline
sl
slider
slightly
slovenia
slower
slowly
sm
small
smaller
smartphone
smartphones
smg
smith
smooth
sn
snak
snake
snakpropertyid
snaks
snaktype
snakvalue
snow
snowy
so
soauthors
soccerbase
soccerdonna
soccerway
social
socialnetworkproperties
society
sofia
soft
software
sol
solanum
solar
solution
solutions
solve
some
someone
something
sometimes
somevalue
somewhere
sondaicus
sonnenaufgang
sonnenuntergang
sonntagberg
sons
sony
soon
soria
sorry
sort
sossusvlei
soul
sound
soundcloud
souq
source
sourceclaim
sourceentity
sourceid
sourcepropertyclaim
sourcepropertyentity
sourcepropertyid
sources
south
southern
soyuz
sp
space
spacecraft
spaced
spaces
spacing
spain
spam
span
spanish
sparseconcat
spb
speak
spechtensee
special
species
specific
specifically
specified
specprinter
speculative
speech
speed
speedway
spheniscus
sphinx
spid
spider
spieler
spiral
spit
splendens
split
splitcoord
splitline
splitparam
spondias
sponge
sport
sports
spotify
spotted
spp
spread
spring
sprint
spumans
sq
squamosus
square
squirrel
sr
src
srcproperty
srgb
ss
sstyle
st
stack
stadium
staff
stage
stained
standard
standardelementaliases
standards
star
start
startboundaries
started
starting
starts
stat
state
statedas
statement
statements
statementvalue
states
static
station
statistics
stats
statue
status
stay
ste
steinway
step
steward
stewards
stift
stiftskirche
still
stockholm
stop
stopped
store
stored
stories
story
str
strana
strategic
strategy
street
strike
string
strings
strip
striped
strix
strodt
strong
strpages
structurae
structure
structured
strvalue
sts
studied
studies
studio
study
stunde
style
styleratio
styles
styling
su
sub
subgroup
subject
subjects
sublimed
submission
submissions
submit
submitted
submitting
subpage
subpages
subrule
subrules
subscribe
subscribed
subscription
substantially
substring
subtitle
subway
succeed
success
successful
such
suda
suggest
suggested
suggestions
suitable
sukhoi
sul
sula
sultan
sultanhisar
suluova
summarizes
summary
summer
summit
sun
sunday
sunflower
sunrise
sunset
suomi
sup
super
superjet
support
supported
supporting
supports
sur
sure
surfer
suricata
suricatta
surname
survey
sus
sustainability
sustainable
sutherland
suvepa
suðurland
sv
svenska
svg
svn
sw
swallow
swan
sweden
swift
switch
switching
switzerland
sydney
sylvanus
sylvatica
symbol
sympetrum
synagogue
sync
syncerus
syncing
syntax
synthebot
syrphidae
system
systems
sythen
szl
t
ta
tab
table
tables
tablestructure
tablet
tablets
tablevalue
tabs
tag
tags
tail
tailandia
tailed
taipei
taiwan
take
taken
takes
taking
tales
talk
talking
tallin
tamil
tanzania
tap
taprobanis
tara
taraxacum
target
targs
targsk
tarn
tas
task
taskforce
tasks
tasman
tatar
tauerntal
taurotragus
taxon
taxons
taylor
tbl
te
teach
team
teams
teatro
teau
tech
technical
technology
tehera
tekman
telegram
telescope
tell
tem
template
templatecallcode
templatedata
templatename
templates
templatestyles
templatetitle
temple
templo
temporaria
temporary
ten
tenellum
tenerife
term
terminal
terms
ternary
teruel
tesla
test
tested
testing
tests
text
textsproperties
tf
tff
tg
tgr
tgv
th
tha
thai
than
thank
thanks
that
thatta
thattu
the
theatre
thecgf
their
thekkady
them
theme
themeprofilesproperties
themselves
then
there
these
they
things
think
thinking
third
this
thom
thomas
thomisus
those
though
thoughts
thousands
thread
three
through
throughout
throwerror
thudufushi
thumb
thumbnail
thumbnails
thursday
thw
ti
tibet
ticket
tidal
tidiedval
tidyval
tie
tied
tiflis
tiger
tigris
tilastopaja
till
time
timeless
timeline
times
timestamp
tirage
tirumala
titan
title
titlearea
titleclass
titledelimeterposition
titles
titlestyle
titletemplate
titletemplateq
titlewerepresent
tk
tl
tma
tn
tname
to
toboolean
tockus
today
todo
together
toggle
toinsert
tokenized
tokenizename
tokyo
toledo
tomb
tonumber
too
tool
toolbar
tools
tooltip
toompea
top
topic
topics
topographic
toronto
torre
tortonese
tortum
tostring
tostringsnak
totable
total
totextwithtip
touch
tour
tourlsnak
towards
tower
towers
towikibaseentityidsnak
town
tp
tpi
tplargs
tr
track
tracking
tracks
trademark
traffic
tragelaphus
trail
trailing
train
training
transfermarkt
transform
transforming
transition
translatable
translate
translated
translatenext
translates
translatewiki
translathon
translating
translation
translations
translator
translators
travel
trebinje
treccani
tree
trees
trevor
trg
triage
trial
trick
tricolori
tried
trier
trifolium
trim
trimmed
trimstr
triplet
tripletpos
tripletstr
tripletunit
trithemis
trizek
troglodytes
tron
truck
true
trust
trusted
trustees
try
trying
ts
tsarskoe
tt
tte
ttweig
tu
tuberosa
tuesday
tufanbeyli
tulip
tulipa
tulum
tumblr
turdus
turkey
turkish
turn
turned
turning
turtle
tut
tutak
tuttocalciatori
tv
tw
twice
twin
twitter
twl
two
txt
ty
type
typeid
types
typica
typing
typography
tyv
u
ua
uboundary
ubuk
ucfirst
ucoc
udm
ue
uefa
ug
ui
uk
ul
uls
ultimate
ume
umeda
umland
umschreibung
un
und
under
underside
understand
understanding
understood
undo
unesco
unexpected
unfortunately
uni
unidos
unignoredtypes
union
uniq
unit
united
unitentity
unitentityid
unitplural
universal
university
unknown
unless
unnamed
unnecessary
unregistered
unstripnowiki
unsubscribe
until
up
upcoming
update
updated
updates
upload
uploading
uploads
uploadwizard
upon
upper
upperbound
upright
ur
urdu
urgent
urh
uri
uricomponents
url
urls
ursinus
ursus
us
usa
usability
usage
usd
use
used
useful
uselang
user
username
users
uses
using
uss
ustring
usual
usually
utc
utils
utitle
uyuni
uz
uzundere
v
va
vaade
val
valencia
valid
validate
valle
valley
valuable
value
values
valuetofind
van
vancouver
vandalism
vanellus
vanillae
vank
var
variable
variables
variation
various
varnent
varnum
vatia
ve
vec
vecchio
vector
vega
venezuela
venice
venus
vep
vera
verde
verreauxi
versailles
version
versions
vertical
verticalis
very
vespula
vestfirðir
vestman
vesturland
vi
via
viaduc
viaf
viatour
viborg
vicina
victoria
vid
video
videos
vie
viejo
vienna
vietnam
view
viewer
viewing
views
vii
viii
vikipedi
vikipeedia
viktor
village
villas
vimeo
vincent
vinci
vinn
virgen
virginia
virginiana
virgo
viridis
virtual
viru
visbeck
visible
visit
vista
vistas
visual
visualeditor
visualeditordid
visually
vitrail
vk
vlei
vls
vo
voice
vol
volcanes
volume
volumes
volunteer
volunteers
vom
von
vote
voted
voters
votes
voting
vro
vs
vue
vulgare
vulgaris
vulnerata
vulpes
w
wa
wait
wall
walvis
want
wanted
wanting
wants
waqif
war
warriors
warsaw
was
washington
wasp
watch
watchlist
watchlists
water
waterfront
wave
way
ways
wbstatus
wd
wds
we
weak
weaver
web
webfonts
website
websites
wednesday
week
weekly
weeks
weibchen
weil
weimar
welcome
well
wells
welsh
welt
went
were
werksverzeichnis
werkzeughalle
west
westdeutsche
western
westruper
whale
what
whatamidoing
whatever
when
whenever
where
whether
which
whichever
while
whipsnade
white
whitespace
who
why
wide
wider
width
wien
wiese
wiki
wikibase
wikibooks
wikidata
wikidataitemid
wikidataselectors
wikieval
wikifunctions
wikigap
wikilinks
wikimania
wikimedia
wikimedians
wikipedia
wikipedian
wikipedians
wikipedias
wikis
wikisource
wikisources
wikitech
wikitext
wikiversity
wikivoyage
wikivoyages
wiktionary
wild
wildpark
wildpferde
wilhering
will
william
willing
win
wind
windmill
window
windows
wing
winged
winners
winter
wish
wishes
wishlist
witch
witches
with
within
without
withoutparams
wittelsbacher
wm
wmde
wmf
wmru
wo
wolf
wolfgang
woman
women
won
wood
wooden
word
words
work
workboard
worked
worker
workflow
working
worklist
works
world
worldcat
worldcup
worldfootball
would
wp
wps
wpwp
wrapinurl
wrapper
wrapperextraargs
wrappers
wrapqualifier
wraps
wrapsnak
wrapstatement
wrapvalue
write
writing
written
wroclaw
wrong
wrote
ws
wslink
wsource
wuu
www
x
xal
xeno
xico
xii
xiii
xix
xmas
xmf
xml
xo
xv
xvi
xviii
xx
xysticus
y
yakutiye
yamaha
yana
yandex
yaroslav
yawn
year
years
yellow
yenimahalle
yenipazar
yenis
yes
yesno
yet
yi
ynu
yo
york
yosemite
you
young
your
yours
youtube
ypthima
yu
yue
yuko
yup
yurik
yyyy
z
za
zalmora
zaragoza
zea
zealand
zentrale
zero
zh
zimbabue
zones
zoo
zoom
zu
zum
zur
zwettl
{
|
}
~


«
°
±
²
³
·
º
»
×
æ
ð
ø
þingvellir
ħ
ı
ł
łobez
ƣ
ƶ
ɑ
ɒ
ə
ɾ
ʰ
ʲ
ʼ
ˈ
ˌ
ː
ˤ
̀
́
̂
̃
̄
̆
̇
̈
̊
̌
̞
̣
̥
̦
̧
̨
̯
͡
α
β
ελληνικα
θ
ο
ς
ω
а
аарони
ааьнсса
аббатства
аббатство
абиаьт
абиаьтрал
абу
абутӏалиб
ав
ава
авар
аварцам
август
августа
августраи
аверон
ави
авиашоу
авокадо
австралии
австралия
австрии
австрия
автомобиль
автономныи
автопортрет
автор
автора
автосалоне
аву
аг
агама
агарда
агра
агъачоьрен
агъры
агъул
агьали
агьалии
агьалинал
агьамми
агьаммур
агьамсса
агьлу
агьрам
агьрамру
ад
адабият
адам
адана
ади
адигаи
адимина
адиминал
администратора
администраторов
администрациялул
адмирал
адреснои
адур
адыяман
аж
ажари
аз
азаллии
азар
азара
азарва
азарда
азербаи
азизие
азии
азирб
азирбижан
азирбижаннал
азия
азиянал
аи
академии
акация
акбар
аквариуме
аки
аксу
актау
акте
активности
актиния
актриса
акула
акъа
акъасса
акъашиву
акъсараи
акъсеки
акъсу
акъюрт
акьину
акьсса
ал
ала
аладагъ
алан
алану
аланья
алатырь
але
александр
александра
алексеи
алеут
али
аликанте
аллагь
аллагьнаи
аллагьнал
аллагьнан
аллагьу
аллана
аллил
алоэ
алт
алтаи
алтарь
алтаря
алтындагъ
алфавит
алфавитрал
алфавитри
алфавитру
аль
альберта
альп
альпах
альпы
альтенбургского
альх
алютик
аляска
алясканал
ам
аманат
амасья
амбар
амбарелла
амбр
америка
американал
американская
американскии
америки
аминат
амир
амировлул
амма
аммад
аммада
аммадлул
амстердам
амфитеатр
амфитеатра
амхара
ан
анаварну
анаи
анал
анализу
аналлагьи
анатомии
анатомия
ангела
ангкор
англии
англия
ангу
андалусия
андо
андорра
андрея
андромеды
анжагъ
анжи
ани
ании
анимационное
анимация
анкара
анкаралул
анкъара
анна
аннин
аннона
анны
анонимныи
ансса
анталья
антилопа
антилопы
антонио
антония
антофагаста
анттаи
анттул
ану
анхальт
ап
апанни
аполлон
аполлона
аппарата
апрелдании
апрель
апреля
апшероннал
ар
ара
араб
арабскии
арагон
арамтуннал
арантурал
аргаи
аргентина
аргумент
аргументами
аргументов
аргументы
аргълагавал
ардануч
ардахан
арду
арена
аризона
арка
арки
аркос
арм
армани
арманинал
армения
армии
арпри
арс
артвин
арулва
арулцӏаллии
арулчинмур
арх
архави
архангельская
археологическии
архив
архипелаг
архитектор
архӏал
арцу
арцул
ас
асан
асатӏин
асват
аслан
ассалам
ассоциация
асср
астронавт
астрономия
ат
ата
атакама
атемои
атлантис
атлас
атлетике
атлетики
атта
аудио
аухуллал
афар
афганистан
афи
афины
африка
африканал
африканская
африканскии
африканского
африки
аффан
ахирдании
ахттаи
ахттакьун
ахъулсса
ахъулссаннул
ахъулссар
ахыскъа
ахӏмад
ац
ацӏва
ацӏилчинмур
ацӏния
ач
ачех
ачкъала
аш
ашкъале
ашттархан
аь
аьврат
аьгъушиву
аьдад
аьдатирттаи
аьли
аьлиев
аьлиевлул
аьлиевлун
аьлил
аьлимчу
аьмну
аьнакӏи
аьраб
аьрабнал
аьрабусттан
аьрабусттаннал
аьрав
аьракьи
аьрал
аьрали
аьралул
аьралуннал
аьрасат
аьрасатнаву
аьрасатнал
аьрафат
аьрза
аьркин
аьркинсса
аьркинссар
аьрхӏал
аьрщараи
аьрщарал
аьрщи
аьхъар
аьщуи
аэропорта
аэропорту
ая
аяш
б
ба
бабочек
бабочка
бабочки
баварии
бавария
баврил
бавт
баву
бавугу
багьаи
багьлеи
багьну
бад
баден
бажанаттукку
база
базе
базель
базилика
базилики
базовыи
базу
базур
базурдаи
базурду
баи
бак
баклан
баку
бакуи
бакъа
бакъами
бакъар
бакъасса
бакъассагу
бакъассар
бакӏ
бакӏрал
бакӏу
бакӏчи
балаи
балета
бали
балии
балкария
балкъарнал
балыкесир
баля
бам
бамберг
бан
банавша
банавшасса
бангалор
бангкок
бангладеш
баннерная
баннернои
баннин
бансса
банту
баншиврул
бар
бара
бараатрал
барашиву
барбара
баргъ
баргъбуккавал
баргъбуккаваллил
баргъбуккавалу
баргълагавал
барельеф
барз
барзри
барзру
барзу
барзукка
барзул
барокко
барт
бартын
бархӏ
барцӏ
барча
барчагу
басков
бассеи
бат
батиста
батман
бах
бахреи
баху
баххана
бахшиш
бахшишру
бацӏаи
бачин
бачӏи
башни
башня
баян
баят
бе
без
безье
беи
бекас
белая
белка
белого
белоголовыи
белом
белорус
белыи
бельгии
бельгия
бельде
бельфор
бен
бенгал
бенидорм
бербер
бере
берег
берега
берегу
берка
берлин
берлина
берлинская
берлинскии
берлинскои
бернина
беседы
бесерман
бескиды
бесни
беспокои
бета
бехешт
библиотека
библиотеке
библиотеки
библиялул
бивзун
бивк
бивкӏсса
бивкӏссар
бивкӏун
бивну
бивсса
бивхьуну
бивхьусса
бивхьуссар
биг
бигь
бигьлил
бизаи
бизан
бии
бик
бикӏаи
бикӏу
билаят
билаятирттаи
билаятраи
билаятрал
билаятри
билаятрул
биледжик
бингоьль
биографическии
биография
биосферныи
бисмиллагьи
битвы
битлис
биттур
бихьулии
бич
бичаи
бишаи
бищаи
бия
бияннин
благодарим
благодарностью
благодаря
благородныи
блаженного
блаубои
ближаи
близ
блика
блог
блок
блока
блоков
блюдо
бо
богаз
богоматери
богомол
богородицы
боздогъан
бои
боитесь
болг
болгария
более
боливия
болоте
болото
болу
больницы
большая
больше
большинстве
большого
большое
большои
большом
бомбарду
бонн
бонобо
борисович
бородавочник
бородавочника
борту
борчка
босния
ботаническии
ботаническом
ботсвана
боьльге
бразилии
бразилия
браи
бранденбург
бранденбургских
браун
бреи
бримстоун
британия
британская
британскои
брокгауза
бруклин
бруклинскии
брухо
брюгге
брюль
брюссель
буби
буваи
буван
бувгьуну
бувк
бувккун
бувккунни
бувккуну
бувксса
бувкссар
бувкӏун
бувми
бувну
бувсса
бувссар
бувчӏин
буга
бугро
бугъаз
бугъазрал
бугъазру
бугьан
будапешт
будды
будем
будет
будут
будущеи
бужак
бузэу
буи
букв
буква
буквами
букингемшир
буккавал
буккаи
буккан
буккин
буккинссар
буклаи
булат
булбул
булбуллул
буллаи
буллалисса
буллан
буллеи
бумажная
бумажнои
буми
бунагьру
буну
бунувасса
бунугу
бур
бург
бурдван
бурдур
бурж
бурк
буркив
буркина
бурса
бурт
буру
бурувгун
буруглаи
бурхьнимур
бурши
бурыи
бурятия
бусан
буслаи
бусласаврих
бусса
буссар
буссия
бусурман
бусурманнал
бусурманни
бусурмантурал
бут
бутта
буттал
бутӏа
бутӏри
бух
бухарест
бухаркент
бухта
буххаи
бухчӏинсса
бухьурчагу
буч
бучӏиссар
бушиву
бы
бывшая
бывшего
бывшеи
бывшие
бывшии
был
была
были
было
быть
бьют
бэи
бювхъусса
бюллетень
бюллетеня
бюрни
бюрнир
бюрх
бюрхттукку
бюхттулсса
бюхъаи
бюхълаи
бянивсса
бяр
бяс
бяъли
в
ва
важно
важным
ваи
вакил
вакиф
вал
валенсии
валенсия
вали
валле
вам
ван
вана
ванал
вандалул
ванил
ванкского
ваннал
ванни
вант
вань
вар
варани
вариантру
варфоломея
варшава
вас
василия
василька
ват
ватнаи
ваточника
вахӏшисса
ваччи
ваш
ваше
вашем
ваши
вашингтон
вашингтона
ваших
вблизи
вверху
ввс
ве
веде
век
века
векраи
велико
великобритании
великобритания
великопольское
велосипеде
вена
венгерскии
венгрия
венда
вене
венесуэла
венет
венеции
венеция
верде
версии
версия
версиях
вертоле
верхнеи
верхнии
верхняя
вершина
вершине
вершину
вершины
весна
вестись
вестманнаэи
вестра
веструпская
вестфалия
вестфирдир
ветеринарнои
ветров
ветряная
ветряные
вечером
взаимодеи
взглядам
взле
взлетает
взрослая
взрослыи
виадуке
виборг
вив
виваллил
вивра
вид
вида
виде
виден
видео
видеть
видимо
видимом
видна
видны
видов
виды
вижу
вики
викиданные
викиданных
викимарафоне
викимедиа
викимедии
википеди
википедии
википедию
википедия
википедиялул
википедиянал
викисклад
викискладе
викискладраи
викитека
викификатор
виктора
виктории
виктория
вил
вила
вин
винница
винницкая
винницкии
виноградники
винсент
винчи
виргиния
вирджиния
виру
висконсин
висмута
витамин
витаминну
витраж
витӏяихъ
вих
вихшаву
вихшал
вихьли
вич
вичӏи
вища
вклад
включает
включая
владеет
владение
владимир
вместе
вместо
внести
внешнего
внизу
внимание
внутреннеи
внутреннии
внутренних
внутри
во
воде
водое
водои
водопад
водопада
водопадом
водопады
водохранилище
воды
водяная
водянои
воеводство
военно
военныи
возврат
возвращаем
возвращает
воздуха
воздухе
воздушного
воздушных
возможно
возможности
возможность
возрастом
вои
вокзал
вокзала
вокруг
вола
волапюк
волга
волк
волонте
вольфганг
вольфганга
вообще
вопрос
вопроса
вопросам
вопросов
вопросы
ворот
ворота
воспользуи
востока
восточная
восточного
восточнои
восточныи
восход
вот
вп
врач
времени
временная
временные
время
вроцлав
все
всего
всем
всемирная
всемирного
всех
вставьте
встреч
встреча
встречах
встрече
встречи
встречу
втор
вторая
второго
второи
вуд
вулкан
вулкана
вулканы
вход
входа
входе
входнои
вы
выборам
выборах
выборов
выборы
вывода
вызов
вызова
вызове
вызывает
вызывается
выль
выпуск
выпуска
выпускники
вырумаа
вырус
выскажите
высказать
высокии
высоте
высоты
выставке
выставочныи
выступление
выходит
выходы
выше
вышло
вьетнам
вюртемберг
г
га
гаага
габиев
габиевлул
габриэль
гаваи
гавани
гавань
газа
газиантеп
гаи
гаити
галактик
галактика
галактики
галапагосские
галереи
галерея
галисия
галлен
галло
галф
гамбия
гамбург
гана
ганал
ганан
гандал
гании
ганил
ганин
ганновера
гань
гаосюн
гарц
гаутенг
гафния
гвинея
гг
гггг
где
ге
геи
гелдерланд
геоглифов
география
георг
георгии
георгия
гепард
гепарда
герб
гергер
германии
германия
германиянал
герменджик
герои
герцеговина
гессен
гибрид
гигантская
гигантскии
гидроэлектростанция
гикори
гилберта
гимнастика
гиппопотамы
гиресун
гиркан
гитарист
гких
гкои
главного
главное
главнои
главныи
глаз
глеи
глобальное
гнездо
гнезно
гну
го
говерла
гог
год
года
годами
годах
годов
годового
годовои
году
годы
гол
голестан
голландия
голланивун
голланивусса
голова
голожаберныи
голосование
голосовании
голосования
голосующим
голубая
голубои
голубые
голубянка
голубянки
гольштеи
гонки
гонконг
гонконга
гонщик
гор
гора
горах
горган
горе
горизонта
горилла
горная
горного
горнолыжныи
город
города
городе
городскои
горои
гору
горы
господня
гостиницы
государственная
государственнои
государственныи
государство
готтлиба
гоьи
гоьле
гоьльбашы
гравюра
граждан
гражданскои
гран
гранада
гранд
границе
границы
грант
гранты
граубюнден
греи
грек
грекнал
гренландия
гренландиянал
греции
греция
гриб
грин
гроба
гробницы
грозы
гронинген
грот
грузинскии
грузия
групп
группа
группе
группы
грязевые
гу
гуаи
гуанахуато
губка
гужсса
гум
гурж
гуржи
гуржисттан
гуржисттаннал
гуржиял
гусеница
гусь
гъ
гъази
гъазиантеп
гъазигъумуксса
гъазипаша
гъалбарц
гъалгъа
гъан
гъафуров
гъи
гъинтнил
гъинттул
гъира
гъумук
гъумучатусса
гъумучи
гъумучиял
гъуслу
гь
гьава
гьавалул
гьавккури
гьавукун
гьаз
гьаи
гьалмахчу
гьамиящи
гьамлет
гьан
гьантлуи
гьантлул
гьантри
гьантта
гьанттар
гьану
гьанусса
гьарун
гьарца
гьивхь
гьивхьхьул
гьивч
гьижра
гьиндуснал
гьиндусттан
гьиндусттаннал
гьинта
гьунттии
гьур
гьуртту
гьухъ
гюдюл
гюзельюрт
гюлагъач
гюмюшхане
гюндогъмуш
гюнеи
гюстава
д
да
даваи
давид
давида
даву
давуд
давурттив
дагестан
дагестана
дагестане
дагъ
дагъустан
дагъустаннаи
дагъустаннал
дагъусттан
дагъусттанал
дагъусттанлувтал
дагъусттаннаи
дагъусттаннал
дагьаи
дагьлеи
дагьну
дагьсса
дадут
даже
дазуи
даи
дак
даков
дакъа
дакъар
дакъассагу
дакъассар
дакьаи
дакьин
дакӏнии
дали
даллол
дамал
дамба
дан
дана
дании
даниэль
даниэля
дания
даниял
данна
данная
данного
данное
данные
данных
данте
данул
даншиврул
дар
даража
даражалул
даралуву
дарбант
дарги
дарс
дарсру
дарувсса
дат
дата
датскии
дату
даты
дать
дах
даххана
дахьлеи
дахӏинссар
дач
два
две
двенадцать
дверь
движение
движением
движении
движению
движения
двои
двор
двора
дворец
дворца
дворце
двух
дд
де
девочка
девушка
девы
деи
декабр
декабрдании
декабре
декабрь
декабря
делам
деле
дели
деловои
дель
дельта
дельталии
демонстрация
демре
ден
дена
дендрическии
денизли
дено
день
департамент
депо
депутат
дер
дербент
дерева
дереве
деревне
деревни
деревня
дерево
деревья
деревянная
деревянные
деревянныи
десна
дет
детали
деталь
дете
дети
дефанс
деятельности
джазовыи
джаи
джами
джан
джаннал
джеи
джефферсона
джованни
джона
джорджа
дзи
ди
диаграмма
диаметр
дидим
диего
дизаи
дизельныи
дии
дик
дикӏаи
дин
диндалул
динка
динни
дирзун
дирк
диркӏссар
диркӏун
дирсса
дирхьуну
дирхьусса
дискуссии
диссернет
дите
дихьлан
дишаи
дия
диядин
диял
диярбакыр
длина
длиннохвостая
длинои
длину
для
днеи
дня
до
добавить
добавьте
добро
добровольном
добровольцев
добровольцы
доброго
добрыи
догубаязыт
документации
документация
долготы
должна
должно
должны
долина
долине
долины
долларов
доломитовых
дом
дома
домашнии
доме
дон
донецкая
доп
дописать
дополнительные
допустимые
доре
дорога
дороге
дороги
дорсет
дортмунд
доступен
доступна
доступны
доьшемеалты
др
драи
дрозд
другие
других
другои
ду
дуала
дуаь
дуаьгу
дубаи
дубовик
дубровника
дуваи
дуван
дувсси
дугьаву
дугьаи
дугьан
дуи
дукаи
дукия
дуккаврил
дуккаву
дуккаи
дуккан
дуклаи
дуклан
дуклеи
дукни
дукра
дукрар
дукрарду
дукьрахӏан
дул
дуллаи
дуллан
дуллеи
дуллунни
дуллуну
думаю
дунгъуз
дуниял
дунияллии
дунияллул
дуну
дунугу
дур
дургьуну
дуриан
дурккун
дурккуну
дурккусса
дурксса
дуркуну
дурну
дурсса
дурссар
дус
дусса
дуссар
дуссия
дут
духьурча
дучӏиннал
душ
душру
дын
дэра
дю
дюздже
дюльмен
дюна
дюны
дянив
дянивмур
дянивс
дянивсса
дяниву
дятел
дяъви
дяъвилул
е
евразиянал
евреев
евреи
европа
европанал
европе
европеи
европы
египет
египетнал
его
ее
ежеквартально
еи
екатеринбург
елизаветы
еллоустоун
ен
енимахӏалле
енипазар
енишехир
ер
ера
ерверк
ерверки
ереван
если
естественнои
есть
ефрона
еще
ж
жаба
жавгьар
жагьилсса
жазира
жазиралия
жазиралул
жазирасса
жаи
жамилии
жан
жана
жаназалул
жанеи
жаннугу
жде
же
железная
железнодорожная
железнодорожнои
железнодорожныи
железнои
женщина
женщины
живои
жизни
жизнь
жинс
жки
жу
жува
жугьут
жугьутӏнал
жудец
жуж
жук
жул
жула
жума
жунав
жунаврал
жунма
жура
журалул
журарду
журнал
журнала
журчалка
журчалки
жучӏава
жяматии
жяматрал
з
за
заброшенныи
забудьте
забур
завершится
завода
заводе
заглавие
заглавия
заглавная
заглавнои
заголовка
заголовков
заголовок
заготовки
загреб
заданныи
задать
заднем
заж
заи
заинтересованных
заинтересованы
заказник
закария
закарпатская
закат
заката
закате
закатом
закон
закуев
зал
зала
залив
залива
заливе
заллу
зальцбург
зальцбурга
зальцкаммергут
заман
заманнаи
заманнул
замбия
заменить
замены
заметил
замзам
замир
замка
замке
замок
зана
заннаи
запада
западная
западно
западное
западнои
западном
западныи
записать
запись
заповедник
заповеднике
заполнив
запрос
запуск
запятои
заралми
заранее
зарянка
затмение
затру
зах
захӏмат
заявки
заявку
заявление
заявлении
заявления
заявок
зве
звезды
зд
здание
здании
здания
здесь
здное
здравствуи
зе
зебра
зеи
зеландии
зеландия
зеле
земле
земли
земля
землянои
зер
зии
зикри
зимбабве
зимиз
зимизру
зимнии
зимои
зимородок
зиря
зия
знает
знаете
знака
знание
знании
знания
значение
значении
значения
значит
знающии
золотои
золотые
зона
зонгулдак
зондом
зонтики
зоопарк
зоопарке
зоя
зоял
зу
зувиллии
зузисса
зул
зулу
зуль
зума
зуманив
зуманил
зуманицӏ
зумарду
зун
зунттаву
зунттал
зунтту
зунттуи
зунттул
зунттурду
зурдардии
зуруи
зурул
зуруя
зы
и
ибибио
ибн
ибрагимова
ибрагьим
ибрады
ив
ива
иван
ивано
ивановская
ивимур
ивисса
ивк
ивкӏсса
ивкӏссар
ивкӏун
иврит
ивхьуссар
игала
игбо
играющии
игрок
игры
игуана
игуаны
ида
идавс
идавсил
идавсри
идавсту
идальго
идеи
идентификатору
идея
иджо
идиш
идол
иерусалим
из
избербаш
избирательная
избирателя
избранные
извержение
извержения
известныи
извинения
извините
изгородь
изд
изменении
изменения
измир
изображающая
изображение
изображением
изображения
израиль
ии
иисуса
ик
икако
икар
икрам
ил
илагьа
или
илла
иллинои
иллюстрация
илчи
илчинмур
иль
ильданул
ильру
ильче
ильяс
им
имам
имамогълу
иман
имбу
имеет
имел
имели
имени
именованные
ими
император
императорскии
императорскои
империи
имуч
имя
ин
ина
иначе
инг
ингил
ингилис
ингилиснал
ингуш
индевор
индеи
инджесу
инджирлиова
индиана
индианаполис
индии
индия
индонезии
индонезия
инженер
инжил
инжир
инжирданул
ини
иник
инклюзивным
инкубаторе
иностранном
инс
инсан
инсаннал
инсаннан
инсаннаща
инсантал
инсантурал
инсантуран
инсталляция
институт
инструмент
инструмента
инструментов
инт
интересную
интернет
интернетнал
интерфеи
интерьер
интнил
ину
инуит
инуктитут
инфо
информации
информационного
информационныи
информацию
информация
инфракрасном
инюпиак
иоанна
иордания
иосифа
ип
ира
ирагу
иран
ираннал
ириб
иримур
ирис
иркутская
ирландия
ирон
исав
исавраи
искандер
искилип
исключая
искусств
искусства
ислам
ислама
исламрал
исландии
исландия
исмаил
испании
испания
испаниянал
испанская
испанскии
испир
использованием
использованию
использования
использовать
используется
использующих
используя
исса
иссаву
иссагу
иссар
истамбул
истанбул
истории
историческии
исторического
историческое
историческом
история
источник
источниками
источники
истребитель
истребителя
исфахан
ися
ит
ита
итадакьеи
итал
италии
италия
италиялул
итальянская
итальянскии
итальянских
итальянского
итогам
их
ихтилат
ич
ичӏаллил
ишимбаи
ишла
ищем
июлдании
июль
июля
июндании
июнь
июня
ия
к
ка
кабардино
кабо
кабье
кавказуллал
кадавоор
кадис
каенг
каждые
каждыи
кажется
каз
казань
казах
казахнал
казахскои
казахстан
казахстаннал
казино
каи
как
какие
какого
кал
калан
калатаюд
калахари
календарь
календарьдании
календарьданул
календаря
калимантан
калининград
калининградская
калифорнии
калифорния
кальскии
камал
камбоджа
камбрия
каменец
каменныи
камео
камерун
камни
кампании
кампания
кампусе
камчатскии
канаверал
канада
канаданал
канады
канал
канария
канарские
канберра
кандидатам
кандидатов
кандидаты
канил
каннада
кантон
кантоне
канха
канцлер
каньон
каньяпа
канюк
кап
капелла
капеллы
капитолии
капли
капская
капскии
капустница
кар
кара
караван
каргадан
кардинала
карел
карибское
карикатура
каринтия
карл
карла
карло
карлсруэ
кармель
карнатака
карпатскии
карта
картина
карточка
карточке
картраи
карты
кару
каругу
карунних
карьер
карьера
касму
каспи
каспии
кассини
кастанопсис
кастилия
катанга
катар
категории
категория
катер
кафедрального
кафедральныи
качестве
кашан
каши
каштана
кая
каяев
квазулу
кваква
квакша
кваньяма
квартал
квартира
квебек
ке
кеи
кемер
кенгуру
кения
кеннеди
кент
кентербери
кепез
керала
керман
керчь
кефермаркт
кечиоьрен
кечуа
ки
кие
киев
кизляр
кикуи
килис
километра
килораи
кильд
киля
киото
кипр
кирил
кириния
кирхшпиль
кит
китаб
китаи
кито
китс
ккавкказуллал
кказит
кказитрал
кказитру
кказитчи
кказитчитал
ккаккан
ккалли
ккаллиссия
ккарччи
ккарччив
ккацца
ккаччи
ккул
ккули
ккуллал
ккунукру
ккурккулал
ккурмуз
кл
кладбище
клары
класс
класса
клевер
клещ
клуатр
ключевых
км
кнопку
ко
коала
коата
ков
кову
когда
код
кода
кодекс
кодекса
козе
кои
кока
кокош
кола
колесо
колеус
колибри
количество
коллеги
колокольня
колонны
колорадо
колумбии
колумбия
кольца
колючеи
команда
командами
команде
командои
команды
коми
комиссия
комитет
комитета
комитете
комитету
комментариев
комментарии
комментариями
коммуна
коммуне
комнат
комодо
компании
компас
компаса
компасом
компенсацию
комплекс
комплексе
композитор
конго
конгресса
конкурсе
конкурсраву
конкурсы
консультации
контекст
конференции
конца
конце
концерт
концерте
конья
координаты
копенгаген
копенгагена
копт
кор
корабле
корабли
корабль
корабля
кореи
корея
коридор
королевскии
королевских
королевскои
королевы
король
короткие
коротких
корректно
корунья
коса
космическии
космическим
космического
космическои
космическом
космонавт
космонавтурал
космос
космоса
космосрава
космосравун
коста
кот
которая
которого
котором
которые
которыи
которых
коулун
кошка
коьи
коьпрюкоьи
коьшк
краб
краба
краи
красная
красного
краснодарскии
краснои
красном
красные
красныи
красотка
кратере
краткая
краткии
крачан
креи
кремль
кремля
креол
крепости
крепость
кресла
крест
креста
крестовик
кри
крик
крио
крипта
кристалл
кристаллы
кристобаль
крит
крови
крокодил
кроме
круглых
круговая
круизное
крупнеи
крус
крушинница
крылатка
крыло
крым
крымскии
крыши
крюгера
кряквы
кстати
кто
ку
куала
куб
куба
кубик
кубическии
кубка
кубок
кубра
кувеи
кувшинка
куду
кузнечик
кук
кулпат
кулпатраву
культуры
кум
кумаг
кумух
куна
кунма
кунна
куннасса
куну
кунугу
купол
купола
курд
курди
курорте
курсе
куско
кусса
кут
куц
куццуи
къ
къабарча
къабуч
къавт
къадурну
къажар
къажарнал
къаз
къазан
къазах
къаи
къаитаи
къак
къала
къалаи
къаледжик
къалмукьнал
къалпуз
къама
къамар
къанч
къанчпараст
къаплан
къара
къараджасу
къараисалы
къараман
къарапынар
къараташ
къарач
къарачаи
къарачобан
къараязы
къарпузлу
къарс
къаршину
къат
къатри
къатта
къаххяххаи
къахьурча
къаш
къашаваи
къашаи
къаяев
къеп
къеппа
къизил
къинтта
къирим
къозан
къонья
къоньяалты
къоркъутели
къочарлы
къулаи
къуллугъ
къуллугъраи
къум
къумасса
къумлуджа
къумукъ
къумукь
къумукьнал
къундалул
къундуз
къур
къуртал
къурул
къуруш
къушадасы
къуюджакь
къызылджахӏамам
къызылырмакь
къыршехир
къырыккъале
къюк
къюкӏ
къяртри
кырвемаа
кь
кьакьан
кьакьари
кьамул
кьанкь
кьат
кьатӏаллил
кьиблалул
кьилвалия
кьилвалул
кьини
кьинирду
кьиямасса
кьуния
кьуран
кьурбан
кьурхьру
кьурч
кьуръан
кьяца
кьяцлул
кюдль
кютахья
кякан
кяхта
кӏа
кӏанаи
кӏанттул
кӏану
кӏи
кӏива
кӏии
кӏилчинмур
кӏинтнил
кӏира
кӏисса
кӏулну
кӏундими
кӏундиннал
кӏура
кӏут
кӏяла
кӏяласса
л
ла
лаббаи
лаборатории
лаборатория
лаваи
лаванды
лавгун
лавкьусса
лаврентия
лавсун
лавсъссар
лагаи
лагере
лагерь
лагуна
лагьну
лагьсса
лажин
лаз
лазги
лаи
лак
лакку
лаккучу
лакрал
лакран
лакски
лакскии
лакского
лакскои
лакском
лампа
лангедок
ландшафтном
ландшафтныи
ланка
лансароте
лану
лаон
лаос
ларгсса
ларгун
ларсун
ларсъссар
лархьхьусса
лас
ласса
ласточка
ласун
лат
латвия
латин
латинскии
латышскии
латӏ
латӏин
лауреат
лах
лахемаа
лахъисса
лахъишиву
лахъну
лахъсса
лахъшиву
лахьлаи
лахьхьин
лач
лачин
лаччи
лачӏа
лва
ле
лебеди
лебедь
лебедя
лев
левои
левххуссар
леди
ледник
ледника
лезги
лезгилал
леи
лелуххант
лелуххи
лелуххир
лелуххул
лен
ленд
лендс
лениннул
леон
леонардо
леоне
леопард
лес
леснои
лестница
лесу
лет
летнии
лехлаи
лехлан
леххаврил
леххаву
леххавурттал
леххаи
леххан
лехху
ли
либо
лив
ливч
ливчусса
лига
лигенграбе
лидерства
ликкан
лилеи
лилии
лилия
лима
линии
линия
линк
линь
лисица
лисри
лиссабон
лист
листе
листья
литва
литература
литературалул
литературная
литовская
литовскии
литография
лица
лич
личи
личинка
личӏи
личӏисса
лишан
лишь
лка
лла
лоа
лобос
ловского
логотип
лодка
лодки
ложно
лозер
локализованного
локальная
локомотив
ломбардия
ломонд
лондон
лондоне
лории
лос
лофотенские
лох
лошади
лру
лтои
лтыи
лу
луангва
луба
лув
лувсса
луг
лугового
луговои
лугъ
лугъат
лугъатреи
лугъатру
луи
луизиана
лука
лул
луле
лумпур
луна
луны
луттирал
луттирду
лух
луххал
лухччинул
лухӏи
лухӏисса
лучах
лучи
лучше
лучших
лчинмур
лы
ль
льва
львовская
львы
льда
льн
льштаи
любои
любом
людеи
люди
людингхаузен
люксембург
люма
лютеранскии
ля
лягушка
лягушки
лякьа
лялич
лялу
лярхъуну
ляхъан
м
ма
мавзолеи
мавзолея
мавлуд
маврикии
магазин
магъ
магъи
мадагаскар
мадарасса
мадина
мадонна
мадрид
мадхья
мажи
мажид
мажнун
маз
мазраи
мазрал
мазрая
мазреи
мазри
мазру
мазурдии
маи
мак
макак
макао
макгадикгади
македония
макка
маккалив
маккалии
макъам
макь
макьала
макьаларду
мал
малаи
малатья
малахитовыи
малая
мали
малик
малого
малыи
мальдивские
мальта
мальчик
мамакъ
ман
мана
манавгат
манаров
манарова
манаровлул
мангостан
мандрил
мане
мани
маниса
манси
манхаи
манхэттен
манхэттена
манча
маори
мар
мара
маракаи
марас
марат
маргарита
мардин
мари
мариам
марии
мария
марк
марка
марке
марок
марокко
маррен
марса
март
марта
марте
мартин
мартина
мартраи
мартрал
марц
марцӏ
марш
марьянои
масалдаран
маска
массачусетс
массив
массои
масъала
математика
материал
материалов
материалы
матч
матче
мать
маунт
мах
махаон
махачкала
махъ
махъалу
махъгу
махъмур
махъру
махъсса
махъунмаи
махӏад
махӏаммад
махӏаммадаьли
махӏаммадов
махӏачкъала
мацӏ
мачу
машгьурсса
машина
машины
мая
маяк
ме
медаль
медведев
медведь
медиафаи
медныи
медоносная
между
международнои
международном
меи
мекленбург
мексика
мексиканал
мексиканскии
мексике
мельке
мельница
мельницы
мемориал
менее
меню
меня
мер
мере
мерзифон
мерсин
месте
местное
место
месхетин
месяц
месяца
месяцев
мета
мете
метка
метки
методом
метрардал
метро
метров
метрополитен
мехико
мечети
мечеть
меэникунно
ми
миг
мигу
мидзу
миди
мизит
мизитраву
микку
микроскопе
микроскопом
мил
милан
миллат
миллатирттал
миллатрал
миллиард
миллион
миллионов
милуоки
мин
мина
миналии
мини
министр
миннал
миннул
минут
минуты
минь
мир
мира
мире
мири
мирикина
мировои
мисканти
мисри
миссии
мит
миттербах
митӏикьукьу
михаи
михаила
михак
михаэля
мич
мичихич
мичихичнал
мишель
млечного
млн
мм
мммм
мне
мнение
мнением
многие
многих
много
мо
могила
могли
могу
могут
модель
модификаторы
модуле
модуль
модуля
может
можете
можно
мозамбик
мои
мокш
мокша
мол
моллюск
моллюска
молодая
молодои
моль
мольк
мом
момбин
момент
мон
монарх
монарха
монастир
монастыре
монастырь
монастыря
монбельяр
монблан
монокристалл
монреаль
монтань
монте
море
моржи
мориц
мороженои
морро
морская
морские
морского
морскои
мортерач
моря
москав
москавлив
москавуллал
москва
москве
московская
мост
моста
мостом
мосту
мотоцикл
мраморного
мс
мса
му
мубараксса
мугла
мугу
мужская
музее
музеи
музея
музыка
музыки
мукумма
мукун
мукунма
мукунна
мукьаддас
мукьах
мукьва
мукьилчинмур
мукьра
мукьцӏаллии
мумбаи
мун
мунаи
мунал
мунивух
мунии
мунил
мунин
муниципалитет
муния
мунияр
мунияту
мунка
мунни
мур
мурад
муратпаша
мурхь
мурхьри
мурхьру
муса
мусаев
мусал
муси
мусил
мустапа
мут
мутталии
мух
муха
мухи
мухомор
мухӏаммад
мухӏу
муш
мы
мызы
мыс
мыса
мысе
мьянма
мюльхаи
мюнстер
мюнстера
мюнхен
мюнхена
мюнхене
мюнхенскии
мюрщисса
мяи
мясо
мяъдан
мяъданну
мяъна
н
на
набережная
набережнои
наби
набирает
наблюдательнои
набор
наварра
навахо
навигационная
наву
над
надо
наду
нажав
нажать
нажимаи
нажмите
нажмудин
нажмуттин
назад
назва
название
названия
назилли
наи
наиболее
наибольшее
наибольшеи
наида
нак
накь
нал
налии
наличие
наллыхан
нам
намерениях
нами
намиб
намибия
наниманал
нанисса
написания
написанные
написать
напишите
наполеона
напоминаем
например
нара
наранжисса
нарман
народа
народов
народы
нас
наса
насекомое
население
населения
насир
наска
наставники
настенная
настоящее
настрои
натал
наук
науки
науклуфт
научнои
нах
находится
нахъ
нац
национальная
национального
национальнои
национальном
национальныи
начала
начале
начало
началось
начальное
начать
наше
нашеи
ная
нбрунн
нгу
ндебеле
не
неактивных
небольшои
небоскре
невада
неверен
невского
невшехир
него
недалеко
недели
неделю
недостаточно
нее
неи
неизвестного
неизвестныи
неименованные
неккар
некорректныи
некоторые
нектар
нем
нематоды
немец
немецкая
немецкии
немецкого
немецкои
немецком
необходимости
неоновая
непал
нер
несе
нескольких
несколько
нет
нетерпением
неф
нефа
нех
нехру
неххал
нехъа
неясыть
ни
нибудь
ниву
нигде
нигер
нигерия
нигериянал
нигьа
нидерланд
нидерландов
нидерланды
ниже
нижнего
нижнесилезское
нижнии
нижняя
нии
ник
никого
николаевская
николаи
николая
николя
нимфенбург
нинг
нину
ниттил
них
ниц
ничего
ния
ният
нко
нком
нланд
нмаи
нна
ннаи
ннал
ннан
нначӏа
нная
ннии
нного
ннои
нные
нныи
нных
но
нобелевскои
нова
новая
новгород
новичков
нового
новое
новои
новостеи
новости
новость
новую
новые
новыи
новых
ное
нои
нок
нокиа
ноль
ном
номер
номиналом
номинациялуву
норв
норвегии
норвегия
норвежская
норвежскии
норд
нордернаи
норт
нортбрук
норфолк
норфолкскии
носителеи
носорога
нотгельд
нохчии
ночная
ночное
ночнои
ночью
ноябрдании
ноябре
ноябрь
ноября
нсса
нська
нт
ну
нувца
нугъаи
нужна
нужно
нужны
нуз
нукӏу
нумерованные
нунивакнал
нурланн
нухутӏ
нуххулкӏулу
нухӏ
нуцал
нц
ны
ные
ныи
ныне
ныш
нышем
нью
ньянджа
нюджек
нюжмар
нюжмардул
нюрбургринг
нюрнберг
ня
някӏсса
о
об
обвинен
обеспечен
обеспечению
обеспечения
обеспечить
обладают
облака
облако
область
обложка
обнаже
обновить
обновле
обновления
обновлениями
обозрения
обработчиков
образца
обратить
обратнои
обратную
обсерватории
обсудить
обсуждение
обсуждении
обсуждению
обсуждения
обсуждениях
обучения
общая
общеи
общества
общественные
общие
общии
общими
объе
объедине
объединениялии
объект
объемлющего
объявление
объявления
обыкновенная
обыкновенного
обыкновеннои
обыкновенныи
обычно
обязанности
обязательно
обязательного
ов
овернь
огаи
од
одесса
один
одна
одно
одного
однои
одну
озгат
озе
озера
озере
озеро
озером
ознакомиться
ознакомьтесь
ои
ок
окаванго
окампо
окаяма
оклендом
окна
окне
окно
около
округ
округа
оксфордшир
октябрдании
октябре
октябрь
октября
окунь
олафура
олень
олимп
олимпии
олту
олу
олур
оль
ольхон
оман
оминг
он
она
ондалии
ондалул
оне
они
онкерваллеи
онкъарахӏисар
онлаи
оннаи
онналии
онну
онтарио
опера
операции
оперы
описание
опоры
определение
опрос
опроса
опубликован
опубликованы
опыт
опыта
опытных
опять
орангутан
оранжевыи
орб
орг
орган
организаторов
организации
организация
орден
орденналул
орду
оре
орегон
оригинал
оригинала
орикс
ориона
ория
орк
орке
оркшир
орлан
ортакоьи
оруба
орудия
орхидея
орхус
оса
осака
осаке
освещение
осемити
осемитскии
осенью
осетия
осло
осман
осн
основе
основнои
основные
особенно
особо
особь
оставить
остров
острова
островах
острове
островнои
островов
осы
от
отаго
отбора
отбору
ответил
ответить
ответственные
ответы
отвечают
отель
отзывам
отзывами
отзывов
отзывом
отзывы
открыт
открытия
открытыи
открытым
отображения
отобраны
отправлено
отражение
отредактировать
отредактирует
отступ
отсутствие
отсутствует
отсюда
отче
оф
офис
официалсса
официальныи
оформления
оформленного
оформленых
офорт
очень
очерки
очищенныи
ошибка
ошибками
ошибке
ошибки
ошибочнои
оь
оьккисса
оьл
оьмар
оьмра
оьрму
оьрмулии
оьрмулул
оьру
оьрус
оьруснал
оьрч
оьрчӏ
оьрчӏшиву
оьсман
п
па
павиан
павильон
павильона
павла
павлинии
пазар
пазари
пазары
паи
пакистан
паланг
паландоькен
палаты
пали
палочка
палочки
палочкои
палочку
палул
палцӏ
палцӏа
пальмы
пальчатокоренник
памятник
памятника
панама
панда
панорама
панорамныи
пантанал
папуа
пара
паралимпии
параметр
параметра
параметрах
параметре
параметров
параметры
параналь
париж
парижа
париже
парижскои
парк
парка
парке
парламент
парламента
паровоз
парс
партии
партне
пару
пасинлер
пат
патнос
паук
паука
паулу
пауль
пауля
паутине
пафос
паччах
паччахӏнал
пе
певица
пегии
педера
педро
пеи
пекине
пекуи
пеликан
пенсильвания
пер
первая
первого
первои
первом
первыи
перевал
перевала
переведе
перевести
перевод
перевода
переводе
переводите
переводить
переводчиков
переводы
перед
передавать
передняя
переи
переименовать
перем
переменнои
перенаправление
переписи
перепись
пересмотра
пересмотреть
пересмотру
период
перламутровка
пермяк
перс
персона
персоналии
персональныи
перт
перу
песчанки
песчаные
петербург
петербурге
петербурглив
петергоф
петра
петри
петропавловскои
пехоты
печать
печь
пешеходныи
пещера
пещере
пещеры
пианист
пик
пика
пикардия
пикри
пикчу
пил
пилот
пилотажная
пинакотека
пингвин
пинжан
пинн
пиренеи
писателеи
писать
письмо
пиша
пишете
пишу
пкс
плакат
план
плана
плане
планета
планина
планирует
планируется
планки
плантация
плато
платформа
платформе
пле
плеи
плод
плоды
плоская
площади
площадь
пляж
пляже
по
победитель
победы
побережье
побережья
поблагодарить
побыстрее
поведения
поверхности
поводу
под
подавать
подать
поддерживают
поддержка
поддержку
поделились
поделитесь
поделиться
подзаголовок
подключения
подкова
подножия
подольскии
подписаться
подписи
подпись
подпишитесь
подробная
подробнее
подробности
подробную
подсолнечника
подстраницы
подтвердили
подход
подъе
поезд
поезда
пожаловать
пожалуи
пожар
пожара
пожелания
пожеланиях
позанты
позиции
позкарта
пои
поиск
пока
показ
поклонение
пол
полатлы
поле
полевого
полевои
полезно
полезные
полковник
полностью
полныи
полуостров
полуострове
получать
получение
получения
полученные
полученныи
полученным
полученных
получил
получить
полушарии
поль
пользователеи
пользоваться
польская
польскии
польша
польши
поля
поляк
померания
поможет
помочь
помощи
помощью
пони
понте
понять
поп
попасть
попечителеи
попечители
попробовать
породы
порт
порта
портал
портала
портрет
порту
португал
португалия
португальскии
порядке
посадочная
посвящать
посетите
после
последние
последнии
посмотреть
посмотрите
пософ
постараемся
постоянные
построенныи
потолка
потолке
потолок
потом
потому
потоси
потто
почему
почте
почти
поэзия
поэма
поэтому
появится
ппабакӏу
ппиринж
ппу
ппурттуву
прав
права
праве
правил
правилами
правильно
правильныи
править
правки
правоприменения
православная
правосудия
прага
прадеш
празднования
преамбула
предлагаю
предложение
предложении
предложения
предложениям
предложенных
предложил
предмет
предоставить
предоставлена
предоставление
представителеи
представители
представить
представление
представлены
предстоящих
предтечи
президент
президента
преимущественно
премии
премия
премьер
пресвятои
преследовании
префектура
при
прибои
приведе
приведена
приведены
привет
приглашаем
приглашаю
приглашение
прие
прием
приемлемого
призер
применению
применения
применимым
пример
примерно
примеры
примечание
примечания
принимает
принимаются
принца
принципами
принципы
принял
приняли
принятии
принять
природная
природном
природныи
природоохранная
присоединиться
присоединяи
приток
приходскои
про
проведения
проверка
проверки
проверьте
провинции
провинция
проголосовали
проголосовать
проголосуи
программы
продлится
продолжить
проект
проекта
проектах
проекте
проектов
проекту
проекты
прозар
прои
произведении
происходит
пролив
проливравух
просит
проспект
просто
просьба
проходит
проходить
процесс
процесса
процессе
прочитаи
прочитать
проще
пруд
пруды
прусскои
прыткои
псковская
птенец
птенца
птицеед
птичьего
пула
пункты
пуннукь
пуно
пур
пурпурныи
пурсакълар
пустои
пустошь
пустую
пустые
пустыне
пустыни
пустыня
путе
пути
пушкин
пуэрто
пфальц
пфеннигов
пчела
пчелы
пылвамаа
пыхья
пьемонт
пюи
пялут
пять
після
р
ра
работа
работает
работать
работают
работе
работои
работу
работы
рабочеи
рабочии
равнокрылая
раджаб
раджастхан
радуга
ражаб
раз
развитие
развитию
развития
раздел
раздела
разделе
разделов
разделы
размера
размере
разнои
разнообразие
разнообразным
разных
разработке
разработки
разрезе
раи
ракат
ракеты
раковина
раковины
ракурсов
рал
рам
рамазан
раменскии
рамон
рамрал
ран
ранга
рангер
рангри
рангру
рангсса
ранее
раннее
раньше
распарсить
распятие
рассвет
рассвете
рассмотрение
растение
растении
расул
расширить
ратификации
ратуша
рафтсундет
рашид
рб
рдал
рду
ре
реализацию
реаль
ребе
революциялул
регби
регион
региональнои
региональных
ред
редактирования
редактировать
редактируи
редакторов
редакционного
редакционныи
резерват
результат
результатам
результатах
результате
результаты
реи
река
реке
реки
реклама
рекламныи
рекои
рекомендации
реконструкции
реконструкция
реку
рен
респу
республика
республикалул
республики
решение
решения
ри
ривер
рига
ризе
рика
рим
римскии
римского
рио
рисунок
ритаи
рного
рное
рнои
рнсте
рныи
ро
ров
рог
рода
роднои
родном
родным
родных
родственные
рождения
рождества
рождественское
рождество
роза
рокбрен
ролеи
роли
ром
роман
романская
ропп
россии
россия
росы
роттмаи
рпл
ррах
рских
рсфср
ртвом
ртвые
ртвых
ру
руанда
рувх
рувхӏании
руины
руководства
руководстве
руководство
руководству
румыния
румынскии
рунди
рус
русски
русскии
русско
русского
русскои
русском
русскоязычного
русскоязычных
рут
рутӏул
рух
рфер
рч
рча
ры
рыба
рыжая
рынке
рынок
рысь
рюген
ряд
рядом
ряхва
ряхра
ряххилчинмур
ряхцӏаллии
с
са
саам
сааремаа
сабах
саби
савои
сагунто
сагъшиву
сад
сада
садовыи
саду
садху
сады
саи
саид
саидлул
саимбеи
сакин
сакинат
саксаи
саксония
салам
саламе
салар
салахӏуддин
салихӏ
саллатӏ
салливана
сальбер
сальваторе
самад
самая
самец
самка
самого
самое
самои
самоле
самолет
самолетру
самом
самсат
самсун
самца
самыи
самых
сан
санкт
санта
санто
санторин
сантьяго
саоьдуллал
сар
сарагоса
сараи
сарат
сарычам
сарыяхши
сатурна
сафар
сах
саха
сахара
саэд
сберг
сбол
сбург
свази
сверху
сверхчистого
сверхчистыи
света
свете
свободных
свода
своды
свое
своеи
свои
своим
своих
свою
свяжитесь
связи
связь
святая
святого
святои
святых
сгау
сделан
сделана
сделанная
сделанныи
сделанных
сделано
сделать
се
себя
северина
северная
северного
северное
севернои
северном
северныи
северо
севильского
севилья
сеговии
сегодня
сеи
секунды
села
селение
село
сельсовет
семеи
семья
сен
сена
сенегал
сент
сентябрдании
сентябре
сентябрь
сентября
сенья
сер
серая
серб
сербия
сердца
сере
серенгети
сери
серии
серик
серия
серого
серро
серыи
сессии
сет
сету
сетубал
сеул
си
сибирь
сибирьнал
сивас
сидит
сиднеи
сидни
сизоворонка
сии
сиирт
сил
силья
символов
сина
синагога
синагоги
синд
синджан
синджик
синдзюку
сине
синии
синица
синоп
синтетические
синхронныи
сип
сираи
сирот
системы
сити
сицилия
сиэтл
сияние
сиясии
сияхӏ
ск
скала
скалы
ская
сквер
скворец
скелет
скелета
ские
скии
ским
ских
склон
склоне
скобки
ского
ское
скои
ском
скому
скопировать
скопье
скриптов
скульптор
скульптура
скульптуры
славное
славы
славян
славяннал
слева
следующие
следующии
следующих
слова
словакиа
словакия
словарь
словении
словения
словио
слово
сложное
слон
слона
службы
случае
см
смело
смены
смерти
смогли
смогут
сможем
снегу
снизу
снимок
снова
сноубордист
снято
со
соавторы
собачка
собирает
соблюдение
собор
собора
соборе
собраны
совет
совета
советрал
согласен
соглашаюсь
содержания
содержит
содержится
содружества
сожалению
созвездии
создаи
создали
создание
создании
создать
сокр
солдат
соле
соли
солнечное
солнечнои
солнечные
солнца
солнце
солончак
солончака
солончаке
соляные
сомали
сомневаетесь
сообщение
сообщении
сообщения
сообществ
сообщества
сообществам
сообществами
сообществах
сообществе
сообщество
сообществом
сооружение
соответственно
соответствуют
соревнованиях
сория
сорта
сосна
соссусфлеи
состав
составленная
состоит
состоится
софии
сохранить
соцветие
соцветии
сочи
соьке
союз
союзрал
сп
спаривание
спаривающиеся
спасибо
спасителя
спб
спектакль
спектр
специально
спецсимволы
спии
спиральная
списка
списке
списки
списков
список
спити
спорт
спорта
спортивная
спортрал
способа
справа
справка
справочник
спрингс
спуск
спутник
спутников
сравнения
сразу
среди
среднее
сс
сса
ссавнии
ссагу
ссаи
ссан
ссапар
ссар
ссирссилтту
ссих
ссихӏиреи
ссия
ссср
ссурухӏи
ссут
ссутнил
ссылка
ссылками
ссылкарду
ссылки
ссылкои
ссылку
ссылок
ссят
ста
стадион
стакан
стали
сталинградралу
стамбул
станции
станция
стара
старая
стареи
старого
старое
старои
стартом
старшии
старыи
статеи
статистика
статистикалул
статистике
статуи
статус
статуя
стать
статье
статьи
статью
статья
ства
ствительно
ствия
ство
стене
стены
степени
стефана
стиле
стиль
стоит
стокгольм
стокгольма
столов
сторона
стороны
страна
страница
страницах
странице
страницу
страницы
страны
стратегии
стратегия
страховои
стрекоза
стрекозы
стрелка
строение
строительства
строка
строке
строки
строку
структура
студии
стче
су
сублимированно
суд
суда
судан
судна
судно
судья
сук
сукку
сулаи
сулеи
султан
султанхӏисар
сулуова
суматранал
сумгаи
сумеречные
сумерках
сунан
суннатрал
суннатри
сунув
супик
сур
сура
сурат
суратру
сурикат
сурикаты
сурхаи
сус
существует
сущности
сферическая
схема
сцена
сша
сытина
сьерра
сюдюрланд
сюр
ся
т
та
тааьланал
табасаран
таблица
таблице
таблицу
таблицы
таврат
тагьар
тадж
таи
таиланд
таити
так
такбир
также
такое
таком
тал
талаи
таланд
талатаву
таллин
таллинскии
там
тамансса
тамарин
тамашачитал
тамил
танал
танец
танжер
танзании
танзания
тара
таржума
тарих
тарихраву
тарихрал
тарихчи
тарихчитал
тарки
тарн
тарту
тархъан
тархъансса
тасмания
тат
татар
татарнал
тау
тауэр
тауэрн
тауэрскии
ташлычаи
ташова
тбилиси
те
театр
театра
тегеран
текман
тексел
текст
текста
тексте
тексту
тексты
текущии
тел
тела
телебашня
телеведущая
телескопа
телескопом
телефон
тем
тематические
теме
тему
тенерифе
теперь
тепловоз
терек
террасы
территории
территория
теруэль
тесь
тетум
тех
техас
технике
технические
техническои
технологическии
технологического
ти
тигр
тигра
тии
тимор
тингветлир
тип
типа
типичныи
тира
тиранн
тироль
титовлущал
титон
тихунмеи
ткача
тм
тма
то
тобаго
тогда
того
тоже
ток
токат
токио
толедо
толстянка
только
том
томаса
томов
тонналии
тоннель
тоо
топи
топографическая
тора
торгового
торонто
тортум
тоскана
точка
точки
трабзон
траве
традиционном
трамваи
трамвая
трассе
тре
тренер
три
тринидад
трир
трира
триумф
триумфальная
трогер
трогера
тропа
тропы
троссахс
трутовик
тсвалу
тсвана
тсо
тсонга
тся
тта
тталак
ттарк
ттаркӏ
ттарлил
ттваи
ттизаманнул
ттиликӏ
ттугъ
ттугъру
ттугь
ттуи
ттукку
ттул
ттун
ттуплии
ттуршва
ттуршукулии
ту
тул
тулум
туман
тумане
туманное
туманности
туманность
тун
тунджели
тундранал
тунис
тур
турк
туркия
туркиянал
туркиясса
туркмен
туркменбашы
туркмения
туркнал
турмен
турмент
турнира
турции
турция
тут
тутакъ
тутия
туфанбеи
тфф
тчик
търново
ты
тыквы
тэи
тюб
тюбинген
тюлень
тюрингия
тюркнал
тянет
тӏ
тӏааьнсса
тӏабиаьт
тӏаи
тӏивтӏусса
тӏии
тӏисса
тӏуркӏур
тӏутӏи
тӏутӏив
у
уаи
уаска
убеждениям
уважаемые
уважением
увая
уведомление
уведомления
увидите
увк
увккун
увккуссар
увкуну
увну
увсса
увссар
увур
увхссар
увххун
увцуну
уганда
угорнал
удаляет
удм
удмурт
удобен
удобном
уезд
уефа
уже
узнаи
узнать
узундере
уи
уилтшир
уильяма
уиндермир
уипснеи
ук
указали
указание
указания
укп
украина
украиннал
украины
украі
уку
укун
укунмасса
укунсса
ул
улит
улица
улице
улицы
уллал
уллучара
улну
улсса
улучшении
улучшению
улучшить
улхьурчан
улча
уль
умал
умолчанию
ун
универсальная
универсального
универсальныи
университет
университета
университетская
унк
унни
унну
уну
унугу
унхьу
уолфиш
управлению
управления
ур
ура
ураза
урал
урдак
урдал
урду
ури
уровень
уровне
урттил
уртту
уругваи
урцӏалва
урцӏаллии
урча
урчӏва
урчӏилчинмур
успение
успения
усса
уссагу
уссар
уссарив
устав
устава
уставе
установить
установки
устрои
ут
утверждение
утверждении
утверждения
утки
утреннии
утро
утром
уттар
уттарамур
утти
ух
ухссавнил
ухссавнилмур
ухссавния
уххан
ухьурча
уц
уч
учаи
участвовать
участие
участием
участии
участию
участия
участник
участники
участников
участниц
уче
учеи
учин
ушак
ущалу
ущелье
ущущулгъи
ущущулгъив
ущущулгъир
уэльс
уэрта
уэска
уюни
ф
фаи
фамберхорст
фантастики
фариза
фарс
фасад
фасада
фасо
фатих
февралдании
февраль
февраля
федерал
федерации
федерация
федерациялул
феи
феке
фелевои
феликса
фестивале
фестиваль
фестивальданул
фехтованию
фигура
филиппин
филиппины
фильма
фин
финансовую
финике
финляндия
финляндиянал
финн
финно
финскии
фламинго
флоренция
флорида
фонд
фонда
фондрал
фоне
фонетика
фонтан
фонтана
форарльберг
форма
формат
формате
форматировании
форме
формирования
форт
форта
форте
фортеця
фортресс
форум
форума
форуме
фото
фотоаппарат
фотографа
фотографии
фотография
фр
фрагмент
фраи
франко
франковская
франкфурт
франкфуртском
франс
франца
франции
франциска
франциско
франция
француз
французская
французскии
французскои
французском
фрауэнкирхе
фреи
фреска
фрески
фридрих
фриз
фриске
фрисландия
фронтера
фула
фульбе
фуникуле
функции
функцию
функция
футбол
футболу
футбольная
футбольныи
х
хаббл
хав
хавар
хазар
хаи
хакка
хаккяри
халил
халиф
халифри
халифту
халкь
халкьнал
халкьри
халкьру
халкьуннал
халкьуннан
хальтерн
хамелеон
хамис
хан
ханак
ханнал
ханти
харбор
харен
хас
хасъсса
хат
хаус
хауса
хаусдюльмен
хашт
хдфа
хе
хеи
хеллабрунн
хельсинки
херес
хи
хижина
хилл
хинди
хираманнул
хмельницкая
ходе
хозяи
хои
хоккеи
холл
холма
хопа
хор
хорасан
хорватия
хорошее
хорошо
хотели
хотите
хотя
хохлатая
хочет
хочется
хошимин
храм
храма
храме
хребет
хребта
хризантема
христа
хрома
хстага
хту
хуан
художественныи
художник
художника
хурхи
хх
ххал
ххалал
ххалла
ххач
ххачпарас
ххачпараснал
ххачпарасная
ххачпараст
ххачпарасти
ххирамур
ххирасса
ххишала
ххув
ххуи
ххуллу
ххункӏ
ххунххутӏи
ххут
ххюва
ххюлчинмур
ххюра
ххюцӏаллии
ххяп
ххярка
ххяххаи
ххяххан
ххяххияр
ххяххияртту
хъа
хъазам
хъазамрал
хъалуя
хъами
хъамитаи
хъанаи
хъанан
хъанахъисса
хъанахъиссар
хъанеи
хъаннил
хъару
хъат
хъаттирдал
хъахъисса
хъац
хъи
хъинну
хъинссар
хъирив
хъун
хъуна
хъунав
хъунаи
хъунасса
хъунбак
хъуними
хъунисса
хъункӏул
хъунмамур
хъунмасса
хъунмур
хъуннамур
хъуннасса
хъуншагьру
хъуручӏ
хъусращи
хъювхъи
хъювхъиял
хъюрт
хъюрув
хыныс
хьума
хьун
хьуна
хьунни
хьуннин
хьунсса
хьунт
хьуну
хьури
хьусса
хьуссар
хьхьири
хьхьирива
хьхьиривун
хьхьирии
хьхьирил
хьхьирилул
хьхьирихь
хьхьирицӏсса
хьхьирия
хьхьич
хьхьичӏ
хьхьичӏава
хьхьичӏвасса
хьхьичӏмур
хьхьичӏра
хьхьу
хьхьуваи
хьхьуну
хьхьураи
хьюму
хэмпшир
хӏ
хӏави
хӏадисру
хӏадур
хӏаж
хӏажи
хӏажлин
хӏаи
хӏаллих
хӏамамоьзю
хӏамур
хӏан
хӏанни
хӏантту
хӏарп
хӏарпри
хӏасул
хӏижжа
хӏисав
хӏукму
хӏукумат
хӏукуматраи
хӏукуматрал
хӏукуматри
хӏурмат
хӏуциннал
ц
ца
цава
цаи
цал
цала
цалва
цалчин
цалчинмур
цалчинсса
цанчирча
цапля
цаппара
царии
цария
царскии
царское
цач
цачӏун
цачӏунхьу
цвет
цветка
цветке
цветльского
цветная
цветок
цветущая
це
цев
цезские
цеи
целевои
цель
целью
ценности
центр
центра
центральная
центральнои
центральныи
центре
цепи
церкви
церковь
ци
цикла
цила
цилва
цинма
циняв
цинявгу
цинявппагу
цирдагу
цири
цич
цува
цукун
цуппа
цуппагу
цурдалу
цурив
цуша
ццихь
цы
цюрих
цӏ
цӏа
цӏаллии
цӏана
цӏанасса
цӏании
цӏания
цӏарду
цӏахъюр
цӏии
цӏилщинал
цӏиникь
цӏиникьри
цӏовкра
цӏу
цӏувкӏул
цӏуку
цӏуллу
цӏун
цӏунилгу
цӏурду
цӏурттал
цӏусса
цӏуссалакрал
ч
ча
чаи
чак
чакгу
чаклил
чакъал
чам
чамлыдере
чан
чанаккъале
чани
чанкъая
чанкъыры
чаннан
чанну
чансса
чара
чарвит
час
часов
часовня
часовои
чассаг
чассагул
части
частота
часть
часы
чат
чахир
че
челикхан
человек
человека
человеческого
чем
чемпион
чемпионат
чемпионата
чемпионате
ченнаи
через
череп
черепа
черепаха
черепахи
черновицкая
черногор
черногория
честь
четыре
чехии
чехия
чечень
чешуи
чи
чивчуну
чивчусса
чикаго
чил
чили
чинар
чине
чир
чири
числа
число
чистого
чистота
чистоты
чистыи
читаи
читал
читателеи
чичру
чичругу
чичрулул
чичрурду
чичулт
чичур
членам
членами
членов
члены
чобе
чорум
чс
чтение
что
чтобы
чу
чубукъ
чуваш
чувашнал
чувин
чугач
чукъурова
чул
чулии
чулиннеи
чулли
чуллу
чулмур
чулсса
чулух
чулуха
чулухалу
чулухасса
чулухсса
чулухунмаи
чун
чупик
чурх
чурхри
чурххал
ччаи
ччан
ччаннаи
ччанну
ччат
ччатӏ
ччиту
ччяни
чылдыр
чяи
чӏан
чӏара
чӏелму
чӏемуллул
чӏенпи
чӏивисса
чӏириссар
чӏитӏ
чӏу
чӏумал
чӏун
чӏутӏи
чӏявуну
чӏявусса
чӏяру
чӏяруми
чӏярусса
ш
шаблон
шаблона
шаблоне
шаблонну
шаблонов
шаблоном
шаблоны
шаваи
шавваль
шаврил
шаву
шаги
шагьадат
шагьнал
шагьраисса
шагьру
шагьрулии
шагьрулия
шагьрулул
шагьрур
шагьрурдаи
шагьрурду
шаи
шама
шамил
шамилчинмур
шамиль
шан
шанан
шанлыурфа
шанма
шанна
шанхаи
шаппа
шар
шаров
шаттл
шаттла
шафран
шахте
шахты
шашечница
шаъбан
шаэр
шаэртал
шаэртурал
шая
шваи
шванштаи
швед
шведскии
швеи
швеции
швеция
ше
шевченко
шее
шеи
шелы
шенкая
шер
шерефликъочхӏисар
шескпир
шести
шесть
шеърирдал
шеърирду
ши
шиву
шие
шикку
шиккун
шимпанзе
шин
шинаву
шинаи
шинал
шиная
шинмаи
шиннардии
шиннардил
шипун
шипуна
шираз
широкии
широты
шишка
шкала
шкода
школа
школалии
шлезвиг
шмель
шона
шоссе
шотланд
шотландии
шотландия
шоу
шпаи
шпицберген
шпринге
шри
штаб
штат
штата
штате
штатру
штирия
штутгарт
шуаьнат
шырнак
шюшаи
шюшлашисса
шяраваллил
шяравалу
шяравалур
шяраватусса
шяраву
щ
щаву
щавщи
щаза
щазал
щала
щалва
щалла
щаллу
щаллуну
щаллусса
щар
щархъурду
щахлу
щи
щивщу
щин
щинал
щищал
щурагь
щурах
щурка
щурча
щюллисса
щяв
ъ
ы
ыгдыр
ыги
ыспарта
ыт
ь
э
эбадат
эврен
эд
эдварда
эдионда
эдирне
эдрал
эдуардо
эи
эквадор
экипаж
экипажну
экономикалул
экьи
электровоз
электролитически
электроннои
электронном
электростанция
элемент
элемента
элементы
элешкирт
элмадагъ
элмалы
элму
элмулул
элмулуха
элмурду
эль
эмблема
эмиратру
эмиссионная
эмс
эн
энд
энергия
энзели
энциклопеди
энциклопедическии
энциклопедия
энциклопедиялул
энциклопедияр
эрзинджан
эрзурум
эрзя
эрлауфзее
эро
эс
эса
эсал
эскил
эскимос
эскишехир
эсперанто
эссен
эст
эстон
эстонии
эстония
эстониянал
эстоннал
эстонскии
эта
этапе
эти
этим
этимесгут
этих
это
этого
этои
этом
этому
этот
этоша
эту
эфиопия
эхӏрам
ю
юби
юбил
юга
юго
южная
южно
южного
южнои
южныи
юк
юкон
юмурталыкъ
юнус
юпик
юпитера
юрегъир
юсуп
юта
юэ
я
ява
яванал
яванскии
является
яву
явуну
явусса
ягу
ягуар
ядан
язи
язык
языка
языкам
языках
языке
языки
языков
языковых
языком
яи
як
якутие
якутия
яла
ялаваи
ялагу
ялапар
ялареи
ялова
ялтту
ялувмур
ялувсса
ялувссар
ялун
ямаи
ян
яна
январдании
январь
января
яндекс
яни
янил
янначчуччу
яп
япон
японии
япония
япониянал
японская
японскии
японского
японском
яр
яру
яруннин
ярусса
яруссаннал
ясир
ястреб
ят
ятӏул
ятӏулсса
яуре
яуэрлинг
яхъанаи
ящерица
ящерицы
яъни
є
і
ҏ
қазақша
ҳ
ә
ө
ӿ
հայերեն
،
ا
الا
العربية
ب
بن
د
صلاة
فارسی
ل
م
محمد
مصر
ن
ه
و
ي
َ
ُ
ِ
ّ
ْ
ٓ
ٔ
ٕ
ٰ
ं
क
ज
ट
द
न
भ
म
य
र
व
स
ह
ा
ि
ी
ु
्
ং
ট
ত
ন
ব
য
র
ল
়
া
ি
ু
্
ಂ
ಈ
ದ
ನ
ಲ
ಸ
ಿ
ು
ೆ
್
ೕ
ം
ത
ന
ര
ാ
്
อ
ี
่
้
ქართული
한국어
​
‌
‍
‎
‏
‑
–
—
‘
’
“
”
„
†
•
…
′
″
‹
›
⁠
€
№
←
→
↓
↔
↷
−
∴
≈
≤
≥
⌘
③
④
⑦
▲
▼
☉
✍
✔
⟨
⟩
ⱨ
ⱪ
ⱬ
ⲏ
ⲓ
ⲙ
ⲭ
ⵉ
ⵏ
ⵔ
ⵜ
⺀
⺄
⺆
⺈
⺊
⺌
⺕
⺝
⺸
⺼
⿰
⿱
⿲
⿳
⿴
⿵
⿶
⿷
⿸
⿹
⿺
⿻
。
〢
コ
ユ
㇁
㇂
㇄
㇇
㇈
㇉
㇓
㐁
㐄
㐅
㐌
㐫
㐬
㐭
㐮
㐱
㑒
㒵
㒸
㒼
㓁
㓞
㔾
㕛
㕣
㖾
㘝
㚅
㚇
㚔
㚘
㝉
㝡
㝴
㝵
㞋
㞢
㞷
㠩
㠭
㠯
㡀
㡭
㡿
㢲
㢴
㣇
㣺
㥯
㪅
㫄
㫐
㫒
㫺
㬅
㬎
㬥
㬰
㲋
㳄
㷠
㸒
㸚
㸦
㼌
㼲
㽞
㿟
䀠
䂞
䍃
䏍
䒑
䖍
䖒
䖝
䖵
䙴
䚻
䜌
䝿
䡛
䧹
䪞
一
丁
丂
七
丄
丅
丆
万
丈
三
上
下
丌
不
与
丏
丐
丑
专
且
丕
世
丘
丙
业
东
丞
丢
丣
两
严
並
丨
丩
个
丫
丬
中
丮
丰
丱
串
丵
丶
丷
丸
丹
为
主
丽
丿
乀
乂
乃
久
乆
乇
么
义
之
乌
乍
乎
乏
乐
乑
乔
乖
乗
乘
乙
乚
乛
乜
九
乞
也
习
乡
书
乳
乾
亀
亅
了
亇
予
争
事
二
亍
于
亏
亐
云
互
亓
五
井
亘
亚
亜
亞
亟
亠
亡
亢
交
亥
亦
产
亨
亩
享
京
亭
亮
亯
亰
亲
亳
亶
亷
人
亻
亼
亾
仁
今
介
仌
从
仐
仑
仒
仓
仕
他
付
仝
代
令
以
任
企
伊
伏
伐
休
会
伯
但
位
何
佘
余
作
佥
使
來
侈
侌
侖
侯
侵
便
保
俞
信
修
倉
倍
候
倠
備
僉
僕
儿
兀
允
兂
元
兄
充
兆
兇
先
光
兊
克
兌
免
兑
兒
兓
兔
党
兜
兟
入
全
兩
兪
八
公
六
兮
兰
共
关
兵
其
具
典
兹
兼
冀
冂
冃
冄
内
冈
冉
冊
冋
册
再
冎
冏
冐
冒
冓
冖
冗
冘
军
农
冝
冡
冥
冫
冬
冷
几
凡
凢
凵
凶
凷
凸
凹
出
函
凾
刀
刁
刂
刃
刄
刅
分
切
刍
刑
刕
刖
列
刘
则
初
別
利
别
到
制
刺
則
削
剌
前
剡
剽
劉
力
功
加
劦
助
劫
劳
劵
勃
勇
勉
勒
動
務
勞
勤
勹
勺
勻
勾
勿
匀
匂
包
匆
匈
匊
匋
匍
匕
化
北
匚
匝
匡
匪
匱
匸
匹
区
医
匽
匿
區
十
卂
千
卄
卅
卆
升
午
卉
半
卌
华
卑
卒
卓
单
卖
南
卜
卝
卞
占
卡
卢
卣
卤
卦
卩
卪
卬
卯
印
危
即
却
卵
卷
卸
卻
厂
厃
厄
历
厈
厉
厌
厓
厘
厚
原
厤
厥
厨
厭
厲
厶
厷
厸
去
厼
厽
叀
参
參
叅
又
叉
及
友
双
反
叐
发
叒
叔
叕
取
受
叚
叜
叟
口
古
句
另
叩
只
召
可
台
叱
史
右
叵
号
司
叹
吂
各
吅
合
吉
吊
吋
同
名
后
吏
向
吕
君
吝
吞
否
含
启
吳
吴
吹
吾
呂
呆
呈
告
员
呙
周
命
咅
和
咎
咠
咢
咨
咸
咼
哀
品
哉
員
哥
哲
唐
商
啇
問
啚
啬
啻
善
喜
喬
單
喿
嗇
噩
嚴
囊
囗
囘
囙
囚
四
回
囟
因
囧
囬
困
囱
図
囷
固
国
图
圂
圅
國
圍
圓
圖
土
圡
圣
圥
在
圭
地
圶
圼
坐
坒
坚
坤
坴
垂
垔
垚
埀
埋
埶
執
基
堂
堅
堆
堇
堯
塞
墨
壘
士
壬
壯
声
壳
壴
壹
壺
壽
夂
处
夅
夆
备
夊
夋
夌
复
夏
夒
夕
外
夗
夘
多
夜
夢
大
夨
天
太
夫
夬
夭
央
失
夲
头
夷
夸
夹
夻
夾
奂
奄
奇
奈
奉
奎
奏
奐
契
奓
奔
奚
奞
奠
奢
奥
奭
女
奴
奻
好
如
妄
妙
妟
妥
妻
妾
姑
委
姜
威
娄
婁
婴
嬰
嬴
子
孑
孔
孕
孖
字
存
孚
孛
孝
孟
季
孤
学
孫
孱
學
宀
宁
宂
它
宅
宇
守
安
宋
完
宏
宓
宗
官
定
宛
宜
宝
客
宣
室
宮
宰
害
家
容
宾
宿
寄
寅
密
富
寒
察
寧
審
寫
寬
寮
寸
对
寺
寻
寽
対
寿
封
尃
射
将
將
專
尉
尊
尋
尌
對
小
少
尒
尓
尔
尖
尗
尚
尞
尢
尣
尤
尧
尨
尭
就
尸
尹
尺
尻
尼
尽
尾
尿
局
居
屈
屋
屎
屏
屑
展
屖
屚
属
屠
屡
屬
屮
屯
屰
山
屵
屾
岁
岂
岑
岡
岩
岳
岸
峯
島
崇
崑
崔
崖
崙
崩
嵬
嶲
巂
巛
川
州
巟
巠
巢
巤
工
左
巧
巨
巩
巫
差
己
已
巳
巴
巷
巸
巽
巾
巿
帀
市
布
希
帚
帛
帝
带
師
席
帶
常
干
平
年
幵
并
幷
幸
幺
幻
幼
幽
幾
广
広
庄
床
底
店
庚
府
度
庫
庭
庶
康
庸
廉
廌
廛
廣
廩
廴
延
廷
建
廾
廿
开
弁
弃
弄
弇
弋
式
弓
弔
引
弗
弘
弜
弟
弥
弦
弱
張
強
强
彊
彌
彎
彐
彑
当
彔
录
彖
彗
彡
形
彥
彦
彧
彭
彳
役
彼
往
待
律
徒
得
徙
從
復
微
徵
心
忄
必
忌
忍
志
忝
忠
忩
快
念
忽
忿
思
怠
急
怱
恆
恒
恩
恭
息
悉
患
悤
悲
悶
惠
惡
惢
愁
愈
意
愛
感
慈
慧
慮
憂
憲
應
戀
戈
戉
戊
戋
戌
戍
戎
成
我
戒
戔
或
戚
戠
戢
截
戲
戶
户
戹
戼
戾
房
所
扁
扇
手
扌
才
打
托
执
承
折
拉
拜
拿
掌
推
提
摩
支
攴
攵
收
攸
改
放
政
敄
敏
敕
敖
敗
教
敝
敞
敢
散
敦
敫
敬
数
敷
數
斂
文
斉
斊
斗
斤
斥
斩
斬
斯
新
方
於
施
斿
旁
旋
族
无
旡
既
旣
日
旦
旧
旨
早
旬
旱
旲
时
旾
昆
昇
昌
昍
明
昏
易
昔
昗
昜
星
春
昬
是
昱
昴
昷
時
晃
晉
晋
晏
普
景
晶
智
暑
暴
曇
曩
曰
曲
曳
更
曷
書
曹
曼
曾
替
最
朁
會
月
有
朋
服
朔
朕
朗
望
朝
木
朩
未
末
本
札
朮
术
朱
朵
朶
朿
杀
杏
杜
束
条
来
東
杲
杳
松
析
林
枚
果
枝
枲
枼
某
柔
查
柬
柰
柴
栄
栗
桀
桑
桼
梁
條
梟
梨
棘
棠
棥
森
楚
業
楽
榮
樂
樊
欠
次
欣
欮
欲
欶
欽
款
歆
歇
歛
止
正
此
步
武
歨
歪
歮
歯
歰
歲
歴
歷
歸
歹
歺
死
殳
段
殷
殸
殹
殺
殻
殿
毋
毌
母
每
毒
比
毕
毚
毛
毳
氏
氐
民
气
氣
水
氵
氶
氷
永
氺
氾
求
汝
汞
江
沃
沓
沙
沝
泉
法
波
泣
泥
泰
洛
洪
洲
活
派
流
浦
浪
浮
淡
淮
清
渚
渠
湯
滿
漸
火
灬
灭
灰
灵
灷
炅
炎
炏
炗
炙
炭
為
烈
烏
烝
焉
無
焦
焱
然
煞
熊
熏
燕
營
燮
爪
爫
爭
爯
爰
爱
爲
爵
父
爻
爽
爾
爿
片
牙
牚
牛
牜
牟
牢
牧
牪
牽
犀
犬
犭
犮
狂
狄
狊
独
狺
猋
猒
猪
献
獻
玄
率
玉
王
玟
玨
珎
班
琴
瑟
瑩
瓜
瓦
甘
甚
生
産
用
甫
甬
田
由
甲
申
电
甶
男
甸
甹
画
甾
畀
界
畏
畐
留
畜
畟
畢
畧
畨
番
畫
異
畱
當
畺
畾
疊
疋
疌
疑
疒
疾
癶
癸
癹
登
發
白
百
皀
皃
的
皆
皇
皋
皐
皕
皮
皷
皿
盃
盆
盇
盈
益
盍
盎
监
盒
盖
盛
盡
監
盤
盧
目
直
相
盾
省
眇
眉
看
眔
眞
真
眷
眼
眾
着
睘
睪
睿
瞏
瞢
瞿
矍
矛
矞
矢
矣
知
矦
短
石
破
碎
磊
磨
示
礻
礼
祟
票
祭
禀
禁
禸
禹
禺
离
禽
禾
禿
秀
秃
秉
秋
科
秝
秦
移
稟
穀
穌
穴
究
穹
空
穿
突
窄
窒
立
竒
竜
竝
竟
章
童
竹
笑
笠
筆
等
答
箕
算
箴
節
篤
篭
米
粉
粛
粟
粤
粦
粲
糞
糸
糹
系
約
納
素
索
紫
累
細
絜
絫
絲
続
維
綿
縣
繁
繇
纍
纟
统
缶
网
罒
罔
罕
罗
罙
罡
罢
罪
署
罷
羅
羊
羌
羍
美
羔
羕
羗
羞
羡
羣
群
義
羲
羸
羽
翁
翏
習
翕
翟
翠
翼
老
耂
考
者
耆
而
耎
耑
耒
耳
耴
耶
耷
聂
聊
聖
聚
聶
聿
肀
肃
肅
肉
肖
肙
肥
肩
肯
育
肴
胃
背
胡
胥
能
脊
脩
膚
臣
臤
臧
自
臬
臭
臯
臱
至
致
臺
臼
臽
臾
臿
舀
舂
舄
與
興
舉
舌
舍
舛
舜
舞
舟
般
艮
良
色
艸
艹
艾
芒
芔
芬
芮
花
芳
芺
芻
苔
苗
苟
若
苦
英
茶
茸
荅
草
荒
荣
荼
莆
莧
莫
莽
菆
菊
菐
華
萬
落
葉
著
葛
董
葵
蒙
蒦
蒼
蓋
蓬
蓺
蔑
蔡
蕉
蕭
薄
薛
薦
薰
藍
藏
藥
蘭
虍
虎
虐
虒
虔
處
虖
虗
虘
虚
虛
虜
虞
虫
虽
蚤
蚩
蜀
蜜
蟲
蠡
血
行
衍
衛
衣
衤
表
衮
衰
袁
袞
褭
褱
襄
襾
西
覀
要
覃
見
規
覓
覧
親
覽
见
角
解
言
訁
訇
計
詹
語
誩
諸
讠
读
谷
豆
豈
豊
豐
豕
豖
豙
象
豦
豩
豪
豸
貇
貝
貞
貟
負
貢
貧
貪
貫
責
貳
貴
買
費
賁
資
賈
賏
賓
賔
賛
賞
賢
賣
質
賴
贊
贝
贡
责
贯
贲
贵
赖
赞
赤
赦
走
越
趙
足
路
蹇
身
躬
車
軍
軎
軟
輦
輿
车
辛
辜
辟
辥
辰
辱
農
辵
辶
边
达
过
近
连
迷
追
退
送
逆
逐
通
速
造
逢
連
逮
進
遀
遂
過
道
達
遣
適
遷
遺
邊
邑
邕
那
邦
邪
郎
部
郭
都
鄉
鄞
酉
酋
配
酓
釆
采
里
重
野
量
金
釒
錢
錫
钅
長
镸
长
門
閃
閉
開
閏
閑
閒
間
閔
閵
閻
闌
门
间
闷
阅
阑
阜
阝
阪
阿
降
陳
隆
隊
隋
障
隡
隨
隱
隶
隹
隺
隻
隼
隽
难
雀
雁
集
雈
雋
雍
雐
雔
雙
雚
雜
雝
離
難
雨
雩
雪
雲
零
雷
需
霍
霜
霝
霞
霸
靈
靑
青
非
靡
面
靣
革
韋
韦
韭
韯
韱
音
頁
頃
項
須
頗
頡
頻
顛
页
風
风
飛
飞
食
飠
養
館
饣
馆
首
香
馬
馮
駦
马
骨
高
髟
鬥
鬯
鬲
鬼
魚
魯
鮮
鱼
鲁
鳥
鳳
鸟
鹵
鹿
麃
麗
麥
麦
麻
黃
黄
黍
黎
黑
黒
黨
黹
黽
黾
鼎
鼓
鼠
鼻
齊
齋
齐
齒
齿
龍
龙
龜
龟
龠
龰
龱
龴
龵
龶
龷
龸
龹
ꝗ
ꞩ
者
艹
️
？
￼
𓂋
𓅓
𓉴
𓍋
🌐
👩
📲
🚀
𠀁
𠀃
𠀆
𠀉
𠀎
𠀐
𠁁
𠁣
𠂆
𠂇
𠂈
𠂉
𠂊
𠂋
𠂎
𠂒
𠂔
𠂛
𠂡
𠂢
𠂤
𠂬
𠂭
𠂹
𠃊
𠃋
𠃌
𠃍
𠃎
𠃑
𠃓
𠃔
𠃜
𠄌
𠄎
𠄠
𠄢
𠆢
𠆥
𠇍
𠈌
𠌵
𠓜
𠔉
𠔥
𠔼
𠔽
𠔿
𠕀
𠕁
𠕋
𠘧
𠘨
𠙻
𠙼
𠚏
𠚒
𠚤
𠚪
𠣏
𠤎
𠤕
𠥓
𠦄
𠦑
𠦝
𠧒
𠧗
𠧪
𠩺
𠪚
𠫓
𠫔
𠫤
𠬛
𠬝
𠬞
𠬢
𠬤
𠬶
𠮛
𠮦
𠮷
𠯑
𠱠
𠳮
𠷎
𡈼
𡉀
𡉵
𡌥
𡍮
𡏳
𡕒
𡕩
𡕰
𡖅
𡗗
𡗜
𡘆
𡘤
𡧱
𡨄
𡩧
𡬠
𡭽
𡰣
𡰥
𡰪
𡰯
𡰱
𡷈
𡸁
𡿨
𡿩
𡿪
𡿺
𢀖
𢀛
𢀩
𢁙
𢆉
𢆰
𢆶
𢇁
𢇇
𢉖
𢌬
𢌿
𢏚
𢑑
𢑚
𢖻
𢙣
𢛳
𢦏
𢦒
𢧵
𢼄
𢾕
𣁋
𣄼
𣅀
𣅽
𣍘
𣎳
𣎵
𣏋
𣏼
𣗥
𣥂
𣥖
𣦵
𣦼
𣧄
𣪊
𣪠
𣬉
𣳾
𣶒
𤇾
𤊽
𤐫
𤓰
𤔔
𤕨
𤣩
𤰇
𤰔
𤰞
𤴓
𤴔
𤽄
𥁑
𥁕
𥃦
𥃩
𥃭
𥇡
𥑟
𥘅
𥘈
𥝢
𥫗
𥱡
𦈢
𦉪
𦉬
𦉼
𦍌
𦍒
𦎧
𦐇
𦓔
𦔮
𦘒
𦙃
𦚏
𦣝
𦣞
𦣻
𦥑
𦥔
𦥯
𦨉
𦭝
𦰩
𧆞
𧈧
𧘇
𧰨
𧴪
𧴮
𧵩
𧾷
𨸏
𨾴
𩙿
𩠐
𩫏
𩵋
𪉷
𪜀
𪟽
𪠲
𪩲
𫇦
𫔭
𫜸
𫝀
𫠣
𫠩
𫢉
𫥞
𫩏
𫩠
𫪡
𫲽
𫶧
𬀷
𬐘
𬗌
𬙙
𬛸
𬜯
𬟩
𬯁
𬴘
𬺻
𬼉
𬼖
𭀰
𭁈
𭁨
𭅰
𭑈
𭕄
𭗼
𭤨
𭥫
𭻾
𮅕
𮊿
𮍌
𮍏
𮓗
𮥼
𮧮
廾
𰀁
𰀄
𰀈
𰀉
𰀕
𰀠
𰀡
𰀢
𰀪
𰁜
𰃮
𰆊
𰆘
𰋙
𰕎
𰢴
𰧭
𰯲
00--
01--
02--
03--
04--
05--
06--
07--
08--
09--
114--
13--
14--
140--
15--
16--
160--
17--
170--
171--
172--
18--
19--
20--
21--
213--
22--
23--
24--
25--
26--
27--
28--
29--
30--
31--
32--
33--
34--
35--
36--
37--
38--
39--
40--
41--
42--
43--
44--
45--
46--
47--
48--
49--
50--
51--
52--
53--
54--
55--
56--
57--
58--
59--
60--
61--
62--
63--
64--
65--
66--
67--
68--
69--
70--
71--
72--
73--
74--
75--
76--
77--
78--
79--
80--
81--
82--
83--
84--
85--
86--
87--
88--
89--
90--
91--
92--
93--
94--
95--
96--
97--
98--
99--
a--
aa--
ab--
above--
ac--
acan--
ada--
adv--
advan--
ae--
aesc--
aeth--
af--
afge--
ag--
agap--
ah--
ai--
ailu--
air--
ak--
al--
albi--
ale--
alex--
all--
altı--
alu--
am--
amphi--
an--
and--
ango--
angu--
anta--
anth--
anti--
anto--
ap--
app--
append--
appo--
aqu--
ar--
ara--
arg--
args--
art--
as--
asc--
asla--
ast--
at--
atmosp--
atta--
au--
auto--
av--
avi--
ay--
az--
b--
ba--
back--
ban--
bapt--
bar--
bas--
bd--
be--
below--
ben--
ber--
bey--
bha--
bi--
bib--
biblio--
bio--
bir--
bla--
bli--
bo--
bol--
boo--
bor--
bot--
bou--
boul--
boz--
br--
brachy--
brai--
branden--
bre--
breat--
brevi--
bro--
brock--
bs--
bu--
buc--
budd--
bull--
bure--
c--
ca--
calc--
cali--
calip--
cam--
camp--
can--
capi--
capt--
car--
cat--
category--
cau--
ce--
cele--
cer--
cera--
ch--
cha--
che--
chi--
chri--
chry--
chrysi--
chryso--
chu--
ci--
cil--
cin--
cinna--
cir--
cita--
cla--
clau--
cli--
clim--
clin--
clu--
co--
col--
com--
con--
conce--
concen--
conf--
conn--
cons--
conse--
conta--
conv--
cor--
coro--
corv--
cr--
cro--
cu--
cucu--
cue--
cur--
cy--
cyc--
cycla--
cyg--
cyp--
d--
da--
dan--
dark--
de--
dec--
del--
delink--
dep--
des--
dete--
di--
dial--
dil--
dis--
do--
dolo--
dor--
dorm--
down--
dra--
dre--
dri--
dro--
du--
dupl--
dy--
e--
ec--
ed--
edit--
ef--
eg--
egy--
eingangs--
eis--
ekm--
el--
elec--
elef--
elep--
elite--
em--
emb--
emer--
en--
encyc--
enta--
epi--
equ--
er--
erd--
erm--
erythro--
es--
et--
eu--
euro--
ex--
exclu--
execu--
exhi--
expand--
expen--
expl--
ext--
f--
fa--
fac--
facil--
falk--
fe--
fer--
fet--
fi--
figu--
film--
filterby--
find--
fire--
fla--
fle--
fli--
flo--
flu--
fo--
format--
fot--
fr--
frauen--
fre--
free--
frie--
fritil--
from--
fu--
ful--
g--
ga--
gall--
gar--
gara--
garz--
gaz--
ge--
gearstyle--
geme--
gen--
geo--
get--
gey--
gh--
gi--
gira--
gl--
glo--
gloc--
go--
gr--
grap--
gro--
gros--
group--
groß--
gu--
gue--
guer--
gym--
gymna--
gymno--
h--
ha--
hacı--
haem--
hal--
hali--
hama--
har--
harm--
haz--
he--
hein--
hemisp--
her--
hh--
hi--
hin--
his--
historicnames--
ho--
hoch--
hof--
hor--
hr--
hrva--
hu--
hy--
hydro--
hydrology--
i--
ia--
ic--
ice--
id--
if--
ig--
ik--
il--
illum--
im--
imag--
in--
info--
inst--
int--
integ--
inter--
interfe--
ip--
ir--
is--
isa--
it--
j--
ja--
jac--
je--
jen--
jes--
jo--
ju--
jun--
jv--
k--
ka--
kar--
kara--
karl--
kas--
kay--
ke--
kha--
ki--
kie--
kiz--
kle--
ko--
kor--
kre--
kri--
kro--
ku--
kı--
l--
la--
lan--
land--
lands--
lang--
last--
lat--
lau--
lc--
le--
lega--
leu--
leucop--
li--
lichten--
light--
link--
list--
lith--
live--
lo--
local--
lt--
lu--
lum--
ly--
m--
ma--
mac--
mad--
mag--
magell--
main--
mala--
malay--
man--
manu--
map--
mar--
mas--
max--
mc--
me--
meas--
meen--
mega--
mela--
meli--
men--
mess--
mi--
micr--
mid--
miha--
mir--
mira--
mo--
module--
mon--
mono--
monta--
mor--
mosc--
mp--
mr--
mu--
mur--
mus--
my--
n--
na--
nc--
nd--
ne--
nec--
nectar--
nega--
neotr--
neu--
new--
next--
ng--
nig--
nigri--
nik--
nis--
niz--
nl--
nn--
no--
nor--
nord--
north--
nu--
nue--
ny--
o--
observ--
oc--
od--
offic--
og--
ok--
okto--
ol--
olim--
om--
on--
op--
or--
orc--
os--
ota--
out--
over--
ox--
oxpec--
p--
pa--
paarden--
pan--
panzerhau--
par--
parent--
parsetime--
pe--
pee--
pel--
pele--
pen--
per--
pet--
pha--
phel--
pho--
phr--
phyll--
pi--
pl--
plain--
player--
ple--
po--
poly--
pos--
pp--
pra--
pre--
pri--
prin--
pro--
ps--
pseudo--
psy--
psych--
pt--
pu--
pun--
px--
py--
pyra--
q--
qu--
quad--
r--
ra--
ran--
rd--
re--
read--
ref--
reg--
reim--
reli--
remo--
render--
rep--
requ--
res--
rho--
ri--
rk--
rken--
rm--
rn--
ro--
roh--
rou--
round--
rs--
ru--
rus--
s--
sa--
sad--
sam--
sarı--
sau--
sc--
scal--
sch--
schi--
scho--
schoen--
schwa--
sciu--
scri--
se--
sea--
ser--
sh--
show--
si--
sieg--
sin--
sk--
ski--
sky--
sl--
slo--
sm--
sn--
snow--
so--
sol--
sp--
spe--
spec--
sq--
squa--
sr--
ss--
st--
sta--
stad--
ste--
str--
su--
sub--
sun--
sup--
sur--
sus--
sv--
sw--
swim--
sy--
sylv--
sylvic--
syngna--
t--
ta--
tal--
tar--
tas--
tax--
te--
ter--
tetr--
tex--
th--
tha--
the--
thi--
ti--
tidyval--
tigr--
time--
title--
to--
tor--
tr--
trac--
tran--
tre--
trem--
tri--
trid--
trio--
trip--
trop--
tru--
trun--
ts--
tt--
tu--
tur--
tuz--
tw--
twe--
ty--
typ--
u--
ukra--
ul--
ulu--
un--
up--
ur--
us--
uz--
v--
va--
val--
van--
var--
vati--
ve--
ver--
veri--
versic--
vi--
view--
vir--
viri--
visc--
vo--
vogel--
vol--
vor--
vul--
w--
wa--
wal--
wald--
wand--
war--
water--
we--
werk--
whe--
white--
wie--
wiki--
wil--
wo--
world--
x--
xan--
xanth--
xe--
y--
yac--
yed--
yen--
yo--
yu--
yıldız--
z--
za--
zam--
ze--
zel--
zon--
zu--
ð--
ı--
ə--
ʔ--
а--
аб--
абх--
ав--
ава--
авиатор--
авиацион--
авто--
автоматиче--
аг--
агь--
агьул--
ад--
адап--
аж--
аз--
азар--
ак--
ака--
акве--
акро--
актив--
акъ--
акь--
ал--
ала--
алжан--
аль--
алю--
ам--
амрит--
амур--
ан--
анг--
анд--
андже--
ане--
ант--
антарк--
антарктиче--
анте--
ап--
ар--
ара--
араб--
аре--
армян--
артистъ--
архитек--
ас--
аст--
астра--
ат--
ата--
атмосф--
аф--
афро--
ах--
ахъу--
ахӏ--
аш--
аь--
аьб--
аьбдул--
аьз--
аьн--
аьр--
аьш--
аэро--
б--
ба--
бав--
бавар--
бавкь--
багь--
бад--
баз--
бал--
бан--
бар--
бат--
баш--
бе--
бег--
бел--
бело--
белок--
бен--
бене--
бер--
би--
библиографиче--
бив--
бивз--
бивщ--
биз--
бил--
бит--
бич--
бла--
благо--
бо--
бог--
бод--
боевик--
боз--
болот--
бомбарди--
бор--
борь--
бос--
ботаниче--
бра--
бразиль--
бре--
брегенцер--
британ--
бро--
бронз--
бру--
бу--
був--
бувгь--
бувк--
бугь--
будд--
будущ--
бук--
бул--
буль--
бун--
бур--
бург--
бус--
буса--
бух--
бухь--
буч--
бы--
бю--
в--
ва--
важ--
вак--
вар--
васильев--
ватан--
ве--
век--
вел--
вен--
венг--
венгер--
вер--
версаль--
верх--
верхов--
весен--
вест--
вестминстер--
вет--
вечер--
вз--
виз--
визент--
вик--
вики--
вирг--
вири--
вих--
виш--
вклю--
вла--
внеш--
вну--
внутрен--
во--
вод--
водо--
воен--
воз--
воздуш--
вол--
вос--
восточ--
вояд--
вп--
вре--
време--
всад--
все--
всеми--
ву--
вы--
выб--
выд--
выдви--
выпущен--
выс--
высо--
вых--
выш--
вью--
г--
га--
газ--
галапа--
гам--
ган--
гандбо--
гар--
гви--
ге--
гек--
ген--
генер--
геог--
географиче--
геотермаль--
гер--
герку--
герман--
ги--
гиб--
гил--
гим--
глобаль--
гне--
го--
гол--
голланд--
голосо--
гон--
гор--
государстве--
гоцин--
гоь--
гр--
гра--
грамматиче--
граф--
гри--
гро--
гру--
груз--
грязе--
гу--
гудж--
гуж--
гул--
гъ--
гь--
гьа--
гьу--
гьунчӏу--
гю--
гӏ--
д--
да--
дав--
дагеро--
дагь--
дакь--
дан--
дар--
даркь--
дат--
де--
дев--
ден--
деся--
деяте--
дж--
джа--
джам--
джан--
дже--
джо--
джокьяк--
джон--
джу--
ди--
дизе--
дин--
дире--
дихь--
дли--
до--
доба--
дол--
доло--
дом--
дон--
дополни--
досто--
дох--
др--
дра--
драм--
дре--
древ--
дру--
друг--
ду--
дуб--
дуг--
дугь--
дук--
дуклаки--
дуллу--
дун--
дур--
дус--
дух--
духь--
душ--
дэ--
дю--
дян--
е--
ежегод--
ежене--
ели--
ен--
енид--
ер--
ж--
жа--
жам--
же--
жел--
желто--
жен--
жите--
жу--
жямат--
з--
за--
заб--
завер--
заг--
заго--
зак--
закры--
зал--
зам--
зан--
зап--
зас--
заснеже--
зе--
зеб--
зем--
зер--
зив--
зим--
знамен--
знач--
золот--
золотис--
золото--
зон--
зу--
зур--
и--
иб--
ив--
ивер--
ивкӏ--
иг--
из--
избира--
избран--
извест--
изоб--
изящ--
ик--
икь--
ил--
иль--
им--
иммиг--
ин--
инстру--
интег--
интер--
ио--
ир--
ис--
иса--
иси--
исклю--
исп--
испан--
испол--
исследо--
исследователь--
истин--
историче--
ит--
их--
иши--
ишир--
к--
ка--
каб--
кав--
кавказ--
каз--
кал--
кален--
кам--
кан--
кана--
канад--
канат--
канди--
канце--
кап--
капи--
кар--
каролин--
католиче--
каш--
ква--
квадрат--
ке--
кемб--
кер--
ки--
кин--
кино--
киров--
кка--
ккавк--
ккавкказ--
кку--
ккур--
кл--
клет--
клю--
кни--
ко--
коз--
кол--
колом--
коломен--
колон--
коль--
ком--
комм--
компью--
комсо--
кон--
кониче--
конкрет--
конт--
конфер--
конфиденци--
коор--
коп--
кор--
коро--
королев--
кос--
космиче--
костю--
кра--
крапив--
крас--
красно--
красновод--
кре--
крещ--
кри--
кро--
крон--
кру--
круп--
крупно--
кры--
ку--
куб--
кудре--
куль--
культур--
купа--
кур--
куртӏ--
кх--
къ--
къа--
къав--
къагь--
къад--
къап--
къар--
къач--
къу--
къы--
кь--
кьи--
кьу--
кьув--
кьур--
кю--
кӏ--
кӏа--
кӏант--
кӏи--
кӏул--
кӏю--
л--
ла--
лав--
лавг--
лаг--
лаз--
лак--
лам--
лан--
ланг--
лап--
лар--
лас--
лах--
лахъ--
ле--
лег--
лед--
леж--
лекарстве--
лен--
лес--
лест--
лет--
ли--
лив--
лин--
лих--
личӏ--
ло--
лов--
лон--
лотар--
лу--
лужи--
лун--
лут--
луттир--
лыж--
ль--
лю--
ля--
м--
ма--
мав--
маге--
маке--
македон--
мал--
маль--
мам--
ман--
мангыш--
мар--
марсиан--
мас--
мастер--
мат--
мах--
махач--
махӏ--
мач--
ме--
мед--
меди--
меж--
мез--
мен--
мень--
меро--
мест--
мет--
меф--
ми--
микро--
мин--
мир--
мис--
миск--
млеч--
мо--
могиль--
мол--
мон--
мор--
мороз--
моск--
москов--
му--
муж--
мукь--
мун--
муниципа--
мус--
муъ--
мы--
мэ--
мэри--
мю--
мяс--
н--
на--
наблю--
навигацион--
наж--
наз--
напечат--
напи--
нар--
нас--
насе--
насто--
натур--
науч--
наци--
нач--
нача--
начи--
наш--
не--
неи--
необх--
непо--
ни--
ниж--
ниже--
низ--
ник--
нико--
но--
нов--
ново--
новозеланд--
нор--
носи--
нс--
ну--
нур--
нуру--
нх--
о--
об--
обезь--
обледенев--
обра--
обрабо--
образов--
обществен--
объяв--
объяс--
ов--
ог--
огу--
од--
оде--
одно--
ож--
ок--
оке--
окон--
окрест--
оли--
олив--
он--
оп--
опреде--
оптиче--
ор--
орк--
орфограф--
ос--
освобо--
оск--
осм--
основ--
оста--
остро--
осуществ--
от--
отб--
оте--
отно--
относи--
офи--
оформ--
оформлен--
ох--
охот--
ошиб--
оь--
оьв--
оьт--
п--
па--
пав--
пал--
паль--
пампас--
пан--
пар--
пара--
пас--
пассажир--
пах--
пе--
пен--
пер--
пере--
пересмот--
персид--
пес--
пет--
пех--
пещер--
пи--
пивов--
пик--
пир--
писа--
пит--
плав--
пли--
плот--
площад--
по--
под--
подзем--
подоль--
пое--
поз--
пок--
пол--
политиче--
полу--
получе--
поль--
попереч--
пос--
поч--
пра--
правитель--
празд--
пре--
пред--
предсе--
преоб--
преобразов--
при--
приготов--
про--
прог--
прод--
просвети--
простран--
професси--
прохо--
проце--
прыж--
псков--
пте--
пти--
пу--
пузы--
пул--
пут--
пуш--
пь--
пят--
р--
ра--
рав--
радуж--
раз--
разно--
разреза--
разруше--
рам--
ран--
рап--
рас--
раск--
расс--
рассмо--
расши--
рах--
ре--
реда--
рентгенов--
реп--
рес--
реш--
ри--
рим--
рин--
рирщ--
ритуаль--
риф--
ро--
роб--
рог--
рождествен--
роз--
рос--
рт--
ру--
руд--
рус--
руч--
ры--
рыж--
ря--
с--
са--
саксон--
сал--
сам--
само--
сар--
сбо--
сбор--
св--
све--
свер--
свердлов--
сво--
связа--
священ--
се--
север--
сек--
сель--
сен--
серб--
сеф--
си--
сибир--
сив--
сидя--
силе--
силез--
силь--
сим--
син--
синга--
сира--
сис--
ск--
скаль--
скандин--
ско--
скорост--
сл--
сле--
сли--
слож--
слу--
см--
смот--
снеж--
сним--
сня--
со--
соб--
сов--
совмест--
совп--
совреме--
сог--
содер--
сое--
созд--
сол--
соот--
сор--
сорев--
сос--
сотруд--
соци--
сочета--
сп--
спар--
спасате--
спи--
спира--
спо--
справед--
срав--
средне--
сро--
срп--
сс--
ст--
ста--
ставро--
ств--
сте--
стеклян--
степ--
стер--
сти--
сто--
стол--
стра--
стро--
струк--
сту--
стю--
стюар--
су--
суб--
сув--
суж--
сум--
суннат--
сущ--
суще--
существую--
сфотографиров--
сх--
счи--
сы--
т--
та--
таб--
тав--
тан--
танц--
тар--
тат--
тах--
те--
теле--
тем--
тен--
тенштеттен--
тер--
тех--
техниче--
технологиче--
ти--
тин--
тинг--
тлин--
то--
тол--
толс--
томаш--
тон--
тор--
точ--
тр--
тра--
трав--
траге--
традицион--
тран--
требо--
трени--
тро--
трои--
троиц--
тру--
труб--
тта--
тти--
ттуп--
ттуплис--
ттурш--
ту--
туз--
тур--
турец--
ты--
тык--
тюль--
тя--
тяхъа--
тӏ--
у--
уам--
уб--
ув--
уве--
увк--
увч--
уда--
удоб--
уз--
узо--
уи--
уил--
ук--
указ--
украи--
украин--
украше--
укь--
ул--
улич--
улу--
улучше--
ум--
уму--
ун--
универса--
уо--
упав--
ур--
урчӏ--
ус--
усл--
услов--
усс--
уст--
установ--
ут--
ух--
уч--
уче--
учи--
ушас--
уэ--
ф--
фа--
фал--
фар--
фарер--
фасили--
фат--
фе--
фельд--
фер--
фи--
фигу--
физ--
фило--
фин--
фл--
фла--
фло--
фо--
фонар--
фор--
фото--
фр--
фран--
фре--
фри--
фрук--
фу--
фул--
х--
ха--
хаг--
хал--
халль--
хам--
хан--
хар--
хас--
хасан--
хе--
хен--
хи--
химиче--
хин--
хо--
хол--
хор--
хорват--
хоро--
хот--
хох--
хреб--
хрис--
ху--
художестве--
хур--
хх--
ххар--
ххю--
ххя--
ххях--
хъ--
хъа--
хъур--
хъус--
хь--
хьур--
хі--
хӏ--
хӏара--
хӏу--
ц--
ца--
цар--
це--
цер--
ци--
циняр--
цир--
цистерциан--
цу--
цул--
цӏ--
цӏа--
цӏу--
ч--
ча--
чан--
чап--
чар--
чачан--
че--
чел--
человече--
чер--
черно--
чет--
чеш--
чи--
чивчу--
чиг--
чир--
чирчу--
чис--
чич--
чу--
чча--
ччи--
ччик--
чӏ--
чӏу--
чӏур--
ш--
ша--
шаба--
шав--
шавлин--
шад--
шам--
шамхал--
шан--
шар--
шат--
шах--
швед--
ше--
ши--
шин--
шир--
шиш--
шко--
шп--
шу--
шю--
шяъ--
щ--
щар--
щит--
щяр--
ы--
э--
эг--
эд--
эду--
эк--
эко--
экспер--
эл--
элект--
электро--
элли--
эль--
эля--
эм--
эн--
эр--
эрег--
эс--
эскадр--
эт--
эу--
эхи--
ю--
южно--
юк--
юлиан--
юр--
я--
яв--
як--
яла--
ян--
яр--
яру--
ят--
ях--
қазақ--
ا--
ال--
الش--
ب--
ل--
م--
ن--
ي--
--0
--00
--01
--03
--058
--06
--08
--0801
--09
--1
--10
--11
--13
--14
--15
--16
--17
--18
--2
--21
--24
--26
--29
--3
--30
--316
--34
--35
--354
--37
--38
--39
--4
--40
--402
--41
--44
--45
--48
--49
--5
--50
--51
--52
--524
--53
--54
--55
--58
--59
--6
--60
--63
--66
--67
--68
--7
--71
--72
--74
--75
--77
--78
--79
--8
--80
--81
--83
--84
--85
--86
--88
--9
--91
--925
--93
--94
--95
--96
--97
--99
--a
--aa
--able
--ach
--ack
--ad
--ada
--ade
--ado
--adt
--ae
--ag
--age
--ah
--ai
--ain
--ak
--al
--ala
--ale
--ali
--alis
--am
--ama
--an
--ance
--ang
--ans
--ant
--anum
--anus
--ao
--ar
--ard
--args
--aries
--ario
--aru
--ary
--as
--asse
--at
--ata
--ate
--ated
--ates
--athon
--atic
--ating
--ation
--ations
--atory
--atum
--atus
--au
--aw
--ax
--ay
--aya
--azi
--aße
--b
--ba
--bahn
--be
--berg
--ble
--blue
--bri
--bu
--bus
--c
--ca
--cae
--cca
--ce
--cea
--cens
--cent
--ces
--ch
--cing
--cio
--cium
--ck
--claim
--class
--co
--code
--cos
--cosa
--craft
--ct
--ctos
--culus
--cum
--cus
--cy
--cık
--d
--da
--dae
--data
--db
--de
--di
--dia
--ding
--dium
--diye
--dm
--do
--dor
--dorf
--dra
--ds
--dt
--dula
--dus
--e
--ea
--eb
--ed
--eda
--ee
--ef
--ei
--ek
--el
--ela
--eli
--em
--en
--ena
--ence
--ens
--ensis
--ent
--ente
--ep
--epe
--er
--era
--ere
--eri
--eric
--eris
--ern
--ers
--ert
--erum
--es
--ese
--est
--et
--eta
--ete
--ets
--eu
--eum
--eus
--ev
--eva
--ey
--f
--fa
--fc
--fd
--fe
--feld
--fen
--ff
--fighter
--foss
--ft
--ful
--g
--ga
--gazi
--ge
--ged
--ger
--gi
--gna
--go
--gorod
--graph
--graphical
--green
--gs
--gus
--gy
--h
--ha
--haga
--hal
--ham
--han
--haris
--he
--hed
--hee
--hemum
--hen
--hia
--hic
--hing
--hinus
--hip
--hn
--ho
--hof
--hora
--horn
--hs
--ht
--hur
--hus
--hut
--i
--ia
--ial
--ian
--iana
--ias
--ib
--ic
--ica
--ical
--ics
--icum
--icus
--id
--ida
--idae
--ide
--ides
--ie
--iel
--ier
--ies
--ify
--ii
--ik
--il
--illa
--im
--ima
--imus
--in
--ine
--ing
--ings
--ini
--ink
--insel
--inum
--inus
--io
--ion
--ions
--ious
--ir
--ire
--is
--ise
--ised
--ish
--iso
--ist
--ista
--it
--ite
--ities
--itsa
--ity
--ium
--ius
--iv
--ive
--ix
--iye
--ization
--ize
--ized
--izing
--j
--ja
--je
--jo
--k
--ka
--kan
--kaya
--kc
--ke
--ked
--ken
--ker
--ket
--key
--kh
--ki
--kirche
--klı
--ko
--kov
--ks
--ku
--ky
--l
--la
--label
--lan
--land
--lands
--lar
--las
--ld
--le
--lf
--li
--lia
--lik
--lin
--ling
--link
--links
--lis
--list
--lity
--ll
--lla
--llus
--lly
--lm
--ln
--lo
--ls
--lu
--lus
--ly
--lı
--m
--ma
--maa
--man
--map
--me
--ment
--ments
--mer
--mi
--mia
--mir
--mo
--mon
--mp
--ms
--mu
--mys
--n
--na
--nae
--nak
--name
--nardo
--nas
--nburg
--nc
--nce
--nchus
--nd
--nda
--ne
--ner
--nes
--ng
--ni
--nia
--nias
--nidae
--ning
--nis
--nk
--nni
--no
--noe
--nos
--ns
--nse
--nsis
--nt
--nta
--ntal
--nto
--nts
--num
--nus
--ny
--o
--oat
--obi
--och
--ode
--ol
--olia
--om
--omo
--omus
--on
--oni
--onia
--online
--only
--ons
--oo
--oon
--oos
--opsis
--or
--oris
--orium
--orn
--ors
--ort
--ory
--os
--osa
--ot
--oti
--ous
--ov
--ovo
--ow
--p
--pa
--pas
--pe
--pel
--pes
--pest
--phus
--ping
--pipetrick
--pl
--platz
--po
--ps
--pt
--pus
--q
--quote
--r
--ra
--ras
--rat
--ray
--rche
--rd
--re
--rea
--red
--rei
--rella
--res
--reus
--rg
--rhinus
--ri
--ria
--ric
--ries
--ris
--rium
--rl
--rn
--rne
--rnes
--rnis
--rno
--ro
--rod
--ron
--ros
--rot
--rp
--rry
--rs
--rt
--rted
--ru
--rum
--ry
--s
--sa
--sch
--sches
--se
--seite
--sel
--ser
--sh
--si
--sia
--sicum
--sid
--sion
--sis
--sk
--ska
--soccer
--son
--ss
--ssa
--sse
--st
--sta
--stein
--stitute
--sto
--stone
--straße
--su
--sy
--sı
--t
--ta
--tal
--tan
--tatus
--td
--te
--ted
--tein
--ter
--tes
--text
--th
--thing
--thus
--ti
--tia
--tic
--ting
--tion
--tis
--title
--tium
--tive
--tle
--to
--ton
--tor
--torm
--tos
--tra
--traße
--tre
--tro
--ts
--tt
--tum
--ture
--turm
--turquoise
--tus
--tv
--ty
--tyle
--type
--u
--ua
--ual
--ud
--ue
--uga
--uk
--ul
--ula
--ular
--ulata
--ulatus
--ulus
--um
--uma
--un
--ung
--up
--ur
--ura
--ure
--url
--urm
--urus
--us
--ut
--uta
--uz
--v
--va
--value
--ve
--ven
--vi
--ving
--vo
--vsk
--w
--wa
--way
--x
--xies
--xt
--y
--ya
--ye
--year
--yer
--yi
--yla
--ylus
--yno
--ys
--yurt
--z
--za
--ze
--zo
--zon
--zu
--zy
--ı
--ık
--ınar
--ır
--ıs
--ə
--ər
--ν
--а
--аа
--ав
--аврил
--аву
--агу
--ад
--ада
--аде
--аду
--ае
--аев
--ает
--ается
--аз
--аи
--ак
--ал
--алл
--алу
--алул
--альнои
--альныи
--ам
--ама
--ами
--ан
--ана
--анг
--аннои
--ано
--анта
--аны
--ар
--аре
--ас
--асса
--ат
--атор
--аторы
--ать
--аться
--ау
--ах
--ации
--ация
--ач
--ачи
--ают
--ающие
--ающии
--ая
--б
--ба
--баг
--бе
--бер
--берг
--би
--бир
--бос
--бр
--бу
--бье
--бюк
--в
--ва
--вагу
--вает
--ваи
--вания
--вать
--вая
--ве
--вер
--вец
--ви
--вик
--вил
--вить
--вка
--влять
--вна
--во
--вого
--вое
--вом
--врил
--вс
--ву
--вун
--вух
--вх
--вшии
--вые
--выи
--вым
--вых
--г
--га
--гал
--ган
--гау
--гач
--гая
--гда
--ге
--ги
--гии
--гл
--го
--гу
--гур
--гут
--гы
--гь
--гьи
--гьу
--д
--да
--даи
--дал
--далии
--далул
--дании
--данул
--де
--деи
--дж
--джа
--дже
--джык
--ди
--дине
--дир
--дит
--дия
--дка
--до
--дов
--дор
--дс
--дск
--дт
--ду
--дукция
--душ
--дцать
--ды
--дь
--е
--еа
--ев
--ева
--ево
--ед
--едже
--ез
--еи
--ек
--ел
--еле
--ели
--ель
--еля
--ем
--ен
--ена
--ене
--ение
--ении
--ения
--ент
--ента
--ер
--ере
--ери
--ес
--еса
--еся
--ет
--ета
--ете
--ется
--еты
--ец
--ецкии
--ея
--ж
--жа
--жат
--жать
--же
--жи
--жик
--з
--за
--зад
--зат
--зг
--зе
--зее
--зи
--зил
--зо
--зы
--зю
--и
--иб
--ив
--иву
--иг
--ид
--ие
--ием
--ижат
--из
--изации
--изм
--ии
--ик
--ика
--ике
--ил
--илул
--им
--има
--имуних
--ин
--ина
--инка
--ино
--ины
--ип
--ир
--ирдал
--ирттаи
--ирттал
--ируем
--ирует
--ис
--ист
--истка
--исттан
--ит
--ите
--ится
--ить
--их
--иц
--ица
--ицы
--ич
--ича
--ическая
--ических
--ическои
--ию
--ия
--ият
--к
--ка
--ках
--ке
--кер
--ки
--кии
--клы
--ко
--ков
--кого
--кое
--ком
--кон
--кс
--ксса
--кт
--кташ
--ку
--кул
--кую
--кции
--къ
--кь
--л
--ла
--лаве
--лагь
--лаев
--лаи
--лал
--лам
--лан
--ланд
--лар
--ле
--лежащеи
--лен
--ление
--лении
--лз
--ли
--лив
--лии
--лил
--лин
--лис
--лия
--лиясса
--лияту
--лки
--лл
--ллал
--ло
--ловая
--лового
--лом
--лон
--лся
--лт
--лу
--луву
--лувун
--лувусса
--лул
--лун
--лы
--лые
--лыи
--ль
--льного
--льное
--льности
--льныи
--льных
--лювыи
--ля
--ляет
--лями
--лять
--м
--ма
--маа
--мас
--мат
--мата
--мб
--ме
--мен
--ми
--мии
--мли
--мо
--му
--мур
--мы
--мь
--мя
--н
--на
--наву
--наи
--нал
--нан
--нау
--нащал
--ная
--нберг
--нг
--нга
--нген
--нгтон
--нгу
--нд
--нда
--нду
--не
--нзе
--ни
--ние
--нием
--нии
--ник
--нике
--нил
--нин
--нить
--ницы
--нию
--ния
--нк
--нка
--нкам
--нки
--нмараш
--нн
--ннал
--ннан
--нная
--ннии
--нно
--нное
--ннул
--нныи
--нным
--но
--нов
--ного
--ное
--нои
--ном
--нос
--ностью
--нс
--нского
--нскои
--нт
--нто
--нты
--ну
--нува
--нугу
--нуи
--нул
--нун
--ную
--нц
--нцев
--нциеи
--нцы
--ны
--ные
--ныи
--ным
--ными
--ных
--нь
--ньо
--нья
--ня
--няя
--о
--оа
--ов
--ова
--овая
--ович
--овка
--овлул
--ового
--овои
--ову
--овы
--овые
--овыи
--овых
--ог
--ого
--од
--оде
--ое
--оед
--ои
--ок
--ол
--ом
--он
--оне
--оны
--ор
--ора
--ос
--осов
--ота
--очного
--оьзю
--п
--па
--паша
--пе
--пи
--плом
--ппа
--пу
--пы
--пынар
--р
--ра
--рава
--раву
--равун
--раи
--рал
--рами
--рат
--раха
--рахун
--ращал
--рая
--рг
--рга
--ргу
--рд
--рдаву
--рдал
--рдан
--рдащал
--рдая
--рди
--рду
--ре
--рет
--ри
--рив
--рижат
--рии
--рик
--рит
--рия
--рк
--рлу
--рн
--рно
--рну
--рных
--ро
--рс
--рт
--рта
--рте
--ртен
--рттаи
--рттал
--ртту
--ру
--рф
--рхен
--ры
--рь
--рье
--ря
--рят
--с
--са
--сал
--сан
--сат
--се
--си
--сия
--ск
--ска
--ская
--ски
--ские
--скии
--ских
--ско
--ского
--ское
--скои
--ском
--скую
--со
--сов
--сом
--сон
--соо
--ср
--сс
--сса
--ссар
--ст
--стан
--стеи
--сти
--стка
--сто
--сттан
--стые
--стыи
--сть
--стью
--су
--сы
--сь
--ся
--т
--та
--тал
--тан
--тар
--тая
--те
--теи
--тепе
--ти
--тив
--тин
--тинке
--тификатора
--тия
--тка
--тки
--тку
--тнои
--то
--тов
--тои
--том
--тон
--тор
--тра
--тру
--тс
--тси
--тт
--ттаи
--ту
--турал
--ты
--тыи
--ть
--ться
--тӏ
--тӏи
--у
--уа
--уб
--уву
--угу
--уд
--ует
--уз
--ук
--ул
--ула
--уллал
--ум
--ума
--ун
--уна
--унаи
--уну
--уны
--ур
--ус
--ух
--ую
--ф
--фа
--фосс
--фт
--фф
--фы
--фьорд
--х
--ха
--хал
--хан
--хе
--хи
--хир
--хо
--хов
--ход
--ходят
--хун
--хъ
--хъру
--хь
--хӏ
--ц
--ца
--цать
--це
--цем
--цер
--ции
--ция
--циями
--цкии
--цо
--цу
--цы
--ч
--ча
--чал
--че
--чи
--чии
--чика
--чин
--чки
--чно
--чного
--чу
--ччи
--чь
--чӏ
--чӏа
--чӏи
--ш
--ша
--ше
--шехир
--ши
--шиврии
--шиврул
--шиву
--шим
--шир
--шк
--шка
--штаи
--шу
--шы
--шью
--ща
--щал
--щать
--ще
--щеи
--щение
--щи
--щии
--щик
--щиял
--щу
--ъ
--ъа
--ъи
--ы
--ываем
--ывает
--ые
--ыи
--ык
--ым
--ыми
--ын
--ых
--ыш
--ь
--ьа
--ьба
--ьва
--ьд
--ьда
--ье
--ьи
--ьная
--ьно
--ьного
--ьнои
--ьную
--ьные
--ьныи
--ьным
--ьных
--ьо
--ьон
--ьпрю
--ьская
--ьскии
--ься
--ьте
--ью
--ья
--ьяк
--ьям
--ьян
--э
--эз
--эи
--ю
--юи
--юп
--юрт
--юсь
--ют
--ющая
--ющеи
--ющем
--ющие
--ющии
--ющим
--ющих
--я
--яет
--язычнои
--ял
--ям
--яма
--ями
--яс
--ят
--яту
--ях
--ящая
--і
--іун
--ӏ
--ӏа
--ӏаи
--ӏан
--ӏи
--ӏин
--ӏрал
--ӏу
--ӏул
--ӏун
--ب
--ة
--د
--ر
--رية
--س
--ق
--لة
--م
--ن
--و
--ي
