!
"
#
##0
##1
##10
##11
##12
##13
##14
##15
##16
##17
##18
##19
##2
##20
##21
##22
##23
##24
##25
##26
##27
##28
##29
##3
##30
##31
##32
##33
##34
##35
##36
##37
##38
##39
##4
##40
##41
##42
##43
##44
##45
##46
##47
##48
##49
##5
##50
##51
##52
##53
##54
##55
##56
##57
##58
##59
##6
##60
##61
##62
##63
##64
##65
##66
##67
##68
##69
##7
##70
##71
##72
##73
##74
##75
##76
##77
##78
##79
##8
##80
##81
##82
##83
##84
##85
##86
##87
##88
##89
##9
##90
##91
##92
##93
##94
##95
##96
##97
##98
##99
$
%
&
'
(
)
*
+
,
-
.
/
0
00
000
01
019
02
03
04
05
06
09
1
10
100
1000
1003
109
11
110
12
120
125
1250
1289
13
130
139
14
1436
15
150
1564
1582
16
164
1653
1659
167
1697
17
1700
1711
1720
1732
1750
176
179
18
180
1800
1810
19
1900
1920
1921
1925
1930
1938
1939
1940
1945
1946
1950
1954
1955
1958
1959
1960
1961
1962
1963
1965
1969
1970
1975
1976
1978
1980
1983
1987
1989
1990
1991
1995
1996
1997
1999
2
20
200
2000
2001
2003
2004
2005
2006
2007
2008
2009
2010
2011
2012
2013
2014
2015
2016
2017
2018
2019
2020
2021
2022
2023
207
21
210
22
23
24
240
25
250
26
260
265
27
28
280
29
3
30
300
31
32
320
33
34
348
35
350
36
361
365
366
37
38
383
39
4
40
400
41
416
42
43
44
46
47
479
48
5
50
500
52
538
54
55
550
56
587
59
6
60
600
62
63
64
640
643
65
67
680
686
7
70
700
7000
740
743
75
750
78
783
79
8
80
800
83
841
86
8601
87
88
9
90
900
91
910
931
97
970
:
;
=
?
\
^
_
a
about
abstraction
access
accessed
aceni
act
action
actor
adelaidi
adrenali
aferika
aferikan
aft
aglaia
ai
ailadi
aires
aironi
aisi
aisiladi
akaivi
akaude
akwid
albogularis
alegre
align
alignbars
all
almost
alps
also
amerika
amerikan
amsterdam
an
ana
anatidae
and
andaman
angeles
ankara
anous
anser
antarctic
antarctica
antennaria
apositolo
arara
arc
are
area
arequipa
argentina
arithmetic
around
as
asa
association
asteraceae
asteroid
astrolabe
astronidium
at
atalanitika
atmosphere
atmospheric
atom
atomi
atomic
atricilla
au
australia
austria
auwa
awai
azerbaijan
b
ba
bafalo
bahia
bai
bainimarama
balaka
balavu
bale
balebale
baleta
baleti
bali
baluni
band
bangkok
bangladesh
banjo
banovci
baqe
bar
barasi
baravi
barbus
basalt
basi
basika
basikeli
basikete
basiketibolo
baskin
bata
batabata
bati
batina
bau
bc
be
beatles
bebe
becc
beethoven
beijigi
beka
beleti
benu
beqa
bera
berlin
beseni
besi
bete
between
bia
bibi
big
bilioni
billboard
billion
bilo
biodiversity
birisibeni
bisinisi
biu
biuta
biuti
biuvanua
black
bleu
blues
bogi
bogota
boivinaka
bokini
boote
borealis
boroya
bosnia
boston
botany
bottom
br
brasi
brazil
bread
british
broadway
brunnea
bsk
bubo
bucabuca
bucina
bucini
buckmata
buenos
buina
buka
bukakau
bukawaqa
bula
bulabula
bulataki
buli
bulia
buloko
bulu
bulumakau
buroro
butobuto
buturara
by
c
ca
cabani
cagi
cagilaba
caka
cakacaka
cakacakaniliga
cakacakataka
cakacakataki
cakau
cakaudrove
cakava
cake
cala
calcium
cali
california
calophyllum
cambodia
cambridge
capital
caracas
caranx
caribbean
carp
carpenter
carpenters
cartagena
cartel
castro
catala
category
cathedral
catla
cau
cava
cavu
cavuta
cavuti
cawa
cay
cecere
cegu
cei
cellulose
center
centimetres
central
centre
century
ceres
ceva
cevara
cevata
cevatokalau
chamomile
chamomilla
charles
charter
chaudhry
che
chi
chicago
chile
christian
christianity
chromosome
chromosomes
chu
church
cici
cicivaka
cicivaki
cilava
cina
cioloji
ciqoma
ciqomi
cirsium
citrus
city
ciwa
cloth
cm
co
coast
cobar
code
cognitive
coka
cokia
cokoti
cokovata
collage
collection
college
colombia
color
colors
columbidae
com
combustion
commons
communist
comprises
concepcio
confucianism
confucius
constituent
contiguous
continental
control
cook
copra
coral
corbin
coro
coronel
covia
covulaca
cowdery
cowiri
cristatus
croatia
crocuta
croissant
cruz
cu
cuba
cudruvi
curitiba
curu
curuma
curumi
cusco
cygnus
cymbal
d
da
dabe
daku
daliga
dalo
damudamu
danisi
daramaki
daru
dateformat
dau
daudidigo
daulagasere
daumasu
daunidramayalewa
daunipolitiki
daunitalevoni
daunivucu
daupapeti
dauqito
dautauri
dauteitei
dautukutuku
dauvakadidike
dauvakaraitaki
dauvakasisi
dauvakatasuasua
dauveipapitaiso
dauveitusaqati
dauveivoli
dauvolaivola
dauvolasere
dauvunau
david
davo
day
de
decorative
dede
del
dela
delana
delanivale
delena
delhi
delta
demography
denimake
density
depeche
dewa
dewavanua
diacritics
diameter
digidigi
digitaka
digitaki
dikeva
dikevi
dina
dinau
dioscorea
diospyros
disi
division
divisor
djembe
do
dodoka
dodonu
dokai
dolavi
domo
domodua
domona
donu
doors
dot
dou
dovu
dovuititoko
dra
draiva
draki
drakidra
drano
drau
draudrau
drauna
draunikau
dravu
dravuni
dredre
dreniwaicevata
dresden
dro
drodro
drodrolagi
droini
droka
drokadroka
dromodromo
drotini
dua
duabau
duadua
duatani
duavata
dui
duidui
dukadukali
duna
dusia
dusimaki
dwarf
dz
e
east
eastern
eboni
ecoivakarau
ed
eda
edaidai
edirne
edita
ei
eigenmannia
eka
eke
el
electromagnetic
elemedi
eliu
eliumi
empera
en
ena
encyclopedia
enijilisi
enzyme
epereli
era
eratou
erau
erigeron
eroti
esia
eso
espoo
esthetics
euclidean
evei
exothermic
extends
extension
external
extratropical
f
fabriciano
farisi
feperueri
festival
fiji
fijian
fika
file
filimu
filipaini
filosofi
finiladi
fishbase
fisiki
flavors
florida
flow
fokise
fomu
fontsize
footnotes
for
fore
found
foz
fracture
francisco
frank
franz
free
freshwater
friedrich
from
ft
fute
g
ga
gacagaca
gadreva
gadrevi
gagadre
galala
galileo
games
gamete
ganiviti
ganiwai
garfield
garten
gaseous
gastropod
gata
gauna
gaunisala
gdp
genetic
genus
geographic
geography
geology
geometry
george
georgia
gje
go
god
gogo
gole
gona
gone
gonetagane
gonevuli
goneyalewa
gov
gray
greenland
gregorian
gridcolor
group
guam
gugumatua
gunu
gusu
gusunivosa
h
ha
halloween
hamburg
hammurabi
han
hanoi
hat
haydn
hebe
hectares
height
helsinki
herzegovina
high
hindi
his
history
ho
hollande
holy
home
honiara
hook
hosted
house
http
https
hu
huancayo
huang
hue
hunter
hyaena
hydrogen
hydrology
hyena
i
ia
iapositolo
ibalebale
ibuki
ibulibuli
icakacaka
icake
icavacava
icocovi
icolacola
id
idabedabe
idi
idia
idini
idinia
idonisia
idre
idromudromu
idusidusi
igacagaca
igiladi
igu
iguac
ii
ijipita
ijipta
ika
ikaciwa
ikalima
ikanakana
ikaono
ikarua
ikaruasagavulu
ikatalau
ikatini
ikatolu
ikava
ikavitu
ikawalu
ikeli
iko
ikoya
ikumuni
ikuri
ilakolako
ilati
ilatitaki
ilavelave
ilavo
ilawalawa
ilesilesi
iliuliu
illinois
ilobi
iloilo
image
imagesize
imatai
imatau
imoimoi
in
inaki
inakinaki
includes
inclusion
increment
indian
indiana
indigenous
indo
indonesia
inference
influenza
information
infrastructure
initaneti
institute
integer
international
internet
interstellar
into
iotioti
iprage
iqaqalo
ira
irairai
iratou
ireland
irogorogo
is
isakisakitaki
isala
isaluwaki
isau
iseleiwau
isema
iserau
isireli
island
islands
islet
iso
isolisoli
isoqoni
isoqosoqo
isoso
isosomi
istanbul
isulu
isulusulu
it
itaba
itabagone
itabatamata
italanoa
italatala
itali
itataqomaki
itatarovi
itaube
itaukei
itavi
itaviqaravi
itei
iteitei
itekitekivu
itekivu
itikotiko
ititoko
itokani
itotogi
itovo
itubutubu
itukutuku
itutu
itutunisenikau
ituvaki
ituvatuva
ituvuka
iukuuku
iulutaga
iurope
iusutu
ivakadewa
ivakadinadina
ivakalailai
ivakalomavinaka
ivakamacala
ivakaraitaki
ivakarau
ivakatagedegede
ivakatagedegedetaki
ivakatagi
ivakatakarakara
ivakatakata
ivakatakila
ivakatakilakila
ivakatautauvata
ivakavakadina
ivakavakayagataki
ivakavuvuli
ivako
ivalavala
ivalu
ivana
ivau
ivavakoso
ivesu
ivi
iviu
ivola
ivolakerekere
ivolamaroroi
ivolanivula
ivolatabu
ivolatukutuku
ivoli
ivosavosa
ivotavota
ivukivuki
ivunau
ivurevure
iwalewale
iwali
iwase
iwasewase
iwiliwili
iwirini
iyalayala
iyaloyalo
iyaragi
iyatuvosa
iyau
iyauqaqa
iyaya
j
jabeni
jack
jackson
jaina
jakarta
jamani
james
janeiro
janueri
japani
java
jazz
jekope
jemesa
jenala
jersey
jerusalemi
jesus
jiova
jisi
jisu
jiu
jiuta
john
johnson
jokeliti
jone
joni
josefa
joseph
jpg
julai
julian
june
jupiter
jyva
k
ka
kabani
kabebe
kabera
kaboni
kabu
kacabote
kaciva
kacivaka
kacivaki
kacivi
kadavu
kadi
kadinala
kadua
kai
kaimua
kaka
kakana
kakaseresere
kako
kakua
kakumea
kalasi
kalavo
kaleda
kalifonia
kalima
kalokalo
kaloko
kalou
kalougata
kama
kamica
kamikamica
kana
kania
kapa
kaqaru
karakarawa
karakarawaco
kareti
karisitala
karisito
karua
kasi
kaski
katakata
kathmandu
kato
katolika
katolu
katoni
kau
kaukamea
kaukaua
kaukauwa
kaulotu
kauta
kauti
kauveilatai
kauwai
kauwaitaka
kava
kaveti
kawa
kawatamata
kaya
ke
kea
kece
kecega
keda
kedra
kedrai
kedrau
kei
keimami
keirau
kelidonia
kemisitiri
kemudou
kena
kenada
kenadau
kenai
kentucky
kerekere
kevaka
ki
kila
kilai
kilanibula
kilomita
kina
kini
kinto
kioa
kirimu
kirisi
kisi
kivei
km
ko
koala
koli
komipiuta
komiti
kompiuta
konitaraki
koniteina
konitineni
kopa
korea
korinica
koro
korolevu
koronivuli
koroturaga
kosipeli
kote
koto
koula
kovana
kovuta
koya
krako
kuila
kula
kulakula
kuli
kulumaca
kumala
kumuni
kune
kunea
kunei
kunekune
kuopio
kura
kuro
kuvu
kyoto
l
la
labasa
lade
lagasere
lailai
laini
laisenia
laivi
lakeba
laki
lako
lala
lalabalavu
lalaga
lalai
lali
lami
language
laos
largest
lasa
lase
lasu
late
latex
latina
lau
laucala
laukana
laurai
lautoka
lavetaki
lawa
lawakitaki
lawatu
le
left
legal
leipzig
leka
lekaleka
leleka
lelevu
leo
leqa
les
lesi
lesoni
lesu
leucophaeus
leveni
levu
levucake
levuka
lewa
lewai
lewe
lewelevu
lewena
lewenilotu
lewenivanua
lewenivuli
lia
life
liga
ligadra
ligana
ligaqu
lima
linegrey
lines
linguistics
link
lisi
listen
lituani
liu
liutaka
liutaki
livaliva
lo
loaloa
loba
lobasucu
lodoni
loga
logavinaka
loka
lokaloka
lolo
loloma
loma
lomadonu
lomalagi
lomaloma
lomana
lomani
lomanibai
lomaniwai
lomavata
long
longipes
lori
los
losi
lottery
lotu
lotulevu
lovo
loya
luke
lulu
lute
luther
lutu
luve
luvei
luvena
lynne
m
ma
macala
macawa
machete
maciu
mada
madagasikar
madaqasika
madrai
madu
magnolia
mahendra
mai
maile
maji
makanitu
makawa
makete
malanivosa
malea
malesia
malevani
malie
maliwa
maliwalala
maliwalalaka
malolo
malua
malumalumu
malumu
malus
mama
mamaca
mamalia
mamare
mamaroroi
mana
mani
manumanu
mape
maqusa
marama
marau
marautaka
marautaki
march
marika
maritime
maroroi
maroroya
martin
masela
masi
masima
massachusetts
masu
mata
matabete
matabose
matadra
matagaga
matagi
matai
matailalai
mataisoqosoqo
mataivakatagi
mataivalu
matalotu
matana
matanataka
matanisiga
matanisigararama
matanitu
matanivika
matanivola
mataniwai
mataqali
mataqalirarama
mataqu
matasawa
matata
matataka
matatamata
matau
mataveilawa
matavuvale
mate
mathematician
matua
mavoa
me
mebareni
meca
medan
medelli
mediterranean
megascops
meke
mekisiko
melanesia
mele
meli
meliniumi
mera
mercury
mesaia
metali
meteorological
meteorology
metric
metropolitan
mexico
mi
michael
milioni
millioni
mineral
minh
miniti
misini
mita
mo
moce
mode
module
moici
mokimokiti
moko
molecular
moli
molikiuli
mollusca
molluscs
momani
mona
mongolia
moniti
monk
monosaccharides
moresby
moscow
mosese
mosi
motoka
motto
mount
mua
muataka
mudu
muduki
mug
multi
multiplication
multiplicative
multiverse
muri
muria
musa
music
mustang
myanmar
n
na
naba
nabavuni
nadi
nai
nakiti
namaka
namaki
namenalala
nanamaki
nanuma
nanumi
nasinu
natewa
nation
national
nausori
nave
ne
nei
neo
nepal
netherlands
neutron
new
ng
nguye
ni
nicaragua
nifai
night
nikua
nitrogen
niu
niukaseli
niusiladi
no
noda
nodra
nodratou
nodrau
nomu
nona
nonai
noqu
norfolk
norge
north
northeast
northern
norway
noveba
nowei
nukilia
nuku
nunu
nutrient
nylon
o
occidentalis
oceania
oceanian
oceanic
of
ofa
official
officinarum
ohio
oka
okaladi
okati
okoladi
okosijeni
okosita
okotova
oladi
olimipiki
olive
oliver
olo
on
one
ono
oo
open
opera
oqani
oqo
oqori
or
org
organic
organism
organization
orientation
osasco
ose
ositerelia
otataki
oti
otioti
oulu
outlier
outliers
ova
ovini
oya
p
pacific
page
pakete
pakisitani
palasitika
palast
palau
palisitaina
paltoga
palu
panorama
panthera
papa
papeti
papiloni
papitaiso
papitaisotaki
papua
papyrus
paraguay
parahyaena
paraimari
park
parofita
parokaramu
pasidia
pasifika
pasivika
paul
paula
paulo
pea
peaks
pear
pefa
pelecanus
peleti
pellet
pelusios
peninsula
pepa
percussion
peresitedi
peretania
period
peripheral
perisia
peritania
peru
peter
peteriaki
petty
phenomena
phenomenon
phewasee
phi
philadelphia
philosophy
physiology
pi
piano
pini
piqi
pita
pitcairn
planetary
planifolia
plasma
play
playbill
pliocene
plotarea
plotdata
pluto
poidi
pokhara
polad
poladi
polinisia
politiki
polo
polymer
polynesia
pope
population
populous
port
porto
posi
potsdam
potukali
poznan
press
protein
proteles
pseudovakadidike
puerto
pusi
px
python
q
qai
qalo
qalova
qaqa
qara
qarase
qarava
qaravatu
qaravi
qase
qasecake
qasenivuli
qavokavoka
qele
qelewai
qerepi
qin
qio
qiqo
qita
qito
quadrilateral
quartet
queen
r
ra
rabailailai
rabailevu
rabana
rabi
rabuka
radius
rai
raica
raici
rairai
raisi
raivotu
rakavi
ramurface
ranadi
rap
rapa
rara
raraba
rarama
ratio
ratou
ratu
rau
rauni
rauta
rawa
rawarataka
rawaratakavalenikuro
rawarawa
rawata
rawati
reba
recife
red
reketuqula
represa
republic
rere
rerevaki
resin
retequla
retioyaloyalo
revurevu
rgb
rig
right
rika
rio
ripabuliki
ripotetaki
river
robbins
robert
rock
rogo
rogoca
rogoci
roka
rokataki
rokovi
roma
rome
rorogo
rotterdam
rotuma
roughly
rt
rua
ruarua
ruasagavulu
rube
rugurugua
rui
ruku
rumu
rusi
rusia
ruve
s
sa
saccharum
sai
saikolaji
sainitaka
saiva
sakini
sala
salavata
salvador
samaki
samara
sambucus
sami
samoa
san
santa
santiago
saqa
saqata
sara
sarasara
saratov
saravanua
sasaga
sasamaki
sau
sauca
sauma
saumaki
saumi
sautaninini
sautu
savasava
savusavu
scalemajor
scaleminor
schubert
se
seemannii
sega
segata
sekodi
semata
semati
senijiuri
senikau
senitiuri
sepiteba
seraki
serau
sere
sereka
serekali
serene
setilaite
setilaiti
shakespeare
shampoo
shanghai
shenzhen
shi
shift
si
side
siga
siganimate
siganisucu
sigararama
sigatabu
sigatoka
sika
sikadinavia
sikinala
sikoa
sikorere
sikote
sikoteladi
sikuea
sila
siladi
silica
siliva
simede
simici
sinucodo
sioni
sipaisi
sipeni
sipi
siqeleti
sir
sisili
sitaba
site
siteseni
siti
sitiveni
sitoa
sitokomi
sivia
siviraka
siwa
sk
skyla
slashing
so
sobu
sociology
soka
soko
sol
solar
soli
solia
solibula
solo
solomon
solomoni
solvent
soniwai
soqo
soqona
soqoni
soqosoqo
sore
sorenikau
soro
soso
sosomitaka
sota
sotasota
sotava
sotavi
sote
soti
sotia
south
southeast
southern
spain
species
sq
ssp
st
start
state
states
stellar
suani
suasua
subdelena
subrufa
subset
subtraction
subtropical
sucu
sucusucuya
sudamerica
sui
suka
sukuwea
sulawesi
susuga
suva
suwiteni
suwitisiladi
svg
switzerland
symmetry
symptom
synthetic
system
t
ta
tabaka
tabaki
tabana
tabanilotu
tabu
tabua
tadola
tagane
taika
taile
taipe
taiwan
taiwana
takete
taki
takosova
talaca
tale
talega
taleitaka
taleitaki
tama
tamana
tamata
tampere
tani
taoni
tapa
taqomaka
taqomaki
tara
tarai
tarava
taro
tarogi
tarova
tatamusuki
tataqomaki
taucoko
taudaku
taudua
taukei
taukena
taumada
tauni
taura
tauri
taurivaki
tautauvata
tautuba
tauvimate
tauvitaki
tauyavu
tauyavutaka
tauyavutaki
tavata
tavaya
taveuni
tavi
tavipolo
tavu
tavua
tavuto
tawa
tawagadrevi
tawaitaga
tawana
tawani
tawase
tawasei
tawavanua
tawayaga
tbilisi
tea
tectonic
tei
teitei
teivaki
tekinolaji
tekitekivu
tekivu
tekivutaki
television
temuco
tete
teveli
tevita
tevoro
text
textcolor
th
thailand
that
the
thermovakayavavala
thrusting
thumb
thumbnail
thurston
ti
tianjin
tigris
tiki
tikina
tikinisiga
tikitiki
tikiva
tiko
tikoga
till
timeaxis
timi
timoci
tina
tini
tinikaciwa
tinikadua
tinikarua
tinikatolu
tirinidadi
tisaipeli
tiseba
titanium
titobu
to
toa
toba
tobako
tobu
toga
toka
tokalau
tokaruataki
toki
tokitaki
tokona
tokoni
tokyo
tolona
tolu
tom
tomana
tomani
top
topological
topology
torocake
toso
tosoi
tosokiliu
totoka
totolo
tovolea
tower
tr
tra
trilioni
trindade
trio
trpinja
tu
tubu
tubukoso
tucake
tucaketale
tudei
tudel
tui
tuituina
tukuma
tukuna
tukuni
tukutuku
tuli
tupaia
turaga
turaganivalu
turkey
turku
tusiti
tutu
tutuni
tututolu
tuva
tuvai
tuvanaki
tuwawa
tv
tyndale
u
ua
uabalavu
uabula
ubia
uca
ucacevata
ucalutu
uciwai
ucunivanua
udolu
uea
uetersen
ukraine
ukulele
ulu
uludra
ulumu
uluna
ulunivanua
ulutaga
umani
umauma
unifomu
unit
united
unity
university
univesiti
upright
urban
uro
uruguay
us
usutu
uto
uvi
v
va
vada
vagalalataki
vagauna
vagolei
vagoleya
vaka
vakaakaude
vakaamerika
vakababataka
vakabauta
vakabesebese
vakabibi
vakabisinisi
vakabuina
vakabula
vakabulai
vakacaca
vakacacani
vakacagicagi
vakacakacaka
vakacava
vakacecegu
vakacegu
vakacurumi
vakadeitaka
vakadeitaki
vakadewataka
vakadewataki
vakadidike
vakadikeva
vakadinadina
vakadinadinataka
vakadinadinataki
vakadinamati
vakadodonu
vakadodonutaka
vakadodonutaki
vakadonui
vakadrukai
vakadua
vakaduavatataki
vakaduiduitaka
vakaduria
vakafika
vakai
vakaibalebale
vakaibalebaletaki
vakaidina
vakaikoya
vakailavo
vakailesilesi
vakailoa
vakairau
vakaisosomitaki
vakaitamera
vakaitaukei
vakaitavi
vakaitikotiko
vakaituvakitaki
vakaituvatuva
vakaivakarau
vakaivola
vakaiwase
vakaiyalayala
vakaiyaloyalo
vakajaina
vakakasi
vakakina
vakakompiuta
vakalailai
vakalailaitaka
vakalailaitaki
vakalasitaki
vakalatina
vakalawa
vakalekaleka
vakalekalekataki
vakaleqai
vakalesuya
vakalevu
vakalevulevui
vakalevutaki
vakalivaliva
vakalogalogavinakataki
vakalomalagi
vakalotu
vakalou
vakamacalataka
vakamacalataki
vakamalua
vakamamacataka
vakamatanitu
vakamatatataka
vakamatau
vakamatautaki
vakamatea
vakamatei
vakamau
vakamesaia
vakamisini
vakamotoka
vakamuri
vakamuria
vakanamata
vakanananu
vakananuma
vakani
vakanukilia
vakaoqo
vakaoqori
vakaoti
vakapapeti
vakapenitiko
vakapolitiki
vakaraitaka
vakaraitaki
vakararaba
vakararavi
vakaraubuka
vakarauta
vakarautaka
vakarautaki
vakarauwai
vakarawarawataki
vakarerevaki
vakarisito
vakarivirivi
vakarokoroko
vakarokorokotaki
vakarorogo
vakarota
vakarua
vakasakiti
vakasama
vakasamataka
vakasamataki
vakasaqa
vakasaqaqara
vakasaqara
vakasasaqa
vakasaurarataki
vakasavasavataki
vakaseua
vakasevi
vakasilesitieli
vakasinaiti
vakasipeni
vakasisila
vakasisisi
vakasoqoni
vakasorena
vakasucuna
vakatabakidua
vakatabui
vakatabuya
vakatagane
vakatagi
vakataka
vakataki
vakatakila
vakatakilai
vakatamata
vakataotaki
vakatara
vakatarai
vakatasuasua
vakatasuasuataki
vakatau
vakataucokotaki
vakatautauvata
vakatautauvatataki
vakatauvatani
vakatauvatataki
vakatekivu
vakatekivuna
vakateresitieli
vakatetei
vakatikina
vakatikitiki
vakatikori
vakatoka
vakatokai
vakatolu
vakatorocaketaka
vakatorocaketaki
vakatotolo
vakatovotovo
vakatovotovotaki
vakatui
vakatulewa
vakatulewataka
vakatulewataki
vakaturaga
vakatututaki
vakau
vakauasivi
vakaukauwa
vakaumauma
vakauqeta
vakauyaya
vakavakadewa
vakavalagi
vakavanua
vakavavakutaka
vakavinaka
vakavinakataka
vakavinakataki
vakavinavinaka
vakaviti
vakavo
vakavoleka
vakavolivolita
vakavolivoliti
vakavuku
vakavuli
vakavulici
vakavuna
vakavunivola
vakavuniwai
vakavuqa
vakavuravura
vakavurea
vakavuvuli
vakavuvulitaka
vakawaicalataka
vakawasoma
vakawawa
vakayabaki
vakayacani
vakayacoka
vakayacora
vakayacori
vakayagataka
vakayagataki
vakayago
vakayakavi
vakayalewa
vakayalo
vakayawa
vakekeli
vakila
vakilai
vakoloni
vakuri
valavala
valawa
vale
valenivolavola
valeniyaloyalo
valparai
valu
value
van
vanila
vanilla
vantaa
vanua
vanualala
vanuatu
varanise
vata
vatavata
vatu
vatulele
vatutalei
vauca
vauci
vauna
vaunataki
vava
vavaku
vavalagi
vavaniki
vei
veiba
veibasai
veibuli
veicakacaka
veico
veicurumaki
veidinadinati
veidomoni
veidutaitaka
veigacagaca
veigadivi
veiganiti
veigauna
veiitaba
veika
veikabula
veikarisitala
veikau
veikauyaki
veikilai
veikoro
veilakolako
veilakoyaki
veilawa
veilecayaki
veileti
veiliutaki
veimaliwai
veimama
veimatalotu
veimatanitu
veimataqali
veimatasawa
veimatavuvalevaki
veipapitaisotaki
veiqaravi
veirawai
veisaqasaqa
veisau
veisautaka
veisautaki
veisele
veisemati
veisenikau
veiseyaki
veisiga
veisisivi
veisoliyaki
veisorovaki
veitaba
veitacini
veitaqomaki
veitaratara
veitarataravi
veitaravi
veitauni
veitauvi
veitiki
veitikina
veitokoni
veitosoyaki
veitua
veituberi
veiulunivanua
veiulutaga
veivakabulabulataki
veivakabulai
veivakacacani
veivakadonui
veivakaisini
veivakamarautaki
veivakararamataki
veivakarisekete
veivakarusai
veivakasama
veivakasaurarataki
veivakatorocaketaki
veivakauqeti
veivakavatukani
veivakavulici
veivakayadrati
veivakayarayarataki
veivala
veivale
veivaluvaluti
veivanua
veivaqaqai
veivauci
veiveisau
veivola
veivoli
veivosa
veivosaki
veivosakitaki
veivuke
veivukei
veivunikau
veivuravura
veivutuni
veiwaki
veiwase
veiwekani
veiyabaki
veiyacovi
veiyalayalati
veiyanuyanu
veiyasai
veiyasana
veiyatuyanuyanu
veleti
venezuela
venus
vertical
via
vica
victoriae
vidio
vienna
vientiane
vietnam
vika
vila
vinaka
vinakata
vinakati
virescens
virginia
viritalawalawa
virus
viscous
viti
vitu
vivili
vo
vodo
vokete
vol
vola
volai
volau
volavola
voleka
volekata
volekati
voli
volibol
volitaka
volitaki
vom
von
vonu
voravora
vosa
vou
vovou
vowel
vu
vua
vuaicake
vuaka
vualiku
vualikura
vuana
vuanikau
vuata
vudi
vuka
vukavuka
vukea
vukelulu
vuki
vukitani
vuku
vula
vulagi
vulaikatakata
vulaitubutu
vulatolu
vulavula
vuli
vulica
vulici
vuna
vunau
vunauci
vunautaki
vuni
vunikau
vunilagi
vuniwai
vuqa
vuravura
vure
vutinisipi
vutuniyau
w
wa
wadakau
wai
waicala
waicevata
waidranu
waini
wainimate
waiqaseqase
waitui
waiwai
waka
wakadra
wakana
wale
walega
wali
walu
waqa
waqanivola
waqavuka
wasa
wasawasa
wase
wasea
wasei
wasoma
watidra
watina
wavoki
wavokita
wavu
wawa
we
website
wekana
welesi
weleti
weligaliga
weligitoni
wendl
were
wereca
west
western
where
which
while
width
wik
wiki
wikicommons
wikimedia
wikipedia
wikispecies
wili
wilika
wiliki
wiliwili
will
william
with
witi
woodard
world
wrocław
wuhan
www
x
xi
xico
y
ya
yabaki
yabia
yaca
yacana
yaco
yacova
yadua
yadudua
yaga
yago
yagodra
yagona
yalana
yalani
yalataki
yalewa
yali
yalo
yalodina
yalododonu
yaloka
yalomalumalumu
yalomatua
yaloyalo
yameyame
yanakimadrai
yani
yanuyanu
yapolo
yaqona
yasa
yasana
yasayasa
yatevuso
yatu
yava
yavala
yavalata
yavana
yavavala
yavu
yavunibula
yavunilewa
yavusa
yavutaki
yawa
year
yeast
yoka
york
yyyy
z
zagreb
zheng
zone
zoology
zwinger
{
|
}
~
£
°
´
º
×
ø
ł
ło
łobez
ƀ
ƒ
ɓ
ə
ɱ
ʻ
ˈ
ˌ
ː
̀
́
̂
̃
̄
̆
̇
̈
̉
̊
̌
̛
̣
̧
̸
π
ω
л
ا
ٕ
क
ज
फ
र
ल
ि
ी
्
ং
ত
দ
ব
র
ল
শ
া
ী
ে
্
ᶀ
‎
–
—
’
“
”
′
″
⁄
→
↔
↷
⇨
−
√
③
④
⑦
─
☉
☾
☿
♀
♂
♃
⺀
⺄
⺆
⺈
⺊
⺌
⺕
⺝
⺸
⺼
⿰
⿱
⿲
⿳
⿴
⿵
⿶
⿷
⿸
⿹
⿺
⿻
〢
゙
ク
コ
タ
ト
モ
ユ
ワ
ン
ー
㇁
㇂
㇄
㇇
㇈
㇉
㇓
㐁
㐄
㐅
㐌
㐫
㐬
㐭
㐮
㐱
㑒
㒵
㒸
㒼
㓁
㓞
㔾
㕛
㕣
㖾
㘝
㚅
㚇
㚔
㚘
㝉
㝡
㝴
㝵
㞋
㞢
㞷
㠩
㠭
㠯
㡀
㡭
㡿
㢲
㢴
㣇
㣺
㥯
㪅
㫄
㫐
㫒
㫺
㬅
㬎
㬥
㬰
㲋
㳄
㷠
㸒
㸚
㸦
㼌
㼲
㽞
㿟
䀠
䂞
䍃
䏍
䒑
䖍
䖒
䖝
䖵
䙴
䚻
䜌
䝿
䡛
䧹
䪞
一
丁
丂
七
丄
丅
丆
万
丈
三
上
下
丌
不
与
丏
丐
丑
专
且
丕
世
丘
丙
业
东
丞
丢
丣
两
严
並
丨
丩
个
丫
丬
中
丮
丰
丱
串
丵
丶
丷
丸
丹
为
主
丽
丿
乀
乂
乃
久
乆
乇
么
义
之
乌
乍
乎
乏
乐
乑
乔
乖
乗
乘
乙
乚
乛
乜
九
乞
也
习
乡
乳
乾
亀
亅
了
亇
予
争
事
二
亍
于
亏
亐
云
互
亓
五
井
亘
亚
亜
亞
亟
亠
亡
亢
交
亥
亦
产
亨
亩
享
京
亭
亮
亯
亰
亲
亳
亶
亷
人
亻
亼
亾
仁
今
介
仌
从
仐
仑
仒
仓
仕
他
付
仝
代
令
以
任
企
伊
伏
伐
休
会
伯
但
位
何
佘
余
作
佥
使
來
侈
侌
侖
侯
侵
便
保
俞
信
修
倉
倍
候
倠
備
僉
僕
儿
兀
允
兂
元
兄
充
兆
兇
先
光
兊
克
兌
免
兑
兒
兓
兔
党
兜
兟
入
全
兩
兪
八
公
六
兮
兰
共
关
兵
其
具
典
兹
兼
冀
冂
冃
冄
内
冈
冉
冊
冋
册
再
冎
冏
冐
冒
冓
冖
冗
冘
军
农
冝
冡
冥
冫
冬
冷
几
凡
凢
凵
凶
凷
凸
凹
出
函
凾
刀
刁
刂
刃
刄
刅
分
切
刍
刑
刕
刖
列
刘
则
初
別
利
别
到
制
刺
則
削
剌
前
剡
剽
劉
力
功
加
劦
助
劫
劳
劵
勃
勇
勉
勒
動
務
勞
勤
勹
勺
勻
勾
勿
匀
匂
包
匆
匈
匊
匋
匍
匕
化
北
匚
匝
匡
匪
匱
匸
匹
区
医
匽
匿
區
十
卂
千
卄
卅
卆
升
午
卉
半
卌
华
卑
卒
卓
单
卖
南
卜
卝
卞
占
卡
卢
卣
卤
卦
卩
卪
卬
卯
印
危
即
却
卵
卷
卸
卻
厂
厃
厄
历
厈
厉
厌
厓
厘
厚
原
厤
厥
厨
厭
厲
厶
厷
厸
去
厼
厽
叀
参
參
叅
又
叉
及
友
双
反
叐
发
叒
叔
叕
取
受
叚
叜
叟
口
古
句
另
叩
只
召
可
台
叱
史
右
叵
号
司
叹
吂
各
吅
合
吉
吊
吋
同
名
后
吏
向
吕
君
吝
吞
否
含
启
吳
吴
吹
吾
呂
呆
呈
告
员
呙
周
命
咅
和
咎
咠
咢
咨
咸
咼
哀
品
哉
員
哥
哲
唐
商
啇
問
啚
啬
啻
善
喜
喬
單
喿
嗇
噩
嚴
囊
囗
囘
囙
囚
四
回
囟
因
囧
囬
困
囱
囷
固
国
圂
圅
國
圍
園
圓
土
圡
圣
圥
在
圭
地
圶
圼
坐
坒
坚
坴
垂
垔
垚
埀
埋
埶
執
基
堂
堅
堆
堇
堯
塞
墨
壘
士
壬
壯
声
壳
壴
壹
壺
壽
夂
处
夅
夆
备
夊
夋
夌
复
夏
夒
夕
外
夗
夘
多
夜
夢
大
夨
天
太
夫
夬
夭
央
失
夲
头
夷
夸
夹
夻
夾
奂
奄
奇
奈
奉
奎
奏
奐
契
奓
奔
奚
奞
奠
奢
奥
奭
女
奴
奻
好
如
妄
妙
妟
妥
妻
妾
始
姑
委
姜
威
娄
婁
婴
嬰
嬴
子
孑
孔
孕
孖
字
存
孚
孛
孝
孟
季
孤
学
孫
孱
學
宀
宁
宂
它
宅
宇
守
安
宋
完
宏
宓
宗
官
定
宛
宜
宝
客
宣
室
宮
宰
害
家
容
宾
宿
寄
寅
密
富
寒
察
寧
審
寫
寬
寮
寸
对
寺
寻
寽
対
寿
封
尃
射
将
將
專
尉
尊
尋
尌
對
小
少
尒
尓
尔
尖
尗
尚
尞
尢
尣
尤
尧
尨
尭
就
尸
尹
尺
尻
尼
尽
尾
尿
局
居
屈
屋
屎
屏
屑
展
屖
屚
属
屠
屡
屬
屮
屯
屰
山
屵
屾
岁
岂
岑
岡
岩
岳
岸
峯
島
崇
崑
崔
崖
崙
崩
嵬
嶲
巂
巛
川
州
巟
巠
巢
巤
工
左
巧
巨
巩
巫
差
己
已
巳
巴
巷
巸
巽
巾
巿
帀
市
布
希
帚
帛
帝
带
師
席
帶
常
干
平
年
幵
并
幷
幸
幺
幻
幼
幽
幾
广
広
庄
床
底
店
庚
府
度
庫
庭
庶
康
庸
廉
廌
廛
廣
廩
廴
延
廷
建
廾
廿
开
弁
弃
弄
弇
弋
式
弓
弔
引
弗
弘
弜
弟
弥
弦
弱
張
強
强
彊
彌
彎
彐
彑
当
彔
录
彖
彗
彡
形
彥
彦
彧
彭
彳
役
彼
往
待
律
徒
得
徙
從
復
微
徵
心
忄
必
忌
忍
志
忝
忠
忩
快
念
忽
忿
思
怠
急
怱
恆
恒
恩
恭
息
悉
患
悤
悲
悶
惠
惡
惢
愁
愈
意
愛
感
慈
慧
慮
憂
憲
應
戀
戈
戉
戊
戋
戌
戍
戎
成
我
戒
戔
或
戚
戠
戢
截
戲
戶
户
戹
戼
戾
房
所
扁
扇
手
扌
才
打
托
执
承
折
拉
拜
拿
掌
推
提
摩
支
攴
攵
收
攸
改
放
政
敄
敏
敕
敖
敗
敝
敞
敢
散
敦
敫
敬
数
敷
數
斂
文
斉
斊
斗
斤
斥
斩
斬
斯
新
方
於
施
斿
旁
旋
族
无
旡
既
旣
日
旦
旧
旨
早
旬
旱
旲
时
旾
昆
昇
昌
昍
明
昏
易
昔
昗
昜
星
春
昬
是
昱
昴
昷
時
晃
晋
晏
普
景
晶
智
暑
暴
曇
曩
曰
曲
曳
更
曷
書
曹
曼
曾
替
最
朁
會
月
有
朋
服
朔
朕
朗
望
朝
木
朩
未
末
本
札
朮
术
朱
朵
朶
朿
杀
杏
杜
束
条
来
東
杲
杳
松
析
林
枚
果
枝
枲
枼
某
柔
查
柬
柰
柴
栗
桀
桑
桼
梁
條
梟
梨
棘
棠
棥
森
楚
業
楽
榮
樂
樊
欠
次
欣
欮
欲
欶
欽
款
歆
歇
歛
止
正
此
步
武
歨
歪
歮
歯
歰
歲
歴
歷
歸
歹
歺
死
殤
殳
段
殷
殸
殹
殺
殻
殿
毋
毌
母
每
毒
比
毕
毚
毛
毳
氏
氐
民
气
氣
水
氵
氶
氷
永
氺
氾
求
汝
汞
江
沃
沓
沙
沝
泉
法
波
泣
泥
泰
洛
洪
活
派
流
浦
浪
浮
淡
淮
清
渚
渠
湯
滿
漸
火
灬
灭
灰
灵
灷
炅
炎
炏
炗
炙
炭
為
烈
烏
烝
焉
無
焦
焱
然
煞
熊
熏
燕
營
燮
爪
爫
爭
爯
爰
爱
爲
爵
父
爻
爽
爾
爿
片
牙
牚
牛
牜
牟
牢
牧
牪
牽
犀
犬
犭
犮
狂
狄
狊
独
狺
猋
猒
猪
献
獻
玄
率
玉
王
玟
玨
珎
班
琴
瑟
瑩
瓜
瓦
甘
甚
生
産
用
甫
甬
田
由
甲
申
电
甶
男
甸
甹
画
甾
畀
界
畏
畐
留
畜
畟
畢
畧
畨
番
畫
異
畱
當
畺
畾
疊
疋
疌
疑
疒
疾
癶
癸
癹
登
發
白
百
皀
皃
的
皆
皇
皋
皐
皕
皮
皷
皿
盃
盆
盇
盈
益
盍
盎
监
盒
盖
盛
盡
監
盤
盧
目
直
相
盾
省
眇
眉
看
眔
眞
真
眷
眼
眾
着
睘
睪
睿
瞏
瞢
瞿
矍
矛
矞
矢
矣
知
矦
短
石
破
碎
磊
磨
示
礻
礼
祟
票
祭
禀
禁
禸
禹
禺
离
禽
禾
禿
秀
秃
秉
秋
科
秝
秦
移
稟
穀
穌
穴
究
穹
空
穿
突
窄
窒
立
竒
竜
竝
竟
章
童
竹
笑
笠
筆
等
答
箕
算
箴
節
篤
篭
米
粉
粛
粟
粤
粦
粲
糞
糸
糹
系
約
納
素
索
紫
累
細
絜
絫
絲
維
綿
縣
繇
纍
纟
缶
网
罒
罔
罕
罗
罙
罡
罢
罪
署
罷
羅
羊
羌
羍
美
羔
羕
羗
羞
羡
羣
群
義
羲
羸
羽
翁
翏
習
翕
翟
翠
翼
老
耂
考
者
耆
而
耎
耑
耒
耳
耴
耶
耷
聂
聊
聖
聚
聶
聿
肀
肃
肅
肉
肖
肙
肥
肩
肯
育
肴
胃
背
胡
胥
能
脊
脩
膚
臣
臤
臧
自
臬
臭
臯
臱
至
致
臺
臼
臽
臾
臿
舀
舂
舄
與
興
舉
舌
舍
舛
舜
舞
舟
般
艮
良
色
艸
艹
艾
芒
芔
芬
芮
花
芳
芺
芻
苔
苗
苟
若
苦
英
茶
茸
荅
草
荒
荣
荼
莆
莧
莫
莽
菆
菊
菐
華
萬
落
葉
著
葛
董
葵
蒙
蒦
蒼
蓋
蓬
蓺
蔑
蔡
蕉
蕭
薄
薛
薦
薰
藍
藏
藥
蘭
虍
虎
虐
虒
虔
處
虖
虗
虘
虚
虛
虜
虞
虫
虽
蚤
蚩
蜀
蜜
蟲
蠡
血
行
衍
衛
衣
衤
表
衮
衰
袁
袞
褭
褱
襄
襾
西
覀
要
覃
見
規
覓
覧
親
覽
见
角
解
言
訁
訇
計
詹
誩
諸
讠
谷
豆
豈
豊
豐
豕
豖
豙
象
豦
豩
豪
豸
貇
貝
貞
貟
負
貢
貧
貪
貫
責
貳
貴
買
費
賁
資
賈
賏
賓
賔
賛
賞
賢
賣
質
賴
贊
贝
贡
责
贯
贲
贵
赖
赞
赤
赦
走
越
趙
足
路
蹇
身
躬
車
軍
軎
軟
輦
车
辛
辜
辟
辥
辰
辱
農
辵
辶
边
达
过
近
连
迷
追
退
送
逆
逐
通
速
造
逢
連
逮
進
遀
遂
過
道
達
遣
適
遷
遺
邊
邑
邕
那
邦
邪
郎
部
郭
都
鄉
酉
酋
配
酓
釆
采
里
重
野
量
金
釒
錢
钅
長
镸
长
門
閃
閉
開
閏
閑
閒
間
閔
閵
閻
闌
门
间
闷
阑
阜
阝
阿
降
陳
隆
隊
隋
隡
隨
隱
隶
隹
隺
隻
隼
隽
难
雀
雁
集
雈
雋
雍
雐
雔
雙
雚
雜
雝
離
難
雨
雩
雪
雲
零
雷
需
霍
霜
霝
霞
霸
靈
靑
青
非
靡
面
靣
革
韋
韦
韭
韯
韱
音
頁
頃
項
須
頗
頡
頻
顛
页
風
风
飛
飞
食
飠
養
饣
首
香
馬
馮
駦
马
骨
高
髟
鬥
鬯
鬲
鬼
魚
魯
鮮
鱼
鲁
鳥
鳳
鸟
鹵
鹿
麃
麗
麥
麦
麻
黃
黄
黍
黎
黑
黒
黨
黹
黽
黾
鼎
鼓
鼠
鼻
齊
齋
齐
齒
齿
龍
龙
龜
龟
龠
龰
龱
龴
龵
龶
龷
龸
龹
ꞗ
者
艹
？
🜨
𠀁
𠀃
𠀆
𠀉
𠀎
𠀐
𠁁
𠁣
𠂆
𠂇
𠂈
𠂉
𠂊
𠂋
𠂎
𠂒
𠂔
𠂛
𠂡
𠂢
𠂤
𠂬
𠂭
𠂹
𠃊
𠃋
𠃌
𠃍
𠃎
𠃑
𠃓
𠃔
𠃜
𠄌
𠄎
𠄠
𠄢
𠆢
𠆥
𠇍
𠈌
𠌵
𠓜
𠔉
𠔥
𠔼
𠔽
𠔿
𠕀
𠕁
𠕋
𠘧
𠘨
𠙻
𠙼
𠚏
𠚒
𠚤
𠚪
𠣏
𠤎
𠤕
𠥓
𠦄
𠦑
𠦝
𠧒
𠧗
𠧪
𠩺
𠪚
𠫓
𠫔
𠫤
𠬛
𠬝
𠬞
𠬢
𠬤
𠬶
𠮛
𠮦
𠮷
𠯑
𠱠
𠳮
𠷎
𡈼
𡉀
𡉵
𡌥
𡍮
𡏳
𡕒
𡕩
𡕰
𡖅
𡗗
𡗜
𡘆
𡘤
𡧱
𡨄
𡩧
𡬠
𡭽
𡰣
𡰥
𡰪
𡰯
𡰱
𡷈
𡸁
𡿨
𡿩
𡿪
𡿺
𢀖
𢀛
𢀩
𢁙
𢆉
𢆰
𢆶
𢇁
𢇇
𢉖
𢌬
𢌿
𢏚
𢑑
𢑚
𢖻
𢙣
𢛳
𢦏
𢦒
𢧵
𢼄
𢾕
𣁋
𣄼
𣅀
𣅽
𣍘
𣎳
𣎵
𣏋
𣏼
𣗥
𣥂
𣥖
𣦵
𣦼
𣧄
𣪊
𣪠
𣬉
𣳾
𣶒
𤇾
𤊽
𤐫
𤓰
𤔔
𤕨
𤣩
𤰇
𤰔
𤰞
𤴓
𤴔
𤽄
𥁑
𥁕
𥃦
𥃩
𥃭
𥇡
𥑟
𥘅
𥘈
𥝢
𥫗
𥱡
𦈢
𦉪
𦉬
𦉼
𦍌
𦍒
𦎧
𦐇
𦓔
𦔮
𦘒
𦙃
𦚏
𦣝
𦣞
𦣻
𦥑
𦥔
𦥯
𦨉
𦭝
𦰩
𧆞
𧈧
𧘇
𧰨
𧴪
𧴮
𧵩
𧾷
𨸏
𨾴
𩙿
𩠐
𩫏
𩵋
𪉷
𪜀
𪟽
𪠲
𪩲
𫇦
𫔭
𫜸
𫝀
𫠣
𫠩
𫢉
𫥞
𫩏
𫩠
𫪡
𫲽
𫶧
𬀷
𬐘
𬗌
𬙙
𬛸
𬜯
𬟩
𬯁
𬴘
𬺻
𬼉
𬼖
𭀰
𭁈
𭁨
𭅰
𭑈
𭕄
𭗼
𭤨
𭥫
𭻾
𮅕
𮊿
𮍌
𮍏
𮓗
𮥼
𮧮
廾
𰀁
𰀄
𰀈
𰀉
𰀕
𰀠
𰀡
𰀢
𰀪
𰁜
𰃮
𰆊
𰆘
𰋙
𰕎
𰢴
𰧭
𰯲
10--
12--
13--
14--
15--
16--
17--
18--
19--
24--
38--
4--
5--
6--
7--
8--
9--
a--
ac--
accord--
ag--
ai--
al--
ala--
alti--
ameri--
an--
ana--
ap--
ar--
as--
ase--
at--
au--
b--
ba--
bal--
bala--
be--
beka--
bi--
bio--
bo--
br--
bro--
bu--
bula--
bur--
c--
ca--
caka--
cal--
cari--
cellu--
cham--
chr--
ci--
ciwasaga--
ciwasagavuli--
co--
coko--
col--
com--
con--
conce--
cre--
cu--
curr--
d--
da--
dau--
dauni--
dauvaka--
dauvei--
de--
den--
dev--
dis--
do--
domo--
dr--
dra--
dro--
du--
dyna--
e--
eco--
ed--
el--
ellip--
embry--
en--
eng--
equ--
er--
eth--
eu--
eura--
euro--
f--
fa--
fe--
fen--
fer--
fi--
fid--
fila--
fin--
fo--
fr--
frac--
fu--
fuz--
g--
ga--
gab--
gani--
gar--
ge--
geo--
gi--
go--
gone--
gr--
grad--
gu--
h--
ha--
hab--
he--
hel--
her--
ho--
hol--
hu--
hy--
i--
ima--
in--
inclu--
ind--
infra--
inter--
iq--
ir--
is--
ita--
ituku--
ivaka--
ivo--
j--
ja--
je--
jo--
ju--
k--
ka--
kab--
kai--
kasi--
kau--
kawa--
ke--
ken--
ker--
ki--
kil--
kilo--
kiri--
kiu--
ko--
ku--
kua--
kumu--
l--
la--
lai--
lan--
land--
lati--
le--
levu--
lewe--
leweni--
li--
lo--
loma--
lu--
lumi--
m--
ma--
macro--
mag--
magni--
maka--
make--
mal--
mam--
man--
mar--
mata--
me--
meta--
mi--
milli--
mo--
mon--
mu--
n--
na--
nau--
ne--
ni--
niu--
no--
nov--
nu--
nuita--
nur--
o--
ole--
on--
op--
or--
orb--
osa--
out--
ov--
oxi--
p--
pa--
pala--
pan--
par--
para--
parad--
pat--
pe--
petro--
pho--
pi--
pig--
pin--
pl--
plan--
po--
poly--
pr--
pre--
preci--
pro--
projecti--
pu--
q--
qa--
qi--
qu--
quan--
r--
ra--
rai--
ravu--
re--
regi--
repr--
ri--
ris--
ro--
rogo--
roka--
ru--
s--
sa--
saka--
sal--
samu--
saqa--
sau--
sc--
sco--
se--
sec--
sev--
sh--
sha--
si--
so--
sover--
sp--
spe--
spec--
sperma--
sq--
st--
struc--
su--
sub--
syn--
t--
ta--
taba--
tai--
tala--
tam--
tas--
tau--
tawa--
tax--
te--
ten--
termi--
th--
ti--
til--
tini--
to--
toro--
tr--
tro--
tu--
tubu--
tunu--
tuva--
ty--
u--
uku--
ul--
ulu--
un--
under--
uni--
v--
va--
vaka--
vakai--
vakami--
vaku--
valeni--
ve--
vei--
veika--
veivaka--
ver--
vere--
vi--
via--
vien--
virita--
vis--
vo--
vola--
voli--
voro--
vosa--
vu--
vuru--
w--
wa--
wai--
wase--
we--
web--
wɪ--
x--
y--
ya--
yalo--
yau--
z--
--0
--00
--1
--2
--3
--4
--49
--5
--53
--6
--7
--71
--8
--85
--9
--94
--a
--aceae
--ad
--ae
--aka
--aki
--al
--ally
--an
--ar
--ary
--at
--ata
--ate
--b
--ba
--bi
--ble
--bu
--bui
--c
--ca
--cal
--can
--ce
--cea
--ceae
--ces
--ch
--cht
--ci
--ck
--co
--coko
--cs
--cus
--cy
--d
--da
--dae
--de
--dei
--di
--dic
--do
--dra
--dre
--du
--e
--ea
--ear
--ed
--el
--en
--ensis
--eo
--er
--ers
--ery
--es
--et
--eu
--eum
--ew
--f
--fa
--ft
--g
--ga
--gan
--gatataki
--ge
--gen
--ger
--gi
--gical
--gie
--gn
--go
--gs
--gu
--gy
--h
--her
--hi
--hic
--hy
--i
--ia
--ic
--ica
--ice
--ics
--id
--idae
--ids
--ie
--ies
--ig
--ii
--im
--in
--ine
--ing
--io
--ion
--ium
--ix
--ization
--k
--ka
--kau
--ke
--kes
--kh
--ki
--ko
--ks
--ku
--l
--la
--lar
--lau
--lawa
--ld
--le
--levu
--li
--lic
--lili
--lis
--ll
--lly
--loa
--logy
--ls
--lt
--lu
--lus
--ly
--m
--ma
--mai
--man
--me
--mel
--ment
--mi
--mic
--most
--mu
--muni
--n
--na
--naka
--nas
--nce
--nd
--ne
--ng
--ni
--nia
--nica
--nics
--nk
--ns
--nsis
--nt
--nts
--nu
--nuinui
--nus
--ny
--o
--oi
--on
--oni
--ons
--op
--os
--p
--pe
--pur
--qa
--qi
--qo
--qu
--r
--ra
--raki
--rau
--rd
--rds
--re
--rea
--res
--ri
--ria
--rides
--rk
--rl
--rm
--ro
--rs
--ru
--rum
--ry
--s
--sa
--sagavulu
--se
--sei
--ses
--si
--sia
--sis
--so
--sphere
--ss
--st
--ster
--sts
--t
--ta
--tabu
--taka
--taki
--talanoa
--tau
--te
--ted
--ter
--teri
--tes
--th
--ti
--tic
--tics
--ties
--tion
--to
--toba
--tology
--tor
--tovolei
--try
--ts
--tt
--tu
--tus
--ty
--u
--ual
--uble
--ue
--ular
--um
--uous
--ur
--us
--v
--va
--vaki
--vale
--vanua
--ve
--ver
--vesu
--vi
--vu
--w
--wa
--wai
--waqa
--wase
--wi
--wn
--x
--y
--ya
--yaki
--yaya
--yl
--ys
--z
--za
