!
"
#
##0
##1
##10
##11
##12
##13
##14
##15
##16
##17
##18
##19
##2
##20
##21
##22
##23
##24
##25
##26
##27
##28
##29
##3
##30
##31
##32
##33
##34
##35
##36
##37
##38
##39
##4
##40
##41
##42
##43
##44
##45
##46
##47
##48
##49
##5
##50
##51
##52
##53
##54
##55
##56
##57
##58
##59
##6
##60
##61
##62
##63
##64
##65
##66
##67
##68
##69
##7
##70
##71
##72
##73
##74
##75
##76
##77
##78
##79
##8
##80
##81
##82
##83
##84
##85
##86
##87
##88
##89
##9
##90
##91
##92
##93
##94
##95
##96
##97
##98
##99
$
%
&
'
(
)
*
+
,
-
.
/
0
00
000
01
02
03
04
05
06
07
08
09
1
10
100
1000
104
106
107
108
1086
109
11
1100
113
115
116
117
118
119
11940
12
120
121
123
125
126
13
130
1314325
14
14974
15
150
15924
16
165
17
172
174
18
180
1800
1802
1851
1881
1887
1897
19
1900
1902
1904
1911
1914
1920
1921
1922
1923
1926
1928
1930
1931
1932
1933
1934
1935
1937
1938
1940
1942
1943
1944
1945
1947
1948
1949
1950
1951
1952
1953
1954
1955
1956
1957
1958
1959
1960
1961
1962
1963
1964
1965
1966
1967
1968
1969
197
1970
1971
1972
1973
1974
1975
1976
1977
1978
1979
1980
1982
1983
1984
1985
1986
1987
1988
1989
1990
1991
1992
1993
1994
1995
1996
1997
1998
1999
2
20
200
2000
2001
2002
2003
2004
2005
2006
2007
2008
2009
2010
2011
2012
2013
2014
2015
20150905
20150905215836
2016
2017
2018
2019
202
2020
2021
2022
2023
21
215
22
221
23
233
24
240
245
25
250
26
266
27
270
279
28
29
291
297
3
30
300
31
31635
3166
32
33
331
34
340
346
35
350
36
3629268
37
375
382
385
39
4
40
400
41
42
43
44
446
447
45
460
47
48
49
5
50
500
501
51
52
521
525
5253
5281
53
54678
55
550
57
58
6
60
600
61
63
63869
639
67
68
69
7
70
700
71
72
720
75
76
79
798
8
80
800
801
81
83
84
85
87
87348
88
9
90
900
92
93
97
978
990
:
;
<
=
>
?
@
\
_
`
a
aa
aaa
ab
abaca
abbr
abbreviated
abbreviation
abbreviations
abbrn
abc
abijan
abin
able
aboriginal
about
above
abovestyle
abraham
absence
absent
absolute
abu
abubakar
abuja
abundance
abya
academy
accept
acceptable
accepted
accepts
access
accessdate
accessed
accessibility
accessible
accompanying
accordance
according
accordingly
account
achi
achieve
achieved
achievement
achievementtable
acre
acres
across
act
action
activate
active
activeusers
activist
activities
actor
acts
actual
actually
ad
ada
adam
adaptive
adara
add
added
adding
addition
additional
address
adds
adebayo
adedeji
adekunle
aden
adequate
adha
adipiscing
adj
adjectival
adjective
adjust
adjusts
administrative
administrator
administrators
admins
adolf
adopt
adopted
adua
advance
advanced
adven
advice
advised
affairs
affect
affixes
afi
africa
african
afrika
afro
after
afterwards
ag
again
against
agbaje
age
agency
agents
aggregation
agriculture
agwatyap
agwom
agworok
ah
ahechtbot
ahmadu
ahmed
ai
aid
aids
air
airi
aise
ajentina
ajure
akau
akpa
aksut
akulu
akure
akwa
al
ala
alabama
alan
alba
albrecht
alcoholic
alexander
alfred
ali
alias
aliases
align
aligned
aliqua
aliyu
all
allegro
alliance
allium
allow
allowed
allowing
allows
almost
alone
along
alongside
alpha
alphabet
alphabetically
already
also
alt
alter
altered
alternate
alternative
alternatively
alternatives
alters
although
altitude
always
amada
amazon
ambassador
ambique
ame
america
american
amerigo
amerika
amet
among
amos
amount
amp
an
analysis
anchor
anchors
ancient
and
andrew
android
ang
angeles
anggi
anggola
anghan
angle
angola
ani
animal
anno
annotation
annual
anon
anonymous
another
anthem
anthony
anton
any
anyone
anything
ap
apc
apis
appear
appearance
appearances
appearing
appears
appending
applicable
application
applications
applied
applies
apply
applying
approach
appropriate
appropriately
approximately
apps
april
apyia
ar
ara
arab
arabi
arabic
arbitrary
archbishop
archive
archived
archives
archiving
are
area
areas
args
argument
arguments
arial
aristotle
armenia
armenian
arms
armstrong
army
around
arrange
art
article
articles
artificial
artist
arts
arxiv
arxive
as
ascension
ascii
aseret
ashanti
ashe
asholyio
asia
asian
asiatic
asin
asking
assembly
assigned
assigning
assimilated
associate
associated
association
assume
asterisk
at
atatu
athlete
athletes
athletic
athletics
athresult
ati
atik
atomic
attakar
attempt
attempts
attribute
attributes
attribution
atyap
au
audio
audu
august
austin
australia
author
authority
authors
auto
automated
automatic
automatically
autovalue
available
average
avignon
aviɲɔ
avm
avoid
avoided
avoiding
awa
award
aware
awolowo
aye
ayu
azikiwe
b
ba
baai
baan
baat
baba
babangida
back
background
backwards
bacon
bacyuang
bad
bada
bafoi
bagina
bagwam
bah
bahara
bai
bajju
baka
bakeang
bakulu
bala
balilyem
balyem
bam
bamako
bambara
ban
band
bang
bank
banking
banks
banner
banshan
bantyok
bar
barde
bare
bari
barr
barris
barry
basa
base
based
basestyle
basho
basic
basis
basot
bassey
bat
bayelsa
bayero
bayoloji
bbc
bc
be
beam
beang
because
become
becomes
been
before
begin
beginning
begins
behave
behavior
behaviour
being
belarut
bello
belonging
below
belowstyle
belt
belvidere
beneath
benefits
benin
beniya
benson
benue
benuwe
ber
berlin
berom
beside
best
beta
better
between
bevo
beware
bg
bi
biafra
bibcode
bible
biblegateway
bibleref
biblical
bibliographic
bibliography
bibya
bibyin
bibyintyok
big
biggest
bight
bilady
biliyon
billion
bin
bini
biographies
biography
biorxiv
biru
bisa
bishop
bissau
bit
bitiyong
bitiyonɡ
bityong
biu
biya
black
blacklist
blacklisted
blah
blank
blaustein
blench
blica
block
blocks
bloomberg
bloomsburg
blue
bmc
bo
board
body
bodyclass
bodystyle
bold
boldfacing
bom
bond
bone
bonyi
book
books
boolean
boone
border
borderless
borders
born
borop
boroughs
bosin
bot
both
bots
botswana
bottom
box
boxes
boxing
boy
br
braces
brackets
brasil
brazil
break
breaking
breaks
brewer
bridge
brief
britannica
british
broken
bronze
brother
brown
browser
browsers
bu
bubuk
bubwom
bubwong
bubwuk
bug
buhari
built
buja
bula
bullet
bulletless
bullets
bun
bundle
bundled
bung
bunggwon
bungwon
bunɡwon
burkina
burkinabe
bushman
business
buson
but
buti
button
bwak
bwan
bwat
bwoi
bwok
bwokntswam
bwom
bwomtsot
bwong
bwonu
bwu
bwuak
bwuang
bwung
bwuo
bwuok
by
bya
byafra
bye
byi
byia
byian
byii
byiik
byin
byina
byincok
byintyok
byintyokshan
byoot
c
ca
caad
caat
cac
cache
cadi
cadik
caesar
caina
cairo
cak
calculated
calculations
calendar
california
call
called
calls
cam
cambridge
came
cameroon
cameroun
can
canada
canadian
cang
cannot
cap
cape
capital
capitalization
capitalized
capitals
caps
caption
captionstyle
cardinal
care
careful
carefully
carifta
carl
carrying
cars
case
cases
cat
catalog
catch
categories
categorization
categorize
categorized
categorizes
category
catholic
cause
causes
caution
cbn
cd
ce
celebrating
cell
cells
cen
cenkwon
census
center
centered
central
centre
century
ceo
certain
cervantes
cet
cetera
ceuta
cfr
chad
championships
change
changed
changes
changing
channel
chapter
chapters
character
characters
charles
chart
che
check
checked
cheung
chicago
chief
child
children
china
chinese
choice
choices
choose
choosing
chosen
chris
christ
christian
christianity
christmas
christopher
chu
church
ci
cia
ciaaw
cif
circa
circumstances
citation
citations
cite
cited
citeref
citeseerx
cities
citing
citizenship
citoid
city
civil
ciya
claim
class
classes
classical
classification
claudia
cleanup
clear
clearly
cleopatra
click
clicking
clio
clip
clipped
clock
close
closed
closing
clutter
cm
co
coaches
coast
coat
cobai
cod
code
coded
codes
coins
cok
col
coll
collapse
collapsed
collapsible
collapsing
collected
collective
college
colon
color
colored
colors
colour
colours
columbia
columbus
column
columns
colwidth
com
comb
combination
combinations
combined
combines
coming
comma
command
commandments
commas
comment
comments
commission
common
commonly
commons
commonscat
commonwealth
community
companies
companion
company
comparable
compare
compared
comparing
comparison
comparisons
compatibility
compatible
compete
competing
competition
complete
completed
completely
complex
compliant
complications
composition
computed
computer
con
concatenation
concept
concise
conference
conflict
conflicts
confused
confusing
cong
congo
congress
connected
consectetur
consensus
consider
considered
consistency
consistent
consistently
consisting
consists
constitution
constructed
constructing
consult
contain
contained
container
containing
contains
contemporary
content
contents
context
contextually
contiguous
continent
continuum
contrast
contribution
contributions
contributor
control
controlling
controls
convenient
convention
conventions
conversion
conversions
convert
converted
converting
converts
cookbook
coor
coordinate
coordinates
copied
copy
copying
cora
corbusier
cori
corner
cornwall
coronavirus
corporate
corporation
corps
corpus
correct
correctly
correspond
corresponding
corridor
corta
cosmoglotta
coson
cot
could
council
count
counter
counting
countries
country
counts
county
course
cover
covers
covid
cow
create
created
creates
creating
creation
credit
credited
cree
cross
cs
css
cuba
cucuk
cuk
cultural
culture
cuneiform
cung
cunha
cup
currency
current
currently
cursor
custom
customary
customised
customized
customizing
cuwang
cwan
cwt
cya
cyet
cyetaneang
cyi
cyia
cyian
cyikwop
cyin
cyok
cyrillic
cyuang
cyui
czech
d
da
daa
dab
daba
dai
daily
dairekto
dak
dali
dam
dan
dandi
dangote
daniel
danjuma
darekto
dash
dashes
dat
data
database
date
dates
daughter
david
dawlat
day
daylight
days
dd
de
dead
death
debate
decay
december
decide
decimal
decreasing
dedicated
dee
def
default
defaults
defence
define
defined
defines
definition
definitions
degrees
dei
del
delayed
deleted
delta
demo
democracy
democratic
demographics
demonstrate
demonstrated
demonstration
demonym
demospace
denominator
denote
denotes
density
department
depending
depends
deprecated
depth
der
des
descent
describe
described
describes
describing
descripcio
description
descriptions
design
designed
desirable
desired
desk
desktop
desmond
despite
destination
detailed
details
detect
detected
detection
detects
determine
determined
determines
deutschland
developed
developing
development
devices
df
dflt
di
diabetes
diacritic
diacritics
dialect
dialects
dibrot
dicaprio
dictionary
die
diego
dies
differ
difference
differences
different
differentiate
differently
differs
difficult
digit
digital
digits
dimensions
din
dini
diocese
direct
directional
directly
director
disable
disabled
disamb
disambiguate
disambiguation
discouraged
discourse
discuss
discussed
discusses
discussion
discussions
disease
diseases
disp
display
displayed
displaying
displays
dissertation
distance
distinct
distinctions
distinguish
distinguishable
distinguishes
districts
distrik
dit
div
dividers
division
djibouti
dl
dlamini
dm
dmy
dni
do
doc
document
documentary
documentation
documented
documents
dodo
does
doesn
dog
doi
dokpesi
dolor
dolore
domain
domini
dominic
don
done
doot
dot
double
doubleday
down
downloadable
dr
draft
drop
ds
dst
dt
dte
du
dual
dudu
due
duke
duna
dunam
dunams
dundung
dung
duplicate
duration
during
duwak
dyang
dyep
dyundyung
dyuut
dz
e
each
early
earth
easier
easily
east
eastern
easy
eating
eau
eb
ec
economic
economics
economy
ed
eddie
edgar
edge
edit
edited
editing
edition
editions
editnotice
editor
editors
edits
edu
educated
education
edward
ee
effect
effective
effectively
efficiency
efn
egypt
egyptian
eid
eight
eighth
einstein
eissn
either
eiusmod
el
election
electronic
element
elements
elevation
eleventh
eliminated
elit
elizabeth
ellipsis
else
elsewhere
em
embed
embedded
embedding
emblem
eme
emit
emits
emitted
emmanuel
empire
empty
emptystring
en
enable
enabled
enables
enahoro
enclose
enclosed
encloses
encoded
encounter
encouraged
encyclopaedia
encyclopedia
encyclopedic
encyclopædia
end
ending
endocrine
engineering
engineers
engines
england
english
enough
ensure
ensures
enter
entered
entering
entire
entirely
entities
entity
entries
entry
environment
environmental
enwiki
episode
equal
equality
equals
equatorial
equivalent
equivalents
era
eritrea
error
errors
errortext
ertra
es
esan
escaped
especially
essays
essentially
est
esta
established
establishment
esther
estimate
estimates
esv
eswatini
et
etc
ethiopia
ethnicity
ethnologue
eu
europe
european
evaluated
evaluates
even
event
events
every
everything
ex
exactly
examining
example
examples
except
exception
exclude
exclusion
execution
exen
exist
existing
exists
exodus
exotic
expand
expanded
expected
experience
explanatory
explicit
explicitly
explorer
expressed
expressing
expression
expressions
extend
extended
extension
extensively
external
extinct
extra
extract
extracted
extraction
extreme
eye
f
fa
faat
facebook
facilitate
fact
factbook
factor
factors
facts
fafaan
fafap
fahrenheit
fai
fail
fair
faith
fak
fakan
falling
falls
false
fam
family
famkhai
famtyok
fan
fang
fani
fantswam
fap
fashion
faso
favor
fc
fe
feang
feap
feature
features
featuring
february
fed
federal
federation
feed
feedback
feet
feminism
fetch
few
fewer
fganistan
fi
field
fields
fifa
fifth
fig
fighting
figure
figures
file
filename
files
filipin
fill
filled
film
filosofi
fim
final
financial
find
finished
firefox
first
fit
fitr
five
fix
fixed
fixes
fizik
flag
flatlist
flexibility
flip
float
floated
floating
floats
florenz
florida
fold
follow
followed
following
follows
font
fonts
fontsize
foo
food
foot
football
footer
footnote
footnotes
for
force
forces
foreign
forks
form
format
formats
formatted
formatting
formed
former
formerly
formosa
forms
forth
fortschritte
forum
forward
found
foundation
founded
founder
four
fourth
fowler
fr
frac
fraction
fractional
fractions
franc
france
francis
francisco
franz
free
french
freud
friedrich
friendly
frietjes
frisian
from
front
ft
ftin
fu
full
fully
function
functionality
fund
further
furthermore
fury
future
fuut
fwan
fwu
fwuam
fwuang
fwun
fwung
fwuo
fwuoi
fwuon
fwuong
fwuop
g
ga
gaat
gabon
gadget
gagarin
gah
gak
gal
gallon
gambya
game
games
gan
gana
gap
gaps
gawa
gaza
gb
gba
gbaat
gbagyi
gbaham
gbak
gban
gbandang
gbang
gbangbang
gbi
gcfr
ge
gea
gen
gender
general
generally
generate
generated
generates
generating
generation
generic
genesis
geneva
genus
geocode
geoffrey
geographic
geographical
geography
georg
george
germain
german
germany
get
gets
gh
gha
ghai
ghana
ghwak
ghwang
ghwangkpang
ghwon
ghwop
ghwughwu
ghwut
ghya
ghyang
ghyi
ghyiang
ghyui
gi
giacomo
gidan
gigametre
gini
giovanni
give
given
gives
giving
giwa
gje
global
glory
gloss
glottolog
gm
go
god
goes
gogh
gogo
going
gold
gonggola
good
goodluck
goodwill
google
gora
got
gov
governing
government
governor
governors
goya
grand
graphic
grc
great
greater
greek
green
greenfield
greenville
gregorian
gregory
grey
grid
group
grouped
groupn
groupname
groups
groupstyle
grove
growth
gu
guardian
guevara
guguut
guide
guideline
guidelines
guides
guine
guinea
gulf
gum
gumaat
gurma
gurup
gustav
gutenberg
gwai
gwak
gwaklyen
gwaktyiet
gwam
gwamna
gwandara
gwantu
gwatyap
gwaza
gwom
gwombe
gwomna
gwong
gwoot
gworok
gyet
h
ha
had
hah
haikai
haiku
hair
hakka
half
hall
ham
hamat
han
hand
handle
handled
handling
handwritten
hanja
hans
hanyu
happened
happens
harare
harbi
harcourt
hard
harm
harrison
harv
harvard
has
hashanah
hassan
hatikvah
hatnote
hausa
have
having
hdl
he
head
header
headers
heading
headings
heads
health
heard
heavyweight
hebrew
hectares
height
helat
helen
helena
help
helpful
helps
helvetia
henry
hepburn
here
heritage
heroes
hi
hidden
hide
hides
hiding
high
higher
highest
highlight
highlighted
highly
hindi
hints
his
hisi
histname
historic
historical
history
hl
hlist
ho
holan
hold
holding
holidays
home
honey
honeycomb
hong
hope
horizontal
horse
horses
host
hours
house
housing
houston
hover
hovers
how
however
hs
html
http
https
hu
huang
huge
hughes
huhwa
human
hundreds
huni
hw
hwa
hya
hyaai
hyaat
hyam
hyap
hyat
hydragas
hydrographic
hydrolastic
hyet
hyia
hyiak
hyohyoot
hyperlink
hyphen
hyphenated
hyun
hyw
i
ibadan
ibn
ibrahim
icon
icons
id
idahosa
idea
ideas
identical
identification
identifier
identifiers
identifies
identifying
identity
idi
idiom
idoma
idon
ids
ie
ietf
if
ife
ifeajuna
igala
igbo
ignored
igueben
iho
ii
iii
ijebu
ika
ikiti
ikulu
il
ile
illegal
illustrate
illustrated
ilorin
image
imageleft
imageleftn
imagen
imageright
images
imagestyle
imbedded
imdb
immediately
impaired
imperial
implementation
implemented
implies
importance
important
imported
impossible
improve
in
inadvisable
inappropriate
inc
inch
inches
incididunt
include
included
includes
including
incorporated
incorrect
incorrectly
increase
increased
incrementparams
incubator
indent
indentation
independence
independent
independently
index
india
indicate
indicated
indicates
indicating
indication
indicators
indigeneity
indigenous
individual
individually
indo
indonesia
indoor
industrial
industries
infection
info
infobox
infoboxes
infoboxflag
infoboxgap
inform
information
inhabitants
inherit
inherits
initial
initials
inline
input
insensitive
insert
inserted
inserts
inside
inspect
installation
instance
instances
instead
institute
institution
instruction
instructions
instrumental
insufficient
integer
intelligence
intended
intent
intentional
inter
interaction
interest
interface
interior
interlingue
intermediate
internal
international
internet
interpret
interpreted
interview
interwiki
into
introduction
introductory
inugu
invalid
investigation
invisible
invocation
invocations
invoke
invoked
invoking
ioc
ipa
ipsum
irak
iran
irigwe
irish
irrua
is
isbn
ishan
ishaya
isi
islamic
island
islands
isn
iso
isotope
isotopes
israel
israeli
issn
issue
issues
isuu
isuwa
it
ita
italami
italian
italic
italicization
italicized
italics
italiya
italy
itambut
item
items
its
itself
ityopya
iu
iv
ivoire
ivory
iweala
ix
iyalode
j
ja
jaba
jaban
jackson
jacobs
jacques
jada
jah
jahrbuch
jak
jalinggo
jaman
james
jamhuri
jami
jan
jane
jang
january
japan
japanese
jat
javanese
jawa
je
jean
jei
jema
jemaa
jen
jenera
jenshyung
jerusalem
jet
jewel
jf
jfm
jhy
jhya
jhyang
jhyem
jhyet
jhyi
jhyiung
jhyo
jhyu
jhyuk
jhyung
jhyuo
ji
jihar
jii
jija
jijak
jim
jimmy
jini
jista
jju
jk
joan
johann
johannes
john
joined
jojot
jok
jonathan
jones
joon
jos
jose
joseph
joshua
journal
journals
jp
jpg
jr
js
jstor
julius
july
juma
jumhu
jumong
jump
jun
june
junior
junjung
jure
just
justice
k
ka
kaat
kabhekuzulu
kabinet
kabo
kadara
kaduna
kafancan
kafanchan
kagoma
kagoro
kai
kainji
kairo
kaje
kak
kakeangtung
kalak
kam
kamantan
kambwon
kamm
kan
kana
kanai
kang
kani
kanik
kanji
kano
kanton
kap
karen
karibi
kariya
karl
kasen
kashmiri
kaswuo
kat
katab
kataf
katolika
katung
kayode
kazah
ke
keang
keangtung
keep
keeping
kelvins
kemal
kemerun
kemikat
kenya
kept
kerning
key
keyboard
keyboards
keys
keyword
kg
kh
khaan
khai
kham
khap
khapsak
khat
khawa
khwarizmi
khwat
khwi
khwikpaa
khwikristi
khwiyahuda
khwo
khwom
khwong
khwop
khwot
khwu
khwui
khwuk
khwukhwop
khwup
khwut
ki
kibwot
kidee
kidoniya
kiki
kikya
kikyo
kilometer
kilometers
kilomita
kim
kin
kind
king
kingdom
kinshasa
kisi
kit
kitat
kjv
km
know
known
ko
kogi
koine
koji
komishyona
komiti
kompyuta
kong
konggo
kono
konyan
koot
korea
korean
koro
koronavirut
koti
kp
kpa
kpaa
kpaat
kpai
kpang
kpangcuk
kpangti
kpat
kpeang
kpop
krista
kristi
ksm
kti
ku
kuba
kubunyiung
kuburut
kude
kuka
kukah
kukwaat
kukwi
kukwon
kum
kumasi
kumbvuyring
kunak
kunkup
kunkwa
kuntyin
kup
kuriya
kurum
kurung
kusuru
kut
kuu
kuut
kuzamani
kuzang
kwa
kwaa
kwai
kwaifwuo
kwak
kwamam
kwambwat
kwan
kwang
kwara
kwasa
kwatak
kwi
kwoi
kwoja
kwok
kwon
kwonu
kwop
kworiya
kwot
kwup
ky
kya
kyai
kyang
kyangbwak
kyangcung
kyanglilyiit
kyangnwuan
kyangta
kyayak
kyenkyai
kyetuk
kyiai
kyiak
kyip
kyuak
kyuo
kywat
kærəktɚz
l
la
laah
laai
labeang
label
labeled
labels
labore
labour
ladi
lag
lagos
lak
lake
lakumi
lama
lan
land
lang
language
languages
lantik
large
larger
largest
las
last
lat
later
lati
latin
latitude
lato
lauper
law
laws
lay
laya
layout
laysummary
lb
lccn
le
lea
lead
leader
leaders
leadership
leading
leadout
league
learning
least
leave
leaving
lebanon
lebet
lede
lee
left
legacy
legal
legend
legwot
lekwot
length
lenin
leo
leonardo
leone
les
leslie
less
lesser
lessons
let
letter
letters
levant
level
levels
lexicon
lga
li
liberally
liberty
library
libya
liddell
lifang
life
lik
likan
like
likely
likpaa
lili
lilyem
lilyim
lima
limit
limitation
limitations
limited
limiting
limits
lincoln
line
lines
linguistic
linguistics
link
linked
linking
links
linnaeus
linter
lis
lisaaikurum
list
listed
listen
listing
listitem
listn
listnstyle
lists
liststyle
lit
lita
literacy
literal
litre
live
liverpudlian
lk
lo
load
loaded
loading
loc
local
located
location
locations
logic
logical
logo
london
long
longer
longitude
longman
look
looks
loop
lop
lord
lorem
los
loudspeaker
louis
low
lower
lowercase
ltd
ltik
lu
lua
ludwig
luk
luka
lulo
lulung
lung
luther
lyekhwot
lyem
lyen
lyennkyangta
lyia
lyiai
lyiat
lyilyim
lyim
lyin
lyip
lyon
lyoot
lyui
lyulyoot
lyuut
lywei
m
ma
maai
maat
maba
macao
mach
machine
macmillan
mada
madaki
madawaki
made
madrid
maduekwe
magata
magazine
magazines
magic
magna
magwam
mai
maikori
main
mainly
mainspace
maintenance
maj
maji
major
mak
maka
make
makes
making
mala
malformed
mali
maliyiri
mam
mameang
mami
mammals
man
management
mancesta
mandatory
manding
mang
mangfwuo
manner
mantfombi
manual
manually
many
map
maps
mapsize
marathon
march
marco
margaret
margin
maritimus
mark
marked
marker
markers
marking
marks
markup
marok
marshall
martin
marx
mashan
mashin
mask
mass
masters
mat
match
matched
matches
matching
material
materials
math
mathematical
mathematik
matsuo
matter
matthew
matyei
mawa
mawori
max
maxi
maximum
may
maybe
mayor
mazi
mazon
mba
mbaa
mbabwe
mban
mbeang
mbs
mbut
mbwak
mbwat
mbwoi
mbwom
mbwon
mbwuo
mbwuot
mbyia
mbyin
mckinney
me
mean
meang
meaning
meaningful
meaningless
meanings
means
meant
meap
measure
measurement
measurements
medal
medalist
medalists
medat
media
mediawiki
meditaroniya
mediterranean
mega
mejo
melilla
memba
member
members
memory
mentioned
menu
merchant
merit
merriam
message
messages
messaging
met
meta
metacharacter
metacharacters
metadata
metatemplate
meters
method
methods
metre
metres
metric
metro
metropolit
metropolitan
mfa
mfb
mg
mgba
mgbam
mgbii
mi
michael
michelangelo
microfinance
microformat
microformats
mid
middle
might
miguel
mikziko
mile
miles
milimita
miliniyom
military
miliyon
million
millions
mimic
min
mina
mindat
minerva
mini
minimalist
minimum
minista
ministri
ministry
minor
mint
mirror
mirrors
mis
missing
mission
misuzulu
mit
mita
mitsu
mixed
mkpa
mkpaan
mkpaat
mkpai
ml
mm
mmam
mman
mmanfang
mmanshan
mmol
mnext
mobile
moc
mode
modern
modifying
module
modules
mohammed
mohawk
mokrasi
mon
monarchs
money
monggol
monggoliya
monguno
monitor
monospace
monospaced
month
monthly
months
more
moro
moroccan
morocco
moroko
mos
moses
most
mostly
mother
motto
mount
moved
movement
movie
mozambik
mpala
mph
mpi
mpik
mprev
mpwot
mr
ms
mu
much
muhammad
muhammadu
multi
multicol
multiple
multiples
multiplication
mumwang
mun
muna
mundundung
mung
municipalities
municipality
munswat
murphy
murum
musa
museum
music
musicbrainz
must
mustafa
musulumi
mw
my
myamya
myia
myiai
myiam
myian
myim
mypage
myura
n
na
naai
naat
nai
naija
naijeriya
nail
najeriya
nal
nam
name
named
names
namespace
namespaces
namibia
namibya
nan
nandu
nang
nani
nanii
nap
nariya
narratives
narrow
narrower
nasir
nat
natat
nation
national
nationality
nations
native
natural
nature
navbar
navbox
navboxes
navigation
navigational
navy
nay
nayil
nb
nbsp
ncam
ncat
nce
ncet
nci
ncong
ncuri
nd
nda
ndang
nde
ndi
ndiya
ndo
ndonesiya
ndong
ndonisiya
ndu
nduguli
ndun
ndung
ndyen
ndyia
ndyiat
ndyo
ndyuut
ne
neam
neap
near
nearest
necessarily
necessary
need
needed
needing
needs
neet
negation
negative
neither
nerzit
nest
nested
nesting
net
netherlands
neto
network
never
new
newline
news
newspaper
newspapers
newton
next
nfa
nfai
nfak
nfam
nfang
nfeang
nfi
nfwuo
nfwuon
nfwuong
ng
nga
ngaan
ngaat
ngam
ngba
ngban
ngbiar
ngga
nggang
nggi
nggu
ngguu
nggwon
nggwoneam
nghai
nghwom
nghwughwu
nghwut
nghyang
nghyuai
ngi
ngka
ngnurung
ngori
ngozi
ngtyok
ngu
ngwa
ngwat
ngwon
ngya
ngyei
ngyet
ngyong
nh
nhu
nhyat
nhyet
ni
nia
niak
nian
niat
nice
nickname
nicknames
nienzi
niet
nietba
nietbishyi
nietbwom
nietbwuang
nietbyia
nietbyin
nietcen
nietfak
nietfuut
nietkaswuo
nietkhap
nietkhwi
nietkhwikristi
nietkhwop
nietkpaa
nietkwai
nietlyen
nietlyiat
nietlyuut
nietmaat
nietmbyin
nietnta
nietnyia
nietnzwang
nietshei
niettsot
niettyiet
nietza
niger
nigeria
nigerian
nihongo
nii
nija
nikyob
nil
nin
ninai
nindem
nine
nini
ninika
ninka
ninth
ninzam
nipost
nisam
niu
niv
nja
njei
njen
njer
njhya
njhyang
njhyung
nji
njii
njok
nka
nkaa
nkai
nkak
nkap
nkhai
nkhang
nkhap
nkhwi
nki
nkpaan
nkup
nkurum
nkwaa
nkwak
nkwambwat
nkwon
nkyai
nkyang
nkyangcung
nkyangta
nkyangzwa
nkyangzwang
nkyayak
nkyiak
nkyuo
nkywat
nl
nman
nmi
nna
nnaai
nnamdi
nnang
nneap
nnia
nnimmo
nnpc
nnwap
nnwuak
nnwuan
nnwuo
nnyia
no
nocat
noheader
nok
nolink
nominal
nomobile
non
none
nor
noreplace
normal
normally
norman
norse
north
northern
northwest
not
notably
notation
notcollapsed
note
noted
notes
notesoff
nothing
notice
notification
notoc
notsign
nouns
november
now
nowiki
nowrap
nrsv
ns
nsaai
nsaan
nsak
nseap
nshyia
nst
nsukka
nsut
nswak
nswan
nswat
nswuan
nswuo
nta
ntaa
ntak
ntanaai
ntangka
ntat
ntati
ntei
nth
nti
ntong
ntongjan
ntsa
ntsai
ntse
ntsot
ntswa
ntswam
ntung
ntyai
ntyak
ntyap
ntyia
ntyok
nu
nubase
nuhu
numana
number
numbered
numbering
numberof
numbers
numeral
numerals
numeric
numerical
nung
nungu
nunu
nupe
nusi
nvak
nvam
nvwuo
nvwuomaat
nvwuon
nvwuong
nw
nwaai
nwai
nwan
nwap
nwuai
nwuak
nwuan
nwuat
nwunwuat
nwuo
ny
nya
nyaai
nyak
nyam
nyan
nyanyan
nyanyin
nyap
nye
nyeak
nyeang
nyi
nyia
nyian
nyiat
nyin
nyinyang
nyinyiit
nyiuk
nyiung
nyu
nyuak
nyung
nyunyung
nyuuk
nywan
nza
nzaniya
nzi
nzwa
nzwan
nzwang
nzwuom
nə
o
obafemi
obasanjo
object
obsolete
occidental
occur
occurs
ocean
oceania
oclc
october
oda
ode
odigha
odt
of
off
offers
office
officer
offices
official
offline
offokaja
offset
ofisa
ofisha
ofit
often
oga
ogg
ogun
ogv
oil
okay
okene
okonjo
oktsidental
ol
old
oli
olu
olusegun
olympic
olympics
omit
omits
omitted
omitting
on
once
ondo
one
ones
ong
online
only
ontario
onto
onward
onwards
onwe
oon
opec
open
openlibrary
opera
operating
operation
opposite
opt
option
optional
optionally
options
or
order
ordered
ordering
ordinal
ordinary
org
organised
organization
organized
orig
origin
original
ornamentation
oromo
orphans
osheniya
oshun
osti
other
others
otherwise
ottoman
oumou
our
out
outcome
outer
output
outputs
outreach
outreachwiki
outside
over
overall
overlay
overridden
override
overrides
overriding
overseas
overview
ovid
own
oxford
oxygen
oyee
oyekan
oyo
oz
p
pa
pablo
pacific
padding
page
pagename
pages
pagetype
pageviews
pair
paiwan
pakistan
palace
palestine
palestinian
pali
paliti
pan
paper
papers
papua
papwa
para
paragraph
paragraphs
param
parameter
parameters
paramorder
params
parent
parentheses
parenthesis
parenthetical
paris
parit
park
parousia
parsed
parser
parserfunctions
parsi
part
partial
particular
particularly
parties
parts
party
pashi
pashto
pasi
pass
passage
passed
passing
past
pathfinder
pato
patterns
paul
paulo
payson
pc
pdf
pdp
peace
pele
pen
peninsula
pennsylvania
pentikot
people
peoples
pepa
per
percent
percentage
performance
performed
period
periodical
periods
permanent
perseus
personal
peter
petroleum
pg
philip
philippines
philips
philosophy
phonemic
phonetic
phrase
phrases
physics
pi
pia
piazza
picasso
pig
pin
pinpoint
pinyin
pipe
place
placed
placeholder
placement
places
placing
plain
plainlinks
plainlist
plan
planning
planted
plate
plateau
platform
plato
play
player
players
playing
plc
please
plu
plural
plurals
plus
pmc
pmcid
pmid
pobi
point
points
polan
policy
politeknik
political
politics
polytechnic
poor
pop
popular
populated
population
populations
port
portal
portals
portion
portuguese
pos
position
positional
positioned
positioning
positions
positive
possible
possibly
post
postal
posted
postscript
potugat
potugit
pound
power
pp
practical
practice
pre
precede
preceded
precedence
preceding
precise
precision
predefined
preemptively
pref
prefer
preferable
preferably
preference
preferences
preferred
prefix
prefixed
prefixindex
preliminary
preload
premier
premium
preprints
prerequisites
present
presentation
presented
presiden
president
presidential
press
pretend
preunit
prevent
prevents
preview
previous
prevnext
primarily
primary
prince
princess
princewill
print
prints
prize
probably
problem
problems
proceed
process
processing
produce
produced
produces
producing
product
production
prof
professional
profile
programme
progressive
progressives
project
projects
promote
pron
pronouns
pronunciation
pronunciations
proper
properly
properties
property
protect
protected
protection
protestan
proto
provide
provided
provides
providing
provin
province
ps
pt
ptisman
ptolemi
ptolemy
pu
public
publication
publicationtitle
publique
published
publisher
publishers
publishing
publishinɡ
pubmed
punctuation
purely
purge
purgelink
purpose
purposes
pushed
pushpin
put
putin
puts
px
pyia
pyipyia
pɑ
q
qat
qid
qr
quadrillion
que
queen
queens
query
question
questions
quick
quickly
quincy
quiver
quotation
quotations
quote
quoted
quotes
r
ra
raba
rabiya
race
racontas
radio
railway
rak
rama
range
ranges
rank
ranked
rankedmedaltable
ransa
raphael
rare
rarely
rate
rather
raw
rawa
raymond
razi
rd
rda
re
read
readability
reader
readers
reading
reads
real
really
reason
reasons
recently
recognized
recommend
recommendation
recommended
record
red
redirect
redirected
redirects
redlinked
redlinks
reduce
reduced
reduces
redundant
redyo
ref
refcode
refer
reference
referenced
references
referencing
referred
reflect
reflist
reformat
refs
regardless
reggae
region
regional
regions
registration
regular
regulation
rekot
rekwot
rela
related
relates
relationship
relative
relatively
release
relevant
relief
religion
religious
remain
remains
rembrandt
remember
removal
remove
removed
removes
removing
ren
renamed
rence
render
rendered
rendering
renders
renumber
replace
replaced
replacement
replaces
report
reports
represent
representations
represented
repu
republic
republican
request
requested
requests
require
required
requires
requiring
rer
research
reserved
reset
resolution
resolve
resolved
resonance
resource
resources
respective
respectively
responsible
rest
restrictions
result
resultant
resulting
results
retain
retrieved
return
returned
returns
reuters
rev
review
reviews
revised
revisions
revolution
rfc
ri
ribbon
richard
right
righthand
rights
rigwe
rika
rim
rima
ring
ringori
risk
rita
riva
rivas
rivat
river
riya
rizmi
rk
rkut
rmeniya
rno
ro
robert
roger
role
rom
romaji
roman
romanization
ronik
room
rosa
rosh
roshiya
rosi
round
rounded
rounding
rounds
routledge
rover
row
rows
rowstyle
royal
rr
rtd
rtgs
ru
rufai
rule
rules
running
runs
rural
russia
russian
ruwanda
rwanda
ryamu
s
sa
saa
saai
saan
saat
sadiq
safely
sahara
sahet
sahul
sai
saigon
sains
saint
sak
sale
salvador
sam
sambo
same
sample
samples
san
sandbox
sandboxes
sandboxlink
sandboxname
sang
sangare
sangba
sangga
sangree
sani
sankara
santos
sarah
sars
sasaaikurum
sat
saturday
savage
save
saved
saving
savings
savit
saxony
say
says
scale
scannability
scheme
schemes
scholarship
school
science
sciences
scientific
scots
scott
screen
scribunto
script
scripts
scroll
scrolling
se
sea
seal
seang
search
searches
season
seat
sebastian
sec
second
secondary
seconds
section
sections
security
sed
see
seem
seems
seen
segment
sejong
select
selected
selection
self
selfref
semantic
semantically
semi
sen
send
senegal
senegat
senior
sense
sensitive
sentence
seo
seoul
sep
separate
separated
separately
separator
separators
september
sequence
sequential
serial
series
serif
serve
server
service
services
set
sets
setting
settings
settlement
seventh
several
sezong
sf
sh
sha
shai
shall
sham
shan
shap
shared
sheda
sheep
sheffield
shei
sheikh
shekari
shi
shield
shift
shim
shimba
shisham
shit
shita
sholyia
shona
shong
shonshyon
shorcut
short
shortcut
shortcutboxplain
shortcuts
shortdescription
shortened
shorthand
shot
should
show
showcode
showing
shown
shows
shqipe
shuga
shuwa
shwai
shwit
shyei
shyia
shyiak
shyiat
shyicet
shyim
shyip
shyishyim
shyit
shyuang
shyui
si
side
sidebar
sidi
sidibe
sierra
sigfig
sign
significant
signs
sii
sil
silver
similar
similarly
simon
simple
simplified
simply
sin
sina
since
single
singular
sir
sira
sister
sit
site
sites
sitet
situation
situations
six
sixth
siya
size
sized
sizes
skin
skipped
skyline
slash
slashes
slavic
slightly
small
smaller
smith
so
soccer
social
socialist
society
sociocultural
socrates
soft
software
sok
sokoto
solid
solomon
solution
solutions
somali
somalilan
somalya
some
somecat
something
sometimes
somewhere
son
song
soo
sop
sorong
sort
sortable
sorted
sorting
sortkey
soshyalis
sot
sotbeang
sotbishyi
soter
sotnta
sound
sounds
source
sources
south
southeast
southern
sovereignty
sp
space
spaces
spacing
spain
span
spangled
spanish
sparingly
speaker
speaks
special
specialized
species
specific
specifically
specifics
specified
specifies
specify
specifying
speech
spell
spelled
spelling
spin
split
spoken
spoon
spring
sq
sqbr
square
squid
ssrn
st
stadt
staff
standard
standardization
standards
stands
stanford
star
start
starting
starts
state
statement
statements
staten
states
static
stations
statistical
statistics
status
stellenbosch
stem
stephen
sterling
sti
still
stop
stops
stored
story
street
strelya
string
strings
strip
stripped
striya
strong
structure
studies
study
studybible
style
styled
styles
styling
su
sub
subbox
subboxes
subcategories
subdivided
subdivision
subdivisions
subgroups
subheader
subheading
subheadings
subject
subpage
subpages
subscription
subsection
subsequent
subset
subst
substitute
substituted
substitution
successfully
such
sudan
suff
sufficient
suffix
suffixed
suffixes
sufi
suggested
suggestedvalues
suitable
sultan
sum
summary
summer
sun
sunday
suni
sunkurum
super
superscript
superscriptn
supplement
supplied
supply
supplying
support
supported
supporting
supports
suppose
suppresed
suppress
suppressed
suppresses
suppressing
suppression
sure
suriya
surname
surnames
surrounded
surrounding
survey
susong
susop
susot
susotbishyi
susotnta
suspension
susuki
svg
swa
swaat
swadesh
swahili
swai
swak
swakpat
swam
swan
swang
swanta
swap
swat
sweang
sweap
swez
switch
swu
swuan
swuat
swuo
swuong
swup
sya
symbol
symbols
synonym
synonyms
syntax
synthesized
syriac
system
systems
t
ta
taa
taada
taan
taat
table
tablecen
tablerows
tables
tafa
tag
tagged
tags
tahiti
tahitian
tai
taipei
taiwan
tak
takad
takat
take
taken
takes
tako
takwot
talk
talkpage
tam
tamaza
tamil
tamm
tan
tanakh
tang
tangka
tankei
tanzania
target
targets
tashikum
tat
tatak
tazwa
tchad
te
teak
team
teang
tech
technical
technically
technique
technology
tektonik
tel
television
telvishon
temperature
temperatures
template
templatedata
templates
templatestyles
tempor
ten
terakota
teritori
term
terminal
terminating
terms
territories
territory
test
testament
testcases
tested
testing
tests
tet
text
texts
th
thai
thailand
than
that
the
thefreedictionary
their
them
themselves
then
theology
there
therefore
these
thesis
they
thi
thin
thing
things
third
this
thn
thomas
those
though
thousand
thousands
three
through
throughout
thumb
thumbnail
thus
ti
tim
time
timedtext
times
timestamp
timezone
timi
tinubu
tiny
title
titlebar
titleclass
titled
titles
titlestyle
tityak
tityan
tivi
tiwa
tiyring
tld
tm
to
toblank
toc
toclevel
toclimit
tocright
today
todemographics
todo
together
togo
tok
ton
tone
tong
tongue
too
tool
tools
tooltip
toot
top
topic
topical
topics
torah
toriya
total
totranslit
toure
tournaments
tower
town
towns
track
tracked
tracking
trade
traditional
trailing
trans
transcluded
transcluding
transclusion
transclusions
transcript
transcription
transcriptions
translated
translation
translations
translator
translators
translit
transliterated
transliteration
transliterations
transluded
treat
treated
tree
trees
tria
tribal
trick
trigger
trillion
trimmed
tristan
tropik
true
truncate
trust
try
ts
tsa
tsaai
tsak
tsan
tsang
tsat
tsatsak
tsi
tsok
tson
tsonga
tsot
tsotson
tsotswat
tsutsok
tsuung
tswa
tswak
tswam
tswan
tswana
tswaywan
tswazwa
tswot
tswuon
tu
tuba
tuk
tung
ture
turkey
turki
turkiya
turn
turning
turugbak
turung
tuska
tuta
tutu
tutuk
tutunkwaa
tutunkwambwat
tuvalu
tv
tweak
tweet
tweets
twenty
twi
twice
twitter
twittersnowflake
two
txt
tyaat
tyai
tyak
tyam
tyan
tyantung
tyap
tyat
tyeca
tyei
tyem
tyen
tyentyang
tyetuk
tyia
tyiai
tyiak
tyiang
tyiet
tyii
tyin
tyiok
tyiu
tyo
tyobyin
tyok
tyokhwu
tyokkpaa
tyokpat
tyoli
tyong
tyonyiung
tyotyap
type
typeface
types
typewriter
typical
typically
typographic
tyu
tyuba
tyubeang
tyubishyi
tyubwom
tyubwuang
tyubyia
tyucat
tyucatcuk
tyufak
tyufuut
tyughwang
tyujhyuk
tyukpaat
tyuku
tyukwai
tyukwainfwuo
tyukwok
tyulyen
tyulyenlilyem
tyulyiat
tyulyuut
tyumaat
tyumat
tyunyia
tyunzwa
tyusan
tyushei
tyushi
tyushityok
tyuswup
tyutat
tyutsot
tyutyeizat
tyutyiet
tyutyok
tɑ
u
ubiaja
uci
udi
ufc
uk
ukasut
ukee
ukrainian
ul
uli
umar
umu
un
una
unable
unavailable
unbalanced
unbulleted
unc
uncollapse
uncollapsed
und
undefined
under
underlying
underneath
underscore
understand
understands
uneven
unexpected
unfit
ungwan
unicode
union
unique
unit
united
units
unity
universal
universe
university
unknown
unless
unlike
unlinked
unnamed
unnecessary
unstripped
unsupported
until
unusual
unusually
up
update
updated
upon
upper
uppermost
upright
urban
urdun
urges
url
urls
uromi
ursus
uru
urugwai
urusha
us
usa
usage
use
used
useful
useless
user
users
userspace
uses
using
usman
usual
usually
usurped
ut
utak
utc
uya
uyo
uza
v
va
vab
vak
valid
validation
value
values
vam
van
vanc
vancouver
vang
vanguard
vanish
vap
var
variable
variables
variants
variation
variations
varieties
variety
various
vary
vawel
vawella
vcard
ve
vehicle
vela
verbs
verde
verifies
verify
verse
verses
version
versions
vertical
vertically
very
vespucci
vi
via
vice
victor
victoria
video
vietnamese
view
viewing
vii
viktoriya
village
villages
vincent
vinci
violates
vip
virginia
virut
visibility
visible
visual
visually
viyet
viyetnam
vladimir
vol
volta
volume
volumes
von
vowel
vowels
voy
vpt
vs
vuo
vwuo
vwuoa
vwuofang
vwuoi
vwuokpaa
vwuomaat
vwuomyiam
vwuon
vwuong
vwuonswat
vwuoshyim
w
wa
wahl
wai
wak
waktong
wales
walking
walter
wan
want
wap
war
warmer
warning
warsaw
was
washington
wasn
wassoulou
wasulu
wat
watch
water
watters
watyap
wav
way
wayback
ways
wb
wbr
we
wealth
weam
web
webarchive
webcite
website
webster
week
weight
well
were
west
western
what
whatever
whatsapp
when
where
whereas
whether
which
whichever
while
white
whitespace
who
whole
whose
why
wide
wider
widows
width
wiki
wikibooks
wikicode
wikidata
wikilink
wikilinked
wikilinks
wikimarkup
wikimedia
wikinews
wikipedia
wikipedias
wikiproject
wikiquote
wikisource
wikispecies
wikitable
wikitext
wikiversity
wikivoyage
wikt
wiktionary
wilder
wilhelm
will
william
window
windsor
winning
winter
wish
wishes
with
within
without
wk
wknum
wolfgang
wolof
women
won
woo
word
wording
words
work
workaround
workarounds
working
works
world
worldcup
worldview
wot
would
wp
wrap
wrapped
wrapper
wrapping
wraps
write
writers
writing
written
wrong
ws
wstitle
wt
wto
wu
wuhan
wuki
wukimedia
wukipedia
wum
wun
wuni
wurm
www
x
xi
xiao
xls
xml
xyz
y
ya
yaa
yaabwok
yaabwuang
yaadi
yaadini
yaafim
yaaga
yaagban
yaagurma
yaagwak
yaagwaza
yaagwomna
yaajenera
yaakpa
yaakusuru
yaakwak
yaalama
yaama
yaamemba
yaaminista
yaamunisi
yaangam
yaaofisa
yaaofit
yaaprovin
yaasa
yaasi
yaat
yaateritori
yaati
yaatoot
yaatwiya
yaatyia
yaayang
yaazoni
yah
yahaya
yahuda
yai
yak
yakubu
yang
yangka
yar
yash
yat
yaya
yd
ydftin
year
years
yebaat
yed
yei
yellow
yemen
yeong
yes
yeshang
yesu
yet
yields
yin
yish
yit
yobe
yohanna
yok
yola
yom
yon
yong
yoona
york
yorong
yoruba
yosa
you
young
your
yourself
youth
youtube
yu
yuganda
yuk
yuki
yun
yunivasi
yunivasti
yunuvasi
yura
yuri
yurop
yusuf
yw
ywan
yyyy
z
za
zafwun
zaghyi
zai
zaki
zalang
zama
zamani
zambezi
zambya
zamfara
zamyian
zan
zang
zango
zangon
zanson
zanunwuai
zaria
zariya
zat
zayak
zbl
zealand
zenodo
zentralblatt
zero
zeroes
zh
zho
zi
zimbabwe
zionist
zip
zkovit
zo
zok
zon
zone
zong
zonkwa
zonseap
zonzon
zop
zquez
zu
zuk
zulu
zunosit
zunzom
zunzwuo
zwa
zwak
zwakhwu
zwalyiat
zwan
zwang
zwat
zwelithini
zwua
zwuam
zwunzwuo
zwuom
{
|
}
~
§
¨
«
¬
®
°
²
´
·
»
×
æ
ŋ
œ
ǀ
ǝ
ɐ
ɑ
ɔ
ə
ɛ
ɪ
ʃaɡɐs
ʉ
ʌ
ʰ
ʲ
ʷ
ʹ
ʻ
ʼ
ʽ
ʾ
ʿ
ˆ
ˈ
ˌ
ː
ːˈ
ˤ
̀
́
̂
̃
̄
̆
̇
̈
̉
̊
̌
̓
̛
̞
̠
̣
̥
̧
̮
̰
̱
̵
̹
͂
͡
α
β
δημοκρατι
ε
θ
ι
μ
ς
ϣ
ϩ
беларусь
в
з
м
н
ְ
ֲ
ִ
ֵ
ֶ
ַ
ָ
ֹ
ּ
־
ׁ
ׂ
א
ב
ד
ה
י
ל
ם
מ
ע
ר
ש
ת
،
ا
الا
ب
بلادي
ة
ت
ج
جمهورية
خ
د
دولة
ر
س
ش
ع
ق
ك
ل
م
ن
ه
و
ور
ي
َ
ُ
ِ
ّ
ْ
ٔ
ٕ
ٱل
ٱلس
߫
߬
߲
ߺ
न
ा
க
ச
ந
ன
ப
ம
ர
ல
ா
ி
ெ
்
ኢትዮጵያ
፣
​
‎
‐
‑
–
—
‘
’
“
”
†
•
…
‹
›
‿
⁄
⁶
₦
€
←
→
↔
↷
−
≥
③
④
⑦
☾
⟨
⟩
⟶
ⲁ
ⲓ
ⲙ
ⲛ
ⲟ
ⲣ
ⲫ
ⴰ
ⴱ
ⴳ
ⴷ
ⵉ
ⵍ
ⵎ
ⵏ
ⵓ
ⵔ
ⵖ
ⵜ
ⵡ
ⵢ
ⵣ
⺀
⺄
⺆
⺈
⺊
⺌
⺕
⺝
⺸
⺼
⿰
⿱
⿲
⿳
⿴
⿵
⿶
⿷
⿸
⿹
⿺
⿻
、
「
」
〢
か
こ
さ
て
に
の
り
ん
゙
゚
ィ
コ
タ
フ
ユ
ル
ロ
ワ
ー
㇁
㇂
㇄
㇇
㇈
㇉
㇓
㐁
㐄
㐅
㐌
㐫
㐬
㐭
㐮
㐱
㑒
㒵
㒸
㒼
㓁
㓞
㔾
㕛
㕣
㖾
㘝
㚅
㚇
㚔
㚘
㝉
㝡
㝴
㝵
㞋
㞢
㞷
㠩
㠭
㠯
㡀
㡭
㡿
㢲
㢴
㣇
㣺
㥯
㪅
㫄
㫐
㫒
㫺
㬅
㬎
㬥
㬰
㲋
㳄
㷠
㸒
㸚
㸦
㼌
㼲
㽞
㿟
䀠
䂞
䍃
䏍
䒑
䖍
䖒
䖝
䖵
䙴
䚻
䜌
䝿
䡛
䧹
䪞
一
丁
丂
七
丄
丅
丆
万
丈
三
上
下
丌
不
与
丏
丐
丑
专
且
丕
世
丘
丙
业
东
丞
丢
丣
两
严
並
丨
丩
个
丫
丬
中
丮
丰
丱
串
丵
丶
丷
丸
丹
为
主
丽
丿
乀
乂
乃
久
乆
乇
么
义
之
乌
乍
乎
乏
乐
乑
乔
乖
乗
乘
乙
乚
乛
乜
九
乞
也
习
乡
乳
乾
亀
亅
了
亇
予
争
事
二
亍
于
亏
亐
云
互
亓
五
井
亘
亚
亜
亞
亟
亠
亡
亢
交
亥
亦
产
亨
亩
享
京
亭
亮
亯
亰
亲
亳
亶
亷
人
亻
亼
亾
仁
今
介
仌
从
仐
仑
仒
仓
仕
他
付
仙
仝
代
令
以
任
企
伊
伏
伐
休
会
伯
但
位
住
体
何
佘
余
作
佥
使
來
侈
侌
侖
侯
侵
便
俊
保
俞
信
修
俳
倉
倍
候
倠
做
偶
備
僉
像
僕
優
儿
兀
允
兂
元
兄
充
兆
兇
先
光
兊
克
兌
免
兑
兒
兓
兔
党
兜
兟
入
全
兩
兪
八
公
六
兮
兰
共
关
兵
其
具
典
兹
兼
冀
冂
冃
冄
内
冈
冉
冊
冋
册
再
冎
冏
冐
冒
冓
冖
冗
冘
军
农
冝
冡
冥
冫
冬
冷
准
几
凡
凢
凵
凶
凷
凸
凹
出
函
凾
刀
刁
刂
刃
刄
刅
分
切
刍
刑
刕
刖
列
刘
则
初
別
利
别
到
制
刺
則
削
剌
前
剡
剽
劉
力
功
加
劦
助
劫
劳
劵
勃
勇
勉
勒
動
務
勞
勤
勹
勺
勻
勾
勿
匀
匂
包
匆
匈
匊
匋
匍
匕
化
北
匚
匝
匡
匪
匱
匸
匹
区
医
匽
匿
區
十
卂
千
卄
卅
卆
升
午
卉
半
卌
华
卑
卒
卓
单
卖
南
卜
卝
卞
占
卡
卢
卣
卤
卦
卩
卪
卬
卯
印
危
即
却
卵
卷
卸
卻
厂
厃
厄
历
厈
厉
厌
厓
厘
厚
原
厤
厥
厨
厭
厲
厶
厷
厸
去
厼
厽
叀
参
參
叅
又
叉
及
友
双
反
叐
发
叒
叔
叕
取
受
叚
叜
叟
口
古
句
另
叩
只
召
可
台
叱
史
右
叵
号
司
叹
吂
各
吅
合
吉
吊
吋
同
名
后
吏
向
吕
君
吝
吞
否
含
启
吳
吴
吹
吾
呂
呆
呈
告
员
呙
周
命
咅
和
咎
咠
咢
咨
咸
咼
哀
品
哉
員
哥
哲
唐
商
啇
問
啚
啬
啻
善
喜
喬
單
喿
嗇
噩
嚴
囊
囗
囘
囙
囚
四
回
囟
因
囧
囬
困
囱
囷
固
国
圂
圅
國
圍
圓
土
圡
圣
圥
在
圭
地
圶
圼
坐
坒
坚
坴
垂
型
垔
垚
埀
埋
埶
執
基
堂
堅
堆
堇
堯
塞
墨
壘
士
壬
壯
声
壳
壴
壹
壺
壽
夂
处
夅
夆
备
夊
夋
夌
复
夏
夒
夕
外
夗
夘
多
夜
夢
大
夨
天
太
夫
夬
夭
央
失
夲
头
夷
夸
夹
夻
夾
奂
奄
奇
奈
奉
奎
奏
奐
契
奓
奔
奚
奞
奠
奢
奥
奭
女
奴
奻
好
如
妄
妙
妟
妥
妻
妾
姑
委
姜
威
娄
婁
婉
婴
嬰
嬴
子
孑
孔
孕
孖
字
存
孚
孛
孝
孟
季
孤
学
孫
孱
學
宀
宁
宂
它
宅
宇
守
安
宋
完
宏
宓
宗
官
定
宛
宜
宝
客
宣
室
宮
宰
害
家
容
宾
宿
寄
寅
密
富
寒
察
實
寧
審
寫
寬
寮
寸
对
寺
寻
寽
対
寿
封
尃
射
将
將
專
尉
尊
尋
尌
對
小
少
尒
尓
尔
尖
尗
尚
尞
尢
尣
尤
尧
尨
尭
就
尸
尹
尺
尻
尼
尽
尾
尿
局
居
屈
屋
屎
屏
屑
展
屖
屚
属
屠
屡
屬
屮
屯
屰
山
屵
屾
岁
岂
岑
岡
岩
岳
岸
峯
島
崇
崑
崔
崖
崙
崩
嵬
嶲
巂
巛
川
州
巟
巠
巢
巤
工
左
巧
巨
巩
巫
差
己
已
巳
巴
巷
巸
巽
巾
巿
帀
市
布
希
帚
帛
帝
带
師
席
帶
常
干
平
年
幵
并
幷
幸
幺
幻
幼
幽
幾
广
広
庄
床
底
店
庚
府
度
庫
庭
庶
康
庸
廉
廌
廛
廣
廩
廴
延
廷
建
廾
廿
开
弁
弃
弄
弇
弋
式
弓
弔
引
弗
弘
弜
弟
弥
弦
弱
張
強
强
彊
彌
彎
彐
彑
当
彔
录
彖
彗
彡
形
彥
彦
彧
彭
彳
役
彼
往
待
律
徒
得
徙
從
復
微
徵
心
忄
必
忌
忍
志
忝
忠
忩
快
念
忽
忿
思
怠
急
怱
恆
恒
恩
恭
息
悉
患
悤
悲
悶
惠
惡
惢
愁
愈
意
愛
感
慈
慧
慮
憂
憲
應
戀
戈
戉
戊
戋
戌
戍
戎
成
我
戒
戔
或
战
戚
戠
戢
截
戲
戶
户
戹
戼
戾
房
所
扁
扇
手
扌
才
打
托
执
承
折
拉
拜
拿
掌
排
推
提
摩
支
攴
攵
收
攸
改
放
政
敄
敏
敕
敖
敗
敘
敝
敞
敢
散
敦
敫
敬
数
敷
數
斂
文
斉
斊
斗
斤
斥
斩
斬
斯
新
方
於
施
斿
旁
旋
族
无
旡
既
旣
日
旦
旧
旨
早
旬
旱
旲
时
旾
昆
昇
昌
昍
明
昏
易
昔
昗
昜
星
春
昬
是
昱
昴
昷
時
晃
晋
晏
普
景
晶
智
暑
暖
暗
暴
曇
曩
曰
曲
曳
更
曷
書
曹
曼
曾
替
最
朁
會
月
有
朋
服
朔
朕
朗
望
朝
木
朩
未
末
本
札
朮
术
朱
朴
朵
朶
朿
杀
李
杏
杜
束
条
来
東
杲
杳
松
析
林
枚
果
枝
枲
枼
某
柔
查
柬
柰
柴
栗
桀
桑
桼
梁
條
梟
梨
棘
棠
棥
森
楚
業
楽
榮
樂
樊
樗
欠
次
欢
欣
欮
欲
欶
欽
款
歆
歇
歌
歛
止
正
此
步
武
歨
歪
歮
歯
歰
歲
歴
歷
歸
歹
歺
死
残
殳
段
殷
殸
殹
殺
殻
殿
毋
毌
母
每
毒
比
毕
毚
毛
毳
氏
氐
民
气
氣
水
氵
氶
氷
永
氺
氾
求
汉
汝
汞
江
沃
沓
沙
沝
没
泉
法
波
泣
泥
泰
洛
洪
活
派
流
浦
浪
浮
淡
淮
清
渚
渠
温
港
湯
滿
漢
漸
澳
灣
火
灬
灭
灰
灵
灷
炅
炎
炏
炗
炙
炭
為
烈
烏
烝
焉
無
焦
焱
然
煞
熊
熏
燕
營
燮
爪
爫
爭
爯
爰
爱
爲
爵
父
爻
爽
爾
爿
片
牙
牚
牛
牜
牟
牢
牧
牪
特
牽
犀
犬
犭
犮
狂
狄
狊
独
狺
猋
猒
猪
献
獻
玄
率
玉
王
玟
玨
珎
班
琴
瑟
瑩
瓜
瓦
甘
甚
生
産
用
甫
甬
田
由
甲
申
电
甶
男
甸
甹
画
甾
畀
界
畏
畐
留
畜
畟
畢
畧
畨
番
畫
異
畱
當
畺
畾
疊
疋
疌
疑
疒
疾
癶
癸
癹
登
發
白
百
皀
皃
的
皆
皇
皋
皐
皕
皮
皷
皿
盃
盆
盇
盈
益
盍
盎
监
盒
盖
盛
盡
監
盤
盧
目
直
相
盾
省
眇
眉
看
眔
眞
真
眷
眼
眾
着
睘
睪
睿
瞏
瞢
瞿
矍
矛
矞
矢
矣
知
矦
短
石
破
碎
磊
磨
示
礻
礼
祟
票
祭
禀
禁
禸
禹
禺
离
禽
禾
禿
秀
秃
秉
秋
科
秝
秦
移
稟
穀
穌
穴
究
穹
空
穿
突
窄
窒
立
竒
竜
竝
竟
章
童
竹
笑
笠
筆
等
答
箕
算
箴
節
篇
篤
篭
米
粉
粛
粟
粤
粦
粲
糞
糸
糹
系
約
納
素
索
紫
累
細
絜
絫
絲
維
綿
線
縣
繇
纍
纟
结
缶
网
罒
罔
罕
罗
罙
罡
罢
罪
署
罷
羅
羊
羌
羍
美
羔
羕
羗
羞
羡
羣
群
義
羲
羸
羽
翁
翏
習
翕
翟
翠
翼
老
耂
考
者
耆
而
耎
耑
耒
耳
耴
耶
耷
聂
聊
聖
聚
聶
聿
肀
肃
肅
肉
肖
肙
肥
肩
肯
育
肴
胃
背
胡
胥
能
脊
脩
膚
臣
臤
臧
自
臬
臭
臯
臱
至
致
臺
臼
臽
臾
臿
舀
舂
舄
與
興
舉
舌
舍
舛
舜
舞
舟
般
艮
良
色
艸
艹
艾
芒
芔
芬
芮
花
芳
芺
芻
苔
苗
苟
若
苦
英
茶
茸
荅
草
荒
荣
荼
莆
莧
莫
莽
菆
菊
菐
華
萬
落
葉
著
葛
董
葵
蒙
蒦
蒼
蓋
蓬
蓺
蔑
蔡
蔣
蕉
蕭
薄
薛
薦
薰
藍
藏
藥
蘭
虍
虎
虐
虒
虔
處
虖
虗
虘
虚
虛
虜
虞
虫
虽
蚤
蚩
蜀
蜜
蟲
蠡
血
行
衍
衛
衣
衤
表
衮
衰
袁
袞
褭
褱
襄
襾
西
覀
要
覃
見
規
覓
覧
親
覽
见
角
解
言
訁
訇
計
詞
詹
語
誩
諸
讠
谷
豆
豈
豊
豐
豕
豖
豙
象
豦
豩
豪
豸
貇
貝
貞
貟
負
貢
貧
貪
貫
責
貳
貴
買
費
賁
資
賈
賏
賓
賔
賛
賞
賢
賣
質
賴
贊
贝
贡
责
贯
贲
贵
赖
赞
赤
赦
走
越
足
路
蹇
身
躬
車
軍
軎
軟
輦
车
辛
辜
辟
辥
辰
辱
農
辵
辶
边
辺
达
过
近
还
连
迷
追
退
送
逆
逐
通
速
造
逢
連
逮
進
遀
遂
過
道
達
遣
適
遷
遺
邊
邑
邕
那
邦
邪
郎
部
郭
都
鄉
酉
酋
配
酓
釆
采
里
重
野
量
金
釒
錢
鎬
钅
長
镸
长
門
閃
閉
開
閏
閑
閒
間
閔
閵
閻
闌
门
间
闷
阑
阜
阝
阿
降
陳
隆
隊
隋
隡
隨
隱
隶
隹
隺
隻
隼
隽
难
雀
雁
集
雈
雋
雍
雐
雔
雙
雚
雜
雝
離
難
雨
雩
雪
雲
零
雷
需
霍
霜
霝
霞
霸
靈
靑
青
非
靡
面
靣
革
韋
韓
韦
韭
韯
韱
音
頁
頃
項
須
頗
頡
頻
顛
页
風
风
飛
飞
食
飠
養
饣
首
香
馬
馮
駦
马
骨
高
髟
鬥
鬯
鬲
鬼
魚
魯
鮮
鱼
鲁
鳥
鳳
鸟
鹵
鹿
麃
麗
麥
麦
麻
黃
黄
黍
黎
黑
黒
黨
黹
黽
黾
鼎
鼓
鼠
鼻
齊
齋
齐
齒
齿
龍
龙
龜
龟
龠
龰
龱
龴
龵
龶
龷
龸
龹
者
艹
：
？
�
𐒅
𐒆
𐒈
𐒋
𐒌
𐒐
𐒑
𐒒
𐒕
𐒖
𐒗
𐒘
𐒛
𐒝
𒂠
𒅆
𒅴
𒇷
𒉈
𞤢
𞤣
𞤤
𞤥
𞤦
𞤧
𞤪
𞤫
𞤭
𞤮
𞤱
𞤲
𞤺
𞥄
𞥆
𠀁
𠀃
𠀆
𠀉
𠀎
𠀐
𠁁
𠁣
𠂆
𠂇
𠂈
𠂉
𠂊
𠂋
𠂎
𠂒
𠂔
𠂛
𠂡
𠂢
𠂤
𠂬
𠂭
𠂹
𠃊
𠃋
𠃌
𠃍
𠃎
𠃑
𠃓
𠃔
𠃜
𠄌
𠄎
𠄠
𠄢
𠆢
𠆥
𠇍
𠈌
𠌵
𠓜
𠔉
𠔥
𠔼
𠔽
𠔿
𠕀
𠕁
𠕋
𠘧
𠘨
𠙻
𠙼
𠚏
𠚒
𠚤
𠚪
𠣏
𠤎
𠤕
𠥓
𠦄
𠦑
𠦝
𠧒
𠧗
𠧪
𠩺
𠪚
𠫓
𠫔
𠫤
𠬛
𠬝
𠬞
𠬢
𠬤
𠬶
𠮛
𠮦
𠮷
𠯑
𠱠
𠳮
𠷎
𡈼
𡉀
𡉵
𡌥
𡍮
𡏳
𡕒
𡕩
𡕰
𡖅
𡗗
𡗜
𡘆
𡘤
𡧱
𡨄
𡩧
𡬠
𡭽
𡰣
𡰥
𡰪
𡰯
𡰱
𡷈
𡸁
𡿨
𡿩
𡿪
𡿺
𢀖
𢀛
𢀩
𢁙
𢆉
𢆰
𢆶
𢇁
𢇇
𢉖
𢌬
𢌿
𢏚
𢑑
𢑚
𢖻
𢙣
𢛳
𢦏
𢦒
𢧵
𢼄
𢾕
𣁋
𣄼
𣅀
𣅽
𣍘
𣎳
𣎵
𣏋
𣏼
𣗥
𣥂
𣥖
𣦵
𣦼
𣧄
𣪊
𣪠
𣬉
𣳾
𣶒
𤇾
𤊽
𤐫
𤓰
𤔔
𤕨
𤣩
𤰇
𤰔
𤰞
𤴓
𤴔
𤽄
𥁑
𥁕
𥃦
𥃩
𥃭
𥇡
𥑟
𥘅
𥘈
𥝢
𥫗
𥱡
𦈢
𦉪
𦉬
𦉼
𦍌
𦍒
𦎧
𦐇
𦓔
𦔮
𦘒
𦙃
𦚏
𦣝
𦣞
𦣻
𦥑
𦥔
𦥯
𦨉
𦭝
𦰩
𧆞
𧈧
𧘇
𧰨
𧴪
𧴮
𧵩
𧾷
𨸏
𨾴
𩙿
𩠐
𩫏
𩵋
𪉷
𪜀
𪟽
𪠲
𪩲
𫇦
𫔭
𫜸
𫝀
𫠣
𫠩
𫢉
𫥞
𫩏
𫩠
𫪡
𫲽
𫶧
𬀷
𬐘
𬗌
𬙙
𬛸
𬜯
𬟩
𬯁
𬴘
𬺻
𬼉
𬼖
𭀰
𭁈
𭁨
𭅰
𭑈
𭕄
𭗼
𭤨
𭥫
𭻾
𮅕
𮊿
𮍌
𮍏
𮓗
𮥼
𮧮
廾
𰀁
𰀄
𰀈
𰀉
𰀕
𰀠
𰀡
𰀢
𰀪
𰁜
𰃮
𰆊
𰆘
𰋙
𰕎
𰢴
𰧭
𰯲
00--
10--
13--
14--
15--
16--
17--
18--
19--
23--
3--
30--
4--
47--
5--
58--
6--
61--
67--
7--
71--
8--
80--
86--
88--
9--
a--
ab--
abaka--
abdul--
ac--
ad--
ade--
af--
ag--
ai--
aji--
ak--
aka--
aki--
al--
an--
any--
ap--
apost--
app--
ar--
archae--
as--
asi--
at--
au--
auto--
ay--
b--
ba--
baj--
baku--
ban--
bar--
bat--
be--
bei--
bel--
bi--
bien--
bir--
bis--
blog--
bo--
boli--
bom--
br--
bra--
bri--
bro--
bry--
bu--
buil--
bur--
by--
bə--
c--
ca--
calcul--
ccf--
ce--
ch--
cha--
char--
che--
chi--
cho--
ci--
circ--
cli--
co--
com--
compi--
con--
coo--
cor--
cra--
cre--
cri--
cro--
cru--
cu--
cy--
cyp--
d--
da--
dal--
de--
decla--
dee--
deg--
di--
dic--
dip--
diplo--
dis--
disru--
distri--
do--
down--
dr--
du--
dy--
dz--
dʒ--
e--
ear--
eb--
eco--
ed--
eg--
el--
elep--
eli--
em--
emp--
en--
end--
equ--
er--
es--
et--
eth--
eu--
ex--
exces--
exec--
f--
fa--
far--
fe--
fed--
feli--
fi--
fle--
flo--
fo--
for--
fr--
fre--
fu--
g--
ga--
gal--
gar--
gh--
ghyi--
gi--
go--
gra--
gri--
groß--
gu--
guer--
gw--
gwam--
h--
ha--
han--
he--
hen--
her--
hi--
hit--
ho--
hok--
hoku--
hs--
hu--
hum--
i--
id--
ig--
iko--
il--
illust--
im--
imm--
imple--
in--
info--
infre--
inspi--
inst--
integ--
inter--
is--
it--
j--
ja--
je--
jem--
ji--
jo--
ju--
k--
ka--
kam--
kat--
ke--
kh--
ki--
kin--
ko--
kra--
ku--
kung--
kur--
kw--
ky--
kyang--
l--
la--
lau--
le--
lec--
left--
li--
liber--
light--
lil--
list--
listn--
lo--
lu--
ly--
lyen--
m--
ma--
macro--
mai--
mali--
mam--
man--
map--
mar--
mat--
mc--
me--
mexi--
mi--
mic--
micro--
mid--
min--
mis--
mm--
mmx--
mo--
modi--
mon--
mor--
mori--
moz--
mp--
ms--
mu--
mus--
my--
n--
na--
nb--
nc--
nd--
ne--
net--
news--
ng--
ni--
niet--
nk--
nl--
no--
nos--
not--
nou--
ns--
nsh--
nu--
numberof--
nume--
ny--
o--
oa--
ob--
og--
okin--
olu--
om--
or--
org--
os--
oto--
out--
over--
oʊ--
p--
pa--
pan--
pat--
pe--
peace--
ped--
per--
phi--
pho--
physi--
pi--
pic--
po--
post--
potu--
pre--
pri--
pro--
pu--
pub--
pul--
q--
qu--
que--
r--
ra--
re--
recog--
ref--
refor--
rep--
repe--
reser--
resp--
rev--
ri--
ro--
roo--
row--
ru--
s--
sa--
sam--
scho--
sco--
se--
sep--
ser--
sh--
shakespe--
shan--
she--
shi--
sho--
si--
site--
so--
solo--
some--
sor--
sp--
sq--
st--
ste--
stra--
stu--
su--
sub--
sugge--
sun--
sw--
swe--
sy--
t--
ta--
tai--
tak--
tan--
te--
ter--
th--
ti--
to--
tou--
trans--
tri--
ts--
tsut--
tu--
tung--
ty--
tyo--
tyu--
u--
uk--
ul--
un--
ut--
uz--
v--
val--
vas--
vati--
ve--
ver--
vi--
vir--
vo--
voi--
voy--
w--
wa--
we--
web--
wel--
wi--
win--
wo--
wor--
wu--
x--
xi--
y--
ya--
yaa--
ye--
yi--
yo--
yu--
z--
za--
zan--
zen--
zh--
zi--
zo--
zu--
æ--
ɛ--
ɡ--
ɡɪ--
ɪ--
ɾ--
ʃ--
י--
ا--
ال--
الس--
ع--
ي--
--0
--1
--2
--3
--4
--46
--5
--54
--6
--64
--66
--7
--72
--74
--77
--8
--89
--9
--99
--a
--able
--ac
--aceae
--ae
--ah
--ai
--ait
--ak
--al
--ale
--ally
--als
--am
--an
--ance
--ang
--ano
--ant
--ar
--aru
--ary
--as
--at
--ate
--atic
--ation
--ations
--ato
--ats
--au
--ay
--b
--ba
--be
--bi
--ble
--blik
--bs
--buda
--burg
--c
--ca
--cal
--ce
--cg
--ch
--ck
--class
--co
--col
--ction
--cy
--d
--da
--dae
--darin
--de
--den
--dhi
--di
--do
--dom
--ds
--du
--dus
--e
--eal
--eam
--ect
--ection
--ed
--ee
--ei
--ein
--el
--en
--ent
--er
--era
--ergy
--eric
--ers
--erse
--ert
--es
--ese
--ess
--et
--eur
--ey
--ez
--f
--fa
--ff
--fi
--fo
--fu
--ful
--fy
--g
--ga
--gate
--ge
--ger
--ges
--gi
--ging
--go
--gs
--gu
--gwa
--h
--ha
--he
--hi
--hip
--ho
--hol
--hr
--hu
--i
--ia
--ial
--ian
--ic
--ick
--id
--ide
--ie
--ied
--ier
--ies
--ig
--ii
--ik
--ili
--ill
--im
--imi
--in
--ina
--inate
--ine
--ing
--ings
--ins
--io
--ion
--ions
--is
--isation
--ise
--ised
--ish
--ism
--ist
--it
--ity
--iva
--ive
--ives
--ivity
--iya
--iz
--ization
--ize
--ized
--izes
--j
--ja
--jc
--ji
--jo
--k
--ka
--ke
--ki
--ko
--ks
--kun
--kwu
--ky
--l
--la
--lam
--lar
--ld
--le
--less
--ley
--li
--ling
--ll
--lle
--llo
--lly
--lo
--logy
--ls
--lt
--lu
--ly
--lyn
--m
--ma
--macy
--man
--me
--med
--ment
--mi
--mo
--most
--mp
--ms
--mu
--n
--na
--name
--nard
--nds
--ne
--ned
--ner
--ners
--nes
--ness
--ng
--ngs
--ni
--nity
--no
--ns
--nt
--ntly
--nto
--nts
--o
--oan
--ock
--og
--ogy
--oi
--ok
--ola
--om
--on
--ons
--or
--ore
--ors
--os
--ot
--ota
--ous
--p
--pa
--po
--ppe
--q
--r
--ra
--ral
--rd
--re
--ref
--res
--ri
--ria
--rin
--ring
--rit
--rium
--rn
--rs
--rt
--ru
--rus
--rw
--ry
--s
--sa
--sc
--se
--sh
--si
--sian
--sive
--sm
--son
--ss
--st
--stein
--ster
--sts
--style
--swuo
--t
--ta
--tation
--tch
--te
--ted
--ter
--tes
--text
--th
--ti
--tic
--tina
--ting
--tion
--tions
--title
--tive
--tle
--to
--toloji
--tor
--ts
--tsot
--tu
--ty
--tyle
--u
--ua
--ual
--ue
--uel
--um
--ung
--uous
--up
--ur
--ure
--url
--us
--ut
--ux
--uz
--v
--va
--val
--ve
--ven
--vi
--w
--wa
--week
--wo
--x
--xc
--xe
--y
--ya
--yap
--ye
--yek
--yers
--yi
--yia
--yio
--yo
--yu
--z
--za
--zat
--ze
--zi
--zo
--zop
--zy
--ɐ
--ɑ
--ə
--ɡ
--ɪ
--ʊ
--ו
--ת
--د
--ن
