!
"
#
##0
##1
##10
##11
##12
##13
##14
##15
##16
##17
##18
##19
##2
##20
##21
##22
##23
##24
##25
##26
##27
##28
##29
##3
##30
##31
##32
##33
##34
##35
##36
##37
##38
##39
##4
##40
##41
##42
##43
##44
##45
##46
##47
##48
##49
##5
##50
##51
##52
##53
##54
##55
##56
##57
##58
##59
##6
##60
##61
##62
##63
##64
##65
##66
##67
##68
##69
##7
##70
##71
##72
##73
##74
##75
##76
##77
##78
##79
##8
##80
##81
##82
##83
##84
##85
##86
##87
##88
##89
##9
##90
##91
##92
##93
##94
##95
##96
##97
##98
##99
$
%
&
'
(
)
*
+
,
-
.
/
0
00
000
001
002
01
010
02
023417
03
04
0451
04972
05
050
06
07
08
09
1
10
100
1000
10000
1007
1009
101
1011
102
1020
103
104
1048
105
106
1066
107
108
1080
1085
109
11
110
1100
111
1118
112
113
114
1140
115
116
1169
117
1171
1174
118
1185
1187
119
1191
1193
12
120
1200
1204
121
122
1220
123
1234
124
125
1250
1259
126
1260
127
1274
128
129
13
130
1300
131
132
133
134
1340
1341
135
1350
136
1368
137
138
1386
1389
139
14
140
1400
141
142
1421
1428
143
144
145
1453
146
147
148
149
1492
15
150
1500
1501
151
1510667103
1514
1515
1517
152
153
1534
154
155
1550
156
1564
157
158
1582
1588
159
1590
16
160
1600
161
162
163
1635
1639
164
1640
1642
1648
165
1650
166
167
168
169
17
170
1700
1703
1707
171
172
173
1736
174
1740
1747
1749
175
1750
1758
1759
176
1764
177
1770
1774
1775
1776
1777
1778
1779
178
1780
1781
1782
1783
1784
1785
1786
1787
1788
1789
179
1790
1791
1792
1793
1794
1795
1796
1797
1798
1799
18
180
1800
1801
1802
1803
1804
1805
1806
1807
1808
1809
181
1810
1811
1812
1813
1814
1815
1816
1817
1818
1819
182
1820
1821
1822
1823
1824
1825
1826
1827
1828
1829
183
1830
1831
1832
1833
1834
1835
1836
1837
1838
1839
184
1840
1841
1842
1843
1844
1845
1846
1847
1848
1849
185
1850
1851
1852
1853
1854
1855
1856
1857
1858
1859
186
1860
1861
1862
1863
1864
1865
1866
1867
1868
1869
187
1870
1871
1872
1873
1874
1875
1876
1877
1878
1879
188
1880
1881
1882
1883
1884
1885
1886
1887
1888
1889
189
1890
1891
1892
1893
1894
1895
1896
1897
1898
1899
19
190
1900
1901
1902
1903
1904
1905
1906
1907
1908
1909
191
1910
1911
1912
1913
1914
1915
1916
1917
1918
1919
192
1920
1921
1922
1923
1924
1925
1926
1927
1928
1929
193
1930
1931
1932
1933
1934
1935
1936
1937
1938
1939
194
1940
1941
1942
1943
1944
1945
1946
1947
1948
1949
195
1950
1951
1952
1953
1954
1955
1956
1957
1958
1959
196
1960
1961
1962
1963
1964
1965
1966
1967
1968
1969
197
1970
1971
1972
1973
1974
1975
1976
1977
1978
1979
198
1980
1981
1982
1983
1984
1985
1986
1987
1988
1989
199
1990
1991
1992
1993
1994
1995
1996
1997
1998
1999
2
20
200
2000
2001
2002
2003
2004
2005
2006
2007
2008
2009
201
2010
2011
2012
2013
2014
2015
2016
2017
2018
2019
202
2020
2021
2022
2023
203
204
205
206
207
208
209
21
210
2100
211
212
213
214
215
216
217
218
219
22
220
221
222
223
224
225
226
227
228
229
23
230
231
232
233
234
235
236
237
238
239
24
240
2400
241
242
243
244
245
246
247
248
249
25
250
2500
251
252
253
254
255
256
257
258
259
26
260
2600
261
262
263
264
265
266
267
268
269
27
270
271
272
273
274
275
276
277
278
279
28
280
281
282
283
284
285
286
287
288
289
29
290
291
292
293
294
295
296
297
298
299
3
30
300
3000
301
302
303
304
305
306
307
308
309
31
310
311
312
313
314
315
316
3166
317
318
319
32
320
321
322
323
324
325
326
327
328
329
33
330
331
332
333
334
335
336
337
337809
338
339
34
340
341
342
343
344
345
346
347
348
349
35
350
3500
351
352
353
354
355
356
357
358
359
36
360
361
362
363
364
365
366
367
368
369
37
370
371
372
373
374
375
376
377
378
379
38
380
381
382
383
384
385
386
387
388
389
39
390
391
393
394
395
396
397
398
399
4
40
400
4000
401
402
404
406
4067651135
407
408
409
41
410
411
413
415
416
417
418
419
42
420
421
422
423
424
425
426
427
428
43
430
431
433
434
435
436
437
438
439
44
440
442
443
444
446
447
448
449
45
450
451
452
453
454
455
456
457
458
46
460
461
465
466
47
470
471
473
475
476
477
478
479
48
480
481
483
485
486
487
489
49
490
492
493
494
499
5
50
500
5000
50000
503
507
51
510
512
514
515
517
518
519
52
520
521
522
523
525
527
528
53
530
531
532
533
534
535
537
538
539
54
540
545
546
548
549
55
550
551
553
555
556
559
56
560
562
565
567
568
57
570
571
573
575
58
580
581
583
585
587
589
59
590
591
594
596
597
6
60
600
6000
602
604
605
608
609
61
610
611
612
614
615
616
618
619
62
620
622
624
625
629
63
630
632
634
636
6360
637
638
639
64
640
641
642
644
645
65
650
651
656
657
66
660
661
668
67
670
672
675
678
679
68
680
681
683
684
6844
685
687
69
691
697
7
70
700
7000
704
705
708
71
710
711
713
72
720
724
727
73
730
74
740
743
747
75
750
753
76
760
767
77
770
774
78
780
785
786
79
8
80
800
8000
802
8053
8084
809
81
810
82
820
83
830
839
84
840
842
85
850
86
865
87
870
873
87508
88
89
896
9
90
900
9000
904
91
911
92
927
93
930
934
935
937716
94
940
940997
945
946
95
950
951
953
955
959
96
960
961
962
964
967
97
975
976
978
98
980
983
985
989
99
990
997
:
;
<
=
>
?
@
\
^
_
`
a
aa
aachen
aaron
ab
abad
abbas
abbr
abc
abd
abdal
abdi
abdu
abdul
abdulla
abdullah
abdurrahman
abdusamet
abe
abgerufen
abi
abidi
abidin
able
ablon
ablona
ablonan
ablone
ablono
abori
aboriya
aboriye
about
above
abraham
abrahamian
abramovic
abstract
abu
abzu
ac
academia
academic
academy
access
accessed
accipiter
according
account
accounts
ace
achievement
aci
acinonyx
aciz
aconitum
acre
across
act
actes
action
active
actor
actors
actress
actual
actually
ad
ada
adab
adam
adams
adan
adapa
adaptasyona
adar
adara
adare
adat
add
added
adding
additional
address
adds
ade
adem
adeni
adenozi
adet
adete
adi
adige
adil
adiyan
adiye
adiyemane
adlari
adler
adlu
admi
admin
adn
adnan
adnya
adnye
adolf
adrenal
adriyati
adult
advanced
adventure
adventures
ae
af
aferi
affairs
afi
afii
afirand
afirande
afirandi
afirandin
afirandina
afirandine
afirandiye
afiri
afri
africa
african
afrika
afrin
afro
afs
after
ag
agahdar
agahdari
agahdariya
agahdariye
agahi
agahiya
agahiyan
agahiye
again
against
agamemnon
agdera
age
ageing
agency
agent
agha
agir
agirbest
agirbesta
agirbeste
agire
agiri
agiriye
agirt
agirte
agirtiye
ago
agri
agriculture
agroecology
agroekoloji
aguilera
ah
aha
ahan
ahbanu
ahe
aheki
aheng
ahenga
ahengi
ahi
ahid
ahide
ahin
ahire
ahiya
ahiyan
ahiye
ahmad
ahmaran
ahmed
ahmede
ahmet
ahn
aho
ahrweiler
ahrweilere
ahu
ai
aichach
aid
aids
aidse
ain
air
aire
aires
airlines
airport
aisch
aisne
aisnee
ajal
ajalan
ajaldari
ajale
ajalvani
ajane
ajans
ajansa
ajanse
ajax
ajel
ajokare
ajot
ajotin
ajotina
ajotine
ak
aka
akad
akademi
akademiya
akademiye
akadi
akadiyan
akar
akc
ake
aki
akinci
akinciye
akir
akire
akirin
akiro
akkurt
ako
akp
akpe
akre
akreyi
aks
aksoy
aksu
aktas
akti
aktor
aktore
aktoreki
aktri
aku
akyol
al
ala
alabama
alak
alakbu
alaki
alakiya
alakiyan
alakiye
alakiyek
alakiyeke
alakkirin
alakkirina
alakom
alakvan
alakvana
alakvane
alan
alaska
alaskaye
alav
alava
alave
alaveke
alaya
alaye
alayları
alb
alba
alban
albani
albanya
albanyaye
albert
alberta
alberts
albistan
albistane
albu
album
albuma
albume
albumi
albums
aldiran
aldirane
aldosteron
aldu
ale
alectoris
aleksander
aleksandr
aleksandratu
alessandro
alex
alexander
alexandre
alexis
alfa
alfabe
alfabeya
alfabeye
alfaya
alfred
alfredo
algori
ali
alias
aliases
alice
alicia
aligire
align
alignbars
alika
alikari
alikariya
alikariye
alim
aliman
alime
alimeki
aliya
aliyan
aliye
aliyek
aliyeke
aliyeki
alkali
alkan
alke
alkol
alkole
alkoli
all
allah
allan
allay
allen
aller
alles
allga
alliere
allison
allium
allow
allowed
allows
alma
alman
almanan
almani
almaniya
almanya
almanyaya
almanyaye
alone
aloq
alouatta
aloz
aloze
alozeye
alozi
aloziya
aloziye
alp
alparslan
alpe
alpes
alpese
alpha
alphabet
alpi
already
als
also
alt
altayi
altdorf
alte
altenkirchen
altenkirchene
alter
alternati
alternative
alto
alu
alva
alvarez
alvin
alwar
always
alzey
alıs
am
ama
amade
amadebu
amadehiye
amadekar
amadekare
amadekari
amadekariya
amadekariye
amadekirin
amadekirina
amadeus
amadeyi
amaje
amanda
amar
amara
amare
amas
amasyaye
amator
amazon
amberg
ambu
amc
ame
amed
amede
amedi
ameri
america
american
amerika
amerlu
amfi
ami
amidakurd
amil
amir
amlu
ammad
amnesty
amo
among
amonyak
amor
amos
amour
ampiyona
ampiyone
ampiyoniya
ampu
amri
amsterdam
amsterdame
amt
amu
amy
an
ana
anadolu
anafi
anakkale
anal
anali
analog
analysis
anan
anars
anas
anatoli
anatolia
anatoliya
anatoliyaya
anatoliyaye
anatoliye
anatolya
anatolyaye
anatomi
anatomiya
anatomiye
anatomy
anc
ancama
ancax
anchor
ancient
ancyclopædia
and
anda
andan
andana
andanan
andane
andanek
ande
andek
andeke
andeki
ander
anderan
andere
anders
andersen
anderson
andersson
andeyi
andi
andibu
andin
andina
andine
andini
andiniya
andiniye
andiye
andorra
andre
andrea
andreas
andrew
andrews
android
androide
andronovo
andy
ane
anek
aneke
anenave
aneya
aneyan
aneye
anfkurdi
ang
angas
angeh
angeha
angehe
angel
angela
angeles
angelese
angels
anger
angere
angeriya
anghay
anghaye
angli
anglo
ango
anguilla
anhalt
anhalte
anhui
ani
aniha
animal
animals
animated
animation
anime
aniya
aniye
anji
anjiyotensi
anka
ankara
ankiri
ankirin
ankirina
anko
anku
ankus
ann
anna
anne
annie
announcement
annual
ano
anoger
anogere
anoname
anonivi
another
anoya
anoye
anoyi
ans
ansbach
anse
ansi
ansiklopedisi
answer
ant
antalya
antalyaye
antan
antarkti
ante
antechinus
anter
anthony
anti
antoine
antoloji
antolojiya
antolojiye
antomisi
anton
antonio
antropoloji
anu
anxana
anxane
anxaneya
anxaneye
any
anything
aotus
ap
apa
apameni
apameniye
apandin
apapika
apbu
ape
apec
apemeni
apemeniya
apemeniye
api
apik
apkiri
apkirin
apkirina
apkirine
apo
apollo
apologies
apolon
aponogeton
app
appear
appearances
appears
apple
applications
apply
approach
appropriate
apr
april
apu
apus
apwebsite
apxana
apxane
apxaneya
aq
aqaviye
aqi
aqil
aqile
aqmaqa
aquinas
aquita
aquitaine
ar
ara
arab
arabic
arabki
aragon
araliye
aram
arame
arami
aramiya
aramiye
aran
aranjman
arap
ararat
ararate
aras
arasteya
arasteye
araxa
arbor
arc
archaeology
archiv
archive
archived
archives
archiving
arcy
ard
arda
arde
ardeh
ardern
are
area
areas
aredar
aredare
aredari
aredariya
aredariyan
aredariye
aredariyeke
arem
aremi
arenivi
arenu
ares
areser
areseri
areseriya
areseriye
areserkirin
areserkirina
aresteya
aret
arete
areti
areza
arezayiya
arezu
argentina
argk
argos
argu
ari
arias
arif
aris
aristan
aristana
aristane
aristani
aristaniya
aristaniye
aristoteles
ariya
ariyan
ariye
arizona
arjanti
arjen
arjenti
ark
arkansas
arkeolog
arkeologan
arkeologe
arkeoloji
arkeolojiye
arketi
arki
arkive
arkti
arlo
arman
armanc
armanca
armancan
armance
armancek
armanceke
arme
armenia
armenian
armi
armihal
arms
armstrong
army
arn
arnold
arnye
around
aroymaq
aroymaqe
array
arrow
ars
arse
arsenal
arsima
arslan
art
arte
arten
artes
arthur
arti
article
articledisplay
articles
artikel
artin
artina
artine
artis
artist
arts
artuklu
artukluye
aru
arvan
arxiv
aryan
aryani
aryeka
aryo
as
asan
asayi
asayis
ascap
aschaffenburg
asd
ase
aseti
asfalt
ashab
ashley
asi
asia
asian
asie
asin
asinrevayi
asio
ask
aslan
asle
asmani
aso
asoya
asoye
asoyi
asp
asparagus
aspects
aspicilia
aspx
ass
assembly
associated
association
ast
asta
astacus
astara
aste
astek
asteke
asteng
astengi
astengiye
astengkirin
astengkirina
asteroi
asti
astronoma
astronomi
astronomiye
asu
asuran
asuri
asuriyan
asya
asyaya
asyaye
asyayi
at
ata
atalanta
atatu
ataturk
ate
atei
ates
ati
atlanta
atlanti
atlantic
atlantique
atlantiqueya
atlas
atlase
atle
atmosfer
atmosfera
atmosfere
atom
atome
atomi
atp
atpye
atra
attack
attribute
atu
atıs
au
aube
aubee
aubin
aubl
auch
aude
audeye
audi
audio
auf
aufl
auflage
aug
auge
augsburg
august
augusta
auguste
augusto
augustus
aus
auschwitz
auschwitze
ausgabe
aust
austen
austin
australia
australian
australis
author
authorlink
authors
auto
automatically
auvergne
aux
av
ava
avabu
avadike
avahi
avahiya
avahiyan
avahiye
avahiyek
avahiyeke
available
avairona
avairone
avakare
avaker
avakere
avakir
avakiri
avakiribu
avakirin
avakirina
avakirine
avakiriye
avan
avaniya
avant
avas
avatar
avaye
avayeki
avayi
avci
avdan
avdana
avdane
avde
ave
avec
avek
aveki
avenue
avere
avesta
avestaye
avestayi
aveyron
aveyrona
avhewa
avhewaya
avhewaye
avi
avis
avissar
aviya
aviyan
aviye
avjeni
avk
avkani
avkaniya
avkaniyan
avkaniye
avkaniyek
avkaniyeke
avke
avkevir
avkevire
avkirin
avkirine
avn
avoid
avre
avres
avs
avsi
avtin
avtina
avtine
avu
avus
avusturalya
avusturya
avze
aw
awa
awaki
awan
awaniya
awaran
award
awards
aware
awareyan
awarte
away
awayan
awaye
awayek
awayeke
awayeki
awayi
awaz
awaza
awaze
awe
awerte
awi
awire
awistirya
awistiryaye
awistiryayi
awistraliya
awistraliyaye
awistralya
awistralyaye
awistralyayi
awistri
awistriya
awistriyaye
awistriyayi
awpe
awu
awus
ax
axa
axaftin
axaftina
axaftine
axaftvane
axameni
axan
axavtin
axavtine
axaye
axbilax
axc
axe
axek
axeke
axel
axi
axiftin
axiftine
axilbe
axis
axiv
axive
axivere
axivi
axrete
axtamare
axtepi
axu
ay
aya
ayan
aydin
aydogan
aydın
aye
ayes
ayet
ayeta
ayetan
ayete
ayetula
ayhan
ayi
aypare
aypareye
ays
az
azad
azadi
azadiya
azadiye
azadkirin
azadkirina
azam
azarpe
azerbaycan
azerbaycana
azerbaycane
azerbaycani
azerbaycanı
azerbeycane
azeri
azeriyan
azers
azi
aziz
azmana
azmu
azorte
azur
b
ba
baar
baas
baase
bab
baba
baban
babani
babaye
babe
babek
babel
babet
babeta
babete
babi
babil
babiliyan
babke
bablekan
babu
baby
babylon
bac
baca
bacan
bacane
bacanres
bace
bacelani
bach
bachar
back
background
backgroundcolors
bacon
bad
badayi
bade
baden
badet
badete
badi
badiyeke
badoka
baekje
baekjeye
baese
bafe
bafu
bag
bager
bagere
bagmati
baha
bahar
bahc
bahdi
bahi
bahoz
bahoza
bahoze
bahozeke
bahsa
bahse
bailey
bajar
bajara
bajaran
bajare
bajarek
bajareke
bajareki
bajari
bajarok
bajaroka
bajarokan
bajaroke
bajarokek
bajarokeke
bajarokeki
bajarvani
bajarvaniye
baje
bajer
bajere
baker
baki
bakr
baksi
bakteri
bakteriyan
bakteriye
baku
bakur
bakura
bakure
bakuri
bal
bala
balafir
balafira
balafiran
balafire
balafirek
balafireke
balafirgeh
balafirgeha
balafirgehe
balafirvane
balavi
baldar
baldari
baldariya
bale
balefire
bali
balinde
balindeyan
balindeye
balkan
balkanan
balkane
balkani
balke
ball
ballerstedt
balti
baltimore
balyoze
balyozxane
balyozxaneya
balyozxaneye
bamberg
bamerne
ban
bana
banaz
band
banda
bande
bandor
bandora
bandore
bandorek
bandoreke
bandori
bandorker
bandu
bane
baneye
bang
banga
bangalore
bange
banges
bangi
bangin
bangkok
banglades
bani
bank
banka
banke
banks
banner
banu
bapi
baptiste
baq
baqi
baqilan
baqile
bar
bara
baran
barana
barane
barbara
barbra
barcelona
bardata
bardi
bardiya
bare
baregeha
baregehe
bareki
bargeye
bari
baris
bariste
baristeya
barke
barkiri
barkirin
barkirina
barkirine
barnes
barnim
barok
baron
baroya
barra
barry
barselona
baru
barzan
barzane
barzani
barzaniyan
barıs
bas
basa
basan
base
baseball
based
basel
basele
basi
basic
basil
basilicataye
basirmeya
bask
baskan
baske
basketball
basketbole
baski
baskila
baskile
baskı
basnews
bass
bastei
bastu
basu
basım
bat
bate
bateyi
bati
batifa
batman
batmane
battle
batu
bauer
bav
bava
bavan
bave
baveki
bavi
bavike
bavo
bavyera
bavyeraya
bavyeraye
bawe
bawer
bawere
baweri
baweriya
baweriyan
baweriye
baweriyeke
bawerkirin
bawermend
bawermendan
bawermende
bawernameya
bax
baxc
baxe
baxi
bay
bayar
baybu
baye
bayern
bayezi
bayi
bayrak
bayram
bayreuth
baz
baza
bazan
bazar
bazara
bazare
bazarr
baze
bazek
bazeke
bazgeya
bazi
bazine
bazini
bazirgan
bazirgane
bazirgani
bazirganiya
bazirganiye
baziya
baziyan
baziye
bazneyi
bazofi
bazu
bb
bbc
bbe
bc
bd
bdp
be
bea
beach
bear
bearman
bears
beast
beatles
beaumont
beautiful
beauty
bec
because
beck
become
bed
beden
bedena
bedene
bedew
bedewe
bedewi
bedewiya
bedewiye
bedfort
bedi
bedir
bedirhan
bedirxan
bedirxani
bedirxaniyan
bedli
bedre
bee
been
beerus
bees
beesiyan
beethoven
before
befri
beg
bege
begi
begin
beginning
behaedi
behalf
behavior
behdi
behi
behind
behlu
behmei
behmen
behr
behra
behram
behrame
behre
behreye
behring
behs
behsa
behse
behskirin
bei
beijing
being
beirut
bejahi
bejahiye
bejayi
beji
bejn
bejna
bejne
bek
beke
bekgranda
beki
bekir
bekiran
bekire
beko
bektas
bel
bela
belalu
belam
belaru
belas
belav
belavbu
belave
belavi
belavkirin
belavkirina
belavkirine
belaw
belaye
belc
bele
belek
belengaz
belgas
belge
belgefi
belgeya
belgeye
belgrad
belgrade
beli
believe
belki
bell
bella
bellam
belle
belli
below
belu
bem
ben
benabe
benaz
bend
benda
bendan
bendav
bendava
bendavan
bendave
bende
bender
bendera
bendere
bendeye
bendi
bendike
bene
benedi
bengale
bengali
bengi
benglades
beni
benim
benito
benjamin
bennett
beno
benth
benz
benzi
beq
beqa
beqe
ber
bera
beral
berali
beramber
beramberi
beran
beranberi
berane
berava
berave
beravi
beraz
berazan
beraze
berazi
berbang
berbanga
berbange
berbelav
berbelavi
berber
berberi
berberis
berbi
berbic
berbijar
berbijare
berbira
berbu
berc
berchtesgadener
berd
berda
berdan
berdana
berdane
berdar
berdaye
berde
berderes
berdest
berdevke
berdewam
berdewama
berdewami
berdewamiya
berdewamkirina
berdi
berdide
berdidin
berdin
berdine
bere
berek
bereke
bereket
berekete
berendam
berendame
beresori
berev
berevaji
berevajiya
berevajiye
berevane
berevani
berevaniya
berevaniye
berew
berf
berfa
berfanbar
berfanbara
berfanbare
berfe
berfereh
berfi
berfireh
berfirehbu
berfirehi
berfirehkirina
berfirehtir
berg
berga
bergan
berge
bergen
bergi
bergiri
bergiriya
bergiriye
bergstraße
berhem
berhema
berheman
berhemandin
berhemani
berhemdar
berheme
berhemek
berhemeke
berhemkirin
berhemkirina
berhev
berhevkar
berhevkare
berhevkiri
berhevkirin
berhevkirina
berhevkirine
berhevok
berhevoka
berhevoke
berhevokek
beri
berika
berike
beriya
beriye
berje
berjewendi
berjewendiya
berjewendiye
berkar
berkare
berke
berkeley
berkeli
berkeliya
berkirin
berkuteye
berli
berlin
berline
berliner
bermahiye
bermaye
bermayi
bermayiye
bern
bernama
bername
bernamegeh
bernamekirine
bernameya
bernameyan
bernameye
bernameyek
bernameyeke
bernard
bernavk
bernavka
bernavke
bernd
berne
berneti
bernfeld
berniyas
bernkastel
bero
beroj
beros
berovaji
berpe
berpirs
berpirse
berpirsi
berpirsiyar
berpirsiyare
berpirsiyari
berpirsiyariya
berpirsiyariye
berpirsyar
berpirsyare
berre
bersi
bersiv
bersiva
bersive
bersivek
bersiveke
bersu
bertek
berteka
berteke
bertiya
bertrand
beru
bervaji
berve
berwari
berx
berxe
berxwe
berxwedan
berxwedana
berxwedane
berxwedaneke
berya
beryaci
berz
berzani
berzaxa
berze
berzenci
berzi
berzinci
bes
beschreibung
bese
beser
besi
besra
besreye
best
besta
beste
bestekar
bestekare
bester
besteres
besteye
bestine
bet
beta
betal
betalkirin
betan
betane
bete
beth
beti
betlaneya
betlaneye
betli
beton
bettelheim
better
betts
betty
betu
betula
between
bew
bewin
bexc
bexda
bexdad
bexdade
bexdaye
bexdenu
bexs
bext
bexte
bextewar
bexti
bextiyar
bextiyari
bey
beya
beyan
beyana
beyani
beyaz
beybu
beye
beyi
beyonce
beyond
beyru
beyt
beyta
beytan
beyte
beytika
bez
beze
bf
bg
bi
biafiri
bianet
biaqil
biarmicus
biave
biaxive
biaxivin
bibandor
bibcode
bibe
biberach
biberache
bibi
bibihi
bibim
bibin
bibit
bibu
bic
biceribi
bici
bicih
bicihani
bicihbu
bicihkirin
bicihkirine
bicu
bidarivi
bidawi
bide
biden
bidest
bideste
bidestxistin
bidestxistina
bidi
bidim
bidin
bidina
bidine
bidli
bidome
bidomi
bidu
bie
bieber
biedenkopf
bielefeld
bifikire
bifikirin
bifiros
big
bige
bigere
bigerin
bigi
bigihe
bigihi
bigire
bigirin
bigos
bigre
bigrin
biguhe
biguhere
biguheri
biguhezi
biha
bihar
bihara
biharan
biharat
biharate
biharbe
bihare
bihari
bihata
bihatana
bihaye
bihe
biheli
bihesibi
bihevra
bihevre
bihi
bihis
bihu
bihuri
bihus
bii
bijare
bijarte
bijarti
bijartin
bije
biji
bikar
bikarani
bikaranin
bikaraniye
bikarbi
bikardiani
bikare
bikarhani
bikarhe
bikari
bikaribe
bikaribin
bikarti
bike
bikehttp
bikele
bikeli
biken
biker
bikere
biket
bikeve
bikevin
biki
bikim
bikin
bikine
bikinhttp
bikira
bikirana
bikire
bikirin
bikis
bikit
biks
bikuje
bikujin
bil
bila
bilal
bilax
bilaxi
bilbil
bilbile
bile
bilez
bilgi
bilgin
bili
bilind
bilinda
bilindahi
bilindahiya
bilindahiye
bilindbu
bilinde
bilindiya
bilindkirina
bilindtir
bilindtiri
bilini
bilintir
bilirubi
bill
billboard
billy
bilu
bim
bime
bimes
bimi
bimire
bimre
bin
binav
binavbu
binavdikin
binave
binavkiri
binavkirin
binavkirina
binavkirine
binavu
binbes
binc
bindest
bindeste
bine
binebes
binec
binecih
binecu
binecure
binecureye
binefami
binefs
binekom
binekoma
binemal
binemala
binemale
binerati
binerd
binerde
binerdi
binere
binereti
bines
binesaziya
binesaziye
binevs
bingeh
bingeha
bingehe
bingehek
bingeheke
bingehi
bingen
bingihi
bingo
binhis
bini
binihe
binikan
binike
binirxi
binivi
binivsi
biniya
binnivi
binpe
bins
bint
binxete
binya
biographical
biography
biology
bipare
bipe
bipejiri
bipi
bipiji
bipirse
bipis
biqasi
biqedi
biqeli
biqi
biqijili
bir
bira
biradost
biradoste
birahi
biran
biras
birasti
birati
biratiya
birayan
biraye
birayeki
biraziye
birc
birca
bircan
birce
bird
birds
bire
bireser
bireve
birevin
biri
birin
birina
birinc
birince
birine
biriye
birk
birka
birke
birkenfeld
birkenfelde
birmingham
biro
birra
birrbirre
birrbirreya
birrbirreyan
birrbirreye
birri
birth
biru
biryar
biryara
biryaran
biryare
biryarek
biryareke
bis
bisaw
bisch
bise
bisekine
bisekinin
biser
biserdikeve
biserkefti
bisi
bismarck
bismil
bismila
bismile
bison
bisti
bistre
bit
bitburg
bitcoin
bitene
bitiki
bitli
bive
biwe
biwes
bixas
bixe
bixebite
bixebitin
bixemili
bixin
bixwaze
bixwazi
bixwazin
bixwe
bixwi
bixwin
biya
biyan
biyani
biyaniyan
biye
biyografi
biyoki
biyoloji
biyolojiyabikurdi
biyolojiye
biyoti
biz
bizane
bizani
bizanibe
bizanibin
bizanin
bizav
bizava
bizave
bize
bizewice
bizi
bizin
bizina
bizinan
bizine
bizir
bizmari
bizu
bizwe
bjo
bk
bkes
bl
black
blake
blank
blasco
blastoc
blau
blaulicht
bli
blingen
blingene
bliyografi
bloch
block
blog
bloga
blogspot
bloka
bloke
blonde
blood
bloom
blu
blue
blues
blume
bmw
bn
bni
bnk
bnr
bnu
bo
boa
board
bob
boc
bocnu
bodenseekreis
bodenseekreise
body
boeing
bog
bogen
bogota
bohr
bohtan
bohti
bois
boiss
bokan
bokane
bokenge
bokma
bol
bold
boli
bologna
bols
bolsonaro
bomaweyi
bombay
bombe
bombebaran
bombebarana
bombebarane
bombekirin
bombeya
bombeyan
bombeye
bombeyi
bon
bona
bonaparte
bond
bone
bones
bongilan
bongilana
bongilane
boni
bonn
bonne
bonsai
bonukleyi
book
books
boot
bor
bordeaux
border
bori
boris
boriya
boriye
borken
born
borri
bos
bosch
bosele
boseli
bosfore
bosna
bosniya
boss
bostanabad
bostanabade
boston
bosworth
bot
bota
botan
botane
botani
botanical
botany
bote
both
boti
bottom
bourgogne
bowman
box
boy
boyax
boyaxe
boye
boyi
boykot
boyle
boys
boyunca
boz
bozan
bozarslan
boze
bozkurt
bozom
br
bra
brabanta
brad
bradley
brahi
brahim
brain
bram
branch
brand
brandenburg
brandenburge
brani
braun
braunschweig
bray
braye
brazi
brazil
bre
break
breaking
breisgau
bremen
bremerhaven
bret
breton
bretoni
brezi
brha
bri
brian
bride
bridge
brie
brief
brill
bring
bristol
brit
britain
britannica
british
broadcasting
broadway
brodsky
broken
brons
bronte
bronz
bronze
bronzi
brooker
brooklyn
brooks
bros
brothers
brown
browser
bru
bruce
bruinessen
bruksel
bruksele
bruno
brunswick
bs
bu
bubo
bucak
buch
buchholz
buck
buda
budapes
budi
buenos
buffalo
bug
buha
buhar
buhare
buhaye
buhis
buhure
buhuri
build
building
bulbul
buldan
bulent
bulgar
bulgari
bulgaristan
bulgaristane
bull
bullock
bulma
bulut
bulxur
bun
bune
burg
burhan
burkay
burki
burokrat
buroya
bursa
bursaye
burton
bus
busa
buse
bush
business
buskeruda
but
buteo
butler
button
buwe
buxari
buye
buyere
buyi
bw
bxaneya
by
bya
byaye
bz
bze
bı
c
ca
cabir
cad
cade
cadu
caesar
caf
cafer
calan
calceolaria
calgary
california
call
called
callicebus
calls
caloplaca
calvados
calvadose
calvin
calw
calwe
cam
cama
cambridge
came
camelus
cameron
cami
camp
campaign
campbell
camsab
camus
can
cana
canada
canadian
canal
canale
canan
candan
candare
candidates
candname
cane
canewere
cangi
cani
canis
cannes
cannese
cannot
canorus
canpolat
cantonese
canvas
cape
capensis
capital
cappella
capra
capreolus
capsicum
captain
caption
car
cara
caracal
caran
carcaran
card
cardi
cardin
carduelis
care
career
carek
careka
careke
careki
carey
cari
caribbean
carina
carinan
carl
carlo
carlos
carmen
carna
carnan
carol
carolina
caroline
carrie
carroll
carter
case
cases
casim
cast
castle
castor
castro
cat
categories
category
catherine
cats
cause
cave
caye
caz
caze
cbs
cc
cctld
cd
cdar
cdarkirin
cdu
ce
cebel
cebilxane
cebrai
cebus
ceceli
cecil
cedi
cefer
cegerxwi
ceh
cejn
cejna
cejne
cel
cela
celadet
celal
celaledi
celali
celaliyan
celeb
celebe
celebek
celi
celikan
cell
celle
cells
celsius
cem
cemal
cembeli
ceme
cemed
cemede
cemi
cemidi
cemil
cemiyeta
cemiyeti
cems
cemsera
cemsere
cemsergiri
cemsergiriya
cemsergiriye
cemseri
cenaze
cenazeye
cend
cenevre
ceng
cenga
cengage
cengan
cenge
cengi
cengiz
census
cent
center
central
centre
centuries
century
cephalophus
cepheya
cercopithecus
cerdevan
cerdevane
cerge
ceriband
ceribandin
ceribandina
ceribandinan
ceribandine
ceribandinek
ceribane
cervaniye
cesaret
cesede
ceta
cevdet
cewad
cewer
ceweri
cewhera
cewhere
cewheri
ceye
ceyhan
ceyhana
ceyhane
ceza
cezakirin
cezaya
cezaye
cezayi
cezayir
cezayire
cezi
cf
ch
cha
challenge
cham
chamberlain
chambers
champagne
championampiyona
champions
championship
championshipampiyoniya
champs
chan
chance
chanel
chang
change
changes
channel
chapelle
chapli
chaplin
chapter
character
characters
charente
charles
charlie
charlotte
chart
charter
charts
chase
che
check
checked
chef
chelsea
chemical
chemistry
chen
chi
chicago
chief
child
children
chile
china
chinese
choi
choice
chomsky
choose
chp
chpe
chris
christian
christie
christina
christmas
christoph
christopher
chrysanthemum
chstadt
chu
chun
church
churches
churchill
chyet
ci
cia
cibran
cibrayi
cida
ciddi
cidi
cih
cihan
cihana
cihanbeyli
cihanbeyliye
cihane
cihani
cihdigire
cihe
cihek
ciheke
ciheki
cihgire
cihgirtiye
cihi
cihu
cihwar
cihware
cil
cilan
cild
cilda
cildan
cilde
cile
cilt
cilu
cimo
cin
cinan
cinawir
cincinnati
cinclus
cindi
cindire
cine
cins
cinsa
cinsan
cinse
cinsek
cinseke
cinseki
cinsi
circle
circus
cirni
cirze
cis
cisma
cisme
citation
citations
cite
cited
cities
city
civak
civaka
civakan
civake
civakek
civakeke
civaki
civaknas
civaknase
civaknasi
civaknasiye
civandin
civat
civata
civatan
civate
civateke
civati
civi
civil
civiya
civiyan
ciwan
ciwanan
ciwane
ciwaneki
ciwani
ciwaniya
ciwaniye
ciwanro
ciwantiya
ciya
ciyan
ciyawaz
ciyawazi
ciye
ciyeki
cizi
ciziri
ck
ckb
cken
cl
claire
clara
clark
clarke
class
classic
classical
classification
claude
cle
clear
cleveland
cleye
click
clinton
close
club
cm
cmll
cn
cnn
co
coach
coast
coburg
coca
cochem
code
coesfeld
cog
coga
cogan
coge
cogek
cografi
cografiya
cold
cole
coleme
colfaye
colin
collaboration
collapse
collected
collection
college
collins
colon
color
colorado
colors
coluber
columbia
columbus
column
columns
com
combretum
come
comedy
comics
coming
comma
comment
comments
commission
committee
common
commons
commonwealth
communities
community
compact
companion
company
comparison
competition
complete
complex
computer
comte
con
conan
concepts
concert
concise
condon
conduct
conference
configuration
conflict
connecticut
conrad
conservation
consider
consultation
contact
contain
container
contains
contemporary
content
contest
continue
contributions
contributors
control
conversation
conversations
conversion
convert
cook
cooper
coord
coordinates
copa
copy
copyright
cor
cora
core
corek
coreye
coreyeke
cornell
cornwall
corporation
corpus
correct
corti
corvus
cos
costa
cot
cota
cote
cotek
cotkar
cotkaran
cotkare
cotkari
cotkariye
cotmeh
cotmeha
cotmehe
coturnix
could
council
count
country
county
court
cover
covid
cowper
cox
cra
cre
create
created
creating
creation
creek
crete
cri
cricket
cricketers
crime
criminal
crisis
cristata
cristobal
crocidura
crocus
crocuta
cropped
cross
crown
cruz
cryptotis
crystal
cs
csi
css
ct
cu
cuda
cudabu
cudahi
cudahiya
cudahiye
cudakirin
cudati
cudatir
cudatiya
cudaxwaz
cudi
cuinet
culeme
cullen
cultural
culture
cum
cumberland
cumge
cumhuriyet
cumhuriyete
cummings
cup
cur
curbecur
curbicur
cure
cureya
cureyan
cureye
cureyek
cureyeke
cureyeki
curie
current
currently
curse
curtis
curzon
custom
cut
cy
cycle
cyrus
cz
d
da
dab
dabad
dabas
dabe
dabes
dabi
dabu
dac
dachau
dad
dada
dadars
daddy
dade
dadgeh
dadgeha
dadgehan
dadgehe
dadger
dadi
dadikeve
dadimeziri
dadiqurti
dadmendi
dadmendiya
dadmendiye
dadnas
dadre
dadweri
dadweriya
dadweriye
dae
dag
dagi
dagir
dagire
dagirker
dagirkere
dagirkeri
dagirkeriya
dagirkiri
dagirkirin
dagirkirina
dagirkirine
dagirti
dagirtin
daha
dahat
dahata
dahate
dahatiye
dahatu
dahe
dahi
dahiya
dahiye
dahme
dahttp
dahu
dai
daily
daimler
dais
dake
daket
daketin
daketina
daketine
daketiye
dakota
daku
dal
dalberi
dale
dali
dalida
dalkurd
dallas
dam
dama
damaliscus
dame
damezirand
damezirandin
damezirandina
dameziri
damezrand
damezrandin
damezrandina
damezrandine
damezre
damezri
damkirin
damme
dan
dana
danan
danasi
dance
dancing
dane
danek
daneke
danere
daneriye
daneya
daneyan
daneye
danezana
dangerous
dani
daniel
danielle
danike
daniki
danin
danis
daniya
daniye
daniyek
dank
danka
dankan
danke
danny
dans
dansala
danse
dante
danu
dapi
dapos
daqurti
dar
dara
darahe
daran
daraye
darayi
daraziye
darberka
darbeya
darbeye
darbeyeke
darbu
darc
dardekirin
dare
darek
dareke
dareya
dari
darike
daris
daristan
daristana
daristanan
daristane
daristani
darius
dariya
dariye
darizandin
darizandina
darizandine
dark
darkgrey
darmstadt
daru
darve
darvekirin
darvekirine
darwi
darwin
darxistin
daryu
das
dash
dashes
dasi
dasypus
dat
data
database
dataye
date
dateformat
dates
dati
daughter
dave
davi
david
davis
daw
dawa
dawe
dawet
daweta
dawetan
dawete
dawi
dawid
dawiya
dawiye
dawn
dax
daxaya
daxe
daxistin
daxistina
daxu
daxuyand
daxuyani
daxuyaniya
daxuyaniye
daxuyaniyek
daxuyaniyeke
daxwaz
daxwaza
daxwaze
daxwaziya
daxwaziye
daxwazkiri
day
daya
daye
dayeki
dayi
dayik
dayika
dayikbu
dayike
dayikek
dayiki
dayin
dayiye
dayk
dayka
dayne
daynin
days
db
dbu
dc
dd
ddevle
ddi
ddr
de
dead
deal
deali
dean
dear
death
debara
debari
debe
debi
debu
debut
dec
decdeg
december
decimal
decne
deep
def
default
defe
defined
definition
definkirin
deg
deggendorf
deh
dehak
dehan
dehap
dehaq
dehe
dehem
dehemi
dehi
dehsalan
dehsale
dei
dek
dekat
deke
deken
dekewe
deki
dekirin
dekirina
dekre
del
delal
delale
delaware
deleted
delfi
delhi
deli
delivered
delivery
dell
della
delle
delta
deltaya
dem
dema
deman
demar
demara
demaran
demare
demareguhe
demarekoendama
demareragi
demareragihandin
demareragihandine
demarexane
demarexaneya
demarexaneyan
demarexaneye
demari
demax
demaxe
demdire
deme
demek
demeka
demeke
demeki
demi
demildest
demir
demirel
demirtas
demjime
demki
demkurt
demo
democracy
demografi
demographics
demokrasi
demokrasiya
demokrasiye
demokrat
demokrata
demokrate
demokrati
demokratik
demsal
demsala
demsalan
demsale
demsali
den
dendik
dendika
dendike
dendiki
dendri
dendrolagus
dendu
dene
dener
deng
dengan
dengani
denganiya
dengbe
dengdan
dengdana
dengdane
dengdar
dengde
denge
dengek
dengeki
dengi
dengiya
dengiye
dengiza
dengnasi
deni
denis
deniz
dennis
dentu
denver
deo
deoksi
deoloji
deolojiya
deolojiye
dep
departementa
departemente
departemeta
departmena
department
departmenta
depe
deployment
depresyon
depresyona
depresyone
deputy
deq
deqa
deqan
deqe
deqeyan
deqi
der
dera
deran
derani
derave
derazi
derb
derba
derbare
derbareye
derbas
derbasbu
derbasdar
derbasdibe
derbase
derbasi
derbaskirina
derbaz
derbaza
derbazi
derbe
derbendi
derbeya
derbeye
derbeyek
derbeyeke
derbikeve
derbiri
derc
derd
derdan
derdana
derdane
derdani
derde
derdiket
derdiketin
derdikeve
derdikevin
derdixe
derdixi
derdixin
derdixist
derdor
derdora
derdore
derdori
dere
dereceya
deregez
deregeze
dereke
dereki
dereng
derew
derewa
derewan
derewe
derewi
derfet
derfeta
derfete
dergeh
dergeha
dergehe
dergisi
dergu
derhe
derheqa
derheqe
deri
deriye
derk
derka
derkar
derke
derket
derkete
derketi
derketibu
derketin
derketina
derketine
derketiye
derkeve
derkevin
derkirin
derkirina
derman
dermanan
dermane
dermanfiros
dermani
dermankirin
dermankirina
dermankirine
dermi
dernakeve
dernakevin
dernan
derneg
derneket
dernekeve
derpe
derpirandine
ders
dersa
dersan
dersdariye
dersde
derse
dersi
dersim
dersime
derte
derti
deru
derva
dervaye
dervayi
derve
derveye
derveyi
dervi
derwe
derxe
derxi
derxin
derxist
derxistibu
derxistin
derxistina
derxistine
derxistiye
derxu
derya
deryac
deryavan
deryavane
deryaya
deryayan
deryaye
deryayeke
deryayi
derzi
derziya
derziye
des
desaix
descartes
description
desert
desi
design
designation
despe
dest
desta
destan
destana
destane
destave
destbi
destdire
deste
destek
desteka
desteke
desteser
desteserkirin
desteserkirina
destexaneye
desteya
desteye
desthilat
desthilata
desthilatdar
desthilatdaran
desthilatdare
desthilatdari
desthilatdariya
desthilatdariye
desthilate
desthilati
desthilatiya
desthilatiye
desti
destkari
destkeftiye
destketi
destni
destnime
destnivi
destpe
destu
destur
destwerdana
destxistin
destxistina
det
deta
detail
details
detay
dete
detekti
deti
detir
detiri
detroit
deutsch
deutsche
deutschen
deutscher
deutschland
deux
dev
deva
devanga
deve
devedora
devedore
development
dever
devera
deveran
devere
deverek
devereke
deveru
devi
devil
devki
devlet
devok
devoka
devokan
devoke
devon
devrimci
devs
dew
dewa
dewam
dewama
dewar
dewaran
deware
dewe
dewlata
dewle
dewlemend
dewlemendan
dewlemendi
dewlemendiya
dewlemendiye
dewlet
dewleta
dewletan
dewletbu
dewlete
dewletek
dewleteke
dewleteki
dewleti
dewr
dewra
dewran
dewre
dewri
dewsa
dewu
deya
deyan
deye
deyi
deyn
deyne
deynin
dezember
dezgeh
dezgeha
dezgehe
dezi
deziyan
deziye
df
di
dia
diafire
diafiri
diajo
diakirin
dialect
diamond
diana
diane
diani
diaries
diary
diave
diaxifin
diaxive
diaxivi
diaxivin
diaya
diaye
dibare
dibe
dibeje
dibejin
dibi
dibihi
dibim
dibin
dibine
dibir
dibire
dibirin
dibistan
dibistana
dibistanan
dibistane
dibistanek
dibistaneke
dibit
dibu
dic
diceribi
dicivi
dicivin
dick
dickens
dickey
dicle
diclehaber
dictionary
dictionnaire
did
dida
didan
didane
dide
didi
didim
didin
didina
didine
didit
dido
didome
didomi
diduyan
die
dieburg
died
diego
diels
dies
different
difikire
difikiri
difikirim
difikirin
difin
difine
difinekele
difire
difirin
difiros
difirotin
difros
dige
digehe
digehi
digehine
digel
diger
digere
digeri
digerin
digeriya
digeriyan
dighe
digi
digihe
digihi
digihije
digimon
digire
digiri
digirin
digirt
digirtin
digit
digital
digits
digot
digote
digotin
digre
digrin
diguhe
diguhere
diguheri
diguherin
diguhezi
dih
diha
dihat
dihata
dihate
dihatibu
dihatin
dihatina
dihatine
dihe
dihele
dihere
diherike
diheriki
diherikin
diherisi
diherrike
dihese
dihesiband
dihesibi
dihewand
dihewi
dihi
dihok
dihoka
dihoke
dihundiri
dii
dij
dijatiya
dijber
dijbere
dijberi
dijberiya
dije
dijemi
dijepeydaker
dijepeydakera
dijepeydakeran
dijepeydakere
dijeten
dijetena
dijetenan
dijetene
diji
dijin
dijiya
dijiyan
dijmin
dijminan
dijminatiya
dijmine
diju
dijwar
dijwari
dijwariya
dijwartir
dik
dikan
dikana
dikane
dikanin
dikar
dikare
dikari
dikaribu
dikarim
dikarin
dikarit
dike
dikele
dikeli
diken
diket
diketin
dikeve
dikevi
dikevin
dikevine
dikevit
dikevite
diki
dikim
dikin
dikine
dikir
dikirin
dikis
dikit
dikole
dikos
diks
dikuje
dikujin
dil
dila
dilan
dildar
dile
dileki
dilemasu
dileyi
dileyze
dilges
dili
dilive
diljen
dilketiye
dill
dille
dillingen
dilo
dilok
dilop
dilope
dilopi
dilovan
dilovani
dilovaniya
dilpak
dils
dilsoz
dilsozi
dilsoziya
dilta
dilxwaz
dilxwaze
dilxwazi
dilxwes
dima
diman
dimatiye
dimdim
dime
dimene
dimes
dimeyi
dimi
dimiji
dimili
dimilki
dimire
dimirin
dims
dimse
din
dinase
dinav
dinavbera
dinc
dine
dinere
dinger
dingolfing
dini
dinihe
dinin
dinirxi
dinis
dinivi
dinivisi
dink
dinofelis
dinya
dinyaya
dinyaye
dinye
dion
diparast
diparastin
dipare
dipe
dipejiri
diperise
diperisin
dipeyi
dipeyive
dipeyivin
dipi
dipirse
dipirsin
diprotodon
dipsacus
diqede
diqedi
diqelis
diqete
diqeti
diqewime
diqewimin
dir
dirac
diran
diranan
dirane
diranfi
dirav
dirave
diravi
dirbe
dire
directed
direction
directly
director
direfs
dirende
direve
direvi
direvin
diri
diriq
dirist
diristker
dirkepetik
dirkepetike
diroka
diroke
diroki
dirty
diru
dirust
dis
disa
discovery
discuss
discussion
discussions
dise
disekine
disekinin
disi
disipli
disney
dispe
display
displayed
displays
distand
disti
distire
distre
distributed
district
ditewi
ditewin
diti
ditions
ditirse
ditirsi
ditirsin
div
divdir
dive
diversity
divi
division
diviya
diviyabu
diviyan
diviye
diwan
diwanzdeh
diware
diwerime
diwes
dixapi
dixe
dixebite
dixebiti
dixebitin
dixemili
dixi
dixin
dixist
dixistin
dixu
dixuye
dixwast
dixwastin
dixwaze
dixwazi
dixwazim
dixwazin
dixwe
dixwend
dixwest
dixwestin
dixweze
dixwezin
dixwi
dixwin
diya
diyagrama
diyagrame
diyaloge
diyan
diyar
diyarbakir
diyarbakır
diyarbekir
diyarbekire
diyarbekre
diyardeye
diyare
diyari
diyariya
diyariye
diyarker
diyarkiri
diyarkirin
diyarkirina
diyarname
diyaspora
diyasporaya
diyasporaye
diye
diyeye
diz
dizane
dizani
dizanibu
dizanim
dizanin
dize
dizec
dizeliqin
dizewice
dizewicin
dizi
dizivire
dizivirin
dj
djemal
dk
dkane
dkirin
dkn
dli
dms
dna
do
doc
doctor
document
documentation
documents
dodo
does
dog
dogan
dogs
doi
dojeh
dojehe
doktor
doktora
doktoraya
doktoraye
doktore
doktoriya
doktoriye
doktri
doku
dol
dolar
dolaran
dolare
dolari
dolemeri
dolls
dolmehe
dom
domain
domand
domandin
domandina
domandiye
domdar
domdari
dome
domi
don
donald
donation
donau
donbase
done
donetsk
donetske
dong
donim
donnersbergkreis
donnersbergkreise
donzdetili
door
dor
dora
dore
dorhe
dori
doris
dorpe
dortmund
dos
doski
dost
dostane
dostani
doste
dostoevsky
dostoyevski
dosya
dosyaye
dot
dota
dotrium
double
douglas
down
download
doxa
doye
doyle
doz
doza
dozdeh
doze
dozek
dozgere
dozi
dp
dq
dr
drad
drade
dradi
draft
drafting
dragon
drake
drama
dramati
dramaya
dramaye
drav
drave
dre
dream
dreams
drei
dresden
dri
drive
dro
droelektri
drojen
drojene
drojeni
drostayi
dru
druck
drust
ds
dst
dt
dtp
du
dua
duali
dubai
dubare
dubarekirin
dubarekirina
dubaremiji
dubli
duc
ducani
ducaniya
ducaniye
ducar
ducemseri
dudu
duduyan
due
duet
duh
duhende
duhendebu
duhok
duhoke
duisburg
duke
dunam
dunaye
duncan
dunya
dunyaye
dunye
duo
dur
dura
duran
dure
duri
during
durist
durmus
duru
dus
dutaxa
dutaxe
duwem
duwemi
duyan
duye
duyem
duyemi
duyemin
dvd
dvi
dw
dwarf
dwatir
dway
dwayi
dx
dxan
dy
dya
dyaye
dyayi
dye
dyene
dyo
dyoya
dyoye
dyoyek
dyoyi
dz
dı
dıs
e
ea
each
eagle
earl
early
earth
easier
east
eastern
easy
eb
ebadi
ebas
ebasi
ebasiyan
ebbas
ebdi
ebdo
ebdu
ebdula
ebdulezi
ebdulhemi
ebdulkeri
ebdulla
ebdullah
ebdullahe
ebdulmutelib
ebdulqadir
ebdulqadire
ebdulrehman
ebdulrezaq
ebdulselam
ebdulselame
ebdulła
ebdurehman
ebdurehmane
ebdurrizaq
ebe
ebek
ebendi
ebersberg
ebexe
ebi
eboster
ebostere
ebres
ebru
ebu
ebubekir
ec
ece
ecebs
ecem
eceman
ecevit
echo
eci
ecibandin
economy
ed
edad
edadi
edadiyan
edalete
edana
edane
eddie
ede
edeb
edebi
edebiyat
edebiyata
edebiyate
edena
edene
edeneye
eder
edessa
edet
edete
edeti
edgar
edge
edi
edinburg
edinburgh
edirne
edison
edit
edited
editing
edition
editor
editorial
editorlink
editors
edits
edmund
edo
eds
edu
eduard
education
edward
edwards
edwin
ee
een
ef
efa
efe
efendi
efendiye
effect
efi
efri
efs
efsane
efsanewi
efsaneya
efsaneye
efser
efsere
efsu
efu
efur
efxani
efxanistan
efxanistane
eg
ege
eger
egera
egere
egeye
egeyi
egi
egihane
egypt
eh
ehadete
eher
ehere
ehi
ehingen
ehir
ehire
ehle
ehmed
ehmedabad
ehmede
ehmedi
ehr
ehre
ehrezu
ehri
ehttp
ei
eichsta
eight
eighth
ein
eine
einen
einer
eines
einstein
either
ejdehaye
ek
eka
ekan
ekani
ekber
ekdar
ekdare
ekdari
eke
ekek
ekeke
eker
ekg
eki
ekir
ekira
ekire
ekiri
ekirin
ekirina
ekirine
ekl
ekle
ekli
eko
ekoloji
ekonomi
ekosi
ekoslovakya
ekoslovakyaye
ekrad
ekradiye
ekrem
eku
ekuador
ekvatori
ekya
ekyaye
ekyayi
el
ela
elam
elame
elami
elan
elbak
elbaka
elbake
elbe
elbumi
elc
ele
elebi
elect
election
elections
electric
electronic
eledi
elegeze
elektri
elektromagneti
elektron
elektronan
elektrone
elektroni
element
elementa
elementan
elemente
elementek
elements
eleng
elephantulus
eleqedar
eleqeya
eles
elewi
elewiyan
elewiye
elezi
elfube
eli
elif
eligible
elik
elisabeth
eliye
elizabeth
elke
elki
ellen
elma
elman
elmani
elmaniya
elmanya
elmanyaye
elmas
elo
elok
elpi
else
elsevier
elster
elu
elvis
em
ema
email
emal
eman
emar
embar
embare
embarkiri
embarkirin
embarkirina
embera
emberiza
embriyo
embriyoye
embriyoyi
emc
emdi
eme
emeha
emek
emeki
emer
emere
emergent
emeri
emerika
emewiyan
emi
emil
emilio
emily
emin
eminem
emir
emiri
emiya
emiye
emk
emka
emke
emma
emmane
emmendingen
emmendingene
emmy
emo
emperyali
empi
empire
empty
emr
emrah
emre
emrex
emrexe
emri
ems
emseddi
emsedi
emu
emzi
en
ena
enable
enabled
enbi
enc
encam
encama
encamdan
encamdana
encame
encamek
encameke
encax
encourage
encu
encumena
encyclopaedia
encyclopedia
encyclopædia
end
endam
endama
endaman
endambu
endame
endamek
endameke
endameki
endametiya
endami
endamok
endamoke
endamti
endamtiya
endazyare
endazyari
endazyariya
ende
endek
endemi
endezyar
endezyare
endezyari
endezyariya
endezyariye
endi
endoli
endonezya
endonezyaye
endoplazmi
endulus
enduluse
ene
ener
energy
enerji
enerjiya
enerjiye
enfale
enforcement
eng
enga
engagement
engal
engale
enge
engehe
engels
engi
engineering
engiya
engl
england
english
englishngili
eni
enistane
eniya
eniye
enki
enko
enli
eno
enqere
enqereye
enrico
enrique
ensemble
ensi
ensti
enstitu
ensure
entabe
entax
entaxe
entegre
enter
entertainment
entete
entomoloji
entry
enver
environment
enwer
enze
enzel
enzele
enzi
enzkreis
eo
eocene
ep
epe
epere
epgi
epgir
epi
episode
epithelium
eq
eqi
eqlawe
eqlaweye
equivalent
equus
er
era
erab
eraba
erabe
eran
erbakan
erbet
erbi
erbil
erc
erd
erda
erdal
erdan
erde
erdebi
erdelan
erdelane
erdelani
erdem
erdes
erdevan
erdewan
erdhej
erdheja
erdheje
erdhejek
erdhejeke
erdi
erding
erdnasi
erdni
erdnigari
erdnigariya
erdnigariye
erdog
erdogan
ere
ereb
ereban
erebe
erebeya
erebeye
erebi
erebistan
erebistana
erebistane
erebiya
eref
erefat
erefe
erefkendi
ereflikoc
erefname
erefnameye
erefxan
erefxane
erek
ereke
ereki
eren
ereni
eres
erevdi
erez
ergati
ergenekon
ergenekone
erh
eri
eric
erich
erif
erik
eris
erk
erka
erkan
erke
erker
erkes
erkez
erkeze
erki
erlangen
erm
erme
ermen
ermenan
ermeni
ermenistan
ermenistana
ermenistane
ermeniyan
ermeniye
ermezar
ermezarkirina
ermi
erminea
ermo
ernest
ernst
ero
eroj
eroja
eroje
eros
eroti
erqi
err
erre
error
errors
ers
ert
erta
ertan
erte
ertos
eru
ervan
ervand
ervane
ervaneki
erwane
erwin
erx
erxa
erxe
erxeni
erxeniye
erxewan
erxewane
erxeye
erza
erzan
erzerom
erzerome
erzgebirgskreise
erzi
erzingan
erzingane
erzirom
erzirome
es
esad
esas
esase
esasi
esazi
esaziya
esaziye
esc
escape
esed
esen
eser
esere
eshabe
esi
esil
esilkurd
esilzade
esker
eskeran
eskere
eskeri
eski
eskis
esla
esle
esli
esma
esman
esmanan
esmane
esmani
esmer
espan
espandina
esperanti
esperanto
esperantoye
espi
essays
essen
essential
essentials
esslingen
esslingene
est
established
este
esteti
esti
esto
estoni
estonya
estonyaye
et
eta
etc
ete
etelereb
eteye
ethem
ethnic
ethnologue
eti
etin
etiyopya
etiyopyaye
etkileri
etmedari
etni
etnopoli
eto
etru
eu
eugen
eugene
eulemur
eun
eur
eurasian
eure
eureye
euro
europa
europe
european
europride
euskirchen
ev
eva
evan
evana
evanan
evane
evaniye
evans
evdal
evdale
evde
evdi
evdila
evdile
evdirehi
evdirehman
evdirehmane
eve
eveke
even
event
events
ever
everest
every
everybody
everyone
everything
evi
evidence
evil
evin
evket
evolution
evra
evren
evrensel
evri
evro
evs
evya
ew
ewa
ewan
ewat
ewata
ewate
ewaugh
ewc
ewdi
ewe
ewey
eweya
eweye
eweyi
ewi
ewil
ewili
ewitand
ewitandin
ewitandina
ewitandine
ewite
ewiti
ewle
ewledar
ewlehi
ewlehiya
ewlehiye
ewlekari
ewlekariya
ewlekariye
ewli
ewlige
ewliya
ewna
ewq
ewqas
ewqasi
ewqe
ewr
ewran
ewrasyaye
ewre
ewri
ewriye
ewro
ewropa
ewropaya
ewropaye
ewropayi
ewropayiyan
ewropi
ewropiyan
ewru
ewt
ewte
ewti
ex
example
examples
exaneye
except
exell
exist
existing
exlaq
exlaqe
exlaqi
exlati
exov
experience
explorer
express
exse
exsi
ext
extension
external
exti
extinct
extra
ey
eya
eyaleta
eyalete
eyan
eyaz
eyda
eye
eyek
eyeke
eyeki
eyes
eyh
eyi
eylo
eyloye
eylu
eyn
eyni
eyno
eys
eytan
eyu
eyyu
ez
ezdi
eze
ezi
ezirgan
ezirgane
ezman
ezmana
ezmanan
ezmane
ezmani
ezme
ezmu
f
fa
faber
fabri
face
facebook
facebooke
facto
factor
facts
fade
fadeya
fadile
fagus
fahi
fahm
fahmkirin
fahmkirina
fai
faik
fair
fairy
faith
faktor
faktora
faktore
faku
fakulteya
fakulteye
falco
falcon
fall
falls
false
fam
fame
fami
familie
families
family
famkirin
fan
fane
fantasti
fantasy
faq
far
farabi
fari
faris
farisan
farisi
farisiya
fariz
faroe
farq
farqi
farrar
fars
farsan
farse
farsi
farsiya
faruk
fas
fase
fashion
faso
fast
fasu
fat
fate
father
fati
fatih
fatima
fatime
fatimi
fatimiyan
fatma
fauna
faunaya
faye
faysal
fazil
fbu
fc
fdc
fe
fear
feat
feature
features
featuring
feb
februar
february
feda
fedaiye
fedar
fedarkirin
federal
federali
federasyona
federasyone
federedewleta
federedewlete
fedi
feedback
feel
feet
fehm
fehmi
fek
feke
felc
felek
feleke
felesti
felidae
felis
felix
felsefa
felsefe
felsefevan
felsefeya
felsefeye
felsefi
female
femi
fen
feni
fenomene
feodal
feodali
feqe
feqet
feqi
feqiye
fer
ferat
ferate
ferd
ferda
ferdi
ferdinand
fere
ferenczi
ferguson
ferhad
ferhat
ferheng
ferhenga
ferhengan
ferhenge
ferhengeke
ferhengi
ferhengok
ferhengoka
ferho
feri
ferit
ferman
fermana
fermandar
fermandare
fermandareki
fermandariya
fermandariye
fermane
fermani
fermi
fermo
fernando
fernsehfilm
fernsehserie
ferq
ferqa
ferqe
ferrus
fers
fersend
ferwerti
ferz
ferzende
fest
festi
festival
festoya
fet
fetah
feth
fethi
fethullah
feti
fettah
few
fewzi
fexredi
feya
feydeya
feydeye
feye
feyli
feyliyan
feza
fezaye
ff
fi
fiction
fidel
field
fields
fifa
fifth
fight
figure
fikar
fikare
fikir
fikiri
fikr
fikra
fikre
fikri
fil
file
fileh
filehan
files
fili
filisti
filiti
fill
fille
film
filma
filman
filme
filmografi
films
filter
final
finals
find
findi
fine
finnmarka
fiqih
fiqihe
firat
firate
firc
fire
firefox
fireh
firehbu
firehi
firehiya
firehtir
firenze
firexaneyi
firi
firingi
firneye
firoke
firokeyan
firokeye
firos
firot
firotane
firotin
firotina
firotine
first
firu
fis
fischer
fish
fisti
fistiqe
fistixan
five
fix
fizi
fk
fkani
fkirin
fkirina
fl
fla
flag
flash
flavius
flex
flight
float
floor
flora
floraya
flori
florida
flower
flu
flying
fm
fo
fobi
focus
foka
folge
folgen
folk
folklor
folklora
folklore
folklori
follow
followed
following
fon
fona
fone
foneti
fonksiyon
fonksiyona
fonksiyone
font
fontaine
fontsize
food
foot
football
footnote
footnotes
for
forbes
force
forchheim
ford
fore
foreign
forest
forever
form
forma
format
formata
formaya
forme
formeke
former
formu
formula
forniya
forniyaye
forst
fort
forum
forward
fosfat
fosfati
fosfoli
fosfor
fosfori
fosi
foster
foto
fotosenteze
found
foundation
four
fourth
fox
fr
fra
frac
fraksiyona
fraksiyonan
fraksiyone
framed
frameless
franc
franca
france
francee
frances
francesco
franch
franche
francis
francisco
franciscoye
franck
franco
frank
frankan
frankenberg
frankenstein
frankfurt
frankfurte
franklin
frankonyaya
fransa
fransaya
fransaye
fransayi
fransi
fransiyan
fransizi
franz
fraternal
fre
fred
frederick
fredrik
free
freedom
freiburg
freiheit
freising
frekansa
frekanse
french
frensi
freud
freudenstadt
freyung
fri
friday
friedberg
friedman
friedrich
friend
friends
frieslanda
fringi
fringiye
fritz
fro
from
fromm
front
frs
fru
fruktoz
fsh
fshye
ft
fti
fu
fuad
fuat
fuhu
fulda
full
function
functionality
functions
fund
fundamentali
funds
further
fusion
futbol
futbola
futbole
futbolo
futbolvan
futbolvane
future
fuzyona
fxwes
fyodor
fırat
g
ga
gabon
gabone
gabri
gabriel
gadgets
gafis
gaga
gai
gal
gala
galaksi
galaktoz
galatasaraye
galaxy
gale
galen
galeri
galerida
galeriya
gali
galilei
galileo
galip
gallen
gallery
gama
game
games
gamet
gamete
gamma
gan
gana
ganda
gandaye
gandhi
gandi
gane
gani
gap
gar
gara
garanti
garci
garcia
garden
gare
gari
garis
garise
garisi
gariya
gariye
garke
garland
garmisch
garni
garrulus
gars
gary
garzoni
gas
gates
gaulle
gav
gava
gavan
gave
gavek
gaveke
gay
gaye
gayvn
gaz
gaza
gazan
gaze
gazella
gazetesi
gazi
gb
gdp
ge
gec
gede
gedeye
gef
gefa
gefan
gefe
gegen
geh
geha
gehan
gehe
geheimnis
gehek
geheke
gehi
gehis
gel
gela
gelale
gelan
gelawe
gelderlanda
gele
gelek
gelekan
geleke
geleki
gelemper
gelemperi
gelemperiya
gelen
geleri
gelhe
gelhenasi
gelheya
gelheye
geli
gelis
geliya
geliye
gelle
gellek
gelleki
gelo
gemeinde
gems
gen
gena
genan
genc
gence
genci
gender
gene
genera
general
generale
generaleki
generates
generation
geneti
genetta
gengaz
genges
geni
genim
genime
genocide
gentiana
genus
geographic
geometri
geometriye
geometry
georg
george
georges
georgia
ger
gera
gerald
geran
gerandin
geranium
gerard
gerau
gerc
gercana
gercane
gerd
gerdenzeri
gerdi
gerdu
gere
gerek
gereke
gerguhe
gerhard
geri
gerim
geriya
geriyan
geriyaye
germ
germa
germahi
germahiya
germahiye
germain
german
germanan
germane
germani
germany
germave
germbu
germe
germersheim
germersheime
germi
germiya
germiyan
germkirin
germkirina
gerok
geroke
gerste
ges
geschichte
gesellschaft
gestemerde
get
getting
gever
gevera
gevere
gewere
gewirki
gewr
gewre
gewri
gewriya
gewriye
gews
gey
geylani
gez
geze
gezek
gezika
gezmis
gh
ghafor
ghost
ghybu
gi
giant
giants
gibi
gibreel
gibson
gic
giessen
gif
gih
giha
gihand
gihandin
gihandina
gihandine
gihane
gihas
gihaye
gihe
gihi
gihis
gil
gilaki
gilbert
gilg
gilgame
gili
giliye
giloka
gilover
gimgim
gimgima
gimgime
gini
giovanni
gippert
gir
gira
giradaye
giraffa
giran
giranbiha
girani
giraniya
giraniye
girantir
girar
girara
girav
girava
giravan
girave
giraveke
giravi
girbu
girdek
gire
giredane
giredaye
giredayi
giregire
gireke
gireki
giri
girik
girike
girin
giring
giringi
giringiya
giringtiri
giriya
giriye
girj
girjbu
girl
girls
gironda
girondaya
girondaye
gironde
giroux
girover
girs
girse
girseya
girseye
girseyi
girt
girti
girtibu
girtin
girtina
girtine
girtir
girtiyan
girtiye
giru
gis
giuseppe
givas
give
given
gives
giya
giyadi
giyan
giyana
giyane
giyaneweran
giyani
giyayan
giyaye
giyayek
giye
gize
gje
gl
glass
gli
global
globali
globe
glomerule
gloria
glover
glu
glukagon
glukoz
glukoza
glukoze
gmbh
gmenta
gmente
gmenti
gnome
gnrh
gnu
go
goal
goblet
goc
god
godendrosi
gods
goethe
goga
goge
gogol
goguryeoye
going
goka
goku
gol
gola
golan
gold
golden
gole
golek
goleke
golf
golgi
goli
golike
gom
goma
gomada
gomadapeyam
gomadaye
goman
gome
gomik
gonde
gone
goo
good
google
goosebumps
gor
gora
goran
gorane
gorani
gorbac
gordon
gore
gorewi
goreye
gorgias
gori
goristan
goristana
goristane
gorki
gorkirina
gos
goslavya
goslavyaye
got
gotan
gotar
gotara
gotaran
gotare
gotarek
gotareke
gote
goti
gotibu
gotin
gotina
gotinaka
gotinan
gotine
gotinek
gotineka
gotineke
gotini
gotiye
gottfried
gotu
gov
govara
govend
govenda
govende
governance
government
governors
goya
goye
goyi
gozel
gozes
gr
gra
grabby
grabfeld
grace
gracilis
grad
graeber
graf
grafenau
grafi
grafik
graham
gram
gramera
grammar
grammy
gran
granada
grand
grande
grani
grant
grants
granuloza
grass
grave
gravi
gray
gre
great
greater
greatest
greek
green
greene
gregor
gregori
gregory
greifswald
grek
greki
grekiyan
greta
greva
greve
grey
gri
gridcolor
grigore
grimes
grimm
griseb
griseus
gro
ground
group
groups
grove
groß
große
gru
gruba
grup
gs
gt
gu
gua
guangdonge
guangxiye
guangzhou
guani
guardian
guatemala
guay
guest
guevara
guftu
guh
guhan
guhandar
guhandaran
guhandare
guhartin
guhartina
guhartine
guhaztin
guhaztina
guhdar
guhdari
guhdariya
guhdarvanan
guhe
guherand
guherandin
guherandina
guherandine
guherbar
guheri
guheriye
guhert
guherti
guhertin
guhertina
guhertinan
guhertine
guherto
guhertoya
guhertoye
guhertoyek
guheztin
guheztina
guhike
guhikeya
guhikeyan
guhu
guide
guidelines
guild
guillaume
guitar
gul
gula
gulan
gulana
gulane
gulas
gulbihar
gulc
gule
gulebarankirin
guleyan
guleye
guli
gulistan
gulistane
gulliver
gulo
guls
gulu
guman
gumana
gumanbar
gumane
gumgumok
gun
gunan
guncan
guncav
guncave
guncaw
gund
gunda
gundan
gunde
gundek
gundekani
gundeke
gundeki
gundem
gunden
gundewari
gundi
gundik
gundike
gundistan
gundistana
gundistane
gundistani
gundiyan
gundiye
gune
guneh
gunehe
guney
gunzenhausen
gur
gura
guran
gurc
gurci
gurcistan
gurcistane
gurciyan
gurdili
gure
gurgan
gurgum
gurgume
guri
gurira
gurr
gurze
gurzek
gus
gustav
gustave
gustavo
gusti
gutenberg
guti
guy
guyton
gwe
gwi
h
ha
haag
haber
haberler
habi
hac
haci
haco
hacı
had
hade
hadep
hadepe
hadi
hafiz
hafız
hagen
hahn
hai
hak
hakan
haki
hakim
hakime
hakkı
hal
hale
haleta
half
hali
halil
halim
halit
halk
hall
halle
halloween
halo
ham
hama
hamamelis
hambu
hamburg
hamburge
hami
hamid
hamilton
hamlet
hampshire
hamu
hamza
han
hana
hand
handbook
handbuch
handere
handin
handine
hane
hanek
haneke
hangi
hani
hanna
hannah
hannibal
hannover
hans
hantz
haploi
happen
happy
har
hara
hard
hardy
hare
hari
haris
harita
harold
harper
harris
harrison
harry
harryi
harrysm
hart
haru
harun
harvard
harvarde
harvey
harz
has
hasan
hasanlı
hasibandin
hassan
hat
hata
hatbu
hate
hati
hatibe
hatibin
hatibu
hatim
hatin
hatina
hatine
hatip
hatiya
hatiye
hatne
hatu
hauls
haus
hausen
haute
hautes
hauts
havana
have
havel
havelland
haven
havers
havi
having
hawai
hawaii
hawar
hawara
haware
hawe
hawi
hawirdor
hawirdora
hawirdore
hawiri
hawking
hay
haya
hayat
hayati
haydar
haye
haykurd
haymanaye
hayri
haze
hazim
hazir
haßberge
hbu
hd
hdk
hdp
hdpe
he
head
header
health
hear
heart
hearths
heather
heaven
heavy
heavyweight
heb
hebe
hebeiye
hebes
hebi
hebin
hebrew
hebu
hec
hece
hecer
heci
heciye
hed
hede
hedef
hedefa
hedi
hedmarka
hee
heft
heftan
heftane
hefte
heftem
heftemi
heftenameya
hefteya
hefteyan
hefteye
hefteyek
hefteyeke
hefteyi
hegazi
hegel
heger
heidelberg
heidenheim
heidi
height
heilbronn
heilbronne
heinrich
heinz
heinze
heisenberg
hejar
heji
hejmar
hejmara
hejmaran
hejmare
hejmarek
hejmareke
hejmartin
hejmartine
hejmera
hek
hekare
hekari
hekariye
heke
heki
hektar
hektor
hel
hela
helal
helandin
helandina
helawa
helbest
helbesta
helbestan
helbeste
helbestek
helbesteke
helbesti
helbestvan
helbestvana
helbestvanan
helbestvane
helbestvaneke
helbestvaneki
helbestvani
helbestvaniya
helbet
held
hele
heleb
helebc
helebce
helebceye
helebe
helen
helena
helene
heleni
heli
helium
hell
hello
hellu
helmet
helmut
help
helwest
helwesta
helweste
helwesteke
helyu
hem
hema
hemam
hemama
heman
hembe
hember
hembera
hembere
hemberi
hemde
hemdem
hemdeme
hemdemi
hemdi
heme
hemed
hemedan
hemedane
hemedani
hemi
hemiyan
hemka
hemko
hemo
hemoglobi
hempa
hemres
hems
hemsl
hemu
hemwelati
hemwelatiya
hemwelatiye
hemze
hen
hena
henane
henase
henasedana
henasedane
henasegirtine
henaseye
henbeli
hende
henderson
hene
henefi
henek
heneke
heng
hengan
henge
heni
henin
henle
henna
henri
henrik
henry
hep
hepati
hepe
heps
hepse
heq
heqaret
heqe
heqi
her
hera
herakles
heram
herb
herba
herbert
herc
herdem
herdi
herdu
herduyan
here
hereket
hereketa
herekete
herem
herema
hereme
heremek
herf
herfa
herfe
heri
herika
herikbar
heriki
herim
herin
heris
herisa
herise
herisi
heriskirin
heriskirina
heritage
heriye
herka
herkes
herkese
herkesi
herki
hermann
herme
hermine
hermione
hero
herodot
heroes
herpestes
herran
herrane
herrika
hers
herschel
herse
hersfeld
hertim
hertimi
hertis
herweha
herweki
herwesa
herwiha
herwisa
herzegovi
hes
hesab
hesaba
hesabe
hesabkirin
hesan
hesani
hesar
hesari
hese
heseke
hesen
hesena
hesenan
hesene
heseni
hesenqelaye
hesi
hesibandin
hesin
hesina
hesine
hesini
hesinkar
hesiya
heski
heso
hesp
hespan
hespe
hesreta
hesse
hessen
hesseye
hest
hesta
hestan
heste
hestek
hestewergir
hestewergiran
hestewergire
hesti
hestiyan
hestiyar
hestiye
hestiyek
hestkirin
hestyari
hesu
het
heta
hetane
hetani
hetaye
hete
heterokromiya
heteroseksuel
heteroseksueli
hetta
heute
hev
heval
hevala
hevalan
hevalbend
hevalbendan
hevalbende
hevalbendiya
hevale
hevalek
hevaleki
hevalno
hevalti
hevaltiya
hevaltiye
hevbendiya
hevbes
hevc
hevdem
hevdi
hevdu
heve
hevedudani
hevgirti
hevgirtin
hevgirtina
hevgirtine
hevi
hevin
hevji
hevkar
hevkare
hevkari
hevkariya
hevkariye
hevke
hevkirin
hevnasi
hevok
hevoka
hevokan
hevoke
hevpar
hevpare
hevpeyivi
hevpeyman
hevpeymana
hevpeymane
hevpeymanek
hevpeymaneke
hevpeymaniya
hevpeyvi
hevpis
hevra
hevre
hevri
hevrike
hevriki
hevs
hevseng
hevsengiya
hevsengiye
hevseroka
hevseroke
hevu
hevwate
hevwelati
hevwelatiya
hevwelatiye
hevzayend
hevzayendan
hevzayende
hevzayendi
hew
hewa
hewal
hewar
hewaya
hewaye
hewayi
hewayiya
hewce
hewcedari
hewcedariya
hewcedariye
hewceye
hewceyi
hewe
hewenge
hewengeye
hewil
hewildana
hewildane
hewl
hewla
hewldan
hewldana
hewldane
hewle
hewqas
hewraman
hewramane
hewrami
hews
hewza
hewze
hexamenis
hey
heya
heyama
heyame
heyamek
heyameke
heybera
heybet
heyder
heyderi
heye
heyeta
heyete
heyf
heyfa
heyi
heyna
heyne
heyran
heyrane
heys
heyta
heyv
heyva
heyvan
heyve
heywan
heywanan
heywane
hez
heza
hezan
hezane
hezar
hezaran
hezare
hezari
hezarsala
heze
hezex
hezexa
hezexe
hezi
hezkiri
hezkirin
hezkirina
hezkirine
hezkiriye
hezme
hezo
hezoya
hezoye
hezreti
hezro
hezroye
hg
hi
hicaba
hicri
hidden
hide
hidu
high
higher
highlight
hijmar
hijmara
hijmartin
hijmartina
hikme
hikmet
hiku
hikum
hikumdare
hikumeta
hikumete
hil
hilani
hilberand
hilberandin
hilberandina
hilbere
hilberi
hilbijart
hilbijarti
hilbijartin
hilbijartina
hilbijartinan
hilbijartine
hilbije
hilda
hildan
hildana
hildane
hildaye
hilde
hildesheim
hildiberi
hildibije
hildide
hildidin
hildigire
hildikis
hildin
hildiwes
hilgir
hilgirtin
hilgirtiye
hili
hilke
hilkis
hill
hillary
hills
hilma
hilme
hilmi
hilti
hilu
hilwes
him
himber
hin
hina
hinan
hinar
hinare
hinceta
hind
hinde
hindek
hindi
hindik
hindikahiye
hindiktir
hindir
hindire
hindistan
hindistana
hindistane
hindistani
hindo
hindu
hindur
hindure
hine
hinek
hinekan
hineke
hineki
hinga
hinge
hingi
hingiv
hingivan
hingive
hinik
hinin
hip
hippo
hippopotamus
hiqu
hirc
hiri
hiriye
hirmi
hirore
hirori
his
hise
hiseyn
hispania
histoire
historia
historical
history
hit
hitler
hits
hittp
hiv
hive
hiye
hiyerars
hizba
hizbi
hizir
hiziri
hizra
hizre
hizreke
hizri
hizu
hkirin
hl
hldorf
hle
hlen
hlhausen
hlingen
hm
hmkirin
hn
hna
hndar
hne
hneke
hnewergir
hngirtine
hnkirine
hnvedane
ho
hoboken
hochschwarzwald
hochschwarzwalde
hockey
hof
hogir
hogwartse
hohenlohe
hokara
hokare
hokeya
hola
holanda
holandaye
holande
holandi
hold
holding
hole
holenda
holendaye
holendi
holland
hollanda
hollandaye
hollande
hollandi
hollywood
hollywoode
holmes
holocaust
holstein
holsteine
holt
holy
home
homer
homme
homo
homofobi
homolog
homoseksuel
homoseksuelan
homoseksueli
homoseksueliye
homosexual
homosexuality
honaka
honandin
hondu
hong
honor
honorius
hook
hop
hopa
hope
hopson
hordalanda
hori
horizontal
hormon
hormona
hormonal
hormonan
hormone
hormonek
horn
horo
horror
horse
horst
hos
hose
hospital
host
hosta
hostaye
hoste
hosteye
hot
hotel
hour
house
houston
hov
hovane
hovi
how
howard
however
hoy
hoye
hoz
hoza
hozan
hozane
hoze
hp
hpg
hr
hradis
hrant
hrda
hre
hrer
hri
hringen
hrsg
hsan
hti
htir
htiri
htm
html
htmlhttp
http
https
hu
huang
hubble
hubei
hubeiye
hucreya
hucreye
hudson
hudu
hugh
hughes
hugo
hui
huju
hukim
hukme
hukmeta
hukmete
huku
hukum
hukumdare
hukumdariya
hukumeta
hukumete
huli
hull
human
humani
humanitarian
humanities
hume
hun
hunan
hunane
hundir
hundire
hundiri
hundur
hundura
hundure
hunduri
huner
hunera
hunere
huneri
hunermend
hunermenda
hunermendan
hunermende
hunermendek
hunermendeke
hunermendeki
hunger
hunt
hunter
huqu
hur
huri
hurmizgan
hurri
hurricanes
hus
huse
husein
huseyi
huseyin
huseyn
huseyne
huseyni
hussein
hvd
hwd
hyaenodon
hybrid
hyun
hz
i
ia
ian
ib
ibaban
ibe
ibi
ibihe
ibin
ibm
ibn
ibrahi
ibrahim
ic
ice
ich
ichiro
icon
id
idaho
ide
idea
ideas
identical
identifier
identity
ideta
idi
idol
idp
idx
ie
if
ifbb
ig
iglesias
ihabedi
ihre
ii
iii
iir
iju
ik
ika
ikak
ikakan
ikaki
ikan
ikand
ikandin
ikandina
ikandiye
ikc
ike
ikeft
ikefta
ikeftan
ikefte
ikefteke
ikek
ikeke
ikest
ikesti
ikestin
ikestina
ikeva
ikevaye
iki
ikildan
ikildana
ikildane
ikle
ikleki
ikli
il
ila
ilc
ile
ilemeni
ileya
ileye
ileyek
ili
ilig
ilik
ilk
ill
iller
illinois
illness
illustrated
ilm
ilme
ilmi
ilo
im
ima
image
images
imagesize
imdb
ime
img
imi
imki
imku
immanuel
impact
impatiens
imperial
implementation
importance
important
improve
improvements
ims
imt
in
ina
inah
inar
inara
inare
inc
inch
inci
include
included
includes
including
increment
ind
inda
inde
independence
independent
index
india
indian
indiana
indianapolis
indila
indirect
individual
indo
indonesia
industry
ine
info
infobox
infoboxes
information
ing
ingal
ingala
ingale
ingalls
inge
ingi
ingili
ingli
ingstad
inherit
ini
inin
initials
inki
inline
inn
inner
ino
inoye
input
inserted
inside
instagram
instagrame
instead
institut
institute
institution
institutkurde
int
inter
interested
interface
internal
international
internationale
internet
internete
interview
interviews
intervista
into
introduction
invalid
inventor
invisible
invite
invited
involved
io
ios
iowa
ip
ipa
iphone
ipod
iq
iqas
iqasi
iqe
iqi
ir
ira
irak
iran
irane
iranian
iranica
iraq
iraqe
iraqi
iraye
irc
ire
ireland
iret
iretleri
irfan
iri
irin
iris
irish
iriya
irk
irke
irket
irketa
irkete
irmak
irmike
irnex
irnexe
iro
irok
iroka
iroke
iron
irove
irovekirin
irovekirina
iroveye
iru
irvan
is
isa
isaac
isbn
isis
isla
islam
islami
islamic
islamsci
island
islands
isle
ismai
ismail
iso
israe
israel
israr
issn
issue
issues
ist
istan
istanbul
istane
istat
isti
isu
it
italia
italian
italic
italy
item
items
iti
itil
itilan
itile
itim
itiye
ito
its
itself
iucn
iv
ivan
ivane
ive
ivi
iwan
iwane
ix
ixule
iya
iyan
iyana
iyane
iyar
iyayan
iyaye
iyayek
iyayeke
iyayeki
iyayi
iye
iyek
iyeke
iyonan
iyone
iz
izady
izmi
j
ja
jaba
jack
jackson
jacob
jacques
jad
jadkujiya
jadpare
jadperest
jadperesti
jae
jaguar
jahi
jahiya
jahiye
jahr
jahrbuch
jake
jale
jam
jamai
james
jan
jana
jane
janeiro
janet
jang
januar
january
japan
japanese
japon
japonan
japone
japoni
japonica
japonya
japonyaye
jar
jaroslav
jason
java
javascript
javaye
javier
jaweroya
jay
jaye
jayi
jaypee
jazari
jazz
jbu
jdar
jdb
je
jean
jeanne
jeff
jefferson
jeffrey
jegopke
jegopkeyan
jehr
jehra
jehravi
jehre
jehri
jek
jeke
jeki
jen
jena
jenasi
jene
jeni
jennifer
jenosi
jensen
jeoloji
jeopoli
jeotermal
jer
jera
jere
jeremy
jerry
jersey
jerusalem
jerya
jeryaye
jesse
jessica
jesus
jet
jev
jevan
jevane
jewergir
jewish
jey
jeya
jeyan
jeye
jeyek
jeyeke
jeyi
jfm
jgeha
jgehe
ji
jiangsuye
jiber
jibi
jibo
jidayi
jidayik
jidayikbu
jidest
jihole
jiju
jik
jiline
jill
jim
jima
jimar
jimara
jimare
jimarey
jimareya
jimartin
jimartina
jimartine
jime
jimmy
jin
jina
jinan
jindires
jine
jinek
jineke
jinu
jit
jixwe
jiya
jiyan
jiyana
jiyane
jiyanek
jiyaneke
jiyani
jiyar
jiyaye
jiye
jiyi
jk
jki
jkirin
jkirina
jle
jmara
jmare
jne
jo
joachim
joan
jobs
joe
johan
johann
johannes
john
johnny
johnson
join
joint
jolie
jon
jonas
jonathan
jones
jong
jongkind
joo
jor
jora
jordan
jore
jorefami
jorekoma
jorge
jori
jose
josef
josep
joseph
josh
jost
journal
journals
joy
joyce
jpeg
jpg
jr
js
jstor
jtine
jtir
jtiri
ju
juan
judy
jul
jules
juli
julia
julian
juliani
julie
julien
julius
july
jun
june
jung
junge
juni
junior
juno
jupiter
juri
jurukovski
juss
just
justice
justify
justin
juventus
jwaideh
jwan
jı
k
ka
kab
kabe
kabi
kabu
kac
kadar
kadi
kadir
kadri
kadroye
kadın
kafe
kafkasyaye
kafro
kago
kagoye
kahi
kahraman
kai
kaiser
kaiserslautern
kaiserslauterne
kak
kake
kakeyi
kakile
kaku
kal
kala
kalan
kalas
kale
kaleki
kali
kalike
kalkoli
kalo
kalp
kalsi
kalsiyu
kalsiyum
kalsiyuma
kalsiyume
kam
kamal
kambi
kamboc
kamera
kameraya
kameraye
kameru
kami
kamil
kamiran
kampa
kampaniyaye
kampanya
kampanyaya
kampanyaye
kampanyayek
kampe
kampu
kamu
kamui
kamyone
kan
kana
kanada
kanadaye
kanadayi
kanadi
kanal
kanala
kanale
kanaleke
kanali
kanan
kane
kang
kani
kaniya
kaniyan
kaniye
kansas
kansere
kant
kanton
kantona
kantone
kanu
kanuna
kaose
kap
kapadokyaye
kapasi
kapi
kaplan
kapoor
kar
kara
karababa
karaca
karahan
karakter
karaktera
karakteran
karaktere
karan
karani
karanti
karatas
karaze
karbideste
karbohi
karbon
karbona
karbonat
karbonate
karbondi
karbone
karboni
kardes
kardi
kardox
kare
karebaye
karebayi
karek
kareke
kareki
karen
karer
kares
karesata
karesate
karevayi
karge
kargeh
kargeha
kargehe
karger
kargere
kargeri
kargeriya
kargeriye
kari
karibe
karibin
karibu
karim
karin
kariya
kariye
kariyer
kariyera
karker
karkeran
karkere
karkirin
karkirina
karkirine
karl
karle
karlsruhe
karma
karmend
karmendan
karmende
karok
karoli
kars
karsaz
karsaze
karsaziya
karsaziye
karta
kartaca
kartacaye
kartal
karte
kartol
kartole
kartu
karu
karwan
karwane
karyoti
kas
kasa
kase
kaset
kaseta
kasete
kasi
kassel
kasta
kastan
kaste
kasteke
kasti
kasyon
kasyone
kat
katalani
katali
kataloga
kate
katedrala
kategori
kategoriya
kategoriyan
kategoriye
katherine
kati
katibe
katiya
katiye
katjime
katoli
kature
katy
kavala
kave
kavil
kawa
kawaye
kawi
kaxeze
kaxiz
kay
kaya
kayan
kaye
kayeke
kayi
kaynak
kazim
kb
kbi
kbirin
kbirina
kbs
kbu
kc
kck
kda
kdana
kdanane
kdank
kdankan
kdanke
kde
kdihe
kdp
ke
kebab
kebaba
kebane
kebi
kec
ked
keda
kede
kedi
kedkar
kedkare
keep
kefa
kefalianos
keferdi
kefi
kefs
kefta
kefte
kefti
keftin
keftina
keftine
kegos
kehf
kehkes
kehniya
kehri
keith
keje
kek
keka
keke
keki
keko
kel
kela
kelam
kelame
kelandi
kelandin
kelaterzane
keldani
kele
keleh
keleha
kelehe
kelek
keleke
kelem
keleme
kelepora
keles
keleya
keleyber
keleybere
keleye
kelha
kelhasan
kelhe
kelheim
kelheya
kelheye
kelhu
kelhuri
keli
keliya
kellaterzan
kelly
kelt
keltan
kelti
kelu
kem
kemal
kemaledi
kemali
keman
kemana
kemanc
kemane
kemasi
kemaxa
kemaxe
kembera
kembere
kemera
kemere
kemi
kempa
ken
kena
kenala
kenan
kenare
kence
kencekirin
kenceyan
kenceye
kend
kendal
kendav
kendava
kendave
kendi
kene
keneda
kenge
kengi
keni
kennedy
kenneth
keno
kenok
kenoke
kent
kentauri
kentucky
kenya
kenyaye
ker
kera
keran
kerati
kerbela
kerberos
kerboran
kerborane
kerc
kercewse
kerd
kerdi
kerdo
kere
kerek
kereke
kereki
kerekirin
kerekirina
kerem
kerema
kereme
kereng
kereyi
keri
kerim
keriya
keriyan
keriye
kerku
kermas
kern
kerpi
kerr
kertwe
kes
kesa
kesan
kesane
kesangareth
kesayete
kesayetek
kesayeti
kesayetiya
kesayetiye
kesayetiyek
kesayetiyeke
kese
kesek
keseke
keseki
kesen
kesi
kesk
keskan
keske
keskesor
keskesore
keskin
ket
keta
kete
ketelan
ketelani
ketelonya
ketelonyaye
keti
ketibu
ketin
ketina
ketine
ketiya
ketiye
kevan
kevana
kevane
kevaneye
kevani
kevc
keve
kevi
kevin
kevintiri
kevir
kevira
keviran
kevirbiri
kevire
kevirek
kevireki
keviri
keviya
keviye
kevn
kevnar
kevnare
kevne
kevneperest
kevnes
kevntir
kevntiri
kevok
kevoke
kevt
kew
kewa
kewan
keware
kewc
kewe
kewere
kewergir
kexane
kexaneya
kexaneye
key
keya
keyan
keyani
keyaniya
keyaniye
keyati
keyaye
keybanu
keye
keyf
keyi
keyword
kezeb
kezeba
kezebe
kg
kgb
kgd
khan
khat
khate
khateya
khateyan
khateye
khateyek
khati
khatibu
khatin
khatina
khatine
khatiye
ki
kic
kid
kids
kiel
kiepenheuer
kifs
kil
kila
kilam
kilama
kilaman
kilame
kilasi
kildani
kildar
kildari
kile
kileri
kili
kilic
kilik
kiliya
kiliyan
kiliye
kiliyek
kiliyeke
kill
killed
killer
kilor
kilora
kilore
kilox
kiloxe
kim
kimdir
kin
kinc
kincan
kince
kind
kinder
kine
king
kingdom
kings
kini
kintir
kinzig
kir
kira
kiran
kirase
kirchberg
kirchheim
kird
kirde
kirdi
kirdin
kirdki
kirduwe
kire
kirhttp
kiri
kiribe
kiribin
kiribu
kirim
kirime
kirin
kirina
kirinan
kirine
kirineke
kirinhttp
kirini
kiriya
kiriye
kirkiragi
kirkirk
kirkirka
kirkirke
kirman
kirmanc
kirmanci
kirmancki
kirmane
kirmans
kirmas
kirn
kirok
kiroka
kirri
kirs
kiryar
kiryara
kiryare
kirye
kis
kisante
kisanteya
kisike
kiss
kissingen
kistan
kistane
kit
kita
kitab
kitabe
kitabi
kitabu
kitap
kite
kivs
kixse
kiya
kiyan
kiyatri
kiyatriye
kiye
kjene
kk
kkiri
kkirin
kkirina
klasi
klaus
klavyeya
kle
klee
klein
kleine
kleopatra
kleve
kli
klimt
klopedi
klopediya
klopediyeke
klori
kloroplast
klu
klubas
km
knas
knase
knaseki
kni
knight
knk
knopf
know
knowledge
known
ko
koali
koanali
kobane
kobani
kobaniye
kobraye
kobus
koc
koca
koch
kod
koda
kode
koendama
koendame
kofi
kojen
kojer
kok
koka
koke
kol
kola
kolan
kolana
kolanan
kolandin
kolandine
kolane
kolay
kole
koleja
kolekti
kolesi
kolesterole
koleyan
koli
kolik
kolika
kolike
koln
kolog
kologe
kologi
kolojen
koloji
kolojiya
kolojiye
kolombiya
kolombiyaya
kolombiyaye
koloni
koloniya
koloniye
kolonyal
kolonyali
kolumbiya
kolumbus
kom
koma
komage
komal
komala
koman
komar
komara
komare
komari
kombi
kombu
komcivi
kome
komedi
komediya
komediye
komek
komeka
komeke
komeki
komel
komela
komele
komeley
komeleya
komeleye
komeleyek
komelgeh
komelgeha
komelgehe
komelgeheke
komgirava
komi
komir
komire
komkar
komkirin
komkirina
komkirine
komkuji
komkujiya
komkujiye
kompaniya
kompaniye
kompi
kompleks
kompleksa
komplekse
kompli
komplosu
kompozi
kompu
komputer
komputera
komputere
komste
komu
komune
komuneke
komuneki
komuni
komxebata
kon
konan
kone
konfaranse
konfederasyona
konfederasyone
konferans
konferansa
konferansan
konferanse
kong
konge
kongo
kongoye
kongra
kongre
kongreya
kongreye
konrad
konse
konsepta
konsepte
konser
konsera
konseran
konsere
konsey
konseya
konseye
konsole
konsolose
konsolosxaneya
konsolxaneya
konstanti
konstantinopolis
konstanz
kontrayan
kontrol
kontrola
kontrole
kontrolkirin
kontrolkirina
konya
konyaye
koordi
kop
kopa
kope
kopi
kopiye
kopiyek
kor
kora
koran
kore
korea
korean
koreya
koreye
koreyi
kori
koriyoni
korkmaz
korkunun
korni
korniye
korniyeye
koro
korol
koronavi
koronaye
koroya
koroyi
korpele
korpeleye
korsi
korta
korte
korti
kos
kose
kosi
kosova
kosovaye
kosret
kosta
kotahiya
kotan
kotayi
koterapi
koti
kov
kovan
kovar
kovara
kovaran
kovare
kovarek
kovareke
kovi
kox
koy
koye
koyi
koz
koze
kozmeti
kr
kra
kraenzl
kran
kratera
kratere
krawe
krayna
kraynaye
krayni
krd
kre
kreati
krediye
kreis
kreise
kreuznach
kreuznache
kri
kro
kroati
kroatya
krobi
krom
kromati
kromozom
kromozoma
kromozoman
kromozome
kromozomek
kron
kronach
kroni
kronoloji
kronolojiya
kronos
kroskobe
krotubule
krso
kru
kruger
kruse
ks
kse
ksel
ksele
ksembu
ksi
ktator
ktatore
ktatori
ktatoriya
kte
kti
ktir
ktiri
ktu
ku
kuba
kubaye
kubi
kuc
kufte
kufteya
kufteyan
kufteye
kujer
kujere
kujtin
kul
kula
kulave
kulbu
kule
kuli
kulltepe
kulltepea
kulmbach
kultepeye
kultu
kultur
kulturi
kulu
kuluya
kum
kume
kumzirxe
kun
kuna
kunci
kund
kunde
kundir
kundire
kune
kunth
kur
kura
kuran
kurd
kurda
kurdan
kurdayeti
kurdbu
kurde
kurdek
kurdeki
kurden
kurdes
kurdewari
kurdi
kurdica
kurdil
kurdin
kurdische
kurdischen
kurdish
kurdiska
kurdistan
kurdistana
kurdistane
kurdistaneke
kurdistani
kurdistanica
kurdiya
kurdiye
kurdki
kurdnas
kurdnasi
kurdnis
kurdo
kurdodino
kurdperwer
kurds
kure
kurek
kureki
kuri
kurik
kurke
kurm
kurmanc
kurmanca
kurmancan
kurmance
kurmanci
kurmanciya
kurmanciye
kurmancki
kurme
kurre
kurs
kurse
kursi
kursiya
kursiye
kurt
kurtahi
kurtasi
kurtay
kurte
kurtec
kurtefi
kurtejiyan
kurtejiyana
kurtenav
kurtenave
kurtenivi
kurteya
kurti
kurtkirin
kurtkirina
kurttir
kurtulus
kus
kusel
kusele
kuta
kutan
kutayi
kuti
kutilk
kutilka
kutilkan
kutilke
kutiye
kuvark
kuweyt
kuweyte
kuzey
kvan
kvane
kve
kx
kxane
kxaneya
kxaneye
kxirawe
kxistin
kxistina
kxistine
ky
kya
kyan
kyaye
kyi
kyle
kyu
kz
kzan
kzanan
kzane
kı
kılıc
kırs
l
la
label
labele
labi
laboratu
lac
lacerta
lade
ladelfiya
ladi
lady
lagas
lago
lagos
lah
lahe
lahi
lahn
lai
lajwerde
lak
lake
laksi
laktoz
laktoze
lal
lale
lales
lali
lalis
lam
lama
lame
lamium
lan
lana
land
landa
landau
lande
landkreis
landsberg
landshut
lane
lang
language
languages
lani
lanius
lanka
lankirin
lankirina
lano
laos
laq
laqa
laqi
lar
lara
large
lari
larix
larry
lars
larus
las
laser
last
lasti
lasyon
lasyona
lasyone
lat
lata
late
later
lati
latin
latini
laudakia
laura
lauren
laurent
lausitz
lav
lava
lavan
lave
lavigne
lavrov
law
lawan
lawaz
lawe
laweki
lawik
lawike
lawiran
lawire
lawo
lawrence
lay
laya
layan
laye
layer
layeta
layete
layetek
layi
laz
lazan
lazarev
lazi
lazim
lazu
lb
lbu
lc
lccn
ld
ldar
ldu
le
lead
leader
leaders
leading
league
learn
learning
least
leave
leben
leber
lebilind
lec
lech
led
lee
lefone
left
leg
legacy
legal
lege
legel
legell
legend
legends
legleg
lehc
leheng
lehengan
lehenge
lehengeki
lehi
lehiye
leibniz
leiden
leipzig
leipzige
lek
leka
lekan
leke
leki
lekirin
lekistan
leko
lekoli
leland
lem
lema
len
lena
lenda
length
leni
lennon
lent
leo
leon
leonardo
leone
leopard
leopardus
leopold
lepilemur
lepus
lepze
ler
leri
les
lesbian
lescot
leser
leslie
less
let
leti
letis
letonya
letonyaye
letter
letters
letzte
leu
lev
level
levi
levy
lew
lewaneye
lewe
lewendi
lewheya
lewheye
lewis
lewma
lewra
lewre
lexikon
ley
leya
leyan
leydig
leye
leyek
leyeke
leyeki
leyi
leyla
leylaye
leyle
leyman
lez
leza
lezbi
lezbiyen
lezgi
lezi
leztir
lfeqar
lfeqara
lfeqare
lfiros
lgbt
lgbtnuce
lge
lh
lham
lhama
lhan
lheim
lhye
li
liaoninge
lib
libe
libnan
libnane
libnani
library
lice
license
liceye
lichtenau
lichtenfels
lidar
lidardixe
lidarxist
lidarxistin
lie
liebe
liechtenstein
lieutenant
liezen
life
liga
ligel
light
lightgrey
lights
ligor
lih
liha
lihe
lihev
lihevhati
lihevhatina
lihevhatine
lihevket
lijneya
lik
lika
likan
like
lil
lille
lily
lim
lima
limburg
limburga
lime
limek
limit
limited
lin
lincoln
linda
lindau
linden
lindl
line
lines
ling
lingan
linge
lingua
linguistics
lingvo
link
linked
links
linnaeus
linum
linus
linux
linuxe
lion
lionel
lippe
liq
liqa
liqe
lis
liser
list
listed
listeya
lists
lit
literary
literatur
literature
little
liu
liv
live
liverpool
lives
livi
living
liwaya
lixwe
liya
liyan
liye
liyeta
liz
lk
lka
lkan
lkdar
lke
lkek
lkemasu
lker
lkeri
lkeya
lkeyan
lkeye
lkeyi
lki
lkirin
lkirina
lkirine
lkoli
lku
ll
lla
llah
llaye
lle
ller
lli
lln
lloyd
llu
lm
lma
lman
lmc
lme
lmek
lmeke
lmeki
lmi
lmni
lmografi
ln
lne
lo
lobe
lobi
local
location
lock
locke
log
logo
logos
logoya
logoye
loir
loire
loireta
loirete
loji
lok
loka
loke
lokman
lokomoti
lolan
loloji
loma
lombardiyaye
lome
lometre
lometreyan
lon
lona
london
londone
lone
long
longer
lonicera
lontra
look
looking
looks
lopez
lor
lord
lordi
lori
loristan
loristane
los
lose
losos
lost
lot
lou
loughlin
louis
louise
louisiana
louvre
lov
love
loves
lovi
low
lower
loya
loye
lozan
lozane
lozof
lozofan
lozofe
lozofeki
lozofi
lozofiya
lozofiye
lp
lpe
lpeli
lpg
lqi
ls
lt
ltd
lte
lten
lteya
ltr
ltu
lu
lua
lubnane
luc
luca
lucas
lucy
ludwig
ludwigsburg
ludwigslust
lugal
luhanske
luis
lula
luna
lupin
lupus
luqman
lur
luri
luristan
luristane
luther
lutra
luxemburg
luyi
lv
lvana
lvanaye
lvanya
lxani
ly
lya
lyada
lyar
lyas
lyaye
lydia
lye
lynx
lyon
lyonan
lyu
lz
lı
m
ma
mabu
mac
macaca
macar
macari
macaristane
machairodus
machiavelli
machine
macht
maci
macmillan
macos
macropus
mad
madagaskar
madalya
madalyaya
madame
madde
maddeya
maddeye
maddi
made
maden
madena
madene
madeni
mader
madeya
madeyan
madeye
madeyek
madeyen
madi
madison
madonna
madoqua
madri
madrid
maf
mafan
mafdar
mafe
mafi
mag
magazine
magellan
magi
magic
magneti
magnoliopsida
magnus
mah
mahabad
mahabade
mahatma
maher
mahi
mahir
mahmu
mahmud
mahmut
mahsa
mahsum
mai
mail
main
maine
maintenance
mainz
major
mak
maka
make
makedoni
makedonya
makedonyaya
makedonyaye
makeqanu
makes
makexaneye
makezagon
makezagona
makezagone
makezagoni
maki
making
maksi
maku
mal
mala
malan
malana
malaya
malayi
malbat
malbata
malbatan
malbate
malbatek
malbateka
malbateke
malbateki
malbati
malcolm
maldi
male
malek
maleke
malezya
malezyaye
mali
malik
malika
malikan
malike
maliki
maliye
mall
malmi
malmo
malnis
malper
malpera
malperan
malpere
malperek
malpereke
malta
maltaye
malzarok
malzaroke
malzeme
mam
mama
maman
mame
mamekiya
mamekiye
mami
mammut
mammuthus
mamosta
mamostaye
mamoste
mamosteti
mamostetiya
mamostetiye
mamosteya
mamosteyan
mamosteye
mamosteyek
mamosteyeki
man
mana
management
manager
managers
manan
manc
manchester
mandateriya
mandela
mane
manek
manewi
maneya
maneyan
maneye
mang
manga
manganez
mange
mangi
manhattan
mani
maniya
maniye
mann
mano
mans
mansur
mantiqe
manual
manuel
many
manyeti
mao
map
mapframe
maps
maqu
mar
mara
maran
maranta
maras
marburg
marc
marcel
march
marco
marcus
mardi
mardin
mare
maregi
marek
margaret
margari
margi
margin
mari
maria
mariah
marie
marin
marina
marine
mario
marion
maritime
mariya
mark
marka
markaye
marke
marker
markeye
marki
marks
marksi
markt
markup
marley
marmara
marmaraye
marmaroka
marmaroke
marmasiye
marmosa
marmosops
marne
marneye
marogu
maroko
marokoye
marquand
marriage
mars
marse
marshall
marsi
mart
martes
marti
martin
maru
maruf
marvel
marx
mary
maryland
mas
mase
maseya
maseye
masi
masiya
masiyan
masiye
mask
mason
mass
massachusetts
massacre
mast
maste
master
mastera
mastere
masters
masu
masyon
ması
mat
mata
match
mate
matemati
matematik
matematike
mater
material
materials
materyal
materyale
materyali
mathbf
mathrm
mati
matmayi
matri
matt
matter
matthew
mau
maurice
mavi
mawe
maweya
max
maxim
maximus
maxwell
may
maya
maye
mayer
mayi
mayiye
mayli
mayu
mazda
mazdek
mazenderan
mazenderane
mazenderani
mazi
mazin
mazlum
mazu
mb
mbc
mbola
mbu
mc
mcgill
mcgraw
mckinley
mcmillan
mdar
mdare
mdariya
me
mean
meaning
means
mebest
mebesta
mebeste
mec
mecar
mecari
mecaristan
mecaristane
mecbu
meci
mecklenburg
mecklenburgische
mecli
meclisa
mecnu
med
medaille
medal
medan
mede
medeni
medi
media
mediawiki
medical
medicine
mediya
mediyan
medresa
medrese
medreseya
medreseyan
medreseye
medya
medyaya
medyaye
medyayi
meet
megali
meh
meha
mehabad
mehabade
mehan
mehane
mehdi
mehe
mehek
meheke
mehemed
mehi
mehku
mehmed
mehmede
mehmet
mehmu
mehmud
mehmude
mehname
mehrdad
mehsa
mehserte
mein
meißner
meji
mejike
mejiye
mek
meka
mekani
meke
mekeye
meki
mekke
meksi
mekteba
mela
melani
melaye
melayi
melbourne
mele
meledi
melediye
melek
melekan
melekane
meleke
meles
meleti
meletiye
melevaniye
meleye
meli
melik
melkis
melle
melodi
melodiye
melogale
melzemeye
mem
member
members
memdu
memduh
meme
memi
memik
memikan
memike
memleket
memlu
memo
memorial
memory
memu
men
mena
menan
mend
menda
mende
mendel
mendeli
menderes
mendi
mendiya
mendiye
mendo
mene
menek
meneke
menelaos
mengele
mengu
mengurri
meni
mens
menschen
mensu
ment
mentiq
mentiqe
menu
menzu
meqale
meqam
meqame
meqesoka
mer
mera
meras
merasi
meraxa
meraxaye
merc
mercan
merce
mercedes
merci
mercury
merd
merdan
merde
merdi
merdim
merdimi
merdu
mere
merend
merende
meres
merge
mergeya
mergeyan
mergeye
merheba
meri
meriv
merivan
merive
meriveki
meriyan
meriyete
merkezi
merku
merlin
mermere
merriam
mersi
mertal
mertale
merwan
merwani
merwaniyan
meryem
mes
mesafeya
mesci
mesela
mesele
meseleya
meseleye
mesi
mesihi
mesnil
mesoplodon
message
messages
mest
mestir
mesu
mesud
met
meta
metaboli
metafaze
metafi
metafizi
metal
metale
metalek
metali
metan
mete
metek
meteke
metelok
meteoroloji
meteorolojiye
method
meti
metin
metir
metirsi
metirsiya
metirsiye
metiya
metne
metod
metoda
metode
metran
metrane
metre
metreyan
metreye
metreyi
metri
metro
metropol
metropole
metropolitan
metroya
metroye
metta
mewlana
mewlu
mexdu
mexican
mexico
mexlu
mexmu
mexrib
mexribe
mey
meya
meyafarqi
meydan
meydana
meydane
meye
meyer
meyi
meyla
meymu
meyte
meze
mezele
mezheb
mezheba
mezhebe
mezhebi
mezher
mezi
mezin
mezina
mezinahi
mezinahiya
mezinahiye
mezinan
mezinbu
mezine
mezini
meziniya
mezinkirin
mezinkirina
mezintir
mezintiri
mezoli
mezopotamya
mezopotamyaya
mezopotamyaye
mezra
mezraye
mezre
mezree
mezreye
mezrikeke
meztir
mezu
mf
mfe
mfegire
mfexane
mfexaneya
mfexaneyan
mfexaneye
mfosi
mg
mhc
mhnt
mhp
mhpe
mi
mia
miami
mic
micahi
micahide
michael
michel
michelle
michigan
mico
microbiology
microcebus
microgale
microsoft
microsofte
mid
middle
middleeast
midnight
midu
midyad
midyada
midyade
mie
miesbach
mifa
miftiye
might
miguel
mih
mihe
mihemed
mihemede
mihemmed
miho
mihri
mij
mijandin
mijar
mijara
mijaran
mijare
mijarek
mijareke
mijdar
mijdara
mijdare
miji
miju
mika
mikaelf
mikai
mike
mikhail
miks
mikse
mil
milan
milano
milazgir
milazgire
mile
miles
milet
miletan
milete
mileti
mili
military
miliyetc
milk
milke
mill
miller
millet
millete
milli
million
milliyet
milliyetc
millkari
miltenberg
milwaukee
milyar
milyon
milyonan
milyone
milyonek
milyoni
mim
mimku
mimkun
min
mina
minak
minaq
minare
minareya
minas
mind
minden
mine
minerva
ming
mini
minister
minnesota
minogue
minor
minority
minorsky
minutes
miocene
mir
mirad
mirade
mirafra
mirazan
miraze
mire
mirgewer
mirgewera
mirgewere
miri
mirin
mirina
mirine
miriyan
miriye
mirov
mirova
mirovahi
mirovahiye
mirovan
mirovane
mirovati
mirovatiye
mirove
mirovek
miroveke
miroveki
mirovi
mirovnasiya
mirror
mirza
mis
misc
mise
misilman
misilmanan
misilmane
misilmantiye
misir
misira
misirc
misirca
misirce
misire
misiri
miske
misliman
mislimanan
misoger
misre
misri
miss
missing
mission
mississippi
missouri
miste
mistefa
mistefaye
mit
mitchell
mitirb
mittelmark
mitterrand
mix
mixabin
mixali
miya
miyan
miyanduaw
miyanduawe
miyane
miyaneye
miye
miyoza
miyoze
miyozi
mizgeft
mizgefta
mizgeftan
mizgefte
mizgeftek
mizgi
mizi
mizu
mizuki
mk
mkana
mkane
mkirin
mkirina
ml
mm
mn
mo
mobetan
mobi
mobile
mod
moda
modaye
mode
model
modela
modele
modelek
modeleke
moderatoriya
modern
moderni
modul
module
modules
mohajeer
mohammad
mohammed
mohr
mohra
mohrkirin
mohsen
moi
mok
moke
mokevan
moksi
mol
molau
moldova
molecular
moleku
molekul
molekula
molekulan
molekule
molekulek
moli
molla
moloji
molojiya
mon
mona
monako
monars
monde
mone
money
mongol
mongolan
mongoli
mongolya
monitor
monodelphis
monosakkari
monosi
monoti
monozygotic
monroe
monster
mont
montana
monte
montenegro
montenegroye
month
montifringilla
montreal
montserrat
moon
moore
mor
mora
more
morfi
morfoloji
morgan
mori
moringa
morning
morocco
morris
morrison
mos
moscow
mose
moseye
mosi
mosko
moskova
moskovaye
moskow
moskowe
moskoye
moskvaye
most
mot
motacilla
mother
moti
motion
motki
motkiya
motkiye
motor
motora
motore
mount
mountain
mountains
mouse
move
movement
movie
movike
moxe
moxolan
mozai
mozan
mozart
mozilla
mp
mparator
mparatore
mparatori
mparatoriya
mparatoriye
mparatorlug
mparatorluk
mpasawi
mperator
mperatore
mperatori
mperatoriya
mperatoriye
mperetoriya
mph
mpi
mpiyade
mptome
mr
mraniya
mrs
mru
ms
mt
mter
mti
mtir
mtiri
mtv
mu
muawiye
much
muci
mug
muh
muhaci
muhafezekar
muhamed
muhammad
muhammed
muhemed
muhemmed
muhemmede
muhi
muhyedi
mukri
mukriyan
mukriyani
multi
multiple
mumbai
mumkin
muni
munich
munstere
muntiacus
munzur
mur
murad
murat
murder
murr
murray
murs
mus
musa
muscle
muse
museddiq
museum
musi
music
musical
musile
musk
muslim
mussolini
must
mustafa
mustefa
mustela
musul
muxalefete
muze
muzexaneya
muzeya
muzi
muzik
muzike
mw
mxane
mxwi
my
mya
myager
myagere
myanmar
myawi
myaya
myaye
myayi
myewi
myosorex
myspell
mysql
mystery
mythology
myths
mze
mzekirin
mzekirina
mzeya
mzeye
mıhoyan
n
na
nabe
nabi
nabin
nac
nach
naci
nacional
nad
nade
nadi
nadin
nadine
nadir
nafi
nagihi
nagire
nagirin
naguhere
naha
nahe
nahi
nahiya
nahiye
nahiyeya
nahiyeye
nahya
nai
naja
naji
nak
naka
nakan
nake
nakek
nakeke
nakeve
nakevin
naki
nakim
nakin
nakok
nakoki
nakokiya
nakokiyan
nakokiye
nal
nala
nalbend
nale
nali
nam
name
named
names
namespace
namespaces
nameya
nameyan
nameye
nameyek
nameyeke
nami
namu
namzed
namzede
namzedi
namzet
namzete
nan
nana
nancy
nandin
nane
nani
nanna
nanse
napejiri
napoleon
napoli
naqabi
nar
nara
nare
nari
narkoti
nas
nasa
nasandin
nasandina
nase
nasekirin
naseya
naseye
nashville
nasi
nasir
nasiye
naskiri
naskirin
naskirina
naskirine
nasname
nasnameya
nasnameye
nasnave
nasr
nasseri
nasti
nastu
nasturiyan
nasyon
nasyona
nasyonalsosyali
nat
nata
nate
nathan
nation
national
nationale
nationalism
nations
native
nato
natore
natoye
natural
nature
nau
nav
nava
navan
navandin
navaroka
navbe
navber
navbera
navberan
navbere
navbeyna
navbeynkari
navbeynkariya
navbiri
navbori
navc
navdar
navdara
navdarbu
navdare
navdartiri
navde
navdewleti
nave
navek
naveke
naveki
naven
navend
navenda
navende
navendek
navendeke
navendi
navendiya
naverast
naverasta
naveraste
naverok
naveroka
naveroke
navgi
navi
navik
navika
navike
navikrasteqi
navinci
navkirin
navle
navnedi
navneteweyi
navnetewi
navni
navoki
navpenc
navpere
navpos
navu
navxwe
navxweyi
navy
navya
naw
nawa
nawc
nawe
nawendi
nawi
naxc
naxe
naxwaze
naxwazim
naxwazin
naxwe
nay
naya
naye
nayi
naz
naze
nazi
nazik
nazim
naziyan
nazlu
nazmi
nazmiye
nazmiyeye
nba
nbar
nbc
nbega
nbege
nber
nbera
nberan
nbere
nberg
nberoka
nbexs
nbi
nbire
nbu
nc
nca
ncan
nce
ncem
ncemade
ncemi
nceperde
nchen
nchez
nci
ncs
nd
nda
ndan
ndana
ndane
ndani
ndar
ndara
ndaran
ndarbu
ndare
ndari
ndariya
ndariye
nde
ndem
ndeme
nden
nder
ndewer
ndeweran
ndewere
ndi
ndij
ndije
ndina
ndire
ndone
ndonezya
ndonezyaye
ndro
ndu
ndustri
ne
neani
near
neasayi
nebas
nebat
nebatan
nebate
nebe
nebi
nebin
nebraska
nebu
nebukadnezar
nec
necat
necessary
neci
neckar
necmedi
necmettin
necmi
neda
nedan
nedane
nedaye
nede
nedi
nedibu
nedida
nedihat
nedihate
nedikari
nedikir
nedikirin
nedim
nedin
nedixwest
nediyar
nedizani
need
needed
needs
nefel
nefermi
nefi
nefret
nefrete
nefronan
nefrone
neft
nefte
negati
negerguhe
negihi
negihis
negire
negirt
neguhe
neh
neha
nehat
nehate
nehati
nehatibe
nehatibu
nehatin
nehatine
nehatiye
nehe
nehem
nehemi
neheq
neheqi
neheqiye
nehi
nehis
nehiya
nehiye
nehri
nehttp
nei
neil
neiße
nejat
nek
neka
nekare
nekari
neke
neket
neketiye
nekeve
nekevin
neki
nekifs
nekin
nekir
nekiri
nekiribu
nekirin
nekirine
nekiriye
nekis
nekropola
nekus
nelle
nelly
nelson
nem
nema
nemabu
neman
nemane
nemaya
nemaye
nemayi
nemaze
neme
nemi
nemir
nemru
nen
nenas
nendetiya
nendeye
neni
nenivi
neo
neoli
nepal
nepale
nepe
nepeni
neptu
neqanu
neqis
neqs
ner
nera
neral
nerale
neran
nerast
nerazi
nere
nerek
nereke
nereki
neri
neriya
neriye
nerm
nermalav
nermalava
nermalave
nermi
nermiji
nertiya
nes
nesaz
nesaze
nesazeki
nesazi
nesaziye
neser
nesi
nesle
nesredi
nesri
nestoriyan
nestu
net
netanyahu
nete
netew
netewa
netewan
netewe
netewepare
neteweperest
netewepereste
neteweperestiya
neteweperwer
neteweperweri
neteweperweriya
neteweya
neteweyan
neteweye
neteweyek
neteweyeke
neteweyi
neteweyiya
netewi
netewperest
netflix
netherlands
neti
netkurd
network
neu
neuburg
neue
neuhaus
neuhausen
neukirchen
neumarkt
neunkirchen
neurergus
neuron
neuss
neustadt
neuville
nevada
neve
never
nevi
neviya
neviye
nevs
new
newa
newal
newala
newale
newaleke
newaye
newcomer
newe
newer
neweran
newere
neweri
newey
newfoundland
newroz
newroza
newroze
news
newsletter
newton
newyork
nexasim
nexede
nexedeye
nexos
nexs
next
nexwe
nexwes
nexwest
ney
neya
neyan
neye
neyek
neyeke
neyeki
neyi
neynika
neynike
nez
nezan
nezani
nezayendi
nezelal
nezewici
nezi
nezike
ng
nga
ngan
ngane
ngapu
ngav
ngava
ngave
ngaveke
ngc
nge
ngeh
ngeha
ngehan
ngehe
ngehek
ngeheke
ngen
ngi
ngili
ngilistan
ngilistane
ngilizi
ngiya
ngiyaya
ngiyaye
ngiye
ngl
ngli
nglistan
nglistane
ngo
ngol
ngole
ngrade
ngtir
ngtiri
ngu
nh
nhe
nhi
nhttp
ni
nia
nic
nice
nicholas
nicht
nick
nicolas
nicole
nie
niels
nietzsche
nifir
nifs
nifu
nig
nigan
nige
night
nightmare
nigill
nih
niha
nihat
nihe
nijad
nijada
nijade
nijadi
nijadperest
nijadperesti
nik
nika
nikane
nikare
nikari
nikaribe
nikaribin
nikaribu
nikarim
nikarin
nike
nikola
nikos
nikule
nils
nim
nime
nimi
nimre
nimu
nin
nina
nine
ningen
nintendo
ninth
niqas
nirx
nirxa
nirxandin
nirxandina
nirxandine
nirxe
nirxeke
nis
nisan
nisbiyeta
nise
nisi
nist
nit
nivalis
nive
niversitesi
nivi
nivis
nivisandin
nivisandine
nivisi
nivisiye
niviskar
niviskare
nivs
niya
niyan
niyar
niyara
niyare
niyarkirin
niyasi
niyaz
niyaza
niyaze
niye
niyek
niyeke
niyeta
nizam
nizamettin
nizane
nizani
nizanim
nizanin
nizari
nizi
nizim
nizimtir
nizm
nj
nk
nka
nkan
nkar
nkare
nkarkirina
nke
nkeqeli
nkeya
nkeye
nki
nkiri
nkirin
nkirina
nkirine
nko
nl
nlande
nlenda
nlendaye
nlendi
nlu
nm
nmij
nn
nnas
nnasi
nnasiya
nnasiye
no
noah
nobedare
nobel
nobela
nobele
nobots
node
noe
noel
noir
nojdar
nojen
nok
nokan
noke
nola
noloji
nolojiya
nom
nomi
nominations
non
none
nopole
nopoli
noqav
noqi
nor
nora
noran
nord
nordar
nordlanda
nordrhein
nordwestmecklenburg
nore
norgeha
norgehe
nori
norkiri
norkirin
norm
normal
normale
norman
normandi
normandiya
normandiyaye
norme
nors
north
northern
norwe
nos
not
notation
notaya
notaye
note
notes
nothing
notice
notoc
notre
nous
nouvelle
nov
nova
novel
november
novi
now
noye
nozdeh
nr
nre
ns
nsan
nsanan
nsane
nsdap
nsi
nsiyati
nski
nster
nsti
nsuli
nt
ntaya
ntaye
nte
nter
nterfaze
nterferon
nternet
nternete
nth
nti
ntir
ntu
nu
nuclear
nuestro
nuh
nuha
nuke
nukleer
nukleeri
nukleoti
number
numbers
numeral
numeric
nun
nur
nuri
nus
nusi
nusxeye
nutt
nuwazeye
nve
nware
nwe
ny
nya
nyal
nyalan
nyale
nyaye
nye
nyi
nymphaea
nynorsk
nyu
nz
nzana
nzburg
nzi
nzu
nın
o
oakland
ob
obama
oban
oberallga
oberbergischer
oberhavel
oberpfalz
oberspreewald
obituary
object
oblast
oblasta
oc
ocalan
occo
occurs
ocean
och
ochotona
oclc
oct
october
oda
ode
odenwald
oder
oderland
odeya
odeye
odi
oecd
of
ofe
off
offenbach
office
official
offset
ofi
og
ografi
oguz
oh
ohio
ohne
oi
oil
ois
oisa
oisae
oise
ok
oka
okan
oke
oki
oklahoma
oksi
oktar
oktober
okyanu
ol
ola
olan
old
oldar
oldare
oldenburg
ole
oleke
olga
oli
oliver
olivia
olof
oloji
olson
olti
oltiye
olya
olympia
olympic
om
oman
omane
omar
ome
omer
omera
omeran
omeri
omeriya
omerxali
omi
on
ona
onca
once
one
onepage
ones
oni
online
only
ontario
oosi
op
opa
opand
opandin
opandina
opandine
ope
open
openoffice
openstax
opera
operasyon
operasyona
operasyone
operasyoneke
operation
operatore
operaya
operaye
opi
opiya
opiye
opiyeke
opozi
opplanda
opsi
opti
option
optional
options
or
oral
oran
orange
oras
orbe
orbeya
orbeye
order
ordi
ore
oregon
oremar
oreotragus
ores
org
organa
organe
organi
organisation
organization
orhan
ori
orient
oriental
orientalis
orientation
origi
origin
original
origins
oriji
orik
oris
orjeni
orji
orke
orkestraya
orkestraye
orlando
orleans
orlu
oro
ors
orsane
orta
orte
ortenaukreis
ortodoks
orwell
oryone
os
oscar
oscare
ose
oseti
oskar
oskuye
oslo
osloye
osman
osmanan
osmane
osmani
osmaniyan
osmaniye
osmaniyeye
osmanlı
osmozi
ostalbkreis
ostallga
osti
ostprignitz
ot
ote
other
others
otherwise
oti
otobuse
otomati
otomobi
otomoti
otonom
otonomi
otonomiya
otonomiye
otori
ots
ottawa
otto
ottoman
otus
ou
our
out
output
outside
outstanding
ov
ova
ovaye
ove
over
overijssela
overview
oveya
oveye
oveyek
ovis
owe
owen
owl
owls
own
ox
oxford
oxforde
oxos
oy
oya
oye
oz
ozc
ozgur
p
pa
pabendbu
pablo
pac
pacific
padding
paderborn
padi
padis
pads
page
pages
pahn
pak
pake
paki
pakij
pakistan
pakistane
pakistani
pakta
pal
pala
palace
pale
paleocene
paleoli
pali
palme
palmi
palo
paloye
palpis
palu
pami
pamuk
pan
panama
panamaye
pandemiya
pane
panel
pani
pankreas
pankrease
panorama
panoramio
panthera
panzdeh
paolo
papa
papaye
papers
papi
papua
paqij
paqiji
paqijkirin
paqijkirina
par
para
paradise
paraguay
paralel
paralele
parameter
parameters
parametre
parametreye
paramorder
params
paran
parasi
parast
parasti
parastin
parastina
parastine
parastiye
parati
parc
parchim
pardus
pare
parek
parelele
parent
parentheses
parents
parezgeha
pargi
pari
paris
parise
park
parka
parke
parker
parlamen
parlamena
parlamene
parlamenter
parlamentera
parlamenteran
parlamentere
parlamentoya
parlamentoye
parlemena
parlementere
parlementoya
parlementoye
parliament
pars
parsa
parse
parser
parsi
parsu
part
partenkirchen
parti
participate
participation
particular
partisi
partiya
partiyan
partiye
partiyek
partiyeke
partner
partners
parts
party
parva
parve
parvekirin
parvekirina
parvekirine
parzemi
parzu
pas
pasaporta
pasdaran
pasdare
pasha
pasi
pass
passau
passer
passes
passion
past
pasta
pasu
pat
patent
patenta
pati
patnos
patnose
patri
patrick
paul
pauli
paulo
pav
pavarotti
pawe
pawlos
paxire
paxta
paxte
paya
paye
payebilind
payeya
payeye
payi
payiza
payizavaye
payize
pays
paytext
paytexta
paytexte
paz
pc
pckurd
pdf
pdk
pdke
pdki
pe
peace
pearl
pearson
pec
pedagoji
pedi
pediya
pediyaya
pediyaye
pedro
pegnitz
pehlevi
pehlewani
pehlewanistane
pehlewi
pehlewiyan
pehn
pejirand
pejirandi
pejirandin
pejirandina
pejirandine
pek
peke
peki
pel
pela
pelan
pelc
pele
pelek
peleke
pelge
pelhevi
peli
pelre
pelu
pembe
pembo
pembu
pen
pena
penaber
penaberan
penabere
penaberi
penaberiye
penc
pencereye
pences
penci
pene
peni
pennell
pennsylvania
pensi
penthouse
people
pepsi
pepti
pepu
per
pera
perava
perave
perc
percy
perde
perdeya
perdeyan
perdeye
perdeyek
pere
peresan
peresane
peresi
perest
perestan
perestgeh
perestgeha
perestgehan
perestgehe
pereyan
pereye
perfect
performance
performans
performansa
performanse
performed
performer
pergal
pergala
pergale
pergalek
pergaleke
pergali
peri
perik
perike
perinc
period
perisi
perl
perleman
perre
perri
perry
pers
persan
persephone
perseu
persi
persia
persian
persiya
person
personal
personele
perspekti
pertew
pertu
peru
pervi
perwer
perwerde
perwerdehi
perwerdehiya
perwerdehiye
perwerdekirin
perwerdekirina
perwerdeya
perwerdeye
perwerdeyi
pes
pesne
pesto
pestoya
pestoye
pet
pete
peter
petersbu
petersburg
petersburge
petit
petro
petrogale
petrol
petrola
petrole
petronia
petunia
pevc
pexember
pexs
pey
peya
peyam
peyama
peyamber
peyame
peyamek
peyamne
peyaye
peyda
peydabu
peydakirin
peydakirina
peyde
peyi
peyitandin
peyivi
peyka
peyke
peyker
peykera
peykere
peykeremasu
peyman
peymana
peymanan
peymane
peymanek
peymaneke
peymangeha
peyrewe
peyv
peyva
peyvan
peyve
peyvek
peyveke
peyvi
peyvnasi
peywend
peywendi
peywendiya
peywendiye
peywi
peywira
peywirdar
peywirdariya
peywirdarkirin
peywire
pez
peze
pezmijoka
pezmijokan
pfaffenhofen
pfalz
pfalze
pg
pguhe
ph
phalanger
phase
phe
phil
philadelphia
philantomba
philip
philipp
philippe
phillies
phillips
philosophy
phoenix
photo
photos
php
phylogenetic
phylogeny
physical
physics
physiology
pi
piano
pic
picasso
piccolo
picto
pictogram
picture
pictures
pie
piece
pieces
piemonte
pier
pierre
pijandin
pik
pil
pila
pile
pilemore
pileya
pileye
piling
pilinge
piliocolobus
pilu
pincar
pincare
ping
pink
pinus
pinyin
piper
pir
pira
pirali
pirami
pirani
piraniya
piraniye
pirates
pirbu
pirc
pirde
pire
pirek
pireye
piri
pirik
pirike
pirin
pirjimar
piroz
pirr
pirrali
pirrani
pirraniya
pirrjimar
pirrsalane
pirs
pirsa
pirsan
pirse
pirsgire
pirsi
pirtik
pirtike
pirtir
pirtiri
pirtu
pirtuk
pirtuka
pirtuke
pirzimani
pis
pisi
pismam
pismame
pispor
pisporan
pispore
pispori
pisporiya
pisti
pitew
pitik
pitikan
pitike
pitir
pitt
pittsburgh
pixel
piya
piyade
piyan
piyani
piyano
piyanoye
piyase
piyaseye
piye
pizi
pizis
pjak
pjake
pkk
pkke
pkkye
pl
place
placed
places
plain
plakaya
plan
plana
planck
plane
planet
planets
plankirin
planned
plant
plantarum
plantilla
plants
plasenta
plasentaye
plasti
platform
platforma
platforme
plati
plato
platon
play
playboy
player
players
plaza
plazma
plazmaya
plazmaye
ple
please
pleistocene
pli
pliocene
plo
ploi
ploma
plomasi
plomasiya
plomasiye
plomat
plomate
plomati
plotarea
plotdata
plu
plus
pmc
pmid
png
po
poe
poems
poet
poetry
pofi
point
points
poker
pol
pola
polat
polatliye
polaye
pole
poli
police
policies
policy
polis
polisye
politi
political
politics
politik
politika
politikaye
polo
polon
poloni
polonya
polonyaye
poly
pompe
pompeya
pompeye
pont
ponti
pop
pope
popu
popular
population
populer
populerbu
por
pore
porn
porno
pornografi
pornoste
pornoye
porsche
port
portal
portala
portale
porte
porteki
porter
porto
portre
portreya
portreye
portu
portugal
pos
position
positive
possible
post
posta
postaye
poste
posted
posteye
postkod
pot
potalamus
potalamuse
potansiyel
potansiyela
potasyum
potasyume
potential
poteza
potsdam
potter
pottery
pour
power
poz
poze
pozi
pp
ppingen
ppingene
ppm
pr
pradesh
prag
prage
prati
pre
precision
predefinic
preferences
prefix
prema
premier
premiers
premio
prens
prense
prenses
prensi
preparate
presbytis
present
presidency
president
presidential
presley
press
presti
pretty
pri
pride
prignitz
primary
prime
primetime
prince
princess
princeton
principles
print
prionailurus
prison
private
prix
prize
pro
problem
probleme
problems
process
procesteron
procesterone
produces
product
production
prof
profesor
profesore
professional
professor
profesyonel
profesyoneli
profi
profile
program
programa
programe
proje
project
projects
projeya
projeye
projeyek
projeyeke
prolakti
prometheus
propaganda
propagandaya
propagandaye
proper
properly
properties
proposal
proposals
proposed
pros
prose
prosesa
prosese
proseya
prostaglandi
prostat
prostate
protei
protestan
protesto
protestokirina
protestoye
proti
proto
protokola
protokole
proton
protonan
provence
provide
provided
provides
province
pru
prz
ps
psi
psiyona
psk
psychoanalyse
psychological
psychologie
psychology
psychosozial
pt
pti
ptolemai
pu
public
publication
publications
published
publisher
publishers
publishing
pubmed
puccinia
puerto
pugliaye
puk
pukmedia
puldes
pulo
pulure
puma
punctuation
punk
purcell
pure
purpose
purposes
pussycat
put
px
pycot
pyd
pyo
python
pz
pınar
q
qa
qabi
qabilcewze
qac
qacar
qacaran
qacari
qacariyan
qad
qada
qadan
qade
qadeke
qadi
qadir
qadire
qadiri
qado
qafiye
qafqasya
qahi
qai
qal
qala
qale
qali
qaliba
qalibe
qalik
qalika
qalike
qalind
qamc
qami
qamis
qan
qanate
qani
qanu
qapu
qar
qas
qase
qasi
qasim
qasimlo
qaso
qat
qata
qatan
qate
qatek
qati
qaya
qaye
qayi
qaz
qaza
qazakan
qazan
qazaxan
qazaxistan
qazaxistane
qazi
qazwe
qe
qebare
qebareya
qebi
qebu
qebul
qedafi
qedand
qedandin
qedandina
qedandiye
qedayi
qede
qedeh
qedeha
qedera
qedere
qedexe
qedexekirin
qedexekirina
qedexeya
qedexeye
qedi
qediya
qedr
qedra
qedre
qedri
qefesa
qefqasya
qefqasyaye
qefqaze
qefqazi
qehi
qehreman
qehremane
qehwe
qehweyi
qela
qelac
qelas
qele
qelebalix
qelecu
qelem
qeleme
qelew
qeli
qelis
qeliye
qels
qemc
qemer
qenala
qenariye
qenc
qenci
qenciya
qenciye
qendi
qepsu
qeraxa
qeraxe
qere
qerebas
qerebaxa
qerebaxe
qerebilax
qerec
qerehesene
qerejdax
qerejdaxe
qerekose
qerekoseye
qereme
qeremezre
qereqola
qereqole
qeretepe
qerexan
qerexana
qereyazi
qereyaziye
qerf
qerfi
qero
qerqeli
qerqeliye
qers
qerse
qertafa
qertafe
qes
qesi
qesr
qesra
qesre
qesta
qesti
qet
qeta
qete
qeter
qetere
qeti
qetil
qetilkirin
qetli
qewal
qewalan
qewale
qewet
qewi
qewimi
qewimiye
qewirandin
qewl
qewle
qewme
qey
qeyd
qeyda
qeyde
qeydkiri
qeydkirin
qeye
qeyrana
qeyser
qeyseri
qeysi
qeza
qezay
qezaya
qezaye
qezayeke
qezenc
qezence
qezwi
qi
qijak
qilaban
qilabane
qile
qilebane
qili
qiloc
qin
qing
qir
qire
qirgizistan
qirik
qirika
qirike
qirkirin
qirkirina
qirkirine
qirrik
qirrike
qirs
qirti
qis
qise
qisme
qismi
qiyamet
qiyamete
qiyan
qiye
qizil
qizilbas
qizilce
qkirina
qnas
qoc
qoli
qonax
qonaxa
qonaxan
qonaxe
qonaxek
qonaxeke
qontara
qonyaye
qonye
qonyeye
qoqiz
qora
qoretu
qori
qorike
qos
qoser
qosera
qosere
qowanciyan
qowanciyana
qoxi
qoyona
qral
qrale
qrali
qu
quality
quantum
quba
qubadi
qubi
qudse
que
quebec
queen
queens
queer
quentin
query
question
questions
qui
quinn
qul
qule
quleke
quli
quling
qumas
qunciknivi
quntara
quote
quoted
quotes
qur
quran
qurana
qurane
qurban
qurbana
qurbane
qurbani
qurbaniye
qure
qureys
qurix
qurme
qurmic
qurnewe
qus
qut
qutbu
qutiya
qutkirin
r
ra
rabad
rabbit
rabe
rabi
rabin
rabirdu
rabu
rac
race
rachel
rad
radar
rade
radest
radesti
radeya
radeye
radeyeke
radi
radibe
radibin
radigihi
radikal
radike
radikin
radio
radiweste
radiwesti
radiwestin
radixe
radyasyone
radyo
radyoakti
radyoya
radyoye
raf
ragi
ragihand
ragihandin
ragihandina
ragihandinan
ragihandine
rahe
rahi
rahiya
rahiye
rahman
rai
raiders
rail
rain
rainer
raja
rajo
rak
rake
rakin
rakir
rakirin
rakirina
rakle
ral
rali
ralph
ram
raman
ramana
ramanan
ramane
ramani
ramazan
ramazda
rame
rami
ramos
ramsey
ramu
ramyar
ramyare
ramyareki
ramyari
ran
rana
ranan
rand
randi
randin
randina
random
rane
range
rangers
ranges
rani
raniya
raniyan
raniye
rank
rankirin
rankirina
rano
rans
ranu
rap
rape
raperi
rapor
rapora
rapore
raporek
raporte
rapvan
rapvane
raq
raqe
raqi
rar
rard
rartu
ras
rasa
rasan
rase
rasi
rast
rasta
rastatt
rastbu
raste
rasteqi
rasterast
rastgir
rasti
rastiya
rastiyan
rastiye
rastiyeke
rastkirin
rastnivi
rat
rata
rate
rather
rati
rattus
rau
rault
raulte
rav
rava
rave
ravek
ravekirin
ravekirina
ravekirine
raven
ravensburg
ravi
rawa
rawe
rawestan
rawestand
rawestandi
rawestandin
rawestandina
raweste
rawestgeha
rawesti
rawestin
raweya
raweye
raxi
raxistin
ray
raya
rayadare
raye
rayedaran
rayedare
rayi
raymond
raz
raza
razane
razayi
razber
raze
razi
rbar
rbaz
rbaziye
rbecu
rbi
rbicu
rbikin
rbu
rc
rcan
rcane
rd
rda
rdal
rdale
rdar
rdariya
rde
rdek
rdi
rdistan
rdistanı
rdora
rdore
rdoza
rdozi
rdoziya
rdu
re
rea
reachresourcecentre
read
reader
readers
reading
ready
reaksiyona
reaksiyone
real
reali
reality
realme
reason
reben
rebi
rec
receb
recent
recep
reci
recipients
reco
recommended
record
records
recu
recurring
red
reda
redaksiyona
rede
redi
redir
redirect
redirects
redki
redkirin
redkirina
redmi
reece
reed
reedus
ref
refe
referandu
referandum
referanduma
referans
referanse
reference
references
referendum
refi
refik
refleks
refleksa
refleksan
reflekse
reform
reforma
reforman
reforme
refsencani
reftar
reftare
reg
rega
rege
regel
regen
regensburg
regia
regina
regio
region
regional
registration
reh
reha
rehe
rehet
reheti
rehi
rehma
rehman
rehmet
rehmeti
rei
reich
reiche
reichenbach
reihe
reis
reji
rejima
rejime
rek
reka
rekan
reke
reki
rekiya
rekiye
reklam
reklama
reklame
rekor
rekora
rekore
rekt
rekti
rektiya
rektiyan
rektiye
rektore
related
relations
relationships
relative
release
released
relevant
reli
relief
religion
rem
rema
reme
remember
remezan
remezane
remi
remix
remo
remove
removed
remoye
rems
remzi
ren
renato
renc
rene
reng
renga
rengan
rengde
renge
rengek
rengeke
rengeki
rengi
rengiya
reni
renk
renot
renote
rep
repeat
repker
replace
replaces
report
reported
reports
reptile
republic
req
reqa
reqaye
reqe
reqi
request
requests
required
requires
res
research
resen
resi
resmi
reso
resolution
resolve
resource
resources
resu
resul
result
results
ret
reta
retan
rete
reti
retrieved
return
returns
reuters
reutlingen
rev
reva
revan
revandin
revandina
revani
reve
revi
review
revised
revision
reviya
reviyan
reviyane
revolution
rewa
rewadi
rewan
rewandiz
rewandize
rewane
rewdnei
rewe
rewi
rewis
rewn
rews
rex
rexe
rexne
rexnegir
rexnegiran
rexnegire
rexnegiri
rexnekirin
rexneya
rexneye
rexneyi
rey
reya
reyan
reye
reyek
reyeke
reyi
rez
reza
rezan
rezber
rezbere
reze
rezewi
rezi
rf
rfan
rfc
rg
rga
rgan
rgb
rge
rgeh
rgeha
rgehe
rgen
rger
rgesor
rgesore
rgi
rgiz
rgu
rh
rhan
rhati
rhatine
rhe
rhee
rhein
rheingau
rheinland
rhesini
rhesiniya
rho
rhodan
rhode
ri
ria
riataza
ric
rica
ricardo
rice
rich
richard
richardson
richmond
richter
richtere
rick
ricky
rico
rie
riefenstahl
ries
right
rights
rih
riha
rihanna
rihaye
rihe
rijandin
rije
rijene
rik
rika
rikan
rike
riki
riktir
rim
rime
rin
rind
rinde
rindi
rinehart
ring
rio
ris
risale
risan
rise
risi
ristin
river
rivie
riwek
riweka
riwekan
riweke
riwekek
riwekeke
riya
riyan
riye
riyeke
riyeta
riyeye
riz
riza
rizaye
rize
rizgar
rizgari
rizgariya
rizgariye
rizgarkirin
rizgarkirina
rizgarkirine
rji
rk
rka
rkan
rkari
rkc
rke
rkei
rkek
rkeke
rker
rkes
rket
rketa
rketan
rkete
rkheim
rkheime
rki
rkiri
rkirin
rkirina
rkirine
rkisch
rkischer
rkiye
rko
rkoya
rku
rlanda
rlandaye
rlandi
rlenda
rlendaya
rlendaye
rlendi
rlendiya
rleng
rli
rlu
rm
rma
rmaya
rmaye
rme
rmeh
rmeha
rmehe
rmi
rmir
rmiye
rmiyeye
rmu
rn
rna
rname
rnameya
rnas
rnase
rnasi
rnasiye
rnberger
rne
rnebu
rner
rnes
rnis
rnu
ro
road
roava
rob
robar
robaran
robare
robert
roberto
roberts
robi
robin
robinson
robozke
roc
rocco
rock
rocka
rocke
rocky
rodi
rodopsi
rogalanda
roger
rohat
rohelat
rohni
roi
roj
roja
rojan
rojane
rojava
rojavaya
rojavaye
rojavayi
rojavayiyan
rojbas
rojbu
rojda
roje
rojek
rojeke
rojeki
rojen
rojev
rojeva
rojeve
rojhelat
rojhelata
rojhelate
rojhelati
rojhilat
rojhilata
rojhilate
rojhilati
rojhilatnas
rojhilatnase
rojhilatnasiye
roji
rojiya
rojnama
rojname
rojnamegeri
rojnamegeriya
rojnamegeriye
rojnamenivi
rojnamevan
rojnamevanan
rojnamevane
rojnamevanek
rojnamevaneki
rojnamevani
rojnamevaniye
rojnameya
rojnameyan
rojnameye
rojnameyek
rojnameyeke
rojnews
rojnivi
rok
roka
rokan
rokbe
roke
rokek
rokeka
rokeke
roki
roknas
roknasan
roknase
roknivi
roksi
rol
rola
roland
role
rolek
roleke
roleki
rolf
roll
rolle
rolyefe
rom
roma
roman
romana
romanan
romance
romane
romanek
romaneke
romani
romannivi
romanti
romanya
romanyaye
romaya
romaye
romayi
romayiyan
rome
romeo
romi
romiyan
ron
ronahi
ronahiya
ronahiye
ronahiyewergir
ronahiyewergiran
ronakbi
ronald
ronaldo
ronesanse
roni
roniya
roniye
room
roosevelt
root
ros
rosa
rosario
rose
rosenberg
rosenheim
ross
roster
rostock
rot
rotenburg
roth
roti
rottal
rottenburg
rottweil
rouge
rough
rouletabille
round
rounding
rousseau
routemap
routledge
routledgecurzon
rov
rovan
rove
rovekirin
rovekirina
roveya
roveye
rovi
row
roy
roya
royal
roye
royi
roz
roza
rozbahi
rozbahiya
rozbahiye
roze
rozi
rozkirin
rozkirina
rp
rpence
rpenceya
rpenceye
rr
rrach
rre
rri
rriyet
rs
rsa
rse
rsi
rsim
rsime
rsimi
rss
rstenfeldbruck
rsu
rt
rta
rtaga
rtage
rtc
rte
rth
rti
rtir
rtiri
rtirs
rtiya
rtiye
rtl
rtler
rtlerde
rtleri
rttemberg
rttemberge
rtu
ru
rudaw
rudolf
rue
rufus
rug
rugby
ruh
ruhani
ruhaye
ruhe
ruhi
ruhr
ruiz
rul
rule
rules
rumex
run
rune
runis
rupicapra
ruppin
rus
rusa
rusan
ruse
rusi
russell
russia
russian
rustem
rusu
rusya
rusyaye
ruth
ruye
ruz
rvan
rvane
rvani
rvaniye
rwan
rwana
rwanda
rwane
rwe
rxan
rxas
rxase
rxasi
rxistin
rxistina
rxwaz
rxwaziye
ry
rya
ryan
ryani
ryar
ryaye
rye
rz
rza
rzan
rzaye
rzburg
rze
rzemi
rı
s
sa
saale
saarbru
saarland
sabah
sabi
sabit
sabri
sabu
sac
sad
sadabade
sadak
saddam
sade
sadi
sadiq
sadiqe
sadsala
sadsale
saet
saeta
saetan
saete
saeti
saf
safi
sag
saga
sagnic
saguinus
sah
sahara
sahe
sai
said
saint
sainte
sait
saka
sakar
saki
sakkari
sakson
saksonya
saksonyaya
saksonyaye
sal
sala
saladin
salam
salan
salane
salar
sale
salek
saleke
saleki
salem
salen
sali
salih
salihe
salim
salin
salix
saliya
saliye
salli
sally
salman
salmo
salnama
salname
salnameya
salnameye
salona
saloxandin
saloxete
salvador
salvadore
salveger
salvegera
sam
sambucus
same
sami
samoa
sample
samsung
samtgemeinde
samuel
san
sana
sanat
sand
sandi
sandibu
sandin
sandina
sandine
sandiye
sandler
sane
sang
sani
sanij
saniye
sankiri
sankirina
sankt
sans
sansa
sanse
sanskri
sansu
santa
santi
santiago
santir
santrala
sao
sapiens
sar
sara
sarah
saran
sardi
sare
sari
sarince
sarkoplazmi
sarkozy
saroyan
sarpedon
sartre
saru
sasani
sasaniyan
sason
sasone
sat
sateli
satellite
sativum
satrapiye
saturday
saturn
saunders
savar
savara
savare
savas
save
sawe
sawyer
sax
saxbu
saxi
saxifraga
saxlem
say
saya
saye
sayfa
sayi
saykli
says
saz
saze
sazi
saziya
saziyan
saziye
saziyek
saziyeke
sazkirin
sazkirina
sazkirine
sazu
sałi
sbari
sbariya
sbariye
sbat
sbs
sc
scale
scalemajor
scaleminor
scene
schatten
scher
scherzinger
schiller
schleswig
schmidt
schneider
scho
schongau
school
schott
schriften
schro
schrobenhausen
schum
schwa
schwalm
schwandorf
schwann
schwarzwald
schweinfurt
schweiz
schwenningen
schwinger
science
sciences
scientific
scooter
scotia
scotland
scott
scottish
scream
screen
screenshot
script
scripts
se
sea
seal
sean
search
season
seasons
seat
seattle
seba
sebah
sebaret
sebastia
sebastian
sebeb
sebeba
sebebe
sebri
sebze
sebzeye
sec
second
secret
section
sections
security
sed
sedam
sedama
sedan
sedat
sede
sedem
sedema
sedeman
sedeme
sedemek
sedemeke
sedhezaran
sedi
sedir
sedrence
sedsal
sedsala
sedsalan
sedsale
see
seen
seenplatte
seet
sefa
sefardi
sefer
sefera
sefere
sefewi
sefewiyan
sefi
sefkan
sege
seh
sehabe
sehabeye
sehe
sehi
sehne
sehneya
sehneye
sei
sein
seine
seit
seite
sek
seka
seke
seki
sekin
sekinandin
sekini
sekiniye
sekretere
seks
seksa
sekse
seksi
seksuel
sektion
sektora
sektore
sel
selah
selahadin
selahattin
selahedi
selam
selc
selcu
selected
selection
selefi
selete
seleteya
seleteyan
seleteye
seleuki
seleukos
self
seli
selim
selma
selman
selmas
selmase
seluloz
seluloze
sema
semasu
sembol
sembola
sembole
semboli
sembulingam
semi
semra
semsu
sen
senari
senaryo
senaryonivi
senaryoya
senaryoye
senato
senator
senatoya
sendi
sendroma
senegal
senfoni
senfoniya
seni
senifandin
senifandina
sensu
sent
senter
senteza
senti
sentromere
sentrozom
seo
seoul
sep
sepan
sepana
sepandi
sepandin
sepandina
sepane
separate
separator
september
seqet
seqiz
seqize
ser
sera
seraa
serab
serabe
serami
seran
seranser
seransere
seranseri
serastkirina
serave
seraya
seraye
serb
serbajar
serbajare
serbaz
serbaze
serbazi
serbest
serbestberdana
serbesti
serbi
serbilind
serbilindi
serbilindiya
serbistan
serbistane
serbixwe
serbixwebu
serc
serdana
serdane
serdar
serdare
serdariya
serde
serdem
serdema
serdeman
serdeme
serdemek
serdemeke
serdemi
serdes
serdest
serdeste
serdesti
serdestiya
serdestiye
sere
seredana
serek
sereka
sereke
sereki
sererast
sererastkirin
sererastkirina
sererastkirine
sereta
seretay
seretayi
serfermandare
serfiraz
serfirazi
serfiraziya
sergey
sergi
sergio
serhad
serhat
serhe
serhed
serhede
serhedi
serheng
serhildan
serhildana
serhildanan
serhildane
serhildanek
serhildaneke
serhilde
serhis
seri
serie
series
serike
seriya
seriye
serje
serjimara
serjimari
serjimariya
serjime
serke
serkeft
serkefti
serkeftin
serkeftina
serkeftine
serkeftinek
serkeftineke
serket
serketi
serketin
serketina
serketine
serketiye
serkevti
serkevtin
serkevtina
serkevtine
serki
serkirde
serkirdeye
serkomare
serle
serlehenge
serles
serli
serma
sermase
sermawez
sermaweza
sermaweze
sermaye
sernav
sernave
sernivi
sernu
serok
seroka
serokati
serokatiya
serokatiye
serokayetiya
serokdewlet
serokdewlete
seroke
serokeki
serokes
seroki
serokkomar
serokkomare
serokkomariye
serokomar
serokomare
seroktiya
serokwezi
serol
serpe
serperis
serpos
serra
serre
sers
sersal
sersala
sersale
sersinka
sersinke
serstri
sert
serti
seru
serve
server
servi
service
services
serwer
serwere
serweri
serweriya
serweriye
serwet
serwete
serwi
serxwebu
serxwes
ses
set
setting
settlement
seu
seva
sevda
seven
seventh
several
sevilla
sevre
sewad
sewalan
sewale
sewi
sex
sexing
sexte
sexual
sey
seya
seyd
seyda
seydaye
seydo
seye
seyfeddi
seyfedi
seyfi
seyi
seyid
seyin
seyr
seyran
seyrane
seyru
sezen
sezona
sezone
sf
sfehan
sfehane
sfenci
sfondo
sgeha
sgehe
sh
sha
shadow
shah
shakespeare
shandonge
shanghai
shanxi
shaq
share
shared
shaw
she
sherif
sherlock
shi
shift
shirley
shop
short
shot
should
show
showing
shown
shows
shp
shuster
si
sibat
sibata
sibate
sibe
sibeha
sibehe
sich
sid
side
sidi
sidqi
sie
sieg
siegel
siegen
siegfried
sierra
sif
sife
sifir
sifira
sifire
sifre
sifreye
sifte
sig
sigmaringen
sigmund
sign
signature
significant
sigurd
sih
sik
sika
sike
sikildanokan
sikildanoke
sil
silav
silave
sile
silence
silent
sili
silk
silla
sillaye
silo
silopi
silopiya
silopiye
siltan
siltane
silva
silver
silvia
sim
simaq
simaqe
simbe
sime
simi
similar
simko
simkoye
simnan
simo
simon
simone
simple
simply
simpson
simpsons
sin
sina
sinan
since
sincike
sinclair
sind
sindi
sindiya
sine
sineye
sing
singapore
singapu
singe
singekele
singer
single
singles
sinifa
sinor
sinore
sintashta
sinu
sinyale
sipi
sipil
sipki
sir
sira
sirb
sirbi
sire
sirgu
siri
sirke
sirs
siru
sirus
sise
sisiyan
sist
sistbu
sistema
sister
site
sites
sitran
sitrana
sitrane
situ
situation
siu
siv
sive
sivi
sivik
siviktir
sivil
siwar
siware
siwari
siwariyan
siwariye
siwe
six
sixth
siya
siyabend
siyaleye
siyan
siyaset
siyaseta
siyasete
siyasetek
siyaseteke
siyasetmedar
siyasetmedara
siyasetmedare
siyasetmedarek
siyasetmedareke
siyasetmedareki
siyasetmende
siyasi
siyasiye
siyati
siyaye
siye
siyon
siyoni
siyu
size
sk
ska
skan
skandi
skar
skara
skaran
skare
skarek
skareke
skareki
skari
skariya
skariye
ske
skender
skendere
skenderiye
skenderu
skera
skere
ski
skie
skin
skirin
sko
skografi
skoti
skotlande
skotlandi
skotlenda
skotlendaye
skotlendi
skri
sku
sky
skype
skytrain
sl
sla
slahiye
slam
slama
slame
slami
slamiya
slamiyet
slamiyete
slav
slave
slavi
slaviye
sle
sleepers
slenda
slendi
slim
slogane
slovak
slovaki
slovakya
slovakyaye
sloveni
slovenya
slovenyaye
slu
sm
sma
smai
smail
small
smayi
sme
smeke
smet
smi
sminthopsis
smith
sna
snake
sni
sniye
snow
so
social
society
sodyu
sodyum
sodyume
soest
sofi
sofia
sofiyan
sofla
software
sohrab
sokrates
sokratesi
sol
sola
solar
sole
soli
solid
solin
solo
solomon
solution
soma
somabiradost
somali
some
someone
somerset
something
son
sond
sonda
song
songs
sons
sonses
sony
soo
soon
sor
sora
soran
sorane
sorani
sore
sorewi
sorex
sori
soric
sorik
sorkiri
sorry
sorunu
sos
sosa
sose
sosi
sosin
sosina
sosret
sosyal
sosyaldemokrat
sosyali
sosyoloji
sot
sota
sote
soul
sound
sounds
soundtrack
source
sources
sous
south
southern
sove
soviet
soviyete
sovye
sovyet
sovyeta
sovyetan
sovyete
sovyeti
sox
soz
soza
soze
sp
spa
space
spaces
spain
span
spani
spanish
spanya
spanyaye
spanyol
spanyoli
spas
spat
spd
spe
speak
speaking
spears
special
species
specific
specified
specify
spehi
spell
spelling
spencer
sperm
sperman
sperme
spessart
spi
spider
spiegel
spiye
split
spor
spore
sport
sports
spotify
sprache
spree
spreewald
spring
springer
sq
sql
square
sr
sra
srae
srael
sraele
srai
sre
sreye
sreyi
sri
ss
sseldorf
ssrn
st
sta
stadium
stadt
stadyu
stadyuma
stali
stalin
stamford
stami
stan
stana
stanan
stanbul
stand
standard
standarda
standarde
standardeke
standardi
standart
standi
standin
standina
standinan
standine
standiye
stane
stanford
stani
stanley
star
starnberg
starr
stars
start
starting
stasyona
stasyone
stat
state
statement
statements
states
stati
static
station
statistics
statu
status
statuya
stay
ste
stefan
stegodon
steiermark
stein
steinfurt
stek
stekan
stekana
steke
steki
stekirin
stellio
stem
stema
stemati
stembol
stembole
steme
stemeke
stemi
sten
stenbol
stenbole
stend
stendin
stendina
stendine
stendiye
stensfield
step
stephen
sterli
stern
steroi
sterreich
steve
steven
stevens
stevenson
stevie
stewart
stewr
stewre
steya
steye
sti
stifa
stik
stika
stikan
stike
stikek
stikeke
stikvan
stikvana
stikvanan
stikvane
stikvanek
stikvaneke
stikvaneki
stikvani
stikvaniya
stikvaniye
stiling
still
stin
stina
stine
stir
stixbarata
stiya
stiyan
stiyanan
stiyani
stiye
sto
stockholm
stockholme
stok
stoke
stokholm
stokholme
stoki
ston
stone
stop
store
stories
storm
story
stotele
stoteles
stra
stran
strana
stranan
stranbe
strane
stranek
straneke
strange
stranliste
strannivi
strategy
strateji
stratejiya
stratejiye
stratum
straubing
straus
stravi
street
streisand
stres
stri
string
stro
strocen
strocene
strong
stru
structure
strukture
strychnos
stu
stuart
studies
studio
studios
study
studyoya
studyoye
stuttgart
stuye
style
styles
su
sub
subfamily
subject
submit
subscription
subsp
substrat
subtropi
suc
such
suf
suffix
suggested
suggestedvalues
suhrewerdi
sui
sukroz
sul
suleyman
sultan
sultane
sulzbach
sumer
sumeran
sumere
sumeri
sumeriyan
summary
summer
sun
suncus
sunderland
sung
suni
sunni
supaya
super
superfamily
superleheng
superlehengan
superman
support
supported
supporting
suppress
sur
surc
sure
sureya
suri
suriye
surname
surreali
surrey
survey
suryani
suryaniyan
suryaniye
sus
susan
sussex
suweys
suzanne
sv
svane
sven
sverige
svg
sw
swe
sweden
sweet
swi
swift
switch
sya
syan
syaya
syaye
sydney
syen
syene
sykes
sylvia
sylvilagus
sylvisorex
symbol
symbols
syn
syntax
syon
syona
syone
syonek
syoneke
syonere
syria
syriac
system
systems
syu
sz
szczepanek
sør
sınır
sırrı
t
ta
tab
tabi
table
tablete
tablo
tabloya
tabloye
tabu
tac
taca
taci
tade
taekwondo
tag
tage
tags
taha
tahaye
tahir
tahire
tahrane
tai
tak
take
takekesi
taken
takes
taksi
taksonomi
takti
taku
tal
tala
talabani
talamus
talamuse
talan
talankirin
talat
tale
talebani
tales
tali
talis
taliya
talk
talpa
talu
talya
talyan
talyani
talyaye
tam
tama
tamara
tamaraye
tami
tampa
tan
tana
tandi
tandin
tane
taner
tang
tani
taniya
taniyan
taniye
tank
tanke
tanni
tanya
tanyaya
tanyaye
tanyayi
tanzanya
tao
taoi
tapirus
taqi
tar
tara
tare
target
tari
tarih
tarihc
tarihi
tarihinde
tariq
tariye
taru
tas
tase
task
taspa
taste
tasyone
tat
tati
tatose
tauber
taunus
tauris
tav
tava
tave
tavi
tavile
tawanan
tawanbar
tawanbarkirin
tawane
tawanek
tawi
tawis
tawise
tawu
tax
taxa
taxan
taxe
taxeke
taxonomy
taya
taybet
taybete
taybeti
taybetiya
taybetiye
taybetiyeke
taybetmendi
taybetmendiya
taybetmendiye
taybetmendiyek
taye
tayi
taylenda
taylendaye
taylor
taywan
taywane
tayyi
tayyip
taze
tazexurmatu
tazi
tbar
tbari
tbh
tbi
tbmm
tbody
tbole
tbu
tc
td
te
teala
teali
tealiya
team
teams
teatra
teau
teavu
teawun
tebax
tebaxa
tebaxe
tebeqeya
tebeqeye
teberi
tebi
tebri
tech
technical
technology
teci
tecih
tecihan
tecihbu
tecihe
tecri
tecru
ted
tedawi
tedawiya
tedbi
tede
teen
tefsi
teha
tehdi
tehl
tehli
tehma
tehn
tehran
tehrane
tehri
tehsi
tei
teil
tek
teka
tekan
tekane
teke
tekez
teki
tekin
tekli
tekni
teknoloji
teknolojiya
teknolojiye
tekos
teksas
teksase
tekst
tekste
teksti
tektoni
teku
tel
telebani
telefon
telefona
telefone
teleskopa
televi
television
televizyon
televizyona
televizyone
televizyoni
telezime
teli
tell
teltow
telugu
tem
temam
temame
temami
temamiya
temamker
temas
temase
tembu
teme
tememi
temen
temena
temendire
temene
temenek
temeneki
temeni
temi
temir
temo
temox
temperature
templat
template
templatedata
templates
temple
tems
temsi
temu
ten
tena
tendu
tendurist
tenduristi
tenduristiya
tenduristiye
tendurusti
tene
teng
tengasi
tengasiye
tengav
tengava
tengave
tenha
teni
tenik
tenis
tennessee
tennis
tenolkeye
tenu
tenya
teori
teoriya
teoriye
teoriyek
tepe
tepeserkirina
tepi
tepisandin
teqandin
teqawi
teqez
teqi
teqiya
teqli
teqri
ter
tera
terakki
teran
terapi
terapiya
terapiye
teraqi
teratu
terci
tere
teref
terefe
terekeme
teremaxi
teresa
tergewer
teri
terikand
terikandin
terk
terki
term
terma
terme
termend
termi
terminal
termodi
terms
terore
terori
terra
terri
terror
terry
tersloh
terxan
terzi
tes
tesaloni
tesbi
tesi
tesla
tesli
tesni
tespi
test
testa
teste
testing
testosteron
testosterone
teswi
tetwan
tetwana
tetwane
tev
teva
tevahi
tevahiya
tevan
tevane
tevani
tevaniya
tevaya
tevayi
tevayiya
tevbidin
tevbigere
tevbigerin
tevde
tevdigere
tevdigeri
tevdigerin
tevdin
teve
tevger
tevgera
tevgere
tevgerek
tevgereke
tevgeri
tevgeriya
tevi
tevkariye
tevle
tevli
tevlihev
tevlihevi
tevliheviya
tevliheviye
tevna
tevne
tew
tewandi
tewandin
tewanga
tewaw
tewe
tewere
tewerekotahiye
tewerepeykere
tewereya
tewereyan
tewereye
tewfi
tewhi
tewi
tewr
tewra
tewrat
tewrate
tewre
tewri
texas
texli
texmi
text
textbook
textdata
texte
texts
teya
teyan
teyar
teybet
teybeti
teye
teyek
teyeke
teyfa
teyi
teyr
teyran
teyre
teza
teze
tezekend
tezi
tgi
tgire
tgiri
tgiriya
tgiriye
th
tha
than
thank
thanks
that
the
theater
theatre
their
them
then
theodor
theodore
theodosius
theory
there
these
thessaloni
they
thing
things
think
third
this
thomas
thomson
thorne
those
thought
thousand
thousands
three
through
thu
thumb
thumbnail
thunb
thylamys
ti
tibe
tibi
tibu
ticar
ticarete
tico
tide
tie
tienne
tigris
tihad
tije
tiji
tik
tika
tikaye
tike
tiki
tikri
til
tilbis
tile
tili
tiliya
tiliyan
tiliye
till
tim
timan
timani
time
timeaxis
timeline
times
timi
timu
tin
tina
tinan
tine
tinebu
tinek
tineke
tinhttp
tini
tip
tir
tiran
tirb
tirba
tirbe
tirbeya
tire
tiri
tirimbe
tiriye
tirk
tirka
tirkan
tirke
tirki
tirkirina
tirkiya
tirkiye
tirkiyeya
tirkiyeye
tirkmen
tirkmenan
tirkmeni
tirkmenistan
tirombe
tirs
tirsa
tirschenreuth
tirse
tirsnak
tis
tishe
tissue
title
titles
titu
tiwawe
tixu
tiya
tiyan
tiyane
tiyatrosu
tiyatroye
tiye
tiyek
tiyeke
tka
tkaye
tkeya
tkeye
tki
tkiri
tkirin
tkirina
tkp
tl
tld
tler
tm
tma
tmi
tna
to
tobago
tobe
tod
today
todd
tofan
tofana
tofane
together
toke
toki
tokondri
tokyo
tola
tolan
tolhildan
tolhildane
toloji
tolojiya
tolojiye
tolstoy
tom
tomar
tomara
tomare
tomarkiri
tomarkirin
tomarkirina
tomarkirine
tomatos
tome
ton
tone
toni
tony
too
tool
tools
top
topal
topan
tope
topi
topic
topics
toplazma
toplazmaya
toplazmaye
toplum
toponimiaoc
tor
tora
tore
torek
toreya
toreye
tori
toriya
toronto
toros
torosan
torose
torre
tortima
tortime
tortori
tos
tosi
total
toulouse
tour
tov
tovav
tovave
tove
tovji
towards
tower
town
toxime
toyota
toz
toza
toze
tozi
tpirsi
tpirsiya
tpirsiye
tr
tra
trabzone
trachypithecus
track
tradi
tradition
trafi
tragelaphus
trailing
trajedi
trajediya
traji
traki
trakya
trans
transclude
transgender
transi
transkri
translate
translated
translating
translation
translations
translator
translit
trappist
trast
trastkirin
traunstein
travel
trawmati
tre
trebzone
tree
trek
trene
trentino
trenton
tres
treyan
treye
tri
tribe
tricks
triple
tro
trofi
trojen
trojene
trojeni
trophy
tropi
tropomiyozi
trotski
trouble
troya
troyaye
trt
tru
trudeau
true
truman
trump
trunks
trust
trustees
truth
try
trøndelaga
ts
tse
tt
tte
ttel
tti
tting
ttingen
tu
tubeexits
tudeh
tudehe
tug
tuik
tulipa
tunc
tund
tundi
tundiya
tundiye
tundrew
tundu
tune
tunebu
tunekirin
tunekirina
tunekirine
tunene
tuneye
tuni
tupaia
tur
turan
ture
turgut
turi
turk
turkey
turki
turkish
turkiye
turn
turner
turneye
turoyo
turquie
tus
tuta
tuttlingen
tuwan
tuya
tuye
tuzxurmatuwe
tv
tvan
tvanan
tvane
tvani
tvanya
tvanyaye
tve
tvye
twain
twenty
twi
twin
twins
twitter
twittere
two
txwer
tya
tyari
tyler
type
types
tz
u
ua
ubeydela
ubeydelaye
ubeydullahe
ubuntu
uc
uca
uckermark
ucoc
ud
uefa
ug
uganda
uherske
ui
uk
ukan
ukraine
ukraynaye
ukri
ul
ulema
ulları
ulm
ulrich
ulstere
um
umami
umbriyaye
ume
umer
umi
umum
un
una
uncia
uncredited
und
unda
unde
under
understanding
une
unesco
unescoye
unger
uni
unicef
unicode
union
unique
unit
united
units
univ
universal
universe
universita
university
unix
unke
unki
unknown
unna
unter
unterallga
unterfranken
until
uozurumba
up
update
updated
updates
upload
uploaded
uploads
upon
upper
uppsala
upright
ur
urartu
urartuyan
urban
urdu
urdun
urdune
ure
uri
url
urmiye
urmiyeye
ursus
uru
uruk
uryan
us
usa
usage
usd
use
used
useful
user
users
uses
using
usman
ustad
usu
usually
ut
utah
utc
utrechta
uvas
uwe
uye
uz
uzun
uzzeman
v
va
vahyazdata
vaji
vajo
vajoya
vajoye
vajoyek
vajoyeke
vaki
vaksi
val
vala
valahi
valahiya
valahiye
valakiribu
valakirin
valakirina
valbare
vale
valens
valentina
vali
valid
valle
valley
valuable
value
values
vampire
van
vana
vanan
vanaye
vancouver
vandalan
vandali
vandar
vandin
vandina
vandine
vane
vanek
vanessa
vani
vaniya
vaniye
var
vara
varan
varanus
vare
vari
various
varto
vas
vasi
vate
vateyi
vati
vator
vaud
vaxi
vaya
vaye
vaz
vaza
vazan
vaze
vc
vdana
ve
vebe
veber
veberan
vebere
veberhe
veberi
veberiya
veberiye
vebi
vebijark
vebijarke
vebije
vebikin
vebir
vebire
vebiri
vebirin
vebirina
vebirine
vebiriya
vebiriye
vebirri
vebu
vec
vector
ved
veda
vedan
vedi
vedibe
vedibin
vedide
vedigere
vedigeri
vedigerin
vedigire
vediguhe
vediguhere
vediguheri
vedihewi
vedike
vedikin
vedikis
vedikole
vediqete
vediqeti
vediqetin
vedis
vedixwe
vedixwi
vedixwin
vega
vegas
veger
vegera
vegerand
vegerandin
vegerandina
vegere
vegeri
vegerin
vegeriya
vegeriyan
vegeriyaye
vegirtin
vegotin
vegotina
vegotine
veguhastin
veguhastina
veguhastine
veguhaztina
veguhe
veguherand
veguheri
veguhestin
veguhestina
veguhestine
veguhezi
veguheztin
veguheztina
vejandina
vejetayi
veji
vek
veka
veke
veki
vekin
vekir
vekiri
vekirin
vekirina
vekirine
vekiriye
vekis
vekoli
vel
velayeti
veli
vemirandin
vemiri
vene
venedi
venetoye
venezia
venezuela
veni
venus
veqetandek
veqetandeke
veqetandi
veqetandin
veqetandina
veqeti
veqetiya
veqetiyan
ver
vera
verbandsgemeinde
verbandsgemeinden
verde
vere
verlag
vermont
vero
versi
versio
version
versiyona
versiyone
vert
vertical
vertrieb
veru
very
verzeqan
verzeqane
ves
veseti
vetgehe
vetgeheke
vexin
vexwarin
vexwarina
vexwarine
vexwe
vexwendin
veya
veyi
veysel
vezi
vgirav
vgirava
vgirave
vgirover
vi
via
vice
vicente
victor
victoria
vida
video
videos
vie
vietnamese
view
views
vii
viii
vik
vika
vike
viktor
villa
village
villages
ville
villeneuve
villers
vin
vincent
vinci
vipera
vir
vira
virde
vire
virgin
virginia
virtual
virve
vis
viscosi
visible
vision
visit
visual
visualeditor
visualizing
vital
viya
viyan
viyana
viyanaye
viye
viyetnam
viyetnama
viyetname
viyetnami
vjime
vkada
vkirin
vkirina
vkirine
vla
vladi
vladimir
vo
vocal
vodafone
vogelsbergkreis
voice
voices
vokal
vokali
vol
voldemort
voldemorti
volga
volkan
volkana
volkane
volkani
volkswagen
volta
voltaire
volume
volumes
volunteer
volunteers
vom
von
vor
vorlage
vorpommern
vote
voting
voyage
vre
vri
vro
vs
vu
vulgaris
vulpes
vya
vyaye
w
wa
waar
wadie
wagner
waha
wahi
wake
wald
waldeck
waldnaab
waldshut
wales
walese
walesi
wali
waliye
walker
walking
wall
wallace
walpole
walsh
walt
walter
wan
wana
wanan
wane
wanek
waneke
waneye
wang
wani
wanli
want
wanted
war
wara
waran
ware
wareki
wargeh
wargeha
wargehe
wari
warren
warrior
wars
was
wase
washington
washingtone
wata
watch
wate
watedar
water
wateya
wateye
wateyek
wateyeke
watson
watt
waugh
wave
wax
way
waya
waye
wayi
wayne
ways
waz
waza
waze
wazek
wazi
waziya
wdr
we
web
webe
weber
webs
website
webster
wec
week
weekly
weeks
wefat
wefata
weg
weha
wehi
wehrmacht
wehs
weight
weil
weilburg
weilheim
weimar
weißenburg
wek
weka
weke
wekhev
wekhevi
wekheviya
wekheviye
weki
weku
wel
welat
welata
welatan
welate
welatek
welateke
welateki
welati
welatiyan
welatiye
welatpare
welcome
wele
weli
welke
well
welle
welt
wen
wend
wenda
wendabu
wendi
wendis
wendiya
wendiye
weqfa
wer
werbeagentur
werbigire
werbigirin
werbikin
werc
werdek
werdeka
werdigeri
werdigire
werdigirin
werdigirt
werdigre
were
werge
werger
wergera
wergeran
wergerand
wergerandi
wergerandin
wergerandina
wergerandine
wergerandiye
wergere
wergeri
wergi
wergir
wergiran
wergire
wergirt
wergirti
wergirtibu
wergirtin
wergirtina
wergirtine
wergirtiye
weri
werimi
werin
werina
werine
werner
werqanisi
werra
werze
werzi
werzis
wes
wesa
wesayi
wesel
wesfe
wesley
west
westan
westana
westane
westar
western
westf
westfalen
wet
wetan
wete
wetteraukreis
wext
wexta
wextan
wexte
wexteke
wexti
wexwer
wey
weya
weye
weyek
weyeke
weyeki
weyi
weyl
wez
wezaret
wezareta
wezarete
wezi
wezne
wh
what
whatsapp
when
where
whether
which
while
white
whitney
who
whole
whoye
why
wi
wicket
wide
widmaier
widodo
width
wie
wielkopolski
wien
wiesbaden
wife
wiha
wiki
wikidata
wikilink
wikimania
wikimedia
wikimedians
wikipedia
wikipedias
wikipediya
wikiproject
wikis
wikitext
wiktionary
wilayeta
wilayete
wild
wilde
wilder
wildlife
wiley
wilhelm
will
william
williams
wilo
wilson
wimsey
win
wind
winda
windabu
windakirin
windakirina
windelspecht
windows
windowse
windsheim
wings
winner
winners
winning
winston
winter
wir
wira
wirana
wirandin
wirane
wirdememi
wire
wiri
wirme
wirmende
wirmendiya
wirmendiye
wis
wisa
wisan
wisconsin
wise
wish
wishes
wishlist
wist
with
within
without
witiya
witsch
wittgenstein
wittlich
wittliche
wiya
wiyan
wiye
wl
wm
wma
wmde
wmf
wo
wolf
wolfgang
wolfratshausen
wolfsburg
woman
women
won
wonder
woo
wood
woodrow
word
wordpress
words
work
working
works
world
worms
wormse
would
wovie
wp
wrege
wrestling
wright
write
writer
writers
writing
written
wrong
ws
wti
wu
wuha
wuhane
wunsiedel
wurttemberg
wusa
wwe
wwiw
www
wye
wyee
wyoming
x
xa
xabi
xabu
xac
xace
xadi
xai
xak
xaka
xake
xal
xala
xalan
xale
xalek
xaleke
xali
xalid
xalide
xalke
xalti
xam
xamaney
xamber
xamu
xan
xana
xanadana
xandin
xandina
xane
xanedan
xanedana
xanedane
xanedaneke
xanedaniya
xanedaniye
xaneqi
xaneta
xaneya
xaneyan
xaneye
xaneyek
xaneyeke
xaneyi
xani
xanika
xanim
xanima
xanime
xaniyan
xaniye
xaniyek
xanke
xapandin
xar
xara
xare
xari
xarkive
xarpe
xas
xasi
xasma
xate
xatemi
xatire
xatu
xav
xavbu
xavi
xayi
xazi
xaziya
xbarata
xbarate
xbizin
xbizini
xe
xebat
xebata
xebatan
xebate
xebatek
xebateke
xebatkar
xebatkare
xeber
xebera
xebere
xebitandin
xebitandina
xebitandine
xebiti
xebitiye
xece
xedi
xefur
xelas
xelat
xelata
xelatan
xelate
xelatek
xelatgire
xelati
xelatkirin
xeldu
xelef
xelek
xeleka
xeleke
xelekek
xeleki
xelet
xeleti
xeletiye
xelfe
xelfeti
xelfetiya
xelfetiye
xeli
xelikan
xelil
xelk
xelke
xelki
xelqe
xelte
xelxale
xem
xema
xember
xemberan
xembere
xeme
xemgi
xemi
xemilandi
xemilandin
xemilandine
xemle
xencer
xeniqi
xera
xerab
xerabe
xerabi
xerabiye
xerabres
xerabu
xerakiribu
xerakirin
xerbi
xerc
xerckirin
xeri
xerza
xerzan
xerzane
xes
xestiya
xesxe
xet
xeta
xetay
xetaye
xete
xetek
xeter
xetera
xetere
xetereya
xetereye
xeteri
xeternak
xeti
xew
xewa
xewe
xewn
xewna
xewnan
xewne
xeyal
xeyala
xeyale
xeyali
xeyam
xeyni
xeyri
xezal
xezala
xezalan
xezale
xezali
xeze
xezeba
xezel
xezele
xezi
xeznewi
xh
xi
xiaomi
xidir
xii
xiii
xijende
xijendeye
xilas
xin
xine
xinu
xira
xirab
xirabe
xirabi
xirabiye
xirabkirin
xirabres
xirabtir
xirabu
xirbe
xirbeye
xiri
xiristi
xiristiyan
xiristiyanan
xiristiyane
xiristiyani
xiristiyaniye
xiroka
xiroke
xis
xist
xiste
xisti
xistibu
xistin
xistina
xistinan
xistinbu
xistine
xistinek
xistineke
xistini
xistinkirina
xistiye
xisu
xiv
xiyabani
xiyaneta
xiyar
xiyare
xiye
xizan
xizanan
xizani
xizaniye
xize
xizi
xizir
xizm
xizme
xizmet
xizmeta
xizmete
xizmetkare
xml
xmu
xo
xoc
xoda
xof
xole
xorasan
xorasana
xorasane
xore
xoresane
xort
xortan
xortaniya
xorte
xorteki
xos
xov
xox
xoy
xoybu
xoye
xozata
xozate
xri
xs
xter
xu
xuda
xudan
xudane
xudaye
xude
xudo
xulam
xulaman
xulame
xulek
xume
xumeyni
xur
xurdemeniye
xure
xurek
xurekan
xureke
xuri
xuriya
xuriye
xurrxurre
xurs
xurt
xurti
xurtir
xurtkirina
xurttir
xurxureye
xus
xuya
xuyabu
xuyakirin
xuyang
xuyange
xv
xvi
xwa
xwand
xwandin
xwandina
xwandine
xwar
xware
xwarezmi
xwari
xwarin
xwarina
xwarinan
xwarine
xwarinek
xwarineke
xwaru
xwast
xwaz
xwaza
xwaze
xwe
xweci
xwecih
xwecihe
xwecihi
xweda
xwedan
xwedane
xwedawend
xwedawenda
xwedawendan
xwedawende
xwedayan
xwedaye
xwedayeki
xwedayi
xwede
xwedi
xwediya
xwediye
xweji
xwekuji
xwekus
xweli
xwemali
xwend
xwendegeha
xwendekar
xwendekaran
xwendekare
xwendevan
xwendevanan
xwendevane
xwendi
xwendin
xwendina
xwendine
xwendingeha
xwendingehe
xwendiye
xwenewi
xweni
xwepe
xwere
xweriski
xweru
xwes
xweser
xweseri
xweseriya
xweseriye
xwest
xwestek
xwesteka
xwesteke
xwesti
xwestibu
xwestin
xwestina
xwestine
xwestiye
xwewi
xweya
xweye
xweyi
xweza
xwezaya
xwezaye
xwezayi
xwezi
xwi
xwis
xwiya
xwo
xwu
xwude
xx
xxx
xxxxx
xy
y
ya
yade
yadeya
yag
yahoo
yahya
yakirin
yakob
yalc
yale
yaman
yan
yana
yane
yaneya
yaneye
yaneyeke
yang
yangtze
yani
yankee
yanzdeh
yaprak
yaqu
yar
yara
yarbekir
yarde
yare
yari
yariya
yariye
yarkirin
yarkirina
yarsan
yas
yasa
yasaya
yasaye
yasayi
yaser
yasi
yasna
yat
yata
yate
yati
yavk
yavka
yavuz
yay
yaya
yaye
yayi
yayo
yayın
yayıncılık
yayınları
yazdeh
yazi
ye
year
years
yedi
yedr
yeebdulła
yehttp
yehya
yek
yeka
yekali
yekan
yekane
yekani
yekbu
yeke
yekejimar
yekem
yekemcar
yekeme
yekemi
yekemin
yekeya
yekeye
yekeyi
yekgirti
yekgirtiya
yeki
yekiti
yekitiya
yekjimar
yekkirin
yekkirina
yekmal
yeknavendi
yeko
yekpare
yeks
yeksan
yekser
yekta
yeku
yellow
yellowgreen
yem
yemen
yemene
yemi
yemin
yen
yene
yeni
yeno
yeqi
yer
yera
yeran
yere
yerek
yereke
yeri
yes
yet
yeta
yete
yeti
yew
yewe
yewnan
yewnana
yewnanan
yewnane
yewnani
yewnanistan
yewnanistana
yewnanistane
yewnaniya
yewnaniyan
yewnaniye
yeye
yezd
yezdan
yezdane
yezi
yg
yi
yigit
yildirim
yildiz
yilmaz
yin
yina
yine
yitirdi
yjs
yk
ykss
yksse
yku
yle
ylerimiz
ylerimizin
yn
yne
yni
ynk
ynke
yo
yol
yoloji
yon
yona
yone
yoni
yoon
york
yorke
yorkshire
you
young
your
yourself
youth
youtube
ypg
ypge
ypj
ys
yu
yuan
yugoslavya
yugoslavyaye
yukarı
yumi
yunus
yusif
yusti
yusuf
yvelines
yvelinese
yıldırım
yıldız
yılmaz
z
za
zach
zad
zade
zaf
zagon
zagona
zagonan
zagone
zagoni
zagreb
zagros
zagrosan
zagrose
zahi
zahid
zahir
zajc
zal
zalim
zama
zaman
zamenhof
zamorra
zan
zana
zanaye
zand
zane
zanebu
zaneye
zani
zanibe
zanikoyi
zanin
zaningeha
zaningehe
zanist
zanista
zanistan
zaniste
zanisti
zanistiya
zanistiye
zanistvan
zanistvane
zaniye
zanko
zankoya
zankoye
zans
zanse
zansi
zansiyan
zanyar
zanyaran
zanyare
zanyareki
zanyari
zanyariya
zanyariye
zapata
zar
zara
zarav
zarava
zaravaya
zaravayan
zaravaye
zaravayeki
zarave
zaraveye
zare
zarema
zareta
zarete
zargotin
zargotina
zari
zaro
zarok
zaroka
zarokan
zarokani
zarokati
zarokatiya
zarokatiye
zaroke
zarokek
zarokeke
zarokeki
zaroki
zarokti
zaroktiya
zaroktiye
zaroye
zaru
zasyon
zasyona
zasyone
zau
zav
zava
zawi
zaxo
zaxoye
zaxoyi
zayend
zayenda
zayende
zayendi
zayendiya
zayendiye
zayendme
zayi
zayine
zayini
zayn
zaza
zazaki
zbar
zbe
zbl
zbu
zcan
zdank
zdanke
zdar
zdari
zdeh
zdf
zdi
zdiyan
zdiyati
zdiye
zdro
ze
zealand
zebes
zebi
zebu
zebze
zebzeyan
zec
zeddi
zedi
zedong
zef
zefi
zefilme
zeft
zehf
zehmet
zehmeti
zehmetiye
zehmetke
zehra
zei
zeit
zeitschrift
zeitung
zek
zeka
zeke
zekeriya
zeki
zekiri
zekirin
zekirina
zel
zelal
zelali
zelam
zelanda
zelandaya
zelenda
zelenski
zeli
zeliqi
zell
zelle
zeman
zemane
zemani
zembi
zemi
zemt
zen
zencan
zencefi
zenci
zend
zendan
zende
zendi
zenge
zengene
zengi
zengiyan
zengu
zepli
zeppelin
zer
zera
zeran
zerar
zerav
zerave
zerayi
zerdes
zere
zeredes
zerenike
zeri
zerika
zerike
zerine
zeriye
zero
zeroman
zeromana
zeromanan
zeromane
zerreye
zeugma
zeugmaye
zeus
zevi
zeviya
zeviyan
zeviye
zeviyek
zewac
zewaca
zewace
zewi
zewicandi
zewici
zewiciye
zexm
zext
zexta
zexte
zey
zeya
zeyan
zeyd
zeye
zeyi
zeyne
zeynel
zeynelabidi
zeynelabidin
zeynep
zeynike
zeyte
zeytu
zgar
zgare
zgeh
zgeha
zgehan
zgehe
zgehek
zgeheke
zgere
zgire
zgirtin
zgirtina
zgirtine
zgu
zh
zhou
zi
zidi
zidiyan
zik
zika
zikan
zike
zikekele
ziki
zikmaki
ziknameya
zikoke
zikokeya
zikokeyan
zikokeye
zikres
zil
zilam
zilaman
zilame
zilamek
zilameki
zilm
zilma
zilme
zim
ziman
zimana
zimanan
zimane
zimanek
zimaneke
zimaneki
zimani
zimannas
zimannasan
zimannase
zimannasi
zimannasiya
zimannasiye
zimanzane
zime
zin
zinar
zinaran
zinare
zinari
zinci
zindan
zindana
zindanan
zindane
zindani
zindi
zindiye
zirar
zirara
zirare
zirav
ziravtir
zirparsu
zirsu
ziryab
zistan
zistane
zivinga
zivir
ziviri
zivistan
zivistana
zivistanan
zivistane
ziwa
ziwan
ziwane
ziya
ziyan
ziyana
ziyanbexs
ziyane
ziyaneke
ziyangirti
ziyaret
ziyareta
ziyarete
ziye
zkare
zkiri
zkirin
zkirina
zkirine
zli
zlu
zm
zma
zmane
zmani
zmaya
zmaye
zme
zmi
zmir
zni
zo
zofreni
zok
zol
zole
zoli
zollernalbkreis
zona
zone
zonofi
zoo
zooloji
zoqe
zor
zora
zorava
zordari
zordariya
zordariye
zordest
zordesti
zordestiya
zore
zori
zortir
zotope
zozan
zozana
zozanan
zozane
zozom
ztin
ztina
ztir
ztu
zu
zuckerberg
zuha
zuleyxa
zum
zumeta
zur
zvane
zwei
zweig
zwijsen
zwischen
zya
zygophyllum
zyoloji
zyon
zyona
zyonan
zyone
zyoni
{
|
}
~
¡
¢
£
¤
§
¨
©
«
¬
­
®
°
±
²
³
´
µ
·
¸
¹
º
»
½
¿
×
ß
æ
÷
ø
þ
ħ
ı
ık
ın
ł
ə
ɡ
ʁ
ʕ
ʰ
ʲ
ʻ
ʼ
ʾ
ʿ
ˈ
ˌ
ː
ˠ
̀
́
̂
̃
̄
̆
̇
̈
̉
̊
̋
̌
̑
̓
̔
̛
̣
̦
̧
̨
̪
̮
̱
̸
͂
͞
͡
΄
α
β
γ
δ
ε
ζ
η
θ
ι
κ
και
λ
μ
ν
να
ξ
ο
π
ρ
ς
σ
τ
της
το
υ
χ
ψ
ω
а
б
в
г
готубеж
д
е
ж
з
и
к
л
м
н
на
о
п
р
с
т
у
ф
х
ц
ч
ш
шаблон
щ
ы
ь
ю
я
і
ј
ҫ
ө
ְ
ִ
ֵ
ֶ
ַ
ָ
ֹ
ּ
ׁ
א
ב
ג
ד
ה
ו
ח
י
ל
ם
מ
ע
ר
ש
ת
،
؛
؟
ء
ا
ابن
از
استان
الا
الگو
انتشارات
ایل
ایلام
ب
بن
به
بو
بۆ
بە
ة
ت
تاریخ
تهران
ث
ج
ح
خ
د
دا
در
ده
ذ
ر
ره
ز
س
سه
ش
ص
ض
ط
ع
عبد
غ
ـ
ف
في
ق
قالب
ك
كه
ل
له
لە
م
محمد
ملکشاهی
من
مه
ن
نامه
نه
ه
هه
و
وه
ي
ٌ
ٍ
َ
ُ
ِ
ّ
ْ
ٓ
ٔ
ٕ
٫
پ
چ
ڕ
ژ
ڤ
ک
کە
گ
ڵ
ھ
ۆ
ی
۱
۲
۴
ܐ
ܼ
ް
ँ
ं
क
च
ज
ढ
त
द
न
प
म
य
र
ल
व
श
स
ह
ा
ि
ी
ु
े
ो
्
ঁ
চ
ট
ন
ম
য
র
ল
স
া
ি
ু
ে
্
ਾ
ં
ચ
ઢ
ા
ો
ଚ
ଛ
ଞ
ଟ
ା
େ
୍
ப
ர
வ
ா
ி
ு
்
మ
స
ూ
ಟ
ೆ
್
ം
്
ක
ල
ස
්
ැ
ි
ෙ
ั
ิ
ี
ุ
ู
่
้
์
་
თარგი
틀
ទ
ព
រ
ូ
ំ
័
​
‌
‎
‏
‐
–
—
―
‘
’
‚
“
”
„
†
•
…
‪
‬
′
″
‹
›
⁄
€
₹
℃
№
↑
→
↔
↷
⇒
∀
∂
∈
−
∙
≈
③
④
⑦
─
│
└
├
┬
▪
►
◄
☉
♭
♮
♯
✅
⟨
⟩
ⴰ
ⵜ
⺀
⺄
⺆
⺈
⺊
⺌
⺕
⺝
⺸
⺼
⿰
⿱
⿲
⿳
⿴
⿵
⿶
⿷
⿸
⿹
⿺
⿻
。
〢
い
う
え
お
か
き
く
し
た
ち
つ
の
ま
ゃ
り
ん
゙
゚
ア
ィ
イ
ウ
エ
オ
カ
キ
ク
コ
サ
シ
ス
タ
ッ
テ
ト
ナ
ニ
ハ
ヒ
フ
ヘ
ホ
マ
ミ
モ
ャ
ユ
ラ
リ
ル
レ
ロ
ン
・
ー
㇁
㇂
㇄
㇇
㇈
㇉
㇓
㐁
㐄
㐅
㐌
㐫
㐬
㐭
㐮
㐱
㑒
㒵
㒸
㒼
㓁
㓞
㔾
㕛
㕣
㖾
㘝
㚅
㚇
㚔
㚘
㝉
㝡
㝴
㝵
㞋
㞢
㞷
㠩
㠭
㠯
㡀
㡭
㡿
㢲
㢴
㣇
㣺
㥯
㪅
㫄
㫐
㫒
㫺
㬅
㬎
㬥
㬰
㲋
㳄
㷠
㸒
㸚
㸦
㼌
㼲
㽞
㿟
䀠
䂞
䍃
䏍
䒑
䖍
䖒
䖝
䖵
䙴
䚻
䜌
䝿
䡛
䧹
䪞
一
丁
丂
七
丄
丅
丆
万
丈
三
上
下
丌
不
与
丏
丐
丑
专
且
丕
世
丘
丙
业
东
丞
丢
丣
两
严
並
丨
丩
个
丫
丬
中
丮
丰
丱
串
丵
丶
丷
丸
丹
为
主
丽
丿
乀
乂
乃
久
乆
乇
么
义
之
乌
乍
乎
乏
乐
乑
乔
乖
乗
乘
乙
乚
乛
乜
九
乞
也
习
乡
乳
乾
亀
亅
了
亇
予
争
事
二
亍
于
亏
亐
云
互
亓
五
井
亘
亚
亜
亞
亟
亠
亡
亢
交
亥
亦
产
亨
亩
享
京
亭
亮
亯
亰
亲
亳
亶
亷
人
亻
亼
亾
仁
今
介
仌
从
仐
仑
仒
仓
仕
他
付
仝
代
令
以
任
企
伊
伏
伐
休
会
伝
伯
但
位
何
佘
余
作
佥
使
來
侈
侌
侖
侯
侵
便
保
俞
信
修
倉
倍
候
倠
健
備
僉
僕
儿
兀
允
兂
元
兄
充
兆
兇
先
光
兊
克
兌
免
兑
兒
兓
兔
党
兜
兟
入
全
兩
兪
八
公
六
兮
兰
共
关
兵
其
具
典
兹
兼
冀
冂
冃
冄
内
冈
冉
冊
冋
册
再
冎
冏
冐
冒
冓
冖
冗
冘
军
农
冝
冡
冥
冫
冬
冷
几
凡
凢
凵
凶
凷
凸
凹
出
函
凾
刀
刁
刂
刃
刄
刅
分
切
刍
刑
刕
刖
列
刘
则
初
別
利
别
到
制
刺
則
削
剌
前
剡
剽
劉
力
功
加
劦
助
劫
劳
劵
勃
勇
勉
勒
動
務
勞
勤
勹
勺
勻
勾
勿
匀
匂
包
匆
匈
匊
匋
匍
匕
化
北
匚
匝
匡
匪
匱
匸
匹
区
医
匽
匿
區
十
卂
千
卄
卅
卆
升
午
卉
半
卌
华
卑
卒
卓
单
卖
南
卜
卝
卞
占
卡
卢
卣
卤
卦
卩
卪
卬
卯
印
危
即
却
卵
卷
卸
卻
厂
厃
厄
历
厈
厉
厌
厓
厘
厚
原
厤
厥
厨
厭
厲
厶
厷
厸
去
厼
厽
县
叀
参
參
叅
又
叉
及
友
双
反
叐
发
叒
叔
叕
取
受
叚
叜
叟
口
古
句
另
叩
只
召
可
台
叱
史
右
叵
号
司
叹
吂
各
吅
合
吉
吊
吋
同
名
后
吏
向
吕
君
吝
吞
否
含
启
吳
吴
吹
吾
呂
呆
呈
告
员
呙
周
命
咅
和
咎
咠
咢
咨
咸
咼
哀
品
哉
員
哥
哲
唐
商
啇
問
啚
啬
啻
善
喜
喬
單
喿
嗇
噩
嚴
囊
囗
囘
囙
囚
四
回
囟
因
囧
囬
困
囱
囷
固
国
圂
圅
國
圍
圓
土
圡
圣
圥
在
圭
地
圶
圼
坐
坒
坚
坴
垂
垔
垚
埀
埋
城
埶
執
基
堂
堅
堆
堇
堯
塞
墨
壘
士
壬
壯
声
壳
壴
壹
壺
壽
夂
处
夅
夆
备
夊
夋
夌
复
夏
夒
夕
外
夗
夘
多
夜
夢
大
夨
天
太
夫
夬
夭
央
失
夲
头
夷
夸
夹
夻
夾
奂
奄
奇
奈
奉
奎
奏
奐
契
奓
奔
奚
奞
奠
奢
奥
奭
女
奴
奻
好
如
妄
妙
妟
妥
妻
妾
姑
委
姜
威
娄
婁
婴
嬰
嬴
子
孑
孔
孕
孖
字
存
孚
孛
孝
孟
季
孤
学
孫
孱
學
宀
宁
宂
它
宅
宇
守
安
宋
完
宏
宓
宗
官
定
宛
宜
宝
客
宣
室
宮
宰
害
家
容
宾
宿
寄
寅
密
富
寒
察
寧
審
寫
寬
寮
寸
对
寺
寻
寽
対
寿
封
尃
射
将
將
專
尉
尊
尋
尌
對
小
少
尒
尓
尔
尖
尗
尚
尞
尢
尣
尤
尧
尨
尭
就
尸
尹
尺
尻
尼
尽
尾
尿
局
居
屈
屋
屎
屏
屑
展
屖
屚
属
屠
屡
屬
屮
屯
屰
山
屵
屾
岁
岂
岑
岡
岩
岳
岸
峯
島
崇
崑
崔
崖
崙
崩
嵬
嶲
巂
巛
川
州
巟
巠
巢
巤
工
左
巧
巨
巩
巫
差
己
已
巳
巴
巷
巸
巽
巾
巿
帀
市
布
希
帚
帛
帝
带
師
席
帶
常
干
平
年
幵
并
幷
幸
幺
幻
幼
幽
幾
广
広
庄
床
底
店
庚
府
度
庫
庭
庶
康
庸
廉
廌
廛
廣
廩
廴
延
廷
建
廾
廿
开
弁
弃
弄
弇
弋
式
弓
弔
引
弗
弘
弜
弟
弥
弦
弱
張
強
强
彊
彌
彎
彐
彑
当
彔
录
彖
彗
彡
形
彥
彦
彧
彭
彳
役
彼
往
待
律
徒
得
徙
從
復
微
徵
德
心
忄
必
忌
忍
志
忝
忠
忩
快
念
忽
忿
思
怠
急
怱
恆
恒
恩
恭
息
悉
患
悤
悲
悶
惠
惡
惢
愁
愈
意
愛
感
慈
慧
慮
憂
憲
應
戀
戈
戉
戊
戋
戌
戍
戎
成
我
戒
戔
或
戚
戠
戢
截
戲
戶
户
戹
戼
戾
房
所
扁
扇
手
扌
才
打
托
执
承
折
拉
拜
拿
掌
推
提
摩
支
攴
攵
收
攸
改
放
政
敄
敏
敕
敖
敗
教
敝
敞
敢
散
敦
敫
敬
数
敷
數
斂
文
斉
斊
斗
斤
斥
斩
斬
斯
新
方
於
施
斿
旁
旋
族
无
旡
既
旣
日
旦
旧
旨
早
旬
旱
旲
时
旾
昆
昇
昌
昍
明
昏
易
昔
昗
昜
星
春
昬
是
昱
昴
昷
時
晃
晋
晏
普
景
晶
智
暑
暴
曇
曩
曰
曲
曳
更
曷
書
曹
曼
曾
替
最
朁
會
月
有
朋
服
朔
朕
朗
望
朝
木
朩
未
末
本
札
朮
术
朱
朵
朶
朿
杀
杏
杜
束
条
来
東
杲
杳
松
板
析
林
枚
果
枝
枲
枼
某
柔
查
柬
柰
柴
栗
桀
桑
桼
梁
條
梟
梨
棘
棠
棥
森
楚
業
楽
榮
樂
樊
模
欠
次
欣
欮
欲
欶
欽
款
歆
歇
歛
止
正
此
步
武
歨
歪
歮
歯
歰
歲
歴
歷
歸
歹
歺
死
殳
段
殷
殸
殹
殺
殻
殿
毋
毌
母
每
毒
比
毕
毚
毛
毳
氏
氐
民
气
氣
水
氵
氶
氷
永
氺
氾
求
汝
汞
江
沃
沓
沙
沝
河
泉
法
波
泣
泥
泰
洛
洪
活
派
流
浦
浪
浮
海
淡
淮
清
渚
渠
湖
湯
滿
漸
火
灬
灭
灰
灵
灷
炅
炎
炏
炗
炙
炭
為
烈
烏
烝
焉
無
焦
焱
然
焼
煞
熊
熏
熱
燕
營
燮
爪
爫
爭
爯
爰
爱
爲
爵
父
爻
爽
爾
爿
片
牙
牚
牛
牜
牟
牢
牧
牪
特
牽
犀
犬
犭
犮
狂
狄
狊
独
狺
猋
猒
猪
献
獻
玄
率
玉
王
玟
玨
珎
班
琴
瑟
瑩
瓜
瓦
甘
甚
生
産
用
甫
甬
田
由
甲
申
电
甶
男
甸
甹
画
甾
畀
界
畏
畐
留
畜
畟
畢
畧
畨
番
畫
異
畱
當
畺
畾
疊
疋
疌
疑
疒
疾
癶
癸
癹
登
發
白
百
皀
皃
的
皆
皇
皋
皐
皕
皮
皷
皿
盃
盆
盇
盈
益
盍
盎
监
盒
盖
盛
盡
監
盤
盧
目
直
相
盾
省
眇
眉
看
眔
眞
真
眷
眼
眾
着
睘
睪
睿
瞏
瞢
瞿
矍
矛
矞
矢
矣
知
矦
短
石
破
碎
磊
磨
示
礻
礼
社
神
祟
票
祭
禀
禁
禸
禹
禺
离
禽
禾
禿
秀
秃
秉
秋
科
秝
秦
移
稟
穀
穌
穴
究
穹
空
穿
突
窄
窒
立
竒
竜
竝
竟
章
童
竹
笑
笠
筆
等
答
箕
算
箴
節
篤
篭
米
粉
粛
粟
粤
粦
粲
糞
糸
糹
系
約
納
素
索
紫
累
細
絜
絫
絲
經
維
綿
縣
繇
纍
纟
缶
网
罒
罔
罕
罗
罙
罡
罢
罪
署
罷
羅
羊
羌
羍
美
羔
羕
羗
羞
羡
羣
群
義
羲
羸
羽
翁
翏
習
翕
翟
翠
翼
老
耂
考
者
耆
而
耎
耑
耒
耳
耴
耶
耷
聂
聊
聖
聚
聶
聿
肀
肃
肅
肉
肖
肙
肥
肩
肯
育
肴
胃
背
胡
胥
能
脊
脩
膚
臣
臤
臧
自
臬
臭
臯
臱
至
致
臺
臼
臽
臾
臿
舀
舂
舄
與
興
舉
舌
舍
舛
舜
舞
舟
般
艮
良
色
艸
艹
艾
芒
芔
芬
芮
花
芳
芺
芻
苔
苗
苟
若
苦
英
茶
茸
荅
草
荒
荣
荼
莆
莧
莫
莽
菆
菊
菐
華
萬
落
葉
著
葛
董
葵
蒙
蒦
蒼
蓋
蓬
蓺
蔑
蔡
蕉
蕭
薄
薛
薦
薰
藍
藏
藥
蘭
虍
虎
虐
虒
虔
處
虖
虗
虘
虚
虛
虜
虞
虫
虽
蚤
蚩
蜀
蜜
蟲
蠡
血
行
衍
衛
衣
衤
表
衮
衰
袁
袞
褭
褱
襄
襾
西
覀
要
覃
見
規
覓
覧
親
覽
见
角
解
言
訁
訇
計
詹
誩
諸
讠
谷
豆
豈
豊
豐
豕
豖
豙
象
豦
豩
豪
豸
貇
貝
貞
貟
負
貢
貧
貪
貫
責
貳
貴
買
費
賁
資
賈
賏
賓
賔
賛
賞
賢
賣
質
賴
贊
贝
贡
责
贯
贲
贵
赖
赞
赤
赦
走
越
足
路
蹇
身
躬
車
軍
軎
軟
輦
车
辛
辜
辟
辥
辰
辱
農
辵
辶
边
达
过
近
连
迷
追
退
送
逆
逐
通
速
造
逢
連
逮
進
遀
遂
過
道
達
遣
適
遷
遺
邊
邑
邕
那
邦
邪
郎
郡
部
郭
都
鄉
酉
酋
配
酓
釆
采
里
重
野
量
金
釒
錢
钅
長
镸
长
門
閃
閉
開
閏
閑
閒
間
閔
閵
閻
闌
门
间
闷
阑
阜
阝
阿
降
陳
隆
隊
隋
隡
隨
隱
隶
隹
隺
隻
隼
隽
难
雀
雁
集
雈
雋
雍
雐
雔
雙
雚
雜
雝
離
難
雨
雩
雪
雲
零
雷
需
霍
霜
霝
霞
霸
靈
靑
青
非
靡
面
靣
革
韋
韓
韦
韭
韯
韱
音
頁
頃
項
須
頗
頡
頻
顛
页
風
风
飛
飞
食
飠
養
饣
首
香
馬
馮
駦
马
骨
高
髟
鬥
鬯
鬲
鬼
魂
魚
魯
鮮
鱼
鲁
鳥
鳳
鸟
鹵
鹿
麃
麗
麥
麦
麻
黃
黄
黍
黎
黑
黒
黨
黹
黽
黾
鼎
鼓
鼠
鼻
齊
齋
齐
齒
齿
龍
龙
龜
龟
龠
龰
龱
龴
龵
龶
龷
龸
龹

者
艹
ﬂ
﻿
－
？
～
𐬀
𐭥
🌸
💖
𠀁
𠀃
𠀆
𠀉
𠀎
𠀐
𠁁
𠁣
𠂆
𠂇
𠂈
𠂉
𠂊
𠂋
𠂎
𠂒
𠂔
𠂛
𠂡
𠂢
𠂤
𠂬
𠂭
𠂹
𠃊
𠃋
𠃌
𠃍
𠃎
𠃑
𠃓
𠃔
𠃜
𠄌
𠄎
𠄠
𠄢
𠆢
𠆥
𠇍
𠈌
𠌵
𠓜
𠔉
𠔥
𠔼
𠔽
𠔿
𠕀
𠕁
𠕋
𠘧
𠘨
𠙻
𠙼
𠚏
𠚒
𠚤
𠚪
𠣏
𠤎
𠤕
𠥓
𠦄
𠦑
𠦝
𠧒
𠧗
𠧪
𠩺
𠪚
𠫓
𠫔
𠫤
𠬛
𠬝
𠬞
𠬢
𠬤
𠬶
𠮛
𠮦
𠮷
𠯑
𠱠
𠳮
𠷎
𡈼
𡉀
𡉵
𡌥
𡍮
𡏳
𡕒
𡕩
𡕰
𡖅
𡗗
𡗜
𡘆
𡘤
𡧱
𡨄
𡩧
𡬠
𡭽
𡰣
𡰥
𡰪
𡰯
𡰱
𡷈
𡸁
𡿨
𡿩
𡿪
𡿺
𢀖
𢀛
𢀩
𢁙
𢆉
𢆰
𢆶
𢇁
𢇇
𢉖
𢌬
𢌿
𢏚
𢑑
𢑚
𢖻
𢙣
𢛳
𢦏
𢦒
𢧵
𢼄
𢾕
𣁋
𣄼
𣅀
𣅽
𣍘
𣎳
𣎵
𣏋
𣏼
𣗥
𣥂
𣥖
𣦵
𣦼
𣧄
𣪊
𣪠
𣬉
𣳾
𣶒
𤇾
𤊽
𤐫
𤓰
𤔔
𤕨
𤣩
𤰇
𤰔
𤰞
𤴓
𤴔
𤽄
𥁑
𥁕
𥃦
𥃩
𥃭
𥇡
𥑟
𥘅
𥘈
𥝢
𥫗
𥱡
𦈢
𦉪
𦉬
𦉼
𦍌
𦍒
𦎧
𦐇
𦓔
𦔮
𦘒
𦙃
𦚏
𦣝
𦣞
𦣻
𦥑
𦥔
𦥯
𦨉
𦭝
𦰩
𧆞
𧈧
𧘇
𧰨
𧴪
𧴮
𧵩
𧾷
𨸏
𨾴
𩙿
𩠐
𩫏
𩵋
𪉷
𪜀
𪟽
𪠲
𪩲
𫇦
𫔭
𫜸
𫝀
𫠣
𫠩
𫢉
𫥞
𫩏
𫩠
𫪡
𫲽
𫶧
𬀷
𬐘
𬗌
𬙙
𬛸
𬜯
𬟩
𬯁
𬴘
𬺻
𬼉
𬼖
𭀰
𭁈
𭁨
𭅰
𭑈
𭕄
𭗼
𭤨
𭥫
𭻾
𮅕
𮊿
𮍌
𮍏
𮓗
𮥼
𮧮
廾
𰀁
𰀄
𰀈
𰀉
𰀕
𰀠
𰀡
𰀢
𰀪
𰁜
𰃮
𰆊
𰆘
𰋙
𰕎
𰢴
𰧭
𰯲
00--
000--
01--
02--
03--
04--
05--
06--
07--
08--
09--
100--
120--
140--
290--
39--
40--
44--
46--
48--
49--
50--
51--
52--
54--
55--
56--
57--
58--
59--
60--
62--
63--
64--
65--
66--
67--
68--
69--
70--
71--
72--
73--
74--
75--
76--
77--
78--
79--
80--
81--
82--
83--
84--
85--
86--
87--
88--
89--
90--
91--
92--
93--
94--
95--
96--
97--
978--
98--
99--
a--
aa--
ab--
abd--
abdul--
abe--
abi--
abone--
ac--
acant--
acce--
ace--
aci--
acker--
act--
ad--
ada--
adapt--
adaptas--
add--
ade--
adi--
ae--
aegy--
af--
affi--
afi--
afyon--
ag--
age--
agir--
agri--
ah--
aha--
ahn--
ai--
aich--
air--
aj--
ajal--
ajo--
ak--
aka--
ake--
aki--
aks--
aku--
al--
ala--
alak--
alb--
alce--
ale--
alf--
ali--
all--
alp--
als--
alt--
am--
ama--
amade--
ambar--
ambl--
ame--
amede--
ami--
amo--
amph--
ampi--
amu--
amy--
an--
ana--
anc--
and--
ane--
ang--
ani--
ann--
anna--
annou--
ano--
ans--
ant--
antho--
anti--
any--
aos--
ap--
apa--
ape--
api--
apo--
app--
appli--
aq--
aqil--
aqua--
aqui--
ar--
ara--
aras--
arc--
archaeo--
arcto--
ard--
are--
argen--
argu--
ari--
ark--
arn--
aro--
ars--
art--
as--
asch--
ase--
ash--
asi--
ask--
asp--
aspho--
ass--
assy--
ast--
at--
ata--
ate--
ati--
atol--
atten--
au--
auf--
aus--
aust--
auto--
av--
ava--
ave--
avi--
aw--
awa--
awe--
awi--
ax--
axa--
axi--
axiv--
ay--
ayes--
az--
azerbey--
b--
ba--
bab--
baba--
bac--
bach--
bad--
bag--
bahr--
bak--
bakur--
bal--
bala--
bale--
bali--
ban--
bandor--
bang--
baq--
bar--
bare--
bas--
bass--
bat--
baum--
baut--
bav--
bawer--
bax--
bay--
baz--
bc--
bd--
be--
bea--
beau--
bec--
bed--
bee--
beg--
beh--
bei--
bek--
bel--
bela--
bele--
belge--
bem--
ben--
bend--
ber--
bera--
bere--
berg--
beri--
bern--
bes--
bet--
bey--
beys--
bez--
bezir--
bg--
bhu--
bi--
bibliog--
bibliop--
bic--
bie--
big--
bihe--
bihev--
bil--
bim--
bin--
binax--
bine--
biog--
biol--
bir--
bira--
biraku--
bird--
biryar--
bis--
biser--
bit--
bixe--
biyo--
biz--
bizi--
bk--
bl--
blaj--
bli--
bllaw--
bn--
bo--
bob--
boc--
boden--
body--
bog--
bol--
bolly--
bomb--
bon--
bor--
bos--
bot--
bou--
boul--
bour--
box--
boy--
boz--
br--
bra--
brassic--
braz--
bre--
bri--
brigh--
bro--
bru--
bruch--
bs--
bu--
buch--
bug--
buhur--
bull--
bun--
bundes--
bur--
bureauc--
burg--
burn--
burok--
bus--
but--
bw--
by--
bı--
c--
ca--
cad--
caf--
calycan--
cam--
can--
cane--
capi--
capp--
capri--
car--
carni--
cat--
caz--
cc--
cd--
ce--
ceb--
ceh--
cel--
cem--
cemi--
cendir--
cer--
cerde--
ceri--
cew--
cey--
ch--
cha--
cham--
char--
che--
chi--
cho--
chry--
chu--
ci--
cida--
cih--
cil--
cin--
cird--
cis--
ciz--
ck--
cl--
cle--
clif--
cm--
co--
cog--
col--
colla--
colo--
com--
con--
confi--
contem--
copy--
cor--
cos--
cot--
cou--
coup--
cour--
cox--
cra--
cre--
cri--
cro--
croc--
cru--
crus--
cs--
ct--
cu--
cucur--
cuda--
cuis--
cum--
cur--
cuxh--
cy--
cycl--
cz--
d--
da--
dab--
dabi--
dad--
dadi--
dae--
dag--
dai--
dal--
dam--
damez--
dan--
dane--
dani--
dans--
danu--
dar--
dare--
das--
daw--
dax--
daxwaz--
day--
daz--
db--
dc--
dd--
de--
dec--
def--
deg--
deh--
dei--
dek--
del--
dem--
den--
dene--
deng--
deo--
dep--
depart--
deq--
der--
dera--
dere--
derman--
ders--
des--
dest--
deste--
det--
dev--
develo--
dew--
dex--
dey--
deyn--
dez--
di--
dia--
dibe--
dibin--
dic--
dide--
die--
dif--
diff--
digire--
digirin--
diguh--
dihe--
dij--
dik--
dike--
dikin--
dil--
dila--
din--
diqe--
dir--
dis--
dise--
div--
dive--
dixe--
diya--
diyo--
diz--
dj--
dk--
dli--
do--
dog--
doku--
dol--
dom--
domi--
don--
dor--
dos--
dot--
dox--
doz--
dr--
dre--
dri--
dro--
ds--
dt--
du--
dua--
duc--
duj--
dur--
dus--
dw--
dwer--
dy--
dyo--
dz--
dı--
e--
ea--
eb--
ebdi--
ebdil--
ebdu--
ebdul--
ebe--
ebers--
ec--
econ--
ed--
edi--
edł--
ee--
ef--
eg--
egi--
eh--
ehi--
ehre--
ehri--
ei--
eich--
eigen--
ein--
eisen--
ej--
ejdeh--
ejder--
ek--
ekdax--
eki--
eko--
ekwa--
el--
ela--
elaj--
elbis--
elbu--
elc--
ele--
elek--
elektro--
eleph--
elfa--
eli--
ell--
elo--
em--
eme--
emer--
emi--
emir--
empera--
ems--
en--
ena--
enc--
end--
endaz--
endus--
ene--
enfek--
eng--
eni--
enstru--
entegra--
enter--
eo--
ep--
epe--
epi--
eq--
equi--
er--
era--
erd--
ere--
ereb--
eri--
erk--
erlen--
erm--
ero--
err--
ers--
eryth--
erzi--
es--
esc--
esch--
eschen--
est--
et--
ete--
eti--
etno--
eto--
eu--
euph--
euro--
ev--
eva--
evan--
evdi--
evdil--
eve--
ever--
evi--
ew--
ewi--
ewq--
ewr--
ex--
execut--
expec--
experi--
exsi--
ext--
ey--
eya--
eyh--
eyn--
eys--
ez--
eze--
ezi--
f--
fa--
fahre--
falk--
fan--
far--
farmak--
fas--
fast--
fat--
fay--
fe--
fed--
fehm--
feld--
femi--
fen--
fer--
ferz--
fet--
feth--
feti--
fex--
fey--
ff--
fi--
fil--
filos--
finan--
findag--
finl--
finn--
fir--
fire--
firoke--
firse--
fis--
fitz--
fk--
fl--
fla--
flore--
flu--
fo--
fon--
for--
forsc--
foto--
fr--
fra--
fre--
fred--
free--
fri--
fro--
fru--
ft--
fu--
full--
g--
ga--
gael--
gag--
gai--
gal--
gamb--
gan--
gany--
gar--
gas--
gay--
gaz--
gazi--
ge--
gec--
geis--
gel--
gen--
geoff--
geog--
ger--
gerd--
germ--
gerns--
ges--
get--
gew--
gey--
gez--
gh--
gi--
gieß--
giha--
gij--
gil--
gir--
girl--
gis--
gl--
glad--
glas--
glau--
gli--
glu--
go--
god--
gol--
gold--
gom--
good--
gor--
gos--
got--
gote--
goul--
gov--
gover--
gr--
gra--
gram--
gre--
green--
gri--
gro--
groß--
gru--
grund--
gry--
gs--
gu--
gua--
guh--
guhe--
gul--
gule--
gumr--
gun--
gur--
guy--
gy--
gymn--
h--
ha--
habs--
hac--
had--
hai--
hak--
hal--
ham--
hama--
han--
hand--
har--
hard--
hart--
has--
hat--
haun--
haup--
hav--
havi--
haw--
hay--
haz--
hd--
he--
heb--
hec--
hed--
hef--
heft--
hegemon--
heilongji--
heins--
hej--
hejan--
hek--
hel--
heli--
hell--
hem--
hema--
heme--
hemi--
hen--
hene--
hep--
heq--
her--
here--
hes--
hesi--
heste--
het--
hete--
heterok--
hev--
hew--
hewa--
hey--
heye--
hez--
hezar--
hi--
high--
hikim--
hikum--
hil--
him--
hin--
hinar--
hip--
hirsch--
his--
hit--
hizir--
hl--
hle--
hm--
hn--
ho--
hoch--
hochsauer--
hof--
hoffm--
hohen--
holi--
holz--
home--
homo--
honr--
hop--
hos--
hot--
hov--
how--
hr--
hre--
hti--
hu--
huda--
humb--
hun--
hur--
hus--
hy--
hya--
hydro--
hylo--
hyper--
hı--
i--
ia--
ib--
ibe--
ibi--
ic--
id--
ide--
ie--
if--
ig--
ihti--
ii--
iir--
ik--
ika--
il--
ile--
ili--
ilk--
ill--
illus--
im--
ima--
image--
in--
ina--
inc--
incor--
ind--
indic--
indus--
infi--
influ--
info--
infra--
ing--
initi--
inn--
inns--
instru--
int--
integ--
inter--
intro--
invi--
io--
ip--
iq--
iqi--
ir--
ira--
iran--
is--
isa--
islam--
iso--
ist--
it--
iti--
ius--
iv--
ivan--
ix--
ixul--
iya--
iz--
j--
ja--
jam--
jan--
jar--
jay--
je--
jen--
jer--
ji--
jiang--
jiber--
jin--
jine--
jiyan--
jk--
jo--
jon--
jor--
jou--
jour--
ju--
k--
ka--
kab--
kad--
kafk--
kai--
kak--
kal--
kali--
kam--
kan--
kap--
kapi--
kar--
kara--
kardi--
kare--
kas--
kat--
kav--
kay--
kaza--
kb--
ke--
ked--
kef--
kel--
kele--
kem--
ken--
ker--
kera--
kere--
keri--
kes--
kesa--
ket--
kev--
kevne--
kew--
key--
kg--
kh--
kha--
kho--
ki--
kid--
kil--
kim--
kin--
kir--
kirch--
kis--
kit--
kiz--
kizil--
kk--
kla--
klas--
kle--
kli--
klo--
klor--
km--
ko--
kod--
kok--
kol--
kole--
koleksi--
kom--
kome--
komi--
kompan--
kon--
konfu--
konte--
kop--
kor--
koro--
kos--
kose--
kov--
koy--
koz--
kr--
kra--
kre--
kri--
kro--
kromop--
ks--
kse--
kseno--
ku--
kul--
kum--
kun--
kur--
kurd--
kurm--
kurt--
kurte--
kus--
kuts--
kx--
ky--
kya--
kı--
kızı--
l--
la--
laborat--
lac--
lah--
laj--
lak--
lam--
lan--
land--
lang--
langen--
lar--
las--
lat--
lau--
lauen--
laure--
laut--
lav--
law--
lay--
laz--
lb--
lc--
ld--
le--
lec--
led--
left--
leg--
lein--
lej--
lek--
lem--
len--
leo--
leon--
lept--
ler--
les--
let--
leu--
lev--
lew--
lexi--
ley--
leyi--
lez--
lfi--
lh--
li--
lib--
libe--
lichten--
lidar--
lie--
life--
lihev--
lim--
lin--
line--
lis--
list--
listik--
lit--
liv--
lixwe--
liz--
lk--
lke--
ll--
lla--
lle--
lm--
lo--
log--
lomb--
lon--
long--
loq--
lor--
los--
lot--
lou--
lp--
ls--
lt--
lte--
lu--
luc--
lut--
lv--
ly--
lz--
lı--
m--
ma--
mac--
macro--
mad--
madagas--
maf--
mag--
mah--
mai--
main--
mak--
make--
mal--
mala--
mall--
mam--
man--
mana--
mani--
mans--
manus--
mar--
mark--
mas--
mat--
mata--
mau--
max--
may--
maz--
mazo--
mb--
mc--
mccl--
me--
mec--
med--
medi--
mega--
meh--
mek--
mela--
melb--
melc--
mele--
melz--
mem--
memo--
men--
meq--
meqar--
mer--
meri--
mes--
mesopot--
met--
meta--
mew--
mewl--
mews--
mex--
mey--
mez--
mezopot--
mf--
mi--
mia--
mic--
micro--
mid--
mie--
mih--
mij--
mil--
milya--
mim--
min--
mini--
miq--
mir--
mirov--
mis--
mit--
mithri--
mittel--
mix--
miz--
mk--
ml--
mm--
mn--
mo--
mok--
mol--
momm--
mon--
monog--
mont--
moon--
mor--
mos--
mot--
movik--
moz--
mp--
mpi--
mr--
ms--
mt--
mu--
mug--
muh--
multi--
munici--
mur--
mus--
musi--
mux--
muzaf--
muze--
my--
mya--
myste--
n--
na--
nai--
nak--
nal--
nam--
nan--
nanse--
nar--
nare--
nas--
nase--
nat--
nau--
nav--
navik--
naw--
nay--
naz--
nc--
nce--
nch--
nci--
nd--
nde--
ndi--
ne--
nec--
nede--
nedi--
nef--
neh--
nehe--
nek--
nekro--
nem--
nema--
nen--
neo--
nepeji--
neq--
neqi--
ner--
nera--
nerm--
nes--
net--
netok--
neu--
nev--
new--
newa--
newek--
news--
nex--
ney--
nez--
ng--
nge--
ngi--
nh--
ni--
nic--
nie--
nieder--
nig--
nigri--
nigs--
nik--
nim--
nin--
nis--
nit--
nivis--
nix--
nj--
nk--
nkar--
nl--
nm--
nn--
no--
nom--
non--
noq--
nor--
nord--
nos--
not--
notific--
nou--
now--
nr--
ns--
nt--
nte--
nter--
nu--
nun--
nuq--
nur--
nus--
nwe--
ny--
nya--
nyct--
nz--
o--
ob--
ober--
oberh--
obers--
obser--
oc--
occiden--
och--
oct--
oda--
ody--
of--
off--
og--
oh--
oi--
ok--
ol--
ola--
old--
ole--
oli--
om--
omi--
on--
op--
opa--
oparas--
open--
oppo--
or--
ore--
org--
ori--
orke--
oro--
orte--
oryan--
os--
ose--
osmoze--
osna--
oster--
ot--
otobiyo--
otter--
ou--
our--
out--
ov--
ova--
over--
ox--
oy--
oz--
p--
pa--
pac--
pak--
pal--
pala--
pale--
pan--
panto--
par--
para--
pare--
park--
parlem--
parteno--
pas--
pass--
pat--
pav--
pay--
paz--
pe--
pec--
pehle--
pek--
pel--
pele--
pelop--
pen--
peq--
per--
pera--
pere--
peri--
perwe--
pes--
pesend--
pet--
pev--
pey--
peyv--
pez--
ph--
phar--
phe--
phil--
phys--
pi--
pic--
pie--
pil--
pile--
pir--
pire--
pirr--
pirs--
pirte--
pis--
piz--
pl--
plan--
play--
ple--
plo--
plu--
po--
pod--
poe--
pol--
pole--
poly--
pop--
por--
port--
pos--
post--
pot--
poz--
pp--
pr--
pract--
prae--
pre--
pri--
pro--
provo--
pru--
ps--
pseu--
psi--
psy--
psych--
psychiat--
psycho--
pt--
ptero--
pu--
publi--
pulit--
put--
py--
pyg--
q--
qa--
qal--
qan--
qaq--
qar--
qat--
qati--
qay--
qe--
qef--
qeh--
qela--
qele--
qen--
qer--
qere--
qes--
qet--
qev--
qewi--
qey--
qi--
qiji--
qir--
qis--
qiz--
qol--
qon--
qor--
qoz--
qu--
que--
qui--
qul--
qur--
qut--
r--
ra--
rac--
rad--
radest--
radi--
raf--
rai--
ram--
ran--
rap--
rapir--
ras--
rast--
rat--
rav--
ray--
raz--
rc--
rd--
rde--
rdi--
re--
rea--
rec--
recei--
reckling--
red--
redak--
ref--
reg--
reh--
rei--
rek--
rem--
rema--
ren--
reng--
rep--
repu--
res--
reser--
respo--
ret--
reve--
rew--
rex--
rexne--
rey--
rez--
rf--
rge--
rgi--
rgu--
rh--
rhe--
rhinoce--
rho--
rhy--
ri--
rid--
rie--
rig--
rim--
rin--
rind--
ris--
riz--
rk--
rke--
rku--
rm--
rma--
rme--
rn--
rne--
ro--
rob--
roc--
roh--
rohr--
roj--
roja--
rok--
ron--
rones--
ros--
rot--
rou--
row--
roz--
rp--
rr--
rro--
rs--
rsten--
rt--
rte--
ru--
ruh--
run--
rus--
rut--
rxan--
ry--
rz--
rza--
rze--
rı--
s--
sa--
sac--
sach--
sad--
saf--
sag--
sah--
sai--
sal--
sala--
salox--
sam--
san--
sand--
sar--
sari--
sarkoplaz--
sarı--
sat--
sau--
sax--
say--
saz--
sc--
sch--
scha--
schi--
schl--
schle--
schm--
scho--
schr--
schre--
schu--
schus--
schwe--
scor--
se--
sea--
sec--
sed--
see--
sefer--
seg--
seh--
sei--
sek--
sekrete--
sel--
semi--
semp--
sen--
sentez--
sep--
seque--
ser--
sera--
serb--
serde--
sere--
serge--
ses--
set--
seu--
sev--
sew--
sex--
sey--
seya--
seyahat--
sf--
sh--
sha--
she--
shi--
sho--
show--
si--
sid--
sie--
sif--
sig--
sih--
sik--
sil--
sile--
sim--
sin--
sine--
sir--
sirbi--
siv--
siya--
sk--
ska--
ske--
ski--
sko--
skotl--
sky--
sl--
sla--
slam--
sle--
sm--
sma--
small--
sna--
sni--
sno--
so--
soci--
sof--
sog--
soh--
sol--
some--
somm--
son--
sopr--
sor--
sos--
sot--
sote--
sox--
soz--
sp--
spa--
spe--
spek--
spi--
spon--
spy--
sq--
squa--
sr--
ss--
st--
sta--
stadt--
star--
ste--
stein--
stem--
step--
sti--
stir--
sto--
stok--
stras--
stratovol--
strep--
stu--
sty--
su--
sub--
subscri--
sudur--
suf--
sug--
suh--
sui--
sul--
sumat--
sun--
super--
supp--
sur--
survi--
sus--
sv--
sw--
swe--
sy--
sylv--
symp--
syn--
sz--
sı--
t--
ta--
tab--
tac--
taci--
tag--
tah--
tai--
tak--
take--
tal--
talk--
tam--
tan--
taq--
tar--
tas--
taschen--
tat--
tau--
tawan--
tax--
tay--
td--
te--
teac--
teh--
tei--
tek--
tel--
teleg--
tem--
temam--
ten--
teng--
teq--
teqe--
ter--
tera--
tes--
tetra--
tev--
tevi--
tevku--
tew--
tewan--
tewere--
tey--
teybet--
tez--
tgi--
th--
tha--
the--
thom--
thor--
thri--
thu--
thy--
ti--
tie--
tije--
til--
tim--
timber--
time--
tin--
tir--
tirk--
tiya--
tl--
tm--
to--
tod--
tol--
toler--
tom--
tomar--
ton--
top--
tor--
tos--
tour--
tov--
tra--
trak--
trans--
tre--
tri--
tro--
tru--
ts--
tsug--
tsuna--
tt--
tti--
tu--
tur--
turk--
tux--
twe--
twi--
ty--
tz--
tı--
u--
ua--
ubeydu--
uc--
ud--
ug--
uk--
ukur--
ul--
um--
un--
under--
uni--
up--
ur--
uri--
uru--
us--
user--
ut--
ux--
uxi--
uxu--
uz--
v--
va--
vaku--
val--
vala--
van--
var--
vas--
vaz--
ve--
ved--
vedi--
veget--
veguh--
vek--
vel--
vena--
vene--
vent--
ver--
verast--
vero--
verru--
ves--
vey--
vi--
via--
vie--
vig--
vik--
villi--
vin--
viole--
vir--
vis--
vitt--
vo--
vogt--
vol--
vor--
vs--
vu--
w--
wa--
wahl--
walden--
wan--
war--
was--
we--
web--
weg--
weh--
wein--
weis--
weißen--
wel--
welat--
wen--
weq--
wer--
wes--
west--
wet--
wey--
wez--
wh--
what--
whis--
whit--
wi--
wie--
wij--
wiki--
wil--
wild--
win--
wir--
wis--
witt--
witte--
wl--
wo--
wolv--
wu--
wy--
x--
xa--
xal--
xam--
xan--
xane--
xar--
xas--
xe--
xel--
xelas--
xeli--
xem--
xeniqan--
xer--
xes--
xew--
xey--
xeys--
xez--
xh--
xi--
xia--
xilas--
xin--
xir--
xira--
xis--
xizmet--
xo--
xor--
xos--
xri--
xs--
xu--
xur--
xurt--
xut--
xuya--
xwa--
xwar--
xwe--
xwedi--
xx--
y--
ya--
yan--
yar--
yari--
yas--
yasa--
yay--
yaz--
yazı--
ye--
yek--
yem--
yer--
yes--
yev--
yew--
yi--
yk--
yn--
yo--
yol--
you--
yoz--
ys--
yu--
yurt--
yı--
z--
za--
zade--
zaf--
zamb--
zan--
zani--
zar--
zaro--
zbe--
ze--
zeft--
zel--
zen--
zer--
zew--
zey--
zh--
zi--
zig--
zik--
zil--
zim--
ziman--
zin--
zingi--
zir--
zivir--
zo--
zoo--
zor--
zu--
zul--
zur--
zwi--
zı--
ß--
ø--
þ--
đ--
ı--
ık--
ın--
ł--
α--
γ--
δ--
κ--
λ--
μ--
μα--
ν--
ο--
π--
πο--
ρ--
σ--
τ--
курд--
м--
п--
ا--
ار--
اس--
ال--
الج--
الح--
الص--
الع--
الم--
ان--
ای--
ب--
با--
بر--
ت--
تا--
ج--
ح--
خ--
د--
دو--
ذ--
ر--
رس--
ز--
زا--
زم--
س--
سا--
سل--
ش--
شا--
شه--
ص--
ع--
ف--
ق--
ك--
كو--
ل--
م--
ما--
مر--
مو--
ن--
نا--
نو--
ه--
و--
وال--
ي--
پ--
پێ--
چ--
ک--
کا--
کو--
گ--
ی--
--0
--00
--000
--00000
--01
--02
--03
--04
--05
--06
--07
--08
--09
--1
--10
--11
--12
--13
--14
--15
--16
--17
--172
--18
--19
--2
--20
--21
--22
--23
--24
--25
--26
--27
--28
--29
--3
--30
--31
--32
--33
--34
--35
--36
--37
--38
--39
--4
--40
--41
--42
--43
--44
--45
--46
--47
--48
--49
--5
--50
--51
--52
--53
--54
--55
--56
--57
--58
--59
--6
--60
--61
--62
--63
--64
--65
--66
--67
--68
--69
--7
--70
--71
--72
--73
--74
--75
--76
--77
--78
--79
--8
--80
--81
--82
--83
--84
--85
--86
--87
--88
--89
--9
--90
--91
--92
--93
--94
--95
--96
--97
--98
--99
--a
--ab
--aba
--abad
--able
--abri
--ac
--aca
--aceae
--ach
--ad
--ade
--adi
--ado
--ae
--af
--afe
--ag
--aga
--age
--agne
--ago
--ah
--ahi
--ai
--aj
--aja
--aje
--ak
--aki
--al
--ale
--ales
--ali
--all
--alog
--als
--am
--ame
--an
--ana
--ance
--and
--andi
--andra
--ane
--ang
--ani
--ano
--ans
--ant
--anus
--anya
--ao
--ap
--aq
--ar
--ara
--ard
--are
--ari
--aries
--aro
--arov
--ary
--arı
--as
--ase
--asi
--at
--ata
--ate
--ated
--ath
--ati
--atic
--ation
--ations
--atiya
--atiye
--ato
--ator
--atory
--atus
--au
--aur
--aux
--av
--ava
--ave
--aw
--awa
--awe
--ax
--axi
--ay
--aya
--aye
--ayi
--az
--aze
--azi
--b
--ba
--bach
--bad
--bag
--bahn
--ball
--ban
--bar
--bas
--bax
--be
--bed
--beg
--ben
--ber
--berg
--bes
--betts
--bi
--bia
--bic
--bim
--bin
--bir
--biti
--ble
--bo
--book
--borg
--bourg
--bow
--box
--bronn
--bs
--bt
--bu
--burg
--burn
--bury
--bus
--bution
--by
--bzon
--c
--ca
--caceae
--cal
--can
--cas
--case
--cat
--ce
--cea
--ceae
--cee
--cens
--cer
--ces
--cey
--ch
--chau
--che
--cher
--ches
--chi
--cho
--cht
--chus
--chy
--ci
--cia
--cide
--cik
--cika
--cio
--cix
--ck
--cke
--cker
--cki
--cks
--cle
--cles
--co
--col
--cq
--craft
--cs
--ct
--ction
--ctions
--ctis
--ctive
--ctor
--cts
--ctus
--cu
--culus
--cum
--cus
--cy
--cyon
--cz
--cı
--cık
--d
--da
--daceae
--dae
--dag
--dam
--dan
--dana
--dane
--dar
--dare
--dari
--dax
--day
--dayi
--ddi
--de
--dea
--deae
--ded
--dedi
--deen
--den
--densis
--der
--dere
--des
--deye
--dge
--di
--dia
--dibe
--dide
--dike
--dim
--din
--dina
--dine
--diq
--dir
--dis
--dit
--dium
--dix
--diye
--dle
--do
--dog
--don
--dor
--dorf
--dos
--dot
--dra
--ds
--dt
--du
--duk
--dula
--dum
--dun
--dy
--dı
--e
--ea
--eaceae
--eae
--eau
--eb
--ec
--ech
--eck
--ed
--eddi
--edi
--edit
--edt
--ee
--ef
--eg
--egehe
--eh
--ei
--eim
--ek
--eka
--eke
--eki
--el
--eld
--ele
--eli
--ell
--ella
--elli
--ello
--eln
--em
--emi
--en
--ena
--ence
--end
--endorf
--ene
--enheim
--eni
--enoptera
--ens
--ense
--ensis
--ent
--enz
--eo
--ep
--ephrops
--eq
--eqe
--er
--era
--ere
--ered
--erg
--eri
--ern
--ers
--ert
--es
--ese
--esi
--ess
--est
--et
--eta
--ete
--eti
--ets
--ett
--ette
--ety
--etz
--eu
--eus
--eux
--ev
--eval
--evi
--ew
--ewe
--ews
--ey
--eya
--eye
--eyi
--ez
--f
--fa
--fan
--faz
--fe
--feld
--felde
--felden
--fels
--fer
--ff
--ffe
--fi
--fication
--fied
--fik
--fin
--fly
--fo
--folia
--ford
--fr
--fs
--ft
--fte
--fu
--ful
--fy
--g
--ga
--gahe
--gan
--gate
--gau
--ge
--ged
--geh
--geha
--gehe
--gei
--gen
--ger
--gere
--geri
--geriye
--ges
--gg
--gh
--ght
--gi
--gia
--gie
--gin
--gio
--gir
--gire
--gis
--gma
--gn
--gna
--gne
--gny
--go
--gon
--gos
--gre
--gs
--gt
--gton
--gu
--gua
--gue
--gues
--gus
--gy
--h
--ha
--hae
--hal
--ham
--han
--hau
--hc
--he
--heim
--hen
--her
--hez
--hf
--hi
--hia
--hias
--hic
--hid
--hie
--hin
--hing
--hip
--hips
--hir
--his
--hisar
--hiya
--hiye
--hk
--hl
--hman
--hn
--ho
--hofen
--holic
--holz
--hon
--hood
--hor
--hpu
--hr
--hs
--ht
--hta
--hte
--http
--https
--hu
--hum
--hure
--hus
--hy
--i
--ia
--iaceae
--iae
--ial
--ian
--iana
--iano
--ib
--ibe
--ible
--ibu
--ic
--ica
--ical
--ich
--ick
--icus
--id
--ida
--idae
--ie
--iel
--ien
--ier
--iers
--ies
--if
--ifolia
--iformes
--ig
--igny
--ih
--ihe
--ii
--iidae
--ik
--ika
--ike
--iki
--il
--ile
--iler
--ille
--im
--in
--ina
--inae
--ine
--ing
--ings
--ington
--ini
--ino
--ins
--inson
--int
--inus
--io
--ion
--ions
--ior
--ios
--ious
--ip
--iq
--ique
--ir
--ira
--ire
--iri
--irin
--irina
--irs
--irsi
--is
--isch
--ische
--ise
--isi
--ision
--ism
--ist
--ists
--it
--ita
--ite
--itt
--ity
--itz
--ium
--ius
--iv
--ive
--ix
--iya
--iyan
--iye
--iyek
--iyeke
--iyeta
--iz
--ization
--ize
--ized
--j
--ja
--jan
--je
--jen
--jet
--ji
--jin
--jo
--joya
--ju
--jøen
--k
--ka
--kan
--kani
--kar
--kare
--kari
--kas
--kat
--kau
--kc
--ke
--kek
--kele
--ken
--ker
--kere
--kes
--ket
--keti
--key
--keze
--kh
--ki
--kin
--kir
--kiri
--kirin
--kirina
--kirine
--kis
--kla
--kle
--kli
--klı
--ko
--kol
--kom
--kow
--koy
--kp
--kreis
--kri
--ks
--ksi
--kt
--kta
--kte
--kti
--ktu
--ktur
--ku
--kuj
--kuji
--kul
--kurd
--ky
--kırın
--l
--la
--lah
--lan
--land
--lar
--ları
--las
--lax
--lay
--lbach
--lberg
--ld
--lda
--lde
--ldi
--le
--lea
--lek
--lekti
--len
--ler
--leri
--les
--let
--lethwait
--ley
--lf
--li
--lia
--lica
--lich
--lie
--lig
--lin
--link
--lis
--list
--lity
--lk
--lke
--ll
--lla
--lle
--lles
--lli
--llo
--llus
--lly
--lm
--lma
--lmi
--ln
--lo
--log
--logy
--lok
--los
--lphis
--ls
--lsheim
--lt
--ltar
--lti
--lu
--luk
--lus
--ly
--lya
--lyn
--lz
--lı
--lıg
--lık
--m
--ma
--mader
--mal
--man
--mann
--mar
--mas
--mat
--maz
--mba
--mbe
--mberg
--mbi
--mbiguation
--me
--med
--mel
--men
--mend
--ment
--mer
--met
--mez
--mi
--mik
--min
--mis
--miz
--mla
--mler
--mli
--mme
--mnitz
--mo
--moto
--mp
--ms
--mu
--mus
--muz
--my
--mys
--n
--na
--naceae
--nae
--nal
--nama
--name
--nan
--nar
--nas
--nase
--nasi
--nau
--nburg
--nc
--nce
--nci
--ncia
--ncy
--nd
--nda
--nde
--ndeye
--ndi
--ndin
--ndine
--nding
--ndiye
--ndo
--ndorf
--ne
--nean
--ned
--nek
--nell
--nen
--ner
--nes
--ness
--net
--ney
--nfeld
--ng
--nga
--nge
--ngen
--ngi
--ngs
--nhagen
--nhausen
--ni
--nia
--niaceae
--nic
--nica
--nii
--nik
--nin
--ning
--nique
--nis
--nism
--nius
--nivi
--niya
--niye
--nk
--nkirchen
--nli
--nlu
--nn
--nna
--nne
--no
--noza
--ns
--nsa
--nse
--nsee
--nsi
--nsis
--nstadt
--nstein
--nt
--nta
--ntal
--ntan
--nte
--nthal
--nthus
--nti
--ntino
--nto
--nts
--nu
--num
--nus
--ny
--nya
--nz
--nza
--nzen
--nzo
--o
--oc
--ock
--od
--ode
--odon
--ody
--oe
--of
--og
--oge
--ogi
--oglu
--ogy
--oh
--oi
--oidea
--oideae
--oides
--oj
--oje
--oji
--ok
--oka
--okan
--oke
--oki
--ol
--ola
--ole
--oli
--olo
--ology
--olus
--om
--oma
--ome
--omus
--omys
--on
--ona
--onal
--onale
--one
--ong
--oni
--onne
--ons
--ont
--ony
--onya
--onyx
--oo
--oon
--op
--ops
--opus
--oq
--or
--ora
--ord
--ore
--orex
--orf
--ori
--oriya
--oriye
--orn
--ors
--orum
--ory
--oryctes
--os
--osa
--ose
--oshi
--osi
--osis
--ost
--oste
--ot
--ota
--otan
--othy
--oti
--oto
--ott
--ou
--ough
--ous
--out
--oux
--ov
--ovi
--ovic
--ovich
--ovo
--ow
--ows
--ox
--oy
--oya
--oye
--oyi
--oz
--oze
--ozi
--p
--pa
--paper
--pare
--pas
--pc
--pe
--ped
--pei
--pes
--pf
--ph
--phis
--phus
--phy
--pi
--pia
--pil
--pin
--pis
--po
--poni
--pos
--pp
--pped
--pra
--ps
--pse
--pt
--pte
--pted
--pton
--pu
--pur
--pus
--q
--qa
--qan
--qandi
--qandin
--qe
--qi
--qiya
--qs
--qu
--que
--r
--ra
--rage
--ral
--ram
--ran
--ras
--rat
--rate
--rator
--rc
--rch
--rchen
--rd
--rde
--rdi
--rds
--re
--rea
--red
--ree
--rek
--rel
--rell
--ren
--rer
--res
--ret
--rew
--rf
--rg
--rge
--ri
--ria
--rian
--ric
--rid
--rie
--ries
--riidae
--rim
--rin
--rina
--rine
--ris
--rit
--rium
--rius
--rix
--riya
--riye
--rk
--rke
--rle
--rly
--rm
--rmont
--rn
--rna
--ro
--roda
--rode
--rok
--ron
--rop
--rot
--rov
--rra
--rre
--rrehman
--rri
--rry
--rs
--rse
--rsheim
--rsi
--rsin
--rt
--rta
--rte
--rti
--rtin
--rtina
--rtine
--ru
--ruf
--rum
--rve
--rx
--ry
--rya
--rz
--rze
--rı
--s
--sa
--sal
--san
--sau
--saz
--sazi
--sb
--sbach
--sberg
--sch
--schaft
--sche
--scheid
--schen
--scher
--scribe
--scus
--sdorf
--se
--sed
--see
--sen
--ser
--ses
--sfeld
--sh
--sha
--shafen
--shagen
--shausen
--sheim
--shi
--ship
--shire
--si
--sia
--sian
--sii
--sin
--sion
--sions
--sis
--sjøen
--sk
--ska
--ski
--sky
--sm
--smus
--sne
--so
--sog
--son
--sor
--spi
--ss
--ssa
--sse
--ssen
--sson
--ssu
--st
--sta
--stadt
--stan
--stane
--starr
--ste
--stedt
--ster
--sti
--sts
--stuhl
--su
--sum
--sus
--svatnet
--sy
--syon
--sı
--sız
--t
--ta
--tadt
--tae
--tal
--tali
--tan
--tas
--tation
--tay
--taz
--tch
--te
--tebe
--ted
--tek
--ten
--ter
--tes
--text
--th
--thaceae
--thal
--therium
--thus
--ti
--tia
--tial
--tic
--tica
--tical
--tics
--ticus
--tidae
--ties
--tii
--tik
--tin
--tina
--tine
--ting
--tion
--tions
--tiqa
--tir
--tiri
--tis
--tive
--tiya
--tiye
--tke
--tle
--tli
--tn
--tnet
--to
--tok
--tol
--tole
--ton
--tor
--tors
--tory
--tos
--town
--toya
--toye
--tr
--tra
--tre
--tri
--tris
--tro
--ts
--tt
--tta
--tte
--tten
--tti
--ttin
--tu
--tum
--tus
--tv
--ty
--tylus
--tz
--tze
--tı
--u
--ua
--uan
--ub
--uc
--uce
--ud
--uda
--udi
--ue
--uen
--uer
--ues
--uf
--ugh
--ui
--uil
--uire
--uk
--uke
--uki
--ul
--ula
--ulan
--ular
--ule
--uli
--ullah
--ult
--ulu
--ulus
--um
--uma
--un
--uncu
--une
--ung
--ungen
--up
--ups
--ur
--ura
--uran
--ure
--urg
--url
--urt
--us
--use
--usen
--ut
--ute
--uth
--uwe
--ux
--uy
--uz
--v
--va
--val
--van
--vane
--vani
--vat
--vatn
--vatnet
--vc
--ve
--ven
--vend
--ver
--vi
--vic
--ville
--vin
--vir
--viri
--vka
--vki
--vo
--vt
--vus
--vy
--vz
--w
--wa
--wall
--wan
--war
--ware
--wart
--wati
--way
--we
--wen
--wer
--wey
--wi
--wich
--wici
--wiki
--win
--witz
--wk
--wn
--wo
--wood
--ws
--wsi
--wt
--www
--x
--xa
--xan
--xane
--xc
--xe
--xi
--xin
--xs
--xt
--xu
--xwaz
--xwe
--y
--ya
--yad
--yak
--yake
--yal
--yali
--yan
--yane
--yar
--yaye
--yaz
--yaze
--yd
--ye
--yek
--yeke
--yeki
--yen
--yet
--yeta
--yete
--yeti
--yev
--yeya
--yeye
--yi
--yiya
--yiyan
--yiye
--yl
--yli
--ym
--yn
--yna
--yne
--yo
--yoki
--yon
--yor
--yr
--ys
--yse
--yt
--yu
--yum
--yume
--yx
--yye
--yı
--z
--za
--zade
--zan
--zani
--zar
--zaye
--zde
--ze
--zed
--zer
--zfeld
--zheim
--zi
--zia
--zie
--zig
--zin
--zire
--zl
--zm
--zme
--zo
--zon
--zow
--zt
--zu
--zung
--zy
--zyn
--zz
--zzo
--zı
--zım
--ß
--ße
--ı
--ık
--ıl
--ım
--ın
--ına
--ında
--ır
--ıs
--ız
--ł
--ła
--ław
--łe
--α
--η
--ι
--ν
--ο
--ος
--ς
--υ
--а
--е
--и
--ии
--р
--я
--ا
--اب
--ار
--ان
--انی
--ای
--ب
--ة
--ت
--تان
--ته
--تی
--ج
--ح
--خ
--د
--دی
--ر
--رة
--ری
--ز
--س
--سی
--ش
--ق
--ك
--ل
--لي
--م
--ن
--نلي
--ني
--نی
--ه
--و
--ور
--ون
--ي
--ية
--ين
--ک
--گ
--ی
--ین
--ێ
--ە
