!
"
#
##0
##1
##10
##11
##12
##13
##14
##15
##16
##17
##18
##19
##2
##20
##21
##22
##23
##24
##25
##26
##27
##28
##29
##3
##30
##31
##32
##33
##34
##35
##36
##37
##38
##39
##4
##40
##41
##42
##43
##44
##45
##46
##47
##48
##49
##5
##50
##51
##52
##53
##54
##55
##56
##57
##58
##59
##6
##60
##61
##62
##63
##64
##65
##66
##67
##68
##69
##7
##70
##71
##72
##73
##74
##75
##76
##77
##78
##79
##8
##80
##81
##82
##83
##84
##85
##86
##87
##88
##89
##9
##90
##91
##92
##93
##94
##95
##96
##97
##98
##99
$
%
&
'
(
)
*
+
,
-
.
/
0
00
000
0000
000000
001
01
02
03
04
05
06
07
08
09
1
10
100
1000
10000
101
103
104
107
108
109
11
110
11000
111
113
114
115
117
118
12
120
1200
12000
122
123
124
125
127
128
13
13000
14
140
14000
143
15
150
1500
15000
16
16000
17
17000
171
18
180
1880
1882
19
1900
1908
1911
1912
1920
1923
1930
1934
1936
1945
1946
1947
1948
195
1950
1952
1954
1956
1958
1959
1960
1961
1962
1963
1964
1965
1966
1967
1968
1969
1970
1971
1972
1973
1974
1975
1976
1977
1978
1979
1980
1981
1982
1983
1984
1985
1986
1987
1988
1989
1990
1991
1992
1993
1994
1995
1996
1997
1998
1999
2
20
200
2000
2001
2002
2003
2004
2005
2006
2007
2008
2009
2010
2011
2012
2013
2014
2015
2016
2017
2018
2019
2020
2021
2022
2023
203
21
2100
22
220
2200
23
230
2300
233
24
240
2400
245
25
250
2500
252
26
260
2600
27
2700
272
28
280
2800
29
2900
3
30
300
3000
31
3100
3166
32
320
3200
33
3300
34
3400
35
350
3500
36
360
3600
37
38
3800
39
4
40
400
4000
401
41
42
43
44
45
450
453
46
47
48
480
49
5
50
500
5000
501
51
52
53
54
55
56
57
58
59
6
60
600
6000
61
62
63
639
64
65
66
67
68
69
7
70
700
71
72
73
74
75
76
77
78
79
8
80
800
81
82
83
84
85
86
87
88
89
9
90
900
91
92
93
94
95
96
97
978
98
99
999
:
;
<
=
>
?
@
\
^
_
`
a
aa
aaa
aau
ab
abbr
abbrev
abbreviated
abbreviation
abbreviations
abc
abdominal
abha
ability
able
ablon
about
above
abs
absolute
abstract
abuse
ac
academic
academy
accept
acceptable
accepted
accepts
access
accessdate
accessed
accessibility
accessible
accordance
according
accordingly
account
accountcreator
accounts
accuracy
accurate
achi
achieve
acid
acre
across
act
acting
action
actions
active
activities
activity
actor
actress
acts
actual
actually
acute
ad
adapt
adaptation
add
addclass
added
adding
addition
additional
additionally
address
addresses
adds
aditya
adj
adjacent
adjust
admin
administration
administrative
administrator
administrators
admins
adminship
adopted
advance
advanced
advice
ae
af
afd
affairs
affect
affected
affricate
afghanistan
africa
african
aft
after
again
against
age
agency
agenda
ago
agree
agreement
agriculture
ai
aid
aim
air
aircraft
airport
airports
ajanta
aka
akademi
al
album
albums
alcohol
alert
ali
alias
aliases
align
aligned
alignment
aliva
all
allergic
alliance
allow
allowed
allowing
allows
almost
alochana
alone
along
alongside
alpha
alphabet
alphabetical
alphabetically
already
also
alt
alter
alternate
alternative
alternatively
alternativemap
alternatives
although
altlink
altnames
altvar
alveolar
always
am
ama
amazon
ambiguous
ambox
ame
america
american
among
amount
amrita
an
analysis
anchor
anchors
ancient
and
andhra
android
angle
animal
animals
anniversary
announced
announcement
annual
anonymous
another
ansuman
answer
anti
any
anyone
anything
anyway
anywhere
ap
apart
api
apologies
apostrophe
app
appear
appearance
appears
append
appendchild
appended
apple
applicable
application
applications
applied
applies
apply
applying
approach
appropriate
approval
approved
approximant
approximate
apps
apr
april
ar
arab
arabic
aramaic
arbitrary
arbitration
arch
archaeological
architecture
archive
archived
archivedate
archives
archiveurl
archiving
are
area
areas
aren
arg
argentina
args
argscfg
argsi
argsk
argument
arguments
arm
armenian
arms
army
around
array
arrow
art
article
articles
articleshow
artist
arts
arxiv
as
asi
asia
asian
asin
ask
asked
asking
asp
aspects
aspx
assam
assembly
assert
assess
assessment
assign
assigned
assist
assistance
associated
association
assume
assumed
astrology
astronomy
at
atc
atha
athlete
atlas
attached
attack
attacks
attempt
attempts
attention
attr
attribute
attributes
attribution
au
audio
aug
august
aus
australia
australian
austria
author
authority
authorlink
authors
auto
autoconfirmed
autofillprop
automated
automatic
automatically
autoreview
av
available
average
aviation
avoid
avoided
award
awarded
awards
aware
away
awb
az
b
ba
baby
bach
back
background
backwards
bad
ball
ban
band
bangalore
bangladesh
bank
banner
banners
bar
bare
barnstar
bars
base
based
basic
basin
basis
battle
bay
bb
bbc
bc
bce
bd
be
beach
because
become
becomes
been
bef
before
begin
beginning
begins
behalf
behavior
behaviour
behind
being
believe
belong
belongs
below
benefit
bengal
bengali
best
beta
better
between
beyond
bf
bg
bhai
bhala
bharat
bharatiya
bhubaneswar
bhutan
bi
bias
bibcode
bibliography
big
bihar
bilabial
bill
billion
bin
binomial
bio
biographical
biographies
biography
biology
biorxiv
bird
birds
birth
birthday
bit
black
blacklist
blank
bloc
block
blocked
blocking
blocks
blog
blogs
blood
blp
blue
blurb
bn
bo
board
body
bodyclass
bodystyle
bold
bollywood
bombay
bone
book
bookdata
books
boolean
border
borders
born
boston
bot
both
bots
bottom
box
boxes
br
brace
braces
bracket
brackets
braille
brain
branch
brand
brazil
brazilian
break
breaking
breaks
breast
breed
bridge
brief
bring
britain
britannica
british
broad
broken
brown
browser
browsers
bs
btu
bu
buddha
buddhist
buffer
bug
build
builder
building
built
bullet
bulleted
bureaucrat
bureaucrats
business
but
button
buttons
by
bypass
bytes
c
ca
cache
cal
calcium
calculated
calcutta
calendar
california
call
callback
called
calling
calls
cambridge
cameroon
campaign
can
canada
canadian
cancer
candidate
candidates
cannot
canonical
cap
capacity
cape
capital
capitalization
capitalized
caps
captain
caption
capture
car
card
cardinal
care
career
careful
carefully
cas
case
cases
cat
catch
catches
categories
categorisation
categorise
categorization
categorize
categorizes
category
categoryhandler
catholic
cats
cause
causes
caution
cave
caves
cb
cc
ccite
cd
ce
celebrating
celebration
cell
cells
census
center
centered
centers
central
centre
century
certain
cf
cfg
ch
chain
chandra
change
changed
changes
changing
channel
channels
chapter
char
character
characters
charge
charles
chart
chat
check
checked
checking
checks
checktype
checkuser
chembox
chemical
chemistry
chemotherapy
chennai
chest
chha
chhattisgarh
chicago
chief
child
children
chile
chin
china
chinantec
chinese
chinmayee
choice
choose
chosen
christian
christmas
chrome
chronic
chronology
church
cia
cid
cinema
circa
circle
circumstances
cis
citation
citationclass
citations
cite
cited
citeq
citeref
citeseerx
citetb
cities
citing
citizen
citizens
city
civic
civil
claim
claims
claremont
clarify
class
classes
classical
classification
clean
cleanup
clear
clearly
click
clicking
client
climate
close
closed
closely
closing
club
clubs
cm
cms
co
coalition
coast
coat
coauthors
code
coded
codes
coding
coins
col
coldbreeze
collaboration
collapse
collapsed
collapsible
collected
collection
collections
college
colombia
colon
colons
color
colors
colour
colours
cols
colspan
colstyle
columbia
column
columns
com
combination
combinations
combined
come
comes
coming
comma
command
commander
commands
commas
comment
commentary
comments
commercial
commission
committee
common
commonly
commons
commonwealth
commune
communication
communist
communities
community
compact
companies
company
compare
compared
comparison
compatibility
compatible
competition
complete
completed
completely
complex
component
components
composite
compositions
comprehensive
computer
computers
computing
concat
concatenation
concept
concern
concerns
condition
conditions
conduct
conducted
conf
conference
config
configuration
confirm
confirmed
conflict
conflicts
confused
confusing
confusion
congo
congress
conj
conjunction
connected
connection
consensus
conservation
conservative
consider
considered
consistent
consisting
consists
consonant
constituencies
constitution
construction
consultation
contact
contain
contained
container
containing
contains
content
contentcat
contentious
contents
contest
context
continue
contrast
contribs
contribute
contributing
contribution
contributions
contributor
contributors
control
controlled
controls
controversial
convenience
convenient
convention
conventions
conversation
conversations
conversion
conversions
convert
converted
converter
converting
converts
convey
cookie
coord
coordinate
coordinates
copied
copies
copy
copying
copyright
copyrighted
copyrights
core
corner
corporate
corporation
correct
corrected
correctly
corresponding
cost
could
council
count
counter
countries
country
counts
county
course
court
cover
coverage
covered
covers
covid
create
created
createelement
creates
creating
creation
creative
creator
credit
creole
cretaceous
cricinfo
cricket
criteria
criterion
critical
croatia
croatian
cross
cs
css
csstext
ct
ctx
cu
cubic
cuft
cultural
culture
cup
cur
currency
current
currently
currentnews
cursor
custom
customary
cut
cuttack
cvt
cy
cycle
czech
d
da
dab
daily
dal
dam
damage
dance
dark
das
dash
dashes
data
database
databases
datatype
datavalue
date
dated
dates
datestr
david
day
days
db
dc
dd
de
dead
deal
dealing
dear
death
debug
dec
decade
december
decide
decimal
decimals
decision
dedicated
deep
def
default
defaults
deficiency
define
defined
defines
definition
definitions
deg
degree
degrees
del
delete
deleted
deleting
deletion
delhi
delivery
delta
demo
democracy
democratic
democrats
demographics
demonstrate
demonstration
demospace
den
denominator
density
dental
deo
department
depend
dependencies
dependent
depending
depends
deprecated
depression
depth
der
des
desc
describe
described
describes
describing
description
descriptions
descriptive
design
designated
designation
designations
designed
desirable
desired
desk
desktop
destination
detail
detailed
details
detect
detected
detection
detects
determine
determined
determines
developed
developer
developers
developing
development
devi
device
df
dharitri
di
dia
diacritic
diacritics
diagram
dialect
dialog
dictionary
did
die
died
diff
difference
differences
different
differently
difficult
digit
digital
digitization
digitized
digits
dinesh
dinosaur
dinosauria
direct
direction
directly
director
directory
disable
disabled
disambiguated
disambiguation
disambiguator
discouraged
discuss
discussed
discussing
discussion
discussions
disease
diseases
disorder
disp
display
displayed
displaying
displays
dispute
disputed
disputes
disruption
disruptive
distance
distribute
distributed
distribution
district
districts
div
diversity
division
divisions
djvu
dl
dm
dms
dmy
dne
do
doc
doctitle
document
documentation
documented
documents
dodson
does
doesn
dog
dogon
doi
doing
dollar
dolor
domain
don
donation
done
dot
dots
double
doubt
down
download
dr
draft
drafting
draw
drive
drop
drug
drugs
dsh
dt
du
due
duplicate
duration
during
dutch
dv
dynamic
dynasty
e
ea
each
earlier
early
earth
easier
easily
east
eastern
easy
eb
ebe
ec
ece
eci
eclipse
economic
economics
ed
edge
edit
edited
editing
edition
editions
editnotice
editnotices
editor
editorial
editors
edits
eds
edu
education
educational
edward
ee
effect
effective
effectively
effects
effort
efforts
eg
egypt
egyptian
ei
eight
eighth
either
ejective
el
elected
election
elections
electronic
element
elements
elevation
eligible
else
elseif
elsewhere
em
email
embargo
embedded
embedding
emblem
eminent
emphasis
empire
empty
en
enable
enabled
enables
enclosed
encode
encoded
encoding
encourage
encouraged
encyclopaedia
encyclopedia
encyclopedic
encyclopædia
end
endangered
endash
ending
ends
endyear
energy
enforcement
engage
engine
engineering
engines
england
english
engpdf
enough
ensure
enter
entered
entering
entertainment
entire
entirely
entities
entity
entityid
entrance
entries
entry
enumerated
env
environment
eo
episode
equal
equals
equivalent
era
err
error
errors
es
esc
escape
escaped
especially
essay
essays
essential
established
et
etal
etc
eu
europe
european
evaluation
even
event
events
ever
everest
every
everyone
everything
evidence
evolution
ex
exact
exactly
example
examples
except
exception
exceptional
exceptions
exchange
exclude
excluded
exclusively
execution
exempt
exercise
exist
existence
existing
exists
expand
expanded
expandtemplate
expansion
expected
experience
experienced
experiment
expert
expiry
explain
explained
explaining
explanation
explanatory
explicit
explicitly
explorer
exponent
export
express
expression
expressions
ext
extended
extension
extent
extentseats
external
extinct
extra
extract
extraneous
eye
f
fa
face
facebook
fact
factor
facts
fail
failed
fails
failure
fair
faith
fall
fallback
falling
falls
false
familiar
families
family
famous
faq
far
fault
fb
fc
fe
feature
featured
features
feb
february
fed
federal
federation
feed
feedback
feel
feet
female
festival
fetch
fever
few
ff
ffa
ffd
ffff
ffffff
fi
field
fields
fifth
figure
figures
file
filename
files
fill
filled
film
films
filter
final
finally
finance
financial
find
finding
finds
fine
finland
finnish
fire
firefox
first
fit
five
fix
fixed
fixes
fixing
fl
flag
flags
float
floating
floor
florida
flow
flowering
fluid
fmt
focus
focused
folk
folklore
follow
followed
following
follows
font
fonts
foo
food
foot
football
footer
footnote
footnotes
for
force
forced
forces
foreign
forest
form
formal
format
formatdate
formation
formats
formatted
formatting
formed
former
formerly
forms
formula
fort
forum
forward
fossil
found
foundation
founded
founder
four
fourth
fr
frac
fraction
fracture
fragment
frame
frameless
france
francis
free
freedom
freely
freenode
french
frequently
fricative
friendly
friends
from
front
ft
full
fullargs
fullurl
fully
func
function
functionality
functions
fund
funds
further
future
g
ga
gadget
gadgets
galileo
gallery
game
games
gamma
gandhi
gap
gaps
gas
gate
gateway
gauge
gazetteer
gb
gbe
ge
gen
gender
gene
genera
general
generally
generate
generated
generates
generation
generic
genetic
genre
genus
geo
geographic
geographical
geography
geomask
george
georgia
german
germany
get
getargs
getbeststatements
getcontentlanguage
getcurrentframe
getcurrenttitle
getelementbyid
getparent
gets
getting
getvalue
getvalueof
gfdl
gi
gif
girl
girls
give
given
gives
giving
gl
global
globals
globe
glossary
glow
gnu
go
goa
goal
goals
god
goes
going
gold
golden
good
google
got
gote
gov
governance
government
governor
govt
gradient
gram
grammar
grand
grant
granted
grants
graphic
gray
great
greater
greece
greek
green
gregorian
grey
grid
ground
group
groups
groupstyle
growth
gsub
gu
guarantee
guguly
guidance
guide
guideline
guidelines
guinea
gujarat
gun
guntha
guru
gutenberg
gyan
h
ha
haba
had
half
hall
han
hand
handbook
handle
handled
handler
handling
hanging
hans
happen
happens
happy
harassment
hard
harvard
haryana
has
hatnote
hau
have
having
hdl
he
head
header
headers
heading
headings
health
heart
heba
hebrew
height
held
hele
hello
hellohappy
help
helper
helpful
helps
helsinki
hemisphere
hence
henry
her
here
heritage
hex
hi
hidden
hide
hierarchy
high
higher
highest
highland
highlight
highly
hill
hills
him
himachal
hindi
hindu
hinduism
his
hist
historic
historical
history
hl
hlist
hmong
ho
hockey
hold
holder
holding
holds
holiday
home
homepage
hong
honorific
hook
hooks
hope
horizontal
hospital
host
hosted
hot
hour
hours
house
how
however
hp
hr
href
hsb
htm
html
http
https
hu
huggle
human
hybrid
hyderabad
hyphen
hyphens
i
ia
iana
iast
ice
icon
icons
id
idea
ideally
ideas
identical
identification
identified
identifier
identifiers
identifies
identify
identifying
identity
ids
idx
ie
ietf
if
iframe
ignore
ignored
ii
iii
iimc
illustrate
im
image
imageleft
imageright
images
imagesize
imaging
imbox
imdb
img
immediately
imp
impact
impaired
imperial
implement
implementation
implemented
implements
implosive
import
importance
important
imported
improve
improved
improvement
improvements
improving
in
inactive
inappropriate
inc
inch
inches
include
included
includes
including
inclusion
income
incomplete
incorporated
incorrect
incorrectly
increase
increment
incubator
indefinite
indefinitely
indent
indented
independence
independent
index
india
indian
indiatimes
indic
indicate
indicated
indicates
indicating
indication
indicator
indirect
individual
individually
individuals
indo
indonesia
indus
industry
infection
infections
inflammatory
info
infobox
infoboxes
inform
information
inherit
inhibitor
init
initial
initials
initiative
injection
inline
inner
innings
input
inputs
ins
insensitive
insert
inserted
inserting
inserts
inset
inside
install
installation
installed
instance
instances
instead
institute
institution
institutions
instructions
int
integer
integrated
intended
interactive
interest
interested
interface
internal
internally
international
internet
internetarchivebot
interpreted
interview
interviewer
interwiki
into
intro
introduction
invalid
inventor
invert
invisible
invite
invocation
invoke
invoked
involve
involved
ip
ipa
ipairs
ipsum
ir
iran
iranica
irc
ireland
irish
iron
is
isbn
islam
islamic
island
islands
ismn
isn
isnotempty
iso
israel
issn
issue
issues
ist
isxn
it
italian
italic
italicize
italicized
italics
italy
item
itemid
items
its
itself
iucn
iv
j
ja
jabalpur
jadi
jagannath
jai
jain
jaipur
james
jammu
jan
janata
jane
january
japan
japanese
java
javascript
jayajatra
je
jean
jfm
jharkhand
ji
jnanaranjan
job
john
join
joined
joint
jones
journal
journals
jpeg
jpg
jquery
jr
js
json
jsp
jstor
ju
jul
julian
julianday
july
jun
june
just
justice
k
ka
kali
kalinga
kama
kan
kana
kanji
kannada
kar
kara
karen
kari
kariba
karnataka
kashmir
katha
kb
ke
kedia
keep
kenya
kept
kerala
key
keyboard
keymanweb
keys
keyword
keywords
kg
khan
ki
kichhi
kichi
kidney
kie
kilogram
kind
kinds
king
kingdom
kiss
kit
kj
km
kn
know
knowledge
known
ko
kolkata
konark
kong
korea
korean
krishna
krutrima
ku
kumar
kw
l
la
label
labels
labiodental
labor
labour
lack
lacking
lake
land
lang
langcode
language
languages
lanka
large
larger
largest
last
lat
latd
late
later
lateral
latest
latin
latitude
latn
latter
launch
law
laws
lay
layout
layouts
laysummary
lb
lc
lccn
le
lead
leader
leading
league
leap
learn
learning
least
leave
leaving
led
left
legal
legend
len
length
leopard
less
let
letter
letters
level
levels
li
liberal
libertarian
liberty
libraries
library
libraryutil
licence
license
licensed
licenses
licensing
licensor
life
light
like
likely
limit
limitations
limited
line
linear
lines
link
linked
linking
links
linux
list
listed
listen
listing
listings
lists
liststyle
listusers
literal
literary
literature
little
live
liver
living
lk
ll
lo
load
loaddata
loaded
loader
loading
loc
local
locally
located
location
locations
lock
log
logged
logic
login
logo
logos
logs
lok
lon
london
long
longer
longitude
look
looking
looks
loop
lord
lorem
los
loss
lost
lot
louis
love
loves
low
lower
lowercase
lska
lt
ltd
lu
lua
lung
lyrics
m
ma
maa
mac
machine
made
magazine
magazines
magic
magnitude
mahabharata
maharashtra
mail
mailing
main
mainly
mainsnak
mainspace
maint
maintain
maintenance
major
majority
make
makes
makewikilink
making
mal
malay
malayalam
malaysia
male
mall
man
mana
management
manager
manasa
mandatory
mandir
mane
manner
manual
manually
many
map
mapframe
maps
mar
marathi
march
margin
marguments
marine
mark
marked
marker
markers
market
marks
markup
marriage
martin
marx
marxist
mary
mask
mass
master
mata
match
matches
matching
material
materials
math
mathematical
mathematics
matter
matters
max
maximum
maxvals
may
mb
mbox
md
mdwiki
mdy
me
mean
meaning
meanings
means
meant
measure
medal
media
mediawiki
medical
medication
medicine
medicines
medieval
medium
meet
meeting
meets
meetup
member
members
memorial
men
mention
mentioned
menu
merely
merge
merged
merger
merging
message
messagebox
messages
met
meta
metadata
metal
metatable
method
methods
metre
metres
metric
metro
mexico
mf
mg
mhatnote
mi
miao
michael
microformat
microformats
microsoft
mid
middle
might
mile
miles
military
millennium
miller
million
min
mind
mini
minimum
minister
ministry
minor
minority
minus
minute
minutes
mirror
miscellaneous
mishra
missing
mission
misspelling
mixed
mixtec
mj
mk
mkar
ml
mm
mn
mo
mobile
mod
mode
model
modern
modification
modified
modifier
modify
module
modules
mohanty
mohapatra
mol
mole
molecular
moment
mongolian
month
monthly
months
monument
monuments
moon
more
mos
most
mostly
mother
mount
mountain
mouse
move
moved
movement
moves
movie
movies
moving
moz
mozilla
mp
mr
ms
msg
mt
mu
much
multi
multilingual
multiple
multiplier
mumbai
municipality
muscle
museum
music
musical
muslim
must
mutual
mw
my
mypanchang
n
na
nadu
naga
nahuatl
nam
name
named
names
namespace
namespaces
naming
narrow
nasa
nasal
nation
national
nationalist
nationality
nations
native
natural
nature
nav
naval
navbar
navbox
navboxes
navigation
navigational
navpop
navpopup
navy
nayak
nb
nd
ne
near
necessarily
necessary
need
needed
needing
needs
negative
neither
nepal
nerve
nested
net
netherlands
network
neutral
neutrality
never
new
newindianexpress
newline
newlines
newoption
news
newsletter
newspaper
newspapers
next
nfirst
ng
nh
nhs
ni
nic
nickname
nigeria
night
nih
nil
nl
nlast
nn
no
nocat
node
nodes
noeditsection
noflip
nominated
nominations
non
none
nor
normal
normally
north
northern
norway
not
notability
notable
notation
note
noted
notes
nothing
notice
noticeboard
notices
notification
notify
notoc
nottingham
nov
novel
november
now
nowiki
nowrap
npov
ns
nu
nua
null
num
number
numbered
numberol
numbers
numeral
numeric
numerical
nums
ny
o
obj
object
objects
oblast
obtained
obvious
oc
occasionally
occupation
occur
occurs
ocean
ocinsoutput
oclc
ocr
oct
october
odd
odi
odia
odisha
of
off
offer
offers
office
officer
official
offline
offset
often
ogg
oil
ok
ol
old
older
oldest
oldid
olshevsky
olympic
olympics
ombox
omit
omitted
omitting
on
once
one
ones
ongoing
online
only
onto
onwards
open
opened
opening
opens
opera
operated
operating
operation
operations
operator
opinion
opinions
opposite
opt
option
optional
optionally
options
or
ora
orange
order
ordered
ordinal
org
organisation
organization
organizations
organize
organized
organizing
orig
origargs
origin
original
originally
orissa
orissaannualreference
orissadiary
orissareview
oriya
orphan
os
osmo
osti
other
others
otherstates
otherwise
otrs
our
out
outer
output
outputs
outreach
outside
over
overall
overlay
overridden
override
overrides
oversight
overview
own
owner
oxford
p
pa
pacific
padding
padlock
page
pagename
pages
pagetype
pai
paid
pain
paintings
pair
pairs
paker
pakistan
palace
palatal
panel
panigrahi
paper
papers
papua
para
paragraph
paragraphs
param
parameter
parameters
params
parent
parentargs
parentheses
parenthetical
parentonly
parents
pargs
paris
park
parliament
parm
parms
parse
parsed
parseparam
parser
part
partial
participants
participate
participation
particle
particular
particularly
parties
partner
parts
party
pass
passed
passenger
passes
passing
password
past
paste
patent
path
patnaik
pattern
patterns
paul
pc
pcall
pd
pdf
pe
peace
peer
pending
penguin
people
peoples
pepper
per
percent
percentage
perfect
perform
performance
performed
performing
perhaps
period
periodic
periodical
periods
permanent
permanently
permission
permissions
permit
permitted
person
personal
personality
persons
peru
peter
pframe
pg
ph
phase
philosophy
phonetic
photo
photograph
photographs
photos
php
phrase
phrases
physical
physics
pi
pick
picture
pictures
pid
pierre
ping
pipe
piped
pipes
piping
pixel
pixels
pl
place
placed
placeholder
placement
places
placing
plagiarism
plain
plan
planned
planning
plans
plant
plantilla
plants
platform
play
played
player
players
please
plural
plus
pm
pmc
pmid
pmsarangi
png
poems
poet
poetry
point
points
poland
policies
policy
polish
political
politics
polo
poly
poor
pop
popular
populate
populated
population
port
portal
portals
portion
portrait
portuguese
pos
position
positional
positions
positive
possible
possibly
post
postal
postcondition
posted
posting
posts
postscript
potential
potentially
pound
power
pp
pr
practice
practices
pradesh
pradhan
prasad
pre
preceded
preceding
precision
precondition
predecessor
predefinic
prefer
preferable
preferably
preference
preferences
preferred
prefix
prefixed
prefixedtext
prefixes
pregnancy
prehistoric
preload
preprocess
preprocesssinglearg
presence
present
presentation
presented
preserve
president
press
pressure
pretty
prev
prevent
prevention
prevents
preview
previous
previously
primarily
primary
prime
princely
principles
print
printed
prior
priority
privacy
private
prize
probably
problem
problematic
problems
procedure
proceed
process
processed
processes
processing
produce
produced
produces
product
production
products
professional
profile
profit
program
programme
programming
programs
progress
progressive
project
projection
projects
proleptic
prominent
promote
promotion
promotional
pronunciation
proofread
prop
proper
properly
properties
property
propertyid
proposal
proposals
propose
proposed
props
prose
protect
protected
protection
protectionobj
protein
proto
provide
provided
provides
providing
province
provinces
provisional
proxy
ps
psubhashish
pt
ptr
public
publication
publications
publicly
publish
published
publisher
publishers
publishing
pump
punctuation
pune
punjab
punjabi
purana
purge
puri
purple
purpose
purposes
push
pushpin
put
puts
putting
px
q
qid
qualifier
qualifiers
quality
quantity
quantum
quarter
quechua
queen
queries
query
question
questionable
questions
queue
quick
quickly
quit
quite
quotation
quotations
quote
quoted
quotes
r
ra
racing
radiation
radio
radius
rail
railway
railways
rain
raise
raised
raja
rajalaxmi
rajasthan
ram
ramayana
random
range
ranges
ranjan
rank
ranking
ranks
rare
rarely
rate
rather
rating
ratio
rationale
raw
ray
rayagada
rcat
rd
re
reach
reached
reactions
read
reader
readers
reading
ready
real
really
reason
reasonable
reasonably
reasons
receive
received
recent
recently
recognised
recognize
recognized
recommendations
recommended
record
recorded
records
red
rediff
redirect
redirected
redirects
reduce
reduced
redundant
ref
refer
reference
referenced
references
referencing
referred
refers
reflect
reflist
refs
regarding
regardless
regards
regent
regex
regexp
region
regional
regions
register
registered
registration
registry
regular
related
relating
relative
release
released
relevant
reliable
relief
religion
religious
remain
remaining
remains
remember
removal
remove
removed
removes
removing
rename
renamed
render
rendered
rendering
renders
renewal
rep
repeat
repeated
replace
replaced
replacement
replaces
replacing
reply
report
reported
reports
represent
representation
representative
represented
representing
represents
reprint
republic
republican
request
requested
requesting
requests
require
required
requirement
requirements
requires
requiring
res
research
reserve
reserved
reset
residence
resolution
resolve
resolved
resource
resources
respect
respective
respectively
respond
response
responsible
rest
restricted
restrictions
result
resulting
results
ret
retrieve
retrieved
retroflex
return
returned
returns
retval
reuse
rev
revenue
reverse
revert
reverted
review
reviewed
reviews
revised
revision
revisions
rfc
rft
rhizobium
ri
rice
rich
richard
right
rights
risk
river
rivers
ro
road
robert
rock
role
roles
rollback
romaji
roman
romania
room
root
round
rounded
rounding
rout
route
row
rowargs
rows
rowspan
royal
rs
rtl
ru
rugby
rule
ruler
rules
run
running
runs
rural
russia
russian
s
sa
sabha
sabu
sacred
safari
safe
safety
sahitya
sahoo
sahu
sai
said
sailesh
saint
salt
sam
sambad
same
sample
san
sanctuary
sandbox
sans
sanskrit
santa
satellite
save
saved
saving
say
says
sbn
sc
scale
scan
schedule
scheme
schemes
school
schools
science
sciences
scientific
scientist
scim
scope
score
scotland
scottish
screen
screenshot
screenshots
script
scripts
scroll
se
sea
seal
search
searches
searching
season
seats
sec
second
secondary
seconds
sect
section
sections
secure
security
see
seek
seem
seems
seen
seizures
select
selected
selection
self
selfref
semi
send
sense
sensitive
sent
sentence
sep
separate
separated
separately
separator
separators
sepc
september
sequence
serbia
serial
series
serif
serious
serve
served
server
servers
service
services
session
set
setmetatable
sets
setting
settings
settlement
seven
several
sexual
sh
shadow
shah
shall
shape
share
shared
sharing
sharma
she
sheet
sheets
shift
ship
ships
short
shortcut
shortcuts
shortened
shorter
shortname
should
shouldn
show
showing
shown
shows
shri
shrine
si
sibilant
side
sidebar
sign
signature
signatures
signed
significance
significant
significantly
signs
silver
similar
similarly
simon
simple
simplified
simply
since
singapore
singh
single
singles
singular
sipun
sir
sister
sit
site
sitelink
sites
situation
situations
six
sixth
size
sk
skills
skin
skins
skip
skipped
sl
slang
slash
sld
slightly
slow
small
smaller
smalltext
smith
snak
snaktype
snippets
so
social
socialist
society
soft
software
solar
solely
solid
solidarity
solution
some
someone
something
sometimes
somewhere
son
song
songs
soon
sorry
sort
sortable
sorted
sorting
sortkey
sound
soundfile
sounds
source
sourced
sources
sourcing
south
southern
southwestern
sp
space
spaced
spaces
spacing
spain
spam
span
spanish
speaker
spec
special
specialized
species
specific
specifically
specification
specified
specifies
specify
specifying
speech
speed
speedy
spell
spelling
spin
spink
split
spoken
sport
sports
spouse
spread
spring
sq
square
sr
src
sri
srikant
ss
ssrn
st
stable
stack
stadium
staff
stage
stand
standard
standards
star
start
started
starting
starts
startyear
stat
state
stated
statement
statements
states
static
station
stations
statisticalreports
statistics
stats
statue
status
stay
step
steps
steward
stewards
still
stock
stone
stop
storage
store
stored
stories
storm
story
str
straight
strange
strategy
street
stress
strict
string
strings
strip
stripped
stroke
strong
strongly
structure
structures
stub
stubs
students
studies
study
style
styles
styling
su
sub
subas
subcategories
subcategory
subdivision
subdivisions
subgroup
subha
subhashish
subject
subjects
subjectspace
submission
submit
subpage
subpages
subscribe
subscription
subsequent
subspecies
subst
substantial
substitute
substituted
substitution
substring
subtags
subtemplate
subtemplates
success
successful
succession
successor
such
sudan
sufficient
suffix
suggest
suggested
suggestion
suggestions
suitable
suite
sum
summaries
summary
summer
sun
sunday
supl
supplement
supplied
supply
support
supported
supporting
supports
suppress
suppressed
suppresses
suppression
sure
surface
surname
surrounding
survey
sv
svg
swain
swami
sweden
swedish
swiss
switch
switzerland
symbol
symbols
syndrome
synonyms
syntax
sysop
system
systems
t
ta
tab
table
tables
tabletools
tabs
tag
tagged
tagging
tags
tai
tail
taiwan
take
taken
takes
taking
talk
talkpage
tamil
target
task
tasks
taxa
taxobox
taxon
taxonomic
taxonomy
tbl
td
te
tea
team
teams
tech
technical
technically
technology
telegraphindia
telescope
television
tell
telugu
temp
temperature
templat
template
templateargs
templatedata
templatepar
templates
templatestyles
templatetitle
temple
temples
temporarily
temporary
ten
tennis
term
terminal
terms
territory
test
testcase
testcases
tested
testing
tests
text
texts
tf
th
thai
than
thank
thanks
that
the
thehindu
their
them
theme
themselves
then
theory
therapy
there
therefore
thermal
these
thesis
they
thik
thing
things
think
third
this
thomas
thon
those
though
thought
thousand
thousands
three
through
thumb
thumbnail
thus
ti
tibetan
tie
tiger
tike
tilak
tildes
till
time
timeline
timeout
times
timesofindia
timestamp
timezone
tip
tissue
title
titleobj
titles
titlestyle
tld
tmbox
tnt
to
toc
today
todays
todo
together
toggle
tokyo
tone
tonumber
too
tool
toolbar
tools
tooltip
top
topic
topics
tostring
total
totals
tour
tourism
tourist
towards
tower
town
tp
tr
track
tracking
tracks
trade
tradition
traditional
traffic
trailing
train
trained
training
trans
transclude
transcluded
transcluding
transclusion
transclusions
transcript
transcription
translate
translated
translating
translation
translations
translator
translators
translit
transliteration
transparent
transport
transwiki
travel
treat
treated
treatment
tree
trees
trick
trigger
trill
trim
true
trust
trustees
try
trying
ts
tt
ttf
ttl
ttt
tu
tulips
turkey
turkish
turn
tutorial
tv
tweet
twenty
twitter
two
txt
type
typed
typeof
types
typical
typically
typing
u
ucoc
ui
uk
ukraine
ul
ulx
umpired
un
unable
unblock
undefined
under
understand
understanding
understands
unesco
unexpected
unicode
unified
union
unique
unit
unitcode
united
units
unity
universal
university
unknown
unless
unlike
unlikely
unlinked
unnamed
unnecessary
unranked
unregistered
unrounded
unset
unsourced
until
unused
unusual
up
upagrahara
upcoming
update
updated
updates
updating
upload
uploaded
uploading
upon
upper
uppercase
upright
ur
urban
uri
url
urls
us
usa
usability
usage
use
used
useful
usename
user
userbox
userboxes
username
usernames
userpage
users
userspace
uses
using
ustring
usual
usually
ut
utc
util
utilities
utkal
utype
uvular
v
va
vaccine
val
valid
validate
validation
valley
value
values
van
vanc
vancouver
vandalism
var
variable
variables
variant
variants
variations
variety
various
vauthors
ve
vector
vein
velar
venue
verifiability
verifiable
verified
verify
version
versions
vertical
very
vi
via
victoria
video
videos
view
viewed
viewing
views
village
villages
violation
violations
virginia
virtual
virus
vis
visakhapatnam
visible
vision
visit
visitors
visual
visualeditor
visually
vitamin
voice
voiced
voiceless
vol
volume
volumes
volunteer
volunteers
vorlage
vote
voting
vowel
vs
w
wa
wait
wales
wall
walter
walters
want
wanted
war
warn
warning
warnings
warring
was
washington
watch
watchlist
water
way
wayback
ways
wd
wdl
we
web
webkit
website
websites
week
weekly
weeks
weight
weishampel
welcome
well
were
west
western
what
whatever
when
whenever
where
whereas
whether
which
while
white
whitelist
whitespace
who
whole
whose
why
wickets
wide
widely
wider
width
wiki
wikibase
wikibooks
wikicode
wikidata
wikilink
wikilinked
wikilinks
wikimania
wikimarkup
wikimedia
wikimedians
wikipage
wikipedia
wikipedian
wikipedians
wikipedias
wikiproject
wikiprojects
wikiquote
wikis
wikisource
wikispecies
wikitable
wikitext
wiktionary
wild
wildlife
will
william
win
window
windows
winner
wins
winter
wish
wishes
wishlist
with
within
without
wizard
wl
wmf
wocka
woman
women
won
word
wording
words
work
worked
workers
workflow
working
works
workshop
workshops
world
worldwide
worth
would
wp
wrap
wrapped
wrapper
wrappers
write
writer
writers
writing
written
wrong
ws
www
x
xml
xx
xxx
y
ya
year
yearbc
years
yellow
yes
yesno
yet
yi
yields
ym
ymd
yo
yoga
york
you
young
your
yourself
youth
youtube
yue
yyyy
z
za
zapotec
zbl
zealand
zero
zeros
zh
zhuang
zone
zoom
zyyy
{
|
}
~


¡
¢
£
¤
¥
§
¨
©
«
¬
­
®
°
±
²
³
´
µ
¶
·
¹
»
¼
½
¾
¿
×
ß
æ
ð
÷
ø
þ
ı
ł
ŋ
œ
ƒ
ǀ
ǁ
ǂ
ǃ
ɑ
ɒ
ɔ
ɖ
ə
ɚ
ɛ
ɜ
ɡ
ɪ
ɽ
ʂ
ʃ
ʇ
ʈ
ʊ
ʎ
ʒ
ʔ
ʖ
ʗ
ʘ
ʰ
ʱ
ʲ
ʷ
ʻ
ʼ
ˀ
ˈ
ˌ
ː
˞
ˠ
ˤ
̀
́
̂
̃
̄
̅
̆
̇
̈
̉
̊
̋
̌
̏
̐
̑
̓
̔
̛
̝
̞
̟
̠
̣
̥
̦
̧
̨
̩
̪
̬
̯
̱
̸
͂
ͅ
͜
͡
α
β
ε
η
θ
ι
μ
ν
ο
π
ρ
ς
τ
υ
χ
ω
а
в
е
и
к
м
н
у
шаблон
і
ا
الگو
قالب
و
َ
ٓ
ٔ
ٕ
٠
ނ
އ
ވ
ފ
ަ
ި
ު
ް
ँ
ं
ः
आ
इ
ई
ए
क
ख
ग
घ
ङ
च
छ
ज
झ
ञ
ट
ठ
ड
ढ
ण
त
थ
द
ध
न
प
फ
ब
भ
म
य
र
ल
ळ
व
श
ष
स
ह
़
ा
ि
ी
ु
ू
ृ
े
ै
ॉ
ो
ौ
्
।
॥
॰
ঁ
ং
ঃ
ক
খ
গ
ঘ
ঙ
চ
ছ
জ
ঝ
ঞ
ট
ঠ
ড
ঢ
ণ
ত
থ
দ
ধ
ন
প
ফ
ব
ভ
ম
মপ
য
র
ল
শ
ষ
স
হ
়
া
ি
ী
ু
ূ
ে
ৈ
্
ৗ
ৰ
ৱ
ਂ
ਕ
ਤ
ਦ
ਨ
ਪ
ਰ
ਲ
ਸ
ਹ
ਾ
ਿ
ੀ
ੇ
ੋ
ੰ
ੱ
ઁ
ં
ઃ
ક
ખ
ગ
ઘ
ઙ
ચ
છ
જ
ઝ
ઞ
ટ
ઠ
ડ
ઢ
ણ
ત
થ
દ
ધ
ન
પ
ફ
બ
ભ
મ
ય
ર
લ
ળ
વ
શ
ષ
સ
હ
઼
ા
િ
ી
ુ
ૂ
ે
ૈ
ો
ૌ
્
ଁ
ଂ
ଃ
ଅ
ଅଇ
ଅଇଲ
ଅଏଡ
ଅକ
ଅକର
ଅକସ
ଅଖ
ଅଖଣ
ଅଗ
ଅଗଣ
ଅଗର
ଅଗଷ
ଅଗସ
ଅଘ
ଅଙ
ଅଚ
ଅଚଳ
ଅଛ
ଅଛଇ
ଅଛନ
ଅଜ
ଅଜଗର
ଅଜଣ
ଅଜନ
ଅଜୟ
ଅଞ
ଅଟ
ଅଟଇ
ଅଟକ
ଅଟକଳ
ଅଟନ
ଅଟଳ
ଅଠ
ଅଠର
ଅଡ
ଅଢ
ଅଣ
ଅଣନ
ଅଣସ
ଅଣସର
ଅତ
ଅତଏବ
ଅତର
ଅଥ
ଅଥଚ
ଅଥବ
ଅଥର
ଅଦ
ଅଦରକ
ଅଧ
ଅଧକ
ଅଧକପ
ଅଧର
ଅନ
ଅନଙ
ଅନତ
ଅନନ
ଅନବରତ
ଅନଭ
ଅନର
ଅନଲ
ଅନଳ
ଅନସ
ଅପ
ଅପକ
ଅପଟ
ଅପଡ
ଅପପ
ଅପବ
ଅପଭ
ଅପମ
ଅପର
ଅପରପକ
ଅପଲ
ଅପସ
ଅପସର
ଅପହରଣ
ଅଫ
ଅବ
ଅବକ
ଅବଗତ
ଅବଜ
ଅବତ
ଅବତର
ଅବତରଣ
ଅବଦ
ଅବଧ
ଅବନ
ଅବନତ
ଅବବ
ଅବମ
ଅବର
ଅବଲ
ଅବଲମ
ଅବଳ
ଅବଶ
ଅବସ
ଅବସର
ଅବସରପ
ଅବସରର
ଅବହ
ଅବୟବ
ଅଭ
ଅଭୟ
ଅମ
ଅମଙ
ଅମନ
ଅମର
ଅମଲ
ଅମଳ
ଅମଳର
ଅଯ
ଅଯଥ
ଅର
ଅରକ
ଅରଜ
ଅରଣ
ଅରବ
ଅରର
ଅଲ
ଅଲକ
ଅଲଗ
ଅଲଟ
ଅଲମ
ଅଲସର
ଅଳ
ଅଳକ
ଅଳଙ
ଅଳତ
ଅଳପ
ଅଳସ
ଅଶ
ଅଶସ
ଅଷ
ଅସ
ଅସଙ
ଅସତ
ଅସନ
ଅସଫଳ
ଅସଭ
ଅସମ
ଅସମର
ଅସଲ
ଅସହ
ଅସହଯ
ଅହ
ଅହଙ
ଅହମ
ଅହମଦ
ଅହରହ
ଅହଲ
ଅୟ
ଆ
ଆଇ
ଆଇଏସ
ଆଇଜ
ଆଇଟ
ଆଇଟମ
ଆଇଡ
ଆଇନ
ଆଇନଗତ
ଆଇନଜ
ଆଇନର
ଆଇନଷ
ଆଇପ
ଆଇବ
ଆଇର
ଆଇଲ
ଆଇସ
ଆଈ
ଆଉ
ଆଉଇକ
ଆଉଜ
ଆଉଟ
ଆଉଥର
ଆଉର
ଆଏ
ଆଓର
ଆକ
ଆକଥ
ଆକବର
ଆକବରଙ
ଆକର
ଆକଳନ
ଆକସ
ଆଖ
ଆଖଡ
ଆଖଣ
ଆଖପ
ଆଗ
ଆଗକ
ଆଗତ
ଆଗନ
ଆଗଭର
ଆଗମ
ଆଗମନ
ଆଗର
ଆଗଲ
ଆଘ
ଆଘର
ଆଙ
ଆଚ
ଆଚର
ଆଚରଣ
ଆଚଳଚ
ଆଛ
ଆଜ
ଆଜକ
ଆଜମ
ଆଞ
ଆଟ
ଆଟଲ
ଆଠ
ଆଠଗ
ଆଠଗଡ
ଆଠଟ
ଆଠମଲ
ଆଡ
ଆଡକ
ଆଡଭ
ଆଡମ
ଆଣ
ଆଣନ
ଆଣବ
ଆତ
ଆତଙ
ଆଥ
ଆଥଲ
ଆଦ
ଆଦର
ଆଦରର
ଆଧ
ଆନ
ଆନନ
ଆପ
ଆପଡ
ଆପଣ
ଆପଣଙ
ଆପଣମ
ଆପତ
ଆପଦ
ଆପର
ଆପଲ
ଆଫ
ଆଫଗ
ଆବ
ଆବଣ
ଆବଦ
ଆବର
ଆବରଣ
ଆବଶ
ଆବସ
ଆଭ
ଆଭରଣ
ଆମ
ଆମକ
ଆମଦ
ଆମନ
ଆମମ
ଆମର
ଆଯ
ଆର
ଆରକ
ଆରତ
ଆରଦ
ଆରପ
ଆରବ
ଆରମ
ଆରର
ଆଲ
ଆଲକ
ଆଲଗ
ଆଲଟ
ଆଲଫ
ଆଲବ
ଆଲବମ
ଆଲବମର
ଆଲବର
ଆଲମ
ଆଲର
ଆଳ
ଆଳଙ
ଆଳତ
ଆଳର
ଆଳସ
ଆଶ
ଆଶଙ
ଆଷ
ଆସ
ଆସଇ
ଆସକ
ଆସନ
ଆସନର
ଆସର
ଆହ
ଆହତ
ଆହରଣ
ଆୟ
ଆୟକ
ଆୟକର
ଆୟତ
ଆୟତନ
ଆୟନ
ଆୟର
ଆୱ
ଇ
ଇଅଛ
ଇଅଛନ
ଇଅର
ଇଆ
ଇଆସ
ଇଉଜର
ଇଉଠ
ଇଉନ
ଇଉର
ଇଏ
ଇକ
ଇକମ
ଇକର
ଇଖ
ଇଗ
ଇଗଣ
ଇଗର
ଇଗଲ
ଇଙ
ଇଚ
ଇଛ
ଇଛନ
ଇଜ
ଇଜଡ
ଇଜଣ
ଇଜଣଙ
ଇଜର
ଇଞ
ଇଟ
ଇଟର
ଇଟରର
ଇଠ
ଇଡ
ଇଡର
ଇଣ
ଇତ
ଇତର
ଇଥ
ଇଥବ
ଇଥର
ଇଥଲ
ଇଦ
ଇଦର
ଇନ
ଇନଥ
ଇନପ
ଇନଫ
ଇନର
ଇନଷ
ଇନସ
ଇନହ
ଇପ
ଇପଡ
ଇପର
ଇଫ
ଇଫଏଡ
ଇଫଲ
ଇବ
ଇବର
ଇଭ
ଇଭର
ଇମ
ଇମନ
ଇମର
ଇମସ
ଇଯ
ଇର
ଇରଏଡ
ଇରଙ
ଇରନ
ଇରସ
ଇରହ
ଇଲ
ଇଲକ
ଇଲଟ
ଇଲର
ଇଶ
ଇଷ
ଇସ
ଇସର
ଇସଲ
ଇହ
ଇହଲ
ଇୟ
ଇୱ
ଈ
ଈକ
ଈଙ
ଈମ
ଈର
ଈଶ
ଈଷତ
ଉ
ଉଅଛ
ଉଅଛନ
ଉଆସ
ଉଇ
ଉଇକ
ଉଇଣ
ଉଇଲ
ଉକ
ଉଗ
ଉଙ
ଉଚ
ଉଛ
ଉଛନ
ଉଜ
ଉଜର
ଉଞ
ଉଟ
ଉଟନ
ଉଠ
ଉଠନ
ଉଡ
ଉଡର
ଉଣ
ଉତ
ଉତକ
ଉତପତ
ଉତର
ଉଥ
ଉଦ
ଉଦଘ
ଉଦବ
ଉଦର
ଉଦରର
ଉଦୟ
ଉଦୟଗ
ଉଦୟନ
ଉଦୟପ
ଉଧ
ଉନ
ଉନଥ
ଉନବ
ଉନର
ଉନଲ
ଉନସ
ଉପ
ଉପକ
ଉପକଣ
ଉପକରଣ
ଉପକରଣର
ଉପଖଣ
ଉପଗ
ଉପଚ
ଉପଜ
ଉପତ
ଉପଦ
ଉପନ
ଉପନଦ
ଉପପ
ଉପବ
ଉପବନ
ଉପଭ
ଉପମ
ଉପମହ
ଉପଯ
ଉପର
ଉପରକ
ଉପଲକ
ଉପଲବ
ଉପଶମ
ଉପସ
ଉପହ
ଉବ
ଉଭ
ଉଭୟ
ଉଭୟଙ
ଉମ
ଉର
ଉରକ
ଉଲ
ଉଲଗ
ଉଳ
ଉଳକ
ଉଳର
ଉଶ
ଉଷ
ଉଷସ
ଉସ
ଉସକ
ଉସର
ଉହ
ଊ
ଊଣ
ଊନବ
ଊର
ଋ
ଋକ
ଋଣ
ଋତ
ଋପ
ଋଷ
ଌ
ଏ
ଏଇ
ଏଇଟ
ଏଇଠ
ଏଇତ
ଏକ
ଏକଇ
ଏକକ
ଏକଚ
ଏକଜ
ଏକତ
ଏକଥ
ଏକଦ
ଏକପ
ଏକବ
ଏକମ
ଏକମତ
ଏକର
ଏକଲବ
ଏକସ
ଏଗ
ଏଙ
ଏଚ
ଏଚଆଇଭ
ଏଚଡ
ଏଜ
ଏଞ
ଏଟ
ଏଟର
ଏଟରର
ଏଠ
ଏଡ
ଏଡସ
ଏଣ
ଏତ
ଏତଦ
ଏତନ
ଏଥ
ଏଥକ
ଏଥର
ଏଦ
ଏନ
ଏନଏ
ଏନଏଚଏସକ
ଏନକ
ଏନର
ଏନସ
ଏପ
ଏପଟ
ଏପର
ଏଫ
ଏବ
ଏବର
ଏଭ
ଏଭର
ଏଭଳ
ଏମ
ଏମନ
ଏଯ
ଏର
ଏଲ
ଏଲର
ଏଷ
ଏସ
ଏସଏଲଭ
ଏସଟ
ଏସନ
ଏସବ
ଏସସ
ଏହ
ଏୟ
ଐ
ଐକ
ଐତ
ଐର
ଐଶ
ଓ
ଓଆର
ଓକ
ଓଗ
ଓଙ
ଓଜ
ଓଜନ
ଓଜନର
ଓଝ
ଓଟ
ଓଠ
ଓଠର
ଓଡ
ଓଢ
ଓଥ
ଓଦ
ଓଧ
ଓଧମ
ଓନ
ଓପ
ଓପନ
ଓଫ
ଓବ
ଓଭ
ଓଭର
ଓମ
ଓର
ଓଲ
ଓଲଟ
ଓଳ
ଓଷ
ଓସ
ଓହ
ଓହର
ଓହଳ
ଔ
ଔଣସ
ଔଦ
ଔପଚ
ଔପନ
ଔର
ଔରସର
ଔଷଧ
ଔଷଧଦ
ଔଷଧମ
ଔଷଧର
କ
କଅ
କଅଣ
କଇ
କଉଡ
କଉତ
କକ
କକଥ
କକଳ
କଖ
କଗ
କଗଣ
କଙ
କଚ
କଚର
କଛ
କଜ
କଜମ
କଜଳପ
କଞ
କଟ
କଟକ
କଟକଠ
କଟକଣ
କଟକର
କଟକସ
କଟତମ
କଟତର
କଟପ
କଟବର
କଟର
କଟଲ
କଟସ
କଠ
କଡ
କଢ
କଣ
କତ
କତର
କଥ
କଥକ
କଥନ
କଦ
କଦମ
କଦଳ
କନ
କନକ
କନଭର
କନସ
କପ
କପଟ
କପଡ
କପର
କଫ
କବ
କବକ
କବଚ
କବର
କବଳ
କବଳର
କଭ
କଭର
କମ
କମଣ
କମନ
କମନୱ
କମର
କମଳ
କଯ
କର
କରଇ
କରକ
କରଙ
କରଜ
କରଞ
କରଣ
କରଣକ
କରଣର
କରତ
କରଥ
କରଦ
କରନ
କରବ
କରମ
କରଯ
କରର
କରସ
କଲ
କଲଚର
କଲମ
କଲର
କଳ
କଳକ
କଳଙ
କଳନ
କଳମଣ
କଳର
କଳସ
କଳହ
କଶ
କଷ
କଷଣ
କସ
କସନ
କସଭ
କସର
କହ
କହଇ
କହନ
କୟ
ଖ
ଖଇ
ଖଇର
ଖକ
ଖକଙ
ଖକମ
ଖକର
ଖଗ
ଖଙ
ଖଚ
ଖଜ
ଖଜଣ
ଖଞ
ଖଟ
ଖଡ
ଖଣ
ଖତ
ଖଦ
ଖଦଡ
ଖନ
ଖନନ
ଖନନର
ଖପ
ଖବ
ଖବନ
ଖବର
ଖବରକ
ଖଭ
ଖମ
ଖମଣ
ଖଯ
ଖର
ଖରଚ
ଖରର
ଖରସ
ଖଲ
ଖଳ
ଖଳନ
ଖଶ
ଖସ
ଗ
ଗଇ
ଗଉଡ
ଗଉର
ଗକ
ଗକର
ଗଗ
ଗଗନ
ଗଙ
ଗଚ
ଗଛ
ଗଛକ
ଗଛଗ
ଗଛଟ
ଗଛମ
ଗଛର
ଗଛଲତ
ଗଜ
ଗଜକ
ଗଜପତ
ଗଜର
ଗଜଲ
ଗଞ
ଗଟ
ଗଠ
ଗଠକ
ଗଠନ
ଗଠନମ
ଗଠନର
ଗଠବନ
ଗଡ
ଗଡଜ
ଗଡର
ଗଢ
ଗଣ
ଗଣଙ
ଗଣତ
ଗଣତନ
ଗଣନ
ଗଣପତ
ଗଣମ
ଗଣର
ଗଣସମ
ଗତ
ଗତର
ଗଦ
ଗଦଗଦ
ଗଦର
ଗଧ
ଗଧର
ଗନ
ଗପ
ଗପତ
ଗଫ
ଗବ
ଗବତ
ଗବତର
ଗବର
ଗବଳ
ଗଭ
ଗଭଙ
ଗଭର
ଗମ
ଗମଞ
ଗମଣ
ଗମନ
ଗମନର
ଗମର
ଗଯ
ଗର
ଗରକ
ଗରଙ
ଗରଣ
ଗରମ
ଗରର
ଗଲ
ଗଲକ
ଗଲବନ
ଗଲମ
ଗଲର
ଗଳ
ଗଳବ
ଗଳର
ଗଶ
ଗସ
ଗସମ
ଗହ
ଗହଣ
ଗହଣର
ଗହନ
ଗହମ
ଗହଳ
ଗୟ
ଗୟଳ
ଗୟଳମ
ଘ
ଘଉଡ
ଘକ
ଘଙ
ଘଞ
ଘଟ
ଘଟଣ
ଘଟନ
ଘଡ
ଘଣ
ଘତମ
ଘଦ
ଘନ
ଘନତ
ଘନଶ
ଘବ
ଘମ
ଘର
ଘରକ
ଘରଟ
ଘରଠ
ଘରଣ
ଘରଦ
ଘରମ
ଘରର
ଘଶ
ଘଷ
ଘସ
ଙ
ଚ
ଚଇ
ଚଇତ
ଚଉକ
ଚଉଠ
ଚଉଡ
ଚଉତ
ଚଉଦ
ଚଉପ
ଚଉପଦ
ଚଉର
ଚଉଷଠ
ଚକ
ଚକଟ
ଚକଡ
ଚକମ
ଚକର
ଚଗ
ଚଙ
ଚଜଣ
ଚଞ
ଚଟ
ଚଟଣ
ଚଡ
ଚଢ
ଚଣ
ଚତ
ଚତମ
ଚତର
ଚଦ
ଚଦଶ
ଚନ
ଚନକ
ଚନଙ
ଚନର
ଚପ
ଚପଳ
ଚବ
ଚବର
ଚଭ
ଚମ
ଚମକ
ଚମଡ
ଚମତ
ଚମର
ଚର
ଚରକ
ଚରଣ
ଚରଣର
ଚରନ
ଚରମ
ଚଲ
ଚଲଚ
ଚଳ
ଚଳଇ
ଚଳକ
ଚଳଗ
ଚଳଚ
ଚଳଣ
ଚଳନ
ଚଳପ
ଚଳମ
ଚଳର
ଚଶ
ଚଷ
ଚଷମ
ଚସ
ଚସଖ
ଚହଳ
ଚୟ
ଚୟନ
ଛ
ଛଅ
ଛଅଟ
ଛଇ
ଛଉ
ଛକ
ଛକର
ଛଚ
ଛଜ
ଛଞ
ଛଟ
ଛଟପଟ
ଛଡ
ଛଣ
ଛତ
ଛଦ
ଛଦପଟ
ଛଧର
ଛନ
ଛପ
ଛବ
ଛମ
ଛର
ଛରଙ
ଛଳ
ଛଳର
ଜ
ଜଅର
ଜଇ
ଜକ
ଜକନ
ଜକମ
ଜକର
ଜଗ
ଜଗଜ
ଜଗତ
ଜଗତକ
ଜଗତର
ଜଗତସ
ଜଗଦ
ଜଗନ
ଜଗବନ
ଜଗମ
ଜଙ
ଜଜ
ଜଞ
ଜଟ
ଜଠ
ଜଡ
ଜଣ
ଜଣକ
ଜଣକର
ଜଣଙ
ଜଣର
ଜତ
ଜତନ
ଜଦ
ଜଧ
ଜନ
ଜନକ
ଜନଗଣନ
ଜନଗର
ଜନଙ
ଜନଜ
ଜନତ
ଜନଦ
ଜନନ
ଜନପ
ଜନବସତ
ଜନମ
ଜନର
ଜନଶ
ଜନସ
ଜନସନ
ଜନସମ
ଜନହ
ଜପ
ଜପତ
ଜପଥ
ଜପଥର
ଜପର
ଜବ
ଜବର
ଜଭ
ଜମ
ଜଯ
ଜର
ଜରଲ
ଜଲ
ଜଳ
ଜଳକ
ଜଳଖ
ଜଳଚର
ଜଳଜ
ଜଳଦ
ଜଳଧ
ଜଳନ
ଜଳପ
ଜଳବ
ଜଳଭଣ
ଜଳଯ
ଜଳର
ଜଳସ
ଜଶ
ଜଷ
ଜସ
ଜସଜ
ଜହ
ଜୟ
ଜୟକ
ଜୟଙ
ଜୟଦ
ଜୟନ
ଜୟନଗର
ଜୟପ
ଜୟବ
ଜୟବର
ଜୟଯ
ଜୟର
ଜୟଲକ
ଝ
ଝଗଡ
ଝଙ
ଝଟକ
ଝଡ
ଝନ
ଝର
ଝରକ
ଝରଣ
ଝରର
ଝଲକ
ଝଳ
ଞ
ଞକ
ଞଙ
ଞତ
ଞନ
ଞପ
ଞମ
ଞମଚ
ଞର
ଞସ
ଟ
ଟଇ
ଟଏଡ
ଟକ
ଟକର
ଟଗ
ଟଙ
ଟଚ
ଟଜ
ଟଟ
ଟଠ
ଟଡ
ଟଣ
ଟତ
ଟଦ
ଟଧର
ଟନ
ଟନର
ଟନସ
ଟପ
ଟଫ
ଟଫର
ଟବ
ଟବଡ
ଟବଲ
ଟଭ
ଟମ
ଟମକ
ଟମଣ
ଟମର
ଟମସ
ଟର
ଟରକ
ଟରଗ
ଟରଙ
ଟରଟ
ଟରନ
ଟରଫ
ଟରମ
ଟରର
ଟରସ
ଟଲ
ଟଳ
ଟଶ
ଟସ
ଟସଭ
ଟସର
ଟହ
ଟୟ
ଟୱ
ଟୱର
ଠ
ଠକ
ଠକଙ
ଠକମ
ଠକର
ଠଙ
ଠଟ
ଠତ
ଠଦ
ଠନ
ଠପ
ଠପଢ
ଠଭ
ଠମ
ଠଯ
ଠର
ଠଶ
ଠସ
ଡ
ଡଇ
ଡକ
ଡଗ
ଡଙ
ଡଚ
ଡଟ
ଡଠ
ଡଦ
ଡଧ
ଡନ
ଡନର
ଡପ
ଡପକ
ଡପଡ
ଡପର
ଡଫ
ଡବ
ଡବଙ
ଡବତ
ଡବଥ
ଡବମ
ଡବଲ
ଡମ
ଡର
ଡରର
ଡଲ
ଡଳ
ଡଳକ
ଡଳର
ଡଶ
ଡଷ
ଡସ
ଡୱ
ଢ
ଢଙ
ଢଳ
ଣ
ଣଇ
ଣକ
ଣକର
ଣଗ
ଣଗର
ଣଙ
ଣଚ
ଣଚନ
ଣଚରଣ
ଣତ
ଣତର
ଣଦ
ଣଧ
ଣନ
ଣପ
ଣପକ
ଣପତ
ଣପଦକ
ଣବ
ଣବତ
ଣବନ
ଣବସ
ଣଭ
ଣମ
ଣମନ
ଣମୟ
ଣଯ
ଣର
ଣଲ
ଣଶ
ଣସ
ଣହ
ଣୟ
ତ
ତଅପ
ତଇ
ତକ
ତକକ
ତକଟ
ତକତ
ତକବ
ତକମ
ତକର
ତଖତ
ତଗ
ତଗଣ
ତଗତ
ତଙ
ତଚ
ତଚର
ତଜ
ତଟ
ତଟର
ତଠ
ତଡ
ତଣ
ତତ
ତତକ
ତତନ
ତଥ
ତଦ
ତଦନ
ତଦନନ
ତଦଶ
ତଧ
ତନ
ତନକ
ତନଠ
ତନତ
ତନର
ତନଳ
ତନଶ
ତନୟ
ତପ
ତପତ
ତପଦ
ତପନ
ତପର
ତପସ
ତଫ
ତବ
ତବତ
ତବର
ତବଲ
ତଭ
ତମ
ତମକ
ତମଙ
ତମନ
ତମର
ତମସ
ତମୟ
ତଯ
ତର
ତରକ
ତରଖ
ତରଙ
ତରଞ
ତରଟ
ତରଣ
ତରଣର
ତରଦ
ତରନ
ତରପ
ତରଫର
ତରବ
ତରଭ
ତରମ
ତରର
ତରଳ
ତରସ
ତଲ
ତଳ
ତଳକ
ତଳର
ତଳଲ
ତଶ
ତସ
ତସନ
ତସର
ତହ
ତହସ
ତୟ
ତୱ
ଥ
ଥଇଥ
ଥକ
ଥକର
ଥଗ
ଥଗତ
ଥଙ
ଥଟ
ଥଣ
ଥତ
ଥଦ
ଥନ
ଥନର
ଥପ
ଥପତ
ଥବ
ଥମ
ଥମନ
ଥଯ
ଥର
ଥରକ
ଥରର
ଥଲ
ଥଳ
ଥଳକ
ଥଳଭ
ଥଳର
ଥଶ
ଥସ
ଥୟ
ଦ
ଦଇ
ଦଇତ
ଦଇବ
ଦଉଡ
ଦକ
ଦକମ
ଦକର
ଦଖଲ
ଦଗ
ଦଗତ
ଦଘ
ଦଙ
ଦଚ
ଦଜ
ଦଟ
ଦଠ
ଦଣ
ଦତ
ଦତଳ
ଦଦ
ଦଧ
ଦନ
ଦନକ
ଦନଙ
ଦନର
ଦନଶ
ଦପ
ଦପତ
ଦପଦ
ଦଫ
ଦବ
ଦବର
ଦଭ
ଦମ
ଦମନ
ଦମୟନ
ଦଯ
ଦର
ଦରକ
ଦରଖ
ଦରଗଡ
ଦରଙ
ଦରଜ
ଦରଦ
ଦରନ
ଦରବ
ଦରବନ
ଦରମ
ଦରର
ଦରଶନ
ଦଲ
ଦଳ
ଦଳକ
ଦଳବ
ଦଳମ
ଦଳର
ଦଶ
ଦଶକ
ଦଶକର
ଦଶଟ
ଦଶଦ
ଦଶନ
ଦଶପଲ
ଦଶବ
ଦଶବର
ଦଶଭ
ଦଶମ
ଦଶର
ଦଶରଥ
ଦଶରଥଙ
ଦଶସ
ଦଶହର
ଦସ
ଦହ
ଦହନ
ଦୟ
ଦୟଙ
ଦୟନ
ଦୟର
ଧ
ଧଇ
ଧଇଲ
ଧଉଳ
ଧକ
ଧକର
ଧଗ
ଧଙ
ଧଚ
ଧଜ
ଧଟ
ଧଡ
ଧଣ
ଧତ
ଧଦ
ଧଧର
ଧନ
ଧନକ
ଧନଙ
ଧନଞ
ଧନର
ଧପ
ଧବ
ଧବଗଡ
ଧବଙ
ଧବନ
ଧବଳ
ଧଭ
ଧମ
ଧମକ
ଧମନ
ଧଯ
ଧର
ଧରଙ
ଧରଣ
ଧରଣର
ଧରନ
ଧରମ
ଧଳ
ଧଶ
ଧସ
ଧହ
ଧୟ
ନ
ନଅ
ନଅଟ
ନଅର
ନଇ
ନଇଲ
ନଈ
ନଈର
ନଉତ
ନକ
ନକର
ନକଲ
ନକସ
ନଖ
ନଗ
ନଗଣ
ନଗଦ
ନଗର
ନଗରର
ନଙ
ନଚ
ନଜ
ନଜନକ
ନଜର
ନଟ
ନଟବର
ନଠ
ନଡ
ନତ
ନତତ
ନତମ
ନଥ
ନଦ
ନଧର
ନନ
ନନର
ନପ
ନପତ
ନପର
ନଫ
ନବ
ନବକ
ନବକଳ
ନବଗ
ନବଜ
ନବତ
ନବଦ
ନବନ
ନବବ
ନବବର
ନବମ
ନବଯ
ନବର
ନବରଙ
ନଭ
ନମ
ନମଣ
ନମତ
ନମନ
ନମସ
ନଯ
ନର
ନରକ
ନରଖ
ନରଞ
ନରନ
ନରପତ
ନରମ
ନରର
ନରସ
ନରହର
ନଲ
ନଳ
ନଶ
ନଷ
ନସ
ନସନ
ନସଭ
ନସମ
ନସର
ନହ
ନୟ
ନୟକ
ନୟନ
ନୟନର
ନୟର
ନୱ
ପ
ପଇ
ପଇଡ
ପଇସ
ପଏଣ
ପକ
ପକଥନ
ପକର
ପଖ
ପଗ
ପଙ
ପଚ
ପଚର
ପଛ
ପଛକ
ପଛପଟ
ପଛର
ପଜ
ପଞ
ପଟ
ପଟକ
ପଟର
ପଟଳ
ପଠ
ପଠନ
ପଡ
ପଢ
ପଢନ
ପଣ
ପଣକ
ପଣର
ପଣସ
ପତ
ପତଙ
ପତନ
ପତନଠ
ପତନର
ପତର
ପତଳ
ପଥ
ପଥକ
ପଥର
ପଥରର
ପଦ
ପଦକ
ପଦଚ
ପଦଟ
ପଦନ
ପଦପ
ପଦବ
ପଦମ
ପଦଯ
ପଦର
ପଧ
ପନ
ପନର
ପପ
ପପତ
ପବ
ପବଟ
ପବନ
ପବନର
ପବର
ପଭ
ପମ
ପମଣ
ପଯ
ପର
ପରକ
ପରଖ
ପରଜ
ପରଟ
ପରଠ
ପରତ
ପରଦ
ପରନ
ପରପ
ପରଫ
ପରବ
ପରବର
ପରଭ
ପରମ
ପରମହ
ପରର
ପରଲ
ପରଳ
ପରଶ
ପରଷ
ପରସ
ପଲ
ପଲଉ
ପଲକ
ପଲଙ
ପଲମ
ପଳ
ପଶ
ପଶନ
ପଷ
ପସ
ପସନ
ପସର
ପହ
ପହଞ
ପହଣ
ପହର
ପୟ
ପୟର
ଫ
ଫଇସଲ
ଫକ
ଫଗ
ଫଙ
ଫଟ
ଫଡ
ଫଣ
ଫତ
ଫନ
ଫର
ଫରକ
ଫରଦ
ଫଲ
ଫଳ
ଫଳକ
ଫଳତ
ଫଳନ
ଫଳପ
ଫଳର
ଫଳସ
ଫସ
ଫସଫ
ଫସଲ
ବ
ବଇ
ବଇକ
ବଇର
ବଉଳ
ବକ
ବକଙ
ବକତ
ବକନ
ବକମ
ବକର
ବଖ
ବଖର
ବଗ
ବଗଡ
ବଗଣ
ବଘ
ବଙ
ବଚ
ବଚନ
ବଚନର
ବଛ
ବଜ
ବଜଗତ
ବଜନ
ବଞ
ବଟ
ବଟଦ
ବଟନ
ବଠ
ବଡ
ବଢ
ବଣ
ବଣକ
ବଣଙ
ବଣଭ
ବଣର
ବତ
ବତକ
ବତନ
ବତମ
ବତର
ବତଶ
ବଥ
ବଦ
ବଦନ
ବଦମ
ବଦର
ବଦଳ
ବଦଳର
ବଦୟନ
ବଧ
ବଧର
ବନ
ବନକ
ବନଚର
ବନଦ
ବନଧ
ବନବ
ବନମ
ବନଯ
ବନର
ବନଶ
ବନସ
ବପ
ବପର
ବବ
ବବତ
ବବର
ବଭ
ବମ
ବମଙ
ବମନ
ବଯ
ବର
ବରକ
ବରକନ
ବରଗ
ବରଗଛ
ବରଗଡ
ବରଙ
ବରଜ
ବରଣ
ବରତ
ବରଦ
ବରପ
ବରଫ
ବରମ
ବରର
ବରଷ
ବଲ
ବଲପ
ବଲମ
ବଲର
ବଳ
ବଳକ
ବଳଙ
ବଳତ
ବଳଦ
ବଳପ
ବଳବ
ବଳବତ
ବଳବନ
ବଳଭଦ
ବଳର
ବଳୟ
ବଳୟର
ବଶ
ବଶତ
ବସ
ବସଇ
ବସତ
ବସନ
ବସବ
ବସମ
ବସର
ବହ
ବହଇ
ବହନ
ବହଳ
ବୟ
ବୟସ
ବୟସର
ଭ
ଭଇ
ଭଉ
ଭଉଣ
ଭକ
ଭକତ
ଭକର
ଭଗ
ଭଗତ
ଭଗବ
ଭଗବତ
ଭଙ
ଭଜ
ଭଜନ
ଭଞ
ଭଟ
ଭଠ
ଭଡ
ଭଣ
ଭତ
ଭଦ
ଭଧ
ଭନ
ଭପ
ଭବ
ଭବତ
ଭବନ
ଭବନର
ଭବପର
ଭବର
ଭବସ
ଭମ
ଭର
ଭରଣ
ଭରତ
ଭରତର
ଭରଦ
ଭରପ
ଭରଶ
ଭରସ
ଭଲ
ଭଲକର
ଭଲପ
ଭଲଭ
ଭଲର
ଭଲହ
ଭଳ
ଭସ
ଭୟ
ଭୟଙ
ଭୟଭ
ଭୟର
ମ
ମଇ
ମଇତ
ମଇଦ
ମଇଲମ
ମଇଳ
ମଉନ
ମଉଳ
ମକ
ମକଥ
ମକଦ
ମକର
ମକରଣ
ମଖ
ମଗ
ମଗତ
ମଗଧ
ମଗଧର
ମଘ
ମଙ
ମଚ
ମଚଣ
ମଚନ
ମଚର
ମଜ
ମଝ
ମଞ
ମଟ
ମଟର
ମଠ
ମଠକ
ମଠର
ମଡ
ମଢ
ମଣ
ମଣଙ
ମଣମ
ମତ
ମତକ
ମତଦ
ମତବ
ମତଭ
ମତର
ମଥ
ମଦ
ମଦଙ
ମଦନ
ମଦନମ
ମଦର
ମଧ
ମଧନ
ମଧର
ମନ
ମନକ
ମନଗର
ମନଙ
ମନଦ
ମନବ
ମନମ
ମନର
ମନସ
ମପ
ମପଞ
ମପତ
ମପଦ
ମପନ
ମପର
ମଫ
ମଫଳ
ମଫସଲ
ମବ
ମବଙ
ମବନ
ମଭ
ମମ
ମମତ
ମମୟ
ମଯ
ମର
ମରକ
ମରଣ
ମରନ
ମରର
ମରସ
ମରହଟ
ମଲ
ମଲତ
ମଳ
ମଳଦ
ମଳର
ମଳୟ
ମଶ
ମଷ
ମସ
ମସଙ
ମସଜ
ମସମ
ମସମର
ମସଲ
ମହ
ମହକ
ମହଙ
ମହତ
ମହନ
ମହମ
ମହର
ମହଲ
ମହଲର
ମହସ
ମୟ
ମୟର
ଯ
ଯକ
ଯଜ
ଯତ
ଯତନ
ଯଥ
ଯଦ
ଯନ
ଯପ
ଯବ
ଯବକ
ଯବନ
ଯବସ
ଯବହ
ଯମ
ଯମର
ଯଯ
ଯର
ଯଶ
ଯଷ
ଯସ
ଯହ
ର
ରଇ
ରଏଡ
ରକ
ରକଟ
ରକଣ
ରକତ
ରକଥ
ରକମ
ରକମର
ରକର
ରକଳ
ରଖ
ରଖଣ
ରଖନ
ରଖର
ରଗ
ରଗଡ
ରଗଣ
ରଗତ
ରଗଳ
ରଘ
ରଙ
ରଚ
ରଚଣ
ରଚନ
ରଚଳ
ରଚଳନ
ରଚୟ
ରଛ
ରଜ
ରଜନ
ରଜନନ
ରଜର
ରଜସ
ରଞ
ରଟ
ରଠ
ରଡ
ରଡକ
ରଣ
ରଣକ
ରଣଗ
ରଣଙ
ରଣଜ
ରଣତ
ରଣତନ
ରଣପ
ରଣବ
ରଣମ
ରଣର
ରଣୟ
ରଣୟନ
ରତ
ରତକ
ରତନ
ରତବ
ରତବର
ରତମ
ରତର
ରଥ
ରଥକ
ରଥଙ
ରଥମ
ରଥମଟ
ରଥମଥର
ରଥମର
ରଥଯ
ରଥର
ରଦ
ରଦକ
ରଦଟ
ରଦତ
ରଦର
ରଧ
ରଧନ
ରଧର
ରନ
ରନର
ରନଳ
ରପ
ରପଟ
ରପତ
ରପଦ
ରପର
ରପଲ
ରଫ
ରଫଳ
ରବ
ରବକ
ରବଚ
ରବଣ
ରବଣତ
ରବଣର
ରବତ
ରବଧ
ରବନ
ରବର
ରବଳ
ରବସ
ରଭ
ରଭଞ
ରମ
ରମଇ
ରମକ
ରମଜ
ରମଣ
ରମଣକ
ରମଣର
ରମତ
ରମଦ
ରମନ
ରମବ
ରମର
ରମରବର
ରମଶ
ରମହ
ରମୟ
ରଯ
ରର
ରଲ
ରଳ
ରଳମ
ରଳର
ରଳୟ
ରଶ
ରଶସ
ରଷ
ରସ
ରସକ
ରସଗ
ରସଙ
ରସନ
ରସବ
ରସମ
ରସର
ରହ
ରହକ
ରହଙ
ରହଣ
ରହଣକ
ରହନ
ରହମ
ରହର
ରହଲ
ରହସ
ରୟ
ରୟର
ରୱ
ଲ
ଲଇ
ଲଏଡ
ଲକ
ଲକଡ
ଲକର
ଲଖ
ଲଗ
ଲଘ
ଲଙ
ଲଚ
ଲଜ
ଲଞ
ଲଟ
ଲଟର
ଲଠ
ଲଡ
ଲଢ
ଲଣ
ଲତ
ଲତର
ଲଥ
ଲଦ
ଲଦଣ
ଲନ
ଲପ
ଲଫ
ଲବ
ଲବଙ
ଲବଣ
ଲବର
ଲଭ
ଲଭଇ
ଲଭନ
ଲମ
ଲମର
ଲର
ଲଲ
ଲଳ
ଲଷ
ଲସ
ଲସନ
ଲହ
ଲହର
ଲୟ
ଲୟର
ଲୱ
ଳ
ଳଇ
ଳକ
ଳକଙ
ଳକଣ
ଳକମ
ଳକର
ଳଗ
ଳଙ
ଳଚ
ଳଚକ
ଳଜ
ଳଟ
ଳଠ
ଳଣ
ଳଣର
ଳତ
ଳଦ
ଳଧ
ଳନ
ଳନକ
ଳନପ
ଳନର
ଳପ
ଳପକ
ଳପତ
ଳପଥ
ଳବ
ଳବର
ଳଭ
ଳମ
ଳମଣ
ଳଯ
ଳର
ଳଶ
ଳଷ
ଳସ
ଳହ
ଳୟ
ଳୟକ
ଳୟଗ
ଳୟଙ
ଳୟଟ
ଳୟଦ
ଳୟମ
ଳୟର
ଵ
ଵତ
ଵନ
ଵର
ଶ
ଶଇ
ଶକ
ଶକଙ
ଶକତ
ଶକମ
ଶକର
ଶଗ
ଶଗଡ
ଶଗତ
ଶଙ
ଶଚ
ଶଜ
ଶଟ
ଶଣ
ଶତ
ଶତକ
ଶତକଡ
ଶତକର
ଶତପଥ
ଶତବ
ଶତର
ଶତଶ
ଶଦ
ଶଧ
ଶଧର
ଶନ
ଶନକ
ଶନଙ
ଶନଦ
ଶନର
ଶପ
ଶପଥ
ଶବ
ଶବଦ
ଶବର
ଶଭ
ଶମ
ଶଯ
ଶର
ଶରଣ
ଶରତ
ଶରଥ
ଶରଦ
ଶରଧ
ଶରର
ଶଲ
ଶଳ
ଶଳର
ଶଶ
ଶସ
ଶହ
ଶୟ
ଶୟନ
ଶୟର
ଶୟଳ
ଷ
ଷକ
ଷକଙ
ଷକତ
ଷକମ
ଷକର
ଷଗ
ଷଙ
ଷଜ
ଷଜମ
ଷଟ
ଷଠ
ଷଡ
ଷଢ
ଷଣ
ଷଣକ
ଷଣଗ
ଷଣଦ
ଷଣମ
ଷଣର
ଷଣଶ
ଷତ
ଷଦ
ଷଦର
ଷଧ
ଷଧର
ଷନ
ଷପ
ଷପଥର
ଷବ
ଷଭ
ଷମ
ଷମତ
ଷମନ
ଷଯ
ଷର
ଷରକ
ଷରଣ
ଷରତ
ଷରର
ଷଲତ
ଷଳ
ଷଶ
ଷଷ
ଷସ
ଷହ
ଷୟ
ଷୟକ
ଷୟଟ
ଷୟବସ
ଷୟର
ସ
ସଇ
ସଇନ
ସଉର
ସକ
ସକଙ
ସକମ
ସକର
ସକଳ
ସଖ
ସଗ
ସଘ
ସଙ
ସଚ
ସଚଳ
ସଜ
ସଜନ
ସଞ
ସଟ
ସଠ
ସଡ
ସଡକ
ସଢ
ସଣ
ସତ
ସତକ
ସତତ
ସତର
ସଦ
ସଦନ
ସଦର
ସଦସ
ସଧ
ସନ
ସନକ
ସନକର
ସନଙ
ସନଦ
ସନନ
ସନମ
ସନର
ସନଳ
ସପ
ସପକ
ସପତ
ସପନ
ସପର
ସଫ
ସଫର
ସଫଳ
ସଫଳତ
ସବ
ସବକ
ସବଡ
ସବମ
ସବର
ସବସ
ସଭ
ସଭବନର
ସମ
ସମକ
ସମକକ
ସମଗ
ସମତ
ସମତଳ
ସମଦ
ସମନ
ସମବ
ସମଭ
ସମର
ସମଲ
ସମଷ
ସମସ
ସମୟ
ସମୟକ
ସମୟର
ସମୟସ
ସଯ
ସର
ସରକ
ସରଙ
ସରଞ
ସରଟ
ସରଣ
ସରଦ
ସରପ
ସରପଞ
ସରବଜ
ସରବର
ସରର
ସରଳ
ସରସ
ସଲ
ସଲଫ
ସଲମ
ସଳ
ସଳଖ
ସଶକ
ସଶସ
ସସ
ସହ
ସହକ
ସହକର
ସହଚର
ସହଜ
ସହଜର
ସହଦ
ସହବ
ସହମତ
ସହଯ
ସହର
ସହରକ
ସହରଠ
ସହରମ
ସହରର
ସହସ
ସୟ
ସୱ
ହ
ହଇ
ହଇର
ହଉ
ହଉଛ
ହଉଥ
ହକ
ହକର
ହଗ
ହଙ
ହଜ
ହଜମ
ହଜର
ହଞ
ହଟ
ହଠ
ହଡ
ହଣ
ହତ
ହଦ
ହନ
ହନଙ
ହନର
ହପ
ହବ
ହବନ
ହଭ
ହମ
ହଯ
ହର
ହରଇ
ହରଣ
ହରଣର
ହରତ
ହରନ
ହରପ
ହରମ
ହରର
ହରଲ
ହରଷ
ହଲ
ହଳ
ହଳଦ
ହଳନ
ହଳର
ହଷ
ହସ
ହସନ
ହସପ
ହସର
ହୟ
଼
ଽଧ
ଽପ
ଽସ
ା
ି
ୀ
ୁ
ୂ
ୃ
ୄ
େ
୍
ୖ
ୗ
ୟ
ୟକ
ୟକଗଣ
ୟକଙ
ୟକତ
ୟକମ
ୟକର
ୟକଳ
ୟକଶ
ୟଗ
ୟଗଡ
ୟଗଣ
ୟଗତ
ୟଙ
ୟଚ
ୟଜ
ୟଜନ
ୟଜନକ
ୟଞ
ୟଟ
ୟଟକ
ୟଟକଙ
ୟଟକମ
ୟଟନ
ୟଠ
ୟଣ
ୟଣଙ
ୟଣର
ୟତ
ୟତନ
ୟତମ
ୟତର
ୟଥ
ୟଦ
ୟଦର
ୟଧ
ୟନ
ୟନର
ୟନଳ
ୟନସ
ୟପ
ୟପକ
ୟପର
ୟବ
ୟବତ
ୟବଧ
ୟବନ
ୟବର
ୟବସ
ୟବହ
ୟଭ
ୟଭଟ
ୟମ
ୟମକ
ୟମଣ
ୟମତ
ୟମଦ
ୟମନ
ୟମର
ୟମୟ
ୟଯ
ୟଯନ
ୟର
ୟରକ
ୟରତ
ୟରସ
ୟଲ
ୟଲମ
ୟଶ
ୟଷ
ୟସ
ୟସବ
ୟସଭ
ୟସମ
ୟହ
ୟୟ
ୟୟନ
ୟୟନର
ୟୟର
ୠ
ୡ
୤
୦
୦୦
୦୦୦
୦୧
୦୨
୦୩
୦୪
୦୫
୦୬
୦୭
୦୮
୦୯
୧
୧୦
୧୦୦
୧୦୦୦
୧୦୦୦୦
୧୦୧
୧୦୨
୧୦୩
୧୦୪
୧୦୫
୧୦୬
୧୦୭
୧୦୮
୧୦୯
୧୧
୧୧୦
୧୧୧
୧୧୨
୧୧୩
୧୧୪
୧୧୫
୧୧୬
୧୧୭
୧୧୮
୧୧୯
୧୨
୧୨୦
୧୨୦୦
୧୨୧
୧୨୨
୧୨୩
୧୨୪
୧୨୫
୧୨୬
୧୨୭
୧୨୮
୧୨୯
୧୩
୧୩୦
୧୩୧
୧୩୨
୧୩୩
୧୩୪
୧୩୫
୧୩୬
୧୩୭
୧୩୮
୧୩୯
୧୪
୧୪୦
୧୪୧
୧୪୨
୧୪୩
୧୪୪
୧୪୫
୧୪୬
୧୪୭
୧୪୮
୧୪୯
୧୫
୧୫୦
୧୫୦୦
୧୫୧
୧୫୨
୧୫୩
୧୫୪
୧୫୫
୧୫୬
୧୫୭
୧୫୮
୧୫୯
୧୬
୧୬୦
୧୬୦୦
୧୬୧
୧୬୨
୧୬୩
୧୬୪
୧୬୫
୧୬୬
୧୬୬୯
୧୬୭
୧୬୮
୧୬୯
୧୭
୧୭୦
୧୭୧
୧୭୨
୧୭୩
୧୭୪
୧୭୫
୧୭୬
୧୭୭
୧୭୮
୧୭୯
୧୮
୧୮୦
୧୮୦୦
୧୮୦୩
୧୮୦୪
୧୮୧
୧୮୧୭
୧୮୨
୧୮୩
୧୮୪
୧୮୪୮
୧୮୫
୧୮୫୦
୧୮୫୬
୧୮୫୭
୧୮୫୮
୧୮୬
୧୮୬୦
୧୮୬୧
୧୮୬୨
୧୮୬୪
୧୮୬୫
୧୮୬୬
୧୮୬୭
୧୮୬୮
୧୮୬୯
୧୮୭
୧୮୭୦
୧୮୭୨
୧୮୭୩
୧୮୭୪
୧୮୭୫
୧୮୭୭
୧୮୭୮
୧୮୮
୧୮୮୦
୧୮୮୧
୧୮୮୨
୧୮୮୪
୧୮୮୫
୧୮୮୬
୧୮୮୭
୧୮୮୮
୧୮୮୯
୧୮୯
୧୮୯୦
୧୮୯୧
୧୮୯୨
୧୮୯୩
୧୮୯୪
୧୮୯୫
୧୮୯୬
୧୮୯୭
୧୮୯୮
୧୮୯୯
୧୯
୧୯୦
୧୯୦୦
୧୯୦୧
୧୯୦୨
୧୯୦୩
୧୯୦୪
୧୯୦୫
୧୯୦୬
୧୯୦୭
୧୯୦୮
୧୯୦୯
୧୯୧
୧୯୧୦
୧୯୧୧
୧୯୧୨
୧୯୧୩
୧୯୧୪
୧୯୧୫
୧୯୧୬
୧୯୧୭
୧୯୧୮
୧୯୧୯
୧୯୨
୧୯୨୦
୧୯୨୧
୧୯୨୨
୧୯୨୩
୧୯୨୪
୧୯୨୫
୧୯୨୬
୧୯୨୭
୧୯୨୮
୧୯୨୯
୧୯୩
୧୯୩୦
୧୯୩୧
୧୯୩୨
୧୯୩୩
୧୯୩୪
୧୯୩୫
୧୯୩୬
୧୯୩୭
୧୯୩୮
୧୯୩୯
୧୯୪
୧୯୪୦
୧୯୪୧
୧୯୪୨
୧୯୪୩
୧୯୪୪
୧୯୪୫
୧୯୪୬
୧୯୪୭
୧୯୪୮
୧୯୪୯
୧୯୫
୧୯୫୦
୧୯୫୧
୧୯୫୨
୧୯୫୩
୧୯୫୪
୧୯୫୫
୧୯୫୬
୧୯୫୭
୧୯୫୮
୧୯୫୯
୧୯୬
୧୯୬୦
୧୯୬୧
୧୯୬୨
୧୯୬୩
୧୯୬୪
୧୯୬୫
୧୯୬୬
୧୯୬୭
୧୯୬୮
୧୯୬୯
୧୯୭
୧୯୭୦
୧୯୭୧
୧୯୭୨
୧୯୭୩
୧୯୭୪
୧୯୭୫
୧୯୭୬
୧୯୭୭
୧୯୭୮
୧୯୭୯
୧୯୮
୧୯୮୦
୧୯୮୧
୧୯୮୨
୧୯୮୩
୧୯୮୪
୧୯୮୫
୧୯୮୬
୧୯୮୭
୧୯୮୮
୧୯୮୯
୧୯୯
୧୯୯୦
୧୯୯୧
୧୯୯୨
୧୯୯୩
୧୯୯୪
୧୯୯୫
୧୯୯୬
୧୯୯୭
୧୯୯୮
୧୯୯୯
୨
୨୦
୨୦୦
୨୦୦୦
୨୦୦୧
୨୦୦୨
୨୦୦୩
୨୦୦୪
୨୦୦୫
୨୦୦୬
୨୦୦୭
୨୦୦୮
୨୦୦୯
୨୦୧
୨୦୧୦
୨୦୧୧
୨୦୧୨
୨୦୧୩
୨୦୧୪
୨୦୧୫
୨୦୧୬
୨୦୧୭
୨୦୧୮
୨୦୧୯
୨୦୨୦
୨୦୨୧
୨୦୨୨
୨୦୩
୨୦୪
୨୦୫
୨୦୬
୨୦୭
୨୦୮
୨୦୯
୨୧
୨୧୦
୨୧୨
୨୧୩
୨୧୫
୨୨
୨୨୦
୨୩
୨୩୦
୨୩୨
୨୪
୨୪୦
୨୫
୨୫୦
୨୫୦୦
୨୬
୨୬୦
୨୭
୨୭୦
୨୮
୨୮୦
୨୯
୩
୩୦
୩୦୦
୩୦୦୦
୩୧
୩୨
୩୨୦
୩୩
୩୪
୩୫
୩୫୦
୩୬
୩୬୦
୩୬୫
୩୭
୩୮
୩୯
୪
୪୦
୪୦୦
୪୦୦୦
୪୧
୪୨
୪୩
୪୪
୪୫
୪୫୦
୪୬
୪୭
୪୮
୪୯
୫
୫୦
୫୦୦
୫୦୦୦
୫୧
୫୨
୫୩
୫୪
୫୫
୫୬
୫୭
୫୮
୫୯
୬
୬୦
୬୦୦
୬୦୦୦
୬୧
୬୨
୬୩
୬୪
୬୫
୬୬
୬୭
୬୮
୬୯
୭
୭୦
୭୦୦
୭୧
୭୨
୭୩
୭୪
୭୫
୭୬
୭୭
୭୮
୭୯
୮
୮୦
୮୦୦
୮୧
୮୨
୮୩
୮୩୦
୮୪
୮୫
୮୬
୮୭
୮୮
୮୯
୯
୯୦
୯୧
୯୨
୯୩
୯୪
୯୫
୯୬
୯୭
୯୮
୯୯
୰
ୱ
ୱକ
ୱକପ
ୱକପର
ୱକର
ୱଗ
ୱଚ
ୱଜ
ୱତ
ୱତନ
ୱଦ
ୱଧ
ୱଧର
ୱନ
ୱପ
ୱବ
ୱବର
ୱଭ
ୱମ
ୱଯ
ୱର
ୱରକ
ୱରଙ
ୱରଠ
ୱରବ
ୱରମ
ୱରର
ୱରସ
ୱଲ
ୱଳ
ୱଳନ
ୱଶ
ୱଷ
ୱସ
ୱସନ
ୱୟ
ୱୟମ
ୱୟର
இ
க
ச
ட
த
ப
ம
ய
ர
ல
வ
ா
ி
ீ
ு
ெ
ே
ை
்
ం
క
ట
డ
త
ప
మ
ర
ల
వ
స
ా
ి
ీ
ు
ూ
ె
్
ಂ
ಟ
ಪ
ಮ
ರ
ವ
ಾ
ಿ
ು
ೂ
ೆ
್
ೕ
ം
ക
ട
ഡ
ത
ന
പ
മ
യ
ര
റ
ല
ള
വ
സ
ാ
ി
ീ
ു
െ
േ
്
ක
ල
ස
්
ා
ැ
ි
ු
ෙ
ก
พ
ย
ว
ั
ิ
ี
ื
ุ
ู
่
้
་
င
ာ
ိ
း
်
틀
ទ
ព
រ
ស
ា
ូ
ំ
័
្
ᵑ
​
‌
‍
‎
‐
‑
–
—
‘
’
‚
“
”
„
†
‡
•
…
′
″
‹
›
※
‼
⁄
€
₹
™
←
↑
→
↓
↔
↷
−
≈
≤
≥
⋅
③
④
⑦
─
▪
◌
●
♦
⟨
⟩
⺀
⺄
⺆
⺈
⺊
⺌
⺕
⺝
⺸
⺼
⿰
⿱
⿲
⿳
⿴
⿵
⿶
⿷
⿸
⿹
⿺
⿻
、
【
】
〢
う
お
か
き
て
の
ま
り
ん
゙
゚
ア
ィ
イ
コ
シ
テ
ト
ユ
ラ
リ
ル
ワ
ン
・
ー
㇁
㇂
㇄
㇇
㇈
㇉
㇓
㐁
㐄
㐅
㐌
㐫
㐬
㐭
㐮
㐱
㑒
㒵
㒸
㒼
㓁
㓞
㔾
㕛
㕣
㖾
㘝
㚅
㚇
㚔
㚘
㝉
㝡
㝴
㝵
㞋
㞢
㞷
㠩
㠭
㠯
㡀
㡭
㡿
㢲
㢴
㣇
㣺
㥯
㪅
㫄
㫐
㫒
㫺
㬅
㬎
㬥
㬰
㲋
㳄
㷠
㸒
㸚
㸦
㼌
㼲
㽞
㿟
䀠
䂞
䍃
䏍
䒑
䖍
䖒
䖝
䖵
䙴
䚻
䜌
䝿
䡛
䧹
䪞
一
丁
丂
七
丄
丅
丆
万
丈
三
上
下
丌
不
与
丏
丐
丑
专
且
丕
世
丘
丙
业
东
丞
丢
丣
两
严
並
丨
丩
个
丫
丬
中
丮
丰
丱
串
丵
丶
丷
丸
丹
为
主
丽
丿
乀
乂
乃
久
乆
乇
么
义
之
乌
乍
乎
乏
乐
乑
乔
乖
乗
乘
乙
乚
乛
乜
九
乞
也
习
乡
乳
乾
亀
亅
了
亇
予
争
事
二
亍
于
亏
亐
云
互
亓
五
井
亘
亚
亜
亞
亟
亠
亡
亢
交
亥
亦
产
亨
亩
享
京
亭
亮
亯
亰
亲
亳
亶
亷
人
亻
亼
亾
仁
今
介
仌
从
仐
仑
仒
仓
仕
他
付
仝
代
令
以
任
企
伊
伏
伐
休
会
伯
但
位
何
佘
余
作
佥
使
來
侈
侌
侖
侯
侵
便
保
俞
信
修
倉
倍
候
倠
備
僉
僕
儿
兀
允
兂
元
兄
充
兆
兇
先
光
兊
克
兌
免
兑
兒
兓
兔
党
兜
兟
入
全
兩
兪
八
公
六
兮
兰
共
关
兵
其
具
典
兹
兼
冀
冂
冃
冄
内
冈
冉
冊
冋
册
再
冎
冏
冐
冒
冓
冖
冗
冘
军
农
冝
冡
冥
冫
冬
冷
几
凡
凢
凵
凶
凷
凸
凹
出
函
凾
刀
刁
刂
刃
刄
刅
分
切
刍
刑
刕
刖
列
刘
则
初
別
利
别
到
制
刺
則
削
剌
前
剡
剽
劉
力
功
加
劦
助
劫
劳
劵
勃
勇
勉
勒
動
務
勞
勤
勹
勺
勻
勾
勿
匀
匂
包
匆
匈
匊
匋
匍
匕
化
北
匚
匝
匡
匪
匱
匸
匹
区
医
匽
匿
區
十
卂
千
卄
卅
卆
升
午
卉
半
卌
华
卑
卒
卓
单
卖
南
卜
卝
卞
占
卡
卢
卣
卤
卦
卩
卪
卬
卯
印
危
即
却
卵
卷
卸
卻
厂
厃
厄
历
厈
厉
厌
厓
厘
厚
原
厤
厥
厨
厭
厲
厶
厷
厸
去
厼
厽
叀
参
參
叅
又
叉
及
友
双
反
叐
发
叒
叔
叕
取
受
叚
叜
叟
口
古
句
另
叩
只
召
可
台
叱
史
右
叵
号
司
叹
吂
各
吅
合
吉
吊
吋
同
名
后
吏
向
吕
君
吝
吞
否
含
启
吳
吴
吹
吾
呂
呆
呈
告
员
呙
周
命
咅
和
咎
咠
咢
咨
咸
咼
哀
品
哉
員
哥
哲
唐
商
啇
問
啚
啬
啻
善
喜
喬
單
喿
嗇
嘉
噩
嚴
囊
囗
囘
囙
囚
四
回
囟
因
囧
囬
困
囱
囷
固
国
圂
圅
國
圍
圓
土
圡
圣
圥
在
圭
地
圶
圼
坐
坒
坚
坴
垂
垔
垚
埀
埋
城
埶
執
基
堂
堅
堆
堇
堯
塞
墨
壘
士
壬
壯
声
壳
壴
壹
壺
壽
夂
处
夅
夆
备
夊
夋
夌
复
夏
夒
夕
外
夗
夘
多
夜
夢
大
夨
天
太
夫
夬
夭
央
失
夲
头
夷
夸
夹
夻
夾
奂
奄
奇
奈
奉
奎
奏
奐
契
奓
奔
奚
奞
奠
奢
奥
奭
女
奴
奻
好
如
妄
妙
妟
妥
妻
妾
姑
委
姜
威
娄
婁
婴
嬰
嬴
子
孑
孔
孕
孖
字
存
孚
孛
孝
孟
季
孤
学
孫
孱
學
宀
宁
宂
它
宅
宇
守
安
宋
完
宏
宓
宗
官
定
宛
宜
宝
客
宣
室
宮
宰
害
家
容
宾
宿
寄
寅
密
富
寒
寛
察
寧
審
寫
寬
寮
寸
对
寺
寻
寽
対
寿
封
尃
射
将
將
專
尉
尊
尋
尌
對
小
少
尒
尓
尔
尖
尗
尚
尞
尢
尣
尤
尧
尨
尭
就
尸
尹
尺
尻
尼
尽
尾
尿
局
居
屈
屋
屎
屏
屑
展
屖
屚
属
屠
屡
屬
屮
屯
屰
山
屵
屾
岁
岂
岑
岡
岩
岳
岸
峯
島
崇
崑
崔
崖
崙
崩
嵬
嶲
巂
巛
川
州
巟
巠
巢
巤
工
左
巧
巨
巩
巫
差
己
已
巳
巴
巷
巸
巽
巾
巿
帀
市
布
希
帚
帛
帝
带
師
席
帶
常
干
平
年
幵
并
幷
幸
幺
幻
幼
幽
幾
广
広
庄
床
底
店
庚
府
度
庫
庭
庶
康
庸
廉
廌
廛
廣
廩
廴
延
廷
建
廾
廿
开
弁
弃
弄
弇
弋
式
弓
弔
引
弗
弘
弜
弟
弥
弦
弱
張
強
强
彊
彌
彎
彐
彑
当
彔
录
彖
彗
彡
形
彥
彦
彧
彭
彳
役
彼
往
待
律
徒
得
徙
從
復
微
徳
徵
心
忄
必
忌
忍
志
応
忝
忠
忩
快
念
忽
忿
思
怠
急
怱
恆
恒
恩
恭
息
悉
患
悤
悲
悶
惠
惡
惢
愁
愈
意
愛
感
慈
慧
慮
憂
憲
應
戀
戈
戉
戊
戋
戌
戍
戎
成
我
戒
戔
或
戚
戠
戢
截
戲
戶
户
戹
戼
戾
房
所
扁
扇
手
扌
才
打
托
执
承
折
拉
拜
拿
掌
推
提
摩
支
攴
攵
收
攸
改
放
政
敄
敏
敕
敖
敗
敝
敞
敢
散
敦
敫
敬
数
敷
數
斂
文
斉
斊
斗
斤
斥
斩
斬
斯
新
方
於
施
斿
旁
旋
族
无
旡
既
旣
日
旦
旧
旨
早
旬
旱
旲
时
旾
昆
昇
昌
昍
明
昏
易
昔
昗
昜
星
春
昬
是
昱
昴
昷
時
晃
晋
晏
普
景
晶
智
暑
暦
暴
曇
曩
曰
曲
曳
更
曷
書
曹
曼
曾
替
最
朁
會
月
有
朋
服
朔
朕
朗
望
朝
期
木
朩
未
末
本
札
朮
术
朱
朵
朶
朿
杀
杏
杜
束
条
来
東
杲
杳
松
板
析
林
枚
果
枝
枲
枼
某
柔
查
柬
柰
柴
栗
桀
桑
桼
梁
條
梟
梨
棘
棠
棥
森
楚
業
楽
榮
樂
樊
模
欠
次
欣
欮
欲
欶
欽
款
歆
歇
歛
止
正
此
步
武
歨
歪
歮
歯
歰
歲
歴
歷
歸
歹
歺
死
殳
段
殷
殸
殹
殺
殻
殿
毋
毌
母
每
毒
比
毕
毚
毛
毳
氏
氐
民
气
氣
水
氵
氶
氷
永
氺
氾
求
汝
汞
江
沃
沓
沙
沝
治
泉
法
波
泣
泥
泰
洛
洪
洲
活
派
流
浦
浪
浮
淡
淮
清
渚
渠
湯
滿
漸
火
灬
灭
灰
灵
灷
炅
炎
炏
炗
炙
炭
為
烈
烏
烝
焉
無
焦
焱
然
煞
熊
熏
燕
營
燮
爪
爫
爭
爯
爰
爱
爲
爵
父
爻
爽
爾
爿
片
牙
牚
牛
牜
牟
牢
牧
牪
特
牽
犀
犬
犭
犮
狂
狄
狊
独
狺
猋
猒
猪
献
獻
玄
率
玉
王
玟
玨
珎
班
琴
瑟
瑩
瓜
瓦
甘
甚
生
産
用
甫
甬
田
由
甲
申
电
甶
男
甸
甹
町
画
甾
畀
界
畏
畐
留
畜
畟
畢
畧
畨
番
畫
異
畱
當
畺
畾
疊
疋
疌
疑
疒
疾
癶
癸
癹
登
發
白
百
皀
皃
的
皆
皇
皋
皐
皕
皮
皷
皿
盃
盆
盇
盈
益
盍
盎
监
盒
盖
盛
盡
監
盤
盧
目
直
相
盾
省
眇
眉
看
県
眔
眞
真
眷
眼
眾
着
睘
睪
睿
瞏
瞢
瞿
矍
矛
矞
矢
矣
知
矦
短
石
破
碎
磊
磨
示
礻
礼
神
祟
票
祭
禀
禁
禸
禹
禺
离
禽
禾
禿
秀
秃
秉
秋
科
秝
秦
移
稟
穀
穌
穴
究
穹
空
穿
突
窄
窒
立
竒
竜
竝
竟
章
童
竹
笑
笠
第
筆
等
答
箕
算
箴
節
篤
篭
米
粉
粛
粟
粤
粦
粲
糞
糸
糹
系
約
納
素
索
紫
累
細
絜
絫
絲
維
綿
縣
繇
纍
纟
缶
网
罒
罔
罕
罗
罙
罡
罢
罪
署
罷
羅
羊
羌
羍
美
羔
羕
羗
羞
羡
羣
群
義
羲
羸
羽
翁
翏
習
翕
翟
翠
翼
老
耂
考
者
耆
而
耎
耑
耒
耳
耴
耶
耷
聂
聊
聖
聚
聶
聿
肀
肃
肅
肉
肖
肙
肥
肩
肯
育
肴
胃
背
胡
胥
能
脊
脩
膚
臣
臤
臧
自
臬
臭
臯
臱
至
致
臺
臼
臽
臾
臿
舀
舂
舄
與
興
舉
舌
舍
舛
舜
舞
舟
般
艮
良
色
艸
艹
艾
芒
芔
芬
芮
花
芳
芺
芻
苔
苗
苟
若
苦
英
茶
茸
荅
草
荒
荣
荼
莆
莧
莫
莽
菆
菊
菐
華
萬
落
葉
著
葛
董
葵
蒙
蒦
蒼
蓋
蓬
蓺
蔑
蔡
蕉
蕭
薄
薛
薦
薰
藍
藏
藥
蘭
虍
虎
虐
虒
虔
處
虖
虗
虘
虚
虛
虜
虞
虫
虽
蚤
蚩
蜀
蜜
蟲
蠡
血
行
衍
衛
衣
衤
表
衮
衰
袁
袞
褭
褱
襄
襾
西
覀
要
覃
見
規
覓
覧
親
覽
见
角
解
言
訁
訇
計
詹
誩
諸
讠
谷
豆
豈
豊
豐
豕
豖
豙
象
豦
豩
豪
豸
貇
貝
貞
貟
負
貢
貧
貪
貫
責
貳
貴
買
費
賁
資
賈
賏
賓
賔
賛
賞
賢
賣
質
賴
贊
贝
贡
责
贯
贲
贵
赖
赞
赤
赦
走
越
足
路
蹇
身
躬
車
軍
軎
軟
輦
车
辛
辜
辟
辥
辰
辱
農
辵
辶
边
达
过
近
连
迷
追
退
送
逆
逐
通
速
造
逢
連
逮
進
遀
遂
過
道
達
遣
適
遷
遺
邊
邑
邕
那
邦
邪
郎
部
郭
都
鄉
酉
酋
配
酓
釆
采
里
重
野
量
金
釒
錢
钅
長
镸
长
門
閃
閉
開
閏
閑
閒
間
閔
閵
閻
闌
门
间
闷
阑
阜
阝
阿
降
陳
隆
隊
隋
隡
隨
隱
隶
隹
隺
隻
隼
隽
难
雀
雁
集
雈
雋
雍
雐
雔
雙
雚
雜
雝
離
難
雨
雩
雪
雲
零
雷
需
霍
霜
霝
霞
霸
靈
靑
青
非
靡
面
靣
革
韋
韦
韭
韯
韱
音
頁
頃
項
須
頗
頡
頻
顛
页
風
风
飛
飞
食
飠
養
饣
首
香
馬
馮
駦
马
骨
高
髟
鬥
鬯
鬲
鬼
魚
魯
鮮
鱼
鲁
鳥
鳳
鸟
鹵
鹿
麃
麗
麥
麦
麻
黃
黄
黍
黎
黑
黒
黨
黹
黽
黾
鼎
鼓
鼠
鼻
齊
齋
齐
齒
齿
龍
龙
龜
龟
龠
龰
龱
龴
龵
龶
龷
龸
龹
ꭾ
ꮾ


者
艹
️
﻿
，
？
￼
�
🇮
🇳
𠀁
𠀃
𠀆
𠀉
𠀎
𠀐
𠁁
𠁣
𠂆
𠂇
𠂈
𠂉
𠂊
𠂋
𠂎
𠂒
𠂔
𠂛
𠂡
𠂢
𠂤
𠂬
𠂭
𠂹
𠃊
𠃋
𠃌
𠃍
𠃎
𠃑
𠃓
𠃔
𠃜
𠄌
𠄎
𠄠
𠄢
𠆢
𠆥
𠇍
𠈌
𠌵
𠓜
𠔉
𠔥
𠔼
𠔽
𠔿
𠕀
𠕁
𠕋
𠘧
𠘨
𠙻
𠙼
𠚏
𠚒
𠚤
𠚪
𠣏
𠤎
𠤕
𠥓
𠦄
𠦑
𠦝
𠧒
𠧗
𠧪
𠩺
𠪚
𠫓
𠫔
𠫤
𠬛
𠬝
𠬞
𠬢
𠬤
𠬶
𠮛
𠮦
𠮷
𠯑
𠱠
𠳮
𠷎
𡈼
𡉀
𡉵
𡌥
𡍮
𡏳
𡕒
𡕩
𡕰
𡖅
𡗗
𡗜
𡘆
𡘤
𡧱
𡨄
𡩧
𡬠
𡭽
𡰣
𡰥
𡰪
𡰯
𡰱
𡷈
𡸁
𡿨
𡿩
𡿪
𡿺
𢀖
𢀛
𢀩
𢁙
𢆉
𢆰
𢆶
𢇁
𢇇
𢉖
𢌬
𢌿
𢏚
𢑑
𢑚
𢖻
𢙣
𢛳
𢦏
𢦒
𢧵
𢼄
𢾕
𣁋
𣄼
𣅀
𣅽
𣍘
𣎳
𣎵
𣏋
𣏼
𣗥
𣥂
𣥖
𣦵
𣦼
𣧄
𣪊
𣪠
𣬉
𣳾
𣶒
𤇾
𤊽
𤐫
𤓰
𤔔
𤕨
𤣩
𤰇
𤰔
𤰞
𤴓
𤴔
𤽄
𥁑
𥁕
𥃦
𥃩
𥃭
𥇡
𥑟
𥘅
𥘈
𥝢
𥫗
𥱡
𦈢
𦉪
𦉬
𦉼
𦍌
𦍒
𦎧
𦐇
𦓔
𦔮
𦘒
𦙃
𦚏
𦣝
𦣞
𦣻
𦥑
𦥔
𦥯
𦨉
𦭝
𦰩
𧆞
𧈧
𧘇
𧰨
𧴪
𧴮
𧵩
𧾷
𨸏
𨾴
𩙿
𩠐
𩫏
𩵋
𪉷
𪜀
𪟽
𪠲
𪩲
𫇦
𫔭
𫜸
𫝀
𫠣
𫠩
𫢉
𫥞
𫩏
𫩠
𫪡
𫲽
𫶧
𬀷
𬐘
𬗌
𬙙
𬛸
𬜯
𬟩
𬯁
𬴘
𬺻
𬼉
𬼖
𭀰
𭁈
𭁨
𭅰
𭑈
𭕄
𭗼
𭤨
𭥫
𭻾
𮅕
𮊿
𮍌
𮍏
𮓗
𮥼
𮧮
廾
𰀁
𰀄
𰀈
𰀉
𰀕
𰀠
𰀡
𰀢
𰀪
𰁜
𰃮
𰆊
𰆘
𰋙
𰕎
𰢴
𰧭
𰯲
00--
01--
02--
03--
07--
08--
10--
11--
12--
13--
14--
15--
16--
17--
18--
19--
20--
21--
22--
23--
24--
25--
26--
27--
28--
29--
30--
31--
32--
33--
34--
35--
36--
37--
39--
41--
42--
43--
44--
46--
47--
49--
51--
52--
53--
54--
55--
56--
57--
58--
59--
60--
61--
62--
63--
64--
65--
66--
69--
71--
72--
73--
74--
75--
77--
80--
82--
83--
86--
88--
91--
92--
93--
99--
a--
aa--
ab--
above--
ac--
ach--
ad--
add--
advan--
adver--
ae--
af--
affi--
ag--
agra--
ai--
air--
ak--
al--
alex--
all--
alt--
alu--
am--
amba--
amend--
an--
anim--
anno--
anti--
any--
ap--
app--
appo--
appre--
ar--
arg--
args--
art--
arun--
as--
asc--
aste--
at--
au--
auto--
av--
az--
azerbai--
b--
ba--
back--
bad--
bala--
bar--
base--
be--
bel--
ber--
bha--
bho--
bhu--
bi--
bib--
bio--
bir--
bla--
ble--
bo--
boli--
book--
bos--
box--
br--
brah--
bri--
bro--
bu--
bud--
bur--
by--
c--
ca--
calcu--
call--
camb--
can--
cap--
car--
cat--
cc--
cd--
ce--
cele--
cen--
cere--
certifi--
ch--
cha--
chai--
cham--
champion--
check--
chel--
chi--
chit--
chlo--
cho--
chol--
chri--
cite--
cla--
cli--
clu--
cm--
co--
code--
col--
com--
compi--
compli--
con--
conn--
cons--
consti--
conti--
contr--
copy--
cor--
cra--
cri--
cro--
cru--
cu--
curr--
current--
cy--
cyc--
d--
da--
dar--
dark--
data--
date--
dc--
dd--
de--
dec--
decla--
def--
del--
demo--
den--
dev--
dha--
dho--
di--
dic--
disa--
disam--
disc--
dist--
distin--
dl--
do--
doc--
down--
dr--
du--
dur--
e--
ea--
ear--
ec--
ed--
edit--
ei--
el--
ele--
elec--
elim--
em--
emer--
en--
end--
enz--
epi--
equi--
eri--
es--
establish--
esti--
et--
ethno--
eu--
ex--
exam--
exce--
exclu--
exec--
expe--
expi--
expl--
ext--
f--
fa--
facili--
fan--
fav--
fe--
fer--
fetch--
ff--
fi--
figh--
file--
find--
fini--
first--
fl--
flag--
for--
format--
fr--
free--
frequ--
fu--
full--
fun--
g--
ga--
ge--
geo--
get--
gha--
gi--
gl--
glo--
go--
god--
gra--
gre--
gro--
gu--
gur--
h--
ha--
hal--
hand--
har--
has--
he--
head--
hect--
hei--
hi--
ho--
hor--
html--
hu--
hun--
hund--
hy--
hyper--
i--
ia--
ice--
id--
if--
ill--
illus--
im--
image--
imp--
in--
incorp--
india--
indian--
infe--
influ--
infr--
int--
inter--
inve--
investi--
invi--
ip--
ir--
is--
iso--
it--
j--
ja--
jack--
jag--
je--
ji--
jo--
ju--
jud--
juris--
k--
ka--
kai--
kal--
kala--
kan--
ke--
key--
kh--
kha--
ki--
kilo--
kn--
ko--
kra--
kri--
ku--
kw--
l--
la--
lak--
land--
last--
lat--
lay--
le--
legi--
lek--
leuk--
li--
libe--
life--
light--
ling--
link--
list--
lithu--
lo--
loc--
lu--
ly--
lym--
m--
ma--
mad--
madh--
mag--
maha--
make--
mal--
man--
manu--
map--
mar--
mat--
max--
mb--
me--
mech--
mer--
meta--
mi--
micro--
mid--
mig--
min--
mis--
mm--
mo--
mon--
mono--
mor--
mp--
mu--
muk--
multi--
munic--
mur--
my--
n--
na--
name--
nar--
nav--
naz--
nb--
nd--
ne--
neut--
new--
news--
ng--
ni--
nin--
nn--
no--
nomenc--
non--
nor--
north--
ns--
nu--
num--
ny--
o--
ob--
obs--
obser--
oc--
odia--
off--
ok--
ol--
on--
one--
only--
opp--
or--
orien--
os--
out--
over--
p--
pa--
pac--
page--
pale--
pan--
par--
param--
parse--
pat--
patt--
pe--
pennsyl--
per--
ph--
phi--
phili--
pho--
phy--
pi--
pin--
pl--
plain--
play--
pm--
po--
pol--
politi--
pon--
popup--
post--
pota--
pr--
pras--
pre--
prece--
prev--
princ--
print--
pro--
prof--
prohi--
pros--
ps--
pt--
pu--
pul--
pun--
pur--
py--
q--
qu--
qui--
r--
ra--
rad--
raj--
rak--
raw--
re--
read--
rec--
rece--
recog--
recom--
red--
ref--
reg--
regu--
relation--
reli--
render--
res--
ri--
ro--
row--
ru--
run--
s--
sa--
sal--
sam--
san--
sar--
sara--
sat--
sc--
scho--
scul--
se--
sec--
seg--
semi--
ser--
set--
sh--
shak--
shi--
sho--
shoo--
show--
si--
sig--
sik--
sk--
sky--
sl--
slo--
small--
so--
sol--
some--
sp--
spo--
sq--
squ--
sr--
ss--
st--
ste--
sto--
str--
strip--
stu--
su--
sub--
succ--
sum--
sun--
super--
supp--
sur--
sust--
swa--
sy--
sym--
t--
ta--
table--
tag--
talk--
tan--
tas--
taxon--
te--
tea--
tele--
temp--
ten--
ter--
test--
tex--
text--
th--
the--
thi--
this--
ti--
tic--
time--
title--
to--
tour--
tr--
trans--
tri--
tro--
troub--
ts--
tu--
tw--
ty--
type--
typogra--
u--
uk--
ul--
ultr--
un--
under--
up--
ur--
url--
us--
use--
user--
ut--
ute--
v--
va--
val--
van--
var--
ve--
ver--
vi--
viet--
view--
vin--
viol--
vir--
w--
wa--
war--
we--
web--
wel--
wg--
wi--
wiki--
wil--
wo--
wol--
wor--
work--
wp--
wrap--
ws--
x--
y--
ya--
yi--
yo--
yu--
z--
za--
zo--
ɔ--
α--
π--
τ--
вик--
अ--
क--
र--
व--
स--
ଅ--
ଅକ--
ଅଘ--
ଅଣ--
ଅଧ--
ଅନ--
ଅପ--
ଅସ--
ଆ--
ଆଇ--
ଆଗ--
ଆଠ--
ଆର--
ଇ--
ଈ--
ଉ--
ଊ--
ଋ--
ଋଷ--
ଏ--
ଏଇ--
ଏକ--
ଏଚ--
ଏମ--
ଏଲ--
ଏସ--
ଐ--
ଓ--
ଔ--
କ--
କନ--
କର--
କଳ--
ଖ--
ଖର--
ଗ--
ଗଜ--
ଗଣ--
ଗତ--
ଗପ--
ଗର--
ଗଳ--
ଘ--
ଘନ--
ଘର--
ଙ--
ଚ--
ଛ--
ଜ--
ଜନ--
ଜମ--
ଜଳ--
ଜୟ--
ଝ--
ଞ--
ଟ--
ଟକ--
ଟପ--
ଟର--
ଠ--
ଡ--
ଢ--
ଣ--
ଣବ--
ତ--
ତପ--
ତବ--
ତର--
ତଳ--
ଥ--
ଦ--
ଦର--
ଦଳ--
ଦଶ--
ଦୟ--
ଧ--
ଧନ--
ନ--
ନବ--
ନର--
ପ--
ପଦ--
ପର--
ଫ--
ବ--
ବଇ--
ବନ--
ବର--
ଭ--
ଭବ--
ମ--
ମନ--
ମର--
ମହ--
ଯ--
ର--
ରକ--
ରଜ--
ରଣ--
ରତ--
ରଥ--
ରବ--
ଲ--
ଳ--
ଵ--
ଶ--
ଶତ--
ଶର--
ଷ--
ସ--
ସତ--
ସନ--
ସବ--
ସମ--
ସର--
ସହ--
ହ--
ହର--
ହଳ--
ଽ--
ୟ--
ୟବ--
ୟୟ--
ୠ--
୦୦--
୦୧--
୦୨--
୦୩--
୦୪--
୦୫--
୦୬--
୦୭--
୦୮--
୦୯--
୨୦--
୨୧--
୨୨--
୨୩--
୨୫--
୨୬--
୨୯--
୩୧--
୩୨--
୩୩--
୪୭--
୫୨--
୭୫--
ୱ--
ୱର--
--0
--00
--1
--2
--3
--4
--5
--6
--66
--7
--8
--80
--9
--a
--ab
--able
--ably
--ad
--ado
--ae
--ag
--agar
--agari
--age
--ah
--ai
--ain
--aj
--ak
--al
--ala
--ald
--ally
--als
--am
--ami
--an
--ana
--ance
--ang
--ani
--ano
--ans
--ant
--ants
--ao
--api
--aq
--ar
--ara
--ard
--arg
--args
--ari
--aries
--ary
--as
--ase
--at
--ata
--ate
--ated
--ates
--ath
--ati
--atic
--ating
--ation
--ations
--ative
--ator
--atory
--ats
--ature
--au
--aurus
--av
--ax
--ay
--b
--ba
--bar
--be
--bed
--berg
--bi
--ble
--bo
--bot
--box
--by
--c
--ca
--cat
--ce
--ced
--cell
--ces
--cfg
--ch
--cha
--chi
--ci
--cing
--ck
--cle
--co
--code
--col
--color
--count
--cs
--ct
--ction
--cts
--cus
--cy
--d
--da
--dae
--data
--date
--day
--de
--ded
--di
--ding
--div
--do
--dra
--ds
--du
--dy
--e
--ea
--eal
--east
--ect
--ection
--ed
--ee
--een
--ef
--ei
--ek
--el
--ell
--els
--ely
--em
--en
--ence
--ency
--end
--enged
--ens
--ense
--ensive
--ent
--ep
--epec
--er
--eria
--erior
--error
--ers
--erse
--ert
--ery
--es
--ese
--ess
--est
--et
--ets
--ex
--ey
--ez
--f
--fer
--ff
--flag
--form
--ful
--func
--fy
--g
--ga
--gal
--garh
--ge
--ged
--ger
--ges
--gh
--gi
--ging
--gly
--go
--gs
--gu
--gua
--gular
--h
--ha
--hal
--ham
--hand
--he
--heet
--hen
--hi
--hip
--hips
--hm
--hood
--ht
--html
--hu
--hua
--i
--ia
--ial
--ian
--ians
--iate
--ibility
--ible
--ic
--ica
--ick
--ics
--id
--ide
--ident
--ie
--ied
--ient
--ier
--ies
--ified
--ify
--ight
--ii
--ik
--ika
--il
--ila
--ile
--ily
--im
--ima
--image
--imer
--in
--ina
--ination
--index
--ine
--ines
--ing
--ings
--ini
--ining
--io
--ion
--ions
--ior
--ious
--ir
--ire
--is
--isation
--ise
--ised
--ish
--ism
--ist
--istic
--ists
--it
--ita
--ital
--ite
--item
--ities
--itis
--ity
--ium
--ius
--iv
--ival
--ive
--ived
--ix
--iya
--ization
--ize
--ized
--izing
--j
--ja
--ji
--k
--ka
--ke
--key
--kh
--ki
--kle
--ko
--ks
--ku
--l
--la
--lal
--lar
--ld
--le
--ler
--les
--less
--ley
--lf
--li
--lia
--line
--ling
--link
--links
--lis
--list
--lity
--ll
--lla
--lle
--lm
--lo
--log
--ls
--lt
--lty
--lus
--ly
--m
--ma
--mal
--man
--mate
--me
--med
--ment
--ments
--mer
--mers
--mi
--ms
--mu
--n
--na
--nal
--name
--nary
--nce
--nd
--nda
--ne
--ned
--ner
--nes
--nese
--ness
--news
--ney
--ng
--nga
--ni
--nia
--ning
--nique
--nity
--nk
--nka
--no
--ns
--nt
--nta
--ntal
--nti
--nto
--nts
--num
--ny
--nya
--nym
--o
--oa
--obj
--ock
--od
--oe
--of
--og
--ogy
--oi
--ol
--ole
--olo
--ology
--om
--oma
--ome
--oms
--omy
--on
--ong
--only
--ons
--oo
--op
--or
--ore
--ored
--ories
--orm
--ors
--ort
--ory
--os
--ose
--osis
--ot
--ound
--ous
--out
--ow
--oy
--oz
--p
--pa
--page
--pan
--pat
--pe
--pec
--ped
--ph
--phy
--po
--ps
--pur
--q
--que
--r
--ra
--raj
--ral
--ran
--ras
--rb
--rd
--re
--red
--rence
--rg
--ri
--ria
--ries
--ring
--rk
--rl
--rm
--rn
--ro
--ron
--row
--rry
--rs
--rt
--ru
--ry
--s
--sa
--scape
--se
--sed
--ses
--set
--sh
--sha
--shi
--ship
--si
--sia
--sian
--sion
--sis
--sk
--sm
--son
--sor
--ss
--st
--ster
--stic
--str
--stream
--sy
--t
--ta
--table
--tag
--tal
--tant
--tation
--te
--ted
--ter
--tes
--text
--th
--tha
--thi
--ti
--tic
--time
--tin
--ting
--tion
--tions
--tis
--title
--tive
--tle
--tly
--to
--ton
--tor
--tory
--tra
--tre
--tri
--tric
--ts
--tt
--tta
--tu
--ty
--tyle
--type
--u
--ua
--ual
--ually
--uate
--uated
--ucted
--ud
--ue
--ugal
--ugh
--ught
--ul
--ula
--ular
--ult
--um
--un
--unately
--ung
--up
--ups
--ur
--ura
--ure
--ures
--url
--urus
--us
--user
--ut
--v
--va
--val
--value
--ve
--ver
--vi
--ving
--vo
--voyage
--w
--wa
--way
--west
--wiki
--x
--y
--ya
--yan
--ye
--year
--ym
--ys
--yu
--z
--za
--ze
--zed
--zi
--zing
--ο
--а
--ଇ
--ଏ
--ଏସ
--ଓ
--କ
--କର
--ଖ
--ଗ
--ଗତ
--ଘ
--ଙ
--ଚ
--ଚନ
--ଛ
--ଜ
--ଝ
--ଞ
--ଟ
--ଠ
--ଡ
--ଢ
--ଣ
--ତ
--ଥ
--ଥର
--ଦ
--ଧ
--ନ
--ନର
--ପ
--ପର
--ଫ
--ବ
--ଭ
--ମ
--ମଣ
--ଯ
--ର
--ରଣ
--ଲ
--ଳ
--ଶ
--ଷ
--ସ
--ହ
--ୟ
--୦
--୦୦
--୧
--୨
--୩
--୪
--୫
--୬
--୭
--୮
--୯
--ୱ
