!
"
#
##0
##1
##10
##11
##12
##13
##14
##15
##16
##17
##18
##19
##2
##20
##21
##22
##23
##24
##25
##26
##27
##28
##29
##3
##30
##31
##32
##33
##34
##35
##36
##37
##38
##39
##4
##40
##41
##42
##43
##44
##45
##46
##47
##48
##49
##5
##50
##51
##52
##53
##54
##55
##56
##57
##58
##59
##6
##60
##61
##62
##63
##64
##65
##66
##67
##68
##69
##7
##70
##71
##72
##73
##74
##75
##76
##77
##78
##79
##8
##80
##81
##82
##83
##84
##85
##86
##87
##88
##89
##9
##90
##91
##92
##93
##94
##95
##96
##97
##98
##99
$
%
&
'
(
)
*
+
,
-
.
/
0
00
000
01
02
03
04
05
06
07
08
09
1
10
100
1000
11
1160
12
13
1392
14
15
150
16
17
18
180
1800
19
1939
1940
1945
1957
1960
1964
1967
1980
1990
1999
2
20
200
2000
2001
2002
2003
2004
2005
2006
2007
2008
2009
2010
2011
2012
2013
2014
2015
2016
2017
2018
2019
2020
2021
2022
2023
21
22
220
23
232
24
25
250
255
26
27
270
28
29
3
30
300
31
32
33
333
34
35
350
365
37
38
39
4
40
400
41
42
43
44
45
46
47
470
48
49
5
50
500
501
52
53
54
55
56
57
59
6
60
600
666
696
7
70
700
75
77
7754
8
80
800
9
90
928
930
999
:
;
=
>
?
@
\
_
a
aallatqiit
aamma
aannuraaliuqpakhutik
aariak
ability
able
aboriginal
about
abstract
abuse
abusefilter
abusefilters
academic
acceptable
accepted
accepting
access
accessed
accessibility
accessible
according
accordingly
account
accounts
accused
achieve
achieved
across
action
actions
activate
active
activities
activity
actual
actually
adana
add
added
adding
addition
additional
address
addresses
adelaide
adjust
admin
administrative
administrator
administrators
admins
adminship
adqwdsxa
advance
advanced
advancedsearch
advantages
advice
advocate
affect
affected
affects
affiliate
affiliates
africa
african
after
afterwards
again
against
agenda
aggregator
ago
agree
ahead
ailuropoda
aim
aime
aims
aipuril
air
ais
al
aleut
alexandria
alias
align
all
allocate
allow
allowed
allows
almost
along
already
also
alt
although
always
am
ambassador
ambassadors
amendment
america
american
amihuuyut
amma
among
amount
amqui
an
analysis
and
android
angayuqaavut
angulalik
announce
announced
announcement
announces
announcing
annual
another
answer
answers
antiquity
any
anyone
anything
api
apologies
apologize
app
appeal
appear
appearance
appears
applicants
application
applications
apply
appointed
appreciate
appreciated
approach
appropriate
approved
april
ar
arabic
arahau
arbitrary
arbitration
architectural
archive
archives
are
area
areas
around
art
article
articles
artists
arts
as
asia
asian
ask
asked
asking
aspects
assign
assigned
assist
assistance
associated
at
atavaa
athletes
atsalualik
attach
attend
attention
atuqtauvaktuq
audience
audiences
audios
august
aulatsiji
authority
automated
automatic
automatically
auyami
available
avoid
award
aware
awareness
b
back
background
bad
balance
banner
bans
bar
barriers
based
baseline
basic
basis
bassel
bay
baylor
be
because
become
becomes
becoming
been
before
begin
beginning
begins
begun
behalf
behavior
behind
being
beliefs
below
benefit
berlin
best
bet
beta
betawiki
better
between
beyond
bhattacharjee
bi
biden
big
billion
biographies
birgit
birthday
bit
block
blocked
blocking
blocks
blog
blogs
bloomsbury
blue
board
body
book
bookmark
books
border
bot
both
bots
botstatus
bottom
box
branch
break
bridge
bring
bringing
british
broad
broken
browsers
bst
bug
bugs
bugzilla
build
building
bureaucrat
bureaucrats
business
but
button
buttons
by
c
ca
cairn
calendar
call
called
calling
calls
cambridge
campaign
can
canada
canadian
candidacy
candidate
candidates
cape
capital
card
care
carry
cas
case
catalan
categories
category
cc
celebrate
center
centers
central
centre
ceremonies
ceremony
certain
cest
cet
chair
challenge
chan
chance
change
changed
changes
changing
channel
characters
charter
chat
check
checkbox
checking
checkuser
checkusers
cheers
chemistry
chicago
chile
chinese
choose
chosen
circumstances
city
ckoerner
clarity
classical
clear
click
clicking
close
closed
closes
co
cobar
coca
cochrane
code
codemirror
codes
cohen
cola
collaborate
collaboration
collaborative
collect
collected
collection
collections
color
column
com
come
comfortable
coming
comment
comments
commission
commit
committee
committees
common
commons
communicate
communication
communities
community
communityhealth
compact
company
compass
compat
competition
complaint
complaints
complete
completed
completion
computer
concerns
conduct
conducted
conference
configuration
configure
confirmed
conflict
conflicts
confusion
connect
connected
consensus
consider
considered
consistent
constraints
constructive
consultation
consultations
contact
contain
contains
content
contents
contest
contests
context
continue
contribute
contributions
contributor
contributors
conversation
conversations
conversion
convert
converted
cooperation
coordinate
coordination
coordinator
copy
copyright
corbyn
core
correct
corresponding
cortez
cost
could
counter
countries
country
cover
covering
crc
create
created
creating
creation
creative
credo
criteria
critical
cross
cruz
css
cuisine
cultural
culture
cultures
current
currently
d
da
daily
dancers
dances
data
database
databases
date
dates
david
day
days
de
deadline
dear
deaths
dec
december
decide
decided
decision
decisions
default
degree
degruyter
del
delete
deleted
deletion
delivered
delivery
denny
department
deploy
deployed
deploying
deployment
deployments
des
description
descriptions
design
designed
desktop
detailed
details
determine
determined
deutschland
develop
developed
developer
developers
development
devices
dia
dialog
didn
diff
differ
different
difficult
digital
direct
direction
directly
disable
disagree
disaster
discovery
discuss
discussion
discussions
display
displayed
disruption
dissemination
distribute
distributed
distributes
distribution
diverse
diversity
do
document
documentation
documents
does
doesn
dollars
don
donald
donation
donations
done
donors
dorset
down
dozens
draft
drafting
drawing
dropped
du
due
during
e
each
earley
earlier
early
earth
easier
easily
easy
ebook
ebooks
ebsco
echo
edit
editathon
editing
edition
editions
editor
editors
edits
edt
education
effects
effekt
effort
either
ekvana
elected
election
elections
electric
eligibility
eligible
elitre
else
elsevier
email
en
enable
enabled
enabling
encounter
encourage
encouraged
encyclopedia
encyclopedias
end
ended
ending
ends
enforce
enforceable
enforcement
engage
engagement
engineering
english
enhance
enjoy
enriching
ensure
entire
entities
environment
equity
erfalasuat
error
errors
es
espan
especially
esperanto
essential
est
et
etc
europe
eva
evaluate
evaluated
evaluation
evalwikimediaorg
even
event
events
eventually
every
everybody
everyone
everything
example
examples
except
excepting
excited
excluded
executive
exhibit
exist
existing
expand
expanded
expanding
expansions
expect
expected
expenses
experience
experienced
experiences
experiment
experimental
experiments
expertise
explorer
extended
extension
eye
f
facilitators
factor
fair
fairy
falsely
familiar
family
faq
far
farsi
faster
fdc
feature
featured
features
feb
february
feedback
feel
fees
fellow
feminism
festivals
few
fewer
file
fileexporter
fileimporter
files
fill
filled
filter
final
finally
financial
find
findings
finnish
first
five
fix
fixed
flag
flood
flow
fluent
focus
focused
folders
folk
folklore
follow
followed
following
follows
font
fonts
for
force
foresee
forget
form
format
formats
formatting
former
formerly
forum
forward
found
foundation
fountain
four
fr
frameless
framework
franc
france
francis
francisco
frank
free
freezes
french
frequent
friday
friendly
from
front
fulfill
full
function
functionality
functions
fund
fundamental
funding
fundraiser
fundraising
funds
further
future
fuzzy
g
gadget
gadgets
gale
galicia
game
games
gap
gather
gender
general
generally
george
german
germany
get
getting
gif
git
give
given
giving
gje
global
globally
globe
go
goal
goals
god
going
good
google
gov
governance
governing
government
grant
granted
granting
grants
graphics
grateful
great
greatly
greetings
gregory
grfc
group
groups
grow
guarantee
guard
guide
guidelines
guillaume
guinea
h
had
haffuminngat
hamna
hand
handle
handling
hangout
haniani
hapkuat
happen
happening
happens
happy
harassment
has
havaangit
have
haven
having
he
head
header
health
healthy
hear
heard
hearing
hebrew
hedwig
held
hello
help
helped
helpful
helping
helps
here
heritage
hesitate
hey
hi
hidden
hide
high
highbeam
highlighting
highlights
highly
hikumi
historia
historians
historically
histories
history
hivuani
hiw
holbrook
hold
home
hope
host
hosted
hosting
hour
hours
hovercards
how
however
html
http
https
hub
hubs
huli
human
humanities
humbly
hunt
hunting
i
ici
icon
id
idea
idealab
ideas
identified
ieg
if
ii
iigataivitsaq
il
ilaani
ilamingnit
ilinniaqtuliriniq
iluani
ilusiq
image
images
imagine
immense
impact
implement
implementation
implemented
implementing
import
important
improve
improved
improvements
improving
in
inactive
inactivity
include
included
includes
including
inclusive
increase
increased
increases
indefinitely
independent
index
individual
individuals
indonesia
info
infobox
infoboxes
inform
information
informed
infrastructure
ingirrajjutit
inhabitants
initial
initially
initiative
input
inspire
instead
institute
instructions
integrated
intended
interact
interest
interested
interesting
interface
interlanguage
international
internet
interpretation
intervention
interviews
interwiki
into
introduce
introduction
intuitive
inuinnainut
inuinnait
inuit
inuktitut
inuulisaut
investigates
investigations
invitation
invite
invited
invites
inviting
involved
involvement
ios
ip
ipv
iqaluit
iqaluk
iqalukhiurniq
iqalukpiit
iqaluktuumi
iqaluktuuq
iqalut
irc
is
isn
issue
issues
ist
isuma
it
italian
italy
item
items
its
itself
ittiniqsiutuq
iu
j
james
jan
january
javascript
jenner
jethrobt
jobs
joe
johan
johanna
join
joining
journal
journals
jpg
js
jst
jstor
julai
july
june
juni
just
k
kakivak
kalaallisut
kalaallit
kanata
katie
keegan
keep
keeping
kept
key
kind
kindly
king
kitikmeot
kitikmeotheritage
kiuqattautiniit
km
know
knowledge
known
koihok
kurier
l
la
lack
lacroix
lake
land
language
languages
large
larger
largest
las
lasso
last
lasts
late
later
latest
latin
launch
launched
law
le
lea
lead
leadership
leading
learn
learned
learning
least
leave
leaving
left
legacy
legal
length
les
less
let
lets
letter
letters
level
levels
li
liaison
library
life
like
likely
limitations
limited
lin
line
linegrey
link
linked
links
list
listed
lists
lit
literature
little
live
ll
ller
loaded
loading
local
localization
localize
locally
location
log
logged
login
logo
logos
long
longer
look
looking
looks
lost
lot
love
loves
low
lt
lua
lydia
m
ma
made
magazine
magazines
mail
mailing
main
mainly
maintain
maintenance
major
make
makes
making
manage
management
manager
manages
manrial
manual
manually
many
mapframe
maps
mar
march
mari
mark
marks
martin
mass
massive
massmessage
massmessages
material
materials
matter
mauer
maurits
mauritsbot
may
maybe
mc
mcdc
mdennis
me
mean
means
meant
meantime
media
mediawiki
medical
mediterranean
medium
meet
meeting
meetings
melanoleuca
member
members
mentioned
message
messages
meta
metawiki
methods
mexico
mi
mianiripluti
michael
middle
might
migrate
migration
miksaanut
military
million
minimize
minutes
missing
mission
mnadzikiewicz
mo
mobile
mock
mockups
mode
models
modern
modifying
moeda
monday
monitor
monitoring
monobook
month
monthly
months
monuments
moon
more
moses
most
move
moved
movement
moving
mp
ms
msg
mu
much
multi
multilingual
multimedia
multiple
muse
music
musicians
must
mw
my
mylanguage
mythology
n
na
name
named
names
namespace
naming
nangiqpugu
nanminigiyangit
national
native
natsialiut
nattiq
nattiup
nature
naulaqtuut
navigate
nd
near
nearly
necessarily
necessary
need
needed
needs
neutral
new
newcomers
newest
news
newsletter
newspaper
newspaperarchive
newspapers
next
ng
nicole
nikhigaut
niqait
niqi
no
nobelbot
nominations
non
none
normal
normally
north
norway
nos
not
note
notes
notice
notification
notifications
notified
notify
nov
november
now
number
nuna
nunaqaqqaaqsimajut
nunavut
nuvimpuri
nuvua
nzst
o
objections
objective
oc
ocaasi
ocasio
october
of
off
offer
offered
offering
office
official
offline
often
ogg
ok
okalik
ol
old
older
ombuds
ombudsperson
on
once
one
ones
ongoing
online
only
open
opens
operation
operations
operator
opinion
opinions
opportunities
opportunity
oppose
opt
opted
optional
options
or
oral
order
org
organization
organize
organized
organizing
original
originally
other
others
otherwise
otrs
our
out
outdated
outreach
outside
over
oversight
oversights
overview
owl
own
p
pa
package
page
pages
pageviews
paid
panel
parameters
parser
part
partial
participants
participate
participated
participating
participation
particular
particularly
parties
partners
partnerships
parts
password
passwords
past
pathways
patrick
paul
paumier
pdf
pdt
people
per
perform
performance
period
permission
permissions
person
personal
phabricator
phase
phases
philippe
photo
photographic
photography
photos
php
picture
pictures
pieces
pilot
ping
pintscher
pirsquared
piruqtuq
piruqtusajaq
pitquhiat
place
places
plan
planned
planning
plans
platform
platforms
plays
please
pleased
plummer
plus
png
point
points
policies
policy
poll
population
popups
portal
porter
portuguese
position
positions
positive
possible
post
posted
posting
postponed
potential
potentially
pour
powerful
powers
practice
practices
pre
prefer
preference
preferences
prepare
prepared
preparing
present
presentation
press
preview
previews
previous
previously
primarily
primary
principles
print
prior
prioritize
privacy
private
privileged
privileges
prizes
probably
problem
problems
proceed
process
processes
product
production
professional
profit
program
programming
programs
progress
project
projects
promote
proposal
proposals
propose
proposed
protect
protected
protection
prototype
provide
provided
provides
providing
ps
public
publications
publish
published
publisher
publishers
publishes
publishing
pump
pumps
purpose
purposes
put
px
python
pywikibot
pywikipedia
pywikipediabot
q
qalipaataa
qangaraalungmi
qanuiliuqtauqattarnikunik
qanuq
qaujisarniq
qimirruat
qinmiit
quality
quarterly
queer
questia
question
questions
quick
quickly
quiddity
r
raise
raised
range
ranges
rather
ratification
rd
re
reach
read
readability
readers
reading
ready
reagan
real
really
reasons
receive
received
receives
recent
recently
recognize
recommend
recommendations
recommended
record
recorded
recruiting
rect
red
redirect
reduce
reference
references
regarding
regards
region
regional
regions
registered
registration
regular
relate
related
release
released
relevant
reliable
reliably
religion
remain
remaining
remember
reminder
removal
remove
removed
removing
rename
renaming
rental
report
reports
repository
represent
representatives
represented
request
requested
requesting
requests
require
required
requirements
requires
research
resolution
resources
respond
responded
responsible
restore
result
results
retain
retrieve
revert
reverting
reverts
review
reviewed
reviewing
reviews
revised
revision
revisions
revisionslider
rfc
rgb
right
rights
river
rock
rogers
role
roles
roll
rollback
rolled
rolling
round
roundtable
royal
rschen
ru
rudit
rules
rulings
run
runa
running
russian
s
sa
safe
safety
sait
same
san
sandbox
sanders
save
says
scale
schedule
scheduled
scholarly
scholarship
scholarships
science
sciences
scientific
scope
screen
screenshot
script
scripts
scroll
se
sea
search
searches
searching
seats
second
secondary
section
sections
securepoll
security
see
seeing
seeking
seeks
seen
select
selected
selecting
selection
selector
self
semi
send
sending
sent
separate
september
series
serve
server
service
serving
session
sessions
set
setting
seven
several
sgrabarczuk
share
shared
shares
sharing
shift
shirt
short
shortcuts
shorter
should
shouldn
show
shown
si
sidebar
sign
signed
signup
signups
sila
similar
simple
since
sincerely
singers
single
sister
site
sites
sitewide
sitimpuri
situation
six
size
skills
skin
skins
slider
slower
slowly
small
smaller
so
social
society
software
some
someone
something
sometimes
somewhere
soon
sorry
sought
sound
source
sources
south
space
spain
spam
spanish
speak
special
specific
specifically
speech
speed
speedy
spi
spread
sr
st
stadt
staff
stand
standard
standards
star
start
started
starting
starts
state
statement
statements
states
static
statistics
status
stay
step
stephen
steps
steward
stewards
still
stockholm
stop
stopped
store
stored
stories
strategic
strategy
street
strodt
strong
structure
structured
stub
studies
style
styles
subject
subjects
submission
submit
submitted
submitting
subscribe
subscribed
succeed
successful
such
suggest
suggested
suggester
suggestions
sul
summaries
summarizes
summary
summit
support
supported
supporting
supports
sure
survey
sustainability
sustainable
sutherland
sw
switch
syllabics
symbol
sync
syncing
syntax
sysop
sysoppings
sysops
system
t
ta
tab
table
tahapkuat
taimaa
take
taken
taking
takiyaaqtumik
tales
talk
talking
talvangaanit
tamaat
tamainnut
taqsaq
target
task
tasks
tasukaqpaa
taylor
te
tea
team
teams
tech
technical
technology
tell
template
templates
templatestyles
temporarily
temporary
term
terms
territory
test
tested
testing
tests
text
tgr
th
than
thank
thanks
that
the
thee
their
them
thematic
theme
themes
themselves
then
there
therefore
these
they
things
think
thinking
third
this
thogo
those
though
thought
thoughts
thousands
three
through
throughout
thumb
thumbnail
thumbnails
thursday
ti
ticket
tied
till
time
timeline
times
tisimpuri
titiqqatigut
title
titles
tjmoel
to
today
together
tomorrow
ton
too
tool
tools
top
topic
topics
total
touch
towards
tr
track
tracks
trademark
traditional
traffic
transforming
translate
translated
translates
translatewiki
translathon
translating
translation
translations
translators
transparent
travel
tree
trizek
true
trump
trust
trusted
trustee
trustees
try
tu
tuesday
tuktup
tuktut
tuniit
turkish
turn
turned
turning
tv
twitter
twl
two
type
types
typography
u
ublumi
ucoc
ucocproject
uk
ukiumi
ukuningat
uls
ultimate
un
unalu
unblock
under
understand
understanding
une
unexpected
unfortunately
united
universal
university
unless
unregistered
until
up
upcoming
update
updated
updates
upjakpuq
upload
uploaded
uploads
uploadwizard
upright
urgent
url
us
usa
usability
usage
usd
use
used
useful
user
username
usernames
users
uses
using
usual
usually
utc
uu
uugaqhiut
uukturainiq
uumingat
uvani
v
valparai
valparaiso
valuable
value
values
vandalism
various
varnent
varnum
ve
vector
vegas
version
versions
very
via
video
videos
view
viewer
viewing
views
village
violations
virginia
virtual
visible
visit
visual
visualeditor
voice
volunteer
volunteering
volunteers
vom
von
vote
voted
voter
voters
votes
voting
w
wait
waiting
wales
want
wanted
wanting
wants
warmly
warriors
was
washington
watch
watchlist
watchlists
way
ways
we
wear
web
webfonts
website
websites
wednesday
week
weekly
weeks
welcome
well
wenning
were
what
whatamidoing
whatever
when
where
whether
which
while
white
who
whole
why
wide
wider
wiki
wikidata
wikieval
wikifunctions
wikimania
wikimedia
wikimedians
wikipe
wikipedia
wikipedians
wikipedias
wikis
wikitech
wikitext
will
willing
win
winners
wish
wishes
wishlist
witch
witches
with
within
without
wmde
wmf
women
won
woodard
word
words
work
worked
working
works
world
would
wp
wpwp
wright
write
writing
written
wrong
www
x
xeno
y
yana
year
years
yes
yet
york
you
your
yumi
z
zealand
zh
zone
zones
zoo
zoom
zoos
{
|
}

¡
¢
©
«
®
°
¶
·
»
¿
×
÷
ł
ɫ
ˈ
ː
̀
́
̂
̃
̄
̆
̇
̈
̊
̌
̣
̦
̧
̨
̵
π
на
о
я
٨
٩
ं
द
न
भ
ष
ह
ा
ि
ी
्
ং
ট
ত
ন
ব
য
র
ল
়
া
ি
ু
্
ಂ
ಈ
ದ
ನ
ಲ
ಸ
ಿ
ು
ೆ
್
ೕ
ക
ഞ
ട
ഡ
ത
പ
യ
ല
വ
ി
ീ
ു
െ
േ
്
อ
ี
่
้
ᐂᒌᒧᒦᓇ
ᐃ
ᐃᐅᕐᒃ
ᐃᐆᕈᑉ
ᐃᑎᐊᔪᑦ
ᐃᑎᓕᐊᓐ
ᐃᑎᖅ
ᐃᑕᓕ
ᐃᑕᓕᒥᑦ
ᐃᑦᑎᓂᖅᓯᐅᑐᖅ
ᐃᑦᓯᕕᒻᒥᐅᓯᖅᐹ
ᐃᑭᐊᖅ
ᐃᑯᐊᑑᕐ
ᐃᑳᕈ
ᐃᒡᓗ
ᐃᒡᔪᒃ
ᐃᒥᐊᓗᒃ
ᐃᒥᒐᖅ
ᐃᒪᐅᑉ
ᐃᒪᔪᑦ
ᐃᒪᖅ
ᐃᒫᓗᒃ
ᐃᒻᒧᒃ
ᐃᓂᖃᖅᑐᖅ
ᐃᓄᐃᑦ
ᐃᓄᐃᓐᓇᖅᑐᓐ
ᐃᓄᐃᕈᑎᕚ
ᐃᓄᐊᖅᓯᔪᒥᑦ
ᐃᓄᒃ
ᐃᓄᒃᐸᓱᒡᔪᐃᑦ
ᐃᓄᒃᐸᓱᒡᔪᒃ
ᐃᓄᒃᐸᓱᒡᔪᖕᓂᒃ
ᐃᓄᒃᑎᑐᑦ
ᐃᓄᒃᑕᐅᑦ
ᐃᓄᒃᓱᒃ
ᐃᓄᓕᒫᓂᑦ
ᐃᓄᕕᐊᓗᐃᑦ
ᐃᓄᖁᑎ
ᐃᓅᓕᒃᓯᔩᑦ
ᐃᓅᓕᓴᐅᑦ
ᐃᓅᓕᖅᐳᖅ
ᐃᓅᓚᐅᖅᓯᒪᔪᖅ
ᐃᓅᔨᖓᔪᑦ
ᐃᓅᕗᖅ
ᐃᓅᖃᑎᒌᑦ
ᐃᓐᓚᓐᑦ
ᐃᓕᓐᓂᐊᕈᑎᒃᓴᓕᐅᕐᕕᒃ
ᐃᓕᓐᓂᐊᕈᑎᒋᕚ
ᐃᓕᓐᓂᐊᕐᓂᓕᕆᔨᒃᑯᑦ
ᐃᓕᓐᓂᐊᖅᑐᓕᕆᓂᖅ
ᐃᓕᓐᓂᐊᖅᑐᓕᕆᔨᖏᑦᑕ
ᐃᓕᓴᐅᑎᒃ
ᐃᓕᖅᑯᓯᖃᑎᒌᒃᑐᑦ
ᐃᓖᓴ
ᐃᓗ
ᐃᓗᐊ
ᐃᓗᐊᓂ
ᐃᓗᓕᖃᖅᖢᓂ
ᐃᓗᓪᓕᑑᑎᕚ
ᐃᓗᓯᖅ
ᐃᓚ
ᐃᓚᐅᓪᓗᓂ
ᐃᓚᐅᕈᑎᒃᓴᓕᕆᓂᖅ
ᐃᓚᒋᔭᐅᓂᖓᓂᒃ
ᐃᓚᒌᑦ
ᐃᓚᓕᐅᑎᓂᖏᑦ
ᐃᓚᖓᑦ
ᐃᓪᓗ
ᐃᓪᓗᒧᑦ
ᐃᓯᓚᐅᖅᑐᖓ
ᐃᓱᒪᐃᓐᓈᖅ
ᐃᓱᒪᒋᔭᐅᖕᒥᔪᖅ
ᐃᓱᒪᓕᐅᕐᓂᖅ
ᐃᓱᕋᖅᑐᓂᖅ
ᐃᔅᑑᓂᐊ
ᐃᔨ
ᐃᕉᒃ
ᐃᕐᓚᓐᑦ
ᐃᕚᖅᐳᖅ
ᐃᖁᐆᕐ
ᐃᖃᓗᐃᑦ
ᐃᖃᓗᑉᐱᒃ
ᐃᖃᓗᒃ
ᐃᖃᓗᖕᓂ
ᐃᖏᕐᕋᔾᔪᑎᑦ
ᐄ
ᐄᑕᓖ
ᐄᒃ
ᐄᒐᑕᐃᕕᑦᓴᖅ
ᐄᓅᓯᐊ
ᐄᓐᖃ
ᐄᓚᓄᐃᔅ
ᐄᔅᓚᓐᑦ
ᐄᕙ
ᐅ
ᐅᐃᑭ
ᐅᐃᑭᐱᑎᐊ
ᐅᐃᒍᐃᕐᒥᐅᖅ
ᐅᐃᕖᑎᑐᑦ
ᐅᐊᖕᓇᖓᓂ
ᐅᐱᕐᓐᖄᖅ
ᐅᐹᒪ
ᐅᐹᔪᑦ
ᐅᑉᔭᒃᐳᖅ
ᐅᑎᒃ
ᐅᑦᓱᒃ
ᐅᑭᐅᖅ
ᐅᑭᐅᖅᑕᖅᑐᒥ
ᐅᑭᐅᖅᑕᖅᑑᑉ
ᐅᑯᐊ
ᐅᑲᓕᐊᑦᓯᐊᖅ
ᐅᑲᓕᖅ
ᐅᒃᐱᒃ
ᐅᒃᑐᐳᕆ
ᐅᒃᑯᓯᒃ
ᐅᒋᑦ
ᐅᒥᐊᕐᔪᐊᖅ
ᐅᒥᐊᖅ
ᐅᓄᕐᓂᖅ
ᐅᓇ
ᐅᓈᖅ
ᐅᓐᓂᖅᑐᖅ
ᐅᓛᓴ
ᐅᓛᓴᑐᑦ
ᐅᓪᓗᒋᐊᒃ
ᐅᓪᓗᒥ
ᐅᓪᓗᕆᐊᖅ
ᐅᓱᒃ
ᐅᔭᕋᒃ
ᐅᕙᓂ
ᐅᕝᕙᓘᓐᓃᑦ
ᐅᕿᑦᑐᖅ
ᐅᖃᐅᑎᒋᔭᐅᔪᒥᒃ
ᐅᖃᐅᑎᓂᒃ
ᐅᖃᐅᑏᑦ
ᐅᖃᐅᑕᐅᔪᖅ
ᐅᖃᐅᓯᓂ
ᐅᖃᐅᓯᕐᒥᒃ
ᐅᖃᐅᓯᖃᕐᒪᑦ
ᐅᖃᐅᓯᖅ
ᐅᖃᐅᓯᖏᑦ
ᐅᖃᐅᔭᖏᑦ
ᐅᖃᓕᒫᒐᕐᔪᐊᖅ
ᐅᖃᓕᒫᕐᕕᒃ
ᐅᖃᕐᕕᐅᑎᔪᑦ
ᐅᖃᖅᑐᖅ
ᐅᖃᖅᑕᐅᔪᑦ
ᐅᖅᓯᖅ
ᐅᖓᑖᓂ
ᐅᖓᕙ
ᐆ
ᐆᐃᓪᔅ
ᐆᑉᐹ
ᐆᑉᓴᓚ
ᐆᑦᑑᑎᒋᔭᑦᑎᓐᓂ
ᐆᑳᓛᓲᒫ
ᐆᒃᑐᕋᐃᓂᖅ
ᐆᒥᓱᑦᑐᖅ
ᐆᒧᖓ
ᐆᒪᔅᓱᓯᖃᕐᑐᓕᕆᓂᖅ
ᐆᒪᔪᐃᑦ
ᐆᒪᔪᖅ
ᐆᕇᕇᓐ
ᐊ
ᐊᐃᐳᕆᓪ
ᐊᐃᔅᓛᓐ
ᐊᐅᑦᓯᓇᖅᑐᖅ
ᐊᐅᒍᔅ
ᐊᐅᓚᑦᑎᔩᑦ
ᐊᐅᓚᑦᓯᔨ
ᐊᐅᓚᔪᓐᓇᐅᑦ
ᐊᐅᓪᓚᕐᓂᐊᖅᑐᑦ
ᐊᐅᔭᖅ
ᐊᐱᖅᓱᐹ
ᐊᐳᑦ
ᐊᑉᒐᓂᔅᑕᓐ
ᐊᑎᖅᐳᖅ
ᐊᑐᐃᓐᓇᓯᕗᖅ
ᐊᑐᕚ
ᐊᑐᖅᑕᐅᓂᑯᐃᑦ
ᐊᑑᑎᖏᑕᓗ
ᐊᑕᐅᓯᐅᖃᑎᒌᓄᑦ
ᐊᑕᐅᓯᖅ
ᐊᑕᐅᓯᖅᓯᐅᑦ
ᐊᑕᖐᓪᓗᓂ
ᐊᑖᓂ
ᐊᑦᓛᓐᑕ
ᐊᑦᓴᓗᐊᓕᒃ
ᐊᑭᐊᓂ
ᐊᑭᓐᓇᑰᖅᑐᖅ
ᐊᑭᕈᐊᕈᖅ
ᐊᑯᑕᖅ
ᐊᑯᑭᑦᑐᑦ
ᐊᑯᓐᓂᖓᓂ
ᐊᑯᓐᓂᖓᓐᓂ
ᐊᑯᖅ
ᐊᒡᒐᒃ
ᐊᒥᐊᓕᑲ
ᐊᒥᐊᓕᑲᐅᑉ
ᐊᒥᐊᓕᒐᐃᑦ
ᐊᒥᓱᑦ
ᐊᒥᓲᓂᖏᑦ
ᐊᒥᖅ
ᐊᒻᒪ
ᐊᒻᒪᓗ
ᐊᒻᒪᓗᑦᑕᐅᖅ
ᐊᓂᖅᐸᓈᖅᑑᔭᖅᑐᖅ
ᐊᓂᖅᓵᑕᖅᐳᖅ
ᐊᓂᖅᓵᖅᑕᖅ
ᐊᓄᕆ
ᐊᓈᓇ
ᐊᓐᑑᕐᕋ
ᐊᓐᓂᐊᒥ
ᐊᓐᓄᕌᓂᒃ
ᐊᓪᐹᓂᐊ
ᐊᓪᓚᖁᑎᒃᑲ
ᐊᓪᓛᑦ
ᐊᓯᐊᙳᑐᖅ
ᐊᓯᖏᑦ
ᐊᓯᖏᓐᓂᒃ
ᐊᓰᐊ
ᐊᓱᐃᓛᒃ
ᐊᓲᓇ
ᐊᔅᑦᕌᓕᐊ
ᐊᔾᔨᒌᙱᑦᑐᓂᒃ
ᐊᔾᔨᖃᓪᓗᐊᑕᖅᖢᓂᑦ
ᐊᕐᒋᓐᑏᓇ
ᐊᕐᓇᐃᑦ
ᐊᕐᓇᑐᖅᐳᖅ
ᐊᕐᓇᖅ
ᐊᕐᓕᐊᑐᖅ
ᐊᕐᕌᒍᐃᑦ
ᐊᕐᕌᒍᑕᒫᑦ
ᐊᕐᕌᒍᓄᑦ
ᐊᕐᕕᓂᓖᑦ
ᐊᕕᙵᖅ
ᐊᕝᕙᖅ
ᐊᕿᑦᑐᖅ
ᐊᖁᑎᐅᔪᑦ
ᐊᖏᐋᕐᓂᖅ
ᐊᖏᓂᖅᐹᖑᓪᓗᓂ
ᐊᖏᓂᖓ
ᐊᖏᓚᖅ
ᐊᖏᓛᖑᓪᓗᓂᓗ
ᐊᖏᔪᖅ
ᐊᖑᑎ
ᐊᖑᑎᐅᕙᓪᓚᐳᖅ
ᐊᖑᑦ
ᐊᖓᔪᖅᑳᕐᔪᐊᖅ
ᐊᖓᔮᕐᓇᖅᑐᖅ
ᐋᒪᐃᔪᖅ
ᐋᓐ
ᐋᓐᑎᐅᕆᔪ
ᐋᓐᓂᐊᑦ
ᐋᓐᓂᐊᕐᕕᒃ
ᐋᓯᕙᒃ
ᐋᓯᕙᖅ
ᐋᕆᐊᒃ
ᐋᕐᓗᒃ
ᐦᐃᓐᑏ
ᐦᐋᓐᓱᓐ
ᐱ
ᐱᐅᓕᑦᓯᔨ
ᐱᑕᖃᕗᒃ
ᐱᑦᓯᐅᓛᖅ
ᐱᒋᕗᖅ
ᐱᒋᕚ
ᐱᓕᕆᔪᒥᒃ
ᐱᓗᐊᖅᑐᒥᒃ
ᐱᓪᓗᐊᕆᕚ
ᐱᓯᕚ
ᐱᓱᒃᑎ
ᐱᓲᑦ
ᐱᔪᖕᓇᖅᑐᖅ
ᐱᔾᔪᑎᒋᓪᓗᒍ
ᐱᕈᖅᑐᓴᔭᖅ
ᐱᕈᖅᑐᖅ
ᐱᕈᖅᓯᐊᖅ
ᐱᕉ
ᐱᕐᓖᓐ
ᐱᕐᖄᐹ
ᐱᖅ
ᐱᖓᓐᓇᖅᐸᓯᐊᓂ
ᐱᖓᓱᑦ
ᐱᖓᓱᓂᒃ
ᐱᙴᑎᑉᐹ
ᐲᓪᒋ
ᐳᓚᓐᑦ
ᐸᐃᔩᖕ
ᐸᑭᔅᑕᓐ
ᐸᒻᒥᐅᑐᑦ
ᐸᓪᓗᓯᖓᔪᖅ
ᐸᓯᕕᒃ
ᐹᒻᐳ
ᐹᓐᑕ
ᐹᓐᑕᒥᒃ
ᐹᓐᑕᔅ
ᐹᓐᔅ
ᐹᓪ
ᐹᓯᔅᓱᑎᔅᓴᑦ
ᑌ
ᑎᑎᕋᐅᓯᖅ
ᑎᑎᕋᐅᓯᖅᑐᖅ
ᑎᑎᕋᕐᕕᒋᕚ
ᑎᑎᕋᕐᕕᖓ
ᑎᑎᕋᖅᓯᒪᔪᑦ
ᑎᑎᖅᑲᑎᒍᑦ
ᑎᑭᓪᓗᒍ
ᑎᑭᖦᖢᒍ
ᑎᒃᓯᖅᐹ
ᑎᒍ
ᑎᒍᕚ
ᑎᒥ
ᑎᒻᒥᕗᖅ
ᑎᓯᒻᐳᕆ
ᑎᓴᒪᓂᒃ
ᑎᕆᒐᓂᐊᖅ
ᑎᖕᒥᐊᖅ
ᑏ
ᑏᑎᕉ
ᑐᐱᙳᐊᖅ
ᑐᑭᐊ
ᑐᑭᓯᑎᑦᓯᒐᓱᑦᑐᖅ
ᑐᑭᖏᑦ
ᑐᒃᑐ
ᑐᒃᑐᑦ
ᑐᓄᕕᐊᖅ
ᑐᖑᔪᖅᑐᖅ
ᑐᖓ
ᑑ
ᑑᑭᐅ
ᑑᕐᑭ
ᑕ
ᑕᐃᑲᓂ
ᑕᐃᒃᑯᐊ
ᑕᐃᒪᓐᓇ
ᑕᐃᒪᙵᑦ
ᑕᐃᒪᙵᓂᑦ
ᑕᐃᔭᐅᓂᖅ
ᑕᐅᑦᑐᖏᓐᓂᒃ
ᑕᑦᕿᖅᓯᖅᑐᖅ
ᑕᑯᑦᓱᒍᓱᑉᐳᖅ
ᑕᑯᒥᓇᖅᓕᐅᖅᑎᑦ
ᑕᑯᓴᖅᐹ
ᑕᒃᕿᒃ
ᑕᒪᑐᒪᓂ
ᑕᒪᒃᑯᐊ
ᑕᒪᓐᓇ
ᑕᒪᕐᒥᒃ
ᑕᓚᕖᓴᓇᓪᓗ
ᑕᓪᓕᒪᑦ
ᑕᓪᓗᕈᑎᐅᑉ
ᑕᓯᐅᔭᕐᔪᐊᖅ
ᑕᕆᐅᑉ
ᑕᕆᐅᖅ
ᑕᕆᐅᖓᓂ
ᑕᖅᑭᖅ
ᑕᖅᓴᓕᖅᐹ
ᑕᖅᓴᖅ
ᑕᖅᓴᖓ
ᑖᑰᑖ
ᑖᒃᑎ
ᑖᒃᑯᐊ
ᑖᓐᓇ
ᑦ
ᑨᑊᐹᑏᑦᒈ
ᑭ
ᑭᑐᑦ
ᑭᒃᑯᑐᐃᓐᓇᕐᓄᑦ
ᑭᒃᑯᑦ
ᑭᒍᑎᓕᕆᔨ
ᑭᒡᒐᕕᒃ
ᑭᒻᒥᐊᒐᖅ
ᑭᒻᒥᓇᐅᔭᖅ
ᑭᒻᒧᑦ
ᑭᓗᒍᕌᒻ
ᑭᓪᓗᒧᑦ
ᑭᓯᐊᓂ
ᑭᓯᑦᓯᓯᖕᖑᕐᓗᒋᑦ
ᑭᓱᑐᐃᓐᓇᕐᓂᒃ
ᑭᕕᐅᒃ
ᑭᖑᓂᑦᑎᐊᖓᒍᑦ
ᑭᖑᓪᓕᖅ
ᑮᓱᐊ
ᑯᐸᐃᒃ
ᑯᑦ
ᑯᓂᑉᐳᖅ
ᑯᕆᐊᑎᑐᑦ
ᑰᒃ
ᑰᓛ
ᑰᔾᔪᐊᖅ
ᑲᐅ
ᑲᑐᔾᔨᖃᑎᒌᑦ
ᑲᓇᑕ
ᑲᓇᑕᐅᑉ
ᑲᓇᑕᒥ
ᑲᓇᖕᓇᖅᐸᓯᐊᓂ
ᑲᓪᓕᑕᖅ
ᑲᔪᖅ
ᑲᔪᖅᑐᖅ
ᑲᖏᐊᓂ
ᑳᕉᓖᓈ
ᒃ
ᒌ
ᒐᕙᒪᑐᖃᒃᑯᑦ
ᒐᕙᒪᒃᑯᑦ
ᒐᕙᒪᖃᕐᕕᐅᔪᖅ
ᒥ
ᒥᐊᓂᕆᑉᓗᑎ
ᒥᐊᓕᒐᐃᑦ
ᒥᐱᒋ
ᒥᑦ
ᒥᑦᓯ
ᒥᑭᑦᑐᖅ
ᒥᒃ
ᒥᒃᓵᓂ
ᒥᓂ
ᒥᓂᔅᑕ
ᒥᓕᐊᓐ
ᒥᓗᑦᓱᑳᒐᖅ
ᒥᔅᑐ
ᒥᕐᖑᐃᖅᓯᕐᕕᒃᓴᖅ
ᒥᕗᒃ
ᒥᖅᓱᑎ
ᒦ
ᒦᐆᕐ
ᒦᒃᓰᖂ
ᒦᓰᓰᐲ
ᒦᖀᑦᔩᒃ
ᒧᑦ
ᒧᓪᓐᑕᓪ
ᒧᓪᓐᓕᑭ
ᒧᕆᐊᓪ
ᒨᔅᑯ
ᒪᐃ
ᒪᐃᑯᓪ
ᒪᑉᐱᑕᖅ
ᒪᒡᒎᒃ
ᒪᒪᖅᑐᖅ
ᒪᓂᒍᖅᐹ
ᒪᓂᒍᖅᐹᑦ
ᒪᓂᕋᖅ
ᒪᓕᒐᓕᐅᖅᑎᕐᔪᐊᓄᑦ
ᒪᓕᒡᓗᒋᑦ
ᒪᓪᒧ
ᒪᕐᕉᒃ
ᒪᕐᕉᖕᓂᒃ
ᒫᓐᓇ
ᒫᕐᓯ
ᒻ
ᓂᐅ
ᓂᐱ
ᓂᑮᕋᕐᑑᓯᓯᑦᓯᓃᖅ
ᓂᒃ
ᓂᒋᐊᓂ
ᓂᒋᖅ
ᓂᒋᖅᐸᓯᐊᓂ
ᓂᕐᔪᑎᓂᒃ
ᓂᕐᔪᑦ
ᓂᕿ
ᓂᕿᓂᐅᕕᕐᕕᒃ
ᓃᑉᐊᓐ
ᓄᑕᒐᒃ
ᓄᑕᕋᓛᖅ
ᓄᑖᖅ
ᓄᓇ
ᓄᓇᐅᔪᖅ
ᓄᓇᑖᕐᓂᕐᒧᑦ
ᓄᓇᑦᓯᐊᕗᑦ
ᓄᓇᑦᓯᐊᖅ
ᓄᓇᒥ
ᓄᓇᒥᑦ
ᓄᓇᓕᐸᐅᔭᐃᑦ
ᓄᓇᓕᐸᐅᔭᐅᓪᓗᓂ
ᓄᓇᓕᐸᐅᔭᖅ
ᓄᓇᓕᕆᓂᖅ
ᓄᓇᓕᕐᔪᐊᖑᕗᖅ
ᓄᓇᓖᑦ
ᓄᓇᕐᔪᐊᑉ
ᓄᓇᕐᔪᐊᓕᒫᒥ
ᓄᓇᕐᔪᐊᕐᒥ
ᓄᓇᕕᒃ
ᓄᓇᕗᑦ
ᓄᓇᕗᒻᒥ
ᓄᓇᕗᒻᒥᐅᑦ
ᓄᓇᖃᖅᐳᑦ
ᓄᓇᖃᖅᑐᑦ
ᓄᓇᖃᖅᑳᖅᓯᒪᔪᑦ
ᓄᓇᖓᓐᓂ
ᓄᓇᙳᐊᖅ
ᓄᓈᑦ
ᓄᕕᐱᕆ
ᓄᕕᒻᐳᕆ
ᓄᕗᐊᕐᔪᑯᑖᒥᑦ
ᓄᕗᔭᖅ
ᓄᕙᒡᔪᐊᕐᓇᖅ
ᓅ
ᓇ
ᓇᐃᑦᑐᒥᒃ
ᓇᐹᖅᑐᕕᓂᕐᓂᒃ
ᓇᐹᖅᑐᖃᕈᓐᓇᙱᑦᑐᖅ
ᓇᐹᖅᑐᖃᕐᓂᖅ
ᓇᐹᖅᑐᖅ
ᓇᑦᓯᐊᓕᐅᑦ
ᓇᒧᑐᐃᓐᓇᖅ
ᓇᓂᑦᓯᑰᔭᐃᑦ
ᓇᓂᕙᕋ
ᓇᓄᖅ
ᓇᓪᓕᐊᑐᐃᓐᓇᖅ
ᓇᖏᖅᐳᒍ
ᓈᓕᖅᑐᑦ
ᓈᓚᐅᑎᑦ
ᓈᓴᐅᑦ
ᓈᓴᐅᓯᕆᓂᓗᒃᑖᖅ
ᓈᕌᔩᖅ
ᓕᐋᑐᕙ
ᓯᐅᕋᖅ
ᓯᐸᐃᓂᑎᑐᑦ
ᓯᐸᐃᓐ
ᓯᑎᒻᐳᕆ
ᓯᑦᓂ
ᓯᑮᑐ
ᓯᓂᖃᕈᓐᓇᖅᐳᑦ
ᓯᓂᖃᖅᐳᖅ
ᓯᓂᖏᑦ
ᓯᓂᖓ
ᓯᓕᙴᑎᕚ
ᓯᓚ
ᓯᓚᐅᕐᖏᖓ
ᓯᓚᑖᓃᑦᑐᑦ
ᓯᓚᑦᑐᖅᓴᕐᕕᒃ
ᓯᓚᓯᐅᕐᓂᖅ
ᓯᓚᕐᔪᐊᒥᐅᑦ
ᓯᕗᓕᐅᖅᐹ
ᓯᕗᓕᖅᑎᖓᑦ
ᓯᕗᓪᓕᖅ
ᓯᕗᓪᓕᖅᐹᖅ
ᓯᕿᓂᖅ
ᓯᖓᐃᑦᔪᑎ
ᓰᓚᓐ
ᓰᓚᓐᒥ
ᓰᕐᓇᖅᑐᖅ
ᓰᖄᑯ
ᓱᐃᑦᓱᓚᓐᒥ
ᓱᑦᖃᐃᐳᖅ
ᓱᑲᓐᓂᖓᓄᑦ
ᓱᑲᖅ
ᓱᓇᑦᓴᖅ
ᓱᓕ
ᓱᓕᐊᖅ
ᓱᓚᑦᑐᖅᓴᕐᕕᒃ
ᓱᖓᖅ
ᓲᕐᓗ
ᓲᖃᐃᒻᒪ
ᓴᐃᒪᑎᖓ
ᓴᐃᒻᒪᑎ
ᓴᐃᓂᓯᑎᑐᑦ
ᓴᐃᓃᓯᒃᑯᑦ
ᓴᐃᓇ
ᓴᐃᓇᒥ
ᓴᐳᒻᒥᕚ
ᓴᓂᓕᐊᖅᑐᖅ
ᓴᓇᕐᕈᑏᑦ
ᓴᔪᑉᐱᓛᕗᖅ
ᓴᕐᕿᐹ
ᓴᕕᒃ
ᓴᕖᑦ
ᓵᓐ
ᔅᑑᒃᓱᓪᒻ
ᔅᕖᑎᓐ
ᔅᕗᓐᔅᑭᑐᑦ
ᔅᕗᕆᑭ
ᔅᕝ
ᔨᐊᓯ
ᔨᒥ
ᔪᓂ
ᔪᓚᐃ
ᔭᐃᔭᓐ
ᔭᓐᓄᐊᓕ
ᔮ
ᔮᒃᓴᓐ
ᔮᒪᓂ
ᔮᓐ
ᕆᒥᐅᓂᑦ
ᕇ
ᕉᒥ
ᕕᐳᐊᕆ
ᕕᓪᓂᐅᔅ
ᕕᕗᐊᕆ
ᕘᓕᓐ
ᕿᑎᖅ
ᕿᑎᖅᐸᓯᐊᓂ
ᕿᑭᖅᑕᐅᑉ
ᕿᑭᖅᑕᓂᑦ
ᕿᑭᖅᑕᓂᒃ
ᕿᑭᖅᑖᓘᑉ
ᕿᒥᕐᕈᐊᑦ
ᕿᒻᒥᓂᒃ
ᕿᒻᒥᓄᑦ
ᕿᒻᒥᖅ
ᕿᒻᒦᑦ
ᕿᓐᓄᐊᔪᐊᖅ
ᕿᓚᐅᑦ
ᕿᓚᒃ
ᕿᓚᓗᒐᖅ
ᕿᕐᓂᖅᑕᖅ
ᕿᖂᔭᖅ
ᕿᖅᑯᐊᖅ
ᕿᖓᖅ
ᕿᖕᒥᖅ
ᖁᐊᔪᖅ
ᖁᖅᓗᕐᓂᖅ
ᖁᖅᓱᖅᑕᒥᑦ
ᖁᖑᔪᖅ
ᖂᖄ
ᖃᐅ
ᖃᐅᔨᒪᔭᐅᓂᖓ
ᖃᐅᔨᓴᕐᓂᖅ
ᖃᐸᒃ
ᖃᑯᒍ
ᖃᓂᒋᔮᓂ
ᖃᓂᒋᔮᓂᑦ
ᖃᓂᖅ
ᖃᓂᙱᑐᒃ
ᖃᓄᐃᑦᑑᓂᖅ
ᖃᓄᐃᓕᐅᖅᑕᐅᖃᑦᑕᕐᓂᑯᓂᒃ
ᖃᓕᐅᔮᖅᐸᐃᑎᑐᑦ
ᖃᓪᓗᓈᑎᑐᑦ
ᖃᓪᓗᓈᑦ
ᖃᓪᓗᓈᖅ
ᖃᔅᓯᒐᓚᖕᓂᑦ
ᖃᕆᑕᐅᔭᐃᑦ
ᖃᕆᑕᐅᔭᐅᑉ
ᖃᕆᑕᐅᔭᕋᓛᖅ
ᖃᕆᑕᖅ
ᖃᕆᓴᐅᔭᒃᑯᑦ
ᖃᕋᓴᐅᔭᖅ
ᖃᖓ
ᖄ
ᖄᖓᓂ
ᖅ
ᖑᑎᓪᓗᒍ
ᖔᖅ
​
‍
‎
–
—
―
‘
’
“
”
•
€
℅
™
↔
↷
∆
−
√
③
④
⑦
☉
☾
☿
♀
♆
♇
⛢
✍
⯓
⺀
⺄
⺆
⺈
⺊
⺌
⺕
⺝
⺸
⺼
⿰
⿱
⿲
⿳
⿴
⿵
⿶
⿷
⿸
⿹
⿺
⿻
。
〢
゚
ア
ケ
コ
ス
タ
チ
ッ
ト
ニ
ホ
マ
メ
モ
ユ
ン
ー
㇁
㇂
㇄
㇇
㇈
㇉
㇓
㐁
㐄
㐅
㐌
㐫
㐬
㐭
㐮
㐱
㑒
㒵
㒸
㒼
㓁
㓞
㔾
㕛
㕣
㖾
㘝
㚅
㚇
㚔
㚘
㝉
㝡
㝴
㝵
㞋
㞢
㞷
㠩
㠭
㠯
㡀
㡭
㡿
㢲
㢴
㣇
㣺
㥯
㪅
㫄
㫐
㫒
㫺
㬅
㬎
㬥
㬰
㲋
㳄
㷠
㸒
㸚
㸦
㼌
㼲
㽞
㿟
䀠
䂞
䍃
䏍
䒑
䖍
䖒
䖝
䖵
䙴
䚻
䜌
䝿
䡛
䧹
䪞
一
丁
丂
七
丄
丅
丆
万
丈
三
上
下
丌
不
与
丏
丐
丑
专
且
丕
世
丘
丙
业
东
丞
丢
丣
两
严
並
丨
丩
个
丫
丬
中
丮
丰
丱
串
丵
丶
丷
丸
丹
为
主
丽
丿
乀
乂
乃
久
乆
乇
么
义
之
乌
乍
乎
乏
乐
乑
乔
乖
乗
乘
乙
乚
乛
乜
九
乞
也
习
乡
乳
乾
亀
亅
了
亇
予
争
事
二
亍
于
亏
亐
云
互
亓
五
井
亘
亚
亜
亞
亟
亠
亡
亢
交
亥
亦
产
亨
亩
享
京
亭
亮
亯
亰
亲
亳
亶
亷
人
亻
亼
亾
仁
今
介
仌
从
仐
仑
仒
仓
仕
他
付
仝
代
令
以
任
企
伊
伏
伐
休
会
伯
但
位
何
佘
余
作
佥
使
來
侈
侌
侖
侯
侵
便
保
俞
信
修
倉
倍
候
倠
備
僉
僕
儿
兀
允
兂
元
兄
充
兆
兇
先
光
兊
克
兌
免
兑
兒
兓
兔
党
兜
兟
入
全
兩
兪
八
公
六
兮
兰
共
关
兵
其
具
典
兹
兼
冀
冂
冃
冄
内
冈
冉
冊
冋
册
再
冎
冏
冐
冒
冓
冖
冗
冘
军
农
冝
冡
冥
冫
冬
冷
几
凡
凢
凵
凶
凷
凸
凹
出
函
凾
刀
刁
刂
刃
刄
刅
分
切
刍
刑
刕
刖
列
刘
则
初
別
利
别
到
制
刺
則
削
剌
前
剡
剽
劉
力
功
加
劦
助
劫
劳
劵
勃
勇
勉
勒
動
務
勞
勤
勹
勺
勻
勾
勿
匀
匂
包
匆
匈
匊
匋
匍
匕
化
北
匚
匝
匡
匪
匱
匸
匹
区
医
匽
匿
區
十
卂
千
卄
卅
卆
升
午
卉
半
卌
华
卑
卒
卓
单
卖
南
卜
卝
卞
占
卡
卢
卣
卤
卦
卩
卪
卬
卯
印
危
即
却
卵
卷
卸
卻
厂
厃
厄
历
厈
厉
厌
厓
厘
厚
原
厤
厥
厨
厭
厲
厶
厷
厸
去
厼
厽
叀
参
參
叅
又
叉
及
友
双
反
叐
发
叒
叔
叕
取
受
叚
叜
叟
口
古
句
另
叩
只
召
可
台
叱
史
右
叵
号
司
叹
吂
各
吅
合
吉
吊
吋
同
名
后
吏
向
吕
君
吝
吞
否
含
启
吳
吴
吹
吾
呂
呆
呈
告
员
呙
周
命
咅
和
咎
咠
咢
咨
咸
咼
哀
品
哉
員
哥
哲
唐
商
啇
問
啚
啬
啻
善
喜
喬
單
喿
嗇
噩
嚴
囊
囗
囘
囙
囚
四
回
囟
因
囧
囬
困
囱
囷
固
国
圂
圅
國
圍
圓
土
圡
圣
圥
在
圭
地
圶
圼
坐
坒
坚
坴
垂
垔
垚
埀
埋
埶
執
基
堂
堅
堆
堇
堯
塞
墨
壘
士
壬
壯
声
壳
壴
壹
壺
壽
夂
处
夅
夆
备
夊
夋
夌
复
夏
夒
夕
外
夗
夘
多
夜
夢
大
夨
天
太
夫
夬
夭
央
失
夲
头
夷
夸
夹
夻
夾
奂
奄
奇
奈
奉
奎
奏
奐
契
奓
奔
奚
奞
奠
奢
奥
奭
女
奴
奻
好
如
妄
妙
妟
妥
妻
妾
姑
委
姜
威
娄
婁
婴
嬰
嬴
子
孑
孔
孕
孖
字
存
孚
孛
孝
孟
季
孤
学
孫
孱
學
宀
宁
宂
它
宅
宇
守
安
宋
完
宏
宓
宗
官
定
宛
宜
宝
客
宣
室
宮
宰
害
家
容
宾
宿
寄
寅
密
富
寒
察
寧
審
寫
寬
寮
寸
对
寺
寻
寽
対
寿
封
尃
射
将
將
專
尉
尊
尋
尌
對
小
少
尒
尓
尔
尖
尗
尚
尞
尢
尣
尤
尧
尨
尭
就
尸
尹
尺
尻
尼
尽
尾
尿
局
居
屈
屋
屎
屏
屑
展
屖
屚
属
屠
屡
屬
屮
屯
屰
山
屵
屾
岁
岂
岑
岡
岩
岳
岸
峯
島
崇
崑
崔
崖
崙
崩
嵬
嶲
巂
巛
川
州
巟
巠
巢
巤
工
左
巧
巨
巩
巫
差
己
已
巳
巴
巷
巸
巽
巾
巿
帀
市
布
希
帚
帛
帝
带
師
席
帶
常
干
平
年
幵
并
幷
幸
幺
幻
幼
幽
幾
广
広
庄
床
底
店
庚
府
度
庫
庭
庶
康
庸
廉
廌
廛
廣
廩
廴
延
廷
建
廾
廿
开
弁
弃
弄
弇
弋
式
弓
弔
引
弗
弘
弜
弟
弥
弦
弱
張
強
强
彊
彌
彎
彐
彑
当
彔
录
彖
彗
彡
形
彥
彦
彧
彭
彳
役
彼
往
待
律
徒
得
徙
從
復
微
徵
心
忄
必
忌
忍
志
忝
忠
忩
快
念
忽
忿
思
怠
急
怱
恆
恒
恩
恭
息
悉
患
悤
悲
悶
惠
惡
惢
愁
愈
意
愛
感
慈
慧
慮
憂
憲
應
戀
戈
戉
戊
戋
戌
戍
戎
成
我
戒
戔
或
戚
戠
戢
截
戲
戶
户
戹
戼
戾
房
所
扁
扇
手
扌
才
打
托
执
承
折
拉
拜
拿
掌
推
提
摩
支
攴
攵
收
攸
改
放
政
敄
敏
敕
敖
敗
敝
敞
敢
散
敦
敫
敬
数
敷
數
斂
文
斉
斊
斗
斤
斥
斩
斬
斯
新
方
於
施
斿
旁
旋
族
无
旡
既
旣
日
旦
旧
旨
早
旬
旱
旲
时
旾
昆
昇
昌
昍
明
昏
易
昔
昗
昜
星
春
昬
是
昱
昴
昷
時
晃
晋
晏
普
景
晶
智
暑
暴
曇
曩
曰
曲
曳
更
曷
書
曹
曼
曾
替
最
朁
會
月
有
朋
服
朔
朕
朗
望
朝
木
朩
未
末
本
札
朮
术
朱
朵
朶
朿
杀
杏
杜
束
条
来
東
杲
杳
松
析
林
枚
果
枝
枲
枼
某
柔
查
柬
柰
柴
栄
栗
桀
桑
桼
梁
條
梟
梨
棘
棠
棥
森
楚
業
楽
榮
樂
樊
欠
次
欣
欮
欲
欶
欽
款
歆
歇
歛
止
正
此
步
武
歨
歪
歮
歯
歰
歲
歴
歷
歸
歹
歺
死
殳
段
殷
殸
殹
殺
殻
殿
毋
毌
母
每
毒
比
毕
毚
毛
毳
氏
氐
民
气
氣
氧
水
氵
氶
氷
永
氺
氾
求
汝
汞
江
沃
沓
沙
沝
泉
法
波
泣
泥
泰
洛
洪
活
派
流
浦
浪
浮
淡
淮
清
渚
渠
湯
滿
漸
火
灬
灭
灰
灵
灷
炅
炎
炏
炗
炙
炭
為
烈
烏
烝
焉
無
焦
焱
然
煞
熊
熏
燕
營
燮
爪
爫
爭
爯
爰
爱
爲
爵
父
爻
爽
爾
爿
片
牙
牚
牛
牜
牟
牢
牧
牪
牽
犀
犬
犭
犮
狂
狄
狊
独
狺
猋
猒
猪
献
獻
玄
率
玉
王
玟
玨
珎
班
琴
瑟
瑩
瓜
瓦
甘
甚
生
産
用
甫
甬
田
由
甲
申
电
甶
男
甸
甹
画
甾
畀
界
畏
畐
留
畜
畟
畢
畧
畨
番
畫
異
畱
當
畺
畾
疊
疋
疌
疑
疒
疾
癶
癸
癹
登
發
白
百
皀
皃
的
皆
皇
皋
皐
皕
皮
皷
皿
盃
盆
盇
盈
益
盍
盎
监
盒
盖
盛
盡
監
盤
盧
目
直
相
盾
省
眇
眉
看
眔
眞
真
眷
眼
眾
着
睘
睪
睿
瞏
瞢
瞿
矍
矛
矞
矢
矣
知
矦
短
石
破
碎
碳
磊
磨
示
礻
礼
祟
票
祭
禀
禁
禸
禹
禺
离
禽
禾
禿
秀
秃
秉
秋
科
秝
秦
移
稟
穀
穌
穴
究
穹
空
穿
突
窄
窒
立
竒
竜
竝
竟
章
童
竹
笑
笠
筆
等
答
箕
算
箴
節
篤
篭
米
粉
粛
粟
粤
粦
粲
糞
糸
糹
系
約
納
素
索
紫
累
細
絜
絫
絲
続
維
綿
縣
繁
繇
纍
纟
缶
网
罒
罔
罕
罗
罙
罡
罢
罪
署
罷
羅
羊
羌
羍
美
羔
羕
羗
羞
羡
羣
群
義
羲
羸
羽
翁
翏
習
翕
翟
翠
翼
老
耂
考
者
耆
而
耎
耑
耒
耳
耴
耶
耷
聂
聊
聖
聚
聶
聿
肀
肃
肅
肉
肖
肙
肥
肩
肯
育
肴
胃
背
胡
胥
能
脊
脩
膚
臣
臤
臧
自
臬
臭
臯
臱
至
致
臺
臼
臽
臾
臿
舀
舂
舄
與
興
舉
舌
舍
舛
舜
舞
舟
般
艮
良
色
艸
艹
艾
芒
芔
芬
芮
花
芳
芺
芻
苔
苗
苟
若
苦
英
茶
茸
荅
草
荒
荣
荼
莆
莧
莫
莽
菆
菊
菐
華
萬
落
葉
著
葛
董
葵
蒙
蒦
蒼
蓋
蓬
蓺
蔑
蔡
蕉
蕭
薄
薛
薦
薰
藍
藏
藥
蘭
虍
虎
虐
虒
虔
處
虖
虗
虘
虚
虛
虜
虞
虫
虽
蚤
蚩
蜀
蜜
蟲
蠡
血
行
衍
衛
衣
衤
表
衮
衰
袁
袞
褭
褱
襄
襾
西
覀
要
覃
見
規
覓
覧
親
覽
见
角
解
言
訁
訇
計
詹
語
誩
諸
讠
读
谷
豆
豈
豊
豐
豕
豖
豙
象
豦
豩
豪
豸
貇
貝
貞
貟
負
貢
貧
貪
貫
責
貳
貴
買
費
賁
資
賈
賏
賓
賔
賛
賞
賢
賣
質
賴
贊
贝
贡
责
贯
贲
贵
赖
赞
赤
赦
走
越
足
路
蹇
身
躬
車
軍
軎
軟
輦
车
辛
辜
辟
辥
辰
辱
農
辵
辶
边
达
过
近
连
迷
追
退
送
逆
逐
通
速
造
逢
連
逮
進
遀
遂
過
道
達
遣
適
遷
遺
邊
邑
邕
那
邦
邪
郎
部
郭
都
鄉
酉
酋
配
酓
釆
采
里
重
野
量
金
釒
鈣
錢
钅
長
镸
长
門
閃
閉
開
閏
閑
閒
間
閔
閵
閻
闌
门
间
闷
阅
阑
阜
阝
阿
降
除
陳
隆
隊
隋
隡
隨
隱
隶
隹
隺
隻
隼
隽
难
雀
雁
集
雈
雋
雍
雐
雔
雙
雚
雜
雝
離
難
雨
雩
雪
雲
零
雷
需
霍
霜
霝
霞
霸
靈
靑
青
非
靡
面
靣
革
韋
韓
韦
韭
韯
韱
音
頁
頃
項
須
頗
頡
頻
顛
页
風
风
飛
飞
食
飠
養
饣
首
香
馬
馮
駦
马
骨
高
髟
鬥
鬯
鬲
鬼
魚
魯
鮮
鱼
鲁
鳥
鳳
鸟
鹵
鹿
麃
麗
麥
麦
麻
黃
黄
黍
黎
黑
黒
黨
黹
黽
黾
鼎
鼓
鼠
鼻
齊
齋
齐
齒
齿
龍
龙
龜
龟
龠
龰
龱
龴
龵
龶
龷
龸
龹
者
艹
️
（
）
：
？
￼
🜨
𠀁
𠀃
𠀆
𠀉
𠀎
𠀐
𠁁
𠁣
𠂆
𠂇
𠂈
𠂉
𠂊
𠂋
𠂎
𠂒
𠂔
𠂛
𠂡
𠂢
𠂤
𠂬
𠂭
𠂹
𠃊
𠃋
𠃌
𠃍
𠃎
𠃑
𠃓
𠃔
𠃜
𠄌
𠄎
𠄠
𠄢
𠆢
𠆥
𠇍
𠈌
𠌵
𠓜
𠔉
𠔥
𠔼
𠔽
𠔿
𠕀
𠕁
𠕋
𠘧
𠘨
𠙻
𠙼
𠚏
𠚒
𠚤
𠚪
𠣏
𠤎
𠤕
𠥓
𠦄
𠦑
𠦝
𠧒
𠧗
𠧪
𠩺
𠪚
𠫓
𠫔
𠫤
𠬛
𠬝
𠬞
𠬢
𠬤
𠬶
𠮛
𠮦
𠮷
𠯑
𠱠
𠳮
𠷎
𡈼
𡉀
𡉵
𡌥
𡍮
𡏳
𡕒
𡕩
𡕰
𡖅
𡗗
𡗜
𡘆
𡘤
𡧱
𡨄
𡩧
𡬠
𡭽
𡰣
𡰥
𡰪
𡰯
𡰱
𡷈
𡸁
𡿨
𡿩
𡿪
𡿺
𢀖
𢀛
𢀩
𢁙
𢆉
𢆰
𢆶
𢇁
𢇇
𢉖
𢌬
𢌿
𢏚
𢑑
𢑚
𢖻
𢙣
𢛳
𢦏
𢦒
𢧵
𢼄
𢾕
𣁋
𣄼
𣅀
𣅽
𣍘
𣎳
𣎵
𣏋
𣏼
𣗥
𣥂
𣥖
𣦵
𣦼
𣧄
𣪊
𣪠
𣬉
𣳾
𣶒
𤇾
𤊽
𤐫
𤓰
𤔔
𤕨
𤣩
𤰇
𤰔
𤰞
𤴓
𤴔
𤽄
𥁑
𥁕
𥃦
𥃩
𥃭
𥇡
𥑟
𥘅
𥘈
𥝢
𥫗
𥱡
𦈢
𦉪
𦉬
𦉼
𦍌
𦍒
𦎧
𦐇
𦓔
𦔮
𦘒
𦙃
𦚏
𦣝
𦣞
𦣻
𦥑
𦥔
𦥯
𦨉
𦭝
𦰩
𧆞
𧈧
𧘇
𧰨
𧴪
𧴮
𧵩
𧾷
𨸏
𨾴
𩙿
𩠐
𩫏
𩵋
𪉷
𪜀
𪟽
𪠲
𪩲
𫇦
𫔭
𫜸
𫝀
𫠣
𫠩
𫢉
𫥞
𫩏
𫩠
𫪡
𫲽
𫶧
𬀷
𬐘
𬗌
𬙙
𬛸
𬜯
𬟩
𬯁
𬴘
𬺻
𬼉
𬼖
𭀰
𭁈
𭁨
𭅰
𭑈
𭕄
𭗼
𭤨
𭥫
𭻾
𮅕
𮊿
𮍌
𮍏
𮓗
𮥼
𮧮
廾
𰀁
𰀄
𰀈
𰀉
𰀕
𰀠
𰀡
𰀢
𰀪
𰁜
𰃮
𰆊
𰆘
𰋙
𰕎
𰢴
𰧭
𰯲
10--
18--
19--
3--
5--
53--
6--
7--
8--
9--
a--
ac--
accommo--
activ--
adop--
adv--
af--
ag--
ak--
al--
alex--
alter--
am--
an--
ang--
anguni--
ani--
aq--
ar--
arc--
as--
astr--
at--
ata--
atuq--
au--
aug--
aulat--
auth--
b--
ba--
be--
beau--
ber--
bi--
br--
bril--
bu--
c--
ca--
care--
celebr--
che--
chi--
cho--
chr--
cit--
co--
con--
conclu--
const--
cr--
cre--
cur--
cus--
d--
da--
de--
deb--
def--
demon--
den--
dep--
dis--
do--
doub--
dr--
e--
eag--
eco--
ele--
en--
eng--
es--
ex--
expla--
exten--
f--
fa--
fac--
facilit--
fe--
fif--
figu--
fin--
flor--
fr--
g--
ge--
go--
gr--
gu--
h--
ha--
har--
hi--
hila--
ho--
i--
ig--
il--
ila--
ilu--
ilusiler--
im--
impres--
in--
inc--
incl--
inst--
inten--
inter--
intro--
inu--
inuin--
inv--
inve--
ip--
ipu--
iq--
iqal--
ir--
is--
iter--
ival--
j--
ja--
je--
ji--
jo--
ju--
k--
ka--
kam--
kannuy--
kapuu--
kati--
katilv--
ki--
kik--
kla--
kuj--
kun--
kuugyu--
kuukk--
l--
la--
le--
li--
lo--
lu--
m--
ma--
mac--
mal--
map--
mat--
me--
men--
mes--
mi--
micro--
mini--
mis--
mit--
mo--
mon--
n--
na--
nagju--
nagyu--
natti--
nau--
nauna--
nayuga--
ne--
net--
new--
ni--
nig--
nikhi--
niuvvaa--
niuvvaav--
no--
nomi--
nor--
nu--
nuijaaqpa--
o--
ob--
obj--
oce--
or--
out--
p--
pa--
par--
parnau--
pe--
ph--
pi--
pil--
pitqu--
pitquhi--
plot--
plu--
po--
por--
pr--
pro--
psych--
q--
qabluna--
qal--
qar--
qauyi--
qiliqtuq--
qu--
qual--
r--
ra--
rat--
re--
rec--
rela--
rest--
rev--
ri--
rich--
ro--
ru--
s--
sa--
ser--
sh--
si--
sk--
so--
sol--
solu--
sp--
spr--
st--
sub--
super--
sw--
t--
ta--
tai--
takiyaaq--
tassa--
te--
th--
ti--
time--
to--
tr--
tran--
tre--
tri--
tu--
tuktuhiu--
u--
uk--
un--
unikka--
up--
upgra--
uq--
uqauhi--
user--
uumi--
v--
ve--
ven--
ver--
vi--
view--
vo--
w--
we--
wiki--
x--
y--
ya--
z--
ɫ--
пр--
ᐃ--
ᐃᐸ--
ᐃᑦ--
ᐃᑯ--
ᐃᒃ--
ᐃᒍ--
ᐃᒡᓕ--
ᐃᒪᖓ--
ᐃᒻ--
ᐃᓂ--
ᐃᓄᖃ--
ᐃᓅᓕ--
ᐃᓕ--
ᐃᓕᐅ--
ᐃᓕᓐᓂ--
ᐃᓕᓐᓂᐊ--
ᐃᓕᓐᓂᐊᖅᑎ--
ᐃᓕᓴᕆᔭ--
ᐃᓯ--
ᐃᓱ--
ᐃᓱᐊ--
ᐃᓱᒪ--
ᐃᕐ--
ᐅ--
ᐅᐊᖕ--
ᐅᐱᓐ--
ᐅᑭ--
ᐅᑲᓕ--
ᐅᓂᒃ--
ᐅᓐᓄ--
ᐅᓚᔪᔭ--
ᐅᓪᓛ--
ᐅᔭ--
ᐅᔭᕋ--
ᐅᕕ--
ᐅᖁ--
ᐅᖃ--
ᐅᖅᓱ--
ᐆ--
ᐆᒪᔪ--
ᐊ--
ᐊᐅᐸ--
ᐊᐅᓚ--
ᐊᑎᖃ--
ᐊᑐ--
ᐊᑐᖅ--
ᐊᑐᖅᑕ--
ᐊᑖ--
ᐊᑦ--
ᐊᑭ--
ᐊᒃᑐ--
ᐊᒡᒐ--
ᐊᒥ--
ᐊᒪᕈ--
ᐊᓂ--
ᐊᓇ--
ᐊᓐᓄᕌ--
ᐊᓐᓇ--
ᐊᓯ--
ᐊᔪ--
ᐊᔪᕿᖅᑐ--
ᐊᔾᔨ--
ᐊᕐ--
ᐊᕐᕌᒍ--
ᐊᕐᕕ--
ᐊᕕ--
ᐊᖁᑎ--
ᐊᖅᑯ--
ᐊᖏᔪ--
ᐊᖑ--
ᐊᖓ--
ᐊᖓᔪ--
ᐋ--
ᐋᖅᑭ--
ᐋᖅᑭᒃᑕ--
ᐋᖅᑭᒃᓱ--
ᐱ--
ᐱᒋ--
ᐱᓕᕆ--
ᐱᓚ--
ᐱᔪᓐᓇ--
ᐱᔾᔪᑕ--
ᐱᕈ--
ᐱᖁᔭ--
ᐱᙳ--
ᐲ--
ᐳ--
ᐸ--
ᐸᒥ--
ᐸᒥᐅ--
ᑎᑎᕋᖅᑕ--
ᑎᑎᖅᑲ--
ᑎᖕᒥᐊ--
ᑐ--
ᑐᓂ--
ᑕ--
ᑕᐃ--
ᑕᐃᔭ--
ᑕᑯᒃᓴ--
ᑕᒪ--
ᑕᓕ--
ᑕᓯ--
ᑕᕆ--
ᑕᕐᕋ--
ᑕᕐᕋᓕ--
ᑕᖅ--
ᑭ--
ᑭᒻ--
ᑭᓱᑐᐃᓐ--
ᑭᖓ--
ᑮ--
ᑯ--
ᑲᒻᐸ--
ᒍ--
ᒍᐃ--
ᒥ--
ᒧ--
ᒪ--
ᒪᒃ--
ᒪᒃᑯ--
ᓂ--
ᓂᒥᕆ--
ᓂᕆᕙᒃ--
ᓄ--
ᓄᑲᑉᐱ--
ᓇ--
ᓇᐹ--
ᓇᑲ--
ᓇᓄ--
ᓇᓗᓇ--
ᓇᓗᓇᐃ--
ᓇᓗᓇᐃᒃᑯ--
ᓇᓗᓇᐃᖅ--
ᓇᕿᑦ--
ᓇᖕ--
ᓐᓂᓗ--
ᓗ--
ᓯ--
ᓰᕐᐱ--
ᓴ--
ᓴᖅ--
ᓴᖅᑭ--
ᓴᖅᑭᑕ--
ᔅ--
ᔪ--
ᕕ--
ᕿᑭᖅᑖᓗ--
ᖂ--
ᖃ--
ᖃᐃ--
ᖃᑯᖅ--
ᖃᖅᑲ--
ᖄ--
ᖑᓚᐅ--
ᖑᔪ--
--0
--1
--2
--3
--4
--5
--6
--7
--8
--84
--85
--9
--96
--a
--aa
--aaq
--able
--ad
--age
--ak
--al
--ala
--alu
--an
--ance
--ap
--aq
--aqhuni
--aries
--ary
--as
--at
--ate
--ation
--ay
--b
--ble
--bo
--c
--cal
--ce
--ch
--che
--cing
--cious
--ct
--cy
--d
--do
--e
--ec
--ed
--ef
--el
--en
--ence
--er
--ern
--ers
--es
--est
--et
--ets
--f
--ft
--ful
--g
--ga
--gait
--gak
--gamik
--gat
--ge
--ged
--ght
--gillu
--ging
--gnik
--gnit
--gnut
--gs
--gue
--h
--hing
--i
--ia
--ian
--ible
--ic
--ical
--ice
--ics
--ied
--ies
--igut
--iit
--ik
--ikkut
--illu
--ilu
--ina
--ing
--inga
--io
--ion
--ions
--iq
--iriniq
--is
--isation
--it
--ite
--ities
--ity
--ive
--ix
--ization
--ize
--ized
--j
--k
--ka
--ke
--khuni
--khutik
--ks
--ktut
--l
--le
--list
--lk
--llu
--lly
--load
--lu
--ly
--m
--majuq
--majut
--mavluni
--men
--ment
--mi
--mik
--ms
--mut
--n
--na
--nce
--ne
--ney
--ng
--ngit
--ni
--nik
--ning
--nirmik
--nit
--ns
--nt
--nts
--nut
--ny
--o
--od
--ogical
--ogy
--on
--ons
--or
--ors
--ory
--os
--p
--pe
--ped
--ph
--ply
--q
--qhutik
--qpaktut
--qtuq
--que
--r
--ra
--raangat
--ration
--rd
--res
--ria
--ro
--rs
--ry
--s
--se
--ses
--sh
--sian
--ss
--st
--t
--ta
--tauq
--te
--ted
--ter
--tes
--th
--tic
--tigut
--tion
--tions
--to
--ts
--tumik
--tuq
--tut
--ty
--tz
--u
--ue
--uk
--ullu
--uni
--unut
--up
--uq
--us
--ut
--uuniit
--uvaktut
--v
--vakhutik
--ve
--vely
--vik
--vlutik
--w
--x
--y
--z
--za
--ze
--ᐃᑦ
--ᐅ
--ᐅᑉ
--ᐅᑦ
--ᐅᓂᖓ
--ᐅᓚᐅᖅᑐᖅ
--ᐅᓪᓗᑎᒃ
--ᐅᓪᓗᓂ
--ᐅᔪᑦ
--ᐅᔪᖅ
--ᐅᕗᖅ
--ᐅᖅᓯᒪᔪᖅ
--ᐊ
--ᐳᑦ
--ᐳᖅ
--ᐸ
--ᐹ
--ᑉ
--ᑉᐹ
--ᑎ
--ᑎᐅᑉ
--ᑎᑉᐹ
--ᑎᑐᑦ
--ᑎᒃ
--ᑎᓪᓗᒋᑦ
--ᑎᓯᒪᔪᖅ
--ᑐ
--ᑐᑦ
--ᑐᓂᑦ
--ᑐᖅ
--ᑑᖅ
--ᑕ
--ᑕᐅᖅ
--ᑕᕐᓂᖅ
--ᑕᕐᕕᒃ
--ᑕᖅ
--ᑖ
--ᑦ
--ᑦᑐᖅ
--ᒃ
--ᒋ
--ᒋᔭᐅᓪᓗᓂ
--ᒍᑦ
--ᒡᕕᒃ
--ᒥ
--ᒥᑦ
--ᒧᑦ
--ᒪ
--ᒻᒪᑦ
--ᓂ
--ᓂᒃ
--ᓂᒡᓗ
--ᓂᖅ
--ᓄᑦ
--ᓇ
--ᓐ
--ᓐᓇᖅ
--ᓕ
--ᓕᒑᕐᔪᒃ
--ᓖᑦ
--ᓗ
--ᓗᒃ
--ᓗᓂ
--ᓚᐅᖅᐳᑦ
--ᓚᐅᖅᓯᒪᔪᖅ
--ᓚᓐ
--ᓪ
--ᓪᓗ
--ᓪᓗᓂ
--ᓯ
--ᓯᑯ
--ᓯᒪᓂᖏᑦ
--ᓯᒪᔪᑦ
--ᓯᒪᔪᖅ
--ᓯᒪᕗᑦ
--ᓯᖅ
--ᓰᑦ
--ᓱ
--ᓴᐅᕗᑦ
--ᓴᖅ
--ᔅ
--ᔪᑎ
--ᔪᑦ
--ᔪᒃ
--ᔪᖅ
--ᔭᑦ
--ᔭᖅ
--ᔾ
--ᔾᔪᔪᒡ
--ᕆ
--ᕆᐊᓖᑦ
--ᕆᓂᖅ
--ᕈᑎ
--ᕈᑦ
--ᕐ
--ᕐᒪᑦ
--ᕐᓂᖅ
--ᕐᕕᒃ
--ᕗᑦ
--ᕗᖅ
--ᕙ
--ᕙᒃ
--ᖁᖅ
--ᖂ
--ᖅ
--ᖅᐳᑦ
--ᖅᐳᖅ
--ᖅᐹ
--ᖅᑐᑦ
--ᖅᑐᖅ
--ᖅᓯᒪᔪᑦ
--ᖅᓯᒪᔪᖅ
--ᖅᓯᒪᕗᖅ
--ᖅᖢᓂ
--ᖏᑦ
--ᖓ
--ᖓᑕ
--ᖓᑦ
--ᖓᔪᖅ
--ᖕ
--ᖢᑎᒃ
--ᖢᓂ
