!
"
#
##0
##1
##10
##11
##12
##13
##14
##15
##16
##17
##18
##19
##2
##20
##21
##22
##23
##24
##25
##26
##27
##28
##29
##3
##30
##31
##32
##33
##34
##35
##36
##37
##38
##39
##4
##40
##41
##42
##43
##44
##45
##46
##47
##48
##49
##5
##50
##51
##52
##53
##54
##55
##56
##57
##58
##59
##6
##60
##61
##62
##63
##64
##65
##66
##67
##68
##69
##7
##70
##71
##72
##73
##74
##75
##76
##77
##78
##79
##8
##80
##81
##82
##83
##84
##85
##86
##87
##88
##89
##9
##90
##91
##92
##93
##94
##95
##96
##97
##98
##99
%
&
'
(
)
*
+
,
-
.
/
0
00
000
001
00363
01
011
017
018
02
027
03
032
04
041
05
06
068
07
08
086
09
090
1
10
100
1000
1001
1002
1003
1004
1005
1006
1007
1008
1009
101
1010
1011
1012
1013
1014
102
103
104
1047
105
106
1065
107
1071
108
1085
109
1090
11
110
111
112
1121
1124
1128
113
114
1140
115
1159
116
117
118
1180
1181
1182
1186
1187
1188
119
1191
1194
1195
1198
12
120
1200
1205
1208
1209
121
1210
1212
1213
1216
122
1220
1223
1224
1225
1226
1227
1228
1229
123
1230
1231
1232
1233
1234
1235
1236
1237
1238
1239
124
1240
1241
1242
1243
1244
1245
1246
1248
1249
125
1250
1251
1252
1253
1254
1255
1256
1257
1258
126
1260
1262
1263
1264
1265
1266
1267
1268
1269
127
1270
1271
1272
1273
1274
1275
1276
1277
1278
1279
128
1280
1281
1282
1283
1284
1285
1286
1288
1289
129
1290
1291
1292
1293
1294
1295
1296
1298
1299
13
130
1300
1301
1302
1303
1304
1305
1306
1307
1308
1309
131
1310
1311
1312
1313
1314
1315
1317
1319
132
1320
1321
1323
1324
1325
1326
1328
1329
133
1330
1331
1333
1334
1335
1336
1337
1338
1339
134
1340
1341
1342
1343
1345
1346
1347
1348
1349
135
1350
1352
1355
1356
1357
1360
1361
1362
1363
1364
1368
137
1370
1371
1374
1377
1378
138
1380
1381
1382
1383
1384
1385
1386
1387
1388
1389
139
1390
1391
1392
1393
1394
1395
1396
1397
1398
1399
14
140
1400
1401
1402
1403
1404
1405
1406
1407
1408
1409
141
1410
1411
1412
1413
1414
1415
1416
1417
1418
1419
142
1420
1421
1422
1423
1424
1425
1426
1427
1428
1429
143
1430
1431
1432
1433
1434
1435
1436
1437
1438
1439
144
1440
1441
1442
1443
1444
1445
1446
1447
1448
1449
145
1450
1451
1452
1453
1454
1455
1456
1457
1458
1459
146
1460
1461
1462
1463
1466
1468
147
1471
1472
1473
1475
1476
1478
148
1480
1483
1484
1485
1487
1488
149
1490
1491
1493
1495
1496
15
150
1500
1501
1503
1504
1505
1507
1508
151
1510
1512
1513
1515
1517
1519
152
1520
1521
1522
1523
1524
1526
1527
153
1534
1535
1536
1539
154
1540
1543
1544
1546
1548
155
1550
1553
1554
1555
1558
156
1561
1564
1565
1566
1568
1569
157
1570
1571
1572
1573
1574
1575
1576
1577
1578
1579
158
1580
1582
1583
1584
1586
1588
1589
159
1590
1592
1593
1595
1596
1597
1598
1599
16
160
1600
1601
1602
1603
1604
1605
1606
1609
161
1610
1611
1612
1615
1616
1617
1618
162
1620
1621
1624
1625
1627
1628
1629
163
1630
1632
1637
1638
1639
1640
1642
1643
1645
1646
1647
1648
1649
165
1650
1652
1654
1655
1656
1657
1659
166
1661
1662
1664
1665
1667
1669
1670
1672
1675
1676
1678
1680
1682
1683
1684
1686
1687
1688
1689
169
1690
1691
1692
1693
1694
1695
1696
1697
1698
1699
17
170
1700
1701
1702
1703
1704
1705
1706
1707
1708
1709
171
1710
1711
1712
1713
1714
1715
1716
1717
1718
1719
1720
1721
1722
1723
1724
1725
1726
1727
1728
1729
173
1730
1731
1732
1733
1734
1735
1736
1737
1738
1739
174
1740
1741
1742
1743
1744
1745
1746
1747
1748
1749
175
1750
1751
1752
1753
1754
1755
1756
1757
1758
1759
176
1760
1761
1762
1763
1764
1765
1766
1767
1768
1769
177
1770
1771
1772
1773
1774
1775
1776
1777
1778
1779
178
1780
1781
1782
1783
1784
1785
1786
1787
1788
1789
179
1790
1791
1792
1793
1794
1795
1796
1797
1798
1799
18
180
1800
1801
1802
1803
1804
1805
1806
1807
1808
1809
181
1810
1811
1812
1813
1814
1815
1816
1817
1818
1819
182
1820
1821
1822
1823
1824
1825
1826
1827
1828
1829
183
1830
1831
1832
1833
1834
1835
1836
1837
1838
1839
184
1840
1841
1842
1843
1844
1845
1846
1847
1848
1849
185
1850
1851
1852
1853
1854
1855
1856
1857
1858
1859
186
1860
1861
1862
1863
1864
1865
1866
1867
1868
1869
187
1870
1871
1872
1873
1874
1875
1876
1877
1878
1879
188
1880
1881
1882
1883
1884
1885
1886
1887
1888
1889
189
1890
1891
1892
1893
1894
1895
1896
1897
1898
1899
19
190
1900
1901
1902
1903
1904
1905
1906
1907
1908
1909
1910
1911
1912
1913
1914
1915
1916
1917
1918
1919
192
1920
1921
1922
1923
1924
1925
1926
1927
1928
1929
193
1930
1931
1932
1933
1934
1935
1936
1937
1938
1939
194
1940
1941
1942
1943
1944
1945
1946
1947
1948
1949
195
1950
1951
1952
1953
1954
1955
1956
1957
1958
1959
196
1960
1961
1962
1963
1964
1965
1966
1967
1968
1969
197
1970
1971
1972
1973
1974
1975
1976
1977
1978
1979
198
1980
1981
1982
1983
1984
1985
1986
1987
1988
1989
199
1990
1991
1992
1993
1994
1995
1996
1997
1998
1999
2
20
200
2000
2001
2002
2003
2004
2005
2006
2007
2008
2009
201
2010
2011
2012
2013
2014
2015
2016
2017
2018
2019
202
2020
2021
2022
2023
203
204
206
207
208
209
21
210
211
212
213
214
215
216
217
218
219
22
220
221
222
223
224
225
226
227
228
229
23
230
231
232
233
234
235
236
237
238
239
24
240
241
242
243
244
245
246
247
248
249
2499
25
250
2500
251
253
254
255
256
257
259
26
260
261
262
263
264
265
266
267
268
269
27
270
271
272
273
274
275
276
277
278
279
28
280
281
282
284
285
286
287
288
289
29
290
291
292
293
294
295
296
297
298
299
3
30
300
3000
301
302
303
304
305
306
307
308
309
31
310
311
312
313
315
316
3166
317
318
319
32
320
321
322
323
324
325
326
327
328
329
33
330
331
332
333
334
335
336
337
338
339
34
340
341
342
343
344
345
346
347
348
349
35
350
352
354
356
35612
357
358
359
36
360
3600
361
362
363
364
365
366
368
37
370
371
372
374
376
38
380
384
385
386
3876904889
388
39
390
391
392
393
395
397
4
40
400
4000
401
403
405
407
409
41
410
412
413
415
416
419
42
420
4217
422
423
424
425
426
427
43
430
433
438
44
440
442
443
444
447
448
449
45
450
452
453
454
455
459
46
460
462
463
466
467
469
47
472
474
476
48
489
49
492
497
498
499
5
50
500
5000
503
51
52
520
521
522
525
53
533
536
538
54
542
543
544
55
550
5500
56
560
564
57
58
581
584
586
589
59
594
595
598
599
6
60
600
6000
605
606
61
62
622
623
628
63
639
64
643
65
650
657
66
661
663
67
68
680
686
689
69
7
70
700
7000
702
706
71
713
715
716
718
72
721
724
725
726
727
73
730
731
735
739
74
741
742
748
7495
75
750
751
756
76
764
767
768
76842
77
772
778
78
784
79
790
794
796
797
798
799
8
80
800
8000
801
802
803
804
805
806
807
808
809
81
810
811
812
813
814
815
816
817
818
819
82
820
821
8212
822
823
824
825
826
827
828
829
83
830
8300002561
831
832
8320537495
833
834
835
836
837
838
839
8391280934
84
840
841
842
843
844
845
846
847
848
849
85
850
85011
851
852
853
854
85449
855
856
857
858
85817
859
86
860
861
862
863
864
865
866
86608
86619
867
868
869
87
870
871
872
87258
873
874
875
876
877
878
879
88
880
881
882
883
884
8848
885
886
887
888
889
89
890
891
892
893
89357
894
895
896
897
898
899
9
90
900
901
902
903
904
905
906
907
908
909
91
910
911
912
912100
913
914
915
916
917
918
919
92
920
921
922
923
924
925
925340
926
927
928
929
93
930
931
932
933
934
935
936
937
938
939
94
940
941
942
943
944
945
946
947
948
949
95
950
951
952
953
954
955
956
957
958
959
96
960
961
962
963
964
965
966
967
968
969
97
970
971
972
973
974
975
976
977
978
9788387258399
979
98
980
981
982
983
984
985
986
987
988
989
99
990
991
992
993
994
995
996
997
998
999
:
;
<
=
>
?
@
\
^
_
`
a
aa
aage
ab
aba
abaddon
abdikace
abdo
abdon
abe
abel
abies
abno
abo
about
above
abovestyle
abraham
abraze
absolutely
absolwenta
abu
aby
ac
academic
academy
accepts
access
accipiter
accipitridae
accze
acczi
acer
aceraceae
ach
achen
achtna
achtnie
achtnione
achtniono
achtniony
acoustic
acrocephalus
acta
actor
ad
adam
adama
adamo
adamowicz
adamowicza
adams
adaptacja
add
added
adding
addition
additional
adds
ade
adela
adj
adjani
administrace
administracje
administracji
administracjowi
administracjowo
administrowo
ado
adolf
adolfa
adoptowo
adresa
adriaan
adriaticcze
advanced
adventures
adwan
adwo
ae
aeshna
af
affair
affleck
afganistanie
afganisto
africa
africe
africzi
afrika
afrikaans
afrikan
afriki
afroamerikan
afryce
after
ag
again
against
agan
agaricaceae
agaricus
age
agencja
agency
agenda
agens
agensa
aglomerace
aglomeracje
agne
agnez
agnieszka
agrokwate
agroturisticzi
agroturisticzne
agroturistika
agu
aguilera
ahead
ai
ais
aj
aja
ajk
ajsk
ajsku
ak
akademicczim
akademie
akademii
akademiji
akademio
akce
akcja
akcje
akcji
akcjo
ako
akordeon
aksamin
akt
aktach
aktiwna
aktiwne
aktiwno
aktiwnosc
aktiwnota
aktiwnote
aktiwny
aktiwnym
akto
aktora
aktoreczka
aktorka
aktoro
aktualno
aktualnosci
aku
akumulacji
akwen
al
alacant
alan
alarm
alauda
alaudidae
alba
alban
albanio
albany
albert
alberti
albertina
alberto
albin
albo
albu
albula
album
albums
albus
ale
alectorolophoides
alef
aleje
aleksa
aleksander
aleksandra
aleksandre
aleksandrii
aleksandrijsko
aleppo
alex
alexander
alexandra
alexandre
alfabe
alfabete
alfo
alfons
alfonso
alfre
alfred
ali
alias
alicia
alicje
aligator
align
alior
alive
alkaloido
alko
all
allende
alles
allow
allows
alnus
alojs
alojz
alojze
alojzy
alone
aloysius
alpe
alpha
alpina
already
als
also
alt
alternate
alternative
although
altissimo
altkaschubisches
aluzja
aluzjama
aluzji
alva
always
alzheimera
am
ama
amadeu
amadeus
amalka
amanda
amanita
amanitaceae
amarilko
amaryllidaceae
amatorsczi
amatorsczim
amaya
ambasador
ambasadora
ambler
ambrose
amen
amere
america
american
americana
americe
americzi
amerika
amerikan
amerikansczi
amerikansko
ameryce
amerykan
ammophila
amnesty
among
amore
ampla
amsterdam
an
ana
analize
ananassa
anas
anastacia
anastazy
anatidae
ancient
and
ande
andersena
andorra
andrews
andricki
andrze
andrzej
andrzeja
andrzejczi
andy
andz
ane
aneczka
anegdoto
anemone
ang
angaz
angel
angela
angeles
angelica
angelina
angels
angelus
anggun
angielskiego
angli
anglii
anglikan
ango
angola
anguilla
ani
anie
aniela
aniele
anielscze
anielsczi
anielsczich
anielsczim
anielska
anielsko
anielsku
anim
anio
anioł
anisoptera
anisowi
aniston
anita
aniz
ankara
anklam
anna
anne
annie
ano
anopheles
another
anowski
ansel
antarktida
antarktide
anthem
anthologie
anthony
anthus
anticzna
antiko
antioche
anto
antologia
antologiach
antologie
antologii
antologio
anton
antona
antone
antoni
antonie
antonim
antropo
antropologii
any
anys
anything
ao
ap
aparat
apartna
apartne
apartnech
apartni
apartnic
apartnienie
apartnik
apartnio
apartniwo
apartno
apartnosc
apartnosce
apartnota
apartny
apartnych
apartnym
apelu
apfelzynowe
apiaceae
apidae
apis
aplikace
apo
apocalypse
apodemus
apokalipse
aposztolsczie
aposztoło
appear
appears
apple
applications
applied
applies
apply
apre
apte
ar
ara
arab
arabijo
arabscze
arabsczi
arabsczie
arabsczim
araceae
arago
aragonio
aramejsku
arce
arch
archeo
archidiakonacie
archidiecezji
archikate
archikatedrze
architekt
architekta
architektonicznym
architektura
architekture
archive
archived
archiwa
archiwum
arctic
arctium
arcybisku
are
area
arena
arenaria
arendt
argentin
argentina
argentinie
argu
ariel
arion
arionidae
arizona
arizone
arizonie
arka
arkadiusz
arkadiusza
arko
arkun
arme
armen
armenie
armenijo
armia
armie
armii
armija
armstrong
army
arnhem
arno
arnold
arnolda
arnos
arnowcu
arnowi
arnowieckie
arnowscze
aro
around
arr
array
arscze
arsczi
arsczim
arsenal
arska
arsko
art
arte
artem
artemisia
arthur
article
articles
articzel
artikel
artikla
artikle
artiklo
artis
artisce
artista
artistczi
artiste
artisticzna
artisticzne
artisticzno
artisticzny
artistka
artisto
artists
arts
artur
artusa
artykul
artykuly
artysta
aru
arundinaceus
arusha
arvense
arvensis
arze
as
ase
ashes
asparagaceae
ass
assaigs
association
asteraceae
astrono
astronom
astronoma
astronomiczne
astronomiczno
astronomijo
astronomka
astronomo
astrowate
astrowe
asystence
asystent
asyz
at
ataka
atako
ataku
atakuje
atari
aten
atene
ater
atlante
atlantic
atlanticcze
atlanticczi
atlanticczim
atlantiku
atlas
atlasu
atmo
atomo
atomowe
atra
atrakce
atrakcje
atralne
atribu
atru
attribute
attributes
au
audiowizualna
auf
auflage
augu
august
augusta
augustin
augustowski
augustyn
auris
aus
auschwitz
austen
australe
australia
australii
australis
austrii
aut
auta
auto
autobusowy
autochtoniczne
autocollapse
automatic
automatically
autor
autora
autorka
autoro
av
ave
avec
avni
aw
awa
awansowo
award
awards
awe
awie
awio
axyridis
az
aze
azeji
azerbejdz
azja
azjacczi
azjate
azje
azji
azkoitia
azymu
ała
ałe
ałobna
b
ba
baba
babbage
babe
babie
babilon
baby
baccze
bacczi
bacczim
bach
bachere
bachleda
back
background
backo
bacze
baczenie
baczin
baczyn
baczynski
bad
badan
badania
badanio
bade
badero
bado
badwa
baechu
baekje
bafta
bagnach
bagnio
bahia
bahrajn
baj
bajki
baker
bakteria
bakteriolog
bal
bala
balczi
bale
bali
balo
balustradowi
balustradze
balzer
bama
bambi
bami
ban
bana
bananowo
banczi
band
bane
bangladesz
bania
banie
baninie
banino
baniowate
bank
banku
banowe
banowi
banowiszcze
banowo
bar
barabo
baracoa
baranowski
barbara
barbare
barcelona
barch
barcino
bardo
bardziej
barko
barn
barna
barnaba
barnabe
barne
barni
barnie
barnim
barnima
barnisło
barnił
barnowo
barny
baro
barograf
baroko
barome
baron
barry
barrymore
barth
bartłomie
barwe
barz
barzi
barłomino
base
basestyle
basic
baskijsczi
basko
basowi
basowim
basowo
basshunter
bastilii
baszka
batalio
batore
batory
batsch
battle
bauer
bawi
bay
bayern
baz
baza
baze
bazune
bazyl
bazyla
bazyliczi
bazylika
bałache
bałkan
bałkanach
bałtycka
bałtycki
bałtyckiego
bb
bca
bce
bcho
bczas
bcze
bczi
bczo
bd
be
beach
beat
beati
beatifikacji
bec
beck
becnie
becomes
beczka
beda
bedeker
bedtime
been
before
beginning
behaves
behaviour
behind
being
beitra
beitrag
bek
bekas
bekasowate
bel
beldz
belgard
belgia
belgijsce
belgijsczi
belgijsko
belgrad
belgradze
belief
bellis
belok
below
belowstyle
belscze
beltna
beltne
beltno
bem
ben
bender
benedicta
benedictus
benedikt
benedikta
benjamin
benjamina
benko
benutzer
ber
berg
berger
beril
berle
berlin
berlinchen
berlinie
bern
bernadeta
bernard
bernarda
bernardinum
bernardus
bernat
bernata
bernd
bernhard
bernou
berszte
bert
berta
berwo
bes
best
besu
beta
betrayal
betula
betulaceae
between
beyonce
bez
bezdrutno
bezdrze
bezdrzec
bezdrzenio
bezle
bezo
bezpiek
bezpieku
bezpo
bezre
bezrobo
bezu
beł
beła
beło
bg
bhutan
bi
bia
biafra
biaja
bialka
bianie
bianim
bianio
biasto
biatowa
biatowo
biała
białczi
białe
białek
białgowscze
białk
białka
białko
białogło
białystok
bible
biblia
biblii
biblijny
biblio
bibliografia
bibliografijo
bibliografio
bibliote
bibliotece
biblioteczi
biblioteka
bibliowe
biblote
bibloteka
bibloteko
bic
bice
bicho
bie
biecho
biedrzo
biegac
biego
biegu
biekt
biekte
biekto
biektu
biele
bielsko
bienie
biero
bierza
bierze
bierzeme
bieszk
bieszka
bieta
biez
big
bija
bijanie
bije
bilot
bilota
bin
bina
binie
bino
binowe
bio
biografia
biografijo
biografio
biogram
biography
biolog
biologia
biologiczny
biologijo
biologio
biologo
bionka
biora
biosfere
birkenau
birma
birman
bisce
bisko
bisku
biskup
biskupa
biskupie
bismarck
bista
bisticzi
bistika
bite
bitewno
bitwa
bitwe
biu
biuletin
biuletyn
biwaja
biwanie
biwałe
biwało
biwo
biz
bizante
bizantin
bizna
bizne
biznesu
biznie
bił
biła
bja
bje
bjim
bjimaja
bjimałe
bjimało
bjimie
bjimna
bjimnia
bjimo
bjimu
bjo
bk
bka
bko
bkowice
bkra
bkre
bkriwo
bku
bla
blache
black
blade
blag
blaise
blanca
blanche
ble
blecze
blewia
blewo
blewscze
bli
blica
blice
bliczi
bliczne
bliczno
bliczny
blika
blikace
blikacja
blikacje
blikacji
blikacjo
bliko
blink
bliscze
blisko
bliz
bliza
blize
blizo
blo
bloczi
blogspot
bloku
blondynki
blood
bloomsbury
blues
bluesa
bluesowi
blunk
blus
bm
bme
bmw
bn
bne
bnf
bni
bnica
bnicko
bnico
bnie
bnika
bniz
bno
bny
bnym
bo
boa
bobby
boccoli
bochnia
bocze
boddenlandschaft
bodied
bodo
boduszyn
body
bodyclass
bodystyle
boga
bogdanowicz
bogumił
bogusław
bohdan
bohemian
bohr
bokser
bolduan
bolesław
boletus
boli
bolivia
bolszewo
bombarde
bombus
bon
bonaparte
bonnie
bonsignori
book
books
border
bork
born
boro
borowikowa
borys
borzestowo
borzyszkowski
borzyszkowskiego
boston
botanik
botaurus
both
botticelli
bottle
bottom
bourne
bovidae
bow
bowie
box
boy
boys
boz
bp
bph
br
bra
brac
braca
brace
bracht
bracia
braco
bractwa
bractwo
bracy
bracyna
bracyno
bragg
bragi
brahe
brains
brak
bram
brama
brambo
brandenbu
brandenburgi
branderbu
brando
branz
brasil
brassicaceae
brat
brata
bratislava
braz
braze
brazne
braznice
brazny
braznym
brazo
brazowe
brazowi
brazu
brazyle
brazylsczi
brazylska
brazylsko
brał
brała
brało
brda
brde
bre
breinigerberg
brele
bremerton
bremienim
brenda
bresin
bretanie
breton
brett
bretta
brewiarz
breyne
breynii
breza
brian
bride
brigide
brimstone
bring
brisbane
britan
britanie
britaniji
britanijo
britanji
britannica
britijscze
britijsczi
british
britishpedia
britney
britt
brno
bro
broadwayu
brobergen
broda
brodaty
brodne
brodnica
bromberg
bron
brona
brone
broni
bronic
bronisch
bronisław
bronisława
bronisło
bronił
bronk
bronksu
bronze
bros
brothers
brotu
browa
brown
browscze
browsczi
browser
browski
browsko
bru
bruce
bruksela
bruksele
bruna
brunatne
brune
bruno
bruny
brus
brusach
brusczi
bruse
bruski
bruso
brustwerk
brusy
brza
brzada
brzadem
brzadowa
brzadowe
brzadu
brzaduja
brze
brzega
brzegach
brzego
brzegu
brzeski
brzez
brzezan
brzeze
brzezyn
brzmia
brzmienie
brzmienim
brzno
brzny
brznym
brzo
bs
bsa
bsadzony
bscze
bsczi
bsczich
bsczie
bsczim
bsczima
bserwace
bserwacje
bserwacji
bserwo
bska
bsko
bskosłovjnskje
bsku
bso
bszare
bszaro
bszarze
bszcza
bszcze
bszczi
bsze
bszich
bszo
bsztrofo
bsłe
bsługiwo
bsługu
btaksowo
bu
bubo
bud
budace
buddha
buddy
bude
budinko
budowo
budys
buffalo
bufo
building
bujnaksk
bullets
bullock
burkina
burnside
bus
bush
business
but
buten
buteo
button
buyck
bułg
bwo
bwodu
by
byc
bychowski
bydgoszcz
bylina
byto
bytow
bytowskiej
byzewski
był
była
było
bze
bzerac
bł
bła
błaszcziko
błaszkowski
błe
bło
błocczi
błoce
błocym
błogo
błone
błota
błotach
błotne
błotnica
błotnisty
błotno
błotny
błoto
błowo
błoz
c
ca
cach
cache
cadle
cadła
caeruleus
caesius
caespitum
caffe
cages
caja
cale
calidris
california
call
called
calling
cama
cambridge
came
camelidae
camelus
camerimage
cami
camino
cammin
campanula
campanulaceae
can
canada
canadensis
canidae
canis
cannabina
cannes
canorus
cantharellus
canus
cape
capreolus
caprifoliaceae
captain
caption
captionstyle
car
carbo
card
carduelis
carduus
carex
carey
carl
carleton
carlos
carole
carolina
caroline
carter
caryocatactes
caryophyllaceae
cases
cassie
cassuben
cassubia
cassubiana
cassubica
cassubicus
cassubie
cassubische
cassuborum
casta
casto
castro
casus
cat
catala
catalana
catalans
catalina
catalunya
cate
catechism
categories
category
caterina
catharina
cathartica
cathedral
catherine
catholic
causa
cause
cavalera
caz
cała
całe
całi
całim
cało
całos
całosc
całosce
całoscowe
całota
całowne
całowno
całownota
całowny
cały
cbarg
cbarga
cbe
cbo
cbork
cc
ccccff
cce
ccz
ccze
cczi
cczich
cczie
cczim
cczimu
cd
cdzesa
ce
cean
ceana
ceane
ceanie
ceanu
cebie
cec
cece
cecenowa
cecenowo
cech
cecha
ceche
cecho
cechownik
cechu
cecilia
cecylii
cecylio
cedre
cedze
cego
cegłe
cegło
cej
cekawe
cekle
ceko
cekł
cel
cela
celbo
cele
celestin
celestino
celina
cell
cells
celso
cem
cemia
cemne
cemnie
cemno
cemnobrune
cemnomo
cemny
cemnym
cen
cena
ceni
cenia
cenie
cenim
cenio
ceniu
cenko
ceno
center
centered
centime
central
centralne
centralno
centralny
centre
centro
centrum
cepaea
cepelia
ceple
cepli
cepła
cepłe
cepłi
cepłich
cepło
cepłota
ceramika
cerastium
cerczew
cereale
ceremo
cerkwi
cerkwie
cerkwio
cerkwiowo
cerpia
cerple
cervidae
cesarza
cesnina
ceso
cesorz
cesze
ceszenie
ceszi
cet
cetrze
cewice
ceynowa
cezari
cezary
ch
cha
chac
chach
chagang
chain
chains
chaja
chalcedonu
chale
chama
chancellora
change
changed
changing
chanio
chantarellus
chapel
char
charakter
charakteristiczne
charakteristiczny
charakteristika
charakterize
charakterystyka
charakterze
charland
charles
charlotte
charnowo
charte
charu
charze
charzt
charztowina
chasawjurt
chawa
chawe
chałe
chało
chca
chcało
chce
chcele
chceme
chco
chczo
chdze
che
checktype
cheek
cheese
chelpin
chemiczne
chemiczny
chemii
chemijo
chemik
chemio
cher
chełme
chełmin
chełmnie
chełmno
chełmo
chełmz
chi
chiba
chicago
chigu
chikhalsi
child
children
chile
chili
chilli
chilo
chilonio
chim
chin
chinach
chinama
chine
chino
chirurdze
chiz
chla
chlapo
chle
chleba
chlebo
chlenim
chli
chlowate
chludzin
chme
chmie
chmielen
chmielnie
chmielno
chmielo
chmu
chna
chni
chnia
chnica
chnie
chnienie
chnio
chno
chny
cho
choba
choc
chodowiecki
chodze
chodzi
choice
chojnice
chojnowsko
chorałbas
chords
choso
chowo
chr
chrabko
chrabkowski
chris
christe
christian
christiana
christina
christus
christusa
chrizopro
chro
chrochce
chrona
chrone
chronia
chronione
chronne
chronome
chrupo
chrza
chrzce
chrze
chrzes
chrzesce
chrzescijan
chrzescyjan
chrzest
chrzo
chrztu
chsze
cht
chta
chte
chtere
chteren
chterna
chterne
chternego
chterny
chternym
chtnosc
chtnosce
chto
chtos
chtowac
chtowanie
chtowanim
chtowo
chu
chuck
church
chutko
chwale
chwaszcze
chwała
chwe
chwila
chwili
chwo
chwsto
chy
chła
chło
chłodna
chłodno
chłop
chłopa
chłopi
chłopo
chłopscze
chłopsczi
chłopsko
chłosce
ci
cia
ciach
cibarius
ciconia
cicuta
cie
ciechowski
ciej
ciem
cierski
cierzyna
cigu
cijan
cim
cin
cinerea
cino
cio
cioła
circ
circle
circumstances
cirsium
ciruculi
citerioris
cities
city
ciu
ciutat
civitas
civitate
cje
cji
cjonalno
ck
cka
ckach
cken
cki
cko
ckpositiv
cku
cl
clamator
clapton
clara
clarkson
clash
class
classes
claude
claus
cle
clear
clece
clecia
cleco
club
clupeidae
clyde
cm
cmanim
cmanizna
cn
cna
cne
cni
cnice
cnie
cnienio
cnik
cnio
cniwo
cno
cny
cnym
co
coast
cobain
cobar
cobb
cobe
code
codes
coding
codniowe
codniowi
codniowim
codze
cogumelo
coksa
col
colatna
coleco
colemało
collapse
collapsed
collapsible
collection
collins
color
colors
colossus
columba
columbia
com
combat
come
comitatibus
common
commons
commonwealth
communes
communis
compact
company
complete
completes
complex
compostela
computer
con
cona
concepcio
concert
cone
conie
conjunction
connor
cono
consistency
contain
contained
container
containing
contains
content
contents
contes
continuum
contra
contribuer
contribuir
control
convolvulus
cony
cooper
copis
copisu
copy
copying
core
coregonus
cori
cornell
corner
cornix
coro
corocznie
corolla
corona
corr
corresponding
corvidae
corvus
corylus
cos
coscerzin
costerina
cotczi
cotka
could
country
county
courtney
covenant
cover
cowa
cowanie
cowate
cowe
cowi
cowie
cowim
cownica
cowniczi
cownik
cownika
cowo
cracca
craig
cramer
crassulaceae
crazy
create
credo
crescendo
crex
crispus
cristburg
crna
croatian
crochet
crocodylus
crone
cropped
cross
crown
cruise
cruiser
cruz
cs
csb
cson
css
ctwa
ctwo
cu
cuba
cuculus
culex
culicidae
cultura
culture
cum
cumulonimbus
cuprum
curial
curie
curitiba
current
currently
curus
curvirostra
cusano
cut
cuthbert
cwiardi
cwiardim
cwicza
cwicze
cy
cybaba
cych
cyfrowi
cyg
cyganie
cygna
cygnia
cygnie
cygo
cygu
cykcaka
cym
cyma
cymne
cynamo
cynda
cynocephalus
cyper
cyperaceae
cyprinidae
cyprio
cyprisowate
cypru
cyprze
cyrila
cyrilice
cyrko
cyt
cytat
cytro
cywac
cywilizace
cywo
cył
cz
cza
czac
czach
czaja
czajino
czajkowski
czajne
czajno
czajny
czajnym
czama
czanie
czanio
czapelsczi
czapla
czaple
czaplinek
czarna
czarne
czarnowski
czarownica
czarownice
czarwina
czarzbo
czarze
czas
czasa
czasach
czase
czasem
czasie
czasna
czasne
czasni
czasnik
czasno
czasny
czasnym
czaso
czasowo
czasu
czasy
czała
czałe
czałi
czałich
czałim
czało
czba
czbach
czbe
czbie
czbio
czbo
czbownik
czce
czci
czcion
czczi
cze
czebnym
czec
czech
czechach
czecho
czechosłowacjo
czechow
czede
czedes
czedrowscze
czedrowsczi
czedrowsko
czedrzejce
czego
czej
czejbe
czek
czekawe
czekawi
czekawinczi
czekawo
czeki
czel
czele
czelin
czeliszczi
czelna
czelnica
czelnik
czelno
czem
czemu
czen
czeni
czenia
czeniach
czenica
czenie
czenim
czenio
czeniu
czenko
czennik
czer
czere
czero
czerowniczka
czerownika
czerowo
czerpako
czerpisko
czersk
czerwiec
czerwin
czerwio
czerwiona
czerwione
czerwiono
czerwiony
czerwionym
czerwo
czerwona
czerz
czerzenka
czes
czesc
czescze
czesczi
czesczim
czeska
czesko
czesku
czestnienie
czestnosc
czestny
czestnym
czesław
czesło
czew
czewo
czezer
czezera
czezerowo
czezerstwa
czi
czice
czich
czidze
czie
cziede
cziej
czielich
czier
cziere
czierz
czijanczi
czijew
czijewsko
czik
cziko
czile
cziledzesa
czileno
cziles
czileset
czili
czilka
czim
czime
czin
czink
czinko
czinku
czinniko
czinnych
czino
czisele
cziso
cziszewa
cziwaja
cziwo
cziwu
cziz
cził
cziła
czk
czka
czki
czko
czmie
czna
czne
cznech
czni
cznia
cznice
czniczi
cznie
cznik
cznika
czniko
czniku
cznio
czniowie
czno
cznosce
czny
cznych
cznym
cznyma
czo
czona
czone
czono
czony
czonym
czorlin
czowate
czowe
czołejcach
czołejce
czoło
czołpino
czte
cztowe
cztowi
czu
czubati
czubato
czuj
czwikła
czwio
czwo
czy
czyce
czyk
czyli
czyn
czyno
czysta
czyz
czył
człe
człocho
członek
członkiem
człopa
człowiek
człowieka
człowieko
człowieku
człucho
cłowsczi
d
da
dac
dace
dach
dachau
dacja
dacje
dacjo
daczny
dadza
dag
dagestan
dahle
daj
daja
daje
dajny
dakar
dako
daktila
daku
dale
daleczi
dalek
daleka
daleko
dali
dalmatin
dalmatina
dalsze
dalszi
dama
damascus
damaszk
damaszko
damaszku
dambek
dame
damentne
dami
damiano
damio
damk
damka
damnica
damno
damrockers
damroka
dana
dance
dane
dangerous
dangerously
dania
danie
daniel
daniela
danii
danim
danio
daniu
danka
dano
dantzke
danuta
danute
danym
danzig
danzk
dapeszce
dar
darcze
darczi
darczo
dardz
dardze
dare
darga
dargo
dario
darium
dariusz
dark
darka
darmo
daro
darowo
darska
darstellung
darstwa
darz
darza
darzczim
darze
darzenia
darzenie
darzenio
darzi
darził
darzo
darß
darłowo
das
data
date
datko
datowo
daugavpils
david
davida
davies
davis
dawa
dawac
dawid
dawida
dawidowsczi
dawiznie
dawnej
dawni
dawniejszym
day
dała
dałe
dało
dba
dbe
dbie
dbiwaja
dbiwo
dbo
dbro
dbu
dc
dca
dce
dcho
dco
dczaja
dczas
dcze
dczenio
dczi
dczich
dczo
dczyto
dd
dda
ddac
ddddff
ddo
ddr
ddze
ddzelo
de
dead
dean
death
debian
debiut
debiutancczi
debiutowo
debranie
debrała
debut
decade
dece
deception
decoupage
decyzja
dediko
deepcopy
default
defaults
define
defined
definice
definitiae
degli
dego
dei
deja
dejade
deje
deji
dek
dekalog
dekalogu
dekan
deklaracja
deklare
deko
dekret
del
dele
delhi
delka
dell
delta
deluxe
dem
dema
demeter
demi
demkropka
demkłi
demno
demo
democracy
demokracjo
den
dendrocopos
deneuve
denga
denham
dentista
deo
departament
depp
deprecated
depresji
depu
der
derbent
derdowscze
derdowsczi
derdowski
derlandzce
derlandzczi
derlandzka
derlandzko
derna
derne
derny
dersow
dersowe
des
descriptio
description
desire
desired
deska
destino
deszcz
deszcza
deszcze
deszczu
details
deum
deutsch
deutsche
deutschen
deutsches
deutschkenntnisse
deutschland
devi
dgardze
dgc
dgo
dgro
dgroda
dgrode
dgrodo
dgrzebo
di
diabeł
diabłu
diako
diakriticzne
dialekce
dialekt
dialekta
dialektach
dialekte
dialekto
dialektowe
dialektu
dialodz
dialog
diaman
diana
dicja
dictionary
diczne
didakticzne
didgeridoo
die
dieceze
diecezjalne
diecezji
diego
diena
diesel
dieser
dietete
dietrich
different
difikacja
difiko
digraf
digrafe
digrafo
diktanda
diktato
diktator
dil
dili
dillo
dilowate
dim
din
dinaste
dinastie
dinastii
dinczi
dink
dinko
dinku
dino
dio
dion
diplom
diplomata
diplomo
directly
directory
direktno
direkto
direktor
direktora
dirigenta
dirlowie
dirsaw
dirschau
dirschaw
dirsow
dirssow
disableredirects
disasters
discantus
disce
discogs
discovery
discuss
disko
disku
disleksji
disleksjo
display
displayed
displaying
dispo
distribu
distrikte
diuna
diwo
dj
dja
djaze
djimczi
djimizna
djimk
djimko
djimku
djimnia
djimniko
dk
dka
dkach
dkama
dkarpaccze
dkesliwaja
dko
dkre
dkriwo
dkrił
dku
dkłade
dla
dlaczego
dlascze
dlasczim
dlatiwaja
dle
dleczne
dleczni
dleczno
dleczny
dległosce
dles
dli
dlim
dlo
dlowe
dlowi
dlowim
dlowo
dlu
dma
dme
dmian
dmiana
dmiane
dmiano
dmiany
dmiot
dmo
dmoz
dmu
dmz
dna
dne
dni
dnia
dniach
dniaja
dnic
dnica
dnice
dnich
dnictwa
dnictwo
dniczka
dnie
dnienie
dnienim
dnienio
dniesenim
dniesenio
dnieseniu
dniestr
dnik
dnika
dnikama
dniko
dniku
dnim
dnio
dnione
dniono
dniony
dniu
dno
dnoce
dnokasze
dnopo
dnos
dnosc
dnosce
dnosłowian
dnowieczne
dnowieku
dnowienie
dny
dnych
dnym
dnyma
dnymi
do
dobe
doberan
doberanensis
dobie
dobiero
dobiwaja
dobiwca
dobiwce
dobiwco
dobiwo
dobne
dobnie
dobno
dobny
dobo
dobra
dobre
dobri
dobrim
dobro
dobrogo
dobrowo
dobrze
dobrzin
dobrzinka
dobrzyn
dobu
doc
doce
doch
dochadac
docho
dochto
dochtora
doctor
documentation
docze
dodac
dodatkiem
dodatko
dodo
dodoma
dodomu
dodze
does
doesn
dogo
doka
dokazach
dokaze
dokazo
dokazu
doko
dokto
doktor
doktora
doktorat
doktorsczi
doktrina
doku
dokumen
dokumentacja
dokumento
dokładne
dokładno
dokładny
dolaro
dole
dolina
dolmacz
dolmacze
dolmaczenia
dolmaczenie
dolmaczi
dolmaczka
dolmaczone
dolmaczony
dolmie
dolmo
dolna
dolne
dolno
dolsko
dom
doma
dome
domena
domestica
domesticus
domine
domini
dominiak
dominik
dominika
dominikan
domino
dominum
domo
domowina
domu
don
donald
donat
done
donim
dono
doors
dopasowo
dopełniaja
dopie
dopise
doprowadze
doprowo
doprze
dopu
dopłiwa
dora
dorade
dore
doro
dorosłe
dorosłi
dorota
dorote
dorothee
dorothy
dortmund
dorze
dos
dosc
dosko
dospo
dosta
dostac
dostanie
dostanim
dostała
dostałe
dostało
doste
dosto
doswio
doszle
doszłe
doszło
dosłowno
dota
dotace
dote
dotrzec
dotyczy
dougl
douglas
dowa
dowac
dowale
dowane
dowanie
dowanio
dowało
dowe
dowi
dowich
dowie
dowiec
dowiedzo
dowim
dowima
dowizna
dowizne
dowiznie
down
downe
downie
downika
downio
downy
dowo
dowscze
dowsczi
dowsczim
dowska
dowsko
dowy
dowych
doz
dozdrze
dozdrzec
dozdrzelałi
dozdrzelałote
doze
doznawcze
doła
dołe
dołu
dpisała
dpise
dpiso
dpo
dprawiac
dprawio
dpro
dprowo
dpu
dpłiwo
dr
dra
drach
drama
dramace
dramaturg
drame
drapie
drapiez
draszmaszina
drawa
drawien
drawo
drawsko
dre
dream
dredz
drelicha
dresden
dress
dretin
dretink
dretyn
dretynek
drew
drewna
drewniane
drewniano
drewno
drezde
dri
drim
drknow
dro
drobne
drobnokwiatowi
drobnokwiatowo
drobnole
droda
drodz
drodze
drodzenie
drodzeniego
drodzenio
droga
drogach
drogo
drop
drosc
drosce
drowa
drowanie
drowate
drudz
drugi
drugiej
druku
druz
drv
drwa
drz
drza
drzatk
drze
drzew
drzewa
drzewia
drzewiane
drzewiany
drzewie
drzewio
drzewo
drzez
drzin
drzne
drzucone
drzutowe
ds
dse
dskace
dsko
dsnie
dspo
dstawa
dstawe
dstawie
dstawo
dsto
dstre
dsztre
dtermino
dtipu
dtrze
dtwo
du
dubbing
dublin
ducatus
duce
duch
ducho
duchowne
duet
duff
duja
duje
dulkiewicz
dummy
dumort
dun
dunach
dune
dunin
dur
dus
duslavjanski
dusza
duszan
duszpasterstwa
dutch
dux
duz
dvd
dwa
dwadzesce
dwadzeste
dwadzesto
dwaja
dwaji
dwalatno
dwamo
dwano
dwarda
dwarves
dwastopo
dwe
dwenjang
dwiczkama
dwie
dwiedzo
dwigo
dwina
dwio
dwiz
dwle
dwo
dwu
dy
dynaste
dz
dza
dzac
dzach
dzaja
dzajno
dzajnym
dzale
dzama
dzanie
dzanio
dzano
dzarno
dzała
dzba
dzca
dzce
dzco
dzcze
dzczi
dzczich
dzczim
dze
dzec
dzeca
dzecama
dzece
dzecka
dzecko
dzecne
dzecny
dzeco
dzectwa
dzectwo
dzecy
dzedze
dzegwne
dzeja
dzejac
dzejach
dzejaja
dzejania
dzejanie
dzejanigo
dzejanim
dzejanio
dzejało
dzeje
dzejnota
dzejnote
dzejo
dzejopiso
dzejownik
dzekanowsczi
dzeko
dzela
dzele
dzelenie
dzelenim
dzeli
dzelic
dzelime
dzeliwo
dzelił
dzelne
dzelnica
dzelnice
dzelnota
dzelona
dzelone
dzelono
dzelony
dzelu
dzem
dzeme
dzemio
dzemne
dzemnomo
dzemny
dzemnym
dzen
dzene
dzenia
dzeniach
dzenie
dzenim
dzenio
dzenniko
dzerza
dzesa
dzesce
dzescedwastopo
dzewia
dzewikwiat
dzewu
dzeła
dzeło
dzi
dzia
dziado
działacz
działalnos
działan
dzie
dzieci
dziedzictwa
dziejach
dzieje
dziejo
dzien
dziennik
dziennika
dziernika
dzierz
dzierzgon
dziewcze
dziewczyna
dziko
dzin
dzis
dzisiaj
dzisiejszy
dził
dzk
dzka
dzki
dzko
dzlk
dznaczenia
dznaczenio
dznaczony
dznaka
dzo
dzom
dzona
dzone
dzono
dzony
dzonym
dzowe
dzowie
dzowniko
dztw
dztwa
dztwie
dztwo
dztwu
dzu
dzura
dzure
dzuro
dzwartniko
dzwe
dzy
dzyme
dzyn
dzynczi
dzynka
dzynko
dzyrzec
dzys
dzysdnia
dzysdniowe
dzysdniowi
dzysdniowich
dzysdniowim
dzysdniowo
dzysdze
dzyse
dzyso
dzysu
dzysz
dzysza
dzyszin
dzywies
dzywo
dzyzdroje
dzył
dzyła
dł
dła
dłe
dło
dłoni
dłu
dłudz
dług
długa
długo
długosc
dłuz
e
each
earth
ease
east
eat
ebe
ebne
ebno
ebrowo
ebsko
ec
eca
ecce
ecclesia
ece
echinocystis
eco
ecseri
eczce
eczczi
eczka
ed
eddie
edicions
edinbu
edit
edition
editor
editora
editors
edmund
educac
edukace
edukacja
edukacje
edukacji
edukacjo
edulis
edvard
edward
edyta
edytuj
ee
eesti
efekce
efezjano
efezu
efoj
egertowo
egipce
egipcie
egipscze
egipsczi
egipsko
egipt
egiptu
eglo
ego
egzamin
egzaminu
egzemplo
ehrh
ein
einem
einer
eisenreich
eius
ej
eja
eje
ek
eka
ekaterina
ekaterine
eko
ekonomiczna
ekonomiczno
ekranie
ekspo
eksponato
ekspresyjno
ekspresyjny
ekwador
ekwiata
ekwio
el
ela
elazo
elazła
elbe
elbla
ele
elektriczne
elektriczno
elektriczny
elektricznym
elektrik
elektriszowi
elektriszowo
elektromagneticzny
elektromagneticznym
elektrownia
elektrownie
elektrownio
elemen
element
elementa
elementama
elemente
elemento
elementu
elephant
eli
eliasza
elii
elika
elio
elka
elko
elo
els
else
elvis
elz
em
emanuel
embedding
eme
emeriture
emigrace
emily
emitowo
emma
emo
empire
en
ena
encyclopedia
encyklopedia
encyklopedie
encyklopedija
encyklopedijo
encyklopedio
end
ene
enema
energia
energii
engel
english
eni
enia
eniac
eniałe
eniałi
enica
enie
enim
enio
eniowi
eniowich
eniu
enił
eno
enter
entire
enya
eo
ep
epic
epiphany
episkopatu
epitaph
epo
eps
equipped
equisetaceae
equisetum
equus
er
era
erbo
ere
eric
ericaceae
erie
erik
erika
eriocheir
erithacus
eritrea
ernest
ernst
ero
ersczi
erw
eryngium
es
esbjerg
esculenta
eseistka
eska
espan
esperanto
est
estado
estadual
este
estiano
esto
eston
estonia
estonie
estonio
estwa
estwo
esza
eszowi
et
eta
etap
etape
etc
ethel
eticczi
eticko
etimo
etka
etniczna
etniczne
etniczno
etniczny
etnicznych
etnicznym
etnograf
etnograficzna
etnograficzne
etnograficzny
etnografii
etnografne
etnografny
etnologio
etowe
etymologiczny
eu
eugeniusz
eukarionty
euler
eum
euphorbia
euro
europa
europaeus
europe
european
europeana
europejsczi
europejskiej
europejsko
europie
europy
eurosport
eva
eve
even
evenodd
evenstyle
ever
everest
everything
ewa
ewangele
ewaniele
ewanielia
ewanieliach
ewanielie
ewanielio
ewanielista
ewanielji
ewanjelje
ewe
ewi
ewie
ewo
ewoluce
ewscze
ewsczi
ewska
ewsko
ex
exact
example
examples
excelsior
except
exceptional
exchange
exclusive
existing
expanded
experience
explorer
express
eyssart
ez
ezdro
ezechiela
ezja
ezji
eł
f
fa
fabaceae
fabrice
fabrika
fabryczi
fabryki
fabu
facebook
facebooka
facebooku
factbook
facto
factor
factory
fago
fagus
fahrenheit
fail
fair
fakt
faku
fall
falling
fals
false
fama
fame
famile
familia
familiach
familiaris
familie
familii
familio
family
fana
fane
fantasy
faq
fara
faraon
farba
farbo
farerscze
farwa
farwach
farwe
farwienie
farwne
farwny
farwnyma
farwo
fasciculi
faso
fat
fatale
fauna
faza
fazan
fazo
fałdowo
fc
fce
fdfdfd
fdl
fe
fear
feature
febra
fed
federace
federacja
federacjo
federal
federalno
federation
federatiwny
fedora
feel
feira
fejrowo
fela
feldmarszo
fele
felicja
felidae
felieto
feliks
feliksa
felis
felo
feministka
femme
fen
fenicczi
ferber
ferdinand
ferdino
ferdynanda
ferguson
fermentace
ferula
fest
festival
festiwal
festiwalach
festiwalu
festuca
ff
ffk
fi
fiaja
fiar
fiara
fiare
fiaro
fiat
fice
ficjalna
ficjalne
ficjalno
ficjalny
ficjalnym
fiction
fie
fields
fierce
fif
figu
figures
fiku
fil
fila
filadelfie
file
filemo
filharmo
filio
filip
filipa
filipiak
filipin
filipinach
filipine
film
filma
filmach
filme
filmie
filmo
filmowa
filmowi
filmowy
filmu
filmy
filologia
filologo
filomaccze
filomato
filozo
filozof
filozofa
filozoficzne
filozofii
filozofijo
filozofka
filozofo
fin
final
finanso
finansowe
finała
finch
find
fiorella
fire
firebird
firefox
firm
firma
firme
first
fischer
fischland
fits
fix
fize
fizjograficznych
fizjografne
fizjologio
fiznie
fizyczi
fizyczna
fizyczne
fizyczno
fizyczny
fizycznych
fizyk
fizyka
fizyki
fk
fku
fla
flag
flaga
flako
flash
flaster
flavipes
fle
fleksjo
flet
flex
flieger
fliger
fligere
fligero
fligra
flin
flinik
flo
float
floor
flora
flores
florian
floriana
florio
flory
florystyczne
flot
flota
flp
flu
flying
fm
fn
fne
fny
fo
foetida
foka
folk
folklore
followed
following
fonseca
font
fontana
fontanna
fopke
for
forbes
ford
forma
format
forme
formo
forsycjo
forsyth
forsytha
forsythia
forte
forth
fortissimo
foster
fotografa
found
foundation
four
fourth
fr
fra
fragaria
fragmen
fragment
fragmente
frajbitro
frame
fran
franc
franca
france
frances
francesczi
francis
francisco
franciszek
franciszka
francja
francje
francji
francu
francusczi
francyszk
francyszka
frank
frankenchrist
frankfurt
franklin
franko
frankowska
franto
franz
frate
frauenkirche
frazeo
fre
freda
freddie
fredeland
frederick
free
fresh
fribu
fric
fridrich
friedhelm
friedhelma
friedland
friedrich
friedricha
fringillidae
frize
from
fructus
fruit
frydla
ft
ftp
ftu
fu
fuck
ful
full
function
functions
fundace
funereus
funkcja
furtado
further
future
g
ga
gabriel
gabriela
gac
gace
gach
gactwo
gadac
gade
gado
gady
gadze
gag
gagau
gaizin
gaja
galatcziko
gale
galeon
galere
galerijo
galerio
galice
galicyjsczim
galilejsczim
galium
gallinago
gama
gamma
gan
gandolfo
ganie
ganio
gano
gapa
gapie
garc
garcz
gard
garda
gardach
gardama
gardami
garde
garden
gardne
gardno
gardo
gardowe
gardowi
gardowizna
gardowo
gardu
gardze
gardzko
gargu
gark
garme
garnia
garno
garrulus
gaszenio
gate
gati
gatim
gatka
gato
gatunczi
gatunek
gatunk
gatunki
gatunko
gatunkowej
gatunku
gaudi
gawe
gayle
gaz
gaze
gazece
gazecie
gazeta
gazete
gazetniczka
gazetnik
gazo
gazu
gała
gałe
gało
gb
gbu
gbura
gda
gdain
gdainsku
gdan
gdana
gdanensis
gdansk
gdin
gdingen
gdini
gdinie
gdinio
gdinno
gdo
gdowa
gdowo
gdu
gdun
gdunsk
gdy
gdyni
gdynia
gdynio
gdze
gdzes
gdzie
ge
gecko
gedanensis
gel
gemini
gen
gene
general
generalitat
generally
generalne
generalno
generalny
generated
generator
generał
genero
generuja
geneticzne
geneza
genf
genhagen
geniusz
geniusza
genowefa
gentlemen
gentoo
genu
genus
geo
geografia
geograficzny
geographica
georg
george
gerais
gerald
geranium
gerard
gerat
gerata
german
germaniae
germanizace
germanizacji
gersczi
gerty
gesangbuch
geschichte
gesellschaft
gestapo
get
gg
ghz
gi
gia
gica
giczne
giczny
giedymina
giem
giersczi
gierszewskiego
gigantea
gika
gilgania
gillet
gimnastice
gimnasticzczi
gimnasticzi
gimnasticzno
gimnastika
gimnazjowe
gimnazjum
gina
giovanni
girl
gitanas
gitara
gitare
gitaro
gitarownik
gitarze
gitarzesta
gitarzista
giulia
giuseppe
give
given
giza
gje
gl
gla
glacjologio
gladys
glagolica
glandarius
glandirana
glareola
gle
gli
glikowice
glin
glis
glisno
glo
global
gloria
glowa
glowe
glowi
glowich
glowim
glownik
glowo
glowym
gmate
gme
gmewa
gmin
gmina
gminach
gmine
gminie
gminno
gminny
gmino
gminy
gmu
gn
gna
gne
gnia
gnie
gniew
gniewino
gniewo
gniez
gnieznien
gnio
gniowo
gno
gnoju
gnome
gnu
gnyew
go
goal
god
gode
godfather
godnika
godowe
godzin
goethe
goethego
goethes
gogh
goguryeo
going
gold
gone
good
google
gopher
gora
gordon
gore
goryeo
gos
gospodarstwo
got
gothic
goto
gottfried
gottlieb
gottlob
gov
gowo
goła
gpl
gr
gra
grabarka
grable
grabo
grabowo
grac
grace
grach
gracjana
grad
grado
gradzan
graf
grafa
graffiti
grafia
graficzne
graficzny
graficznym
grafie
grafijo
grafik
grafika
grafio
grafne
grafno
grafny
grain
graja
graje
gramaticzi
gramaticzna
gramaticzne
gramatika
gramatiki
gramatyka
grammatik
grammatikj
grammy
gran
grand
grane
granio
grano
grass
graudencz
graudenz
graveolens
grawitacyjne
gray
graz
grało
gre
great
greatest
grecce
greccze
grecczi
grecczich
grecczim
grece
grecje
grecji
grecjo
grecka
grecko
greczi
green
greengrass
grego
gregorijansczim
greiffenhagen
greifswald
greko
gren
grenlandsczi
grenlandzko
gretchen
grey
grif
grifa
grife
griffins
griffith
grifie
grifii
grifio
grifito
grilled
gripa
gripe
gripiewo
gripiewsczim
gro
grobach
grobe
grobnica
grobnico
grobo
grobu
groch
grocho
grochu
groda
grodach
grode
grodze
grom
gromada
gromade
gromadniczi
gromado
gromadza
gromadze
gromica
gromice
gromiczna
gromicznik
gromicznika
gromiczniku
gromnicznika
gromo
groove
grossulariaceae
groszy
grote
grotesque
groth
group
groupn
groups
groupstyle
groupwidth
growth
groß
gru
grucza
gruczy
grudencz
grudenz
grudnia
grudzia
grun
grunwalda
grup
grupe
grus
gruz
gryf
gryfa
gryfie
gryps
grza
grze
grzebie
grzebo
grzego
grzegorz
grzenia
grzenk
grzib
grzmia
grzmo
grzo
gsze
gszi
gszim
gszo
gt
gtn
gu
guczo
guinness
gulgowski
gume
gun
gunnar
gurewitz
gurewitza
gus
guyo
gw
gwar
gwara
gware
gwaro
gwatemala
gwda
gwde
gwe
gwen
gwinea
gwineja
gwineji
gwio
gwiz
gwo
gyddanyzc
gymeu
gymnastics
gyo
gze
gł
gła
głe
głi
gło
głodnica
głodny
głodowo
głodu
głogo
głole
głos
głosa
głose
głosno
głoso
głosowa
głosowe
głosu
głosył
głosze
głoszenie
głoszony
głowa
głowe
głowie
głowo
głowy
głuse
h
ha
hab
habilitacja
hades
hadesa
hadriana
haft
haftu
hafty
haga
hagar
halen
hali
halina
hall
halo
hambu
hamgyo
han
handel
hands
hangeul
hanja
hanka
hanna
hans
hant
happiness
happy
hard
hardcore
harmo
harmonia
harriet
harry
haruki
harvard
has
hat
hate
hatred
hauptwerk
have
having
hay
hayworth
hbr
hcard
he
head
header
headers
heading
heart
heath
heaven
heavy
hebe
hebr
hebrajcziko
hebrajscze
hebrajsczi
hebrajsczim
hedera
height
heim
heinrich
hej
hel
hela
hele
helena
heleta
helix
hell
helsinki
hemikryptofit
hemingway
hene
henri
henrik
henrika
henry
henryk
henryka
her
hera
herb
herba
herbie
herbu
hercego
here
heritage
herku
herman
hermana
hermann
hermu
herning
heronim
herrera
het
hetman
hewitt
hewo
heyke
hg
hh
hi
hiacyn
hiacynt
hiaticula
hidden
hide
hides
hieronim
hieronima
hieronymus
high
highly
higiena
hiiumaa
hilari
hilary
hildebrand
hilferding
hilferdinga
hill
hillbilly
hilton
himalaje
himn
himna
himnu
hin
hindustan
hint
hinze
hipo
hirundo
histore
historejo
historia
historiczna
historiczne
historiczno
historiczny
historicznym
historicznyma
historie
historii
historija
historik
historio
history
historyczna
historyczne
historyczno
hiszpan
hitler
hitlera
hitlerowsczi
hits
hk
hl
hle
hlonda
ho
hobby
hobelbank
hodie
hodowanych
hokkaido
holcroft
holcroftowo
holes
holiday
hollywood
holmes
holotyp
holstebro
home
homo
honoris
honorowa
honorowi
honshu
hoo
hook
hop
hope
hoppe
hora
horrible
horsens
hot
hotel
house
houston
how
however
hr
hrabia
hrer
hrsg
hryniewiecki
htm
html
http
https
hu
huang
hudson
hugo
human
huta
hwanghae
hybrid
hybrydowy
hypatia
i
ia
ib
ible
ibrila
ibsen
ibu
ic
icczich
icczim
ice
ich
icko
id
ida
idaei
identity
idila
idiofo
idiolect
idyotyzmo
ie
iel
if
ifpi
ignacy
igo
igor
igrzyskach
ii
iii
iju
ik
ikar
ikistanie
iko
il
illusion
illustration
ilosce
ilustrowany
im
ima
image
imageleft
imageleftstyle
imagerowclass
images
imagestyle
imienine
impere
imperium
imprint
in
ina
inc
included
includemetatable
includes
including
increment
indagacions
indeks
index
indian
indicating
indie
indoeu
indonesia
indonesian
indri
industre
ine
infinity
info
infobox
infoboxes
informace
informacja
informacje
information
informujemy
infrazwa
ingerence
inherit
inheritance
inie
inio
initial
inne
inner
innych
innym
inowe
insert
inserted
inside
instalace
instalowo
instance
instead
instituce
institucjo
institut
instituta
institute
instituto
instr
instrument
instrumento
instytut
instytutu
insze
inszi
integrated
intelektualnym
intended
interlingua
intermedia
intermediate
internally
international
internece
internet
internetowa
internetowe
internetowi
internetowich
internetowim
internetowo
internetu
interwiki
into
inwestice
inz
io
ip
ipairs
ipn
ipsilon
ipsum
iq
ir
irak
iraku
iran
iranie
iransczi
ire
ireann
iris
irish
irlande
irlandie
irlandii
irlandio
irlandzcze
irlandzczi
irlandzczim
irlandzko
iron
irreemplazable
is
isaac
isabel
isabelle
isbn
ise
iser
iserowo
isis
islam
islamie
island
islande
islandzko
iso
ist
istka
istnienie
it
ita
italiano
italic
italsce
italscze
italsczi
italsczim
italska
italsko
itd
item
itp
its
itself
ittf
iucn
iucnredlist
iure
iv
iwaja
iwale
iwane
iwanio
iwca
iwo
ix
izabela
izabeli
izabella
izolowo
izrael
izraela
izraelu
izydor
izydora
ił
iła
j
ja
jabka
jabko
jablo
jablonsczi
jabło
jabłon
jaca
jacczi
jace
jacek
jacela
jach
jachac
jachale
jachanie
jachaniu
jachce
jachele
jacho
jachoł
jachte
jachto
jachtuje
jack
jacka
jacko
jacks
jackson
jacobi
jacqueline
jacques
jacuba
jacze
jaczi
jaczich
jaczie
jaczim
jaczima
jaczims
jaczis
jada
jadamo
jadwidz
jadwiga
jae
jaenicke
jagelonowie
jagielon
jago
jagodami
jagody
jahrbu
jaj
jaja
jajach
jaje
jajo
jak
jaka
jakarta
jakbe
jakno
jako
jakos
jaku
jakuba
jama
james
jamne
jamni
jamno
jamnoce
jamny
jamnym
jamo
jamrotanie
jamy
jan
jana
jane
janeiro
janem
janggi
janie
janina
janio
janioła
janiołe
janioło
jank
janka
janke
jankie
janko
jankowski
jano
janowi
janowo
january
janusz
japo
japon
jaromir
jaromira
jarosz
jarosław
jarosławiec
jarosło
jarze
jase
jasin
jasku
jasna
jasne
jasnie
jasno
jasnogo
jasny
jaso
jason
jastarne
jastarni
jastarnia
jastarnio
jastarny
jastrama
jastre
jastrowa
jastrowi
jastrowie
jastrownik
jastrowniko
jastrowo
jastrze
jastrzibowate
jate
jawe
jawi
jawia
jawiac
jawiaja
jawił
jawiła
jawiłe
jawniła
jawo
jaws
jawscze
jawsko
jaya
jaz
jazda
jazde
jaze
jaznio
jazyk
jazyki
jazz
jazzowe
jałce
jało
jc
jca
jcach
jce
jcech
jcecha
jcecho
jcem
jco
jcowie
jcu
jcze
jczi
je
jean
jeane
jec
jecho
jede
jeden
jedin
jedincze
jedinczi
jedinka
jediny
jedle
jedna
jednak
jednako
jedne
jednego
jedni
jednim
jedno
jednoczasno
jednodze
jednojizbo
jednoroczne
jednoroczno
jednoroczny
jednorodne
jednostczi
jednostka
jednostko
jednostronny
jednota
jednote
jedny
jednym
jedurne
jedurno
jedurny
jedurnym
jedwo
jedza
jedze
jedzenie
jedzenio
jeff
jego
jej
jeji
jejich
jekatierina
jelbia
jele
jelen
jelin
jello
jem
jeme
jemen
jemu
jenero
jenifer
jennifer
jeremio
jeremy
jericho
jerozole
jersey
jerusalem
jeruzalemie
jeruzalemu
jerze
jerzego
jerzi
jerzko
jerzy
jes
jesc
jesce
jese
jeseni
jesme
jessica
jest
jesta
jestem
jestin
jestku
jesz
jeszcze
jewa
jewo
jewoda
jez
jezdze
jezdzo
jeze
jezero
jezerze
jezerzim
jezerzo
jezerzu
jezik
jezioro
jezo
jezor
jezora
jezorach
jezorama
jezorem
jezorko
jezoro
jezorze
jezu
jezus
jezusa
ji
jic
jich
jiczmio
jida
jidisz
jidz
jidze
jiga
jigle
jignacy
jigo
jigra
jigre
jigro
jigrzan
jigrze
jigła
jigłe
jigło
jiko
jilosc
jim
jima
jimanie
jimanim
jimczi
jimie
jimienine
jimk
jimka
jimmy
jimna
jimnia
jimo
jimperium
jimprezach
jin
jina
jinacza
jinaczi
jindiach
jindijsczi
jindijsczim
jindiwidualno
jindoeu
jindonezji
jindonezjo
jindustriowe
jindze
jine
jinfo
jinformace
jinicjatiwe
jinima
jinne
jino
jinocenti
jinosc
jinstitucja
jinstitucji
jinstitucjo
jinstrumen
jinstrument
jinstrumenta
jinstrumentach
jinstrumente
jinstrumento
jinstrumentu
jinsza
jinsze
jinszi
jinszich
jinszim
jinszima
jinszo
jinszy
jinszych
jintegracji
jintelektualna
jinterese
jinteresowałe
jinternece
jinternetowe
jinternetowi
jinternetowo
jiny
jinym
jinyma
jinz
jiranu
jire
jireneu
jirlandczim
jislam
jislandzczi
jistne
jistniała
jistniałe
jistniczi
jistnieja
jistnieje
jistnienie
jistnienio
jistnik
jistnika
jistniko
jistnio
jistno
jistny
jistnym
jistot
jistotama
jisz
jiszcza
jiszcze
jiszczu
jitalsczi
jiwer
jiwre
jizabela
jizba
jizbe
jizbie
jizbo
jizbowi
jizna
jizne
jizrael
jizraelu
jizydo
jj
jk
jka
jkasena
jkasin
jki
jko
jku
jman
jmiasta
jmo
jn
jna
jne
jnie
jno
jnota
jnote
jnowe
jnowi
jnowich
jnowim
jnowo
jny
jnym
jo
joachim
joan
joana
joanna
joanne
jocelyn
jodie
jodła
jodły
joe
joey
johana
johann
johanna
johannes
johansson
john
johna
johnny
jolanta
joliot
jones
jordan
jordanio
jork
jorku
jorsczich
joseon
joseph
jost
journal
jowale
jowe
jowi
jowisza
jowo
joyce
jozafata
jozef
joł
jpeg
jpg
jr
js
jscze
jsczi
jsczim
jsk
jska
jsko
jsku
jstwie
jstwo
jsz
jsza
jszewsko
jszi
jt
jta
jtostwa
ju
juan
juanes
jud
jude
judo
jugo
julia
julian
juliana
julianscziego
julie
julijansczi
julijsczi
julio
juliusz
jun
juncaceae
juncus
junien
junior
junioro
juniperus
jupiter
jurk
jury
juss
just
justin
justina
justine
justyna
juszczi
juszko
jutrzenka
juwe
juwerno
juwernote
juwerny
juz
jwo
jz
k
ka
kabaret
kabaretu
kabo
kac
kaca
kach
kack
kacper
kacpra
kaczka
kaczko
kaczyn
kadencja
kadencje
kadencji
kadia
kadna
kadne
kadnie
kadnosc
kadny
kadze
kadzmie
kadzmierza
kaeso
kafarnau
kagu
kahlberg
kai
kairo
kairu
kairze
kaja
kak
kala
kalasancjusz
kalasancjusza
kalcyt
kale
kaledon
kalifo
kalikan
kaliningrad
kalinowsczi
kalinowska
kalinowsko
kalipsa
kalipse
kalis
kalista
kalisz
kalko
kalku
kalmu
kalns
kalware
kalwaria
kam
kama
kambo
kame
kami
kamiane
kamianne
kamianno
kamianny
kamie
kamien
kamieniach
kamieniama
kamienica
kamienie
kamil
kamila
kamin
kamio
kamnica
kamo
kamowi
kan
kanada
kanade
kanadijsczim
kanadna
kanadny
kanady
kanadyjscy
kanadze
kanadzie
kanał
kanałe
kanału
kancelaria
kancele
kancle
kandidata
kandidato
kandidowała
kane
kanggye
kani
kania
kanie
kanio
kanko
kano
kanonie
kanonu
kanton
kantzow
kapela
kapelusz
kapibara
kapibare
kapitalizm
kapitalizmu
kapitan
kapitał
kapitena
kaple
kapu
kapłan
kara
karabela
karako
karata
karate
karato
karbo
karbonu
karce
karczewsczi
karczma
karczme
kard
kardigo
kardino
kardynała
kare
karel
karela
karen
kareszt
karie
kariera
karierze
karin
karku
karl
karlin
karlino
karna
karnach
karnama
karnem
karnie
karno
karnowscze
karnowsczi
karo
karol
karola
karole
karpate
karpin
karpiowate
karscze
karsczi
karsin
karsko
karstnitz
karta
karte
kartko
kartografa
kartografio
kartuski
kartuz
kartuzach
kartuze
kartuzy
karwica
karwio
karwno
karza
karzenie
karzenim
karzenio
karzełko
karznica
karła
kas
kasa
kaschubei
kaschuben
kaschubische
kaschubischen
kase
kasebsko
kashub
kashubia
kashubian
kashubs
kasper
kaspijscze
kaspijsczi
kaspijsk
kasyna
kasz
kasze
kaszeba
kaszebach
kaszebe
kaszebji
kaszebov
kaszebsko
kaszgarsko
kaszo
kaszpu
kaszub
kaszuba
kaszubach
kaszube
kaszubi
kaszubia
kaszubo
kaszubow
kaszubs
kaszubska
kaszubski
kaszubskich
kaszubskie
kaszubskiego
kaszubskiej
kaszubskim
kaszubskji
kaszubsko
kaszubsku
kaszubszczyzna
kaszubszczyzny
kaszuby
kat
kata
katalodz
katalog
kataloga
katalogu
katalon
katar
katarakte
katarina
katarze
katarzyna
katastrofa
kate
katedra
katedrze
katego
kategoria
kater
katerina
katgut
katharina
katharine
kathleen
kati
katie
katja
katka
kato
katole
katoleccze
katoliccze
katolicczi
katolickiego
katowicach
katowice
katownio
katre
katrine
katy
kau
kaukaz
kawa
kawalkada
kawe
kawel
kawice
kawiczczi
kawle
kawo
kay
kaz
kazac
kazachsczi
kazachstan
kazachstanu
kazacze
kazaki
kazana
kazałe
kaze
kazimierz
kazimierza
kazja
kazmie
kaznodzeja
kazo
kazu
kazywo
kała
kcytan
kczewo
kde
kdw
ke
keep
kel
kelly
kelnerka
kem
kennedy
kennedys
keramiko
kernel
kesha
kevlaru
key
keyboard
keys
kg
ki
kidman
kie
kiedrowski
kiedy
kielce
kiem
kiku
kile
kilimanjaro
kilka
kill
killaloe
killed
killers
kilo
kilome
kilometro
kim
kimchi
kina
kind
king
kino
kinowe
kirgistan
kirsburg
kirstein
kisze
kiszpork
kiwo
kiz
kizette
kizlar
kj
kk
kkk
kl
kla
klad
klapa
klara
klasa
klase
klasiczno
klasiczny
klasowi
klasyczna
klasyczne
klasyczny
klasyfikacjo
klasyfiko
klasyko
klasztorze
klatato
klau
klaus
klawiatur
klawiatura
klawiature
klawiaturo
klawisz
klawisza
klawiszowe
klawiszowi
klawiszu
klawiter
kle
klein
kleina
kleja
klejaja
kleko
klemens
klepacz
klepce
klepsydra
kleriko
kleszczin
klife
klifo
klimace
klimat
klimatu
klin
klincz
klo
klowanie
klowato
klu
klub
kluba
klubach
klube
klubie
klubo
klubu
klucz
klucza
klucze
kluczplata
kluko
kluwaja
kluze
km
kmink
kna
knach
knautia
kne
knego
kneiff
kni
knia
knie
kniewo
kniprode
kno
knoppix
knowledge
known
kny
ko
koala
kociewia
kociewie
kociewskich
kod
kodeks
kodu
koku
kol
kolberg
kolding
kole
kolim
kolonia
kolonija
kolosano
kolumbio
kolumna
kom
koman
kombi
kombinacje
kombinacjo
kombinat
komik
komorowski
kompendium
kompleto
kompo
kompozitora
kompozitorka
kompozytor
komu
kon
koncernu
koncert
kondukte
kongo
konkel
konkursu
konqueror
konrad
konspirator
konstanty
konstantyn
konstytucji
kontinentu
kontrole
kontrowe
konwencjonalne
koordynacja
kopernika
kopia
koppeln
kor
korczak
kordecki
kordylewscze
korea
korespondencja
korince
korintcziko
kornberg
korybut
kos
kosac
kosce
kosciol
koscoła
kose
koszalin
kov
kowale
kowalski
kownacka
koz
kp
kpz
kr
kra
kraj
kraja
krajach
kraje
krajem
krajen
krajenka
krajewio
krajin
krajina
krajine
krajinie
krajna
krajne
krajnie
krajno
krajo
krajobrazowy
krajowa
krajowi
krajoznawstwa
kraju
krako
krakowie
kran
kras
krasicczi
krater
kraticzna
krauze
krawe
krbechek
kre
kreacjo
kreativer
krefft
krem
kres
krese
kreslenie
kresliwo
kreslo
kreslone
kreso
kresu
kret
kretowiszcza
krew
krewne
krewny
kreyser
kreza
krezach
kreze
krezo
krezu
kri
krif
krife
krifo
krim
kristina
krisztalko
krite
kriterio
kriterium
kritika
kritiko
kriwaja
kriwo
kriza
krizys
krił
kro
kroczi
kroczne
krofea
krofeja
krofey
krok
kroko
kroku
krol
krom
kromer
kromlech
krone
kronika
kroniko
kronosa
kronum
kroplo
krosna
krosnowo
krotno
krowa
krowe
krowie
krowo
kru
krucjata
kruko
krumm
krupa
krwawo
krwi
krwia
krystyna
krza
krzama
krzan
krze
krzebce
krzeszna
krzeszowice
krzisen
krziz
krzo
krzyk
krzysztof
krzyz
ks
ksa
ksczi
kse
ksi
ksia
ksiazat
ksie
kso
ksuse
ksydza
ksyribo
ksyz
ksyze
ksza
kszanie
ksze
kszenie
kszi
kszich
kszim
kszo
kszosc
kształcenie
kszto
kt
ktawa
ktawe
kte
kto
ku
kuangsi
kubuntu
kuch
kuik
kuko
kul
kulczyn
kulesza
kultura
kultury
kun
kunis
kunlunem
kunst
kuracja
kuro
kurpisz
kursk
kurt
kurz
kuszaby
kuyo
kv
kwa
kwadra
kwadratowich
kwantum
kwarcowe
kwas
kwase
kwasne
kwaszone
kwe
kwiace
kwiat
kwiata
kwiatama
kwiate
kwiatnik
kwiatny
kwiato
kwiatowe
kwiatowi
kwidze
kwidzin
kwidzyn
kwiecien
kwietnia
kwio
kwisno
kwita
kwitna
kwitnie
kwo
ky
kł
kła
kład
kłade
kładu
kładze
kłe
kłedle
kłi
kło
kłodno
kłopo
kłos
kłose
kłoso
kłosowo
l
la
label
labels
laboratorium
labsczi
labu
labuda
labudda
lac
lace
lach
lacja
lacje
lacji
lacjo
lade
ladies
lady
laf
lafee
lager
lagopus
lagre
lagrowe
lagrowi
lagrowim
lagru
lagrze
laja
lake
lam
lama
lamiaceae
lan
land
lande
landeskunde
landsberg
landu
landzko
lang
lange
langenes
language
languages
lanie
lanio
lanka
lano
lanowa
lanowo
lanowsczi
lao
lapo
large
lark
larkin
larne
larnie
larno
larnota
larny
larnych
larnym
larry
larus
larwe
las
lasa
lasach
lasama
lase
lasfo
lasne
lasny
laso
lasowe
lasowi
lasowo
last
lasu
laszczi
lasze
laszenie
lat
lata
latac
latach
lataja
latama
latarnia
latawiska
late
latem
lathraea
latifolia
latina
latna
latne
latny
lato
latona
lator
latvijas
lau
laudato
lauenburg
laura
law
lawa
lawrence
layout
lazarus
lało
lberg
lberga
lbrze
lbrzegu
lbu
lc
lca
lcama
lce
lco
lcowate
lcowie
lczi
lczno
ld
lda
ldz
ldze
ldzi
ldzich
ldzim
le
league
leba
lebakaschuben
leca
leccinum
lece
lech
lecha
lechicka
lechicko
leco
lecy
leczka
leczko
lecznictwie
lecznicze
leczniczo
leczno
led
ledze
lee
left
leftowe
leftu
legacy
legaja
legen
legenda
legende
legii
lego
ległe
ległi
lehr
leibniz
lekarzkje
lekcje
lekcji
lekcjo
lekcjone
lekko
leksyko
leksykon
lektor
lektora
lelijo
lelio
lem
leman
lemika
lemna
lempicka
lemur
len
lenczi
lenia
lenie
lenina
lenio
lennox
leno
lenu
leo
leon
leonardo
leonid
lepi
lepio
lepiszczu
lepsze
lepszi
lepszich
lepszim
les
lese
lesne
lesniewo
lesno
lesny
leso
lesser
lestw
lestwa
lestwo
lesyn
leszcze
leszczinczi
leszczynki
leszek
lesława
lesło
let
letczi
lete
letko
letne
letni
letnie
letnisko
leucorrhinia
level
lew
lewa
lewan
lewandowski
lewe
lewi
lewim
lewina
lewinie
lewinka
lewinko
lewinku
lewino
lewio
lewis
lewno
lewny
lewo
lewscze
lewsczi
lewsczich
lewsko
lez
lezc
lezne
leznie
leznowe
leznowi
lf
lga
lgarsczi
lgarsko
lgo
lgorza
li
liban
libanie
liber
libera
liberalni
liberalno
liberio
libertyville
libio
libka
libor
library
libraryutil
lica
lice
licence
licencjo
license
liceu
liceum
licheniu
licje
lico
licza
liczba
licze
liczne
lider
lidera
lidz
lie
liechtenstein
lietilen
lietilenu
lietuva
lietuvos
life
liga
light
lights
ligo
ligu
lik
like
liks
liksa
lilewe
lilko
lim
limba
limit
limpiada
limpiado
limpijscze
limpijsczi
limpijsczich
lin
lina
linda
lindl
lindsay
line
linegrey
ling
lingua
lingwista
lingwisticzi
lingwistika
linia
linie
liniewo
linii
liniji
linio
link
linke
linki
links
linnaeus
linneu
linspire
linuksa
linuksowe
linuksowo
linus
linux
liny
lio
lipe
lipin
lipo
liprope
lipsk
lipsku
lipuska
lipusz
liskiewicz
lissabon
list
lista
liste
listed
listen
listn
listo
listpadding
lists
liststyle
listu
lit
lita
litechnice
litechnika
literacka
literackie
literato
literatur
literatura
literature
literatury
litewka
litewsczi
litewsko
lithuania
liti
litice
liticzi
liticzna
liticzne
liticzni
liticzno
liticzny
liticznym
litik
litika
litiko
lito
litologijo
litro
little
liturgia
liturgiczne
liturgiczny
liturgii
liturgiji
liturgio
live
livecd
liwa
liwe
liwii
liwio
liwko
liwne
liwo
lizo
lizowo
lił
lk
lka
lkama
lkan
lkane
lkaniczne
lkaniczno
lkaniczny
lkano
lkanowim
lklor
lkloristiczne
lkloru
lko
ll
llegenda
lli
llibres
lm
lmo
ln
lna
lne
lni
lnica
lnice
lnicowate
lniczi
lnie
lnienim
lnik
lnika
lnikem
lniko
lniku
lnim
lnio
lniony
lniła
lno
lnokształca
lnomiem
lnore
lnosce
lnosorbsczi
lnoszla
lnota
lnote
lnołuz
lny
lnych
lnym
lnyma
lo
load
lobata
lobelia
local
loce
loch
locha
lochov
loco
lodo
lodofo
lodowcowi
lodu
lodz
lodze
log
loga
logia
logiczne
logicznym
logie
logii
logiji
logijo
logio
logo
lohan
lokalne
loko
lolium
londin
londine
londinie
londinu
london
londyn
lone
longin
longoria
lonia
lonie
lonija
lonijo
lonio
lono
lony
look
loose
lopczi
lope
lopez
lopko
lore
lorem
lorentz
lorentza
loretan
los
losiz
lost
lot
lota
lotach
lotu
loud
louis
louise
love
lovelace
lowa
lowac
lowanie
lowanio
lowate
lowe
lowi
lowich
lowie
lowim
lowo
lowosce
loxia
loz
lp
lpe
lpo
lsce
lscze
lsczi
lsczich
lsczie
lsczim
lsczima
lska
lski
lsko
lsku
lsz
lszcze
lszewa
lszewie
lszewo
lszka
lszo
lsztin
lt
ltd
lte
ltece
ltet
ltu
ltura
lturach
lturalne
lturalno
lturalny
lturalnym
lture
lturne
lturno
lturo
lturowa
lturowe
lturowi
lturowo
lturze
lu
lub
luban
lubeccze
lubeka
lubelscze
lubelsczi
lubelsczim
lubelski
lubelskiego
lubi
lubia
lubic
lubiczk
lubiczka
lubin
lubinie
lubił
lubiłe
lublana
luble
lublin
lubnio
lubo
lubu
luce
lucerna
lucje
lucji
lucjo
lucy
lucyna
lud
ludach
ludlum
ludluma
ludnos
ludowa
ludowe
ludowej
ludoznawcze
ludoznawstwa
ludu
ludwik
ludwika
ludzie
ludzka
luke
luks
luksembu
luo
lupinus
lupus
luscinia
lusha
lustbader
luter
luteus
luther
luthera
luxembourg
luzino
lv
lwa
lwark
lwe
lwicowate
lwiek
lwo
lwowskich
lycopodium
lydnevi
lymnaea
lynds
lynx
lynxa
m
ma
mac
mace
maced
macedon
macedonia
macedonie
macedoniji
macedonio
maceja
macerzo
mach
machaczkała
machine
macho
macia
maciej
macieja
macintosha
mack
maculata
macy
macze
maczenia
maczenie
maczenio
mad
madagascar
madagaskaru
made
madonna
madonne
madrid
madrit
madz
madła
madłem
magaja
magazyn
magazyne
magazynowim
magazynu
magda
magdale
magdalene
maggie
magia
magisterium
magma
magna
magne
magnificat
mago
mai
maia
maiden
main
maintain
maior
maj
maja
majko
majkowski
major
maju
majus
mak
makako
make
makle
mako
maksymalizace
maksymiliana
maksymilio
mal
malarsko
malbo
malcu
male
malediwe
malek
malene
malezjo
malicki
malin
malinczich
mallorca
malny
malo
malowanio
malownik
malowo
malta
maltan
malus
mama
man
mana
manchester
manchesteru
mandago
mandat
mandatory
mandela
mandla
mandril
mandriva
mandrivalinux
mandz
mane
mania
manie
maniewid
manifestacje
manim
manio
manistne
mann
manne
mannoia
mano
manteuffel
manually
manuał
manuałach
manuałe
manuało
manubrium
manus
many
map
mapa
maps
mapuche
mapy
maraton
marc
marca
marcele
marchewny
marchio
marchionatus
marcin
marcina
marco
mare
marek
margare
margin
maria
marian
mariana
marie
marienburg
marienwerder
marii
marija
marije
mariji
marijo
marilyn
marina
marino
mario
maritima
mariusz
marjorie
mark
marka
marked
marks
markup
marle
marlon
marmara
marmo
maroko
marpress
mars
marsa
marshalla
marszo
marszu
marta
marte
martenica
marti
martin
martina
martinika
martinus
martius
martwe
marty
marwe
mary
marysien
marz
marze
marzec
marzen
marzena
marzo
marł
marła
marłe
marłi
marło
mas
masa
masakra
mase
masiela
maso
masowe
mass
massachusetts
massow
master
masywu
maszewo
maszina
maszine
maszopere
masłowice
mat
matarese
matarni
match
matczi
mate
matejko
matematiczi
matematiczka
matematiczne
matematik
matematika
matematyki
mater
matere
materia
materiale
materialna
materialny
materiał
materiała
materiałe
materiało
materiału
materiały
materie
materii
materio
mateu
mateusza
mathew
maticze
maticzne
matka
matke
matre
matthew
matura
matuszka
mausz
max
may
maya
mazowieccze
mazowiecczi
mazowiecczim
mazowsze
mazurach
mazurscze
mazursczim
mała
małe
małgo
małi
małich
mało
małopo
małpia
mału
mały
małz
mb
mbajn
mbin
mbinacjo
mbine
mbo
mc
mca
mce
mczi
mda
mdccxvi
mdze
mdzesz
me
mea
means
meant
mech
mechaniczne
mechaniczno
mechaniczny
mechanism
mechanizm
mechanizmie
mechanizmo
meche
mecho
mechu
mecklenburg
mecz
meczelbo
meczet
meczu
medal
medala
medale
medalia
medalista
medalu
media
mediach
medialno
mediawiki
mediawikis
medicyna
medicyne
mediczni
mediczny
medio
medium
meg
megiser
meisler
meklenbu
meksyk
meksykan
meksyku
melanie
melanocephalus
meleon
meleona
meles
melilotus
melodie
memka
memorial
memphis
men
mence
ment
mentach
mentalne
mentalny
mente
mentowo
menzura
menzure
meo
mepis
mer
mera
meran
merania
meranie
meranii
mercurego
mercury
merczi
mere
merko
merku
merulius
message
mesterstwo
mestwin
meta
metafo
metal
metallica
metalowe
metalu
meteo
metoda
metodi
metohie
metra
metro
metropo
metuszelach
mewa
mewe
mexico
meyer
mez
mezopo
mezzoforte
mf
mff
mffd
mfle
mg
mhnt
mi
mia
miach
mian
miana
miane
mianie
miannik
miannika
mianniku
mianowo
mianowskiego
miar
miara
miarach
miare
miarko
miaro
miast
miasta
miastach
miastecczi
miastka
miastko
miastku
miasto
miastowo
miała
miałe
miało
miały
mich
michael
michał
michała
michel
micho
mick
mickewicz
mickewicza
mickiewicz
mickiewicza
microformat
microformats
microsoft
middle
midz
midze
midzeno
mie
miec
miech
miecha
mieche
miecho
miechu
miecz
miecza
miecze
mieczysław
miedwie
miedz
miedza
miedze
miedzno
miedzwio
mieja
mieje
miejsce
miejscowe
miejscowos
miejscowych
miejscze
miejski
mielczarski
miele
mielno
miem
miemca
miemcach
miemcama
miemce
miemco
miemiecce
miemieccze
miemiecczi
miemiecczich
miemiecczim
miemiecka
miemiecko
miemiecku
mienia
mienic
mienie
mienim
mienio
mienione
mieniu
mieniwac
mieniwo
miennictwa
miennictwo
mierc
mierci
miere
miertelnos
mierze
mierzenio
mierzi
miesa
miescach
miesce
miescowo
miescy
miescył
miescze
miesczi
miesko
miestne
mieszczan
mieszczo
mieszczone
mieszczono
mieszczony
mieszka
mieszkac
mieszkaja
mieszkale
mieszkan
mieszkaniama
mieszkaniowi
mieszkała
mieszkało
mieszkele
mieszken
mieszko
mieszo
mietelnica
miewa
miewe
miewo
mieła
migliore
migracja
mihi
mike
miklosz
miklosza
miko
mikrosko
mikrowo
miksture
mil
mila
milano
milczewski
mile
milena
milicje
milime
milino
milio
miliono
miljo
mill
miller
milne
milvus
milwaukee
milwino
mim
mimo
min
mina
minaja
minas
mind
mine
mineral
mineralne
minerałe
minh
mini
miniaturowe
miniaturowej
minie
minio
minislack
minister
ministerstwo
ministra
ministro
mink
minkach
minko
minnesota
mino
minor
minority
minus
minut
minysterstwo
mio
miodownik
miodu
mion
miona
mionama
mionem
mionie
miono
mionowana
mionowi
miotk
miotła
mir
mirachowskiej
mirocho
mirosława
mirre
miru
mise
misfits
misja
misje
misji
misjo
miss
mississippi
miste
mistrzostw
misyjno
misyjny
miszewie
miszewo
mit
mitet
mitko
mitologie
mitologio
mitteilungen
miwo
mix
mixes
mize
mił
miła
miło
miłoce
miłos
miłoserdze
miłoszewa
miłoszewo
miłota
miłote
miłowo
mk
mka
mko
mku
mld
mle
mln
mm
mn
mna
mne
mni
mnia
mnich
mnicho
mnie
mniejszos
mniejszosc
mniejszoscia
mnienie
mnienim
mnijszi
mnik
mnika
mniko
mnio
mno
mnoce
mnodz
mnote
mny
mo
moce
mode
model
modele
modelu
modern
modules
moench
moga
mohr
moja
moje
mojito
moll
moment
monachium
monarchii
moncalvillo
monday
monedula
monica
monika
monitor
monowo
monroe
monte
montenegro
montserrat
monument
moon
moore
morales
morchella
mordawski
more
morska
morskie
mortensen
mortenson
morza
morze
morzim
morzu
mos
mosaic
moser
mosi
mosque
mossi
most
mostar
motacilla
mote
mount
move
moved
movie
mowa
mowe
mowy
moz
mozart
mozarta
mozela
mozilla
mozille
mozilli
mołdawio
mp
mpe
mpelk
mpilace
mpimk
mpliko
mpo
mpscze
mpsczi
mpu
mr
mra
mrach
mre
mro
mrocza
mrowiszcza
mroz
mroze
mrozy
mrze
mrzez
mrzo
ms
msce
mscze
msczi
msie
msko
msta
msza
msze
mszi
mszo
mt
mtv
mu
muddy
multico
multiple
munama
munchausen
mundial
muni
murakami
murakamiego
murgas
murtinho
mus
musała
muscicapidae
musee
museum
music
musicalu
must
musu
muszi
muttersprache
mutually
muza
muzea
muzeach
muzeum
muzyczi
muzyczne
muzyk
muzyka
muzyki
mw
mxpx
my
myanmar
myosotis
myrdal
myrtillus
mys
myself
mysłowice
mz
młe
młin
młina
mło
młoda
młode
młodi
młodich
młodim
młodima
młodo
młodokasze
młodosc
młodsze
młodszi
młodszo
młodze
młodzi
młodzowi
młyn
n
na
nabo
naboznich
nac
nace
nacel
nach
nachium
nacho
nacht
nacional
nacza
nacze
naczelsczi
naczk
naczyniowych
nad
nadaja
nadale
nadanie
nadczidka
nadine
nadlesyn
nadlez
nadmo
nadmorski
nado
nadrza
nadto
nadu
nadwis
nadz
nadzo
nadzwe
naestved
nafu
nagi
nago
nagrania
nagro
nagroda
nagrody
nail
naj
naja
najdze
naje
naji
najich
najim
najlepsza
najo
najswia
naju
najwie
najwyz
nak
naklo
nako
nakła
nakładnistwo
nakło
nalazła
nalazłe
nalazłi
nalazło
nale
nalewczi
nalez
nalezc
nalezle
nalne
nalo
nam
nama
namalowo
namaszczenie
namdo
name
named
namerko
names
namespaces
nami
namienione
namieniony
namo
nancy
nane
nanie
nanio
nanning
napa
napadło
nape
napisa
napisac
napisał
napiso
napitk
napitku
napo
napoleon
napro
naproce
narchia
nare
narko
naro
narodem
narodowa
narodowe
narodowego
narodowej
narodowy
narodowych
narodu
narodze
narodzenie
narodzenim
narodzył
narwa
narwe
narwo
narza
narze
nas
nasa
nasienne
nasta
naste
nasto
nasz
nasza
nasze
naszekaszuby
naszi
naszim
naszin
naszych
nat
natalia
natalie
natama
national
nations
natko
nato
natomiast
natura
nature
nau
nauk
nauka
nauki
naukowa
naukowe
naukowej
navbar
navbox
navboxes
navigational
navigator
navy
nawaho
nawen
nawet
nawetka
nawia
nawka
nawle
nawlekaja
nawo
nawro
nazaretu
naze
nazisto
naznaczone
nazo
nazw
nazwa
nazwe
nazwo
nazwy
nazywo
nała
nbong
nc
ncavo
nce
ncentrace
ncentracjowe
ncentracyjnym
ncentrowo
ncerce
ncert
ncerte
ncerto
ncertowa
ncertowi
ncertu
nchen
ncia
ncsa
ncz
ncze
nczi
ncziła
nczno
nd
nda
ndace
ndach
ndalski
nde
ndencja
nder
ndo
ndowo
ndukte
ndukto
ndze
ne
near
necessary
neck
neclo
need
needed
needs
nefczi
nefka
neglectus
nego
nehaj
nej
nek
nektar
nelly
nelson
nem
nemesis
nemu
nen
nento
neo
neogo
nepal
neptun
neptuna
nerwo
nes
net
nete
netscape
neu
neuenburg
neumark
neureiter
neureitera
neustadt
neutron
neutronowych
new
newcastle
news
newton
nferencjo
nfesjonalne
nfiture
ng
ngan
ngo
ngolsko
ngres
ngresu
ngyang
ni
nia
niach
niagara
niaja
niak
niama
niane
nibe
nic
nica
nicach
niccolo
niccze
nicczi
nicczim
nice
nicejsko
nich
nicho
nicht
nick
nicka
nico
nicole
nicowanie
nicowanych
nicowo
nicze
niczi
niczka
niczne
nicznym
niderlandzczi
niderlandzko
nie
nieba
niebezpieczny
niebezpieku
niebie
niebiescze
niebiesczi
niebiesczich
niebo
niebu
niech
nieche
niecho
niechte
niechterne
nieczede
niedalek
niedbo
niedo
niedopu
niedze
niedzela
niedzele
niedzo
niedługo
niefo
niego
niejedne
niejedny
niejistnieja
niejsze
nieko
niekto
niels
niem
niematerialny
niemce
niemco
niemczech
niemiec
niemieccze
niemiecczi
niemiecczich
niemiecczim
niemieckich
niemieckiego
niemiecko
niemiecku
niemo
niemu
nien
nienase
nienie
nienio
nieo
niepełnosprawnosca
niepo
nieprze
nieprzesta
niero
nies
niesc
niese
niesenie
nieskalone
niesku
niesmiertelnik
niespo
niesta
nieszczestle
niesze
nieszpo
nieu
nieustanne
niewe
niewiada
niewio
niewo
niewymieniona
niez
niezabe
niezabo
niezalez
niezao
niezgo
nieznanym
nigde
nigdy
niger
night
nigle
nigra
nigrum
nigsberg
nihon
nii
nija
nijak
nije
niji
nijne
nijo
nik
nika
nikace
nikacji
nikaja
nikama
nike
nikiem
niko
nikolaas
niks
niku
nikwia
nil
nilem
nilu
nim
nima
nimi
nimo
nina
ninia
nino
nio
nione
niono
niony
niosa
niosłe
niowate
niowe
niowi
nippon
niro
nirvana
nis
niscze
nisczi
niska
nisko
nisto
nisus
niszcza
niszcze
niszczi
nisze
niszi
niszo
nitczi
nitka
nitko
nitsch
niu
niveau
nivel
niwa
niwersitece
niwersytecczi
niwersytece
niwersytet
niwersytetu
niwie
niwiznie
niwny
niwo
niz
nizna
nizne
nił
niła
niło
nj
nje
nji
nk
nka
nkach
nkama
nkarz
nkarze
nkarzo
nkate
nkce
nkcja
nkcje
nkcji
nkcjo
nkcjone
nkiem
nko
nkowate
nkretna
nkretne
nks
nksne
nkt
nkte
nkto
nktu
nku
nl
nmp
nn
nna
nne
nnica
nnice
nnik
nnika
nniko
nnnnnn
nno
nny
no
nobel
nobis
nobla
noble
noblista
noc
noca
noce
nocna
noczo
nodz
nodzi
noe
noemi
noga
nogach
nogama
nogarle
nogo
nografii
nografio
noma
nomachi
nomastika
nomen
nomiczna
nomiczne
nomiczny
nomijo
nominacja
nominacjo
nomine
nominowo
non
none
nople
norberta
norbertanko
norda
norde
nordo
nordowa
nordowe
nordowi
nordowim
nordowo
nordowy
nordowym
nordze
norka
norma
normally
normalno
norme
normo
norodowo
norowe
north
northern
norway
norwegian
norwegii
norwesce
norwesczi
norwesko
nos
nosc
noscach
nosce
nose
nosi
noso
nosoro
noster
nostra
nostradamus
nostre
nostris
nostrum
nosy
nosza
noszenie
noszenio
noszi
noszo
noszono
not
nota
notacji
notariuszo
note
notec
noteca
notes
nothing
noto
notoc
nou
noua
nova
nove
noveho
novi
novum
now
nowa
nowac
nowaka
nowate
nowe
nowego
nowi
nowich
nowie
nowiksze
nowim
nowina
nowinczi
nowo
nowosielski
nowotne
nowscze
nowsczi
nowsko
nowsze
nowszi
nowuke
nowy
noz
np
npm
nr
nro
ns
nsca
nsczi
nsczich
nsczim
nsdap
nse
nserwowo
nsk
nsko
nsku
nstantin
nstantinopo
nstituce
nstitucjo
nstitucyjna
nstrukce
nstrukcja
nstrukcji
nstrukcjo
nsula
nszi
nt
nta
ntakt
ntakto
ntana
nte
nter
ntinent
ntinenta
ntinentach
ntinentalny
ntinentalnym
ntinente
ntinentu
nto
ntra
ntrakt
ntrola
ntrolowo
ntuara
nu
nudle
nudlo
nufri
nuja
number
numbers
numer
numre
numrze
nunc
nuncjusz
nwencje
ny
nych
nym
nyma
nyon
nywaja
nywo
o
ob
obczas
obe
obecnie
objimo
obracht
obraze
obres
obrony
obrze
obrzez
obszarze
oce
oceanii
och
ochrona
ochrony
od
odd
oddstyle
oddział
odense
oder
odjimk
odkre
odkrewca
odonata
odorata
odp
odpowiedzi
odste
odyniec
odzyskanych
of
off
office
official
officinale
officinalis
offspring
ofiar
oficjalno
oficyna
ofm
often
ogg
ogo
ogro
oh
oi
ois
ojc
ok
okolicy
około
okra
okre
okres
okro
okroj
okrytonasienne
oksytan
ol
ola
old
olga
olimpijsczich
oliwa
olsztyn
omaha
omitted
on
ona
one
oni
only
ono
ontario
ony
onych
onym
onz
oo
opatrzył
opatrzyła
open
opensuse
opera
opisy
opole
opowies
opposite
oppressed
oprac
opracowała
oprze
option
optional
or
oraz
orchestral
order
oreiro
org
organ
organizacja
orgue
orig
original
orle
orobanchaceae
orp
ortelius
orthilia
orzeche
orzeł
os
osada
osadnictwo
oscara
osiek
oskar
oslo
osnovnych
oso
osobistos
osoble
osobowos
osowo
ossolin
ossolineum
ostatnia
ostatnie
osterman
osto
ostro
ostrowo
ostrowska
ota
ote
other
others
otis
ottawa
otto
otus
otwarto
ou
our
out
outer
outposts
outside
over
overridden
owanie
owate
owe
owi
own
owo
oxford
oz
oznaczania
ozno
oła
ołnierz
ołowiu
p
pa
pablo
pac
pace
pach
pacino
pacjento
pacyfiku
pacze
paczewo
paczka
paczla
pad
padaja
padalc
padalca
padalec
padding
pade
padla
padle
padna
padne
padni
padnim
padno
padnopo
padnosłowian
padny
padnym
pado
padowi
padu
padwe
padwie
padze
padłe
padło
page
pages
pai
pair
paja
pajczi
pajicze
pajk
pajka
pak
pakistan
pako
palace
palacio
palast
pale
palma
palme
palmo
palmyra
palny
palumbus
palustre
palustris
pama
pamfile
pamia
pamie
pan
pana
panama
pancerny
pane
pani
pania
panie
panien
panienczi
pank
panna
panne
pano
panorama
panoramio
panowanie
panowanio
panownik
panowo
panthera
panu
papenzin
paper
papie
papiesczi
papiez
papio
papiore
papirnio
papiruse
papla
paprika
papu
para
parade
parafia
parafiach
parafialne
parafialny
parafialnym
parafie
parafii
parafijo
parafio
paragwaj
parameter
parameters
paramore
parana
parce
parchatnica
parcho
parchowo
parczewsczi
parczi
pare
paris
pariz
pariza
parizu
park
parko
parku
parlamen
parlamence
parlament
parlamentarne
parlamentarno
parlamentarnych
parlamentu
paro
parola
pars
part
parta
parte
parti
partie
partizana
partnerscze
partnersczi
partnersczima
parto
parts
partu
party
parus
parva
parze
parła
pas
pasa
pasaz
pascal
pase
pasewalk
pasie
pasma
pasmama
pasmo
pasowac
pasowne
pasowno
pasowny
pasowo
passer
passing
pasta
pasterno
pastor
pastora
pasturz
pasu
pasyczi
pasyka
pasyko
paszpo
pater
patrick
patrika
patrioticzne
patro
patron
patrona
patronat
patrone
patrznosce
pau
paul
paula
paulo
pawa
paweł
paweła
pawio
pawle
pawła
pawłowi
pawłowski
paz
pazdze
pała
pałac
pałacu
pc
pca
pce
pchłe
pclinuxos
pco
pcz
pcza
pcze
pczi
pczu
pdf
pe
pearl
peck
pedago
pedale
pedał
pedałem
pedału
pedis
pegg
peggy
pekao
pekin
pel
pelagio
pelagiusz
pelargonio
pelargonium
pelle
pellowski
pelophylax
pelple
pelplin
pelplina
pelplinie
pem
pen
penhaga
peniston
pennsylvania
pennywise
pensylwania
penzjo
people
peperle
peplin
peplo
per
peracjowa
peracjowi
peracjowo
peratora
percepcji
perczyn
performance
periko
perikopen
perkowski
perku
pero
perowo
perpu
pers
perscze
persczi
persicaria
persko
person
persone
personowe
perspektywy
perszon
perth
peru
peruwian
perła
pes
peso
pestka
pestko
petasites
pete
peter
petersbu
petersburg
peut
pewne
pezydent
pełnia
pełnic
pełnio
pełnił
pełno
pg
ph
phage
phalacrocorax
phaseolus
phasianidae
phil
philip
phoenix
photographs
php
pi
pia
piac
piaja
piana
pianie
pianista
pianistka
piano
piarce
piarta
piarte
piarti
piartich
piarto
pias
piasku
piasto
pic
pica
pice
pich
pichlo
picho
picidae
pick
pico
pictures
picus
pie
piec
piece
pieces
piecho
piechowice
piecza
piecze
pieczi
pieka
piekarnio
pieko
pieku
piekłe
piekłi
piekło
piele
pielgrzimczi
pielgrzimka
pielgrzimko
pielgrzimo
pielgrzymom
pielnicowe
pielniczka
pielno
pielsczim
pien
pienia
pienie
pienim
pienio
pieniu
pienne
piepka
piero
pierre
piers
piersi
piersza
pierszczewo
piersze
pierszego
pierszi
pierszich
pierszim
pierszo
pierwi
pierwio
pierwo
pierwotne
pierwsza
pierwsze
pierwszi
pierwszo
pierwszy
pies
piesn
piesni
piesnia
piesniama
piesnie
piesnio
piestrze
piewnik
piewo
pieła
piełe
pija
pijaro
pijarze
pijo
pikarnio
piko
pila
pile
pilgrim
pilnuje
pilsner
pim
pin
pina
pinaceae
pinc
pinca
pinceta
pincu
pinczer
pine
pingwin
pingwine
pinie
pino
pinus
pio
pioch
pione
pionierski
pionowe
piony
piore
piosenczi
piosenka
pioter
piotr
piotra
piotre
piotrogard
piotrowicach
pipa
pipe
pipo
piramida
piramide
pires
pis
pisa
pisac
pisale
pisane
pisanio
pisaniu
pisarz
pisarze
pisczi
pise
pisele
pisenku
piska
piskla
pisko
piskorski
pism
pisma
pismach
pismie
pismienizna
pismienizne
pismio
pismiona
pismionie
pismiono
pismo
piso
pisowni
pisownie
pistols
pisu
pisuja
pisywo
pisza
piszcza
piszczo
pisze
piszku
pitku
pito
pius
piusa
piwa
piwac
piwaja
piwało
piwo
pizgla
pił
piła
piłata
piłe
piłka
piłkarsczi
piłkarza
piłko
piło
pje
pk
pka
pko
pkt
pl
plac
placa
placach
place
placed
plachcowi
placo
placu
placyd
plain
plame
plan
plane
planet
planeta
planete
planeteers
planeto
planie
plankto
plansza
planszowe
plant
plantaginaceae
plantarum
plaskati
plaskatim
plaskato
plastic
plasticze
plastiko
plastiku
plata
platana
platczi
plate
platfo
platforma
platforme
platinowi
platinum
platka
plato
platowi
platyrhynchos
plaz
plazynski
plc
pld
ple
please
plebiscycie
plecach
plecama
plece
pleco
plecowi
plemia
plemienia
plemion
plemiona
plemiono
pleuronectidae
plewa
plin
plina
pln
plo
plotdata
plote
plotłe
plug
plurale
plus
pluton
pmc
pmcid
pmid
pna
pne
pnego
pnem
pneu
pneumaticzne
pneumaticzno
png
pnia
pniama
pnica
pnice
pnie
pnik
pnika
pniowo
pniu
pno
pny
pnym
po
poaceae
pobłocie
pociech
pocza
poczta
pod
podania
pode
podgromada
podlaska
podlaski
podmioto
podobien
podre
podro
podstawie
podstawowe
poe
poesia
poeta
poetka
poets
poezja
poezje
poezji
pogan
pogano
pogo
poguttke
point
pojezierze
pojezierzu
pokazanio
pokaze
pokoju
pol
poland
polcul
pole
poli
police
polish
politiczi
politiczni
politiczno
politiko
polityka
polnisch
polo
pologne
polonia
polpelin
polplin
polsce
polscze
polsczi
polsczich
polscziego
polska
polskapresse
polski
polskich
polskie
polskiego
polskiej
polskieradio
polskim
polsko
polygonaceae
polygonum
polyphyllus
pomatia
pomerania
pomeraniae
pomeranii
pomieczyn
pommerellen
pommern
pommersche
pomnik
pomo
pomor
pomorania
pomoranischen
pomorska
pomorski
pomorskich
pomorskie
pomorskiego
pomorskiej
pomorskim
pomorza
pomorze
pomorzu
pompo
pomysk
ponad
poniatowski
pontanus
pontanusa
pop
popierania
popowska
popr
popu
popularno
population
por
poradnik
pore
poro
port
portal
portalu
porzeczka
pos
positiv
positive
pospolita
possessivus
possessivusa
possible
possum
post
posta
posł
pote
potemu
potentilla
powanie
powate
powała
power
powiat
powiew
powio
powo
powstał
powstała
powsto
powszechna
poz
poza
poznan
pozostanie
pozostałe
pozytiw
połowie
połoz
południowym
pp
pr
pra
prabu
prabuty
praca
prace
pracowac
pracowo
pracy
pradole
pradz
pradze
praesidium
praga
pragna
pragne
praktice
prakticzno
praktika
praktiko
pranio
prasa
prascze
prasczi
prasł
prasłowian
pratensis
praust
praw
prawa
prawach
prawdopo
prawe
prawi
prawidła
prawidło
prawie
prawio
prawna
prawne
prawnicze
prawnik
prawno
prawny
prawo
praz
prałata
pre
prekmu
preku
preload
premie
premier
premiera
pres
president
press
preussen
preußen
prezbiter
prezentacja
prezesa
prezydencka
prezydent
prezydenta
prima
prime
primitiwny
prince
principatibus
principał
principału
princypałowa
prisko
prisztina
prius
privilegium
priwatna
priwatne
priwatny
priwatnym
prix
priz
prize
prl
pro
problem
problemama
probleme
problems
problemu
probo
proc
proce
proceedings
procem
procemny
procent
proces
procesa
procese
procesie
procesji
proceso
process
procesu
prodromus
produ
produce
producent
producenta
produkce
produkcja
produkcje
produkcji
produkowana
produkt
produkte
produkto
produku
prof
profesjonalne
profesjonalnej
profeso
profesor
profesora
profesoro
program
programa
programach
programe
programie
programo
programu
projechte
project
projekt
projekto
projektowanego
projektu
proklamacje
proko
proliszk
proliszko
prologu
prometeusza
promieniowanie
promieniowanio
promised
promo
prondzyn
propagatora
propago
properly
propo
prorektora
proroko
prosba
prose
proslava
prosta
proste
prosti
prosto
prostoka
prostono
prostota
prosza
protestanccze
protestance
protestanto
protocol
protoko
prototyp
proud
provided
provides
prowadnik
prowadnika
prowadza
prowadze
prowadzenie
prowadzenim
prowadzone
prowadzono
prowadzony
prowadzy
prowadzył
prowince
prowincja
prowincje
prowincji
prowincjo
prowo
proza
prozatorscze
prozatorsczim
proze
pru
prunus
prus
prusy
pruszcz
pruszko
pryczkowski
prymas
prymasa
prywatne
prz
prza
prze
przebe
przebendowsczich
przebie
przebiwaja
przebiwo
przeboje
przebu
przece
przechlastło
przechlewo
przecho
przecyga
przecygna
przecyw
przecze
przed
przede
przedko
przedmiesce
przedmiot
przedmiote
przedmioto
przednik
przedno
przedo
przedolmacził
przedoste
przedpo
przedre
przedsa
przedsle
przedsto
przedszko
przedwo
przedz
przedzaja
przedłe
przedłuz
przegla
przegrodo
przeja
przejimnia
przejimo
przejo
przekaze
przekaziwo
przekazywo
przeko
przekro
przekł
przekład
przekło
przeme
przemian
przemiana
przemiano
przemiarze
przemienienio
przemo
przeniesono
przenim
przenio
przeniosła
przeniosłe
przeniosło
przeno
przenosza
przeo
przepise
przepisy
przeplo
przepo
przeprowadzono
przeprowo
przepłiwo
przero
przerobic
przerobizne
przerwa
przerwo
przes
przesa
przese
przeso
przesta
przesto
przestrze
przestrzeni
przestrzenny
przesuwanie
przeszedł
przeszko
przeszto
przeszła
przeszło
przeszłoce
przesłe
przesło
przetocze
przetołmacził
przetrze
przetrzima
przetwo
przewidzo
przewiozłi
przewiz
przewo
przewodnicza
przewodnik
przewłoka
przez
przeze
przezeblo
przeznaczone
przezwe
przeł
przeła
przeło
przełoz
przibo
przigo
przigode
przikłada
przikło
przin
przirodze
przista
przo
przodko
przodkowo
przy
przyborze
przyczynek
przyczyniła
przygody
przygot
przygotowała
przyja
przyjaciel
przyje
przykład
przypise
przypisy
przypowies
przyroda
przyrodnicze
przyrody
przysie
przystanek
przywidz
przywro
ps
psa
psalm
psalme
psalmo
pscownik
pscze
psczi
pse
pseu
pseudoepigrafe
pseudonim
psk
pska
psko
psku
psl
pso
psota
psotniko
psowate
pstwa
pstwama
pstwo
psy
psychiczne
psycho
pszcze
pszczeli
pszczelo
pszczo
pszczolnik
pszczoła
pszczołe
pszczołowate
psze
pszene
pszi
pszmie
pszo
pt
ptace
ptach
ptaki
ptako
pto
pu
public
publicysta
publicystyka
publicznej
publikacja
publiko
publishing
puc
puck
pucka
puckiej
pucko
pucku
puczk
pugnax
puja
puje
pukto
pularno
punk
punka
punko
punks
purge
purple
pustk
pustkovju
put
pute
puts
puttkamer
putzig
pw
pwn
px
py
pyrola
pyrrhula
pytania
pywaja
pz
płace
płacza
płacze
płata
płate
płaz
płaze
płazo
płazy
płe
płito
płiwaja
płiwo
płk
pło
płocze
płonny
płota
płotczi
pług
q
qa
qu
quadrophenia
quale
quatre
que
queen
queensland
quelli
quercus
querquedula
qui
quilling
quintanilla
r
ra
rab
rabat
rabiac
rabo
rabu
rac
race
rach
rachan
rachu
racibo
rade
radia
radio
radioaktiwnosczi
radiowe
radiska
radiu
radnym
radtke
radun
radworze
rady
radze
rafa
rafał
rafała
rafe
rafo
rage
rahmel
raja
rajd
rajin
rajmu
rajon
rake
rakie
rako
rale
ralne
ralno
ralnym
ralowi
rama
ramach
rame
rami
ramo
ramu
ramułt
ramułta
ran
rana
rancid
randz
rane
ranga
rania
ranidae
ranie
ranio
raniu
ranka
ranko
ranu
ranunculaceae
ranunculus
raoul
raper
rapo
raport
rariorum
rasa
rase
raso
rat
rather
ratifiko
ratusz
rauchpfeife
rawscze
rawsczi
rawska
rawski
rawsko
ray
raz
raza
raze
razem
razny
razo
razu
razy
rała
rałe
rb
rba
rbanizacjo
rbio
rbionko
rble
rbo
rc
rca
rcama
rce
rcel
rcelane
rch
rchardztwo
rchawica
rchel
rchle
rcho
rci
rcla
rcle
rclo
rco
rcowi
rcz
rcze
rczi
rczibas
rczice
rczinie
rczo
rczos
rczosc
rczosce
rd
rda
rdawscze
rdawsczi
rde
rderu
rdest
rdesto
rdestowate
rdinariuszem
rdinate
rdio
rdionie
rdionista
rdioniste
rdiono
rdo
rdowale
rdowele
rdowo
rdz
rdzawo
re
rea
reace
reagan
realizace
realizacje
realizacji
realize
realizowo
reasons
reatka
rec
reccze
recczi
recczich
recho
rechu
recipe
recit
recki
recko
reco
recommended
recordings
records
recowati
reczka
red
reda
redachtora
redago
redakcja
redakcje
redakcji
redakto
redaktor
redaktora
rede
redhat
redlin
rednio
redniowieczne
redun
reduni
redunia
redunio
redz
redze
redłowo
redłowsko
reel
reese
referat
referendum
refo
refrena
rega
regio
region
regionach
regionalna
regionalne
regionalny
regionalnym
regione
regionie
regiono
regionu
register
registra
registre
registro
registrowe
registrowi
registrowo
registrze
regla
regle
reglin
regnum
rego
regu
regular
regulus
rei
reign
reinfeld
reinhold
rej
reja
rejan
rejane
rejano
reje
rejestru
reji
rejo
rejter
reka
reknica
reko
rekowo
rekowski
rekto
rektora
relace
relacje
relatiwno
rele
released
religiach
religie
religii
religija
religijach
religijne
religijny
religijo
religio
religion
religious
relikwie
remastered
remember
remiona
remix
remixes
remo
remontu
remove
remu
remus
remusa
ren
rena
renata
rencji
renczi
rendered
rendering
rene
renee
renesansowe
renione
renko
renner
reno
renowim
reo
repens
repertuar
replika
repo
representation
reprezentace
reprezentacji
repu
republiczi
republika
require
required
requires
resinburg
resko
respo
result
reszce
reszta
reszte
resztki
retac
retk
reto
return
returns
reu
reveal
rewa
rewers
rewo
rewoluce
rewoluceji
rewolucjonista
rez
rezecz
rezerwace
rezerwat
rezerwate
rezerwato
rezerwatu
rezerwu
rezonansowe
rezultace
rezultat
rezultata
rfo
rg
rga
rgan
rgana
rganach
rgane
rganiczne
rganiczno
rganisce
rganista
rganiste
rganizace
rganizacja
rganizacje
rganizacji
rganizacjo
rganizatora
rganize
rganizme
rganizmie
rganizmo
rganizowac
rganizowałe
rganizowo
rganme
rgano
rganowe
rganowi
rganowo
rgard
rgardu
rgardzczim
rgie
rgio
rgnienie
rgo
rgu
rhamnus
rhan
rhapsody
rheta
rhinemann
rhinemannowo
rhode
rhythmic
ri
ria
rian
riana
rib
ribes
ric
rica
ricci
rice
ricerz
ricerze
rich
richard
richarz
richtosce
ridibundus
ridz
ridza
ridzowe
rie
riga
rigen
right
rightarrow
riginalno
rihanna
rii
rik
rilo
rim
rima
rina
ring
rintcziko
rio
riot
riparia
rise
riszard
riszarda
rita
river
riwny
rizowo
rizyka
rjk
rk
rka
rkach
rkama
rkestre
rki
rkina
rkj
rko
rku
rle
rlin
rlo
rm
rma
rmace
rmach
rmacje
rmacji
rmacjo
rmalno
rmalny
rmama
rmark
rmaticzi
rmatika
rmatoro
rme
rmf
rmie
rmo
rmu
rna
rnawi
rne
rnech
rnego
rnej
rnemu
rni
rnia
rniak
rnica
rnich
rniczi
rnije
rnik
rnika
rniko
rnim
rnio
rno
rnogo
rnogłowo
rnosc
rnosorbsczi
rnota
rnowicz
rnowsczi
rnołuz
rny
rnych
rnym
rnyma
ro
road
roadrunner
robacznica
robe
robert
roberta
robertianum
roberts
robi
robia
robiacech
robic
robie
robienie
robienim
robienio
robile
robin
robina
robine
robino
robio
robione
robiono
robiony
robił
robiła
robiłe
robo
robota
robote
rock
rocka
rockabilly
rocko
rocze
roczi
roczice
roczitczi
rocznice
rocznik
rod
roda
roddama
rode
rodek
rodem
rodna
rodne
rodnego
rodni
rodnich
rodno
rodnosc
rodnosce
rodny
rodnych
rodnym
rodo
rodowe
rodowi
rodowiska
rodowizne
rodowo
rodu
rodz
rodza
rodzaj
rodze
rodzen
rodzena
rodzenie
rodzenio
rodzico
rodzo
rodzone
rodzony
rodzy
rodzył
rodzyła
rogala
rogalewo
rogeneza
rogeneze
roger
rogge
rogo
rogu
rok
roka
rokasze
roko
roku
rola
role
roli
rolne
rolnictwa
rolnicze
rolniczych
rolo
rologio
roma
roman
romana
romani
romanow
romanowski
romanso
rompscze
romuald
ron
ronald
rondo
ropa
ropatka
rope
ropejscze
ropejsczi
ropejsczich
ropejsczim
ropejska
ropejsko
ropie
roppel
ropy
rort
ros
rosa
rosaceae
rosamaria
rosc
rosca
roscach
rosce
roscena
rosco
rose
rosji
roskilde
rosle
rosna
rosnik
rosprave
rossonoemi
rost
roste
rostopo
rostu
rosyjskim
rosła
rosłe
rosło
rosłowian
rotacje
roth
rotting
rotundifolia
round
router
row
rowa
rowac
rowach
rowania
rowanie
rowanim
rowanio
rowate
rowała
rowc
rowe
rowi
rowie
rowiejsko
rowina
rowno
rowo
rows
roxanne
royal
royen
roz
rozbice
rozbu
rozca
rozce
rozcygaja
rozcygnia
rozcygo
rozde
rozdrze
rozdze
roze
rozegrace
rozegracjach
rozegro
rozemkłi
rozeszłosc
rozewie
rozewiu
rozgała
rozgriwo
rozko
rozkosce
rozmaice
rozmaite
rozmajice
rozmajite
rozmajiti
rozmajitich
rozmajitim
rozmajitima
rozmajito
rozmajitosc
rozmajitosce
rozmario
rozmiarach
rozmiec
rozmieja
rozmieje
rozmiejeme
rozmienim
rozmieszczenie
rozmio
rozmo
rozmowa
rozmowy
rozno
rozpa
rozpo
rozporza
rozpoznawania
rozprowo
rozpu
rozriwko
rozro
rozrywki
rozsa
rozse
rozsko
rozso
rozstrze
rozsze
rozszerzone
roztoczi
roztoka
roztoko
roztra
roztwo
rozumienie
rozwaz
rozwerk
rozwia
rozwice
rozwicym
rozwij
rozwija
rozwijaja
rozwijanio
rozwijała
rozwijo
rozwiju
rozwina
rozwinia
rozwo
rozwoju
rozłaze
rozłoz
rp
rpa
rpo
rpu
rs
rsa
rsach
rsce
rscze
rsczi
rsczich
rsczie
rsczim
rsczima
rse
rsk
rska
rsko
rsku
rso
rsora
rstwa
rstwie
rstwo
rsu
rsyce
rsyn
rsz
rsza
rszcz
rsze
rszewo
rszewsczi
rszewsczim
rszi
rszim
rszko
rszo
rt
rta
rtach
rtal
rtala
rtalu
rtama
rtaz
rte
rterbuch
rti
rtifikace
rtim
rtk
rtka
rtna
rtne
rtno
rtnoce
rtnota
rtnote
rtnoto
rtny
rto
rtosc
rtosce
rtowe
rtowi
rtowich
rtowim
rtowo
rtre
rtret
rtrete
rtu
rtugalsczi
rtugalsczim
rtugalsko
rtyfikace
ru
rubecula
rubi
rubin
rubus
ruch
ruchna
ruchnach
ruchno
rucho
ruchu
ruda
rude
rudolfa
rufus
rugenwolde
rugosa
rujan
rujana
rujanie
rum
rumex
rumia
rummelsburg
rumu
runita
runitka
runitko
runito
runitwe
rus
rusce
ruscze
rusczi
rusczich
rusczim
ruse
rusje
ruska
rusko
rusku
rusowata
rusowato
russia
rustica
rusticola
rusyn
rusynsczi
ruta
rutczi
rute
ruyenwold
rwaccze
rwacczi
rwacczim
rwace
rwacja
rwacjo
rwacka
rwacko
rwalde
rwate
rwi
rwica
rwik
rwo
ry
ryan
ryanggang
rybne
rych
rym
rynek
rypin
rys
rysy
ryszard
rz
rza
rzac
rzach
rzaja
rzama
rzanama
rzani
rzanie
rzanim
rzanio
rzano
rzata
rzate
rzawa
rzałe
rzałi
rzce
rzch
rzchni
rzchny
rzcho
rzchu
rzcz
rzcze
rzczi
rzczich
rzczim
rze
rzebo
rzec
rzech
rzeche
rzecz
rzecze
rzeczenica
rzeczenie
rzeczi
rzeczo
rzeczpo
rzeczpospolita
rzeczypospolitej
rzeka
rzekle
rzekł
rzekła
rzekłe
rzele
rzem
rzemia
rzen
rzeni
rzenia
rzeniama
rzenie
rzenim
rzenio
rzeniowim
rzeniu
rzep
rzepu
rzestowo
rzestowsko
rzesze
rzeszi
rzeszo
rzewie
rzewo
rzez
rzezbama
rzezbe
rzezbione
rzgo
rzi
rzim
rzimiano
rzimie
rzimscze
rzimsczi
rzimsczich
rzimsczim
rzimsko
rzimu
rzino
rził
rziła
rzk
rzka
rzko
rzku
rzma
rzmach
rzme
rzmie
rzna
rzne
rznie
rznik
rznika
rzniko
rzno
rzny
rzo
rzona
rzone
rzono
rzony
rzowa
rzowate
rzowi
rzowy
rzt
rzta
rztach
rztama
rzte
rzto
rzu
rzucaja
rzucewo
rzuco
rzucył
rzuszcze
rzut
rzy
rzymie
rł
rłe
rłowo
s
sa
saaremaa
sabina
sach
sachsenhausen
sacy
sad
sada
sado
sadze
sadzenie
sadzo
sadzone
sadzono
sadzony
sadzy
sadzył
sadłe
sadłi
safari
sagner
sahara
said
saint
sakramen
saksofo
salar
sale
salicaceae
salix
salmo
salvador
salwado
sam
sama
samara
sambo
sambucus
samc
samca
samce
samco
same
samemu
sami
samica
samice
samiec
samim
samnica
samo
samocho
samochodo
samolus
samorza
samos
samosce
samp
samso
samsonowicz
samu
samym
san
sana
sancta
sancto
sanctum
sandbox
sandomierza
sandr
sandra
sandre
sandro
sanie
sanitarny
sankara
sankt
sanktuarium
santa
santana
santiago
sarajewo
sarce
sardela
sardin
sardinio
sardinka
sarka
sarko
sarna
sarstwa
sasha
satelita
satelitarni
satelitarny
satelite
sati
satirik
sativa
sativus
saturday
saturna
saude
saxoniae
say
saz
sbarg
sbornik
sc
sca
scach
scalił
scana
scanie
scara
scarlattich
scarlett
scaste
sce
scele
scelne
scelny
scenarnik
scenarniko
scene
scenie
scersczi
scersczim
scerzony
scestopo
schaeff
schmidt
schmolsiner
schneidemu
schneiderscher
schnitzelbank
scho
schodno
scholar
schoneck
school
schopenhauer
schramke
schulz
schuman
schumana
schwellwerk
schwetz
schwirsen
schwo
sci
science
sciences
scim
sco
scole
scolopacidae
scop
scott
scowe
scoła
scołach
scołe
scoło
scudda
scultetus
scy
scygna
scyn
scynanie
scył
scza
scze
sczego
sczerowo
sczi
sczich
sczie
scziego
sczim
sczima
sczimi
sczka
se
sea
seagal
seamonkey
search
seattle
seau
sebie
secale
sece
second
secret
section
sections
secunda
seczenio
seczi
seczkarka
seczno
sed
sedan
sedle
sedum
sedza
sedzba
sedzbo
sedzec
sedzi
sedzo
sedzy
sedłowie
see
seefried
seen
segment
seimas
sej
sejdona
sejm
sejmie
sejmiku
sejmo
sejmu
sek
sekcja
sekcje
sekcjo
sekretarza
sekreto
seksbomby
seksu
seku
selecta
selena
selin
selina
sem
semantika
semia
seminare
seminarium
semiona
semionama
semiono
senatora
senatoro
senatu
senegal
senio
seniora
separate
septempunctata
septentrionalis
sepultura
serafin
serako
serb
serbia
serbie
serbio
serbo
serbscze
serbsczi
serbsczim
serbska
serbsko
serc
serca
serce
sercowine
serengeti
seria
serial
seriale
serie
serio
serot
serwero
serwis
serwisu
sesja
set
sets
setting
settings
setzer
seu
seul
seulu
seven
seventh
sewerin
sewo
sex
sezon
sezonie
sezonowa
seł
sfera
sfere
sferze
sfo
sg
shall
share
sharp
shepherd
shift
shirley
shithead
short
should
show
shown
shows
shulist
si
sia
sianowo
sic
sick
sicut
side
sides
sidux
sie
siec
sieci
sieg
siegbahn
sierakowice
sierra
signore
sigourney
sikora
sil
silesia
silkeborg
silla
silnika
silniki
silnikiem
silniko
silvestris
similar
simo
simon
simple
simplicity
simply
simpson
sin
since
sinensis
sing
singapu
singel
singiel
single
singlerpt
singulare
sino
sinu
sio
siory
sir
sistemu
sister
site
sitno
sive
size
sił
sjo
sk
ska
skac
skach
skaja
skala
skale
skali
skama
skanie
skansen
skansenie
skar
skara
skarb
skarbo
skarszewe
skarszewo
skarszewy
skarwo
skasze
skate
skato
skaz
skała
ski
skich
skie
skiego
skiej
skiem
skim
skinheado
skiwo
skla
skle
sklejczi
sklejek
sklep
sklo
sko
skorcz
skoszewo
skra
skre
skro
skrobi
skrodze
skrze
skrzeczko
skrzeszewie
skrzeszewo
skrzidła
skrzidłach
skrzidłama
skrzidło
skrziwdzone
sku
skups
skurcz
skwa
skweres
skwie
skwiercz
sky
skł
skła
skład
składaja
składniko
składo
składze
skło
skłodowska
skłodowsko
sl
sla
slach
slackware
slav
slavica
slavische
slavorum
slawie
slawische
slawista
slawisticzi
slawistika
slax
slayer
slazacy
sle
sledni
sledza
sledze
sledzo
sledzowate
sledzy
slenie
slepich
sli
sliwce
slne
slo
slovenc
slovinzische
slovinzisches
slovio
slovjnskje
slowen
slowie
slowinzen
sls
slub
slubo
sluby
sluzo
sma
smaczczi
small
smare
smargle
smarle
smash
smaz
sme
smi
smie
smiece
smieco
smierc
smierca
smierce
smiercy
smith
smo
smolen
smołdzin
smołdzino
smu
sna
sne
sni
snia
sniacczi
sniace
snica
snice
snie
sniego
sniegu
sniegulc
snienie
snienim
snienio
snieniowe
sniewo
sniez
snijo
snik
snio
snił
sno
snosce
sny
snym
so
soba
sobama
sobe
sobica
sobie
sobiesczi
sobieski
sobiste
soble
soblewie
soblewo
sobne
sobniczi
sobnik
sobny
sobo
sobu
socha
social
society
socjaliste
socjalno
socjolog
socjologa
socjologie
socze
soczewica
soczi
soczim
soczima
sofia
sofie
soft
soja
sojo
sojusz
sok
soka
soko
sol
sola
solanaceae
sole
soli
solidago
solidarnosc
solidarnosce
solnica
solo
solony
solowe
solowi
solution
some
something
somewhere
somo
son
sonchus
sonety
song
songs
sony
soplica
sopo
sopot
sor
sora
sorabisticzi
sorbonie
sorbs
sorbscze
sorbus
sorex
sorn
sos
sosna
sosne
sosno
sosnowate
sostra
sostre
sostro
sostry
sostrze
sosze
sotka
souche
soul
soundgarden
soundtrack
south
sowa
sowate
sowe
sowi
sowie
sowieccze
sowiecczi
sowiecczich
sowiecko
sownym
sowo
sowscze
sp
spa
spac
space
spadko
spadnie
spaniel
sparks
sparseconcat
sparła
spe
special
species
specific
specified
specifies
specify
specifying
specjalna
specjalne
specjalno
specjalny
spi
spia
spicach
spiche
spie
spiewac
spiewe
spiewo
spieworka
spikrz
spiku
spio
spiritu
spis
spisany
spise
spiso
sple
splece
split
spo
spomidze
spopularizowanie
sport
sports
sposo
społecznos
spra
sprache
spraw
sprawa
sprawach
sprawama
sprawdzywaja
sprawe
sprawic
sprawie
sprawiedle
sprawio
sprawiła
sprawiło
sprawo
sprawozdanie
spread
spro
sprowadze
sprowadzył
sprowo
sprza
sprzed
sprzedo
spu
spv
spławin
spło
square
sr
sra
sredni
srednio
sri
sro
sroczi
sroka
sroko
sromo
ss
ssaki
sst
st
sta
stabilnote
stac
staca
stace
stach
stachu
stachurski
stacja
stacje
stacji
stacjo
stacked
staja
staje
stajsze
stajszewo
stalace
stalagmit
stalat
stalata
stalatach
stalate
stalatim
stalato
stale
stalono
stan
stana
stanach
standalone
standard
standardization
standardowi
stane
stanford
stanica
stanice
stanie
stanisław
stanisława
stanisławe
stanisławem
stanisło
stanjisława
stankiewicz
stano
stanowia
stanowiono
stanowisko
stanowiszcza
stanowił
stanu
star
stara
staranio
stare
stargard
stari
stark
starka
starko
starn
starna
starnach
starne
starnie
staro
starodo
starogard
starogarda
starogardscze
starogardzczi
starogardzczim
starogardze
starosta
starostwa
starostwo
starowieyscze
staroz
stars
starsza
starsze
starszi
starszich
starszim
starszo
start
starte
starts
startu
starz
starze
starzenie
starzin
starzno
stastny
statczi
state
statecznie
stateczno
statement
states
station
statk
statko
statku
statna
statne
statni
statnim
statno
statny
statnych
statnym
status
statut
statystyczny
staw
stawa
stawe
stawic
stawie
stawile
stawio
stawione
stawiono
stawiony
stawionym
stawił
stawiła
stawo
stawu
stawy
stał
stała
stałe
stałi
stało
stałosce
stczi
ste
stebło
stecznika
stefan
stefana
stefani
stefania
stefano
stegna
stegnach
stegne
stego
stele
stellaria
stellaris
stelmachowska
stelnika
stem
stenka
step
stepo
ster
stera
stere
stereo
stermo
stern
stero
sterowanie
sterowie
sterowo
stersczi
sterstwa
sterstwach
sterstwo
stetosko
stettin
steve
steven
stevens
stewart
sthum
sti
stich
sticzne
sticzno
stigo
stik
still
stille
stilo
stim
stin
stina
sting
stinga
stinie
stiwo
stk
stka
stkach
stkama
stko
stle
stne
stnice
stnik
stno
stny
sto
stocha
stocho
stochowa
stodoła
stoi
stoja
stojenie
stoji
stojo
stolat
stolata
stolate
stolatim
stolato
stole
stoleca
stolece
stoleczny
stolecznym
stolem
stolema
stolemi
stolemna
stolemne
stolemni
stolemnim
stolemno
stolemny
stolemo
stolemowcy
stolica
stolo
stolp
stolsczi
stolsczich
stonczi
stone
stonka
stop
stopach
stopadnik
stopadnika
stopadniko
stopadniku
stopaz
stope
stople
stopni
stopnia
stopniach
stopnio
stopniowe
stopo
story
stosc
stosce
stose
stosowanio
stosowo
stosunk
stosunki
stosunko
stosunku
stotle
stowate
stowe
stowi
stowice
stowo
stoz
stoła
stoło
stołowe
stołowi
stołpk
stołpsczi
stołpsczim
stołpsko
stołu
str
stra
strace
strach
strachu
straight
strale
stralie
stralsund
stranger
strasburg
straszka
strata
strategii
straz
stre
street
streetcar
strefach
strefe
stremiannika
streptococcus
stri
stria
striacczi
striacko
strie
strigidae
strikes
strin
strio
stripes
striping
stro
strogo
stroja
strojone
stron
strona
stronach
stronama
strone
stronie
strony
stropo
stropu
strowa
strowach
strowama
strowe
strowie
strowina
strowine
strowo
strowsczi
strowu
strugi
struktura
strukturze
strumiannik
strumiannika
strumianniku
stryszak
strza
strze
strzebiele
strzecha
strzego
strzelaja
strzelce
strzelecko
strzelenka
strzelnie
strzelno
strzewa
strzewo
strzez
strziko
strzimanie
strzo
strzoda
strzodka
strzodko
strzodowiska
strzodowisko
strzodowisku
strzu
stsze
stu
studento
studia
studio
studium
studzienice
stuhr
stulato
stum
stutthof
stutthofu
stw
stwa
stwach
stwama
stwem
stwie
stwo
stwowe
stwowy
stwu
sty
stycznia
style
styles
su
sub
subgroup
subgroups
subheader
subject
subko
subku
subpage
subsp
substance
substituted
substitution
such
suckow
sucre
sudete
suez
suffer
suffice
sufragan
sufragana
sufraz
suicidal
suicide
suillaceae
suillus
suis
suite
sukces
sukcese
sukcesem
sule
sulla
sumienie
summary
sumner
sun
sung
super
superioris
superko
supernowi
superpu
supports
supremacy
surgery
surowca
surrealisticzni
sus
susaja
susczi
susk
suska
susko
suur
suzanne
sv
svg
svje
sw
swa
swap
swe
swece
swecie
sweet
swego
swell
swia
swiadectwo
swiat
swiata
swiate
swiatowa
swiatowe
swiatowi
swiatowo
swiatowy
swiatła
swie
swieca
swieccze
swiecczi
swiece
swiecie
swierzenko
swierzno
swiesze
swina
swinecczi
swinia
swinie
swinio
swiniowate
swinka
swinoujsce
swio
swo
swoja
swoje
swojim
sy
sybere
sybirio
sybirsczi
sybirsczich
syce
sychta
sychty
sydney
sydrownica
syfo
sygaja
sygna
sygnale
sygnał
sygo
sygu
syjamsczi
syjna
syjne
syko
sylvatica
sylvestris
sylwester
sylwia
symbirsk
symbo
syme
syn
syna
synak
syntakse
syntax
synteze
syre
syreji
syrenie
syria
syrijscze
syso
system
systema
systematika
systematyka
systeme
systemie
systemo
systemu
sytuacje
sytuacjo
sz
sza
szabla
szable
szablo
szac
szace
szach
szacho
szachu
szacowo
szada
szafa
szafce
szafe
szafer
szafie
szafir
szafran
szaja
szakala
szale
szama
szan
szanie
szanio
szare
szari
szarich
szaro
szase
szati
szatlach
szatlacho
szato
szawa
szawe
szaweł
szawno
szawła
szała
szałe
szało
szce
szcz
szcza
szczaja
szczalne
szczalnio
szczama
szczani
szczanie
szczanio
szczawa
szcze
szczece
szczecin
szczecina
szczego
szczem
szczenie
szczepana
szczesce
szczesnik
szczestle
szczi
szczipiornie
szczipo
szczita
szcziwo
szczk
szczka
szczko
szczo
szczone
szczono
szczotecznik
szczu
szczytem
sze
szed
szedł
szedła
szef
szefka
szefowa
szele
szemo
szemrejce
szenie
szenio
szerocze
szeroczi
szerok
szeroko
szersze
szerszi
szesc
szescdzesa
szesno
szewie
szewo
szi
szibo
szich
szigo
szijka
szikro
szim
szima
szimbark
szimbarku
szime
szimo
szimpans
sziszko
sziwa
sziwanie
sziwanio
sziwczi
sziwk
sziwka
sziwko
sziwku
sziwo
sziwu
sził
szk
szka
szkach
szkama
szkan
szkanie
szkanin
szkano
szkaple
szkelece
szkic
szkice
szkina
szklane
szko
szkocczi
szkocji
szkolny
szkoła
szkoły
szku
szkła
szkło
szl
szla
szlabizowe
szlach
szlacha
szlachama
szlachce
szlache
szlacheccze
szlachecczi
szlachecka
szlachecko
szlachetne
szlachetny
szlacho
szlachota
szlachote
szlachta
szlachte
szlachu
szlaga
szlako
szlapnik
szle
szlifo
szlo
szmaka
szmaku
szme
szmu
szna
szne
sznica
sznice
sznik
szniko
szno
sznoce
sznota
sznote
szny
sznych
sznym
szo
szoc
szone
szono
szony
szopin
szorstczi
szowate
szowi
szowo
szp
szpale
szpan
szpanii
szpaniji
szpansko
szparaga
szparago
szpe
szpelaja
szpirtusu
szpitalu
szpo
szre
szroeder
szt
szta
sztabilne
sztabilno
sztadion
sztambu
sztandard
sztandarde
sztandardo
sztandarizace
sztatur
sztatura
sztature
sztatus
sztatusu
sztatutowe
szte
sztefan
sztefana
sztefo
sztelu
sztemon
sztere
szterech
sztete
sztigle
sztilu
sztipend
sztiwne
szto
sztof
sztofa
sztofu
sztok
sztokawsczi
sztokho
sztoku
sztor
sztorm
sztorne
sztornice
sztorno
sztorny
sztornym
sztoru
sztorze
sztoła
sztoło
sztra
sztrajk
sztrasbu
sztrasy
sztre
sztremle
sztrid
sztro
sztruktura
sztrukture
sztu
sztuce
sztude
sztudia
sztudijne
sztudio
sztudirowo
sztuka
sztuki
sztum
sztutowo
szu
szuko
szukoł
szule
szulist
szur
szutanbarch
szutenberg
szw
szwajcare
szwajcaria
szwajcarsce
szwajcarsczi
szwajcarsko
szwe
szwecczi
szwecji
szwedzce
szwedzczi
szwedzczim
szwedzka
szwedzko
szwenthu
szyman
szymana
szymborska
szła
szłe
szłi
szło
szłoce
szłosce
sł
sła
słabi
słabieniu
słabo
sława
sławe
sławi
sławie
sławio
sławiono
sławiony
sławne
sławno
sławny
sławo
sławomir
sławu
słe
słi
sło
słodcze
słodko
słome
słomiany
słon
słone
słoninie
słoniowe
słosze
słov
słovjnskje
słow
słowa
słowacce
słowaccze
słowacczi
słowacczim
słowach
słowacji
słowacka
słowacko
słowama
słowarza
słowarzu
słowen
słowenie
słowenio
słowia
słowian
słowianie
słowiano
słowicze
słowie
słowik
słowin
słowio
słowizna
słowizne
słowiznie
słowniczek
słownik
słownika
słowo
słu
sługa
sługiwo
słun
słupsk
słupska
słupski
słuz
t
ta
table
tables
tabo
taborska
tabula
tac
tace
tach
tacy
tacze
taczi
taczich
taczie
taczim
taczima
tadeu
tadeusz
tadeusza
tadz
tags
taja
tajemnica
tajlandio
tajwan
tajwanie
tak
taka
take
takht
takie
takiego
takno
tako
taksowo
takt
takz
tale
talent
taliban
talk
tallinn
talpa
tam
tama
tamara
tamkun
tampere
tamte
tan
tana
tango
taniczny
tanie
tanik
tanika
tanio
tantum
tanzanio
tar
tarantula
tarda
targ
tarne
tarnio
tarsu
tarze
tasman
tasmania
tasmanie
tatcze
tatk
tatka
tatko
tatrach
tatre
tatrzan
tawa
taxonomic
taylor
tała
tc
tce
tchu
tci
tcza
tcze
tczew
tczewo
tczi
tczich
tczim
tczima
tczin
tczony
td
te
team
teater
teatr
teatrownica
teatrownik
teatrownika
teatrownikem
teatru
technical
technically
technice
techniczi
techniczny
technika
technikach
techniki
techniko
technikum
technologia
technologo
tecnolo
teczne
tecznie
teczno
teczny
ted
tede
teenage
tego
tej
tek
teka
teksan
tekst
teksta
tekstach
tekstama
tekste
teksto
tekstowe
tekstowim
tekstu
teksty
tekture
tel
teledisko
telefo
telesko
telewize
telewizja
telewizje
telewizji
telewizjo
telewizjowe
telewizyjne
telewizyjno
telewizyjny
telewze
teli
telimena
tem
tema
temat
tematiczi
tematika
temknia
temknienie
temkłe
temkłi
temkłim
tempelborch
tempelburg
temperatura
temperature
template
templates
temporaria
temu
ten
tendence
tendencies
tenisa
tennessee
tenrza
tentacles
tenys
tenysa
teo
teofil
teolog
teore
teoreticzne
teoria
ter
tera
teraccze
teracczi
teracczich
teracczim
teracka
teracko
terat
terato
teratura
terature
teraturze
teraz
tercjarko
tere
tereczasnych
teren
terenach
terene
terenie
tereno
terenu
teresa
terese
teritoria
teritorialne
teritorialno
teritorialny
teritorium
termin
termino
terminologia
termo
terne
tero
terowate
terowe
terra
terrae
terram
terry
tersczi
tersczim
tersko
terstwo
tesa
tesaloniczano
test
testamen
testament
testamentu
testcases
tetramorium
tetzner
teu
tewczi
tewka
tewscze
tewsczi
tewsczim
tewska
tewsko
text
tez
th
than
that
the
theatre
them
then
theologian
there
these
they
thing
things
think
this
thomas
thomson
those
though
threatened
three
through
thuja
thumb
thumbnail
thunderbird
thus
thylacine
thylacinus
thymus
ti
tia
tica
ticcze
ticczi
tich
tichach
tiche
ticket
tidy
tidze
tien
tifu
tiger
tigo
tigris
tikaja
tikany
tikałe
tikało
tiko
tilia
till
tilne
tim
tima
timbaland
timczasa
time
times
timo
timor
timoteusza
timpan
timpanu
tin
tina
tinbergen
tip
tipe
tipiczne
tipiczno
tipo
tipu
tiraspol
tirol
tirolu
tischner
tischnera
tite
titel
titla
title
titlebar
titleclass
titlegroup
titles
titlestyle
titlu
titule
titus
titusa
tiwaja
tiwo
tiz
tiłko
tj
tk
tka
tkac
tkach
tkama
tkała
tki
tkie
tkiem
tko
tku
tle
tlo
tm
tme
tmegardu
tmiko
tn
tna
tne
tnego
tni
tnic
tnica
tnice
tnictwo
tnicze
tniczi
tniczka
tniczy
tnie
tnik
tnika
tniko
tniku
tnim
tnio
tno
tnoga
tnosc
tnosce
tnowe
tnowi
tny
tnych
tnym
to
toba
tobacze
tobaczi
tobaka
tobie
tochto
tochtoniczne
toczi
toczk
together
tograf
tograficzne
tografii
tografiji
tografijo
tografio
tojan
tokarczuk
tokio
tokrze
tom
toma
tomaczko
tomahawk
tomasz
tomasza
tomczak
tomentosum
tomiczi
tomik
tomiku
tomo
tomsk
tomstwo
ton
tono
tonomiczne
tonomiczno
tonomiczny
tonu
tony
too
tooth
top
topaz
topic
topie
topiszczama
topnicowe
topnienio
topo
tor
tora
torbie
tore
torf
torfo
torka
torlin
torn
tornia
toro
toronto
torre
torstwa
torstwo
torun
toruniu
torvalds
tosc
tosce
tota
totanus
tour
tours
tow
towa
towany
towarza
towarze
towarzi
towarzystwo
towate
towe
tower
towi
towie
town
towne
towni
townia
townie
townik
towo
towscze
towsczi
towsczim
towsko
toy
toyota
toz
tołmacze
tołmaczenie
tołmacził
tołmaczone
tołmo
tp
tple
tpzw
tr
tra
trach
tradice
tradicja
tradicje
tradicji
tradicjo
tradicyjno
tradycji
trafford
trafi
trafia
trafił
trafiła
train
traktat
traktura
trakture
trakturze
trama
tramwaj
transcluding
translationum
transparent
transpo
trapach
trase
trature
travis
trawe
trb
tre
treacle
treder
tree
tremolo
trene
trenera
treno
trenowo
trento
trepczik
trepczika
trepcziko
trepczyk
treptow
tres
treten
tretenwalde
tribal
trick
tricolor
tricolorvar
trifolium
trigraf
trigrafe
trilogijo
tringa
trio
tro
trobe
trocha
trocho
trocze
trofku
troglodytes
trojanowsczi
trojanowska
trojanowsko
troje
trojmiasto
trokama
tronowi
tronowo
tronu
trotil
trowa
trowe
trowi
trowie
truda
trudno
trudnos
trudnosce
true
truja
trulo
trus
truse
trusko
truso
trusowati
trust
trutta
trwa
trwałe
trwałi
trza
trzasna
trzcanecczi
trzce
trze
trzeba
trzebe
trzebiatowsczi
trzebiele
trzebio
trzebla
trzebny
trzebo
trzebu
trzeca
trzece
trzech
trzechsetna
trzeci
trzeco
trzecy
trzecym
trzej
trzema
trzimaja
trzimanie
trzimanio
trzimała
trzimo
trzin
trzne
trzo
tsch
tsczow
tswana
tsza
tsze
tszej
tszi
tt
tte
tter
ttir
ttm
tto
tu
tube
tuchomie
tue
tuj
tuje
tun
tunezjo
tunis
tunisie
tunya
tuo
tur
tura
turgiczny
turinga
turistice
turisticzi
turisticzne
turisticzny
turistika
turistne
turistno
turistny
turistnym
turisto
turkmenistan
turku
turn
turowo
tursko
turystyka
tusk
tusz
tuszewo
tuszko
tutta
tutti
tuum
tuwo
tv
tvn
tvoje
tvp
tw
twa
twardi
twardowsczi
twardowski
twardowskim
twe
twiaja
twie
twierdze
twini
two
twoje
ty
tych
tychach
tyle
tylko
tym
tyn
type
typically
tys
tysia
tytuł
tyłem
tz
tzebuerg
tzn
tzw
tł
tława
tławe
tłe
tło
tłoczenie
tłoczony
tłuczewie
tłuczewo
tłum
tłumaczenie
tłumaczy
tłuszcz
tłuszczu
u
ubodz
ubuntu
uce
ucznio
udo
udze
ug
ujs
uk
uko
ukon
ukowie
ukowo
ukowska
ukowskiej
ukr
ukrain
ukrajin
układ
ukło
ul
ulf
ulica
uljanowsk
ulmaceae
ulmus
ulterioris
ultimatum
um
umbrinus
umlaut
umo
un
unbekannten
uncollapsed
und
undead
under
unesco
unieszyno
unii
union
unit
united
universidade
university
universum
uniwersytece
uniwersytet
uniwersytetu
unix
unixa
unknown
unnamed
unplugged
unrug
up
upada
uphagen
upo
upojenie
uprawiany
upright
upro
uprzejmie
ur
urban
urbibus
ure
urodzin
urodziłam
urodzył
urza
urze
us
usa
usage
use
used
usedom
user
users
uses
using
usmiercony
uso
ustaleniu
ustawa
ustawy
ustka
usto
usually
utc
ute
utilisateur
utrze
uu
uva
uwo
uz
uzno
ułan
ułoz
v
va
vaccinium
vale
valencia
valenciana
valencians
valletta
valley
value
values
valuetofind
vampire
vampires
van
vanellus
var
various
vcard
vde
ve
vector
vega
vegetables
vejrowo
venezuela
ventura
vera
verb
verbascum
verbo
verbum
verein
vereins
verlag
veronica
version
versuch
vertical
very
vespula
vfl
vhs
vi
via
viaf
viborg
vicebu
vicia
victoria
vida
videlicet
video
view
vii
viii
villa
vinca
vinci
viola
violaceae
viridis
viridissima
visible
visions
vista
vita
vo
vol
volke
volks
volkskunde
volta
volume
volumen
volz
vom
von
vorpommern
vorpommersche
vu
vulgare
vulgaris
vulpes
vv
w
wa
wac
wach
wacław
wacława
wacło
wada
wade
wado
wady
wadze
wadzi
wagenrad
waja
waji
waju
wala
walcz
walcze
walczembo
walcził
walczy
walde
waldemar
wale
walenta
waleriana
wales
waleska
walezy
wali
waliji
walijo
walijsczi
walk
walku
wallsend
walny
walsko
walter
wama
wan
wana
wanda
wane
wani
wania
wanie
wanim
wanio
waniu
wanko
wano
wanodz
wanoga
wanogo
wanoz
want
wany
wanym
wanzeke
war
waraja
warce
warco
warczi
wardar
ware
wargo
wariacjo
wariant
wariante
warianto
warijant
wark
warka
warko
warku
warmie
warmin
warminsko
warna
warne
warner
warning
waro
warpno
warsaw
warstwo
warszawa
warszawe
warszawie
warszawscze
warszawsczi
warszawsczim
warszawsko
warszawy
warta
warte
wartos
wartosc
warunczi
warunkach
warze
warzenie
was
washington
waste
waszi
waszingto
waszington
watch
watchdog
wate
watelsczi
watelsko
water
waterfront
wati
watikan
watikanie
wato
wav
wave
waw
wawrzin
way
waz
waza
wazy
wała
wałdowo
wałe
wałka
wało
wc
wca
wcale
wcama
wce
wcho
wchodzy
wco
wcowate
wcowie
wcu
wcyg
wcygo
wcz
wcza
wczas
wczasne
wczasni
wczasnie
wczasnostrze
wczasnym
wczasowima
wcze
wczesne
wczesno
wczewsczi
wczi
wczo
wczyce
wda
wde
wdg
wdo
wdobo
wdowiec
wdze
wdzydzach
wdzydzcze
wdzydze
wdzydzkich
we
weaver
web
website
wech
wedel
wedge
wedle
według
weekend
weg
weganizm
wegetacji
wego
wej
wejherowie
wejherowo
wejherowska
wejro
wejrowa
wejrowie
wejrowo
wejrowscze
wejrowsczi
wejrowsczim
wejrowsko
wejt
weko
wekto
welacjach
welacjo
welcome
wele
well
welowania
welowanim
welowaniu
welowne
welowo
welt
wem
wembley
wen
wenden
wendisch
wendo
wendowie
wends
wenecczi
wenecjo
wenker
wentil
wentila
wentilator
wenus
weny
wer
were
werner
weronika
wersalu
werse
werset
wersja
wersje
wersji
wersjo
wespazjo
wespo
west
westa
western
westerplatte
westfale
westphal
westpreußen
westrze
westrzo
weszła
wet
weterinarno
wewio
wezwanie
wezwanim
wezwo
wełne
wełtawa
wg
wgła
what
when
where
which
while
white
who
whole
why
wi
wia
wiac
wiace
wiada
wiadaja
wiade
wiadomo
wiadomos
wiadomosci
wiadła
wiadło
wiaja
wialdz
wiale
wialga
wialgo
wian
wiane
wianie
wianim
wianio
wiano
wiara
wiare
wiaro
wiastka
wiat
wiata
wiater
wiatrownic
wiatrownica
wiatrownice
wibracja
wic
wica
wice
wiceprze
wich
wicko
wicy
wicz
wiczi
wiczle
wid
wida
widac
wide
widen
wideo
widiusz
widle
widlin
widnem
widoczi
widoczne
widok
width
widu
widz
widza
widzawiszcza
widzawiszcze
widzała
widzałe
widzałi
widzało
widzałosc
widze
widzec
widzenio
widzi
widzko
widzo
widzy
widłe
wie
wiec
wiece
wiecie
wiecki
wiecze
wieczerzo
wieczi
wieczne
wieczno
wieczny
wieczo
wieczora
wieczore
wieczorno
wieczorny
wiedaja
wieden
wiednia
wiednik
wiednika
wiednim
wiednio
wiedniu
wiedno
wiedo
wiedza
wiedzbe
wiedze
wiedzec
wiedzo
wieje
wiejsczi
wiek
wieka
wiekach
wieki
wieko
wieku
wiela
wielbi
wielbic
wiele
wielelatne
wielelatno
wielelatny
wielgo
wielka
wielki
wielkie
wielko
wielkopolski
wielne
wielny
wielnyma
wielu
wien
wienie
wiera
wiere
wiernych
wiersz
wiersze
wierszy
wierza
wierzba
wierzbe
wierzbo
wierzchni
wierzchnia
wierzchnio
wierzcho
wierzchocina
wierzchu
wierze
wierzele
wierzenia
wierzeniach
wierzenie
wierzenio
wierzta
wies
wiesc
wiesce
wiesco
wiescze
wiesczi
wiesele
wieska
wiesko
wieszczi
wieszczo
wieszyno
wiesław
wietew
wietewczi
wietewka
wietewko
wietle
wietnam
wietnamsczi
wietnamsczim
wietrze
wietrzne
wietrzny
wietwi
wietwiama
wietwie
wiez
wiezc
wigo
wija
wije
wijo
wika
wikari
wikarim
wiken
wiki
wikimedia
wikipedia
wikipediji
wikipedijo
wikiproject
wikis
wikisłowo
wiksza
wiksze
wikszi
wikszich
wikszim
wikszima
wikszo
wikszosc
wikszosce
wikszy
wiktionary
wikto
wiktor
wiktora
wiktoria
wiktorio
wilamo
wilcz
wilcza
wilcze
wilczi
wilczo
wild
wilder
wildz
wile
wileja
wilem
wilen
wilhelm
wilhelma
wiliowi
wilk
wilka
wilko
will
willa
willem
william
williama
williams
wilna
wilnie
wilno
wilozone
wim
wima
win
wina
winca
windows
windowsa
windz
windze
wine
winga
winie
winkszi
winna
winne
winny
wino
winona
winowo
winrich
winter
winy
wio
wiodra
wiodro
wiodrowe
wiodrowine
wiolgo
wione
wiony
wiosna
wiozle
wirtuoz
wirus
wirusa
wiruse
wiruso
wis
wisconsin
wise
wiselny
wish
wiska
wislane
wislanim
wissenschaft
wisza
wiszcza
wiszcze
wisznia
wisznie
wiszo
wisła
wisława
wisłe
wit
wita
witamin
witamina
witamine
with
witherspoon
within
without
witko
wito
witold
witomino
witosława
witro
witrznio
wiusz
wiusza
wiwo
wiz
wizere
wizerunku
wizna
wizne
wiznie
wił
wiła
wiło
wk
wka
wkach
wkama
wki
wko
wkrocze
wkrzan
wku
wkło
wle
wlecze
wlo
wloknica
wna
wnac
wnacko
wnak
wnanie
wnanim
wne
wnej
wnenczas
wnet
wnetk
wnetka
wni
wnia
wniach
wnica
wnice
wnico
wniczi
wnie
wniebo
wniebowsta
wniebowzie
wniez
wnik
wnika
wniko
wniku
wnio
wniosko
wnitrzno
wnizne
wno
wnoce
wnoczasno
wnolez
wnosc
wnosce
wnota
wnote
wnoto
wnowadz
wnowaz
wnowo
wnoz
wnoznacze
wny
wnych
wnym
wnyma
wo
wode
wodne
wojciech
wojewo
wojkasena
wojna
wojne
wojnie
wojny
wojska
wojsko
wojskowa
wojtek
wojtyła
wojwodina
wola
woldenberg
wolfgang
wolin
wolny
woloszynska
wolumin
woman
women
won
wood
word
work
world
worldcat
worse
would
wołcza
wołoszyn
wp
wpisane
wpisanych
wpise
wpiso
wpo
wpro
wprowadze
wprowadzenie
wprowadzo
wprowadzono
wprowadzył
wprowo
wprzo
wpu
wpłe
wpłiw
wpłiwa
wpłiwe
wpłiwo
wra
wraz
wre
wrecho
wreck
wright
wro
wroce
wrocław
wrocławiu
wrocławsczi
wron
wrong
wroznik
wrza
wrze
wrzes
wrzesce
wrzos
wrzosowate
wrzosu
ws
wsa
wsach
wsadze
wsama
wscho
wschodnie
wscze
wsczi
wsczich
wsczim
wse
wsecze
wsi
wsk
wskaze
wsko
wso
wsowi
wsowo
wspiarce
wspie
wspiero
wspo
wspomnienia
wsta
wstaje
wstan
wstania
wstanie
wstanim
wstanio
wstała
wstałe
wstałi
wstało
wste
wsto
wstrze
wsza
wsze
wszechne
wszechno
wszechny
wszedł
wszelcze
wszelejacze
wszelejaczi
wszelejaczich
wszetczi
wszetczim
wszystkich
wszystko
wtede
wtiko
wto
wu
ww
www
wy
wybo
wyborcza
wybrane
wybrzez
wybudowanie
wych
wycho
wycieczce
wyd
wydan
wydanie
wydaw
wydawn
wydawnictwo
wydawnicza
wydawniczy
wydział
wym
wyniki
wypadek
wypadku
wyrazo
wyro
wyrwicz
wys
wysoka
wysoko
wysta
wyste
wyszyn
wytwo
wyz
wza
wzdłuz
wze
wzgla
wzmio
wzmo
wznosza
wzo
wzora
wzory
wzrok
wzyc
wła
władca
władco
władisław
władisława
władisło
władysław
władysławowo
władz
władza
władze
władzo
własce
własnosce
własnym
wło
włoch
włoche
włocho
włocławka
włocławku
włodarczyk
włodarze
włodzimierz
włodzmie
włosate
włosczi
włose
włosko
włoso
włoz
x
xa
xhosa
xhtml
xi
xianfan
xic
xii
xiii
xiv
xix
xv
xvi
xvii
xviii
xx
xxi
xxiii
y
yahoo
yaris
yc
yca
ycelo
ych
ycia
ycie
yciem
yciu
year
years
yellowstone
yes
yirdaki
yk
yn
yna
yno
ynßich
yo
york
yorku
you
young
your
youtube
ywane
ywi
ywienie
ywo
yy
yła
z
za
zaangaz
zaatako
zaawansowo
zabawa
zabawe
zabe
zabic
zabice
zabie
zabite
zabiti
zabił
zabo
zaborska
zabrze
zabu
zabytki
zac
zach
zacha
zachach
zache
zachmu
zacho
zachodnich
zachodnie
zachodniego
zacht
zacmienia
zacmienie
zacmienieni
zacmienio
zacwierdzone
zacza
zaczapo
zacze
zaczinaja
zaczino
zaczna
zada
zadanie
zadanim
zade
zadebiutowo
zado
zadz
zafu
zago
zagran
zagrała
zagrało
zagro
zagroz
zagrzebo
zagwe
zagła
zainteresowania
zaja
zajc
zajce
zaje
zajima
zajimaja
zajimale
zajimała
zajimało
zajimo
zajimu
zajinteresowo
zajmo
zakaz
zakla
zako
zakonu
zakopane
zakrzewie
zakrzewo
zaku
zakład
zakładach
zakło
zakłucanie
zala
zale
zalesenio
zalez
zaliczo
zalo
zama
zamachu
zamalowo
zamano
zambia
zame
zamek
zamian
zamiast
zamie
zamieszkale
zamieszkałe
zamieszkiwaja
zamieszkiwo
zamieszko
zamikaja
zamiko
zamknia
zamknij
zamko
zamkłi
zamkło
zamkłosc
zamkłosce
zamo
zan
zania
zanie
zaniecho
zanim
zanio
zanne
zano
zanotowo
zany
zao
zapadłe
zapamia
zapise
zapiso
zapisu
zapisywanio
zapo
zapro
zaprogramo
zaprojektowo
zaprzig
zarabczenio
zare
zarecho
zaregistrowo
zariwno
zark
zarko
zarno
zaro
zarys
zarysu
zarza
zarze
zas
zasa
zasad
zasade
zasado
zasadze
zase
zaso
zaspa
zaspo
zasta
zastarzałe
zastosowanie
zastosowano
zastosowo
zastrze
zastrzez
zasylanie
zasłe
zasłudz
zasługi
zasłuz
zatitlowo
zato
zatoka
zatoki
zatre
zatrze
zatrzimo
zatwie
zawarte
zawarti
zawdza
zawie
zawieraja
zawiero
zawiesze
zawieszono
zawo
zawodowych
zawsze
zaz
zaza
zazaki
zaze
zał
zała
załe
załko
zało
załoz
zbawienio
zbawio
zbawiony
zbe
zbekistan
zberku
zbie
zbignie
zbigniew
zbigniewa
zbio
zbiorowa
zbiorowe
zbiorowisk
zble
zbliz
zbo
zboz
zbrze
zbu
zbudowo
zbyt
zc
zca
zce
zcy
zczi
zd
zda
zdabianio
zdach
zdanie
zdanim
zdczi
zde
zdebło
zdecydowała
zdemilitarizowo
zdja
zdje
zdka
zdko
zdni
zdno
zdo
zdoba
zdobe
zdobił
zdobnik
zdobno
zdobny
zdrada
zdre
zdro
zdrobnienie
zdrojach
zdroje
zdrojo
zdroko
zdrowas
zdrowia
zdrowie
zdrowienie
zdrowim
zdrowio
zdrowo
zdrza
zdrzatk
zdrzatko
zdrzatku
zdrze
zdrzec
zdrzele
zdrzi
zdrzo
zdz
zdzał
zdze
zdzewo
zdziczałych
zdzina
zdzisław
zdłuz
ze
zea
zebr
zebrale
zebrane
zebranych
zebranym
zebro
zedz
zef
zefa
zefk
zefko
zeitschrift
zek
zeka
zeku
zela
zelandzko
zele
zelerowate
zelesko
zelin
zelinsko
zelmanie
zelna
zelo
zelone
zelono
zelony
zelonym
zem
zema
zeme
zemi
zemia
zemiach
zemie
zemii
zemio
zemja
zemji
zemna
zemnowo
zemny
zemo
zemscze
zemsczi
zemsczim
zenia
zenie
zeno
zenwalk
zeo
zeppelin
zera
zerwan
zerwu
zeso
zespo
zespołu
zesto
zeswio
zeszyt
zesłanie
zeta
zetkł
zetnienie
zeu
zeum
zewi
zewne
zewsza
zez
zezwo
zeł
zełk
zga
zgniłozwie
zgnojenio
zgo
zgre
zgro
zgromada
zgromadzenie
zgromadzenio
zgu
zgło
zh
zi
zicjo
ziczny
zie
zielke
zielona
zielone
ziem
ziemi
ziemia
zienia
zik
zima
zimbabwe
zimbelstern
zimmer
zin
zingst
ziwaja
ziwo
zja
zjada
zjadac
zjawiszcze
zjawiszczo
zjawił
zje
zjedno
zjedza
zjesc
zjestku
zji
zjinacze
zjinaczenie
zjinaczenio
zjinaczi
zjinaka
zjo
zk
zka
zkach
zkama
zko
zku
zlade
zle
zleczin
zlo
zm
zmagała
zmartwe
zmarł
zmarłe
zme
zmerko
zmiana
zmianama
zmiane
zmianie
zmiano
zmie
zmienia
zmieniaja
zmienic
zmienio
zmienione
zmieniwo
zmio
zmiłko
zmnie
zmo
zmu
zn
zna
znac
znach
znacza
znaczac
znacze
znaczenie
znaczenim
znaczenio
znaczeniu
znaczi
znaczne
znaczno
znaczo
znaczone
znaja
znajde
znajdowo
znajduja
znajduje
znaje
znajemnota
znajemo
znajesz
znajo
znajomo
znak
znaka
znakama
znako
znaku
znama
znamiona
znan
znanczi
znane
znania
znanie
znanim
znanio
znaniu
znanka
znanko
znanku
znano
znawca
znawo
znała
znało
zne
zni
znie
zniemieckiego
znienie
znikwiono
znio
zniszcze
zniszczone
zniszczono
zniszczony
znisze
zno
znobaroko
znormalizował
znormalizowo
znowa
znowe
znowi
znowienia
znowim
znowu
zny
znym
zo
zobacz
zofia
zofie
zofio
zogre
zomo
zona
zone
zoo
zoologia
zort
zorta
zorte
zorto
zortowanie
zortu
został
zosto
zosynk
zow
zowa
zowac
zowe
zowi
zowia
zowie
zownik
zowo
zoz
zra
zre
zrezignowo
zro
zrobi
zrobia
zrobic
zrobile
zrobione
zrobiono
zrobiony
zrobił
zroze
zrze
zrzesz
zrzesza
zrzeszaja
zrzesze
zrzeszenia
zrzeszenie
zrzeszenim
zrzeszenio
zrzeszeniu
zrzeszin
zrzesznica
zrzesznice
zrzeszo
zrzeszone
zrzeszony
zsrr
zssr
zu
zukowo
zulu
zum
zupa
zupe
zur
zurakowska
zusammenfassenden
zuzana
zuzeli
zułmanie
zvjercadło
zw
zwa
zwada
zwalaja
zwama
zwanie
zwano
zwany
zwartniko
zwe
zwecez
zwele
zwia
zwie
zwierza
zwierze
zwierzo
zwiksza
zwinger
zwinia
zwo
zwro
zwrotniko
zwycie
zwyczaje
zy
zyce
zycher
zycja
zycje
zycji
zycjo
zyczi
zyczne
zyczno
zyczny
zycznym
zygmu
zygmun
zygmunt
zygmunta
zygoptera
zyk
zyka
zykach
zykan
zykiem
zyko
zyku
zymk
zymka
zymko
zymku
zyn
zytiw
zytiwem
zytiwo
zytiwu
zyto
zytor
zytora
zytorka
zywaja
zywałe
zywo
zz
zł
zła
złapic
złe
złi
zło
złoce
złota
złote
złoti
złotim
złoto
złotowo
złotowsczim
złoty
złowione
złoz
złp
{
|
}
~
¡
§
«
­
°
²
³
´
·
»
¿
×
ß
æ
ð
đ
ħ
ł
ła
łaba
łabe
łabsczi
łac
łace
łach
łacyn
łago
łaja
łajming
łama
łamach
łana
łanie
łapale
łapie
łapu
łasczi
łase
łaska
łau
łautor
łautora
ława
ławe
ławie
ławsczim
łaza
łazarza
łaze
łbe
łca
łce
łcenie
łcenio
łcewo
łcho
łcone
łcowe
łcył
łczasne
łczasno
łczasnym
łcze
łczesna
łczesnej
łczesnych
łczi
łczigłowe
łczo
łd
łdawie
łdawio
łdawsczi
łdawska
łdawsko
łdowo
łdze
łdzejo
łdzielnia
łdzyn
łe
łeba
łebcz
łebe
łebie
łebin
łebnie
łebno
łebsko
łebu
łecczim
łeczne
łeczno
łeczny
łego
łemko
łempicka
łenko
łg
łgarie
łgario
łgarsczi
łgarze
łgo
łi
łich
łim
łima
łisk
łiska
łiskawica
łiwo
łk
łka
łkach
łko
łku
łmz
łna
łne
łni
łnia
łnica
łnie
łnika
łniko
łnim
łnio
łniowa
łniowe
łniowi
łniowich
łniowim
łniowo
łniowosłowian
łniu
łnoce
łnocna
łnocnej
łnocnoprze
ło
łobe
łobesczim
łobez
łobio
łobz
łobzenica
łobzie
łoczetk
łoczetka
łoczetko
łode
łodze
łogarda
łogardzczim
łogin
łogo
łome
łomz
łopo
łor
łore
łorus
łorusa
łoruscze
łorusczi
łoruse
łorusko
łose
łosos
łososowate
łot
łotewsczi
łotewsko
łotwa
łotwe
łowa
łowate
łowe
łowi
łowia
łowic
łowie
łowienie
łowienim
łowienio
łowo
łoz
łp
łpa
łpi
łpino
łple
łpro
łpscze
łpsczi
łpsczim
łpsk
łpska
łpsko
łpsku
łrobi
łrobia
łrobił
łrobiła
łrobo
łt
łta
łtarza
łte
łtem
łti
łtim
łto
łtoro
łtowe
łtowi
łtowo
łtu
łu
łubianie
łucjo
łuka
łukasz
łukasza
łuko
łuz
łw
ły
łz
łzało
łzałoz
łzwa
œ
ſ
ǁ
ɔ
ɕ
ɗ
ɘ
ə
ɛ
ɞ
ɡ
ɣ
ɥ
ɦ
ɨ
ɪ
ɯ
ɲ
ɸ
ʃ
ʉ
ʊ
ʌ
ʏ
ʐ
ʑ
ʒ
ʔ
ʜ
ʰ
ʲ
ʷ
ʼ
ˈ
ː
˚
̀
́
̂
̃
̄
̆
̇
̈
̉
̊
̋
̌
̑
̓
̔
̛
̞
̟
̣
̦
̧
̨
̱
̸
͂
ͅ
͡
α
β
γη
δ
ε
ει
ζ
η
θ
θε
και
μα
μη
μι
μω
ν
ο
ου
ρ
ς
σου
τη
το
τοι
τω
υ
χ
ω
ϙ
ϝ
а
б
балтии
београд
берегу
българия
в
владислав
г
д
дакар
душан
е
ж
з
и
к
катерина
кашупске
ко
л
м
македонија
мова
моря
н
на
нех
нська
о
остатки
п
пажђерски
р
република
республика
с
ского
славян
т
твоје
у
украі
ф
х
ц
ч
ш
ъ
ь
южном
я
ђ
є
і
ј
љ
њ
ћ
џ
ґ
ְ
ֲ
ִ
ֵ
ֶ
ַ
ָ
ֹ
ּ
־
ֿ
ׁ
א
ב
ג
ד
ה
ו
ח
י
ך
כ
ל
ם
מ
ן
נ
פ
צ
ק
ר
ש
ת
ل
ٔ
भ
र
ा
ক
ড
র
া
க
ர
ா
்
ക
ഡ
ാ
്
์
་
།
ཌ
남도
북도
직할시
​
‎
‏
–
—
‘
’
“
”
„
†
•
…
‰
′
″
€
↑
→
↓
↔
↷
−
③
④
⑦
▪
☉
☾
☿
♀
♂
♃
♄
♆
♇
⚳
⛢
⯓
⯰
⺀
⺄
⺆
⺈
⺊
⺌
⺕
⺝
⺸
⺼
⿰
⿱
⿲
⿳
⿴
⿵
⿶
⿷
⿸
⿹
⿺
⿻
。
〢
こ
し
す
っ
な
に
の
は
ほ
ま
を
ん
゙
゚
ア
ィ
エ
カ
ク
コ
ス
セ
タ
チ
テ
ニ
ヒ
フ
マ
ュ
ユ
ル
レ
ロ
ン
・
ー
ㄱ
ㄲ
ㄳ
ㄴ
ㄵ
ㄶ
ㄷ
ㄸ
ㄹ
ㄺ
ㄻ
ㄼ
ㄽ
ㄾ
ㄿ
ㅀ
ㅁ
ㅂ
ㅃ
ㅄ
ㅅ
ㅆ
ㅇ
ㅈ
ㅉ
ㅊ
ㅋ
ㅌ
ㅍ
ㅎ
ㅏ
ㅐ
ㅑ
ㅒ
ㅓ
ㅔ
ㅕ
ㅖ
ㅗ
ㅘ
ㅙ
ㅚ
ㅛ
ㅜ
ㅝ
ㅞ
ㅟ
ㅠ
ㅡ
ㅢ
ㅣ
ㅥ
ㅦ
ㅧ
ㅨ
ㅩ
ㅪ
ㅫ
ㅬ
ㅭ
ㅮ
ㅯ
ㅰ
ㅱ
ㅲ
ㅳ
ㅴ
ㅵ
ㅶ
ㅷ
ㅸ
ㅹ
ㅺ
ㅻ
ㅼ
ㅽ
ㅾ
ㅿ
ㆀ
ㆁ
ㆂ
ㆃ
ㆄ
ㆅ
ㆆ
ㆇ
ㆈ
ㆉ
ㆊ
ㆋ
ㆌ
ㆍ
ㆎ
㇁
㇂
㇄
㇇
㇈
㇉
㇓
㐁
㐄
㐅
㐌
㐫
㐬
㐭
㐮
㐱
㑒
㒵
㒸
㒼
㓁
㓞
㔾
㕛
㕣
㖾
㘝
㚅
㚇
㚔
㚘
㝉
㝡
㝴
㝵
㞋
㞢
㞷
㠩
㠭
㠯
㡀
㡭
㡿
㢲
㢴
㣇
㣺
㥯
㪅
㫄
㫐
㫒
㫺
㬅
㬎
㬥
㬰
㲋
㳄
㷠
㸒
㸚
㸦
㼌
㼲
㽞
㿟
䀠
䂞
䍃
䏍
䒑
䖍
䖒
䖝
䖵
䙴
䚻
䜌
䝿
䡛
䧹
䪞
一
丁
丂
七
丄
丅
丆
万
丈
三
上
下
丌
不
与
丏
丐
丑
专
且
丕
世
丘
丙
业
东
丞
丢
丣
两
严
並
丨
丩
个
丫
丬
中
丮
丰
丱
串
丵
丶
丷
丸
丹
为
主
丽
丿
乀
乂
乃
久
乆
乇
么
义
之
乌
乍
乎
乏
乐
乑
乔
乖
乗
乘
乙
乚
乛
乜
九
乞
也
习
乡
乳
乾
亀
亅
了
亇
予
争
事
二
亍
于
亏
亐
云
互
亓
五
井
亘
亚
亜
亞
亟
亠
亡
亢
交
亥
亦
产
亨
亩
享
京
亭
亮
亯
亰
亲
亳
亶
亷
人
亻
亼
亾
仁
今
介
仌
从
仐
仑
仒
仓
仕
他
付
仝
代
令
以
任
企
伊
伏
伐
休
会
伯
但
位
佐
何
佘
余
作
佥
使
來
侈
侌
侖
侯
侵
便
保
俞
信
修
倉
倍
候
倠
倭
備
僉
僕
儉
儿
兀
允
兂
元
兄
充
兆
兇
先
光
兊
克
兌
免
兑
兒
兓
兔
党
兜
兟
入
全
兩
兪
八
公
六
兮
兰
共
关
兵
其
具
典
兹
兼
冀
冂
冃
冄
内
冈
冉
冊
冋
册
再
冎
冏
冐
冒
冓
冖
冗
冘
军
农
冝
冠
冡
冥
冫
冬
冷
几
凡
凢
凵
凶
凷
凸
凹
出
函
凾
刀
刁
刂
刃
刄
刅
分
切
刍
刑
刕
刖
列
刘
则
初
別
利
别
到
制
刺
則
削
剌
前
剛
剡
剽
劉
力
功
加
劦
助
劫
劳
劵
勃
勇
勉
勒
動
務
勝
勞
勤
勹
勺
勻
勾
勿
匀
匂
包
匆
匈
匊
匋
匍
匕
化
北
匚
匝
匡
匪
匱
匸
匹
区
医
匽
匿
區
十
卂
千
卄
卅
卆
升
午
卉
半
卌
华
卑
卒
卓
单
卖
南
単
卜
卝
卞
占
卡
卢
卣
卤
卦
卩
卪
卬
卯
印
危
即
却
卵
卷
卸
卻
厂
厃
厄
历
厈
厉
厌
厓
厘
厚
原
厤
厥
厨
厭
厲
厶
厷
厸
去
厼
厽
叀
参
參
叅
又
叉
及
友
双
反
叐
发
叒
叔
叕
取
受
叚
叜
叟
口
古
句
另
叩
只
召
可
台
叱
史
右
叵
号
司
叹
吂
各
吅
合
吉
吊
吋
同
名
后
吏
向
吕
君
吝
吞
否
含
启
吳
吴
吹
吾
呂
呆
呈
告
员
呙
周
命
咅
和
咎
咠
咢
咨
咸
咼
哀
品
哉
員
哥
哲
唐
商
啇
問
啚
啬
啻
喀
善
喜
喬
單
喿
嗇
噩
嚴
囊
囗
囘
囙
囚
四
回
囟
因
囧
囬
困
囱
囷
固
国
圂
圅
國
圍
圓
土
圡
圣
圥
在
圭
地
圶
圼
坐
坒
坚
坪
坴
垂
垔
垚
埀
埋
城
域
埶
執
基
堂
堅
堆
堇
堯
塞
墨
壌
壘
壤
士
壬
壯
声
壳
壴
壹
壺
壽
夂
处
夅
夆
备
夊
夋
夌
复
夏
夒
夕
外
夗
夘
多
夜
夢
大
夨
天
太
夫
夬
夭
央
失
夲
头
夷
夸
夹
夻
夾
奂
奄
奇
奈
奉
奎
奏
奐
契
奓
奔
奚
奞
奠
奢
奥
奭
女
奴
奻
好
如
妄
妙
妟
妥
妻
妾
姑
委
姜
威
娄
婁
婴
嬰
嬴
子
孑
孔
孕
孖
字
存
孚
孛
孝
孟
季
孤
学
孫
孱
學
宀
宁
宂
它
宅
宇
守
安
宋
完
宏
宓
宗
官
定
宛
宜
宝
客
宣
室
宮
宰
害
家
容
宾
宿
寄
寅
密
富
寒
察
寧
審
寫
寬
寮
寸
对
寺
寻
寽
対
寿
封
尃
射
将
將
專
尉
尊
尋
尌
對
小
少
尒
尓
尔
尖
尗
尚
尞
尢
尣
尤
尧
尨
尭
就
尸
尹
尺
尻
尼
尽
尾
尿
局
居
屈
屋
屎
屏
屑
展
屖
屚
属
屠
屡
屬
屮
屯
屰
山
屵
屾
岁
岂
岑
岡
岩
岳
岸
峯
峰
島
崇
崎
崑
崔
崖
崙
崩
嵬
嶲
巂
巛
川
州
巟
巠
巢
巤
工
左
巧
巨
巩
巫
差
己
已
巳
巴
巷
巸
巽
巾
巿
帀
市
布
希
帚
帛
帝
带
師
席
帶
常
干
平
年
幵
并
幷
幸
幺
幻
幼
幽
幾
广
広
庄
床
底
店
庚
府
度
庫
庭
庶
康
庸
廉
廌
廛
廣
廩
廴
延
廷
建
廾
廿
开
弁
弃
弄
弇
弋
式
弓
弔
引
弗
弘
弜
弟
弥
弦
弱
張
強
强
彊
彌
彎
彐
彑
当
彔
录
彖
彗
彡
形
彥
彦
彧
彭
彳
役
彼
往
待
律
徒
得
徙
從
復
微
徵
心
忄
必
忌
忍
志
忝
忠
忩
快
念
忽
忿
思
怠
急
怱
恆
恒
恩
恭
息
悉
患
悤
悲
悶
情
惠
惡
惢
愁
愈
意
愛
感
慈
慧
慮
憂
憲
應
戀
戈
戉
戊
戋
戌
戍
戎
成
我
戒
戔
或
戚
戠
戢
截
戲
戶
户
戹
戼
戾
房
所
扁
扇
手
扌
才
打
托
执
承
折
拉
拜
拿
掌
推
提
摩
支
攴
攵
收
攸
改
放
政
敄
敏
敕
敖
敗
教
敝
敞
敢
散
敦
敫
敬
数
敷
數
斂
文
斉
斊
斗
斤
斥
斩
斬
斯
新
方
於
施
斿
旁
旋
族
无
旡
既
旣
日
旦
旧
旨
早
旬
旱
旲
时
旾
昆
昇
昊
昌
昍
明
昏
易
昔
昗
昜
星
春
昬
是
昱
昴
昷
時
晃
晋
晏
普
景
晶
智
暑
暴
曇
曩
曰
曲
曳
更
曷
書
曹
曼
曾
替
最
朁
會
月
有
朋
服
朔
朕
朗
望
朝
木
朩
未
末
本
札
朮
术
朱
朵
朶
朿
杀
杏
村
杜
束
条
来
東
杲
杳
松
析
林
枚
果
枝
枲
枼
某
柔
查
柬
柰
柳
柴
栗
桀
桑
桼
梁
條
梟
梨
棘
棠
棥
森
楚
業
楽
榮
樂
樊
樹
橋
欠
次
欣
欮
欲
欶
欽
款
歆
歇
歛
止
正
此
步
武
歨
歪
歮
歯
歰
歲
歴
歷
歸
歹
歺
死
殳
段
殷
殸
殹
殺
殻
殿
毋
毌
母
每
毒
比
毕
毚
毛
毳
氏
氐
民
气
氣
水
氵
氶
氷
永
氺
氾
求
汝
汞
江
沃
沓
沙
沝
治
泉
法
波
泣
泥
泰
洛
洞
津
洪
活
派
流
浦
浪
浮
海
淡
淮
淸
清
渚
渠
渭
湖
湯
滿
漢
漸
火
灬
灭
灰
灵
灷
炅
炎
炏
炗
炙
炭
為
烈
烏
烝
焉
無
焦
焱
然
煞
熊
熏
熙
燕
營
燮
爪
爫
爭
爯
爰
爱
爲
爵
父
爻
爽
爾
爿
片
牙
牚
牛
牜
牟
牡
牢
牧
牪
特
牽
犀
犬
犭
犮
狂
狄
狊
独
狺
狼
猋
猒
猪
献
獻
玄
率
玉
王
玟
玨
现
珎
班
現
琴
瑟
瑩
璠
瓜
瓦
甘
甚
生
産
用
甫
甬
田
由
甲
申
电
甶
男
甸
甹
画
甾
畀
界
畏
畐
留
畜
畟
畢
畧
畨
番
畫
異
畱
當
畺
畾
疊
疋
疌
疑
疒
疾
癶
癸
癹
登
發
白
百
皀
皃
的
皆
皇
皋
皐
皕
皮
皷
皿
盃
盆
盇
盈
益
盍
盎
监
盒
盖
盛
盡
監
盤
盧
目
直
相
盾
省
眇
眉
看
眔
眞
真
眷
眼
眾
着
睘
睪
睿
瞏
瞢
瞿
矍
矛
矞
矢
矣
知
矦
短
石
破
碎
磊
磨
示
礻
礼
祟
祥
票
祭
禀
禁
禸
禹
禺
离
禽
禾
禿
秀
秃
秉
秋
科
秝
秦
移
稟
穀
穌
穴
究
穹
空
穿
突
窄
窒
立
竒
竜
竝
竟
章
童
竹
笑
笠
筆
等
答
箕
算
箴
節
篤
篭
簡
米
粉
粛
粟
粤
粦
粲
糞
糸
糹
系
約
納
級
素
索
紫
累
細
終
絜
絫
絲
維
綿
縣
繇
纍
纟
缶
网
罒
罔
罕
罗
罙
罡
罢
罪
署
罷
羅
羊
羌
羍
美
羔
羕
羗
羞
羡
羣
群
義
羲
羸
羽
翁
翏
習
翕
翟
翠
翼
老
耂
考
者
耆
而
耎
耑
耒
耳
耴
耶
耷
聂
聊
聖
聚
聲
聶
聿
肀
肃
肅
肉
肖
肙
肥
肩
肯
育
肴
胃
背
胡
胥
能
脊
脩
膚
臣
臤
臧
自
臬
臭
臯
臱
至
致
臺
臼
臽
臾
臿
舀
舂
舄
與
興
舉
舌
舍
舛
舜
舞
舟
般
船
艮
良
色
艸
艹
艾
芒
芔
芬
芮
花
芳
芺
芻
苔
苗
苟
若
苦
英
茶
茸
荅
草
荒
荣
荼
莆
莧
莫
莽
菆
菊
菐
華
萬
落
葉
著
葛
董
葵
蒙
蒦
蒼
蓋
蓬
蓺
蔑
蔡
蕉
蕭
薄
薛
薦
薰
藍
藏
藥
蘭
虍
虎
虐
虒
虔
處
虖
虗
虘
虚
虛
虜
虞
虫
虽
蚤
蚩
蜀
蜜
蟲
蠡
血
衆
行
衍
衛
衣
衤
表
衮
衰
袁
袞
褭
褱
襄
襾
西
覀
要
覃
見
規
覓
覧
親
覽
觀
见
角
解
言
訁
訇
計
話
詹
語
誩
諸
議
讠
谷
豆
豈
豊
豐
豕
豖
豙
象
豦
豩
豪
豸
貇
貝
貞
貟
負
貢
貧
貪
貫
責
貳
貴
買
費
賁
資
賈
賏
賓
賔
賛
賞
賢
賣
質
賴
贊
贝
贡
责
贯
贲
贵
赖
赞
赤
赦
走
越
足
路
蹇
身
躬
車
軍
軎
軟
輦
轄
车
辛
辜
辟
辥
辰
辱
農
辵
辶
边
达
过
近
连
迷
追
退
送
逆
逐
通
速
造
逢
連
逮
進
遀
遂
過
道
達
遣
適
遷
遺
邊
邑
邕
那
邦
邪
郎
郡
部
郭
都
鄉
酉
酋
配
酓
釆
采
里
重
野
量
金
釒
鋒
錢
鏡
钅
長
镸
长
門
閃
閉
開
閏
閑
閒
間
閔
閵
閻
闌
门
间
闷
闻
阑
阜
阝
阿
降
院
陳
隆
隊
隋
隡
隨
隱
隶
隹
隺
隻
隼
隽
难
雀
雁
集
雈
雋
雍
雐
雔
雙
雚
雜
雝
離
難
雨
雩
雪
雲
零
雷
需
霍
霜
霝
霞
霸
靈
靑
青
非
靡
面
靣
革
韋
韓
韦
韭
韯
韱
音
頁
頃
項
順
須
頗
頡
頻
顛
页
風
风
飛
飞
食
飠
養
饣
首
香
馬
馮
駦
马
骨
高
髟
鬥
鬯
鬲
鬼
魚
魯
鮮
鱼
鲁
鳥
鳳
鸟
鹵
鹿
麃
麗
麥
麦
麻
黃
黄
黍
黎
黑
黒
黨
黹
黽
黾
鼎
鼓
鼠
鼻
齊
齋
齐
齒
齿
龍
龙
龜
龟
龠
龰
龱
龴
龵
龶
龷
龸
龹

者
艹
？
🜨
𠀁
𠀃
𠀆
𠀉
𠀎
𠀐
𠁁
𠁣
𠂆
𠂇
𠂈
𠂉
𠂊
𠂋
𠂎
𠂒
𠂔
𠂛
𠂡
𠂢
𠂤
𠂬
𠂭
𠂹
𠃊
𠃋
𠃌
𠃍
𠃎
𠃑
𠃓
𠃔
𠃜
𠄌
𠄎
𠄠
𠄢
𠆢
𠆥
𠇍
𠈌
𠌵
𠓜
𠔉
𠔥
𠔼
𠔽
𠔿
𠕀
𠕁
𠕋
𠘧
𠘨
𠙻
𠙼
𠚏
𠚒
𠚤
𠚪
𠣏
𠤎
𠤕
𠥓
𠦄
𠦑
𠦝
𠧒
𠧗
𠧪
𠩺
𠪚
𠫓
𠫔
𠫤
𠬛
𠬝
𠬞
𠬢
𠬤
𠬶
𠮛
𠮦
𠮷
𠯑
𠱠
𠳮
𠷎
𡈼
𡉀
𡉵
𡌥
𡍮
𡏳
𡕒
𡕩
𡕰
𡖅
𡗗
𡗜
𡘆
𡘤
𡧱
𡨄
𡩧
𡬠
𡭽
𡰣
𡰥
𡰪
𡰯
𡰱
𡷈
𡸁
𡿨
𡿩
𡿪
𡿺
𢀖
𢀛
𢀩
𢁙
𢆉
𢆰
𢆶
𢇁
𢇇
𢉖
𢌬
𢌿
𢏚
𢑑
𢑚
𢖻
𢙣
𢛳
𢦏
𢦒
𢧵
𢼄
𢾕
𣁋
𣄼
𣅀
𣅽
𣍘
𣎳
𣎵
𣏋
𣏼
𣗥
𣥂
𣥖
𣦵
𣦼
𣧄
𣪊
𣪠
𣬉
𣳾
𣶒
𤇾
𤊽
𤐫
𤓰
𤔔
𤕨
𤣩
𤰇
𤰔
𤰞
𤴓
𤴔
𤽄
𥁑
𥁕
𥃦
𥃩
𥃭
𥇡
𥑟
𥘅
𥘈
𥝢
𥫗
𥱡
𦈢
𦉪
𦉬
𦉼
𦍌
𦍒
𦎧
𦐇
𦓔
𦔮
𦘒
𦙃
𦚏
𦣝
𦣞
𦣻
𦥑
𦥔
𦥯
𦨉
𦭝
𦰩
𧆞
𧈧
𧘇
𧰨
𧴪
𧴮
𧵩
𧾷
𨸏
𨾴
𩙿
𩠐
𩫏
𩵋
𪉷
𪜀
𪟽
𪠲
𪩲
𫇦
𫔭
𫜸
𫝀
𫠣
𫠩
𫢉
𫥞
𫩏
𫩠
𫪡
𫲽
𫶧
𬀷
𬐘
𬗌
𬙙
𬛸
𬜯
𬟩
𬯁
𬴘
𬺻
𬼉
𬼖
𭀰
𭁈
𭁨
𭅰
𭑈
𭕄
𭗼
𭤨
𭥫
𭻾
𮅕
𮊿
𮍌
𮍏
𮓗
𮥼
𮧮
廾
𰀁
𰀄
𰀈
𰀉
𰀕
𰀠
𰀡
𰀢
𰀪
𰁜
𰃮
𰆊
𰆘
𰋙
𰕎
𰢴
𰧭
𰯲
00--
01--
02--
03--
06--
13--
16--
28--
35--
41--
47--
51--
52--
57--
60--
65--
69--
70--
71--
72--
73--
74--
837--
838--
839--
978--
a--
aal--
ab--
abis--
abo--
ac--
ach--
acti--
ad--
adam--
adap--
adi--
admo--
adre--
adria--
advo--
ae--
af--
ag--
ai--
aj--
ak--
akade--
akcy--
akrobati--
akti--
akto--
al--
albi--
algi--
ali--
alli--
alpe--
alpin--
alt--
alter--
alto--
am--
ama--
amazo--
amet--
amph--
an--
ana--
anatoli--
and--
ande--
ane--
anie--
ano--
anoqspke--
anti--
ap--
apfelzyn--
apo--
ar--
ara--
arame--
arch--
are--
areszto--
arist--
arkt--
arns--
aro--
artysty--
as--
astro--
asturi--
at--
atej--
au--
auran--
aus--
auto--
av--
aw--
ay--
az--
azor--
ałta--
b--
ba--
baj--
bak--
bakte--
bal--
bale--
balti--
ban--
bank--
bapt--
bar--
baski--
bass--
bawar--
be--
beau--
bec--
behr--
bej--
bel--
bele--
ben--
benia--
ber--
bern--
bes--
bessa--
bez--
beł--
bi--
bia--
białgło--
biało--
bic--
bie--
bio--
bisti--
biu--
biz--
bja--
bk--
bla--
ble--
bli--
blicy--
blo--
bo--
bolsz--
bomb--
boo--
boro--
boru--
borze--
borzy--
bosan--
bou--
bour--
bow--
br--
bra--
bre--
bri--
bric--
bro--
bron--
browa--
bru--
bry--
brza--
brze--
brzu--
bs--
bsa--
btak--
bu--
bud--
bunde--
burme--
bus--
but--
bułg--
by--
bła--
błago--
bło--
c--
ca--
camp--
can--
car--
cass--
cassu--
cat--
cau--
cavi--
całko--
ce--
cegla--
cej--
cel--
cem--
cemno--
cen--
cer--
cera--
cesa--
ch--
cha--
char--
che--
chemi--
cheł--
chi--
chin--
chle--
chli--
cho--
chr--
chri--
chrizan--
chro--
chry--
chto--
chwa--
chwar--
chwaszc--
chy--
chło--
ci--
cia--
cie--
cin--
citr--
ck--
cl--
cle--
clo--
cm--
cml--
cmlxx--
cmx--
cmxc--
cmxx--
cni--
co--
cocc--
col--
com--
con--
confu--
conve--
copy--
corpo--
coru--
cos--
crea--
cri--
cro--
cu--
cur--
cwia--
cwie--
cy--
cyfri--
cyg--
cyrene--
cyrili--
cyt--
cywi--
cywili--
cz--
cza--
czapie--
czar--
czarow--
cze--
czecho--
czer--
czes--
czi--
czin--
czno--
czo--
czu--
czy--
czyn--
czło--
d--
da--
dalm--
dan--
dance--
dar--
dbi--
dc--
dccc--
dcccl--
dccclxx--
dcccx--
dcccxx--
dczu--
dd--
dda--
ddze--
de--
decl--
dejo--
dek--
dekla--
del--
dem--
den--
deno--
denti--
der--
derze--
des--
deta--
dex--
dgro--
di--
diakriti--
diasy--
dic--
die--
dift--
dikt--
dinamic--
dio--
direc--
direk--
dirs--
disa--
discy--
disko--
disto--
dj--
dja--
djim--
djimi--
dka--
dko--
dl--
dla--
dle--
dlu--
dn--
dni--
dnic--
dno--
do--
dobi--
dobie--
doda--
dog--
doka--
dolno--
dom--
dope--
dos--
doti--
dotk--
dow--
dowie--
down--
dowo--
doz--
doł--
dr--
dra--
draszo--
dre--
dri--
dro--
dru--
drz--
drzu--
ds--
dtr--
du--
dun--
dur--
dwa--
dwi--
dwie--
dwo--
dwu--
dy--
dyscy--
dyti--
dz--
dza--
dze--
dzec--
dzeja--
dzi--
dzie--
dzo--
dzu--
dzy--
dzys--
dł--
e--
ear--
eas--
ec--
ed--
edukacy--
efe--
efekti--
eff--
ege--
egg--
egla--
egna--
egzempla--
ein--
ek--
eka--
eko--
ekonomi--
eksp--
ekspe--
ekwi--
el--
ela--
ele--
elekt--
elektri--
elektro--
eli--
em--
emi--
en--
ency--
encyklope--
ene--
ep--
epi--
equ--
er--
ero--
es--
escu--
et--
etimo--
etio--
etnic--
etno--
eu--
ewa--
ewang--
ewangeli--
ewanie--
ex--
ey--
ez--
f--
fa--
falc--
falk--
famili--
far--
farb--
fat--
fe--
fed--
felo--
fer--
ferme--
ferna--
fi--
fic--
fil--
fin--
finan--
fizjo--
fk--
fla--
fle--
fli--
flo--
flu--
fo--
font--
for--
fr--
fra--
fre--
fri--
frid--
friede--
fron--
fry--
ft--
fu--
ful--
g--
ga--
gac--
gal--
gali--
gan--
gar--
garb--
gard--
gbu--
ge--
geo--
ger--
gers--
get--
gi--
gibralt--
gimna--
gira--
gl--
gla--
gle--
gli--
glo--
gn--
gno--
go--
god--
goll--
gos--
got--
gr--
gra--
grau--
gre--
gren--
grim--
grip--
griphe--
griphen--
gro--
gru--
grun--
gry--
grzy--
gu--
gul--
gus--
gw--
gy--
gł--
gło--
głos--
głus--
h--
ha--
hab--
hamer--
han--
hanzeaty--
har--
harce--
hard--
hart--
has--
haupt--
he--
hebr--
heid--
hel--
hennen--
her--
herpeto--
hi--
hidro--
hiera--
histo--
ho--
hoh--
hol--
holo--
hono--
horizo--
hr--
html--
hu--
hy--
hydro--
hyem--
i--
ia--
ib--
ic--
id--
iden--
identifi--
ideo--
ie--
ii--
ik--
il--
im--
imie--
in--
ina--
inc--
indepen--
indi--
info--
inic--
inicja--
inner--
ino--
inspi--
institu--
inter--
interpre--
inz--
io--
ir--
ire--
irland--
is--
iso--
ist--
it--
ita--
iv--
ix--
iza--
izm--
izo--
j--
ja--
jagi--
jagiello--
jan--
janie--
jaro--
jarz--
jasno--
jaz--
jco--
je--
jec--
jedno--
jero--
jez--
jezie--
ji--
jide--
jidentifi--
jim--
jimi--
jin--
jindi--
jinicja--
jinsta--
jinte--
jist--
jita--
jiz--
jn--
jno--
jo--
js--
jt--
ju--
jubile--
jubileus--
judai--
jun--
jut--
k--
ka--
kac--
kal--
kala--
kali--
kalm--
kalo--
kam--
kami--
kan--
kanadi--
kandi--
kandyda--
kano--
kapita--
kar--
kara--
karaib--
kart--
karto--
kas--
kaspro--
kat--
kata--
kate--
kato--
kaz--
kazy--
kc--
ke--
kel--
ki--
kie--
kiedro--
kim--
kins--
kl--
kla--
klasy--
klasyfi--
klawe--
kle--
klie--
klo--
km--
kni--
kno--
ko--
koby--
kol--
kom--
komen--
komu--
komunisty--
kon--
konar--
konfe--
kor--
kos--
kozic--
koło--
kr--
kra--
krako--
krati--
kre--
kres--
kri--
krim--
kriti--
kro--
kru--
krwaw--
kry--
krze--
krzi--
ks--
kształto--
kt--
ku--
kuchar--
kuku--
kul--
kun--
kwa--
kwas--
kwe--
kwie--
kwit--
ky--
kø--
kła--
l--
la--
labo--
ladi--
lam--
lan--
lar--
lari--
las--
lat--
lau--
law--
lc--
ld--
ldsz--
le--
lega--
legnic--
leh--
lekti--
lem--
len--
lender--
leo--
leri--
les--
leszc--
let--
lew--
lex--
lez--
li--
lim--
limpi--
lin--
linuk--
lit--
litera--
lito--
ll--
lm--
lni--
lno--
lo--
loka--
lokali--
lomb--
los--
lot--
loz--
lsa--
lsz--
lsze--
lt--
ltu--
lu--
lub--
lubo--
luc--
lud--
lui--
lwo--
lyn--
lyo--
m--
ma--
mac--
mace--
magi--
magno--
mai--
maj--
mak--
maksy--
mal--
malaj--
malar--
malo--
mame--
man--
manif--
map--
mar--
marg--
mari--
mars--
mas--
masze--
maszo--
mat--
mate--
matur--
mazow--
mazur--
mb--
mbar--
mc--
mccclxx--
mcd--
mcdl--
mcdx--
mcdxx--
mcm--
mcml--
mcmlxx--
mcmx--
mcmxc--
mcmxx--
mdc--
mdcc--
mdccc--
mdcccl--
mdccclxx--
mdcccx--
mdcccxx--
mdccl--
mdcclxx--
mdccx--
mdccxc--
mdccxx--
mdcx--
mdcxc--
me--
medi--
meg--
meksi--
melc--
melo--
melody--
men--
mer--
mercy--
mez--
mg--
mi--
mic--
mie--
miejs--
miko--
mikro--
mil--
milia--
min--
miny--
mio--
miono--
mir--
mit--
mje--
mk--
mm--
mni--
mno--
mo--
mono--
mont--
mor--
mos--
mp--
mro--
ms--
mu--
mul--
mur--
mus--
my--
mys--
mz--
mło--
młodo--
n--
na--
nac--
nacy--
nad--
nadczi--
naft--
naj--
nakaz--
nale--
nami--
napa--
napo--
nar--
naro--
nas--
nasta--
nat--
nau--
nazi--
nc--
nce--
nd--
nda--
nde--
ndo--
ne--
neder--
nega--
neo--
ner--
net--
neu--
new--
nf--
nfe--
ng--
ni--
nia--
nic--
nie--
niebez--
niedo--
niem--
nierz--
niez--
nigs--
nik--
nim--
nio--
nis--
nisti--
niwer--
niwersa--
nje--
nk--
nl--
no--
noc--
nolez--
nomi--
nor--
nord--
norwe--
nos--
nowi--
nowo--
nowła--
ns--
nse--
nser--
nspi--
nstitu--
nstitucy--
nt--
nti--
nto--
nu--
ny--
nzer--
o--
ob--
obe--
obie--
oby--
obywate--
occid--
oce--
och--
od--
odp--
of--
oficja--
ojczy--
ok--
ol--
ole--
oli--
olimpi--
oliwko--
omni--
on--
opi--
opo--
opp--
or--
orie--
orkie--
orth--
os--
oso--
osta--
oto--
ou--
oz--
p--
pa--
pac--
pach--
pai--
pale--
pali--
pall--
pallo--
palm--
pan--
pance--
pane--
pano--
papa--
papi--
par--
para--
parce--
parm--
partne--
pas--
pasy--
pato--
patr--
patrija--
pau--
pazur--
pc--
pch--
pe--
pedago--
pedi--
pen--
per--
pes--
petra--
petro--
ph--
pho--
phy--
pi--
pic--
pie--
piel--
pielgr--
pien--
pier--
pija--
pin--
pio--
pis--
pisa--
piłka--
pjong--
pl--
plano--
plastu--
plat--
play--
ple--
plebi--
plejsto--
plo--
plu--
po--
pod--
poe--
poety--
poko--
pol--
pole--
poli--
politi--
polity--
polko--
poly--
pop--
por--
pos--
poz--
połu--
pr--
pra--
praco--
praktic--
praw--
prawo--
pre--
preze--
prezy--
prie--
pris--
pro--
propa--
proro--
protestan--
proto--
prowa--
prowansa--
pry--
prz--
prze--
przebi--
przed--
przemie--
przemys--
przepro--
przes--
przewa--
przez--
przit--
przy--
przyby--
pszc--
psze--
pt--
pu--
puc--
pul--
punk--
px--
py--
pyeo--
pła--
płac--
płi--
pło--
pły--
q--
qu--
que--
qui--
quoti--
r--
ra--
rab--
rac--
radi--
radika--
radio--
ralo--
ramp--
ran--
rat--
rau--
rb--
rc--
rch--
rczo--
rd--
rdo--
rdz--
re--
rea--
reali--
rebel--
rec--
rech--
red--
reda--
refe--
reh--
rei--
rejo--
reko--
reli--
religi--
remb--
remi--
ren--
repreze--
reprezento--
repu--
resi--
respu--
resur--
reszt--
reti--
reu--
reve--
rewo--
rez--
rfo--
rg--
rgani--
rha--
ri--
ria--
rib--
rice--
rich--
richten--
rk--
rki--
rm--
rma--
rme--
rn--
rna--
rni--
rno--
ro--
robo--
roczy--
rodz--
roga--
rok--
rom--
ron--
rope--
ros--
row--
roz--
roze--
rozpo--
rozro--
rozry--
rp--
rs--
rsz--
rt--
rto--
rtuga--
ru--
rum--
rus--
ry--
rz--
rza--
rze--
rzi--
rzu--
rzy--
s--
sa--
saar--
sac--
sad--
sado--
sagi--
sal--
salo--
sam--
samo--
san--
sandomie--
sangu--
sarde--
sc--
sca--
scar--
sce--
sch--
sche--
schi--
schl--
schle--
schwe--
sci--
scroph--
scy--
scze--
se--
sea--
seba--
sebasti--
secu--
sed--
sedz--
sek--
sekre--
sem--
semanti--
semie--
sensacy--
ser--
serde--
set--
sfe--
sferic--
sfo--
sha--
shan--
she--
shi--
sho--
show--
si--
sia--
sie--
sikor--
sil--
sin--
sio--
sjo--
sk--
ska--
skandina--
skar--
ski--
skie--
skin--
sko--
skro--
skrzi--
skrzy--
sku--
skwa--
sky--
skład--
sl--
sla--
sle--
slo--
slove--
slovi--
slup--
sma--
sme--
smi--
smie--
smo--
sni--
so--
sobi--
socja--
sol--
sole--
solidar--
soplic--
sor--
sos--
sp--
spa--
spe--
specja--
specyfi--
sphe--
spi--
spie--
spo--
spoldec--
społe--
sprowa--
sr--
sreznie--
sro--
ss--
st--
sta--
stalino--
stano--
staro--
stati--
ste--
step--
sti--
sto--
stoli--
stowarzy--
stra--
stro--
struk--
strze--
stu--
sty--
su--
sub--
subie--
sun--
super--
sur--
surreali--
sus--
suwa--
sv--
sw--
swa--
swe--
swie--
swo--
sy--
sybi--
syja--
sylwe--
syn--
synoptic--
synteti--
syre--
sytu--
sz--
sza--
szar--
szaro--
sze--
szerz--
szi--
szk--
szko--
szo--
szp--
szpecja--
szpie--
szpro--
szt--
szta--
sztabi--
szte--
szti--
szto--
sztu--
sztudi--
szty--
szu--
szuki--
szwaj--
szy--
sła--
sło--
słu--
sługi--
t--
ta--
tac--
taj--
tak--
talk--
tam--
tan--
tanic--
tapi--
tar--
tarno--
tarnow--
tatar--
tau--
tax--
tc--
te--
techni--
techno--
tek--
tel--
tele--
tem--
ten--
teo--
ter--
tero--
terri--
terrori--
tesk--
th--
theo--
thor--
thu--
ti--
tim--
tipic--
tk--
tka--
tko--
to--
tole--
ton--
tor--
towarzy--
toł--
tr--
tra--
tradicy--
tradycy--
trans--
tre--
tri--
trib--
tribu--
trich--
trip--
tro--
tru--
trzi--
tt--
tu--
tun--
tur--
turysty--
tw--
twa--
two--
ty--
tys--
tz--
u--
uch--
ucie--
ugo--
uko--
ul--
um--
un--
uni--
univ--
universita--
up--
ur--
uro--
us--
usa--
uso--
usu--
ute--
uwac--
uy--
uz--
uła--
v--
va--
valk--
van--
varia--
ve--
vent--
ver--
verte--
vi--
vic--
vje--
vo--
vrede--
vu--
vy--
w--
wa--
wafe--
wali--
wan--
war--
warti--
wate--
waw--
wco--
wdo--
wdzy--
we--
weg--
weima--
wej--
wen--
wenezu--
wer--
west--
weter--
wey--
whi--
wi--
wia--
wiat--
wice--
wich--
wid--
widli--
wie--
wiele--
wielo--
wiez--
wiki--
wil--
win--
wio--
wirtsc--
wis--
wit--
wiz--
wk--
wla--
wle--
wlo--
wna--
wni--
wno--
wo--
wojwo--
wołgo--
woło--
wp--
wpis--
wprowa--
wro--
ws--
wsk--
wskaz--
wspo--
wsta--
wsti--
wsze--
wszech--
wszele--
wszy--
wu--
wy--
wybi--
wybo--
wybra--
wyd--
wys--
wyso--
wyz--
wz--
wzmac--
wzo--
wzro--
wła--
włady--
wło--
włoc--
włocła--
x--
xa--
y--
yc--
yer--
yn--
yo--
ytko--
ywi--
z--
za--
zac--
zacy--
zadebiu--
zaga--
zaintere--
zaj--
zajim--
zale--
zambi--
zamie--
zamk--
zamordo--
zao--
zape--
zapo--
zapro--
zarab--
zas--
zasto--
zau--
zawo--
zaz--
zaznac--
zbawi--
zbie--
zbio--
zbr--
zbro--
zd--
zda--
zde--
zdecy--
zdo--
zdro--
zdrze--
zdze--
zdzy--
ze--
zeblo--
zef--
zela--
zem--
zetka--
zgn--
zgo--
zgro--
zgu--
zh--
zi--
zie--
zja--
zje--
zji--
zla--
zle--
zlo--
zloka--
zm--
zmartwich--
zme--
zmia--
zmie--
zna--
znaj--
zni--
znik--
zno--
zo--
zoo--
zre--
zri--
zro--
zu--
zuł--
zw--
zwa--
zwi--
zwie--
zwik--
zwo--
zwycza--
zy--
zło--
ß--
đ--
ł--
ła--
łce--
łd--
łdze--
łe--
łg--
łi--
ło--
łok--
łokie--
łot--
łp--
łt--
łtawo--
łto--
łtobrzu--
łu--
łw--
łz--
ſ--
γκ--
λ--
ν--
π--
ρ--
ρα--
σ--
τ--
φ--
б--
в--
го--
е--
и--
к--
ка--
кате--
мо--
н--
ра--
с--
са--
т--
је--
י--
ا--
--0
--00
--1
--19
--2
--3
--33
--4
--44
--45
--46
--48
--5
--6
--66
--7
--8
--9
--91
--a
--able
--ac
--ace
--aceae
--ach
--acja
--acje
--acji
--acjo
--ad
--ada
--ado
--adz
--ae
--age
--ago
--ah
--ai
--aj
--aja
--aje
--ajo
--ak
--aka
--al
--ala
--ale
--alin
--alne
--alno
--alny
--am
--ama
--ame
--ami
--an
--ana
--ane
--ani
--anika
--ann
--ano
--ant
--anum
--ao
--ap
--ar
--ard
--arda
--are
--aria
--arius
--arne
--arny
--arski
--ary
--as
--aste
--asu
--at
--ata
--ate
--ath
--ati
--ation
--ations
--ato
--ator
--atu
--atus
--au
--ax
--ay
--az
--ał
--ałe
--ało
--b
--ba
--bajk
--ball
--banio
--be
--bel
--bet
--bic
--bie
--bio
--bione
--bit
--bo
--borg
--bri
--bro
--browo
--bs
--bt
--bu
--buch
--burg
--by
--c
--ca
--cal
--cczi
--ce
--cea
--ceae
--cepit
--ceus
--ch
--cha
--che
--cho
--chu
--ci
--cia
--cice
--cidae
--cie
--cin
--cino
--cja
--cje
--cji
--cjo
--ck
--cka
--cke
--cki
--ckich
--ckie
--ckim
--cko
--class
--co
--cow
--cs
--ct
--cta
--ction
--cts
--ctwo
--cu
--cum
--cus
--cut
--cy
--cyjne
--cyjno
--cym
--cyn
--cz
--cza
--cze
--czi
--czim
--czk
--czne
--czny
--czo
--czu
--d
--da
--dae
--dan
--dczi
--de
--di
--dia
--dit
--dium
--dka
--dku
--dl
--dle
--dna
--dne
--dni
--dny
--do
--don
--donu
--dor
--dorf
--dows
--ds
--dt
--du
--dula
--dy
--dz
--dza
--dze
--e
--ea
--eae
--ear
--ec
--eccze
--ech
--eck
--ecki
--ecko
--eczny
--ed
--eda
--ego
--eira
--ej
--eji
--ek
--ektualny
--el
--ela
--ell
--ella
--elne
--elno
--elu
--em
--en
--eni
--enio
--eniu
--enny
--ens
--ensis
--ent
--ento
--entu
--eny
--eo
--eon
--er
--era
--ered
--erg
--ern
--ers
--ert
--ery
--es
--esa
--esen
--et
--ete
--eto
--eu
--ev
--ew
--ewo
--ey
--ez
--f
--fa
--fe
--fera
--fere
--ff
--fie
--fiko
--fo
--ft
--fu
--fy
--g
--ga
--gac
--gas
--gde
--ge
--gencji
--ger
--gerin
--ght
--gi
--giwo
--gn
--gne
--go
--gon
--gro
--gs
--gu
--gua
--głi
--gło
--h
--ha
--ham
--he
--hen
--him
--hio
--hm
--hn
--ho
--http
--https
--hu
--hus
--i
--ia
--iaceae
--iach
--iae
--iak
--ial
--iama
--ian
--iana
--ianie
--iano
--iała
--iba
--ic
--ica
--iccze
--icczi
--ice
--ich
--icje
--icjo
--ick
--ico
--ictwa
--icus
--icza
--icze
--iczi
--iczna
--iczne
--iczni
--iczno
--iczny
--icznych
--icznym
--id
--idae
--ide
--ides
--ie
--iec
--ied
--iego
--iei
--iej
--iem
--ien
--ienie
--ier
--iert
--ierz
--ies
--ig
--iger
--igi
--ii
--iidae
--ija
--ije
--iji
--ijo
--ik
--ika
--iko
--iku
--il
--ile
--illa
--im
--imi
--imo
--in
--ina
--ine
--ing
--inga
--ingo
--ini
--ink
--inka
--inko
--inny
--ino
--ins
--int
--inus
--io
--ion
--ione
--iony
--iowe
--ir
--ira
--is
--isce
--ischen
--isie
--isk
--ism
--ist
--ista
--isticzno
--isto
--isło
--it
--ita
--ite
--itet
--ity
--itz
--iu
--ium
--ius
--iv
--ive
--iw
--iwa
--iwny
--iwo
--iwu
--ix
--iz
--iza
--izace
--izacjo
--ize
--izm
--izne
--izowo
--ił
--j
--ja
--jac
--jan
--jce
--je
--ji
--jik
--jio
--jk
--jmy
--jn
--jne
--jno
--jo
--jonizm
--js
--jsko
--ju
--jum
--jusz
--jz
--k
--ka
--kace
--kama
--kc
--kce
--kcjo
--kcyjne
--ke
--ker
--ki
--kie
--kin
--ko
--kow
--kowo
--kowska
--kowski
--kre
--ks
--ksu
--kt
--kta
--ku
--ky
--kł
--kłe
--l
--la
--lae
--lar
--las
--lałe
--lbein
--lc
--ld
--lde
--ldt
--le
--lei
--lele
--lenim
--ler
--lero
--less
--lewo
--ley
--leya
--lf
--li
--lia
--lic
--lidae
--lii
--lin
--linux
--lio
--lis
--lizacjo
--lił
--lk
--lka
--lki
--ll
--lla
--lle
--lli
--llo
--lls
--llus
--lna
--lne
--lnej
--lnik
--lno
--lnosc
--lny
--lnych
--lo
--lock
--logia
--logiczno
--lon
--lona
--lono
--lora
--ls
--lson
--lt
--lu
--lus
--lx
--ly
--lyn
--lz
--m
--ma
--man
--mar
--maticzny
--matyka
--mały
--mba
--mber
--mberg
--mburg
--me
--medale
--mel
--men
--mi
--mia
--mie
--min
--mne
--mo
--mu
--mum
--my
--myia
--n
--na
--nae
--nal
--nan
--nburg
--nc
--nce
--ncja
--ncji
--ncz
--nczi
--nd
--ndarz
--ndla
--nds
--ne
--nek
--nel
--nella
--nem
--ner
--nera
--nes
--ney
--ng
--ngs
--ngu
--ni
--nia
--niany
--niałe
--nic
--nica
--nice
--nictwa
--nictwo
--nidae
--nie
--nii
--nik
--nika
--nim
--nin
--nio
--niowa
--nista
--nitz
--niu
--nizm
--nił
--nja
--nk
--nka
--nki
--nko
--nku
--nne
--nno
--nny
--no
--nor
--now
--nowanie
--nowo
--ns
--nsi
--nsis
--nski
--nsko
--nsorium
--nt
--nta
--nte
--nti
--nts
--nty
--nu
--num
--nus
--ny
--nych
--nym
--nz
--o
--oda
--ode
--ol
--olo
--ology
--om
--ome
--on
--ona
--one
--ong
--onga
--ono
--ons
--ony
--or
--ora
--orf
--orm
--oro
--orre
--ort
--orum
--orze
--os
--osa
--osc
--osce
--ose
--osło
--ot
--ota
--ots
--oty
--ous
--ov
--ova
--ovic
--ovo
--ow
--owa
--owac
--owate
--ował
--owca
--owe
--owej
--owi
--owic
--owice
--owich
--owicz
--owie
--owim
--owo
--owska
--owski
--owskiego
--owy
--p
--pa
--pe
--ped
--pek
--pi
--pii
--pis
--pla
--platz
--pn
--po
--pp
--ps
--pt
--pu
--pus
--q
--r
--ra
--rac
--rano
--ras
--rc
--rce
--rcu
--rczy
--rczyk
--rd
--rds
--rdza
--rdze
--rdzył
--re
--rek
--rem
--ren
--rensis
--res
--rf
--rg
--rge
--rgo
--ri
--ria
--ridae
--rie
--rii
--rijo
--rin
--rine
--rio
--ris
--rium
--rk
--rka
--rko
--rly
--rm
--rmo
--rmy
--rn
--rna
--rne
--rni
--rnim
--rnio
--rno
--rnus
--rny
--ro
--rol
--row
--rowclass
--rowi
--rowo
--rowych
--rr
--rra
--rs
--rsczi
--rska
--rski
--rt
--rte
--rto
--ru
--rum
--rw
--rwe
--rwu
--ry
--rz
--rza
--rze
--rzi
--rzo
--rzu
--rzy
--s
--sa
--sabeth
--sal
--saw
--sberg
--sborg
--sc
--sca
--sce
--sch
--sche
--sco
--scu
--scy
--scze
--sczi
--se
--sel
--sen
--senie
--senim
--ser
--ses
--sh
--shire
--si
--sia
--sie
--sii
--sis
--sity
--sjo
--sk
--ska
--ske
--ski
--skie
--sko
--sku
--sn
--so
--son
--sona
--ss
--ssa
--sse
--ssion
--st
--sta
--ste
--stein
--stek
--sti
--sto
--stwa
--style
--su
--sum
--sy
--sył
--sz
--sza
--szcz
--sze
--szi
--szyn
--sł
--sła
--słe
--słi
--sło
--t
--ta
--tal
--talis
--tami
--tas
--tczi
--te
--tem
--tes
--tete
--th
--tha
--tho
--ti
--tic
--tice
--ticus
--ticzi
--ticzno
--tie
--ties
--tik
--tika
--tiku
--tilis
--tio
--tion
--tir
--tis
--tive
--tiw
--tiwne
--tiwu
--tja
--tk
--tka
--tko
--tl
--tne
--tno
--tny
--to
--ton
--tor
--tos
--tot
--towe
--tr
--trix
--tro
--ts
--tt
--tta
--tte
--tti
--tu
--tua
--tum
--tur
--tus
--tutu
--twa
--two
--twy
--ty
--tyk
--tyka
--tyle
--tz
--tze
--u
--ube
--uca
--ue
--uis
--uit
--uja
--uje
--ujo
--uk
--ukce
--ul
--ula
--ulus
--um
--umbii
--un
--una
--ung
--unko
--unku
--uo
--up
--ur
--ura
--urus
--ury
--us
--usa
--usz
--usza
--uszk
--uszo
--ut
--uta
--ution
--ux
--uz
--v
--va
--val
--var
--ve
--ved
--ven
--vention
--ver
--vi
--vic
--vica
--vie
--viensis
--vit
--vo
--vs
--vum
--vus
--w
--wa
--wac
--waja
--wald
--wane
--wanie
--wanio
--wany
--wate
--wał
--wała
--wc
--wca
--wco
--we
--wej
--wele
--wi
--wia
--wic
--wicczi
--wice
--wich
--wicz
--wie
--wiec
--wik
--wim
--wio
--wisko
--wisto
--wite
--wiu
--wk
--wka
--wko
--wn
--wna
--wne
--wni
--wnik
--wno
--wny
--wo
--ws
--wsczi
--wsk
--wska
--wski
--wskie
--wskiego
--wsko
--wszcze
--wu
--wy
--wych
--wym
--x
--xc
--xcii
--xciv
--xcix
--xcv
--xcvi
--xi
--xit
--xl
--xv
--xx
--xxv
--xxx
--y
--ya
--yce
--ych
--ye
--yer
--yi
--yjne
--yk
--yka
--yku
--ym
--yn
--yne
--yni
--yno
--yo
--ys
--yte
--ywa
--yz
--ył
--z
--za
--zace
--zba
--zc
--zcz
--zcze
--zczi
--zczo
--zd
--zda
--ze
--zelles
--zen
--zewo
--zi
--zia
--zie
--zig
--ził
--zk
--zka
--zke
--zki
--zko
--zm
--zna
--zne
--zni
--znie
--znim
--zno
--zny
--zo
--zon
--zono
--zu
--zumski
--zy
--zyce
--zyk
--ß
--ł
--ła
--łd
--łe
--łem
--łi
--łko
--łm
--ło
--łosc
--łu
--ły
--łła
--ɛ
--ɨm
--η
--ι
--ν
--ς
--а
--ан
--б
--в
--ва
--г
--го
--е
--и
--ки
--ліка
--ние
--о
--ра
--ская
--тан
--я
--і
