!
"
#
##0
##1
##10
##11
##12
##13
##14
##15
##16
##17
##18
##19
##2
##20
##21
##22
##23
##24
##25
##26
##27
##28
##29
##3
##30
##31
##32
##33
##34
##35
##36
##37
##38
##39
##4
##40
##41
##42
##43
##44
##45
##46
##47
##48
##49
##5
##50
##51
##52
##53
##54
##55
##56
##57
##58
##59
##6
##60
##61
##62
##63
##64
##65
##66
##67
##68
##69
##7
##70
##71
##72
##73
##74
##75
##76
##77
##78
##79
##8
##80
##81
##82
##83
##84
##85
##86
##87
##88
##89
##9
##90
##91
##92
##93
##94
##95
##96
##97
##98
##99
$
%
&
'
(
)
*
+
,
-
.
/
0
00
000
01
02
021
03
04
05
06
07
08
09
097
1
10
100
1000
101
102
103
104
105
106
107
108
109
11
110
111
112
113
114
115
116
117
118
119
12
120
1200
121
122
123
124
125
1254
126
127
128
129
13
130
131
132
133
134
135
136
137
138
139
14
140
141
142
143
144
145
146
147
148
1483
149
15
150
1500
151
152
1520
153
154
155
156
157
158
159
16
160
1609
161
162
163
164
1644
165
166
1668
167
168
169
17
170
1703
172
1721
1727
174
175
1750
1762
1764
1767
1769
177
1770
1771
1772
1773
1774
1775
1776
1777
1778
1779
178
1780
1781
1782
1783
1784
1785
1786
1787
1788
179
1790
1791
1793
1795
1797
1798
1799
18
180
1800
1801
1805
181
1810
1813
1814
1815
1816
1819
182
1820
1821
1822
1823
1824
1825
1827
1828
1829
183
1830
1831
1832
1834
1836
1837
1838
184
1840
1842
1844
1845
1846
1848
185
1850
1851
1853
1854
1856
1858
186
1860
1861
1862
1865
1866
1867
1868
187
1870
1871
1872
1874
1875
1876
1877
1878
1879
188
1880
1881
1882
1883
1884
1885
1886
1887
1888
1889
189
1890
1891
1892
1893
1894
1895
1896
1898
1899
19
190
1900
1901
1903
1904
1905
1906
1907
1908
191
1910
1911
1912
1913
1914
1915
1916
1917
1918
1919
192
1920
1921
1922
1923
1924
1925
1926
1927
1928
1929
193
1930
1931
1932
1933
1934
1935
1936
1937
1938
1939
194
1940
1941
1942
1944
1945
1946
1947
1948
1949
195
1950
1951
1952
1953
1954
1955
1956
1957
1959
196
1960
1961
1962
1963
1964
1965
1966
1967
1968
1969
197
1970
1971
1972
1973
1974
1975
1976
1977
1978
1979
198
1980
1981
1982
1983
1984
1985
1986
1987
1988
1989
199
1990
1991
1992
1993
1994
1995
1996
1997
1998
1999
2
20
200
2000
2001
2002
2003
2004
2005
2006
2007
2008
2009
201
2010
2011
2012
2013
2014
2015
2016
2017
2018
2019
202
2020
2021
2022
203
204
205
206
207
208
209
21
210
211
212
213
215
216
218
219
22
220
222
223
225
227
228
23
230
231
233
234
235
236
237
24
240
241
248
249
25
250
251
252
255
256
257
258
259
26
260
261
262
264
265
266
267
268
269
27
270
271
272
275
276
277
28
280
281
282
284
287
288
289
29
290
291
293
296
297
298
3
30
300
3000
301
302
304
305
31
310
311
312
313
316
318
32
320
321
322
324
327
329
33
331
332
334
34
340
341
345
346
349
35
350
351
353
354
357
358
359
36
360
361
362
368
369
37
371
372
374
375
376
377
38
380
381
384
385
387
389
39
391
392
395
4
40
400
402
403
405
41
410
412
417
418
42
420
421
424
425
426
428
43
430
432
435
436
439
44
440
446
45
450
452
454
457
458
46
460
462
464
465
467
468
47
472
474
476
477
48
484
489
49
490
495
496
5
50
500
503
504
506
51
510
513
515
52
520
523
53
533
54
540
544
55
553
56
568
57
570
574
576
58
59
590
593
595
6
60
600
606
607
608
61
610
611
612
614
618
62
621
622
623
624
626
63
637
638
64
640
65
651
655
657
66
666
67
68
685
69
694
7
70
700
704
71
718
72
720
73
74
744
749
75
752
759
76
766
77
777
778
78
79
796
8
80
800
806
808
81
82
83
84
846
85
86
865
87
88
89
9
90
900
91
92
93
935
936
94
942
95
96
97
970
978
98
99
:
;
<
=
>
?
@
\
_
`
a
aahi
aala
aapi
aba
abajo
abau
aberahama
abner
about
abravanel
abril
abrir
abu
action
actor
actors
actress
ad
add
adelin
adria
adriana
adriano
ae
aelike
aesthetic
aesthetics
afonso
agne
agora
agua
aguas
aguiar
aguila
ah
aha
ahahui
ahai
ahao
ahau
ahe
aheahe
ahele
ahelo
aheo
ahi
ahiahi
aho
ahu
ahumanu
ahupua
ai
aia
aiea
aiga
aiha
aihue
aika
aikia
aikiopa
aikupika
aila
ailani
ailauala
ailona
aimoku
aina
ainaonao
ainu
air
aire
aires
airport
ajax
aka
akaaka
akademija
akahai
akahele
akahi
akai
akala
akalana
akaleka
akamai
akanaka
akau
akawa
ake
akea
akeakamai
akelanika
akenai
akepaikana
aki
akike
akiki
akino
akinoian
akiou
akipihopa
akiua
ako
akoil
akomi
akonia
akonian
aku
akua
akuawahine
akula
akuma
al
ala
alae
alaea
alahaka
alahele
alahi
alai
alaka
alama
alan
alana
alani
alanui
alapama
alapia
alaza
alba
albert
alberto
album
albuquerque
alcubilla
aldehuela
ale
alea
alekelia
alekina
aleksandra
alele
alemanaka
alepania
alewa
alex
alexander
alexandra
alfonso
alfoz
algeria
algiris
alhama
ali
alice
alignbars
alikona
alima
aline
alka
all
alla
allegro
allen
allmusic
alma
almaluez
almaza
almeida
almendra
almohalla
almun
alni
alo
aloali
aloha
alopeke
aloysia
alshai
alt
altithorax
alves
am
ama
amadeus
amahai
amai
amaiakai
amaka
amakila
amami
amana
amanaiaka
amanaka
amanau
amanda
amapa
amar
amau
amaua
amazo
ambedkar
ame
amelika
amelikania
amendoim
american
amerika
amess
ami
amiu
amiuku
amoa
amor
amsterdam
amuia
an
ana
anae
anai
anaina
anaka
anakola
anakolomeka
anapali
anapuni
anawa
anawaena
anawala
anchieta
and
andante
andavi
andersen
andrade
andre
andrew
ane
aneane
anei
aneiawa
anekelopa
anemoku
angel
angeles
anhanguera
ani
aniani
anikama
anila
animalia
animated
animation
anime
anjo
ankara
ann
anna
anne
anniversary
ano
anos
another
anthony
anti
antiquus
anto
antonio
anu
any
ao
aos
aotearoa
apa
apai
apala
apana
apekanikana
apelika
apelila
aperodite
apia
apianinapei
apo
apresentador
april
apuni
ar
aracy
aranda
arauzo
archaeological
archaeology
archive
archives
arco
arcos
arctocephalus
are
argan
argentina
armando
arms
aroeiras
arriba
art
arte
arthur
article
artist
arts
artysta
as
asa
asawa
asia
assembly
association
at
ati
atikala
atlantic
atlas
atle
atmosfera
atua
au
aua
auana
auao
auaua
augusto
auhau
auhea
aui
aukake
aukala
aukekulelia
aukekulia
aukelana
auna
aupuni
aupunian
aupunimiala
aupuninkiama
aus
austin
australia
australian
austria
austronesia
ausutoronesia
auto
ava
aviv
awa
awaha
awai
awale
awama
awamala
awana
awanaina
awanalakawana
award
awards
awe
awelika
awi
awina
awipio
awo
axis
ayala
aza
azaba
azabai
azama
azana
azanai
azanau
azanawa
azanu
azawa
azawana
azo
b
ba
baba
babrungas
baby
bach
back
backgroundcolors
baharaina
baibala
bal
ball
balota
baluna
ban
band
banga
bank
banshee
bao
bapetizo
bar
bara
barack
barakiosauru
barbadillo
barbara
barbosa
barcelona
barco
bardata
barker
baron
baroque
barrios
barros
barset
basis
bastos
bati
batista
bau
bauer
bay
baywatch
baza
bbc
bc
bce
be
bea
beach
bear
beatriz
beautiful
beethoven
beijing
beirut
belarus
belarusa
ben
benavente
bercianos
berlin
bernice
best
besteiras
betancur
betty
between
beverly
bfa
bi
biarz
bible
biblical
biden
bielawie
bierzo
big
bihar
bikawau
bila
bill
bin
binh
biography
birdo
bishop
bisimaka
black
bloch
blog
bo
boboiboy
boca
bolsonaro
bom
bon
bonfim
books
bora
borba
border
boron
borussia
bos
bosenia
bottom
bourdain
boushaki
bowser
boy
bpm
br
brachiosaurus
braga
brasil
brasileiro
brazil
bridge
brigham
britannica
british
brook
bros
brown
brunei
bu
bucket
budapest
buddha
buddhism
buddhist
building
buke
bulgaria
burakina
bureba
burger
burgo
burgos
bush
but
butana
bw
by
c
ca
caban
cabeza
caesar
caio
caka
calabria
caldwell
california
calle
calzada
camargo
camdeborde
camino
campeonato
campo
campos
can
canaria
canary
canis
cannabis
cantabria
cantagallo
cantata
canvas
cape
capital
capreolus
car
carazo
carden
cardoso
carl
carlos
carmen
carol
carrizal
carter
cartoon
casa
case
cassini
cast
caste
castellanos
castelo
castilla
castille
castillo
castrillo
castro
cat
catarina
category
catherine
catus
cavalieri
cawai
cawama
cazanai
ce
cea
celeste
celso
census
center
central
centre
century
ceramika
cerecinos
cgi
cha
chamber
champion
champions
chan
channel
charles
chateau
chauharmal
chico
children
chile
china
chinese
chiquititas
chler
cho
chocolate
chordata
christ
christian
christopher
chrysostomus
church
ci
cia
ciadoncha
cinema
cinerea
cio
cirilo
cities
city
ciudad
cl
cla
clara
classical
cleghorn
clinton
clone
club
clube
cnica
co
coat
cobar
cogswell
cohen
cole
coleman
collection
colloredo
colomba
color
colors
com
come
commons
community
company
con
concepcio
concert
concerto
condado
conde
conflict
congosto
congress
conmebol
console
constanze
consultado
contains
contemporary
content
cook
coomonte
copa
cope
copy
copyleft
cor
corac
coronavirus
corpo
correa
costa
county
courant
cov
covered
covid
cricket
cristal
cristiana
cristiano
cristina
cristo
cropped
cruz
crvena
ct
cu
cubo
cuelgamures
cui
culpado
cultura
cultural
culture
cunha
cup
curitiba
cuzack
cyclone
cyclops
cynthia
czech
d
da
dainava
daisy
dala
dalit
dalits
dama
damiaan
damiane
damien
damin
dang
daniel
danuta
das
davi
david
davida
day
dbedt
de
dead
dean
decade
december
decide
del
deletion
delta
dem
der
des
description
desejo
design
details
deus
deusa
deutsch
development
dewey
di
dia
diana
dias
dictionary
die
diego
diogo
discogs
disney
dj
do
doc
dog
dole
dolores
domingo
dominiak
don
dona
donald
dong
donkey
dor
dora
doraemon
dortmund
dos
double
doukas
dr
drake
drama
drive
ds
du
duarte
dublin
dubuffet
duck
duckan
duda
duero
dui
duki
dunham
duru
dusadh
dutton
duva
dz
dzban
e
ea
eakins
ealanau
earl
early
east
easter
eau
ecuador
ed
edgar
edinburgh
editore
edizioni
edna
eduardo
education
edward
egli
eha
ehami
ehawau
ehiku
ei
eia
eiana
eiki
ein
einstein
einwohnerzahl
eivoky
eiwa
eka
ekahi
ekalekia
ekalesia
ekateringof
ekau
eke
ekela
ekelasia
ekepela
eki
ekia
ekolu
ekomeilahi
eksponat
el
ela
elaine
elas
elau
ele
eleku
elelani
elele
elemakule
elemoe
elepani
eleu
eli
elikilea
elima
elite
elizabeth
ellis
elua
em
ema
emeiniahai
emepela
emi
emilia
emira
emperor
en
ena
encina
encinas
encyclopedia
end
enehana
enekini
enekinia
enelani
enemi
eng
england
english
enrique
entertainment
entfu
eo
eono
epaki
epekema
era
erebo
eric
ero
es
escobar
esetonia
esgueva
espadan
espan
esperanto
espi
espinosa
essi
est
esta
estados
esteban
estreia
et
ete
ethnologue
eu
euanelio
euge
eulopa
europa
europe
european
ewa
ewalu
ex
expansion
extinct
extinction
ez
f
fa
fabio
fac
facebook
facts
fado
faila
fair
falabella
falls
family
fan
farani
faria
faso
fatal
favor
favorita
fe
fechar
feje
felipe
felis
female
feno
feridos
feriel
ferna
fernanda
fernandes
fernando
ferraz
ferreira
festival
feyenoord
fi
ficha
fico
fidel
field
fifa
file
filha
filho
film
filme
films
final
finnish
first
fla
flag
flamengo
flat
flo
flora
florin
flyboard
foglio
fogo
folha
fomm
fontsize
football
for
forbidden
forc
fordi
forensic
fortuna
fox
fr
frac
frameless
franc
france
franchise
francis
francisco
francophones
frank
frankfurt
franklin
franky
frans
franz
fre
frederick
free
freestyle
french
fresno
friedrich
from
ft
fu
fuente
fuentes
fuerteventura
fur
futbolo
futebol
futuna
future
futuresport
g
ga
gabi
gabriel
gabriella
gaia
gallegos
gallery
galva
galveston
game
games
garci
garcia
garden
garliava
gary
gatilho
gau
gauguin
gautama
gay
gazella
gazolla
general
gente
genus
geogra
georg
george
georges
georgia
georgian
gerais
gerald
gi
ginas
giovanna
giovanni
girl
givat
gje
glacier
gli
glina
gliniany
glo
global
globo
go
god
godal
goethe
gohawaii
goia
gomera
gomes
goofy
google
gordon
gottfried
gov
government
grac
grace
grahamstown
grammar
gran
granada
grand
grande
grandma
grant
graupel
gray
gre
great
green
greg
gridcolor
griff
grove
grozelier
gua
guaren
guerra
guide
guillermo
guinness
gula
gumiel
gurion
gustavo
gy
h
ha
hacai
hae
hague
hahai
hahau
hai
haia
haiahispaimi
haipule
haka
hakahaka
hakaka
haki
hakial
haku
hala
halakepoka
halama
hale
haleakala
hali
halihali
halliwell
hals
hama
hamburger
hamekia
hamepuka
han
hana
hanahana
hanai
hanaia
hanakeoki
hanalei
hanana
hanape
hanau
hanauma
hanauna
hands
hanele
haneli
hanohano
hans
hanu
hao
haole
hapa
hapaha
hapala
hapalua
hapanui
hapawalu
harris
harvey
has
hate
hathaway
hau
haukapila
hauma
haumaka
haumana
hauna
haunaele
haunapuma
haunapuman
haut
hautbois
have
hawa
hawai
hawaii
hawaiian
haydn
haza
haß
he
hea
health
hebera
hebero
hebrew
hedgehog
hegelmann
hei
heiau
height
heihei
heiti
hekatonekeire
hekili
hekilimaila
hele
helehelena
heleini
helena
helene
helsinki
helu
heluhelu
helukanaka
heluna
hema
hemaiala
heman
hemana
heme
hemo
hemolele
hena
henderson
henri
henrique
henry
henryk
heona
herguijuela
heroism
herreros
hesegowina
hesioda
heu
heuheu
hewa
hi
hierro
hihi
hihia
hihiu
hiki
hikia
hikina
hiko
hiku
hilahila
hilda
hili
hilina
hilini
hill
hills
hilo
hina
hine
hio
hipa
his
histo
historia
historic
historical
history
historyk
hit
hitchcock
hiu
ho
hoa
hoaaloha
hoaha
hoahanau
hoaloha
hoan
hoapili
hoe
hohonu
hoi
hoihoi
hoike
hoikehonui
hoje
hokkaido
hoku
hola
holani
holiday
holo
holoholona
holoi
holomoana
holomua
home
hone
honehone
hong
honoko
honolulu
honor
hontoria
honua
hoolea
hoomaka
hoopumehana
hope
hopena
hopohopo
hopu
hopuna
hospital
hou
house
hoverboard
hoverboards
how
hpkl
hrung
htm
html
http
https
hu
hua
huahana
huahelu
huahua
huaka
hualani
huapala
huapalapala
hue
huerta
huey
hugo
huhu
hui
huihui
huikau
huila
huimanu
huina
huinakolu
huipu
huki
hula
hulahula
huli
hulikanaka
hulikoehana
hulinea
hulu
huluhulu
human
huna
hunakalia
hungary
hydrurga
i
ia
iahi
iaia
iaka
iakama
iakobo
ial
iala
iamaki
ian
ianuali
iapana
iau
iauliu
iaulu
id
ie
ielukalema
iemene
ierusalema
iesu
ig
ige
ihau
ihi
iho
ihola
ihu
ii
iii
ika
ikahaikana
ikahi
ikaika
ikalia
ikamape
ikawa
ike
ikehu
ikela
ikena
ikepili
iki
ikian
iko
iku
il
ila
ilai
ilaka
ilana
ilas
ilelani
ili
iliala
ilihia
ilikai
ilina
ilinoe
ilio
ilo
iloa
iloko
ima
image
imagesize
imahana
imau
imawa
imdb
imelda
imepeliala
imi
immub
imua
in
ina
inana
inapuni
inauguracion
increment
india
indian
ine
infantes
info
information
ingres
inia
iniana
inidonesia
ino
inoa
inoakina
inoino
institute
instituto
instrutor
interamericana
intercontinental
interlingua
interlingue
internacional
international
internationale
into
inu
inui
io
ioane
iokamoku
iolani
ionaguni
ioreda
iosepa
ipa
ipl
ipo
ipu
irma
is
isaac
isabel
isbn
isera
iseraela
ishowspeed
isla
islam
island
islands
israel
israeli
it
italia
italy
iti
iu
iuda
iudaio
iugas
iukaio
iulai
iulani
iune
iuwapa
iv
ivan
iwa
iwahine
iwaka
iwan
iwi
j
ja
jack
jackson
jacques
jae
jaime
jain
jainism
jakarta
jaloo
james
jamie
jan
janeiro
january
januszewicz
japa
japan
japanese
jar
jason
jayanti
jean
jeddah
jen
jennifer
jerusalem
jerusalema
jesus
jet
jewish
jez
jimmie
jo
joa
joana
joannes
joaquina
johann
johannes
johannesburg
john
johnson
jonah
jonas
jonava
jorge
jornal
jose
joseph
josh
joshua
joy
joyce
jpg
jr
ju
juan
juarros
julia
julie
junho
junior
juniors
junta
jurisdiccio
justify
justo
juventus
juǀ
k
ka
kabbalah
kagoshima
kaha
kahakai
kahaki
kahako
kahalu
kahawai
kahe
kahi
kahiki
kahiko
kahikohiko
kahikolu
kahlo
kaho
kahu
kahua
kahuku
kahuli
kahului
kahuna
kai
kaia
kaiahome
kaiapuni
kaiaulu
kaikaina
kaikamahine
kaikana
kaiki
kaikikana
kaikua
kaikuahine
kaikuna
kaila
kailua
kaimuki
kain
kaiu
kaka
kakaha
kakahiaka
kakalameko
kakamania
kakau
kakelema
kakoka
kakou
kala
kalakaua
kalakupua
kalama
kalana
kalani
kalaniana
kalaupapa
kalawao
kalea
kaleiopapa
kalepa
kalepiana
kaleponi
kali
kaliani
kalihiwai
kalikiano
kalikimaka
kalo
kalohi
kalola
kalolaina
kalua
kama
kamaha
kamaka
kamakau
kamakawiwo
kamala
kamali
kamauaua
kamauliwahine
kamehameha
kamehamehaii
kamehamehaiii
kamehamehav
kamepiula
kamiano
kampianiaku
kamupene
kamupimia
kana
kanada
kanaha
kanahikuku
kanaka
kanakolu
kanakona
kanalima
kanamapo
kananga
kanaonoku
kanapela
kanasa
kanawa
kanawai
kaneka
kanekaka
kani
kanikani
kanikau
kanipahu
kanu
kanua
kao
kaomi
kaona
kaopa
kapa
kapakai
kapakapa
kapalakiko
kapalanakie
kapalua
kapena
kapi
kapikala
kapimai
kapo
kapu
kapua
karabakh
karcher
karistiano
karl
kart
kasakana
katala
kathmandu
katolika
kau
kaua
kauai
kauhale
kaui
kauikeaouli
kauka
kaukani
kaukau
kaula
kaulahao
kaulana
kaulele
kaulia
kaulike
kauliki
kaulua
kaumaha
kaumoku
kauna
kaunakakai
kauno
kauo
kauoha
kaupoli
kauwaloma
kauwela
kawa
kawaihae
kawena
kawi
kazumi
ke
kea
keaka
keakea
kealakekua
keawe
keaweawe
keia
keianaia
keiki
keikika
kekaha
kekahi
kekahiali
keke
kekeka
kekeke
kekemapa
kekokia
keku
kela
kelakahua
kelakikala
kelamoku
kele
keleawe
kelekolio
kelema
kelemania
kelemini
kelepa
kelepona
kelewikiona
kelikoli
kemana
kemika
kemikala
kemokalaka
kena
kene
keneki
kenekulia
kenemaka
kenia
kennedy
kenumaninan
keo
keokia
keokola
keone
kep
kepakemapa
kepani
kepania
kepela
kepilepila
keramika
keremadeka
kesa
keu
kfc
kg
ki
kia
kiaho
kialama
kiamana
kiamaniuala
kihi
kii
kika
kiki
kikine
kiko
kikokikona
kikowaena
kilani
kile
kiliopu
kilipaki
kilma
kilo
kilohana
kilomika
kilomita
kim
kime
kimi
kina
king
kingdom
kini
kino
kinohi
kinona
kio
kiola
kiowea
kipa
kipeka
kipi
kirby
kirk
kirtland
kisikisi
kiu
kiuia
kiure
kivila
kiwika
kla
klawa
klm
klubas
km
know
known
ko
koa
koakoa
koe
koena
kohe
koho
kohu
koi
koina
koke
kokika
koko
kokoke
kolamu
kole
kolo
koloatia
kolohe
kolomona
kolomukiakie
kolomupia
kolona
kolu
komia
komikina
kominiaka
komnenos
komo
komohana
komohanuomo
kon
kona
konaihai
konekikuka
konekion
konene
kong
koni
kono
koopa
kope
korea
korean
koreatimes
korsakov
kotaaka
kou
kounamala
kp
kramskoi
krav
kristiano
kristo
krytyk
ku
kua
kuahene
kuahiwi
kuakahi
kuakini
kualapu
kualima
kuea
kuekene
kuete
kuhi
kuhikuhi
kuhina
kuhinan
kuikahi
kuikilani
kuini
kuinilani
kuke
kukelopa
kuki
kukui
kukuna
kula
kulanakauhale
kulanui
kulawie
kuleana
kulekele
kulu
kuludiskana
kumamoto
kumole
kumu
kumuhana
kumuka
kumuku
kumula
kumumana
kumumea
kumupa
kumuwaiwai
kunigami
kunu
kupaianaha
kupapa
kupua
kupulau
kupuna
kuro
kuu
l
la
lady
lae
lago
laguna
lahaina
lahainaluna
lahalaha
lahui
lai
laikini
laiku
laila
lailau
laimeaola
laina
laisi
laka
lakauakama
lakawia
lake
lakia
lakina
lako
lakou
lakua
lala
lalo
lama
lamaio
lamalama
lamana
lamo
lampreana
lana
lanahai
lanakauhale
lanakila
lancelotti
land
lands
landsat
lange
language
languages
lani
lania
lanzarote
laosa
lapa
lapita
lara
larissa
larry
larsson
las
latiffa
latin
latitu
latter
lau
laua
lauana
lauea
laula
launa
lauoho
laura
lawa
lawai
lawe
lawehala
lawelawe
lb
lcd
le
lea
league
leandro
learn
ledesma
lee
left
legal
legends
lehua
lehulehu
lei
leipzig
leka
lele
lelo
lelonan
lemaiki
lena
lenin
leningrad
leo
leokanipu
leon
leonard
leonardo
leopaki
leopold
lepa
lepanona
lepe
lepo
leptonyx
lepupalika
lepupalikankie
les
lesu
leti
leticia
level
levitation
lewa
lexus
lez
li
lia
liamuni
lian
liberdade
libertadores
library
lica
lie
liga
ligi
lihi
liholiho
lika
likaono
like
likelike
likenekaina
likepona
likiawaike
liko
lila
lili
liliuokalani
lilo
lima
limahana
limihu
limited
lin
linda
linegrey
lineka
liniake
lio
lion
liona
lipo
lissabon
list
litauen
lithograph
lithuania
little
lituania
liu
liukiuniua
live
liverpool
ljp
llano
lloyd
lo
loa
loaa
loea
logo
lohe
lohea
lohelohe
lohi
lohilohi
loi
loiloi
loina
loio
loire
loja
loko
lokomaika
lole
loli
lolo
loloa
loma
lonitu
lono
lora
lord
lorenzo
los
losa
louie
loulou
lt
lu
lua
luahine
luakini
luaku
luana
luapele
lublin
lucas
lucio
ludwig
lui
luigi
luiz
luka
lukemapuka
luku
lula
lumi
luna
lunalilo
lunamaka
lupus
lvia
lydia
lynx
lyon
lyons
m
ma
mabena
macau
madagaseka
madrid
mae
mafui
maga
magalha
magazine
magyar
maha
mahainaluna
mahalo
mahana
mahavira
mahele
mahi
mahina
mahometa
mahope
mahuika
mai
maia
maiaka
maiakaha
maika
maikai
maikama
maiki
maikonesia
mail
maila
main
maine
mais
maka
makahiki
makakilo
makakukeka
makakumu
makama
makamaka
makana
makani
makau
makauhale
make
makeima
makeimi
makekepuka
makelika
makemake
makemakika
makenan
maker
maki
makilaike
mako
makona
makoto
makua
makuahine
makuaka
makuakane
makulu
mala
malahleni
malaia
malaisia
malaki
malama
malas
malaysian
male
malhac
malihini
maliu
malo
maloko
malu
maluhia
maluna
malva
mama
mamao
mame
mamo
mamua
mamuli
man
mana
manahiui
manakulia
manaleo
manao
manapi
manaus
manawa
manawale
manaza
manga
mangareva
mani
mannheim
mano
manono
manpaiala
mansion
manu
manuahi
many
manzanal
mao
maoli
maopopo
map
mapa
mapi
maps
mar
mara
maraghar
marc
marcelo
marcos
mare
mareko
margarida
mari
maria
mariana
marianne
marie
marijuana
marina
marino
mario
marisa
marta
marti
martin
martinet
martins
marty
marvel
mary
masedonia
masonic
massachusetts
master
mata
matematika
matheus
matilla
mau
maua
mauana
maui
mauia
mauikala
mauikeaouli
maumuia
mauna
maunaloa
maunu
maupa
maurice
mauricio
mauritania
mauritiusa
mawa
mawaena
mawaho
mawao
mawo
max
may
maynard
mayor
mcbride
mcdonald
mcfly
me
mea
meaha
meaille
meakanu
meakino
meana
meanaka
medeiros
medsen
mehameha
mei
meia
meiawa
meka
mekala
meke
mekiko
mela
melanikia
mele
melekulia
melelana
melemele
melemiana
melenan
melenikia
melepona
meli
mello
melo
memele
memo
memorial
men
menaia
meni
menino
menos
mentor
mercado
merindad
merriam
mesia
messi
meu
mexico
meyer
mi
mia
miahi
miahini
michael
michel
michelangelo
mickey
miesto
miguel
mika
miki
mikio
mikionali
mikonikia
mil
milagres
mile
miles
miliona
milkshake
million
minas
mineapoli
minecraft
minekoka
mini
miniature
miniaturowej
minija
ministers
minnie
minor
minuke
mio
miranda
miriam
misiona
misionari
misioneli
miui
miuku
miyako
mkala
mm
mmki
mo
moa
moana
model
moderato
modern
moe
moemoea
mohameka
moi
mokekao
moku
mokuhonua
mokulele
mokuna
mokupa
mokupuni
mole
molekumu
molemona
molo
molodowa
moloka
molokai
moloko
mon
monachus
monde
mongoliensis
monique
monk
monokolia
monosolo
mont
monte
montemayor
montenegero
monterrubio
montes
montgomery
montsoreau
monument
mopa
morales
moramona
more
moreruela
morre
mos
moscow
mose
mosovce
most
motherland
motu
mount
mountain
mouse
movie
mozamabika
mozart
mp
mpi
mpumalanga
mrs
mt
mu
mua
mughal
mui
muia
mujer
muku
mulher
mulheres
muli
muliwai
mun
mundo
munich
munike
mupaka
murayama
murirangawhenua
murphy
murray
muscat
museum
music
musica
muslim
mustafa
muzeum
mzansi
n
na
nacional
nada
nae
naehaian
naehana
naehanan
naehanian
naewele
nagasako
nago
nagorno
naha
nahele
nahenahe
nahi
nahiauimi
nai
naia
naiakalani
nail
nair
naiua
naka
nakanka
nakawila
nako
nal
nala
nalala
naleo
nalo
nalowale
nalu
nama
namala
namapama
name
namo
nan
nana
nanakoa
nancy
nane
nani
nannerl
napa
napala
napama
napamian
napela
napikian
napuaniahai
naruhito
nas
nascimento
national
nations
native
nau
naua
naunau
naunian
nauvoo
nava
nawa
nawai
nawanu
nazareta
nazi
nbc
nbcuniversal
nchez
ncia
nd
ndez
ndi
ndidas
ne
nea
need
needed
negrillos
nei
neia
neighborhoods
neka
nekelana
nekele
nekeleimi
nekelemimi
nekeli
nekelia
neki
nekimia
nela
nele
nelekimi
nelemena
nelemini
nelson
nema
neophoca
nepala
nepekune
neptu
net
neva
neve
never
neves
new
news
newton
next
nfa
ng
nhat
ni
nia
niakala
nian
nica
nick
nickelodeon
nico
nicolas
nihi
niho
niihau
nika
nikan
niki
nikolai
nina
nintendo
nio
niu
niuana
niue
nmau
no
noa
nobre
noe
noho
nohoaupuni
nohona
noi
nolewai
nomcebo
non
nona
none
nonkilling
northern
norwegian
nos
not
note
noticias
notoc
nova
novela
november
nowemapa
nr
nu
nueva
nui
nuia
nuioka
nuki
nunca
nunes
nunui
nww
o
oa
oahu
obama
oblivion
oboe
oca
oceania
october
oe
of
official
ographylelo
oha
ohalahala
ohana
ohaniakan
ohanohano
ohe
ohenehene
ohewa
ohi
ohiki
ohio
ohiwahiwa
ohiwi
oho
oholo
ohua
ohui
ohuli
oi
oia
oiai
oihana
oihanan
oiho
oikaika
oili
oilina
ois
oiua
oka
okae
okahe
okahi
okahua
okahuli
okakopa
okalahoma
okalakupua
okalaleo
okana
okani
okau
okaumaha
oke
okela
okele
oki
okinawa
okino
okipa
oko
okolohua
okolokolo
okomo
oku
okua
okulano
okumu
ol
ola
olaha
olakino
olana
olani
olau
olaule
olauna
olawe
old
ole
olei
olekona
olele
olelo
olewa
olho
olhos
oli
olilo
olimalima
olimpia
oliveira
olo
olohe
olokaula
ololi
olona
olono
olu
olulu
olumepika
olunia
oma
omaha
omahola
omaika
omaka
omake
omalu
oman
omana
omaopopo
omau
omaulia
omeheu
omi
omniglot
omo
omohala
on
ona
onani
onaninani
onaona
onda
one
oni
online
ono
onoho
onohonoho
onui
opa
opakele
opapa
opau
ope
open
opi
opiha
opili
opilikia
opio
opo
oponopono
opuka
opuna
opuni
opunipuni
or
orchester
org
ori
orientation
oro
orozco
ortolani
os
oslo
oteros
other
otto
ou
ouamaha
ouka
oukou
oulu
ouna
ouve
ovce
over
owaiwai
owalewale
oweliweli
oz
p
pa
pablo
padilha
padilla
pae
paena
paepae
paes
page
pages
paha
pahele
pahi
paho
pahu
pahuhopu
pai
paia
paianaha
paikini
paila
painting
paio
paipai
paipala
pajares
paka
pakele
paki
pakipika
pakitana
pal
pala
palace
palacios
palaiologos
palaka
palakiahine
palakila
palakuae
palama
palani
palanian
palapala
pale
palekana
palemo
palena
palencia
pali
paliahi
palika
palillo
palisa
palma
palmare
palu
pan
pana
panako
panala
panama
pane
paneve
pani
paniolo
panorama
panthera
papa
papahana
papahele
papakema
pape
papekema
paper
papohaku
papua
para
parabo
paradise
parai
pare
paris
park
parker
parks
part
party
pas
paswan
paswans
pater
patri
patrick
patriotic
pau
pauahi
pauka
pauku
paul
paulele
paulista
paulo
paulu
pauly
pauoa
pawalia
paweł
pawston
paz
pbs
pdf
pe
pea
peach
pearl
pecado
pecados
pedra
pedro
pedrosa
pedrosillo
pehea
peke
pekelala
peku
pel
pela
pelaiami
pele
peleka
pelekane
pelekania
pelekia
pelekikena
pelekikenan
pelekiuma
pelekunu
pelia
peliminikan
pelipekika
pelo
pelu
pen
pena
penei
peniki
peno
people
pepa
pepehi
pepeluali
per
percy
perdigo
period
pete
peter
petero
peterodaketila
petersburg
petrograd
pez
pg
philip
philippe
philippines
phoca
photo
php
pi
piano
pic
picasso
pictures
piha
pihi
pika
piki
piko
pila
pili
pilialoha
pilikanaka
pilikia
pilikino
pilikua
pilina
piliona
pilipeni
pilipino
pilisetia
piliwi
pin
pinar
pineda
pinepine
pinilana
pinilla
pinnipedia
pino
pinto
pinulia
pio
piopio
pipi
pires
pisuerga
piti
pitlok
piuilia
pizza
place
plate
plaza
please
plotarea
plotdata
plural
png
po
pobladura
podcast
poe
poepoe
pohaku
pohihihi
pohisua
poho
poi
poina
poke
pokekona
pokela
poki
pokoliko
pokukala
polapola
polaris
polenekia
polenesia
poli
polinesia
political
politika
politikahine
poloka
polokalamu
pololei
polonesia
polu
polvorosa
poly
polynesia
polynesian
pomaikai
pompidou
poni
pono
ponte
pooch
pope
population
por
portal
porto
portrait
portugue
portuguese
pos
posse
post
potugala
power
pp
pr
pradesh
prado
prague
prata
prefecture
preserve
president
presidente
presidential
presidents
press
pretoria
primeira
prince
princess
private
pro
profesjonalnej
professional
professor
professora
profile
programa
programas
project
prototype
psn
pt
pterodactylus
pu
pua
puana
public
publishers
publishing
puchberg
pudu
puebla
puente
puerto
puhi
pui
puka
pukalani
puke
pukiki
pukui
pule
pulepona
pulo
pulukalia
puna
punahele
punahou
puni
puolo
puruma
pusa
pusillus
puławy
pvs
px
q
qin
qua
quartet
quase
que
queen
queensland
quem
querem
querer
quevedo
quindou
quintana
quintanilla
quito
r
ra
rabi
raceway
rachel
rachid
radio
rafael
raffael
rajputs
ram
rama
ramiro
ramo
ramos
ranch
rapa
rapanui
rara
raul
ray
rbara
rbel
rbigo
rcia
re
reason
recopa
record
records
red
rede
redecilla
refuge
reggie
regina
regions
regular
rei
reiwa
rembrandt
remix
renata
reno
reo
report
reptilia
repubalika
republic
repupalika
requiem
reshma
review
revilla
revolution
rex
rey
reykjavi
rez
rgb
rgio
rhino
ri
ria
ribeiro
ribera
ric
rica
ricardo
richard
rick
rickles
rico
riders
right
riley
rimi
rimsky
rio
riofri
riopico
riopisuerga
ris
rita
riteriai
rito
riu
river
rivera
rjd
roa
road
robert
roberto
roberts
robinson
rocha
rock
rocket
rodrigo
rodrigues
roger
rogers
rok
roma
romance
rome
ronaldo
roosevelt
rosa
rosalina
rose
rotuma
royal
royce
rsula
ru
rua
rudolph
rue
rules
rushton
rusia
russia
russian
ruy
ry
ryukyu
rzez
s
sa
sabatella
sabine
sabrit
sacred
sael
saga
sagrada
said
saint
saints
saka
saki
saku
sal
salamanca
salas
salvatierra
salzburg
sama
samau
samoa
samuel
san
sana
sanabria
sanaka
sancho
sanders
saneta
sanford
sanfourche
sangue
sani
sanka
sanna
sanoe
santa
santiago
santiba
santo
santos
sanu
sanzio
sao
sapporo
sar
sarah
sarajevo
sargent
sargento
sars
sato
satsuma
sau
saudi
sauo
saurischia
sawa
sawi
sawkins
sawyers
sayago
saza
sazao
sban
sbt
scalemajor
schiller
scholar
scholarship
school
schools
science
scooch
scott
scottish
script
se
sea
seal
seattle
second
secrets
see
sega
seine
selva
sem
sempre
sen
sena
seoul
sepania
september
sera
serail
sergeant
series
serikal
seripia
sete
setegasauru
sexos
shakespeare
sheryl
shi
shift
shima
shinkai
shore
show
shqipe
si
sia
siddhartha
sierra
sign
sil
sila
siliki
sililanaka
silva
silveirinha
simona
simone
singer
sir
site
siu
slate
sleep
slovenia
smash
smashenburn
smith
so
soares
sobre
soccerway
social
socialist
society
sofia
solomon
solowakia
som
somalia
son
sonata
song
sonic
sophie
sorcier
soria
sorrah
source
sousa
south
souza
soviet
space
spain
spinnup
sport
sports
spot
spotify
springfield
square
ssmayr
st
stadionas
staff
stalin
stan
star
start
state
states
statfin
station
statistics
statue
step
stewart
stokes
stop
story
strinati
string
studies
studio
su
sua
suana
sudamericana
sudana
sui
suiau
suku
summer
suna
sung
supe
super
supercopa
suria
sus
sutherland
svg
swieten
switch
sydney
symphony
synadene
synadenos
sztuki
t
ta
tadeu
tag
tahiti
tai
tailani
taiuana
taiwan
takashi
tama
tamaki
tan
tannen
tarakanovka
taranga
tarnovo
tasmania
taylor
te
teau
tel
tele
telemann
telenovela
televisa
televise
television
tem
temple
tempo
tempos
tenerife
tennis
tera
terikeratopa
terra
territory
texas
text
textcolor
th
thai
thalassa
thalia
that
the
theatre
their
theophilus
there
they
think
this
thomas
thriller
thumb
thumbnail
ti
tiago
tico
ticos
tie
tieka
tiekia
tikitiki
till
tim
timeaxis
times
timeslive
tiro
to
toad
toadette
today
tokelau
tokyo
tolstoi
tom
toma
tomaszewska
tomaszewskaipu
tonga
tongafusifonua
toole
top
topic
tormes
torneio
toro
torre
torres
torsten
totaka
tour
tourism
town
tr
tract
trade
trama
transformers
trasmonte
travel
trenor
triceratops
trickstyle
tropical
tropicaliente
trump
tsa
tshisa
tu
tua
tuamotu
tuca
tukemenikana
tulidia
tulidiana
tuna
tunisia
tunnel
tupi
tureke
turkey
tuum
tuwalu
tv
tveddie
tvf
tvi
tychach
tyrannosaurus
u
ua
uaha
uahi
uai
uaka
uakala
uakalama
uakana
uakawa
uala
ualama
ualapu
uali
uama
uamai
uana
uanu
uatau
uaua
uawa
uawai
uefa
uele
uga
uhane
uhi
uhiwa
uhonua
ui
uia
uiahi
uiana
uila
uk
uka
ukaela
ukala
ukali
ukaliali
ukana
ukani
uke
ukelana
ukelena
uki
ukiuki
uku
ukulele
ula
ulana
ulano
ule
uli
ulia
uliuli
uloa
ulu
ulukuae
ulula
ulysses
um
uma
umanaua
umauma
ume
umeke
umi
umiapali
umiku
umikumama
un
una
unai
unaka
uncia
und
unesco
uni
unionlelo
unit
united
uniui
universita
university
uno
unuhi
uo
uokalani
uol
uomo
upa
upolu
upu
urdu
us
usa
use
user
userbox
uttar
uwai
uwea
v
va
vai
val
valderaduey
valderrey
valduerna
vale
valente
valle
vallejera
valley
value
valverde
van
vanessa
varela
ve
veda
vega
veio
velasquita
veliko
velociraptor
vem
vera
verdade
vermeer
vero
versa
versailles
very
veuster
vi
via
vicente
victoria
vid
vida
video
vidriales
vienna
view
vila
villaescusa
villages
villalba
villalbilla
villalbos
villalobos
villamayor
villanueva
villaquira
villar
villares
villaseco
villatuelda
villaverde
vinci
vino
vio
violina
vis
visi
visitmolokai
vito
viva
vive
vladimir
vladivostok
voce
voi
vol
vom
von
voyaging
vu
vulpes
w
wa
waci
wae
waena
waenakonu
waha
wahana
wahi
wahie
wahine
wahl
waho
wahonan
wai
waiho
waihona
waikanae
waiki
wailau
wailele
wailua
wailuku
waipahu
waiu
waiwai
waka
wakikana
wakinekona
wakowska
waku
wala
wale
waleluka
wales
waliwali
wall
walt
walter
walu
waluigi
wana
wanuatu
war
warframe
wario
was
washington
water
wau
wd
we
weaver
web
weber
website
webster
wehe
wehewehe
wehimala
wei
weimar
wela
weleke
welemoneka
welinakona
welo
welokirapetoa
wendy
west
western
westervelt
what
white
who
why
wi
wia
width
wiekanama
wiena
wii
wiki
wikimedia
wikio
wikipedia
wikipedians
wikipikia
wikiwiki
wildlife
wilhelm
wili
wiliau
wilikinia
william
williamcharleslunalilo
wilson
wimiana
wind
winner
winter
wisła
with
within
witwicky
wiuala
wiwo
wo
woela
woka
wokeimia
wokel
wokelama
wokele
wokeleihi
wokelemana
wokelenan
wokelima
wokelimia
wokimi
wokimia
wokimina
wolfgang
wolfgangus
woma
wonekahai
woodwind
words
world
worldcat
worldometer
wou
wright
writing
wu
www
wyeth
wypalona
wysokos
x
xavier
xhosa
ximo
xoo
xuxa
y
yadav
yaeyama
yahoo
yd
year
years
yekateringofka
yeltes
york
yoshi
you
young
your
yourself
youtube
ys
yun
yves
yyyy
z
za
zabai
zaha
zamora
zana
zanawi
zani
zapata
zarzosa
zasu
zawahasu
zaza
ze
zealand
zeigler
zeze
zho
zi
ziegler
zikode
ziu
zu
zuki
zvezda
{
|
}
~
ª
«
°
²
´
º
»
½
×
ð
đo
ı
ǀ
ǂ
ǃ
ʘ
ʲ
ʻ
ˈ
ˌ
ː
˚
̀
́
̂
̃
̄
̆
̇
̈
̉
̊
̋
̌
̓
̔
̛
̣
̧
̨
̩
̭
͂
ͅ
͡
α
ε
ει
η
ι
και
μω
ν
ξ
ο
π
ρ
ς
σου
το
τω
υ
ω
а
в
е
екатерингоф
и
к
квартал
л
м
н
на
о
п
петербург
петербурга
петергоф
по
русскии
ручеи
с
санкт
спб
старыи
т
троицкии
энциклопедия
язык
ְ
ִ
ָ
ּ
ב
ד
ה
הזיכרון
היכל
הלאומי
חללי
י
ישראל
לזכר
מערכות
ע
ר
ש
،
ا
ހ
ރ
އ
ވ
މ
ދ
ގ
ޔ
ޖ
ާ
ި
ު
ޫ
ެ
ޭ
ް
क
ध
न
प
म
र
ल
व
ा
ि
ी
े
्
ั
ད
བ
ོ
한겨레
​
‎
–
—
―
‘
’
“
”
„
†
•
′
″
№
↔
↷
∏
≈
③
④
⑦
☉
☾
☿
♀
♂
♃
♄
♆
♇
⚳
⛢
⯓
ⴰ
ⴱ
ⵉ
ⵍ
ⵎ
ⵔ
ⵖ
ⵜ
⺀
⺄
⺆
⺈
⺊
⺌
⺕
⺝
⺸
⺼
⿰
⿱
⿲
⿳
⿴
⿵
⿶
⿷
⿸
⿹
⿺
⿻
、
「
」
〢
い
う
え
か
こ
さ
し
た
ち
と
な
に
の
は
へ
ほ
ま
み
む
も
れ
わ
を
ん
゙
゚
ア
ウ
オ
カ
コ
サ
シ
ス
セ
タ
チ
ッ
ツ
テ
ト
ナ
ネ
ハ
ヒ
フ
マ
ミ
メ
ュ
ユ
ラ
リ
ル
ン
・
ー
㇁
㇂
㇄
㇇
㇈
㇉
㇓
㐁
㐄
㐅
㐌
㐫
㐬
㐭
㐮
㐱
㑒
㒵
㒸
㒼
㓁
㓞
㔾
㕛
㕣
㖾
㘝
㚅
㚇
㚔
㚘
㝉
㝡
㝴
㝵
㞋
㞢
㞷
㠩
㠭
㠯
㡀
㡭
㡿
㢲
㢴
㣇
㣺
㥯
㪅
㫄
㫐
㫒
㫺
㬅
㬎
㬥
㬰
㲋
㳄
㷠
㸒
㸚
㸦
㼌
㼲
㽞
㿟
䀠
䂞
䍃
䏍
䒑
䖍
䖒
䖝
䖵
䙴
䚻
䜌
䝿
䡛
䧹
䪞
一
丁
丂
七
丄
丅
丆
万
丈
三
上
下
丌
不
与
丏
丐
丑
专
且
丕
世
丘
丙
业
东
丞
丢
丣
两
严
並
丨
丩
个
丫
丬
中
丮
丰
丱
串
丵
丶
丷
丸
丹
为
主
丽
丿
乀
乂
乃
久
乆
乇
么
义
之
乌
乍
乎
乏
乐
乑
乔
乖
乗
乘
乙
乚
乛
乜
九
乞
也
习
乡
乳
乾
亀
亅
了
亇
予
争
事
二
亍
于
亏
亐
云
互
亓
五
井
亘
亚
亜
亞
亟
亠
亡
亢
交
亥
亦
产
亨
亩
享
京
亭
亮
亯
亰
亲
亳
亶
亷
人
亻
亼
亾
仁
今
介
仌
从
仐
仑
仒
仓
仕
他
付
仝
代
令
以
任
企
伊
伏
伐
休
会
伯
但
位
何
佘
余
作
佥
使
來
侈
侌
侖
侯
侵
便
保
俞
信
修
倉
倍
候
倠
備
僉
僕
儿
兀
允
兂
元
兄
充
兆
兇
先
光
兊
克
兌
免
兑
兒
兓
兔
党
兜
兟
入
全
兩
兪
八
公
六
兮
兰
共
关
兵
其
具
典
兹
兼
冀
冂
冃
冄
内
冈
冉
冊
冋
册
再
冎
冏
冐
冒
冓
冖
冗
冘
军
农
冝
冡
冥
冫
冬
冷
几
凡
凢
凵
凶
凷
凸
凹
出
函
凾
刀
刁
刂
刃
刄
刅
分
切
刍
刑
刕
刖
列
刘
则
初
別
利
别
到
制
刺
則
削
剌
前
剡
剽
劉
力
功
加
劦
助
劫
劳
劵
勃
勇
勉
勒
動
務
勞
勤
勹
勺
勻
勾
勿
匀
匂
包
匆
匈
匊
匋
匍
匕
化
北
匚
匝
匡
匪
匱
匸
匹
区
医
匽
匿
區
十
卂
千
卄
卅
卆
升
午
卉
半
卌
华
卑
卒
卓
单
卖
南
卜
卝
卞
占
卡
卢
卣
卤
卦
卩
卪
卬
卯
印
危
即
却
卵
卷
卸
卻
厂
厃
厄
历
厈
厉
厌
厓
厘
厚
原
厤
厥
厨
厭
厲
厶
厷
厸
去
厼
厽
叀
参
參
叅
又
叉
及
友
双
反
叐
发
叒
叔
叕
取
受
叚
叜
叟
口
古
句
另
叩
只
召
可
台
叱
史
右
叵
号
司
叹
吂
各
吅
合
吉
吊
吋
同
名
后
吏
向
吕
君
吝
吞
否
含
启
吳
吴
吹
吾
呂
呆
呈
告
员
呙
周
命
咅
和
咎
咠
咢
咨
咸
咼
哀
品
哉
員
哥
哲
唐
商
啇
問
啚
啬
啻
善
喜
喬
單
喿
嗇
噩
嚴
囊
囗
囘
囙
囚
四
回
囟
因
囧
囬
困
囱
囲
囷
固
国
圂
圅
國
圍
圓
土
圡
圣
圥
在
圭
地
圶
圼
坐
坒
坚
坡
坴
垂
垔
垚
埀
埋
埶
執
基
堂
堅
堆
堇
堯
場
塞
墨
壘
士
壬
壯
声
売
壳
壴
壹
壺
壽
夂
处
夅
夆
备
夊
夋
夌
复
夏
夒
夕
外
夗
夘
多
夜
夢
大
夨
天
太
夫
夬
夭
央
失
夲
头
夷
夸
夹
夻
夾
奂
奄
奇
奈
奉
奎
奏
奐
契
奓
奔
奚
奞
奠
奢
奥
奭
女
奴
奻
好
如
妄
妙
妟
妥
妻
妾
姑
委
姜
威
娄
婁
婴
嬰
嬴
子
孑
孔
孕
孖
字
存
孚
孛
孝
孟
季
孤
学
孫
孱
學
宀
宁
宂
它
宅
宇
守
安
宋
完
宏
宓
宗
官
定
宛
宜
宝
客
宣
室
宮
宰
害
家
容
宾
宿
寄
寅
密
富
寒
察
寧
審
寫
寬
寮
寸
对
寺
寻
寽
対
寿
封
尃
射
将
將
專
尉
尊
尋
尌
對
小
少
尒
尓
尔
尖
尗
尚
尞
尢
尣
尤
尧
尨
尭
就
尸
尹
尺
尻
尼
尽
尾
尿
局
居
屈
屋
屎
屏
屑
展
屖
屚
属
屠
屡
屬
屮
屯
屰
山
屵
屾
岁
岂
岑
岡
岩
岳
岸
峯
島
崇
崑
崔
崖
崙
崩
嵬
嶲
巂
巛
川
州
巟
巠
巢
巤
工
左
巧
巨
巩
巫
差
己
已
巳
巴
巷
巸
巽
巾
巿
帀
市
布
希
帚
帛
帝
带
師
席
帶
常
干
平
年
幵
并
幷
幸
幺
幻
幼
幽
幾
广
広
庄
床
底
店
庚
府
度
庫
庭
庶
康
庸
廉
廌
廛
廣
廩
廴
延
廷
建
廾
廿
开
弁
弃
弄
弇
弋
式
弓
弔
引
弗
弘
弜
弟
弥
弦
弱
張
強
强
彊
彌
彎
彐
彑
当
彔
录
彖
彗
彡
形
彥
彦
彧
彭
彳
役
彼
往
待
律
徒
得
徙
從
復
微
徵
心
忄
必
忌
忍
志
忝
忠
忩
快
念
忽
忿
思
怠
急
怱
恆
恒
恩
恭
息
悉
患
悤
悲
悶
惠
惡
惢
愁
愈
意
愛
感
慈
慧
慮
憂
憲
應
戀
戈
戉
戊
戋
戌
戍
戎
成
我
戒
戔
或
戚
戠
戢
截
戲
戶
户
戹
戼
戾
房
所
扁
扇
手
扌
才
打
托
执
承
折
拉
拜
拿
掌
推
提
摩
支
攴
攵
收
攸
改
放
政
敄
敏
敕
敖
敗
敝
敞
敢
散
敦
敫
敬
数
敷
數
斂
文
斉
斊
斗
斤
斥
斩
斬
斯
新
方
於
施
斿
旁
旋
族
无
旡
既
旣
日
旦
旧
旨
早
旬
旱
旲
时
旾
昆
昇
昌
昍
明
昏
易
昔
昗
昜
星
春
昬
是
昱
昴
昷
時
晃
晋
晏
普
景
晶
智
暑
暴
曇
曩
曰
曲
曳
更
曷
書
曹
曼
曾
替
最
朁
會
月
有
朋
服
朔
朕
朗
望
朝
期
木
朩
未
末
本
札
朮
术
朱
朵
朶
朿
杀
杏
杜
束
条
来
東
杲
杳
松
析
林
枚
果
枝
枲
枼
某
柔
查
柬
柰
柴
栗
桀
桃
桑
桼
梁
條
梟
梨
棘
棠
棥
森
楚
業
楽
榮
樂
樊
機
欠
次
欣
欮
欲
欶
欽
款
歆
歇
歛
止
正
此
步
武
歨
歪
歮
歯
歰
歲
歴
歷
歸
歹
歺
死
殳
段
殷
殸
殹
殺
殻
殿
毋
毌
母
每
毒
比
毕
毚
毛
毳
氏
氐
民
气
気
氣
水
氵
氶
氷
永
氺
氾
求
汝
汞
江
決
沃
沓
沖
沙
沝
河
泉
法
波
泣
泥
泰
洛
洪
活
派
流
浦
浪
浮
海
淡
淮
清
渚
渠
港
湯
滿
漢
漸
澳
火
灬
灭
灰
灵
灷
炅
炎
炏
炗
炙
炭
為
烈
烏
烝
焉
無
焦
焱
然
煞
熊
熏
燕
營
燮
爪
爫
爭
爯
爰
爱
爲
爵
父
爻
爽
爾
爿
片
牙
牚
牛
牜
牟
牢
牧
物
牪
牽
犀
犬
犭
犮
狂
狄
狊
独
狺
猋
猒
猪
猫
献
獻
玄
率
玉
王
玟
玨
珎
班
球
琉
琴
瑟
瑩
瓜
瓦
甘
甚
生
産
用
甫
甬
田
由
甲
申
电
甶
男
甸
甹
画
甾
畀
界
畏
畐
留
畜
畟
畢
畧
畨
番
畫
異
畱
當
畺
畾
疊
疋
疌
疑
疒
疾
癶
癸
癹
発
登
發
白
百
皀
皃
的
皆
皇
皋
皐
皕
皮
皷
皿
盃
盆
盇
盈
益
盍
盎
监
盒
盖
盛
盡
監
盤
盧
目
直
相
盾
省
眇
眉
看
眔
眞
真
眷
眼
眾
着
睘
睪
睿
瞏
瞢
瞿
矍
矛
矞
矢
矣
知
矦
短
石
破
碎
磊
磨
示
礻
礼
祟
票
祭
禀
禁
禸
禹
禺
离
禽
禾
禿
秀
秃
秉
秋
科
秒
秝
秦
移
稟
穀
穌
穴
究
穹
空
穿
突
窄
窒
立
竒
竜
竝
竟
章
童
竹
笑
笠
筆
等
答
箕
算
箴
節
篤
篭
米
粉
粛
粟
粤
粦
粲
糞
糸
糹
系
約
納
素
索
紫
累
細
絜
絫
絲
維
綿
縄
縣
繇
纍
纟
缶
网
罒
罔
罕
罗
罙
罡
罢
罪
署
罷
羅
羊
羌
羍
美
羔
羕
羗
羞
羡
羣
群
義
羲
羸
羽
翁
翏
習
翕
翟
翠
翼
老
耂
考
者
耆
而
耎
耑
耒
耳
耴
耶
耷
聂
聊
聖
聚
聶
聿
肀
肃
肅
肉
肖
肙
肥
肩
肯
育
肴
胃
背
胡
胥
能
脊
脩
膚
臣
臤
臧
自
臬
臭
臯
臱
至
致
臺
臼
臽
臾
臿
舀
舂
舄
與
興
舉
舌
舍
舛
舜
舞
舟
般
艮
良
色
艸
艹
艾
芒
芔
芬
芮
花
芳
芺
芻
苔
苗
苟
若
苦
英
茶
茸
荅
草
荒
荣
荼
莆
莧
莫
莽
菆
菊
菐
華
萬
落
葉
著
葛
董
葵
蒙
蒦
蒼
蓋
蓬
蓺
蔑
蔡
蕉
蕭
薄
薛
薦
薰
藍
藏
藥
蘭
虍
虎
虐
虒
虔
處
虖
虗
虘
虚
虛
虜
虞
虫
虽
蚤
蚩
蜀
蜜
蟲
蠡
血
行
衍
衛
衣
衤
表
衮
衰
袁
袋
袞
褭
褱
襄
襾
西
覀
要
覃
見
規
覓
覧
親
覽
见
角
解
言
訁
訇
計
詹
語
誩
諸
護
讠
谷
豆
豈
豊
豐
豕
豖
豙
豚
象
豦
豩
豪
豸
貇
貝
貞
貟
負
貢
貧
販
貪
貫
責
貳
貴
買
費
賁
資
賈
賏
賓
賔
賛
賞
賢
賣
質
賴
贊
贝
贡
责
贯
贲
贵
赖
赞
赤
赦
走
越
足
路
蹇
身
躬
車
軍
軎
軟
輦
车
辛
辜
辟
辥
辰
辱
農
辵
辶
边
达
过
近
连
迷
追
退
送
逆
逐
通
速
造
逢
連
逮
進
遀
遂
過
道
達
遠
遣
適
遷
遺
邊
邑
邕
那
邦
邪
郎
郑
部
郭
都
鄉
酉
酋
配
酓
釆
采
里
重
野
量
金
釒
銀
錢
钅
長
镸
长
門
閃
閉
開
閏
閑
閒
間
閔
閵
閻
闌
门
间
闷
阑
阜
阝
阿
降
陳
隆
隊
隋
隡
隨
隱
隶
隹
隺
隻
隼
隽
难
雀
雁
集
雈
雋
雍
雐
雔
雙
雚
雜
雝
離
難
雨
雩
雪
雲
零
雷
需
霍
霜
霝
霞
霸
靈
靑
青
非
靡
面
靣
革
韋
韓
韦
韭
韯
韱
音
頁
頃
項
須
頗
頡
頻
顔
顛
页
風
风
飛
飞
食
飠
養
饣
首
香
馬
馮
駦
马
骨
高
髟
鬥
鬯
鬲
鬼
魚
魯
鮮
鱼
鲁
鳥
鳳
鸟
鹵
鹿
麃
麗
麥
麦
麻
黃
黄
黍
黎
黑
黒
黨
黹
黽
黾
鼎
鼓
鼠
鼻
齊
齋
齐
齒
齿
龍
龙
龜
龟
龠
龰
龱
龴
龵
龶
龷
龸
龹
者
艹
！
（
）
？
￼
🜨
𠀁
𠀃
𠀆
𠀉
𠀎
𠀐
𠁁
𠁣
𠂆
𠂇
𠂈
𠂉
𠂊
𠂋
𠂎
𠂒
𠂔
𠂛
𠂡
𠂢
𠂤
𠂬
𠂭
𠂹
𠃊
𠃋
𠃌
𠃍
𠃎
𠃑
𠃓
𠃔
𠃜
𠄌
𠄎
𠄠
𠄢
𠆢
𠆥
𠇍
𠈌
𠌵
𠓜
𠔉
𠔥
𠔼
𠔽
𠔿
𠕀
𠕁
𠕋
𠘧
𠘨
𠙻
𠙼
𠚏
𠚒
𠚤
𠚪
𠣏
𠤎
𠤕
𠥓
𠦄
𠦑
𠦝
𠧒
𠧗
𠧪
𠩺
𠪚
𠫓
𠫔
𠫤
𠬛
𠬝
𠬞
𠬢
𠬤
𠬶
𠮛
𠮦
𠮷
𠯑
𠱠
𠳮
𠷎
𡈼
𡉀
𡉵
𡌥
𡍮
𡏳
𡕒
𡕩
𡕰
𡖅
𡗗
𡗜
𡘆
𡘤
𡧱
𡨄
𡩧
𡬠
𡭽
𡰣
𡰥
𡰪
𡰯
𡰱
𡷈
𡸁
𡿨
𡿩
𡿪
𡿺
𢀖
𢀛
𢀩
𢁙
𢆉
𢆰
𢆶
𢇁
𢇇
𢉖
𢌬
𢌿
𢏚
𢑑
𢑚
𢖻
𢙣
𢛳
𢦏
𢦒
𢧵
𢼄
𢾕
𣁋
𣄼
𣅀
𣅽
𣍘
𣎳
𣎵
𣏋
𣏼
𣗥
𣥂
𣥖
𣦵
𣦼
𣧄
𣪊
𣪠
𣬉
𣳾
𣶒
𤇾
𤊽
𤐫
𤓰
𤔔
𤕨
𤣩
𤰇
𤰔
𤰞
𤴓
𤴔
𤽄
𥁑
𥁕
𥃦
𥃩
𥃭
𥇡
𥑟
𥘅
𥘈
𥝢
𥫗
𥱡
𦈢
𦉪
𦉬
𦉼
𦍌
𦍒
𦎧
𦐇
𦓔
𦔮
𦘒
𦙃
𦚏
𦣝
𦣞
𦣻
𦥑
𦥔
𦥯
𦨉
𦭝
𦰩
𧆞
𧈧
𧘇
𧰨
𧴪
𧴮
𧵩
𧾷
𨸏
𨾴
𩙿
𩠐
𩫏
𩵋
𪉷
𪜀
𪟽
𪠲
𪩲
𫇦
𫔭
𫜸
𫝀
𫠣
𫠩
𫢉
𫥞
𫩏
𫩠
𫪡
𫲽
𫶧
𬀷
𬐘
𬗌
𬙙
𬛸
𬜯
𬟩
𬯁
𬴘
𬺻
𬼉
𬼖
𭀰
𭁈
𭁨
𭅰
𭑈
𭕄
𭗼
𭤨
𭥫
𭻾
𮅕
𮊿
𮍌
𮍏
𮓗
𮥼
𮧮
廾
𰀁
𰀄
𰀈
𰀉
𰀕
𰀠
𰀡
𰀢
𰀪
𰁜
𰃮
𰆊
𰆘
𰋙
𰕎
𰢴
𰧭
𰯲
17--
44--
53--
66--
a--
ab--
abe--
ac--
aca--
act--
ad--
admi--
ado--
afri--
ag--
aga--
aha--
ahu--
ai--
aia--
ak--
aka--
aki--
akua--
al--
ala--
alde--
ale--
ali--
alo--
am--
ama--
an--
ana--
and--
ane--
ani--
anu--
ao--
ap--
apato--
api--
apo--
app--
ar--
ara--
arc--
art--
as--
at--
au--
aug--
austr--
ave--
awa--
ay--
aza--
b--
ba--
bar--
bas--
bat--
be--
bel--
ber--
bet--
bhu--
bi--
bio--
biog--
bis--
bit--
blo--
bo--
bor--
bou--
bour--
br--
bra--
bri--
bu--
bur--
bust--
c--
ca--
cabr--
cal--
can--
car--
cas--
cat--
caval--
ce--
cedy--
cel--
cen--
cer--
cha--
chi--
cho--
ci--
cin--
civili--
cl--
clem--
co--
com--
con--
cor--
cr--
cra--
cre--
cu--
cue--
d--
da--
dal--
dan--
dar--
de--
del--
den--
di--
dip--
dire--
dis--
dix--
do--
dou--
dr--
du--
dz--
e--
ea--
econ--
ed--
ei--
el--
ele--
em--
en--
ene--
erne--
es--
escu--
est--
et--
eu--
ex--
exp--
f--
fa--
fal--
fami--
far--
fas--
fe--
fer--
fi--
figu--
fin--
flu--
fo--
fol--
fon--
fou--
fr--
fra--
fron--
fu--
g--
ga--
gal--
gali--
gam--
gar--
ge--
geo--
ger--
gi--
gil--
go--
gol--
gr--
gra--
gri--
gu--
gui--
guil--
h--
ha--
hai--
hale--
ham--
han--
har--
hau--
he--
hei--
hel--
her--
hi--
hir--
ho--
hoa--
hol--
hon--
hor--
html--
hu--
hua--
hui--
hy--
i--
ia--
ian--
iau--
ice--
ie--
ig--
ii--
il--
ili--
imp--
in--
ina--
inter--
io--
is--
it--
itu--
iu--
iv--
j--
ja--
jo--
jona--
ju--
k--
ka--
kaha--
kahu--
kai--
kale--
kalei--
kali--
kama--
kan--
kana--
kar--
kau--
kaua--
ke--
kea--
kela--
kep--
ki--
kia--
ko--
koi--
komi--
kon--
krasno--
ku--
kua--
kumu--
kur--
ky--
l--
la--
lai--
lama--
lan--
lanca--
lar--
larg--
le--
lei--
li--
lich--
lil--
lin--
lo--
loc--
lou--
lu--
lur--
ly--
m--
ma--
mac--
mag--
mai--
maka--
make--
mal--
mala--
man--
mana--
mar--
mas--
mat--
mc--
me--
mea--
medi--
mel--
men--
mer--
mexi--
mi--
mia--
mic--
micr--
miki--
mil--
mis--
mit--
mo--
mon--
mor--
mora--
mos--
mou--
mu--
mua--
munici--
mys--
n--
na--
nae--
nai--
nama--
nan--
natu--
nau--
nc--
ne--
neg--
nei--
neka--
neke--
new--
ng--
ni--
niko--
niu--
no--
nor--
nu--
nui--
nuia--
ny--
o--
oa--
odo--
oha--
oi--
oka--
oke--
ol--
ole--
olu--
oly--
oma--
on--
ona--
opa--
opo--
or--
origi--
os--
ou--
ovi--
p--
pa--
padr--
pai--
paia--
pal--
pala--
pan--
par--
pas--
pe--
pel--
pela--
pele--
per--
pho--
pi--
pier--
pili--
pla--
play--
plu--
po--
polo--
pols--
pon--
por--
poz--
pr--
pre--
pres--
pri--
prin--
pro--
psy--
pu--
q--
r--
ra--
raj--
re--
rea--
ref--
refe--
reg--
reve--
rey--
rez--
ri--
ro--
roble--
ros--
rs--
ru--
s--
sa--
sal--
san--
sc--
sce--
sch--
scoo--
se--
seg--
segu--
sem--
ser--
sere--
shu--
si--
sici--
sil--
sist--
sli--
so--
sobr--
sor--
spe--
spi--
st--
ste--
stega--
sti--
str--
su--
sun--
sys--
słowac--
t--
ta--
tar--
te--
ter--
th--
the--
theo--
ti--
tig--
tira--
tit--
to--
tor--
tr--
tra--
trad--
tran--
trans--
tre--
tro--
tu--
tuc--
tur--
ty--
u--
ua--
uaha--
uai--
ual--
uana--
ui--
ult--
ulu--
un--
una--
uni--
uo--
ur--
v--
va--
val--
valde--
ve--
vel--
ver--
vi--
vil--
villa--
villal--
villas--
villo--
vin--
vio--
vitto--
vol--
w--
wa--
wai--
wal--
wan--
we--
whi--
wi--
wili--
wit--
wo--
woke--
woo--
wor--
wy--
x--
xi--
y--
ye--
z--
za--
ze--
zi--
zo--
zu--
ǀ--
ǂ--
βρ--
γ--
δ--
κ--
κα--
μ--
ν--
ο--
π--
σ--
τ--
φ--
м--
пер--
ה--
--0
--1
--2
--22
--3
--4
--5
--6
--7
--8
--9
--a
--able
--ace
--ada
--ado
--ae
--agem
--ahi
--ahine
--ai
--aka
--akh
--al
--ala
--ama
--ami
--an
--ana
--ani
--ans
--ao
--api
--ar
--ary
--as
--at
--ata
--ate
--au
--ay
--az
--b
--ba
--be
--bia
--ble
--bo
--bra
--c
--ca
--cal
--ce
--cedo
--cer
--ces
--ch
--che
--ches
--chi
--ci
--cillo
--ck
--co
--cos
--cs
--cy
--d
--da
--ddy
--de
--ded
--den
--dge
--di
--ding
--do
--ds
--du
--dy
--e
--ea
--ed
--eda
--ej
--eja
--ek
--el
--ela
--elli
--ello
--elo
--en
--ence
--ens
--ent
--eo
--er
--eri
--ern
--erno
--ers
--es
--et
--ey
--ez
--f
--fe
--ff
--ft
--g
--ga
--gal
--gas
--ge
--ger
--gh
--ght
--gi
--gle
--gna
--go
--gton
--gu
--gy
--h
--ha
--hana
--he
--hei
--hi
--hia
--hine
--hip
--hn
--ho
--http
--https
--hu
--hune
--i
--ia
--iaha
--ian
--iapi
--ias
--ic
--ica
--ice
--ida
--idae
--ie
--iki
--iku
--il
--ile
--illa
--ima
--imi
--imo
--in
--ina
--ine
--ing
--ini
--ino
--io
--ion
--ir
--ira
--iro
--is
--ist
--ista
--it
--ito
--itor
--ity
--iu
--iui
--ium
--ive
--iwa
--iya
--iz
--j
--ja
--jas
--ji
--jo
--jos
--k
--ka
--kan
--ke
--kers
--ki
--kia
--kian
--kie
--ko
--ks
--ku
--l
--la
--lan
--lani
--lar
--lara
--lba
--ld
--lda
--ldo
--le
--ler
--ley
--li
--lis
--ll
--lla
--lle
--lli
--llo
--lls
--lly
--lm
--lo
--loa
--lon
--ls
--lt
--lu
--lua
--ly
--m
--ma
--mai
--man
--mana
--mat
--mau
--mbre
--me
--mepia
--mer
--mes
--mi
--mia
--miua
--mo
--mu
--mua
--my
--n
--na
--nac
--nai
--nan
--nas
--nc
--nce
--nd
--nda
--nde
--nder
--ndo
--ne
--nel
--ner
--nes
--nesia
--ng
--nga
--nha
--nho
--ni
--nia
--nier
--nike
--nin
--ning
--nipi
--nk
--nkie
--nn
--nna
--nne
--nny
--no
--ns
--nse
--nso
--nt
--nta
--nte
--ntes
--nto
--nu
--nui
--nus
--ny
--nza
--o
--oa
--od
--ok
--ol
--ola
--om
--on
--ona
--ons
--or
--ora
--orio
--os
--osa
--oto
--ov
--ow
--p
--pa
--pai
--pe
--pi
--pia
--pian
--pimi
--pio
--po
--pohe
--ps
--psy
--pter
--pu
--pus
--q
--r
--ra
--ral
--ras
--raz
--rb
--rch
--rd
--rda
--rdi
--rdt
--re
--rent
--res
--rg
--ri
--ridae
--ring
--rity
--rk
--rks
--rm
--rn
--ro
--ros
--rra
--rs
--rt
--rta
--rts
--ru
--rus
--ry
--s
--sa
--sauru
--sca
--se
--ser
--ses
--sh
--shi
--si
--sis
--ski
--sky
--so
--son
--ss
--ssa
--sse
--st
--ste
--ster
--stre
--t
--ta
--tado
--tal
--te
--ted
--tein
--ter
--tes
--th
--ti
--tic
--tin
--tina
--tion
--tions
--tive
--to
--ton
--tor
--tos
--try
--ts
--tsu
--tt
--tta
--tte
--tto
--tus
--tv
--ty
--tz
--u
--ua
--uc
--ud
--ude
--ue
--uf
--ui
--ul
--um
--uma
--un
--una
--uo
--ur
--ura
--ure
--urus
--us
--ut
--v
--va
--ve
--ver
--ves
--vo
--w
--wa
--wai
--wan
--way
--we
--wi
--wn
--wo
--x
--y
--ya
--ye
--yevich
--yo
--ypus
--ys
--z
--za
--zas
--ze
--zo
--ι
--ν
--νο
--ς
--υ
--а
--в
--и
--ии
--ик
--ои
--я
--ו
--ת
--ن
