!
"
#
##0
##1
##10
##11
##12
##13
##14
##15
##16
##17
##18
##19
##2
##20
##21
##22
##23
##24
##25
##26
##27
##28
##29
##3
##30
##31
##32
##33
##34
##35
##36
##37
##38
##39
##4
##40
##41
##42
##43
##44
##45
##46
##47
##48
##49
##5
##50
##51
##52
##53
##54
##55
##56
##57
##58
##59
##6
##60
##61
##62
##63
##64
##65
##66
##67
##68
##69
##7
##70
##71
##72
##73
##74
##75
##76
##77
##78
##79
##8
##80
##81
##82
##83
##84
##85
##86
##87
##88
##89
##9
##90
##91
##92
##93
##94
##95
##96
##97
##98
##99
$
%
&
'
(
)
*
+
,
-
.
/
0
00
000
002
003
007
01
012
015
016
02
020
022
03
030
032
035
038
04
040
041
05
051
0520061781
057
06
060
07
070
07068
07723
08
080
086
09
090
098
1
10
100
1000
101
1011
1016
1017
1018
102
103
104
1045
105
106
107
108
1086
109
11
110
1100
111
1111
112
1126
113
114
115
1151
116
117
118
1185
119
12
120
1200
121
122
1220
123
124
1242
125
126
127
1278
128
1286
129
13
130
1300
131
132
133
1333
134
135
136
137
138
1386
1389
139
14
140
1400
1403962546
141
14151617
142
143
144
145
146
1463
147
148
149
1492
15
150
1500
15000
1501
1502
1507
151
1511
1516
152
1524
1526
153
154
155
1558
156
1568
157
1573
1574
1575
158
159
16
160
1600
161
1616
1617
1618
162
163
164
1640
165
166
167
1677
168
1683
169
1697
1699
17
170
171
172
173
174
1747
175
1752
176
1763
1767
177
1772
1774
1776
1778
178
1783
1788
179
1791
1795
1797
1798
18
180
1800
1801
1804
1806
1807
1809
181
1810
1813
1814
1816
1818
1819
1820
1821
1822
1824
1825
1826
183
1830
1833
1834
1835
1836
1837
1838
1839
184
1840
1841
1843
1844
1845
1846
1848
1849
185
1850
1851
1851099863
1852
1853
1854
1855
1858
1859
186
1860
1861
1862
1863
1864
1865
1867
1868
1869
187
1870
1874
1875
1877
1878
1879
188
1880
1883
1885
1886
1888
1889
189
1890
1893
1894
1895
1896
1897
1898
1899
19
190
1900
1901
1902
1903
1905
1906
1907
1908
1909
19091
191
1910
1911
1912
1913
1914
1915
1916
1917
1918
1919
192
1920
1921
1922
1924
1925
1926
1927
193
1930
1931
1932
1933
1935
1936
1937
1938
1939
194
1940
1941
1942
1943
1944
1945
1946
1947
1948
1949
195
1950
1951
1952
1953
1954
1955
1956
1957
1958
1959
196
1960
1961
1962
1963
1964
1965
1966
1967
1968
1969
197
1970
1971
1972
1973
1974
1975
1976
1977
1978
1979
198
1980
1981
1982
1983
1984
1985
1986
1987
1988
1989
199
1990
1991
1992
1993
1994
1995
1996
1997
1998
1999
2
20
200
2000
2001
2002
2003
2004
2005
2006
2007
2008
2009
201
2010
2011
2012
2013
2014
2015
2016
2017
2018
2019
202
2020
2021
2022
203
204
205
206
207
208
209
21
210
211
212
213
214
215
216
217
218
219
22
220
221
222
223
224
225
226
227
228
229
23
230
231
232
233
234
235
236
237
238
239
24
240
241
242
243
244
245
246
247
248
249
25
250
2500
251
252
253
254
255
256
258
259
26
260
261
262
263
264
265
266
267
268
269
27
270
271
272
273
274
2741
275
276
277
278
279
28
280
2800
281
282
283
284
285
286
288
29
290
291
292
293
294
295
296
297
298
299
3
30
300
3000
301
302
303
304
305
306
308
309
31
310
312
313
314
316
317
318
319
32
320
3200
321
322
323
324
325
326
327
328
329
33
330
3300
3305
331
332
333
334
335
337
338
339
34
340
341
342
344
345
346
347
348
349
35
350
351
352
353
354
355
357
358
359
36
360
362
363
364
365
367
368
37
370
3700
371
373
374
375
376
377
378
379
38
380
382
383
384
385
386
387
388
389
39
390
391
392
393
394
395
397
398
399
4
40
400
4000
401
402
403
40325750
404
406
407
408
41
410
412
4128
413
414
415
418
419
42
420
421
423
424
425
426
427
43
430
433
434
435
436
437
438
44
440
4400
442
443
445031
446
447
448
449
45
450
4500
451
452
453
459
46
460
462
463
464
467
468
469
47
470
474
475
476
48
480
482
484
485
487
489
49
490
491
492
493
494
495
498
499
5
50
500
5000
501
504
506
508
5086
51
510
511
512
513
515
516
517
519
52
520
521
524
5243
526
527
528
53
530
531
533
537
538
54
540
541
542
543
544
55
550
5500
552
553
556
559
56
560
562
569
57
575
577
578
58
580
581
582
583
585
586
587
588
589
59
590
592
593
594
596
597
6
60
600
6000
602
604
606
61
610
611
616
617
62
620
625
627
63
630
631
632
633
637
638
64
640
642
644
649
65
650
653
655
656
658
66
660
667
67
670
671
677
68
680
681
687
69
690
691
692
699
7
70
700
7000
702
704
705
709
71
711
716
718
72
720
721
727
728
73
730
731
733
736
74
740
741
743
747
748
749
75
750
751
752
755
757
758
759
76
760
763
765
767
768
77
770
773
78
780
781
787
788
79
790
791
793
794
797
798
799
8
80
800
8000
801
802
8020
803
806
81
812
8147
816
817
82
820
821
822
823
828
83
830
8300
831
836
837
838
84
840
845
85
850
852
8547
855
856
857
86
860
862
863
864
865
87
870
871
872
874
875
879
88
882
883
884
885
89
890
891
892
895
896
9
90
900
9000
904
908
91
910
913
915
92
921
923
924
927
93
930
931
94
940
943
946
95
950
953
956
957
96
960
962
964
965
966
968
97
970
9700
971
976
978
979
98
980
9800
986
988
99
990
992
994
995
996
998
:
;
<
=
>
?
@
\
^
_
`
a
aadopen
aay
aayaw
abad
abc
abdel
abdelaziz
abdrabbuh
abdul
abdulla
abdullah
abe
abiyyii
abkommen
about
above
abovecell
abovestyle
abraham
ac
aca
acaan
acaaw
acaay
academy
acaen
acang
acay
accessed
according
acer
achaemenid
ache
achsenma
aci
acia
acicu
aciropayciang
aciropayciyang
aciropaycyang
acirpayciang
acirpayciyang
acitiko
aciya
aciyaay
acohod
acquired
act
action
actual
ad
ada
adaan
adaay
adada
adadaay
adam
adama
adan
adapaw
adapaway
adawang
aday
add
addcat
addclass
added
addition
addkey
addo
adelman
adengan
adeteng
adetuman
adhay
adhihay
adicaw
adihadihay
adihay
adihayaw
adihayay
ading
adingan
adingaw
adingay
adingo
adipangpang
adipel
adipit
adipitay
adiri
adiyam
adiyoc
admi
administration
administrative
adop
adopan
adopay
adopen
adrian
aduhayay
advanced
aen
aenem
aera
aerpoto
afa
afadeng
afang
afar
afas
afasan
afasay
afasen
afatay
afel
afelika
afet
affairs
affine
afghan
afghanistan
afih
afilika
afinacadan
afinong
afo
afoay
afofo
afohan
afohanstan
africa
african
afrika
afrique
afriya
after
afwerki
again
age
agency
ageq
agong
agreement
ah
ahan
ahimad
ahiyan
ahl
ahmad
ahmadzai
ahn
ai
aihamayto
aikor
ailis
aimala
aims
ainoko
aira
aires
aise
aised
ajel
ak
aka
akaka
akan
akawang
akawangay
akaway
akay
aken
akihito
akitakit
ako
akong
akosomo
aku
akufo
akuncin
akuntin
al
ala
alaan
alaay
alac
alacecay
aladiwas
alaen
alamaanan
alamay
alamisiikeday
alan
alang
alapanay
alapawan
alas
alasadasadak
alasani
alasiikeiked
alaska
alaslaslaslas
alassane
alatek
alaw
alawako
albania
albanian
albanians
albert
aledet
alejandro
alemet
alexander
alfredo
algeria
algiers
ali
aliases
alii
alilay
alilis
alingayay
alisanta
alishan
aliyev
aliyos
aljungic
all
allcat
alliance
allies
allow
allowblankparams
allowed
allowid
allowsmall
almazbek
alo
aloan
aloay
alofo
alol
alolay
alolong
aloman
alomanay
alomanto
alopalay
alowalo
alpha
alpis
already
also
alt
altan
alto
alu
alua
aluman
alumanay
always
am
ama
amanula
amanullah
amaro
ambox
ameenah
amekang
america
american
amham
ami
amid
amihecaan
amihecan
amilaplap
amilika
amin
amir
amirika
amirikaay
amis
amisafa
amisan
amisanga
amisay
amisopsop
amitoker
amohala
among
amoto
amsay
amundsen
an
ana
anaca
anacha
anan
anang
anasolay
anay
anca
ancient
ancoh
and
andorra
andre
andrea
andrej
andrianampoinimerina
android
andrzej
anen
anengan
anengang
anengenengelay
anengeray
ang
angan
angangan
angaw
angay
angayay
angcoh
angil
angola
angpa
angrer
angreray
anhala
ani
anifong
aniiay
anini
aniniay
aninisato
anip
aniwan
aniyaro
ankola
ankora
ankuro
ann
anna
anne
annexation
annual
ano
anoca
anofay
anoh
anosa
another
antarctic
anteliya
anteng
anthropology
anti
antigua
antika
antikuwa
antis
anto
antokas
antonio
antoniyo
antoriyiwici
antoru
anu
anungnung
anuta
anux
any
anything
ao
aol
aolepa
aoro
aosman
aostoronisya
aosyong
aotili
aoun
aowang
apala
apan
apangangan
apapuro
aparaham
apatek
apc
apec
apelad
apelahay
apens
api
apie
apilipilisan
apilis
apin
apinangan
apisiniya
apitin
apiyan
apo
apoco
apocok
apohaci
apol
apolan
apomi
aporicini
apple
april
apul
aputola
aputole
aqov
ar
ara
arab
arabia
arabian
arakan
arapanay
arapiya
araw
arawak
arawako
arawan
arawang
araway
arawen
arawhani
arawraway
aray
arcahe
archaeology
archange
archipelago
archive
archived
archives
arciliya
arciropayciyang
arctic
are
area
areas
arena
argentina
argkeys
args
argsk
argsparam
argtables
argtableval
argument
arguments
ari
ariay
arifakar
arika
arikakay
ariray
ariri
arkuncin
arkuncina
armenia
armenian
arminiya
arminto
armoniya
arms
army
aro
aroan
aroen
around
arpaniya
arpanoya
arpis
arr
array
art
arthur
article
articles
artifonito
arturo
aru
arucincin
arw
as
asa
asaan
asamblea
asamu
asan
asanti
asay
asayloy
asean
asfaloto
ashka
ashraf
asia
asian
asiay
asik
asin
asip
asiro
asiroay
asiya
asowal
assad
assemble
assembly
associated
association
asuncio
asunsyon
at
atakama
atama
atambayev
atamdaw
atang
atayni
ate
atekak
atekakay
ateman
atepiko
atila
atilid
atilistito
atitolan
atlantic
atlas
ato
atolan
atolas
atoll
atolopatos
atolopotoni
atomo
atonan
atoray
attr
atu
au
auciwlian
auckland
auco
august
aung
austaliya
australia
australian
australiya
austria
austrian
austronesian
autaliya
auteyalowa
authority
automatically
autonomous
autraliya
autrariya
ava
available
avannata
avoid
avus
aw
awa
awaan
awaawa
awaay
awaayay
awaayho
awaayto
awaaytu
awaen
awaer
awang
award
awards
awas
away
awco
awhelito
awi
awid
awlan
awlanto
awlicoya
awmar
awnika
awoel
awol
awpiyang
awricoya
awromo
awsayti
awsiyong
awsman
awsyon
awsyong
awtili
awtoka
awtoman
axis
ay
aya
ayal
ayam
ayaman
ayan
ayaw
ayawan
ayaway
ayawen
ayawho
ayay
aycin
ayen
ayhamayto
ayhamaytosa
ayho
aykipto
aylis
aymara
aysaniya
aytehowa
ayto
ayw
az
azati
azerbaijan
aziya
aziz
azərbaycan
b
ba
babahi
babahiyan
babahy
babainay
babainayan
babau
babaw
babenberger
bachelet
bacingul
back
background
bahamas
bahoruco
bahrain
bai
bakir
baku
bakung
baldwin
baliq
balkan
balkans
balti
baltic
baltijas
baltijos
balucu
balung
bana
banaw
banda
bangcal
bangladesh
bangsisay
bank
banner
banuh
banun
baoule
bar
barbados
barbara
barbary
barbuda
baron
barrow
base
based
bashar
bashir
batbato
bato
battle
batul
batumi
bay
bayi
baz
bbc
be
beach
bear
beata
became
become
been
before
behind
beinan
being
beji
bekeluh
belait
belarus
belarusian
belau
belgie
belgium
belgrade
belize
bellen
bellona
bellwood
below
belowcell
belung
beluu
benin
benot
berdimuhamedow
berkeley
berlin
berliner
bermu
between
beyond
bgurah
bhandari
bhutan
bidhya
bih
billion
bilus
bin
binawlan
biogeochemical
birth
bissau
biya
black
blacklist
blacks
blackwell
blangaw
blank
blast
blhuy
blica
blogspot
blount
blue
blurb
bngwan
bo
body
bodyrow
boigny
boli
bolivia
bolkiah
bongo
book
books
boolean
border
born
borut
bos
bosnia
both
botswana
bottom
boubacar
bounnhang
bouteflika
bouterse
box
boxtable
boxtype
boxtypes
boz
bradt
brahim
branaw
brasil
bravo
brazil
brazilwood
brc
break
brest
bridge
bridgetown
brill
britain
britannica
british
broadleaf
brook
broz
brunei
brussels
bs
bsngan
bsuring
bu
bubun
buduy
buenos
buhari
building
bujar
bujumbura
bukai
bukeykay
buklavu
bulad
bulbul
bulgaria
bulgarian
buner
bunka
bunun
bureau
burkhalter
burkina
burma
burundi
busby
busi
business
but
buta
bwarung
by
c
ca
caacaay
caang
caaw
caay
caaya
caayay
caayayho
caayen
caayho
caayka
caayto
caaytu
cabinda
cabot
cacamol
cacay
cacayay
cacey
caci
cacisra
cacitodong
caciyaw
cacofel
cacomikay
cacorocorok
cacorok
cadada
cadi
caeca
caesalpinia
caesar
cahiw
caho
cai
caid
caira
caka
cakat
cakaw
cakoroypo
calasiv
calavi
calaw
calay
calayan
calayay
caledes
calemcem
caleng
cali
calif
california
caliw
call
called
caloway
calowayay
cambodia
cambridge
camel
cameron
cameroon
cames
camis
can
canada
canadian
canel
cang
cangaw
cangla
cango
cangra
cangraan
cangranan
canira
canonicalname
capa
capi
capita
capital
cara
carapongay
carbon
carib
carl
carlos
carnival
cars
cartes
cartier
carvalho
cascas
case
cases
casitini
casitinni
caspian
castillo
castle
castro
cat
cate
categories
categorisation
categorise
category
categoryhandler
categorynums
categoryparamnums
catherine
catholic
cato
cattitle
caucasian
caucasus
cause
cavak
cave
caw
cawa
cawi
cay
cayamavana
cayay
caye
cayin
cayka
caykaeca
caykanca
cayna
cayto
caytu
ccay
cd
cdc
ce
cealalupalantdlu
cecaay
cecacecay
cecay
cecayay
ceceay
cedas
cedi
cefang
cekacekaan
cekiw
cel
celal
celi
cell
cells
celt
cemahad
cemahadan
cemahaday
cen
ceng
cengel
cengkuwangaw
cengo
censo
census
centang
center
centered
central
centre
century
cepi
cepo
cepu
ceray
cere
ceroh
cfg
cfgkey
cfgvalue
cfgvaluetype
ch
chaco
chad
changbin
change
chapin
characteristics
charles
chatham
chaumont
che
check
checktype
checkvalue
chenggong
cheskaya
chi
chiayi
chicago
children
chile
china
chinese
chishang
chloroplasts
chn
choiseul
chris
christ
christian
christopher
chrome
chronology
chte
chuan
chui
chun
chunri
church
ci
cia
ciadada
ciadadaay
ciamengan
ciataw
ciatayki
ciawaayay
cibarbaran
cicaedong
cicala
cicapa
cicediay
cici
cicing
ciciw
ciciwkay
cico
cicu
cid
cidafongay
cidal
cidatayay
cidemak
cidoka
cieci
cieko
ciekoslofako
cielpot
ciencia
cifa
cifafahi
cifainay
cifaloco
cifangafang
cifar
cifarfaran
cifenekay
cifita
cifo
cihafayan
cihafayay
cihak
cihakay
cihalaay
cihanekay
ciharateng
ciheci
cihenekay
ciira
cikadaan
cikang
cikaso
cikasoan
cikasowan
cikasuan
cikasuwan
cikawasay
cikay
cikcik
cikciken
cikeliwan
cikep
cikiharay
cikiw
ciko
cikomi
cikowa
cikowangay
ciku
cila
cilacila
cilafas
cilafasay
cilafinan
cilafoay
cilah
cilahoday
cilakesay
cilalongay
cilamalay
cilamitay
cilamlam
cilamlamay
cilan
cilanana
cilangasan
cilangsan
cilapuk
cilay
cili
cilifo
ciliksay
cilintokingay
cilis
ciliw
cilo
cilocidal
ciloma
cilowad
cilu
cima
cimacima
cimacimaan
cimapatayay
cin
cinah
cinamalay
cinanomay
cinaw
cinbulan
cincahan
cinco
cinemnemay
cing
cingaloan
cingangan
cinganganay
cingaroan
cingci
cingra
cingraan
cingranan
ciniya
cinowas
cinoya
cinpin
cinping
cinsbu
cinstancin
cinstans
cinstantingpaw
cio
cioci
ciociya
ciomahay
ciopihay
cipa
cipadesay
cipas
cipawkan
cipaysoaay
cipaysoay
cipinang
ciping
cipoca
ciporan
cipoyapoy
cipoyapoyay
cipurungan
cipuwa
cipuypuyan
cira
cirafas
cirafasay
cirakayan
cirakesay
ciramod
ciramram
ciramramay
ciraraway
cirarokohay
circle
cirekay
ciriko
ciris
ciro
cirocan
cisafaw
cisafaway
cisakowan
cisakowanay
cisalongocay
cisawarakay
ciseraay
cisimalay
ciso
cisofitay
cisowal
cisowanya
cisu
cisyak
cisyasi
cita
citalem
citama
citaminato
citaneng
citanengay
citangalay
citapodoay
citatapangan
citatapangay
citatodong
citatodongay
citay
citekudan
cities
citiliday
citing
citodong
citodongay
citolas
citopa
citosan
city
ciupus
ciusinlun
ciw
ciwawa
ciwcia
ciwcika
ciwidian
ciwidiyan
ciwkang
ciwkangan
ciwkoku
ciwlo
ciwlokiwkay
ciya
ciyak
ciyakang
ciyako
ciyami
ciyan
ciyanen
ciyatayci
ciyaw
ciyawan
ciyawciya
ciyawpi
ciyibangcalay
ciyoce
ciyongse
claimed
class
classes
claude
clean
clear
climate
clio
close
cm
cmbox
cn
cnn
co
coast
coat
coco
codad
cohcoh
coka
cokah
cokap
colacila
cold
coleiro
collapsible
collective
college
collelo
colombia
colonization
colony
color
colspan
columbia
com
comahad
comahaday
comikay
comikayay
commission
committee
common
commonwealth
community
comod
compact
companion
company
compaore
compare
comparedisplay
comparelink
comparepages
compareurl
comparison
complex
compresssparsearray
con
conakry
concat
conde
conditions
conference
config
configuration
conflict
cong
conga
conghuwaminko
congko
congli
congo
congress
congsi
congto
congton
congtong
congtongan
conjunction
conko
conli
conopi
conquest
constantinople
constantinopolis
constitution
constitutional
containing
contains
contemporary
content
contenttitle
context
contong
contribution
controlled
convention
cook
cooperation
copo
copy
corcoren
cordillera
corner
corok
coronavirus
correa
corresponding
corruption
costa
cote
cou
could
council
count
countries
country
court
cov
covid
cowa
cowaay
cowacowa
cowacowaay
cowaho
cowaten
create
createlink
creek
creole
crimea
crisis
cristann
cristobal
croatia
croatian
crop
cropped
crow
crusades
cruz
css
csstext
csto
cu
cuba
cuban
cubano
cudad
cuka
cukap
cukotien
culiu
cultura
cultural
culture
cumhuriyeti
cumikay
cun
cunami
cung
cunghuaminkuo
cungko
cungkosepow
cungkuo
cunhuacuyong
cuoyang
cuoyangcen
current
currenttitle
custom
cute
cuwa
cya
cyasi
cyawciya
cycle
cyoci
cyociya
cyocuy
cyprus
czech
d
da
daan
dabak
dacdacan
dadahal
dadahalay
dadangoyan
dadanso
dadaya
dadayadaya
dadecdec
dademak
dademakan
dademakay
dademaken
dadipoten
dado
dadowacen
daerah
dafak
dafda
dafdaf
dafon
dafong
dafongan
dafung
dag
dahetal
dahomey
dahtal
dai
daigaz
daily
dakus
dalah
dalia
damaen
damak
damawi
damay
damayan
damdam
dan
danadanaw
dangah
dangka
daniel
danilo
danmark
dapiyac
daren
dark
darussalam
dasdas
data
database
datapage
date
dateng
dating
datong
dauqpusan
dave
david
davugele
daw
dawdaw
dawu
day
daya
daydam
daykako
days
dayton
de
deamk
death
dec
decdec
decdecan
decdecay
december
declaration
decode
deep
deepcopy
default
defaultkey
define
del
delete
demak
demakan
demedematan
demek
democracy
democratic
demogra
demopage
demospace
den
deng
dengan
dengay
denis
denmark
departamento
department
depending
depoc
der
des
descent
desert
deshielo
det
detay
detect
detected
deutschland
developed
developing
development
devi
dez
di
diagram
diamond
diana
dianaan
dictionary
did
didier
didz
die
diego
difang
diff
difference
different
diheko
dihekoay
dihidihian
dihif
dikidiki
dilmun
dimo
ding
dingki
dingwa
dinkam
dinki
dipid
dipit
dipon
dipong
dipongan
dipongay
dipot
dipung
direct
directly
dis
disease
displacement
display
displayed
displays
disposable
disputed
distribution
district
districts
dita
ditdit
ditdithan
div
division
divisions
diwas
diyong
djelunavunavuk
djineljepan
djumulj
dmak
dna
do
doay
doc
doci
docname
docpage
docpagebase
docs
docspace
doctitle
doctrine
document
documentation
documents
dodang
dodo
dodoen
dodon
dodosa
doedo
doedoen
does
doesn
dofot
dohaw
doi
doing
doka
dolad
domestic
dominica
dominican
dominicana
don
donald
donau
done
doneipairs
donepairs
dongec
donghe
dongi
donkuan
dorama
dos
dotoc
dotocen
dowmung
dowras
doxi
dr
drainage
draki
dralendren
dramane
drekai
drz
ds
du
dublin
ducatus
duda
due
duke
dungec
durrani
duterte
dw
dynasty
e
earliest
early
earth
east
easter
eastern
easy
eat
ec
eca
ecay
ecel
ecelay
eceng
ecfcf
echinata
eci
ecian
eciay
ecien
eco
ecoan
ecoaw
ecoay
ecoen
econo
economic
economist
economy
ecuador
ed
eda
edaan
edaay
edac
edan
edaw
edawan
edaway
eday
edef
edefay
eden
edeng
edengan
edengay
edes
edet
edeta
edetay
edgar
edi
edid
edil
edilay
edinburgh
edip
edirne
edit
editions
editlink
editora
editors
editsection
edo
edoan
edoay
edoedo
edoen
edong
eds
edu
eduardo
education
educational
edward
edwards
efa
efaay
efef
efer
eferan
eferay
efi
efo
efoay
efong
ega
egypt
either
eje
ekang
ekel
ekeng
eker
eki
ekim
ekimay
ekklisi
ekong
el
elac
elal
elay
elbegdorj
election
eli
elieli
elif
elifan
elifay
elin
elinan
elinay
elinen
elis
elisan
elizabeth
ellen
eloh
elohan
elohay
elose
else
elseif
em
eman
emanay
emang
emangan
emangay
emed
emel
emelay
emet
emetan
emetay
emi
emin
eminay
eminen
eming
emirates
emo
emomali
emot
empera
emperor
empire
empires
empty
en
enan
enar
enaray
enaw
enawan
enaway
enay
encyclopaedia
encyclopedia
encyclopædia
end
endbox
ended
enec
enem
enemay
enen
enep
eneray
energy
enfor
enga
engaw
engid
engkelan
england
english
enigma
enkowapi
enkuima
eno
enoay
enor
enot
enric
enrique
enske
entities
env
enver
envfunc
envfuncs
environment
environmental
eo
epah
epahan
epang
epic
epoc
epocay
epud
equals
er
eran
erdog
erec
erectus
eres
eric
eritrea
ernest
erose
error
es
esa
esamen
escapebrackets
esel
eselan
eses
esit
eske
eso
espan
especially
essebsi
estado
estimated
estimates
estonia
eswatini
et
eta
etal
etan
etanan
etanay
etay
etc
etec
etecay
etel
eten
eteng
etengaw
etep
etepay
ethiopia
ethnic
ethnicity
ethno
ethnologue
eti
etio
etioay
etip
etipan
etipay
eto
etolan
eu
euro
europa
europe
european
evaristo
everest
evidence
evo
evolution
example
excel
exist
existing
exists
expansion
expecttype
experiment
exporting
exports
extent
ey
eyanghualiw
eyanghuatan
f
fa
faay
facal
facebook
facidol
faco
fact
factbook
facts
fadadoki
fadahong
fadas
fadic
fadisoso
fadowac
faedet
faedetay
faelohay
faes
fafa
fafaed
fafaeday
fafahi
fafahian
fafahiya
fafahiyan
fafainay
fafalo
fafaw
fafokod
fafoy
fafuy
fah
fahal
faheka
fahol
fai
faihayan
fainawlan
fainay
fainayan
fakar
fakau
fakeciw
fakeloh
fakelohan
fakeroh
faki
fako
fakong
fal
fala
falad
falah
falanci
falang
falangaw
falangko
falanko
falantosu
falawfaw
falawfaway
falcon
fali
falic
falicen
falidas
faliyasan
faliyos
falklands
falo
faloay
faloco
falocu
falofalo
falohang
falohay
falongko
false
falu
falucu
famadihana
family
fan
fana
fanacadan
fanaw
fanawlan
fancalay
fang
fangafang
fangafangan
fangafangasan
fangcal
fangcalay
fanges
faniw
faniyot
faniypot
fanoh
fanter
fanuato
fao
farangaw
faransu
farc
fargs
faroco
fasil
faso
fata
fataan
fatad
father
fati
fattah
fatutaka
faure
faustin
fawahan
fayafay
fayez
fayfay
fayking
faylo
faz
fe
featured
feb
february
federal
federated
federati
federation
federico
fekeloh
felac
felaw
felih
felihen
felipe
female
fenek
fenekay
feng
fengbin
fenglin
fenla
fenlan
ferans
ferdinand
fernando
fetchvalue
few
feylipo
ff
fi
fiawtorowici
fica
fici
ficiay
fico
fidac
fidel
field
figures
fiji
fiko
fila
file
filikos
filip
filipe
filipin
filiping
filipir
filipo
filips
filo
finacada
finacadan
finacadn
finacalan
final
finalawan
finance
financial
finawaln
finawelan
finawlan
fincadan
find
finger
finlan
finland
finlex
fire
firnanto
first
fita
fitayr
fitinan
fitiriko
fitoka
fix
fiyafiyaw
fiyaw
flag
flickr
floor
florence
florida
fmargs
fmbox
fnacadan
fo
foan
fociyaw
foco
fodawan
fodfod
fodo
fohecalay
fohet
fohetingay
fois
fokefokelohan
fokeloh
fokelohan
fokelohay
fokes
fokil
foksi
fola
folad
foladan
folafolangan
folalacay
folamon
folangsowa
folimon
folis
folk
following
folo
folod
fololes
fololonsi
fon
fonak
fonga
fongoh
fonka
fonon
fonos
font
foo
food
foot
for
forad
forbes
force
forces
foreign
forest
format
formatdate
forster
fosil
fossiel
fossil
fossile
foting
fotingan
foto
fotod
found
foundation
four
fowa
foyfotina
foyin
fpo
frame
franc
france
francis
francisco
franciya
frank
franko
franso
fransu
franz
frasu
free
freedom
freiheitliche
french
frensu
friedensvertrag
friedrich
from
fruit
frutos
ft
fu
fuad
fuchs
fucien
fucu
fudafudak
fuhuahewu
fukid
fula
fulad
fulani
fulanso
fulansu
fuli
full
fullurl
fulufuluan
funafuti
function
functions
fund
furansu
futing
future
fuxing
g
ga
gabon
gabriel
gadu
gala
galasso
gali
gallery
gallus
gambia
garem
gas
gaulle
gbayang
gdp
ge
geingob
gelug
general
generate
generated
generates
genetics
genocide
geographic
geography
george
georgia
german
germanen
germani
germany
gesher
get
getargnums
getargs
getcurrenttitle
getem
getenvironment
getmodulewikitext
getnamespaceparameters
getparammappings
getparent
gets
gettitleobject
ghali
ghana
ghani
ghebbi
gibson
gilbert
gini
gion
giorgi
gitega
given
gje
gjorge
glenn
global
globe
gluban
gnaalu
gnassingbe
gni
gnis
gnp
go
gold
golden
golfe
gonzalez
google
got
gov
government
govpubs
gowryu
grabar
grand
grande
granger
great
greatbizz
greece
greek
green
greenland
greenwood
grey
gross
group
groups
growth
grybauskaite
grønland
gsub
guacanagarix
guadalcanal
guamikena
guangfu
guangfun
guanshan
guanxi
guatemala
guerra
guez
guguc
guide
guides
guillaume
guillermo
guine
guinea
guinness
gukut
gulf
gurbanguly
gurib
gustaf
guyana
guyane
gyelyong
h
ha
haanay
haboeh
habsburg
haca
hacecacecay
haci
haciliwan
hacining
hadahal
hadhad
hadhaday
hadi
hadidi
hadoc
haemin
haen
haenen
hafana
hafay
hafo
hagaparis
hage
hagia
hahecid
haherher
hai
haiduan
haien
haising
haiti
haitutuan
haji
haka
hakakaenen
hakal
hakalay
hakasi
hakelongen
hakhak
hakiya
hakowa
hakowaay
halafin
halafinay
halafing
halaka
halalan
halateng
half
hali
halifa
halifamoya
halikani
halinga
halis
hall
halo
halofali
halokilac
halokirok
halusipun
hamad
hamid
hamito
han
hana
hanaay
hananay
hananayay
hananayhaw
hananayi
hananom
hanany
hanay
hanbizan
hanca
hand
handbook
handler
haneknek
hani
hanira
hanko
hannanay
hano
hans
hant
hanto
hantu
haop
haoto
hapinang
hapinangen
hapospaw
happiest
hapuspaw
har
harakat
harald
harateng
haratengen
harawan
harbor
haris
harvard
has
hasa
hasan
hasapimaan
hasasowal
hashim
hasina
hasowal
hassan
hassanal
hata
hatala
hatatanaman
hatatanamen
hatatosa
hatay
hatini
hatiniay
hatira
hatiraay
hatiyatiyaay
hato
hatosa
have
haw
hawacay
hawai
hawaii
hawaiian
hawi
hawikiden
hawmi
hay
hayci
hayen
hayla
haysan
hayti
hbun
he
header
heading
headingfontsize
headingstyle
heads
health
heart
heca
hecad
hececay
hecek
heci
hekal
hekalan
hekalay
heku
helen
helper
hemay
hemek
hemhem
hen
henay
henen
heneng
heni
henli
henri
henry
heny
heping
hepote
her
herbert
here
herek
heritage
herna
hersi
herti
hery
herzegovina
hesaykowina
hewsen
hey
hi
hicera
hidden
hide
higgins
high
highest
highlands
higinio
higu
hikociw
hikoki
hikokiciw
hima
himoti
hinaker
hinatala
hindustani
hinoki
hirateng
his
histoire
historia
historic
historical
histories
history
historylink
hitay
hitler
hitora
hiyaa
hla
hnanay
ho
hoan
hoca
hofi
hofoc
hofocen
hokiya
holam
holan
hollande
holo
holyuci
homo
hon
honduras
hong
hongkong
hongti
hongtian
hongtolas
hongtolasu
hongyakuay
honi
honihoni
honolulu
honti
hontia
hontian
hontolas
hoper
hopkins
horac
horacio
horde
horizontal
hororok
horse
hosi
hoti
hotian
hotinan
hotnti
houphoue
house
housing
how
howa
howad
howak
hoxha
hoy
hoying
hrung
hrvata
hrvatska
hrvatske
hrvatski
hsinchu
htin
html
http
https
hu
huacuyong
huahewu
hualien
huan
hugh
hui
hulam
human
hungary
hunhungaz
huntington
hupu
husida
hussain
huwey
huy
huysoren
hwa
hwan
hwang
hyman
i
ia
iaikor
ian
iayaw
iayaway
iaz
ibedul
ibrahim
ibuh
ic
icang
icangay
ice
icel
icelan
iceland
icelay
icep
icepan
icepay
icifa
iciku
icilaay
icj
icon
icowa
icowaay
icowacowa
icowacowaay
icowacoway
id
ida
idan
idef
idefay
idek
iden
identity
idoc
idriss
ie
if
ifaloco
ifan
ifiyaway
ignoreblank
igor
ih
ihay
ihekal
ihekalay
ihownang
ihu
ii
iii
iikor
iikoray
iin
iing
iingkai
iingkay
iinkai
iinkay
ika
ikaka
ikakaay
ikakangan
ikalaloodan
ikaleponan
ikararem
ikatimol
ikatimolay
ikawali
ikawaliay
ike
iked
ikeday
ikemoday
ikes
ikesay
ikilis
ikiris
ikol
ikor
ikora
ikoray
ila
ilaay
ilako
ilaloma
ilalomaay
ilan
ilanaciropayciyang
ilang
ilasen
ilausan
ilawac
ilawaca
ilawacay
ilham
ilicapid
iliiya
ililian
ililiya
ilino
ilisapay
ilisin
ilisinan
ilising
ilo
ilol
iloma
ilopiya
im
image
imagecelldiv
imagecheckblank
imageemptycell
imageemptycellstyle
imageleft
imageleftcell
imageright
imagerightcell
imagerightnone
imaorod
imatini
imbox
imeng
imer
imeray
imeren
imf
imi
imolina
imperium
impic
implements
important
in
ina
inaan
inacilaay
inaneng
inanengay
inap
inay
inayan
inc
incing
include
included
includemetatable
includes
including
income
independence
independent
index
indexed
india
indian
indians
indigenous
indo
indonesia
industrial
influence
influences
info
information
ing
ingata
ingataay
ingay
ingce
ingwulo
inhabitant
ini
inian
ining
iniyan
iniyanhantu
iniyaro
inka
inkilis
inkiris
inko
inkolan
inli
inni
inorong
input
inrikyulo
insert
institute
institutions
integer
integration
intel
intelan
intelligence
interactive
internal
international
intian
intiya
into
intoc
intonisiya
intoyang
introduction
inuit
invalid
invalidtypeerror
invasion
investment
invoke
io
iohannis
ioji
ip
ipa
ipairs
ipapotal
ipapotalay
ipay
ipiliya
ipolong
ir
ira
iraaca
iraan
iraay
iraayay
iraayto
iraen
iraho
iraira
irairaay
irako
iraku
iran
irang
iranica
iranmeylek
iraq
iraraley
irasisa
iratay
irato
iray
irc
ire
ireland
iri
irian
iring
iro
iroji
iroma
iropiya
is
isa
isaac
isabel
isaetipan
isafa
isafaay
isaias
isak
isaka
isakakaay
isakatimol
isakatimolan
isakatimolay
isakawali
isakawalian
isakawaliay
isaktimol
isakwali
isakwaliay
isal
isalam
isalawacan
isalm
isan
isasifo
isatapangan
isawalian
isay
isayas
isbn
ise
ised
isi
isifo
ising
isingan
iska
isla
islam
islamic
islan
island
islands
islas
isnotempty
iso
isoay
isopiya
isoroku
israel
israil
issmall
issn
issoufou
issubpage
issubstituted
issue
issues
ista
istalkpage
istemplatepage
isu
it
ita
itad
itaihi
itali
italia
italiya
italiyokay
italy
itariya
itay
items
iterator
iti
itihi
itila
itini
itiniay
itinien
itinitiniay
itira
itiraan
itiraay
itiratiraay
itiray
itirray
ititiay
ititni
itiya
itiyaay
itiyaho
itiyato
itiyay
itni
ito
itra
its
ittiya
itu
itya
iu
iv
ivalino
ivan
ivanov
ivoire
ivory
iw
iwas
iwatan
iya
iyanghuaetan
iyo
iyok
iyong
izetbegovic
izukan
izzaddin
j
ja
jaber
jacob
jacques
jakarta
jamaica
james
jammeh
january
japan
japanese
jaragua
java
javanashir
jaza
je
jean
jerusalem
jewish
ji
jianshi
jigme
jimmy
jinfeng
jinping
jj
joa
joan
joe
john
johns
johnson
joko
jokowi
jonas
jonathan
jong
jonis
jordan
jose
josef
joseph
josip
journal
jovenel
jpg
juan
july
june
justice
justinianus
k
ka
kaa
kaacekan
kaadadaan
kaadihay
kaaledet
kaaloman
kaaluan
kaawa
kaaway
kabalelradhane
kabana
kabila
kabore
kabylie
kaca
kacacamol
kacacamolan
kacacefelisan
kacacofel
kacacofelan
kacacofelisan
kacacoli
kacakat
kacakatan
kacalemceman
kacalohan
kacalowayan
kacanglahan
kacango
kacar
kacaw
kacawan
kacedas
kacemahad
kacemahadan
kaci
kaciadada
kacidafong
kacidalay
kacifaloco
kaciferangan
kacifrangan
kaciheci
kacihecian
kaciherangan
kacinanom
kacingangan
kacipayso
kacipinang
kacipinangan
kaciriko
kacitodong
kaciwawa
kaciyaso
kacomaha
kacomahad
kacomikay
kacowat
kada
kadabuwang
kadademak
kadademakan
kadadico
kadado
kadadoedo
kadenga
kadengan
kadipongan
kaditek
kadofah
kadofahay
kaeca
kaedeng
kaeferan
kaemahay
kaemang
kaemangan
kaemangay
kaen
kaenen
kaenoay
kaeso
kaetip
kaetipay
kafa
kafafalic
kafafalifalic
kafafaw
kafahalan
kafahekaan
kafalawfaw
kafalic
kafalifalic
kafaliyosan
kafana
kafanaan
kafang
kafangafangan
kafangcal
kafanto
kafekang
kafesa
kafi
kafid
kafilo
kafodfodan
kafodo
kafohongay
kafokilan
kafolaw
kafolawan
kafos
kafoti
kagame
kahacecacecay
kahacecay
kahadakan
kahaehaeoan
kahakowa
kahalafin
kahaop
kahapinangan
kahatira
kahciday
kahecad
kahecalay
kaheceraan
kaheci
kahecid
kaheciday
kahemaway
kahemekan
kahenay
kahenayay
kahenganay
kahengang
kahengangay
kaherekan
kahetengay
kahetingay
kahiceraan
kahiko
kahilahila
kahinakeran
kahinapecan
kahirahira
kahirahiraan
kahiyang
kahkahoe
kahofoc
kahofocan
kai
kaidi
kaikaim
kaiki
kaikor
kaikur
kailisinan
kaimahan
kainaneng
kainisungan
kaira
kairaan
kaisya
kaitiraan
kaitiran
kaiyana
kaka
kakaay
kakacawan
kakaenan
kakaenen
kakafahekaan
kakafana
kakafikafit
kakafit
kakafitan
kakahad
kakahaday
kakahemekan
kakahi
kakak
kakakaka
kakaketon
kakaketona
kakaketonan
kakako
kakalimelaan
kakangodoan
kakaolahan
kakaomahen
kakapah
kakarayan
kakatalawan
kakawasan
kakawau
kakawaw
kakawit
kakay
kakaya
kakayaay
kakayaran
kakedalan
kakeman
kakerida
kakeridan
kaketon
kaketonan
kaki
kakiloma
kakita
kakitaan
kakitmol
kako
kakoma
kakomaen
kakomaenan
kakomodan
kakonah
kakopa
kakorot
kakowanen
kakridan
kaku
kakurut
kala
kalaallit
kalacecay
kalacecayan
kalacemceman
kalacongtong
kalacongtongan
kalacontong
kalaeno
kalafiyaw
kalahaay
kalahali
kalaheci
kalahecian
kalahedaw
kalahonti
kalahontian
kalakakeridan
kalakapot
kalakiin
kalakiing
kalakiingan
kalaklak
kalala
kalalacal
kalalaedan
kalalecad
kalali
kalalicay
kalalidetan
kalalifet
kalalifetan
kalalinah
kalalipoiingan
kalalitemohan
kalalitiliting
kalaliyangan
kalaliyol
kalaloma
kalalood
kalaloodan
kalaloodang
kalaluran
kalamikowanay
kalamkam
kalan
kalang
kalanga
kalapahe
kalapakoyoc
kalas
kalasafitayan
kalasal
kalasawad
kalasawara
kalasowal
kalasowalan
kalasowalen
kalata
kalatadrang
kalatamdaw
kalatapang
kalawidan
kalawidang
kalawlaan
kalecad
kalengaw
kaleno
kalepi
kaleponan
kaletengay
kali
kalibuan
kalic
kalifalo
kalifangar
kalifoniya
kalifotan
kaliki
kaliko
kalikuda
kalilima
kalimantan
kalimelaan
kalimud
kalingadan
kalingangan
kalingko
kalingkoay
kalingku
kalingwaen
kalinko
kaliomahan
kaliomahay
kalipahakan
kalisahan
kalisaot
kalisepat
kalita
kalitang
kaliteng
kalito
kalitolo
kalitosa
kaliwkiway
kaliyalaway
kaliyawan
kaljulaid
kalo
kaloakitakit
kalocalay
kalodafong
kalodemak
kalofinacadan
kalokanatal
kalokapuk
kalokelon
kalokitakit
kalolin
kaloma
kalomaamaan
kalomaan
kalomahad
kalomanmaan
kalomaoc
kalomaocan
kalomihecaan
kalomowad
kalomowadan
kalong
kalongocan
kaloniyaro
kalopangang
kalopangangan
kaloparanaan
kalopi
kalopisak
kalopitahidang
kaloromi
kalos
kalosakowan
kalosapili
kalosowal
kalotamdaw
kalotamdawan
kalotayal
kalotong
kalowan
kalu
kaluluwan
kalʉvʉnga
kamalo
kamaomahan
kamaro
kamaroan
kamatini
kamawmahan
kamay
kamayan
kamcing
kamehameha
kami
kamihamiha
kaminu
kamiron
kamisatu
kamo
kamok
kamoko
kamolengawan
kamoraw
kamoro
kamu
kana
kanada
kanadun
kanahcian
kanahikoan
kanakanavu
kanaloa
kanaluk
kananaman
kanao
kanas
kanasal
kanata
kanatal
kanatalan
kanatalay
kanatanatal
kanatanatalan
kanca
kandaway
kang
kanga
kangdaw
kangdaway
kangkang
kangko
kangkofo
kangodoan
kangsayposiong
kangtan
kani
kanian
kanikaran
kanikaw
kanko
kano
kanpiya
kanpociya
kantang
kao
kaociaso
kaociyaso
kaocong
kaohsiung
kaolah
kaolahan
kaorira
kapah
kapahay
kapakapah
kapalay
kapaliso
kapalitan
kapanan
kapapolong
kapatay
kapatayan
kapeleng
kapifalic
kaping
kapinta
kapisiiked
kapolong
kapolonga
kapolongan
kapolonganisi
kapolongankayki
kapon
kapong
kapot
kapoto
kapowa
kapu
kaput
kara
karabakh
karafawfawan
karamemedesane
kararaay
kararamod
kararemay
kararimaan
karasapalan
karatayalay
karawraw
karawrawan
karayan
karcayi
karengawan
karengrengan
karenoan
kareteng
karetengay
kari
karihaday
karikec
karilo
karimoco
karipi
karipunan
karkaren
karo
karomadiwan
karomakat
karomakatan
karopaw
karopaway
karopi
karopiriyar
karoroan
kartiya
karulos
karutis
karzai
kasa
kasaan
kasacalay
kasacecacecay
kasacecay
kasacefang
kasacinowas
kasaco
kasacoelisan
kasadak
kasadakan
kasadefadefak
kasado
kasaetal
kasafaco
kasafalifalic
kasafelaw
kasafinacadan
kasafiyaw
kasafodfod
kasahefong
kasahira
kasahirahira
kasaikeiked
kasakakafit
kasakapingan
kasakapot
kasakilac
kasakitakit
kasala
kasalaed
kasalala
kasalaloma
kasalawinawina
kasalekad
kasalin
kasaliyaliyad
kasamaan
kasanawsawan
kasangasaw
kasaniyaniyaro
kasaniyaro
kasaniyaroaro
kasaniyarona
kasaopo
kasaopoan
kasapecih
kasarayray
kasarekad
kasarekarekad
kasarocorocokan
kasaroma
kasaromaroma
kasasa
kasaselal
kasasi
kasasifod
kasasiiked
kasasikiked
kasasili
kasasilomaloma
kasasilsil
kasasiroma
kasasiromaroma
kasasitelak
kasasitelek
kasasiwasiw
kasasiyol
kasaso
kasasowal
kasasowalan
kasasowasowalan
kasata
kasatiwtiw
kasato
kasatongasod
kasavakan
kasenengan
kasi
kasienawan
kasiiked
kasiikedan
kasipon
kasiromaroma
kasiyol
kaso
kasofocan
kasolin
kasoling
kasongila
kasonol
kasonolan
kasopedan
kasowalen
kasoy
kaspi
kasuga
kasuzu
kata
katacomoli
katadamaan
katadamaanan
katahiraan
katakaraw
katakitatan
katalahekal
katalaw
katalawan
katangasaan
katanka
katar
katasan
katata
katatekoan
katatelek
katatelekan
katati
katatiih
katatiihan
katatilidan
katatipul
katatodong
katatoker
katatongotongod
katayal
katayalan
katayaln
katayan
katayni
kataynian
katayra
katayraan
katefad
katekop
katekopan
katelang
katelangan
katelangay
katelian
katenak
katenakan
katenek
katengilan
kathmandu
katimo
katimol
katimolan
katimolay
kato
katomireng
katomirengan
katongal
katongalan
katop
kau
kaua
kaulahan
kava
kavalan
kaviyangan
kaw
kawabata
kawakawas
kawakawasan
kawal
kawali
kawalian
kawaliay
kawaliwali
kawanan
kawananay
kawanatanga
kawas
kawasan
kawbu
kawciaso
kawciyaso
kawili
kawiliay
kay
kaya
kayakay
kayana
kayer
kayi
kaying
kayki
kayoing
kaysa
kaysawite
kaysin
kaysing
kaysiya
kaysiyaan
kaysya
kaytoaw
kayu
kayway
kazakhstan
kazangiljan
kb
kbaqeh
kdusan
ke
kebalan
kecor
kedal
kefing
kei
keke
keleng
kelifulan
kelimiya
kelit
keliw
keloer
kemkemen
kemod
kemoday
kenaw
keniya
kenpo
kenuy
kenya
kenyatta
kerid
keridan
keriden
kerismas
keristo
keristokiw
keriyol
kero
keroer
kershew
kersti
keter
keton
key
keyhole
keys
khalifa
khama
khan
khesar
khpan
khu
ki
kia
kicai
kicay
kicic
kicik
kiciwa
kiemel
kietecay
kiev
kievan
kifetol
kifetolay
kifros
kifu
kigali
kihar
kihaw
kihepic
kihepicay
kiin
kiing
kiir
kika
kikai
kikay
kiking
kiko
kiku
kilac
kilakilang
kilakilangan
kilan
kilang
kilangkilangan
kilemel
kilemelay
kilimen
kiliw
killing
kilo
kilok
kiloma
kilong
kim
kimad
kimi
kimolmol
kimolmolay
kimooday
kimpo
kin
kina
kinacecay
kinafalah
kinahirahira
kinaira
kinairaira
kinalima
kinanoka
kinapinapina
kinapinapinaay
kinatolo
kinatosa
kinayiman
kinayra
kincac
kincal
king
kingcal
kingdalruwane
kingdom
kingkiw
kingko
kingr
kini
kinian
kinilukuljan
kining
kinis
kiniya
kiniyan
kinkay
kinko
kinpo
kinsipakotan
kinulane
kinus
kinyawpan
kiokay
kiosanto
kira
kiraan
kiradom
kirami
kirarom
kirche
kiribati
kiring
kiripas
kiripat
kiripot
kirir
kirisito
kirisiya
kiristo
kirisya
kirkko
kirok
kirto
kiska
kiskeya
kiso
kisu
kisya
kisyafa
kita
kitaki
kitakit
kitakita
kitakitakit
kitakitan
kitakti
kitarovic
kitiraan
kitkit
kito
kitoh
kiw
kiwiko
kiwit
kiwkai
kiwkay
kiwsanto
kiwyiko
kiya
kiyam
kiyari
kiyasafa
kiyif
kiyoiku
kiyokai
kiyokay
kiyosanto
kiyumi
klaus
kling
km
kmt
kmuyaw
knaziy
knbung
kngungu
knlibu
known
knownflag
ko
kobah
koco
kocong
kodaitay
kodasing
kodefetay
kodic
koen
koengel
koengelay
koetengay
kofa
kofi
kofo
kohaw
kohecal
kohecalay
kohecaly
kohecay
koheting
kohetingay
kohkoh
kohkohan
koin
kok
koke
koko
kokong
kol
kolado
kolan
kolang
kolas
koleto
koli
kolimiya
kolinda
kolinla
kolinlan
kolistofo
koliyol
koliyolpakayni
kolompiya
kolompo
kolong
kolonpiya
kolonpo
kolonti
koma
komaen
komaenay
komaylong
komi
komis
komo
komod
komong
komoris
kompay
komuin
komuing
kona
konan
konferenz
kong
konga
kongangan
kongce
kongciye
kongfen
konghetang
kongko
kongli
konglin
kongo
koni
konialaan
konian
konini
koninian
konis
konko
kono
konpawloy
konrote
kontay
kopacifo
kopi
kopid
kopifara
kopitahidang
koppen
kor
kora
korah
korapaw
korea
korean
koreng
korior
korira
koriya
koroasiya
koroaysiya
korociya
koroma
korompo
koror
kororato
korpaciyafo
korto
kortowa
kosang
kosi
kosofo
kosovo
kosowal
kosta
kotakit
koto
kotonu
kowa
kowan
kowang
kowapin
kowaping
kowfa
koya
koyana
koycaw
koying
koyo
kramay
kremlin
krieg
krismas
kristo
kristoan
kristoay
kru
kslala
ksunu
ku
kua
kuabar
kuala
kuan
kuang
kuangka
kuatimala
kucapungane
kucu
kuczynski
kudrengere
kuerci
kuheni
kuko
kuku
kukung
kuli
kulit
kuljaljau
kulu
kulul
kumi
kuna
kungadavane
kungce
kungku
kungkung
kuni
kunigaiks
kunis
kunisan
kunos
kunuan
kuo
kupa
kupas
kupiko
kurani
kurgyzstan
kurismas
kus
kusunuki
kutakanal
kutancuyong
kutu
kuwahapii
kuwait
kuwakanakalikos
kuwaoing
kuwapin
kuwaping
kuwapingsowal
kuwarani
kuwatimala
kuxan
kuya
kuyu
kwan
kwang
kwaping
kwo
kya
kyaw
kyo
kyoiku
kyokai
kyokay
kyosanto
kyrgyzstan
kyu
kzyay
kıbrıs
l
la
labi
labor
labuwan
lac
lacaan
lacecay
lacemcem
lacihaka
lacihakan
lacinowas
laco
lacodad
laday
laed
laedis
laeno
laenoay
lafa
lafang
lafi
lafii
lafin
lagje
lagoenriquillodr
lahaw
lahecai
laheci
lahecien
lahedaw
laheman
lahengangay
lahod
lahoday
lahodayay
lahok
laidazuan
laiyi
laka
lakapot
lakaw
lake
lakelal
lakelawen
laklak
lala
lalabu
lalakan
lalamod
lalan
lalat
lalatak
lalauran
lalauya
lalawacan
lalekeleke
laleko
lalekoan
lalen
lalengatan
lalengawan
lali
laliavan
lalifet
lalik
lalima
lalimaay
lalinah
lalinik
lalinikay
lalitemoh
laliting
laliw
laliyangen
laloma
lalomaan
lalomaay
lalomay
lalood
laloodan
lalosidan
lalotolotokan
lalowadan
laluma
lalumaang
lamal
lamelo
laminazellen
lamit
lamuan
lan
land
landscape
lang
langas
langasan
langdaway
langiwngiw
langod
langto
language
languages
langues
lanka
lanngdun
lansana
lanyu
laood
laos
lapas
lapis
laplapen
lapolan
lapolata
lapot
lapulata
larawraw
larengatan
larepaq
large
las
lasawad
laso
last
lasutan
lata
latak
latama
latek
latiih
latin
latowiya
latter
latvia
laulauzan
lavulan
law
lawac
lawacay
lawaen
laway
lawl
lawla
lawlaw
lay
laya
layen
layer
laylay
laypiroya
lazily
ldc
ldcs
le
lea
lead
leader
leaders
least
leaves
lebanon
lecad
ledef
left
legacy
legal
legatum
legend
lekad
lekakaw
lekakawa
lekal
lekalen
lekapot
lekatep
lekatepay
lemed
lemiyau
len
lengac
lengat
lengaw
lenlen
leonard
leone
leopold
lerman
lesa
lesotho
leste
letsie
letters
leung
levels
levene
lewis
li
lia
liawpito
liberia
libraries
library
libraryutil
libu
libya
licay
license
lici
licikay
lidaw
liechtenstein
lien
lienhopaw
lierman
lietuvos
life
lifes
lifok
lifon
lifong
light
lihaf
lihay
liholiho
likakawa
likat
likau
likavung
like
likec
likem
likid
likisi
likoniya
likuda
lilang
lilengawan
lili
lilis
lilisay
liliuokalani
liliwkalani
lima
limaay
limaw
limecedan
limit
limoloay
lin
linah
linahan
linahen
linay
line
lingacay
lingatu
linguistics
linheko
linhoko
linin
link
linkala
linkbox
linkclasses
linken
links
linksdata
linkuang
lino
linpa
lintokin
lio
liomah
liomahan
lipahak
lipahakay
lipanen
lipay
lipiliya
lipiya
lipoiin
lipoiing
lipoin
lipoing
liqeni
lise
lisin
lislis
lisong
lisopa
lispen
list
listtotext
litapangan
litawan
liteng
litengan
lithuania
litowsk
litu
lituania
liw
liwliko
lix
liyad
liyal
liyan
liyar
liyas
liyawen
liyok
liyokay
ljetopis
ljiljana
lkuxan
llyung
lo
load
loaddata
loaded
loanta
local
locang
location
lodewijk
lofang
lofoc
lohay
lohok
lois
lokasinko
lokedaw
lokot
lolang
lolo
lolol
lolong
lolood
lolotok
lolotokan
loma
lomahad
lomaloma
lomaoc
lomaocan
lomaocay
lomengaw
lomowad
lonan
london
lonen
long
longoc
lono
lonok
lonpati
lonsdale
lonta
lonton
lood
looden
look
lopis
lopulin
los
losay
losid
losinpaw
loss
lost
lotawfu
loto
lotok
lotokay
lotolotkan
lotolotok
lotolotokan
lotong
lotuma
louis
louise
lourenc
love
low
lowad
lowan
lowanen
lower
lowitin
lripay
lt
lu
lua
luaargs
luanta
ludja
ludwig
luhung
luis
lukashenko
luko
lula
luluna
luma
lungu
lupakatj
lupo
lurman
lusid
lutuk
lutulutukan
luxembourg
luye
lwan
lwax
ly
lyu
lıq
m
ma
maa
maadah
maala
maalaay
maalay
maamaan
maaman
maan
maanen
maaro
mabana
mabanaay
mabanan
mabatuan
mabekac
mabekacay
mabuwakay
macacafi
macacaliw
macacamol
macacamolay
macaco
macacofelay
macacoli
macacolicoli
macacorok
macaer
macahiway
macakar
macakat
macakatay
macalap
macaloh
macangal
macara
macaran
macat
macau
macedas
macedonia
macedonian
macedonians
macekel
macelak
macelakay
macelal
macemahad
macepet
maceror
machine
maci
macidemay
macikayay
macikcik
macirep
maciton
maciwlo
macky
macmillan
maco
macodahay
macokacok
macoker
macomahad
macowat
macri
mada
madado
madadoedo
madagascar
madagasikara
madaljalu
madama
madapong
madawdaw
made
mademet
madeng
madenga
madipot
mado
madoka
maduka
madukaay
maduro
maedef
maeden
maedeng
maeferay
maemin
maepod
mafa
mafadi
mafail
mafali
mafalic
mafalicay
mafaliyos
mafana
mafanaay
mafasaw
mafelih
mafitelak
mafkacay
mafodfod
mafokil
mafokilay
mafolaw
mafolaway
mafolkok
maforaw
maforaway
mafoti
mafulaw
mafuti
magnus
magua
maguana
magufuli
magyarorsza
maha
mahadak
mahadefek
mahadefekay
mahadoyay
mahaen
mahaenay
mahahop
mahai
mahakelong
mahamadou
mahaneknek
mahaop
mahaopay
mahapinang
mahapinangan
mahapinangay
mahapingan
maharateng
mahavun
mahawikid
mahayda
mahayhayay
mahayi
maheca
mahecad
mahecaday
mahelek
mahemek
mahemhemay
mahengheng
mahenghengan
mahera
maherek
mahetec
mahinakeray
mahiniyay
mahod
mahofoc
mahofocay
mahop
mahoracay
mahrek
mai
maia
maibagah
maifor
main
maincat
mainnsname
maithripala
majia
major
maka
makadkad
makadofa
makadofah
makaen
makaenay
makafana
makahacecayay
makakafit
makakafitay
makakaketon
makakecor
makaketon
makal
makala
makalifataday
makalitoloay
makalitosa
makalitosaay
makapah
makapahay
makari
makarkar
makarkaray
makat
makatay
makatelang
makatimul
makawali
makayni
makazayazaya
make
makecategorylink
makedalay
makedonija
makeerror
makeinvokefunc
makeinvokefunction
makera
makeraay
makerah
makero
makes
makestartboxdata
makestartboxlinksdata
maketer
maketingay
maketon
maketoolbar
makeurllink
makewikilink
makewrapper
makgadikgadi
maki
makikaka
makila
makilalima
makilatolo
makilatosa
makilim
makilomot
makinatolo
making
makira
mako
makomod
makorahay
makos
makota
makotaay
makotay
makowan
makowanay
makowangay
makrahay
maku
makutaay
mala
malabang
malacafay
malacafayay
malacalayay
malacecaay
malacecay
malacecayay
malacefang
malaci
malacinowas
malacinowasay
malacongli
malacongton
malacongtong
malacongtongay
malacontong
maladacay
malafa
malafadesay
malafi
malafiyaw
malafiyaway
malafokelohay
malagasy
malahad
malahakelong
malaheci
malaheciay
malahedaw
malahedaway
malaholo
malahongti
malahonti
malahontiay
malahuk
malaingid
malaingiday
malaita
malakahiceraan
malakaka
malakakaay
malakakeridan
malakakitaan
malakangkofoay
malakapah
malakapahay
malakapot
malakapotay
malakaretengay
malakasi
malakiin
malakiing
malakiingay
malakincac
malakitakit
malakitingay
malaklak
malakoli
malakoliay
malala
malalacal
malaladof
malalahod
malalais
malalamod
malalang
malalat
malalekatep
malalekatepay
malalen
malalenay
malali
malalicay
malalid
malaliday
malalifelifet
malalifet
malalifetay
malalikel
malalikid
malalima
malalinah
malalinalinah
malalipoiing
malalisanay
malalitemoh
malalitilitingay
malalitingay
malaliyangay
malaliyas
malaliyaw
malalo
malalok
malalokay
malalomaocay
malalood
malalooday
malaloong
malamama
malami
malamicongacongay
malamicongcongay
malamicowatan
malamikomoday
malamikotoday
malamikowanan
malamikowanay
malananemay
malananom
malanga
malangangan
malangtoay
malanikowanan
malaniyahpikowan
malapacarcaray
malapadiyac
malapala
malapecih
malapi
malaplap
malapot
malarahod
malarocok
malasa
malasaka
malasakaay
malasakacecay
malasakakaay
malasakalasawad
malasakowan
malasang
malasapaiyo
malasarakatay
malasawad
malasawara
malasifoan
malasintayhua
malasofitay
malasong
malasowalay
malata
malatakaraway
malatamdaw
malatapang
malatapangay
malatata
malatayhiay
malato
malatolo
malatosaay
malavi
malawaay
malawacoay
malawi
malawidang
malawidangay
malawinaay
malawisay
malay
malaya
malayap
malayi
malayo
malaysia
malaysiya
malayta
malcolm
maldives
malecad
malecaday
malecapu
maledep
maledo
malekaka
malekakaay
malekal
malekateapay
malekatep
malekatepay
malemed
malemeday
malenak
malenakay
maleneng
malengat
malengaw
malengaway
malenlen
malepa
malepon
malepong
maley
mali
malian
maliangay
malifawa
malifong
malikaka
malikakaay
malikatolo
malikelon
malikid
malikoda
malikowatay
malikuda
malilisay
malilitay
malilo
malina
malinah
malinahay
malingad
malingaday
malingato
malingatu
malinke
malinso
malio
malipahak
malipalaw
maliposak
malisiya
maliso
malitemoh
malitemohay
malitengay
malitolo
malitoloay
malitosa
malitosaay
maliwang
maliya
maliyana
maliyang
maliyangay
maliyokay
maliyol
maljipa
maljivel
malo
malocecay
malofic
malokaka
malokakaenen
malokelon
malokitakitan
malolol
malolos
malomicowatan
malonem
malood
malooday
malopiresapan
malopisak
malosaka
malosakarikec
malosakatayal
malosera
maloso
malosowal
malotahapinangan
malowad
malowaid
malowan
malowanay
malowid
malowiday
malta
malu
malukacuk
malysiya
mama
mamaala
mamaan
mamafilo
mamahavunna
mamahofoc
mamala
mamalacecay
mamalahongti
mamalahonti
mamalakakeridan
mamalakiing
mamalatapang
mamalowid
mamamamangay
maman
mamang
mamanga
mamangay
mamaomah
mamapatay
mamarengreng
mamatayal
mamelaw
mami
mamidama
mamidemak
mamidotoc
mamifelih
mamikadafo
mamikadafu
mamikantok
mamikapot
mamikerid
mamikowan
mamipa
mamirocok
mamisa
mamisanga
mamiselal
mamisimaw
mamitopa
mamnoon
mamo
mamoko
man
mana
manaay
mananam
mananigay
manaop
manay
manayat
maneneng
manengneng
manengnengay
mang
manga
mangaay
mangaayay
mangacun
mangalay
mangaled
mangalef
mangalefay
mangata
mangataay
mangay
mangcel
mangcelan
mangilosay
mangodo
mangoyangoy
mangrove
mangta
manikaw
manikaway
manila
manmaan
mansa
mansur
manta
mantinko
manuayr
manuel
manus
manzhou
maocor
maohay
maolah
maolahay
maoli
maolin
maomah
maomahay
maorad
maori
maorip
maoripay
maoro
maosaw
maosaway
maosoy
map
mapa
mapacakat
mapacekil
mapaci
mapacok
mapacomod
mapacomoday
mapadama
mapadang
mapadenga
mapades
mapadesay
mapado
mapafa
mapahapinang
mapaini
mapakafit
mapakanengneng
mapakohac
mapakokot
mapakonira
mapakoniraay
mapalacecay
mapalaheci
mapalahedaw
mapalasawad
mapalasawaday
mapalasawd
mapalemed
mapalepon
mapaliso
mapalit
mapalitay
mapaloay
mapalolol
mapaloma
mapalomaay
mapalosiyangay
mapalowad
mapangangan
mapanokay
mapapadang
mapapadangay
mapapecih
mapapolong
mapapolongay
maparariday
mapararoyay
maparayray
maparitay
maparo
mapasadak
mapasadakay
mapasifana
mapatalahekal
mapatangic
mapatateko
mapatatiko
mapatay
mapatayan
mapatayay
mapateko
mapateli
mapatenak
mapaterep
mapatidi
mapatireng
mapatirengay
mapatongal
mapatoro
mapatorod
mapawpaw
mapawpaway
mapecih
mapecoh
mapedped
mapeleng
mapelengay
mapenec
mapi
mapidah
mapili
mapinko
mapiyas
mapolong
mapolongay
mapolosi
mapping
mappings
mappingskey
mappingsnsname
mappingsordered
maps
mar
mara
maraay
maraayay
marad
marafafitafadan
marakrak
marakt
maramoday
maramramay
marang
maraod
marapot
marapotay
marara
mararamod
mararamoday
marari
mararid
marariday
mararo
mararom
maratar
marawisay
marawod
marawraw
marayaray
marayray
marc
marcelo
march
marchia
marecaday
marecep
marengreng
marengrengay
marenoay
margaret
margrethe
marguments
margvelashvili
mari
maria
maribasi
marie
marikec
marine
marino
mario
mariya
mark
market
maro
maroay
marocek
marocekay
marocok
marohem
marohemay
maroray
marorok
marosan
marsal
marshall
marti
martin
maru
mary
masa
masacascasay
masacecay
masacecayay
masacefangay
masadafdafay
masadak
masadakay
masadangahay
masadasdasay
masado
masafa
masafaco
masafaliling
masafanaway
masafaniyotay
masafeleng
masahadhaday
masahapinang
masahefohefongay
masakakahad
masakanatanatal
masakapah
masakapot
masakapotay
masakaratay
masakero
masakeroay
masakilac
masalof
masaloyol
masamaamaa
masamaamaan
masamaamaanay
masamaan
masamaanay
masamanay
masamasaan
masamatini
masamato
masamihecaan
masamihecan
masamo
masang
masanga
masaniyaro
masano
masao
masaopo
masaopoay
masapangcah
masapangcahay
masaparoday
masapinang
masapinangay
masaroma
masasa
masaselal
masaselalay
masasi
masasifod
masasiiked
masasiikeday
masasikakay
masasiliyol
masasinga
masasiolah
masasiroma
masasiromaay
masasiromaroma
masasiromaromaay
masasiromaromay
masasitelek
masasiwtoc
masaso
masasonga
masasowal
masasuwal
masatamdaw
masatapoloay
masataporoay
masawad
masaysay
maselenay
masera
maserer
masi
masiay
masidayay
masiiked
masiikeday
masilid
masilsil
masinanot
masinanotay
masinghalan
masisi
masitoban
masiwar
masiwaray
maso
masofoc
masofocay
masolot
masomad
masongila
masoni
masonol
masonolay
masoped
masowal
masowalay
masra
mass
masuhuaz
masum
masumuwad
masyalo
masyalu
masylo
mat
mata
matabalay
matadim
mataelif
matafesiw
matafesiway
matahepo
matahepoay
matahidang
matahtah
matakaray
matakaska
matakaskar
mataker
matalahekal
matalaw
mataliyok
mataliyokay
matalocay
matama
matamaay
matan
mataneng
matanengay
matang
matangtang
matanki
matapi
mataraw
mataring
mataringay
matata
matatama
matatanga
matatangaay
matatapal
matateko
matatekoay
matatekopay
matatifacay
matatilid
matating
matatodong
matatodongay
matatoker
matatongod
matatood
matatoor
matatootoor
matawal
matawalay
matayal
matayalay
matayaray
matayoay
match
matches
matchesblacklist
matedal
matefad
matefaday
matefoc
matekop
matelangay
matelek
matelengay
mateli
mateliya
matena
matenak
matenakay
matenes
matengil
matengilay
matepek
materek
materekay
math
mati
matikeda
matilaay
matilid
matiliday
mating
matini
matiniay
matiniyay
matira
matireng
matiya
matiyaay
mato
matoa
matoasay
matodoh
matodohay
matokitok
matomes
matongal
matongalay
matongalmatongal
matoor
matoro
mattarella
matu
matuasay
maulah
mauricio
mauritania
mauritius
mauritus
mawli
mawmah
mawmahay
max
maxarg
may
maya
mayamayam
mayardit
mayaw
maybalay
mayhuman
mayl
maylubung
maymay
maysang
maysangan
maytayax
mb
mbasogo
mbox
mcfarland
mcwilliams
md
me
medicine
medina
mediterranean
meeting
meets
mel
melawan
melukux
member
members
memoized
memorial
mepuwal
mercosur
merge
mergeargs
message
messagebox
messagename
messages
met
meta
metaargs
metaargskey
metadata
metapay
metatable
metuiy
metz
mexico
mh
mheca
mi
miadah
miadingay
miala
mialaan
mialaay
mianingaya
miaoli
miaray
miaro
miasik
mibuting
mica
micadiwayay
micakay
micalap
micaliw
micaliwan
micamol
micedem
micekeroh
micekiw
micekiway
micelem
miceli
micepetay
miceror
michael
michel
michelena
michelle
mici
micidek
micidekay
micikcik
micingcingan
micista
miciyan
mico
micoker
micokeray
micolo
micomahad
micomod
micomoday
micomodto
micongacong
micongacongay
micoroh
micorohay
micowat
micowatan
micowatay
micronesia
micu
micuwat
mid
mida
midama
midamaay
midangoy
midapdapay
midateng
midayhyoway
middle
midefong
midemak
midemakan
midemakay
midengaay
midipangay
midipot
midipotay
mido
midoedo
midongec
midotoc
midotocay
midudu
miebaway
mien
mientin
mifahfah
mifalah
mifalahay
mifalic
mifalicay
mifana
mifater
mifekes
mifelih
mifelihan
mifelihay
mifohat
mifoing
mifolaw
mifoting
mifotingay
mifuting
mifutingay
might
migration
miguel
mih
mihaca
mihacaan
mihadidi
mihaenan
mihafalatay
mihahinahinamay
mihahinamay
mihai
mihaian
mihaiay
mihailofu
mihakelong
mihalaka
mihalakaan
mihalalaka
mihamham
mihamhamay
mihantay
mihantayay
mihaop
mihaopay
mihapinang
mihapiw
mihapiwan
miharateng
miharatengan
mihatatanam
mihawikid
mihawikidan
mihay
mihayan
mihayda
mihaydaay
mihayi
mihayian
mihayiay
mihca
mihcaan
mihea
miheaan
miheca
mihecaan
mihecaheca
mihecahecaan
mihecahecan
mihecan
miherek
mihidefong
mihifalat
mihinam
mihinamay
mihirateng
mihofoc
miholol
mihololay
mihomong
mihoped
mihwca
miilisin
miingid
miingiday
mikacaway
mikadabo
mikadkad
mikadot
mikaenan
mikafit
mikafitay
mikakarkaray
mikakinkiway
mikalakomodan
mikalang
mikali
mikalic
mikalicay
mikangi
mikangkang
mikangyi
mikantokay
mikapet
mikapolongan
mikapot
mikapotay
mikari
mikarkar
mikarkaran
mikasalaloma
mikasoy
mikawit
mikayat
mikayki
mikaykic
mikedecay
mikelet
mikelonisiya
mikemkem
mikerah
mikerid
mikeridan
mikeriday
mikesi
miketon
miketonan
miketonay
miki
mikicocom
mikihamon
mikihatiya
mikihatiyaay
mikikaka
mikikiw
mikilang
mikilim
mikingkiw
mikingkiwan
mikingkiway
mikinkiw
mikinkiway
mikipalapalaay
mikirosiyaay
mikitado
mikiteked
mikitira
mikiwkiway
mikokot
mikomod
mikomoday
mikomoris
mikong
mikonling
mikor
mikorkor
mikoronisiya
mikosang
mikotay
mikotod
mikotoday
mikowan
mikowanan
mikowanany
mikowanay
mikowang
mikronisya
mikuir
mikulonisya
mila
milacal
miladis
milaheci
milaheciay
milakal
milakec
milakelaway
milakowit
milaladay
milalang
milalangay
milaliw
milaliway
milanisiya
milanisya
milaplap
milaup
milawla
milayap
milays
milecad
milecaday
milecinuwasay
milekal
milekalay
milengatay
milepel
milepon
miletaes
miletek
mili
milicay
milifet
milifetan
milikakawa
mililafang
mililecay
mililim
mililis
mililisay
milimek
milimekay
milina
milinah
milingato
milingwaay
milinikay
milipahak
milipaysoay
milisin
milislisay
militafad
militangal
military
miliwalay
miliyad
miliyang
miliyangay
miliyas
miliyasay
miliyaw
miliyawan
miliyaway
million
milo
miloko
milolol
milololay
milongoc
milonok
milonokay
milood
milos
milowan
milowanay
mimaan
mimaliay
mimelaw
mimiday
miming
mimingay
min
mina
minaayay
minami
minan
minanam
minanaman
minanayan
minanom
minaon
minato
minco
mincotang
mincu
minengneg
minengneng
minengnengay
minengnengho
ming
mingangan
minganganay
mingata
mingataay
mingayaw
mingodo
miniature
mining
minister
ministry
miniyahpikowan
minkuko
minokay
minokayay
minorities
minority
minowad
minse
minsk
mintin
mintis
mintuyu
minukay
miocor
miocoran
mipa
mipacafay
mipacaholak
mipacakat
mipacakay
mipacamol
mipacamolan
mipaci
mipaciciay
mipacing
mipaco
mipacoli
mipacomod
mipacomodan
mipadafo
mipadama
mipadang
mipadangay
mipadeng
mipafeliay
mipahapinang
mipaka
mipakaen
mipakaenay
mipala
mipalafang
mipalafangay
mipalalan
mipalasawad
mipaliwal
mipaliwalay
mipaloma
mipalomaan
mipalomaay
mipalosiyan
mipalowad
mipamatang
mipana
mipanay
mipangangan
mipanganganay
mipanokayan
miparakomod
miparatohay
miparayray
mipariri
miparo
mipasadak
mipasadakay
mipasifana
mipaso
mipatado
mipatadoan
mipatalahekal
mipatateko
mipatatodong
mipatay
mipatayan
mipatayay
mipatenak
mipatenakay
mipatikeday
mipatireng
mipatirengan
mipatirengay
mipatiyamay
mipatokeled
mipatorod
mipawacay
mipawacayay
mipawali
mipaypayay
mipececay
mipecih
mipecoh
mipekpek
mipeleng
mipenec
mipi
mipidipot
mipili
mipitpitan
mipitpitay
mipodpod
mipolongan
mipolongay
mir
mira
miraayay
miradom
mirakarakay
mirakat
miraod
miraoy
miraoyay
mirarakat
mirarakatay
mirawod
mirawraw
mirecaday
mirecep
mirecepay
mireko
miresap
miri
mirikec
mirina
miriniay
miripa
mirocok
mirocokay
miropay
mirror
mirrorsummary
mirrorurl
mirziyoyev
misa
misaadihay
misacekocekod
misacepo
misacikacikay
misadadahal
misadita
misafa
misafacoay
misafaeloh
misafaelohan
misafaloco
misafangcal
misafel
misafodawan
misafonon
misahakhak
misahalaka
misaharateng
misaharatengan
misaheto
misahinahinamay
misahinamay
misaiiked
misaiked
misaikeday
misair
misakakahad
misakakinih
misakakinihay
misakalafi
misakapah
misakapotay
misakayakay
misakeristoay
misakero
misakeru
misakilac
misakilangay
misakilikilim
misakohaw
misakoli
misakristoay
misakuli
misakuwapingay
misakyosantoay
misalafang
misalalan
misalama
misalamaay
misalemad
misalisin
misaliyaliyaw
misalof
misaloma
misamangahay
misamsam
misang
misanga
misangaan
misangaay
misaomah
misaopo
misapades
misapancahay
misapangcahay
misapifelihaw
misapinang
misaromi
misasa
misaselal
misasiiked
misasimaway
misasiraw
misasolapay
misatapang
misatapangay
misatataday
misatefosay
misateked
misatekeday
misatimolay
misato
misatokayay
misatoron
misawacoay
misawad
misawaday
misawidang
misawidangay
misawkit
misawkitay
misawsaw
misdeal
misedef
miselal
miselalay
misengar
miserer
misetek
misetikay
misi
misier
misiied
misiiked
misiikedan
misiikeday
misikiliw
misikitangay
misiko
misilsil
misilsilan
misilsilay
misimaway
misimsim
misingkiw
misingkiway
misinkiw
misinkiwan
misinkiway
misisipi
misitapang
misiwar
misiwatiday
misiyakay
misko
miso
misododay
misolap
misolapay
misolinga
misongila
misoped
misopeday
misowalan
misuayaw
mita
mitadem
mitademay
mitadipi
mitadipiay
mitaelif
mitafa
mitafokoday
mitahepoan
mitahepoay
mitahidang
mitahidangay
mitakaw
mitakaway
mitaker
mitakus
mitala
mitaliyok
mitaliyokay
mitamako
mitamek
mitanam
mitangic
mitangtang
mitao
mitapal
mitapi
mitatoy
mitatoyay
mitayal
mitayalan
mitayalay
mitayhiyoway
mitedal
mitedalay
mitefad
mitefocay
miteka
miteked
mitekeday
miteker
mitekoay
mitekop
mitelek
mitelekay
miteli
mitena
mitengil
mitenooy
mitepar
miti
mitidapi
mitilid
mitilidan
mitiliday
mitis
mitisil
mitiso
mitiya
mitiyol
mito
mitodoh
mitodohay
mitodongay
mitokeleday
mitoker
mitokeray
mitokiay
mitolikan
mitolon
mitomadaw
mitongal
mitongalay
mitoor
mitooray
mitopa
mitopaay
mitoro
mituur
miwakawak
miwakay
miwaray
miwarayay
miwikwik
miwikwikan
miwikwikay
miyam
miyamay
miyen
miyien
miyientin
mizuhu
mkibuhw
mklapay
mkmatuy
mknahuy
mkslaq
mksuzing
mkzihing
mm
mo
moamahay
moasito
mocelay
mociyoir
mocratique
modern
modesto
module
modules
modulewikitext
moecelay
moetep
mogadishu
mohamed
mohammed
mohanmot
moi
moist
mokala
moki
mokirasi
molalis
molataw
molawiya
moldova
molefot
molengaw
molengaway
moli
molis
moloho
molomon
moment
momkala
momok
momtonikoro
mon
monaco
monating
monciyala
mondo
mone
monetary
mongol
mongolia
moni
monitor
monkala
monkara
monko
monkolo
monkosto
monroe
monrosiyuki
montaniya
montay
montenegro
montinikoro
montonikoro
mopakarat
mopaynimalama
morales
moraraw
more
moresby
mori
mornos
morocan
morocco
moroko
mortality
mosaic
moscow
mosi
mosiko
mosko
moslin
mosolini
mosque
most
moto
mouchoir
mount
mountains
move
movement
moveprot
mowa
mozambique
mparatorlug
mpla
mprotectionbanner
mpu
mr
mrmurak
msg
mshared
mswati
mt
mtabletools
mu
muan
mudan
mug
mugabe
mughliyah
muhammadu
muhanmoto
muheca
muk
mukherjee
muktepay
mula
mulatu
mulinaga
muliyaw
multiple
mupasoko
murisaka
musa
museum
museveni
music
muslim
muslin
must
mutharika
muxtar
mw
my
myan
myanmar
myawan
n
na
naca
naci
nacional
nacitoic
nacui
nadan
nafenekan
nagorno
nahani
nahaop
nahyan
nai
naifaloco
naihunpu
naij
naikoran
naira
naitiya
naka
nakahara
nakahila
nakamayan
nakanu
nakaw
nakawrira
nakenelan
nako
nakorno
nalacolan
nalikay
naloma
nama
namahaen
namaka
namal
namalacecay
namalacongtong
namalaplap
namalowid
namangicngicay
namasia
namatahepo
name
named
names
namespace
namespaces
namgyel
nami
namib
namibia
namikowan
namin
namipiya
namisan
namisatapang
namo
nan
nana
nanam
nananomen
nanay
nanengnengan
nang
nangan
nanges
nangnisalu
nangra
nani
nanicowacowaay
nanitini
nanitiniay
nanitira
naniwac
naniwali
naniyaro
nano
nanom
nanoman
nanomay
nanonanoman
nanoto
nanoya
nanoyanan
nansiku
nansirafo
nanslafo
nantayang
nanti
nantingkel
nantou
nanu
nanum
nanzhuang
nao
napole
napolon
nara
naradiw
narakatan
naripa
narowan
nasa
nasaan
nasicifan
naslafo
nataoran
natauran
natawran
natayalan
nation
national
nationalism
nationalities
nationalrat
nationalsozialistische
nations
nationsencyclopedia
native
nato
natural
nature
nau
nauru
naw
nawhan
nawhani
nawhany
nawiro
naxc
nay
nayciliya
nayo
nchez
ncipe
nd
ndez
ne
near
necessary
need
negative
neiba
neighbors
nem
nemnem
nengneng
nengnengan
nengnengen
nepal
nepali
nest
net
netherlands
nevis
new
newline
news
next
nez
ng
nga
ngaay
ngafol
ngala
ngalef
nganga
ngangan
ngangasawan
ngangihaw
ngani
nganra
ngara
ngarngar
ngaro
ngaroan
ngasaw
ngata
ngataay
ngayngay
ngela
ngiha
ngingra
ngo
ngoc
ngodo
ngoso
ngoyos
ngoyosay
ngudra
nguema
nguesso
ngunpa
ngurus
ni
nia
niacaan
niae
nialaan
nian
niaro
nicaliwan
nicaragua
nicholas
niciliya
nicocoan
nicokaan
nicola
nicowatan
nicowatay
nidamaan
nidemakan
nieto
nifalican
nifana
nifotingan
niger
nigeria
nightingale
nigo
nigra
nihaenan
nihakelongan
nihakerongan
niharatengan
nihawikidan
nihayian
niheca
nihopedan
niinisto
niira
nika
nikacaay
nikaenan
nikafana
nikafinawlan
nikaira
nikala
nikalatamdaw
nikalecad
nikalopisak
nikaolila
nikaorip
nikaorira
nikapades
nikapolong
nikapolongan
nikar
nikarakuwa
nikarkaran
nikasaniyaru
nikasasowalan
nikaw
nikawitan
nikawria
nikawrira
nikeridan
niketonan
nikimadan
nikingkiwan
nikola
nikolic
nikonisan
nikotay
nikowan
nikowanan
nil
nila
nilalangan
nilargs
nilargskey
nilawrira
nile
nilekal
nilepelan
nili
nilingadan
nima
nimanima
nin
nina
ninengnengan
ningra
nini
ninian
ninokaan
niocoran
nipa
nipacomodan
nipafelian
nipafitingan
nipahadakan
nipahafayan
nipahepoan
nipaka
nipakaenan
nipalafang
nipaliwalan
nipaliwalay
nipalolol
nipaloma
nipalomaan
nipalomaay
nipangangan
nipanganganan
nipasadakan
nipasasotiri
nipasifana
nipatatekoan
nipatayan
nipatekoan
nipatenakay
nipatireng
nipatirengan
nipecihan
nipi
nipifalic
nipili
nipiluwan
nipisafel
nipo
nipol
nira
nirakatan
nirako
niraratan
nirayrayan
niru
nisa
nisafacoan
nisafalo
nisafaloco
nisaharatengan
nisanga
nisangaan
nisapangaan
nisaromaan
nisateked
nisatekedan
nisatekeday
nishani
nisi
nisimsim
nisinkiwan
nisofocan
nisopedan
nisowalan
nitahepoan
nitakayama
nitaliyokan
nitayal
nitayalan
nitilidan
nitiliday
nito
nitodohan
nitoro
niw
niwcila
niwcilan
niwkiniya
niwpuriteng
niwsilan
niwyok
niya
niyah
niyahan
niyahay
niyahpikowan
niyahsakowan
niyalo
niyam
niyan
niyao
niyar
niyaro
niyaroan
niyaroaro
niyaru
nkurunziza
no
noacimo
noafilika
noasiya
nobel
nobelprize
nocat
nocikiw
noheni
noising
nokaen
nokan
nokay
nokitakit
nomita
non
nona
nonas
none
noni
nonini
noniyah
nonotimolan
noo
noosiniya
nopacomodan
nopil
nopir
nora
norberto
normandy
nornor
norodom
norte
north
northern
norway
norwi
nos
not
note
notes
notice
notifying
notimolan
notimolay
noto
notomolan
nov
novel
november
novo
now
nowalian
nowiy
noya
noyanan
noyoropi
ns
nscategory
nsid
nsname
nstable
nsvals
nu
nueva
nui
num
number
numbered
numbers
numita
numparam
nums
nun
nuna
nunaat
nunavut
nyusi
o
obiang
obj
object
objects
obyvatel
oc
oca
ocay
occupation
ocean
oceania
ocia
ociya
oclc
oco
ocor
ocoren
oct
october
od
odad
odal
odang
odax
odeng
odengan
odo
odot
odotay
oecd
of
ofad
ofadan
ofang
off
office
official
oficial
ofoay
often
ogonek
oh
oha
ohay
ohong
oil
ois
ok
okak
okakay
okang
okusto
okuwato
ol
ola
olacay
olah
olahan
olalip
olan
olanta
olasyo
olata
olaw
olaway
olay
old
olic
olicay
olid
oliday
olilip
olimpiko
olip
olive
olocisailiyi
oloma
olu
olympic
om
omaan
omah
omahay
omamiala
oman
omaomahan
omar
omargs
ombox
on
ona
onani
once
ondimba
one
onefala
oneglia
oner
ong
ongan
ongay
ongcoy
ongcoyan
ongcoyongcoyan
ongoyan
ongto
oni
onian
onika
onini
oninian
online
only
ono
onsing
ontario
onto
ontokay
oo
op
opakarongay
opama
opec
openstreetmap
opera
opi
opih
opinion
opium
opiyito
opo
opoan
opoay
opold
oponoho
option
options
or
ora
orad
oradan
oraday
orama
oran
oranan
orang
orar
orasa
orasak
orasaka
orasio
oraway
oray
orcoya
ord
order
org
organisation
organization
ori
oria
oricoya
oriental
orientalis
orig
origargs
origin
original
origins
orip
oripan
oripaw
oripay
orira
orirw
orlando
oro
oroma
oromaroma
oromasato
orong
ortega
ortho
orthodox
orthographic
orto
os
osaw
osawan
osaway
osay
oscar
osce
osi
osian
osiay
osien
osiniya
osman
ostarri
ostorariya
ostros
ot
otan
otay
oten
oteng
other
otherwise
otip
otoc
otofay
otoman
otong
ouaga
ouagadougou
ouattara
ould
our
out
outlook
output
outputbox
outstr
over
overview
overwritten
owac
owak
owal
owang
oway
oxford
oxygen
oy
oya
oyaan
oyan
oyanan
oyrusu
p
pa
paadahen
pablo
pabuisan
paca
pacafay
pacakat
pacakaten
pacakay
pacakayay
pacalcal
pacalina
pacamol
pacamolen
pacantin
pacarcar
pacarcaran
pacarcaray
pacavalj
pacecay
pacedengen
pacefaday
pacefafay
pacefong
pacekis
pacekok
pacemahad
pacemen
pacemotay
pacena
paci
pacici
pacidal
pacific
pacikang
pacimil
pacimir
pacocoay
pacocok
pacoli
pacomahad
pacomod
pacomodan
pacomoden
pact
pacuya
pada
padahof
padaka
padama
padamaay
padatengan
padding
pades
padeteng
padiyac
pado
padrangigrang
padudu
paeno
paeonia
pafaliya
pafaloco
pafeli
pafelien
pafesotay
pafili
pafilongan
page
pagename
pageobject
pages
pagetitle
pagetype
pagetypee
pagos
pah
pahai
pahama
pahanhan
pahanhanan
pahapinang
pahapinangan
paheci
paheku
paherek
paherekan
pahicelaan
pahicera
pahiceraan
pahikokian
pahikukian
pahko
pahoda
pahor
pahpah
pai
paifaloco
pailasan
paini
painian
painiay
painien
pairs
paising
paisingan
paiteked
paitekeday
paitemek
paiwan
paka
pakaala
pakaalaay
pakademec
pakadungdung
pakaen
pakaenay
pakaenen
pakafana
pakafilo
pakafit
pakahadidi
pakaheraay
pakaini
pakainiay
pakaka
pakakaay
pakala
pakalaheciay
pakalalinikay
pakalawisan
pakalayap
pakalifet
pakalongay
pakalowid
pakalowiday
pakamaro
pakanaliay
pakanengneng
pakani
pakaolah
pakapi
pakara
pakarongay
pakasaw
pakaso
pakasowal
pakatahira
pakatama
pakatamina
pakatayal
pakatengil
pakatengilay
pakatimul
pakawali
pakawas
pakayi
pakayni
pakayniay
pakaynien
pakayra
pakayraan
pakelang
pakerang
paki
pakido
pakifo
pakilac
pakilacen
pakimad
pakinali
pakinaliay
pakipunka
pakiraan
pakiraen
pakisaka
pakisici
pakistan
pakitinien
pako
pakokot
pakomod
pakongko
pakonira
pakoniraay
pakoniyah
pakotang
pakoyoc
pakoyocay
pakurung
pakwari
pala
palaan
palaay
palacecay
palacecayen
palaciro
palafadesay
palafang
palafangay
palafoay
palahad
palaheci
palakaw
palakawas
palakecay
palakoli
palakolien
palakoy
palakui
palakuy
palalak
palalan
palalanay
palalenen
palalid
palalifet
palalifetan
palaliyasay
palaliyaw
palamitan
palapala
palapalaan
palapalaay
palapalan
palapatan
palasa
palasawad
palasawaden
palata
palatamdaw
palatoh
palatohay
palau
palaw
palayapay
palecad
palecaden
palemed
paleolithic
palgrave
pali
palidaw
paliding
palikoay
palilam
palimo
palin
palinkaan
palitemek
paliten
paliwal
paliwalan
paliwalay
paliwan
paliyas
paliyasen
paliyaw
paljur
palo
palociwaay
palolol
paloma
palomaan
palonanay
palosiyang
palosyangay
palowad
palowaday
palowid
palu
paluma
palumaan
paluwad
pamatang
pamatangay
pan
pana
panahay
panali
panama
pananom
pananoman
panay
pancah
pancu
pang
panga
panganga
pangangan
panganganay
panganganen
pangarep
pangca
pangcah
pangcapangcahan
pangcay
pangiha
pangkalatis
pangkiw
pangko
panglien
pangpang
pangsya
pangwi
panital
paniyaro
paniyaru
panokay
panoniya
panorama
panto
paocoren
paokaliya
paoli
paongaongan
paoripay
papa
papah
papakayra
papakoniranira
papali
papapolong
papasayra
papasifana
papaysoay
papaysoen
papelo
papelu
papeluway
papi
papicomod
papifahfah
papiforaw
papikowan
papiliyaw
papina
papinanam
papinang
papinapina
papisakuli
papisalof
papisanga
papising
papitilid
papito
papitoay
papo
papolo
papolong
paporowici
papota
papotal
papotalay
papotaray
papua
papuaniwkiniya
papulu
paputa
papuwaniwkini
papuwaniwkiniya
paqiy
par
para
paraguay
parahoday
parakat
parakatay
parakuay
param
parameter
parameternames
parameters
params
paran
parana
paranaan
pararamod
pararid
parariday
pararir
paratoh
paratohay
parayapay
parayray
paremiad
parengreng
parent
pargs
pari
paridaw
paridrayan
parihaday
parihadayay
parik
pariko
parin
pariri
paris
parish
parius
pariwan
park
parkan
parliament
paro
parocek
parod
parok
paromi
paror
part
partei
parti
parts
party
parupu
parur
pasa
pasacecay
pasadak
pasadakan
pasadakay
pasadaken
pasado
pasaetip
pasakapotay
pasaliyad
pasalong
pasanga
pasaopo
pasasa
pasasela
pasasi
pasasitiri
pasasotili
pasasotiri
pasata
pasatimol
pasawali
pasawalian
pasawaliay
pasayniay
pasayra
pasayraay
pasebana
pasela
pasetek
pasi
pasicowa
pasietip
pasifana
pasiiked
pasika
pasikau
pasikawanan
pasikawananay
pasilaeno
pasing
pasinto
pasipapotal
pasir
pasisi
pasitimol
pasitira
pasitiraan
pasitiraay
pasiwali
paso
pasonol
pasowal
pasowalay
paspi
pass
passed
pasu
pasubana
pasumaq
pasuwal
pasyso
pataheka
patahekal
patahtah
patahtahay
patala
patalahekal
patalaw
patalehekal
pataloma
pataminaan
patangsol
pataroday
patata
patatanga
patateko
patatekoan
patatekoay
patatekoen
patatiko
patatikol
patatikor
patatili
patatodong
patatodongan
patatodongen
patatudung
patawlinan
patay
patayen
patayni
patayniay
patayra
patayraen
patedo
patefoc
patek
patekan
patekenan
pateko
patekoan
patelas
pateli
patelian
patelien
patenak
patenakay
patengil
paterep
paterungan
patihiay
patiko
patikol
patikolen
patikor
patikowal
patikul
patileng
patilid
patinako
patinakoan
patinakoen
patinakohan
patingso
patiren
patireng
patirengan
patirengay
patirengen
patiyamay
pato
patodong
patodongan
patodongay
patodongen
patokeled
patokitok
patomaliway
patonekan
patong
patongal
patoor
patooray
patoro
patorod
patorodan
patoroden
patoror
patosi
patosok
patosokan
patrice
patterns
patudung
paudadan
paul
paulo
paumeli
pavlopoulos
pawacay
pawawaay
pawciliya
pawciyaliya
pawciyar
pawli
pawlo
pawpaw
pawti
pay
paya
paycancin
paycantin
paycatin
payce
payci
paylang
payljus
payniyaru
payoros
payrang
payrayran
payrayrang
paysin
payso
paysoan
paysu
paytemek
payuwan
paywan
payworos
paywors
pcall
pdf
pe
peace
peak
pearl
pecih
pecihan
pecihay
pecihen
pecihkanatal
pedro
pekus
peleng
pen
penang
peninsula
people
peoples
per
percentage
perceptions
percival
period
perm
permanent
persian
perspectives
pertuan
peru
perustuslaki
peter
petro
petroleum
peylon
pez
philibert
philip
philippe
philippines
phnom
photograph
photos
pi
piala
pialaan
piaray
piata
piawniya
pibutingan
picara
picelem
piceleman
piciaya
picin
picingen
piciosa
pico
picodadan
picoka
picokaymas
picoker
picoloh
picomod
picomodan
picowat
picuwana
pida
pidama
pidemak
pidemakan
pidenga
pidimo
pidipot
pido
pidoedoan
piepinyang
pierre
pifalah
pifalic
pifelih
pifoting
pifotingan
pihaceng
pihadefek
pihai
pihakelong
pihaop
pihapinang
pihapinangan
pihapiw
piharateng
pihatatanam
pihatatanaman
pihawikid
pihay
pihayda
pihayi
pihidefong
pihinen
pihirateng
pihiratengan
pihololan
pihongyako
piilisin
piilisinan
piingid
pikacawan
pikadafuan
pikadkad
pikafitan
pikaikian
pikal
pikalat
pikali
pikalican
pikapot
pikari
pikarkar
pikarkaran
pikaykian
pikecoran
pikedec
pikerid
piketon
piki
pikihar
pikihatiya
pikilim
pikiloma
pikingkiw
pikiningan
pikitoh
pikomod
pikonglin
pikonglinan
pikonlingan
pikowan
pikowanan
pila
pilafinan
pilaikian
pilalalang
pilalang
pilekal
pili
pilicay
pilicu
pilifet
pilimekan
pilinah
piling
pilipayan
pilisata
pilisi
pilisinan
piliso
pilisu
pilisuan
piliyas
piliyaw
pilolol
pilongoc
pilood
pimutos
pin
pina
pinaangan
pinaay
pinalangaw
pinalengaw
pinaloma
pinan
pinanam
pinanaman
pinanay
pinang
pinangan
pinanom
pinanowan
pinanowang
pinapi
pinapina
pinasanga
pinaski
pinatodoh
pinatodohan
pinengneng
pinengnengan
pinfang
ping
pingayaw
pingodo
pingsiyang
pingtung
pining
pinocito
pinokay
pinokayan
pintan
piocor
pipa
pipacoli
pipacomod
pipadahof
pipadama
pipadang
pipades
pipahapinang
pipahosoan
pipaini
pipaisingan
pipakacidalan
pipakaenan
pipakafana
pipakiyaw
pipalafangan
pipalasawad
pipalecad
pipalitan
pipaliwal
pipaliwalan
pipaloma
pipalomaan
pipalowad
pipanayan
pipangangan
pipanokay
pipapelo
pipariri
piparoan
pipasadak
pipasadakan
pipasifana
pipaso
pipateli
pipatenak
pipaterep
pipatiked
pipatireng
pipawacay
pipaypayan
pipenec
piperok
pipolong
pipolongan
pirahekad
pirakat
pirakatan
piraoy
pirecep
pirecepan
pireko
piresapan
piri
pirikec
pirnato
piro
pirocok
pirofoan
piroyla
piru
pirwote
pisa
pisacacak
pisacepo
pisafaloco
pisahapinang
pisakakahad
pisakakinih
pisakilac
pisalaan
pisalama
pisalamaan
pisalaman
pisalemed
pisalifong
pisalisin
pisalisinan
pisaliyad
pisalof
pisamsam
pisanamal
pisanga
pisaopoan
pisapala
pisarafar
pisaramaan
pisaroma
pisatapang
pisatapangan
pisawad
pisawadan
pisawidang
pisawkit
pisawkitan
pisawsaw
pisetek
pisetekan
pisiied
pisiiked
pisiikedan
pisikitangan
pisilsil
pisinanot
pising
pisingkiw
pisingkiwan
pisinkiw
pisinkiwan
pisirian
pisitalaan
pisiwar
pisiwfay
pisiyakayan
piskola
piso
pisolap
pisolot
pisongila
pisopedan
pita
pitademan
pitadipi
pitahidang
pitaker
pitakod
pitanaman
pitangtang
pitapi
pitayal
piteked
pitelian
pitengil
piti
pitilid
pitilidan
pitiri
pitiro
pitiya
pitlidan
pito
pitoay
pitoker
pitolas
pitolon
pitongal
pitoooran
pitoor
pitooran
pitopa
pitopi
pitoran
pitoro
pitu
pituay
piwikwik
piwma
piyako
piyaway
piyoma
piyoxo
piyuma
pl
place
placenames
plagiomnium
plainlinks
plalan
plan
plata
please
plmwan
plurinacional
pmc
pmid
pn
png
pnguu
pntype
po
pocana
pocin
pociya
poco
pocok
podac
podle
podpoden
poer
pohe
poinos
poinosayris
pokanta
pokinafaso
pokirna
pokotan
pokpok
polaciro
polako
polan
poland
polar
polasa
polata
pole
poli
policy
polifiya
polin
polinisiya
polinisya
poliparu
polipiya
polisto
political
politics
poliwa
poll
polng
polo
poloco
polol
pololan
polon
polong
polongan
polongen
polosi
poloti
polotihay
polotiriyar
poluko
polutiniyo
polutokaru
polynesia
polynesian
pona
ponaway
pongkang
pongodan
ponka
pono
ponong
pookuwan
popor
popular
population
por
poracir
poraciro
porimiser
porkina
poro
porokaru
poroshenko
poroti
port
portal
porto
portokaro
portokaru
portrait
portugal
porutokaru
pos
posi
posimiya
posiniya
posinto
position
posko
posong
posongay
possible
post
potal
potapis
potapiso
potasay
potatao
potato
potawya
potipot
potofolika
potokaru
potori
potoriko
poverty
povijest
powani
power
powers
pp
ppt
pr
pranab
pratan
pravoslavnaja
praz
prb
pre
prea
preca
prefixedtext
prehistory
preliminary
preload
present
presentation
president
presidente
presidential
press
preview
previously
pri
prince
princess
princeton
principe
print
printblurb
printtitle
prize
processing
product
production
proffer
profile
programme
project
projection
prokopis
prokudin
prospects
protected
protection
protectionlevels
protocol
provided
province
provinces
pt
ptireng
pu
public
publications
publique
published
publishers
publishing
pucili
pucunug
pudaw
pudun
puerto
pukinafaso
pukpuk
pulan
puljekuwan
puljetji
pulongti
pulu
pungudan
punka
punto
puracilu
puracir
purge
purposes
pusi
pusong
pusung
putal
putan
putawya
putin
puyuma
px
pyahaw
pyanan
pyasan
q
qa
qaboos
qalang
qalipusungan
qaljapang
qaljecim
qapedang
qapu
qapuciu
qara
qarabag
qas
qatar
qatu
qba
qehuy
qesem
qmocyan
qnau
qnragan
qolu
qowgan
qoyaw
qphay
qrahu
qramay
qu
quang
quatoriale
que
quebec
queen
quisqueya
quri
qus
quwis
qux
quzi
qwayux
qyuws
r
ra
raay
race
racemcem
radac
radama
radev
radiw
rafael
rafikul
raga
rahaw
rahmon
rahod
rahodan
rahoday
rahodayay
rahu
raimonds
rainivoninahitriniony
rajaonarimampianina
raka
rakar
rakarakaan
rakarakan
rakat
rakaten
rakyat
rama
ramod
ranafalona
ranavalona
rangay
rangi
ranikay
rapa
rapanui
rapid
raporata
rara
raraay
raracan
rarakan
rarakaten
raramod
raraw
rarawraw
raraya
raremay
rarid
rarikor
rarikoray
rarocokan
rarokoh
rarom
raroma
rasoherina
rasohirina
ratama
rate
ratoh
rau
raul
ravenala
raw
rawang
rawraw
ray
raya
rayaray
raynifoninahiteliniawni
raynifoninahiteliniawnian
rayray
raysinay
razana
rcito
rdc
rdoba
re
real
realm
reason
rebelo
reburial
recep
record
records
rectangle
red
redetay
referendum
regexp
regexps
region
regional
regions
reich
rekad
rekat
relations
release
religion
religions
religious
remadiw
remengesau
remes
remi
remiad
removeblanks
removes
ren
renderstartbox
renderstartboxlinks
rengaw
rengawan
rengorengosa
rengorengosan
rengos
rengosan
report
reports
reprint
repu
republic
republics
republika
republike
require
res
rescue
research
resident
resource
respublika
respublikası
result
results
ret
retrieved
return
returns
reuters
reuven
revealed
review
revision
revolution
ri
ria
rica
riccardi
richard
rico
ride
rifo
riga
right
rights
rihaday
rihadayay
rihom
rika
rikec
rikis
rikisi
riko
rikor
rimi
rimowad
rinahem
rio
rip
ripon
riponan
ripong
ripun
riri
riris
ritecay
river
rivlin
riwang
riya
riyad
riyal
riyar
riyaran
riyaray
riyariyaran
riyaro
rk
ro
road
roald
robert
roc
roch
rock
rocok
rocokan
rodri
rodrigo
rokansko
roke
roma
romaan
romaay
romadiw
romadiway
romakat
roman
romania
romaniya
romanum
romaroma
romasato
romi
romiad
romo
romu
rongo
roniron
room
root
rorang
roray
ros
rosi
rosid
rosiya
rosofo
rossiyska
rosu
rosya
rote
rotrikis
rouhani
routledge
row
rowan
rowis
roy
royal
royaume
roymonto
roytin
rs
ru
ruak
ruba
rudolf
ruisui
rukai
ruku
rulakes
ruma
rumakat
rumen
rumi
rumiad
run
runa
russell
russia
russian
ruysuy
ruz
rwanda
ryohen
rʉhlʉcʉ
s
sa
saadihay
saadihayay
saalomanay
saalumanay
saamisan
saan
saanay
saawaay
saayaway
sabah
sabaw
saca
sacaay
sacecay
sacengel
sacepo
saci
sacifaloco
sacipaysoay
sacisowal
sackih
sacocok
sacomod
sada
sadak
sadaksanay
sadama
sademaken
sadipongan
sadipot
sado
sadoa
sadr
sadu
saenger
saetip
saetipan
safa
safaay
safak
safalat
safaled
safana
safang
safangcal
safangcalay
safasafa
safatad
safaw
safeleng
safi
safitay
safulo
sagaran
sahala
sahalafinay
sahara
saharakat
saheto
sahetoay
saho
sahto
sahtu
sai
said
saiked
saiko
saikor
saikoray
saiku
sailoh
sainokay
saint
saipayso
sak
saka
sakaadihay
sakaawa
sakaay
sakaca
sakacaaw
sakacaay
sakacakat
sakaceay
sakacecay
sakacemahad
sakaci
sakaciadada
sakacingangan
sakacipinang
sakacitodong
sakacomahad
sakadadama
sakadademak
sakadat
sakadenga
sakadiheko
sakaenem
sakaetip
sakaetipay
sakafalo
sakafana
sakafangcal
sakaforifor
sakaira
sakaka
sakakaay
sakakahad
sakakahaday
sakakalamkamaw
sakakapah
sakakay
sakakinacecay
sakakinatolo
sakakinatos
sakakinatosa
sakakinih
sakala
sakalacecay
sakalacecayaw
sakalacongtong
sakalaheci
sakalahedaw
sakalahoday
sakalali
sakalalifet
sakalalinah
sakalalood
sakali
sakalima
sakalingad
sakalipahak
sakalowan
sakamaomah
sakamatini
sakamo
sakamoetep
sakamoto
sakanga
sakangaay
sakangayaw
sakaorip
sakapahay
sakapalal
sakapapadang
sakapatay
sakapatayaw
sakapisiikedaw
sakapito
sakapolongan
sakapot
sakarakat
sakaranikay
sakararid
sakarihaday
sakaromakat
sakartvelo
sakasaan
sakasasowal
sakasepat
sakasiikedaw
sakasiwa
sakatadamaan
sakatanektek
sakatayal
sakatayra
sakatefad
sakatimol
sakatimolan
sakatimolay
sakatolo
sakatos
sakatosa
sakatulu
sakatusa
sakavakat
sakawaian
sakawali
sakawalian
sakawaliay
sakawaliwalian
sakay
sakcecay
sake
sakero
saki
sakiarawan
sakidademaken
sakiikor
sakiilisin
sakilacen
sakilaya
sakilisin
sakiliyok
sakimatiniay
sakinatosa
sakinengneng
sakiomah
sakipapotal
sakipayso
sakisici
sakiso
sakitamdaw
sakitatirengan
sakitayal
sakitini
sakizaya
sako
sakodepa
sakohaw
sakohawen
sakololay
sakora
sakowam
sakowan
saktimol
saktosa
sakuhan
sakur
sakusong
sakwali
sakwalian
sala
salafi
salafii
salafo
salaloma
salama
salawacan
salawinawina
salawyie
salayiefo
sali
salifet
salifong
salikaka
salikolay
salikulay
salil
salinliw
saliomah
salipahak
salisin
salitek
salitung
sall
salman
salo
salofolofoc
salong
salongac
salongan
salongoc
salongocay
saltanat
salva
salvador
sama
samaamaanay
samaamaanen
samaan
samaanay
samaanen
samana
samanen
samanikaway
samanta
samapangangan
samasa
samatelangay
samatiya
samato
samba
same
sami
samimingay
samisimisi
samoa
samoro
sampilaw
samuluh
samur
san
sanaay
sananay
sanany
sanasay
sanaw
sanay
sandbox
sandboxes
sandboxlinks
sandboxpreload
sandboxtitle
sandimen
sanga
sangasaw
sangfota
sangpiya
sangsangdeb
sangtana
saniyaro
sanmito
sano
sanokoltoay
sanoyanan
sansaru
sanskrit
santa
santiago
santilla
santo
santos
sao
saocor
saona
saop
saopen
saopo
saopoen
saowac
saowacan
sap
sapa
sapacefad
sapacikay
sapad
sapadang
sapaini
sapaising
sapaiyo
sapaka
sapakaen
sapakaolah
sapakining
sapakonira
sapal
sapalafang
sapalemed
sapalimo
sapaliwal
sapaloma
sapaluma
sapangangan
sapanocay
saparakat
sapasasela
sapasubana
sapat
sapatala
sapatefoc
sapaterep
sapatinako
sapatireng
sapato
sapawacay
sapi
sapiadah
sapicacak
sapicaliwa
sapicekiw
sapicemahad
sapico
sapicomahad
sapicowataw
sapidama
sapidemak
sapidipot
sapidipotaw
sapifalic
sapifalicaw
sapifelih
sapifelihaw
sapifolaw
sapifoting
sapihpih
sapiikedaw
sapikapotaw
sapikilim
sapikimad
sapikining
sapikowan
sapikowanaw
sapikpik
sapilaheciaw
sapilalat
sapili
sapilifet
sapiliyas
sapiliyasaw
sapiliyawaw
sapilood
sapiloodaw
sapimaan
sapimanmaan
sapina
sapinang
sapipa
sapipalasawad
sapipalasawadaw
sapipalowadaw
sapipanokayaw
sapipasifana
sapipatay
sapipatikoaw
sapipatireng
sapipatirengaw
sapiri
sapisa
sapisahakhak
sapisalama
sapisalisin
sapisalof
sapisaloma
sapisanamal
sapisang
sapisanga
sapisawidang
sapisekong
sapisiiked
sapisiikedan
sapisiikedaw
sapisikedaw
sapisongila
sapitahepo
sapitaker
sapitakeraw
sapitangtang
sapitedalaw
sapitekeraw
sapitekkoaw
sapitekoaw
sapiterekaw
sapitilid
sapitokeraw
sapitolon
sapitongalaw
sapiwama
saponis
saptaker
sara
sarad
sarajevo
sarakarakat
sarakat
sarakatay
saranawan
sarara
sarawa
sarawak
sargsyan
sarikec
sarikoray
saripa
sariwsiw
sarocod
saromi
sarraj
sars
saruc
sarwato
sasa
sasafa
sasafaay
sasafodawanen
sasalamaan
sasalamaen
sasaljak
sasan
sasanga
sasarad
sasasezeman
sasawaden
saselalan
sasepat
sasepatay
sasera
sasi
sasifo
sasifoan
sasifoay
sasifosifod
sasifu
sasimalen
sasimawen
sasing
sasingaran
sasiroma
sasiwa
sasiyol
saso
sasonien
sasowalan
sasowalen
sasra
sassou
sata
satadamaan
satadamaanay
satakaraway
satapang
satapangan
satapangay
satata
satatiihay
satatosa
satefo
satelangay
satellite
sateloteloay
satikotiko
satimalan
satimol
satimolan
satimolay
satimulan
sato
satoko
satopa
satu
saudi
sauli
saunpi
savarin
saviki
savimbi
saw
sawa
sawad
sawaden
sawaeran
sawali
sawalian
sawaliay
sawaliyan
sawanengan
sawara
sawarak
sawi
sawkit
sawli
sawna
say
sayercu
sayerwiya
sayfan
sayie
sayin
saylasi
saylaya
sayliw
sayniciyar
saypankang
saypulolo
saypuruso
sayrco
sayrwiya
saysaloniki
saysay
saysiya
saysiyat
saytaw
saywirwiya
saywirya
sbox
sbunaw
scarecrow
schengen
schengener
schlacht
school
science
scientific
scitiya
scott
scribunto
se
sea
search
sebastian
second
secondary
secretary
sect
section
secularism
security
sedak
sedeng
see
seediq
seen
sefi
sekal
sekalay
sekantinawiya
seki
sela
selafo
selafu
selal
selc
self
selftname
seljupetje
selling
selofako
seloy
seloys
sema
semamsam
semi
semo
semosemotan
semot
sen
sena
senate
senegal
sengan
sent
sentence
seoul
sep
sepaniya
separator
sepat
sepatay
sepay
sepik
sepow
september
septentrional
seqalapit
seqeciin
sera
seraan
seraay
serakay
serangawan
seray
serayan
serbia
serbian
serer
sergio
series
service
services
serzh
ses
set
setakona
setan
setmetatable
seto
sets
settings
seveng
sewahili
sex
sey
seyhu
sfitay
sh
sha
shabdrung
shackle
shah
shared
shavkat
sheep
sheikh
shi
shimi
shitan
shizi
shot
shoufeng
should
show
showinvalidtypeerror
shown
shqipe
shu
shwe
si
siafulungay
siang
siapaluway
siawsi
siawto
sicang
sici
sician
sida
sidemak
sident
sie
siean
sieci
siecian
siehe
sielac
sieli
sienaw
sierra
siesetifen
sietominko
sifana
sifo
sifoan
sifoay
sihamoni
sihodingan
siiked
siikedan
siikeday
sikakawaw
sikako
sikal
sikawasay
sikihiki
sikitang
sikyo
sil
sila
silajdz
silangkong
silil
sililasay
silisiling
silisin
siliya
siljevavav
silong
silosi
silsil
silsilen
silupatun
sima
simal
simiang
similar
simiyang
simo
simon
simpo
simpon
simsim
sin
sina
sinafel
sinamale
sinapalan
sincenyiencang
sinciyako
sinevaudjan
sing
singangan
singapore
singaw
singer
singkiw
singko
single
singpon
singsi
singsiya
singye
sining
siniyaro
sinka
sinkam
sinkapor
sinken
sinkiw
sinkiwa
sinkiwen
sinko
sinnanwils
sinpitu
sinpo
sinpon
sinposen
sinqumi
sinsiya
sinsya
sinvi
sinyi
sinyie
sio
sioanya
siokasasaowac
siota
sipakayni
sipangya
sipanya
sipanyaay
sipasip
sipaya
sipazi
sipik
sipnya
sipon
siponoi
sir
sirakesay
siraw
sirfan
siri
sirisena
siriw
sirleaf
sirpiya
sisa
sisi
sisifo
sitatelek
site
sites
sitoni
siulang
siw
siwa
siwaay
siwfay
siwkolan
siwkolang
siwkulan
siwkulang
siy
siya
siyakai
siyakaisyuki
siyakay
siyakaysiuki
siyakaysiwki
siyakaysiyuki
siyako
siyang
siyaw
siyen
siyien
siyong
siyongyali
siyoto
size
ska
skakaay
skakakaay
skantinawiya
skaru
skawali
ske
skikun
skutay
slafo
slafu
slamaw
slofakiya
slofako
slovakia
slovenaca
slovenia
small
smallparam
smalltext
smangus
smosmotan
snazi
snuwing
so
soal
soci
social
socialisti
society
soelin
soemetay
sofal
sofi
sofia
sofita
sofitan
sofitay
sofitayan
sofiya
sofoc
sofocen
sofotay
soka
sokid
sokowan
sokoy
solano
soli
solin
solinan
solipa
solitaycin
solomon
solongoc
soloyasto
soloysi
somalia
somaliya
some
somowal
somowalay
son
song
songila
songs
soni
sonisoni
sonni
sonol
sopa
soped
sophia
soraratan
soro
sort
sortday
sosi
sota
sotan
sotasota
sotasotaan
soto
sotok
souli
sousa
south
southeast
southern
sovereignty
sovetska
soviet
sowa
sowak
sowal
sowalan
sowalen
sowiay
sowl
sowla
sozialdemokratische
space
spain
span
spanish
sparseconcat
sparto
spat
speaking
special
species
specified
specify
speedy
split
spo
spoken
spra
spring
springer
spwan
sq
sqbwh
sqiy
sqoyaw
square
sra
srba
srbija
srea
sreda
sri
st
stacis
stalin
standard
stanli
start
startbox
state
states
statistic
statistical
statistics
statistik
stedman
steinmeier
stephen
sterreich
sterreichische
sterreichs
steve
steven
sti
sto
stokormo
stone
stop
strange
stream
street
string
strings
studies
study
style
su
sub
subject
subjectns
subjects
subjectspace
subpage
subpageno
subpageonly
subpages
subst
success
such
sudadatan
sudan
suisu
suku
sukun
sulai
sulien
sulinay
sultan
sulungan
sumentala
summary
summer
summit
sumuwal
sun
sung
sunnah
sunni
suomen
supported
suppressed
suppression
sur
suriname
suru
survey
sutoroisnir
suwa
suwal
suwalen
svg
svo
swasal
swasiq
swaziland
sweden
swedish
swey
swietochowski
switzerland
swoal
syabutay
syacong
syakai
syakaisyuki
syakay
syakaysyuki
syang
syangyahaian
syanox
syar
syasing
syataw
syawhuacuyong
sydney
syen
syi
syien
syoki
syong
syongnu
syongyali
syonyali
syoto
syria
system
systematic
systems
syuki
syusyo
syuto
szy
səllase
sʉhlʉnganʉ
t
ta
taangayay
taata
tabare
tabilas
table
tables
tabletools
tabuk
taciwlalaw
taciya
tada
tadaadihay
tadaapocong
tadaawaay
tadaci
tadadafong
tadafa
tadafakeloh
tadafangcal
tadafangcalay
tadafayinayan
tadafokeloh
tadah
tadakakahad
tadakalimelaan
tadakaolahan
tadakolong
tadama
tadamaan
tadamaanay
tadamahapinang
tadamakapahay
tadamanay
tadamanga
tadamanikaway
tadamarecepay
tadamaroray
tadamatelangay
tadancaay
tadanga
tadangangan
tadapakoyoc
tadasakenaay
tadasatimolan
tadasiri
tadaso
tadatata
tadem
tadeusz
tado
tadongan
taengad
tafa
tafalon
tafalong
tafedo
tafi
tafiling
tafo
tafok
tafokod
tafolod
tafotafokan
tafugan
tag
taha
tahacarcaray
tahada
tahaf
tahaloma
tahamatini
tahanini
tahapinangan
tahefod
taheka
tahekalay
tahepo
tahepoan
taheto
tahfod
tahidang
tahidangen
tahilaay
tahini
tahiniay
tahira
tahiraay
tahita
tahiti
tahomi
tai
taichung
taikaku
taimali
taini
taipei
taira
taire
taitung
taiwan
taiwu
tajikistan
taka
takai
takal
takalaw
takalay
takamimura
takan
takanua
takapili
takar
takaraw
takaraway
takaray
takaw
takay
takenip
taker
takid
takidis
takimi
takinusta
tako
takodicay
takofan
takolaw
takomod
takora
takowanan
takraway
takubuwan
takunan
tala
talacay
talacowa
talacowaan
talacowacowa
talaen
talahekal
talahekalay
talalotok
talamakau
talampo
talaomah
talapacay
talapapotal
talariyariyaran
talatimol
talatosaay
talaw
talawadaw
talawali
tali
talifahal
talihafan
talihoc
talihocan
talip
talipan
taliyok
taliyokan
taliyokay
talk
talkargistalkpage
talkpagetitle
talks
talktext
talktitle
talo
taloan
taloc
talod
talodo
taloko
talolong
talolongay
talon
talotalodan
talu
taluk
taluma
talunas
tama
tamaanay
tamadaw
tamahu
tamako
tamalakaw
tamalon
tamayo
tamazuan
tamdamdaw
tamdaw
tamdawan
tamdawdaw
tamdawi
tamdw
tamedaw
tamim
tamina
tamirengay
tamiyanan
tamorak
tamowanan
tampiya
tampya
tamtadaw
tamtamdaw
tan
tana
tandaw
tanek
taneng
tanengnengan
tanestes
tanetekay
tang
tangahang
tangal
tanganyika
tangasa
tangasaay
tangasatu
tangfor
tangic
tangila
tanginga
tangka
tangko
tangongol
tangongongolay
tangsa
tangso
tangsol
tangsolen
tangsolsol
tangtangen
tanguhla
tanhuahewu
tani
taniay
tankoniko
tanmay
tano
tanpayce
tansangniya
tansul
tanu
tanzania
tao
taokay
taoyuan
tapal
tapan
tapang
tapangan
tapangʉ
tapatapng
tapelik
tapicongay
tapila
tapocangay
tapocong
tapolo
taporo
tapowaray
tara
taracan
tarakaw
tarakaway
tararikor
tarariyar
taratimol
tarawa
tarawadaw
taro
taroko
tarokos
taromak
tasalamaan
tasie
tasiyang
tasman
tasmaniya
tasukuwan
tasutasunan
tat
tata
tataakay
tatadaan
tatadok
tatafokeloh
tatakosan
tatamdawan
tatan
tatapang
tatapangan
tatapangantokay
tatapangay
tataparan
tatau
tataw
tatayalen
tatayni
tatayra
tatefad
tatelecan
tatelek
tatelongan
tatenaan
taterongan
tati
tatihi
tatihiay
tatihitihi
tatiih
tatiihay
tatipelok
tatireng
tatirengan
tatiri
tato
tatoa
tatoba
tatodong
tatokem
tatokian
tatolo
tatoloay
tatonekan
tatoneken
tatootoor
tatoronan
tatosa
tatosaay
tatoso
tatudung
tatudungan
taukak
taur
tausa
tautehan
tavila
taw
tawal
tawinaan
tawkelas
tawki
tawpaw
taxan
tay
tayal
tayalen
tayaling
tayamonto
tayan
tayangcu
tayar
tayax
tayciw
tayhaw
tayhi
tayhin
tayhing
tayhira
tayi
taykak
taykako
taykaku
tayko
taykongcan
tayla
tayliko
taylor
taynan
tayni
taynian
tayniay
taynien
tayno
taypak
taypiaw
taypin
taypinyan
taypinyang
tayra
tayraay
taysiyo
tayton
taytong
taytung
taywa
taywan
taywanay
tayyip
tbulan
tchad
tconcat
td
tdlu
te
tedac
tedi
tefo
tefon
tefos
teked
tekedan
tekop
telang
telangan
telangay
teldreka
telefo
telegraph
telek
teli
telien
telloc
teloc
telong
telu
teluc
tema
temer
temera
tempdate
template
templatecat
templatecategory
templatecategoryrequirename
templateerrorcategory
templatelink
templatename
templates
templatesort
templatetitle
ten
tenak
tenas
tenem
teng
tengay
tengilen
tennant
tenok
tenokay
tenoren
teodoro
tep
tepar
terep
term
teroc
terong
terongay
terra
territorial
territories
territory
teshome
test
testcases
testcaseseditlink
testcaseslink
testcaseslinkdisplay
testcaseslinks
testcasespreload
testcasesrunlink
testcasesrunlinkdisplay
testcasestitle
testing
text
textcell
textcellspan
textstyle
tfuya
tgbin
tgleq
th
tha
thac
thailand
than
thani
thao
that
thau
thaw
the
their
them
then
there
these
they
thgahan
thimphu
things
third
this
thl
thomas
though
three
through
thumb
thus
thyakan
ti
tica
ticilan
ticiya
tida
tidaan
tidiedval
tidyval
tiennasi
tiftif
tihira
tikami
tikid
tikoliniya
tikoroy
tikoroyniya
tili
tilid
tilidan
tiliden
tilifi
tilifit
tilili
tilo
tim
time
times
timol
timolan
timolay
timor
timosinko
timul
timur
tin
tina
tinai
tinako
tincin
tingalaw
tingalaway
tingano
tingki
tingnaw
tingrohay
tingsi
tingsikiw
tingso
tingsokiw
tingting
tini
tiniay
tiniyan
tinki
tinooy
tinsert
tinsikiw
tinsikyo
tinsokiw
tinsukiw
tinsukyo
tintosi
tip
tipid
tipogra
tipus
tira
tiraay
tirana
tireng
tirengan
tiri
tiring
tirmuen
tisil
tisilan
tisowanan
titaanan
titi
titicaca
titikaka
title
titlearg
titleobj
tito
tiya
tiyad
tiyaho
tiyako
tiyamacanan
tiyas
tiyop
tjacekes
tjacupu
tjadukudukung
tjaialev
tjailjaking
tjalja
tjana
tjanavakung
tjaranauma
tjatjigel
tjavatjavang
tjaviljaul
tjavualji
tjinavanavalj
tjisaulem
tjuabal
tjuamanges
tjuaqau
tjuavanaq
tjudjaas
tjukuvulj
tjuletevetevek
tjulitjulik
tjuluuai
tjuruguai
tjusepayuan
tjusinlung
tjuvecekadan
tjuwaqau
tkasan
tkijig
tla
tmadaw
tmbox
tmdaw
tmunan
tname
to
toawtoro
toci
tocie
tocila
toda
todd
todoh
todohen
todong
todongay
tofan
togo
togolaise
toi
toic
toikor
toiraay
tokai
tokar
tokas
tokatokasan
tokay
tokayay
tokeled
toker
toki
tokiyar
toko
tokodan
tokoman
tokoro
tokos
tokotokasan
tokotokosan
tokotokosay
tokyo
tolak
tolamokang
tolani
tolas
tolik
toliken
tolo
toloay
tolos
tolstoy
toma
tomas
tomay
tomdaw
tome
tomerep
tomili
tominika
tominiko
tomireng
tomirengay
tomislav
tomiyac
tommy
tomok
tomuk
ton
tona
tonaw
toncen
tong
tonga
tongal
tongan
tongatapu
tongcen
tongka
tongroh
toni
tonian
tonicuko
tonika
tonini
toninian
toniyah
tonle
tonlisa
tono
tonotono
tonton
tonumber
tony
toor
tooren
top
topi
topo
topography
tora
toranni
torik
torinita
toris
torki
torkiay
toro
toron
toronto
torstay
toruy
tos
tosa
tosaay
tosapolo
tosay
tosiya
toske
tostring
total
toto
tou
touade
touadera
tourism
tourist
towaso
towato
tower
toya
toyaan
toyanan
tp
tpihan
tpuqu
tqwiy
tr
tra
trade
traditional
trailer
tranan
transcluded
transit
transition
transparency
transwiki
travel
trayan
treatment
treaty
tree
trim
trimwhitespace
trinidad
trinitaria
tripartite
triqan
troops
tropical
true
truku
trump
truncate
truncated
truong
truwan
tsai
tsakhiagiin
tserkov
tsiranana
tu
tuapuu
tuas
tuba
tudrivuan
tudung
tufalu
tufuga
tuki
tulaci
tulik
tulu
tuluay
tumay
tumuk
tuna
tunamahaen
tunan
tune
tunghuacuyong
tungpu
tunisia
tunisiya
tunu
tuosyawhuacuyong
tuper
tura
turi
turik
turkey
turkmenistan
turnbull
tusa
tusaay
tutu
tuvalu
tuwa
tuwapun
tuway
tuya
tuyu
tw
twan
two
type
typedata
types
typically
tyste
u
ua
uan
ucb
ucna
ufalu
uganda
ugyen
uhan
uhuru
uk
ukang
ukanta
uklu
ukolan
ukraine
ulah
ulaljuc
ulay
ulivelivek
uma
umah
un
uncontrolled
und
under
understanding
undp
undu
unesco
ung
unia
unian
union
unita
united
universita
university
unknown
untwo
unwin
up
upadhyay
update
upo
upon
uposala
upright
upu
upuan
urad
urakuay
urang
urasa
uraw
urip
url
urto
uruguay
uruma
uruw
us
usage
use
usecollapsibletextfields
used
useplainlinksparam
user
usernames
users
uses
usescurrenttitle
usgs
using
ustring
ustringlower
ut
utu
uv
uwac
ux
uyan
uyuni
uzbekistan
v
va
vahu
vajiralongkorn
vakangan
val
valana
valarray
valau
valid
valjulu
valletta
value
valuefunc
values
valuetofind
van
vanossi
vanuatu
var
varela
variables
varjager
varyagi
vasbla
vasil
vaz
ve
vecekadan
vega
velana
venezuela
verdrag
version
versions
vi
viamonte
victor
victoria
victory
videos
vienna
vietnam
vietnamese
view
viewedithistorypurge
viljauljaul
village
vine
viri
virreinato
visible
visions
visit
visita
viti
vives
vlaamse
vladimir
vn
vnaya
vodu
vodun
vol
volodymyr
volume
von
vorachith
vote
vp
vujanovic
vukes
vukide
vungalid
w
wa
waa
waay
wacay
waco
wacu
waddaulah
wadis
waikato
waitangi
wakaba
wakawak
wales
wali
waliay
walo
walong
walter
walu
waluay
wama
wan
wancuko
waneng
wang
wangchuck
wangle
wanglo
waniken
wanli
wannatu
wanoa
wanrong
wantar
waqa
war
warfare
warning
waroso
wars
was
wasenton
washington
wata
wataay
watala
watangi
watch
water
wawa
wawaan
wawaaw
wawawawa
way
wayne
wayway
wb
we
wealth
web
webcite
website
well
wen
wenlay
were
weroheroan
wesleyans
west
western
westminster
what
when
where
wherowhero
whether
which
white
who
why
wiayla
wicin
widang
widi
widodo
width
wiki
wikipedia
wikis
wikisource
wikitable
wikitext
wikor
wikoto
wiley
wili
wiliam
wilian
will
willem
william
wimaya
win
wina
winaan
winaay
winis
winoyloyla
winoyroyla
wirok
wisakola
with
within
witi
wiyiena
wiyyinhuy
wolfgang
won
wood
work
workers
world
woros
would
woy
wp
wrangham
wrapper
wrappers
writing
wsilung
wto
wu
wufeng
wukoer
wukolan
wulai
wuliwi
wutai
wuto
www
x
xi
xico
xincheng
xinhuanet
xinyi
xiulin
xvi
y
ya
yaan
yaho
yahoo
yakiw
yako
yakop
yala
yamakami
yamamoto
yameen
yamen
yami
yaminiya
yan
yana
yanan
yancomin
yang
yangmingsan
yangminsan
yanping
yanukovych
yanukowici
yap
yaque
yasu
yatoriya
yaw
yaway
yawi
yay
yayo
ye
year
yemen
yen
yencomin
yensu
yensukong
yes
yesno
yfan
yi
yiehofa
yiekacilina
yienan
yiencumin
yiercin
yieso
yiesoan
yihofa
yilan
yin
yina
yinan
yinciwyin
yincomi
yincomin
yincumin
yincuminco
yincumincu
yincuming
ying
yiniwto
yis
yiso
yisoan
yisponiawla
yo
yofayof
yofing
yohae
yohani
yok
yoko
yolisis
york
yoropa
yoropaay
yosan
yosang
yosifo
yotaya
you
your
yoweri
yu
yuan
yubang
yuchi
yue
yuencumin
yugoslavia
yuiencumin
yuincumin
yulang
yuli
yuliya
yuluw
yungkilu
yuropa
yusinko
yutak
yutaya
yuwhbun
yux
z
za
zagreb
zambia
zayazayan
zayed
zealand
zeman
zh
zhuoxi
zihing
zimbabwa
zimbabwe
zoroastrianism
zquez
zuma
{
|
}
~


«
¬
­
°
²
³
´
·
¸
º
»
½
¿
đa
ı
ıvan
ʹ
ʻ
ʽ
ʾ
ʿ
ˇ
ˊ
˚
̀
́
̂
̃
̄
̆
̇
̈
̊
̋
̌
̍
̓
̔
̣
̥
̧
̨
̮
̱
͂
ͅ
͟
΄
α
αι
β
βασιλει
γ
δημοκρατι
δοξη
ε
εκκλησι
θ
θε
ι
ιουστινιανο
ιωα
κυ
κυπριακη
κωνσταντινου
λιππος
μ
μα
μακεδω
ν
ννης
ο
ορθο
πολη
πολις
ρ
ρινο
ρωμαι
ς
τμητος
φι
ψ
ω
ων
а
автономная
алексеевна
али
алтан
андріи
антигитлеровская
арена
армянская
атлас
белару
беларуская
белорусская
богдан
бој
брестскии
броз
българия
в
варшавского
варяги
виктор
вмро
вобласьць
вои
волга
восточные
всероссии
віктор
г
георги
года
гомельская
государств
договора
донецьк
дорович
евич
екатерина
з
за
и
к
каспии
кири
коалиция
лев
луганская
македонија
македонска
мир
михаи
море
н
на
народная
население
населения
национальностеи
наша
независимых
николаевич
о
область
ович
озеро
оон
организация
орд
от
п
пе
переписи
помаранчева
православная
р
распад
революція
резолюция
религии
република
республик
республика
россии
рэспубліка
савецкая
сацыялістычная
сб
симеон
ская
скии
ское
скои
славяне
слов
советская
советских
содружество
социалистическая
социалистических
союз
ссср
східні
т
территория
тито
толстои
у
украі
усходнія
фе
федеративная
федерации
федорович
фосил
церковь
ъ
ющенко
яни
янукович
јосип
լեռնային
հանրապետություն
ղարաբաղ
ְ
ִ
ַ
ָ
ּ
ׁ
י
ל
ם
ש
ا
اسلامی
اشکانی
افغانستان
الا
الجزاي
الجمهورية
السنة
الله
امپراتوری
ب
بن
ة
ح
حامد
خان
د
دولت
ر
زرتشتی
سلجوقیان
ع
ق
ل
مان
محمد
ن
هل
و
والجماعة
ي
َ
ُ
ِ
ّ
ْ
ٓ
ٔ
ٕ
کرزی
کرزۍ
گری
ं
क
ज
ट
त
थ
न
प
फ
ब
भ
म
र
ल
व
श
ष
स
ा
ि
ी
ू
ृ
े
ै
ो
्
ং
ক
খ
গ
চ
জ
ণ
ন
ব
ম
য
র
শ
স
হ
়
া
ি
ী
ু
ে
্
ਟ
ਾ
ଜ
ବ
ମ
ଶ
ା
ୀ
୍
த
ய
ர
ல
ா
ி
ு
ெ
்
ల
శ
ా
ి
ు
ಕ
ಯ
ಳ
ಿ
ು
ೆ
ം
ജ
മ
വ
ശ
ാ
ീ
്
ප
ල
ස
ා
ි
ෙ
ี
ึ
์
ນ
ັ
ຶ
༈
་
།
ག
གས
ང
ཆ
ད
དབང
ན
པ
ཕ
བ
མ
ཚ
འ
འཇ
ར
ལ
ས
ཧ
ཱ
ི
ུ
ེ
ོ
ྒ
ྟ
ྣ
ྱ
က
င
စ
ည
တ
ထ
ဒ
န
ပ
ဖ
မ
ရ
အ
ာ
ိ
ီ
ု
ေ
ံ
း
္
်
ျ
ြ
ွ
ი
საქართველო
ሥላሴ
ቀዳማዊ
ኃይለ
አህመድ
አሊ
አብይ
የኢትዮጵያ
ዲሞክራሲያዊ
ግንባር
ក
ចក
ជ
ញ
ណ
ន
ប
ព
រ
រកម
ល
ស
ា
ឹ
ុ
េ
ំ
ះ
្
​
‌
‎
–
—
‘
’
“
”
„
•
…
‧
′
※
℃
№
ⅰ
ⅱ
→
↔
↷
−
③
④
⑦
─
☉
☾
✓
ⴰ
ⵉ
ⵎ
ⵏ
ⵖ
ⵙ
ⵜ
ⵣ
⺀
⺄
⺆
⺈
⺊
⺌
⺕
⺝
⺸
⺼
⿰
⿱
⿲
⿳
⿴
⿵
⿶
⿷
⿸
⿹
⿺
⿻
、
。
〆
〈
〉
《
》
「
」
『
』
【
】
〝
〞
〢
あ
い
う
え
お
か
き
く
け
こ
さ
し
す
せ
そ
た
ち
っ
つ
て
と
な
に
ね
の
は
ひ
ふ
へ
ほ
ま
み
め
も
や
ゅ
ゆ
よ
ら
り
る
れ
ろ
わ
を
ん
゙
゚
ァ
ア
ィ
イ
ゥ
ウ
ェ
エ
オ
カ
キ
ク
ケ
コ
サ
シ
ス
セ
ソ
タ
ッ
ツ
テ
ト
ナ
ニ
ネ
ノ
ハ
ヒ
フ
ヘ
ホ
マ
ミ
ム
メ
モ
ャ
ヤ
ュ
ユ
ョ
ヨ
ラ
リ
ル
レ
ロ
ワ
ン
・
ー
㇁
㇂
㇄
㇇
㇈
㇉
㇓
㎢
㏠
㏡
㏢
㏣
㏤
㏥
㏦
㏧
㏨
㏩
㏪
㏫
㏬
㏭
㏮
㏯
㏰
㏱
㏲
㏳
㏴
㏵
㏶
㏷
㏸
㏹
㏺
㏻
㏼
㏽
㏾
㐁
㐄
㐅
㐌
㐫
㐬
㐭
㐮
㐱
㑒
㒵
㒸
㒼
㓁
㓞
㔾
㕛
㕣
㖾
㘝
㚅
㚇
㚔
㚘
㛧
㝉
㝡
㝴
㝵
㞋
㞢
㞷
㠩
㠭
㠯
㡀
㡭
㡿
㢲
㢴
㣇
㣺
㥯
㪅
㫄
㫐
㫒
㫺
㬅
㬎
㬥
㬰
㲋
㳄
㷠
㸒
㸚
㸦
㼌
㼲
㽞
㿟
䀠
䂞
䍃
䏍
䒑
䖍
䖒
䖝
䖵
䙴
䚻
䜌
䝿
䡛
䧹
䪞
一
丁
丂
七
丄
丅
丆
万
丈
三
上
下
丌
不
与
丏
丐
丑
专
且
丕
世
丘
丙
业
东
丞
丢
丣
两
严
並
丨
丩
个
丫
丬
中
丮
丰
丱
串
丵
丶
丷
丸
丹
为
主
丽
举
丿
乀
乂
乃
久
乆
乇
么
义
之
乌
乍
乎
乏
乐
乑
乔
乖
乗
乘
乙
乚
乛
乜
九
乞
也
习
乡
书
乳
乾
亀
亂
亅
了
亇
予
争
事
二
亍
于
亏
亐
云
互
亓
五
井
亘
亚
些
亜
亞
亟
亠
亡
亢
交
亥
亦
产
亨
亩
享
京
亭
亮
亯
亰
亲
亳
亶
亷
人
亻
亼
亾
什
仁
今
介
仌
仍
从
仐
仑
仒
仓
仔
仕
他
付
仙
仝
代
令
以
仰
仲
件
任
份
企
伊
伏
伐
休
会
伟
传
伦
伯
估
但
佈
位
低
住
佐
佑
体
佔
何
佘
余
佛
作
你
佤
佥
佩
佬
佳
併
使
來
侈
例
侌
侖
供
依
侮
侯
侵
便
係
促
俄
俊
俗
保
俞
信
修
俱
倉
個
倍
們
倒
候
借
倠
倫
倭
值
假
偉
偏
做
停
健
側
偶
偷
傅
傑
備
傭
傳
傾
僅
僉
像
僕
僧
僱
儀
儂
億
儒
優
儲
儿
兀
允
兂
元
兄
充
兆
兇
先
光
兊
克
兌
免
兑
兒
兓
兔
党
兜
兟
入
內
全
兩
兪
八
公
六
兮
兰
共
关
兴
兵
其
具
典
兹
兼
冀
冂
冃
冄
内
冈
冉
冊
冋
册
再
冎
冏
冐
冒
冓
冖
冗
冘
写
军
农
冝
冠
冡
冥
冫
冬
冰
决
况
冷
准
凌
凍
几
凡
凢
凰
凱
凵
凶
凷
凸
凹
出
击
函
凾
刀
刁
刂
刃
刄
刅
分
切
刊
刍
刑
划
刕
刖
列
刘
则
创
初
判
別
利
别
到
制
刷
刺
刻
則
削
剌
前
剛
剜
剡
剧
剪
副
割
創
剽
劃
劉
劍
力
功
加
劦
动
助
努
劫
劳
劵
勃
勇
勉
勒
動
務
勝
勞
募
勢
勤
勵
勹
勺
勻
勾
勿
匀
匂
匃
包
匆
匈
匊
匋
匍
匏
匕
化
北
匚
匝
匡
匪
匯
匱
匸
匹
区
医
匽
匿
區
十
卂
千
卄
卅
卆
升
午
卉
半
卌
华
协
卑
卒
卓
協
单
卖
南
博
卜
卝
卞
占
卡
卢
卣
卤
卦
卩
卪
卫
卬
卯
印
危
即
却
卵
卷
卸
卻
厂
厃
厄
历
厈
厉
厌
厓
厘
厚
原
厤
厥
厨
厭
厲
厶
厷
厸
去
厼
厽
叀
参
參
叅
又
叉
及
友
双
反
叐
发
叒
叔
叕
取
受
变
叚
叜
叟
叡
叢
口
古
句
另
叩
只
召
叭
可
台
叱
史
右
叵
号
司
叹
吁
吂
吃
各
吅
合
吉
吊
吋
同
名
后
吏
吐
向
吕
君
吝
吞
否
含
启
吳
吴
吹
吾
呀
呂
呆
呈
告
员
呙
呢
周
味
呼
命
咅
和
咎
咖
咠
咢
咨
咪
咬
咸
咼
哀
品
哇
哈
哉
員
哥
哦
哨
哪
哲
哺
唉
唐
售
唯
唱
唾
商
啇
問
啓
啚
啟
啡
啦
啬
啻
喀
善
喊
喜
喪
喬
單
喲
喳
喻
喿
嗇
嗎
嗡
嗨
嘉
嘎
嘟
嘯
嘴
嘿
器
噩
噯
噶
嚴
嚼
囉
囊
囗
囘
囙
囚
四
回
囟
因
団
囧
囬
困
囱
囷
固
国
图
圂
圃
圅
圈
國
圍
園
圓
圖
團
土
圡
圣
圥
在
圭
地
圶
圼
址
坂
均
坊
坐
坑
坒
块
坚
坡
坤
坦
坪
坴
坵
垂
型
垔
垚
埀
埃
埋
城
埔
域
埠
埤
埶
執
培
基
堂
堅
堆
堇
堡
堤
堪
堯
報
場
堺
塑
塔
塘
塞
塩
塱
境
增
墨
墩
壁
壇
壊
壓
壘
壞
壢
壤
壩
士
壬
壯
声
売
壳
壴
壹
壺
壽
夂
处
夅
夆
备
変
夊
夋
夌
复
夏
夒
夕
外
夗
夘
多
夜
夢
大
夨
天
太
夫
夬
夭
央
失
夲
头
夷
夸
夹
夺
夻
夾
奂
奄
奇
奈
奉
奎
奏
奐
契
奓
奔
奕
奚
奞
奠
奢
奥
奧
奪
奭
女
奴
奻
好
如
妃
妄
妙
妟
妥
妮
妹
妻
妾
姆
始
姐
姑
姓
委
姚
姜
姻
威
娃
娄
娘
娛
娜
娣
婁
婆
婚
婞
婦
婭
婴
婻
媒
媽
嫌
嫚
嫩
嫰
嬰
嬴
子
孑
孔
孕
孖
字
存
孚
孛
孝
孟
季
孤
学
孩
孫
孱
學
宀
宁
宂
它
宅
宇
守
安
宋
完
宏
宓
宗
官
定
宛
宜
宝
实
実
客
宣
室
宪
宮
宰
害
宴
家
容
宾
宿
寄
寅
密
富
寒
寓
察
實
寧
寨
審
寫
寬
寮
寰
寶
寸
对
寺
寻
寽
対
寿
封
尃
射
将
將
專
尉
尊
尋
尌
對
導
小
少
尒
尓
尔
尖
尗
尚
尞
尢
尣
尤
尧
尨
尭
就
尸
尹
尺
尻
尼
尽
尾
尿
局
居
屆
屈
屋
屎
屏
屑
展
屖
屚
属
屠
屡
層
屬
屮
屯
屰
山
屵
屾
屿
岁
岂
岑
岛
岡
岩
岳
岸
峯
峰
島
峻
峽
崁
崇
崎
崑
崔
崖
崗
崙
崩
崮
嵌
嵐
嵬
嶋
嶲
嶺
嶼
嶽
巂
巍
巒
巛
川
州
巟
巠
巡
巢
巤
工
左
巧
巨
巩
巫
差
己
已
巳
巴
巷
巸
巻
巽
巾
巿
帀
币
市
布
希
帕
帖
帚
帛
帝
带
師
席
帰
帶
常
幅
幕
幣
幫
干
平
年
幵
并
幷
幸
幹
幺
幻
幼
幽
幾
广
広
庄
庆
庇
床
序
库
底
店
庚
府
度
座
庫
庭
庶
康
庸
廃
廉
廌
廖
廚
廛
廠
廢
廣
廩
廬
廳
廴
延
廷
建
廾
廿
开
弁
异
弃
弄
弇
弋
式
弓
弔
引
弗
弘
弜
弟
弥
弦
弧
弱
張
強
弹
强
彊
彌
彎
彐
彑
当
彔
录
彖
彗
彙
彡
形
彤
彥
彦
彧
彩
彭
影
彳
役
彼
往
征
径
待
很
律
後
徐
徑
徒
従
得
徙
從
復
循
微
徴
徵
德
徹
心
忄
必
忌
忍
志
忙
忝
忠
忩
快
念
忽
忿
态
怕
思
怠
急
性
怱
总
恆
恒
恕
恢
恨
恩
恭
息
悉
悟
悠
患
悤
您
悪
悲
悶
情
惑
惠
惡
惢
想
愁
愈
意
愚
愛
感
愷
愿
慈
態
慎
慕
慣
慧
慮
慶
憂
憤
憲
憶
懂
應
懷
戀
戈
戉
戊
戋
戌
戍
戎
成
我
戒
戔
或
战
戚
戠
戢
戦
截
戰
戲
戴
戶
户
戸
戹
戼
戾
房
所
扁
扇
手
扌
才
扎
打
扔
托
执
扶
批
找
承
技
投
抗
折
报
抬
抵
拉
拔
拚
拜
括
拼
拿
持
指
按
挑
挪
振
捉
捐
捕
捜
捷
掃
授
掌
排
採
探
接
控
推
措
掺
提
揚
換
握
揭
援
搖
搜
搬
搾
摘
摧
摩
撃
撈
撒
撣
撤
撥
播
撲
撿
擊
擋
擔
據
擦
擬
擱
擴
擷
擺
攝
支
攴
攵
收
攸
改
攻
放
政
敄
故
效
敏
救
敕
敖
敗
敘
教
敝
敞
敢
散
敦
敫
敬
数
整
敵
敷
數
斂
文
斉
斊
斌
斐
斗
料
斤
斥
斩
斬
断
斯
新
斷
方
於
施
斿
旁
旅
旋
族
旗
无
旡
既
旣
日
旦
旧
旨
早
旬
旭
旮
旱
旲
时
旺
旾
昂
昆
昇
昉
昌
昍
明
昏
易
昔
昗
昜
星
春
昬
昭
是
昱
昴
昷
時
晃
晉
晋
晏
晚
晨
普
景
晳
晴
晶
智
暉
暑
暖
暗
暨
暮
暴
暹
曆
曇
曉
曙
曝
曠
曩
曬
曰
曲
曳
更
曷
書
曹
曼
曽
曾
替
最
朁
會
月
有
朋
服
朔
朕
朗
望
朝
期
木
朩
未
末
本
札
朮
术
朱
朵
朶
朿
杀
权
杉
李
杏
材
村
杓
杜
束
条
来
杭
杯
杰
東
杲
杳
松
板
极
枋
析
枕
林
枚
果
枝
枲
架
枼
柄
柏
某
染
柔
柚
查
柬
柯
柰
柱
柳
柴
査
标
栗
校
样
核
根
格
栽
桀
桃
框
案
桌
桐
桑
档
桶
桼
梁
梅
梗
條
梟
梧
梨
梭
梯
梵
棄
棉
棒
棕
棘
棚
棠
棥
棧
森
棺
椅
植
椎
椒
椰
楊
楓
楚
楠
業
極
楽
概
榔
榕
榜
榮
榴
構
槓
様
槳
樂
樊
樑
樓
標
樟
模
樣
権
樸
樹
樺
橋
橘
橙
機
橫
檔
檢
檳
櫓
櫚
櫻
欄
權
欠
次
欣
欧
欮
欲
欶
欽
款
歆
歇
歌
歐
歛
歡
止
正
此
步
武
歧
歨
歪
歮
歯
歰
歲
歴
歷
歸
歹
歺
死
殊
殖
殳
段
殷
殸
殹
殺
殻
殼
殿
毀
毅
毋
毌
母
每
毒
毓
比
毕
毗
毚
毛
毳
氂
氏
氐
民
气
氣
氧
氨
氮
氰
水
氵
氶
氷
永
氺
氾
汀
汁
求
汎
汗
汝
汞
江
池
汤
汪
汶
決
沃
沈
沒
沓
沙
沛
沝
没
沦
河
油
治
沼
沿
況
泉
泊
法
泛
波
泣
泥
注
泰
泽
洋
洛
洞
津
洪
洲
活
洽
派
流
测
济
浦
浩
浪
浮
海
浸
涅
消
涉
涌
涟
涯
液
涵
涼
淑
淖
淚
淡
淮
深
淳
淵
混
淸
淺
添
清
済
渚
渠
渡
渣
渥
温
測
港
游
湄
湖
湯
湳
湾
源
準
溝
溥
溪
溫
滅
滇
滋
滾
滿
漁
漂
漏
演
漠
漢
漸
潔
潘
潭
潮
澤
澱
澳
激
濕
濘
濟
濤
濱
瀑
瀛
瀞
瀧
瀨
瀾
灣
火
灬
灭
灰
灵
灶
灷
災
炅
炎
炏
炒
炗
炙
炭
炳
点
為
烈
烏
烘
烝
烤
烷
烹
焉
焚
無
焦
焱
然
煋
煎
煙
煜
煞
煤
照
煮
熄
熊
熏
熱
燃
燈
燒
燕
營
燮
燻
爆
爐
爪
爫
爭
爯
爰
爱
爲
爵
父
爺
爻
爽
爾
爿
牆
片
版
牌
牙
牚
牛
牜
牟
牡
牢
牧
物
牪
特
牽
犀
犇
犬
犭
犮
犯
状
狀
狂
狄
狊
狐
狗
狩
独
狹
狺
猋
猒
猪
献
猶
獄
獅
獎
獠
獨
獲
獵
獻
玄
率
玉
王
玟
玨
玩
玫
玲
玻
珀
珊
珍
珎
珠
珩
班
現
球
理
琉
琳
琴
瑋
瑙
瑛
瑜
瑞
瑟
瑤
瑩
瑪
瑯
瑰
璉
璞
璦
環
瓜
瓦
甘
甚
生
產
産
用
甫
甬
甯
田
由
甲
申
电
甶
男
甸
甹
画
甾
畀
界
畏
畐
留
畜
畟
畢
略
畧
畨
番
畫
異
畱
當
畺
畾
疆
疊
疋
疌
疑
疒
疫
疾
病
症
痛
療
癌
癶
癸
癹
発
登
發
白
百
皀
皃
的
皆
皇
皋
皐
皓
皕
皮
皷
皿
盃
盆
盇
盈
益
盍
盎
监
盒
盖
盛
盜
盟
盡
監
盤
盧
盪
目
盲
直
相
盾
省
眇
眉
看
眔
眞
真
眷
眼
眾
着
睘
督
睪
睿
瞏
瞢
瞿
矍
矛
矞
矢
矣
知
矦
矩
短
矮
石
码
砂
砍
研
砲
破
硝
硬
确
碇
碎
碑
碧
碩
碳
確
碼
碾
磁
磊
磚
磨
磯
磷
礦
示
礻
礼
社
祀
祆
祈
祕
祖
祝
神
祟
祥
票
祭
祿
禀
禁
福
禮
禱
禸
禹
禺
离
禽
禾
禿
秀
秃
秉
秋
科
秘
秝
租
秦
秧
秩
称
移
稀
稅
程
稚
稟
種
稱
稻
稿
穀
穆
穌
積
穗
穢
穫
穴
究
穹
空
穿
突
窄
窒
窟
窩
竊
立
竒
站
竜
竝
竟
章
童
端
競
竹
笑
笙
笠
第
筆
等
筏
答
策
筱
签
简
箕
算
管
箭
箱
箴
節
範
篇
築
篤
篭
簡
簧
簷
簽
簿
籍
籲
米
类
籽
粉
粗
粛
粟
粤
粦
粲
粹
精
糊
糖
糞
糧
糬
糯
糸
糹
系
糾
紀
約
紅
納
紐
純
紙
級
紛
素
索
紧
紫
累
細
紹
終
組
経
結
絕
絜
絡
給
絨
絫
統
絲
絶
經
綜
綠
綢
維
綱
網
綻
綾
綿
総
緒
線
緣
編
緬
練
縣
縮
總
繁
繆
繇
織
繞
繼
繽
纂
續
纍
纟
级
纳
线
组
织
终
经
统
维
缅
缓
编
缶
缺
网
罒
罔
罕
罗
罙
罟
罡
罢
罩
罪
置
罰
署
罷
羅
羊
羌
羍
美
羔
羕
羗
羞
羡
羣
群
義
羲
羸
羽
翁
翅
翏
習
翕
翟
翠
翰
翻
翼
耀
老
耂
考
者
耆
而
耎
耐
耑
耒
耕
耘
耳
耴
耶
耷
聂
聊
职
联
聖
聚
聞
聯
聲
聶
職
聿
肀
肃
肅
肉
肖
肙
肚
肥
肩
肯
育
肴
肺
胃
背
胎
胜
胞
胡
胥
胺
能
脂
脆
脈
脊
脩
脫
脹
脾
腊
腓
腦
腰
腳
腹
膚
膜
膠
膨
膽
臘
臣
臤
臧
臨
自
臬
臭
臯
臱
至
致
臺
臼
臽
臾
臿
舀
舂
舄
舅
與
興
舉
舊
舌
舍
舒
舖
舛
舜
舞
舟
般
船
艇
艦
艮
良
色
艸
艹
艾
芒
芔
芙
芝
芥
芬
芮
芯
花
芳
芺
芻
芽
苑
苓
苔
苗
苟
苡
若
苦
英
茂
范
茅
茉
茨
茲
茶
茸
荅
草
荒
荖
荣
荳
荷
荼
莆
莉
莊
莎
莧
莫
莱
获
莽
莿
菆
菊
菐
菜
菩
華
菲
菸
萄
萊
萨
萬
落
葉
著
葛
葡
董
葵
蒂
蒙
蒦
蒲
蒸
蒼
蓋
蓬
蓮
蓺
蔑
蔗
蔡
蔥
蔭
蕃
蕉
蕨
蕭
蕾
薄
薇
薑
薛
薦
薩
薰
薾
藍
藏
藜
藝
藤
藥
藻
蘇
蘋
蘭
蘿
虍
虎
虐
虒
虔
處
虖
虗
虘
虚
虛
虜
虞
號
虫
虹
虽
蚤
蚩
蛇
蛙
蜀
蜂
蜜
蝕
蝗
蝦
蝨
蝴
蝶
蝸
螂
螃
融
螟
螺
蟑
蟲
蟹
蟻
蠡
血
行
衍
術
街
衛
衝
衞
衣
衤
表
衮
衰
袁
袋
袖
袞
被
裁
裂
裏
裔
裕
裝
裡
製
複
褐
褡
褭
褱
褳
襄
襲
襾
西
覀
要
覃
見
規
覓
視
覧
親
観
覺
覽
觀
见
观
规
视
览
角
解
觸
言
訁
訇
計
訊
討
訓
託
記
訪
設
許
診
註
証
詔
評
詞
詢
試
詩
話
該
詹
誌
認
誓
誕
語
誤
誩
說
読
誰
課
調
談
請
論
諧
諮
諸
諾
謙
講
謝
謠
證
識
譚
譜
警
譯
議
護
譽
讀
變
讓
讠
议
记
讲
证
译
试
话
诞
语
请
谷
豆
豈
豊
豐
豕
豖
豙
豚
象
豦
豩
豪
豬
豸
貇
貌
貓
貝
貞
貟
負
財
貢
貧
貨
販
貪
貫
責
貳
貴
買
費
貼
貿
賀
賁
資
賈
賏
賓
賔
賛
賞
賢
賣
質
賴
購
賽
贊
贏
贝
贡
财
责
败
货
贩
贯
贲
贵
贸
费
赖
赞
赢
赤
赦
赫
走
赴
起
超
越
趙
足
跁
距
跡
跨
路
踐
踩
踴
蹄
蹇
蹈
蹊
蹟
躍
身
躬
車
軍
軎
軒
軟
転
軸
較
載
輔
輛
輝
輦
輩
輯
輸
輿
轄
轉
车
辑
辛
辜
辞
辟
辣
辥
辦
辭
辰
辱
農
辵
辶
边
达
迅
过
迎
运
近
还
这
进
连
迦
迪
迫
述
迷
追
退
送
逆
选
透
逐
途
逗
這
通
逝
速
造
逢
連
逮
週
進
逹
逾
遀
遂
遇
遊
運
遍
過
道
達
遜
遠
遣
適
遮
遲
遶
遷
選
遺
避
邀
邁
邊
邏
邑
邕
那
邦
邨
邪
邵
邻
郊
郎
部
郭
郵
都
鄂
鄉
鄒
鄭
鄰
酉
酋
配
酒
酓
酪
酶
醇
醫
釆
采
釋
里
重
野
量
金
釒
針
鈍
鈞
鈴
鉛
銀
銃
銅
銜
銳
銷
鋁
鋒
鋪
錄
錢
錦
錫
錯
鍚
鍬
鎮
鏡
鐵
鑑
鑿
钅
铜
镜
長
镸
长
門
閃
閉
開
閏
閑
閒
間
閔
関
閣
閩
閱
閲
閵
閻
闌
闖
關
门
问
闲
间
闷
闻
阑
阜
阝
阮
阱
防
阿
陀
附
际
陆
降
限
院
陣
除
险
陰
陲
陳
陵
陶
陷
陸
陽
隆
隊
隋
階
隕
隘
際
隡
隨
險
隱
隶
隸
隹
隺
隻
隼
隽
难
雀
雁
雄
雅
集
雈
雋
雍
雐
雔
雕
雖
雙
雚
雜
雝
雞
離
難
雨
雩
雪
雯
雲
零
雷
電
需
震
霍
霓
霜
霝
霞
霧
露
霸
靈
靑
青
静
靜
非
靠
靡
面
靣
革
鞋
鞍
鞭
韋
韓
韦
韭
韯
韱
音
響
頁
頂
頃
項
順
須
頌
預
頓
頗
領
頡
頭
頻
顆
題
額
顎
顏
顛
類
顥
顧
顯
页
项
顾
预
题
風
颱
风
飛
飞
食
飠
飢
飪
飲
飼
飾
養
餐
餓
餘
館
餵
餿
饒
饣
饥
饿
馆
首
馘
香
馬
馮
馳
駐
駦
騰
騷
驃
驅
驗
马
验
骨
體
高
髟
髻
鬃
鬍
鬥
鬧
鬯
鬲
鬼
魂
魚
魯
鮑
鮮
鯉
鱼
鲁
鳥
鳯
鳳
鴨
鵑
鵝
鵪
鶉
鶴
鶺
鷲
鷹
鷺
鸞
鸟
鹵
鹼
鹽
鹿
麃
麒
麓
麗
麟
麥
麦
麵
麻
麼
黃
黄
黍
黎
黑
黒
默
點
黨
黹
黽
黾
鼎
鼓
鼠
鼻
齊
齋
齐
齒
齡
齿
龍
龔
龙
龜
龟
龠
龰
龱
龴
龵
龶
龷
龸
龹
者
艹
︰
﹙
﹚
！
＂
＃
（
）
＊
，
－
．
／
０
１
２
５
９
：
；
＝
？
［
］
ｉ
ｍ
ｏ
ｐ
･
𐤃
𐤇
𐤒
𐤓
𐤔
𐤕
𠀁
𠀃
𠀆
𠀉
𠀎
𠀐
𠁁
𠁣
𠂆
𠂇
𠂈
𠂉
𠂊
𠂋
𠂎
𠂒
𠂔
𠂛
𠂡
𠂢
𠂤
𠂬
𠂭
𠂹
𠃊
𠃋
𠃌
𠃍
𠃎
𠃑
𠃓
𠃔
𠃜
𠄌
𠄎
𠄠
𠄢
𠆢
𠆥
𠇍
𠈌
𠌵
𠓜
𠔉
𠔥
𠔼
𠔽
𠔿
𠕀
𠕁
𠕋
𠘧
𠘨
𠙻
𠙼
𠚏
𠚒
𠚤
𠚪
𠣏
𠤎
𠤕
𠥓
𠦄
𠦑
𠦝
𠧒
𠧗
𠧪
𠩺
𠪚
𠫓
𠫔
𠫤
𠬛
𠬝
𠬞
𠬢
𠬤
𠬶
𠮛
𠮦
𠮷
𠯑
𠱠
𠳮
𠷎
𡈼
𡉀
𡉵
𡌥
𡍮
𡏳
𡕒
𡕩
𡕰
𡖅
𡗗
𡗜
𡘆
𡘤
𡧱
𡨄
𡩧
𡬠
𡭽
𡰣
𡰥
𡰪
𡰯
𡰱
𡷈
𡸁
𡿨
𡿩
𡿪
𡿺
𢀖
𢀛
𢀩
𢁙
𢆉
𢆰
𢆶
𢇁
𢇇
𢉖
𢌬
𢌿
𢏚
𢑑
𢑚
𢖻
𢙣
𢛳
𢦏
𢦒
𢧵
𢼄
𢾕
𣁋
𣄼
𣅀
𣅽
𣍘
𣎳
𣎵
𣏋
𣏼
𣗥
𣥂
𣥖
𣦵
𣦼
𣧄
𣪊
𣪠
𣬉
𣳾
𣶒
𤇾
𤊽
𤐫
𤓰
𤔔
𤕨
𤣩
𤰇
𤰔
𤰞
𤴓
𤴔
𤽄
𥁑
𥁕
𥃦
𥃩
𥃭
𥇡
𥑟
𥘅
𥘈
𥝢
𥫗
𥱡
𦈢
𦉪
𦉬
𦉼
𦍌
𦍒
𦎧
𦐇
𦓔
𦔮
𦘒
𦙃
𦚏
𦣝
𦣞
𦣻
𦥑
𦥔
𦥯
𦨉
𦭝
𦰩
𧆞
𧈧
𧘇
𧰨
𧴪
𧴮
𧵩
𧾷
𨸏
𨾴
𩙿
𩠐
𩫏
𩵋
𪉷
𪜀
𪟽
𪠲
𪩲
𫇦
𫔭
𫜸
𫝀
𫠣
𫠩
𫢉
𫥞
𫩏
𫩠
𫪡
𫲽
𫶧
𬀷
𬐘
𬗌
𬙙
𬛸
𬜯
𬟩
𬯁
𬴘
𬺻
𬼉
𬼖
𭀰
𭁈
𭁨
𭅰
𭑈
𭕄
𭗼
𭤨
𭥫
𭻾
𮅕
𮊿
𮍌
𮍏
𮓗
𮥼
𮧮
廾
𰀁
𰀄
𰀈
𰀉
𰀕
𰀠
𰀡
𰀢
𰀪
𰁜
𰃮
𰆊
𰆘
𰋙
𰕎
𰢴
𰧭
𰯲
00--
01--
02--
04--
05--
08--
09--
121--
18--
57--
64--
69--
75--
78--
81--
82--
84--
92--
978--
99--
a--
ab--
aba--
aborig--
ac--
ace--
aci--
aciro--
acu--
ad--
ada--
adih--
af--
afa--
afe--
afi--
afu--
ah--
ahow--
ai--
aici--
aiha--
air--
ak--
aka--
al--
ala--
ale--
alex--
alf--
ali--
all--
alo--
alter--
am--
ama--
amb--
ami--
amon--
an--
ance--
and--
andria--
ang--
ani--
ano--
anu--
ao--
app--
appe--
ar--
ara--
ari--
arkun--
aro--
art--
arw--
as--
asa--
at--
ate--
ato--
au--
aust--
ave--
aw--
awa--
ay--
ayer--
az--
b--
ba--
bar--
be--
bel--
benja--
ber--
bi--
bib--
bin--
bio--
bis--
bit--
bo--
bor--
bra--
bran--
bre--
bu--
bud--
budd--
bund--
burg--
by--
c--
ca--
cace--
caci--
caka--
cam--
can--
car--
cas--
cat--
cayka--
ce--
cen--
cer--
cfg--
ch--
cha--
che--
ci--
cia--
cid--
ciher--
cika--
cima--
cin--
cinst--
cio--
cipa--
cir--
cis--
cisleit--
cita--
civili--
ciw--
ciyo--
cla--
clo--
co--
coke--
col--
colo--
com--
communi--
con--
cong--
cor--
cou--
creat--
cri--
cru--
cu--
cung--
cur--
d--
da--
dada--
dam--
day--
de--
dec--
del--
demok--
des--
deuts--
di--
dis--
do--
dob--
doc--
dong--
dr--
du--
dur--
e--
ec--
eca--
eco--
ed--
eda--
edit--
eff--
ei--
el--
elec--
em--
emb--
en--
enab--
equ--
equiv--
er--
es--
estab--
et--
eu--
ex--
exclu--
expec--
f--
fa--
fai--
fan--
fang--
far--
fe--
fer--
fet--
fi--
fic--
fici--
fin--
fish--
fla--
fo--
fol--
fola--
foli--
fon--
fong--
for--
fra--
frans--
fre--
fri--
fu--
fx--
g--
ga--
gal--
gar--
ge--
geme--
get--
go--
gra--
grass--
gri--
gu--
gua--
guer--
gut--
h--
ha--
hab--
haci--
hak--
haka--
hake--
hali--
halo--
han--
har--
hasa--
hata--
hay--
hayas--
he--
hel--
hen--
hi--
hiber--
hil--
hin--
hit--
ho--
hol--
hon--
hu--
hunga--
i--
ia--
ic--
if--
ih--
ii--
ika--
iki--
il--
ili--
illy--
im--
in--
ina--
indi--
indo--
infec--
ing--
initi--
institu--
inte--
inter--
inve--
io--
ip--
ir--
ira--
iri--
is--
isa--
it--
ita--
iti--
ito--
iu--
iv--
iw--
j--
ja--
je--
ji--
jo--
ju--
jugosla--
jun--
jus--
k--
ka--
kaa--
kaba--
kaca--
kaci--
kada--
kafa--
kahe--
kahi--
kai--
kak--
kaka--
kake--
kaki--
kako--
kala--
kale--
kali--
kallo--
kalo--
kalopi--
kan--
kana--
kang--
kao--
kaora--
kapa--
kapi--
kar--
kara--
kari--
karo--
kart--
karu--
kas--
kasa--
kasi--
kasu--
kata--
kate--
kaw--
ke--
ken--
kha--
ki--
kil--
kila--
kim--
kin--
kina--
king--
kir--
kit--
kiya--
kle--
ko--
kok--
koku--
kol--
kom--
komi--
kon--
kona--
kons--
kopi--
kor--
kra--
kri--
ku--
kua--
kur--
kus--
kuwa--
kwa--
ky--
kya--
kyrk--
l--
la--
lac--
lag--
lala--
lali--
lau--
law--
lay--
le--
lec--
li--
liha--
lihe--
lin--
liw--
lo--
lon--
lot--
low--
loy--
lu--
luma--
ly--
m--
ma--
maa--
mac--
maca--
mace--
maci--
maco--
mada--
made--
madi--
mae--
mafa--
mafe--
mag--
mah--
maha--
mahi--
mai--
main--
maka--
make--
maki--
mako--
maku--
mal--
mala--
malami--
malapi--
malasa--
male--
mali--
malo--
mama--
mamala--
mami--
mamipa--
man--
manga--
manu--
map--
mapa--
mapaka--
mappings--
mapu--
mara--
mari--
maro--
mas--
masa--
masi--
maso--
mat--
mata--
mati--
maw--
may--
maya--
me--
mega--
mel--
mer--
mi--
mic--
mica--
mici--
mico--
mid--
mife--
mifo--
mih--
mihad--
miing--
mik--
mika--
mike--
miki--
miko--
miku--
mil--
mila--
mile--
milesi--
mili--
min--
mipa--
mipala--
mir--
mira--
mirepe--
mirror--
mis--
misa--
misi--
miso--
misu--
mit--
mita--
miteng--
mito--
miwar--
mla--
mo--
moci--
moho--
mon--
mor--
mos--
mr--
mu--
muk--
mus--
my--
n--
na--
nai--
nak--
naka--
nali--
nama--
nami--
nan--
nani--
nano--
nanu--
nao--
naro--
naw--
nay--
nd--
ne--
neander--
neg--
new--
ng--
nga--
ngo--
ngu--
ni--
nico--
nika--
nikala--
niki--
nil--
nila--
nina--
ning--
nipa--
nipi--
nipipa--
nisa--
nisi--
niu--
niw--
niya--
no--
nor--
not--
ns--
nu--
nya--
o--
oc--
oco--
od--
of--
oh--
ok--
okay--
ol--
om--
oma--
on--
oni--
op--
open--
opi--
or--
ora--
org--
os--
osto--
ot--
oy--
oya--
p--
pa--
pac--
paca--
pace--
paci--
pad--
pah--
pai--
pak--
paka--
pake--
paki--
pako--
pala--
palao--
pale--
palo--
pan--
papa--
papi--
para--
pas--
pasa--
pasi--
paso--
pat--
pata--
patake--
pate--
pati--
patu--
pav--
paw--
pay--
pe--
pen--
per--
phy--
pi--
pic--
pice--
pida--
piha--
piku--
pila--
pile--
pili--
pin--
pina--
ping--
pipa--
pira--
pirk--
pisa--
pisaharate--
pisi--
pisin--
pita--
pite--
piti--
pito--
pl--
ple--
pn--
po--
pob--
poh--
pok--
pola--
popu--
por--
pow--
pr--
pre--
presi--
prob--
prog--
provi--
provin--
pu--
puino--
q--
qu--
que--
r--
ra--
rahi--
rat--
re--
reg--
ren--
res--
revolu--
ri--
rk--
ro--
rod--
rohi--
roma--
ru--
s--
sa--
saca--
saci--
sadama--
sadi--
sae--
safe--
sah--
sai--
sak--
saka--
sakaci--
sakala--
saki--
sakino--
sal--
sala--
sali--
salo--
sam--
sama--
sami--
samo--
san--
sandbox--
sang--
sano--
sao--
sap--
sapa--
sapi--
sapipa--
sar--
sas--
sasa--
sasi--
sata--
sato--
sawti--
say--
sch--
schu--
sco--
se--
sela--
sen--
set--
sh--
shor--
si--
sie--
sig--
siki--
sila--
sim--
sima--
sin--
sina--
sipa--
sir--
situ--
siw--
ska--
ski--
sla--
slo--
small--
so--
sol--
sop--
spe--
sr--
st--
stan--
ste--
sto--
stra--
stro--
su--
sub--
sur--
sve--
sw--
swe--
sya--
syi--
syu--
sz--
t--
ta--
tada--
tadaci--
tadama--
taer--
tafe--
tah--
taha--
tahi--
tai--
tak--
tala--
tama--
tan--
tang--
tano--
tar--
tara--
tari--
tata--
tati--
taw--
tay--
te--
tep--
ter--
th--
the--
thre--
ti--
tidyval--
tig--
tin--
tina--
tiya--
tj--
to--
tofo--
tok--
toko--
tolo--
ton--
tona--
top--
topi--
tor--
torci--
tos--
tosa--
tow--
toya--
tp--
tr--
tra--
trans--
tshog--
tu--
tuku--
tur--
ty--
type--
u--
uc--
uk--
uma--
un--
uni--
univer--
up--
upp--
ura--
us--
use--
ut--
v--
va--
ve--
ver--
vers--
vi--
vik--
vil--
vin--
vla--
vo--
w--
wa--
wal--
war--
way--
we--
wen--
west--
whi--
wie--
wiki--
wil--
win--
wito--
wol--
wor--
wr--
wri--
wu--
x--
xi--
y--
ya--
yami--
yan--
ye--
yi--
yin--
yo--
yu--
z--
za--
zel--
zu--
θ--
κ--
λ--
ν--
τ--
а--
бит--
в--
вели--
го--
д--
з--
к--
н--
ник--
о--
п--
пр--
р--
с--
ср--
срб--
ا--
ال--
الشع--
ب--
جمهو--
حس--
حم--
د--
دا--
ع--
བ--
--0
--00
--01
--03
--09
--1
--10
--2
--20
--26
--3
--4
--5
--6
--64
--7
--74
--8
--81
--86
--9
--91
--93
--a
--aa
--aan
--aay
--able
--ac
--aca
--ad
--ada
--adah
--aen
--ag
--aga
--ah
--ai
--ak
--aki
--akit
--al
--ala
--ali
--am
--amaan
--an
--anay
--ance
--ang
--ans
--ao
--ap
--ar
--ara
--ard
--args
--ary
--as
--at
--ata
--atal
--ate
--atic
--ation
--ato
--aw
--awa
--awan
--ay
--aya
--ayr
--ayto
--b
--ba
--ban
--bat
--be
--berg
--bi
--blik
--blurb
--bo
--c
--ca
--caan
--cacak
--cacoli
--cadan
--cafay
--cak
--cal
--camol
--can
--carcar
--cas
--caw
--cay
--ce
--ceay
--cec
--cecay
--cemcemay
--cen
--cep
--cer
--ceror
--ces
--ch
--ci
--cidekay
--cies
--cih
--cin
--cio
--ciyaw
--ck
--cks
--clic
--co
--coay
--cok
--coker
--colo
--coran
--createurl
--cs
--ct
--ction
--cts
--cu
--cuk
--cy
--d
--da
--daan
--daay
--daen
--daf
--dah
--dahalay
--dak
--dakan
--dal
--dalay
--dam
--dama
--dan
--dang
--daw
--day
--de
--ded
--dek
--dem
--demic
--den
--des
--desay
--di
--display
--diw
--diwan
--dj
--dkid
--do
--dod
--dom
--dong
--dongan
--dot
--dra
--ds
--du
--dus
--dy
--dz
--e
--ea
--ean
--ec
--eci
--ed
--eday
--editurl
--edo
--ef
--egger
--eh
--ek
--ekan
--ekay
--eko
--el
--em
--emay
--emek
--en
--ena
--enak
--enen
--eng
--engeng
--engeran
--eno
--ens
--ent
--ep
--er
--era
--ered
--eren
--erep
--erly
--ers
--erung
--es
--ese
--est
--et
--ete
--ey
--ezi
--f
--fa
--fac
--facay
--fad
--fadesan
--fai
--fan
--fana
--fangay
--faw
--fay
--fe
--fek
--fekan
--fel
--felan
--feli
--felian
--fen
--fer
--fet
--fi
--fin
--firmed
--fis
--fitay
--flaf
--fo
--foay
--fong
--foy
--fu
--fuay
--futo
--g
--ga
--gad
--gan
--gaw
--gay
--ge
--gen
--ger
--ges
--ght
--gi
--gic
--gical
--gko
--gli
--gn
--grad
--gs
--gu
--gue
--gy
--h
--ha
--had
--hadak
--haday
--hai
--hal
--han
--hang
--hanhan
--hat
--haw
--hay
--hca
--he
--header
--hedaw
--heka
--hekad
--heker
--heko
--hen
--hepic
--hepo
--hera
--hi
--hiay
--hic
--hidan
--hing
--hira
--ho
--hoc
--hoday
--hok
--hokan
--hoko
--holol
--hpoh
--ht
--hu
--hua
--hui
--hwa
--hyo
--i
--ia
--ial
--ian
--ic
--ical
--id
--idad
--ie
--ied
--iens
--ier
--ies
--ification
--ih
--iha
--ii
--ik
--iki
--iko
--iku
--il
--imet
--in
--ina
--inaay
--ine
--inen
--ing
--ini
--io
--ion
--ions
--ir
--ira
--iro
--iroan
--is
--isa
--ise
--ism
--ist
--it
--ity
--ive
--iw
--iya
--iyaru
--j
--ja
--je
--ji
--ju
--k
--ka
--kaay
--kacidal
--kad
--kak
--kal
--kan
--kapah
--kapo
--kar
--karkar
--kat
--kaw
--kaway
--kay
--kayat
--ke
--kec
--kecan
--ked
--keday
--kel
--keled
--keloh
--ken
--ker
--kerem
--kes
--kesay
--ket
--key
--ki
--kian
--kiay
--kid
--kifo
--kit
--kitikiting
--kiw
--kki
--ko
--koli
--kop
--ks
--kt
--ktok
--ku
--kuo
--kur
--kuwa
--l
--la
--laan
--laay
--lac
--lad
--lah
--lahan
--lahay
--lak
--lam
--lamlam
--lan
--land
--laplap
--las
--lat
--law
--lay
--ld
--le
--lec
--led
--lef
--lek
--lem
--lemed
--len
--leng
--lepon
--les
--ley
--li
--lian
--lic
--lid
--lifet
--lik
--lika
--likay
--lim
--lin
--ling
--lingad
--lingangan
--link
--lis
--lism
--litemoh
--lito
--liw
--liwal
--liway
--liya
--liyaw
--ll
--lla
--lle
--lles
--llo
--lm
--lma
--lo
--loay
--loco
--lod
--lofu
--logy
--loh
--lok
--loka
--lol
--lom
--loma
--lon
--lona
--lotay
--loway
--loy
--ls
--lsil
--lto
--lu
--luk
--lung
--lus
--ly
--m
--ma
--mad
--mah
--mal
--man
--mas
--maw
--mawmaw
--may
--mbo
--me
--med
--mela
--melaw
--men
--ments
--mer
--mi
--mil
--min
--mis
--mlam
--mna
--mo
--mod
--molay
--mon
--mot
--ms
--mu
--mud
--mul
--my
--n
--na
--nah
--nal
--nam
--nan
--nas
--naw
--nay
--nayal
--nc
--nca
--nce
--nd
--nda
--nds
--ne
--nek
--nen
--ner
--nes
--ney
--ng
--nga
--ngaay
--ngan
--ngawan
--ngay
--ngen
--nges
--ngi
--ngiay
--ngko
--ngra
--ngroh
--ngs
--ngtol
--ngtu
--ni
--niay
--nicay
--niko
--ning
--nis
--nisya
--nja
--nkiw
--nkiwan
--nkiway
--nko
--nn
--nna
--nny
--no
--nom
--noman
--nowas
--npaw
--npira
--ns
--nsa
--nsaay
--nt
--nto
--ntoay
--nu
--num
--nut
--ny
--o
--oay
--obardi
--oc
--ocan
--od
--odan
--odo
--odoen
--oes
--of
--oh
--oi
--oin
--ok
--oko
--ol
--oli
--om
--oma
--on
--ong
--only
--ons
--op
--opa
--or
--ore
--oren
--orum
--ory
--os
--ot
--ota
--otaay
--oto
--ous
--ovic
--ow
--oy
--p
--pa
--paday
--page
--pah
--pak
--pal
--pas
--paw
--pay
--pe
--ped
--pei
--pet
--pi
--pic
--pik
--piko
--pil
--pisi
--pito
--piw
--piya
--png
--po
--pol
--pon
--pongan
--ponis
--popo
--pos
--pot
--pow
--poyay
--ps
--psop
--pt
--pto
--pu
--puka
--pula
--pur
--q
--r
--ra
--raan
--raay
--rah
--rak
--ran
--rang
--rar
--rarem
--ras
--rat
--raw
--ray
--rd
--rdo
--re
--ren
--rep
--rg
--ri
--ric
--rid
--riki
--rina
--ring
--rira
--ris
--rise
--riw
--rkar
--rn
--rna
--rno
--ro
--rocod
--rod
--roh
--rok
--rom
--roma
--ron
--rong
--ropo
--rot
--rry
--rs
--rt
--ru
--ry
--s
--sa
--saan
--sair
--sal
--san
--sanga
--saotan
--saw
--sawad
--say
--sayr
--schaft
--se
--sed
--self
--sen
--setek
--sh
--si
--sifa
--sifo
--sin
--sis
--sita
--sive
--size
--sk
--ski
--sko
--sky
--slav
--sm
--so
--sok
--sol
--son
--sot
--sowal
--sr
--ss
--ssa
--st
--sta
--stan
--ster
--su
--subana
--sum
--sy
--sya
--t
--ta
--taay
--tahidan
--tal
--tan
--tang
--taniya
--tar
--tas
--taw
--tay
--tayay
--te
--ted
--tek
--teko
--tel
--temoh
--temuh
--ten
--tena
--tepesay
--ter
--tera
--tes
--text
--th
--ti
--tial
--tiay
--tic
--ties
--tihi
--tiih
--tik
--tikoan
--tikol
--tin
--ting
--tingay
--tini
--tion
--tions
--tir
--tira
--tiri
--tis
--tiva
--tive
--tl
--tly
--to
--toc
--tok
--toktok
--tola
--ton
--tor
--tosa
--tosok
--town
--toy
--tro
--trov
--ts
--tt
--tta
--tu
--ture
--tusa
--tvo
--ty
--u
--uay
--uce
--ud
--ue
--ui
--ul
--ulo
--ulul
--um
--up
--upa
--ur
--ure
--ured
--url
--us
--usa
--usaan
--usi
--usu
--ut
--uto
--uy
--v
--va
--ve
--ver
--vic
--ville
--vo
--vy
--w
--wa
--wac
--wacay
--wad
--wah
--wak
--wal
--wan
--wanan
--wangan
--war
--wasak
--wati
--way
--wen
--wi
--wici
--wid
--wiko
--wis
--wiya
--wkit
--wl
--wlaen
--wli
--wn
--wo
--wraw
--wtiw
--wtoc
--wu
--x
--y
--ya
--yad
--yai
--yakay
--yaku
--yal
--yam
--yan
--yang
--yar
--yaro
--yas
--yat
--yaw
--yawan
--yay
--yday
--yen
--yi
--yie
--yin
--yl
--yla
--yni
--yo
--yoc
--yokan
--yol
--yon
--yor
--yra
--ys
--ysay
--yto
--yu
--z
--za
--ze
--zi
--zo
--zogtum
--ztes
--α
--η
--ι
--ο
--ος
--ς
--а
--б
--в
--во
--ета
--и
--ии
--ия
--к
--л
--н
--о
--ски
--скі
--стан
--у
--эс
--я
--ان
--ة
--د
--ر
--ل
--م
--ن
--ي
--ية
--ی
--یه
--یہ
