!
"
#
##0
##1
##10
##11
##12
##13
##14
##15
##16
##17
##18
##19
##2
##20
##21
##22
##23
##24
##25
##26
##27
##28
##29
##3
##30
##31
##32
##33
##34
##35
##36
##37
##38
##39
##4
##40
##41
##42
##43
##44
##45
##46
##47
##48
##49
##5
##50
##51
##52
##53
##54
##55
##56
##57
##58
##59
##6
##60
##61
##62
##63
##64
##65
##66
##67
##68
##69
##7
##70
##71
##72
##73
##74
##75
##76
##77
##78
##79
##8
##80
##81
##82
##83
##84
##85
##86
##87
##88
##89
##9
##90
##91
##92
##93
##94
##95
##96
##97
##98
##99
$
%
&
'
(
)
*
+
,
-
.
/
0
00
000
001
01
02
03
04
05
06
07
08
09
1
10
100
1000
10000
101
105
1058
109
1098
11
110
1102
111
119
12
120
1200
123
1234
125
126
13
130
132
1347
1351
1364
1377
1380
14
140
1411
1492
15
150
1500
1558
1585
16
160
1609
1648
1687
1692
17
175
1774
1776
1779
1789
1796
1797
1798
18
180
1800
1801
1803
1804
1812
1815
1817
1821
1825
184
1883
1885
1887
1888
1892
1893
19
1900
1901
1903
1904
1905
1906
1907
1909
1910
1913
1914
1915
1917
1918
1920
1921
1922
1923
1924
1926
1927
1928
1929
1930
1931
1932
1933
1934
1935
1937
1938
1939
1940
1941
1942
1943
1944
1945
1946
1947
1948
1949
195
1950
1951
1952
1953
1954
1955
1956
1957
1958
1959
1960
1961
1962
1963
1964
1965
1966
1967
1968
1969
1970
1971
1972
1973
1974
1975
1976
1977
1978
1979
1980
1981
1982
1983
1984
1985
1986
1987
1988
1989
1990
1991
1992
1993
1994
1995
1996
1997
1998
1999
2
20
200
2000
2001
2002
2003
2004
2005
2006
2007
2008
2009
2010
2011
2012
2013
2014
2015
2016
2017
2018
2019
2020
2021
2022
2023
21
22
220
23
230
234
24
240
25
250
2500
255
26
27
270
28
280
29
3
30
300
3000
31
3166
316846592
32
33
330
34
35
350
36
360
37
38
39
4
40
400
4000
41
42
43
44
45
450
456
46
47
48
49
5
50
500
5000
51
52
53
54
55
56
57
570
58
59
6
60
600
61
62
6251
63
639
64
65
66
67
68
680
69
7
70
700
71
72
720
73
74
75
750
76
77
78
79
790
8
80
800
80665
81
82
828
83
8316846592
84
85
86
87
88
89
9
90
900
9000
91
92
93
94
95
96
965
97
98
99
:
;
<
=
>
?
@
\
^
_
a
ab
abbr
abbreviation
abbreviations
abc
abdul
abdullah
ability
able
ablon
ablono
about
above
abovestyle
abs
absent
absolute
abstract
abu
academic
acceleration
accept
acceptable
accepted
accepting
accepts
access
accessdate
accessed
accessibility
accessible
according
account
accounts
achieve
aclass
acre
across
act
action
actions
active
activities
activity
acts
actual
actually
ad
add
addclass
added
adding
addition
additional
address
adds
addu
adj
adjust
admin
administration
administrative
administrator
administrators
admins
adminship
advance
advanced
af
afeef
affairs
affect
affects
affiliate
afghanistan
africa
african
aft
after
again
against
age
agency
ago
ahead
aid
aids
air
aired
airport
airports
al
album
algeria
ali
alias
aliases
align
alignment
all
allosaeed
allow
allowed
allowing
allows
alma
almost
alone
along
alongside
alpha
alphabet
alphabetical
alphabets
already
als
also
alt
alternate
alternative
alternativemap
although
always
am
ambassador
ambiguous
ambox
america
american
americans
amet
among
amount
an
analysis
anchor
ancient
and
announced
announcement
announcing
annual
anonymous
another
answer
any
anyone
anything
aorta
apart
apologies
apologize
appear
appearance
appearances
appearing
appears
appending
applicable
application
applications
applied
applies
apply
appointer
approach
appropriate
approved
apps
april
ar
arab
arabia
arabic
arch
archive
archived
archivedate
archives
archiveurl
are
area
areas
aren
arg
argentina
argkeys
args
argsk
argument
arguments
arm
arms
around
arranged
array
art
artery
arthritis
article
articles
artist
arts
arxiv
as
asia
asian
asin
ask
asked
asking
assembly
assigned
assist
assisted
associated
association
assume
at
atm
atmosphere
atoll
atolls
attack
attempt
attention
attr
attribute
attributes
au
audio
august
australia
australian
austria
author
authority
authors
auto
autocollapse
autoconfirmed
automatic
automatically
autonomous
autoreview
autovalue
available
average
avoid
avoided
avoids
awarded
awards
awareness
b
ba
babel
back
background
bad
bahasa
bahrain
bangladesh
bank
banner
banners
bannertemplate
baptism
bar
bare
barrel
barrels
base
based
basestyle
basic
basis
bat
battles
bbc
bc
be
beach
became
because
become
becomes
becoming
been
bef
before
begin
beginning
begins
begun
behalf
behavior
behaviour
behind
beijing
being
belgium
believe
below
belowstyle
best
beta
betawiki
better
between
bg
bibcode
big
billion
biographies
biography
birth
bit
black
blacklist
blacklisted
blank
blankname
block
blocked
blood
blue
blurb
bn
board
body
bodyclass
bodystyle
boilerplate
bold
book
books
boolean
border
born
bot
both
botmaster
bots
bottom
box
boxes
br
braces
bracket
brackets
brain
branch
brazil
break
breaking
breaks
brfa
brief
bring
british
broad
broccoli
broken
browser
browsers
browsing
bs
btu
budget
bug
bugs
build
builder
building
built
bulleted
bureaucrat
bureaucrats
bush
bushel
business
but
button
buttons
by
bytes
c
ca
cabinet
cache
cal
calculated
calendar
california
call
called
calling
calls
calorie
camera
campaign
can
canada
canadian
canal
candidate
candidates
cannons
cannot
cap
capacity
capital
capitalised
capitalization
caption
car
card
cards
care
cartography
case
cases
casualties
cat
categories
categorisation
categorise
categorization
categorize
categorizes
category
categoryhandler
cats
cause
causes
cell
cells
center
centered
centimeter
centimetre
central
centre
century
certain
cfg
chain
chairman
chancellor
change
changed
changes
changing
channel
chapter
chapterurl
character
characters
charge
charles
charter
check
checked
checking
checks
checktype
cheers
chemical
chemistry
chief
child
children
china
chinese
choose
chosen
church
circumstances
citation
citationclass
citations
cite
citeref
cities
citing
citizenship
citoid
city
civil
claims
class
classes
classical
clean
cleanup
clear
clearly
click
clicking
close
closed
club
clubs
cm
co
coa
coat
coauthors
code
coded
codes
coffee
coins
col
collaboration
collapse
collapsed
collapsible
collection
collections
college
colon
color
colors
colour
colspan
colstyle
column
columns
colwidth
com
combatant
combatants
combination
combinations
combined
come
comes
coming
comma
command
commander
commas
comment
comments
commercial
commission
committee
committees
common
commonly
commons
commonwealth
communication
communities
community
compact
company
compare
compass
competition
complete
completed
completely
complex
complicated
composer
composite
comprehensive
computer
concat
concerns
condition
conditions
conduct
conference
config
configuration
confirmed
conflict
conflicts
congo
congress
conjunction
consensus
consider
considered
consistent
consisting
constituency
constitutional
construction
consultation
consultations
contact
contain
contained
container
containing
contains
content
contents
contest
context
continue
contribs
contribute
contributing
contribution
contributions
contributor
contributors
control
convention
conversation
conversations
conversion
convert
converted
converting
converts
cooperation
coor
coord
coordinate
coordinates
coordinatespec
coordination
copied
copies
copy
copying
copyright
copyrighted
copyrights
core
corner
correct
correctly
corresponding
cost
could
council
count
counter
counting
countries
country
county
course
court
cover
coverage
covered
create
created
creates
creating
creation
creative
creator
credits
criteria
croatia
cross
crown
cs
css
csstext
cu
cubic
cuft
cuin
cultural
culture
cup
curly
currency
current
currently
currenttitle
custom
customary
cuyd
cvt
d
da
daily
dash
data
database
databases
dataset
datastyle
date
dates
david
day
days
dc
dd
de
dead
deadurl
deal
death
deaths
debate
debug
dec
decade
december
decide
decimal
decimals
decision
declared
default
defaults
defence
define
defined
definition
definitions
deg
degree
degrees
del
delegate
delete
deleted
deletion
delivered
delivery
democratic
demographics
demolevel
demonstration
demospace
denmark
denominator
density
department
depend
dependent
depending
depends
deployment
deprecated
depth
deputy
describe
described
description
descriptions
design
designed
desired
desk
desktop
destination
destroyed
detail
detailed
details
detect
detected
detects
determine
determined
determines
deutschland
develop
developed
developer
developers
development
deviathan
device
devices
df
dhivehi
dia
diacritics
diagram
did
die
diff
differ
difference
differences
different
difficult
digit
digital
digits
dim
dir
direction
directly
director
directory
disable
disabled
disambig
disambiguation
disambiguous
disaster
discouraged
discrimination
discuss
discussed
discussion
discussions
disease
disp
display
displayed
displaying
displays
dispute
disputed
disputes
dissemination
distinct
distributed
distributor
district
districts
div
divehi
diversity
division
dm
dms
do
doc
doctitle
document
documentation
documented
does
doesn
doi
doing
dolor
dolore
domain
don
donation
done
donum
dot
double
down
download
draft
drafting
drink
dry
dst
due
duke
dunam
duplicate
during
dv
e
each
earl
earlier
earliest
early
earth
easier
easily
east
eastern
easy
economic
ed
edit
edited
editing
edition
editor
editors
edits
education
edward
effect
effective
effectively
efficient
effort
eg
egypt
eight
eighth
either
el
elected
election
elections
element
elements
elevation
eligible
elitre
else
elseif
elsewhere
em
email
embargo
embassy
embedded
embedding
emblem
empire
empty
en
enable
enabled
enclosed
encode
encourage
encouraged
encyclopedia
end
ended
ending
ends
energy
enforcement
engagement
engineering
england
english
englishman
enough
ensign
ensure
enter
entered
entering
entire
entities
entity
entries
entry
env
envfuncs
environment
enwiki
eo
episode
episodes
equal
equals
equivalent
err
error
errors
es
escape
esp
especially
essential
est
established
et
etal
etc
eu
europe
european
evaluated
evaluates
even
evenodd
evenstyle
event
events
eventually
ever
everest
every
everyone
everything
ex
exactly
example
examples
except
exception
exceptions
executive
exhaust
exist
existing
exists
expand
expanded
expanding
expansion
expected
experience
experienced
experiment
expiry
explain
explained
explaining
explanation
explicit
explicitly
explorer
exponent
expression
extended
extension
extensions
external
extinct
extra
extraclasses
extract
f
fa
fact
factor
fail
fails
fair
fall
falls
false
family
faq
far
fdc
feature
featured
features
february
fed
federal
feed
feedback
feel
feet
female
feminism
fetch
few
fi
field
fields
fifth
figure
figures
file
filename
files
fill
filled
film
films
filter
final
finally
find
finding
finished
finland
firefox
first
firstminister
firstn
fish
fit
fits
five
fix
fixed
fixing
fl
flag
flagged
flags
flip
float
floating
floor
florida
flow
fluid
flush
fmbox
fmt
focus
focused
folk
folklore
follow
followed
following
follows
font
foo
food
foot
football
footer
footnote
footnotes
for
force
forced
forces
foreign
form
format
formations
formatlink
formats
formatted
formatting
former
formerly
forms
formula
forward
found
foundation
founded
founder
four
fourth
fr
frac
fraction
fractions
fragment
frame
frameless
frameonly
framework
france
free
freedom
french
frequently
friday
from
front
ft
full
fullargs
fullurl
fully
function
functionality
functions
fundraising
funds
further
future
g
ga
gadgets
gal
gale
gallon
gallons
game
games
gan
gap
gaps
gas
gender
general
generally
generate
generated
generates
generating
generic
genotype
genre
genres
geo
geobox
geographic
geographical
geography
geohack
george
georgia
gerardm
german
germany
get
getargnums
getargs
getcurrentframe
getcurrenttitle
getenvironment
getexpandedmessage
getparent
gets
getting
gfdl
gif
girl
give
given
gives
giving
gj
gje
gl
glacious
global
globe
glossaries
gmatch
gnis
go
goal
goals
goes
going
good
google
got
gov
governance
governing
government
governments
governor
gram
grams
grand
grant
granted
grants
gray
great
greater
greek
green
greetings
gregorian
grey
grid
ground
group
grouped
groupn
groups
groupstyle
gsub
guarantee
guide
guidelines
guinea
gutenberg
h
ha
had
half
hand
handle
handler
handlers
handling
happen
happens
happy
harassment
hard
has
hasclass
hatnote
have
having
hcard
he
head
header
headers
headerstyle
heading
health
hear
hebrew
hectare
height
heir
held
helipad
hello
help
helped
helper
helpful
helping
helps
hem
hence
henry
her
here
hi
hidden
hide
hierarchy
high
higher
highest
highly
him
hindi
his
historical
history
hlist
hn
hold
holder
holders
holding
holds
holy
home
hong
honorific
hope
horizontal
horsepower
host
hosted
hou
hour
hours
house
houses
how
however
hp
hr
hsb
html
htmlbuilder
http
https
hu
human
humanities
hundredweight
huvadhu
hy
hyphen
hyphenated
i
ia
ian
iata
ibn
icao
icon
icons
id
idea
ideally
ideas
idem
identical
identified
identifier
identifiers
identify
if
ignore
ignored
ihavandhoo
ii
iii
illu
illustration
image
imageleft
imageright
images
imagestyle
imbox
imdb
immediately
imp
imperial
impgal
implementation
implemented
implements
important
imported
improve
improved
improvements
improving
in
ina
inactive
inc
inch
inches
include
included
includes
including
inclusion
incorrect
increase
incumbent
indef
indefinitely
indent
independent
index
india
indian
indicate
indicating
indices
indigenous
individual
individuals
indonesia
info
infoboks
infobox
infoboxes
inform
information
infringement
inhabitants
inherit
initial
initialize
initially
initials
initiative
inline
inner
inout
input
insensitive
insert
inserted
inside
inspired
instance
instances
instead
instructions
insular
int
integer
integers
intended
interest
interested
interface
intermediate
internal
internalclasscounter
internally
international
internet
interpreted
interview
interwiki
interwikis
into
intro
introduction
invalid
invariant
invitation
invite
invited
invocation
invoke
invoked
involved
ip
ipa
ipairs
ipsum
iran
iraq
ireland
is
isbn
islam
islamic
island
islands
ismn
isn
isnotempty
iso
israel
issn
issue
issues
isxn
it
italian
italic
italics
italy
item
items
its
itself
j
ja
james
january
japan
japanese
javascript
jewish
jfm
job
joe
john
join
joining
joins
joint
journal
journals
jpg
jr
js
jstor
juan
julian
julianday
july
june
just
k
ka
karachi
kcal
keep
keeping
kenya
kept
key
keyboard
keys
keywords
kg
kgf
khazaanaa
killed
kilogram
kilograms
kilometer
kilometers
kilometre
kilowatt
kind
king
kingdom
kit
kj
km
kn
know
knowledge
known
ko
kong
koord
korea
kpa
ku
kv
kw
kwh
l
la
label
labels
lack
lahore
land
lang
language
languages
large
larger
largest
last
lastauthoramp
lat
latd
late
later
latest
latin
latitude
latm
latter
law
lay
layer
layout
lb
lbf
lbmol
lccn
le
lead
leader
leaders
leadership
leading
league
learn
learning
least
leave
leaving
left
legal
legend
legislature
legitimate
len
length
less
let
lets
letter
letters
level
levels
lex
li
libraries
library
libraryutil
license
lieutenant
life
light
like
likely
limit
limitations
limited
line
linear
lines
link
linked
linking
links
lipsum
list
listed
listing
listn
listnum
lists
liststyle
listtype
liter
literal
literature
litre
little
live
living
livingbot
lk
ll
ln
lo
load
loaddata
loaded
loc
local
localisation
localised
localising
located
location
locations
locmap
log
logarithm
logged
logic
logo
logs
lon
london
long
longd
longer
longitude
look
looking
looks
lookup
loop
lord
lords
lorem
lost
lot
lots
louis
love
loves
low
lower
lowercase
lt
ltf
lua
lum
m
ma
made
magazine
magic
magnitude
mailing
main
maint
maintain
maintenance
major
majority
majorityleader
make
makeinvokefunc
makes
makeurllink
makewikilink
making
mal
malaysia
maldives
maldivian
male
mall
man
management
manager
mandatory
manual
manually
many
map
mappings
maps
mapsize
march
margin
mark
marked
marker
markers
marks
marksize
markup
masjid
mask
mass
match
matches
matching
mater
material
materials
math
mathematical
matter
max
maximum
may
mbox
mbtu
mcal
me
mean
meaning
means
meant
measurement
media
mediawiki
medical
medicine
medium
meedhoo
meet
meeting
member
members
men
mention
mentioned
menu
message
messagebox
messages
meta
metadata
metatable
meter
meters
method
methods
metre
metres
metric
metro
metropole
mexico
mf
mg
mhatnote
mi
microformat
microformats
mid
middle
middleclass
might
mile
miles
military
millennium
million
min
mind
mini
minister
minor
minority
minorityleader
minus
minute
minutes
mirror
mismatch
missing
mixin
mj
mk
ml
mm
mmbtu
mmm
mn
mobile
mod
mode
modern
modified
modifier
modify
module
modules
mohamed
mol
molar
mole
moles
moment
monarch
monarchies
monobook
month
months
moon
more
mos
mosque
most
mostly
motto
mount
mountain
move
moved
movement
moves
mr
ms
msg
mshared
mt
much
multi
multilingual
multiple
multiplier
muscle
museum
music
musical
must
mv
mvt
mw
my
myclass
mylanguage
mythology
n
na
name
named
namedata
names
namespace
namespaces
naming
nan
nasir
national
nationality
nations
native
nativename
natural
nautical
navbar
navbox
navboxes
navchild
navframe
navigation
navigational
navtoggle
navy
nd
nds
ne
near
nearest
necessary
need
needed
needing
needs
negative
neither
nepal
nervous
nested
net
netherlands
network
neutral
never
new
newcomers
newline
news
newsletter
newspaper
newspapers
newton
next
ng
nickname
night
nil
ninth
nl
nm
nn
nnnnnn
no
nobel
nocat
node
noeditsection
noid
nomination
nominations
nominator
nominee
non
none
noon
nopp
normal
normally
norsk
north
northern
norway
norwegian
not
notable
notation
note
noted
notes
nothing
notice
notifications
notify
notoc
november
now
nowiki
nowrap
npov
ns
nstable
nth
nu
nucleus
null
num
number
numbered
numbers
numdot
numeral
numerator
numeric
numerical
nums
numsep
nuvola
o
obj
object
objects
obtain
oc
occupation
occur
occurs
ocean
ocinsoutput
oclc
october
odd
oddstyle
of
off
offer
office
officeholder
officer
offices
official
offline
offset
often
oil
ol
old
older
ombox
ombudsperson
omit
omitted
on
once
one
ones
ongoing
online
only
ontario
open
opened
opening
operated
operation
operations
operator
opinion
opinions
opportunity
oppose
opt
option
optional
optionally
options
or
order
ordered
org
organised
organization
organized
organizing
orig
origargs
origin
original
originally
os
osti
other
others
otherwise
ought
our
out
outinfo
output
outputs
outside
over
overall
overlap
overlay
override
overrides
overseas
overview
owl
own
owner
oz
p
pa
package
padding
padlock
pag
page
pagename
pages
pagetype
pair
pairs
pakistan
panama
param
parameter
parameterfuncs
parameters
params
parent
parentheses
parentonly
parents
pargs
paris
park
parliament
parliamentary
parms
parse
parser
part
partial
participants
participate
participating
participation
particular
particularly
parties
partner
partners
partnerships
parts
party
pass
passed
passing
password
past
paste
pattern
patterns
pc
pcall
pd
pdf
peace
peer
peerage
peerages
peers
pencil
pending
pennsylvania
people
pepper
per
perfect
perform
performance
perhaps
period
periodical
periods
permanently
permission
person
personal
persons
pframe
pg
phase
philippines
philosophy
photographs
photos
php
phyllanthus
pic
picture
pictures
pipe
pixels
pl
place
placed
placement
places
placing
plain
plainlinks
plan
planned
planning
plantilla
player
plays
please
plural
plus
pmc
pmid
png
point
points
poland
polar
police
policies
policy
political
politician
politics
pop
popular
population
port
portal
portals
pos
position
positional
positions
positive
possible
possibly
post
postal
posted
poster
posting
postscript
potential
pound
pounds
power
powers
pp
pr
practice
pre
prec
preceded
preceding
precise
precision
predecessor
predefinic
predloga
prefer
preferably
preference
preferences
preferred
prefix
prefixed
prefixedtext
prefixes
preload
premier
prepare
preprocesssinglearg
present
presentation
presidency
president
presidential
press
pressure
pretenders
preunit
prevent
preview
previews
previous
previously
primarily
primary
prime
primeminister
prince
principal
print
prior
priority
privacy
private
prize
probably
problem
problems
process
processes
processing
produce
produced
producer
produces
product
production
professional
program
programming
progress
project
projects
proleptic
promote
pronunciation
prop
proper
properly
properties
property
prophets
proposal
proposals
propose
proposed
proquest
protect
protected
protection
protectiondate
protectionlevels
protectionobj
provide
provided
provides
providing
province
provinces
ps
pt
public
publication
publicationdate
publicationplace
published
publisher
publishername
pulmonary
punctuation
punjab
purge
purpose
purposes
pushpin
put
px
pxpx
pywikibot
pywikipedia
pywikipediabot
q
quality
que
queen
question
questions
quick
quickly
quite
quotation
quote
quotes
r
ra
radiant
range
ranges
rank
ranking
rare
rate
rather
ratio
raw
rd
re
reach
read
readability
reader
readers
reading
ready
real
really
reason
reasons
receive
received
recent
recently
recognized
recommended
record
records
recursion
red
redirect
redirects
reduce
redundant
ref
refer
reference
references
refimprove
refs
regarding
regardless
regards
regent
regents
region
regional
regions
registered
registration
regular
related
relations
relative
release
released
relevant
reliable
relief
religion
remain
remaining
remains
remember
remembrance
removal
remove
removeblanks
removed
removes
removing
rename
render
rendered
rendering
renders
rep
replace
replaced
replacement
replaces
reply
report
reported
represent
representative
representatives
represented
republic
republican
request
requested
requests
require
required
requires
res
research
residence
resolution
resources
respect
respective
respectively
rest
resting
result
resulting
results
ret
return
returned
returns
retval
review
revision
rfc
rft
richard
ride
riding
right
rights
risk
river
ro
road
roads
robert
rock
role
roles
roma
room
root
round
rounded
rounding
row
rowargs
rowcellstyle
rowclass
rownums
rows
rowstyle
royal
ru
rule
rules
run
running
runs
runway
runways
rural
russia
russian
s
sa
sablon
safe
said
saint
salt
same
sample
sandbox
sandboxtitle
saudi
save
say
says
scale
schedule
scheduled
scheme
scholarship
scholarships
school
schools
science
sciences
scientific
scope
scotland
screen
screenplay
screenshot
script
scripts
sea
seal
search
searching
season
seat
seats
sec
second
secondary
seconds
secretmethod
section
sections
security
see
seen
select
selected
selection
self
selfref
semi
senate
senator
sent
sentence
sep
separate
separated
separator
separators
sepc
september
sequence
serbia
serial
series
serve
served
server
serves
service
services
serving
session
set
setmetatable
sets
setting
settings
settlement
setup
seven
seventh
several
sh
shah
shall
share
shared
shark
shield
short
shortcut
shortcuts
shorter
shorts
should
shouldn
show
showdata
showing
shown
shows
si
sickle
side
sidebar
sigfig
sign
signature
signed
significant
significantly
signs
signups
silver
similar
similarly
simple
simpler
simplify
simply
since
singapore
single
singular
sir
sister
sit
site
sites
situation
six
sixth
size
sizes
sjabloon
sk
skabelon
skills
skin
skyline
sl
slash
slightly
small
smaller
smallimage
smallimageright
smalltext
smith
so
social
society
software
solid
solve
some
somecat
someone
something
sometimes
somewhat
somewhere
son
soon
sorry
sort
sortable
sorted
sorting
sound
source
sourced
sources
south
southern
sp
space
spaces
spacing
spain
span
spaniard
spanish
speak
speaker
speaking
special
specific
specifically
specified
specifies
specify
specifying
speed
speedy
spell
spelling
spencer
split
sport
sports
spouse
sq
sqft
sqmi
square
squared
sr
sri
ssrn
st
stage
standard
standards
star
start
started
starting
starts
stat
state
statement
statements
states
static
station
statistics
status
stay
step
stewards
stewie
stf
still
stone
stop
stored
story
str
strange
strategy
street
strength
string
strings
strip
striping
stripped
strong
strongly
structure
stub
stubs
students
studies
study
style
styles
styling
su
sub
subcategories
subdivision
subdivisions
subdivs
subgroup
subheader
subject
subjects
subjectspace
submission
submit
subpage
subpages
subscribe
subscription
subst
substitute
substituted
substituting
substitution
subtables
subtemplates
subunit
succeeded
succeeding
success
successful
succession
successor
such
suffix
suggest
suggested
suggestions
suitable
sultan
sultans
summary
sunday
super
supplied
supply
support
supported
supporting
supports
suppress
suppressed
sure
surface
surname
survey
sv
svg
swap
switch
switzerland
sym
symbol
symbols
syntax
syria
sysop
system
systems
t
ta
tab
table
tables
tabletools
tabs
tag
tagged
tags
tail
taiwan
take
taken
takes
taking
talk
talkpage
taoiseach
target
task
tasks
tbl
td
te
tea
team
teams
tech
technical
technology
television
tell
temp
templat
template
templatedata
templateeditor
templates
templatestyles
templatetitle
temporarily
temporary
ten
term
termend
terms
termstart
territories
territory
test
testcases
testcasestitle
tested
testing
tests
texas
text
texts
textstyle
tfrac
th
than
thank
thanks
that
the
theatre
their
them
theme
themselves
then
there
therefore
thermal
thermochemical
these
theta
they
thinadhoo
thing
things
think
third
this
those
thou
though
thousand
thousands
three
through
throughout
thumb
thumbnail
thus
tie
time
timelines
times
timezone
title
titlebar
titleclass
titlelink
titleobj
titles
titlestyle
titletype
titular
tj
tl
tnt
to
toc
today
todo
together
toggle
tom
ton
tonne
tonumber
too
took
tool
toolbar
tools
tooltip
top
topic
topics
torque
tostring
total
toward
towards
tower
town
tr
track
tracking
tracks
trade
traffic
trailing
trans
transchapter
transcluded
transcript
translate
translated
translatewiki
translating
translation
translations
translator
translators
translit
transparent
transwiki
treated
tree
trick
triggerfish
trillion
trim
trouble
true
trust
trustees
try
ttl
tu
tuesday
tul
tur
turkish
turn
tutorial
twin
twl
two
type
types
typical
typically
typing
tz
u
ucoc
udeylia
uk
ul
un
uncollapsed
undefined
under
underscores
understand
understanding
understands
unexpected
unfortunately
unicode
union
unique
unit
unitcode
united
units
universal
university
unknown
unless
unlike
unnamed
unnecessary
unprotected
unset
until
unused
up
upcoming
update
updated
updates
upload
upon
upper
uppercase
upright
ur
urban
url
urls
us
usa
usage
use
used
useful
usename
user
username
users
uses
usgal
using
usoz
ustring
usual
usually
ut
utable
utc
util
utype
v
vac
vacancy
vacant
val
valid
validate
validation
valinfo
value
valuefunc
values
valve
vanc
vancouver
vandalism
var
variable
variables
variant
variants
variations
variety
various
vary
vauthors
ve
vector
vein
version
versions
vertical
very
vi
via
vice
vicegovernor
vicepremier
vicepresident
viceprimeminister
victims
victory
video
view
viewing
views
village
visible
visit
visual
visualeditor
vo
voice
volume
volunteer
volunteers
vorlage
vote
voters
votes
voting
w
wait
wales
want
wanted
wants
war
warning
warnings
wars
was
washington
watch
watchlist
watchlists
water
watt
way
ways
we
web
webkit
website
wednesday
week
weekly
weeks
weight
welcome
well
wen
were
west
western
what
whatamidoing
whatever
when
whenever
where
whereas
whether
which
while
white
whitelist
whitespace
who
whole
wholestr
whose
why
wide
widely
wider
width
wiki
wikia
wikidata
wikilink
wikilinked
wikilinks
wikimania
wikimarkup
wikimedia
wikimedians
wikiminiatlas
wikipe
wikipedia
wikipedian
wikipedians
wikipedias
wikiproject
wikiquote
wikis
wikisource
wikitext
wiktionary
will
william
win
window
windows
wish
wishes
wishlist
with
within
without
wmde
wmf
women
won
word
wording
words
work
working
works
world
worldwide
worth
would
wp
wrap
wrapped
wrapper
wrappers
write
writer
writers
writing
written
wrong
wt
www
x
xeno
y
yammer
yard
yd
year
years
yes
yesno
yet
yield
york
you
young
your
yourself
youth
yue
yyyy
z
zbl
zealand
zero
zeroes
zeros
zh
zone
{
|
}
~
£
§
«
¬
­
°
±
²
µ
·
»
½
¾
×
÷
ø
ʻ
ʼ
̀
́
̂
̃
̄
̆
̇
̈
̉
̊
̋
̌
̓
̛
̣
̤
̧
̨
͂
α
β
δ
ε
μ
ς
в
и
н
у
шаблон
ִ
،
؛
؟
ء
ا
اء
اب
ات
اس
اع
ال
الا
البقرة
الر
الش
الص
الل
الله
الن
الگو
ام
ان
اي
ب
بن
ة
ت
تصفیه
ث
ج
ح
خ
د
دستگاه
ذ
ر
رسول
ز
س
ش
ص
صلى
ض
ط
ظ
ع
على
عليه
عن
غ
ف
في
ق
قال
قالب
ك
ل
لا
م
من
مهر
ن
ه
و
وا
وسلم
ول
ون
ى
ي
ير
يع
يم
ين
ً
ٌ
ٍ
َ
ُ
ِ
ّ
ْ
ٓ
ٔ
ٕ
ٗ
ٰ
ٱل
ٱلر
ٱلل
پ
ٿ
چ
ژ
ی
۔
ۖ
ۗ
ۚ
ۡ
ۢ
ۥ
ۦ
ހ
ހރ
ހއ
ހދ
ށ
ނ
ނބ
ނދ
ނތ
ނލ
ނގ
ނޑ
ރ
ރހ
ރނ
ރރ
ރބ
ރކ
ރއ
ރވ
ރމ
ރފ
ރތ
ރލ
ރގ
ރސ
ރޑ
ރޒ
ރޓ
ރޕ
ރޖ
ރޗ
ރޝ
ބ
ޅ
ކ
އ
އކ
އއ
އވ
އދ
އތ
އގ
ވ
މ
މރ
މއ
ފ
ދ
ތ
ތހ
ލ
ގ
ގއ
ގދ
ގގ
ގސ
ގޓ
ޏ
ސ
ސނ
ސމ
ޑ
ޑރ
ޒ
ޓ
ޔ
ޕ
ޖ
ޗ
ޘ
ޙ
ޙއ
ޚ
ޛ
ޜ
ޝ
ޞ
ޟ
ޠ
ޡ
ޢ
ޣ
ޤ
ޥ
ަ
ާ
ި
ީ
ު
ޫ
ެ
ޭ
ޮ
ޯ
ް
ޱ
ँ
ं
ः
क
ग
च
ज
ठ
ड
ढ
त
द
ध
न
प
ब
भ
म
य
र
ल
व
श
ष
स
ह
़
ा
ि
ी
ु
ू
ृ
े
ै
ो
्
।
ঁ
ং
গ
চ
ট
ত
প
ব
য
র
ল
স
়
া
ি
ী
ু
ে
্
ਜ
ਪ
ਬ
ਾ
ੀ
ੰ
ં
ગ
ચ
ત
ા
િ
ી
ુ
ો
ଚ
ଛ
ଞ
ଟ
ା
େ
୍
ட
ப
ர
ழ
வ
ா
ி
ு
்
గ
త
ల
స
ు
ె
్
ಿ
ು
ೆ
್
ೕ
ം
ക
ഡ
പ
യ
ള
വ
ാ
ി
ീ
്
ක
ත
ර
ල
ව
ස
්
ා
ැ
ි
ු
ෙ
ก
น
พ
ย
ล
ว
ิ
ี
ึ
ู
่
้
່
་
ོ
င
စ
န
မ
သ
ာ
ိ
ု
ံ
း
်
თარგი
틀
ា
​
‌
‍
‎
‏
–
—
‘
’
“
”
†
•
…
′
″
⁄
€
→
↔
↷
−
③
④
⑦
☑
♦
ⱄ
ⴰ
ⵜ
⺀
⺄
⺆
⺈
⺊
⺌
⺕
⺝
⺸
⺼
⿰
⿱
⿲
⿳
⿴
⿵
⿶
⿷
⿸
⿹
⿺
⿻
、
。
《
》
〢
う
こ
そ
て
の
よ
゙
゚
ア
ィ
ウ
キ
コ
シ
テ
ト
ハ
ヘ
ユ
ラ
ン
ー
㇁
㇂
㇄
㇇
㇈
㇉
㇓
㐁
㐄
㐅
㐌
㐫
㐬
㐭
㐮
㐱
㑒
㒵
㒸
㒼
㓁
㓞
㔾
㕛
㕣
㖾
㘝
㚅
㚇
㚔
㚘
㝉
㝡
㝴
㝵
㞋
㞢
㞷
㠩
㠭
㠯
㡀
㡭
㡿
㢲
㢴
㣇
㣺
㥯
㪅
㫄
㫐
㫒
㫺
㬅
㬎
㬥
㬰
㲋
㳄
㷠
㸒
㸚
㸦
㼌
㼲
㽞
㿟
䀠
䂞
䍃
䏍
䒑
䖍
䖒
䖝
䖵
䙴
䚻
䜌
䝿
䡛
䧹
䪞
一
丁
丂
七
丄
丅
丆
万
丈
三
上
下
丌
不
与
丏
丐
丑
专
且
丕
世
丘
丙
业
东
丞
丢
丣
两
严
並
丨
丩
个
丫
丬
中
丮
丰
丱
串
丵
丶
丷
丸
丹
为
主
丽
丿
乀
乂
乃
久
乆
乇
么
义
之
乌
乍
乎
乏
乐
乑
乔
乖
乗
乘
乙
乚
乛
乜
九
乞
也
习
乡
乳
乾
亀
亅
了
亇
予
争
事
二
亍
于
亏
亐
云
互
亓
五
井
亘
亚
亜
亞
亟
亠
亡
亢
交
亥
亦
产
亨
亩
享
京
亭
亮
亯
亰
亲
亳
亶
亷
人
亻
亼
亾
仁
今
介
仌
从
仐
仑
仒
仓
仕
他
付
仝
代
令
以
们
任
企
伊
伏
伐
休
众
会
伯
但
位
何
佘
余
作
佥
使
來
侈
侌
侖
侯
侵
便
保
俞
信
修
倉
倍
候
倠
做
備
僉
僕
儿
兀
允
兂
元
兄
充
兆
兇
先
光
兊
克
兌
免
兑
兒
兓
兔
党
兜
兟
入
全
兩
兪
八
公
六
兮
兰
共
关
兵
其
具
典
兹
兼
冀
冂
冃
冄
内
冈
冉
冊
冋
册
再
冎
冏
冐
冒
冓
冖
冗
冘
军
农
冝
冡
冥
冫
冬
冷
几
凡
凢
凵
凶
凷
凸
凹
出
函
凾
刀
刁
刂
刃
刄
刅
分
切
刍
刑
刕
刖
列
刘
则
初
別
利
别
到
制
刺
則
削
剌
前
剡
剽
劉
力
功
加
劦
助
劫
劳
劵
勃
勇
勉
勒
動
務
勞
勤
勹
勺
勻
勾
勿
匀
匂
包
匆
匈
匊
匋
匍
匕
化
北
匚
匝
匡
匪
匱
匸
匹
区
医
匽
匿
區
十
卂
千
卄
卅
卆
升
午
卉
半
卌
华
卑
卒
卓
单
卖
南
卜
卝
卞
占
卡
卢
卣
卤
卦
卩
卪
卬
卯
印
危
即
却
卵
卷
卸
卻
厂
厃
厄
历
厈
厉
厌
厓
厘
厚
原
厤
厥
厨
厭
厲
厶
厷
厸
去
厼
厽
叀
参
參
叅
又
叉
及
友
双
反
叐
发
叒
叔
叕
取
受
叚
叜
叟
口
古
句
另
叩
只
召
可
台
叱
史
右
叵
号
司
叹
吂
各
吅
合
吉
吊
吋
同
名
后
吏
向
吕
君
吝
吞
否
含
启
吳
吴
吹
吼
吾
呂
呆
呈
告
员
呙
周
命
咅
和
咎
咠
咢
咨
咸
咼
哀
品
哉
員
哥
哲
唐
商
啇
問
啚
啬
啻
善
喜
喬
單
喿
嗇
噩
嚴
囊
囗
囘
囙
囚
四
回
囟
因
囧
囬
困
囱
囷
固
国
圂
圅
國
圍
圓
土
圡
圣
圥
在
圭
地
圶
圼
坐
坒
坚
坴
垂
垔
垚
埀
埋
城
埶
執
基
堂
堅
堆
堇
堯
報
塞
墨
壘
士
壬
壯
声
壳
壴
壹
壺
壽
夂
处
夅
夆
备
夊
夋
夌
复
夏
夒
夕
外
夗
夘
多
夜
夢
大
夨
天
太
夫
夬
夭
央
失
夲
头
夷
夸
夹
夻
夾
奂
奄
奇
奈
奉
奎
奏
奐
契
奓
奔
奚
奞
奠
奢
奥
奭
女
奴
奻
好
如
妄
妙
妟
妥
妻
妾
姑
委
姜
威
娄
婁
婴
嬰
嬴
子
孑
孔
孕
孖
字
存
孚
孛
孝
孟
季
孤
学
孫
孱
學
宀
宁
宂
它
宅
宇
守
安
宋
完
宏
宓
宗
官
定
宛
宜
宝
客
宣
室
宮
宰
害
家
容
宾
宿
寄
寅
密
富
寒
察
寧
審
寫
寬
寮
寸
对
寺
寻
寽
対
寿
封
尃
射
将
將
專
尉
尊
尋
尌
對
小
少
尒
尓
尔
尖
尗
尚
尞
尢
尣
尤
尧
尨
尭
就
尸
尹
尺
尻
尼
尽
尾
尿
局
居
屈
屋
屎
屏
屑
展
屖
屚
属
屠
屡
屬
屮
屯
屰
山
屵
屾
岁
岂
岑
岡
岩
岳
岸
峯
島
崇
崑
崔
崖
崙
崩
嵬
嶲
巂
巛
川
州
巟
巠
巢
巤
工
左
巧
巨
巩
巫
差
己
已
巳
巴
巷
巸
巽
巾
巿
帀
市
布
希
帚
帛
帝
带
師
席
帶
常
干
平
年
幵
并
幷
幸
幺
幻
幼
幽
幾
广
広
庄
床
底
店
庚
府
度
庫
庭
庶
康
庸
廉
廌
廛
廣
廩
廴
延
廷
建
廾
廿
开
弁
弃
弄
弇
弋
式
弓
弔
引
弗
弘
弜
弟
弥
弦
弱
張
強
强
彊
彌
彎
彐
彑
当
彔
录
彖
彗
彡
形
彥
彦
彧
彭
彳
役
彼
往
待
律
徒
得
徙
從
復
微
徵
心
忄
必
忌
忍
志
忝
忠
忩
快
念
忽
忿
思
怠
急
怱
恆
恒
恩
恭
息
悉
患
悤
悲
悶
情
惠
惡
惢
愁
愈
意
愛
感
愿
慈
慧
慮
憂
憲
應
戀
戈
戉
戊
戋
戌
戍
戎
成
我
戒
戔
或
戚
戠
戢
截
戲
戶
户
戹
戼
戾
房
所
扁
扇
手
扌
才
打
托
执
承
把
折
拉
拜
拿
掌
推
提
摩
支
攴
攵
收
攸
改
放
政
敄
敌
敏
敕
敖
敗
敝
敞
敢
散
敦
敫
敬
数
敷
數
斂
文
斉
斊
斗
斤
斥
斩
斬
斯
新
方
於
施
斿
旁
旋
族
无
旡
既
旣
日
旦
旧
旨
早
旬
旱
旲
时
旾
昆
昇
昌
昍
明
昏
易
昔
昗
昜
星
春
昬
是
昱
昴
昷
時
晃
晋
晏
普
景
晶
智
暑
暴
曇
曩
曰
曲
曳
更
曷
書
曹
曼
曾
替
最
朁
會
月
有
朋
服
朔
朕
朗
望
朝
木
朩
未
末
本
札
朮
术
朱
朵
朶
朿
杀
杏
杜
束
条
来
東
杲
杳
松
析
林
枚
果
枝
枲
枼
某
柔
查
柬
柰
柴
栗
桀
桑
桼
梁
條
梟
梨
棘
棠
棥
森
楚
業
楽
榮
樂
樊
欠
次
欣
欮
欲
欶
欽
款
歆
歇
歛
止
正
此
步
武
歨
歪
歮
歯
歰
歲
歴
歷
歸
歹
歺
死
殳
段
殷
殸
殹
殺
殻
殿
毋
毌
母
每
毒
比
毕
毚
毛
毳
氏
氐
民
气
氣
水
氵
氶
氷
永
氺
氾
求
汝
汞
江
沃
沓
沙
沝
泉
法
波
泣
泥
泰
洛
洪
活
派
流
浦
浪
浮
淡
淮
清
渚
渠
湯
滿
漸
火
灬
灭
灰
灵
灷
炅
炎
炏
炗
炙
炭
炮
為
烈
烏
烝
焉
無
焦
焱
然
煞
熊
熏
燕
營
燮
爪
爫
爭
爯
爰
爱
爲
爵
父
爻
爽
爾
爿
片
版
牙
牚
牛
牜
牟
牢
牧
牪
牽
犀
犬
犭
犮
狂
狄
狊
独
狺
猋
猒
猪
献
獻
玄
率
玉
王
玟
玨
珎
班
琴
瑟
瑩
瓜
瓦
甘
甚
生
産
用
甫
甬
田
由
甲
申
电
甶
男
甸
甹
画
甾
畀
界
畏
畐
留
畜
畟
畢
畧
畨
番
畫
異
畱
當
畺
畾
疊
疋
疌
疑
疒
疾
癶
癸
癹
登
發
白
百
皀
皃
的
皆
皇
皋
皐
皕
皮
皷
皿
盃
盆
盇
盈
益
盍
盎
监
盒
盖
盛
盡
監
盤
盧
目
直
相
盾
省
眇
眉
看
眔
眞
真
眷
眼
眾
着
睘
睪
睿
瞏
瞢
瞿
矍
矛
矞
矢
矣
知
矦
短
石
破
碎
磊
磨
礎
示
礻
礼
社
祟
票
祭
禀
禁
禸
禹
禺
离
禽
禾
禿
秀
秃
秉
秋
科
秝
秦
移
稟
穀
穌
穴
究
穹
空
穿
突
窄
窒
立
竒
竜
竝
竟
章
童
竹
笑
笠
筆
等
筑
答
箕
算
箴
節
篤
篭
米
粉
粛
粟
粤
粦
粲
糞
糸
糹
系
約
納
素
索
紫
累
細
絜
絫
絲
維
綿
縣
繁
繇
纍
纟
缶
网
罒
罔
罕
罗
罙
罡
罢
罪
署
罷
羅
羊
羌
羍
美
羔
羕
羗
羞
羡
羣
群
義
羲
羸
羽
翁
翏
習
翕
翟
翠
翼
老
耂
考
者
耆
而
耎
耑
耒
耳
耴
耶
耷
聂
聊
聖
聚
聶
聿
肀
肃
肅
肉
肖
肙
肥
肩
肯
育
肴
胃
背
胡
胥
能
脊
脩
膚
臣
臤
臧
自
臬
臭
臯
臱
至
致
臺
臼
臽
臾
臿
舀
舂
舄
與
興
舉
舌
舍
舛
舜
舞
舟
般
艮
良
色
艸
艹
艾
芒
芔
芬
芮
花
芳
芺
芻
苔
苗
苟
若
苦
英
茶
茸
荅
草
荒
荣
荼
莆
莧
莫
莽
菆
菊
菐
華
萬
落
葉
著
葛
董
葵
蒙
蒦
蒼
蓋
蓬
蓺
蔑
蔡
蕉
蕭
薄
薛
薦
薰
藍
藏
藥
蘭
虍
虎
虐
虒
虔
處
虖
虗
虘
虚
虛
虜
虞
虫
虽
蚤
蚩
蜀
蜜
蟲
蠡
血
行
衍
衛
衣
衤
表
衮
衰
袁
袞
被
褭
褱
襄
襾
西
覀
要
覃
見
規
覓
覧
親
覽
见
角
解
言
訁
訇
計
話
詹
語
誩
諸
讠
语
读
谷
豆
豈
豊
豐
豕
豖
豙
象
豦
豩
豪
豸
貇
貝
貞
貟
負
貢
貧
貪
貫
責
貳
貴
買
費
賁
資
賈
賏
賓
賔
賛
賞
賢
賣
質
賴
贊
贝
贡
责
贯
贲
贵
赖
赞
赤
赦
走
起
越
足
路
蹇
身
躬
車
軍
軎
軟
輦
车
辛
辜
辟
辥
辰
辱
農
辵
辶
边
达
过
近
进
连
迫
迷
追
退
送
逆
逐
通
速
造
逢
連
逮
進
遀
遂
過
道
達
遣
適
遷
遺
邊
邑
邕
那
邦
邪
郎
部
郭
都
鄉
酉
酋
配
酓
釆
采
里
重
野
量
金
釒
錢
钅
長
镸
长
門
閃
閉
開
閏
閑
閒
間
閔
閵
閻
闌
门
闰
间
闷
阑
阜
阝
阿
降
险
陳
隆
隊
隋
隡
隨
隱
隶
隹
隺
隻
隼
隽
难
雀
雁
集
雈
雋
雍
雐
雔
雙
雚
雜
雝
離
難
雨
雩
雪
雲
零
雷
需
霍
霜
霝
霞
霸
靈
靑
青
非
靡
面
靣
革
韋
韦
韭
韯
韱
音
頁
頃
項
須
頗
頡
頻
顛
页
風
风
飛
飞
食
飠
養
饣
首
香
馬
馮
駦
马
骨
高
髟
鬥
鬯
鬲
鬼
魚
魯
鮮
鱼
鲁
鳥
鳳
鸟
鹵
鹿
麃
麗
麥
麦
麻
黃
黄
黍
黎
黑
黒
黨
黹
黽
黾
鼎
鼓
鼠
鼻
齊
齋
齐
齒
齿
龍
龙
龜
龟
龠
龰
龱
龴
龵
龶
龷
龸
龹
































































































者
艹
﴾
﴿
ﷲ
ﷺ
﻿
！
，
？
ｔ
𝄆
𝄇
📲
𠀁
𠀃
𠀆
𠀉
𠀎
𠀐
𠁁
𠁣
𠂆
𠂇
𠂈
𠂉
𠂊
𠂋
𠂎
𠂒
𠂔
𠂛
𠂡
𠂢
𠂤
𠂬
𠂭
𠂹
𠃊
𠃋
𠃌
𠃍
𠃎
𠃑
𠃓
𠃔
𠃜
𠄌
𠄎
𠄠
𠄢
𠆢
𠆥
𠇍
𠈌
𠌵
𠓜
𠔉
𠔥
𠔼
𠔽
𠔿
𠕀
𠕁
𠕋
𠘧
𠘨
𠙻
𠙼
𠚏
𠚒
𠚤
𠚪
𠣏
𠤎
𠤕
𠥓
𠦄
𠦑
𠦝
𠧒
𠧗
𠧪
𠩺
𠪚
𠫓
𠫔
𠫤
𠬛
𠬝
𠬞
𠬢
𠬤
𠬶
𠮛
𠮦
𠮷
𠯑
𠱠
𠳮
𠷎
𡈼
𡉀
𡉵
𡌥
𡍮
𡏳
𡕒
𡕩
𡕰
𡖅
𡗗
𡗜
𡘆
𡘤
𡧱
𡨄
𡩧
𡬠
𡭽
𡰣
𡰥
𡰪
𡰯
𡰱
𡷈
𡸁
𡿨
𡿩
𡿪
𡿺
𢀖
𢀛
𢀩
𢁙
𢆉
𢆰
𢆶
𢇁
𢇇
𢉖
𢌬
𢌿
𢏚
𢑑
𢑚
𢖻
𢙣
𢛳
𢦏
𢦒
𢧵
𢼄
𢾕
𣁋
𣄼
𣅀
𣅽
𣍘
𣎳
𣎵
𣏋
𣏼
𣗥
𣥂
𣥖
𣦵
𣦼
𣧄
𣪊
𣪠
𣬉
𣳾
𣶒
𤇾
𤊽
𤐫
𤓰
𤔔
𤕨
𤣩
𤰇
𤰔
𤰞
𤴓
𤴔
𤽄
𥁑
𥁕
𥃦
𥃩
𥃭
𥇡
𥑟
𥘅
𥘈
𥝢
𥫗
𥱡
𦈢
𦉪
𦉬
𦉼
𦍌
𦍒
𦎧
𦐇
𦓔
𦔮
𦘒
𦙃
𦚏
𦣝
𦣞
𦣻
𦥑
𦥔
𦥯
𦨉
𦭝
𦰩
𧆞
𧈧
𧘇
𧰨
𧴪
𧴮
𧵩
𧾷
𨸏
𨾴
𩙿
𩠐
𩫏
𩵋
𪉷
𪜀
𪟽
𪠲
𪩲
𫇦
𫔭
𫜸
𫝀
𫠣
𫠩
𫢉
𫥞
𫩏
𫩠
𫪡
𫲽
𫶧
𬀷
𬐘
𬗌
𬙙
𬛸
𬜯
𬟩
𬯁
𬴘
𬺻
𬼉
𬼖
𭀰
𭁈
𭁨
𭅰
𭑈
𭕄
𭗼
𭤨
𭥫
𭻾
𮅕
𮊿
𮍌
𮍏
𮓗
𮥼
𮧮
廾
𰀁
𰀄
𰀈
𰀉
𰀕
𰀠
𰀡
𰀢
𰀪
𰁜
𰃮
𰆊
𰆘
𰋙
𰕎
𰢴
𰧭
𰯲
00--
10--
11--
12--
13--
14--
15--
16--
17--
18--
19--
21--
22--
25--
26--
28--
41--
53--
63--
65--
86--
a--
ab--
abdo--
abol--
ac--
aca--
accu--
ad--
add--
advan--
af--
ag--
agglut--
agre--
ah--
air--
al--
all--
alt--
am--
amaz--
an--
ang--
ani--
any--
app--
appo--
apprec--
approxi--
ar--
arg--
args--
as--
asc--
ass--
aste--
at--
au--
auto--
az--
b--
ba--
back--
base--
be--
bene--
ber--
bi--
bio--
bla--
bo--
book--
bosn--
bot--
box--
br--
bre--
bu--
budd--
bul--
bur--
by--
c--
ca--
calcu--
can--
cap--
ce--
cel--
celebr--
cen--
cfg--
cha--
che--
chi--
chr--
christ--
chro--
chronologi--
cli--
co--
col--
coln--
com--
communi--
comp--
con--
conc--
conce--
conf--
cons--
const--
cont--
contr--
coo--
cor--
corp--
cri--
cu--
cy--
cyc--
d--
da--
dar--
data--
dd--
de--
deci--
def--
defe--
dem--
demon--
deri--
dha--
di--
dia--
diction--
dis--
disru--
distri--
do--
doc--
dro--
du--
dur--
dyna--
e--
ec--
edit--
edło--
el--
elec--
electr--
eli--
em--
emi--
en--
encyclo--
eng--
es--
esop--
et--
eu--
ex--
excl--
exclu--
expi--
f--
fa--
facili--
fami--
fe--
fede--
fel--
festi--
fi--
ficti--
first--
fl--
font--
for--
fr--
fre--
fri--
ft--
fu--
ful--
full--
fund--
g--
ga--
gen--
gene--
geo--
get--
gi--
gl--
go--
gra--
grap--
group--
gu--
h--
ha--
har--
hawk--
he--
help--
hemisp--
hi--
high--
hol--
hu--
hund--
i--
id--
image--
imm--
imp--
imple--
in--
incre--
indi--
inner--
inst--
int--
inter--
intro--
inve--
ir--
is--
ite--
j--
ja--
ji--
jo--
jor--
ju--
k--
ka--
ke--
kel--
ken--
key--
ki--
kilo--
km--
ko--
ku--
l--
la--
lab--
lan--
last--
lay--
le--
li--
link--
list--
lo--
lu--
ly--
m--
ma--
mac--
mad--
mag--
main--
make--
man--
map--
mar--
mark--
max--
me--
mec--
mega--
mer--
meta--
mi--
mic--
micro--
mid--
mill--
milli--
mis--
mo--
mon--
mor--
mos--
movi--
mu--
mur--
mus--
my--
n--
na--
nap--
nar--
nav--
navi--
ne--
new--
ni--
niger--
no--
non--
ns--
o--
obli--
obser--
oc--
occa--
on--
open--
opp--
or--
ord--
out--
over--
p--
pa--
param--
pen--
pet--
ph--
photog--
phy--
physi--
pi--
pl--
place--
plat--
play--
po--
pol--
pp--
pr--
pre--
pro--
proc--
prof--
promoti--
proto--
publi--
pur--
q--
qaz--
qu--
r--
ra--
rac--
rat--
raw--
re--
rec--
reco--
recom--
red--
ref--
reg--
render--
ri--
ro--
ru--
s--
sa--
sc--
sco--
scro--
sec--
see--
sel--
semi--
sen--
sh--
she--
si--
sk--
sl--
sla--
slo--
so--
sort--
sp--
sq--
sr--
st--
ste--
str--
su--
sub--
suf--
summ--
super--
sur--
sv--
sw--
swe--
t--
ta--
talk--
te--
tele--
template--
ter--
text--
th--
tha--
ti--
title--
to--
top--
tr--
tra--
trad--
trans--
tre--
tri--
trun--
tu--
tun--
tw--
type--
u--
ul--
ulti--
un--
up--
ur--
us--
use--
user--
v--
var--
ve--
ven--
ver--
vi--
vic--
vik--
viol--
virg--
vo--
w--
wel--
wi--
wiki--
wo--
work--
wp--
x--
y--
z--
вик--
ا--
المت--
ب--
ت--
ث--
ح--
خ--
د--
ر--
س--
ش--
ع--
ف--
ق--
ك--
ل--
م--
ن--
ه--
و--
ي--
ހ--
ނ--
ރ--
ބ--
ކ--
އ--
ވ--
މ--
ފ--
ދ--
ތ--
ލ--
ގ--
ސ--
ޓ--
ޔ--
ޕ--
--0
--00
--1
--2
--3
--4
--5
--6
--7
--8
--9
--a
--able
--ably
--ack
--acy
--ad
--ah
--ai
--ain
--ak
--ake
--al
--ala
--ally
--alog
--an
--ance
--ans
--ant
--ap
--ar
--arg
--argname
--args
--ary
--as
--at
--ate
--ated
--ates
--ating
--ation
--ations
--aw
--ay
--ays
--b
--ball
--bbl
--be
--bi
--bility
--ble
--blurb
--bo
--bot
--box
--c
--ca
--cat
--ce
--cell
--cent
--ch
--ched
--cient
--ck
--cks
--class
--co
--cs
--cy
--d
--da
--date
--day
--der
--di
--dio
--div
--do
--ds
--du
--dy
--e
--ect
--ection
--ed
--ee
--ef
--ei
--el
--ely
--en
--ence
--ency
--ent
--ep
--er
--erature
--erone
--ers
--erse
--es
--ess
--est
--et
--ew
--ey
--f
--ff
--format
--ft
--ful
--g
--ga
--ge
--ged
--gen
--ges
--gi
--ging
--gly
--go
--gs
--h
--hed
--hi
--hip
--hoo
--i
--ia
--ial
--ian
--ibility
--ic
--ica
--ice
--ics
--icular
--id
--ide
--ided
--ied
--ies
--ified
--ify
--ight
--ign
--il
--ile
--im
--in
--ine
--ing
--inum
--ion
--ions
--ious
--ir
--ire
--is
--isation
--ise
--ised
--ism
--ist
--ists
--it
--ite
--ities
--ity
--ium
--ive
--ively
--ix
--ization
--ize
--ized
--izing
--j
--k
--ka
--ke
--key
--ki
--ks
--l
--la
--ld
--le
--lect
--led
--les
--level
--line
--ling
--link
--links
--list
--log
--ls
--lt
--ly
--m
--ma
--man
--mar
--mate
--me
--med
--ment
--ments
--mitted
--mo
--mp
--ms
--my
--n
--na
--nal
--name
--nce
--ne
--ned
--ner
--ners
--ness
--ng
--ni
--nia
--ning
--no
--ns
--nt
--nts
--ny
--o
--obj
--of
--ogy
--ol
--ology
--om
--omy
--on
--ons
--or
--ore
--orm
--ors
--ory
--os
--ot
--oyed
--oying
--oz
--p
--page
--paring
--pects
--ped
--ph
--phy
--ping
--q
--qt
--r
--ra
--ral
--rd
--re
--red
--required
--rge
--rgs
--ri
--ria
--ries
--ring
--rk
--rm
--rn
--row
--rry
--rs
--rse
--rt
--rta
--ry
--s
--san
--se
--sed
--ses
--ship
--si
--sia
--sion
--sis
--sive
--ska
--ski
--ss
--st
--ston
--style
--t
--ta
--table
--tag
--tal
--tan
--tation
--te
--ted
--tely
--ter
--tes
--text
--th
--ti
--tic
--time
--ting
--tion
--tions
--title
--tive
--tle
--tly
--tmp
--tor
--tr
--ts
--ty
--tyle
--type
--u
--uction
--ue
--um
--up
--ur
--ure
--url
--us
--ute
--ution
--v
--va
--ve
--volt
--w
--wa
--wards
--x
--y
--years
--ys
--yte
--z
--za
--ze
--а
--и
--ا
--ار
--ب
--ة
--ت
--تر
--ح
--د
--ر
--س
--ع
--ف
--ك
--ل
--م
--ن
--ه
--و
--ى
--ي
--ی
