!
"
#
##0
##1
##10
##11
##12
##13
##14
##15
##16
##17
##18
##19
##2
##20
##21
##22
##23
##24
##25
##26
##27
##28
##29
##3
##30
##31
##32
##33
##34
##35
##36
##37
##38
##39
##4
##40
##41
##42
##43
##44
##45
##46
##47
##48
##49
##5
##50
##51
##52
##53
##54
##55
##56
##57
##58
##59
##6
##60
##61
##62
##63
##64
##65
##66
##67
##68
##69
##7
##70
##71
##72
##73
##74
##75
##76
##77
##78
##79
##8
##80
##81
##82
##83
##84
##85
##86
##87
##88
##89
##9
##90
##91
##92
##93
##94
##95
##96
##97
##98
##99
$
%
&
'
(
)
*
+
,
-
.
/
0
00
000
003
004
01
02
024
03
032
04
048
05
06
07
08
09
0907
1
10
100
1000
101
102
103
104
11
110
118
12
120
123
124
125
13
130
135
1365
1376
14
140
141
1431
145
1452
15
150
1500
1503
1515
154
1545
1552
1561
1562
1563
1567
157
1584
1587
159
16
160
1605
1616
1617
1620
1623
1626
1627
1629
163
1632
1635
1641
165
167
1680
17
1701
1707
1710
1749
1758
1775
1778
178
1795
1797
1799
18
180
1801
1804
1809
181
1817
1819
1823
1825
1826
183
1831
1832
1837
1841
1844
1845
1846
1849
1850
1859
1861
1862
1865
1867
1869
187
1881
1885
1889
1897
1898
1899
19
190
1901
1906
1908
1909
191
1910
1911
1912
1913
1914
1915
1916
1917
1918
1919
1920
1921
1922
1923
1924
1925
1926
1927
1928
1929
1930
1931
1932
1933
1934
1935
1936
1937
1938
1939
1940
1941
1942
1943
1944
1945
1946
1947
1948
1949
195
1950
1951
1952
1953
1954
1955
1956
1957
1958
1959
1960
1961
1962
1963
1964
1965
1966
1967
1968
1969
197
1970
1971
1972
1973
1974
1975
1976
1977
1978
1979
1980
1981
1982
1983
1984
1985
1986
1987
1988
1989
1990
1991
1992
1993
1994
1995
1996
1997
1998
1999
2
20
200
2000
2001
2002
2003
2004
2005
2006
2007
2008
2009
201
2010
2011
2012
2013
2014
2015
2016
2017
2018
2019
202
2020
2021
2022
2023
2024
2025
2026
2027
2028
2029
203
2030
2031
2032
2033
2034
204
21
210
214
215
217
22
220
23
230
233
235
24
240
241
242
245
249
25
250
254
258
26
260
27
270
274
28
281
288
289
29
3
30
300
303
304
307
31
310
315
32
320
322
329
33
330
332
339
34
340
346
35
350
354
36
360
363
367
37
370
374
375
378
379
38
381
390
395
4
40
400
4000
401
41
417
420
427
428
430
44
440
45
450
452
458
46
460
47
475
476
479
48
49
490
491
4942
495
5
50
500
501
51
512
52
520
536
54
541
55
550
5500
557
559
57
570
575
581
583
599
6
60
600
61
611
612
62
63
634
639
65
650
66
660
664
67
670
678
68
69
6991
7
70
700
7000
7011
71
72
73
74
740
745
75
750
76
77
772
78
784
798
8
80
800
81
82
824
84
840
85
850
86
860
877
88
89
9
90
900
91
910
92
94
96
962
97
978
988
99
999
:
;
<
=
>
?
@
_
a
ab
abba
abengourou
abidjan
abraham
abruzzi
ac
academy
acadia
accra
ace
activist
adam
adamonin
adamonit
adams
adeang
adelaide
aderbaidjan
adolf
ador
adventures
aerial
aero
affairs
afganistan
ag
aga
agder
age
agera
ago
aguila
agusta
aia
aibori
aiju
ain
ainimwen
air
airerand
airport
aiterand
aiti
aiv
aiwo
akan
ake
akowong
aksara
al
alabama
alap
alaska
alba
albania
alberta
albrecht
album
alcsu
aleksander
alemannisch
alfa
algeria
alice
all
allen
alma
alone
alpha
alphabet
also
alto
alzette
am
ama
ame
amea
amen
america
american
americanus
amg
amsterdam
amur
an
ana
anabar
anastacia
anatidae
and
andersen
andorra
andreu
andrew
andrzej
andy
anetan
angeles
angola
angora
ani
anibare
aniden
anidenin
anidenit
anim
animation
animwet
anin
aningening
ankara
ankstyvas
anna
anne
anon
ant
antalya
antares
anthem
anthony
antigua
anton
antoni
antonio
antsiemerin
antsioran
antwerp
anu
anyama
anymore
apeganitan
apng
apollo
approbo
aprika
ar
arab
arabia
arabiya
aran
arara
ararat
arbainiya
archive
ardjentina
ardjiriya
are
arequipa
argentina
arizona
arkansas
arm
armada
armenia
arminiya
arms
army
art
arthur
artists
arts
artur
aruba
as
ascari
asenovgrad
astiu
aston
asturias
asturiassolucio
asu
at
ata
aton
atque
atsin
atsiu
au
auckland
audi
august
augustus
auks
aula
aura
australia
australian
austronesian
auto
autumn
auwe
ave
aventador
ayacucho
ayuntamiento
az
azerbaijan
azərbaycan
b
ba
bababo
bahamat
bahrain
bahrein
bain
bains
baiti
baku
balade
bali
ballarat
ban
band
bandar
bangladesh
banjar
bank
banuatu
baobab
bar
barack
barbara
barbuda
barcelona
bari
baron
basa
basilica
basilique
batikan
bay
bazylika
bc
be
beatles
beaumont
beckov
beetle
begawan
beijing
belait
belarus
belgium
belgrad
believe
beluga
belvedere
bender
benedictus
benet
benguela
benin
benz
berarut
berdjiyum
bergen
berghof
berlin
bern
bernat
bertrand
bet
betelgeuse
bhp
biała
bibel
bible
bibriografiya
biden
bidji
bie
bielsko
bikol
bilan
bild
bishkek
bislama
bitau
bitinam
bitune
black
bmw
bo
boarisch
bochotnica
boe
bogdan
boigny
boli
bolivia
bolsonaro
bonaparte
book
bore
borgeriya
boribiya
bork
bosna
bosnia
botany
boteller
boteniya
bouake
br
bradir
bradjir
braga
brasi
braun
brazil
breakfast
breslau
bridge
brisbane
britain
britney
bronx
brooklyn
brunei
brusy
brutale
bu
buada
buch
bugatti
building
bujumbura
bulgaria
bulldog
bundesarchiv
bure
buren
burkinabato
burns
burundi
bus
bush
butan
bwa
bwe
bwiema
bwo
by
bydgoszcz
bygdetun
byto
c
ca
cabrio
cac
cadillac
caesar
cala
calabria
california
calle
calvary
calvin
camara
camden
can
canberra
canterbury
caparo
capital
car
carcharhinus
carcharias
carcharodon
cardona
cardoso
carl
carlo
carlos
carolina
carpenters
carrera
carroll
cars
castel
castle
catala
catalonia
catalunya
category
caterham
caunterbury
cc
ccr
ccx
ccxr
celica
center
central
challenge
chanos
charles
chattanooga
chaucer
chevrolet
chi
chicago
chile
choibalsan
chojnice
chris
christian
christmas
chrysler
church
cia
cierzyna
cinque
cio
city
ciudad
cke
cl
classic
clervaux
clk
cm
co
coast
coat
cobar
cobra
cochabamba
code
coeli
color
colorado
com
come
competition
complaint
complete
compra
compression
concepcio
concept
connecticut
convertible
coolidge
cooper
copons
core
cork
corolla
coronel
corporation
corvette
costa
count
county
coupe
court
covers
cr
creek
croatia
cropped
crossfire
crui
cruz
cu
cuanza
cuba
culture
cunene
cymraeg
czarna
czarne
cze
czechia
czersk
czestochowa
człucho
d
da
dakota
dali
dalia
dallas
daloa
dame
danzig
dauricus
david
day
daytona
db
dd
de
death
deboe
dei
deidein
deimanu
del
delaware
delft
delgado
delhi
dem
den
denang
denemark
denigomodu
denmark
der
des
destination
detailed
di
diablo
dialect
dictionary
die
diego
diekirch
diesel
dima
dino
discography
distric
district
divavesi
division
divo
dj
djapan
djer
djerman
djermani
djiordjiya
djiran
djordan
do
dobrzyn
doctor
dodge
dogin
dogit
dohc
doi
dolny
dominika
don
donald
dong
doors
dopope
dorer
dorerin
dorerit
dos
downtown
dream
dro
drongen
ds
du
dubbo
dublin
ducati
duck
duet
dura
during
dusun
dwo
dyapan
dz
dzkie
dzyrzec
e
ea
eake
ean
eangama
eao
earth
east
eat
eb
ebabobo
ebak
ebawo
eben
ebo
ebok
ecclesia
echternach
ecosse
ecuador
ed
edabwike
edar
edetang
edirne
edition
edonis
edorer
edvard
edward
eesti
eg
ega
egen
eget
ehir
ei
eidja
eij
eija
eitsio
eiy
ek
ekadaedaenigawae
ekae
ekakairu
ekar
ekaramwen
ekaw
eke
ekeij
eken
eko
ekorob
ekorobin
ekorobit
ekwador
el
electronic
elemento
elise
elvis
em
ema
emakur
eman
emek
emenengame
emmanuel
emwarere
en
encyclopedia
eng
engab
engame
engawe
engine
engineering
english
enim
enin
enzo
eo
eobwani
eobweni
eow
epo
epoa
eponn
er
era
erak
erc
erdegobina
erdenet
ereo
ergune
erig
eririn
ero
ersarbador
erzya
es
esch
eskis
espan
esperante
esperanto
espoo
esteve
estiano
et
eta
etan
etang
etangmek
etoniya
etow
etowdudu
etowedudu
etowet
etsimine
etsinine
eugeniusz
euro
europaea
europe
eva
every
ewa
ewak
exe
expressway
eyong
f
fa
fabriciano
fair
falco
farboud
fe
federation
felaweshipe
fele
felix
ferrari
ferrer
festival
ff
figueres
fiji
file
filipino
film
finland
firmament
first
five
flag
flensburg
florida
fn
fo
folk
for
forc
ford
forever
format
former
fortaleza
forward
four
frameless
franc
france
francesc
francis
francisco
frankfurt
franklin
franz
from
full
fxx
g
ga
gabriel
gaeilge
gagaifomauga
gain
gait
galego
gallardo
gallen
gallery
gan
gana
garfield
gary
gazetteer
gdan
gdansk
gdynia
ge
geminorum
gen
general
genesis
geoffrey
george
georgia
gerais
german
germany
get
gettysburg
ghent
gi
gibraltar
gif
gilbert
gimp
gina
gini
gitanas
gizo
gje
gliwice
glo
go
god
gokoro
golf
golub
gora
gorilla
gorom
gott
gov
government
goya
gr
grand
grande
graphics
great
grevenmacher
grit
grodzka
group
grybauskaite
grzegorz
gt
gto
gtr
gts
gu
gua
guam
guatemara
guerra
guinea
gumpert
h
ha
haga
hai
hala
hall
hamburg
hampshire
hamsun
hande
hanoi
hans
harbour
harris
hartnell
has
hath
hawai
hawaii
haza
he
heart
heavy
hebrew
heinola
helsinki
hem
henrik
henry
henryk
here
herzegovina
hess
hicks
hill
hills
hinckley
hindi
hir
hiri
his
history
hitler
ho
hoi
hol
holden
holgui
homeland
homer
honiara
honolulu
hora
hospital
hot
hotel
houphoue
house
hp
http
https
huayra
hungarian
hungary
huso
hybrid
hyde
i
ia
ian
ianweron
iao
iat
iata
ibsen
ibu
ica
iceland
id
idaho
idjipt
ido
idura
ierangue
ii
iii
iisalmi
ij
ijited
ijo
ijugaga
ijuw
ikomo
illinois
ilokano
im
ima
image
iman
imatra
imdb
img
imim
imin
imur
in
ina
inauguracion
inc
independence
indiana
indjiya
indonesia
indonesian
indonitsiya
inen
info
information
ing
ingarden
ingerand
inim
inimagen
inimaget
inkscape
institute
interchange
interlingua
international
internet
into
inuktitut
iok
ion
iot
iowa
ipa
ipatinga
iprage
iqaluit
irak
iran
ireland
iriang
irving
is
isbn
isindebele
island
islands
iso
israel
it
italdesign
italia
italy
itari
itekekeow
iteraer
itis
itu
itub
itubang
itubwan
itubwang
itubwangin
itubwangit
ituga
iukrain
iurop
iurope
ives
iyor
iyuw
j
ja
jack
jackson
jae
jaguar
jair
jakarta
james
jan
jana
janeiro
janowiec
january
janusz
japan
jaume
jaw
je
jean
jefferson
jeroni
jersey
jerusalem
jerzy
jesu
jesus
jfalu
jimmy
jo
joan
joe
joensuu
johannes
john
johnny
johnson
joki
jonava
jonavos
jose
josef
josep
joseph
jpeg
jpg
jr
julia
juliana
june
jyva
k
ka
kabul
kaczyn
kadaketan
kadudu
kagoshima
kaia
kamadauning
kambodja
kamehameha
kamerun
kamienica
kampf
kanada
kandahar
kansas
karabu
karel
kartuzy
kathmandu
katholik
katowice
kaulima
kaunas
kawasaki
kazimierz
ke
keniya
kennan
kentucky
kerava
kernewek
kg
kharkiv
kherlen
ki
kielce
kind
king
kingdom
kirakira
kirgitan
kiribat
kirke
kirundi
kiuba
klaipe
klaipeda
km
knoxville
knut
ko
koat
koenigsegg
kokkola
komonwert
komorot
kon
kongo
kopeyek
kor
korea
korhogo
korombiya
koror
kos
kosciol
kosta
kot
kotka
kph
krako
krakow
krasnodar
kristo
kro
kroaitsiya
krzysztof
ku
kuala
kuopio
kurd
kurt
kw
kwanza
kwas
kwidzyn
kwin
kyiv
kz
l
la
lac
lady
lago
lamborghini
land
language
languages
langue
lanka
lappeenranta
las
latin
latvies
laura
laurence
le
lech
lefagaoali
left
lehali
leila
lelo
lenvoy
leopoldina
les
lexus
li
lia
library
lie
lietuviu
life
light
lima
limerick
limousine
lincoln
line
linegrey
lingua
lingwa
links
linnaeus
lisbon
list
lithuania
live
lix
ll
lles
llobrega
llofriu
llui
ln
lo
location
logo
lojban
london
long
lopes
lordi
los
lotus
louis
louisiana
love
ls
lt
ltima
lu
luanda
lublin
luce
luciano
ludwig
lukala
luksemburg
lulia
luxembourg
lyes
m
ma
mad
madawaska
made
madjol
madness
madrid
magyar
main
maine
makamakur
malagasy
malay
malbork
malbun
malmo
man
manama
manaus
manchu
mang
manhattan
manila
manitoba
manual
manuel
maori
map
maplandia
mar
maraidja
maraman
marc
march
marek
margaret
maria
marianna
marie
marinha
maris
marjorie
mark
market
mars
marta
marti
martin
mary
maryland
maserati
massachusetts
matedoniya
mater
mau
max
maz
mazowiecki
mazowsze
mazury
mclaren
me
meenlinna
meeting
meg
mein
mek
meketiko
melanopterus
melayu
melbourne
memag
memak
memphis
mendoza
mer
mercedes
merika
mersch
met
mewak
mexico
mg
mi
michael
michelangelo
michigan
microsoft
midtown
mie
miguel
mile
miles
military
milo
mime
min
minangkabau
minas
minh
minister
minnesota
miquel
mirosław
miss
mississippi
missouri
mit
mm
mo
moa
model
modi
moksha
monaco
monako
mong
mongoriya
monica
monroe
monster
montana
monte
montenegro
montsoreau
monza
moose
moquegua
more
moroni
morrison
moscow
moskova
most
moszna
moto
motor
motto
motu
mount
mountain
mph
mr
mu
munch
municipalitie
murcie
mus
museum
music
mustang
mv
mwirara
my
n
na
nairobi
nak
nam
names
namibiya
nan
nang
naoero
napoleon
narendra
nashville
nathaniel
national
native
nature
nauru
nause
nauseda
nchen
ncia
ncipe
ne
near
nebraska
need
nek
nepar
neris
nervosa
nes
neto
network
nevada
new
ng
nga
ngabuna
ngaeow
ngain
ngea
ngu
ngune
nh
nhat
nhon
ni
nia
nicholas
nicz
night
nihongo
nikaragua
ninja
nissan
niterand
niu
niue
nk
nm
no
nobel
noble
noemi
noemiofficial
nord
norte
north
northern
norway
norwei
not
notre
nova
novial
novo
now
nowy
nu
nueva
nunavut
nunes
nuremberg
nyght
nyu
o
oa
oak
obama
obesus
object
obninsk
obua
oburubur
obwe
obwen
occitan
oceania
oclc
octopus
oe
oeta
of
off
office
official
og
ohio
ohv
ojo
oklahoma
okor
old
olea
olive
oliver
olsztyn
omo
oms
on
ondurat
one
oning
online
onofre
ontario
op
open
or
ora
orange
oregon
org
ori
orig
origen
origet
orleans
oruro
os
osasco
oscar
osios
oslo
otata
otereinitsiya
otereiriya
oteriya
other
otsianiya
ouagadougou
oulu
our
ouwagin
ouwak
ox
oxford
p
pa
pablo
pacific
paes
pagani
page
pai
pain
paint
paix
palac
palace
palau
pan
panorama
panoramio
panoz
papua
par
paradis
parai
paramore
parau
paris
park
parliament
parro
part
party
pashto
pau
paul
paulo
paulus
pavarotti
paweł
pałac
pc
pe
peale
pedro
peij
penh
pennsylvania
people
per
pere
perez
persian
peru
petersburg
petro
petronas
phnom
pic
picasso
pierre
pilica
pine
pininfarina
pinrand
pinyin
piotrko
piotrowice
pires
piripin
pisin
piura
pius
piłsudski
pl
planeta
platform
plaza
png
po
podlaski
pol
poland
police
polk
polonia
polska
pomorze
ponderosa
pontiac
poran
poroshenko
porsche
port
porta
portable
porto
portsiugar
poznan
praha
praise
pran
prant
presidency
president
presley
press
pretiden
prezydent
pri
prime
princeton
prize
program
prototype
ps
publique
puck
pudu
pulo
pumwe
puno
pursuit
px
pyha
płock
płon
q
qatar
qiryat
quattro
quebec
queen
queens
quia
quito
quy
r
ra
rafael
rainbow
ram
ramon
ranga
ransomed
raptor
ras
rat
ratebiya
ratio
rats
ratsiya
ratusz
rautavaara
rd
re
reagan
rear
red
redange
reggio
rehua
remich
renault
reo
report
republic
republik
republika
requiem
rer
resoto
revento
reykjavi
rgb
rhead
rhinoceros
ri
ria
riang
richard
ridge
rig
riga
right
rika
riketentein
ring
rinne
rio
ripubrikin
ripubrikit
rituainiya
rituainya
river
rk
rkc
rnu
ro
roadster
robar
rock
rode
roger
rom
roma
roman
romania
romeo
ron
ronald
roosevelt
rosemounde
rotterdam
rotumei
roy
rpm
rs
rsa
rt
ru
rubens
rubl
rudolf
ruf
ruiny
ruketemburg
runeberg
russia
rvi
rybnik
rynek
rytas
rz
rzeszo
rður
s
sa
saint
salamanca
saleen
salvador
samoa
san
sant
santa
santiago
santos
saturn
saudi
savai
sc
scaglietti
schuppan
science
scott
scuderia
se
seat
second
seen
seidl
seina
semper
seoul
serbia
serege
seri
sesotho
sesto
shame
shark
shelby
sheldon
shift
shop
show
shri
shuto
si
sidney
sidni
sierra
silesia
sims
sin
sint
siprage
sirius
site
sk
ska
ski
skie
skiptvet
skowola
skyla
skyline
sl
slask
slovakrepublic
sls
smith
smolensk
sneedville
sneem
snow
snowflake
so
sofia
sol
solomon
son
sondry
sonne
soul
south
sovereign
sp
speaker
species
speed
spider
sport
springs
spyder
spyker
square
sri
srt
ssc
st
standard
star
staten
station
statistical
stefan
stella
stephen
stingray
stochowa
stogo
street
strindberg
stroke
structure
studies
sturgeon
su
subsp
sulejo
summit
sun
sung
suomi
super
superauto
supercharged
supersport
sur
sus
sv
svg
sydney
sza
szabadegyha
szczecin
sze
szn
sztum
szymon
sør
t
ta
tacna
tadeusz
tadjikitan
tagalog
taiprus
taiwan
take
tales
tallinn
tamburini
tamnei
tamoa
tamogitiya
tampere
tan
tange
tango
taramawir
tarnovo
tatry
taudiarabiya
taylor
tczew
tdoboz
te
team
tekawa
tekawan
tekeiy
television
temoniba
temple
tennessee
tenniel
terbiya
terki
territories
territory
testament
testarossa
texas
text
th
thanh
that
the
theft
they
this
thomas
thumb
thumbnail
thy
tif
tiff
till
time
times
timor
tira
to
tok
tokyo
tom
tomariya
tomasz
tomaszo
ton
tonga
tornante
toromen
torrent
torun
total
tour
tower
town
township
toyota
tr
tree
triaenodon
tricolore
trindade
triple
triumph
trondheim
truman
trump
truth
trybunalski
trøndelag
tse
tsiek
tsiekia
tsiene
tsimeduw
tsimine
tsingapoar
tsinime
tsire
tt
tu
tubaru
tubwan
tubwangin
tubwangit
tumbes
tunceli
turbo
turkmenistan
turku
tutong
tuvalu
tv
tvr
twain
twelve
twi
twin
tzebuergesch
u
uae
ubuntu
uea
uirope
ukraine
ul
ulaanbaatar
ulla
ultimate
un
und
underground
une
unesco
ungari
union
united
university
uno
unto
uosto
upper
upright
ural
ureparapara
ursus
us
usa
used
utah
uusikaupunki
uw
v
va
vad
vaduz
vagahau
vale
valery
valkeakoski
vall
valle
value
valve
van
vantaa
vanuatu
var
vatican
ve
vector
vega
vegas
veit
veliko
venus
vermeer
vermont
version
verslo
vi
vianden
victoria
vienna
vietjet
view
views
viitasaari
vila
vileyka
villa
village
vilniaus
vilnius
viper
virginia
virgo
visaginas
visagino
vista
viti
vitis
vladivostok
vo
voivodeship
vol
volapu
volkswagen
volvo
von
vonnegut
vvu
w
wagga
wales
wanda
waqa
war
warhol
warsaw
warszawa
was
washington
we
web
website
wei
wejherowo
wel
wellington
were
weren
west
western
whan
which
white
who
widen
width
wielkopolska
wielkopolski
wien
wiesmann
wikipedia
wikipediya
will
william
wilson
wiltz
windhoek
windows
wis
wisconsin
with
witold
witsierand
wo
woda
wojciech
wola
won
wona
wonderland
wono
woodard
world
wroclaw
wrocław
www
wyngaerde
wyoming
x
xcf
xix
xk
xvi
xx
xxi
xxii
y
ya
yam
yamaha
yamoussoukro
yamoussoukrou
yaren
year
yener
yo
york
you
your
youtube
yu
yugagan
yuw
yves
z
za
zachodnie
zagato
zamek
zdzisław
zealand
zef
zenvo
zichyu
zmir
zo
zonda
zoom
zu
zx
złoty
{
|
}
~
¢
«
°
²
³
»
¼
×
østfold
đo
ı
ł
ło
łobzie
ŋ
ə
ʻ
ʾ
ˈ
ˌ
ː
̀
́
̂
̃
̄
̆
̇
̈
̊
̋
̌
̓
̔
̛
̣
̤
̧
̨
̭
͡
α
β
γ
ε
ελληνικα
адыгэбзэ
беларуская
беларусь
в
и
коми
мокшень
монгол
н
наша
у
црна
эрзянь
ће
՚
՝
է
մի
որ
ְ
ִ
ֵ
ַ
ָ
ּ
ׂ
א
ה
ו
ח
י
ל
ע
ר
ש
ا
افغانستان
الله
اوزبیکچه
اکبر
اکبرالله
س
شاہ
مکھی
ه
و
ي
َ
ُ
ِ
ٓ
ٔ
ހ
ވ
ދ
ި
ެ
ं
अ
क
ग
ज
ट
ठ
ड
त
थ
द
न
प
फ
ब
भ
म
र
ल
ळ
ष
स
ह
़
ा
ि
ी
ु
ृ
े
ै
ो
्
ং
ঠ
ণ
ত
দ
প
ব
য
র
ল
শ
ষ
়
া
ি
ী
ু
ে
্
ਖ
ਗ
ਜ
ਪ
ਬ
ਾ
ੀ
ੁ
ੰ
ગ
ત
ા
ી
ુ
ଆ
଼
ି
ழ
ி
்
గ
త
ల
ు
ె
ತ
ಳ
ು
್
ം
ള
ാ
ං
ස
ි
་
ཁ
ག
ང
ད
བ
ཡ
ར
ི
ོ
ྫ
တ
န
ဘ
မ
ယ
သ
ာ
း
်
ြ
ၢ
ၵ
ႂ
ႆ
ᐃᓄᒃᑎᑐᑦ
ᜈ
ᜊᜌ
ᜒ
᜔
ខ
ភ
ម
រ
ស
ា
ែ
្
ᨁ
ᨕ
ᨗ
ᨙ
ᬶ
ᮓ
ᮔ
ᮞ
ᮥ
᮪
​
‎
‏
‐
–
—
‘
’
“
”
•
€
↔
↷
③
④
⑦
☉
☾
♂
ⰲ
ⰽ
ⰾ
ⱀ
ⱁ
ⱄ
ⱏ
ⱐ
ⱑ
ⴰ
ⵉ
ⵎ
ⵖ
ⵜ
ⵣ
⺀
⺄
⺆
⺈
⺊
⺌
⺕
⺝
⺸
⺼
⿰
⿱
⿲
⿳
⿴
⿵
⿶
⿷
⿸
⿹
⿺
⿻
「
」
〢
゙
ウ
ク
コ
タ
ト
フ
マ
モ
ヤ
ユ
ワ
ン
ー
㇁
㇂
㇄
㇇
㇈
㇉
㇓
㐁
㐄
㐅
㐌
㐫
㐬
㐭
㐮
㐱
㑒
㒵
㒸
㒼
㓁
㓞
㔾
㕛
㕣
㖾
㘝
㚅
㚇
㚔
㚘
㝉
㝡
㝴
㝵
㞋
㞢
㞷
㠩
㠭
㠯
㡀
㡭
㡿
㢲
㢴
㣇
㣺
㥯
㪅
㫄
㫐
㫒
㫺
㬅
㬎
㬥
㬰
㲋
㳄
㷠
㸒
㸚
㸦
㼌
㼲
㽞
㿟
䀠
䂞
䍃
䏍
䒑
䖍
䖒
䖝
䖵
䙴
䚻
䜌
䝿
䡛
䧹
䪞
一
丁
丂
七
丄
丅
丆
万
丈
三
上
下
丌
不
与
丏
丐
丑
专
且
丕
世
丘
丙
业
东
丞
丢
丣
两
严
並
丨
丩
个
丫
丬
中
丮
丰
丱
串
丵
丶
丷
丸
丹
为
主
丽
丿
乀
乂
乃
久
乆
乇
么
义
之
乌
乍
乎
乏
乐
乑
乔
乖
乗
乘
乙
乚
乛
乜
九
乞
也
习
乡
乳
乾
亀
亅
了
亇
予
争
事
二
亍
于
亏
亐
云
互
亓
五
井
亘
亚
亜
亞
亟
亠
亡
亢
交
亥
亦
产
亨
亩
享
京
亭
亮
亯
亰
亲
亳
亶
亷
人
亻
亼
亾
仁
今
介
仌
从
仐
仑
仒
仓
仕
他
付
仝
代
令
以
任
企
伉
伊
伏
伐
休
会
伦
伯
但
位
何
佘
余
作
佥
使
來
侈
侌
侖
侯
侵
便
保
俞
信
修
倉
倍
候
倠
健
備
僉
僕
僮
儀
儷
儿
兀
允
兂
元
兄
充
兆
兇
先
光
兊
克
兌
免
児
兑
兒
兓
兔
党
兜
兟
入
全
兩
兪
八
公
六
兮
兰
共
关
兵
其
具
典
兹
兼
冀
冂
冃
冄
内
冈
冉
冊
冋
册
再
冎
冏
冐
冒
冓
冖
冗
冘
军
农
冝
冡
冥
冫
冬
冷
几
凡
凢
凵
凶
凷
凸
凹
出
函
凾
刀
刁
刂
刃
刄
刅
分
切
刍
刑
刕
刖
列
刘
则
初
別
利
别
到
制
刺
則
削
剌
前
剡
剽
劉
力
功
加
劦
助
劫
劳
劵
勃
勇
勉
勒
動
務
勞
勤
勹
勺
勻
勾
勿
匀
匂
包
匆
匈
匊
匋
匍
匕
化
北
匚
匝
匡
匪
匱
匸
匹
区
医
匽
匿
區
十
卂
千
卄
卅
卆
升
午
卉
半
卌
华
卑
卒
卓
单
卖
南
卜
卝
卞
占
卡
卢
卣
卤
卦
卩
卪
卬
卯
印
危
即
却
卵
卷
卸
卻
厂
厃
厄
历
厈
厉
厌
厓
厘
厚
原
厤
厥
厨
厭
厲
厶
厷
厸
去
厼
厽
叀
参
參
叅
又
叉
及
友
双
反
叐
发
叒
叔
叕
取
受
叚
叜
叟
口
古
句
另
叩
只
召
可
台
叱
史
右
叵
号
司
叹
吂
各
吅
合
吉
吊
吋
同
名
后
吏
向
吕
君
吝
吞
否
含
启
吳
吴
吹
吾
呂
呆
呈
告
员
呙
周
命
咅
和
咎
咠
咢
咨
咸
咼
哀
品
哉
員
哥
哲
唐
唱
商
啇
問
啚
啬
啻
善
喜
喬
單
喿
嗇
噩
嚴
囊
囗
囘
囙
囚
四
回
囟
因
囧
囬
困
囱
囷
固
国
圂
圅
國
圍
園
圓
團
土
圡
圣
圥
在
圭
地
圶
圼
坐
坒
坚
坴
垂
垔
垚
埀
埋
埶
執
基
堂
堅
堆
堇
堯
場
塞
墨
壘
士
壬
壯
声
壳
壴
壹
壺
壽
夂
处
夅
夆
备
夊
夋
夌
复
夏
夒
夕
外
夗
夘
多
夜
夢
大
夨
天
太
夫
夬
夭
央
失
夲
头
夷
夸
夹
夻
夾
奂
奄
奇
奈
奉
奎
奏
奐
契
奓
奔
奚
奞
奠
奢
奥
奭
女
奴
奻
好
如
妄
妙
妟
妥
妻
妾
姑
委
姜
威
娄
婁
婴
嬰
嬴
子
孑
孔
孕
孖
字
存
孚
孛
孝
孟
季
孤
学
孫
孱
學
宀
宁
宂
它
宅
宇
守
安
宋
完
宏
宓
宗
官
定
宛
宜
宝
客
宣
室
宮
宰
害
宴
家
容
宾
宿
寄
寅
密
富
寒
察
寧
審
寫
寬
寮
寸
对
寺
寻
寽
対
寿
封
尃
射
将
將
專
尉
尊
尋
尌
對
小
少
尒
尓
尔
尖
尗
尚
尞
尢
尣
尤
尧
尨
尭
就
尸
尹
尺
尻
尼
尽
尾
尿
局
居
屈
屋
屎
屏
屑
展
屖
屚
属
屠
屡
屬
屮
屯
屰
山
屵
屾
岁
岂
岑
岡
岩
岳
岸
峯
島
崇
崑
崔
崖
崙
崩
嵬
嶲
巂
巛
川
州
巟
巠
巢
巤
工
左
巧
巨
巩
巫
差
己
已
巳
巴
巷
巸
巽
巾
巿
帀
市
布
希
帚
帛
帝
带
師
席
帶
常
干
平
年
幵
并
幷
幸
幺
幻
幼
幽
幾
广
広
庄
床
底
店
庚
府
度
庫
庭
庶
康
庸
廉
廌
廛
廣
廩
廴
延
廷
建
廾
廿
开
弁
弃
弄
弇
弋
式
弓
弔
引
弗
弘
弜
弟
弥
弦
弱
張
強
强
彊
彌
彎
彐
彑
当
彔
录
彖
彗
彡
形
彥
彦
彧
彭
影
彳
役
彼
往
待
律
徒
得
徙
從
復
微
徵
心
忄
必
忌
忍
志
忝
忠
忩
快
念
忽
忿
思
怠
急
怱
恆
恒
恩
恭
息
悉
患
悤
悲
悶
惠
惡
惢
愁
愈
意
愛
感
慈
慧
慮
慶
憂
憲
應
戀
戈
戉
戊
戋
戌
戍
戎
成
我
戒
戔
或
戚
戠
戢
截
戲
戶
户
戹
戼
戾
房
所
扁
扇
手
扌
才
打
托
执
承
折
拉
拜
拿
掌
接
推
提
摩
撒
支
攴
攵
收
攸
改
放
政
敄
敏
敕
敖
敗
敝
敞
敢
散
敦
敫
敬
数
敷
數
斂
文
斉
斊
斗
斤
斥
斩
斬
斯
新
方
於
施
斿
旁
旋
族
无
旡
既
旣
日
旦
旧
旨
早
旬
旱
旲
时
旾
昆
昇
昌
昍
明
昏
易
昔
昗
昜
星
春
昬
是
昱
昴
昷
時
晃
晉
晋
晏
晤
普
景
晶
智
暑
暴
曇
曩
曰
曲
曳
更
曷
書
曹
曼
曾
替
最
朁
會
月
有
朋
服
朔
朕
朗
望
朝
木
朩
未
末
本
札
朮
术
朱
朵
朶
朿
杀
杏
杜
束
条
来
東
杲
杳
松
析
林
枚
果
枝
枲
枼
某
柔
查
柬
柰
柴
栗
桀
桑
桼
梁
條
梟
梨
棘
棠
棥
森
楚
業
楽
榮
樂
樊
檢
欠
次
欣
欮
欲
欶
欽
款
歆
歇
歛
歡
止
正
此
步
武
歨
歪
歮
歯
歰
歲
歴
歷
歸
歹
歺
死
殳
段
殷
殸
殹
殺
殻
殿
毋
毌
母
每
毒
比
毕
毚
毛
毳
氏
氐
民
气
氣
水
氵
氶
氷
永
氺
氾
求
汝
汞
江
沃
沓
沙
沝
河
泉
法
波
泣
泥
泰
洛
洪
活
派
流
浦
浪
浮
海
淡
淮
清
渚
渠
湯
滿
漸
火
灬
灭
灰
灵
灷
炅
炎
炏
炗
炙
炭
為
烈
烏
烝
焉
無
焦
焱
然
煞
熊
熏
燕
營
燮
爪
爫
爭
爯
爰
爱
爲
爵
父
爻
爽
爾
爿
片
牙
牚
牛
牜
牟
牢
牧
牪
牽
犀
犬
犭
犮
狂
狄
狊
独
狺
猋
猒
猪
献
獻
玄
率
玉
王
玟
玨
珎
班
現
琴
瑟
瑩
瓜
瓦
甘
甚
生
産
用
甫
甬
田
由
甲
申
电
甶
男
甸
甹
画
甾
畀
界
畏
畐
留
畜
畟
畢
畧
畨
番
畫
異
畱
當
畺
畾
疊
疋
疌
疑
疒
疾
癶
癸
癹
登
發
白
百
皀
皃
的
皆
皇
皋
皐
皕
皮
皷
皿
盃
盆
盇
盈
益
盍
盎
监
盒
盖
盛
盡
監
盤
盧
目
直
相
盾
省
眇
眉
看
眔
眞
真
眷
眼
眾
着
睘
睪
睿
瞏
瞢
瞿
矍
矛
矞
矢
矣
知
矦
短
石
破
碎
磊
磨
示
礻
礼
祝
祟
票
祭
禀
禁
禮
禸
禹
禺
离
禽
禾
禿
秀
秃
秉
秋
科
秝
秦
移
稟
穀
穌
穴
究
穹
空
穿
突
窄
窒
立
竒
竜
竝
竟
章
童
竹
笑
笠
筆
等
答
箕
算
箴
節
篤
篭
米
粉
粛
粟
粤
粦
粲
粵
糞
糸
糹
系
約
納
素
索
紫
累
細
絜
絫
統
絲
維
綿
縣
總
繇
纍
纟
纳
缶
网
罒
罔
罕
罗
罙
罡
罢
罪
署
罷
羅
羊
羌
羍
美
羔
羕
羗
羞
羡
羣
群
義
羲
羸
羽
翁
翏
習
翕
翟
翠
翼
老
耂
考
者
耆
而
耎
耑
耒
耳
耴
耶
耷
聂
聊
聖
聚
聶
聿
肀
肃
肅
肉
肖
肙
肥
肩
肯
育
肴
胃
背
胡
胥
能
脊
脩
膚
臣
臤
臧
自
臬
臭
臯
臱
至
致
臺
臼
臽
臾
臿
舀
舂
舄
與
興
舉
舌
舍
舛
舜
舞
舟
般
艮
良
色
艸
艹
艾
芒
芔
芬
芮
花
芳
芺
芻
苔
苗
苟
若
苦
英
茶
茸
荅
草
荒
荣
荼
莆
莧
莫
莱
莽
菆
菊
菐
華
萬
落
葉
著
葛
董
葵
蒙
蒦
蒼
蓋
蓬
蓺
蔑
蔡
蕉
蕭
薄
薛
薦
薰
藍
藏
藥
蘭
虍
虎
虐
虒
虔
處
虖
虗
虘
虚
虛
虜
虞
虫
虽
蚤
蚩
蜀
蜜
蟲
蠡
血
行
衍
衛
衣
衤
表
衮
衰
袁
袞
褭
褱
襄
襾
西
覀
要
覃
見
規
覓
覧
親
覽
见
角
解
言
訁
訇
計
訪
詞
話
詹
語
誩
誼
諸
諾
讠
话
语
谷
豆
豈
豊
豐
豕
豖
豙
象
豦
豩
豪
豸
貇
貝
貞
貟
負
貢
貧
貪
貫
責
貳
貴
買
費
賁
資
賈
賏
賓
賔
賛
賞
賢
賣
質
賴
贈
贊
贛
贝
贡
责
贯
贲
贵
赖
赞
赤
赦
走
越
足
路
蹇
身
躬
車
軍
軎
軟
輦
车
辛
辜
辟
辥
辰
辱
農
辵
辶
边
达
过
迎
近
连
迷
追
退
送
逆
逐
通
速
造
逢
連
逮
進
遀
遂
過
道
達
遣
適
遷
遺
邊
邑
邕
那
邦
邪
郎
部
郭
都
鄉
酉
酋
配
酒
酓
釆
采
里
重
野
量
金
釒
錢
钅
長
镸
长
門
閃
閉
開
閏
閑
閒
間
閔
閩
閱
閵
閻
闌
门
间
闷
闽
阑
阜
阝
阿
降
陳
隆
隊
隋
隡
隨
隱
隶
隹
隺
隻
隼
隽
难
雀
雁
雅
集
雈
雋
雍
雐
雔
雙
雚
雜
雝
離
難
雨
雩
雪
雲
零
雷
需
霍
霜
霝
霞
霸
靈
靑
青
非
靡
面
靣
革
韋
韓
韦
韭
韯
韱
音
頁
頃
項
須
頗
頡
頻
顛
页
额
風
风
飛
飞
食
飠
飲
養
饣
首
香
馬
馮
駦
马
骨
高
髟
鬥
鬯
鬲
鬼
魚
魯
鮮
鱼
鲁
鳥
鳳
鸟
鹵
鹿
麃
麗
麥
麦
麻
黃
黄
黍
黎
黑
黒
黨
黹
黽
黾
鼎
鼓
鼠
鼻
齊
齋
齐
齒
齿
龍
龙
龜
龟
龠
龰
龱
龴
龵
龶
龷
龸
龹
ꆇ
ꉙ
ꦗ
ꦧ
ꦮ
ꦱ
ꭹ
ꮃ
ꮎ
ꮟ
ꮤ
ꮳ
ꯂ
ꯃ
ꯇ
ꯟ
ꯣ
ꯩ








者
艹
（
）
，
？
𐌲
𐌹
𐌺
𐌿
𐍃
𐍄
𞤢
𞤤
𞤨
𞤪
𞤵
𠀁
𠀃
𠀆
𠀉
𠀎
𠀐
𠁁
𠁣
𠂆
𠂇
𠂈
𠂉
𠂊
𠂋
𠂎
𠂒
𠂔
𠂛
𠂡
𠂢
𠂤
𠂬
𠂭
𠂹
𠃊
𠃋
𠃌
𠃍
𠃎
𠃑
𠃓
𠃔
𠃜
𠄌
𠄎
𠄠
𠄢
𠆢
𠆥
𠇍
𠈌
𠌵
𠓜
𠔉
𠔥
𠔼
𠔽
𠔿
𠕀
𠕁
𠕋
𠘧
𠘨
𠙻
𠙼
𠚏
𠚒
𠚤
𠚪
𠣏
𠤎
𠤕
𠥓
𠦄
𠦑
𠦝
𠧒
𠧗
𠧪
𠩺
𠪚
𠫓
𠫔
𠫤
𠬛
𠬝
𠬞
𠬢
𠬤
𠬶
𠮛
𠮦
𠮷
𠯑
𠱠
𠳮
𠷎
𡈼
𡉀
𡉵
𡌥
𡍮
𡏳
𡕒
𡕩
𡕰
𡖅
𡗗
𡗜
𡘆
𡘤
𡧱
𡨄
𡩧
𡬠
𡭽
𡰣
𡰥
𡰪
𡰯
𡰱
𡷈
𡸁
𡿨
𡿩
𡿪
𡿺
𢀖
𢀛
𢀩
𢁙
𢆉
𢆰
𢆶
𢇁
𢇇
𢉖
𢌬
𢌿
𢏚
𢑑
𢑚
𢖻
𢙣
𢛳
𢦏
𢦒
𢧵
𢼄
𢾕
𣁋
𣄼
𣅀
𣅽
𣍘
𣎳
𣎵
𣏋
𣏼
𣗥
𣥂
𣥖
𣦵
𣦼
𣧄
𣪊
𣪠
𣬉
𣳾
𣶒
𤇾
𤊽
𤐫
𤓰
𤔔
𤕨
𤣩
𤰇
𤰔
𤰞
𤴓
𤴔
𤽄
𥁑
𥁕
𥃦
𥃩
𥃭
𥇡
𥑟
𥘅
𥘈
𥝢
𥫗
𥱡
𦈢
𦉪
𦉬
𦉼
𦍌
𦍒
𦎧
𦐇
𦓔
𦔮
𦘒
𦙃
𦚏
𦣝
𦣞
𦣻
𦥑
𦥔
𦥯
𦨉
𦭝
𦰩
𧆞
𧈧
𧘇
𧰨
𧴪
𧴮
𧵩
𧾷
𨸏
𨾴
𩙿
𩠐
𩫏
𩵋
𪉷
𪜀
𪟽
𪠲
𪩲
𫇦
𫔭
𫜸
𫝀
𫠣
𫠩
𫢉
𫥞
𫩏
𫩠
𫪡
𫲽
𫶧
𬀷
𬐘
𬗌
𬙙
𬛸
𬜯
𬟩
𬯁
𬴘
𬺻
𬼉
𬼖
𭀰
𭁈
𭁨
𭅰
𭑈
𭕄
𭗼
𭤨
𭥫
𭻾
𮅕
𮊿
𮍌
𮍏
𮓗
𮥼
𮧮
廾
𰀁
𰀄
𰀈
𰀉
𰀕
𰀠
𰀡
𰀢
𰀪
𰁜
𰃮
𰆊
𰆘
𰋙
𰕎
𰢴
𰧭
𰯲
00--
09--
11--
12--
13--
14--
15--
16--
17--
18--
3--
33169--
4--
41--
490--
5--
57--
59--
6--
60--
62--
69--
7--
72--
73--
8--
9--
92--
a--
ab--
ac--
acipen--
ada--
af--
afri--
ag--
agu--
ai--
aikw--
air--
al--
alex--
all--
alo--
am--
an--
ang--
ar--
arc--
as--
at--
ato--
au--
aw--
ay--
az--
b--
ba--
bal--
ban--
bar--
be--
beau--
ber--
bi--
bin--
bis--
bit--
bli--
bo--
bol--
bom--
bon--
borg--
bou--
br--
brad--
bre--
brow--
bu--
bur--
c--
ca--
cab--
cam--
cata--
cen--
cer--
ces--
ch--
cha--
char--
che--
chi--
cho--
ci--
cl--
clo--
co--
com--
con--
const--
cor--
corra--
cou--
cr--
cu--
cur--
d--
da--
dal--
dan--
dar--
de--
deut--
di--
dist--
dj--
dja--
dji--
do--
du--
dun--
dz--
e--
ea--
eb--
ed--
eg--
ei--
ek--
el--
em--
emi--
en--
eo--
er--
es--
et--
etsi--
eve--
ex--
f--
fa--
fab--
fac--
fe--
fer--
fi--
fin--
fire--
fla--
flo--
fo--
fon--
fra--
frau--
fri--
g--
ga--
gar--
ge--
gen--
gi--
gin--
go--
gon--
gr--
gran--
gro--
gu--
gui--
h--
ha--
hal--
hami--
hamm--
hammer--
hanu--
har--
hau--
hay--
he--
hed--
hem--
hi--
ho--
hof--
horn--
hu--
i--
ia--
ic--
igna--
ij--
ill--
im--
in--
inter--
io--
is--
it--
j--
ja--
jac--
je--
jo--
ju--
k--
ka--
kal--
kala--
kar--
kata--
kau--
kay--
ke--
kel--
ken--
ker--
kha--
ki--
kil--
kin--
ko--
kou--
kow--
ku--
l--
la--
lap--
lau--
le--
les--
leu--
lew--
li--
libe--
lin--
ll--
lo--
loo--
lor--
lou--
lt--
lu--
lube--
lun--
luz--
m--
ma--
mac--
mad--
mag--
maj--
mak--
mal--
man--
mar--
me--
mer--
mi--
mic--
mo--
mon--
monu--
mor--
mu--
my--
myst--
n--
na--
ne--
ng--
nga--
ni--
niew--
nige--
nn--
no--
nor--
nu--
nur--
ny--
o--
oaw--
obe--
oc--
ogro--
oka--
olc--
olym--
on--
op--
or--
os--
otsi--
ou--
ouw--
ow--
p--
pa--
pal--
pan--
papia--
par--
pe--
ph--
pha--
phi--
pho--
pi--
pila--
pilgr--
pin--
pl--
po--
pol--
poland--
pont--
pre--
prezid--
prezy--
pro--
pszczy--
pu--
puer--
pun--
q--
qu--
que--
qui--
r--
ra--
ran--
rap--
rau--
re--
reg--
ren--
rey--
ri--
rk--
ro--
rob--
roga--
ru--
ruo--
ry--
s--
sa--
sae--
saf--
sam--
sand--
sc--
scal--
sch--
se--
sen--
sequ--
sha--
she--
sho--
si--
sig--
sii--
sim--
sk--
sl--
slo--
sma--
so--
soci--
sp--
spe--
spo--
srps--
st--
sta--
stra--
stu--
su--
suo--
swe--
syst--
sz--
t--
ta--
tammer--
tan--
tar--
tas--
tava--
te--
tem--
ter--
th--
ti--
tim--
timo--
to--
tor--
tr--
tro--
tsi--
tsiro--
tu--
tur--
two--
ty--
u--
ul--
un--
uni--
up--
ur--
v--
va--
val--
ve--
ven--
ver--
vi--
vic--
vinc--
vir--
vo--
w--
wa--
wal--
wat--
we--
wen--
whe--
wi--
wiel--
win--
wo--
wy--
x--
y--
ya--
yo--
yu--
z--
za--
zi--
zo--
zu--
ł--
б--
т--
тоҷик--
از--
ب--
به--
سر--
م--
--0
--00
--1
--2
--3
--39
--4
--43
--5
--53
--59
--6
--64
--7
--79
--8
--83
--9
--93
--95
--98
--a
--ach
--ad
--ada
--ae
--ag
--ah
--ai
--ak
--al
--ala
--alo
--am
--an
--ang
--ange
--ano
--ap
--ar
--ara
--ard
--ark
--as
--at
--ate
--au
--ava
--ay
--aya
--b
--ba
--berg
--bil
--ble
--bo
--bsk
--bu
--bul
--burg
--by
--c
--ca
--ce
--ch
--che
--ck
--cka
--cki
--co
--ct
--d
--da
--dae
--dal
--de
--dia
--din
--do
--dorf
--dra
--dral
--duw
--dy
--e
--ed
--ee
--ef
--ego
--ein
--ek
--el
--ela
--em
--emi
--en
--ena
--ens
--ent
--er
--ern
--ers
--ery
--es
--ese
--est
--et
--eu
--eve
--ex
--ey
--ez
--f
--fold
--formes
--g
--ga
--ge
--ger
--ges
--gh
--gin
--gn
--go
--gu
--gue
--h
--han
--he
--head
--heid
--her
--hi
--hti
--i
--ia
--ial
--ic
--id
--ie
--ier
--ies
--ig
--iga
--ign
--ij
--ija
--ik
--ika
--il
--ila
--illo
--im
--imus
--in
--ine
--ines
--ings
--ino
--io
--ip
--ir
--ira
--is
--isa
--ish
--it
--ite
--iya
--iye
--iz
--j
--ja
--je
--ji
--jn
--jo
--ju
--k
--ka
--ke
--ki
--ko
--ku
--ky
--kyro
--l
--la
--lahti
--land
--ld
--ldo
--le
--len
--ler
--ley
--lf
--li
--lin
--lis
--lit
--ll
--lla
--lle
--llo
--lo
--ls
--lus
--ly
--m
--ma
--mal
--mba
--me
--ment
--mi
--mir
--mo
--ms
--my
--n
--na
--nah
--nal
--nas
--nc
--nce
--nces
--nd
--ndal
--ndo
--ne
--nen
--ner
--ng
--nge
--ngo
--ni
--nic
--nie
--nis
--niya
--nko
--nna
--nne
--no
--ns
--nt
--nta
--nti
--nto
--nu
--o
--oa
--ob
--ock
--od
--og
--ok
--ol
--ola
--olus
--om
--on
--ong
--ony
--or
--ore
--ory
--os
--oski
--ot
--out
--ov
--ow
--owa
--p
--pa
--pe
--pes
--po
--polis
--pu
--q
--que
--r
--ra
--rad
--rage
--ran
--ray
--rca
--rche
--rd
--re
--res
--rf
--rg
--ri
--rich
--rin
--ris
--rk
--rl
--rn
--rne
--rno
--ro
--ros
--rr
--rry
--rs
--rt
--rta
--rto
--ru
--rum
--ry
--røy
--s
--sa
--sby
--sdal
--se
--sen
--ser
--sh
--shua
--si
--sia
--sk
--ski
--so
--sos
--ss
--ssa
--sta
--stad
--ster
--sti
--sville
--sz
--sław
--t
--ta
--tal
--tas
--tch
--te
--tem
--ter
--tes
--th
--ti
--tip
--to
--tre
--ts
--tsch
--tt
--tte
--tu
--tus
--ty
--tz
--u
--ua
--uce
--ud
--ue
--ugou
--ula
--um
--un
--up
--ur
--uri
--us
--use
--usen
--usz
--ut
--v
--va
--ve
--ven
--ville
--vin
--vo
--vs
--vu
--w
--wa
--way
--wen
--wewin
--wicz
--wiecki
--wo
--x
--y
--ya
--yi
--yn
--z
--za
--ze
--zi
--zmo
--zon
--øy
--ι
--а
--и
--т
--я
--د
--ز
--م
--ن
--ه
--ی
