!
"
#
##0
##1
##10
##11
##12
##13
##14
##15
##16
##17
##18
##19
##2
##20
##21
##22
##23
##24
##25
##26
##27
##28
##29
##3
##30
##31
##32
##33
##34
##35
##36
##37
##38
##39
##4
##40
##41
##42
##43
##44
##45
##46
##47
##48
##49
##5
##50
##51
##52
##53
##54
##55
##56
##57
##58
##59
##6
##60
##61
##62
##63
##64
##65
##66
##67
##68
##69
##7
##70
##71
##72
##73
##74
##75
##76
##77
##78
##79
##8
##80
##81
##82
##83
##84
##85
##86
##87
##88
##89
##9
##90
##91
##92
##93
##94
##95
##96
##97
##98
##99
%
&
'
(
)
*
+
,
-
.
/
0
00
000
001
002
01
02
020
03
04
05
06
07
08
09
093
1
10
100
1000
10000
1001
1002
1003
1004
1005
1006
1007
1008
1009
101
1010
1011
1012
1013
1014
1015
1016
1017
1018
1019
102
1020
1021
1022
1023
1024
1025
1026
1027
1028
1029
103
1030
1031
1032
1033
1034
1035
1036
1037
1038
1039
104
1040
1041
1042
1043
1044
1045
1046
1047
1048
1049
105
1050
1051
1052
1053
1054
1055
1056
1057
1058
1059
106
1060
1061
1062
1063
1064
1065
1066
1067
1068
1069
107
1070
1071
1072
1073
1074
1075
1076
1077
1078
1079
108
1080
1081
1082
1083
1084
1085
1086
1087
1088
1089
109
1090
1091
1092
1093
1094
1095
1096
1097
1098
1099
11
110
1100
1101
1102
1103
1104
1105
1106
1107
1108
1109
111
1110
1111
1112
1113
1114
1115
1116
1117
1118
1119
112
1120
1121
1122
1123
1124
1125
1126
1127
1128
1129
113
1130
1131
1132
1133
1134
1135
1136
1137
1138
1139
114
1140
1141
1142
1143
1144
1145
1146
1147
1148
1149
115
1150
1151
1152
1153
1154
1155
1156
1157
1158
1159
116
1160
1161
1162
1163
1164
1165
1166
1167
1168
1169
117
1170
1171
1172
1173
1174
1175
1176
1177
1178
1179
118
1180
1181
1182
1183
1184
1185
1186
1187
1188
1189
119
1190
1191
1192
1193
1194
1195
1196
1197
1198
1199
12
120
1200
1201
1202
1203
1204
1205
1206
1207
1208
1209
121
1210
1211
1212
1213
1214
1215
1216
1217
1218
1219
122
1220
1221
1222
1223
1224
1225
1226
1227
1228
1229
123
1230
1231
1232
1233
1234
1235
1236
1237
1238
1239
124
1240
1241
1242
1243
1244
1245
1246
1247
1248
1249
125
1250
1251
1252
1253
1254
1255
1256
1257
1258
1259
126
1260
1261
1262
1263
1264
1265
1266
1267
1268
1269
127
1270
1271
1272
1273
1274
1275
1276
1277
1278
1279
128
1280
1281
1282
1283
1284
1285
1286
1287
1288
1289
129
1290
1291
1292
1293
1294
1295
1296
1297
1298
1299
13
130
1300
1301
1302
1303
1304
1305
1306
1307
1308
1309
131
1310
1311
1312
1313
1314
1315
1316
1317
1318
1319
132
1320
1321
1322
1323
1324
1325
1326
1327
1328
1329
133
1330
1331
1332
1333
1334
1335
1336
1337
1338
1339
134
1340
1341
1342
1343
1344
1345
1346
1347
1348
1349
135
1350
1351
1352
1353
1354
1355
1356
1357
1358
1359
136
1360
1361
1362
1363
1364
1365
1366
1367
1368
1369
137
1370
1371
1372
1373
1374
1375
1376
1377
1378
1379
138
1380
1381
1382
1383
1384
1385
1386
1387
1388
1389
1390
1391
1392
1393
1394
1395
1396
1397
1398
1399
14
140
1400
1401
1402
1403
1404
1405
1406
1407
1408
1409
141
1410
1411
1412
1413
1414
1415
1416
1417
1418
1419
142
1420
1421
1422
1423
1424
1425
1426
1427
1428
1429
1430
1431
1432
1433
1434
1435
1436
1437
1438
1439
144
1440
1441
1442
1443
1444
1445
1446
1447
1448
1449
145
1450
1451
1452
1453
1454
1455
1456
1457
1458
1459
146
1460
1461
1462
1463
1464
1465
1466
1467
1468
1469
147
1470
1471
1472
1473
1474
1475
1476
1477
1478
1479
1480
1481
1482
1483
1484
1485
1486
1487
1488
1489
149
1490
1491
1492
1493
1494
1495
1496
1497
1498
1499
15
150
1500
1501
1502
1503
1504
1505
1506
1507
1508
1509
151
1510
1511
1512
1513
1514
1515
1516
1517
1518
1519
1520
1521
1522
1523
1524
1525
1526
1527
1528
1529
153
1530
1531
1532
1533
1534
1535
1536
1537
1538
1539
154
1540
1541
1542
1543
1544
1545
1546
1547
1548
1549
155
1550
1551
1552
1553
1554
1555
1556
1557
1558
1559
156
1560
1561
1562
1563
1564
1565
1566
1567
1568
1569
157
1570
1571
1572
1573
1574
1575
1576
1577
1578
1579
1580
1581
1582
1583
1584
1585
1586
1587
1588
1589
159
1590
1591
1592
1593
1594
1595
1596
1597
1598
1599
16
160
1600
1601
1602
1603
1604
1605
1606
1607
1608
1609
161
1610
1611
1612
1613
1614
1615
1616
1617
1618
1619
1620
1621
1622
1623
1624
1625
1626
1627
1628
1629
163
1630
1631
1632
1633
1634
1635
1636
1637
1638
1639
1640
1641
1642
1643
1644
1645
1646
1647
1648
1649
1650
1651
1652
1653
1654
1655
1656
1657
1658
1659
166
1660
1661
1662
1663
1664
1665
1666
1667
1668
1669
1670
1671
1672
1673
1674
1675
1676
1677
1678
1679
168
1680
1681
16816
1682
1683
1684
1685
1686
1687
1688
1689
169
1690
1691
1692
1693
1694
1695
1696
1697
1698
1699
17
170
1700
1701
1702
1703
1704
1705
1706
1707
1708
1709
1710
1711
1712
1713
1714
1715
1716
1717
1718
1719
172
1720
1721
1722
1723
1724
1725
1726
1727
1728
1729
1730
1731
1732
1733
1734
1735
1736
1737
1738
1739
1740
1741
1742
1743
1744
1745
1746
1747
1748
1749
175
1750
1751
1752
1753
1754
1755
1756
1757
1758
1759
176
1760
1761
1762
1763
1764
1765
1766
1767
1768
1769
1770
1771
1772
1773
1774
1775
1776
1777
1778
1779
178
1780
1781
1782
1783
1784
1785
1786
1787
1788
1789
1790
1791
1792
1793
1794
1795
1796
1797
1798
1799
18
180
1800
1801
1802
1803
1804
1805
1806
1807
1808
1809
181
1810
1811
1812
1813
1814
1815
1816
1817
1818
1819
182
1820
1821
1822
1823
1824
1825
1826
1827
1828
1829
183
1830
1831
1832
1833
1834
1835
1836
1837
1838
1839
1840
1841
1842
1843
1844
1845
1846
1847
1848
1849
185
1850
1851
1852
1853
1854
1855
1856
1857
1858
1859
186
1860
1861
1862
1863
1864
1865
1866
1867
1868
1869
187
1870
1871
18716115151
1872
1873
1874
1875
1876
1877
1878
1879
188
1880
1881
1882
1883
1884
1885
1886
1887
1888
1889
189
1890
1891
1892
1893
1894
1895
1896
1897
1898
1899
19
190
1900
1901
1902
1903
1904
1905
1906
1907
1908
1909
1910
1911
1912
1913
1914
1915
1916
1917
1918
1919
192
1920
1921
1922
1923
1924
1925
1926
1927
1928
1929
193
1930
1931
1932
1933
1934
1935
1936
1937
1938
1939
194
1940
1941
1942
1943
1944
1945
1946
1947
1948
1949
195
1950
1951
1952
1953
1954
1955
1956
1957
1958
1959
196
1960
1961
1962
1963
1964
1965
1966
1967
1968
1969
197
1970
1971
1972
1973
1974
1975
1976
1977
1978
1979
1980
1981
1982
1983
1984
1985
1986
1987
1988
1989
199
1990
1991
1992
1993
1994
1995
1996
1997
1998
1999
2
20
200
2000
2001
2002
2003
2004
2005
2006
2007
2008
2009
201
2010
2011
2012
2013
2014
2015
2016
2017
2018
2019
202
2020
2021
2022
2023
203
2030
204
206
207
209
21
210
2100
211
213
214
216
217
218
219
22
220
221
222
223
225
228
229
23
230
231
232
235
236
238
239
24
240
241
242
244
245
246
247
249
25
250
251
252
253
254
255
256
257
258
26
260
2600
262
263
264
265
268
269
27
270
272
274
275
276
277
278
279
28
280
282
283
284
285
286
288
29
290
291
293
294
296
298
299
3
30
300
3000
301
302
303
304
305
306
307
308
309
31
310
311
313
314
315
317
318
319
32
320
321
322
323
324
325
326
33
330
332
335
336
337
338
34
340
341
342
345
346
348
349
35
350
352
353
354
355
356
357
358
359
36
360
361
362
363
364
365
366
37
371
373
375
376
38
380
381
383
385
39
395
396
399
4
40
400
401
41
411
413
417
42
420
422
423
425
43
430
432
44
440
45
450
4500
451
455
457
46
461
462
463
464
465
468
47
470
472
474
475
476
48
480
486
487
49
490
491
492
496
498
499
5
50
500
5000
50000
506
51
514
518
52
522
526
53
530
532
54
547
55
550
556
56
560
57
573
576
58
582
587
589
59
590
591
6
60
600
604
608
61
613
618
619
62
620
622
624
627
628
63
630
633
638
64
640
642
644
645
646
647
648
649
65
650
651
652
653
654
655
656
657
658
659
66
660
661
662
663
664
665
666
667
668
669
67
670
671
672
673
674
675
676
677
678
679
68
680
681
682
683
684
685
686
687
688
689
69
690
691
692
693
694
695
696
697
698
699
7
70
700
701
702
703
704
705
706
707
708
709
71
710
711
712
713
714
715
716
717
718
719
72
720
721
722
723
724
725
726
727
728
729
73
730
731
732
733
734
735
736
737
738
739
74
740
741
742
743
744
745
746
747
748
749
75
750
751
752
753
754
755
756
757
758
759
76
760
761
762
763
764
765
766
767
768
769
77
770
771
772
773
774
775
776
777
778
779
78
780
781
782
783
784
785
786
787
788
789
79
790
791
792
793
794
795
796
797
798
799
8
80
800
801
802
803
804
805
806
807
808
809
81
810
811
812
813
814
815
816
817
818
819
82
820
821
822
823
824
825
826
827
828
829
83
830
831
832
833
834
835
836
837
838
839
84
840
841
842
843
844
845
846
847
848
849
85
850
851
852
853
854
855
856
857
858
859
86
860
861
862
86253
863
864
865
866
867
868
869
870
871
872
873
874
875
876
877
878
879
88
880
881
882
883
884
885
886
887
888
889
89
890
891
892
893
894
895
896
897
898
899
9
90
900
901
902
903
904
905
906
907
908
909
91
910
911
912
913
914
915
916
917
918
919
92
920
921
922
923
924
925
926
927
928
929
93
930
931
932
933
934
935
936
937
938
939
94
940
941
942
943
944
945
946
947
948
949
95
950
951
952
953
954
955
956
957
958
959
96
960
961
962
963
964
965
966
967
968
969
97
970
971
972
973
974
975
976
977
978
979
98
980
981
982
983
984
985
986
987
988
989
99
990
991
992
993
994
995
996
997
998
999
:
;
=
>
?
@
\
^
_
a
ab
abadie
abaisse
abandonne
abat
abba
abbae
abbaie
abbaies
abbatiale
abbaye
abbayeauxhommes
abbe
abdica
abditchit
abe
abejar
abertawe
aboli
abolir
abolis
abolit
abolite
abolition
abolitioun
abord
about
abraham
abre
abri
abrie
abrier
absoudre
abstraire
abuser
ac
acache
acade
acadiane
acadie
acadien
acante
acat
acataer
acate
acatent
acater
acateurs
acati
acatit
acaunt
acauntae
accaunt
acce
accents
accepter
acchent
acchents
acchepte
accident
accompagner
accompangni
accord
accorde
accorder
accordi
accordit
accords
accotae
accou
accounai
accoundi
account
accouo
accreire
accueilli
accueillir
accueut
acertannae
ach
acheter
achever
achie
achille
achteu
achteur
achteure
aco
acouo
acquever
acrabouis
acte
actes
acteurs
action
actions
actioun
activite
actor
actrice
actriche
actue
actuel
actuelle
acyi
ad
adam
adams
ade
adelin
ademeuri
ades
adgulle
adjoindre
admeurent
admeurit
administration
administratioun
adminnistra
adminnistre
adminnistrer
adolphe
adolphus
adon
adonc
adonnit
adopte
adoun
adounc
adre
adresse
ae
aen
aens
aer
aethusa
affaire
affaires
affaithe
affaithes
affe
affichi
afflyigi
affondrit
afghanistan
afin
africa
afrikaans
afrique
afritchain
afritchains
ag
agamemnon
age
agencie
agency
agglome
agi
agincourt
agit
agne
agnel
agnes
agniaux
agobi
agon
agrandi
agre
agricole
agritchulteure
agritchultuthe
ague
aguila
ah
aherdre
aherdu
ahers
ahoquie
ai
aides
aidier
aie
aient
aigl
aigle
aigu
aile
ailes
ailleurs
aimae
aimait
aiman
aime
aimeit
aiment
aimit
ain
ainchi
ainchin
aindie
aindyi
aingu
aingue
ainnae
ains
ainsi
ainsin
air
aira
airait
aire
aireit
airlines
ais
aise
aises
aisi
aisie
ait
aithe
aithes
aitout
aitre
aiu
aivant
aix
ajaccio
ajouenre
ajouo
ajouote
aka
akkadgien
al
alacant
alae
alaer
alain
alan
alanchie
alat
alaunt
alba
albane
albannie
albe
albert
albigeis
album
albums
alcanes
alco
alcohol
alcol
alcool
alcoolique
alcubilla
aldealpozo
aldi
ale
alema
alemangne
alenc
alentou
alentours
ales
aleth
alexander
alexandre
alexandri
alexandrie
alexaundrin
alfred
alge
algounqu
ali
alicante
alighieri
align
alignbars
alisme
alit
alite
all
allaer
allah
allaient
allain
allais
allait
allan
allar
alle
alleient
alleit
allema
allemagne
allemand
allemande
allemandes
allemands
allemangne
allemaund
aller
alles
allgemeng
allianche
allie
allit
allobroges
allouait
alloue
allouer
allouns
allumae
almaza
almene
almonnas
alo
alogie
alors
alouai
alouettes
aloures
alpes
alphabe
alphabet
alphae
alphonse
als
alsache
alt
altamira
alte
alternatives
altocumulus
alume
aluminium
alunno
alves
am
amain
amand
amant
amants
amanz
amas
amazonne
ambassadeu
ambettes
ambide
ambitions
ambrais
ambrogio
ame
amen
amendaer
amende
amendement
amendements
amender
amendi
amendit
amertumae
ami
amie
amiens
amin
amins
amira
amis
amitha
amme
amonceler
amont
amora
amos
amou
amouchelae
amoucheler
amount
amounte
amour
amoureux
amp
amphibiens
amprae
ampre
ampreus
amsberg
amste
amsterdam
amu
an
anagyroides
ananas
anastasius
anatolie
anatonmie
anche
anchien
anchienne
ancien
ancienne
anciennes
anciens
ancient
and
andes
andgulle
andorre
andre
andrea
andrei
andrej
andrew
andri
ane
aneirchit
aneis
anemins
ange
angela
angeles
angers
anges
anggun
angiers
angl
anglais
angle
angleis
angleise
angleises
angleterre
angliai
angliais
anglie
anglio
angllais
anglle
anglo
anglyican
anglyicanne
anglyicans
angne
angrelots
anguelterre
anguilla
anhui
anhyi
anhyit
aniet
anima
animaux
anjou
anmi
ann
anna
annae
annais
annales
anne
anni
annie
annima
annimaux
annive
anno
annonce
annonche
annonches
annonchi
annonchie
annule
annuum
annyi
anounchi
ans
ansan
ant
antan
antarctique
ante
anthropologie
antienne
antioke
antique
antiques
antiquite
antise
anto
antofagasta
antoine
antologia
antoni
antonine
antoninus
antonio
antonius
antoue
antrim
anuit
anve
any
anz
ao
aoc
aoeur
aou
aout
ap
apeuplyi
aphrodite
api
apo
apocalypse
apollon
apostolique
apoullinaire
app
appaer
apparai
apparei
appareut
apparitioun
apparitiouns
apparte
appartenait
appartenir
appathai
appathu
appathut
appe
appel
appelae
appelaer
appelait
appele
appeleient
appeleit
appeler
appeli
appelit
appellation
appelle
appellent
appeule
appias
apple
appointe
apport
apportae
apporte
apporti
apportit
appouainte
appre
apprend
apprenre
appri
apprins
apprivouai
approuve
approuvit
aprae
apre
aprent
apus
aqu
aquevae
aquifolium
aquila
aquin
aquitaine
ar
ara
arabe
arabes
arabie
aragon
aras
araucana
araucaria
arba
arbale
arbre
arbres
arc
archange
archaunges
arche
archeit
archerches
arches
archeu
archeve
archevei
archibald
archiduc
archipel
architecte
architectes
architecteure
architecture
architectuthe
archive
archived
archives
arconque
arconstruction
arcouchi
arcounai
arctique
ardae
ardaunte
arde
ardenne
ardents
arder
ardes
ardguments
ardit
ardre
are
arflleu
arfluer
arfroumae
argenciment
argent
argentan
argentinne
ari
ariel
aristote
arizona
arle
arlette
arlevae
arligieuse
arligieuses
arligieux
arligion
arligioun
armada
armae
armagnac
armagnacs
armand
arme
armes
arminse
armint
armoue
armounte
arms
arnaud
arnoumae
arouseus
arpitan
arposent
arpre
arprend
arprins
arqu
arque
arras
arre
arri
arrie
arrivae
arrivaer
arrive
arrivent
arriver
arrivi
arrivit
arrondi
arrondiment
arroundissement
arrouo
arryire
ars
arse
arsemble
art
arte
arteis
arthropoda
arthu
arthur
artic
articl
article
articles
articlle
articlles
artifaille
artifice
artike
artikes
artill
artiste
artistes
artistique
artistiques
artoue
artouornement
artour
artradi
artroue
artrouove
arts
arvendiquier
arvenin
arvenir
arvient
arvyint
as
asie
aspi
asplet
ass
assa
assaez
assai
assaie
assaient
assaigs
assaut
assauts
assazinae
asse
asseiraunt
assembliaient
assemblie
assemblier
assembllae
assemblle
asseu
asseurit
assez
assie
assied
assiette
assis
assise
assistant
associa
association
associatiouns
associe
assomption
assyigement
assyigi
aste
astier
astinenche
astrologie
astronomi
astrononmie
astrononmique
astrononmiques
at
atacama
atandis
atatu
atche
atchilyait
atchilyi
atchilyie
atchilyis
atchilyit
atchuse
athae
athe
athle
atioun
ativelle
atlantique
atlas
atlauntique
atmosphe
ato
atomiques
atonme
atonmique
atout
atre
atrium
atta
attaqu
attaque
attaques
attaquie
attatchi
attatchit
atte
atteind
atteint
attelae
attelage
attendue
attila
attractions
attrait
attribue
attrioquent
attriotchait
attriotchi
attriotchit
au
aube
aubert
aubi
aubin
aucun
audgo
audgusti
audio
auffrique
auge
augu
auguste
augustus
aujord
aujourd
aukeune
auma
aumpre
aun
aunchien
auncienne
aunciennes
aund
aundelle
aundely
aundelys
aundorre
aundrae
aundre
aunge
aungle
aungleis
aungleterre
aungllais
aunglle
aunglleis
aunglleise
aunglles
aungllo
aunglo
aunnae
aunou
aunqu
auns
auntienne
auntiqu
aupre
auqueune
aur
aurelius
aurevilly
aurni
aurore
aus
ausia
aussi
austerberthe
australa
australie
australis
aut
auta
autcheune
autchun
aute
autel
autes
auteu
auteurs
automne
autonome
autoritaire
autorite
autre
autres
autriche
autruche
autun
auve
auvec
auverne
aux
av
ava
avaer
avaient
avains
avaint
avait
avaloirs
avanche
avanchent
avanchi
avanchie
avanchies
avant
avariche
avaro
avathi
avau
avaunchi
avaunt
ave
avec
avei
aveient
aveignent
aveignit
avein
aveindre
aveine
aveinne
aveinre
aveir
aveirnom
aveis
aveit
avenaunt
avenir
aver
avernoum
avers
aveu
aveuc
aveucque
avez
avi
aviculture
avignon
avint
avion
avions
avioun
aviouns
avis
avium
avocat
avocats
avoi
avoir
avoms
avon
avons
avou
avouair
avoums
avout
avranches
avraunche
avraunches
avre
avri
avril
avro
avuule
avuules
ay
ayaint
ayant
ayaunt
ayde
aydes
aye
azincouort
b
ba
babel
babylonne
babylonyin
bac
bachi
bachin
backgroundcolors
bacte
bad
badauds
bae
baengue
bahames
bahia
bai
baie
bailhache
baillage
baille
baillera
bailli
bailliage
bailliages
baillie
baillier
baillis
baillit
bailliz
bain
bains
bait
baithe
bal
bale
baleine
baleines
balise
balkans
ballade
balle
balleine
balles
ballon
ballot
balmat
baltique
ban
banana
banane
banc
bancs
bande
bandine
bang
bangladesh
bangne
bangnere
bank
banking
bannes
bannie
banque
banques
bantchi
bantchie
bapte
baptisie
baptiste
bar
bara
barack
barbares
barbe
barbey
barce
barcelona
barcino
bardata
barflleu
bari
baron
baroque
barouns
barra
barraer
barre
barriques
barryire
barthe
barthelemy
bartlett
bartolo
bartolomeo
bas
basarab
base
basile
basilica
basilique
basiques
basouoque
basouque
basouques
basque
basse
basselin
basses
bastchien
baste
basti
bastien
bat
bata
bataille
batale
batchieaux
bate
batel
bathe
bathis
bathory
batia
batiaux
batisse
bats
batt
battant
batte
batteux
battez
battle
battre
battu
battue
battus
bau
bauchage
bauche
baudains
baudet
baunde
baunque
baunques
baux
bavaire
bavent
bay
bayang
bayeus
bayeux
bayou
bbc
bbcfxcv
bc
bcvcvcccbc
be
beaucoup
beaumont
bec
bedane
beffrei
beichon
beichoun
beiji
beijing
bein
beinfaits
beins
beinv
beire
beit
bel
belfast
belfonds
belgae
belgique
bella
bellay
belle
bellement
belles
bellie
bello
belo
bels
ben
benedetto
benedicta
benedictus
benei
beni
benvenuto
ber
berbe
berbis
bercas
bere
beresford
berge
berlin
bermejo
bernadette
bernard
bernardin
bernat
berqu
berquiers
berri
berry
bertangne
bes
besaunc
besbre
besein
bessin
bessounes
best
betchet
bethle
beu
beurre
beusse
beusses
beuve
bey
beyonce
bg
bi
bia
biau
biaucop
biaufaire
biautai
biaute
biauvais
biauvaisis
biaux
bibe
bibl
bible
bibliographie
bibliothe
biblique
biblle
bibllicque
biblliographie
bibllique
biche
biden
bie
bieau
bieaux
bien
biens
bienvenue
bieu
big
bignon
bijout
bike
bikes
bikini
bilady
bili
bill
bille
billes
billions
billot
bilo
bingham
binnet
binomio
biobi
biographie
biographies
biologie
birmingham
birnenmost
biroun
bis
bisac
bisia
bissextiles
bl
black
blackjack
blaise
blampied
blanc
blanchard
blanche
blanke
blanvillain
blason
blaunche
bleis
bleu
blia
bliampid
blianc
blianche
blianches
bliancs
blick
blie
blio
blios
bliotchi
bliu
bliue
blla
bllaqui
bllaquies
bllasoun
bllaunc
bllaunche
blle
blleu
bllos
blocs
blois
blue
blyi
bo
board
bob
bocage
boccoli
bocsa
boe
boeu
boeux
bog
bogdanoff
bogorodicy
bogota
boire
bois
boischampre
bokma
bolche
boli
bolle
bombarde
bombe
bon
bonaparte
bonifacius
bonjour
bonne
bonnes
bonnet
bonnets
bons
bonvoust
boord
borassus
bord
bordaer
bordage
bordages
bordant
borde
bordeaux
bordelais
border
bordia
bords
boris
bos
bosch
boscherville
bosdet
bosnia
bosnie
botannie
botannique
bottenie
bottes
botticelli
botticini
bottom
bouai
bouais
bouaisson
bouaissons
bouan
bouanne
bouce
boud
bouddhe
boudi
boudin
boudre
boue
bouenne
bouesse
bouessia
bouffard
bouille
bouillir
bouiner
bouisse
boulandgi
boulangu
boulant
boulants
boule
boulet
boulets
boumbardae
boumbarde
boun
boune
bounes
bouns
bouo
bouoch
bouoche
bouochel
bouochi
bouogent
bouogi
bouoillait
bouoilli
bouoillie
bouoillon
bouoillonne
bouon
bouone
bouones
bouonhoume
bouonhoumme
bouonne
bouonnefemme
bouonnes
bouons
bouor
bouorbounais
bouord
bouords
bouore
bouorg
bouorgongne
bouorgoungne
bouorgs
bouorgu
bouort
bouot
bouote
bouotique
bouotiques
bouots
bouove
bouoyau
bourbon
bourbounais
bourde
bourdele
bourdon
bourg
bourgaille
bourgeoue
bourges
bourgo
bourgogne
bourgou
bourgs
bourgtheroulde
bourguignon
bourguignons
bourguignoune
bourguignouns
bours
bourse
bourses
bout
boute
bouteiller
boutelle
boutelles
boutique
boutiques
boutitchie
boutons
br
bra
brache
bracherie
brachies
brae
brai
braies
braiesi
braire
brais
braithe
bram
bran
brancage
brandenbourg
brandenburg
branque
branques
bras
brasi
bratislava
bratislavie
braunque
braunques
bray
brayon
brayonne
brayouns
bre
brecque
breies
breinigerberg
bren
brer
bres
bretagne
bretangne
bretchette
breton
bretons
bretoune
breu
breune
breunes
breus
breux
bri
bricquebe
bricquebec
bridge
brie
briffe
briga
brighton
brin
briouze
brique
briques
briqueville
bris
brisants
brisbane
bristo
brit
britannia
britannique
britanniques
british
bro
broche
brocq
broi
bronze
brou
brounze
brouoleuses
brown
bru
brun
brunel
bruni
brunswick
brusselle
brut
bruxelles
bu
buckingham
buda
budapest
building
bulgare
bulgarie
bulgarini
bulleti
bulletin
buoninsegna
buriau
buridan
burn
burns
burre
bus
bush
but
butaer
bute
buts
buure
by
byi
byin
byins
byinto
byinvenu
byinvenun
byzante
byzanti
byzantin
byzantinne
bœu
bœus
bɑt
c
ca
cabathet
cabinnes
caboche
cabot
cabote
cabots
cabouorg
cabourg
cache
caches
cacheux
cachi
cadenche
cades
cadien
cadiens
cae
caeir
caelestinus
caem
caen
caerdydd
caernarfon
caesar
caesarea
cafae
cafe
cahuche
cai
caine
caint
caire
cais
cait
caite
caius
calais
calcaires
calde
cale
caledonia
calende
calendri
calendrier
calendris
calendriyi
calenge
calengier
cales
caleu
caleux
california
califournie
calitchumbelet
calling
caltchul
caltchule
caltchuler
caltchuls
calvados
calvin
calviniste
cam
cambria
cambridge
came
camembert
camp
campa
campangne
campanula
campo
camps
camuche
camus
can
cana
canaan
canada
canadienne
canchon
canchoun
candeleur
candelles
candidat
canele
cangement
canique
canis
cannada
cannadgienne
canne
cannelle
cannes
canni
cannieaux
cannique
canniques
canon
canons
canouniques
canounise
canouns
cant
cante
canter
canterbury
canteresse
cantique
cantiques
canton
cantons
cantorbe
canvas
cao
caouain
cap
capabl
capaer
cape
capel
capelain
capelit
capelle
capelles
capet
capetaine
capia
capitae
capitaine
capitale
capitales
capite
caplae
caplyi
cappe
capper
capsicum
capuche
capuchi
caqueve
car
caracte
caradas
carai
carcharias
carcharodon
cardiff
cardina
care
carey
cargie
carilloun
cariole
carite
carl
carles
carlomaun
carlos
carnava
carnis
carnivora
caro
carolingien
carolinne
carolyn
carpatchiens
carpe
carpobrotus
carrae
carre
carrefour
carres
carrette
carrie
carrouge
carrouges
cart
cartchai
carte
carter
carteret
cartes
carthage
cartier
carvile
carville
cas
casaques
caselle
casidounne
casnewydd
casque
cassini
castchets
caste
castel
castello
castil
castle
castor
cat
catala
catalan
catalana
catalanne
catalans
catalauniques
catalogue
catalongne
catalunya
cate
categorie
category
cathare
cathares
cathe
cathedral
cathedrale
cathere
catherine
catholicisme
catholique
catholiques
catice
caton
cats
cau
cauchais
cauches
cauchie
caud
caude
cauds
caumine
caump
caumpangne
caumps
caun
caunchoun
caunchounettes
caunchouns
cauntae
caunte
cauntiques
cauntons
cauntorbe
cauntoun
caup
caupage
cause
causes
causeway
causit
caux
cavae
caval
cave
caves
cayenne
cc
ccbcvccc
cd
ce
cecil
cefet
celle
celles
celso
celtes
celtique
celtiques
cembe
cembre
cende
censement
cent
cente
center
centra
central
centrale
centrali
centre
centro
cercueil
ceredigion
cerisy
certains
cervus
ces
cessaithe
cessaithes
cessi
cessit
ceste
cette
ceus
ceutie
ceux
cevoir
ch
cha
chabot
chabots
chae
chaem
chai
chailloue
chain
chaine
chair
chaire
chais
chait
chaite
chambe
chambre
chambres
champ
champagne
champaigne
champeneis
champi
champlain
champleure
champlure
champs
champsecret
chance
change
changement
changements
changi
changie
changier
changit
channel
chanson
chansona
chansons
chant
chantchie
chante
chantent
chanter
chanteux
chants
chaos
chape
chapelle
chapelles
chapitre
chaplin
chapper
chaqu
chaque
chaqueun
chard
charente
charentes
charing
charle
charlemagne
charlemangne
charleroue
charles
charleva
charlie
charlomaun
charte
chartes
chartreux
chasse
chassent
chasser
chasseurs
chasseux
chate
chateau
chau
chaumbe
chaumpagne
chaumpangne
chaungi
chaunt
chauntae
chauntaer
chaunte
chaunteus
chausey
chavette
chavettes
che
chef
chefs
chein
cheinne
cheinnes
cheins
cheintuthe
chelle
cheltes
cheltique
chelyi
chemb
chembe
chement
chen
chena
chendres
chenna
chennechi
chent
chentaine
chentaure
chente
chentes
chentral
chentrale
chentre
chents
cher
cherbourg
cherc
cherclle
cherclli
cherge
cherges
chergi
cherie
cherise
cheriz
ches
chet
chete
cheti
chette
cheu
cheunm
cheurque
cheurques
cheus
cheux
cheveir
chevenon
chi
chialement
chibnall
chide
chidre
chie
chier
chies
chiffes
chiffre
chifournie
chikier
childe
chile
chili
chilla
chim
chime
chimenae
chimetyire
chimie
chimique
chimiques
chin
china
chinese
chinn
chinne
chinnes
chinnouais
chinnouaise
chinois
chinon
chinoue
chinq
chinqu
chinqui
chinquie
chins
chiqu
chiquier
chirac
chis
chise
chisive
chit
chite
chivie
chivile
chiviles
chlorus
cho
chocolat
choir
chole
chon
chonnabl
chons
chope
chorchel
chorchell
chorchi
chorchie
chorchyire
chose
choses
chou
chouai
chouaile
chouailes
chouaix
choue
choule
choun
chounae
chounaer
choune
chounent
chouner
chouneus
chounit
chouns
chouque
chour
chours
choutchet
choutchettes
chre
chri
christ
christian
christiane
christine
christophe
christopher
christum
christyine
chronique
chroniques
chronologie
chrysanthemum
chryse
chrysler
cht
chte
chu
chuche
chucre
chucres
chucri
chucrinn
chucro
chue
church
chus
chut
chute
chutes
chuti
chutte
chy
chycle
chyi
chypre
ci
cia
cial
ciale
cialement
ciales
cialistes
cialite
cian
ciaux
ciches
cidae
cidaer
cide
cider
cidi
cidit
ciditent
cidre
cidrerie
cie
ciel
cient
cier
ciers
cieux
cine
cinne
cirtchule
cis
cision
citae
cite
citouoyen
citrus
city
ciutat
civile
civiles
civilisa
civitas
cl
cla
clai
clair
claire
clairefeuille
clairvaux
clame
clameur
claration
clare
clarte
classe
classique
classiques
claude
claudius
claus
cle
clefs
clemens
clement
clerc
cles
clia
cliai
cliaithe
cliassique
cliatha
cliathe
cliathi
cliathit
cliavette
clie
clinaisons
clinaisoun
clinaisouns
cline
clinton
clio
clioche
clioches
cliochi
cliochie
clios
cliou
cliouque
clla
cllai
cllaire
cllameu
cllaqu
cllarae
cllare
cllavettes
clle
cllenchit
cllincheures
cllinchi
cllochi
clloque
clloques
cllos
cllotet
cllovis
clobe
clobes
clodomir
clokes
clon
clore
clos
closeup
clotaire
clotilde
cloud
cloue
clovis
club
cluj
clyi
clyipse
cm
cmandement
cmenche
cmenchement
cmencher
cment
cn
co
coat
coates
cocangne
coche
coco
cocos
cocteau
code
codifie
coditions
coe
coeur
cohue
coi
coimbra
coimperator
coin
coing
colatioun
cole
coles
coli
colin
collate
colle
collecter
collectif
collection
collectit
collectivitae
collectivite
college
collette
collin
cologne
colombage
colombes
colombie
colombier
colongne
colonie
colonne
colonnes
colonni
colonnie
colonnies
colonnistes
colons
color
colorado
colors
colosse
colossiens
coloumb
coloumbie
colounie
colouns
colyi
com
combat
combats
combien
comes
comme
comment
commeunaute
commeune
commeunica
commeunisme
commeuniste
commeunistes
commeunitchi
commission
commonwealth
commune
communes
communne
compagnie
compagnon
compangnie
company
compathai
compather
compe
compense
compiuteu
compiuteurs
comple
complet
completes
complie
comporte
compose
composit
compositeu
compostelle
comprend
comprendre
compreneit
compri
compt
comptaer
compte
compteit
comptes
compteux
comtae
comte
con
conce
concepcio
concepcioun
conception
concheption
conches
concorde
concours
condamne
condi
condition
conditionnel
conditions
condu
confe
confesse
confesseux
confirme
confirmit
conflit
conflits
confre
conger
congo
congre
conium
conjugaison
conjugue
conlaungues
conme
conmite
connai
connaissance
conne
connu
connue
connues
connus
connute
conomi
conomie
conomique
conon
cononmie
cononmique
cononmiques
conqu
conque
consa
consacre
conse
conseil
conserve
conseunmtion
conside
consiste
consonnes
consounes
conspitha
constant
constanti
constantia
constantinopl
constantinus
constantius
constella
constitue
constitution
constitutionnel
constitutionnelle
constitutionnelles
constitutions
construction
construire
construit
construite
cont
contche
contcheinnent
contcheint
conte
contentinais
contents
contenu
contes
contient
continentale
continnent
continnents
continnua
continnuait
continnue
continnuer
continnuit
continuer
continuit
contra
contraception
contraire
contrats
contre
contro
controppose
contropposent
contropposer
conv
conve
conversion
converti
convertir
coope
cop
copae
copaer
copaunt
cope
coper
copi
copie
copier
copit
copley
cops
coque
coquette
cor
cora
corbet
corbi
corbie
corbin
cord
corde
cordes
cordius
cordre
cords
core
coreenne
corenti
cori
corneille
cornelius
cornique
cornouaillais
cornouailles
corona
coronarium
coronel
corps
correa
correspond
correspondance
corse
corset
cortone
corvae
cos
cose
coses
coslovaquie
cossais
cosse
cossus
costa
costalago
coste
costeunmes
costruit
cotenti
cotentin
cotentinais
cotentineis
cotha
coton
cotre
cou
couche
couchy
coucou
coucy
coudre
coue
couen
couens
couertes
coues
coulaer
coule
couler
couleu
couleur
couleurs
couleuthe
couloumb
coum
couma
coumandit
coumaundement
coumbat
coume
coumenche
coumenchement
coumenchent
coumenchi
coumenchie
coumenchier
coumenchit
coumende
coument
coumerche
coumette
coumeun
coumeuna
coumeunaute
coumeune
coumeunes
coumins
coumme
coumment
coumpagnie
coumpagnouns
coumpangnie
coumparablle
coumparaisoun
coumpassous
coumple
coumplle
coumprenre
coumprentioun
coumprins
coumptae
coumptaer
coumpte
coumptes
coumtae
coumte
coumteis
coumtes
coumun
counachie
counaexes
counai
counaissait
counaissaunche
counaisseu
counait
counche
counchept
counchile
council
coundi
counditiouns
counduusit
couneu
couneue
couneues
couneus
couneut
counfe
counfessiouns
counfiae
counfierai
counfounde
coungre
counjugaisoun
counjugue
counne
counoumiques
counqu
counque
counquis
counse
counside
counsounes
counstauntin
counstauntinoplle
counstruire
counstruure
counstruute
counstruutes
counte
countenir
countent
countes
countient
countinue
countrairement
countre
county
countyint
counu
coununs
couo
couochant
couoche
couochent
couoches
couochon
couochons
couole
couoleu
couoleurs
couoleus
couonnue
couop
couops
couor
couoraunt
couoro
couorone
couoronne
couoroune
couors
couorse
couort
couorte
couos
couosin
couosins
couotaunche
couotaunches
couote
couothant
couotia
couovrit
coup
coupassous
coupe
couper
coupl
coups
cour
courage
courbet
courcy
couronna
couronne
couronnes
couroune
courouone
cours
course
court
courte
courteisie
courtil
coustantinobles
coutainville
coutances
coutanche
coutanches
coutchi
coute
couteu
couteume
couteumes
couve
couvenir
couvent
couverte
couves
couvre
couvri
couvrit
coventry
covid
cque
cqueis
cques
cra
crabe
crabi
craboui
crabouies
cracau
cracots
cracovie
crai
craient
crait
craithe
cran
crane
crangon
cranne
crapauds
craque
crasae
crase
crate
crater
cratioun
cravate
cravates
crawford
cre
credo
crei
creient
creirait
creire
creis
creissaunt
creit
cret
creu
creus
creusae
creux
creyable
creyait
cri
cria
criaer
crianche
crianches
criateure
criatuthe
criatuthes
criaunt
criaunte
criauntisme
criaunts
cricket
crie
crient
crimes
crique
crire
crise
crisit
crista
crit
critchieau
critchieaux
crite
crites
criteure
criteures
crithe
crithie
critique
crits
criture
crituthe
crituthes
crivain
crivains
crivait
criveux
crivi
crivit
crivo
criyae
criyaer
criyaient
criyait
criyants
criyatioun
criyaunche
criyi
cro
croate
croates
croatie
crocata
croi
croire
croix
cronos
cross
crosse
crou
crouai
crouaix
croue
cru
cruchefis
crucifie
crucifix
cryiae
cryiatioun
crypte
crystallinum
cs
cu
cueillir
culte
culteure
culteures
cultive
cultiver
cultu
cultura
culture
culturel
culturelle
cum
cura
cure
curial
current
curry
cusano
cuse
cute
cution
cvalier
cvc
cy
cyclle
cyil
cyils
cynapium
cyrille
cyrillique
cœu
cœuil
cœur
d
da
dacteu
dadge
dae
daeux
dain
daine
dairie
dait
daivent
dal
dalarun
daler
dali
dam
dame
dames
damigny
dan
dane
daneis
danemarche
danes
dange
dangi
daniel
danme
danmes
dannema
dannemar
dannemarque
dannouais
dans
danse
danser
danseurs
dant
dante
danube
dao
darc
dare
darkgrey
darne
darrie
das
date
dateformat
dateit
datent
dates
daule
daunche
dauns
daunse
dauphi
dauphin
dauphine
davi
david
davis
davy
day
dc
dd
de
death
deborah
debouot
debussy
dec
decade
decembe
decidae
decidaer
decide
decidit
decius
deco
dedauns
dedpis
defende
defeunt
defeunts
degli
deh
dehors
dei
dein
deit
deivent
deja
del
delesques
deletion
dell
della
demaine
demaines
demande
demander
demaundaer
demaunde
demaundi
demaundit
demeurait
demeure
demeureit
demeurent
demeurer
demeuri
demeurit
demi
demie
demin
demonge
demouorit
den
denin
denis
dens
densberg
densitae
densite
dent
dents
denys
deo
deodand
depis
depuis
dequei
dequi
der
derain
derik
derne
dernie
dernyire
derrain
derraine
derrie
derryire
des
descartes
deschend
description
deserts
design
designs
desmond
desnouettes
desouos
desse
dessens
desseur
dessin
dessinae
dessinn
dessins
dessouos
dessous
dessus
destal
destinations
destino
destruction
desus
deu
deul
deum
deunes
deus
deut
deute
deux
deuxie
devait
devant
devaunt
deve
deveir
deveit
deveni
devenin
devenu
devenue
devenun
devers
devi
devient
devint
devintent
devise
devyi
devyinnent
devyint
dezember
dfort
dg
dgai
dgait
dge
dgeins
dget
dgeunme
dgeunmes
dgeurre
dgi
dgia
dgialecte
dgibra
dgide
dgie
dgieppe
dgieu
dgieux
dgillaume
dginne
dgit
dgitare
dgium
dgix
dgulie
dgulyi
dguste
dgusti
di
dia
diabe
diable
diacre
dialecte
dialectes
dias
diche
dici
dictatuthe
dictin
dictine
dictins
dictionary
dictionnaire
dictionnaithe
dictionnaithes
dictioun
dictiounaire
dictiounnaire
didget
die
dieppe
dies
diesel
dieu
dieux
diev
diex
dife
diffe
difficilement
difraunts
digitalis
digu
dijon
dimanche
dine
dingue
dinmanche
dinmaunche
dinosaures
dioce
dioche
dioclle
dionysius
dior
dipliomatique
dipliomatiques
dir
dira
dire
direct
directe
directement
directeu
direction
directioun
dires
dirie
diries
dis
disait
disant
dischiplle
discipl
disciplle
disciplles
discours
discret
dise
diseient
diseit
disent
diseux
disit
disjunctive
disoms
dispathu
dispathue
dispathut
disques
distchuter
disti
distraire
distribuchi
distribue
distric
districts
distrits
dit
dite
diterranae
diterrane
dites
dithaient
dithait
dithe
dithent
dition
ditioun
diton
ditons
ditoun
ditouns
dits
dive
divers
diverses
divi
divin
divinitae
divise
diviser
divisit
divorce
divulgue
dix
dizyime
dja
djablle
dje
dji
djo
dju
dmande
dmeure
dmeurit
do
docteu
docteux
doctre
doctrinn
dodo
dodos
doge
doges
dogme
dolant
dollar
dolmen
dom
domaine
domenico
domesday
domfront
dominicanne
dominique
dominnique
domre
don
donc
dong
donjon
donn
donna
donnait
donne
donnent
donner
donnit
dont
doo
door
doque
dorae
dore
dorey
dorment
dort
dos
dostoi
dot
dotchu
dotchument
dotchuments
dou
doua
douaine
douais
douard
doubl
double
douche
doudront
doue
douglas
doumaine
doumanne
doumfrount
doun
dounae
dounaer
dounait
dounatioun
dounaunt
dounc
doune
douneit
dounent
douner
douni
dounit
dount
douobs
douoche
douochement
douoches
douos
douoyen
douoyenne
douoze
douozyime
dous
doutance
doute
douvres
doux
douze
douzie
dovre
doyen
dpis
dra
dragon
dragons
dragu
drai
drain
drait
draite
drale
drales
drannet
drannets
drap
drape
drapeau
draps
dre
drein
dreine
dreines
dreins
dreit
dreite
dreiteure
dreits
drent
drie
dro
droguet
droit
droite
droits
drouait
drouaite
drouaits
ds
dsous
dst
du
duale
dubli
duc
duca
ducal
ducale
ducat
ducation
duccio
duche
duchesse
duchie
duchies
ducs
duhamel
duinkerke
duire
dumaresq
dumont
dun
dunstan
duong
dupont
dupre
duqu
durae
durant
duraunt
dure
durham
durit
duron
dus
dut
dutchi
duthant
duthe
duthit
duu
duutioun
dux
dvant
dvenu
dvenute
dvers
dvient
dvint
dwouard
dy
dyel
dyire
dyis
dyna
dynastie
dynastique
dz
e
ebbe
eccle
ecclesia
ecclesiastica
echauffour
ecosse
ecosseis
ecouis
ecouves
ed
eddie
edgar
edicions
edirne
edit
edited
editions
edmond
edmund
edouard
edpis
educac
edulis
edward
edwin
ee
effachement
effant
effet
effets
eglise
egllise
egre
ei
ein
eis
eise
eissue
eisteddfod
eisteddfods
ej
ekklesia
el
elaborazione
elbrus
ele
elie
elisabeth
elizabeth
elle
elles
els
elu
em
embarras
embastilli
embe
embelli
emile
emmanuel
emmi
empa
empe
emperesse
empereu
empereur
empereus
empereux
empire
empithe
empithes
emple
emplei
empleie
empli
empliaichement
emplie
empoigner
empouai
emprae
empre
emprunte
en
enchorche
enco
encor
encouothage
encouothagi
encouragi
encycllope
encyclope
end
ende
endite
enditer
endrait
endreit
endreits
enduthit
enfant
enfe
enfer
enfike
enfin
enfirmitae
enfondre
enfoui
enfuir
eng
enge
engendrit
enges
engi
england
engleis
engleterre
english
englois
engoule
engouolaunt
engre
enhabite
enhe
enhi
enhui
enjeu
enjouenre
enleumineure
enlever
enmuthailli
enmuthaillie
enn
enne
ennes
enqu
enque
enr
enreit
enri
enrouo
enroutaer
ens
ensa
enscrit
ensemb
ensembl
ensemble
ensemblle
ensi
ensieute
ensignement
ensu
ensueute
ensuute
ent
entche
entchi
entchie
ente
enteind
entend
entendre
entends
entenre
enter
enterdite
enternette
enterrae
entesuure
entesuuvaunt
enteurtre
entie
entier
entite
entou
entouo
entouor
entouors
entouothe
entour
entoure
entours
entr
entrae
entraer
entrai
entre
entreprendre
entreprenre
entrer
entretenir
entreti
entreveir
entri
entrit
entyi
entyire
env
envahi
envahiments
envahit
envahyi
enve
enviae
enviaer
envie
envier
envithonnement
envyi
envyiae
envyie
envyit
eo
epte
eq
er
era
erat
erbes
ercensement
erdre
ergent
ergu
erik
erin
erlandais
erlaundeis
erligion
ermite
erne
ernesey
ernest
erpente
erre
erres
erskine
erthu
ertrie
es
escaundinaves
escaundinavie
escliavage
escliaves
esclure
escoffie
escola
escrit
escudo
eslon
espa
espace
espache
espagnol
espagnole
espan
espangne
espangno
espangnole
esparte
espe
espirituelle
esplanade
esplliqu
esports
esprae
esprit
esprits
essai
essais
essir
essourd
essours
essourse
est
estaing
estateue
estateues
estatistique
estatue
estaundard
estchulpteure
estchulteus
este
esteile
estembre
esterlin
estettin
esthe
esther
esti
estoc
estonma
estonnie
estonnien
estra
estraire
estrait
estrate
estre
estridoun
estrophes
estructeure
estuaire
estuaires
estyle
et
etats
etc
ete
etienne
etna
ets
etsi
ettaunt
ette
ettent
ettes
ettyi
eu
eud
eudi
euge
eugenius
eul
eum
eume
eun
eune
eunes
euni
eunie
eunies
eunification
eunifie
eunifier
eunion
eunique
eunis
eunitae
eunite
eunivers
euniverselle
euniversitae
euniversite
euns
eure
euro
europe
eus
eusse
eussent
eut
eux
euzi
euzyime
evening
everest
everett
evreux
evroult
evski
ewart
ex
exacte
examen
exce
excepte
exclure
excommeunica
exe
exemp
exempe
exempl
exemple
exemples
exemplle
exemplles
exhibe
exhibition
exhibits
exil
exile
existait
existe
existeit
existenche
existent
exode
exotiques
expe
explio
explo
exploitation
explyica
explyique
explyitchi
exporte
exports
exposition
expression
expressions
expri
externes
ey
eyou
eyt
f
fa
fabl
fabrique
fabriques
fac
face
facebook
fachade
fache
faches
facto
factum
fae
faeu
fai
faiblli
faichon
faichonnabl
faichoun
failli
faillie
faillit
failliteu
faim
fain
fainiants
fair
faire
fais
faisaient
faisait
faisant
faisaunche
faisaunt
faiseient
faiseit
faisoms
faisoums
fait
faite
faites
faithe
faithes
faits
falaise
falaises
falait
faldou
falkland
fallait
falle
falleir
falloir
fallue
fame
fames
fami
famile
familes
famille
familyi
fana
fance
fanmeurs
fanmeus
fanmeuse
fanmeuses
fanmeux
fanmil
fanminne
fanne
fanny
fansais
fant
fantaisies
fantastique
fants
fao
farm
farset
fatchultae
faucon
faunche
faunt
faunts
fausse
faut
faute
faux
faveu
favorable
fawkes
fayte
fe
fectif
fectifs
fectoue
fecture
federal
fei
fein
feira
feire
feis
feit
felis
felix
feloun
femelle
femme
femmes
fend
fendre
fendu
fene
fenin
fenme
fenmes
fense
fenses
fer
ferdinand
ferme
fermentation
fermes
fernand
ferrand
ferrer
ferrier
ferte
fesaient
fesait
feseient
fest
festiva
festival
feu
feuguerolles
feuilles
feurs
feus
feusse
feussent
feut
feutent
feuvre
fey
feydeau
ff
ffe
ffer
ffet
ffets
ffl
fflie
fflier
ffre
fi
fiabl
fiablle
fiaute
fiche
fichi
fichie
fichier
fide
fidgi
fie
fieillet
fieillu
fielle
fielles
fier
fierte
fiesse
fieu
fieuf
fieufs
fieus
fieutae
fieux
figaro
figu
figures
fike
fil
filbert
file
files
filet
filip
filles
film
filme
films
fils
filz
fin
final
finalement
finances
fini
finie
finin
finint
finiste
finit
finition
finitioun
finlaunde
finnances
finnancie
finni
finnie
finnit
finnition
finnitions
fins
fiqu
fiquie
fir
firent
firmament
fis
fisset
fit
fitchie
fitent
fitz
fitzpatrick
fixe
flabellifer
flag
flaive
flambant
flandre
flaubert
flavius
fle
flers
fleur
fleurenche
fleurs
fleury
fleuve
fliandres
fliantchi
fliantchis
flieu
flieur
flieurs
flieuthies
fliorence
fliotchet
fliotte
fliottes
fllauns
flle
flleu
flleumaunville
flleur
flleuries
flleurir
flleurs
flleury
flleuve
flleuves
fllot
fllotte
florals
flots
flottant
flottants
flotte
flourentin
flower
fo
foe
fois
folclore
folie
folk
folle
folles
fom
fome
fomille
fonce
fonctiounement
fond
fonda
fondateu
fondateurs
fondation
fonde
fonder
fondi
fondit
fondre
fonds
fondu
fonseca
font
fontaine
fontaines
fonte
fontenelle
fontsize
football
for
forae
force
forche
forches
forchi
ford
fore
forest
forge
forges
forgeux
forma
formage
formages
formation
forme
formelle
formellement
forment
formes
formigny
fort
forte
fortere
forteresse
fortes
forteune
fortifica
fortifications
fortifie
forts
forum
fossae
fosse
fou
foua
fouae
fouai
fouare
foue
fouet
foui
fouithie
fouloun
foume
founctioun
found
foundae
foundateu
foundateux
foundation
foundatioun
founde
fount
fountaineblla
fountenelle
founts
fouo
fouor
fouore
fouorment
fouquet
fourmage
fourme
fourmes
fox
foy
fr
fra
frac
fragi
frai
fraid
fraide
fraindre
frais
franc
france
franceis
franceise
francesca
francesco
franceyse
francfort
francheville
franchie
francis
francisco
francmachonn
franco
francon
francorum
francs
frank
franz
fraternitae
fraunc
fraunce
fraunceis
fraunceise
fraunceises
fraunche
fraunchique
frauncs
frauns
fre
frederick
fredi
free
frei
freid
freide
freides
french
fresque
fret
freunme
freunmer
freunmi
freunmit
fri
fricachi
fricot
fricots
frideswide
frilla
frit
frites
frits
from
fronmage
front
frontchie
frontie
fronton
froumae
froumage
froume
frount
frountyire
frouque
froutchi
froutchie
fructo
fruits
fryits
fsion
fu
fui
fuir
fulbert
fume
functe
funtchi
furent
fus
fusion
fusse
fussent
fut
futent
futur
futurisme
fuuillu
fuules
g
ga
gabe
gabrie
gabriel
gace
gae
gaff
gaffe
gaffer
gaffi
gaffit
gaga
gagi
gai
gaillard
gaius
gal
galatchiens
galaxie
gale
galement
galerius
galette
galettes
galichien
galite
gall
gallais
galleis
gallery
galles
gallia
gallichan
gallico
gallo
gallon
gallons
gallouais
gallouaise
galop
galot
gambes
gamme
gammes
gangne
gangni
gangnie
gangnit
gannache
gannes
garc
gard
gardae
gardaer
gardaient
gardait
gardant
garde
gardent
garder
gardes
gardgien
gardgiens
gardi
gardin
gardins
gardit
gardyi
gare
garenne
gargou
garou
gars
gaston
gate
gatif
gatioun
gatiouns
gatteville
gauche
gaulais
gaule
gauleis
gauleises
gaules
gaulle
gaune
gaz
gazette
ge
geaient
geais
geaise
geait
geanche
geant
geinre
geins
geis
gele
gemaach
gement
genche
genci
gencie
gencies
gencir
gencis
gendaire
gende
gendes
gene
generalitat
gengive
gengivre
genours
genre
genres
gens
gent
gente
gentilitae
genty
geo
geoff
geon
george
georges
georgia
georgie
ger
gerais
geranium
germain
german
germanicus
germanique
germaniques
germannique
germanniques
gersui
gervais
ges
geste
geyt
gg
gi
gian
giant
giants
gibyi
gica
gie
gien
giens
gier
gies
gif
gilets
gill
gilles
gime
gin
gina
ginn
giographie
giographique
giologiques
gion
gionale
gionales
gionnales
gions
giorgio
gioun
giounale
giounales
giouns
giovanni
gique
girard
gire
gires
girie
giroufl
girouflle
girounde
gisacum
giscard
gisent
gisir
gislatif
gislative
gisors
gistre
gistreux
giuseppe
give
gje
gl
glache
gle
gles
gliaiche
gliaichon
glinne
glise
glises
gliuco
glla
gllache
gllao
glle
gllichoun
gllichouns
gllise
gllises
gllu
globale
globe
gloche
gloue
glyi
glyise
glyises
gnaeux
gnait
gne
gnent
gnes
gni
gnie
gnier
gnit
gno
gnose
gny
go
gocier
god
godal
gode
godefrei
godefreid
godefroy
godfray
godisson
goi
goia
gon
gond
gonde
gondes
gone
goodhart
google
gordianus
gordon
gorge
gorian
gorie
gorien
gorst
gotha
gothique
gothiques
gottfried
gou
gouaithe
gouffern
gough
goule
goult
gounde
gouo
gouoillot
gouole
gouotte
gouovernae
gouovernement
gouoverneu
gouoverneus
gournay
gouts
goutte
gouve
gouverne
gouvernement
gouverner
gouville
gov
gra
grace
grache
gradi
gradile
gradille
grae
graffiti
grafica
grai
graie
graiethie
grain
graine
graines
grais
graisse
gramaticaux
grammaire
gramment
gran
grand
grande
grandes
grandeu
grandeur
grandeurs
grandi
grands
grani
granit
granme
granmes
grannit
grans
grant
grantez
granville
graos
graosse
grap
graphie
grappe
gras
grass
grasse
grassett
gratte
gratter
graumment
graund
graunde
graundes
graundeu
graunds
graunment
graunville
gravage
gravelle
gravite
gray
gre
great
grec
grecque
greda
greek
green
greenwich
greffage
gregorius
greis
gresham
gret
greune
gri
gribiche
gridcolor
grieu
grille
grimache
grinchaunt
grinchent
gris
grise
grisy
griyant
griyi
griyit
gro
gropo
gros
grosnez
grosse
grosses
grouai
grouma
grouopes
groupe
groupes
grouss
groussae
grouville
gruchy
grugeurs
grugeux
grut
gu
gua
guangxi
gue
guernaoude
guerne
guernesey
guernesiaise
guernesiaises
guernsey
guerre
gueume
gui
guide
guido
guillaume
guillermo
gulie
guliers
gustave
guy
guyenne
gwynedd
gyo
gypte
gyptian
gyptians
gyptiens
h
ha
hab
habit
habitants
habitaunts
habite
habits
habitude
habsbourgs
habytants
habytaunts
hade
hadrianus
hadrien
hague
hagues
haguignettes
hai
haiku
haikus
hait
haiti
hal
halae
halaisier
hale
halent
haler
half
halit
halkett
hall
halle
halles
halley
halloween
hambie
hamel
hammel
hammond
hamptonne
han
hannovre
hanoi
hante
hanter
hantonne
hao
happ
happaer
happe
happer
happette
happi
happit
harcourt
hardelle
hardes
hardi
hardie
hardy
harel
harelle
harliston
haro
harrison
hastings
hattoucha
hau
hauchit
haule
haut
haute
hautes
hauteu
hauteur
hauteville
hauts
have
havre
hawaii
haye
haß
he
header
heart
hebdomadaire
hectares
hector
hedera
height
heinrich
heir
heirs
helier
hellium
hello
help
helsi
henri
henry
her
heracleum
herault
herbage
herbe
herbes
herculanum
hermione
hermitage
herzegovina
hesse
heu
heumaine
heumains
heumanite
heure
heures
heurte
heurtent
heuse
heuthe
heuthes
hi
hie
hielle
hierru
higgins
highlands
hilaire
hilgrove
hill
hilton
histo
histoe
histoire
historia
historial
historie
historien
historiens
historique
historiques
history
histouaire
histouaithe
histouaithes
histoue
hitres
hivae
hivaer
hive
hiver
hms
ho
hoc
hockey
hoi
hollandais
hollande
hollywood
home
homme
hommes
homo
hong
hongrie
hongrien
hongrienne
hongriens
honneu
honneur
honorae
honorifique
honorius
hopton
horace
horaire
horizonte
horloge
hors
horte
hortes
hos
hotel
hou
hougue
houlae
houmage
houme
houmes
houmme
hoummes
houneu
houneur
hounflleu
hounouraison
hounsfield
houole
houors
house
housse
hove
htm
html
http
https
hu
huang
hue
hueu
hugh
hugo
hugues
hui
huiptante
huit
huitchie
huitie
humain
humaine
humaines
humans
humbrelande
huns
huque
hurle
hus
huskisson
hussein
hutin
hutyime
huule
hwi
hydravions
hydroge
hydrologie
hymne
hypothe
i
ia
iade
iage
ian
iao
iaoue
iau
iaux
ibe
ibex
ichi
ichin
ico
icounographie
id
idae
ide
identifie
identique
identitaire
identite
ie
ieau
ieaux
ielle
ien
ienne
ier
ierche
ies
ieu
ieun
ieune
ieus
ieux
if
ii
iie
iii
iiie
il
ila
ile
iles
ilex
ilia
iliade
ille
illeu
illu
illustra
illustration
illyrie
ilo
iloc
ilogramme
ilome
ils
im
image
images
imagesize
imaginatioun
imaginatoue
immacule
imparfait
impe
imperial
implorit
impo
impossiblle
impre
imprimerie
in
ina
inauguracion
incendie
incontestable
increment
indagacions
inde
index
indi
indicatif
indication
indique
indone
indonesia
indre
industrie
ine
infinitif
influence
influenche
info
infoboe
infoboue
infobox
informatique
ingnoun
innaudguthe
innocentius
innochent
ins
insecte
insee
inseurtae
inspiration
inspiratioun
inspire
institeut
institut
int
inte
intel
intellectue
intendaunt
intermarche
international
internet
interpre
inventae
inventiouns
inventit
inze
inzyime
ioan
ioannes
iou
ioun
ipe
iprage
iqu
ique
iquefeis
iques
iqueseit
iquique
ir
irait
iran
ire
ireis
ireland
irla
irlandais
irlandaise
irlande
irlaunde
irre
is
isaac
isabel
isabelle
isambard
isbn
iscario
ise
isis
islam
islamique
island
islandais
islande
islands
isle
islet
isoud
israe
isse
istique
istoire
it
itae
italian
italie
italien
italienne
italiens
italique
italo
italy
itanne
ite
itecteure
itelle
item
ithangnie
itinerarium
itinerary
ito
itou
itout
its
ittent
iu
iulius
iun
iuns
iv
ive
ivie
ivy
ivyire
ix
ixe
iyou
izrae
j
ja
jacinthe
jackie
jackson
jacob
jacobe
jacopo
jacot
jacquerie
jacques
jadis
jaguiellon
jaguiellons
jamais
james
jammais
jan
jane
janeiro
janmais
janne
jannes
jans
janvier
janvri
janvyi
japon
japonnais
japonnaise
japoun
jaqu
jaque
jardin
jarl
jarls
jatchyi
jaume
jaun
jaune
jaunes
jaunvyi
javions
jazz
je
jean
jeannais
jeanne
jeannette
jeaun
jeddah
jehan
jehanne
jeremy
jero
jerri
jerriais
jerrieis
jerry
jersey
jersiais
jersiaise
jersoi
jet
jetae
jeu
jeudi
jeudis
jeumie
jeumyiges
jeune
jeunes
jeunm
jeunmieaux
jeur
ji
jim
jinping
jn
jnev
jo
joan
jobouo
jobs
jocaste
jock
jocs
joe
johannes
john
johnson
johr
joindre
joinville
joli
joliment
jommais
jonas
jonne
jor
jore
jores
joret
jorite
jose
joseph
josette
josue
jou
jouai
jouaie
jouaingnant
jouaingnit
jouait
joue
jouen
jouenre
jouent
jouer
joueurs
joueux
jouo
jouor
jouorna
jouornae
jouors
jouos
jouqu
jour
journae
journal
journaliste
journe
jours
jous
jpeg
jpg
jrf
ju
juan
jube
jubile
juda
judae
judai
judas
jude
judet
judichiaire
judith
judy
juge
jugement
jugendstil
juges
jugi
jugie
jui
juifs
juilet
juillet
juin
juis
jules
julian
julien
juliette
juliobona
julius
jumie
jung
jupite
jupiter
juqu
juquent
juqui
jure
jurer
juridiction
juridique
jus
jusqu
jusque
juste
justes
justice
justify
justin
jutchi
jutchis
jutouoses
k
ka
kaali
kaamelott
kandidate
kandidaten
kant
karl
kategori
kategorie
kategorija
katherine
katia
katowice
ke
keis
kellett
kelly
kemal
ken
kennedy
kent
kernowek
kes
keulte
kevin
kg
khrouchtchov
ki
kie
kien
kilimandgiaro
kilome
kim
king
kingdom
kir
km
knott
ko
konarski
kong
kosovo
krafft
kre
ku
kupecsky
kyi
kyo
kyoto
l
la
labey
labou
labouorous
laburnum
lac
lachis
lacres
lacs
ladais
lade
lady
lae
laelius
laer
laeux
lage
lages
lagon
lague
lagues
lai
laid
laient
laine
laios
laird
lais
laisse
laissez
laissi
laissit
lait
laiterie
laize
lambert
lambeth
lanch
lanche
lanchi
lanchie
lanchis
lanchit
land
lande
landes
landi
landry
langage
lange
langlais
langliais
langlois
langtry
language
langue
languedoc
langues
lanie
lanne
lant
lanterne
lants
lao
laon
laong
laos
laouig
lapi
lapin
laquielle
lard
large
largue
larus
las
lascaux
lasso
lat
late
lati
latin
latine
latinne
lations
latioun
latitude
laumpes
laun
launay
launde
laundes
laungage
laungages
launge
laungu
laungue
laungues
laurel
laurent
laurus
laus
lav
lave
laver
lavous
lay
lc
le
leblanc
lechanteur
lecteurs
lection
lections
lectioun
lectiouns
lectricite
lectrique
lectriques
lectronnique
lectronniques
lectrouns
lectuthes
lee
left
lehoux
lei
leient
leine
leir
leire
leisi
leisir
leit
lemai
lemans
lement
lemprie
lenfestey
lengi
lenreit
lent
leo
lepelley
lepert
lequie
lequiel
ler
lere
leri
lerie
lerinage
lerinnage
lerinnages
lerme
lerve
les
lessay
lesse
let
lets
lette
lettes
letton
lettonnie
lettre
lettres
leu
leumie
leumyire
leunaire
leunaires
leunaisoun
leunaisouns
leunaithe
leundi
leune
leunes
leunette
leunettes
leunmie
leur
leure
leurs
leus
leuse
leuses
leux
levage
levallois
levant
levaunt
leve
level
lewis
lexicon
lez
li
lia
liain
lian
lians
liard
lias
liban
libe
liber
liberation
liberte
libes
libraires
libre
libres
libye
lica
licinius
lidl
lie
liechtenstein
lief
liefs
liement
lien
liens
lier
lies
liesse
liet
lieu
lieure
lieut
lieux
life
lightgrey
ligieuse
ligieuses
ligieux
ligion
ligions
ligne
lignie
ligue
lilleboune
lillie
lily
lima
limbes
limerick
limon
limons
limouosin
lin
linage
lincheu
lincoln
line
linge
lingu
lingue
link
links
linne
lion
lionnes
lions
lippe
lippiens
lippo
liqu
lique
liques
lir
lire
lis
lisama
lisbonne
lise
lisie
lisieus
lisieux
lisque
lisques
list
liste
listes
lit
litcheu
litchide
lite
literatura
lites
lithante
lithuanie
lithuanien
litourgie
litre
litt
litte
liublianne
lium
liv
livarot
live
livel
liverpool
lives
livonnie
livraer
livrande
livre
livrer
livres
livret
ll
lle
llegenda
lles
lli
llibre
llibres
llit
llull
lo
loc
local
locale
locales
locaux
loceis
locomotive
loge
logique
logis
logo
lohier
loin
loire
lon
londgeu
london
londres
long
longis
longitude
longs
longtemps
longue
longues
longueur
longueville
lonne
lons
lontai
loppe
loppement
loppi
loppit
lops
lord
lords
lorenzetti
lorenzo
lorient
lorrain
lorraine
lorranne
lorris
lors
los
lot
lotagi
lotagie
lothian
lots
lou
louae
louai
louais
loue
louen
louis
louise
louisiane
louisianne
loumbardie
loun
loundes
loundre
loung
loungie
loungs
loungtemps
loungu
loungue
lounguement
loungues
loungueu
loungueus
louns
louoge
louong
louongue
louordes
louords
louori
louorie
louothains
louothi
louothie
loup
loups
lourdes
lousiane
louviers
louvre
love
lt
ltar
lu
lubli
luc
luca
lucanus
luce
lucheux
lucie
lucien
lucius
lucote
ludes
lue
lueu
lugdunensis
luge
lui
luire
lumley
lumyire
luna
lundi
lupus
luqu
luque
lures
lus
lute
lutetia
luthe
luther
luu
luue
luues
luure
luus
luutenaunt
lux
luxembourg
luxure
ly
lyche
lyi
lyiounaise
lyis
lyit
lyits
lyon
lyoun
lyra
lz
m
ma
mac
mace
mach
machacre
mache
machinn
machinne
machinnes
machons
maclean
maclou
macon
macron
maculatum
madagascar
madame
madawaska
made
madele
madeleine
mado
madonna
madrid
madyit
mae
maesta
maestre
maestro
maeure
maga
magasin
mage
magenta
magie
magister
magna
magnifique
mah
mahoume
mahoumme
mahy
mai
maie
maille
maillotins
main
maine
maines
mains
maint
maintchi
maior
maire
mairerie
maires
mairie
mais
maisaon
maishi
maisi
maison
maisons
maisoun
maisouns
maistre
maisyi
maitre
majeste
majeu
major
majoritaire
majourien
mal
malachie
malade
malades
maladie
male
malet
malherbe
malheu
mali
malin
mallorca
malo
maltais
maltaise
malte
malto
maltot
malus
mammife
man
manants
manche
manchester
mand
mandat
mande
mander
mandes
mandit
mands
manei
maneir
mang
mange
mangeait
mangent
manger
mangeu
mangeurs
mangeux
mangi
mangie
mangier
mangiz
mangne
mangni
mangnifique
manhattan
manie
manifestation
manifeste
maniqu
manne
mannie
mannifactuthe
mannifactuthes
mannuscrit
mannyire
mannyirement
mannyires
manor
manque
mans
mant
manu
manuel
manuscript
manuscrits
manx
manyi
manyire
manyires
mao
map
maplandia
maqu
mar
marae
marais
marbe
marc
marcands
marcel
march
marchae
marchand
marchandises
marchands
marche
marchent
marchi
marchie
marchinne
marcou
marcus
mardi
mare
mares
marett
margaret
margre
margu
marguerite
mari
maria
mariage
marie
marigny
marin
marine
maringote
maringotes
maringouin
marins
marinus
marite
maritime
maritimes
maritimum
marjorie
mark
marke
markham
marmou
marne
maro
maroc
marquier
mars
marse
martainville
martchieaux
marte
martelli
marti
martin
martine
martini
martinus
marto
martyr
martyrisae
martyrise
martythe
marx
mary
masse
massif
master
mat
match
matchi
matchie
mate
matelots
mathais
mathe
mathes
mathet
mathi
mathiage
mathie
mathieu
mathilde
mathinne
mathiti
mathyie
mathyit
mati
matie
matin
matinae
matique
matteo
matthew
matthieu
matthuu
matyire
mau
maufant
maugre
maulevryi
maunche
maundae
maundaer
maunde
maunderie
maungeu
maungier
maunqu
maunque
mauntes
maupassant
maurice
mauristes
maurizio
mauvais
mauvaise
mauve
mauves
maux
max
maximianus
may
mayenne
mayeur
mayeure
mayfield
mayounaise
mazarin
mazhev
mbe
mbole
mboles
mc
me
mecque
med
medina
mediolanum
medium
meerkat
megachile
megiella
mei
meilleur
meilleure
meins
meis
meitie
melcqu
meliand
melissa
mellon
membes
membre
membres
memmi
men
menche
menchement
menchent
menchi
menchie
menchit
mendoza
mene
mener
mens
ment
mentaire
mentaithe
mente
menterie
menthe
mention
mentionne
mentit
ments
mer
merche
mercre
merlerault
merqu
merque
merquent
mers
mertchure
mes
mesembryanthemum
meseure
meseures
mesme
mesnie
mess
message
messe
messerschmitt
messie
messinne
messire
messius
mestre
mesurae
mesuraer
mesure
mesures
met
mett
mette
mettent
mettre
meu
meubl
meules
meun
meuna
meunalitae
meunaute
meune
meunes
meunica
meunicipale
meunicipalite
meunnion
meuns
meurdre
meure
meurent
meurt
meurtriyi
meusique
meute
meutes
meuthaient
meuthait
meuthe
meuthent
meuther
meutiers
meutyirs
mexique
mey
meyen
mg
mi
mia
miait
michael
miche
michel
micheli
michi
michie
microsoft
midi
mie
miel
mielle
mielles
mienne
mier
mies
miette
miettes
mieux
mil
milaun
mile
milice
miliche
milieu
militaire
militaires
militaithe
militaithement
militaithes
militum
milk
millais
mille
milles
milleu
millie
milliers
millions
milliouns
millitaithes
millouns
milos
min
minas
minchi
minchie
mine
mineu
mineutes
minh
miniateure
minisse
ministe
ministres
minn
minne
minnes
minniste
minnistre
minnistres
minnoritaithes
minnorite
minnute
minnutes
mino
minor
minorite
mins
minse
minses
mint
mintent
minutes
mio
miot
miotinet
mique
miques
mirac
miracle
miraclle
miraillet
mirbeau
mireus
miromesnil
mis
mise
misericordia
misphe
miss
misse
mission
missionnaithes
missis
mississippi
missouri
mit
mitan
mitaun
mite
mithacl
mitheux
mitique
mitterrand
miyeu
mli
mmenche
mmenchement
mmenchit
mmeune
mmode
mne
mo
mobilyi
mocratie
mocratique
mocratiques
mode
modern
moderne
modernes
modes
moe
moha
moi
moien
moienne
moigne
moins
mois
moldavie
moldova
mole
moli
molie
moll
molle
moment
momoni
mon
monaco
monarchie
monarchies
monarqu
monarque
monarques
monaste
monde
mondial
mondiale
mondri
monet
moneument
moneuments
mongolie
monica
monie
monils
monnaie
monnarchie
monnie
monosaccharides
mons
monsieur
monstre
monstres
mont
montagne
montangne
montangnes
monte
monter
montfort
montit
montmerrei
montre
monts
montserrat
montsoreau
monu
monument
monuments
monzo
moon
morales
moravie
morbihan
morce
morcia
morciaux
mord
mordre
morel
morning
morris
mort
mortagne
mortain
morte
morton
mortre
morts
moscou
moscovie
moscovites
mosque
mostchie
mot
moteu
moteur
moteus
moti
moto
motoroute
motoroutes
mots
motte
mou
mouai
mouaie
mouaies
mouaine
mouaines
mouais
mouaithe
mouche
moucheus
moudre
moue
mouen
mouens
mouissaon
moule
mouli
moulin
mouliniaux
moulins
moult
moulu
moument
mouments
mounaie
mounaies
mounarchie
mounde
moundiale
mouneie
mounie
mouns
mount
mountae
mountaer
mounte
mountivilyis
mountre
mounts
mouo
mouogea
mouogi
mouoilli
mouoillie
mouoja
mouoju
mouolin
mouontrait
mouontre
mouontrent
mouontrer
mouontrit
mouori
mouorie
mouories
mouorit
mouothant
mouothi
mouothit
mouovement
mouoyen
mouoyenne
mouoyens
mourant
mouri
mourir
mourirent
mourit
mourrit
mourte
mousse
mousses
moussieu
moutarde
moutiers
mouton
moutons
moutoun
mouvement
mouver
moyen
mozart
mp
mpathie
mpe
mper
mpeurs
mphe
mpiques
mpl
mplie
mpo
mportance
mportant
mportante
mportantes
mportants
mpots
mpression
mpressionnistes
mpri
ms
mt
mu
much
muche
muchi
muchie
muchies
muchis
muchit
mue
muer
muette
mui
muit
mule
mult
multiplliae
mun
munich
municipal
municipalidad
muns
mur
mura
muratti
murs
mus
musae
muscade
muscat
muscl
muse
musique
mussieu
mustafa
mustchinne
musulman
musulmans
mutha
muus
mwe
my
myi
myir
myire
myirement
myires
myirs
myis
myriorama
myste
mythe
mythes
mythique
mythologie
mythologique
n
na
nabl
nabugodounosor
nacional
nacqui
nade
nadella
nae
naer
naez
nag
nage
nager
nagi
nagit
nagy
nai
naient
naire
naissa
nait
naitae
naithe
naithes
nam
names
namur
nang
nanning
nant
nante
nanterre
nantes
nants
naom
naons
napole
napoules
napoulitain
naqu
naqui
naquit
narcissus
nard
narios
narrateu
narrateur
naruhito
nas
nassa
natalis
nateu
nateure
nateurs
natif
nation
national
nationale
natioun
natiouna
natiounal
natiounale
natiouns
nativite
nature
naturel
naturelle
naturelles
natuthe
natuthelle
natuthels
nau
naufrage
navarre
navet
navidgants
navidgi
naviga
navigants
navithe
navithes
nazaire
nazareth
nazis
nbouaise
nc
ncavo
nce
ncendie
nces
nche
nchent
nches
nchi
nchie
ncia
ncipalement
ncipau
ncipe
ncipes
ncliuthent
nconnu
ncorpouothe
ncs
nd
nde
ndelles
ndgais
ndgi
ndgie
ndgien
ndgiens
ndgies
ndgistique
ndi
ndo
ndone
ndrent
nds
ndulgences
ndustriali
ndustrie
ndustrielle
ndustrielles
ndustries
ne
neagoe
nectar
nef
nei
neiges
neir
neire
neirs
nel
nelson
nement
nements
nen
nenni
nent
nepteune
ner
nergie
nerina
nero
nertouin
nes
net
nets
network
neu
neucha
neuche
neuches
neuf
neufca
neufcha
neun
neunme
neursie
neus
neustrie
neutralite
neutres
neuve
neuvie
neuvyime
neux
neveu
new
newcastle
newgate
newport
news
nez
nfais
nfant
nfluence
nfluences
nforma
ng
nga
nge
ngile
nginn
nginnieux
ngna
ngnage
ngnait
ngnant
ngnants
ngnaux
ngne
ngnent
ngnes
ngni
ngnifie
ngnit
ngnon
ngnons
ngre
ngschtle
ngt
ngtaine
ngtaines
ngtchie
ngu
ngue
ngues
nguyen
nh
nha
nhon
ni
nia
nialogie
nic
niccolo
nice
niche
niches
nichi
nichis
nicholaus
nicholson
nico
nicola
nicolas
nicolle
nicosie
nie
nien
niens
nier
nies
niet
nigel
nigra
nihil
nikita
nil
nin
ninne
nino
nio
nioli
nique
niques
nis
nise
nistratioun
nit
nite
nitenche
nitout
nive
nki
nl
nlande
nm
nma
nmage
nmaginnaithe
nmaginnaithes
nmanche
nmat
nmaux
nme
nment
nmentait
nmente
nments
nmer
nmes
nmeurs
nmi
nmiens
nmigre
nmilitudes
nmitif
nmitifs
nmpri
nn
nnae
nnagogue
nnais
nnastie
nne
nner
nnes
nni
nnie
nniet
nnit
nnonde
nnoptique
no
nob
nobel
nobilis
nobis
noble
nobles
noblie
noblle
noblles
nodgi
noe
noeditsection
noel
noirmont
nom
nomb
nombre
nombres
nombreux
nome
nomm
nomme
nommer
nommit
noms
non
nonant
nonchi
nonchit
noqu
noquement
noquie
noquier
noquit
nor
nord
norde
nordgiens
norhamtoune
norma
normalement
norman
normand
normande
normandes
normandie
normands
normandy
normanniae
normanno
normannorum
normans
normaund
normaunde
normaundes
normaundie
normaunds
normendie
norouague
noroue
norreis
norrouais
north
northmaen
northmen
norve
norway
nos
noster
nostre
not
notabes
notaphe
note
notes
notoc
notre
nottes
nottingham
nou
nouage
nouages
nouais
nouaix
nouans
nouaux
noucentisme
noue
nouel
noui
noum
noumae
noumaer
noumait
noumbe
noumbre
noumbreux
noume
noument
noumer
nouminale
noumit
noummai
noums
noun
nouo
nouori
nouormand
nouormande
nouormandes
nouormandi
nouormandie
nouormands
nouormaund
nouos
nouot
nouove
nouovelle
nouovia
nouoyau
nourma
nourmaundie
nourmaunds
nous
nout
noute
noutre
nouve
nouvel
nouvelle
nouvelles
nouvembe
nouvia
nouviau
nouvieau
nouvieaux
nouville
novembe
novembre
novi
now
noz
nq
nquante
nque
nrm
ns
nscription
nscriptions
nscrits
nse
nsecte
nsectes
nses
nspithe
nspithi
nspithit
nsta
nstalle
nstallit
nstrument
nstruments
nt
nta
ntai
ntchi
ntchie
ntchienne
ntchiens
ntchonne
ntchu
nte
ntent
ntention
ntes
ntgen
nthe
ntrent
ntroduction
ntrodui
ntroduit
ntroduite
ntroduites
nts
nu
nuae
nucle
nue
nues
nueva
nuit
numbered
nume
nun
nuns
nus
nva
nvente
nventi
nvention
nventit
nvestissement
nvite
ny
nyi
nyire
nyires
nyis
nyit
nynorsk
nze
o
obama
obe
obert
objet
obllige
oblligi
oblyigi
obres
obse
observance
oc
occam
occasion
occhident
occhidentale
occhis
occhisit
occhitan
occident
occire
occitan
occupation
occupe
oce
och
ochais
oche
ocheis
ochie
ochies
ocller
oco
ocouop
ocoup
octave
octobe
octobre
octopus
octroue
od
odal
odale
odales
ode
odegar
oder
odes
odet
odeus
odon
odore
odrae
odroun
oe
oenanthe
oest
oeu
oeufs
oeuvre
oeux
oevre
of
offae
offaer
offense
office
offices
offichielle
offichiellement
offici
officie
officiel
officielement
officielle
officiellement
officielles
officiels
officinalis
officyi
offrait
offre
offri
offrit
ofgeschniddene
ofollet
ofrage
ofu
oge
ogeroun
ogg
ograe
ografie
ographie
ographique
ogu
oh
oi
ois
okapi
ol
old
ole
oleis
oleises
oleracea
oles
olithique
olive
oliver
olivier
ologie
ologien
ologiens
ologique
ologiques
oloue
oly
oma
omales
ombres
ome
omet
omia
omount
on
oncl
oncle
one
online
onnai
onnay
onne
ons
ont
ontario
onyires
onze
onzie
op
opards
ope
ophin
opille
opin
opporteunite
oppose
opposit
oppositioun
optionnel
oqu
oque
or
ora
oracle
orange
oraunge
orbite
orchestres
ord
orde
orderic
ordes
ordonne
ordre
ore
orelsan
orent
orfi
org
organisatioun
organne
organnes
organni
organniques
organnisitent
orge
orgny
orgueil
ori
orie
orient
orientales
orientation
ories
orige
originaire
origine
originellement
origines
originna
originne
orique
orle
orlians
orme
ormoue
orne
oro
orozco
ors
ortchie
ortchies
orte
orthodoxe
orthodoxes
orthographe
orthographie
ortie
os
osaer
osait
osasco
oscar
oscur
ose
osservanza
ossin
ost
ot
otae
otan
otchupa
otchupae
otchupaer
otchupait
otchupatioun
otchupe
otchuper
otchupi
otchupit
ote
oteau
otefeis
otes
oteu
oteux
othoun
oticot
otoritae
otriche
ots
ottawa
ottoman
ottomans
ottryiae
ou
ouadgi
ouai
ouais
ouait
ouaithe
ouallachie
ouallon
ouallonnie
ouan
ouasse
ouasser
oube
ouben
oubien
oubliae
oublie
oubyin
ouche
oucor
oudeu
oudezijds
oue
ouen
ouest
ougue
oui
ouilliamme
ouiqu
ouistreham
ouitchi
ouitchipe
ouitis
oul
oulae
ouless
oulit
oulle
oumbe
oume
oumes
oun
oungrie
ount
ounze
ounzi
ounzyime
ouo
ouoche
ouognons
ouos
ouothelle
ouothelles
ouotoni
ouovrage
ouovragi
oupre
ourse
ous
out
outes
ouve
ouvert
ouvrage
ouvrages
ouvrageus
ouvre
ouvri
ouvrie
ouvrit
ov
ovaer
ovais
ovaise
oval
ovale
ove
over
overgne
oveu
oveus
oville
ox
oxford
oxyge
oye
oyou
ozoun
p
pa
pabeieren
pablo
pac
paccard
pace
pach
pacifique
padaunt
pae
paeire
paeires
pagannisme
page
pages
pagus
pai
paid
paids
pain
pair
pairotae
pairotaer
pais
paissaon
paissaons
paithe
paithes
paithyi
paix
pakistan
pal
palace
palaemon
palais
palanquie
palate
palatinne
palaunqu
pale
paleste
palinods
pallot
palm
palme
palmerston
pameins
pampl
pan
panagit
panama
pandoro
panforte
pangni
pann
panne
pannelae
pannyi
pannyis
panorama
pans
pantch
panthe
panto
panzano
paolo
paomme
paommes
paoul
papa
papau
papaute
papaya
pape
papes
papi
papie
papillote
papyi
paque
par
para
parabol
parabole
paraboles
paradis
paradoxe
parae
paraer
paraesse
parai
parame
parameter
paraplyie
paratioun
parc
parchonn
parchonnie
parchonnyi
pardon
pardonne
pare
parel
parents
parer
parfais
parfait
parfaite
parfeis
parfin
parfois
paris
parisiens
park
parlage
parlages
parle
parlement
parler
parlers
parmi
paro
paroissiale
parole
paroles
paroue
parouesse
parouesses
parpaillots
parqu
pars
parse
part
partage
partagi
partagie
partament
parte
partement
partements
parti
partichipe
participe
particularisme
particule
particulier
partie
parties
partir
partis
partit
partitchulie
partitchulyi
partouot
partout
parts
pas
passae
passaer
passage
passages
passagie
passait
passay
passe
passecrite
passer
passion
passioun
passit
pataflias
patate
patates
patay
pater
paterne
patha
pathade
pathades
pathai
pathe
pathelin
pathents
pather
pathole
patholes
patois
patre
patres
patri
patrice
patrie
patrimoue
patron
patrons
patrounage
patroune
patte
pattes
pau
paul
paulett
paulu
paulus
paume
pauns
paure
pause
pauvre
pauvres
pave
paver
pavillon
payer
payi
payis
payns
pays
paysage
paysages
paysan
paysans
paysanterie
paysaunte
paz
pe
pechie
pedro
pei
peids
peindre
peindrie
peine
peint
peinte
peintes
peinteure
peinteures
peintre
peints
peinture
peintuthe
peirae
peire
peires
peirine
peirson
peiryi
peis
peisse
peissoun
peissouns
peitiers
peiv
pel
pelargonium
pelletae
pellicciaio
peltatum
pembroke
pen
pend
pendance
pendances
pendant
pendante
pendaunche
pendaunt
pendaunte
pendence
pendente
pendre
pendu
pendus
pensae
pensaer
pensait
pense
penseuses
penseux
pensit
pentateuque
pentes
per
perch
perche
percheron
perd
perde
perdit
perdre
perdu
perfides
period
permet
permie
permier
permins
permint
permission
perque
perret
perry
pers
perse
perseigne
personne
personnes
persounage
persounages
persoune
persounes
perspective
perte
pertu
pes
pesaer
peso
pest
peste
pestilence
peter
petiot
petiots
petit
petite
petites
petits
petrarca
peu
peupe
peupl
peuplaison
peuple
peuplement
peuples
peuplle
peuplles
peuplyi
peurch
peussent
peut
peuvent
peux
peyne
ph
phant
phants
pharisiens
pharmacerie
phe
phelippe
philbert
phile
philibert
philip
philippe
philosophe
philosophes
philosophie
philosophique
philosophiques
pho
phonaer
phone
phones
phong
photographe
photographes
photographie
photosy
phoune
phrase
phthie
phu
phy
physique
pi
pia
piau
picard
picarde
picardie
picasso
picchu
piccio
pice
pices
piche
picl
piclie
picot
picote
picotin
picots
picture
pid
pids
pie
pieaux
pied
pieds
piere
pierre
pierres
pieta
pietro
pieuvre
pieux
pigeonnet
pigeons
pihangne
pihangnes
pilaer
pilage
pilate
pile
pilie
pilote
piment
pin
pinchies
pinoches
pinot
pipe
pipes
pipin
pipon
piqu
pique
pirou
pis
pisa
pisode
pisodes
pisqu
pisque
pisse
pita
pitchet
pitchets
pitchi
pitchie
pithates
pithots
pitman
pitre
pits
pius
pizza
pl
place
plache
plage
plai
plaindre
plaine
plaines
plaisir
plaisirs
plan
planches
plantagene
plante
plantes
plat
plateau
plateaux
platon
plaza
ple
please
plein
pleine
pleins
pleume
pleure
pleurer
pleuvoir
pliache
pliafond
pliai
pliaich
pliaiche
pliaiches
pliaichi
pliaichie
plian
plianche
pliancton
pliane
pliann
plianne
plianque
plians
pliant
pliante
plianter
pliantes
pliaque
pliastique
pliastiques
pliat
pliate
pliats
plie
pliein
plieunme
plieunmes
plique
pliuton
plla
pllaid
pllaids
pllaisi
pllan
pllane
pllat
pllate
pllatoun
pllats
pllaun
pllaunches
pllaunchi
pllauntae
pllauntagenae
pllaunte
pllauntes
plle
pllen
pllenne
pllens
plleumes
plleurs
plleut
pllie
pllo
plloinne
pllurie
pllutoun
plomberie
plotarea
plotdata
pluriel
plus
plusieurs
pluton
plyie
plym
png
po
poche
pocte
podi
podin
poe
poesia
poi
poindre
point
pois
poisses
poitou
poker
pokrova
pole
poli
police
politicien
politiciens
politique
politiquement
politiques
polongne
polonnais
polonnaise
polyne
polytechnique
pome
pomme
pommes
pommiau
pommie
pommiers
pommyi
pompe
pompes
pompidou
pon
pond
pondre
ponji
ponmonnaithe
ponmons
ponnent
ponse
ponsi
pont
ponte
ponthouin
pontificat
ponts
pool
poole
pope
popula
populace
populaire
populaires
populaithe
populaithes
populathite
population
populations
populatioun
populatiouns
populus
poque
poques
por
porche
pordone
pordonons
port
porta
portae
portaer
portaient
portait
portal
portbail
porte
portelet
portent
porter
portes
portit
portrait
portraits
ports
portsea
portsmouth
portu
portuga
portugais
portugal
portuguese
portundgais
portuuga
pos
posae
pose
poser
position
positioun
posse
possessioun
possible
post
posta
postal
postale
poste
pot
pote
potithon
pots
potsdam
pou
pouai
pouaitevi
pouaitou
pouces
pouchette
pouchkinne
poudre
poue
pouel
pouels
pouenre
pouent
pouente
pouents
poulaillyi
poulain
poule
poulet
poum
poume
poumes
poumme
poummes
poummier
poummiers
poumouse
poumpe
poumyi
poumyis
pounit
pounre
pounse
pounses
pount
pountorsoun
pounts
pouo
pouor
pouorduut
pouore
pouorqu
pouorqui
pouorsuut
pouortae
pouortant
pouortchi
pouorte
pouortrait
pouosse
pouot
pououms
pouovait
pouovei
pouovi
pouque
pouquelae
pouquelaye
pouquelayes
pouques
pour
pourc
pourduction
pourductions
pourduisent
pourduit
pourfitit
pournonche
pourpos
pourqu
pourquei
pourra
pourreit
pourront
poursieure
poursieut
poursu
pourtant
pourtrait
pourveir
pouse
pousse
poussin
poussit
pouvaient
pouvait
pouve
pouvei
pouveient
pouveir
pouveit
pouver
pouvie
pouvoir
pouvoms
pouvons
poux
power
poyeir
pp
prae
prague
prannaient
prannait
prannant
prannent
pranneux
prannez
praticabl
pratique
pratiquent
pratiques
pratitchi
pratitchie
pratitchis
pre
preceded
preche
preind
preinds
premie
premier
premiers
premyi
premyire
pren
prend
prende
prendre
prennent
prenrai
prenre
prentout
press
presse
presses
pression
pressioun
prestige
prestigieux
preu
preune
preunelle
preunes
preunme
preunmie
preunmyi
preunmyie
preuve
preuves
preville
pri
priam
prie
prier
prieure
prime
primie
primiti
primitif
prince
prinche
prinches
princhesse
princhipa
princhipale
princhipaute
principale
prinme
prins
prinse
prinses
prinseu
print
printemps
priourae
pris
prise
prison
prisonnie
prisonnyi
prisoun
prive
priver
privile
prix
pro
probabl
probablie
problie
proce
prochae
prochaine
proche
prochession
proclia
procllamae
procrastiner
prodi
produ
production
productions
productioun
produit
produithe
produits
professeu
professeur
profitent
programme
progranme
project
projets
promais
promesse
prominse
promotion
pron
pronm
pronnent
prononchie
prononcit
pronounchie
prophae
prophe
propos
proposaient
proposait
propose
proposer
proposit
proposition
proprie
proscrits
prose
prospe
prosper
protchuleux
prote
protection
protectioun
protestante
protestants
protestaunte
protesto
proue
proust
prouve
prouvenche
prouver
prouvi
prouvinche
prouvit
provenche
provi
province
provinche
provinches
prunus
prussie
pryi
pryire
pryke
psaumes
pseudonarcissus
psychologie
pt
pte
pti
ptit
ptite
ptites
ptits
pu
public
publie
publique
publius
publlican
publlique
publliques
publyi
publyica
publyique
publyiques
publyis
publyit
puche
puchelle
puches
puchi
puis
pultuthe
pum
punch
pur
puraer
pure
purgatoue
purpurea
pus
pusieurs
pusillane
puspart
pusto
pusuurs
put
puta
putae
pute
puto
puu
puus
pux
puy
px
pxright
pye
pyiche
pyiches
pyid
pyids
pyire
pyires
pyirre
pyirres
pyit
pyits
pyramide
pyramides
pyrrhula
q
qe
qu
qua
quai
quais
qualifize
qualite
quand
quant
quantite
quarantaine
quarante
quart
quartchi
quarte
quartelle
quartier
quartyis
quasi
quasiment
quat
quate
quates
quateur
quatorze
quatre
quatrie
quatryime
quattrocento
quaund
quaunt
quauntitae
que
queen
quei
queis
quelquefeis
quelques
quemaundae
quemenche
quemenchement
quemenchi
quemin
queminae
quena
quence
quences
quenche
quent
quente
quentin
quents
querbon
quercus
queri
ques
question
questions
questre
queu
queuque
queuquefeis
queuques
queus
queux
queva
queval
quevalerie
quevalier
quevaliers
quevalyi
quevalyis
quevauqies
qui
quie
quielle
quielques
quiens
quieuqu
quieuque
quieuquefeis
quieuques
quintus
quique
quiques
quit
quitt
quitter
quo
quoc
quoeu
quotidienne
quouaiqu
quy
r
ra
rabbi
rabelais
rabl
rablle
rabouolae
racachaient
racachi
racachie
racachies
racatae
raccourchi
race
races
rache
rachi
racontas
raconte
racontit
racountae
racounte
radar
rade
radio
radius
radouochi
rae
raer
rafael
raffolent
rage
ragot
rai
raide
raids
raient
raiethie
raimon
rain
raine
rainnete
rains
raint
raique
raire
raires
rais
raisi
raisin
raison
raisons
raisoun
raisse
raisses
rait
rajou
ral
rale
raleigh
ralement
ralisme
ralitae
rallia
rama
ramadan
ramarrent
ramas
ramasse
rame
ramendaer
ramende
ramender
ramon
ramsey
ran
rance
rang
rangement
rangs
ranh
ranisme
ranne
rannes
rant
ranto
rapide
rapport
rapportae
rapporte
rapportent
rapporti
rapports
rappre
raqu
rare
rarement
rares
ras
raseus
rassemble
rassemblement
rassemblie
rassemblle
rassemblyit
rat
rate
rateu
rateure
ratif
ration
ratioun
ratoupinaer
rats
ratte
rature
ratzinger
raunc
raung
raungi
raunt
raunte
rauntes
raux
ravau
ravenne
raver
raveue
ravigote
ravigoter
ravigotit
rayons
raz
rba
rbe
rbeg
rbes
rbie
rbon
rbourg
rby
rc
rcat
rcats
rce
rces
rchaient
rchait
rche
rchelles
rches
rchette
rcheux
rchi
rchit
rchon
rchu
rchut
rcial
rcita
rcl
rconnai
rconnu
rconnue
rcot
rcots
rcyclie
rd
rda
rdain
rdam
rde
rdent
rdge
rdgile
rdgitte
rdinand
rdit
rdre
rdu
rduthe
re
reagan
rec
recheit
recheu
reco
recounai
recouneue
recounu
recteu
recteurs
recueillir
red
reddition
redditoun
redirect
redouner
redre
reed
refait
refe
referenties
regdfgfdggfcghdrgdfdfdbgd
reges
regni
regnum
rei
reide
reidement
reides
reigne
reims
rein
reine
reines
reins
reis
rejouenre
relatif
relations
reli
religieuse
religieuses
religieux
religioun
religiouns
reliques
relle
reluire
rembert
rement
remparts
remplache
remple
rempliaichi
rempliaichie
rempliaichis
rempliaichit
remplle
remplli
rempllit
rempllyi
remplyi
remuaer
rena
renaissance
renaixenc
renbillai
rence
rences
rencey
renche
rencontre
rencontrent
rencontrit
rencounte
rend
rende
rendeit
rendit
rendre
rendu
rendues
rendum
rendus
rene
renforchi
rengne
rengni
renne
rennes
renoir
renouve
rent
rente
rentes
rentraer
rentre
rentrer
rentrit
rents
renv
repos
repourveir
repre
reprenre
reprint
reprodi
reptiles
republika
rer
res
respecter
respirer
responsabl
ressemble
ressourdre
ressuscite
rest
restae
restaer
restaient
restait
restant
restaura
restaurants
restaure
reste
restent
rester
restes
restit
resurre
ret
retailli
retenir
reteurtre
reti
retouo
retrache
retroue
rette
rettes
retz
reu
reudement
reue
reues
reuni
reur
reurs
reus
reussi
reussit
reux
reveir
revenir
reveue
revyint
rey
reyal
reyale
reyaume
reyaumes
reyne
reyoume
rez
rfusit
rg
rgarder
rgb
rge
rges
rgi
rgie
rgraie
rgue
rhe
rhinoce
rho
rhodes
rhou
ri
ria
rialb
riale
rialisme
ric
rica
ricaines
ricains
ricard
ricardides
richard
richardson
riche
richelieu
riches
richesse
ricolisse
ricorde
ricque
rida
ride
ridgeau
ridia
rie
riel
rien
riens
rier
ries
rieu
rieur
rieux
riga
right
rigi
rigie
rigies
rike
rilleux
rimes
rimeu
rimeus
rimeux
rindyins
rine
ring
ringing
rinmes
rinnage
rio
riode
rions
riqu
rique
riques
rir
rire
ris
rise
risme
risque
rissier
rit
ritae
ritage
ritchains
rite
rites
rithe
ritier
rityi
rivalite
rive
river
rivie
rivyire
rivyires
rix
riya
riyale
riz
rj
rjus
rk
rla
rle
rli
rligion
rligions
rlitchaithe
rlouo
rmain
rmains
rmanente
rmannique
rmanniques
rmarchi
rmarchie
rmarchis
rme
rment
rmenta
rmente
rmes
rmet
rmettait
rmi
rmie
rmission
rmitage
rmites
rmont
rmude
rmue
rmueu
rmuit
rmyi
rna
rnachie
rnais
rne
rnent
rner
rnes
rnet
rnette
rneurs
rneuse
rneux
rni
rnie
rnis
rnisme
rnit
rnonchit
ro
road
rob
robba
robe
robec
robert
robertianum
robot
robotique
robots
robur
roca
roche
rochelle
rochfort
rock
rocque
rode
rodi
roe
roger
roi
roiale
roioume
roioumes
roland
rollon
rolloun
rom
romain
romaine
romaines
romains
roman
romane
romanes
romanne
romannes
romans
romantique
romard
romaun
rome
rompit
romulus
ron
ronald
ronche
rond
ronde
rondel
ronds
ronfler
rons
ronsard
ront
roof
roosevelt
rope
roport
roqu
ros
rosa
rose
roses
rosette
rossel
rot
rotcheuses
rotchi
rotchie
rotomagos
rotomagus
rou
rouage
rouai
rouais
rouaison
rouaisons
roubaix
rouche
roud
roue
rouelle
rouen
rouennaise
rouenneis
rouenneise
rouet
rouettement
rouge
rouges
roui
rouioume
roult
roumain
roumains
roumane
roumanie
roumantique
roume
roumenel
roumpit
roumyi
roun
round
roundaunche
rounde
roundes
rouo
rouoe
rouoge
rouoges
rouoget
rouomani
rouosselle
rouossilloun
rouotae
rouote
rouotes
rouoya
rouoyale
rouoyales
rouoyanme
rouoyaume
rouoyaumes
rousse
route
routes
rouvaison
rouvaisons
roux
roy
royal
royale
royan
royne
rozo
rpent
rpie
rpre
rps
rquabl
rquage
rque
rquent
rques
rraient
rrain
rrais
rrait
rranne
rray
rre
rrer
rres
rrete
rrexes
rri
rriais
rriaise
rriaises
rrie
rrilleurs
rrisage
rrit
rritouaithe
rritouaithes
rront
rrosse
rrotype
rrue
rryi
rs
rsa
rsaithe
rsaithes
rse
rselle
rsembl
rset
rsets
rsez
rsion
rsions
rsite
rsonnalite
rsonne
rsonnelle
rsonnes
rt
rta
rtain
rtchais
rtchi
rtchie
rtchule
rtchure
rte
rter
rtes
rthu
rti
rtithit
rtou
rtraches
rtram
rtre
rts
rtuthe
ru
rubens
rudement
rue
rues
ruette
ruettes
rueu
rugby
ruinnes
rullecourt
run
runnymede
rupteure
ruption
ruptioun
rusale
rusalem
ruskin
russe
russes
russie
russieaux
ruthe
ruunes
rva
rvatouai
rve
rveint
rvelle
rvelles
rver
rvette
rvettes
rveurs
rvi
rvice
rvices
rvie
rvit
rvolte
ry
ryin
ryine
s
sa
sabat
sabbat
sables
sablion
sabllaon
sablle
sablloun
sabot
sac
saclay
sacrae
sacraer
sacratioun
sacre
sacrifices
sade
sades
sae
saeculum
saer
safran
sage
sages
sagesse
sagie
sagii
sahara
sai
saie
saient
saige
sain
saint
sainte
saintes
saintonge
saintra
saints
saire
sais
saisir
saisoun
saisouns
sait
salacrou
salade
salae
sale
salette
salle
salledesgardes
salles
salomon
salue
salut
salvador
sammedi
samsaon
samson
samuel
san
sancti
sanctifie
sanctions
sanctuaire
sang
sanm
sanmathe
sannouiche
sannouiches
sano
sans
sant
santa
santana
sante
santiago
santos
sants
sao
saont
saponangelo
saque
sar
sarah
sardaigne
sarko
sarnia
sarthe
sarthois
sas
sassetta
sastre
satan
satchies
satellite
satellites
satirique
sau
sauce
sauces
saudi
sauf
saule
saunctuaire
saung
sauns
saunt
saute
sauter
sauteur
sauvage
sauvages
sauvagins
sauve
sauver
sauveur
sauveux
savaer
savaez
savait
savant
savaunt
savei
saveir
saveis
saveit
savent
saver
savons
savouaie
savoue
saxe
saxons
saxouns
sc
scalemajor
scaleminor
scam
scandales
scande
sceau
scend
sche
schiences
schienche
schire
schisme
school
scht
schulich
sci
sciences
scienche
scienches
scientifique
scientiste
scientistes
sciurus
scotch
scotland
scots
scoua
scruti
se
sean
search
sebastia
sebastian
second
seconde
secs
section
sed
segound
segounde
segoundes
segrets
sei
seie
seient
seigl
seigneu
seigneur
seigneurerie
seigneureries
seigneurs
seigneux
sein
seine
seir
seis
seissaunte
seit
seits
seizie
sejm
sel
selecta
selle
selon
seloun
semanne
semannes
sembl
semble
semblent
sembliaient
sembliait
semblie
semblle
semi
sen
sence
sene
senlis
senqu
sens
sent
senta
sentae
sentaer
sentaient
sentait
sentatioun
sente
sentent
senter
senti
sentiment
sentit
sents
senyo
sept
septante
septchie
septembe
septembre
septie
septimana
ser
sera
serait
sercquiais
seredina
sereit
serge
sergius
serkyee
serment
sermon
seront
serrae
serrage
serratus
sert
servait
servaunt
servaunts
servent
serveux
servi
service
serviche
servir
servit
ses
set
setembe
setembre
sette
settle
settler
seu
seud
seuffixe
seul
seule
seulement
seulent
seules
seulles
seuls
seult
seument
seur
seurfe
seurli
seurnoumeit
seurs
seurve
seurvivre
seus
seut
seux
severs
severus
seyaunche
seye
seyne
sfondo
sgonde
shakespeare
sheffield
sherbrooke
shift
shimbun
shirt
shkode
shona
show
si
sia
siaers
siais
siastique
siaux
sibe
sibiu
sicile
sicilien
side
sidenche
sidencie
sident
sidentiel
sidents
sidgismond
sidoue
sie
sieaume
sieaumes
sieaux
sied
siempre
sien
siena
siennais
siennaise
sienne
siennes
siens
sierra
sies
siet
siette
sieu
sieur
sieure
sieurs
sieusant
sieut
sieute
sieuvant
siex
siez
signal
signeu
signeur
signeurie
signeurs
signeus
signie
signorelli
signourie
sil
sile
silia
silicon
silli
sillie
silva
silvester
silvestris
siment
simon
simone
simoun
simple
simplifie
simplle
simpson
sine
sinensis
siner
sinn
sinne
sinnes
sinnit
sinoun
sion
siouville
siprage
sique
sir
sire
sis
sise
sistaunche
siste
sistinne
sit
sitant
site
sitent
siter
siteurs
sitho
siti
sitit
sito
situa
situation
situatioun
situe
six
sixie
sizyime
ski
sl
slaves
slon
slovaque
slovaques
slovaquie
slove
slovenia
sm
sme
smith
sn
snow
so
sochiales
sochie
social
sociale
socialement
socialisme
socialiste
socie
sociologie
socrate
soeu
software
soin
soit
sol
solaire
solaires
solaithe
soldat
soldiers
sole
soleil
solet
solide
solstice
solstices
som
somme
sommes
son
sond
songe
sonn
sonne
sonner
sonnet
sonnets
sonneurs
sonneuse
sonneuses
sonnit
sons
sont
soot
sophie
sopotamie
sopotanmie
sor
sorbien
sorchie
sorchier
soria
sornette
sornettes
sors
sort
sorte
sortes
sorti
sortie
sortir
sortira
sortit
sos
sot
sote
sotho
sottes
sotteville
sou
souaie
souain
souaixante
souanse
soubirous
souchi
soudain
soudard
soudards
soue
souen
souengni
souessons
souessoun
souffe
souffle
soulaient
soulait
souleient
souleir
souleit
soulel
souloir
soume
soumes
soummes
soun
soune
souneu
souneus
sounge
sounneurs
sounneux
souns
sount
souo
souod
souongni
souope
souorce
souorces
souos
souothis
souovenin
souovent
souoverain
souoveran
soupe
sources
sourdre
sourse
sourtit
sous
sousa
south
southern
souve
souvenir
souvent
souventefeis
souveraine
sovie
soviets
spanyol
spe
special
sphondylium
spinosa
spiritus
sport
sports
springfield
sputnik
square
sra
ss
ssa
ssae
ssage
ssagie
ssaient
ssaim
ssais
ssait
ssance
ssances
ssant
ssante
ssants
ssaunt
ssauntes
sse
ssent
sser
sses
sset
ssi
ssiale
ssiales
ssibilite
ssibl
ssie
ssifie
ssit
sson
ssonie
ssons
ssus
st
sta
stade
stadt
stalinne
standard
standardi
stanisław
stanley
star
start
state
statistiques
statue
statues
stchelette
stchis
stchulpte
stchulpteux
stchulptuthe
stchulptuthes
ste
stead
stella
stephanus
sti
stier
sto
stockholm
stonehenge
stones
strade
stratford
street
stricte
structuthe
structuthes
stub
studio
style
su
suaire
subjonctif
subjounctif
succe
successeux
succession
sucche
suchi
suckow
sud
sue
sueu
sueur
sueux
suez
suffit
suffllent
suis
suisse
suite
suites
suivre
sujet
sujets
sulis
sullivan
sultan
sultat
sumae
sumaer
sume
sumenche
sumeux
sun
sunset
sunt
supe
supple
supporteurs
suppri
supre
sur
sure
suret
surgir
surnomme
suroue
surprenre
surpri
surre
surrection
surrectioun
surtouot
surtout
sus
susfache
sussex
sustouot
sustout
suthe
suther
suthes
suthi
sutley
sutout
sutton
suure
suusaunt
suusent
suusu
suute
suuvaunt
suve
sv
sveti
svg
swithi
sy
syagres
syagrius
sydney
sye
syi
syicle
syiclle
syiclles
syige
syin
syine
syines
syins
syis
syix
syllabes
symbo
symbol
symbole
symboles
symbolique
synagogue
syntaxe
syrichta
syrie
syste
szczecin
sœu
sœur
sœurs
t
ta
tab
tabl
table
tables
tabli
tablle
tablles
tablli
tablyi
tablyie
tablyies
tablyis
tablyissement
tablyit
tachelhit
tachi
tachit
taddeo
tadier
tae
tael
taer
taexte
tage
tages
tagies
tai
taient
taignie
tail
taile
tailes
tain
taine
tains
tais
tait
taithe
tak
tal
talaer
talbot
talent
talents
talon
tam
tamagni
tamar
tamp
tan
tanakh
tandi
tandis
tangne
tanme
tans
tant
tantinob
tants
tape
tapiss
tapit
taque
tard
tarde
tarsie
tarsius
tarsyi
tart
tas
tassae
tasse
tassent
tat
tathe
tatiouns
tats
taunches
tauns
taunt
taurus
taux
taxes
tb
tc
tch
tchai
tchaie
tchaient
tchaire
tchait
tche
tcheies
tchein
tcheindre
tcheint
tchelle
tchen
tchernobyl
tchestchion
tchestchions
tchet
tchets
tchettehou
tcheu
tcheulte
tcheur
tcheurae
tcheurs
tcheus
tcheuter
tcheux
tchi
tchian
tchianisme
tchianne
tchiannetae
tchiannisme
tchians
tchidbouo
tchie
tchieaux
tchien
tchienn
tchienne
tchiennes
tchiennete
tchiens
tchient
tchilieuvre
tchilieuvres
tchilliette
tchilliettes
tchilyi
tchinnoxe
tchinosse
tchiot
tchiots
tchipe
tchipes
tchiqu
tchique
tchiquechose
tchiquefais
tchiques
tchis
tchit
tchitch
tchite
tchithe
tchithier
tchitte
tchitter
tchitti
tchittit
tchivalent
tchiyait
tchiyi
tchiyit
tchoeu
tchoeur
tchoeurs
tchu
tchube
tchubec
tchue
tchui
tchuit
tchuithe
tchuivre
tchule
tchules
tchulons
tchulte
tchulteure
tchultiva
tchultivae
tchultivateu
tchultive
tchultiver
tchulture
tchultuthe
tchultuthelle
tchultuthes
tchulyi
tchume
tchun
tchurae
tchus
tchusson
tchussons
tchute
tchutheu
tchutif
tchution
tchuure
tchuuse
tchuute
tchuyaux
tchyine
te
teau
teauneuf
technique
techniques
technologie
technologies
tecnolo
tectonniques
tee
tei
teient
teile
teiles
teimps
teit
teiteure
tel
telain
television
telle
tellier
tels
tembe
tembre
tement
tements
temp
tempae
tempe
templ
template
templates
temple
templle
templles
temps
temuco
ten
tenant
tenaunts
tende
tendre
tendu
tendue
tenin
tenir
tensions
tent
tentant
tentation
tente
tentin
tentineis
ter
terbourg
tere
teresa
terjours
terjous
terme
ternelle
terra
terrain
terran
terre
terres
terreux
terribe
terriblle
territouaithe
territoue
terroriste
terroristes
terrouer
terrous
terry
tersbourg
tertouos
tertous
tertout
tes
tesco
testament
testaments
teste
testimonium
teu
teumbae
teumbaer
teumbit
teume
teumes
teumier
teumiers
teunme
teunmes
teunnisie
teurdre
teurgoule
teurqu
teurquier
teurs
teurter
teurtre
teux
texas
text
textdata
texte
textes
tey
tez
th
tha
thabl
thaddae
thae
thaeure
thai
thaient
thait
thaithe
thaithes
thale
thales
thant
thas
thatcher
thatuthe
thaud
thaux
the
thement
thence
thences
thent
thente
thentes
thents
theodosius
ther
thermes
thes
thessalonniens
thet
thets
thette
thettes
theune
theure
thez
thi
thia
thiaux
thie
thiel
thien
thience
thierry
thies
thieusement
thieux
thinne
thiole
thiologiens
thiot
thique
thiques
this
thisseuse
thit
thitabl
thitage
thitchain
thitchaine
thitchaines
thitchains
thitchi
thitchit
thite
thle
tho
thode
thodisme
thodiste
thodistes
thoglyiphe
thoglyiphes
thomas
thon
thondes
thonmas
thons
thont
thor
thos
thou
thoumas
thoume
thoury
thue
thumb
thumbnail
thy
ti
tia
tiane
tiani
tianne
tians
tiau
tiaux
tiberius
tibotchit
tic
tica
tich
ticl
tie
tien
tiendre
tienne
tiennes
tiens
tient
tiente
tier
tierche
tiers
tierse
ties
tieux
tigot
tigre
tigue
tigues
til
tile
tiled
till
tille
tillon
tilloun
tilly
tima
time
timeaxis
timent
timents
times
timis
timor
timothe
tin
tintin
tion
tionale
tionna
tionnal
tionnale
tionnales
tionnaux
tionnels
tions
tioun
tiphagne
tiqu
tique
tiques
tir
tirant
tire
tirer
tirie
tiries
tis
tisme
tisse
tisser
tisses
tit
titanic
titans
tite
titent
tites
tith
tithe
tithie
tition
titions
titre
titres
tits
titus
tive
tivier
tld
to
tob
tochłowice
toflle
tokyo
tole
tolique
tolir
tombe
tomber
tomkins
tomographie
ton
tonmate
tonmates
tonne
tonnelle
tonnelles
tonnes
tons
top
torah
tordre
tore
toronto
torque
torre
torsten
torte
tos
total
totchets
tote
totes
tou
touches
toue
toujours
toumas
toumbe
toun
toune
tounerre
tounia
touniaux
touo
touor
touoranne
touore
touornaer
touorne
touors
touos
touot
touote
touotes
touotha
touothe
tour
touraine
tourisme
touristes
touristique
touristiques
tourmente
tournae
tournaer
tournaunt
tourne
tourneis
tournouais
tours
tous
touscane
toussaint
tout
toute
toutes
touzae
touzeure
tower
tr
tra
trache
tracher
traches
trachi
trachie
trachier
tracteu
tracy
trade
tradi
tradition
traditionnel
traditionnelle
traditionnelles
traditionnels
traditions
traditioun
traditiounaliste
traditioune
traditiounelle
traditiounelles
traditiounnelle
traditiounnelles
traditiouns
traduction
traductions
traduit
traer
trafalgar
trafi
trahis
trahison
trai
traianus
traient
train
trains
traire
trais
traison
traisons
trait
traitae
traite
traites
traithe
traits
tralement
trances
tranche
tranches
trange
trans
transactions
transept
transfe
transforme
transformit
translate
translater
transmi
transminse
transport
transporte
transports
transylvannie
trarque
trasie
trava
travaillaient
travaillait
travaille
travailleux
travailli
travaillit
traval
travas
travaux
trave
travers
traverse
travert
tre
trecento
treindre
treinte
treis
treisie
treisyime
treize
tremblie
trembllaer
trempaer
trempe
trent
trente
trerie
tres
tresmontant
tresse
treu
treue
treuve
trevor
treye
treyes
tri
trian
triangle
tribouillements
tribus
tric
tricitae
trie
trigasse
trigasses
trige
trinitae
trinite
trinn
trinnete
triplle
trique
triques
tristan
triste
trivelaine
trize
tro
trochet
trois
trole
tron
tronc
trop
tropiques
trot
trotski
trou
trouae
trouaer
trouaie
trouait
troubadour
troue
trouent
troun
trouo
trouoe
trouovaer
trouove
trouoveit
troupe
troupes
trous
trouvait
trouve
trouveit
trouvent
trouver
trouvit
troyes
tru
trueu
truit
truite
truits
trung
trust
ts
tsar
tt
ttait
ttant
tte
ttrait
tu
tua
tuae
tuaer
tube
tude
tudes
tudgiant
tudgiants
tudiants
tudie
tudient
tudier
tudor
tudyi
tudyit
tue
tuer
tui
tuit
tumbae
tumbaer
tumbe
tumbit
tun
tunbridge
tunn
tur
turc
turcs
turi
turin
turkme
turner
turqu
turques
turquie
turtchais
turtchie
tus
tut
tuules
two
tyi
tyime
tyin
tyins
tyirs
tyis
tymologie
tyne
tynwald
type
types
typique
typiquement
tzar
u
ube
ubec
uchi
udre
ue
uefs
uetersen
ufba
ufrb
ugc
ugolino
ui
uk
ukrai
ukraine
ule
uleville
ulste
ulster
ultimatum
un
und
une
unelli
ungulata
uni
unin
unins
union
unioun
unique
unitae
united
unive
universelle
universidade
universitae
universitaires
universite
university
unne
unni
unnies
unnifie
unniformes
unnion
unnions
unnis
unnit
unnive
uns
unum
unzen
upn
upright
ur
uranium
urbain
urbaine
urbanus
urbayne
urdi
ure
urope
ursa
urss
urtica
urville
us
usa
usaaf
usage
use
user
usite
usque
ussit
ustave
uste
ut
utc
utilisateurs
utilise
utiliser
utrecht
uu
uurs
ux
uxie
v
va
vace
vacque
vacques
vae
vag
vai
vaie
vaient
vaile
vailer
vailes
vaisse
vaissel
vaissiaux
vait
vaituthe
vaituthes
vake
val
valais
valait
vale
valei
valeir
valeis
valencia
valenciana
valencians
valencie
valent
valenti
valentin
valentinianus
valerius
vales
valet
valeu
valeur
valeurs
vali
valie
valingue
valle
vallenato
valles
vallois
valois
valparaiso
valpy
valua
value
valyi
van
vange
vangile
vangiles
vangueux
vannes
vanneteis
vanni
vannil
vant
vaque
vaquer
vaques
var
varde
varia
variante
variantes
variaunte
varie
varouic
varsovie
vas
vases
vassal
vaste
vatican
vaticaun
vau
vaudeville
vaudevire
vaughan
vaungu
vaut
vaux
vauxhall
vavasseux
vay
ve
vechin
vecquit
vecœu
vei
veichi
veichin
veie
veient
veies
veigne
veila
veile
veille
veilleux
veillie
veine
veinge
veinnent
veint
veir
veire
veis
veit
vel
vela
veliocasses
veloppe
veloppement
veloppit
venables
venaient
venait
vend
vendaison
vendait
vende
vendeu
vendit
vendre
vendu
vendue
vendues
veneient
veneit
venez
veni
venin
venint
venir
venise
venit
venre
vent
venta
ventait
vente
ventouse
ventre
ventres
vents
venu
venue
venun
venuns
venus
veque
ver
vera
verbe
verbes
verbo
verbos
verbotene
verbum
verde
vere
vergers
vergie
vergier
vergue
vernon
verouic
verre
verreries
verres
vers
versa
versailles
verset
versets
version
versions
versioun
vert
vertae
verte
vertical
vertus
ves
vestiaithes
veu
veudera
veue
veues
veulent
veur
veurs
veurt
veus
veut
veuvyire
veux
vexin
vey
veyait
veyez
veyiz
vi
via
viaer
viage
viageaient
viages
viageurs
viageux
viagi
viagit
viande
viau
vice
vicente
vichy
vicomte
vicoumtae
vicoumte
victi
victor
victoria
victorieux
victouaithe
victoue
victriche
vide
vie
vieau
vieil
vielle
vielles
vienna
vienne
viennent
vient
vier
vierge
vies
vietnam
vieu
vieuille
vieuilles
vieul
vieule
vieules
vieur
vieurs
vieux
view
vigne
vignel
vigneraie
vignerons
vignette
vignoble
vigny
vigueur
vii
viib
viie
viii
viiie
vikings
vikipae
vikipe
vil
vilage
vilages
vilain
vilaine
vile
viles
villa
village
villages
villais
villar
villaume
ville
villedgieu
villedieu
villeneuve
viller
villes
villi
villiers
villon
vilnius
vimouotyirs
vimoutiers
vin
vincennes
vincent
vincenzo
vinchennes
vingne
vingt
vingts
vinnaigre
vinra
vins
vint
violenche
violent
vipe
vipera
viqu
viques
viquet
viquipe
vir
virbereet
vire
vireche
virge
virgile
viroun
vis
vise
vision
visioun
visite
visititent
vit
vita
vital
vitchet
vitchipe
vite
vivaient
vivait
vivant
vivante
vivants
vivaunt
vivaunts
vive
viveient
viveit
vivent
viviz
vivre
vivyi
viyablle
viyait
viyant
viyit
viyiz
viyons
vla
vladimir
vlao
vlore
vlous
vnir
vo
vocabulaire
vocabulaithe
voda
voe
voielles
voir
voix
vol
vola
volant
volcan
volcanique
volcaniques
volcannique
volcanniques
volcanologue
volcaun
vole
voleir
volent
voler
voleume
volga
volition
volonte
volountae
volte
voltes
voltit
volui
volution
volutionnaithe
volutionnaithes
volutions
volutioun
von
vont
vos
vosges
vostr
vot
votae
vote
voter
voti
votion
votioun
votit
vou
vouaie
vouaile
vouaix
voue
vouest
vouet
voulaient
voulait
voulei
vouleir
vouleit
voulentaire
voulente
vouler
vouli
voulit
vouloir
voun
vount
vouolaient
vouolait
vouolei
vouoleit
vouoleu
vouoli
vouolit
vouolitent
vouos
vouot
vous
voute
voutre
vrade
vrai
vraie
vraiment
vrais
vre
vrefeul
vres
vreus
vreux
vri
vrier
vryi
vthait
vu
vue
vulgaris
vum
vun
vuu
vuule
vuules
vuur
vuurs
vuus
vy
vyages
vyinent
vyinnent
vyins
vyint
vyirge
w
wa
wace
walpole
walter
wandrille
war
was
washington
waterloo
waundrile
way
web
weekend
welby
welcome
wells
wesley
wesleyenne
west
westaway
westminster
white
width
wie
wien
wiesbaden
wiki
wikimedia
wikipe
wikipedia
wikiproject
wilhelm
willa
willendorf
william
willis
wilson
wimberley
winchester
windows
windsor
wique
wisigoths
witches
with
world
wray
www
x
xe
xi
xic
xie
xii
xiie
xiii
xiiie
xiv
xive
xix
xixe
xmes
xv
xve
xvi
xvie
xvii
xviie
xviii
xviiie
xx
xxe
xxi
xxii
xxiii
xystus
y
ya
yache
yaer
yai
yains
yait
yal
yale
yales
yane
yant
yaume
ye
yelles
yen
yenne
yens
yent
yer
yes
yeu
yeus
yeux
yez
yi
yie
yime
yin
yis
yit
yn
yons
york
you
youri
yrlande
yu
yugoslavie
yun
yves
z
za
zabe
zabeth
ze
zembre
zette
zettes
zeus
zh
zi
zie
zimbabwe
zone
zoologie
zot
zue
zure
zy
zyime
{
|
}
~
£
«
­
°
²
³
´
·
¹
»
×
đo
ı
łobez
œ
œu
œuv
œuve
œuvre
œuvres
ɛ
ʃy
̀
́
̂
̃
̄
̆
̇
̈
̉
̊
̌
̓
̔
̛
̞
̣
̦
̧
̨
̮
̱
͂
ͅ
͡
α
αγι
αι
αν
ας
β
γεννηθε
δ
ε
ει
εις
ζ
η
θεου
ι
κ
και
κυ
λια
μα
με
μενον
ν
να
ντα
ο
ου
πα
πατρο
πιστευ
πνευ
ρ
ρα
ριον
ς
τ
τα
τε
τη
το
του
τω
των
υ
ω
в
з
категория
транспорт
є
ְ
ִ
ֵ
ֶ
ַ
ָ
ֹ
ּ
־
ׁ
א
ב
ד
ה
י
כ
ל
ם
מ
נ
צ
ק
קא
ר
ש
ا
ب
ة
َ
ُ
ّ
ٔ
ٕ
्
ப
ு
்
ง
อ
ื
ู
่
‎
–
—
‘
’
“
”
†
•
…
‪
‫
‬
€
↔
↷
−
∪
③
④
⑦
☉
☾
☿
♂
ⴰ
ⵃ
ⵉ
ⵍ
ⵛ
ⵜ
⺀
⺄
⺆
⺈
⺊
⺌
⺕
⺝
⺸
⺼
⿰
⿱
⿲
⿳
⿴
⿵
⿶
⿷
⿸
⿹
⿺
⿻
、
〢
コ
ユ
㇁
㇂
㇄
㇇
㇈
㇉
㇓
㐁
㐄
㐅
㐌
㐫
㐬
㐭
㐮
㐱
㑒
㒵
㒸
㒼
㓁
㓞
㔾
㕛
㕣
㖾
㘝
㚅
㚇
㚔
㚘
㝉
㝡
㝴
㝵
㞋
㞢
㞷
㠩
㠭
㠯
㡀
㡭
㡿
㢲
㢴
㣇
㣺
㥯
㪅
㫄
㫐
㫒
㫺
㬅
㬎
㬥
㬰
㲋
㳄
㷠
㸒
㸚
㸦
㼌
㼲
㽞
㿟
䀠
䂞
䍃
䏍
䒑
䖍
䖒
䖝
䖵
䙴
䚻
䜌
䝿
䡛
䧹
䪞
一
丁
丂
七
丄
丅
丆
万
丈
三
上
下
丌
不
与
丏
丐
丑
专
且
丕
世
丘
丙
业
东
丞
丢
丣
两
严
並
丨
丩
个
丫
丬
中
丮
丰
丱
串
丵
丶
丷
丸
丹
为
主
丽
丿
乀
乂
乃
久
乆
乇
么
义
之
乌
乍
乎
乏
乐
乑
乔
乖
乗
乘
乙
乚
乛
乜
九
乞
也
习
乡
乳
乾
亀
亅
了
亇
予
争
事
二
亍
于
亏
亐
云
互
亓
五
井
亘
亚
亜
亞
亟
亠
亡
亢
交
亥
亦
产
亨
亩
享
京
亭
亮
亯
亰
亲
亳
亶
亷
人
亻
亼
亾
仁
今
介
仌
从
仐
仑
仒
仓
仕
他
付
仝
代
令
以
任
企
伊
伏
伐
休
会
伯
但
位
何
佘
余
作
佥
使
來
侈
侌
侖
侯
侵
便
保
俞
信
修
倉
倍
候
倠
備
僉
僕
儿
兀
允
兂
元
兄
充
兆
兇
先
光
兊
克
兌
免
兑
兒
兓
兔
党
兜
兟
入
全
兩
兪
八
公
六
兮
兰
共
关
兵
其
具
典
兹
兼
冀
冂
冃
冄
内
冈
冉
冊
冋
册
再
冎
冏
冐
冒
冓
冖
冗
冘
军
农
冝
冡
冥
冫
冬
冷
几
凡
凢
凵
凶
凷
凸
凹
出
函
凾
刀
刁
刂
刃
刄
刅
分
切
刍
刑
刕
刖
列
刘
则
初
別
利
别
到
制
刺
則
削
剌
前
剡
剽
劉
力
功
加
劦
助
劫
劳
劵
勃
勇
勉
勒
動
務
勞
勤
勹
勺
勻
勾
勿
匀
匂
包
匆
匈
匊
匋
匍
匕
化
北
匚
匝
匡
匪
匱
匸
匹
区
医
匽
匿
區
十
卂
千
卄
卅
卆
升
午
卉
半
卌
华
卑
卒
卓
单
卖
南
卜
卝
卞
占
卡
卢
卣
卤
卦
卩
卪
卬
卯
印
危
即
却
卵
卷
卸
卻
厂
厃
厄
历
厈
厉
厌
厓
厘
厚
原
厤
厥
厨
厭
厲
厶
厷
厸
去
厼
厽
叀
参
參
叅
又
叉
及
友
双
反
叐
发
叒
叔
叕
取
受
叚
叜
叟
口
古
句
另
叩
只
召
可
台
叱
史
右
叵
号
司
叹
吂
各
吅
合
吉
吊
吋
同
名
后
吏
向
吕
君
吝
吞
否
含
启
吳
吴
吹
吾
呂
呆
呈
告
员
呙
周
命
咅
和
咎
咠
咢
咨
咸
咼
哀
品
哉
員
哥
哲
唐
商
啇
問
啚
啬
啻
善
喜
喬
單
喿
嗇
噩
嚴
囊
囗
囘
囙
囚
四
回
囟
因
囧
囬
困
囱
囷
固
国
圂
圅
國
圍
圓
土
圡
圣
圥
在
圭
地
圶
圼
坐
坒
坚
坴
垂
垔
垚
埀
埋
埶
執
基
堂
堅
堆
堇
堯
塞
墨
壘
士
壬
壯
声
壳
壴
壹
壺
壽
夂
处
夅
夆
备
夊
夋
夌
复
夏
夒
夕
外
夗
夘
多
夜
夢
大
夨
天
太
夫
夬
夭
央
失
夲
头
夷
夸
夹
夻
夾
奂
奄
奇
奈
奉
奎
奏
奐
契
奓
奔
奚
奞
奠
奢
奥
奭
女
奴
奻
好
如
妄
妙
妟
妥
妻
妾
姑
委
姜
威
娄
婁
婴
嬰
嬴
子
孑
孔
孕
孖
字
存
孚
孛
孝
孟
季
孤
学
孫
孱
學
宀
宁
宂
它
宅
宇
守
安
宋
完
宏
宓
宗
官
定
宛
宜
宝
客
宣
室
宮
宰
害
家
容
宾
宿
寄
寅
密
富
寒
察
寧
審
寫
寬
寮
寸
对
寺
寻
寽
対
寿
封
尃
射
将
將
專
尉
尊
尋
尌
對
小
少
尒
尓
尔
尖
尗
尚
尞
尢
尣
尤
尧
尨
尭
就
尸
尹
尺
尻
尼
尽
尾
尿
局
居
屈
屋
屎
屏
屑
展
屖
屚
属
屠
屡
屬
屮
屯
屰
山
屵
屾
岁
岂
岑
岡
岩
岳
岸
峯
島
崇
崑
崔
崖
崙
崩
嵬
嶲
巂
巛
川
州
巟
巠
巢
巤
工
左
巧
巨
巩
巫
差
己
已
巳
巴
巷
巸
巽
巾
巿
帀
市
布
希
帚
帛
帝
带
師
席
帶
常
干
平
年
幵
并
幷
幸
幺
幻
幼
幽
幾
广
広
庄
床
底
店
庚
府
度
庫
庭
庶
康
庸
廉
廌
廛
廣
廩
廴
延
廷
建
廾
廿
开
弁
弃
弄
弇
弋
式
弓
弔
引
弗
弘
弜
弟
弥
弦
弱
張
強
强
彊
彌
彎
彐
彑
当
彔
录
彖
彗
彡
形
彥
彦
彧
彭
彳
役
彼
往
待
律
徒
得
徙
從
御
復
微
徵
心
忄
必
忌
忍
志
忝
忠
忩
快
念
忽
忿
思
怠
急
怱
恆
恒
恩
恭
息
悉
患
悤
悲
悶
惠
惡
惢
愁
愈
意
愛
感
慈
慧
慮
憂
憲
應
戀
戈
戉
戊
戋
戌
戍
戎
成
我
戒
戔
或
戚
戠
戢
截
戲
戶
户
戹
戼
戾
房
所
扁
扇
手
扌
才
打
托
执
承
折
拉
拜
拿
掌
推
提
摩
支
攴
攵
收
攸
改
放
政
敄
敏
敕
敖
敗
教
敝
敞
敢
散
敦
敫
敬
数
敷
數
斂
文
斉
斊
斗
斤
斥
斩
斬
斯
新
方
於
施
斿
旁
旋
族
无
旡
既
旣
日
旦
旧
旨
早
旬
旱
旲
时
旾
昆
昇
昌
昍
明
昏
易
昔
昗
昜
星
春
昬
是
昱
昴
昷
時
晃
晋
晏
普
景
晶
智
暑
暴
曇
曩
曰
曲
曳
更
曷
書
曹
曼
曾
替
最
朁
會
月
有
朋
服
朔
朕
朗
望
朝
木
朩
未
末
本
札
朮
术
朱
朵
朶
朿
杀
杏
杜
束
条
来
東
杲
杳
松
析
林
枚
果
枝
枲
枼
某
柔
查
柬
柰
柴
栗
桀
桑
桼
梁
條
梟
梨
棘
棠
棥
森
楚
業
楽
榮
樂
樊
欠
次
欣
欮
欲
欶
欽
款
歆
歇
歛
止
正
此
步
武
歨
歪
歮
歯
歰
歲
歴
歷
歸
歹
歺
死
殳
段
殷
殸
殹
殺
殻
殿
毋
毌
母
每
毒
比
毕
毚
毛
毳
氏
氐
民
气
氣
水
氵
氶
氷
永
氺
氾
求
汝
汞
江
沃
沓
沙
沝
泉
法
波
泣
泥
泰
洛
洪
活
派
流
浦
浪
浮
淡
淮
清
渚
渠
湯
滿
漸
火
灬
灭
灰
灵
灷
炅
炎
炏
炗
炙
炭
為
烈
烏
烝
焉
無
焦
焱
然
煞
熊
熏
燕
營
燮
爪
爫
爭
爯
爰
爱
爲
爵
父
爻
爽
爾
爿
片
牙
牚
牛
牜
牟
牢
牧
牪
牽
犀
犬
犭
犮
狂
狄
狊
独
狺
猋
猒
猪
献
獻
玄
率
玉
王
玟
玨
现
珎
班
現
琴
瑟
瑩
璠
瓜
瓦
甘
甚
生
産
用
甫
甬
田
由
甲
申
电
甶
男
甸
甹
画
甾
畀
界
畏
畐
留
畜
畟
畢
畧
畨
番
畫
異
畱
當
畺
畾
疊
疋
疌
疑
疒
疾
癶
癸
癹
登
發
白
百
皀
皃
的
皆
皇
皋
皐
皕
皮
皷
皿
盃
盆
盇
盈
益
盍
盎
监
盒
盖
盛
盡
監
盤
盧
目
直
相
盾
省
眇
眉
看
眔
眞
真
眷
眼
眾
着
睘
睪
睿
瞏
瞢
瞿
矍
矛
矞
矢
矣
知
矦
短
石
破
碎
磊
磨
示
礻
礼
祟
票
祭
禀
禁
禸
禹
禺
离
禽
禾
禿
秀
秃
秉
秋
科
秝
秦
移
稟
穀
穌
穴
究
穹
空
穿
突
窄
窒
立
竒
竜
竝
竟
章
童
竹
笑
笠
筆
等
答
箕
算
箴
節
篤
篭
米
粉
粛
粟
粤
粦
粲
糞
糸
糹
系
約
納
素
索
紫
累
細
絜
絫
絲
維
綿
縣
繇
纍
纟
缶
网
罒
罔
罕
罗
罙
罡
罢
罪
署
罷
羅
羊
羌
羍
美
羔
羕
羗
羞
羡
羣
群
義
羲
羸
羽
翁
翏
習
翕
翟
翠
翼
老
耂
考
者
耆
而
耎
耑
耒
耳
耴
耶
耷
聂
聊
聖
聚
聶
聿
肀
肃
肅
肉
肖
肙
肥
肩
肯
育
肴
胃
背
胡
胥
能
脊
脩
膚
臣
臤
臧
自
臬
臭
臯
臱
至
致
臺
臼
臽
臾
臿
舀
舂
舄
與
興
舉
舌
舍
舛
舜
舞
舟
般
艮
良
色
艸
艹
艾
芒
芔
芬
芮
花
芳
芺
芻
苔
苗
苟
若
苦
英
茶
茸
荅
草
荒
荣
荼
莆
莧
莫
莽
菆
菊
菐
華
萬
落
葉
著
葛
董
葵
蒙
蒦
蒼
蓋
蓬
蓺
蔑
蔡
蕉
蕭
薄
薛
薦
薰
藍
藏
藥
蘭
虍
虎
虐
虒
虔
處
虖
虗
虘
虚
虛
虜
虞
虫
虽
蚤
蚩
蜀
蜜
蟲
蠡
血
行
衍
衛
衣
衤
表
衮
衰
袁
袞
褭
褱
襄
襾
西
覀
要
覃
見
規
覓
覧
親
覽
见
角
解
言
訁
訇
計
詹
誩
諸
讠
谷
豆
豈
豊
豐
豕
豖
豙
象
豦
豩
豪
豸
貇
貝
貞
貟
負
貢
貧
貪
貫
責
貳
貴
買
費
賁
資
賈
賏
賓
賔
賛
賞
賢
賣
質
賴
贊
贝
贡
责
贯
贲
贵
赖
赞
赤
赦
走
越
足
路
蹇
身
躬
車
軍
軎
軟
輦
车
辛
辜
辟
辥
辰
辱
農
辵
辶
边
达
过
近
连
迷
追
退
送
逆
逐
通
速
造
逢
連
逮
進
遀
遂
過
道
達
遣
適
遷
遺
邊
邑
邕
那
邦
邪
郎
郑
部
郭
都
鄉
酉
酋
配
酓
釆
采
里
重
野
量
金
釒
錢
钅
長
镸
长
門
閃
閉
開
閏
閑
閒
間
閔
閵
閻
闌
门
间
闷
闻
阑
阜
阝
阿
降
陳
隆
隊
隋
隡
隨
隱
隶
隹
隺
隻
隼
隽
难
雀
雁
集
雈
雋
雍
雐
雔
雙
雚
雜
雝
離
難
雨
雩
雪
雲
零
雷
需
霍
霜
霝
霞
霸
靈
靑
青
非
靡
面
靣
革
韋
韓
韦
韭
韯
韱
音
頁
頃
項
須
頗
頡
頻
顛
页
風
风
飛
飞
食
飠
養
饣
首
香
馬
馮
駦
马
骨
高
髟
鬥
鬯
鬲
鬼
魚
魯
鮮
鱼
鲁
鳥
鳳
鸟
鹵
鹿
麃
麗
麥
麦
麻
黃
黄
黍
黎
黑
黒
黨
黹
黽
黾
鼎
鼓
鼠
鼻
齊
齋
齐
齒
齿
龍
龙
龜
龟
龠
龰
龱
龴
龵
龶
龷
龸
龹
者
艹
，
？
🜨
𠀁
𠀃
𠀆
𠀉
𠀎
𠀐
𠁁
𠁣
𠂆
𠂇
𠂈
𠂉
𠂊
𠂋
𠂎
𠂒
𠂔
𠂛
𠂡
𠂢
𠂤
𠂬
𠂭
𠂹
𠃊
𠃋
𠃌
𠃍
𠃎
𠃑
𠃓
𠃔
𠃜
𠄌
𠄎
𠄠
𠄢
𠆢
𠆥
𠇍
𠈌
𠌵
𠓜
𠔉
𠔥
𠔼
𠔽
𠔿
𠕀
𠕁
𠕋
𠘧
𠘨
𠙻
𠙼
𠚏
𠚒
𠚤
𠚪
𠣏
𠤎
𠤕
𠥓
𠦄
𠦑
𠦝
𠧒
𠧗
𠧪
𠩺
𠪚
𠫓
𠫔
𠫤
𠬛
𠬝
𠬞
𠬢
𠬤
𠬶
𠮛
𠮦
𠮷
𠯑
𠱠
𠳮
𠷎
𡈼
𡉀
𡉵
𡌥
𡍮
𡏳
𡕒
𡕩
𡕰
𡖅
𡗗
𡗜
𡘆
𡘤
𡧱
𡨄
𡩧
𡬠
𡭽
𡰣
𡰥
𡰪
𡰯
𡰱
𡷈
𡸁
𡿨
𡿩
𡿪
𡿺
𢀖
𢀛
𢀩
𢁙
𢆉
𢆰
𢆶
𢇁
𢇇
𢉖
𢌬
𢌿
𢏚
𢑑
𢑚
𢖻
𢙣
𢛳
𢦏
𢦒
𢧵
𢼄
𢾕
𣁋
𣄼
𣅀
𣅽
𣍘
𣎳
𣎵
𣏋
𣏼
𣗥
𣥂
𣥖
𣦵
𣦼
𣧄
𣪊
𣪠
𣬉
𣳾
𣶒
𤇾
𤊽
𤐫
𤓰
𤔔
𤕨
𤣩
𤰇
𤰔
𤰞
𤴓
𤴔
𤽄
𥁑
𥁕
𥃦
𥃩
𥃭
𥇡
𥑟
𥘅
𥘈
𥝢
𥫗
𥱡
𦈢
𦉪
𦉬
𦉼
𦍌
𦍒
𦎧
𦐇
𦓔
𦔮
𦘒
𦙃
𦚏
𦣝
𦣞
𦣻
𦥑
𦥔
𦥯
𦨉
𦭝
𦰩
𧆞
𧈧
𧘇
𧰨
𧴪
𧴮
𧵩
𧾷
𨸏
𨾴
𩙿
𩠐
𩫏
𩵋
𪉷
𪜀
𪟽
𪠲
𪩲
𫇦
𫔭
𫜸
𫝀
𫠣
𫠩
𫢉
𫥞
𫩏
𫩠
𫪡
𫲽
𫶧
𬀷
𬐘
𬗌
𬙙
𬛸
𬜯
𬟩
𬯁
𬴘
𬺻
𬼉
𬼖
𭀰
𭁈
𭁨
𭅰
𭑈
𭕄
𭗼
𭤨
𭥫
𭻾
𮅕
𮊿
𮍌
𮍏
𮓗
𮥼
𮧮
廾
𰀁
𰀄
𰀈
𰀉
𰀕
𰀠
𰀡
𰀢
𰀪
𰁜
𰃮
𰆊
𰆘
𰋙
𰕎
𰢴
𰧭
𰯲
06--
207--
36--
37--
39--
46--
48--
a--
ab--
aban--
aband--
aboun--
abst--
ac--
acab--
accou--
accu--
ach--
achoc--
aco--
ad--
ade--
ademeu--
admi--
adop--
adu--
ae--
aff--
affir--
ag--
ah--
ai--
air--
ajou--
ake--
al--
ale--
alex--
ali--
all--
alo--
als--
alt--
am--
ame--
ami--
amou--
amphi--
an--
anas--
and--
anno--
ant--
any--
ap--
apo--
apocry--
apostro--
app--
appae--
appari--
aqu--
ar--
ara--
arc--
archi--
are--
ari--
aristocra--
arme--
armo--
arri--
art--
artifi--
artis--
as--
asce--
assem--
assochia--
at--
atta--
attrac--
au--
aum--
aump--
aun--
aur--
aus--
aut--
aux--
av--
ava--
avau--
ave--
avi--
ay--
az--
b--
ba--
baby--
bac--
bad--
badge--
bae--
bai--
baill--
bal--
bando--
bar--
bas--
bat--
bau--
be--
bel--
ben--
ber--
berna--
berri--
bes--
bi--
bia--
biau--
biblyi--
bie--
big--
bio--
bis--
bizaun--
bl--
bllo--
blo--
bo--
bom--
bon--
bos--
bou--
boui--
bouoil--
bour--
bra--
bran--
braun--
bre--
bri--
brit--
bro--
bru--
bu--
bun--
bus--
but--
bw--
c--
ca--
cacc--
cae--
cage--
cai--
cal--
cala--
cali--
cam--
can--
cana--
cao--
cap--
capabil--
capit--
car--
cas--
cat--
catholi--
cau--
caun--
ce--
ces--
ch--
cha--
champ--
che--
cher--
chi--
cho--
chou--
chroun--
chry--
chu--
ci--
cie--
cirtchu--
cl--
cla--
cle--
cli--
clla--
clo--
cmen--
co--
col--
coll--
colo--
colom--
com--
commiss--
compli--
complyit--
con--
const--
cop--
cor--
corres--
cos--
cou--
coum--
coun--
cound--
counf--
couns--
counstitut--
counstruc--
count--
countropp--
couo--
coup--
cour--
cra--
cre--
creve--
cri--
critit--
criya--
cro--
cru--
cu--
cumu--
cy--
cæ--
d--
da--
dal--
dam--
dan--
daun--
de--
dec--
dei--
demeu--
den--
der--
des--
deu--
dge--
dgia--
dgu--
di--
dia--
dialo--
dic--
dictat--
die--
dis--
disco--
dit--
divi--
dji--
do--
docum--
dom--
domina--
domini--
don--
dou--
douza--
dra--
dri--
dris--
dro--
dru--
du--
dut--
dy--
e--
ed--
edu--
eff--
ei--
ein--
ek--
el--
em--
embar--
emp--
empl--
en--
eng--
enleu--
ens--
enseigne--
ente--
enter--
env--
envas--
er--
ere--
es--
esco--
escu--
escul--
espi--
espllo--
est--
estat--
estruc--
estu--
et--
eu--
eus--
eutil--
eutilis--
ex--
f--
fa--
fabrit--
fac--
fai--
fasci--
fau--
fe--
fec--
fer--
feu--
ff--
ffl--
fi--
fiaun--
fic--
fie--
fil--
fin--
fis--
fit--
fla--
flia--
fll--
flo--
flu--
fo--
fonc--
for--
fou--
foui--
four--
fr--
fra--
fram--
francenormandie--
fre--
fri--
fried--
fu--
fyi--
g--
ga--
gal--
gali--
gam--
gar--
gas--
gau--
ge--
gend--
gentil--
geo--
ger--
ges--
geu--
ghe--
gi--
gib--
gl--
glia--
glla--
glos--
glout--
gno--
go--
god--
gol--
gon--
gou--
gover--
gra--
gram--
gre--
greff--
gri--
gro--
groen--
grou--
gru--
gu--
gua--
gue--
gui--
guulyi--
guy--
gw--
gym--
gypti--
h--
ha--
hab--
habil--
hai--
ham--
han--
har--
hau--
haw--
he--
hel--
her--
heu--
hex--
hi--
hie--
hipp--
hitt--
ho--
holl--
hon--
hor--
hos--
hou--
hu--
hugue--
hum--
hy--
i--
ia--
ice--
id--
ie--
il--
illin--
illy--
im--
in--
incar--
inde--
influe--
infor--
ins--
instru--
insu--
inte--
introduc--
invo--
ion--
ip--
ir--
is--
it--
iu--
iv--
j--
ja--
je--
jeu--
ji--
jo--
jou--
ju--
jus--
justi--
k--
ka--
ke--
ki--
kins--
kis--
ko--
kra--
ku--
l--
la--
lae--
lai--
lan--
lav--
le--
lec--
lecto--
lei--
lende--
les--
lex--
li--
lig--
lile--
lim--
lin--
lit--
lithu--
liv--
ll--
lle--
lo--
lom--
lopp--
lot--
lou--
louotha--
lu--
lus--
lussem--
ly--
m--
ma--
mac--
mad--
magdel--
magi--
magl--
mai--
mak--
mal--
man--
mant--
mar--
marc--
massa--
mat--
mau--
maz--
mc--
me--
mei--
men--
mer--
meu--
meun--
mi--
mic--
mik--
mil--
min--
mis--
miss--
mit--
mo--
mon--
mont--
moral--
mot--
mou--
mount--
mouo--
mp--
mpo--
mu--
mul--
multi--
mun--
mus--
musi--
my--
n--
na--
nai--
namat--
nami--
nar--
narrat--
nas--
nat--
nau--
nc--
nci--
ncli--
ncor--
nd--
nde--
ndi--
ne--
neu--
new--
nf--
ng--
ni--
nic--
nis--
nit--
nm--
nma--
nmi--
nn--
no--
nob--
nom--
non--
nor--
nord--
nos--
not--
nou--
noum--
ns--
nspi--
nsu--
nt--
nte--
nu--
o--
ob--
obe--
objec--
obl--
obsc--
observa--
oc--
occu--
oci--
od--
ody--
of--
og--
ol--
ole--
olo--
ologi--
om--
omni--
on--
op--
ope--
oppos--
or--
ora--
ord--
ordoun--
org--
organis--
ori--
os--
ot--
ote--
ou--
oue--
oui--
oun--
ouo--
ouov--
ov--
p--
pa--
paiet--
pal--
pan--
pann--
par--
para--
pare--
part--
pas--
patri--
pau--
pe--
pecc--
pee--
pei--
pel--
pen--
pennsyl--
penta--
per--
persoun--
peu--
ph--
pho--
pi--
pia--
pie--
pin--
pis--
pl--
plas--
plaun--
ple--
plla--
po--
poe--
pom--
pon--
por--
port--
pot--
pou--
pouo--
pouor--
poupe--
pour--
pp--
prat--
pre--
pri--
pro--
profe--
prou--
pu--
publ--
pue--
pur--
pus--
px--
py--
q--
qu--
qua--
que--
qui--
r--
ra--
radia--
raff--
ran--
rapp--
ras--
rat--
ratou--
ratta--
rc--
rd--
re--
rec--
reche--
recher--
red--
rei--
rempliai--
ren--
renc--
rencont--
res--
respi--
ressuci--
ressus--
ret--
reu--
rg--
ri--
ria--
ric--
rim--
ris--
rit--
rli--
rman--
rmi--
rne--
ro--
ron--
ros--
rot--
rou--
rovin--
rre--
rri--
rs--
rsu--
rt--
rti--
ru--
rva--
rve--
ry--
s--
sa--
sac--
sae--
sagi--
sai--
sal--
san--
sanc--
sao--
sar--
satis--
sau--
savou--
sc--
scand--
sch--
sci--
scor--
se--
sec--
sei--
sen--
ser--
seur--
she--
shi--
sho--
si--
sia--
sie--
sieu--
sig--
signi--
sil--
sina--
sing--
sis--
sit--
ska--
ske--
sl--
sm--
so--
sochi--
sopho--
sor--
sou--
souff--
souo--
sp--
spi--
ss--
ssa--
ssi--
st--
sta--
ste--
sto--
stras--
stu--
su--
sue--
sul--
supe--
supp--
sur--
sus--
sw--
sy--
syl--
t--
ta--
tal--
tan--
tarsii--
tat--
tau--
tay--
tch--
tchu--
te--
tech--
tei--
tele--
ten--
ter--
tes--
teu--
th--
tha--
the--
thi--
tho--
ti--
tin--
tis--
to--
tol--
ton--
tor--
tou--
tour--
tous--
tra--
traduc--
trang--
trans--
trauns--
tre--
trei--
tres--
tri--
tro--
trou--
tru--
tt--
tu--
tur--
tvo--
ty--
u--
ue--
ui--
ul--
uly--
un--
uni--
ur--
us--
ut--
v--
va--
vacan--
vae--
vai--
val--
valouo--
van--
var--
vas--
vau--
ve--
vend--
ver--
ves--
veu--
vey--
vi--
via--
viend--
vin--
viol--
viole--
vir--
vis--
vit--
viva--
vlo--
vo--
vol--
volun--
vou--
vouai--
vu--
vul--
vy--
w--
wa--
wal--
we--
web--
wel--
wil--
win--
wit--
x--
xi--
y--
ya--
ye--
yi--
you--
yu--
yve--
z--
za--
zacha--
zam--
ze--
zh--
zi--
zo--
zu--
β--
γ--
δ--
ε--
κα--
καθ--
μ--
ν--
ο--
πα--
παν--
πο--
σ--
א--
--0
--00
--1
--2
--20
--3
--4
--45
--5
--57
--6
--7
--8
--9
--a
--aa
--ab
--abl
--able
--ac
--acion
--ad
--ade
--ado
--ae
--aer
--aez
--age
--agne
--ah
--ai
--aient
--ain
--aine
--aire
--aires
--ais
--aison
--ait
--ak
--aks
--al
--ald
--ale
--alis
--aliste
--am
--ama
--ampton
--an
--ance
--and
--ane
--ani
--anne
--ant
--ante
--aon
--aonne
--aons
--ar
--ard
--ary
--as
--at
--ata
--ate
--athi
--ation
--atus
--au
--aunche
--aunt
--aunte
--aunts
--aux
--ay
--ayne
--b
--ba
--be
--bl
--ble
--bles
--bo
--brata
--bu
--bury
--c
--ca
--cal
--ccio
--ce
--cens
--ces
--ch
--chains
--che
--ches
--chi
--chule
--ci
--cie
--cio
--ck
--cks
--cl
--co
--cot
--cq
--cs
--ct
--cta
--cte
--cteux
--ctif
--ctive
--cus
--cy
--d
--da
--dade
--dae
--dage
--dais
--de
--dea
--des
--di
--dia
--die
--dinave
--dis
--dit
--do
--dre
--dri
--ds
--dt
--dy
--e
--ea
--eau
--eaux
--ef
--ei
--eient
--eis
--eit
--ek
--el
--em
--ement
--en
--ence
--ense
--ent
--enue
--er
--ere
--erie
--ern
--ers
--es
--et
--eta
--eu
--eue
--euil
--eur
--eurs
--eus
--euse
--eusit
--eux
--ex
--ey
--ez
--f
--fan
--fe
--fert
--ffae
--fi
--fica
--fs
--ft
--g
--ga
--game
--gan
--gar
--ge
--geit
--gen
--ges
--get
--gh
--ght
--gi
--gie
--gis
--git
--gne
--gni
--go
--gos
--gs
--gu
--gue
--h
--ha
--ham
--he
--hem
--hes
--hete
--hi
--hie
--hien
--hing
--hit
--hl
--ho
--hon
--ht
--hu
--hyi
--i
--ia
--iae
--ian
--ianus
--ic
--ica
--ice
--ich
--icio
--ie
--ien
--iennes
--iens
--ient
--ier
--iers
--ies
--iet
--igne
--igny
--ii
--il
--ile
--ill
--ille
--illi
--illy
--im
--ima
--iment
--imus
--in
--ina
--ine
--ing
--ini
--inna
--inne
--ino
--ins
--inus
--io
--ion
--ions
--ioun
--ique
--ir
--ire
--is
--isae
--isation
--ise
--ish
--isie
--isit
--isme
--ison
--isons
--ist
--iste
--istes
--it
--itae
--itchi
--ite
--ithe
--ithes
--itre
--ium
--ius
--ive
--ix
--iz
--j
--ja
--je
--k
--ka
--ke
--ker
--ket
--kh
--ki
--krit
--ks
--l
--la
--lae
--lan
--lans
--las
--lbe
--ld
--le
--ler
--les
--let
--ley
--lf
--li
--lia
--lie
--lier
--lin
--lis
--lit
--lite
--lius
--lk
--ll
--lla
--llae
--llais
--lle
--llement
--lles
--lli
--llie
--llo
--llon
--lls
--lly
--lm
--lo
--logie
--lome
--lptae
--ls
--lt
--lu
--lum
--lus
--lut
--ly
--lyi
--lyirs
--m
--ma
--mae
--mas
--mb
--mbe
--mble
--me
--ment
--ments
--mi
--mie
--min
--mis
--mm
--mme
--mo
--mp
--mpre
--mps
--ms
--mune
--n
--na
--nae
--naer
--nais
--nal
--nale
--nant
--nay
--nc
--nce
--nche
--nci
--ncit
--ncu
--ncy
--nd
--ndae
--ndait
--nde
--nder
--ndra
--ndre
--ne
--nee
--ner
--nes
--ney
--ng
--nge
--ngi
--ngie
--ni
--nie
--nin
--nir
--nisme
--niste
--nit
--nn
--nne
--nnes
--no
--nqu
--nre
--ns
--nt
--nta
--nte
--ntes
--nti
--ntin
--ntion
--ntit
--ntre
--nts
--ntura
--nu
--num
--nus
--ny
--nyi
--nz
--o
--og
--oi
--ok
--ol
--ole
--oli
--om
--oms
--on
--ond
--ons
--opie
--or
--orum
--os
--ot
--othe
--ou
--oue
--oums
--oun
--ounae
--ouns
--our
--ous
--ov
--p
--pa
--pc
--pe
--pet
--phalon
--pi
--pie
--pit
--po
--ppe
--ps
--pt
--pu
--q
--qu
--que
--ques
--r
--ra
--rae
--raer
--rain
--rbe
--rd
--rdi
--re
--rea
--reient
--reit
--rent
--res
--reuil
--rg
--ri
--ria
--rie
--ries
--rii
--rn
--rne
--ro
--ron
--ros
--rri
--rs
--rt
--rto
--rts
--ru
--rui
--rum
--rus
--ry
--s
--sa
--sance
--sanche
--sch
--sco
--se
--see
--sel
--sent
--ses
--sh
--shire
--si
--sie
--sin
--sioun
--sit
--sive
--sme
--sne
--so
--son
--ss
--ssanche
--sse
--ssent
--ssion
--ssu
--st
--ste
--stes
--sti
--stique
--stre
--su
--sy
--t
--ta
--tae
--tan
--taunce
--te
--tent
--ter
--tes
--teu
--th
--the
--thes
--thi
--thie
--ti
--tie
--tif
--tifs
--tion
--tit
--tium
--to
--tor
--tot
--tr
--tre
--tria
--ts
--tt
--tta
--tte
--ttes
--tti
--tu
--tume
--tus
--ty
--tz
--u
--uae
--uc
--ud
--ude
--ue
--ueil
--uel
--ues
--ui
--uil
--ul
--ule
--ult
--um
--ume
--ums
--un
--unae
--unaer
--und
--ung
--unme
--uns
--unt
--unte
--unts
--ur
--ura
--uraer
--ure
--ures
--urs
--us
--use
--uses
--ut
--ute
--uthe
--uts
--ux
--v
--va
--vae
--vaer
--val
--ve
--ved
--ver
--ves
--vet
--vi
--vie
--vin
--vit
--vre
--w
--wi
--wn
--wy
--x
--xa
--xe
--xte
--y
--ya
--yamme
--yan
--yaunts
--yd
--ye
--yi
--yire
--yit
--yme
--yn
--yne
--ys
--yse
--z
--za
--ze
--zo
--zzo
--α
--ι
--λθο
--ν
--ο
--ρι
--ς
--ω
