!
"
#
##0
##1
##10
##11
##12
##13
##14
##15
##16
##17
##18
##19
##2
##20
##21
##22
##23
##24
##25
##26
##27
##28
##29
##3
##30
##31
##32
##33
##34
##35
##36
##37
##38
##39
##4
##40
##41
##42
##43
##44
##45
##46
##47
##48
##49
##5
##50
##51
##52
##53
##54
##55
##56
##57
##58
##59
##6
##60
##61
##62
##63
##64
##65
##66
##67
##68
##69
##7
##70
##71
##72
##73
##74
##75
##76
##77
##78
##79
##8
##80
##81
##82
##83
##84
##85
##86
##87
##88
##89
##9
##90
##91
##92
##93
##94
##95
##96
##97
##98
##99
$
%
&
'
(
)
*
+
,
-
.
/
0
00
000
0000
0001
0002
0003
0005
0006
0007
0008
0009
001
0010
0012
0013
0016
0017
0019
002
0020
0021
0027
003
0031
004
005
006
007
008
009
01
010
0102
0103
0104
0108
0109
011
0110
0111
0112
0114
0115
0116
0118
012
013
014
015
016
017
018
019
02
020
021
023
024
025
026
027
028
029
03
030
031
032
034
035
04
040
044
05
050
053
055
056
06
0601
063
07
070
08
09
090
097
1
10
100
1000
10000
1001
1002
1003
1005
1006
1009
101
1012
1013
1014
1015
1018
1019
102
1024
1025
1027
1028
103
1031
1032
1037
1039
104
1040
1041
1042
1046
1047
1048
105
1050
1051
1052
1054
1055
1056
106
1060
1063
1066
107
1072
1075
1077
108
1080
1081
1085
1086
1087
109
1099
11
110
1100
1101
1103
1107
1108
111
112
1120
1121
1122
1125
1126
1127
113
1130
1131
1135
1137
1138
1139
114
1145
1147
115
1150
1154
1155
1156
116
1161
1166
117
1170
118
1180
1185
1187
1189
119
1192
1194
1198
12
120
1200
1201
1204
1206
1207
1208
121
1210
1211
1213
1214
1215
1216
1218
1219
122
1223
1224
1225
1226
1227
123
1234
124
1241
1242
1246
1248
125
1250
1253
1254
1257
126
1260
1261
1264
1265
127
1270
1271
1274
1275
1276
1277
1278
1279
128
1280
1282
1285
129
1291
1294
13
130
1300
1301
1305
1308
131
1314
132
1320
1328
133
1330
1333
1336
1337
134
1340
1346
1347
1348
135
1350
1351
1355
1356
1357
1358
1359
136
1360
1362
1364
1367
1368
1369
137
1370
1371
1374
1377
1378
1379
138
1380
1381
1382
1385
1386
1388
1389
139
1392
1393
1396
1397
1398
1399
14
140
1400
1402
1404
1405
141
1411
1413
1415
142
1420
1421
1422
1425
1428
143
1430
1431
1433
1435
1437
1438
144
1440
1442
1443
1448
1449
145
1450
1451
1452
1453
1455
1456
1457
1458
146
1460
1461
1464
1465
147
1470
1471
1472
1474
1475
1477
148
1480
1481
1483
1485
1487
1488
149
1490
1491
1492
1493
1494
1497
1498
1499
15
150
1500
1501
1502
1503
1504
1505
1506
1507
1509
151
1510
1511
1512
1513
1514
1515
1516
1517
1519
152
1520
1521
1522
1523
1524
1525
1526
1527
1528
1529
153
1530
1531
1532
1533
1534
1535
1536
1537
1539
154
1540
1541
1542
1543
1544
1545
1546
1547
1548
1549
155
1550
1551
1552
1553
1554
1555
1556
1557
1558
1559
156
1560
1561
1562
1563
1564
1565
1566
1567
1568
1569
157
1570
1571
1572
1573
1574
1575
1576
1578
1579
158
1580
1581
1582
1583
1584
1585
1586
1587
1588
1589
159
1590
15919
1592
1593
1594
1595
1596
1597
1598
1599
16
160
1600
1601
1602
1603
1604
1605
1606
1607
1608
1609
161
1610
1611
1612
1613
1614
1615
1616
1617
1618
1619
162
1620
1621
1622
1623
1625
1626
1627
1628
1629
163
1630
1631
1632
1633
1635
1636
1637
1638
1639
164
1640
1641
1642
1643
1644
1645
1646
1647
1648
1649
165
1650
1651
1652
1654
1655
1657
1658
1659
166
1660
1661
1662
1664
1665
1666
1667
1668
1669
167
1670
1672
1673
1674
1675
1676
1677
1678
1679
168
1680
1681
1682
1683
1684
1685
1686
1687
1688
1689
169
1690
1691
1693
1694
1695
1696
1697
1699
17
170
1700
1701
1702
1703
1704
1705
1706
1707
1708
1709
171
1710
1711
1712
1713
1714
1715
1716
1717
1718
1719
172
1720
1721
1722
1723
1724
1725
1726
1727
1728
1729
173
1730
1731
1732
1733
1734
1735
1736
1737
1738
1739
174
1740
1741
1742
1743
1744
1745
1746
1747
1748
1749
175
1750
1751
1752
1753
1754
1755
1756
1757
1758
1759
176
1760
1761
1762
1763
1764
1765
1766
1767
1768
1769
177
1770
1771
1772
1773
1774
1775
1776
1777
1778
1779
178
1780
1781
1782
1783
1784
1785
1786
1787
1788
1789
179
1790
1791
1792
1793
1794
1795
1796
1797
1798
1799
18
180
1800
1801
1802
1803
1804
1805
1806
1807
1808
1809
181
1810
1811
1812
1813
1814
1815
1816
1817
1818
1819
182
1820
1821
1822
1823
1824
1825
1826
1827
1828
1829
183
1830
1831
1832
1833
1834
1835
1836
1837
1838
1839
184
1840
1841
1842
1843
1844
1845
1846
1847
1848
1849
185
1850
1851
1852
1853
1854
1855
1856
1857
1858
1859
186
1860
1861
1862
1863
1864
1865
1866
1867
1868
1869
187
1870
1871
1872
1873
1874
1875
1876
1877
1878
1879
188
1880
1881
1882
1883
1884
1885
1886
1887
1888
1889
189
1890
1891
1892
1893
1894
1895
1896
1897
1898
1899
19
190
1900
1901
1902
1903
1904
1905
1906
1907
1908
1909
191
1910
1911
1912
1913
1914
1915
1916
1917
1918
1919
192
1920
1921
1922
1923
1924
1925
1926
1927
1928
1929
193
1930
1931
1932
1933
1934
1935
1936
1937
1938
1939
194
1940
1941
1942
1943
1944
1945
1946
1947
1948
1949
195
1950
1951
1952
1953
1954
1955
1956
1957
1958
1959
196
1960
1961
1962
1963
1964
1965
1966
1967
1968
1969
197
1970
1971
1972
1973
1974
1975
1976
1977
1978
1979
198
1980
1981
1982
1983
1984
1985
1986
1987
1988
1989
199
1990
1991
1992
1993
1994
1995
1996
1997
1998
1999
2
20
200
2000
20000
2001
2002
2003
2004
2005
2006
2007
2008
2009
201
2010
2011
2012
2013
2014
2015
2016
2017
2018
2019
202
2020
2021
2022
203
2030
204
205
206
207
208
209
21
210
2100
211
212
213
214
215
216
217
218
219
22
220
2200
221
222
223
224
225
226
227
228
229
23
230
231
232
233
234
235
236
237
238
239
24
240
2400
241
242
243
244
245
246
247
248
249
25
250
2500
2501
251
252
253
254
255
256
257
258
259
26
260
2600
261
262
263
264
265
266
267
268
269
27
270
2700
271
272
273
274
275
276
277
278
279
28
280
281
282
283
284
285
286
287
288
289
29
290
291
292
293
294
295
296
297
298
299
3
30
300
3000
3001
301
302
303
304
305
306
307
308
309
31
310
311
312
313
314
315
316
3166
316846592
317
318
319
32
320
3200
321
322
323
324
325
326
327
328
329
33
330
3300
331
332
333
334
335
336
337
338
339
34
340
341
342
343
344
345
346
347
348
349
35
350
3500
351
352
353
354
355
356
357
358
359
36
360
3600
361
362
363
364
365
366
367
369
37
370
3700
371
372
373
374
375
376
377
378
379
38
380
381
382
383
384
385
386
387
388
39
390
391
392
393
394
395
396
397
398
399
4
40
400
4000
401
402
403
404
405
406
407
408
41
410
411
412
413
415
416
417
418
419
42
420
421
4217
422
424
425
426
427
428
429
43
430
431
432
433
434
435
436
437
438
439
44
440
441
442
443
444
445
447
448
45
450
4500
451
452
453
454
455
456
457
458
459
46
460
461
462
463
464
465
466
467
468
47
470
471
472
473
474
475
476
477
478
479
48
480
481
482
483
484
485
486
49
490
492
493
494
495
496
498
499
5
50
500
5000
501
502
503
504
505
506
507
508
509
51
510
511
512
513
514
515
516
517
518
519
52
520
521
522
523
524
525
526
527
528
529
53
530
531
532
533
534
535
536
537
538
539
54
540
542
543
544
546
547
549
55
550
551
552
553
554
555
556
557
558
559
56
560
561
562
563
565
566
567
568
569
57
570
571
572
573
574
575
576
577
578
579
58
580
581
582
583
584
586
587
588
589
59
590
591
592
593
594
595
596
598
599
6
60
600
6000
601
602
603
604
605
606
607
608
609
61
610
614
617
618
619
62
620
621
622
623
624
625
626
627
628
629
63
630
631
632
634
635
636
637
638
639
64
640
641
642
644
645
646
649
65
650
651
652
654
655
656
657
658
659
66
660
661
662
663
665
668
67
670
672
674
675
678
68
680
681
682
683
684
685
686
688
69
690
691
692
694
695
697
7
70
700
7000
701
702
704
705
706
707
708
71
710
711
71118
712
713
714
715
716
717
718
719
72
720
721
722
725
727
73
730
731
732
733
734
735
736
737
738
739
74
740
741
742
744
745
746
747
748
75
750
751
752
753
754
755
756
757
758
759
76
760
761
762
763
765
766
767
768
769
77
770
771
772
773
774
775
776
777
778
779
78
780
786
787
788
789
79
790
791
792
793
794
795
796
799
8
80
800
8000
802
803
804
805
806
80665
807
809
81
810
811
813
814
815
816
817
82
820
821
825
827
828
83
830
8316846592
833
835
837
838
839
84
840
842
843
845
846
847
848
85
850
852
854
855
856
857
858
859
86
860
862
864
867
868
869
87
870
873
874
875
876
877
879
88
880
881
882
883
884
885
8859
886
887
888
889
89
890
891
892
893
894
895
896
897
898
899
9
90
900
9000
901
902
903
904
905
907
908
909
91
910
911
912
913
914
917
918
919
92
920
921
923
925
926
927
928
929
93
930
931
932
933
934
935
936
937
938
939
94
940
941
942
943
944
945
946
947
948
95
950
951
953
954
955
957
958
959
96
960
961
962
963
964
965
968
97
970
971
972
973
974
975
976
977
978
979
98
980
983
984
985
986
987
989
99
990
991
992
995
996
997
998
999
:
;
<
=
>
?
@
\
^
_
`
a
aa
aaa
aaaa
aab
aaf
ab
aba
abbr
abbreviation
abby
abc
abd
abdul
abdullah
abe
about
above
abraham
abs
abu
ac
academy
accent
accept
access
accessdate
accessed
according
account
ace
acid
acre
act
action
actress
acute
ad
adam
adams
add
addclass
added
addon
adelaide
adj
administration
adobe
adolf
advance
advanced
adventure
ae
af
aff
affairs
afi
africa
african
after
ag
against
age
agency
agta
ah
ai
ain
air
airlines
airport
airways
aise
aix
ak
aka
al
ala
alan
alba
albanian
albert
alberto
albrecht
album
alef
alexander
alexandre
alfred
ali
alias
aliases
aliasesp
alice
align
all
allen
allowed
allows
almost
alpha
alphabet
already
also
alt
alternate
alternative
always
am
amazon
ambox
ame
america
american
amount
amsterdam
amy
an
ana
analysis
anatomy
anchor
ancient
and
anderson
andre
andrea
andreas
andrew
android
andy
ang
angeles
angle
ann
anna
anne
another
anthony
anticlockwise
antoine
antonio
anusvara
any
anything
ao
ap
apache
apg
api
apl
apollo
app
apple
applied
april
ar
ara
arab
arabian
arabic
aramaic
arc
arch
architecture
archive
archived
archiveurl
are
area
arg
argentina
argnumber
args
argsk
argument
arguments
arm
armenian
arms
army
around
array
arrow
arrowhead
arrows
art
arthur
article
articles
arts
arxiv
ary
as
ascii
ash
ashe
asia
asian
asin
ask
asp
assembleoutput
assembly
associated
association
assume
asterisk
astronomy
at
atc
atlas
atm
atoll
atomic
atp
attr
au
audio
auf
augsburg
august
augustus
aurelius
austin
australia
australian
author
authority
authors
auto
autoconfirmed
automatically
autoreview
av
available
avenue
avoid
award
awards
ax
ay
ayta
az
b
ba
baa
bach
back
background
bad
baden
bae
bahnhof
bai
bal
bali
balinese
ball
ban
banda
bang
bangkok
bank
banking
banner
bannertemplate
baptiste
bar
barb
bare
baron
barred
bas
base
based
basel
basic
bass
bat
batak
bath
battle
bay
bazaar
bb
bbc
bbs
bc
bca
bce
bd
be
beach
bec
because
bee
been
before
beh
bei
beijing
being
bel
bell
below
ben
benedictus
beng
bengali
benjamin
ber
bergen
berhad
berkeley
berlin
bernard
best
beta
between
beyond
bf
bg
bh
bha
bi
big
bikol
bill
billion
bin
binary
biography
bird
bishop
bit
black
blackfoot
blacklist
blank
blica
block
blocks
blog
blood
blue
blurb
bn
bo
board
bob
bod
body
boinc
bold
book
books
boolean
boomerang
borbo
border
borough
boss
both
bottom
box
boxargs
boy
br
bracket
brackets
bradley
braille
branch
brassica
brazil
break
breve
brian
bridge
bridges
britain
britannica
british
broadcasting
broken
bros
brown
bruce
bsd
btu
bu
buddha
bug
buginese
buhid
build
builder
building
bulgaria
bulgarian
bullet
bureau
burton
bus
business
but
button
bwv
by
byte
c
ca
cache
caf
cal
calendar
california
call
called
cam
cambridge
cameroon
campus
can
canada
canadian
candidate
candra
cannot
cap
cape
capital
captain
caption
car
cardinal
caribbean
carl
carlos
carolina
caron
carrier
cartography
cas
case
cases
castle
cat
catalan
catedral
categories
category
categoryhandler
cathedral
catherine
catholic
cats
cause
cb
cbe
cbs
cc
cctld
cd
cdot
cdots
ce
cedilla
celebrated
cell
census
center
central
centre
century
ceo
cf
cfa
cff
cfg
ch
cha
chad
chain
cham
championship
chan
chang
change
changes
channel
chapter
chapterurl
character
characters
charles
charlotte
che
check
checknumandaddsuffix
checks
checkself
checktype
chemical
chemistry
chen
cherokee
chess
chi
chiang
chicago
chiki
child
children
chin
china
chinantec
chinese
chn
cho
chopin
choseong
chr
chris
christian
christianity
christine
christmas
christopher
chu
chung
church
ci
cia
cin
circa
circle
circled
circuit
circumflex
circus
citation
citationclass
cite
citeparams
citrus
city
ciudad
civil
civilization
cjk
cl
claim
claims
clark
class
classes
classical
claude
claudia
claw
clay
cle
clean
clear
clemens
climate
clockwise
close
closed
cloud
club
cm
cmbox
cn
cnn
co
coast
coauthors
code
codepoint
codes
cohen
coins
col
collapse
collection
collective
college
colombia
colon
color
colspan
colstyle
columbia
com
combination
combining
come
comma
command
commas
commentary
commerce
commercial
commission
commodore
common
commons
commonwealth
communication
communications
community
company
compare
compatibility
complete
complex
composite
computer
computing
con
concat
concepts
conf
conference
config
configuration
congo
congress
conj
connor
console
consonant
constitution
contae
contain
containing
contains
contemporary
content
contest
context
control
convention
convert
cooh
cook
coord
coordinate
coordinates
coords
coptic
copy
core
corner
cornish
corporate
corporation
corps
correction
correctness
corresponding
cos
could
council
count
counter
country
county
court
cow
cp
cpu
cr
crc
create
creative
cree
creole
crh
cricket
crisis
cropped
cross
crossing
crystal
cs
cscr
css
csstext
cu
cuba
cuft
cuin
cultural
culture
cup
cur
curl
curly
currency
current
currently
curstate
customary
cutter
cuyd
cvt
cyrillic
cyrl
d
da
daa
dab
dai
daily
dal
dam
dame
dan
daniel
danny
dans
dar
dark
das
dash
dasia
data
database
dataset
datatype
datavalue
date
datecode
datenum
dates
datestr
datestuff
datetime
datevec
daughter
dave
david
davis
dawn
day
days
db
dbe
dc
dd
dda
de
dead
deal
death
debian
debug
dec
decade
december
decimal
decimals
decyear
default
defaults
define
defined
definition
degree
degrees
dei
del
delete
della
delta
dem
democratic
demospace
den
dennis
denominator
dentistry
departamento
department
depend
dependencies
depending
deprecated
depth
deputy
der
des
desc
descender
description
descriptions
design
detail
details
detect
detected
deutsche
deva
devanagari
development
device
df
dff
dfsg
dha
di
diaeresis
diagonal
dialect
dialytika
diamond
diana
dictionary
die
diego
diff
difference
different
digit
digital
digits
dil
din
dingbat
dir
directly
directory
disc
discussion
disease
disorder
disp
display
displayed
district
div
divided
division
dj
dl
dlc
dlen
dm
dms
dna
dns
do
doc
doctitle
documentation
does
doesn
dog
dogon
doi
dollar
dom
domain
don
donald
done
dong
donum
dos
dot
dots
dotted
double
douglas
dover
down
downwards
dr
draft
dragon
drake
draq
drawings
dream
dreamcast
drive
dry
drygal
ds
dt
du
dubai
dublin
duc
due
duke
dunam
duration
during
dutch
dv
dvd
dynasty
dz
dztwo
e
ea
each
earl
earlier
early
earth
east
eastern
eb
ec
eclipse
economic
economy
ed
ede
edit
editing
edition
editor
editorial
editors
edo
eds
edu
education
edward
ee
eea
ef
effect
egypt
egyptian
eh
ei
eid
eight
either
ek
el
elections
electric
electronic
electronics
element
elements
elizabeth
else
elseif
em
embargo
emblem
emperor
empire
emptiness
empty
en
encode
encyclopaedia
encyclopedia
encyclopædia
end
energy
eng
engine
engineering
england
english
entertainment
entity
entityid
entrance
entry
env
environment
eo
ep
epic
episode
epsilon
equal
equals
equivalent
equus
er
era
eric
ernest
ernst
err
error
errororentity
errors
errortext
es
escape
espan
est
estado
et
eta
etc
ethi
ethiopic
ethnologue
eu
euro
europe
european
eurovision
ev
eva
eve
even
event
evil
ew
ex
example
exception
exceptions
exchange
exist
exists
exo
experiment
expiry
explanation
explicitly
explorer
exponent
express
expression
expwy
ext
extended
extension
external
externallink
extinction
extra
extract
eye
ez
f
fa
faa
face
facebook
fact
factor
failed
fails
falcom
fall
fallback
falls
false
family
famname
fan
fantasy
far
fb
fc
fd
fdate
fe
featured
february
federal
federation
felipe
felix
female
ferdinand
fernando
ff
ffe
fff
fi
field
fieldname
fields
fifa
fight
file
filelink
filename
fill
film
final
finance
financial
find
findlang
fire
first
fish
five
fix
fl
flag
flags
flash
flavius
flip
float
flood
floor
florida
fm
fmbox
fmt
fo
following
fon
font
foo
foot
football
for
force
forces
ford
foreign
forest
form
format
formatdate
formatnum
formats
formatted
former
forms
fort
forum
forward
found
foundation
four
fox
fp
fr
fra
frac
fraction
fragment
frame
frameless
franc
france
francesco
francis
francisco
frank
frankfurt
franklin
franz
fre
frederick
free
french
friedrich
frisian
from
front
frs
ft
fu
fuji
fulfulde
full
fullurl
func
funcname
function
functional
functions
future
fx
g
ga
gabriel
gaius
gal
gali
gallery
game
gamecube
games
gamma
gan
garci
garden
gary
gas
gate
gaza
gb
gbaya
gbe
gdp
ge
gear
gen
gender
gene
general
generate
generated
generation
geo
geomask
georg
george
georges
georgia
georgian
gerard
german
germany
get
getargs
getbeststatements
getcontentlanguage
getcurrentframe
getcurrenttitle
getentity
getentityidforcurrentpage
getenvironment
getexpandedmessage
getlabel
getopt
getparametervalue
getparent
gets
getsitelink
getvalue
gha
ghe
ghz
gi
gia
giant
gif
gion
giovanni
girl
girls
giuseppe
given
gives
gj
gje
gl
glagolitic
glen
global
globe
glottal
gn
gnome
gnu
go
god
goes
gogh
gold
golden
gondi
gone
gong
good
google
gordon
got
gov
government
goya
gpl
gr
grace
graduate
graham
gran
grand
grande
grant
grass
grave
gray
grc
great
greater
greatest
greece
greek
green
gregorius
grek
group
groups
gsub
gt
gu
guarani
guerra
gui
guide
guillaume
guinea
gujarati
gujr
gulf
gurmukhi
guru
gustav
h
ha
had
hai
haitian
hal
half
hall
hamilton
hamza
han
hand
handbook
handle
handled
handler
hang
hangul
hani
hanoi
hans
hant
hanunoo
haplogroup
hard
harold
harpoon
harry
has
hash
hat
hatnote
have
hbo
he
head
headed
header
heading
health
heart
heat
heavy
hebr
hebrew
height
heilongjiang
heinrich
helen
helena
hello
help
helper
henri
henry
her
here
hermann
heroes
hh
hi
hidden
hide
hieuh
high
highland
highway
hill
his
historical
history
hit
hiver
hk
hl
hm
hmong
hms
ho
hokusai
holy
home
homepage
homo
hong
hook
hooks
horizontal
horn
horse
hospital
hot
hotel
hour
house
how
howard
hp
hr
hsb
htm
html
htmlbuilder
http
https
hu
hua
hudson
hugh
hugo
huishui
human
hundred
hyphen
hyphenated
hz
i
ia
ian
iana
iast
iata
ibm
ibn
ic
icao
ice
icon
id
ideograph
ideographic
ideographs
ids
idx
ie
iec
ieee
ietf
ieung
if
ignatius
ignore
ignored
ii
iii
il
ilh
ili
illustrated
im
image
imageleft
imageright
images
imax
imbox
imdb
imf
imperial
impgal
implements
implied
impoz
in
ina
inarray
inc
include
included
includes
including
indef
independence
independent
index
india
indian
indians
indic
individual
indo
indonesia
industrial
industry
ine
info
infobox
information
inherit
initial
inline
inn
inout
input
ins
insert
inset
inside
instead
institute
int
integer
integral
intel
interactive
interface
internal
international
internationale
internet
intersection
interview
into
intro
introduction
invalid
invert
inverted
invoke
io
ioannes
ios
iota
ip
ipa
ipairs
iphone
ipv
ir
ireland
irish
iron
irt
is
isaac
isbn
islamic
island
islands
isn
isnegative
isnotempty
iso
isodate
isp
israel
israeli
issn
issue
istat
it
italian
italic
italics
italy
item
itemid
items
iterate
its
itv
iu
iupac
iv
ix
iz
j
ja
jack
jackson
jacob
jacques
james
jan
jane
january
japan
japanese
jason
java
javascript
javier
jay
je
jean
jeffrey
jennifer
jenny
jersey
jerusalem
jeux
ji
jian
jie
jim
jn
jo
joan
joe
johann
johannes
john
johnny
johnson
join
joins
jonathan
jones
jongseong
jose
josef
joseon
joseph
journal
jp
jpg
jr
ju
juan
judeo
judet
jules
julia
julian
julius
july
jump
jun
june
jungseong
just
justice
jyp
k
ka
kai
kalinga
kan
kana
kangxi
kannada
kara
karen
karl
kate
kathedrale
kayan
kb
kbe
kbs
kcal
kde
ke
keep
kei
keith
ken
kennedy
kenneth
kenya
kepler
kevin
key
keys
kg
kgf
kha
khan
khar
khmer
kho
ki
kilmore
kim
king
kingdom
kinglake
kiyeok
kj
kl
km
kn
knda
know
known
ko
koet
koh
kok
komi
kon
kong
korea
korean
kota
kpa
kr
kraj
ku
kv
kw
kwh
ky
kyo
kyoto
l
la
label
labelorid
lac
lady
lago
lai
lake
lam
lama
land
lang
langcode
langobj
language
languagecode
languages
lao
laoo
large
larry
las
last
lat
late
later
latin
latn
laura
law
lawrence
laws
lay
lb
lbf
lbl
lbmol
lccn
lcd
ldots
le
leading
league
learning
least
led
lee
leek
left
leftwards
legacy
legal
legend
lei
lek
len
length
leo
leon
leonard
leonardo
leopold
lepcha
leq
les
less
lester
let
letter
letters
level
lewis
lez
lhs
li
lib
library
libraryutil
license
lie
life
ligature
light
ligne
like
lim
limbu
limit
limited
line
linear
linedatemessage
lines
lineterminalname
linetitle
ling
linguistics
link
linked
links
linktext
linux
lio
lisa
list
listnum
lists
listtype
lit
little
liu
live
living
lix
lk
ll
lla
llc
lm
ln
lo
loaddata
loc
local
location
log
logic
logical
logo
london
long
look
looking
lookup
loop
lord
los
lost
lotus
lou
louis
louise
love
low
lower
lt
ltd
ltf
lu
lua
luang
ludwig
lue
lui
luis
lum
lv
ly
lyon
m
ma
maakond
mac
macau
macedonia
mach
machine
macmillan
macrolanguage
macron
made
madrid
mae
mag
magazine
magic
maha
mai
main
mainsnak
major
make
makes
makeurllink
makewikilink
making
malagasy
malay
malayalam
malaysia
male
man
management
manchu
mandaic
manga
manobo
manual
manuel
many
map
mappings
maps
mar
marc
march
marcus
margaret
margin
mari
maria
marie
marino
mario
mark
marker
market
marks
markt
markup
mars
marshall
marti
martin
mary
mashan
mask
mass
master
match
matches
matching
math
mathbf
mathematical
mathematics
mathrm
matrix
matt
matthew
maurice
max
maximum
maxvals
may
maya
mazatec
mbc
mbe
mbox
mbps
mbtu
mc
mcal
md
me
mean
means
medal
media
mediawiki
medical
medicine
medieval
medium
mega
mei
melbourne
memorial
memory
men
mer
message
messages
meta
metal
metatable
method
metric
metro
metropolitan
mg
mgo
mh
mi
miami
miao
michael
michel
michelle
microsoft
mid
middle
midway
mie
mieum
might
miguel
mike
mile
milenge
military
millennium
miller
million
milton
min
mind
ming
mini
minister
ministry
minix
minor
mint
minus
minute
minutes
mirror
miss
missing
mit
miwok
mixe
mixtec
mj
mk
ml
mm
mmbtu
mn
mo
mobile
mod
mode
model
modern
modifier
module
modules
mof
moi
mol
moment
mon
money
mong
mongolian
mono
monster
mont
montage
monte
month
months
moon
more
morgan
morning
moscow
mosque
most
motacilla
motor
mount
mountain
mountains
move
movement
movie
mozilla
mp
mpa
mpgimp
mpgus
mph
mr
mrt
ms
msg
mshared
msx
mt
mtavruli
mu
muh
muhammad
multiple
multiplication
multiplier
mumbai
municipal
municipio
murder
murray
murrindindi
muse
museum
music
musical
muslim
must
mv
mw
my
myanmar
myth
n
na
nacional
naga
nahuatl
nakhon
nam
name
named
names
namespace
namespaces
nan
narbethong
nasa
nasdaq
naskapi
nation
national
nations
natural
nature
navbar
navbox
navy
nb
nba
nbc
nchen
nchez
ncia
nd
ndates
nde
nds
ne
near
nec
necessary
need
needed
needs
negative
neil
nelson
neo
nepal
net
network
never
new
newline
news
newton
next
nez
ng
nga
ngc
ngo
ngu
nguye
nh
nha
nhk
ni
niagara
nian
nic
nicholas
nick
nicolas
nie
nieun
nigeria
night
nihon
nil
nile
nin
nine
ninka
nintendo
nio
nippon
nko
nl
nm
nmi
nn
nna
no
nocat
node
non
none
nong
noon
nor
nord
normal
norman
norte
north
northern
northwest
northwestern
norton
norwegian
not
notation
note
notes
noteta
nothing
notice
notre
nova
november
now
nowiki
nr
ns
nt
nths
nu
nubian
nuclear
num
number
numbers
numdot
numeral
numerator
numeric
nums
numsep
ny
nya
nyata
nyse
o
obe
obj
object
objects
oblast
oc
occitan
ocean
ocinsoutput
oclc
oct
october
oe
of
off
office
official
offset
og
ogham
ogonek
oh
oil
ois
ojibwa
ok
okrug
ol
old
oldid
oliver
olivier
olympiad
olympiade
olympic
olympiques
om
omega
omicron
on
one
online
only
onlysourced
onlysrc
oo
op
open
opening
opera
operation
operator
opt
option
optional
options
or
orange
order
ordered
ordinal
org
organisation
organization
origargs
origin
original
oriya
ornament
orthodox
orthography
orya
os
oscar
osi
other
others
otherwise
otomi
otto
ou
our
out
outinfo
output
outside
over
overlay
override
overseas
oxford
oxia
oz
ozt
p
pa
pablo
pacific
pad
padding
padlock
page
pagename
pages
pagetype
pairs
palace
palatal
pali
palm
pam
pan
panama
panorama
papua
par
para
paradox
param
parameter
parameterfuncs
parameters
params
paramsaliasesp
parc
parent
parenthesis
parenthesized
pargs
paris
park
parker
parm
parms
parsedformat
parseinput
parseparam
part
partial
parts
party
pas
pass
passed
patent
path
patricia
patrick
pattern
patterns
paul
pc
pcall
pd
pdf
pe
peace
pearl
pedro
peer
pei
pen
penguin
peninsula
people
per
performance
period
periodical
periods
perispomeni
persian
person
personal
peru
peter
pf
ph
pha
phak
phi
philip
philippe
philosophy
phir
pho
phoenix
phone
phonetic
photo
photos
php
phra
phu
physical
physics
pi
pictures
pid
pidgin
pie
piece
pierre
pietro
pieup
ping
pius
pixel
pl
place
plain
plane
planet
plant
play
playstation
plaza
please
plural
plus
pm
pmc
pmid
png
po
podcast
poem
point
pointed
pointing
police
policy
political
politics
pomo
pop
popoloca
popular
population
por
port
portable
portal
portals
porto
portrait
portugal
portuguese
pos
position
positional
positive
possible
possibly
post
postfix
postscript
potter
pound
pour
power
pp
pr
pra
prag
prajn
pram
pre
prec
precedes
precision
preferred
prefix
prefixed
prefixedtext
prefixes
preload
preprocess
preprocesssinglearg
present
press
preunit
preview
previous
primary
prime
primeval
prince
princess
print
private
prize
pro
process
processing
produce
product
productions
professional
profile
program
project
prop
properties
property
propertyid
propertyvalue
props
prosgegrammeni
protected
protection
protectionlevels
protectionobj
proto
protocol
provi
provided
provides
province
provinces
provincia
ps
psi
psili
psychology
pt
pu
public
publicationdate
publicationplace
publications
publique
published
publisher
publishername
publishers
publishing
puebla
puerto
punctuation
put
pwo
px
pxthumb
python
q
qa
qaq
qi
qid
qnumber
qt
qu
qua
quad
quadrant
quagga
qualid
qualifier
qualifiers
quarter
que
quechua
queen
queensland
quest
question
qui
quic
quichua
quo
quotation
quote
quotes
r
ra
radical
radio
radius
rafael
rai
rail
railway
rain
ram
ramita
random
range
ranges
rank
rankpos
ranks
rapid
rare
rathaus
rather
ration
raw
ray
raymond
rc
rd
re
reach
read
real
reason
record
records
red
redirect
redundant
ref
reference
references
regexp
regio
region
regional
regular
reh
reid
related
released
remove
removed
ren
render
rene
rep
replace
report
repr
repu
republic
republika
reqns
reqranks
request
requested
require
required
rer
res
research
resolution
resource
respublika
result
results
ret
retrieved
retroflex
return
returned
returns
reverse
reversed
review
revolution
rex
rez
rfc
rft
rho
rhs
ri
ribbon
ric
rica
ricci
rice
rich
richard
rieul
right
rights
rightwards
rilke
ring
rio
risc
rise
rising
river
rk
rm
rn
rna
ro
road
robert
robinson
roc
rock
rockstar
roger
rom
roma
roman
romance
romani
romanian
romano
rome
ron
ronald
root
rose
round
rounded
routledge
row
rowargs
roy
royal
rpg
rr
rtl
ru
rubin
rudolf
rule
rules
run
runic
russell
russia
russian
ryan
s
sa
sae
saint
salmon
salt
salvador
sam
samaritan
same
sami
samuel
san
sanctus
sandbox
sandboxtitle
sanqingshan
sans
sant
santa
santiago
santo
santos
sao
sar
sara
sarah
sardinian
satellite
sativa
say
sayisi
sbs
sc
scale
schloss
school
science
sciences
scientific
scotia
scotland
scott
scottish
screen
script
scriptcode
scripts
scwt
se
sea
search
season
sec
second
secondary
seconds
secret
section
security
see
seen
seg
sega
self
semi
sen
senoufo
seoul
sep
separate
separated
separator
separators
sepc
september
series
serif
server
service
set
seterror
setmetatable
setranks
sets
setting
seven
sex
sg
sh
sha
shadow
shah
shakespeare
shan
shanghai
shape
she
shell
shi
shift
shin
shire
sho
shopping
short
shortname
should
show
shtml
shu
si
siam
sibe
side
sie
sierra
sigfig
sigma
sign
significant
silent
silva
silver
similar
simon
simple
simplified
sin
since
sing
singapore
single
singular
sinh
sinhala
sint
sio
sios
sir
site
sitelink
six
size
sk
ska
ski
skip
sky
skyline
sl
slanted
slash
slavic
sleep
sm
small
smith
sn
snak
snaks
snaktype
snk
so
soccer
social
society
sofia
soft
software
sol
solar
solid
solidus
solomon
some
something
son
song
sonic
sony
sophie
sort
sortable
sorted
sortkey
sound
source
sourced
south
southeast
southeastern
southern
southwestern
sp
space
spaces
spacing
spain
span
spanish
spec
special
specific
specified
specify
speech
speed
speedy
spell
spelling
spider
split
sport
sports
spring
springs
sq
sqft
sqin
sqkm
sqmi
sqrt
square
squared
sr
sri
ss
ssa
st
stadium
stadt
stand
standard
standards
stanley
star
start
state
statement
statements
states
statesparameters
station
stationlink
statistics
statue
std
steam
steel
step
stephen
steve
steven
stewart
stf
still
stock
stone
stop
store
story
str
strait
strange
stranger
strathewen
street
string
strings
strip
stroke
struck
structure
stt
stuart
studies
studio
studios
study
stuttgart
style
styles
su
sua
sub
subdivs
subject
subjectspace
subjoined
subpage
subpages
subscript
subset
substitute
subtables
subtags
subunit
success
such
sudan
suffix
suit
sultan
sum
summary
summer
sun
sundanese
sunday
sunset
super
superscript
superset
supplement
supplied
support
supported
suppressed
sur
sure
suthep
sv
svg
swift
swiss
switch
sword
sy
sydney
syllabics
syllable
sym
symbol
symbols
syndrome
syriac
system
systems
sɿ
t
ta
tab
table
tables
tack
tafe
tag
tagalog
tagbanwa
tags
tah
tai
tail
taiwan
take
takes
tale
talk
tam
tamil
taml
tan
tang
tanzania
tarask
target
tat
tau
taxi
taylor
tbl
tbs
tc
tcl
tcp
td
te
team
tech
technical
technologies
technology
teke
tel
television
telu
telugu
temp
tempel
template
templates
templatetitle
temple
ten
tennis
term
terminal
terra
territory
test
testcases
testcasestitle
testing
texas
text
textrm
textstyle
tf
tfrac
th
tha
thaana
thai
thailand
tham
than
that
the
theatre
their
them
then
theodor
theory
there
these
theta
they
thi
thie
things
third
this
thispage
tho
thomas
thomson
those
thousand
three
through
thu
thumb
thumbnail
ti
tibetan
tie
tifinagh
tiger
tikeut
tilde
till
tim
time
times
timestamp
timezone
timor
timothy
tin
tip
title
titlelink
titleobj
titletype
tj
tl
tls
tnt
to
todo
together
tokyo
tom
tomb
ton
tone
tonne
tonos
tonumber
tony
tooltip
top
topic
torii
torres
tortoise
tostring
total
totonac
tour
tourism
tourist
towards
tower
town
toyota
tr
tra
track
tracking
trade
trailing
train
trans
transchapter
transgender
transit
transl
translate
translated
translation
translit
transliteration
transport
transtitle
tre
treaty
tree
triangle
trim
trinidad
triple
tristan
tro
true
truth
try
ts
tsa
tse
tsi
tsiz
tsunami
tta
ttha
tu
tung
turkish
turn
turned
tv
tvb
tvn
tw
twelve
twice
twitter
two
type
types
u
ua
ubuntu
udp
ue
uefa
ug
ui
uk
ul
un
unc
und
under
underbar
une
unicode
unified
union
unit
unitcode
united
units
unity
universal
universe
universita
university
unix
unknown
unless
unnamed
unset
until
unusual
up
update
upper
upright
upsilon
upwards
ur
uri
url
us
usa
usage
usdrygal
use
usecase
used
user
userbox
users
uses
usfloz
usgal
using
usoz
ustring
usual
ut
utc
utype
uu
v
va
val
vale
valid
validate
valinfo
valle
valley
vals
value
values
valuesarray
van
vandalism
var
varia
variable
variables
variant
vatican
ve
vec
vedic
venezuela
venus
version
vertical
very
vi
via
victor
victoria
victorian
video
vie
vietnam
view
views
vii
viii
villa
vincent
vinci
violence
virama
virgin
virtual
visarga
visual
vo
vocalic
vol
volapu
volume
vom
von
vote
vowel
vs
vu
vulgar
vulgaris
vvvf
w
wa
wai
wales
walk
walker
wall
walter
wan
wang
want
wanted
war
warning
warrandyte
wars
was
washington
wat
watch
water
watt
wave
waverley
waw
way
wayne
we
web
website
webster
wedding
wei
well
wells
welsh
were
west
western
what
when
where
whether
which
while
white
whitelist
whitespace
who
whole
wholestr
why
wi
wide
width
wien
wii
wik
wiki
wikibase
wikidata
wikilink
wikimedia
wikipedia
wikitext
wilhelm
will
willem
william
williams
wilson
wind
windows
wine
winter
with
within
without
wo
wojewo
wolf
wolfgang
woman
women
won
wong
woods
word
words
work
works
world
would
wp
wrap
wrapper
wrappers
ws
wta
wu
wuhan
www
x
xa
xavier
xbox
xdate
xe
xg
xi
xian
xiang
xii
xiii
xiv
xml
xo
xuhui
xv
xvi
xx
xxx
xyonline
y
ya
yah
yahoo
yai
yan
yang
yarra
yd
ye
year
years
yeh
yellow
yes
yesno
yet
yi
yig
yle
ym
ymd
ymdhm
ymdhms
yn
yo
york
you
young
your
youtube
ypogegrammeni
yu
yuan
yue
yus
yyyy
z
za
zambia
zapotec
zaza
ze
zealand
zebra
zero
zeros
zh
zha
zhe
zhejiang
zhuang
zi
zinh
zip
zone
zoom
zs
zu
zyyy
{
|
}
~

£
¦
§
¨
©
«
­
®
°
±
²
³
´
µ
·
¹
º
»
½
×
ß
æ
ø
đa
đo
ħ
ı
ŋ
œ
ȵ
ɐ
ɑ
ɓ
ɔ
ɕ
ə
ɛ
ɤ
ɦ
ɨ
ɪ
ɬ
ɾ
ʂ
ʃ
ʊ
ʑ
ʔ
ʦ
ʨ
ʰ
ʲ
ʻ
ʼ
ʾ
ʿ
ˈ
ˊ
ˌ
ː
ˑ
˙
˜
ˤ
˥
˦
˧
˨
˩
̀
́
̂
̃
̄
̆
̇
̈
̉
̊
̋
̌
̍
̓
̔
̕
̚
̛
̞
̠
̣
̤
̥
̦
̧
̨
̩
̪
̮
̯
̰
̱
̸
̼
͂
ͅ
͘
͡
΄
α
β
γ
δ
ε
ζ
η
θ
ι
κ
λ
μ
με
ν
νη
νος
ξ
ο
ος
π
προς
ρ
ς
σ
τ
της
του
υ
φ
χ
ψ
ω
ϛ
а
алекса
б
бласть
в
г
д
е
ж
з
и
к
л
м
михаи
н
на
нович
о
област
область
облысы
округ
п
р
республика
с
советская
социалистическая
т
у
ф
х
ц
ч
ш
ъ
ы
э
ю
я
і
ѣ
ְ
ֲ
ִ
ֵ
ֶ
ַ
ָ
ֹ
ּ
־
ׁ
ׂ
א
ב
ג
ד
ה
ו
ח
ט
י
ך
כ
ל
ם
מ
ן
נ
ס
ע
ף
פ
ץ
צ
ק
ר
ש
ת
ا
ابن
الا
الله
ب
بن
بو
ة
ت
ج
ح
د
ذ
ر
ز
س
ص
ع
عبد
علم
ف
ق
ل
م
محافظة
محمد
ن
ه
و
ولاية
ولايت
ي
ً
َ
ُ
ِ
ّ
ْ
ٓ
ٔ
ٕ
ی
ܼ
ހ
ނ
ރ
ބ
އ
ވ
މ
ދ
ލ
ޔ
ަ
ާ
ި
ީ
ު
ޫ
ެ
ް
ँ
ं
ः
अ
आ
इ
ई
क
ख
ग
घ
ङ
च
छ
ज
झ
ञ
ट
ठ
ड
ण
त
थ
द
ध
न
प
फ
ब
भ
म
मन
मह
य
यत
र
रज
रम
ल
व
श
ष
स
सत
ह
़
ा
ि
ी
ु
ू
ृ
ॆ
े
ै
ो
ौ
्
।
॥
०
२
ং
এর
ক
খ
গ
জ
ঝ
ট
ণ
ত
থ
দ
ধ
ন
প
ব
ভ
ম
য
র
ল
শ
ষ
স
হ
়
া
ি
ী
ু
ৃ
ে
ৈ
্
ਗ
ਘ
ਜ
ਦ
ਬ
ਰ
ਲ
ਸ
ਹ
਼
ਾ
ਿ
ੀ
ੁ
ੂ
ੇ
੍
ੰ
ગ
ર
ા
ી
ુ
ે
્
க
ங
ச
ட
ண
த
ந
ன
ப
ம
ர
ல
ழ
வ
ஸ
ா
ி
ீ
ு
ூ
ெ
ே
ை
்
ం
క
గ
జ
డ
ణ
త
ద
న
ర
ల
వ
ష
ా
ి
ీ
ు
ృ
ె
్
ಕ
ಮ
ರ
ವ
ಾ
ಿ
ು
ೂ
ೆ
್
ೕ
ം
ക
ട
ത
ധ
ന
പ
മ
ര
റ
ല
ള
വ
ാ
ി
ു
െ
േ
്
න
ර
ස
්
ා
ි
ු
ෙ
ก
ข
ง
งหว
จ
ช
ฎ
ฐ
ณ
ด
ต
ถ
ท
น
บ
ป
พ
ฟ
ภ
ม
ย
ร
ล
ว
ศ
ส
ห
อ
ั
า
ำ
ิ
ี
ึ
ื
ุ
ู
็
่
้
๊
์
ຄ
ງ
ດ
ນ
ລ
ັ
ິ
ີ
ື
ູ
ົ
ຼ
ເມ
່
້
ໍ
་
།
ཀ
ཁ
ག
གས
ང
ཆ
ཏ
ད
ན
པ
ཕ
བ
མ
ཚ
ཡ
ར
ལ
ས
ཧ
ི
ུ
ེ
ོ
ྐ
ྒ
ྔ
ྗ
ྟ
ྡ
ྤ
ྦ
ྩ
ྫ
ྭ
ྱ
ྲ
ླ
ྷ
က
ခ
ဂ
င
စ
ဇ
ည
တ
ဒ
န
ပ
ဘ
မ
ရ
သ
အ
ာ
ိ
ီ
ု
ူ
ေ
ဲ
ံ
့
း
္
်
ျ
ြ
ွ
ှ
년
서울
월
조선
ក
ជ
ត
ន
ប
ព
ម
រ
ល
ស
ា
ី
ុ
េ
ោ
ះ
្
᠎
ᠠ
ᡳ
᷆
​
‌
‍
‎
‏
–
—
―
‘
’
“
”
„
†
•
…
‧
‬
‰
′
″
‹
›
※
⁄
€
℃
℉
™
ⅰ
ⅱ
ⅲ
ⅳ
ⅴ
ⅵ
ⅷ
←
↑
→
↓
↔
↷
⇌
∂
−
∠
∫
≈
≡
≥
⋄
①
②
③
④
⑦
─
┐
┘
╱
█
□
▲
△
○
◌
☆
☉
♠
♭
ⱏ
ⲁ
ⲃ
ⲉ
ⲏ
ⲓ
ⲕ
ⲙ
ⲛ
ⲟ
ⲡ
ⲣ
ⲥ
ⲩ
ⲭ
ⴰ
ⴱ
ⴷ
ⴻ
ⵉ
ⵎ
ⵏ
ⵓ
ⵗ
ⵙ
ⵜ
ⵟ
ⵡ
ⵣ
⸺
⺀
⺄
⺆
⺈
⺊
⺌
⺕
⺝
⺸
⺼
⿰
⿱
⿲
⿳
⿴
⿵
⿶
⿷
⿸
⿹
⿺
⿻
、
。
〃
々
〇
〈
〉
《
》
「
」
『
』
【
】
〔
〕
〜
〢
あ
い
う
え
お
か
き
く
け
こ
さ
し
す
せ
そ
た
ち
っ
つ
て
と
な
に
ぬ
ね
の
は
ひ
ふ
へ
ほ
ま
み
む
め
も
ゃ
や
ゅ
ゆ
ょ
よ
ら
り
る
れ
ろ
わ
ゐ
ゑ
を
ん
゙
゚
ァ
ア
ィ
イ
ゥ
ウ
ェ
エ
ォ
オ
カ
キ
ク
ケ
コ
サ
シ
ス
セ
ソ
タ
チ
ッ
ツ
テ
ト
ナ
ニ
ヌ
ネ
ノ
ハ
ヒ
フ
ヘ
ホ
マ
ミ
ム
メ
モ
ャ
ヤ
ュ
ユ
ョ
ヨ
ラ
リ
ル
レ
ロ
ワ
ン
ヶ
・
ー
ㄙ
ㄝ
ㄧ
㇁
㇂
㇄
㇇
㇈
㇉
㇓
㎡
㐁
㐄
㐅
㐌
㐫
㐬
㐭
㐮
㐱
㐲
㑒
㑚
㒵
㒸
㒼
㓁
㓞
㓰
㔾
㕛
㕣
㖾
㗂
㘝
㚅
㚇
㚔
㚘
㝉
㝡
㝴
㝵
㞋
㞢
㞷
㠩
㠭
㠯
㡀
㡭
㡿
㢲
㢴
㣇
㣺
㥯
㪅
㫄
㫐
㫒
㫝
㫺
㬅
㬎
㬥
㬮
㬰
㭴
㲋
㳄
㵎
㶞
㷠
㸒
㸚
㸦
㹢
㺢
㻋
㻑
㼌
㼲
㽞
㿟
䀠
䂞
䃅
䄉
䍃
䏍
䒑
䓬
䖍
䖒
䖝
䖵
䙴
䚻
䜌
䜒
䜣
䝯
䝿
䡛
䧹
䪞
䳭
䴈
䴓
䴕
䴘
䴙
一
丁
丂
七
丄
丅
丆
万
丈
三
上
下
丌
不
与
丏
丐
丑
专
且
丕
世
丘
丙
业
丛
东
丝
丞
丟
丢
丣
两
严
並
丧
丨
丩
个
丫
丬
中
丮
丰
丱
串
临
丵
丶
丷
丸
丹
为
主
丽
举
丿
乀
乂
乃
久
乆
乇
么
义
之
乌
乍
乎
乏
乐
乑
乒
乓
乔
乖
乗
乘
乙
乚
乛
乜
九
乞
也
习
乡
书
乭
买
乱
乳
乾
亀
亂
亅
了
亇
予
争
事
二
亍
于
亏
亐
云
互
亓
五
井
亗
亘
亙
亚
些
亜
亞
亟
亠
亡
亢
交
亥
亦
产
亨
亩
享
京
亭
亮
亯
亰
亲
亳
亵
亶
亷
人
亻
亼
亾
亿
什
仁
仂
仄
仅
仆
仇
今
介
仌
仍
从
仏
仐
仑
仒
仓
仔
仕
他
仗
付
仙
仝
仞
仡
代
令
以
仪
们
仮
仰
仲
件
价
任
份
仿
企
伉
伊
伋
伍
伎
伏
伐
休
众
优
伙
会
伝
伞
伟
传
伢
伤
伦
伪
伯
估
伲
伴
伶
伷
伸
伺
似
伽
佃
但
佈
佉
位
低
住
佐
佑
体
佔
何
佗
佘
余
佚
佛
作
佝
佞
佟
你
佢
佣
佤
佥
佩
佬
佯
佰
佳
併
佶
佺
佻
佼
使
侂
侃
侄
來
侈
侉
例
侌
侍
侏
侑
侖
侗
供
依
侠
侣
侦
侧
侨
侪
侬
侮
侯
侵
侶
侷
便
係
促
俄
俅
俊
俎
俏
俐
俑
俗
俘
俚
保
俞
俟
俠
信
俣
俦
俨
俩
俪
俫
俭
修
俯
俱
俳
俶
俸
俺
俾
倈
倉
個
倌
倍
們
倒
倓
倔
倖
倘
候
倚
借
倠
倡
倣
倦
倧
倨
倩
倪
倫
倭
倮
倶
倷
债
倻
值
倾
偁
偃
假
偈
偉
偎
偏
偓
偕
做
停
偡
健
側
偵
偶
偷
偻
偽
偿
傀
傅
傈
傍
傑
傕
傘
備
傢
傣
傥
储
傪
催
傭
傲
傳
債
傷
傻
傾
僅
僇
僈
僉
僎
像
僑
僔
僕
僖
僚
僞
僧
僭
僮
僱
僳
僵
價
僻
儀
儁
儂
億
儆
儇
儉
儋
儒
儕
儘
償
儡
優
儲
儸
儿
兀
允
兂
元
兄
充
兆
兇
先
光
兊
克
兌
免
兑
兒
兓
兔
兖
兗
党
兜
兟
兢
入
內
全
兩
兪
八
公
六
兮
兰
共
关
兴
兵
其
具
典
兹
养
兼
兽
冀
冂
冃
冄
内
円
冇
冈
冉
冊
冋
册
再
冎
冏
冐
冑
冒
冓
冕
冖
冗
冘
写
军
农
冝
冠
冡
冢
冤
冥
冫
冬
冯
冰
冲
决
况
冶
冷
冻
冼
净
凄
准
凇
凈
凉
凋
凌
凍
减
凑
凝
几
凡
凢
凤
凫
凭
凯
凰
凱
凳
凵
凶
凷
凸
凹
出
击
函
凾
凿
刀
刁
刂
刃
刄
刅
分
切
刊
刍
刎
刑
划
刕
刖
列
刘
则
刚
创
初
删
判
別
刨
利
刪
别
刮
到
制
刷
券
刹
刺
刻
刽
剁
剂
剃
剄
則
削
剋
剌
前
剎
剐
剑
剔
剖
剛
剜
剝
剡
剢
剣
剥
剧
剩
剪
副
割
創
剽
剿
劃
劄
劇
劈
劉
劍
劑
力
劝
办
功
加
务
劣
劦
动
助
努
劫
劭
励
劲
劳
劵
劻
劼
劾
势
勁
勃
勅
勇
勉
勋
勐
勒
動
勖
勗
勘
務
勛
勝
勞
募
勢
勤
勰
勲
勳
勵
勸
勹
勺
勻
勾
勿
匀
匂
匄
包
匆
匈
匊
匋
匍
匐
匕
化
北
匙
匚
匝
匠
匡
匣
匪
匮
匯
匱
匸
匹
区
医
匽
匾
匿
區
十
卂
千
卄
卅
卆
升
午
卉
半
卌
华
协
卑
卒
卓
協
单
卖
南
単
博
卜
卝
卞
卟
占
卡
卢
卣
卤
卦
卧
卨
卩
卪
卫
卬
卯
印
危
卲
即
却
卵
卷
卸
卹
卻
卽
卿
厂
厃
厄
厅
历
厈
厉
压
厌
厓
厕
厘
厚
厝
原
厢
厤
厥
厦
厨
厩
厭
厮
厲
厶
厷
厸
去
厼
厽
厾
县
叀
叁
参
參
叅
又
叉
及
友
双
反
叐
发
叒
叔
叕
取
受
变
叙
叚
叛
叜
叟
叠
叡
叢
口
古
句
另
叨
叩
只
叫
召
叭
叮
可
台
叱
史
右
叵
叶
号
司
叹
叻
叼
吁
吂
吃
各
吅
吇
合
吉
吊
吋
同
名
后
吏
吐
向
吒
吓
吕
吖
吗
吙
君
吝
吞
吟
吠
吡
吤
否
吧
吨
吩
含
听
吮
启
吲
吳
吴
吵
吶
吸
吹
吻
吼
吽
吾
呀
呂
呃
呆
呈
告
呋
呎
呐
呒
呕
呗
员
呙
呛
呜
呢
呣
呤
呦
周
呪
呰
味
呴
呵
呼
命
咀
咁
咄
咅
咆
咋
和
咎
咏
咐
咒
咔
咕
咖
咗
咙
咚
咠
咢
咤
咥
咦
咧
咨
咩
咪
咫
咬
咯
咲
咳
咸
咼
咽
咾
咿
哀
品
哂
哄
哆
哇
哈
哉
哋
哌
响
哎
哑
哒
哔
哗
哙
哚
哟
員
哥
哦
哨
哩
哪
哭
哮
哲
哴
哺
哼
唁
唃
唆
唇
唉
唎
唐
唑
唔
唠
唤
唥
唩
售
唯
唱
唵
唸
唻
唾
啄
商
啇
啉
啊
問
啓
啖
啘
啚
啜
啞
啟
啡
啤
啥
啦
啪
啬
啮
啰
啱
啲
啶
啷
啸
啻
啼
啾
喀
喂
喃
善
喆
喇
喉
喊
喋
喏
喑
喘
喙
喚
喜
喝
喧
喪
喫
喬
單
喰
喱
営
喷
喹
喺
喻
喾
喿
嗅
嗆
嗇
嗎
嗒
嗓
嗔
嗜
嗡
嗣
嗦
嗨
嗪
嗯
嗰
嗲
嗷
嗽
嘅
嘆
嘉
嘌
嘎
嘏
嘖
嘗
嘘
嘚
嘛
嘞
嘟
嘢
嘦
嘧
嘮
嘯
嘱
嘲
嘴
嘸
嘻
嘿
噉
噌
噎
噜
噠
噢
器
噩
噪
噬
噱
噴
噶
噷
噸
噹
噻
嚇
嚈
嚏
嚜
嚡
嚣
嚭
嚮
嚴
嚼
囂
囉
囊
囑
囗
囘
囙
囚
四
囝
回
囟
因
囡
团
団
囤
囥
囧
囪
囬
园
囯
困
囱
図
围
囷
囹
固
国
图
圂
圃
圄
圅
圆
圈
圉
國
圍
園
圓
圖
團
圜
土
圡
圣
圥
在
圩
圭
地
圳
圶
圹
场
圻
圼
圾
址
坂
均
坊
坍
坎
坏
坐
坑
坒
块
坚
坛
坜
坝
坞
坟
坠
坡
坤
坦
坨
坪
坯
坰
坳
坴
坵
坷
坻
垂
垃
垄
垅
垆
型
垒
垓
垔
垕
垚
垛
垟
垡
垢
垣
垦
垩
垫
垮
垯
埀
埃
埋
城
埏
埒
埔
埗
域
埠
埤
埭
埲
埵
埶
執
埸
培
基
埼
堀
堂
堅
堆
堇
堊
堑
堕
堠
堡
堤
堪
堯
堰
報
場
堵
堺
塊
塌
塍
塑
塔
塗
塘
塚
塞
塢
填
塱
塵
塽
塾
境
墅
墉
墊
墓
墙
墜
增
墟
墨
墩
墮
墳
墶
墻
墾
壁
壇
壊
壑
壓
壕
壗
壘
壞
壟
壤
壩
士
壬
壮
壯
声
壳
壴
壶
壹
壺
壽
夂
处
夅
夆
备
変
夊
夋
夌
复
夏
夒
夔
夕
外
夗
夘
夙
多
夜
够
夠
夢
夤
夥
大
夨
天
太
夫
夬
夭
央
夯
失
夲
头
夷
夸
夹
夺
夻
夾
奂
奄
奇
奈
奉
奋
奎
奏
奐
契
奓
奔
奕
奖
套
奘
奚
奞
奠
奢
奥
奧
奪
奬
奭
奮
女
奴
奶
奸
她
奻
好
如
妃
妄
妆
妇
妈
妊
妍
妒
妓
妖
妗
妙
妝
妞
妟
妠
妤
妥
妨
妩
妫
妮
妲
妹
妻
妾
姆
姊
始
姐
姑
姒
姓
委
姗
姘
姚
姜
姝
姥
姦
姨
姪
姫
姬
姻
姿
威
娃
娄
娅
娆
娇
娉
娑
娘
娛
娜
娟
娠
娣
娥
娩
娱
娲
娴
娶
婁
婄
婆
婉
婕
婚
婢
婦
婧
婪
婭
婴
婶
婷
婺
婿
媒
媚
媛
媧
媪
媲
媳
媽
媾
嫁
嫂
嫉
嫌
嫔
嫖
嫗
嫡
嫦
嫩
嫪
嫲
嬅
嬉
嬌
嬛
嬢
嬤
嬪
嬬
嬰
嬲
嬴
嬷
嬸
嬿
孀
孃
子
孑
孔
孕
孖
字
存
孙
孚
孛
孜
孝
孟
孢
季
孤
学
孩
孪
孫
孬
孰
孱
孵
學
孺
孽
宀
宁
宂
它
宅
宇
守
安
宋
完
宏
宓
宕
宗
官
宙
定
宛
宜
宝
实
実
宠
审
客
宣
室
宥
宦
宪
宫
宮
宰
害
宴
宵
家
宸
容
宽
宾
宿
寂
寄
寅
密
寇
富
寒
寓
寔
寛
寝
寞
察
寡
寢
寥
實
寧
寨
審
寫
寬
寮
寰
寵
寶
寸
对
寺
寻
导
寽
対
寿
封
専
尃
射
将
將
專
尉
尊
尋
尌
對
導
小
少
尒
尓
尔
尕
尖
尗
尘
尙
尚
尝
尞
尢
尣
尤
尧
尨
尬
尭
就
尴
尷
尸
尹
尺
尻
尼
尽
尾
尿
局
屁
层
屄
居
屆
屈
屉
届
屋
屌
屍
屎
屏
屑
展
屖
屙
屚
属
屠
屡
屢
層
履
屬
屮
屯
屰
山
屵
屹
屾
屿
岀
岁
岂
岌
岐
岑
岔
岖
岗
岘
岙
岚
岛
岡
岩
岫
岬
岭
岱
岳
岷
岸
峃
峇
峒
峙
峠
峡
峤
峥
峦
峨
峪
峭
峯
峰
峴
島
峻
峽
崁
崂
崇
崎
崑
崔
崖
崗
崙
崛
崧
崩
崭
崮
崴
嵇
嵊
嵋
嵌
嵐
嵘
嵩
嵬
嵯
嶂
嶋
嶌
嶲
嶷
嶺
嶼
嶽
巂
巅
巆
巍
巒
巖
巛
川
州
巟
巠
巡
巢
巤
工
左
巧
巨
巩
巫
差
巯
己
已
巳
巴
巷
巸
巻
巽
巾
巿
帀
币
市
布
帅
帆
师
希
帐
帑
帕
帖
帘
帙
帚
帛
帜
帝
帥
带
帧
師
席
帮
帰
帳
帶
帷
常
帼
帽
幂
幄
幅
幌
幔
幕
幖
幗
幟
幡
幢
幣
幫
干
平
年
幵
并
幷
幸
幹
幺
幻
幼
幽
幾
广
庁
広
庄
庆
庇
庉
床
序
庐
庑
库
应
底
庖
店
庙
庚
府
庞
废
庠
度
座
庫
庭
庯
庵
庶
康
庸
庾
廁
廂
廆
廈
廉
廊
廌
廓
廖
廙
廚
廛
廞
廟
廠
廢
廣
廩
廪
廬
廳
廴
延
廷
建
廾
廿
开
弁
异
弃
弄
弇
弈
弊
弋
式
弑
弓
弔
引
弗
弘
弛
弜
弟
张
弥
弦
弧
弩
弭
弯
弱
張
強
弹
强
弼
彈
彊
彌
彎
彐
彑
归
当
彔
录
彖
彗
彙
彝
彡
形
彤
彥
彦
彧
彩
彪
彫
彬
彭
彰
影
彳
彷
役
彻
彼
彿
往
征
径
待
徇
很
徉
律
後
徐
徑
徒
従
徕
得
徙
徛
從
徠
御
徨
復
循
微
徳
徴
徵
德
徹
徽
心
忄
必
忆
忌
忍
忏
忐
忑
忒
忖
志
忘
忙
応
忝
忠
忧
忩
快
忱
念
忻
忽
忿
怀
态
怂
怅
怎
怒
怕
怖
怛
怜
思
怠
怡
急
性
怨
怪
怯
怱
总
怿
恁
恂
恃
恆
恋
恍
恐
恒
恕
恘
恙
恚
恢
恣
恤
恥
恨
恩
恪
恬
恭
息
恰
恳
恵
恶
恸
恹
恺
恼
恽
恿
悃
悄
悅
悉
悌
悍
悔
悖
悚
悝
悟
悠
患
悤
悦
您
悪
悫
悬
悯
悲
悳
悶
悼
情
惇
惊
惑
惕
惜
惟
惠
惡
惢
惧
惨
惩
惫
惬
惭
惮
惯
惰
惱
想
惶
惹
愁
愈
愉
愍
愎
意
愔
愚
愛
感
愤
愧
愫
愬
愷
愿
慅
慈
態
慌
慎
慑
慕
慘
慚
慝
慢
慣
慧
慨
慫
慮
慰
慶
慷
慺
慾
憂
憎
憐
憑
憚
憤
憨
憩
憫
憲
憶
憾
懂
懇
懈
應
懊
懋
懒
懲
懷
懸
懺
懼
懿
戀
戆
戇
戈
戉
戊
戋
戌
戍
戎
戏
成
我
戒
戔
或
战
戚
戛
戟
戠
戡
戢
戦
截
戬
戮
戰
戲
戳
戴
戶
户
戸
戹
戼
戾
房
所
扁
扆
扇
扈
扉
手
扌
才
扎
扑
扒
打
扔
托
扛
扣
扦
执
扩
扪
扫
扬
扭
扮
扯
扰
扳
扶
批
扼
找
承
技
抄
抉
把
抑
抒
抓
抔
投
抖
抗
折
抚
抛
抟
抠
抢
护
报
抨
披
抬
抱
抲
抵
抹
押
抽
拂
担
拆
拇
拈
拉
拊
拋
拌
拍
拎
拏
拐
拒
拓
拔
拖
拗
拘
拙
招
拜
拝
拟
拠
拡
拢
拣
拥
拦
拧
拨
择
括
拭
拮
拯
拱
拳
拴
拷
拼
拾
拿
持
挂
指
挈
按
挑
挖
挚
挛
挝
挞
挟
挠
挡
挣
挤
挥
挨
挪
挫
振
挺
挽
挾
捆
捉
捍
捏
捐
捕
捞
损
捡
换
捣
捧
捨
捩
据
捱
捲
捷
捺
捻
掀
掂
掃
掇
授
掉
掌
掐
排
掖
掘
掛
掠
採
探
掣
接
控
推
掩
措
掰
掳
掴
掷
掸
掺
掼
掾
揀
揆
揉
揍
描
提
插
揚
換
握
揢
揣
揩
揭
揮
援
揽
揾
揿
搁
搅
損
搏
搐
搔
搖
搜
搞
搡
搨
搪
搬
搭
搵
搶
携
搿
摂
摄
摆
摇
摊
摒
摔
摘
摜
摧
摩
摸
摹
摺
撃
撇
撐
撑
撒
撕
撘
撙
撞
撣
撤
撥
撩
撫
播
撮
撰
撲
撷
撼
撾
擁
擂
擄
擅
擇
擊
擋
操
擎
擒
擔
擖
擘
據
擠
擡
擢
擤
擦
擬
擱
擲
擴
擺
擾
攀
攏
攒
攔
攘
攜
攝
攞
攤
攫
攬
支
攴
攵
收
攷
攸
改
攻
放
政
敄
故
效
敌
敍
敎
敏
救
敕
敖
敗
敘
教
敛
敝
敞
敢
散
敦
敫
敬
数
敲
整
敵
敷
數
斂
斃
斄
文
斉
斊
斋
斌
斎
斐
斑
斓
斗
料
斛
斜
斟
斡
斤
斥
斧
斩
斬
断
斯
新
斷
方
於
施
斿
旁
旃
旅
旉
旋
旌
族
旒
旗
旛
无
旡
既
旣
日
旦
旧
旨
早
旬
旭
旮
旱
旲
时
旷
旸
旺
旻
旾
昀
昂
昆
昇
昉
昊
昌
昍
明
昏
易
昔
昕
昗
昙
昚
昜
星
映
春
昧
昨
昪
昫
昬
昭
是
昰
昱
昴
昵
昶
昷
昺
昼
显
晁
時
晃
晈
晉
晋
晌
晏
晒
晓
晔
晕
晖
晗
晙
晚
晜
晝
晞
晟
晤
晦
晨
晩
普
景
晰
晴
晶
晷
晸
智
晾
暀
暂
暄
暇
暉
暎
暐
暑
暕
暖
暗
暝
暠
暢
暦
暧
暨
暫
暮
暱
暴
暹
曄
曆
曇
曉
曌
曙
曜
曝
曦
曩
曬
曰
曲
曳
更
曷
書
曹
曼
曽
曾
替
最
朁
會
朅
朆
月
有
朊
朋
服
朐
朔
朕
朗
望
朝
朞
期
朦
朧
木
朩
未
末
本
札
朮
术
朱
朴
朵
朶
机
朽
朿
杀
杂
权
杆
杉
李
杏
材
村
杓
杖
杜
杞
束
杠
条
来
杨
杭
杯
杰
東
杲
杳
杵
杷
杻
杼
松
板
极
构
枇
枉
枋
析
枕
林
枚
果
枝
枞
枢
枣
枩
枪
枫
枭
枯
枲
枳
架
枷
枸
枹
枼
柄
柏
某
柑
染
柔
柘
柚
柜
柞
柠
查
柩
柬
柯
柰
柱
柲
柳
柴
柵
柷
査
柿
栃
栅
标
栈
栉
栋
栎
栏
树
栓
栖
栗
校
栢
栩
株
栲
栴
样
核
根
栻
格
栽
栾
栿
桀
桁
桂
桃
桅
框
案
桉
桌
桎
桐
桑
桓
桔
桕
桜
桢
档
桥
桦
桧
桨
桩
桶
桼
桿
梁
梃
梅
梆
梏
梓
梗
條
梟
梢
梣
梦
梧
梨
梭
梯
械
梳
梵
梶
梿
检
棄
棉
棋
棍
棒
棕
棗
棘
棚
棟
棠
棡
棣
棥
棧
棨
森
棱
棲
棵
棹
棺
棻
椁
椅
椋
植
椎
椏
椒
椥
椭
椰
椴
椿
楂
楊
楓
楔
楙
楚
楝
楞
楠
楣
楨
楩
楫
業
極
楷
楸
楹
楼
楽
概
榄
榆
榈
榉
榊
榔
榕
榘
榛
榜
榣
榧
榨
榫
榭
榮
榴
榷
榻
槃
槊
構
槌
槍
槎
槐
様
槛
槜
槟
槭
槱
槲
槻
槽
槿
樁
樂
樉
樊
樋
樑
樓
樗
樘
標
樞
樟
模
樣
樨
権
横
樫
樱
樵
樸
樹
樺
樽
樾
橄
橇
橋
橘
橙
橚
機
橡
橢
橫
橱
橼
檀
檄
檐
檔
檗
檢
檬
檯
檳
檸
檻
櫃
櫆
櫥
櫻
欄
權
欖
欠
次
欢
欣
欧
欮
欲
欶
欸
欺
欽
款
歆
歇
歉
歌
歎
歐
歙
歛
歡
止
正
此
步
武
歧
歨
歪
歮
歯
歰
歲
歳
歴
歷
歸
歹
歺
死
歼
歿
殁
殃
殆
殇
殉
殊
残
殑
殓
殖
殘
殟
殡
殭
殮
殯
殳
殴
段
殷
殸
殹
殺
殻
殼
殿
毀
毁
毂
毅
毆
毋
毌
母
毎
每
毐
毒
毓
比
毕
毗
毘
毙
毚
毛
毡
毫
毯
毳
氏
氐
民
氓
气
氖
気
氘
氙
氚
氛
氟
氡
氢
氣
氦
氧
氨
氩
氪
氫
氮
氯
氰
水
氵
氶
氷
永
氹
氺
氽
氾
汀
汁
求
汇
汉
汊
汏
汐
汕
汗
汙
汛
汜
汝
汞
江
池
污
汤
汨
汪
汭
汰
汲
汴
汶
汹
決
汽
汾
沁
沂
沃
沅
沆
沈
沉
沌
沐
沒
沓
沔
沖
沙
沚
沛
沝
沟
没
沢
沣
沥
沦
沧
沪
沫
沭
沮
沱
河
沸
油
治
沼
沽
沾
沿
況
泄
泉
泊
泌
泓
法
泖
泗
泚
泛
泞
泠
泡
波
泣
泥
注
泪
泫
泮
泰
泱
泳
泵
泷
泸
泻
泼
泽
泾
洁
洄
洋
洎
洑
洒
洗
洙
洛
洞
津
洩
洪
洮
洱
洲
洵
洹
洺
活
洼
洽
派
流
浃
浄
浅
浆
浇
浊
测
浍
济
浏
浑
浒
浓
浔
浙
浚
浜
浠
浡
浣
浦
浩
浪
浬
浮
浴
海
浸
浹
涂
涅
涇
消
涉
涌
涎
涓
涕
涛
涝
涞
涟
涡
涣
涤
润
涧
涨
涩
涪
涯
液
涵
涸
涼
涿
淀
淄
淅
淆
淇
淋
淌
淑
淒
淖
淘
淚
淝
淞
淡
淤
淦
淨
淩
淪
淫
淬
淮
淯
深
淳
淴
淵
混
淸
淹
淺
添
渃
清
渊
渌
渍
渎
渐
渑
渔
渗
渚
減
渝
渠
渡
渢
渣
渤
渥
渧
温
測
渭
港
渲
渴
游
渾
湃
湄
湉
湊
湍
湖
湘
湛
湟
湣
湧
湫
湮
湯
湾
湿
満
溃
溅
溉
源
準
溚
溜
溝
溢
溥
溧
溪
溫
溯
溴
溶
溺
滀
滁
滂
滃
滄
滅
滆
滇
滋
滌
滑
滓
滔
滕
滙
滚
滞
满
滤
滥
滦
滨
滩
滬
滯
滲
滴
滷
滸
滾
滿
漁
漂
漆
漈
漏
漓
演
漕
漠
漢
漣
漩
漪
漫
漯
漱
漲
漳
漸
漼
漾
漿
潁
潇
潍
潑
潔
潘
潛
潜
潞
潟
潢
潤
潦
潭
潮
潯
潰
潼
潽
澀
澂
澄
澇
澈
澉
澍
澎
澜
澡
澤
澧
澱
澳
澶
澹
激
濁
濂
濃
濉
濊
濑
濒
濕
濛
濞
濟
濠
濡
濤
濫
濬
濮
濯
濱
濳
濵
濾
瀆
瀋
瀏
瀑
瀕
瀘
瀚
瀛
瀧
瀨
瀬
瀴
瀾
灊
灌
灏
灑
灘
灞
灣
火
灬
灭
灯
灰
灵
灶
灷
灸
灼
災
灾
灿
炀
炅
炆
炉
炊
炎
炏
炒
炔
炖
炗
炙
炜
炟
炤
炫
炬
炭
炮
炯
炳
炸
点
為
炼
炽
烂
烃
烈
烊
烏
烘
烙
烛
烝
烟
烤
烦
烧
烨
烩
烫
烬
热
烯
烷
烹
烽
焉
焊
焓
焕
焖
焗
焘
焙
焚
無
焦
焰
焱
然
煇
煉
煊
煌
煎
煖
煙
煚
煜
煞
煠
煤
煥
煦
照
煨
煩
煬
煮
煲
煸
煽
熄
熊
熏
熒
熔
熙
熜
熟
熠
熨
熬
熱
熲
熵
熹
熾
燃
燈
燉
燊
燎
燒
燕
燝
營
燥
燦
燧
燭
燮
燼
燾
爆
爐
爛
爨
爪
爫
爬
爭
爯
爰
爱
爲
爵
父
爷
爸
爹
爺
爻
爽
爾
爿
牆
片
版
牌
牍
牒
牙
牚
牛
牜
牝
牟
牡
牢
牦
牧
物
牪
牯
牲
牵
特
牺
牽
犀
犁
犇
犊
犍
犒
犛
犧
犨
犬
犭
犮
犯
犰
状
犷
犸
犹
狀
狂
狄
狈
狊
狍
狐
狒
狓
狗
狙
狞
狠
狡
狦
狩
独
狭
狮
狱
狲
狳
狸
狹
狺
狼
猁
猇
猊
猋
猎
猒
猕
猖
猗
猛
猜
猝
猞
猡
猢
猥
猩
猪
猫
猬
献
猴
猶
猷
猾
猿
獁
獄
獅
獎
獐
獒
獗
獠
獨
獭
獲
獴
獵
獸
獻
獾
玄
率
玉
王
玑
玕
玖
玘
玙
玚
玛
玟
玠
玡
玢
玥
玧
玨
玩
玫
玮
环
现
玱
玲
玳
玷
玺
玻
珀
珂
珅
珈
珉
珊
珍
珎
珏
珐
珑
珙
珞
珠
珣
珥
珦
珩
珪
班
珮
珰
珲
珺
現
球
琄
琅
理
琇
琉
琊
琍
琏
琐
琚
琛
琢
琥
琦
琨
琪
琬
琮
琯
琰
琳
琴
琵
琶
琼
瑀
瑁
瑄
瑇
瑈
瑋
瑕
瑗
瑙
瑚
瑛
瑜
瑞
瑟
瑠
瑣
瑤
瑩
瑪
瑭
瑰
瑱
瑲
瑳
瑶
瑾
璀
璃
璇
璉
璋
璎
璐
璘
璙
璛
璜
璝
璞
璟
璠
璣
璦
璧
璨
璩
璫
璯
環
璲
璵
璽
璿
瓊
瓌
瓒
瓘
瓚
瓜
瓠
瓢
瓣
瓦
瓮
瓯
瓶
瓷
甄
甌
甑
甘
甚
甜
生
產
産
甥
甦
用
甩
甪
甫
甬
甮
甯
田
由
甲
申
电
甶
男
甸
甹
町
画
甾
畀
畁
畅
畈
畋
界
畏
畐
畑
畔
留
畜
畝
畟
畠
畢
略
畧
畨
番
畫
畬
異
畱
畲
畴
畵
當
畷
畸
畹
畺
畾
畿
疆
疇
疊
疋
疌
疏
疑
疒
疗
疙
疚
疝
疟
疡
疣
疤
疥
疫
疮
疯
疱
疲
疵
疸
疹
疼
疽
疾
痂
病
症
痉
痊
痒
痔
痕
痘
痛
痞
痢
痤
痪
痫
痰
痴
痹
瘀
瘋
瘓
瘛
瘟
瘠
瘡
瘤
瘦
瘧
瘩
瘫
瘲
瘴
瘸
瘾
療
癌
癒
癖
癞
癟
癡
癣
癩
癫
癱
癶
癸
癹
発
登
發
白
百
皀
皂
皃
的
皆
皇
皈
皋
皎
皐
皓
皕
皖
皙
皚
皝
皤
皮
皱
皴
皷
皿
盂
盃
盆
盇
盈
盉
益
盍
盎
盏
盐
监
盒
盔
盖
盗
盘
盛
盜
盟
盡
監
盤
盧
盪
目
盯
盱
盲
直
相
盼
盾
省
眇
眈
眉
看
県
眔
眙
眛
眜
眞
真
眠
眨
眩
眭
眴
眶
眷
眺
眼
眾
着
睁
睇
睏
睐
睑
睒
睘
睛
睡
睢
督
睦
睨
睪
睫
睬
睹
睺
睽
睾
睿
瞄
瞋
瞎
瞏
瞑
瞒
瞞
瞢
瞥
瞩
瞪
瞬
瞭
瞰
瞳
瞻
瞿
矍
矗
矛
矜
矞
矢
矣
知
矦
矩
矫
短
矮
石
矴
矶
矽
矾
矿
砀
码
砂
砌
砍
研
砖
砚
砜
砣
砧
砲
破
砷
砸
砹
砺
砾
础
硃
硅
硒
硕
硖
硚
硝
硫
硬
确
硼
碉
碌
碍
碎
碑
碓
碗
碘
碛
碟
碣
碧
碩
碭
碰
碱
碲
碳
碶
確
碼
碾
磁
磅
磊
磋
磐
磔
磕
磚
磡
磨
磯
磴
磷
磺
磾
礁
礎
礙
礦
礫
礴
示
礻
礼
礽
社
祀
祁
祂
祆
祇
祈
祉
祎
祏
祐
祕
祖
祗
祚
祛
祜
祝
神
祟
祠
祢
祥
票
祭
祯
祷
祸
祹
祺
祿
禀
禁
禄
禅
禊
禌
禍
禎
福
禑
禛
禟
禥
禦
禧
禨
禩
禪
禮
禱
禵
禸
禹
禺
离
禽
禾
禿
秀
私
秃
秆
秉
秋
种
科
秒
秘
秝
租
秣
秤
秦
秧
秩
秭
积
称
秸
移
秽
稀
稅
程
稍
税
稔
稗
稙
稚
稜
稟
稠
稣
種
稱
稳
稷
稹
稻
稼
稽
稿
穀
穂
穆
穌
積
穎
穏
穗
穢
穩
穰
穴
究
穷
穹
空
穿
突
窃
窄
窈
窍
窑
窒
窕
窖
窗
窘
窜
窝
窟
窠
窣
窥
窦
窩
窭
窮
窯
窺
窿
竄
竅
竇
竊
立
竒
竖
站
竜
竝
竞
竟
章
竣
童
竦
竭
端
競
竹
竺
竿
笃
笆
笈
笋
笏
笑
笔
笕
笙
笛
笞
笠
笡
符
笨
第
笺
笼
筆
筇
等
筋
筌
筍
筏
筐
筑
筒
答
策
筛
筝
筠
筮
筱
筲
筵
筷
筹
签
简
箇
箍
箐
箓
箔
箕
算
管
箫
箬
箭
箱
箴
箸
箾
節
篁
範
篆
篇
築
篙
篠
篡
篤
篦
篩
篪
篭
篮
篱
篷
篾
簇
簋
簍
簟
簡
簧
簪
簷
簸
簽
簿
籀
籁
籃
籌
籍
籠
籤
籲
米
类
籽
粉
粒
粗
粘
粛
粟
粤
粥
粦
粧
粪
粮
粱
粲
粵
粹
粽
精
粿
糅
糊
糍
糕
糖
糙
糜
糞
糟
糠
糧
糯
糸
糹
系
糾
紀
約
紅
紆
紊
紋
納
紐
純
紗
紙
級
紛
紜
素
紡
索
紧
紫
紮
累
細
紹
終
組
経
結
絕
絜
絡
給
絨
絫
絮
統
絲
絵
絶
絹
綁
綏
經
続
綜
綝
綠
綢
綦
綫
維
綱
網
綴
綵
綸
綺
綽
綾
綿
緊
総
緒
緔
線
緝
締
緣
編
緩
緬
緯
練
緹
緻
縄
縉
縊
縛
縝
縠
縣
縫
縮
縯
縱
縻
總
績
繁
繆
繇
織
繕
繞
繡
繩
繪
繫
繳
繹
繻
繼
纂
續
纍
纏
纔
纖
纜
纟
纠
纡
红
纣
纤
纥
约
级
纪
纫
纬
纭
纮
纯
纱
纲
纳
纵
纶
纷
纸
纹
纺
纽
纾
线
绂
练
组
绅
细
织
终
绌
绍
绎
经
绑
绒
结
绕
绘
给
绚
绛
络
绝
绞
统
绡
绢
绣
绥
绦
继
绩
绪
绫
续
绮
绯
绰
绳
维
绵
绶
绷
绸
综
绽
绾
绿
缀
缂
缄
缅
缆
缇
缈
缉
缋
缓
缔
缕
编
缗
缘
缙
缚
缜
缝
缟
缠
缢
缤
缥
缨
缩
缪
缬
缭
缮
缯
缴
缵
缶
缸
缺
罂
罃
罄
罅
罐
网
罒
罔
罕
罗
罘
罙
罚
罡
罢
罣
罩
罪
置
罰
署
罴
罵
罷
罹
罽
羁
羅
羊
羋
羌
羍
美
羔
羕
羗
羚
羞
羟
羡
羣
群
羧
羨
義
羯
羰
羱
羲
羸
羹
羽
羿
翁
翃
翅
翊
翌
翎
翏
習
翔
翕
翘
翚
翟
翠
翡
翦
翮
翰
翱
翳
翹
翻
翼
翽
耀
老
耂
考
者
耆
而
耍
耎
耐
耑
耒
耕
耗
耘
耜
耦
耨
耳
耴
耶
耷
耸
耻
耽
耿
聂
聃
聆
聊
聋
职
联
聖
聘
聚
聞
聪
聯
聰
聲
聳
聶
職
聽
聿
肀
肃
肄
肅
肆
肇
肉
肋
肌
肖
肘
肙
肚
肛
肝
肟
肠
股
肢
肤
肥
肩
肪
肮
肯
肱
育
肴
肺
肼
肽
肾
肿
胀
胁
胃
胄
胆
背
胍
胎
胖
胚
胛
胜
胝
胞
胡
胤
胥
胧
胪
胫
胭
胰
胱
胳
胴
胶
胸
胺
胼
能
脂
脅
脆
脈
脉
脊
脍
脏
脐
脑
脓
脖
脚
脣
脩
脫
脯
脱
脲
脷
脸
脹
脾
腆
腈
腊
腋
腌
腎
腐
腑
腓
腔
腕
腥
腦
腩
腫
腭
腮
腰
腱
腳
腴
腸
腹
腺
腻
腼
腾
腿
膀
膈
膊
膏
膑
膚
膛
膜
膝
膠
膦
膨
膩
膳
膺
膽
臀
臂
臃
臆
臉
臊
臘
臟
臣
臤
臥
臧
臨
自
臬
臭
臯
臱
至
致
臺
臻
臼
臽
臾
臿
舀
舂
舄
舅
舆
與
興
舉
舊
舌
舍
舐
舒
舔
舛
舜
舞
舟
舢
航
舫
般
舰
舱
舵
舶
船
舺
艇
艋
艘
艚
艦
艮
良
艰
艱
色
艳
艷
艸
艹
艺
艾
艿
节
芈
芋
芍
芐
芒
芔
芗
芙
芜
芝
芥
芦
芪
芫
芬
芭
芮
芯
花
芳
芴
芷
芸
芹
芺
芻
芽
芾
苄
苇
苋
苌
苍
苏
苑
苓
苔
苕
苗
苛
苜
苞
苟
苣
若
苦
苯
英
苴
苷
苹
苻
苾
茂
范
茄
茅
茆
茉
茌
茎
茗
茚
茛
茜
茧
茨
茫
茱
茲
茴
茵
茶
茸
茹
荀
荃
荅
荆
草
荊
荐
荑
荒
荔
荖
荘
荚
荞
荟
荡
荣
荥
荧
荨
荫
药
荷
荻
荼
荽
莅
莆
莉
莊
莎
莒
莓
莖
莘
莞
莧
莨
莪
莫
莱
莲
莴
获
莹
莺
莼
莽
菀
菁
菅
菆
菇
菊
菌
菏
菐
菑
菖
菘
菜
菟
菠
菡
菩
菪
華
菰
菱
菲
菸
菼
菽
萃
萄
萊
萌
萍
萎
萏
萘
萜
萝
萤
营
萦
萧
萨
萩
萬
萱
萸
萼
落
葆
葉
葑
著
葛
葡
董
葦
葫
葬
葭
葱
葵
蒂
蒄
蒋
蒌
蒍
蒐
蒙
蒜
蒞
蒡
蒦
蒨
蒯
蒲
蒴
蒸
蒺
蒼
蒽
蒿
蓁
蓄
蓉
蓋
蓍
蓑
蓓
蓖
蓝
蓟
蓦
蓬
蓮
蓴
蓺
蓼
蓿
蔑
蔓
蔔
蔗
蔚
蔡
蔣
蔥
蔫
蔬
蔭
蔵
蔷
蔺
蔻
蔼
蔽
蕃
蕉
蕊
蕎
蕙
蕤
蕨
蕩
蕪
蕭
蕰
蕲
蕴
蕺
蕾
薄
薇
薈
薊
薏
薑
薙
薛
薜
薦
薨
薩
薪
薬
薮
薯
薰
薹
藁
藉
藍
藏
藐
藓
藕
藜
藝
藤
藥
藨
藩
藺
藻
蘆
蘇
蘊
蘋
蘑
蘚
蘭
蘸
蘿
虍
虎
虏
虐
虑
虒
虔
處
虖
虗
虘
虚
虛
虜
虞
號
虢
虧
虫
虬
虱
虹
虺
虻
虽
虾
蚀
蚁
蚂
蚊
蚌
蚓
蚕
蚜
蚝
蚡
蚣
蚤
蚩
蚪
蚬
蚯
蚵
蚶
蚺
蛄
蛇
蛉
蛊
蛋
蛎
蛏
蛐
蛔
蛙
蛛
蛞
蛟
蛤
蛭
蛮
蛰
蛱
蛳
蛸
蛹
蛻
蛾
蜀
蜂
蜃
蜆
蜈
蜉
蜍
蜒
蜓
蜕
蜗
蜘
蜚
蜜
蜡
蜢
蜥
蜱
蜴
蜷
蜻
蜿
蝇
蝉
蝌
蝎
蝓
蝕
蝗
蝙
蝠
蝣
蝦
蝨
蝮
蝰
蝴
蝶
蝼
蝾
螂
螃
螅
螈
融
螢
螨
螫
螯
螳
螺
螽
蟀
蟆
蟋
蟑
蟒
蟜
蟠
蟥
蟮
蟲
蟹
蟻
蟾
蠅
蠊
蠋
蠍
蠕
蠡
蠢
蠱
蠵
蠶
蠹
蠻
血
衄
衅
衆
行
衍
衎
術
衔
街
衙
衛
衝
衞
衡
衢
衣
衤
补
表
衫
衬
衮
衰
衲
衷
衹
衽
袁
袂
袄
袅
袈
袋
袍
袒
袓
袖
袜
袞
袤
被
袭
袱
裁
裂
装
裏
裒
裔
裕
裘
裙
補
裝
裟
裡
裤
裨
裳
裴
裸
裹
製
複
褐
褒
褓
褔
褘
褚
褥
褪
褫
褭
褱
褲
褶
襄
襟
襪
襯
襲
襾
西
覀
要
覃
覅
覆
覇
覈
見
規
覓
視
覦
覧
親
覬
観
覺
覽
觀
见
观
规
觅
视
览
觉
觊
觋
觎
觐
角
觚
觜
觞
解
触
觴
觸
言
訁
訂
訇
計
訊
討
訓
託
記
訛
訟
訣
訥
訪
設
許
訴
訶
診
註
証
訾
詆
詐
詒
詔
評
詝
詞
詠
詡
詢
詣
試
詧
詩
詭
詮
詰
話
該
詳
詹
誅
誇
誉
誌
認
誓
誕
誘
語
誠
誡
誣
誤
誥
誦
誩
說
説
読
誰
課
誹
誼
調
談
請
諏
諒
論
諜
諡
諦
諧
諫
諭
諮
諱
諳
諴
諷
諸
諺
諾
謀
謁
謂
謇
謊
謎
謗
謙
謚
講
謝
謠
謨
謬
謳
謹
證
譏
識
譙
譚
譜
警
譬
譯
議
譴
護
譽
讀
讃
變
讓
讚
讠
计
订
认
讥
讧
讨
让
讫
讬
训
议
讯
记
讲
讳
讴
讶
讷
许
讹
论
讼
讽
设
访
诀
证
诂
诃
评
诅
识
诈
诉
诊
词
诏
译
诒
试
诗
诘
诙
诚
诛
诜
话
诞
诟
诠
诡
询
诣
诤
该
详
诨
诩
诫
诬
语
误
诰
诱
诲
诳
说
诵
诶
请
诸
诹
诺
读
诽
课
谀
谁
调
谄
谅
谈
谊
谋
谌
谍
谎
谏
谐
谑
谒
谓
谔
谕
谗
谘
谙
谚
谛
谜
谞
谟
谡
谢
谣
谤
谥
谦
谧
谨
谪
谬
谭
谯
谱
谴
谶
谷
谿
豁
豆
豈
豊
豌
豎
豐
豔
豕
豖
豙
豚
象
豢
豦
豨
豩
豪
豫
豬
豳
豸
豹
豺
貂
貇
貊
貌
貓
貘
貝
貞
貟
負
財
貢
貤
貧
貨
販
貪
貫
責
貯
貳
貴
貶
買
貸
費
貼
貿
賀
賁
賅
資
賈
賊
賏
賓
賔
賛
賜
賞
賠
賢
賣
賤
賦
賨
質
賬
賭
賴
賺
購
賽
贈
贊
贋
贏
贖
贛
贝
贞
负
贡
财
责
贤
败
账
货
质
贩
贪
贫
贬
购
贮
贯
贰
贱
贲
贴
贵
贷
贸
费
贺
贻
贼
贽
贾
贿
赁
赂
赃
资
赅
赈
赉
赋
赌
赍
赎
赏
赐
赔
赖
赘
赚
赛
赜
赞
赟
赠
赡
赢
赣
赤
赦
赧
赫
赭
走
赴
赵
赶
起
趁
超
越
趋
趒
趕
趙
趟
趣
趨
足
趺
趾
跃
跄
跆
跋
跌
跍
跎
跏
跑
跖
跗
跛
距
跟
跡
跤
跨
跪
路
跳
践
跷
跸
跻
踏
踐
踝
踞
踢
踩
踪
踰
踵
蹄
蹇
蹈
蹉
蹊
蹋
蹑
蹔
蹕
蹚
蹟
蹤
蹦
蹩
蹲
蹶
蹿
躁
躉
躋
躍
身
躬
躯
躲
躺
軀
車
軋
軌
軍
軎
軒
軟
転
軸
軻
軼
較
載
輒
輔
輕
輛
輝
輦
輩
輪
輯
輶
輸
輻
輿
轄
轉
轟
车
轧
轨
轩
转
轭
轮
软
轰
轲
轴
轶
轸
轻
轼
载
轿
辂
较
辄
辅
辆
辇
辈
辉
辍
辎
辐
辑
输
辕
辖
辗
辘
辙
辛
辜
辞
辟
辣
辥
辦
辨
辩
辫
辭
辯
辰
辱
農
辵
辶
边
辺
込
辽
达
迁
迂
迄
迅
过
迈
迎
运
近
迓
返
还
这
进
远
违
连
迟
迤
迥
迦
迨
迩
迪
迫
迭
述
迴
迷
迸
迹
迺
追
退
送
适
逃
逄
逅
逆
选
逊
逋
逍
逎
透
逐
逑
递
途
逕
逖
逗
這
通
逛
逝
逞
速
造
逢
連
逮
週
進
逵
逶
逸
逻
逼
逾
遀
遁
遂
遇
遊
運
遍
過
遏
遐
道
達
違
遗
遙
遜
遞
遠
遢
遣
遥
適
遭
遮
遲
遴
遵
遶
遷
選
遹
遺
遼
遽
避
邀
邁
邂
邃
還
邅
邇
邈
邊
邋
邏
邑
邓
邕
邗
邙
邝
邠
邢
那
邦
邨
邪
邬
邮
邯
邱
邳
邵
邸
邹
邺
邻
邽
邾
郁
郃
郅
郈
郊
郎
郑
郓
郕
郗
郜
郝
郞
郡
郢
郤
郦
郧
部
郭
郯
郴
郵
郷
郸
都
郾
鄂
鄄
鄉
鄒
鄔
鄖
鄗
鄘
鄙
鄚
鄞
鄢
鄣
鄧
鄭
鄮
鄯
鄰
鄱
酆
酉
酋
酌
配
酎
酐
酒
酓
酗
酚
酝
酣
酥
酩
酪
酬
酮
酯
酰
酱
酵
酶
酷
酸
酿
醇
醉
醋
醌
醍
醐
醒
醚
醛
醜
醣
醫
醬
醮
醯
醴
釀
釁
釆
采
釈
釉
释
釋
里
重
野
量
釐
金
釒
釓
釘
釜
針
釦
釵
鈉
鈔
鈞
鈣
鈴
鈷
鈹
鈺
鈾
鈿
鉀
鉄
鉅
鉑
鉛
鉢
鉨
鉬
鉴
鉻
銀
銃
銅
銘
銜
銥
銬
銮
銳
銷
鋅
鋆
鋒
鋪
鋸
鋹
鋼
錄
錐
錚
錢
錦
錫
錮
錯
録
錳
錶
鍊
鍋
鍛
鍵
鍾
鎊
鎌
鎔
鎖
鎘
鎢
鎭
鎮
鎳
鎶
鏈
鏐
鏖
鏟
鏡
鏳
鐘
鐮
鐵
鐸
鑄
鑊
鑑
鑒
鑫
鑰
鑲
鑼
鑽
鑿
钅
钆
钇
针
钉
钊
钋
钌
钍
钐
钒
钓
钔
钕
钗
钙
钚
钛
钜
钝
钞
钟
钠
钡
钢
钤
钥
钦
钧
钨
钩
钪
钫
钬
钮
钯
钰
钱
钳
钴
钵
钶
钷
钹
钺
钻
钼
钽
钾
钿
铀
铁
铂
铃
铄
铅
铈
铉
铊
铋
铌
铍
铎
铑
铒
铕
铚
铛
铜
铝
铟
铠
铢
铣
铥
铧
铨
铪
铫
铬
铭
铮
铯
铰
铱
铲
铳
铵
银
铷
铸
铹
铺
铼
铽
链
铿
销
锁
锂
锄
锅
锆
锇
锈
锋
锌
锎
锐
锑
锔
锕
锗
锘
错
锚
锜
锝
锟
锡
锢
锣
锤
锥
锦
锫
锭
键
锯
锰
锲
锴
锵
锶
锷
锹
锺
锻
锿
镀
镁
镂
镄
镅
镆
镇
镉
镌
镍
镎
镐
镑
镒
镓
镕
镖
镛
镜
镝
镞
镠
镤
镥
镧
镨
镬
镭
镯
镰
镱
镳
镶
長
镸
长
門
閃
閉
開
閏
閑
閒
間
閔
閘
関
閣
閤
閥
閦
閩
閭
閱
閵
閶
閹
閻
闆
闇
闊
闌
闍
闐
闔
闖
闘
關
闡
闢
门
闪
闭
问
闯
闰
闲
闳
间
闵
闶
闷
闸
闹
闺
闻
闼
闽
闾
闿
阀
阁
阂
阅
阆
阇
阈
阉
阊
阋
阎
阏
阐
阑
阔
阖
阗
阙
阜
阝
队
阡
阨
阪
阮
阯
阱
防
阳
阴
阵
阶
阻
阿
陀
陂
附
际
陆
陇
陈
陉
陋
陌
降
限
陕
陛
陝
陞
陟
陡
院
陣
除
陨
险
陪
陰
陲
陳
陵
陶
陷
陸
険
陽
隅
隆
隈
隊
隋
隍
階
随
隐
隑
隔
隕
隗
隘
隙
際
障
隠
隡
隧
隨
險
隰
隱
隴
隶
隸
隹
隺
隻
隼
隽
难
雀
雁
雄
雅
集
雇
雈
雉
雋
雌
雍
雎
雏
雐
雑
雒
雔
雕
雖
雙
雚
雛
雜
雝
雞
雠
離
難
雨
雩
雪
雫
雯
雲
雳
零
雷
雹
電
雾
需
霁
霄
霅
霆
震
霉
霊
霍
霑
霓
霖
霜
霝
霞
霧
霭
霰
露
霸
霹
霾
靂
靈
靑
青
靓
靖
静
靛
靜
非
靠
靡
面
靣
革
靳
靴
靶
靺
靼
鞅
鞋
鞍
鞏
鞑
鞘
鞞
鞠
鞣
鞨
鞭
鞮
韃
韋
韌
韓
韜
韦
韧
韩
韪
韫
韬
韭
韯
韱
音
韵
韶
韻
響
頁
頂
頃
項
順
須
頊
頌
預
頑
頒
頓
頗
領
頡
頤
頫
頭
頵
頸
頹
頻
頼
顆
題
額
顎
顏
顒
顓
顔
顗
願
顛
類
顧
顯
顱
页
顶
顷
项
顺
须
顼
顽
顾
顿
颀
颁
颂
预
颅
领
颇
颈
颉
颊
颌
颍
颎
颐
频
颓
颔
颖
颗
题
颙
颚
颛
颜
额
颞
颠
颢
颤
颧
風
颰
颱
飄
风
飒
飓
飘
飙
飛
飞
食
飠
飢
飪
飯
飲
飼
飽
飾
餃
餅
餉
養
餐
餓
餘
餡
館
餩
餬
饅
饉
饋
饑
饒
饣
饥
饨
饪
饫
饭
饮
饰
饱
饲
饵
饶
饷
饺
饼
饿
馀
馄
馅
馆
馈
馋
馍
馏
馒
馔
馕
首
馗
香
馥
馨
馬
馮
馱
馳
馴
馺
駁
駄
駅
駐
駕
駛
駝
駢
駦
駭
駱
駿
騎
験
騙
騫
騰
騶
騷
驅
驊
驍
驐
驒
驕
驗
驚
驛
驟
驢
驤
驥
驩
驪
马
驭
驮
驯
驰
驱
驳
驴
驶
驷
驸
驹
驺
驻
驼
驽
驾
驿
骁
骂
骃
骄
骅
骆
骇
骈
骊
骋
验
骏
骑
骗
骘
骚
骛
骜
骞
骠
骡
骢
骤
骥
骧
骨
骰
骶
骷
骸
骼
髅
髋
髑
髓
體
高
髟
髦
髭
髮
髯
髲
髻
鬃
鬄
鬆
鬍
鬚
鬟
鬣
鬥
鬧
鬪
鬯
鬱
鬲
鬻
鬼
魁
魂
魄
魅
魏
魔
魚
魯
魴
鮑
鮭
鮮
鯁
鯉
鯊
鯨
鰍
鰓
鰭
鰲
鰻
鱀
鱉
鱖
鱗
鱲
鱷
鱸
鱼
鱿
鲁
鲂
鲇
鲈
鲍
鲑
鲔
鲗
鲛
鲜
鲟
鲡
鲣
鲤
鲨
鲩
鲫
鲭
鲱
鲲
鲳
鲵
鲶
鲷
鲸
鲻
鲽
鳀
鳃
鳄
鳊
鳌
鳍
鳎
鳐
鳔
鳕
鳖
鳗
鳜
鳝
鳞
鳟
鳥
鳧
鳩
鳳
鳴
鳶
鴉
鴛
鴦
鴨
鴷
鴻
鴿
鵝
鵬
鵰
鶆
鶯
鶴
鷉
鷗
鷙
鷲
鷹
鷺
鸊
鸞
鸟
鸠
鸡
鸢
鸣
鸥
鸦
鸨
鸩
鸪
鸫
鸬
鸭
鸮
鸯
鸰
鸱
鸲
鸳
鸵
鸺
鸻
鸽
鸾
鸿
鹀
鹁
鹂
鹃
鹄
鹅
鹈
鹉
鹊
鹌
鹏
鹑
鹕
鹗
鹘
鹚
鹞
鹟
鹠
鹡
鹤
鹦
鹧
鹨
鹩
鹪
鹫
鹬
鹭
鹮
鹰
鹳
鹵
鹹
鹼
鹽
鹿
麂
麃
麒
麓
麗
麝
麟
麥
麦
麩
麪
麴
麵
麸
麹
麺
麻
麼
麽
麾
麿
黃
黄
黇
黍
黎
黏
黑
黒
黔
默
黛
黜
黝
點
黟
黠
黥
黨
黯
黴
黹
黻
黼
黽
黾
鼋
鼎
鼐
鼓
鼠
鼢
鼩
鼫
鼬
鼯
鼱
鼹
鼻
齊
齋
齐
齒
齡
齣
齦
齮
齿
龁
龄
龈
龊
龋
龌
龍
龐
龑
龔
龕
龙
龚
龛
龜
龟
龠
龢
龰
龱
龴
龵
龶
龷
龸
龹
鿍
鿏
鿔
ꆃ
ꆈ
ꌠ
ꓵ
ꓽ
ꭶ
ꭹ
ꮃ
﨑
者
艹
︰
﹐
﹑
﹕
﹝
﹞
﹣
﻿
！
＂
％
＆
（
）
＋
，
－
．
／
０
１
２
３
８
：
；
＝
＞
？
［
］
ａ
ｂ
ｉ
ｎ
ｓ
ｔ
ｘ
～
｢
｣
･
𐎠
𐎢
𐎱
𐎹
𐎺
𐎼
𐏁
𐤁
𐤊
𐤍
𐤏
𐤓
𒆠
𝛿
𠀁
𠀃
𠀆
𠀉
𠀎
𠀐
𠁁
𠁣
𠂆
𠂇
𠂈
𠂉
𠂊
𠂋
𠂎
𠂒
𠂔
𠂛
𠂡
𠂢
𠂤
𠂬
𠂭
𠂹
𠃊
𠃋
𠃌
𠃍
𠃎
𠃑
𠃓
𠃔
𠃜
𠄌
𠄎
𠄠
𠄢
𠆢
𠆥
𠇍
𠈌
𠊉
𠌵
𠓜
𠔉
𠔥
𠔼
𠔽
𠔿
𠕀
𠕁
𠕋
𠘧
𠘨
𠙻
𠙼
𠚏
𠚒
𠚤
𠚪
𠣏
𠤎
𠤕
𠥓
𠦄
𠦑
𠦝
𠧒
𠧗
𠧪
𠩺
𠪚
𠫓
𠫔
𠫤
𠬛
𠬝
𠬞
𠬢
𠬤
𠬶
𠮛
𠮦
𠮷
𠯑
𠱠
𠲎
𠳮
𠵆
𠷎
𠼢
𡈼
𡉀
𡉑
𡉵
𡌥
𡍮
𡍲
𡏳
𡕒
𡕩
𡕰
𡖅
𡗗
𡗜
𡘆
𡘤
𡧱
𡨄
𡨸
𡩧
𡬠
𡭽
𡰣
𡰥
𡰪
𡰯
𡰱
𡷈
𡸁
𡿨
𡿩
𡿪
𡿺
𢀖
𢀛
𢀩
𢁙
𢃇
𢆉
𢆰
𢆶
𢇁
𢇇
𢉖
𢌬
𢌿
𢏚
𢑑
𢑚
𢖻
𢙣
𢛳
𢜶
𢦏
𢦒
𢧵
𢴳
𢼄
𢾕
𣁋
𣄼
𣅀
𣅽
𣍘
𣎳
𣎵
𣏋
𣏼
𣗥
𣥂
𣥖
𣥯
𣦵
𣦼
𣧄
𣪊
𣪠
𣬉
𣳾
𣴓
𣶒
𤇾
𤊽
𤐫
𤓰
𤔔
𤕨
𤣩
𤤰
𤰇
𤰔
𤰞
𤴓
𤴔
𤽄
𥁑
𥁕
𥃦
𥃩
𥃭
𥇡
𥑟
𥔦
𥘅
𥘈
𥝢
𥫗
𥱡
𦈢
𦉪
𦉬
𦉼
𦍌
𦍒
𦎧
𦐇
𦓔
𦔮
𦘒
𦙃
𦚏
𦣝
𦣞
𦣻
𦥑
𦥔
𦥯
𦨉
𦭝
𦰩
𧆞
𧈧
𧉆
𧘇
𧰨
𧰵
𧴪
𧴮
𧵩
𧼱
𧾷
𨸏
𨾴
𩙿
𩠐
𩫏
𩵋
𪄠
𪉷
𪜀
𪟽
𪠲
𪥸
𪩲
𫇦
𫍽
𫏋
𫓧
𫔭
𫚉
𫛭
𫜸
𫝀
𫟷
𫟼
𫠣
𫠩
𫢉
𫥞
𫩏
𫩠
𫪡
𫲽
𫶧
𬀩
𬀷
𬐘
𬗌
𬙙
𬛸
𬜯
𬟩
𬬭
𬬻
𬭊
𬭛
𬭳
𬭶
𬯁
𬴘
𬺻
𬼉
𬼖
𭀰
𭁈
𭁨
𭅰
𭑈
𭕄
𭗼
𭤨
𭥫
𭻾
𮅕
𮊿
𮍌
𮍏
𮓗
𮥼
𮧮
廾
𰀁
𰀄
𰀈
𰀉
𰀕
𰀠
𰀡
𰀢
𰀪
𰁜
𰃮
𰆊
𰆘
𰋙
𰕎
𰢴
𰧭
𰯲
𰻞
001--
002--
003--
010--
011--
012--
02--
03--
04--
05--
06--
07--
08--
09--
418--
458--
54--
66--
80--
a--
aa--
ab--
above--
abs--
ac--
acad--
ad--
add--
ae--
af--
ag--
agua--
ah--
ai--
air--
ak--
al--
ala--
alex--
algo--
all--
alt--
am--
ami--
an--
ana--
ang--
anim--
anta--
anti--
any--
ao--
ap--
apos--
app--
ar--
ara--
arg--
args--
aris--
as--
astro--
astu--
at--
athl--
atla--
au--
austr--
auto--
av--
aw--
ax--
ay--
az--
azerbai--
b--
ba--
back--
bai--
bal--
bam--
ban--
bar--
bas--
base--
bat--
bau--
bay--
be--
beau--
bec--
begi--
bel--
ben--
ber--
bet--
bh--
bi--
bib--
big--
bin--
bio--
bir--
bla--
blo--
bo--
body--
boli--
bon--
book--
bor--
bou--
boul--
bour--
box--
br--
bri--
bro--
broad--
bu--
bur--
by--
c--
ca--
cal--
calcu--
cam--
can--
cap--
car--
cas--
cat--
cc--
cd--
ce--
cell--
cent--
cer--
cfg--
ch--
cha--
char--
che--
check--
chi--
chlo--
cho--
chu--
ci--
cin--
circ--
cl--
claim--
clau--
cle--
cn--
co--
col--
colla--
com--
con--
coper--
copy--
cor--
corn--
corr--
cos--
cove--
cr--
crea--
crit--
cro--
cs--
cu--
cur--
cy--
cypr--
d--
da--
dam--
dan--
dar--
data--
date--
day--
db--
dd--
de--
dec--
decla--
defi--
den--
des--
dev--
df--
dha--
di--
diag--
dic--
dicti--
disab--
disam--
disc--
dist--
distri--
div--
dj--
do--
doc--
docu--
dom--
dor--
dr--
du--
dupl--
dur--
dy--
dyn--
dz--
e--
ea--
eb--
ec--
ed--
edit--
ee--
ef--
eh--
ei--
ek--
el--
elec--
elli--
em--
emer--
en--
end--
env--
ep--
equi--
er--
es--
et--
eu--
ev--
evol--
ex--
excl--
f--
fa--
fal--
far--
fe--
feat--
ferr--
fetch--
ff--
fi--
fl--
flo--
flor--
fo--
font--
format--
fr--
fre--
frie--
ft--
fu--
full--
g--
ga--
gal--
gan--
gar--
gas--
gb--
ge--
geo--
ger--
get--
gho--
gi--
gl--
gn--
go--
god--
gol--
gon--
got--
gover--
gr--
gram--
grap--
grego--
gro--
gu--
guar--
gui--
h--
ha--
hai--
har--
has--
he--
hel--
her--
hi--
hier--
histo--
hl--
hm--
ho--
hol--
hor--
how--
hr--
hu--
hyd--
hyper--
hypo--
i--
ia--
ic--
id--
identi--
if--
ig--
ii--
il--
illu--
im--
imag--
image--
impl--
in--
infl--
info--
ins--
int--
inter--
intro--
inve--
io--
ip--
ir--
is--
iso--
it--
iu--
iv--
iz--
j--
ja--
je--
ji--
jo--
ju--
k--
ka--
kai--
kala--
kan--
kar--
kata--
kath--
kb--
ke--
ken--
key--
kh--
kha--
khi--
khl--
khu--
ki--
kl--
km--
kn--
ko--
kom--
kon--
kr--
kris--
kru--
ku--
kv--
kw--
ky--
l--
la--
lam--
lan--
lang--
lat--
lay--
le--
li--
lib--
lin--
line--
link--
lis--
list--
lit--
ll--
lo--
lom--
low--
lower--
lu--
lum--
lv--
ly--
m--
ma--
mac--
mag--
mai--
main--
mak--
maka--
make--
mal--
man--
map--
mar--
mask--
mate--
max--
maxim--
mbo--
mbu--
mc--
me--
meas--
medi--
meg--
men--
mer--
meta--
mi--
micr--
mid--
mill--
min--
mira--
mism--
mit--
ml--
mm--
mn--
mo--
moha--
mon--
mor--
morr--
mp--
mr--
ms--
mt--
mu--
mult--
multip--
mw--
my--
myst--
n--
na--
naka--
nan--
nb--
nd--
ne--
neder--
neo--
ner--
neu--
neut--
new--
news--
ng--
nga--
ni--
nic--
nico--
niko--
nn--
no--
nor--
nou--
ns--
nt--
nu--
num--
ny--
nyi--
o--
ob--
obser--
oc--
ody--
oe--
of--
og--
ok--
ol--
om--
on--
op--
open--
or--
orie--
os--
ou--
out--
over--
p--
pa--
pac--
page--
pales--
pan--
par--
parse--
pas--
pat--
patr--
pe--
pen--
per--
ph--
phi--
phila--
photo--
phy--
pi--
pic--
pl--
plat--
po--
pol--
poly--
pont--
pp--
pr--
pra--
pre--
princ--
print--
pro--
ps--
pt--
pu--
pun--
pur--
py--
q--
qa--
qi--
qu--
qua--
r--
ra--
raw--
ray--
rd--
re--
rece--
recon--
red--
ref--
regi--
reli--
render--
res--
ri--
rn--
ro--
row--
rr--
ru--
run--
s--
sa--
sam--
san--
sar--
sau--
sc--
sch--
schl--
scho--
sco--
se--
sea--
selec--
semi--
sen--
ser--
sh--
sha--
she--
show--
si--
sili--
simp--
simu--
sk--
sl--
slo--
sm--
sn--
snow--
so--
soci--
sol--
some--
sor--
sou--
sp--
spir--
sq--
sr--
ss--
ssang--
st--
stan--
str--
stu--
su--
sub--
succ--
sum--
sun--
super--
sur--
sv--
swa--
swe--
swi--
sy--
sylv--
sym--
t--
ta--
tag--
tai--
talk--
tam--
tan--
tar--
te--
tel--
tepe--
terr--
text--
th--
tha--
the--
ti--
time--
title--
tl--
to--
top--
tor--
tr--
tra--
trans--
tre--
tri--
tru--
ts--
tst--
tu--
tur--
tw--
ty--
u--
ua--
ug--
uk--
ul--
un--
unc--
unit--
univer--
up--
ur--
us--
use--
ut--
v--
va--
val--
vale--
van--
var--
ve--
ver--
vi--
vla--
vo--
vol--
vu--
vul--
w--
wa--
wai--
wal--
wan--
want--
war--
wat--
way--
we--
web--
wel--
wi--
wiki--
wil--
win--
wins--
wit--
wo--
won--
wri--
wu--
x--
xa--
xi--
xin--
xx--
y--
ya--
ye--
yi--
yo--
yu--
z--
za--
ze--
zh--
zi--
zu--
đ--
ɐ--
ɔ--
α--
β--
γ--
δ--
ε--
θ--
κ--
κα--
λ--
μ--
ν--
ο--
π--
ρ--
ρι--
σ--
τ--
φ--
χ--
ω--
а--
ал--
ан--
б--
бл--
бо--
в--
вел--
г--
го--
д--
ев--
з--
и--
к--
ка--
ко--
кр--
л--
ло--
м--
ма--
мо--
н--
ник--
о--
п--
пе--
р--
ре--
рос--
с--
са--
се--
ск--
со--
т--
у--
федер--
х--
ха--
ц--
י--
מ--
ا--
اس--
ال--
الب--
الج--
الح--
الد--
الس--
الع--
الق--
الم--
ب--
با--
ت--
ج--
ح--
خا--
د--
در--
ر--
س--
سل--
ع--
ف--
ق--
م--
و--
अ--
आ--
क--
ग--
च--
ज--
त--
द--
न--
प--
ब--
म--
य--
र--
ल--
व--
ष--
स--
ह--
ก--
ง--
ด--
ต--
น--
ม--
ย--
ว--
ส--
ห--
อ--
า--
เ--
แ--
ར--
--0
--00
--000
--01
--02
--03
--04
--05
--06
--07
--08
--09
--1
--10
--11
--12
--14
--15
--16
--18
--19
--2
--20
--21
--22
--23
--25
--26
--27
--28
--29
--3
--30
--31
--32
--33
--34
--35
--36
--37
--38
--39
--4
--40
--41
--42
--43
--44
--45
--46
--47
--49
--5
--50
--51
--52
--54
--55
--56
--57
--58
--59
--6
--60
--61
--62
--63
--64
--66
--67
--68
--7
--70
--71
--72
--73
--74
--75
--77
--78
--79
--8
--80
--81
--83
--84
--85
--86
--87
--88
--89
--9
--90
--91
--92
--94
--95
--96
--99
--a
--able
--ac
--aca
--ach
--ad
--ada
--ade
--ado
--ae
--af
--ag
--ah
--ai
--aic
--aille
--ais
--ak
--aki
--al
--ale
--ales
--alo
--als
--am
--ama
--ame
--an
--ana
--ance
--ane
--ani
--anic
--ano
--ans
--ant
--anto
--ants
--ao
--ap
--apa
--aq
--ar
--ard
--arg
--args
--ari
--ary
--as
--ase
--at
--ata
--ate
--ated
--ath
--ating
--ation
--ations
--ato
--ator
--atus
--au
--av
--ava
--avi
--aw
--awa
--ax
--ay
--aya
--b
--ba
--bar
--bbl
--be
--bes
--bi
--ble
--blurb
--bo
--bon
--bos
--box
--bra
--bs
--bt
--bu
--bul
--burg
--by
--c
--ca
--case
--cat
--ce
--cea
--ceae
--cell
--cer
--ces
--ch
--cht
--ci
--cio
--ck
--co
--code
--color
--count
--craft
--cript
--cs
--ct
--cted
--ction
--cus
--cy
--d
--da
--dae
--data
--date
--day
--de
--ded
--dh
--dhi
--di
--dia
--dition
--div
--do
--dor
--dra
--dro
--ds
--dtemplate
--du
--dus
--dy
--e
--ea
--ean
--eau
--eaux
--ec
--ect
--ed
--ee
--een
--eer
--ef
--eg
--ei
--ein
--ek
--el
--ela
--ell
--em
--ema
--ement
--en
--ena
--ence
--ene
--ens
--ensis
--ent
--eo
--ep
--epec
--eq
--er
--erature
--ered
--erg
--eri
--ern
--ero
--ers
--ert
--ery
--es
--ese
--ess
--est
--et
--eur
--eus
--ev
--ex
--ey
--f
--fa
--fe
--fen
--fer
--ff
--fo
--fs
--ft
--ful
--func
--g
--ga
--gar
--ge
--ger
--ges
--gh
--ght
--gi
--gle
--go
--gon
--graph
--graphic
--graphy
--gs
--gu
--gua
--gue
--gus
--h
--ha
--ham
--he
--hen
--hes
--hg
--hi
--hic
--hip
--hn
--ho
--hook
--hs
--ht
--hu
--hua
--i
--ia
--ial
--ian
--ias
--ib
--ic
--ica
--ical
--ich
--ics
--ict
--id
--ida
--idae
--ide
--ident
--ido
--idx
--ie
--ien
--iente
--ier
--ies
--ification
--ig
--ight
--ii
--ik
--ika
--il
--ila
--ile
--illa
--ille
--im
--ima
--in
--ina
--index
--ine
--ing
--ings
--ini
--ino
--inus
--io
--ion
--ions
--ior
--ious
--ir
--ira
--ire
--is
--ise
--ish
--ism
--ist
--istic
--it
--ita
--ite
--ities
--ition
--ito
--itude
--ity
--ium
--ius
--iva
--ive
--ivity
--ix
--iya
--ization
--ize
--ized
--j
--ja
--je
--ji
--jin
--jo
--k
--ka
--kar
--kaya
--ke
--ked
--ker
--ket
--key
--kh
--ki
--kin
--ko
--krit
--ks
--kt
--ku
--ky
--l
--la
--lan
--lar
--lc
--ld
--le
--ler
--level
--ley
--lf
--li
--lia
--lin
--link
--lis
--list
--ll
--lle
--lli
--llo
--lo
--lon
--loo
--ls
--lt
--lty
--lu
--lus
--ly
--m
--ma
--maa
--man
--mat
--mb
--mba
--mble
--mbo
--me
--med
--ment
--mes
--mi
--mic
--mo
--ms
--mu
--mus
--my
--n
--na
--nai
--naire
--nal
--name
--nberg
--nc
--nce
--ncy
--nd
--nda
--ndo
--ne
--ned
--nell
--nen
--ner
--nes
--nese
--ness
--ney
--ng
--nge
--ni
--nia
--nity
--nk
--nn
--nne
--no
--nos
--ns
--nse
--nsis
--nt
--nta
--nte
--nto
--ntum
--nu
--num
--nus
--nx
--ny
--nza
--o
--oa
--oc
--ock
--od
--ode
--ody
--oe
--ogy
--oi
--ok
--ol
--ola
--ole
--oli
--olia
--ology
--om
--oma
--ome
--on
--ona
--ong
--only
--ons
--oon
--op
--or
--ora
--ore
--ories
--orm
--ort
--os
--osa
--ose
--ot
--ou
--ous
--out
--ov
--ova
--ow
--ows
--oy
--p
--pa
--page
--pe
--pec
--ped
--phe
--pi
--po
--ps
--pt
--pu
--pus
--q
--r
--ra
--rad
--ral
--ram
--ran
--rche
--rchy
--rd
--re
--red
--ref
--rg
--rgs
--ri
--ria
--rian
--rie
--ries
--rin
--ris
--rius
--rk
--rma
--rn
--rno
--ro
--ros
--row
--rp
--rs
--rt
--rta
--rth
--ru
--rum
--rus
--ry
--s
--sa
--sas
--sburg
--sch
--sco
--se
--sed
--sei
--ser
--ses
--sh
--si
--sia
--sian
--sis
--sive
--sk
--sm
--so
--son
--sor
--ss
--st
--stein
--ster
--ston
--str
--style
--su
--sus
--sville
--sy
--t
--ta
--tag
--tal
--te
--ted
--teen
--ter
--tes
--text
--th
--ti
--tia
--tial
--tian
--tic
--time
--ting
--tion
--tis
--title
--tive
--tla
--tle
--to
--ton
--tor
--tory
--tos
--town
--tr
--ts
--tsu
--tt
--tta
--tte
--tto
--tty
--tu
--ture
--tus
--ty
--tyle
--tz
--u
--ua
--ual
--uan
--ub
--uck
--uction
--ud
--udo
--ue
--ui
--uk
--ul
--ula
--ular
--ulation
--ulus
--um
--un
--una
--ung
--up
--ur
--ura
--ure
--url
--us
--uss
--ust
--ut
--ute
--ution
--ux
--uz
--v
--va
--val
--value
--ve
--ved
--vel
--ver
--vi
--vich
--ville
--vin
--vo
--w
--wa
--way
--ways
--we
--wi
--wk
--wn
--wood
--x
--xi
--xt
--y
--ya
--ye
--yi
--ym
--yn
--yo
--ys
--yu
--ywood
--z
--za
--ze
--zhou
--zi
--zo
--zon
--zzo
--ŋ
--ʔ
--α
--αι
--ε
--η
--ι
--ια
--ν
--νο
--ο
--ρα
--ς
--υ
--ω
--а
--ан
--ая
--в
--ва
--вич
--г
--д
--е
--евич
--и
--ии
--ин
--ис
--ич
--ия
--к
--ка
--кая
--кии
--л
--ла
--льныи
--н
--о
--ов
--ович
--р
--ра
--ро
--с
--ск
--ская
--скии
--т
--та
--у
--ч
--ы
--я
--ון
--ת
--ا
--اء
--ار
--ان
--اي
--ب
--ة
--ت
--د
--ر
--رة
--س
--ع
--ف
--ق
--ل
--م
--ن
--ه
--و
--ى
--ي
--ية
--ين
--ی
--न
--र
--ก
--น
--ม
--ย
--ร
--า
--ᠨ
