!
"
#
##0
##1
##10
##11
##12
##13
##14
##15
##16
##17
##18
##19
##2
##20
##21
##22
##23
##24
##25
##26
##27
##28
##29
##3
##30
##31
##32
##33
##34
##35
##36
##37
##38
##39
##4
##40
##41
##42
##43
##44
##45
##46
##47
##48
##49
##5
##50
##51
##52
##53
##54
##55
##56
##57
##58
##59
##6
##60
##61
##62
##63
##64
##65
##66
##67
##68
##69
##7
##70
##71
##72
##73
##74
##75
##76
##77
##78
##79
##8
##80
##81
##82
##83
##84
##85
##86
##87
##88
##89
##9
##90
##91
##92
##93
##94
##95
##96
##97
##98
##99
$
%
&
'
(
)
*
+
,
-
.
/
0
00
000
04
05
06
07
0935
0962
1
10
100
101
108
109
11
110
1120
12
1200
125
128
13
130
14
15
150
151
152
153
154
155
156
159
16
160
161
163
164
165
166
17
18
19
2
20
200
2005
2006
2011
2013
2014
2015
2019
2022
2060
2083
21
22
23
24
25
250
26
260
27
28
282
29
3
30
300
31
32
33
34
35
350
36
37
38
39
4
40
400
41
42
43
44
45
46
47
48
49
5
50
500
5000
51
52
53
54
55
56
57
58
59
6
60
600
61
62
63
64
65
66
67
68
680
69
7
70
71
72
73
74
75
76
77
78
79
8
80
800
81
82
83
84
85
86
87
88
89
9
90
91
92
93
94
95
96
97
98
99
:
;
<
=
>
?
@
\
^
_
`
a
abbha
abha
abhin
abhinipajjeyya
abhinippha
abhinisi
able
ablock
abort
aborted
aborting
about
above
abovestyle
abs
absolute
absolutely
abstractreference
academics
accept
accepted
accepts
access
accha
accordance
according
account
accounts
action
actioncompleted
actions
active
actual
ad
adatthikena
adblock
add
addbutton
addcheckbox
addcheckpoint
added
addeventlistener
addfooterlink
adding
addition
additional
addloadevent
addoptionstosimplesearch
address
addrow
adds
addtextevent
addtranslit
addtransliterationoption
adhering
adhikaran
adhit
adinnam
admin
administrative
administrators
adminonly
admins
adva
advanced
advert
advertising
aeblock
afc
afd
affect
affected
affiliate
afrikaans
after
again
against
agency
agf
agila
airdate
ais
aiv
ajjha
ajjhoka
aka
akan
akaran
akasikkha
alam
alert
align
alignment
all
allow
allows
allpages
allpagesredirect
already
als
also
alt
alternate
alternative
although
altogether
always
am
ama
aman
america
american
amha
amhahash
among
amu
an
ana
anan
anandviveksatpathi
anantara
anapaloketva
anasikkha
anattamana
ancient
and
anekapariya
announcement
anon
anonymous
another
antamaso
antara
antaraghare
anuddham
anupasampanna
anvaddhama
any
anything
apa
aparena
apha
api
apiobj
appat
appava
appear
appears
append
appendchild
appended
appendtext
appeva
applicable
applications
applied
applies
apply
applying
appropriate
approved
archive
archives
are
area
args
arguments
argumentscurrent
argumentsnum
around
arr
array
article
articles
artikkelin
artist
arv
as
asam
asamatha
asammatam
asikkha
asikkhitasikkham
ask
assa
assert
assuming
asterisk
astu
asu
at
ataram
atikka
atra
atta
attachevent
attack
attempt
atthi
attisikkha
attr
attribute
attributes
attribution
auth
author
authors
auto
autobiography
autocollapse
autoconfirmed
automatic
automatically
avaca
avacuttha
avaggo
available
avan
avassuta
avassutassa
avivadama
avoid
avoids
ayam
ayampi
ayya
ayye
b
ba
back
backbuffer
background
backlinks
bad
badfairuse
badfiletype
band
banned
bar
base
based
basestyle
basetimestamp
basic
batch
batchdelete
batchmax
batchprotect
bc
be
because
become
been
before
behaves
behavior
being
belated
below
belowstyle
best
better
between
bha
bhagava
bhagavata
bhagavato
bhagini
bhaginiyo
bham
bhavissati
bhayaga
bheda
bhikkhave
bhikkhu
bhikkhum
bhikkhuni
bhikkhunim
bhikkhunisan
bhikkhuniya
bhikkhuniyo
bhikkhussa
bhojani
bhu
bhun
bigtext
bioblock
biog
biographies
bl
black
blacklist
blank
blanked
blanking
blanktalkpageonindefblock
blatant
blfilterredir
bllimit
block
blocked
blockindef
blocking
blocknotalk
blog
blp
blpprod
bltitle
blue
body
bodyclass
bodycontent
bodystyle
bokma
bold
book
books
boolean
border
bosanski
bot
botblock
both
bots
bottom
botublock
box
boxes
br
brackets
brahmacariyam
break
british
broadleaf
broken
browser
buddha
buddham
buddhism
buddho
bullet
bullets
burmese
but
button
buttonpane
buttons
by
c
ca
cactions
call
callback
callbackparameters
callbacks
called
calling
cam
can
canadian
cancel
candidate
cannot
caption
caretpos
careyya
case
cases
catalan
catch
categories
category
categorymembers
catempty
catuttho
cause
causeblock
caused
causing
caution
ccccff
cdp
ce
cell
cells
censorship
center
centered
century
certain
cesa
ceta
ceva
ceyya
cfc
cfd
cfm
cfr
ch
chad
chandaga
chandam
change
changed
changes
changing
chapter
character
characters
charat
chars
chasat
chasu
chat
chattupa
check
checkbox
checkdiv
checked
checklabel
checkrt
checkuser
chedanakam
child
childnodes
chinese
chk
chkboxelement
chkboxlabel
chksb
chkspan
choice
choose
chosen
chunks
ci
cicca
cikena
cikkha
circumstances
citation
citations
cited
citraku
cittiya
cittiyam
city
claim
class
classes
classname
cleanup
clear
click
close
closer
club
code
coded
coding
coi
collapse
collapsed
collapsible
color
colors
colspan
column
com
come
comment
comments
commercial
commit
committee
common
commonenums
commons
commonsets
communities
community
companies
company
compatible
compblock
complete
completed
complex
comply
compromised
concat
conference
config
configgetter
configuration
confirm
confirmation
conflict
confusing
consensus
consider
considered
consistency
console
contact
contain
contained
container
containing
contains
content
contentdiv
contentform
contentnotice
contents
contentsub
contenttd
contenttr
contentwrapper
contest
context
continue
contribs
contribution
contributions
contributor
controversial
convenience
conventions
conversionhash
convert
cookie
cookieend
cookiename
cookiestart
copied
copy
copying
copyright
copyrightblock
copyrighted
copyvio
corp
correct
correctly
corresponding
corrupt
could
count
counter
country
course
create
created
createelement
createevent
createonly
createoption
createtextnode
creating
creation
creative
creator
credits
criteria
criterion
croatian
cross
cs
csd
csdcriteria
csdcriteriadisplayorder
csdlog
css
ctrlkey
ctx
ctype
curly
curpref
current
currentaction
currentdeletecounter
currentdeletor
currently
currentunlinkcounter
curvalue
custom
customlist
customlistlabeltitle
customlistvaluetitle
customtaglist
customwelcomelist
cyrbuffer
cyrillic
d
da
dadeyya
daily
dani
dansk
dasamo
dasavassam
dasikkha
dassana
data
date
dated
dateformatstring
dateformatter
datestring
datva
day
days
db
dblock
dbmultiplecriteria
dbmultiplecriteriai
dbrationale
ddddff
de
dead
deals
decoration
defam
defamation
defamatory
default
defaultconfig
defaultgroup
defaults
defaultwarninggroup
defines
definition
del
delete
deleteapi
deleted
deletepage
deleteprocessapi
deleteredirects
deleteredirectsmain
deletesysopdefaulttotag
deletetalkpageondelete
deletetoken
deleting
deletion
deletions
deletionsummaryad
deliberate
delimages
delimiter
deliwatchpage
deliwatchuser
denied
deoablock
dependencies
deprod
des
description
descriptions
desessa
desired
dessa
destination
detailed
details
determine
deti
deutsch
devanagari
deyya
dha
dhamma
dhammam
dhammena
dhammesu
dhammo
dhu
di
dialog
dialogcontent
dialoglargefont
dictionary
did
didn
diff
different
digits
dika
dini
dirattatirattam
directed
directives
directly
directories
disable
disabled
disables
disambig
disambiguation
discuss
discussed
discussion
discussionpage
discussions
disesa
disesam
dispatched
dispatchevent
display
displayed
displaying
dispute
disputed
disruption
disruptive
dissa
dissanti
dit
ditva
div
divname
diyeyya
dlgtable
dlgtbody
dlgtd
dlgtfoot
dlgth
dlgtr
do
doc
document
documentation
does
doesn
doi
doing
domain
domultiple
don
donate
done
dosa
dosaga
double
draft
dropdown
du
dubban
due
duh
duplicated
duplicates
duptitle
dut
dutch
dutiyampi
dutiyo
dva
dvattikkhattum
dve
e
each
earlier
ease
easier
easily
edit
edited
editexpiry
editform
editing
edition
editlevel
editmode
editor
editors
editpage
editpane
editprot
edits
editsummary
edittoken
eesti
efblock
effect
efforts
eight
either
eka
ekeneka
element
eligible
elitre
else
elsewhere
em
emailform
emailsubject
emailtext
empty
emptyportal
en
enabled
enables
enclosed
encyclopedia
end
engine
english
enough
ensure
enter
entered
entire
entries
entry
enum
enumvalue
enumvalues
episode
equipped
er
erne
error
errors
escapable
escape
esky
eso
espan
esperanto
essay
eswatini
et
etadeva
etam
etc
etchmiadzin
eti
etunimi
europe
eva
evaluate
evaluateuser
evam
evama
evamassa
evametam
evan
evaru
even
evenodd
evenstyle
event
events
everyone
everything
evidence
evt
ewblock
ex
example
examples
except
exceptional
excessive
excludes
exdate
exec
exist
existent
existing
exists
expanded
expert
expired
expiredays
expiring
expiry
explain
explanation
external
extra
extract
extramenu
eyya
f
fa
factual
fail
failed
fair
faith
false
famous
fansite
fcff
fdfdfd
featured
feed
feedback
few
ff
ffd
ffffff
fi
fiction
fictional
field
fieldsetname
fighter
file
filename
files
fill
films
filter
final
find
finish
finnish
first
firstarticle
firstchild
firstone
firsttime
fits
five
fix
fixed
flag
flags
float
fluff
fly
fn
fnautosave
fnloadsuccess
fnsaveerror
fnsavesuccess
follow
following
followredirect
follows
font
fontsize
fontweight
food
footer
footera
footerbox
footerlinks
footerspan
for
force
forcetoc
foreign
forest
forests
form
format
formatsummarypostfix
formatting
former
forth
forum
found
foundit
four
frameless
franc
free
french
frequent
friendly
friendlyconfig
friendlypref
from
fulfulde
full
fully
fullyprotected
func
function
functions
further
føroyskt
g
ga
gaccha
gacchanti
gaccheyya
gadget
gadgets
gaeilge
gahapata
gahapati
gahapatina
gahapatiputtena
gallery
gamissa
gan
ganda
gap
gapnamespace
gapprefix
gatam
gcmlimit
gcmtitle
general
generally
generated
generator
generic
genre
genres
german
get
getattribute
getcallbackparameters
getchecked
getcookie
getcreator
getelementbyid
getfriendlypref
getmweditbox
getmweditvalue
getpagename
getpagetext
getparameters
getpref
gets
getselectednode
getselection
getstatuselement
getutcdate
getutcfullyear
getutcmonthname
getxml
gha
gham
ghaso
ghassa
ghe
ghena
ghikam
ghike
gho
gi
gihigatam
gila
give
given
gives
gje
global
globalize
globalizesubcategory
gnu
go
good
goodid
gooduser
google
gotrow
grabbing
grammar
graphical
gray
greek
group
groupabletags
groupbydefault
groupn
groups
groupstyle
groupwidth
gu
gui
guide
guideline
guidelines
h
ha
had
half
ham
hama
hamo
hanasikkha
hang
happen
hara
harassment
hard
harm
has
hash
hasikkha
hasn
hassa
hausa
have
having
hbc
hblock
hcard
he
header
headerre
heading
headings
height
hello
help
helperbot
helptip
hemant
here
hereafter
heyya
hi
hidden
hide
high
highlightlengthatindex
highlights
highly
hindi
hint
histmerge
histories
history
hit
hita
hitaci
hitam
hitasikkha
hiwikitranslit
hlist
ho
hoax
hoaxes
hold
holds
honti
host
hotcat
hoti
hours
housekeeping
hover
how
however
href
hrvatski
html
htmlnode
http
https
humor
huppaca
i
iba
iccetam
iccha
icon
icons
ics
id
idam
identical
identify
idesani
idesemi
idhlig
idt
ie
if
ig
iggahan
iggahessa
iggahetva
iggan
ika
illustration
im
ima
image
imageleft
imageleftstyle
imagepage
images
imagestyle
imamha
ime
img
imgcopyvio
imina
implausible
importance
important
imported
improper
improperly
improve
in
ina
inappropriate
include
includes
including
incomplete
incorrect
indef
indefblockhash
indefinite
indefinitely
indent
index
indexof
india
indian
indicate
indicating
info
information
infriendlyconfig
infringement
inherit
ini
inissagga
inissajjeyya
inissajjeyyum
init
initcallbacks
initevent
initial
initialcontrib
initialized
inline
inner
innerhtml
inprop
input
inputtype
insert
insertbefore
inserted
insertheadings
inserting
insertsignature
inside
instance
instances
instead
institutions
instructions
integer
interest
interface
internal
internally
interview
interviewer
interwiki
into
intoken
introducing
invalid
inventor
invocation
ip
irrelevant
is
isbn
isevato
isexplorer
isikkha
isindebele
isipaddress
isixhosa
isn
isredirect
issa
issn
issue
issued
issues
it
italiano
italic
italicize
item
itemkey
itemvalue
iti
its
itself
ittha
itthanna
iva
iyo
j
ja
jagadguru
jagadgurura
jain
janasikkha
javascript
jeyya
ji
jika
jissa
johr
joke
journal
jpg
jquery
js
json
just
k
ka
kabal
kaccittha
kaksi
kalariform
kalaritext
kalya
kamitva
kan
kappeyya
karan
kareyya
karissa
karitva
kata
kathine
ke
keep
kept
kernewek
key
keycode
keypress
kha
khan
khi
kho
kim
kin
kind
king
kingdom
kiriya
kirundi
kiswahili
km
know
knowledge
known
ko
kolme
kongo
korean
krio
ku
kula
kuladu
kuma
kupita
kurdi
kusalam
l
la
label
labelcheckbox
laci
lakam
lakasikkha
lam
lang
langnames
language
languages
last
lastedittime
lastindex
lastlastindex
lasun
latest
latin
latvies
laya
lblock
le
lead
least
leave
left
legal
legend
len
length
let
level
li
library
license
licensed
licensing
lietuviu
light
lija
like
limit
line
lines
linga
link
linked
linking
linknode
links
linktohelp
list
listclass
listdialog
listed
listing
listn
listpadding
lists
liststyle
little
living
ll
lo
load
loadapi
loaded
loader
loading
loadquery
loadtime
local
location
log
logged
logging
loginitialcontrib
logo
logpage
logspeedynominations
long
longer
look
lookupcreator
lookupcreatorapi
loves
lower
lu
luganda
m
ma
mabhadra
made
magic
magyar
maha
main
mainpage
maintain
maintenance
major
make
makes
making
malagasy
malicious
malti
mam
man
mandatory
manual
manually
many
maran
margin
mark
markaivreportasminor
marked
marker
markrevertedpagesasminor
marksharedipasminor
marksockreportasminor
markspeedypagesaspatrolled
marktaggedpagesasminor
marktaggedpagesaspatrolled
markuaareportasminor
markup
markwelcomesasminor
masktemplateinsummary
mass
master
mastertalkpage
match
material
math
matter
max
maxcyrlength
maximum
maxretries
may
mayam
me
means
media
mediawiki
medium
meet
melayu
member
memorialblock
mentiya
menu
merge
merged
mergetitle
message
messages
meta
metatemplates
method
meyya
mfd
mi
microformat
microformats
middle
might
mike
min
mind
mine
miniyo
minor
minoredit
minute
minutes
miscellany
missing
misspelling
mode
modern
modification
modified
modifiers
modify
modifying
module
modules
mohaga
moment
monobook
month
months
more
morebits
mos
most
move
moveapi
moved
movedestination
moveexpiry
movelevel
movepageform
moveprocessapi
moves
movesubpages
movesuppressredirect
movetalkpage
movetoken
multiple
musa
music
musical
musician
must
mustang
mw
mwprotect
my
myblock
mykeycode
mylanguage
myshiftkey
mytabs
n
na
nadva
naha
nam
name
named
names
namespace
namespaces
naming
namusa
nanda
nasamayo
nasikkha
nassa
national
nav
navam
navbar
navbox
navboxes
navframe
navigation
navigational
nclick
ne
necessary
nederlands
need
needed
needs
negative
neither
neologisms
nepali
network
neutral
neva
never
new
newchar
newcomers
newpages
news
newsectionlink
newsgroup
newspaper
newtag
newtitlebox
next
nextone
ng
ni
nida
nija
nikkad
nikkhipitabbam
nimi
nine
nisajjam
nisi
nisinnassa
nissa
nissaggiya
nissaggiyam
nit
nlist
nn
nnnnnn
no
nochange
nocontent
nocontext
nocreate
node
noimage
noinclude
nologonspeedynomination
nominate
nominated
nomination
nominations
non
noncom
none
nonexistent
nonsense
nopermission
nor
norat
norfuk
norm
normal
normalization
normalized
normalizehash
normally
norsk
norwegian
not
notability
notabilitysubcategory
notable
note
nothing
notice
noticeboard
noticeclear
notices
notification
notifications
notified
notify
notifying
notifytext
notifyuser
notifyuserondeli
notifyuseronspeedydeletionnomination
notifyuserspace
nouser
novial
now
nowcommons
nowrap
npa
npblock
npov
ns
nsfrom
nstab
nsto
nti
null
num
number
numbering
numbers
numero
nwelcomenode
nynorsk
o
obj
object
objects
occitan
oclc
odd
oddstyle
of
off
offensive
offerreasononnormalrevert
offset
often
ogun
ok
ol
old
oldfield
oldreason
oldtext
olist
omitted
on
once
onclick
ondeletefailure
ondeletesuccess
one
ones
onfailure
onkeypress
online
onload
onloadsuccess
only
onlyfor
onmovefailure
onmovesuccess
onsavefailure
onsavesuccess
onsuccess
open
opened
opening
opentalkpage
opentalkpageonautorevert
openusertalkpageonspeedydelete
opera
oppose
option
optional
options
or
order
org
organization
organizations
ori
original
orphan
orphaned
osoite
other
others
otherwise
otsikko
out
outcome
outer
output
ova
over
overridden
overrides
owelcomenode
own
owner
ownership
p
pa
pabba
pacca
paccayam
paccekaci
paccha
padam
padding
paddingright
page
pageexists
pagehash
pageloaded
pagename
pagenamespaces
pageobj
pages
pagesection
pagetext
paggan
paikka
pajjeyya
paka
pakam
pakkameyya
pali
pam
pama
pan
pana
panasikkha
pane
panel
paneva
panna
pannam
pannena
paper
param
parameter
parameters
params
parent
parentnode
paribba
paribhun
parikkha
parimadda
pariman
parin
paripun
parisuddha
parisuddhettha
pariya
parse
parseint
parser
part
particular
party
pasadda
pasama
pasiloka
passa
passed
past
paste
pat
patent
patit
patrol
patrolled
patrollinkmatch
patta
pattam
pattasan
pattern
pattikam
pattim
pava
pbody
pdf
pe
peacock
pekkha
pencil
people
per
perhaps
permission
permissions
persistent
person
personal
persons
peso
petva
peyya
pha
photo
php
pi
picture
pin
pinfoblock
pitkern
pixels
place
placed
places
plain
plausible
please
plot
pmid
png
point
pointless
policy
polski
populated
portal
portlet
portletarea
portletid
portletname
portletnext
portlettype
portugue
position
possible
possibly
post
posting
pov
powersearchbox
powersearchform
powersearchtext
pp
pre
precision
pref
prefbutton
preference
preferences
prefix
prefixindex
prefkey
prefs
prepend
prependtext
present
preserve
preset
presetreason
press
prev
prevcap
prevch
prevdud
prevent
preview
previewbox
previewdiv
previewlink
previous
primarily
print
probably
probation
problem
problemlist
problems
proceed
process
processed
processing
processkeys
processsock
prod
prodreasondefault
product
products
program
project
projects
promote
promotion
promotional
prompt
promptforspeedydeletionsummary
prop
proper
properly
properties
proposed
prose
protect
protectapi
protectcreate
protected
protectedit
protectedpage
protection
protectionsummaryad
protectmove
prototype
proveit
provide
provided
provides
proxy
prtype
pt
pu
pubbakaran
pubbe
public
publication
published
publisher
puccha
puf
pump
puppet
puppetry
pure
purisapuggalassa
purisassa
purisena
purple
purpose
push
put
puts
px
q
quality
queen
query
querystring
questions
quick
quickform
quickwelcomemode
quickwelcometemplate
quote
r
ra
radio
rakam
rakasikkha
ram
ran
randompage
range
rasikkha
rather
rationale
rattandhaka
raw
raya
rayama
rcid
re
reached
read
ready
real
really
realtime
reason
reasonbox
reasonhash
reasons
recent
recentchanges
recently
recommended
recording
recreate
recreating
red
redirect
redirecting
redirects
redirnone
redirtypo
rediruser
redlinks
redundant
redundantimage
ref
refactoring
refbox
reference
references
refimprove
refname
reftext
reg
regex
regexp
region
registered
regular
related
relative
release
relevant
relies
reloading
remember
removal
remove
removebutton
removecheckpoint
removechild
removed
removing
rena
rename
render
rendering
repeat
repeated
repeatedly
replace
replaceable
replacechild
report
reporting
reports
repost
request
requested
requests
require
required
requires
research
reset
resetlink
resetpref
resolvedname
resourceloader
responsexml
restore
result
retabbam
retabbo
retargeted
retrieve
retrieving
return
returns
rev
reversions
revert
revertcurid
reverted
reverting
revertoldid
revertuser
revid
review
revision
revisions
revs
rewrite
reyya
rfd
ri
ribhu
right
rikam
risk
rita
rkc
ro
roceyya
rollback
roma
root
row
rows
rpplink
rpppage
rtclick
rtrim
rtsupported
ru
rule
rules
run
russian
rvlimit
rvprop
rya
s
sa
saddhim
safari
saha
sahaji
sahaseyyam
sahattha
sakam
sallapeyya
salt
sam
sama
samaggassa
samaggena
saman
samanubha
samanugga
samasu
samaya
samayena
samayo
samba
same
sammodama
sampaja
san
sanasikkha
sandbox
sane
sanena
sannidhika
sans
sanskrit
santhara
santharitva
santi
santit
saparamam
sappa
sappaca
saran
sasikkha
sat
sativassam
satta
sattarasa
satthusa
save
saveapi
saving
sblock
sbrealtime
schemeoption
schemes
scientific
scots
screen
script
scriptpathafter
scriptpathbefore
scripts
scrollbars
scrolling
sculpture
se
search
searchbody
searchbox
searchform
searchinput
searchtext
season
second
seconds
section
sectionkey
sections
see
seems
sekhiya
select
selected
selection
selectionstart
self
semi
sena
separate
separator
series
serif
service
sesotho
set
setappendtext
setattribute
setbuttonsenabled
setcallbackparameters
setcontent
setcreateoption
setdisplayorder
seteditsummary
setfollowredirect
setminoredit
setpagesection
setpagetext
setparent
sets
setscriptname
settimeout
setting
settings
settitle
setup
setvalues
setwatchlist
setwatchlistfrompreferences
seven
seyya
seyyam
sfd
shall
shared
short
shortcut
should
shouldaddsummary
shouldn
shout
show
showing
shown
showrollbacklinks
shows
showsharedipnotice
shqip
si
side
sidebar
sides
sign
signature
significance
significant
sika
sikkha
sikkham
sikkhama
sikkhitasikkham
similar
simple
simplesearchbox
simplesearchform
simplewindow
simplicity
simply
sin
since
single
singlewarn
sister
sitabba
site
sitesupport
six
siya
siyama
size
skin
skinjs
skip
skype
slashes
slenska
slice
slovenc
slovens
small
snapshot
snapshotlength
so
soablock
social
sock
sockpuppet
sockpuppetry
sockpuppets
soft
softerblock
software
solid
some
someone
something
sometimes
sorry
sort
sound
source
sourced
sources
space
spam
spamming
spamublock
span
spantag
special
specialchars
specific
specifically
specified
specifies
specify
specifying
speedily
speedy
speedylogpagename
speedypromptong
speedywindowwidth
spelling
spi
split
spoablock
spoiler
spot
sprintf
square
src
standalone
standard
standardization
standardlist
start
startcontainer
startind
starts
starttimestamp
state
statehashnode
statelem
static
station
status
statuselement
statusindicator
statusspan
stay
still
stop
stoppropagation
str
string
strings
stringtoadd
stripes
striping
strong
stub
stuff
style
styles
stylesheet
su
sub
subcategories
subcategory
subfunc
subgroup
subgroups
subject
subjectlink
submenu
submit
subpage
subpages
subst
substantial
substitution
substr
substring
subtropical
subvalue
success
successful
such
suffice
sugataci
sugatavidatthiya
sukunimi
summaries
summary
summaryad
summaryfunctionadded
summarytext
suomi
suppat
support
supported
supports
sure
susam
suyyanti
svenska
svg
swap
switch
synonym
syntax
syntheses
synthesis
sysop
sysops
system
t
ta
tab
tabbam
tabbo
table
tables
tag
taga
tagalog
tagged
tagging
taggingcategory
taggingimage
tags
take
talk
talkback
talkbacks
talkpage
tam
tan
tantava
target
targetdialogcontent
targets
targetstr
tasikkha
tasma
tasmim
tassa
tatarc
tatha
tatheva
tatiyampi
tatiyo
tato
tatra
tatridam
tattha
tbody
td
tdel
te
team
technical
technically
tekija
telugu
temp
template
templatecat
templates
templatetext
temporarily
temporary
tense
term
test
testing
tests
text
textalign
textarea
textbox
textcontent
textnoafd
textnosd
textselection
textsummary
textvalue
tfd
tfdinline
th
than
thank
thanks
that
the
their
them
then
there
these
they
thing
things
think
third
this
thispage
those
threats
three
through
throw
thu
thumb
thus
ti
tidy
tim
time
timer
times
timokkham
timokkhe
tin
tipsy
tiraccha
tiriyam
tit
title
titlebar
titleclass
titlegroup
titles
titlestyle
tmp
to
toc
toca
toch
toclevel
tocli
toclimit
tocnumber
toctable
toctd
toctitle
toctoggle
toctogglelink
toctr
tocul
today
todayslist
toggle
token
tolowercase
tone
too
tool
toolbar
toolbars
tools
tooltip
tooltop
top
topic
toprecision
topwelcomes
torev
tostring
total
touppercase
touppercasefirstchar
tpv
tr
track
tracking
traditional
transbuffer
transclude
transcludes
transcluding
transcript
transettings
transetup
transform
translated
translation
translations
translistbox
translit
transliteratekey
transliteration
transparent
transtool
transwiki
triggering
true
try
tse
tto
tu
tulasi
tumhe
tun
turn
turned
tuvat
tvam
tw
twaddportlet
twaddportletlink
twinkle
twinklebatchdelete
twinkleconfig
twinkledelimages
twinkleimage
twinkleoptions
twinklepref
twinklespeedy
twinkleuserauthorized
twinklewarn
twinklexfd
two
txtarea
type
typeof
types
typically
tzebuergesch
u
uaa
ubbhaja
ubbhatasmim
ublock
ucca
udakam
uddesa
uddesam
uddese
uddisikena
uddissa
uddissama
uddit
uggan
uhblock
ui
uid
ujjha
uk
ul
uman
ummadda
un
unambiguous
uncen
uncollapsed
undefined
under
underline
unencyclopedic
unfree
uniform
unit
universe
unknown
unksource
unless
unlink
unlinkcache
unlinknamespaces
unnamed
unnecessarily
unprotect
unprotection
unpublished
unreferenced
unregistered
unrelated
unremarkable
unreviewed
unsourced
unused
up
upa
upasan
upat
upcomment
update
updating
upform
upload
uploaded
uploader
uploading
upname
upon
upper
upright
url
us
usage
use
used
useful
user
userboxes
userisingroup
userjs
username
usernotification
usernotificationmain
userpage
userreq
users
userspace
userspaceowner
usertalk
usertalkpage
usertalkpagemode
usertexteditcallback
uses
using
usingtwcfg
ussukkam
usually
utc
utm
utparams
uttari
uw
v
va
vacani
vaccakaro
vadeyya
vajjappat
val
valid
value
valued
values
vam
van
vanarticle
vand
vandal
vandalism
var
vara
varaceta
varada
varaka
varam
varappama
varasikkha
varasmim
vare
varena
various
vaseyya
vassa
vassam
vatatiyakam
vatatiyam
vatatiyan
vatva
vaublock
vblock
vcard
ve
vector
version
vertical
very
veyya
vi
via
vibhijain
vidatthiyo
video
vie
view
viewing
viewpoint
viha
viharanti
viharati
vihesika
vika
vikappam
village
vin
vinayena
vinim
violating
violation
violations
visible
visual
visualeditor
vita
vivekan
viviccatha
vo
voablock
volume
voting
vu
vuccama
vuccati
vuran
vuso
vut
vutta
w
want
wanted
war
warn
warning
warnings
warring
was
watch
watchlist
watchlistoption
watchpage
watchprodpages
watchrevertedpages
watchspeedypages
watchtaggedpages
watchwarnings
watchwelcomes
way
we
weasel
web
website
week
weeks
weight
wel
welc
welcom
welcome
welcomeanon
welcomeauto
welcomeg
welcomeh
welcomeheading
welcomelaws
welcomelink
welcomemenu
welcomenode
welcomenpov
welcomes
welcomeshort
welcomesimple
welcomespam
welcomeunsourced
welcomeuseronspeedydeletionnotification
welcomevandal
welcoming
well
were
wgaction
wgarticlepath
wgcanonicalspecialpagename
wgnamespacenumber
wgpagename
wgscriptpath
wgserver
wgtitle
wgusername
what
whatever
when
where
whether
which
while
white
whitelisted
who
whole
whose
why
wide
widget
width
wiki
wikicode
wikikosh
wikimedia
wikipage
wikipedia
wikiproject
wikis
wikisource
wikitext
will
window
wish
with
within
without
wmf
wolof
won
word
words
work
workingstring
works
world
would
wp
wpdestfile
wpnewtitle
wpreason
wpsummary
wptext
wptextbox
wpuploaddescription
wrap
wrapping
writing
written
wt
www
x
xfd
xfdcat
xfdreason
xfdtarget
xfdwatchdiscussion
xfdwatchlist
xfdwatchpage
xfdwatchuser
xml
xmldoc
xx
xxx
y
ya
yam
yama
yappaca
yasmanto
yassa
yatha
year
years
yena
yes
yet
yeyya
yika
yikini
yo
yoru
you
your
yourself
yu
yya
yye
z
{
|
}
~
·
ŋ
ʻ
̀
́
̂
̃
̄
̆
̇
̈
̊
̌
̓
̔
̣
̤
̧
̨
̭
α
ε
ελληνικα
адыгэбзэ
беларуская
български
коми
македонски
монгол
н
нська
русскии
српски
түркмен
у
украі
հայերեն
ִ
עברית
ا
اردو
العربية
اوزبیکچه
س
شاہ
فارسی
مکھی
ه
و
ي
َ
ُ
ِ
ٓ
ٔ
ހ
ވ
ދ
ި
ެ
ँ
ं
ः
अ
अक
अगस
अङ
अज
अञ
अट
अत
अथव
अध
अन
अप
अफ
अफग
अभ
अम
अर
अल
अवत
अवयव
अवस
अस
असमरज
अह
आ
आक
आण
आध
आनन
आय
आयरल
आर
आस
इ
इज
इड
इण
इत
इन
इप
इमस
इस
ई
ईन
ईम
ईर
ईश
ईस
उ
उच
उट
उत
उद
उन
उप
उपय
उर
ऊ
ऊदक
ऋ
ऌ
ऍ
ऎ
ए
एक
एकस
एत
एतस
एम
एल
एव
एवम
एश
एस
ऐ
ऑ
ऒ
ओ
ओस
औ
और
क
कट
कण
कथ
कन
कम
कर
करण
करन
कल
ख
खक
खन
ग
गच
गण
गणर
गत
गन
गफ
गमण
गर
गल
गह
गहर
घ
घटन
घपर
ङ
च
चक
चत
चतर
चन
चर
छ
ज
जक
जगद
जध
जन
जनस
जप
जम
जय
जर
जव
जस
झ
ञ
ञत
ट
टक
टयय
टर
टल
ठ
ठम
ठल
ठस
ड
डकर
डन
डर
डल
डलम
डस
ढ
ण
त
तक
तग
तत
तथ
तन
तप
तब
तम
तर
तलम
तस
थ
थक
थम
थल
थव
द
दक
दन
दब
दय
दर
दल
दव
दस
ध
धक
धत
धन
धम
धर
धस
न
नकर
नगर
नद
नध
नन
नम
नय
नव
नस
प
पक
पच
पट
पठव
पण
पत
पद
पन
पप
पब
पम
पय
पर
परम
पल
पवत
पस
फ
फलक
ब
बत
बद
बन
बर
बस
बह
भ
भगव
भर
भव
म
मक
मग
मच
मज
मञ
मण
मत
मध
मन
मप
मभद
मय
मर
मल
मस
मह
य
यक
यच
यत
यथ
यद
यन
यम
ययन
यर
यस
र
रक
रचन
रज
रठ
रण
रत
रतन
रतवस
रतस
रदर
रन
रम
रय
रव
रस
रह
ल
लक
लकड
लङ
लप
लय
लव
लस
ळ
व
वक
वज
वत
वन
वनस
वमण
वर
वश
वस
वसक
श
शत
शब
शर
शल
शस
ष
षण
षत
षन
स
सक
सकत
सग
सच
सट
सत
सथ
सद
सन
सनस
सप
सब
सभ
सम
सय
सर
सरणम
सस
ह
़
ऽ
ा
ि
ी
ु
ू
ृ
ॄ
ॅ
ॆ
े
ै
ॉ
ॊ
ो
ौ
्
ॐ
॑
॒
॓
॔
ॠ
ॡ
ॢ
ॣ
।
॥
०
१
१०
११
१२
१४
१४१
१५
१६
१६२
१७
१८
१८११
१९
१९२
१९५०
१९८८
२
२०००
२००२
२००८
२०१२
२०१६
२०२२
२३
२४
२६
३
४
४४
५
५५
६
६६
७
८
९
९१
॰
ॲ
ং
ঠ
ণ
প
ব
য
র
ল
ষ
়
া
ি
ী
ু
্
ਖ
ਗ
ਜ
ਪ
ਬ
ਾ
ੀ
ੁ
ੰ
ગ
જર
ત
ા
ી
ુ
ଆ
଼
ି
தம
ழ
ி
்
గ
త
ల
ు
ె
ಕನ
ತ
ನಡ
ಳ
ು
್
ം
ഈ
ക
ങ
ച
ട
ഡ
ത
ധ
ന
പ
ഫ
മ
മലയ
യ
ര
റ
ല
ള
വ
ശ
സ
ാ
ി
ീ
ു
ൂ
െ
േ
ൈ
്
ൽ
ൾ
ං
න
ව
ස
ා
ි
ั
ພາສາລາວ
་
ཁ
ག
ང
ད
བ
ཡ
ར
ི
ོ
ྫ
တ
န
ဘ
မ
ယ
သ
ာ
း
်
ြ
ၢ
ၵ
ႂ
ႆ
ქართული
남성연대
성재기
한국어
ᜈ
ᜊᜌ
ᜒ
᜔
ខ
ភ
ម
រ
ស
ា
ែ
្
ᨁ
ᨕ
ᨗ
ᨙ
ᬶ
ᮓ
ᮔ
ᮞ
ᮥ
᮪
‌
‍
‎
–
—
‘
’
•
…
↔
↷
③
④
⑦
┌
☄
☉
☊
☋
☾
☿
♀
♂
♃
♄
♅
♆
♈
♉
♊
♋
♌
♍
♎
♏
♐
♑
♒
♓
⚳
⯓
⯰
ⰲ
ⰽ
ⰾ
ⱀ
ⱁ
ⱄ
ⱏ
ⱐ
ⱑ
ⴰ
ⵉ
ⵎ
ⵖ
ⵜ
ⵣ
⺀
⺄
⺆
⺈
⺊
⺌
⺕
⺝
⺸
⺼
⿰
⿱
⿲
⿳
⿴
⿵
⿶
⿷
⿸
⿹
⿺
⿻
〢
か
ら
゙
カ
コ
シ
ユ
ョ
ン
ー
㇁
㇂
㇄
㇇
㇈
㇉
㇓
㐁
㐄
㐅
㐌
㐫
㐬
㐭
㐮
㐱
㑒
㒵
㒸
㒼
㓁
㓞
㔾
㕛
㕣
㖾
㘝
㚅
㚇
㚔
㚘
㝉
㝡
㝴
㝵
㞋
㞢
㞷
㠩
㠭
㠯
㡀
㡭
㡿
㢲
㢴
㣇
㣺
㥯
㪅
㫄
㫐
㫒
㫺
㬅
㬎
㬥
㬰
㲋
㳄
㷠
㸒
㸚
㸦
㼌
㼲
㽞
㿟
䀠
䂞
䍃
䏍
䒑
䖍
䖒
䖝
䖵
䙴
䚻
䜌
䝿
䡛
䧹
䪞
一
丁
丂
七
丄
丅
丆
万
丈
三
上
下
丌
不
与
丏
丐
丑
专
且
丕
世
丘
丙
业
东
丞
丢
丣
两
严
並
丨
丩
个
丫
丬
中
丮
丰
丱
串
丵
丶
丷
丸
丹
为
主
丽
丿
乀
乂
乃
久
乆
乇
么
义
之
乌
乍
乎
乏
乐
乑
乔
乖
乗
乘
乙
乚
乛
乜
九
乞
也
习
乡
乳
乾
亀
亅
了
亇
予
争
事
二
亍
于
亏
亐
云
互
亓
五
井
亘
亚
亜
亞
亟
亠
亡
亢
交
亥
亦
产
亨
亩
享
京
亭
亮
亯
亰
亲
亳
亶
亷
人
亻
亼
亾
仁
今
介
仌
从
仐
仑
仒
仓
仕
他
付
仝
代
令
以
任
企
伊
伏
伐
休
会
伯
但
位
何
佘
余
作
佥
使
來
侈
侌
侖
侯
侵
便
保
俞
信
修
倉
倍
候
倠
備
僉
僕
僮
儿
兀
允
兂
元
兄
充
兆
兇
先
光
兊
克
兌
免
兑
兒
兓
兔
党
兜
兟
入
全
兩
兪
八
公
六
兮
兰
共
关
兵
其
具
典
兹
兼
冀
冂
冃
冄
内
冈
冉
冊
冋
册
再
冎
冏
冐
冒
冓
冖
冗
冘
军
农
冝
冡
冥
冫
冬
冷
几
凡
凢
凵
凶
凷
凸
凹
出
函
凾
刀
刁
刂
刃
刄
刅
分
切
刍
刑
刕
刖
列
刘
则
初
別
利
别
到
制
刺
則
削
剌
前
剡
剽
劉
力
功
加
劦
助
劫
劳
劵
勃
勇
勉
勒
動
務
勞
勤
勹
勺
勻
勾
勿
匀
匂
包
匆
匈
匊
匋
匍
匕
化
北
匚
匝
匡
匪
匱
匸
匹
区
医
匽
匿
區
十
卂
千
卄
卅
卆
升
午
卉
半
卌
华
卑
卒
卓
单
卖
南
卜
卝
卞
占
卡
卢
卣
卤
卦
卩
卪
卬
卯
印
危
即
却
卵
卷
卸
卻
厂
厃
厄
历
厈
厉
厌
厓
厘
厚
原
厤
厥
厨
厭
厲
厶
厷
厸
去
厼
厽
叀
参
參
叅
又
叉
及
友
双
反
叐
发
叒
叔
叕
取
受
叚
叜
叟
口
古
句
另
叩
只
召
可
台
叱
史
右
叵
号
司
叹
吂
各
吅
合
吉
吊
吋
同
名
后
吏
向
吕
君
吝
吞
否
含
启
吳
吴
吹
吾
呂
呆
呈
告
员
呙
周
命
咅
和
咎
咠
咢
咨
咸
咼
哀
品
哉
員
哥
哲
唐
商
啇
問
啚
啬
啻
善
喜
喬
單
喿
嗇
噩
嚴
囊
囗
囘
囙
囚
四
回
囟
因
囧
囬
困
囱
囷
固
国
圂
圅
國
圍
圓
土
圡
圣
圥
在
圭
地
圶
圼
坐
坒
坚
坴
垂
垔
垚
埀
埋
埶
執
基
堂
堅
堆
堇
堯
塞
墨
壘
士
壬
壯
声
壳
壴
壹
壺
壽
夂
处
夅
夆
备
夊
夋
夌
复
夏
夒
夕
外
夗
夘
多
夜
夢
大
夨
天
太
夫
夬
夭
央
失
夲
头
夷
夸
夹
夻
夾
奂
奄
奇
奈
奉
奎
奏
奐
契
奓
奔
奚
奞
奠
奢
奥
奭
女
奴
奻
好
如
妄
妙
妟
妥
妻
妾
姑
委
姜
威
娄
婁
婴
嬰
嬴
子
孑
孔
孕
孖
字
存
孚
孛
孝
孟
季
孤
学
孫
孱
學
宀
宁
宂
它
宅
宇
守
安
宋
完
宏
宓
宗
官
定
宛
宜
宝
客
宣
室
宮
宰
害
家
容
宾
宿
寄
寅
密
富
寒
察
寧
審
寫
寬
寮
寸
对
寺
寻
寽
対
寿
封
尃
射
将
將
專
尉
尊
尋
尌
對
小
少
尒
尓
尔
尖
尗
尚
尞
尢
尣
尤
尧
尨
尭
就
尸
尹
尺
尻
尼
尽
尾
尿
局
居
屈
屋
屎
屏
屑
展
屖
屚
属
屠
屡
屬
屮
屯
屰
山
屵
屾
岁
岂
岑
岡
岩
岳
岸
峯
島
崇
崑
崔
崖
崙
崩
嵬
嶲
巂
巛
川
州
巟
巠
巢
巤
工
左
巧
巨
巩
巫
差
己
已
巳
巴
巷
巸
巽
巾
巿
帀
市
布
希
帚
帛
帝
带
師
席
帶
常
干
平
年
幵
并
幷
幸
幺
幻
幼
幽
幾
广
広
庄
床
底
店
庚
府
度
庫
庭
庶
康
庸
廉
廌
廛
廣
廩
廴
延
廷
建
廾
廿
开
弁
弃
弄
弇
弋
式
弓
弔
引
弗
弘
弜
弟
弥
弦
弱
張
強
强
彊
彌
彎
彐
彑
当
彔
录
彖
彗
彡
形
彥
彦
彧
彭
彳
役
彼
往
待
律
徒
得
徙
從
復
微
徵
心
忄
必
忌
忍
志
忝
忠
忩
快
念
忽
忿
思
怠
急
怱
恆
恒
恩
恭
息
悉
患
悤
悲
悶
惠
惡
惢
愁
愈
意
愛
感
慈
慧
慮
憂
憲
應
戀
戈
戉
戊
戋
戌
戍
戎
成
我
戒
戔
或
戚
戠
戢
截
戲
戶
户
戹
戼
戾
房
所
扁
扇
手
扌
才
打
托
执
承
折
拉
拜
拿
掌
推
提
摩
撒
支
攴
攵
收
攸
改
放
政
敄
故
敏
敕
敖
敗
敝
敞
敢
散
敦
敫
敬
数
敷
數
斂
文
斉
斊
斗
斤
斥
斩
斬
斯
新
方
於
施
斿
旁
旋
族
无
旡
既
旣
日
旦
旧
旨
早
旬
旱
旲
时
旾
昆
昇
昌
昍
明
昏
易
昔
昗
昜
星
春
昬
是
昱
昴
昷
時
晃
晋
晏
普
景
晶
智
暑
暴
曇
曩
曰
曲
曳
更
曷
書
曹
曼
曾
替
最
朁
會
月
有
朋
服
朔
朕
朗
望
朝
木
朩
未
末
本
札
朮
术
朱
朵
朶
朿
杀
杏
杜
束
条
来
東
杲
杳
松
析
林
枚
果
枝
枲
枼
某
柔
查
柬
柰
柴
栗
桀
桑
桼
梁
條
梟
梨
棘
棠
棥
森
楚
業
楽
榮
樂
樊
欠
次
欣
欮
欲
欶
欽
款
歆
歇
歛
止
正
此
步
武
歨
歪
歮
歯
歰
歲
歴
歷
歸
歹
歺
死
殳
段
殷
殸
殹
殺
殻
殿
毋
毌
母
每
毒
比
毕
毚
毛
毳
氏
氐
民
气
氣
水
氵
氶
氷
永
氺
氾
求
汝
汞
江
沃
沓
沙
沝
泉
法
波
泣
泥
泰
洛
洪
活
派
流
浦
浪
浮
淡
淮
清
渚
渠
湯
滿
漸
火
灬
灭
灰
灵
灷
炅
炎
炏
炗
炙
炭
為
烈
烏
烝
焉
無
焦
焱
然
煞
熊
熏
燕
營
燮
爪
爫
爭
爯
爰
爱
爲
爵
父
爻
爽
爾
爿
片
牙
牚
牛
牜
牟
牢
牧
牪
牽
犀
犬
犭
犮
狂
狄
狊
独
狺
猋
猒
猪
献
獻
玄
率
玉
王
玟
玨
珎
班
琴
瑟
瑩
瓜
瓦
甘
甚
生
産
用
甫
甬
田
由
甲
申
电
甶
男
甸
甹
画
甾
畀
界
畏
畐
留
畜
畟
畢
畧
畨
番
畫
異
畱
當
畺
畾
疊
疋
疌
疑
疒
疾
癶
癸
癹
登
發
白
百
皀
皃
的
皆
皇
皋
皐
皕
皮
皷
皿
盃
盆
盇
盈
益
盍
盎
监
盒
盖
盛
盡
監
盤
盧
目
直
相
盾
省
眇
眉
看
眔
眞
真
眷
眼
眾
着
睘
睪
睿
瞏
瞢
瞿
矍
矛
矞
矢
矣
知
矦
短
石
破
碎
磊
磨
示
礻
礼
祟
票
祭
禀
禁
禸
禹
禺
离
禽
禾
禿
秀
秃
秉
秋
科
秝
秦
移
稟
穀
穌
穴
究
穹
空
穿
突
窄
窒
立
竒
竜
竝
竟
章
童
竹
笑
笠
筆
等
答
箕
算
箴
節
篤
篭
米
粉
粛
粟
粤
粦
粲
粵
糞
糸
糹
系
約
納
素
索
紫
累
細
絜
絫
絲
維
綿
縣
繇
纍
纟
缶
网
罒
罔
罕
罗
罙
罡
罢
罪
署
罷
羅
羊
羌
羍
美
羔
羕
羗
羞
羡
羣
群
義
羲
羸
羽
翁
翏
習
翕
翟
翠
翼
老
耂
考
者
耆
而
耎
耑
耒
耳
耴
耶
耷
聂
聊
聖
聚
聶
聿
肀
肃
肅
肉
肖
肙
肥
肩
肯
育
肴
胃
背
胡
胥
能
脊
脩
膚
臣
臤
臧
自
臬
臭
臯
臱
至
致
臺
臼
臽
臾
臿
舀
舂
舄
與
興
舉
舌
舍
舛
舜
舞
舟
般
艮
良
色
艸
艹
艾
芒
芔
芬
芮
花
芳
芺
芻
苔
苗
苟
若
苦
英
茶
茸
荅
草
荒
荣
荼
莆
莧
莫
莱
莽
菆
菊
菐
華
萬
落
葉
著
葛
董
葵
蒙
蒦
蒼
蓋
蓬
蓺
蔑
蔡
蕉
蕭
薄
薛
薦
薰
藍
藏
藥
蘭
虍
虎
虐
虒
虔
處
虖
虗
虘
虚
虛
虜
虞
虫
虽
蚤
蚩
蜀
蜜
蟲
蠡
血
行
衍
衛
衣
衤
表
衮
衰
袁
袞
褭
褱
襄
襾
西
覀
要
覃
見
規
覓
覧
親
覽
见
角
解
言
訁
訇
計
話
詹
語
誩
諸
讠
语
谷
豆
豈
豊
豐
豕
豖
豙
象
豦
豩
豪
豸
貇
貝
貞
貟
負
貢
貧
貪
貫
責
貳
貴
買
費
賁
資
賈
賏
賓
賔
賛
賞
賢
賣
質
賴
贊
贛
贝
贡
责
贯
贲
贵
赖
赞
赤
赦
走
越
足
路
蹇
身
躬
車
軍
軎
軟
輦
车
辛
辜
辟
辥
辰
辱
農
辵
辶
边
达
过
近
连
迷
追
退
送
逆
逐
通
速
造
逢
連
逮
進
遀
遂
過
道
達
遣
適
遷
遺
邊
邑
邕
那
邦
邪
郎
部
郭
都
鄉
酉
酋
配
酓
釆
采
里
重
野
量
金
釒
錢
钅
長
镸
长
門
閃
閉
開
閏
閑
閒
間
閔
閩
閵
閻
闌
门
间
闷
闽
阑
阜
阝
阿
降
陳
隆
隊
隋
隡
隨
隱
隶
隹
隺
隻
隼
隽
难
雀
雁
雅
集
雈
雋
雍
雐
雔
雙
雚
雜
雝
離
難
雨
雩
雪
雲
零
雷
需
霍
霜
霝
霞
霸
靈
靑
青
非
靡
面
靣
革
韋
韦
韭
韯
韱
音
頁
頃
項
須
頗
頡
頻
顛
页
風
风
飛
飞
食
飠
養
饣
首
香
馬
馮
駦
马
骨
高
髟
鬥
鬯
鬲
鬼
魚
魯
鮮
鱼
鲁
鳥
鳳
鸟
鹵
鹿
麃
麗
麥
麦
麻
黃
黄
黍
黎
黑
黒
黨
黹
黽
黾
鼎
鼓
鼠
鼻
齊
齋
齐
齒
齿
龍
龙
龜
龟
龠
龰
龱
龴
龵
龶
龷
龸
龹
ꆇ
ꉙ
ꦗ
ꦧ
ꦮ
ꦱ
ꭹ
ꮃ
ꮳ
ꯂ
ꯃ
ꯇ
ꯟ
ꯣ
ꯩ








者
艹
︎
﻿
？
𐌲
𐌹
𐌺
𐌿
𐍃
𐍄
𑀁
𑀅
𑀏
𑀓
𑀔
𑀕
𑀘
𑀚
𑀝
𑀢
𑀣
𑀤
𑀥
𑀦
𑀧
𑀩
𑀪
𑀫
𑀬
𑀭
𑀮
𑀯
𑀰
𑀱
𑀲
𑀳
𑀸
𑀺
𑀻
𑀼
𑀽
𑁂
𑁄
𑁆
𑁇
𞤢
𞤤
𞤨
𞤪
𞤵
🜨
𠀁
𠀃
𠀆
𠀉
𠀎
𠀐
𠁁
𠁣
𠂆
𠂇
𠂈
𠂉
𠂊
𠂋
𠂎
𠂒
𠂔
𠂛
𠂡
𠂢
𠂤
𠂬
𠂭
𠂹
𠃊
𠃋
𠃌
𠃍
𠃎
𠃑
𠃓
𠃔
𠃜
𠄌
𠄎
𠄠
𠄢
𠆢
𠆥
𠇍
𠈌
𠌵
𠓜
𠔉
𠔥
𠔼
𠔽
𠔿
𠕀
𠕁
𠕋
𠘧
𠘨
𠙻
𠙼
𠚏
𠚒
𠚤
𠚪
𠣏
𠤎
𠤕
𠥓
𠦄
𠦑
𠦝
𠧒
𠧗
𠧪
𠩺
𠪚
𠫓
𠫔
𠫤
𠬛
𠬝
𠬞
𠬢
𠬤
𠬶
𠮛
𠮦
𠮷
𠯑
𠱠
𠳮
𠷎
𡈼
𡉀
𡉵
𡌥
𡍮
𡏳
𡕒
𡕩
𡕰
𡖅
𡗗
𡗜
𡘆
𡘤
𡧱
𡨄
𡩧
𡬠
𡭽
𡰣
𡰥
𡰪
𡰯
𡰱
𡷈
𡸁
𡿨
𡿩
𡿪
𡿺
𢀖
𢀛
𢀩
𢁙
𢆉
𢆰
𢆶
𢇁
𢇇
𢉖
𢌬
𢌿
𢏚
𢑑
𢑚
𢖻
𢙣
𢛳
𢦏
𢦒
𢧵
𢼄
𢾕
𣁋
𣄼
𣅀
𣅽
𣍘
𣎳
𣎵
𣏋
𣏼
𣗥
𣥂
𣥖
𣦵
𣦼
𣧄
𣪊
𣪠
𣬉
𣳾
𣶒
𤇾
𤊽
𤐫
𤓰
𤔔
𤕨
𤣩
𤰇
𤰔
𤰞
𤴓
𤴔
𤽄
𥁑
𥁕
𥃦
𥃩
𥃭
𥇡
𥑟
𥘅
𥘈
𥝢
𥫗
𥱡
𦈢
𦉪
𦉬
𦉼
𦍌
𦍒
𦎧
𦐇
𦓔
𦔮
𦘒
𦙃
𦚏
𦣝
𦣞
𦣻
𦥑
𦥔
𦥯
𦨉
𦭝
𦰩
𧆞
𧈧
𧘇
𧰨
𧴪
𧴮
𧵩
𧾷
𨸏
𨾴
𩙿
𩠐
𩫏
𩵋
𪉷
𪜀
𪟽
𪠲
𪩲
𫇦
𫔭
𫜸
𫝀
𫠣
𫠩
𫢉
𫥞
𫩏
𫩠
𫪡
𫲽
𫶧
𬀷
𬐘
𬗌
𬙙
𬛸
𬜯
𬟩
𬯁
𬴘
𬺻
𬼉
𬼖
𭀰
𭁈
𭁨
𭅰
𭑈
𭕄
𭗼
𭤨
𭥫
𭻾
𮅕
𮊿
𮍌
𮍏
𮓗
𮥼
𮧮
廾
𰀁
𰀄
𰀈
𰀉
𰀕
𰀠
𰀡
𰀢
𰀪
𰁜
𰃮
𰆊
𰆘
𰋙
𰕎
𰢴
𰧭
𰯲
0--
06--
10--
11--
19--
20--
77--
a--
ab--
abhi--
acce--
acchin--
ad--
add--
ag--
ak--
ala--
ali--
all--
an--
anu--
any--
ap--
app--
ar--
ara--
as--
at--
au--
auto--
ava--
ay--
azərbay--
b--
ba--
batchun--
bc--
be--
begi--
bha--
bi--
blp--
book--
br--
brahma--
by--
c--
ca--
cas--
ch--
cha--
change--
che--
chi--
ci--
cigha--
clo--
co--
com--
con--
conso--
copy--
cor--
cu--
d--
da--
das--
dbmultiple--
de--
delete--
dhi--
di--
diacri--
dis--
du--
dupli--
dutiya--
dy--
e--
ea--
edit--
em--
emp--
en--
encou--
encyclo--
es--
et--
ex--
exclu--
exper--
f--
fa--
fi--
fn--
for--
friendly--
friendlytag--
g--
ga--
gan--
ge--
get--
gi--
gihi--
go--
gre--
group--
gu--
h--
ha--
hama--
han--
hand--
has--
hat--
he--
hi--
high--
his--
ho--
horiz--
hu--
i--
ide--
ig--
iggahe--
ika--
im--
imp--
in--
inc--
incon--
inner--
insert--
inter--
intri--
intro--
is--
it--
ita--
j--
ja--
ji--
jo--
julka--
k--
ka--
kala--
kamma--
ke--
ker--
khambha--
ko--
kre--
ku--
kukkuc--
l--
la--
last--
lat--
le--
left--
li--
lo--
load--
log--
lux--
m--
ma--
maa--
main--
man--
mark--
max--
me--
mean--
mem--
meta--
mi--
mis--
mo--
move--
mu--
muk--
multi--
my--
n--
na--
nat--
nav--
ne--
ni--
no--
non--
nor--
o--
old--
on--
open--
out--
over--
p--
pa--
paj--
pakka--
pari--
path--
pavi--
pe--
per--
pi--
piya--
pla--
plain--
po--
pol--
pre--
pri--
pro--
pseu--
pu--
pub--
purisa--
q--
r--
ra--
ratan--
ray--
re--
read--
rec--
ri--
ro--
ru--
rv--
s--
sa--
sab--
sakkac--
san--
sar--
scho--
scro--
se--
set--
sha--
si--
sis--
sit--
slo--
so--
sock--
sto--
string--
su--
sub--
suc--
suga--
sugges--
sut--
sutta--
swe--
t--
ta--
tag--
tagging--
tala--
te--
this--
ti--
to--
tr--
tu--
twi--
twinkle--
u--
ud--
uda--
uddi--
uk--
un--
uni--
unlinkimage--
up--
upa--
uposat--
user--
uttarimanussa--
uyyo--
v--
va--
vad--
vari--
vasatha--
vat--
ve--
vi--
vin--
vit--
vo--
w--
wa--
welcoming--
wiki--
x--
y--
ya--
yas--
yat--
ye--
z--
به--
ک--
अ--
आ--
इ--
ई--
उ--
ए--
ओ--
औ--
क--
ख--
ग--
घ--
च--
छ--
ज--
जन--
झ--
ट--
ठ--
ण--
त--
थ--
द--
ध--
न--
प--
फ--
ब--
भ--
म--
य--
र--
ल--
व--
श--
ष--
स--
ह--
१--
१०--
११--
१२--
१३--
१४--
१५--
१६--
१७--
१८--
१९--
२--
२०--
३--
४--
५--
६--
७--
८--
९--
ഇ--
ക--
--0
--1
--2
--3
--4
--5
--6
--7
--8
--9
--a
--abbam
--able
--ac
--ai
--al
--am
--an
--ant
--ar
--ary
--at
--ate
--ation
--ations
--ayo
--b
--ba
--bbam
--blp
--bo
--board
--box
--c
--ca
--cal
--callback
--case
--cca
--ce
--cent
--ch
--chunks
--ci
--ck
--code
--cs
--ct
--cted
--cy
--d
--da
--date
--de
--di
--e
--ection
--ed
--en
--end
--ent
--er
--erate
--ers
--es
--evaluate
--f
--failure
--fied
--ft
--ful
--fy
--g
--ga
--gan
--ge
--ggo
--gh
--h
--ha
--hash
--hena
--hi
--i
--ia
--ial
--ian
--ible
--ic
--ict
--id
--ies
--il
--in
--ine
--ing
--ion
--ions
--iontext
--is
--ish
--ism
--it
--ituted
--ity
--ive
--iya
--ize
--ja
--jja
--k
--ka
--kam
--ke
--ki
--l
--la
--lakoso
--lavijja
--led
--left
--less
--level
--link
--list
--login
--lt
--ly
--lya
--m
--ma
--me
--ment
--mincutoff
--mission
--n
--na
--name
--nce
--nced
--nd
--nded
--ne
--ng
--ni
--nna
--no
--nt
--nts
--ny
--o
--of
--on
--onal
--ons
--op
--or
--ous
--p
--pa
--page
--pi
--pu
--r
--ra
--range
--rat
--re
--retries
--rge
--ri
--rn
--rs
--ry
--s
--sa
--san
--sc
--se
--sed
--sh
--si
--sian
--sion
--so
--ss
--ssa
--st
--style
--sub
--success
--t
--ta
--te
--ted
--tely
--ter
--tes
--th
--tha
--ti
--ties
--tion
--tiya
--to
--top
--ts
--tta
--ttam
--ttum
--tu
--tva
--ty
--type
--types
--u
--uctive
--ue
--ugh
--um
--un
--ur
--url
--us
--user
--ut
--v
--va
--vaggo
--value
--vely
--w
--x
--y
--ya
--ye
--yo
--zi
--ь
--ردی
--क
--ग
--च
--ज
--ट
--ण
--त
--द
--ध
--न
--प
--ब
--म
--य
--र
--ल
--व
--श
--स
--ह
--०
--००
--०१
--०२
--०३
--०४
--०५
--०६
--०७
--०८
--०९
--१
--१३
--२
--२०
--२१
--२२
--२५
--२७
--२८
--२९
--३
--३०
--३१
--३२
--३३
--३४
--३५
--३६
--३७
--३८
--३९
--४
--४०
--४१
--४२
--४३
--४५
--४६
--४७
--४८
--४९
--५
--५०
--५१
--५२
--५३
--५४
--५६
--५७
--५८
--५९
--६
--६०
--६१
--६२
--६३
--६४
--६५
--६७
--६८
--६९
--७
--७०
--७१
--७२
--७३
--७४
--७५
--७६
--७७
--७८
--७९
--८
--८०
--८१
--८२
--८३
--८४
--८५
--८६
--८७
--८८
--८९
--९
--९०
--९२
--९३
--९४
--९५
--९६
--९७
--९८
--९९
