!
"
#
##0
##1
##10
##11
##12
##13
##14
##15
##16
##17
##18
##19
##2
##20
##21
##22
##23
##24
##25
##26
##27
##28
##29
##3
##30
##31
##32
##33
##34
##35
##36
##37
##38
##39
##4
##40
##41
##42
##43
##44
##45
##46
##47
##48
##49
##5
##50
##51
##52
##53
##54
##55
##56
##57
##58
##59
##6
##60
##61
##62
##63
##64
##65
##66
##67
##68
##69
##7
##70
##71
##72
##73
##74
##75
##76
##77
##78
##79
##8
##80
##81
##82
##83
##84
##85
##86
##87
##88
##89
##9
##90
##91
##92
##93
##94
##95
##96
##97
##98
##99
$
%
&
'
(
)
*
+
,
-
.
/
0
00
000
001
002
003
01
010
016
02
021
03
035
037
038
04
043
045
05
052
06
066
069
07
08
081
09
090
095
098
1
10
100
1000
1001
1002
1003
1004
1005
1006
1007
1008
1009
101
1010
1011
1012
1013
1014
1015
1017
1018
1019
102
1020
1021
1022
1023
1024
1025
1026
1027
1028
1029
103
1030
1031
1032
1034
1035
1036
1037
1038
1039
104
1040
1041
1042
1043
1044
1045
1046
1047
1048
1049
105
1050
1051
1052
1053
1054
1055
1056
1057
1058
1059
106
1060
1061
1062
1063
1064
1065
1066
1067
1068
1069
107
1070
1071
1072
1073
1074
1075
1076
1077
1078
1079
108
1080
1081
1082
1083
1084
1085
1086
1087
1088
1089
109
1090
1091
1092
1093
1094
1095
1096
1097
1098
1099
11
110
1100
1101
1102
1103
1104
1105
1106
1107
1108
1109
111
1110
1111
1112
1113
1114
1115
1116
1117
1118
1119
112
1120
1121
1122
1123
1124
1125
1126
1127
1128
1129
113
1130
1131
1132
1133
1134
1135
1136
1137
1138
1139
114
1140
1141
1142
1143
1144
1145
1146
1147
1148
1149
115
1150
1151
1152
1153
1154
1155
1156
1157
1158
1159
116
1160
1161
1162
1163
1164
1165
1166
1167
1168
1169
117
1170
1171
1172
1173
1174
1175
1176
1177
1178
118
1180
1181
1182
1183
1184
1185
1186
1187
1188
1189
119
1190
1191
1192
1193
1194
1195
1196
1197
1198
1199
12
120
1200
1201
1202
1203
1204
1205
1206
1207
1208
1209
121
1210
1211
1212
1213
1214
1215
1216
1217
1218
1219
122
1220
1221
1222
1223
1224
1225
1226
1227
1228
1229
123
1230
1231
1232
1233
1234
1235
1236
1237
1238
1239
1240
1241
1242
1243
1244
1245
1246
1247
1248
125
1250
1251
1252
1253
1254
1255
1256
1257
1258
1259
126
1260
1261
1262
1263
1264
1265
1266
1267
1268
1269
127
1270
1271
1272
1273
1274
1275
1276
1277
1278
1279
1280
1281
1282
1283
1284
1285
1286
1287
1288
1289
129
1290
1291
1292
1293
1294
1295
1296
1297
1298
1299
13
130
1300
1301
1302
1303
1304
1305
1306
1307
1308
1309
1310
1311
1312
1313
1314
1315
1316
1317
1318
1319
132
1320
1321
1322
1323
1324
1325
1326
1327
1328
1329
1330
1331
1332
1333
1334
1335
1336
1337
1338
1339
1340
1341
1342
1343
1344
1345
1346
1347
1348
1349
135
1350
1351
1352
1353
1354
1355
1356
1357
1358
1359
1360
1361
1362
1363
1364
1365
1366
1367
1368
1369
1370
1371
1372
1373
1374
1376
1377
1378
1379
138
1380
1382
1383
1384
1385
1386
1387
1388
1389
1390
1391
1392
1393
1394
1395
1396
1397
1398
1399
14
140
1400
1401
1402
1403
1404
1405
1406
1407
1409
141
1410
1411
1412
1413
1414
1415
1416
1417
1418
1419
142
1420
1421
1422
1423
1424
1425
1426
1427
1428
1429
1430
1431
1432
1433
1434
1435
1436
1437
1438
1439
1440
1441
1442
1443
1444
1445
1446
1447
1448
1449
1450
1451
1452
1453
1454
1455
1456
1457
1458
1459
146
1460
1461
1462
1463
1464
1465
1466
1467
1468
147
1470
1471
1472
1473
1474
1475
1476
1477
1478
1479
1480
1481
1482
1483
1484
1485
1486
1487
1488
1489
149
1490
1491
1492
1493
1494
1495
1496
1497
1498
1499
15
150
1500
1501
1502
1503
1504
1505
1506
1507
1508
1509
1510
1511
1512
1513
1514
1515
1516
1517
1518
1519
1520
1521
1522
1523
1524
1525
1526
1527
1528
1529
1530
1531
1532
1533
1534
1535
1536
1538
1539
154
1540
1541
1542
1543
1544
1545
1546
1547
1548
1549
155
1550
1551
1552
1553
1554
1555
1556
1557
1558
1559
1560
1561
1562
1563
1564
1565
1566
1567
1568
1569
1570
1571
1572
1573
1574
1575
1576
1577
1578
1579
1580
1581
1582
1583
1584
1585
1586
1587
1588
1589
159
1590
1591
1592
1593
1594
1595
1596
1597
1598
1599
16
160
1600
1601
1602
1603
1604
1605
1606
1607
1608
1609
161
1610
1611
1612
1613
1614
1615
1616
1617
1618
1619
1620
1621
1622
1623
1624
1625
1626
1627
1628
1629
163
1630
1631
1632
1633
1634
1635
1636
1637
1638
1639
164
1640
1641
1642
1643
1644
1645
1646
1647
1648
1649
165
1650
1651
1652
1653
1654
1655
1656
1657
1658
1659
166
1660
1661
1662
1663
1664
1665
1666
1667
1668
1669
1670
1671
1672
1673
1674
1675
1676
1677
1678
1679
168
1680
1681
1682
1683
1684
1685
1686
1687
1688
1689
169
1690
1691
1692
1693
1694
1695
1696
1697
1698
1699
17
170
1700
1701
1702
1703
1704
1705
1706
1707
1708
1709
1710
1711
1712
1713
1714
1715
1716
1717
1718
1719
1720
1721
1722
1723
1724
1725
1726
1727
1728
1729
1730
1731
1732
1733
1734
1735
1736
1737
1738
1739
1740
1741
1742
1743
1744
1745
1746
1747
1748
1749
175
1750
1751
1752
1753
1754
1755
1756
1757
1758
1759
176
1760
1761
1762
1763
1764
1765
1766
1767
1768
1769
177
1770
1771
1772
1773
1774
1775
1776
1777
1778
1779
178
1780
1781
1782
1783
1784
1785
1786
1787
1788
1789
179
1790
1791
1792
1793
1794
1795
1796
1797
1798
1799
18
180
1800
1801
1802
1803
1804
1805
1806
1807
1808
1809
181
1810
1811
1812
1813
1814
1815
1816
1817
1818
1819
182
1820
1821
1822
1823
1824
1825
1826
1827
1828
1829
183
1830
1831
1832
1833
1834
1835
1836
1837
1838
1839
184
1840
1841
1842
1843
1844
1845
1846
1847
1848
1849
1850
1851
1852
1853
1854
1855
1856
1857
1858
1859
186
1860
1861
1862
1863
1864
1865
1866
1867
1868
1869
187
1870
1871
1872
1873
1874
1875
1876
1877
1878
1879
188
1880
1881
1882
1883
1884
1885
1886
1887
1888
1889
189
1890
1891
1892
1893
1894
1895
1896
1897
1898
1899
19
190
1900
1901
1902
1903
1904
1905
1906
1907
1908
1909
191
1910
1911
1912
1913
1914
1915
1916
1917
1918
1919
1920
1921
1922
1923
1924
1925
1926
1927
1928
1929
193
1930
1931
1932
1933
1934
1935
1936
1937
1938
1939
194
1940
1941
1942
1943
1944
1945
1946
1947
1948
1949
195
1950
1951
1952
1953
1954
1955
1956
1957
1958
1959
196
1960
1961
1962
1963
1964
1965
1966
1967
1968
1969
1970
1971
1972
1973
1974
1975
1976
1977
1978
1979
198
1980
1981
1982
1983
1984
1985
1986
1987
1988
1989
1990
1991
1992
1993
1994
1995
1996
1997
1998
1999
2
20
200
2000
2001
2002
2003
2004
2005
2006
2007
2008
2009
201
2010
2011
2012
2013
2014
2015
2016
2017
2018
2019
2020
2021
2022
2023
2024
2025
2026
2027
2028
2029
203
2030
2031
2032
204
206
21
210
211
214
215
216
218
219
22
220
221
222
2244
225
226
2271
23
230
231
2321
2338
234
235
236
237
238
24
240
242
243
244
245
2478
249
25
250
251
258
26
260
265
266
2685
27
270
274
2760
279
28
280
281
282
285
2861
287
289
29
290
293
295
3
30
300
301
307
309
31
3100
316
3166
317
319
32
320
321
3210
3237
324
3245
325
33
330
336
34
340
342
344
346
35
350
3528
3534
357
3581
36
360
3606
365
366
3666
367
3672
3673
368
3681
3699
37
371
372
3723
377
378
38
3801
3836
389
39
390
391
392
393
4
40
400
4000
402
405
409
41
410
42
420
422
424
425
43
431
44
440
441
445
45
450
455
456
458
459
46
47
471
48
480
49
490
495
499
5
50
500
5000
504
51
510
512
513
518
519
52
53
530
536
539
54
55
56
560
565
57
570
571
572
576
58
59
590
594
6
60
600
601
605
606
608
61
617
62
620
625
626
63
639
640
643
65
650
66
660
67
672
675
68
69
690
694
7
70
700
709
71
710
713
72
721
722
724
73
738
74
740
742
75
76
765
77
772
78
79
790
796
8
80
800
81
810
8168
82
83
832
834
835
84
846
848
85
854
86
87
874
88
89
896
897
898
899
9
90
900
901
902
903
904
905
906
907
908
909
91
910
911
912
913
914
915
916
917
918
919
92
920
921
922
923
924
925
926
927
928
929
93
930
931
932
933
934
935
936
937
938
939
94
940
941
942
943
944
945
946
947
948
949
95
950
951
952
953
954
955
956
957
958
959
96
960
961
962
963
964
965
966
967
968
969
97
970
971
972
973
974
975
976
977
978
9781403917232
979
98
980
981
982
983
984
985
986
987
988
989
99
990
991
992
993
994
995
996
997
998
999
:
;
<
=
>
?
\
_
`
a
aa
aalborg
aarhus
abbas
abboud
abd
abderrahmane
abdullah
aboriginal
about
above
abraham
abzac
ac
academia
academy
accessed
achaemenid
act
ad
adams
add
adelaide
adelsteen
aerial
affairs
afro
against
age
agency
aguilera
aha
ahakoa
ahau
ahaura
ahi
ahia
ahiahi
ahiriana
ahitereiria
ahitereiriana
ahitireiria
ahititi
ahmad
ahmedabad
aho
ahorangi
ahu
ahua
ahuatanga
ahumahi
ahunga
ahupu
ahurea
ahurei
ahuriri
ahuwhenua
ahvaz
ai
aiga
aihikiri
aihikirimi
air
airangi
airani
aires
airihi
airport
aitanga
aitua
aitutaki
aiwene
ak
aka
akara
akarana
akaroa
akau
ake
akiaki
akkadi
ako
akona
akonga
akoranga
aku
akuhata
al
alabama
alam
alamos
alan
alaska
alba
albany
albatross
albert
alborz
albrecht
album
albury
aldehuela
alexander
alexandra
alexandria
algiris
ali
alignbars
all
allan
allen
allman
allow
alma
alone
alphabet
alpine
already
also
alt
am
ama
amahona
amar
amberley
america
american
amerika
amini
amo
amokapua
amorangi
ampang
amsterdam
amu
an
ana
anahe
anakara
anake
anako
anakora
analysing
anas
anatawepa
ancient
and
andalusia
andersen
anderton
andorra
andre
andrew
andrews
andy
anei
anga
angeles
anggun
angiangi
angitu
angola
ani
anime
aniwaniwa
ankara
anna
ano
another
antalya
antananarivo
antoine
antonio
any
anyone
anzac
ao
aoraki
aorangi
aorere
aotea
aotearoa
aoteroa
aouri
apa
apakura
apanui
aparima
aperahama
aperehama
api
apia
apihai
apirana
apolima
apply
apr
aquitaine
ar
ara
araa
aragon
arahina
arai
arak
aramaic
aramoana
aranga
arapeinia
arapu
araroa
arataki
aratiria
arawa
arawhiti
arcachon
archive
ardabil
ardea
ardern
are
arekaha
arequipa
arero
arewhana
aria
arias
ariki
arikinui
arikirangi
arizona
arkansas
aro
aroaro
aroha
aronga
arorangi
arotahi
arotake
around
arrondissement
arrondissements
art
arthur
article
articles
artigues
arts
aru
arumoni
arveyres
as
asau
asbestos
ashley
asia
asiatic
aspx
asques
association
astana
asturiana
asturias
at
ata
ataahua
ataata
atairangikaahu
atau
atawhai
atea
atepaiha
ateria
ati
atiawa
atkinson
atlanta
atlas
atlib
atu
atua
atuamatua
au
aua
auaha
auahi
auau
auautia
aubin
auckland
aue
august
augusta
aukati
aukatia
aupo
aupouri
austin
australasian
australia
australian
australis
austronesian
autaia
aute
authority
auto
avamo
avamoa
aviv
awa
awaawa
awahou
awakairangi
awana
awanui
awanuiarangi
awarua
awatea
awatere
awe
awenga
awheawhe
awherika
awhi
awhina
aymara
azərbaycan
b
ba
back
background
backgroundcolors
baghdad
bagsværd
bahasa
baku
bal
balance
baleares
ball
ballara
bamako
bandar
bandung
bank
banksii
bar
barbara
barcelona
bardata
barlow
barngarla
baron
barraba
barrytown
barset
bartolo
bartolome
based
baskin
basshunter
bataille
bauer
bay
bayas
bbc
bc
bce
be
beach
beaumont
beautiful
beauty
bec
because
beech
been
before
beilschmiedia
being
bekasi
belgrade
bellis
bells
belong
below
belve
ben
benefits
bengali
benjamin
benmore
bergen
berkshire
berlin
bern
bertrand
best
bet
better
between
beyer
beyonce
beyond
bharu
bi
bible
bideford
big
bigger
biggs
bill
billaux
billed
billy
biography
birch
birds
birjand
birka
birpai
bissau
bit
black
blacks
blair
blaye
bleu
blica
block
blue
bo
board
bob
boca
bogota
bois
boise
boklund
bolivia
bonzac
book
books
bora
bordeaux
border
borneo
borobudur
bossugan
boston
both
bottom
box
br
brainyhistory
brandhoek
branne
brasi
brasil
bratislava
brian
bridge
bridges
bridget
brighton
british
broad
broadwood
brojce
broken
bronte
brooke
brooklyn
brothers
broussonetia
browallius
brown
browne
browns
bruce
brunoniana
brunswick
brussels
bu
buck
buckinghamshire
budapest
buenos
buganda
bugs
bulgaria
bulls
burger
burkes
busan
bush
bushehr
business
but
bw
bwiema
by
bəl
c
ca
cabara
cache
cadarsac
cadillac
calamus
calatrava
california
calle
callistemon
cambridge
camiac
camilla
camilo
camp
campaign
campbell
camps
can
canada
canal
canarias
canberra
cantabria
canvas
canvastown
cape
capital
capitol
caplong
captain
carbo
carbon
cardiff
carl
carleton
carlos
carolina
carracci
carter
case
caspar
caspian
cass
castile
castillon
castle
catalonia
catedral
category
catherine
cats
cattle
cave
ce
cemetery
census
center
central
centre
centurion
century
ch
cha
chalaures
chamadelle
chamberlain
changchun
changes
changwon
channel
chapel
charles
charleston
charlotte
charlton
chatton
chengdu
chennai
cherlloyd
chi
chicago
chicken
chiclayo
chief
child
chile
chin
china
chinese
chler
chongjin
chongqing
chris
christchurch
christian
christina
christoffer
christopher
church
churchill
cia
ciers
city
civrac
cl
claims
claris
clarks
clarksville
class
clearwater
cliffortioides
clifton
clyde
cn
co
coast
cobar
cochabamba
coligny
collection
college
colombia
color
colorado
colors
colour
columbia
columbus
column
com
combined
come
comment
comments
commercial
commission
committee
common
commonwealth
communities
community
company
compensation
complete
complex
complexes
compostela
concepcio
concerning
concert
connecticut
connors
conservation
contact
contemporary
content
continent
continents
contributions
cook
cooper
coopers
coordinate
coordinates
coptic
copy
copyright
corbin
corner
corporation
correa
corun
costalago
coubeyrac
could
council
countryballs
course
court
coutras
cove
covered
cr
craigieburn
crassifolius
created
creek
cristo
criteria
cromwell
cropped
cross
crossing
crown
croydon
cruz
css
cu
cuenca
cultural
culture
cultures
cunninghamii
cup
curitiba
d
da
daegu
daejeon
daignac
daily
dainiai
dairy
dakota
dalian
dame
dannevirke
dar
dard
dardenac
darwin
daughter
david
davis
day
days
dazu
de
dead
deal
dear
death
deborah
dec
december
decide
decimal
default
definitely
degas
degrees
del
delaware
delhi
den
denis
dennis
denver
department
depok
der
des
design
detroit
deux
devin
dhaka
di
diatomaceous
dictionary
did
didn
diego
different
digest
digital
dinornis
dion
directly
discolor
disney
display
district
dk
dms
dnipro
dnzb
do
doc
dodoma
does
doesn
dog
domain
domenico
domingo
don
donald
donetsk
dong
dongguan
doraemon
dordogne
dore
dortmund
dos
douglas
doulezon
dover
down
downs
downtown
dr
dragon
drake
drammen
dream
du
duck
duff
duke
dunedin
dynasty
dziwna
e
ea
each
eakins
early
earth
east
eastern
ec
ecuador
ed
edgar
edirne
edit
edouard
education
edward
edx
ee
egmont
egretta
ehara
ehe
eiffel
eikiai
einwohnerzahl
either
eka
eke
ekenga
eketahuna
ekia
ekuatoa
ekuatoria
el
elements
elephantine
elevation
elizabeth
ellicean
elliott
elsewhere
emepaea
emepaia
emilia
emily
emir
en
enana
enata
encyclopedia
end
endangered
endeavour
enei
eng
engari
engineered
england
english
enrichment
entertainment
entre
enua
environmentalchemistry
eo
epeiros
era
erite
erne
erua
eruini
es
esbjerg
espan
espoo
essays
esta
este
esteban
et
etahi
etc
etehi
ethnic
etiopia
etita
etonia
eu
eura
euro
europe
european
even
everest
everyone
everything
examples
excellent
excellere
expert
express
extremadura
eynesse
eyreton
ez
f
fa
faafoi
facebook
factbook
faisalabad
faka
fakamatala
fakava
falco
fale
falealupo
falls
family
fanau
far
farm
faroe
farr
fars
farsi
fc
fe
felipe
fenua
fern
ferns
ferrol
ferry
feruri
festival
few
fieu
fiji
file
final
find
finland
finn
finnish
fiordland
first
fisheries
fitzroy
five
fk
flat
flats
flaujagues
flight
flo
floating
flora
florida
flosse
fm
following
fontsize
food
for
forest
forks
format
foshan
foundation
four
fox
frame
frameless
franc
francesco
francisco
francs
frans
franz
fraser
frederick
fredrikstad
free
french
freycinetia
friant
friedrich
from
fronsac
fronsadais
front
frontenac
fu
fuchsia
fukuoka
future
g
ga
gabriel
gaga
gagana
gala
galapagos
galgon
galicia
gallen
gallo
gap
gar
garci
gardens
gardiner
gaston
gauguin
gaul
gbp
gdan
ge
gen
gene
general
generation
geo
geographic
geographical
george
georges
georgia
georgina
ger
geraldine
germain
german
get
gevorg
ghil
ghost
gi
gigantic
gil
gilbert
giovanni
gipps
girl
girls
gironde
gisborne
giuseppe
givat
give
given
gje
glacier
gladstone
glen
glenbervie
glendhu
glengarry
glenorchy
glisottes
global
glossas
gmina
go
gob
god
gods
gogh
gold
golden
goldsworthy
goma
gone
gonza
good
google
gordon
gore
gorgan
gorge
got
gov
government
govt
grace
gracilis
graham
grammar
gran
granity
grant
gray
great
green
greenpark
grey
greymouth
gridcolor
griffin
griselinia
group
grove
gryfice
gua
guanches
guangdong
guangxi
guangzhou
guayaquil
guide
guido
guine
guinea
gulf
gully
gulu
gum
gur
gurion
gustav
gwangju
h
ha
haahi
haamana
haast
had
hae
haehae
haere
haerenga
hahi
hahpt
hahuru
hai
haina
hainamana
hainatanga
hainatia
haipara
haipi
hairuha
hairy
haiti
haka
hakarameta
hakataramea
haki
hakihea
hakinakina
hakipere
hako
hall
hals
hamadan
hamburger
hamhung
hamilton
hamoa
hampshire
han
hana
hand
hanekeria
hanga
hangahai
hangai
hangaia
hanganga
hangarau
hangzhou
hanoi
hans
hanuere
hao
haona
hapa
hapani
hapanihi
hapata
hapati
hape
hapori
happy
hapu
hapua
hara
harahara
harakeke
haramai
hararei
haratua
harawira
harbin
harbour
hare
hari
haria
hariata
haro
harold
haroto
harry
haruru
harvey
has
hassan
hastings
hato
hatu
hau
haua
hauauru
hauhau
hauiti
hauma
haumaru
haumi
haunga
haunui
hauora
hauota
hauraki
haurongo
haurua
haute
hauti
hautoru
hautu
hauwai
havai
have
havelock
haven
hawai
hawaii
hawaiian
hawaiki
hawea
hawera
hawke
he
hea
head
heading
heads
health
heart
hebrew
hei
height
heihei
heiko
heina
heinneman
heka
heke
hekeheke
hekenga
heketea
helen
helena
helensville
helier
hellenikes
help
helsingborg
helsinki
hema
hemi
hemo
henare
henley
henry
heoi
hepa
hepburn
hepetema
her
hera
herald
herbs
here
herea
herehere
herekino
hereko
herenga
heretaunga
heretaungako
herewini
heria
heritage
heron
hetekia
heuea
heuheu
hewene
hi
hia
hiahia
hiahiatia
hiato
hiero
higgins
hihi
hika
hikairo
hiki
hikihiki
hiko
hikoi
hiku
hikurangi
hikuwai
hilaire
hill
hillah
hillend
hills
himania
himantopus
himatangi
himno
hina
hinaarangi
hinara
hinaru
hinatea
hinauri
hindi
hine
hinemataroa
hinemihi
hinemoana
hinengaro
hinenuitepo
hinerangi
hinga
hingapoa
hinonga
hinu
hinuhinu
hio
hiohio
hiotanga
hiotia
hipa
hipera
hiperu
hipi
hipokina
hira
hirahira
hiranga
hirehia
hiri
hiria
hirini
hiro
hiroshima
hiruharama
his
histloanwords
historical
history
hita
hitokahoma
hitori
hiva
hiwa
hiwi
ho
hoa
hoahoanga
hoani
hoatu
hobart
hoe
hoheria
hohonu
hohoro
hoi
hoia
hoki
hokia
hokianga
hokinga
hokio
hokitika
hoko
hokohoko
hokona
hokonga
hokonui
hokopu
hokowhitu
hokulea
holland
homai
home
hon
hone
hong
hongipua
honiara
hono
honolulu
hononga
hook
hopa
hopataone
hope
hopihana
hopihona
hopu
hore
horeke
horetia
horo
horoeka
horoi
horomona
horopaki
horopito
horouta
horowa
horowhenua
horowinia
horsens
hot
hotel
hotere
hoto
hotu
hotunui
hotupuku
hoturapa
hoturoa
hotuwaipara
hou
houhere
houhi
houhora
houhou
houmaitawhiti
hourangi
hourua
house
houston
how
howard
howete
hpt
htm
http
https
hu
hua
huahine
huahua
huaina
huaki
huakina
huang
huanui
huaota
huapai
huara
huarahi
huarangi
huarere
huata
huatanga
hughes
huhu
huhua
hui
huia
huihui
huihuinga
huinga
huirangi
huitanguru
huitene
huiterangi
huitia
huka
hukahuka
hukanui
hukarere
huna
hune
hunga
hungawai
hunter
hura
hurae
hurai
huri
huria
hurihanga
hurihia
hurihuri
hurina
huringa
hurinui
huritau
hurricanes
huru
huruhuru
hurunui
hurupaki
huts
hutt
hutukawa
hutupaoro
hybrid
hybridity
hyderabad
hypercube
i
ia
iahiko
ial
ianei
iauliai
iberia
ibn
ic
ice
id
idea
ideas
idiom
ie
if
iglesia
ihaka
iharaira
ihi
ihiihi
ihimaera
ihipa
ihirama
iho
ihowa
ihu
ihupuku
ii
iii
ika
ikaroa
ikeike
iki
iko
ikura
il
ilam
ilia
ilina
illinois
image
imagesize
imdb
implications
important
in
ina
inaianei
inanga
inangahua
incheon
include
includes
increment
index
india
indian
indiana
indianapolis
indigenous
indonesia
information
inga
ingarangi
ingarihi
ingenio
inglewood
ingoa
ingres
inia
initoni
inlet
inline
innes
inoi
inquiry
insee
inside
instead
institute
int
intellectual
inter
interesting
interlingua
interlingue
international
internet
interview
into
introduction
invercargill
invitation
io
ioka
iolani
iowa
ipa
ipl
ipoh
iprage
ipu
ipukarea
ipurangi
ir
ira
irapuaia
iriha
irihapeti
iriiri
iriiritanga
iringa
irirangi
is
isaac
isabella
isbn
iseraela
isfahan
ishtar
isla
islamabad
island
islander
islands
islas
isle
iso
israel
israeli
istanbul
it
ita
itaho
itari
itaria
ite
iterangi
iti
itiiti
ititanga
its
iu
iuta
iv
ivan
iwa
iwan
iwi
j
ja
jabir
jacinda
jack
jackson
jacksonville
jacob
jacobite
jae
jahn
jaipur
jakarta
james
jan
janeiro
janet
january
japan
japanese
jaya
je
jean
jersey
jerusalem
jesson
jesus
jewish
jim
jimmie
jo
joe
johan
johannes
john
johnson
jonava
jones
jorge
jose
josef
joseph
journal
jp
jpeg
jpg
jr
judith
july
jun
junction
june
juniors
just
justicia
justify
juventus
k
ka
kaa
kaahui
kabbalah
kabul
kaechon
kaeriki
kaesong
kaha
kahakawe
kahika
kahikatea
kahlo
kahore
kahu
kahui
kahukura
kahumatamomoe
kahungunu
kahurangi
kahuroa
kahutia
kai
kaia
kaiako
kaiao
kaiapoi
kaiarahi
kaihanga
kaihau
kaihautu
kaihauturu
kaihi
kaiho
kaihoahoa
kaihoko
kaika
kaikai
kaikawe
kaiko
kaikohe
kaikorero
kaima
kaimahi
kaimata
kaimoana
kainga
kainoho
kaipa
kaipara
kaipeita
kaipo
kaipu
kaipuke
kaipupuri
kairangahau
kairangi
kairi
kairo
kairua
kaita
kaitaia
kaitakaro
kaitautoko
kaiti
kaitiaki
kaitito
kaito
kaitohutohu
kaitoke
kaitoro
kaituhi
kaituna
kaiu
kaiwaewae
kaiwaiata
kaiwhakaako
kaiwhakaari
kaiwhakahaere
kaiwhakama
kaiwhakamahi
kaiwhakanoho
kaiwhakatangitangi
kaiwhakatu
kaiwhakawa
kaiwhiri
kaka
kakahu
kakano
kakara
kakaramea
kake
kakepuku
kaki
kako
kaliningrad
kallela
kama
kamapo
kamehameha
kamo
kampala
kamupene
kana
kanata
kane
kangaru
kani
kaniere
kanikani
kano
kanohi
kanorau
kansas
kao
kaohsiung
kaore
kapa
kape
kapetaua
kapi
kapiti
kaponga
kaporeihana
kapu
kapua
kapuka
kaputuhi
kar
kara
karaiti
karaitiana
karaitianatanga
karaj
karaka
karakia
karana
karanga
karangahia
karangatanga
karangatia
karapo
karapotia
kararehe
karate
karauna
kareinga
karekau
karere
karetao
kareto
karetu
kari
karihi
karihia
kariki
karioi
karipiana
karipori
karl
karlstad
karnice
karo
karu
karukaru
kashubian
kata
katahi
katata
katene
kati
katia
katikati
katinara
katoa
katoatia
katorika
katowice
kau
kaua
kauhau
kauhoe
kaukapakapa
kaukau
kauma
kaumatua
kaunas
kaunihera
kaunui
kaupapa
kauri
kauru
kaute
kautenui
kautetanga
kauwhata
kauwhau
kawa
kawai
kawakawa
kawana
kawanatanga
kawarau
kawarua
kawasaki
kawata
kawau
kawe
kawea
kawenata
kawenga
kawerau
kawerio
kawhatau
kawiti
ke
kea
kearoa
keha
kehita
keho
kei
keisha
keko
kelvin
kemureti
kena
kene
keneta
keneteina
kenga
kennedy
kent
kentucky
keo
keokeonga
kere
kerei
kerekori
kereru
kerikeri
kerma
kerman
kermanshah
kete
ketina
ketisi
key
keywords
kg
khamenei
kharkiv
khorasan
khorramabad
ki
kia
kiato
kieu
kigoma
kihai
kihei
kihi
kii
kiia
kiki
kiko
kikokiko
kilbride
kilimanjaro
kim
kimi
kina
kinakina
king
kingi
kingitanga
kingston
kini
kino
kio
kiore
kiri
kiriata
kirihi
kirihimete
kirikiri
kirikiriroa
kirikiti
kirimana
kiripaka
kiripati
kiripuaki
kirirarau
kiritaki
kiritu
kiromita
kisumu
kita
kitai
kite
kitea
kitenga
kitimu
kiwa
kiwi
kk
klaipe
klang
klimt
km
know
knowledge
ko
koa
koao
kobe
koe
koha
kohanga
kohatu
kohekohe
kohere
kohi
kohia
kohikohi
kohikohinga
kohimarama
kohinga
kohita
kohu
kohukohu
kohuru
koi
koia
koianei
koiara
koikoi
koinei
koiora
koira
koizumi
koko
kokonga
kokoraho
kokoru
kolding
kolkata
komata
komihana
komiti
kommune
kona
konei
kong
konga
kongakonga
konganuku
konihi
konu
konukita
konuko
konukura
konuoi
konupu
konurehu
konuruke
konutea
kooti
kopa
kopi
kopua
kora
koraha
korako
kore
korea
korean
koreana
korero
korerohia
kori
korimako
koro
koroa
koroi
koroki
korokoro
koromatua
koromiko
koromo
koroni
korora
koroua
korukoru
kota
kotahi
kotahitanga
kotarangi
kotenepara
koterana
kou
kouko
koura
koutou
koutu
kowai
kołobrzeg
kr
kramskoi
krav
kristiansand
ku
kua
kuala
kuamu
kuching
kuhata
kuhu
kui
kuia
kuini
kuiti
kuki
kumara
kumea
kumu
kupe
kupenga
kupu
kura
kurahaupo
kuraimonoa
kuraina
kuramarotini
kuratea
kurfuerstendamm
kuri
kurow
kuru
kuruta
kuruti
kurutou
kuta
kutarere
kuti
kutia
kuweiti
kyeburn
kylie
kyoto
l
la
laboratory
lacebark
lady
laevigatus
laguna
lahore
laingholm
lake
land
landing
lands
lange
langon
language
languages
lapita
larsson
las
last
latin
lauder
laurent
laurie
lawrence
layal
layne
le
learn
learning
least
leave
lee
left
leigh
leithfield
lemma
lengua
leningrad
leo
leonard
leonardo
leone
les
lesparre
less
lessons
let
levels
lexical
lexico
lexicography
lez
lg
li
lia
liberal
libocedrus
libourne
library
lie
life
light
like
liliuokalani
lima
limestone
lincoln
lindis
lindsay
line
linegrey
lingua
linguanaut
linguicide
linguist
linguistic
linguistics
link
linked
links
linkwater
linnaeus
lisa
list
little
living
ljubljana
ll
lo
loa
loan
loburn
locality
logo
logographic
logos
loire
lombardo
london
long
longbush
longer
longridge
longwood
longyearbyen
look
looks
lord
lorde
los
lost
louis
louisiana
louvre
love
low
lower
lowest
lt
ltd
lu
luanda
lucknow
luganda
lugo
luiza
lulea
lumpur
lund
lussac
lydia
lyon
m
ma
maahanga
maaka
maara
macedonian
maclary
macmillan
macquarie
macrocephala
madagascar
made
madrid
maehe
maero
maga
maha
mahana
mahanga
mahara
maharahara
mahere
mahi
mahia
mahina
mahinga
mahoe
mahsa
mahue
mahuru
mahuta
mai
maihi
maikoroni
main
maine
mainpage
maioro
maire
maitai
maiwaho
maka
makaawhio
makakaho
makarewa
makariri
makassar
makau
makaurau
make
makere
makero
maketu
maki
makirikiri
makita
mako
makoare
malabo
malagasy
malay
malaysia
malmo
malvern
mamae
mamaku
mamoe
man
mana
manaaki
manaakitanga
manahune
manaia
manako
manapori
manata
manatu
manawa
manawanui
manawatu
manchester
mandarin
mandeville
manene
manet
manga
mangai
mangaia
mangaiti
mangaka
mangamuka
mangaorapa
mangareva
mangonui
mangu
mania
maniapoto
manihera
manihiki
manilla
manira
manitoba
mano
manono
mansfield
manu
manuel
manuherikia
manuhiri
manuka
manukau
manunui
many
mao
maohi
maori
maoridictionary
maorinewzealanders
map
mapi
maputo
mar
mara
marae
maraea
maraka
marakamu
marama
maramara
maramataka
marangai
marara
marati
marau
marcello
march
marco
mardavij
mare
marei
mareia
margaret
mari
maria
marie
mariehamn
marihi
marijampole
marino
mario
mark
markazi
maroke
maromahue
marquesas
marsden
martin
marton
maru
marua
marumaru
marutu
marutuahu
mary
maryland
mashhad
massachusetts
master
masterton
mastroianni
mata
mataatua
matahua
matai
mataiti
matakana
matakitaki
matakohe
mataku
matanga
matangi
matanui
matapae
matapaia
matapihi
matapuna
matarau
matarawa
matariki
matataki
matatau
matatika
matatiki
matatini
matau
matauenga
matauranga
matauri
matavai
matawa
matawhenua
matching
mate
matea
matejko
matekuare
matenga
material
mati
matimati
matola
matou
mattarella
matu
matua
matuku
mau
mauao
mauhere
mauhereheretia
mauheretia
maui
maumaharatanga
maumau
mauna
maunga
maungakaramea
maungako
maunganui
maungapo
maungarongo
maungatapere
maungatapu
maungatautari
maunu
mauri
mauria
mauriceville
mautanga
mautia
mautohe
mauwha
mawaketaupo
mawehe
max
maxwell
may
maybe
mayen
mayfield
maz
mbale
me
mea
mead
meatia
medan
mediacorp
medrano
meeting
mehemea
mehiko
mehopota
mei
meiha
meinga
mejid
meka
meke
melbourne
melicytus
melville
melzi
mema
members
meme
men
mena
mendoza
mene
menemana
meneti
menia
mental
mentioned
mer
merani
mere
mereana
meremere
meri
mers
meryta
meta
metals
metcalf
metekingi
metropolitan
metrosideros
mexico
mg
mi
mia
miami
mianga
michael
michel
michelangelo
michigan
mickey
microsoft
middle
might
mihana
miharo
mihi
mihinare
mihingare
mihiwaka
miki
milan
mile
milford
military
mill
miller
millers
milltown
milton
milwaukee
mimi
mimiha
mina
mine
minecraft
minh
mini
minita
minnesota
minnie
minogue
minor
minsk
minutes
miraka
miranda
miriona
miro
miromiro
mississippi
missouri
mita
mitanga
mitimiti
mo
moa
moana
moananui
model
modern
moe
moea
moehau
moemoea
moenga
moeraki
mohaka
mohapiki
mohi
mohikau
mohio
mohiotia
mohoua
mohua
moka
mokai
mokemoke
moko
mokoia
mokopuna
momo
momopori
mona
mongo
moni
monobook
monse
montana
monte
montenegro
monthly
montsoreau
moo
mooc
moon
moorea
more
moriori
moroko
morotawa
mortlock
mos
mosovce
most
motairehe
motoka
motu
motueka
motuhake
motuhaketanga
motuka
motukore
motunui
motutapu
mou
moumou
mount
mountain
mouse
moutere
mouth
moutoa
moved
moving
ms
mt
mu
mua
muau
much
muhunoa
muka
multan
multisourced
mumbai
munch
municipal
municipality
murchison
murcia
mure
muri
murihiku
murihikuko
murillo
muriwai
murmansk
murray
muru
murua
murupara
museum
music
must
mutara
mutu
mutunga
muturangi
my
mykines
myspace
mystery
mz
n
na
nacional
nae
naera
nagoya
naha
nahe
nahia
nahinara
naianei
nairobi
najaf
naka
nako
nama
name
names
nampho
nan
nana
nanaia
nanakia
nanchang
nanga
nanjing
nanny
napera
napolitano
nara
nare
naruhito
nascar
nata
natalia
national
nations
native
nato
nau
nauru
nautanga
navarre
nawai
nawi
nda
ne
nebraska
need
needs
nehe
nehera
nehuora
nei
neiko
neitia
neke
nekehanga
nekehia
nelson
nene
nenui
neologization
nepia
nepo
nestegis
nestor
net
neti
network
nevada
nevis
new
newcastle
newman
news
newzealanders
ng
nga
ngaa
ngaere
ngahere
ngai
ngaio
ngaki
ngana
ngao
ngapara
ngarei
ngarimu
ngaringari
ngaro
ngaru
ngata
ngatanga
ngati
ngatiawa
ngatitoa
ngatoroirangi
ngawi
nge
ngeru
ngi
ngia
ngitanga
ngo
ngohi
ngoikore
ngongoi
ngongotaha
ngota
ngoto
ngunguru
ngutu
ngutuawa
ngutuka
ni
nia
niagara
niana
nic
nice
nicholas
nicola
nicosia
night
nihi
nihia
nihoniho
ninihi
niniho
niora
nipono
nippon
nirangi
nirani
nitra
niu
niue
niuka
niupepa
niureta
nm
no
noa
noatia
nobita
noble
node
noeditsection
noema
noemi
nohanga
noho
nohoanga
nohoia
nohopuku
noi
non
nondefault
none
noo
norfolk
norfuk
normal
normanby
normann
norse
north
northern
northtec
norton
not
note
nothofagus
notice
notoc
nouvelle
nova
novaeseelandiae
novosibirsk
now
npc
nr
nu
nuere
nui
nuinga
nuitanga
nuitia
nuka
nuku
nukunuku
nukutere
nukutoa
number
numbers
nunui
nuuk
nz
nzdb
nzmss
o
oa
obama
oblast
occidental
occitan
ocean
oceania
odense
oder
odesa
oea
of
office
official
oficial
oh
ohau
ohio
oho
ohoka
ohomairangi
ois
ok
okehu
oketopa
okiwi
oklahoma
oko
ol
olav
old
ole
oleksiak
oma
omaha
omarumutu
omata
omniglot
omori
on
ona
onamata
once
one
onenui
oneone
onepoto
onepu
onerahi
oneroa
ones
ongaonga
online
only
ono
oopa
opape
ope
opened
opoa
opua
or
ora
oraka
orakei
oranga
orari
ore
oregon
oreti
org
ori
oriental
orientation
original
orimipia
oritanga
oritia
oro
oromotu
oropuare
orotu
oroua
oru
oruaiti
oruaiwi
osaka
oscar
oslo
osta
ota
otaika
otaio
otaki
otakou
otama
otangarei
otapiri
otara
other
others
otherwise
oti
otiia
otira
otukou
ou
oue
our
ourense
out
outside
ovce
over
ovo
owen
oxford
oxide
oxley
oystercatcher
p
pa
pablo
pacific
pae
paea
paenga
paepae
paerangi
paerata
paerewa
paeroa
paetahi
paetukutuku
page
pages
pago
pagos
pahau
pahi
pahu
pahure
pai
paina
painga
painting
paipera
paka
pakanga
pakari
pakaru
pakatata
pakeha
pakeke
paki
pakihi
pakihoe
pakimaero
pakini
pakiri
pakita
pakiwaitara
pakiwaituhi
pako
pakotai
paku
pakupaku
pala
palace
palacio
palais
palembang
palgrave
palm
palmerston
pamaomao
pana
panahiko
pananehu
pane
paneve
panga
pango
panguru
panoni
panorama
panoramio
paoa
paolo
paopao
paora
paoro
papa
papai
papaka
papakainga
papaki
papakohatu
papakupu
paparahi
papata
papatapu
papatea
papatipu
papatu
papatuanuku
pape
papua
papurona
papyrifera
para
paradise
parai
parakai
parakiore
parameters
paranihi
paranui
paraoa
paraone
paratika
parau
parauri
parc
pare
parehe
parekura
paremata
paremoehau
pareraukawa
pari
parihaka
parihi
parihitini
parirau
paris
parisii
park
parks
paroa
parore
parse
part
party
parua
paruheta
paruhi
paruru
pashto
pass
pasvalys
pate
patea
pathways
pati
pato
patterson
patu
patua
patukirikiri
patumoana
patunga
patupaiarehe
pau
pauatahanui
paul
paulo
paz
pdf
pe
pea
peake
peaks
peari
pearl
pedro
peel
peerage
pehiamu
pehu
pei
peihinga
peka
pekanga
peke
pekerangi
pembroke
penarol
pene
penei
penguin
peniki
peninsula
pennsylvania
people
pepa
pepeha
pepuere
per
pera
peraha
pere
perehipitiriana
perehitini
pereki
peresideni
peria
period
perth
peru
peso
peta
petaling
peter
petera
peterehema
peti
petrel
petroica
pewdiepie
pez
philadelphia
philip
philippe
phillippe
phoenix
phono
photographic
php
phrase
phrases
pi
pia
pic
picasso
pier
piero
pierre
pieter
pigeon
piha
pihanga
piho
pihopa
piki
pikiao
pikinga
pikitanga
pikitia
piko
pine
pinehill
pines
ping
pinsk
pinyin
pio
pipi
pipiri
pipiwai
pire
piri
pirihia
pirihimana
pirihitini
pirimau
pirimia
piriniha
pirinihipi
pirinoa
piriona
piripane
piripi
piritana
piritene
pisonia
pita
piti
pitihana
pitiroi
pito
pitt
pk
pl
place
plains
planet
plant
playstation
plaza
pleasant
please
plotarea
plotdata
plymouth
png
po
poaka
poari
poata
podgorica
podocarpus
poems
poho
pohowera
poi
poiha
poihipi
poikiri
point
poipiripi
poipoi
poitu
pokapu
poke
poki
poko
pokonga
pokorehe
pokotea
poland
polandball
police
polish
political
polynesia
polynesian
pomahaka
pomapa
pomerania
pomeranian
ponga
pono
pononga
pontevedra
pop
popa
pope
poperinge
popo
population
poraka
porapora
pori
porini
porirua
poriwia
porkeri
poro
poronga
poroni
poronihia
poropango
poroporo
porotaka
poroti
porou
porouri
porowini
porphyrio
port
portal
portland
porto
portobello
portrait
portuguesa
porzana
pos
possi
post
pota
poti
potiki
poto
potukara
pou
pouaka
pounamu
pounawea
poupou
pourewa
pouta
poutama
poutini
poutokomanawa
poutu
pouvanaa
power
pp
practical
prague
praia
pre
precision
press
prince
prinsengracht
printable
printed
printer
prize
probably
production
prof
professor
progress
project
proposed
proposition
protection
proverb
provided
provincia
prumnopitys
pseudopanax
pterodroma
pu
pua
puawai
public
publications
publishing
puehu
puffinus
puhaorangi
puhi
pui
puia
puka
pukaemi
pukapuka
pukawa
puke
pukenui
pukerua
puketapu
pukeuri
puku
pukuhohe
pule
pulo
puna
punaha
pune
punenga
punga
pungapunga
pungarehu
pungatara
puni
puninga
punjabi
puoro
pupuri
pure
purotu
puru
purua
puruhia
puruka
pusilla
put
puta
putahi
putake
putanga
putaruru
putauaki
putea
putiki
putiputi
putu
putuputu
px
pyongyang
płoty
q
qaem
qazvin
qom
que
quebec
queen
quentin
quiet
quito
r
ra
raatau
racontas
radio
radius
rae
rafael
raffaello
rahi
rahinga
rahirahi
rahiri
rahu
rai
raia
raiana
raiatea
raihana
raihanako
raina
raka
rakahanga
rakaia
rakapuo
rakau
rakauri
raketapauma
raki
rakiraki
rakiura
ralph
rama
ramahiku
ramana
ramatanga
ramiflorus
rana
ranana
ranatiki
randers
random
ranei
ranga
rangahau
ranganui
rangapu
rangatahi
rangataua
rangatira
rangatiratanga
rangawaewae
rangi
rangia
rangiahua
rangiaowhia
rangiatea
rangiauria
rangihouhiri
rangika
ranginui
rangiora
rangita
rangitaiki
rangitata
rangiteaorere
rangitia
rangitihi
rangitikei
rangitoto
rangitukua
rangiwaea
rangiwewehi
rangiwhakaoma
rangona
rani
rano
raoa
raorao
rapa
rapanui
rapeti
raphael
rapi
rapia
rapu
rapua
rapunga
rara
rarahi
rarangi
raraunga
rarawa
raro
rarotonga
raru
raruraru
rasht
rata
ratau
ratonga
ratou
rattan
rau
raua
rauemi
raukawa
raumanga
raumati
raunui
raupapa
raupapahia
raupapatanga
rauparaha
raupatu
raupatutia
raupo
raurau
rauriki
raurimu
rauru
rautau
rawa
rawalpindi
rawana
rawatia
raweke
rawhiti
rawiri
razavi
rd
re
rea
reader
reagan
real
reanga
rearea
recent
reclamation
recto
red
reddit
reddy
redesign
reed
reefs
reefton
rega
region
regional
rehe
rehu
rehua
rei
reid
reina
reinga
reipa
reira
reka
reko
religion
remata
rembrandt
remove
renei
reni
reo
replaces
repo
report
reports
reproduced
reproduction
reproductions
repu
repubblica
republic
republika
rer
rera
rere
rereahu
rereke
rerenga
rererangi
reretia
rerewe
rero
rerohia
rerongia
rerorero
rerotia
res
research
reserve
respublika
reta
retaruke
reti
retrieved
reunionnais
rev
revert
review
revival
revivalistics
revive
rewa
rewal
rewarewa
rewera
reweti
rewi
reykjavi
rgb
rho
rhode
ri
ria
rial
riana
richard
richards
richmond
rick
rie
riga
right
rights
rihi
rihipone
riiki
riki
rikikaho
rikiuri
rima
rimu
rimutaka
ringa
ringaringa
ringatu
rino
rio
rioja
ripa
ripanga
riperata
riri
ririki
riro
rironga
rishi
rita
rite
ritenga
rito
ritua
riu
river
riverhead
rivers
riverside
ro
roa
road
roanga
roaroa
robbins
robert
robertson
robin
robinson
rock
rocks
rocky
rogan
roger
rohe
rohi
roimata
roma
rome
romeinia
ronald
rongo
rongoa
rongohia
rongomai
rongomau
rongonui
rongorongo
rongowhakaata
roopu
rope
ropi
ropu
rori
roro
roroa
rorohiko
rosario
roskilde
ross
rotarota
roto
rotorua
rouhani
round
rousseau
rowling
roxburgh
royal
rs
rshavn
ru
rua
ruahine
ruahiore
ruakapanga
ruakaramea
ruanui
ruapani
ruapehu
ruapekapeka
ruarua
ruata
ruatakena
ruatapu
ruatiti
ruatoria
ruawa
rubens
ruhe
ruhi
ruhia
ruia
ruka
rukai
ruki
ruku
runa
runanga
runga
rupee
rupiri
ruru
ruruku
russell
russia
rustaveli
rwogera
s
sa
sabah
sad
saint
sainte
saitama
sakha
salaam
salelologa
salmon
salvador
same
samoa
samoan
samokhvalov
samuel
san
sanandaj
sandham
sandnes
sandy
santa
santiago
santo
sapporo
sarajevo
sari
sariwon
sarpsborg
sars
sauveur
savage
savai
savaii
scalemajor
scholarship
school
schools
scope
scotland
scott
se
sea
search
seattle
seconds
section
seddon
see
seem
selwyn
semi
semito
semnan
seongnam
seoul
september
serang
serbia
serena
sergio
series
service
settlement
seurin
several
seville
sg
shag
shah
shahr
shahrekord
shamash
shan
shanghai
shannon
shari
sharples
she
sheikh
shell
shenyang
shenzhen
sherwood
shift
shilling
shiraz
shishkin
sho
shore
short
should
show
si
sic
sided
silver
silverdale
simi
simple
simpson
since
sinclairii
singapore
singh
sinuiju
sioux
sir
sister
site
sites
situacion
six
sk
skopje
skua
sky
skyline
sleeping
slope
smith
so
sobola
sobre
socialist
society
sociology
solandri
solitude
some
somers
something
soon
sophora
soria
sorry
sort
sound
sources
south
southern
soviet
space
spain
speak
speakers
speaking
special
spirit
split
spring
springfield
springs
springston
spur
sq
st
stafford
stand
standing
stanley
stanmore
start
starting
state
states
status
stavanger
stephen
stereotype
stettin
stevenson
still
stilt
stirling
stolen
stop
story
strait
strand
stratford
stream
street
stuart
studies
studio
stuff
su
subang
submit
such
sucre
suez
sulpice
sumatra
suna
sunak
sung
sunshine
super
sur
surabaya
sure
surfing
survive
sussex
suwon
suðuroy
svalbard
svalia
swahili
swamp
sydney
syriac
syzygium
szczecin
sɛ
t
ta
taahua
taangata
taatua
tabaristan
table
tabriz
tae
taea
taekaha
taenga
taewhetu
taga
taha
tahaa
tahataha
tahatai
tahatika
tahi
tahikita
tahinga
tahitanga
tahiti
tahitinui
tahito
tahu
tahua
tahuna
tahuri
tai
taiaha
taiao
taieri
taihara
taihaua
taikaha
taiko
tailed
taina
tainati
tainui
taiohi
taiopenga
taipari
taipei
taipori
tairana
tairanga
tairongo
tairua
taitama
taitamariki
taitapu
taitara
taitokerau
taiwan
taiwana
taiwhanga
taiwhenua
taka
takahanga
takahe
takahi
takai
takaparawhau
takapu
takarangi
takaro
takata
takawaenga
takawai
take
takea
takenga
takere
taketake
taki
takina
takitahi
takitaki
takitimu
takitini
takiura
takiwa
takoha
takoto
takouta
taku
takurua
takutai
takuu
talbot
talk
tallinn
tama
tamahine
tamainu
tamainupo
tamaiti
tamaki
tamakinui
tamanuitera
tamaoho
tamara
tamariki
tamata
tamatea
tamatera
tamati
tamatoa
tame
tamihana
tamihere
tamil
tamworth
tana
tanchon
tandem
tane
tanerore
tanga
tangaroa
tangata
tangerang
tangi
tangihanga
tangiharuru
tangitangi
tangiteroria
tango
tangohia
tangoio
tanguru
taniwha
tao
taone
taonga
taonui
taoroa
tapa
tapaina
tapatahi
tapatoru
tapawha
tapeke
tapu
tapuika
tapurini
taputapu
taputapuatea
tara
tarai
taraipiunara
taraire
taraita
taraka
tarako
tarakumukumu
taranaki
taranga
tarapi
tararua
taratahi
taratara
tarawa
tarawera
tareka
tari
tariana
taringa
taringamotu
taringamutu
taritanga
tarnovo
taro
tasman
tata
tatai
tatanga
tatari
tatau
tatauranga
tatou
tatu
tau
taua
tauaki
tauha
tauhara
tauherenikau
tauhokohoko
tauhou
tauihu
tauira
tauiwi
tauma
taumaha
taumarunui
taumata
taunekeneke
taunga
taungarangi
taungota
taupaki
taupiri
taupo
taupori
taupou
taura
taurage
tauranga
taurangi
tauraroa
taurekareka
taurewa
tautahi
tautau
tautika
tautohe
tautohetia
tautohetohe
tautohu
tautoko
tautokohia
tautokona
tautoro
tautuhi
tautuku
tauwhiro
tavini
tawa
tawai
tawake
tawhaki
tawhera
tawherarima
tawheratoru
tawherawha
tawhio
tawhiti
tawhito
tawhiuau
tbilisi
te
tea
team
teao
teara
teau
tehi
tehran
teide
teie
teihana
teina
teitei
teka
tekau
teke
tel
television
tell
temaru
temepara
template
templates
temple
tena
tene
tenei
tenema
tenemaka
tenepu
tenerife
tennessee
tepoti
tera
tere
tereina
terene
terenga
teriana
term
territory
tetahi
tete
tetehi
teuteronomi
texas
text
textcolor
th
thames
than
thank
thanks
that
the
their
them
then
theoretical
there
these
they
think
this
tho
thomas
thompson
those
though
thought
three
thumb
thumbnail
thz
ti
tia
tiaki
tiakina
tiamana
tianara
tianjin
tiatitana
tica
tie
tihi
tiimata
tika
tikanga
tikapa
tiketike
tiki
tikipunga
tikitiki
tikorangi
till
tim
timata
timatanga
timber
time
timeaxis
times
timi
timuwawe
tinana
tini
tinihanga
tinimoutere
tinipara
tino
tinui
tiorangi
tipu
tipua
tipuaki
tipuna
tira
tirana
tirani
tireni
tiri
tiriti
tiritiri
tiro
tirohanga
tirohia
tirotiro
tita
titanga
titi
titia
titian
titipounamu
titirangi
titiro
title
tito
titoki
tiuka
tiwha
tiwhatiwha
tiwhikete
tizard
tiziano
tkm
to
toa
toarangatira
toatoa
toe
toenga
toha
toharite
tohatoha
tohu
tohua
tohunga
tohungatanga
tohungia
tohuto
tohutohu
tohutoro
tohutoru
toi
toitu
toka
tokarahi
toke
tokelau
tokerau
toki
tokimatawhaorua
toko
tokoiti
tokomaha
tokomaru
tokoroa
tokorua
tokotoko
tokotoru
tokowha
tokyo
tolaga
tome
tomi
tominika
tomo
tomokanga
tona
tonga
tongareva
tongarewa
tongariro
tono
tonoa
tonu
tonutia
tony
too
toona
top
topenga
topito
torangapu
tori
toro
toroa
toronga
toronto
torotika
torres
tortoise
toru
totara
toto
totoru
tou
tour
tourism
tower
town
tr
traditions
translated
translation
treaty
tree
trees
tried
trondheim
troubadour
true
trujillo
truncata
trust
try
tryphena
trzebiato
tsou
tu
tua
tuahu
tuakana
tuakiri
tuakoi
tuamana
tuamatua
tuamotu
tuangahuru
tuaono
tuapeka
tuara
tuarangi
tuariki
tuarima
tuarua
tuatahi
tuatahitia
tuatoru
tuawaru
tuawha
tuawhenua
tuawhitu
tubuai
tuheitia
tuhi
tuhia
tuhinga
tuhipa
tuhituhi
tuhituhia
tuhiture
tuhoe
tukanga
tuki
tukino
tuku
tukua
tukumanata
tukuna
tukunga
tukutuku
tumu
tumua
tumuaki
tuna
tunnel
tupaea
tupapaku
tupu
tupua
tupuna
turakina
turanga
ture
turi
turia
turituri
turnbull
turoa
turtle
turu
turupa
tutu
tutuki
tuturu
tuwharetoa
tuwhera
tv
tvnz
two
tyne
typology
u
ua
uaua
ue
uenuku
uha
uhipeketa
ui
uiui
uk
uka
uke
ukmerge
uku
ul
ulopa
ulsan
ulu
uma
umanga
umea
un
una
unahi
under
unesco
unga
union
unit
united
universidade
university
unu
unwin
up
updated
upoko
upokorehe
upolu
upper
uppsala
upright
ur
ura
urahina
urakaho
ural
uratea
urdu
urewera
uri
url
urmia
uropi
uru
urukoi
urupa
urupukapuka
uruta
urutomo
urville
us
usa
usage
use
used
user
using
uta
utah
utaina
utc
utena
utu
utua
utukore
utzon
v
va
vaduz
vai
vairas
vaisigano
vaita
val
valencia
valletta
valley
value
values
van
vandalism
vantaa
vanuatu
var
vayres
ve
vegas
vejle
veliko
vella
vermeer
vermont
verona
version
very
vi
vicente
victoria
vietnam
view
vigo
viii
viking
villa
village
ville
vilnius
vincent
vinci
vinyard
virginia
visaginas
viscount
vision
visitors
vista
vivien
vlamertinge
vn
vo
vocabulary
voices
voivodeship
vol
volume
von
voyages
vuo
vɛjʁ
w
wa
waa
waahi
waaka
waddington
wae
waea
waehere
waenga
waenganui
waengarahi
waerenga
waewae
waha
wahanga
wahapu
waharoa
wahi
wahie
wahine
wahinerua
wahingitana
waho
wai
waiapu
waiariki
waiata
waiau
waiaua
waihanga
waihao
waiharakeke
waiharara
waihi
waiho
waihoki
waihola
waihopai
waihou
waikaremoana
waikato
waikawa
waikuku
waima
waimangaroa
waimate
waimatuku
waimauku
waimea
waingawa
waingongoro
wainui
wainuioru
waiohua
waioneke
waiorongomai
waiotahi
waiotira
waipa
waipahi
waipapa
waipatu
waipawa
waipiro
waipori
waipoua
waipounamu
waipu
waipukurau
waipuna
wairakei
wairarapa
wairau
waireka
wairere
wairoa
wairua
waitaha
waitahako
waitahanui
waitahuna
waitaki
waitangi
waitara
waitati
waiti
waitohi
waitohu
waitoki
waitomo
waitotara
waituhi
waituna
waiwaro
waiwera
waka
wakatahurangi
wakawaka
wales
walker
wall
wallace
walsh
walt
walter
wana
wananga
wanatanga
wane
wanganui
wangawanga
wano
want
wao
waonga
war
warahi
waratahs
ward
warhol
wari
waro
warriors
waru
was
washington
watawata
water
wawaea
wawe
way
wayback
we
web
webelements
weber
website
wehe
wehea
wehenga
weheruatanga
weheruatia
wehi
wehiwehi
wei
weinmannia
weiti
weka
welcome
well
wellington
wendon
wenehu
wenua
wera
werahiko
were
werinia
weriti
wero
west
western
westport
wetereo
wewete
wh
wha
whaea
whai
whaiao
whaiaro
whaihoki
whaimana
whairangi
whaiti
whaka
whakaae
whakaaetanga
whakaaetia
whakaahua
whakaahuatia
whakaako
whakaakoranga
whakaari
whakaaro
whakaarohia
whakaata
whakaatu
whakaatunga
whakaaturanga
whakaaturia
whakaeke
whakaha
whakahaere
whakahaerea
whakahaerehia
whakahaeretia
whakahau
whakahe
whakaheke
whakahekeheke
whakahiato
whakahirahira
whakahoki
whakahokia
whakahonore
whakahou
whakahouhou
whakahoutia
whakahua
whakahuatia
whakaingoatia
whakairi
whakairo
whakaka
whakakaha
whakakake
whakakapi
whakakapihia
whakakata
whakaki
whakakore
whakakotahi
whakakotahitia
whakama
whakamahara
whakamaharatanga
whakamahi
whakamahia
whakamana
whakamanahia
whakamanatia
whakamaoritanga
whakamarumaru
whakamau
whakamaua
whakamaumahara
whakamaumaharatanga
whakami
whakamihi
whakaminemine
whakaminenga
whakamo
whakamua
whakamutua
whakamutunga
whakanekenekehia
whakangaromia
whakangote
whakangungu
whakanoho
whakanohoia
whakanui
whakanuia
whakanukunukuhia
whakaoho
whakaora
whakaoranga
whakaoriori
whakaoti
whakapa
whakapae
whakapai
whakapaingia
whakapaipai
whakapakoko
whakapangia
whakapapa
whakapo
whakapono
whakapu
whakapuaki
whakapuarengia
whakapumautia
whakaputa
whakaputahia
whakaputaina
whakara
whakarahi
whakararo
whakarato
whakare
whakarere
whakarerea
whakarereke
whakarite
whakaritea
whakaritenga
whakaro
whakaroa
whakarongo
whakarua
whakaruru
whakaruruhau
whakata
whakataetae
whakatairanga
whakatairangatia
whakataka
whakataki
whakatakitinitia
whakatakoto
whakatakotohia
whakatakotoranga
whakatane
whakatangi
whakatangihanga
whakatapua
whakatau
whakatauki
whakataunga
whakatauranga
whakatauria
whakateraki
whakatere
whakatetonga
whakati
whakatika
whakatikatika
whakatipu
whakato
whakatu
whakatumatuma
whakatupu
whakatupuranga
whakaturia
whakatutuki
whakatuwhera
whakatuwherahia
whakatuwheratanga
whakatuwheratia
whakau
whakaue
whakaupoko
whakauru
whakaurua
whakauruuru
whakautu
whakawa
whakawehe
whakawha
whakawhanakehia
whakawhirinaki
whakawhiti
whakawhitiwhiti
whakawhiwhia
whana
whanake
whanaketanga
whananaki
whananga
whanau
whanaunga
whanga
whangaehu
whanganui
whanganuiko
whangapa
whangapara
whangaparaoa
whangaparapara
whangapoua
whangarei
whangaroa
whangaruru
whano
whanokao
whanonga
whanuitia
whara
whare
whareama
wharekai
wharekauri
wharekawa
wharemoa
wharenui
wharepuni
wharetoa
what
whatanui
whati
whatitiri
whatu
whatua
whatumoana
whatunga
whau
whawhai
whe
whea
wheao
wheke
whekeneta
when
whenua
whenuahou
whenuakura
whera
where
whererei
wherika
whero
wherowhero
whether
whetu
whi
whia
whiao
which
while
whina
whinirana
whio
whiri
whirinaki
whiringa
whiritia
whiriwhiri
white
whiti
whitina
whitinamu
whitinga
whitney
whitu
whiu
whiua
whiwhi
whiwhinga
who
whole
whutupaoro
whutupo
why
whyalla
wi
width
wien
wiki
wikipedia
wikipedias
wikito
wikitoria
wikivoyage
wilde
will
willem
william
williams
willowby
wilson
wimbledon
windsor
wini
winiata
winitana
winscombe
wiremu
wiri
wisconsin
with
without
witi
wiwi
wo
wolin
woman
wonsan
woodard
woodend
woodhill
woodlands
woodsreef
word
words
work
works
world
worldcat
worship
would
wouldn
wp
wright
writers
wuhan
www
wyeth
wyoming
x
xa
xeronema
xi
xianfan
xose
xvi
y
ya
yazd
year
years
yerevan
yet
yi
yiddish
yokohama
york
you
your
youtube
ypres
ys
yyyy
z
zagreb
zahedan
zanjan
zealand
zedong
zgeha
zho
zhuang
ziyar
zn
zuckermann
{
|
}
~
£
¥
«
°
²
·
º
»
æ
ŋ
ɑ
ɒ
ɔ
ɕ
ə
ɡ
ɪ
ɾ
ʊ
ʰ
ʲ
ʹ
ʻ
ʾ
ʿ
ˀ
ˈ
ˌ
ː
ːˈ
ˠ
̀
́
̂
̃
̄
̆
̇
̈
̉
̊
̋
̌
̓
̔
̛
̝
̣
̦
̧
̨
̩
̪
̯
̱
͂
͡
α
β
ε
ν
ρ
ς
ω
ϯ
б
бу
бык
быть
в
ви
вода
вы
вые
где
гу
да
дел
доро
ду
е
его
ее
же
жные
жу
здесь
зна
и
их
к
как
ки
кни
ко
корабле
корабля
л
ла
ли
лько
м
маши
мне
мо
мои
н
на
но
ну
о
окно
отку
отсю
посети
приве
пти
рассма
рассмотрю
республика
ру
саха
се
сказа
ско
сскии
т
там
тели
то
тривать
ту
туда
ты
ть
у
фли
ца
цу
чита
шка
ъ
ь
э
ю
ют
я
язы
ְ
ֲ
ִ
ֵ
ֶ
ַ
ָ
ֹ
ּ
־
ׂ
א
ב
ד
י
ירושלים
ך
ל
מ
ע
ר
ש
ת
ا
اردبیل
استان
اوستانی
ایران
ب
باد
ة
ت
ح
خراسان
د
ذربایجان
ر
س
ع
ق
ل
م
و
ي
َ
ُ
ِ
ّ
ْ
ٓ
ٔ
ٕ
پ
پارێزگای
ی
ܕ
ܟ
ܵ
ܼ
ܿ
݂
߬
ं
क
ज
ण
द
न
प
फ
भ
म
य
र
ल
ह
़
ा
ि
ी
ु
े
ै
्
ং
ক
খ
ট
ঢ
ত
দ
ন
ব
ম
র
ল
শ
স
হ
া
ি
ী
ু
ে
্
ਂ
ਦ
ਲ
ਿ
ੀ
ੱ
દ
વ
સ
ા
ુ
க
ச
ன
ள
ா
ி
ெ
ை
்
ద
బ
హ
ా
ె
్
ౖ
ಂ
ಬ
ರ
ು
ೂ
ೆ
ං
ක
ර
ල
ශ
්
ා
ී
ជ
ា
​
‌
‍
‎
–
—
‘
’
“
”
†
′
″
‿
⁽
⁾
€
₼
₽
↔
↷
≈
③
④
⑦
☉
☾
ⲁ
ⲃ
ⲉ
ⲏ
ⲓ
ⲙ
ⲛ
ⲟ
ⲣ
ⲥ
ⲧ
ⲩ
ⲫ
ⲭ
⺀
⺄
⺆
⺈
⺊
⺌
⺕
⺝
⺸
⺼
⿰
⿱
⿲
⿳
⿴
⿵
⿶
⿷
⿸
⿹
⿺
⿻
〢
い
え
さ
た
の
ひ
ま
も
ん
゙
゚
オ
カ
コ
ス
セ
ッ
テ
ト
ネ
ハ
ヒ
フ
ホ
マ
ユ
ラ
リ
ル
レ
ン
ー
㇁
㇂
㇄
㇇
㇈
㇉
㇓
㐁
㐄
㐅
㐌
㐫
㐬
㐭
㐮
㐱
㑒
㒵
㒸
㒼
㓁
㓞
㔾
㕛
㕣
㖾
㘝
㚅
㚇
㚔
㚘
㝉
㝡
㝴
㝵
㞋
㞢
㞷
㠩
㠭
㠯
㡀
㡭
㡿
㢲
㢴
㣇
㣺
㥯
㪅
㫄
㫐
㫒
㫺
㬅
㬎
㬥
㬰
㲋
㳄
㷠
㸒
㸚
㸦
㼌
㼲
㽞
㿟
䀠
䂞
䍃
䏍
䒑
䖍
䖒
䖝
䖵
䙴
䚻
䜌
䝿
䡛
䧹
䪞
一
丁
丂
七
丄
丅
丆
万
丈
三
上
下
丌
不
与
丏
丐
丑
专
且
丕
世
丘
丙
业
东
丞
丢
丣
两
严
並
丨
丩
个
丫
丬
中
丮
丰
丱
串
丵
丶
丷
丸
丹
为
主
丽
丿
乀
乂
乃
久
乆
乇
么
义
之
乌
乍
乎
乏
乐
乑
乔
乖
乗
乘
乙
乚
乛
乜
九
乞
也
习
乡
乳
乾
亀
亅
了
亇
予
争
事
二
亍
于
亏
亐
云
互
亓
五
井
亘
亚
亜
亞
亟
亠
亡
亢
交
亥
亦
产
亨
亩
享
京
亭
亮
亯
亰
亲
亳
亶
亷
人
亻
亼
亾
仁
今
介
仌
从
仐
仑
仒
仓
仕
他
付
仝
代
令
以
任
企
伊
伏
伐
休
会
伯
但
位
何
佘
余
佛
作
佥
使
來
侈
侌
侖
侯
侵
便
保
俞
信
修
倉
倍
候
倠
備
僉
僕
儿
兀
允
兂
元
兄
充
兆
兇
先
光
兊
克
兌
免
兑
兒
兓
兔
党
兜
兟
入
全
兩
兪
八
公
六
兮
兰
共
关
兵
其
具
典
兹
兼
冀
冂
冃
冄
内
冈
冉
冊
冋
册
再
冎
冏
冐
冒
冓
冖
冗
冘
军
农
冝
冡
冥
冫
冬
冷
几
凡
凢
凱
凵
凶
凷
凸
凹
出
函
凾
刀
刁
刂
刃
刄
刅
分
切
刍
刑
刕
刖
列
刘
则
初
別
利
别
到
制
刺
則
削
剌
前
剛
剡
剽
劉
力
功
加
劦
助
劫
劳
劵
勃
勇
勉
勒
動
務
勞
勤
勹
勺
勻
勾
勿
匀
匂
包
匆
匈
匊
匋
匍
匕
化
北
匚
匝
匡
匪
匱
匸
匹
区
医
匽
匿
區
十
卂
千
卄
卅
卆
升
午
卉
半
卌
华
卑
卒
卓
单
卖
南
卜
卝
卞
占
卡
卢
卣
卤
卦
卩
卪
卫
卬
卯
印
危
即
却
卵
卷
卸
卻
厂
厃
厄
历
厈
厉
厌
厓
厘
厚
原
厤
厥
厨
厭
厲
厶
厷
厸
去
厼
厽
叀
参
參
叅
又
叉
及
友
双
反
叐
发
叒
叔
叕
取
受
叚
叜
叟
口
古
句
另
叩
只
召
可
台
叱
史
右
叵
号
司
叹
吂
各
吅
合
吉
吊
吋
同
名
后
吏
向
吕
君
吝
吞
否
含
启
吳
吴
吹
吾
呂
呆
呈
告
员
呙
周
命
咅
和
咎
咠
咢
咨
咸
咼
哀
品
哈
哉
員
哥
哲
唐
商
啇
問
啚
啬
啻
善
喜
喬
單
喿
嗇
噩
嚴
囊
囗
囘
囙
囚
四
回
囟
因
囧
囬
困
囱
囷
固
国
圂
圅
國
圍
圓
土
圡
圣
圥
在
圭
地
圳
圶
圼
坐
坒
坚
坴
垂
垔
垚
埀
埋
埶
執
基
堂
堅
堆
堇
堯
塞
墨
壘
士
壬
壯
声
壳
壴
壹
壺
壽
夂
处
夅
夆
备
夊
夋
夌
复
夏
夒
夕
外
夗
夘
多
夜
夢
大
夨
天
太
夫
夬
夭
央
失
夲
头
夷
夸
夹
夻
夾
奂
奄
奇
奈
奉
奎
奏
奐
契
奓
奔
奚
奞
奠
奢
奥
奭
女
奴
奻
好
如
妄
妙
妟
妥
妻
妾
姑
委
姜
威
娄
婁
婴
嬰
嬴
子
孑
孔
孕
孖
字
存
孚
孛
孝
孟
季
孤
学
孫
孱
學
宀
宁
宂
它
宅
宇
守
安
宋
完
宏
宓
宗
官
定
宛
宜
宝
客
宣
室
宮
宰
害
家
容
宾
宿
寄
寅
密
富
寒
察
寧
審
寫
寬
寮
寸
对
寺
寻
寽
対
寿
封
尃
射
将
將
專
尉
尊
尋
尌
對
小
少
尒
尓
尔
尖
尗
尚
尞
尢
尣
尤
尧
尨
尭
就
尸
尹
尺
尻
尼
尽
尾
尿
局
居
屈
屋
屎
屏
屑
展
屖
屚
属
屠
屡
屬
屮
屯
屰
山
屵
屾
岁
岂
岑
岡
岩
岳
岸
峯
島
崇
崎
崑
崔
崖
崙
崩
嵬
嶲
巂
巛
川
州
巟
巠
巢
巤
工
左
巧
巨
巩
巫
差
己
已
巳
巴
巷
巸
巽
巾
巿
帀
市
布
希
帚
帛
帝
带
師
席
帶
常
幌
干
平
年
幵
并
幷
幸
幺
幻
幼
幽
幾
广
広
庄
庆
床
底
店
庚
府
度
庫
庭
庶
康
庸
廉
廌
廛
廣
廩
廴
延
廷
建
廾
廿
开
弁
弃
弄
弇
弋
式
弓
弔
引
弗
弘
弜
弟
弥
弦
弱
張
強
强
彊
彌
彎
彐
彑
当
彔
录
彖
彗
彡
形
彥
彦
彧
彭
彳
役
彼
往
待
律
徒
得
徙
從
復
微
徵
心
忄
必
忌
忍
志
忝
忠
忩
快
念
忽
忿
思
怠
怡
急
怱
恆
恒
恩
恭
息
悉
患
悤
悲
悶
惠
惡
惢
愁
愈
意
愛
感
慈
慧
慮
憂
憲
應
戀
戈
戉
戊
戋
戌
戍
戎
成
我
戒
戔
或
戚
戠
戢
截
戲
戶
户
戸
戹
戼
戾
房
所
扁
扇
手
扌
才
打
托
执
承
抖
折
拉
拜
拼
拿
掌
推
提
摩
支
攴
攵
收
攸
改
攻
放
政
敄
敏
敕
敖
敗
敝
敞
敢
散
敦
敫
敬
数
敷
數
斂
文
斉
斊
斗
斤
斥
斩
斬
斯
新
方
於
施
斿
旁
旋
族
无
旡
既
旣
日
旦
旧
旨
早
旬
旱
旲
时
旾
昆
昇
昌
昍
明
昏
易
昔
昗
昜
星
春
昬
是
昱
昴
昷
時
晃
晋
晏
普
景
晶
智
暑
暴
曇
曩
曰
曲
曳
更
曷
書
曹
曼
曾
替
最
朁
會
月
有
朋
服
朔
朕
朗
望
朝
木
朩
未
末
本
札
朮
术
朱
朵
朶
朿
杀
李
杏
杜
束
条
来
杭
東
杲
杳
松
析
林
枚
果
枝
枲
枼
某
柔
查
柬
柰
柴
栗
桀
桑
桼
梁
條
梟
梨
棘
棠
棥
森
楚
業
楽
榮
樂
樊
横
機
欠
次
欣
欮
欲
欶
欽
款
歆
歇
歛
止
正
此
步
武
歨
歪
歮
歯
歰
歲
歴
歷
歸
歹
歺
死
殳
段
殷
殸
殹
殺
殻
殿
毋
毌
母
每
毒
比
毕
毚
毛
毳
氏
氐
民
气
氣
水
氵
氶
氷
永
氺
氾
求
汉
汝
汞
江
沃
沈
沓
沙
沝
治
沽
泉
法
波
泣
泥
泰
洛
津
洪
活
派
流
浜
浦
浪
浮
海
淡
淮
深
清
渚
渠
港
湯
源
滨
滿
漢
漸
火
灬
灭
灰
灵
灷
炅
炎
炏
炗
炙
炭
為
烈
烏
烝
焉
無
焦
焱
然
煞
熊
熏
燕
營
燮
爪
爫
爭
爯
爰
爱
爲
爵
父
爻
爽
爾
爿
片
牙
牚
牛
牜
牟
牢
牧
牪
牽
犀
犬
犭
犮
狂
狄
狊
独
狺
猋
猒
猪
献
獻
玄
率
玉
王
玟
玨
珎
班
琴
瑟
瑩
瓜
瓦
甘
甚
生
産
用
甫
甬
田
由
甲
申
电
甶
男
甸
甹
画
甾
畀
界
畏
畐
留
畜
畟
畢
畧
畨
番
畫
異
畱
當
畺
畾
疊
疋
疌
疑
疒
疾
癶
癸
癹
登
發
白
百
皀
皃
的
皆
皇
皋
皐
皕
皮
皷
皿
盃
盆
盇
盈
益
盍
盎
监
盒
盖
盛
盡
監
盤
盧
目
直
相
盾
省
眇
眉
看
眔
眞
真
眷
眼
眾
着
睘
睪
睿
瞏
瞢
瞿
矍
矛
矞
矢
矣
知
矦
短
石
破
碎
磊
磨
示
礻
礼
神
祟
票
祭
禀
禁
福
禸
禹
禺
离
禽
禾
禿
秀
秃
秉
秋
科
秝
秦
移
稟
穀
穌
穴
究
穹
空
穿
突
窄
窒
立
竒
竜
竝
竟
章
童
竹
笑
笠
筆
等
答
箕
算
箴
節
篤
篭
米
粉
粛
粟
粤
粦
粲
糞
糸
糹
系
約
納
純
素
索
紫
累
細
絜
絫
絲
維
綿
縣
繇
纍
纟
缶
网
罒
罔
罕
罗
罙
罡
罢
罪
署
罷
羅
羊
羌
羍
美
羔
羕
羗
羞
羡
羣
群
義
羲
羸
羽
翁
翏
習
翕
翟
翠
翼
老
耂
考
者
耆
而
耎
耑
耒
耳
耴
耶
耷
聂
聊
聖
聚
聶
聿
肀
肃
肅
肉
肖
肙
肥
肩
肯
育
肴
胃
背
胡
胥
能
脊
脩
膚
臣
臤
臧
自
臬
臭
臯
臱
至
致
臺
臼
臽
臾
臿
舀
舂
舄
與
興
舉
舌
舍
舛
舜
舞
舟
般
艮
良
色
艸
艹
艾
芒
芔
芬
芮
花
芳
芺
芻
苔
苗
苟
若
苦
英
茶
茸
荅
草
荒
荣
荼
莆
莞
莧
莫
莽
菆
菊
菐
華
萬
落
葉
著
葛
董
葵
蒙
蒦
蒼
蓋
蓬
蓺
蔑
蔡
蕉
蕭
薄
薛
薦
薰
藍
藏
藥
蘭
虍
虎
虐
虒
虔
處
虖
虗
虘
虚
虛
虜
虞
虫
虽
蚤
蚩
蜀
蜜
蟲
蠡
血
行
衍
衛
衣
衤
表
衮
衰
袁
袞
褭
褱
襄
襾
西
覀
要
覃
見
規
覓
覧
親
覽
见
角
解
言
訁
訇
計
詹
語
誩
諸
護
讠
语
谷
豆
豈
豊
豐
豕
豖
豙
象
豦
豩
豪
豸
貇
貝
貞
貟
負
貢
貧
貪
貫
責
貳
貴
買
費
賁
資
賈
賏
賓
賔
賛
賞
賢
賣
質
賴
贊
贝
贡
责
贯
贲
贵
赖
赞
赤
赦
走
起
越
足
路
蹇
身
躬
車
軍
軎
軟
輦
车
辛
辜
辟
辥
辰
辱
農
辵
辶
边
达
过
近
进
连
迷
追
退
送
逆
逐
通
速
造
逢
連
逮
進
遀
遂
過
道
達
遣
適
遷
遺
邊
邑
邕
那
邦
邪
郎
郑
部
郭
都
鄉
酉
酋
配
酓
釆
采
里
重
野
量
金
釒
錢
钅
長
镸
长
門
閃
閉
開
閏
閑
閒
間
閔
閵
閻
闌
门
间
闷
阑
阜
阝
阪
阳
阿
降
陳
隆
隊
隋
隡
隨
隱
隶
隹
隺
隻
隼
隽
难
雀
雁
集
雈
雋
雍
雐
雔
雙
雚
雜
雝
離
難
雨
雩
雪
雲
零
雷
需
霍
霜
霝
霞
霸
靈
靑
青
静
非
靡
面
靣
革
韋
韦
韭
韯
韱
音
頁
頃
項
須
頗
頡
頻
顛
页
風
风
飛
飞
食
飠
養
饣
首
香
馬
馮
駦
马
骨
高
髟
鬥
鬯
鬲
鬼
魚
魯
鮮
鱼
鲁
鳥
鳳
鸟
鹵
鹿
麃
麗
麥
麦
麻
黃
黄
黍
黎
黑
黒
黨
黹
黽
黾
鼎
鼓
鼠
鼻
齊
齋
齐
齒
齿
龍
龙
龜
龟
龠
龰
龱
龴
龵
龶
龷
龸
龹
ꜣ
者
艹
﷼
﻿
？
𐎠
𐎡
𐎢
𐎤
𐎧
𐎲
𐎽
𐏁
𐏂
𐡀
𐡁
𐡉
𐡋
𐡌
𐡓
𐤀
𐤉
𐤌
𐤓
𒀀
𒀕
𒀝
𒀫
𒀭
𒀸
𒁀
𒁉
𒁺
𒂵
𒄒
𒄠
𒄩
𒅗
𒆍
𒆠
𒆳
𒇷
𒈬
𒉈
𒉣
𒉿
𒊏
𒋀
𒌑
𒌓
𒌵
𞤢
𞤥
𞤦
𞤮
𞤳
🜨
𠀁
𠀃
𠀆
𠀉
𠀎
𠀐
𠁁
𠁣
𠂆
𠂇
𠂈
𠂉
𠂊
𠂋
𠂎
𠂒
𠂔
𠂛
𠂡
𠂢
𠂤
𠂬
𠂭
𠂹
𠃊
𠃋
𠃌
𠃍
𠃎
𠃑
𠃓
𠃔
𠃜
𠄌
𠄎
𠄠
𠄢
𠆢
𠆥
𠇍
𠈌
𠌵
𠓜
𠔉
𠔥
𠔼
𠔽
𠔿
𠕀
𠕁
𠕋
𠘧
𠘨
𠙻
𠙼
𠚏
𠚒
𠚤
𠚪
𠣏
𠤎
𠤕
𠥓
𠦄
𠦑
𠦝
𠧒
𠧗
𠧪
𠩺
𠪚
𠫓
𠫔
𠫤
𠬛
𠬝
𠬞
𠬢
𠬤
𠬶
𠮛
𠮦
𠮷
𠯑
𠱠
𠳮
𠷎
𡈼
𡉀
𡉵
𡌥
𡍮
𡏳
𡕒
𡕩
𡕰
𡖅
𡗗
𡗜
𡘆
𡘤
𡧱
𡨄
𡩧
𡬠
𡭽
𡰣
𡰥
𡰪
𡰯
𡰱
𡷈
𡸁
𡿨
𡿩
𡿪
𡿺
𢀖
𢀛
𢀩
𢁙
𢆉
𢆰
𢆶
𢇁
𢇇
𢉖
𢌬
𢌿
𢏚
𢑑
𢑚
𢖻
𢙣
𢛳
𢦏
𢦒
𢧵
𢼄
𢾕
𣁋
𣄼
𣅀
𣅽
𣍘
𣎳
𣎵
𣏋
𣏼
𣗥
𣥂
𣥖
𣦵
𣦼
𣧄
𣪊
𣪠
𣬉
𣳾
𣶒
𤇾
𤊽
𤐫
𤓰
𤔔
𤕨
𤣩
𤰇
𤰔
𤰞
𤴓
𤴔
𤽄
𥁑
𥁕
𥃦
𥃩
𥃭
𥇡
𥑟
𥘅
𥘈
𥝢
𥫗
𥱡
𦈢
𦉪
𦉬
𦉼
𦍌
𦍒
𦎧
𦐇
𦓔
𦔮
𦘒
𦙃
𦚏
𦣝
𦣞
𦣻
𦥑
𦥔
𦥯
𦨉
𦭝
𦰩
𧆞
𧈧
𧘇
𧰨
𧴪
𧴮
𧵩
𧾷
𨸏
𨾴
𩙿
𩠐
𩫏
𩵋
𪉷
𪜀
𪟽
𪠲
𪩲
𫇦
𫔭
𫜸
𫝀
𫠣
𫠩
𫢉
𫥞
𫩏
𫩠
𫪡
𫲽
𫶧
𬀷
𬐘
𬗌
𬙙
𬛸
𬜯
𬟩
𬯁
𬴘
𬺻
𬼉
𬼖
𭀰
𭁈
𭁨
𭅰
𭑈
𭕄
𭗼
𭤨
𭥫
𭻾
𮅕
𮊿
𮍌
𮍏
𮓗
𮥼
𮧮
廾
𰀁
𰀄
𰀈
𰀉
𰀕
𰀠
𰀡
𰀢
𰀪
𰁜
𰃮
𰆊
𰆘
𰋙
𰕎
𰢴
𰧭
𰯲
06--
29--
33--
6--
67--
73--
978--
97801998--
a--
aa--
ab--
abe--
ac--
acan--
ad--
add--
af--
afri--
ag--
aga--
ago--
aha--
ahi--
ahu--
ahua--
ai--
ak--
aka--
ake--
al--
ale--
alf--
am--
amo--
an--
ana--
and--
ang--
ani--
ant--
antarc--
anto--
ao--
apo--
app--
ar--
ara--
arbo--
arc--
ard--
are--
aro--
as--
ash--
at--
ata--
au--
audi--
aust--
auxi--
ave--
awa--
ay--
b--
ba--
bail--
bakh--
bal--
ban--
baqu--
bar--
barry--
bas--
baz--
be--
beau--
begin--
ber--
bi--
bio--
bir--
bird--
bis--
black--
blaig--
blan--
bo--
boj--
bor--
bow--
br--
bra--
brac--
bro--
brook--
bu--
buck--
budd--
bull--
bun--
bur--
c--
ca--
cad--
cale--
cali--
cam--
can--
car--
card--
cas--
cast--
cat--
cau--
ce--
cer--
ch--
cha--
chel--
chlo--
chro--
cir--
cl--
clo--
co--
cole--
com--
comple--
con--
conf--
confe--
cong--
const--
contri--
cor--
coun--
cr--
cu--
cur--
cya--
d--
da--
dan--
dau--
daw--
de--
di--
dial--
dig--
do--
docu--
dor--
dou--
dr--
dro--
du--
dub--
dum--
dun--
dʒ--
e--
ea--
earns--
ec--
ed--
eg--
el--
elep--
em--
en--
er--
es--
espe--
et--
eu--
ex--
excel--
exi--
expl--
ey--
f--
fa--
fair--
fan--
fe--
fer--
fern--
fil--
fin--
fis--
fla--
flax--
fo--
fon--
for--
fos--
frank--
fu--
fur--
fʁ--
g--
ga--
gam--
gar--
gaz--
ge--
gi--
gibb--
glen--
glo--
go--
gor--
gra--
gre--
green--
guer--
gui--
h--
ha--
hae--
haka--
hal--
halo--
ham--
har--
hara--
hart--
has--
hatf--
hau--
hawks--
hay--
he--
hei--
heke--
hen--
her--
hew--
hi--
high--
hika--
hin--
hina--
hine--
ho--
hoa--
hob--
home--
hor--
horo--
hou--
hu--
hua--
huka--
hunga--
hy--
i--
ia--
ic--
id--
iden--
ihu--
ika--
il--
im--
impro--
in--
ina--
inch--
indi--
inst--
inter--
io--
ir--
is--
ita--
iti--
iv--
iwi--
j--
ja--
je--
jin--
jo--
joms--
jul--
k--
ka--
kaha--
kahu--
kai--
kaia--
kaka--
kala--
kan--
kar--
kara--
kas--
kato--
kau--
kawa--
ke--
kel--
ken--
ker--
kere--
kete--
kho--
khor--
ki--
kil--
kin--
kir--
kiri--
kla--
ko--
koe--
koh--
kohu--
koi--
kol--
kon--
konu--
koro--
kou--
kr--
kras--
ku--
kura--
kuri--
kuru--
ky--
l--
la--
lah--
lan--
lanceol--
lar--
le--
legis--
len--
leptos--
li--
libe--
lig--
lin--
lis--
ll--
lo--
loc--
long--
lou--
low--
lu--
luc--
luxem--
ly--
m--
ma--
mac--
mace--
mae--
mag--
mahi--
mai--
maka--
maki--
mako--
mal--
man--
mana--
manga--
manu--
mar--
mara--
marsh--
maru--
mas--
mat--
mata--
mate--
mau--
mawake--
maz--
mc--
me--
med--
mela--
meri--
mi--
micr--
mil--
min--
mist--
mit--
mo--
moe--
moko--
mom--
mon--
mont--
moo--
mor--
mora--
mori--
moro--
motu--
mou--
mu--
mult--
muri--
mutton--
my--
n--
na--
nam--
nar--
natu--
nau--
ne--
neke--
nes--
net--
new--
ng--
nga--
ngo--
ni--
nig--
nin--
no--
nor--
norr--
nu--
nuku--
nz--
o--
oa--
of--
offen--
oh--
ohine--
oho--
ok--
ol--
oma--
on--
one--
op--
opou--
or--
ora--
oro--
ot--
ota--
otama--
ote--
oti--
ou--
out--
ovi--
p--
pa--
pae--
pai--
paka--
pan--
papa--
par--
para--
pare--
pas--
pat--
pate--
patr--
patu--
pe--
pei--
per--
pere--
pes--
phi--
phosp--
pi--
piri--
pl--
ple--
po--
poko--
polo--
pom--
pome--
por--
pori--
poro--
pos--
pot--
pou--
pra--
pre--
pri--
princ--
pro--
pros--
provi--
pseudo--
pu--
pua--
puke--
puku--
puna--
pur--
px--
py--
q--
qaz--
qua--
quin--
r--
ra--
rab--
race--
rae--
rag--
rai--
raj--
ran--
rangi--
rata--
rau--
rawa--
re--
red--
reg--
rei--
rein--
rela--
ren--
reo--
rere--
res--
ri--
ria--
rig--
riki--
ringi--
ro--
rose--
roto--
ru--
rua--
s--
sa--
sam--
san--
sandy--
sar--
sau--
sca--
sce--
sch--
scien--
se--
sea--
sedge--
sen--
ser--
sha--
she--
shi--
si--
sig--
sk--
sla--
slo--
sma--
sna--
sne--
so--
socio--
sop--
spec--
specta--
st--
stan--
ste--
ster--
stock--
su--
sub--
sum--
swan--
swe--
sym--
t--
ta--
tae--
taha--
tahu--
tai--
taka--
taki--
tam--
tama--
tan--
tane--
tapa--
tar--
tara--
tau--
tay--
te--
tea--
tem--
tera--
tere--
th--
ti--
tia--
tiko--
tim--
tiri--
tiz--
to--
toa--
toi--
toko--
tol--
top--
tr--
tra--
transli--
tri--
tro--
trot--
ts--
tu--
tua--
tuhi--
tur--
turi--
turu--
tutae--
ty--
u--
ua--
uga--
ui--
umu--
un--
up--
ur--
uru--
ute--
v--
va--
val--
valen--
ve--
ver--
vi--
vin--
vir--
vla--
vo--
voor--
vɔ--
w--
wa--
waa--
wai--
waio--
waite--
waka--
wal--
wan--
war--
ware--
we--
wehe--
west--
wh--
wha--
whai--
whaka--
whare--
whatu--
whit--
whiti--
wi--
wiki--
wil--
willow--
win--
wind--
wo--
won--
wood--
wool--
wyll--
x--
xen--
y--
ya--
yel--
z--
æ--
đ--
ɡ--
ɪ--
ɾ--
ʃ--
ʔ--
б--
г--
л--
м--
о--
п--
по--
росс--
с--
св--
т--
у--
ч--
чь--
א--
י--
מ--
ا--
ار--
اس--
ال--
الع--
ب--
س--
شر--
ق--
م--
ي--
کرم--
--0
--1
--19
--2
--3
--4
--5
--6
--7
--8
--9
--a
--able
--ac
--ad
--ade
--ae
--aff
--ah
--ai
--aka
--aki
--al
--ald
--ale
--am
--an
--ana
--ance
--anga
--ans
--ant
--anui
--anus
--ao
--ar
--ard
--are
--ari
--aro
--ars
--as
--at
--ata
--ate
--ates
--atu
--au
--awa
--ay
--aya
--b
--ba
--bad
--be
--berg
--bi
--bird
--bl
--ble
--borough
--brook
--bu
--burg
--burn
--bury
--by
--c
--ca
--cal
--ce
--ceae
--ces
--ch
--ched
--cher
--ci
--cing
--cio
--ck
--cks
--co
--con
--ct
--cted
--cts
--ctus
--d
--da
--dale
--de
--dia
--ding
--dium
--do
--dom
--dor
--ds
--dshire
--dus
--dy
--e
--ea
--ead
--ed
--ee
--ehu
--ei
--ek
--el
--ell
--en
--ensis
--ento
--ep
--epa
--er
--era
--ere
--eri
--erno
--ero
--ers
--es
--et
--ete
--ets
--etta
--ey
--f
--fe
--fer
--ff
--fied
--field
--fo
--folia
--ford
--ful
--g
--ga
--gas
--ge
--gh
--ght
--gi
--gnac
--gne
--go
--graph
--gs
--gu
--gues
--h
--ha
--ham
--hau
--he
--head
--here
--hi
--hia
--hill
--hl
--ho
--hoahoa
--hou
--hr
--ht
--hu
--hua
--hue
--hy
--i
--ia
--iac
--ian
--ianus
--ic
--ica
--ick
--ide
--ides
--ie
--ier
--ignac
--ii
--ika
--il
--illac
--illo
--in
--ina
--ine
--ined
--ing
--ino
--inu
--io
--ion
--iro
--is
--ish
--ism
--ist
--it
--iti
--ity
--ium
--ius
--iz
--j
--ja
--ji
--js
--ju
--k
--ka
--kai
--kaka
--kau
--ke
--keke
--ken
--kensis
--ker
--keri
--ki
--kia
--kiekie
--ko
--kohe
--koko
--kore
--kos
--ks
--ku
--kuku
--kura
--l
--la
--lan
--land
--lano
--lar
--ld
--le
--lea
--lei
--len
--ley
--lf
--li
--ling
--lis
--lk
--ll
--lla
--lle
--lli
--llis
--lls
--lly
--lm
--lme
--lo
--logical
--logy
--ls
--lto
--lu
--lus
--ly
--m
--ma
--mai
--mans
--mbo
--me
--mea
--ment
--mi
--mic
--mo
--moa
--mps
--ms
--mu
--mum
--mumu
--muri
--mus
--mutu
--n
--na
--nac
--nai
--nati
--nc
--nce
--nct
--ncy
--nd
--nds
--ne
--ned
--nen
--ner
--nes
--nese
--ng
--nga
--ngi
--ngia
--ngo
--ngs
--ngton
--ngu
--ni
--nia
--nii
--ning
--nio
--nis
--niti
--nje
--nk
--nkirche
--nn
--nna
--nne
--nny
--no
--noka
--ns
--nsis
--nt
--nta
--ntly
--nu
--nua
--nui
--num
--nus
--ny
--nz
--o
--oa
--ock
--od
--oe
--ol
--om
--on
--one
--ono
--ons
--or
--ora
--ore
--ors
--os
--ose
--ot
--otu
--ov
--ow
--own
--p
--pa
--pai
--papa
--pe
--pective
--pehi
--pi
--pia
--platz
--po
--pou
--pouri
--ps
--pt
--pu
--puaka
--q
--r
--ra
--raa
--rac
--rae
--rahi
--rama
--ranga
--rau
--rb
--rc
--rce
--rch
--rd
--re
--ren
--rere
--retu
--rf
--rg
--rhynchus
--ri
--ria
--ric
--ring
--ris
--rity
--rk
--rks
--rl
--rley
--rly
--rn
--rns
--ro
--roa
--rock
--roy
--rpe
--rpus
--rra
--rry
--rs
--rst
--rt
--rto
--rton
--rty
--ru
--rua
--rus
--ry
--s
--sa
--sac
--sberg
--sbury
--sdale
--se
--sed
--sen
--ses
--sh
--sha
--shi
--shire
--si
--sia
--side
--sis
--so
--son
--sons
--ss
--ssa
--ssimus
--st
--ston
--stone
--stown
--stris
--stry
--sus
--t
--ta
--tahi
--tai
--taia
--tal
--tan
--tanga
--tara
--tare
--tation
--tau
--taua
--te
--tea
--ted
--ten
--ter
--tera
--teri
--tes
--th
--tham
--thi
--thumb
--thus
--ti
--tia
--tic
--tiki
--tina
--ting
--tion
--tions
--tis
--to
--toa
--toi
--ton
--tor
--toro
--towai
--town
--tre
--tro
--ts
--tt
--tta
--ttagong
--tto
--tu
--tua
--tui
--tum
--tus
--ty
--tz
--u
--ua
--ub
--ud
--ue
--ui
--ul
--um
--unga
--ura
--urangi
--ure
--urg
--uri
--uru
--us
--utu
--ux
--v
--va
--vale
--ve
--vely
--ves
--vic
--view
--ville
--vo
--w
--wa
--wahia
--wai
--wan
--wao
--we
--wea
--wera
--wha
--whi
--whitu
--wk
--wood
--ws
--x
--y
--ya
--ye
--yer
--yos
--ys
--ywood
--z
--za
--zac
--ze
--zio
--zzo
--ø
--ɐ
--ɔ
--ə
--əjə
--ɛ
--ικη
--а
--ан
--га
--го
--е
--и
--ка
--м
--о
--ра
--ск
--тре
--х
--ы
--ь
--я
--און
--י
--ים
--ן
--ام
--ان
--تان
--د
--ر
--را
--س
--ل
--ن
--نی
--ی
