!
"
#
##0
##1
##10
##11
##12
##13
##14
##15
##16
##17
##18
##19
##2
##20
##21
##22
##23
##24
##25
##26
##27
##28
##29
##3
##30
##31
##32
##33
##34
##35
##36
##37
##38
##39
##4
##40
##41
##42
##43
##44
##45
##46
##47
##48
##49
##5
##50
##51
##52
##53
##54
##55
##56
##57
##58
##59
##6
##60
##61
##62
##63
##64
##65
##66
##67
##68
##69
##7
##70
##71
##72
##73
##74
##75
##76
##77
##78
##79
##8
##80
##81
##82
##83
##84
##85
##86
##87
##88
##89
##9
##90
##91
##92
##93
##94
##95
##96
##97
##98
##99
$
%
&
'
(
)
*
+
,
-
.
/
0
00
000
0000
000000
001
002
003
0078
008000
009
01
01745329252
02
03
04
05
06
07
08
09
1
10
100
1000
10000
100000
101
1010
1011
1016
102
1022
103
104
1040
105
1050
1055
106
107
1073
108
109
1090
1099
11
110
1100
11000
1106
111
112
1127
113
114
115
116
117
118
1183
1189
119
12
120
1200
12000
1203
121
1214
1219
122
1225
123
1230
1233
1234
1234567890
124
1242
1245
1247
125
1251
1253
126
127
1270
1273
128
1289
129
13
130
1300
13000
1303
1306
1308
131
1311
1312
1315
1316
1317
1318
1319
132
1320
1321
1323
1326
1329
133
1331
1333
1337
134
1344
1345
1348
135
1351
1358
136
1360
1365
1369
137
1370
1372
1378
138
139
14
140
1400
14000
141
1416
142
143
1435
144
1443
1445
145
1453
1458
147
148
149
1499
15
150
1500
15000
151
1511
152
1520
1521
1524
1526
1527
1530
1535
154
1540
1542
1543
155
156
1565
157
158
1580
1584
159
1592
1594
1595
1599
16
160
1600
16000
161
1610
1613
1616
162
164
165
1655
166
1669
169
17
170
17000
1709
1722
173
1736
1742
175
1755
176
177
179
18
180
1800
18000
1801
1802
1805
1808
1809
1810
1811
1812
1813
1814
1817
1819
1820
1821
1822
1823
1824
1825
1826
1830
1835
184
1840
1841
1849
1850
1851
1852
1853
1854
1855
1857
1858
1859
1860
1861
1862
1863
1864
1866
1867
1868
1870
1871
1872
1873
1875
1876
1877
1878
1879
188
1880
1881
1882
1883
1884
1885
1886
1887
1888
1889
1890
1891
1892
1893
1894
1895
1896
1897
1898
1899
19
190
1900
19000
1901
1902
1903
1904
1905
1906
1907
1908
1909
1910
1911
1912
1913
1914
1915
1916
1917
1918
1919
1920
1921
1922
1923
1924
1925
1926
1927
1928
1929
1930
1931
1932
1933
1934
1935
1936
1937
1938
1939
1940
1941
1942
1943
1944
1945
1946
1947
1948
1949
1950
1951
1952
1953
1954
1955
1956
1957
1958
1959
196
1960
1961
1962
1963
1964
1965
1966
1967
1968
1969
1970
1971
1972
1973
1974
1975
1976
1977
1978
1979
1980
1981
1982
1983
1984
1985
1986
1987
1988
1989
1990
1991
1992
1993
1994
1995
1996
1997
1998
1999
2
20
200
2000
20000
2001
2002
2003
2004
2005
2006
2007
2008
2009
201
2010
2011
2012
2013
2014
2015
2016
2017
2018
2019
202
2020
2021
2022
2023
2025
2026
2027
2028
2029
203
2030
2032
2034
2038
2040
2041
208
21
210
2100
21000
2177
22
220
2200
22000
221
222
226
228
23
230
2300
23000
233
234
235
24
240
2400
24000
241
244
25
250
2500
25000
255
26
260
2600
26000
27
270
2700
27000
275
276
2799
28
280
2800
28000
29
2900
29000
291
295
3
30
300
3000
30000
301
31
3100
31000
3166
32
320
3200
32000
325
33
330
3300
33000
34
3400
34000
347
35
350
3500
35000
3525
356
358
36
360
3600
36000
37
3700
38
3800
38000
39
3900
4
40
400
4000
40000
41
4100
41000
42
4200
43
4300
43000
44
4400
45
450
4500
46
4600
47
4700
48
4800
483
49
4900
5
50
500
5000
51
5100
52
5200
53
5300
54
5400
55
550
5500
56
560
5600
57
5700
58
580
5800
588
59
5900
6
60
600
6000
61
6100
62
6200
623
625
63
630
6300
638
639
64
6400
649
65
650
6500
66
6600
666
67
6700
68
69
7
70
700
7000
71
7100
712
72
720
7200
729
73
7300
74
743
745
75
750
7500
76
77
773
774
777
78
7800
782
785
79
7900
8
80
800
8000
804
80665
81
82
8200
828
829
83
8300
832
838
84
842
85
850
8500
854
86
8600
8601
869
87
877
88
880
887
888
889
89
9
90
900
9000
90000
902
906
91
9100
92
93
9300
94
95
950
952
96
960
962
97
978
979
98
987
99
996
999
:
;
<
=
>
?
@
\
^
_
`
a
aa
aaa
aaaa
aaaaaah
aaad
aab
aaba
aad
aaf
aah
aap
aar
ab
abbr
abbreviated
abbreviation
abbreviations
abhsaaf
able
abort
aborted
about
above
abs
absent
absolute
ac
accept
acceptable
accepted
accepts
access
accessdate
accessed
accessibility
according
account
accounts
ace
acf
acre
acres
across
act
action
actioncompleted
actions
active
actual
actually
acute
ad
adb
add
addclass
added
addfooterlink
adding
additemsfromclaims
addition
additional
addportletlink
address
adds
adj
adjacent
adjust
admin
administrative
administrator
administrators
adminrights
advanced
adventure
advertising
ae
af
afc
afch
afchsubmission
afd
affairs
affect
affiliate
affricate
africa
african
after
ag
again
against
age
agency
agent
agf
ago
agree
agta
ah
ahh
ahom
ahoms
ahp
ai
aid
aif
air
airlines
airport
airports
aj
ajax
ak
aka
akr
al
ala
album
alert
alias
aliases
aliasesp
align
aligned
alignment
all
allow
allowautomaticnext
allowautomaticokay
allowed
allowing
allows
almost
alone
along
alpha
alphabet
already
also
alt
alternate
alternative
alternatively
alternativemap
although
altnames
alttitle
alveolar
always
am
ambiguity
ambiguous
ambox
america
american
amet
amn
among
amount
amtrak
an
analysis
anchor
anchors
ancient
and
angeles
angle
animal
annotated
annotation
annotations
annual
anobject
anonymous
another
antarid
any
anyone
anything
anywhere
ao
ap
api
apiobj
apostrophe
app
apparent
appear
appearance
appears
append
appendchild
appended
appends
appendtext
appendto
apple
applicable
application
applied
applies
apply
applying
appropriate
approved
approximant
april
aq
ar
arab
arabic
aramaic
arbitrary
archive
archived
archivedate
archives
archiveurl
are
area
areas
aren
arg
argentina
argnumber
args
argscount
argsi
argsk
argstable
argsv
argument
arguments
aria
arin
arles
army
around
arr
array
arrayliketoarray
arrow
art
article
articles
artist
arts
artwork
arv
arxiv
as
ascii
asia
asian
asin
ask
asof
assembleoutput
assert
assertenvtitleequals
assertequals
assertstringcontains
assess
assessment
assign
assigned
assignment
associated
association
assume
assumed
asz
at
athlete
atlanta
atm
atmosphere
atr
attach
attachto
attack
attempt
attention
attr
attribs
attribute
attributes
attribution
atu
au
audio
auf
august
austin
australia
australian
austria
author
authority
authorlink
authors
auto
autoblock
autoconfirmed
autoedit
autofillprop
autofocus
autolevel
automated
automatic
automatically
autonomous
autonum
autoreview
autovalue
aux
av
availability
available
average
avoid
avoided
award
awards
ax
ayf
az
b
ba
bach
back
backbutton
background
backlinks
backwards
bad
badge
bai
ban
band
banda
bangkok
bangladesh
bank
banner
bar
bare
barrel
bars
base
based
baseurl
basic
basketball
batch
batchdelete
batchoperation
bathymetry
baxter
bay
baynessmith
baz
bb
bba
bbc
bbkl
bc
bce
bd
be
because
become
becomes
been
before
begin
beginning
begins
begun
behavior
behaviour
beijing
being
belgium
believe
belongs
below
beneath
best
beta
better
between
bf
bg
bgcolor
bh
bhutan
bi
bibcode
big
bilabial
billion
bind
biographies
biography
birth
bit
bl
black
blacklist
blank
block
blocked
blocking
blocks
blp
blue
bluebook
blurb
bmzi
bn
bntq
bo
board
body
boilerplate
bold
bolded
boldface
boldness
book
bookdata
books
bool
boolean
border
bordered
borders
borough
boston
bot
both
bots
bottom
bottomleft
bottomright
box
boxes
bp
bql
bqx
br
bra
brace
braces
bracket
bracketclose
bracketed
bracketopen
brackets
branch
brazil
break
breaking
breaks
bridge
brief
britain
british
broad
broken
brown
browser
browsers
bs
btn
btu
bu
buc
buddhism
buddhist
buffer
bug
build
builder
building
built
bullet
bulleted
bump
burma
burmese
bus
business
but
button
buttons
by
bypass
byte
byzantini
byzantium
c
ca
caaa
caad
cache
cached
cactions
cal
calculate
calculated
calendar
california
call
callback
callbacks
called
calling
callname
callnames
calls
cam
cambridge
cameroon
can
canada
canadian
cancel
cancelbutton
candidate
candidates
cannot
canonical
canton
cantonese
cap
cape
capital
capitalization
capitalized
caption
captions
capture
car
cardinal
care
case
cases
cat
catch
categories
categorisation
categorise
categorization
category
catholic
catname
cats
cause
caused
causes
caution
cb
cbb
cc
ccc
ccite
cd
ce
cell
cellprops
cells
census
center
centered
central
centre
century
certain
cf
cfd
cfdtarget
cfg
ch
chad
change
changed
changes
changeslist
changetags
changing
chapter
chapterurl
char
character
characterlength
characters
charat
charge
chart
charter
charts
charttype
chartvis
chat
check
checkbox
checked
checking
checks
checktype
checkuser
chelonia
chem
chembox
chemical
chi
chicago
chief
child
children
chin
china
chinantec
chinese
choice
choose
chosen
chu
church
chzn
ci
cia
cidr
circa
circle
circulation
circumstances
citation
citationclass
citations
cite
cited
citemain
citeparams
citeref
citerefsmith
citeselect
citetb
cities
citing
citrus
city
civil
cjk
cl
claim
claims
clarification
class
classes
classic
classical
classification
classname
clause
clean
cleanup
clear
clearly
click
clickies
clicking
clicky
client
clock
close
closed
closely
closeonclickoutside
closing
club
clusters
cm
cmd
co
coach
coast
coauthors
code
coded
codepoint
codes
coding
coffea
coffee
coins
col
collapse
collapsed
collapsible
collapsibles
collect
collection
collections
collective
college
colombia
colon
color
colored
colors
colour
colours
cols
colspan
colstyle
columbia
column
columns
com
combination
combinations
combined
come
comes
comma
command
commas
comment
comments
committee
common
commonly
commons
communities
community
compact
companies
company
compare
compareurl
comparison
compatibility
compatible
competition
complete
completed
completely
complex
component
components
composite
compositions
computer
computing
concat
concatenation
condition
conditions
conduct
conf
conference
config
configurable
configuration
configured
confirm
confirmed
conflict
confused
confusing
congo
congress
conj
conjunction
connect
connected
connection
consectetur
consecutive
consensus
consider
considered
consistent
consists
console
consonant
construct
constructed
construction
constructor
consts
contact
contain
container
containing
contains
content
contentcat
contents
contentsub
context
continue
contrast
contribs
contribution
contributions
contributor
control
controller
controllers
controls
controversial
convention
conventions
conversation
conversations
conversion
conversions
convert
converted
converting
converts
cookie
coord
coordinate
coordinates
coords
copied
copy
copyright
core
corner
coronavirus
correct
correctly
corresponding
cos
cost
could
council
count
counter
countries
country
county
coup
course
cov
cover
covered
covid
cp
cr
create
created
createelement
creates
createtextnode
creating
creation
creator
creole
criteria
criterion
croatia
cross
cs
csd
csrf
csrftoken
css
csstext
ct
ctx
ctype
cu
cubic
cuft
cultural
culture
cur
curly
currency
current
currently
currenttitle
cursor
custom
customary
customresultinput
cv
cvt
cx
cy
cyrillic
czech
d
da
dab
dai
daily
dali
dam
dark
darkmode
dash
dashboard
dashes
data
database
dataset
datatype
datavalue
date
dated
dateformat
datenum
dates
datestr
datestuff
datetime
datevec
day
days
db
dc
dd
ddd
de
dead
deal
death
debug
debughelper
dec
decade
december
decimal
decimalprecision
decline
declinereason
decode
decoration
decyear
deep
def
default
defaults
deferred
define
defined
defineproperties
defineproperty
defines
definetour
defining
definition
definitions
deg
degree
degrees
del
delay
delete
deleted
deletepages
deleting
deletion
delisted
delta
demo
democracy
democratic
demographics
demospace
den
denmark
denominator
dens
density
dental
deny
department
depend
dependencies
depending
depends
depot
deprecated
depth
deputy
der
derived
desc
described
describes
description
descriptions
descriptor
descriptors
design
designated
designation
designations
designed
desirable
desired
desk
desktop
destination
detail
detailed
details
detect
detected
detection
determine
determined
determines
development
devices
df
di
diacritics
diagram
dialect
dialects
dialog
dict
dictionary
did
die
died
diego
diff
difference
differences
different
diffs
digit
digital
digits
dim
dimensions
din
dir
direct
direction
directions
directly
director
disable
disabled
disambig
disambiguate
disambiguation
disambiguator
discuss
discussed
discussion
discussions
disp
display
displayed
displaying
displaymode
displays
displaytitle
dispute
disputed
disruptive
distance
distinction
distinguish
district
div
divbox
diversity
division
divisions
dl
dlen
dm
dms
dmy
dnb
do
doc
docpage
docs
doctitle
document
documentation
documentelement
does
doesn
dogon
doi
doing
dolor
dolore
dom
domain
don
done
donebutton
dot
dotted
double
down
download
downloader
downtown
dr
draft
drafting
draggablemixin
draw
drop
dropdown
drug
drw
drwcontent
dry
dst
dt
dts
du
due
dummy
dunam
dunams
dungan
duplicate
during
dutch
dv
dw
dx
dyk
dynasty
dz
e
ea
each
earlier
early
earth
ease
easier
easily
east
eastern
easy
eb
ec
echo
economic
ed
edge
edit
editbutton
edited
editing
edition
editnotice
editnotices
editor
editors
editprot
edits
editsection
editsummary
edittools
education
ee
eee
ef
effect
efforts
eg
ega
egypt
ei
eight
eissn
either
ejective
el
election
elections
electronvolt
elem
element
elements
elevation
ellipsis
else
elseif
elsewhere
em
email
embargo
embed
embedded
emblem
emit
empire
empty
en
enable
enabled
enables
enclosed
encode
encoded
encodeuricomponent
encoding
encyclopaedia
encyclopedia
end
endbox
endfile
ending
endorse
ends
energy
enforcement
eng
engine
england
english
enhanced
enom
enough
ensure
enter
entered
entire
entirely
entities
entity
entityid
entries
entry
enum
enumerable
enumerated
enumerator
enumvalues
env
envfuncs
environment
enwiki
eo
episode
episodenumber
episodes
eq
equal
equals
equivalent
er
era
eri
err
error
errorcheck
errors
errortext
es
escape
escaped
escaperegexp
esmodule
especially
est
established
establishment
estimate
et
etc
ethi
ethiopia
ethnic
eu
europe
european
ev
evaluate
even
event
events
every
everyone
everything
evidence
evt
ex
exact
exactly
example
examples
exceed
except
exception
exceptions
exclamation
exclude
exec
exhaust
exist
existent
existing
exists
expand
expanded
expands
expandtemplate
expandtemplates
expansion
expected
experiment
expired
expiry
explain
explained
explaining
explanation
explicit
explicitly
exponent
export
exports
express
expression
expressions
expressway
ext
extend
extended
extendedconfirmed
extension
extensiontag
external
externallink
extra
extract
extrajs
extraneous
f
fa
faa
face
facebook
fact
factbook
factor
factors
factory
fade
fail
failed
fails
failure
fair
fall
fallback
falls
false
family
fancy
far
fashion
fault
fb
fc
fd
fe
feature
featured
features
feb
february
federal
feedback
feet
female
fetch
few
ff
ffd
fff
ffffff
fi
fictional
field
fieldlayout
fields
fieldset
figure
figures
file
filename
files
fill
filler
film
filter
final
finally
find
finds
finished
finland
fips
fire
firefox
first
firstchild
fish
fit
five
fix
fixed
fixme
fl
flag
flags
flat
flex
flip
float
floating
floor
florida
flow
flowers
fluff
fm
fmbox
fmt
fn
focus
folklore
follow
followed
following
follows
font
fonts
fontsize
foo
food
foot
football
footer
footnote
footnotes
for
force
forced
forces
foreach
foreign
forest
form
format
formatdate
formatnum
formats
formatted
formatting
formatversion
formed
former
forms
formsgadget
formula
formwizard
forregisteredonly
forum
forums
forward
found
foundation
founded
four
fourth
fq
fr
fra
frac
fraction
fragment
frame
frameless
france
francisco
free
french
frequency
frequently
fricative
friendly
frm
from
front
fs
ft
fu
fuel
full
fullargs
fulltext
fullurl
fully
func
funcname
function
functionality
functions
further
future
fuw
fuwget
fv
fx
g
ga
gaa
gad
gadget
gadgets
gaeewab
gafagab
gal
gallery
gallon
game
games
gan
gas
gates
gauge
gauges
gazetteer
gb
gbe
gd
gdp
gdrw
ge
gen
general
generally
generate
generated
generates
generic
genus
geo
geographic
geographical
geography
geohack
geomask
geonotice
george
georgia
german
germany
get
getargnums
getargs
getattribute
getcallbackparameters
getcatforid
getcontentlanguage
getcurrentframe
getcurrenttitle
getdata
getelementbyid
getelements
getelementsbytagname
getentityobject
getenv
getenvironment
getlabel
getmsg
getname
getownpropertydescriptor
getpageasdescription
getpagetext
getparametervalue
getparamvalue
getparent
getpref
getprototypeof
getresponse
gets
getstatuselement
gettime
getting
gettitle
geturl
getvalue
getvalueof
gf
gg
ghana
gi
gif
github
give
given
gives
giving
gj
gje
gl
glargs
global
globals
globe
glyph
gm
gmatch
gn
gnis
go
goal
god
goes
gold
good
google
got
gov
governance
government
gp
gr
gracefully
grade
gradient
gram
grand
graph
gray
grc
great
greater
greece
greek
green
grek
grey
grid
group
grouping
groups
gsub
gt
gu
guangxi
guatemala
guc
guidance
guide
guided
guidedtour
guideline
guidelines
guiders
guinea
guru
h
ha
hack
had
hakka
half
hamburgefonts
hamlet
han
hand
handle
handled
handler
handlers
handles
handling
hangul
hani
hanja
hans
hant
happen
happy
hard
harv
harvard
has
hasclass
hasn
hasquery
hatnote
have
haven
having
hd
hdr
he
head
header
headercolor
headers
heading
headings
headline
health
hebrew
hectares
height
helipad
hello
help
helper
helpful
helptip
helvetica
hemisphere
her
here
heritage
hex
hexadecimal
hh
hi
hidden
hide
hidewhenmultiple
hierarchy
high
higher
highest
highland
highlight
highway
hill
hint
his
hist
historic
historical
history
hlist
hmong
hn
ho
hokkien
hold
holding
holds
home
hong
hook
hooks
hope
horizontal
horsepower
host
hostname
hotcat
hour
hours
house
hover
hovering
how
however
hp
hr
href
hsb
html
http
https
hu
human
hungary
hyphen
hyphenated
hyphens
i
ia
iana
iata
ib
ibm
ibox
ibus
icon
iconpre
iconprops
icons
iconscount
id
idea
ideas
identical
identified
identifier
identifiers
identifies
identify
ideograph
idnumber
ids
idx
ie
iefix
ietf
if
iframe
ig
ignore
ignored
ii
iii
il
illinois
im
image
imageannotator
imageid
imageright
images
imbox
img
imgs
immediately
imp
impact
imperial
imperii
impgal
implement
implementation
implemented
implements
implied
import
importance
important
imported
improper
improve
in
inappropriate
inarray
inc
inch
inches
include
included
includes
including
inclusion
incorrect
incorrectly
increase
increment
indef
indefinite
indefinitely
indent
indented
independent
index
indexed
indexer
indexof
indexpageids
india
indian
indiana
indicate
indicates
indicating
indication
indicator
indicators
individual
individually
indonesia
industrial
infinity
inflation
info
infobox
infoboxes
information
infrataxon
inherit
inheritclass
inherits
init
initial
initialcontrib
initialize
inline
inner
innerhtml
inout
inp
input
inputs
ins
insert
insertbefore
inserted
inserting
insertion
inserts
inset
inside
insta
install
installation
installer
instance
instanceof
instances
instead
institute
instruction
instructions
int
integer
intended
interactive
interest
interested
interface
internal
internals
international
internet
interoprequiredefault
interpreted
interview
interwiki
into
intro
introduction
introtext
invalid
inverse
invert
investigations
invisible
invocation
invoke
invoked
invoking
involved
ion
ip
ipa
ipairs
ipsum
ipv
ir
iran
iraq
ireland
irish
irrawaddy
is
isarray
isbn
isediting
islam
island
islands
ismn
isn
isnotempty
iso
isodate
isoname
ispostedit
israel
issn
issue
issues
isxn
it
italian
italic
italicize
italicized
italics
italictitle
italy
item
itemid
items
iterate
iterator
its
itself
iv
j
ja
james
jan
january
japan
japanese
java
javascript
jersey
jfm
ji
jobs
john
join
joins
joshuaproject
journal
jp
jpeg
jpg
jquery
js
jshint
json
jstor
judeo
julian
july
june
just
justice
jyutping
k
ka
kana
karen
kcal
ke
keep
kept
ket
key
keyboard
keydown
keymagic
keys
keyword
keywords
kg
kgb
khamti
kilogram
kilograms
kilometer
kilometers
kilometre
kilometres
kind
kinds
king
kingdom
kit
kj
km
kn
know
knowledge
known
ko
kong
korea
korean
kowloon
kp
kr
kunming
kv
kw
l
la
label
labelorid
labels
labial
lake
lakes
land
lang
langcode
language
languagecode
languages
lanka
lao
laos
lapi
large
larger
largest
largetextbox
last
lastindex
lat
late
later
lateral
latest
latin
latitude
latn
latter
law
lay
layer
layout
lazily
lb
lc
lccn
le
lead
leader
leading
league
learn
learning
least
leave
leaving
led
left
legacy
legal
legend
lemon
len
length
less
let
letter
letters
level
levels
lh
lhs
li
library
libraryutil
libs
libsettings
license
life
light
lijiang
like
likely
lim
limit
limited
limits
limon
line
linear
linen
lines
linfo
link
linked
linkedarticle
linkfunctions
linking
links
linktarget
linktext
linkto
list
listed
listenformwhooks
listing
listitem
lists
lit
literal
litre
little
live
living
lk
ll
lnk
lo
load
loaddata
loaded
loader
loading
loc
local
locally
located
location
locations
lock
locmap
locoslner
log
logged
logic
login
logo
lon
london
long
longer
longitude
look
looking
looks
lookup
loop
lorem
los
lost
lot
louis
love
low
lower
lowercase
ls
lt
ltf
ltr
lu
lua
lum
lv
ly
m
ma
mac
macedonia
macrolanguage
made
mag
magazine
magic
magnitude
mail
main
mainly
mainsnak
mainspace
maint
maintenance
mainwindow
major
make
makecategorylink
makeinvokefunction
makelink
makes
makeurllink
makewikilink
making
malagasy
malay
malaysia
male
malformed
man
management
manager
mandalay
mandarin
mandatory
manner
manobo
manual
manually
many
map
mapframe
maplandia
mapping
mappings
maps
mar
maradona
march
margin
marguments
mari
mark
marked
marker
markers
marking
marks
marksize
markup
martin
mask
maskitem
mass
massachusetts
master
match
matches
matching
material
math
mathematical
mathematics
matter
max
maximum
may
maybe
mb
mbox
mbta
mc
mcal
mccune
md
mdy
me
mean
meaning
means
meant
measure
measurement
measurements
medal
medals
media
mediawiki
medical
medicine
medium
meet
member
memberof
members
men
mention
mentioned
menu
menus
merge
merged
message
messagebox
messages
met
meta
metadata
metatable
meter
meters
method
methods
metre
metres
metric
metro
metropolitan
mexico
mf
mfd
mg
mhatnote
mi
miao
michael
microformat
microformats
microsoft
mid
middle
might
mile
miles
military
millennium
million
mimu
min
minerva
ming
mini
minimal
minimum
minor
minus
minute
minutes
mirror
misc
miss
missing
mission
mit
mixed
mixtec
mj
mk
ml
mln
mm
mn
mnc
mo
mobile
mod
modal
mode
model
modern
modes
modified
modifier
modify
module
modules
mol
molar
moldova
mole
molecular
moment
mon
mong
mongolian
mono
monobook
monospace
month
monthly
months
monument
moon
more
morebits
mos
moscow
most
mostly
motto
mount
mountain
mountains
mouse
move
moved
movement
moves
mp
mqaq
mr
ms
msg
msgpage
mshared
msw
mt
mtabletools
mu
much
mult
multi
multilingual
multiple
multiplier
municipality
museum
music
musical
musicbrainz
must
mw
mwe
my
myanmar
mypage
mytalk
mzi
n
na
naaap
naga
nahuatl
nam
name
named
namedrefs
names
namespace
namespaces
naming
nan
nanzhao
naqbxqqa
narrow
nasal
nation
national
nationality
nations
native
nativetitle
natural
nature
nav
navbar
navbox
navboxes
navchild
navframe
navigation
navigator
navlinkstringtohtml
navpop
navpopup
navseasoncats
nb
nbsp
nc
ncov
nd
ndates
ndb
ndc
nds
ndy
ne
near
necessarily
necessary
need
needed
needing
needs
negative
neither
nel
nepal
nested
nesting
net
netherlands
network
neutral
never
new
newfromtext
newline
newlines
newoption
newparams
news
newsletter
newspaper
newtarget
newwin
next
nextbutton
ng
nga
nh
ni
nice
nickname
nigeria
night
nihongo
nil
nj
njc
nju
nl
nla
nld
nlm
nm
nn
no
noactions
nobots
nocat
nocreate
node
nodes
noeditsection
noflip
nominal
nominated
nomination
nominations
nompage
non
none
nopopup
nor
normal
normalize
normally
north
northern
northwest
northwestern
norway
norwegian
not
notability
notable
notation
note
notes
nothing
notice
noticeboard
notices
notification
notifications
notify
notifying
notoc
noun
nouns
novel
november
now
nowiki
nowrap
np
npf
nq
nr
nrhp
ns
nt
nts
nu
null
num
number
numbered
numberofparametergroups
numbers
numeral
numerator
numeric
numerical
numforms
numparts
nums
numsep
nv
nw
ny
nz
nzy
o
obj
object
objects
oblast
obvious
oc
occur
occurrence
occurs
ocinsoutput
oclc
october
od
odb
odd
odnb
of
off
office
officer
official
offname
offset
offsettop
often
og
ogg
oh
ohio
oil
ok
okay
ol
old
older
oldid
oldtarget
ombox
omit
omitted
on
once
onclick
one
ones
onfailure
oninitialpage
online
only
onlysourced
onshow
onsuccess
ontario
onto
oo
oojs
op
opacity
open
opened
opening
operating
operation
operator
operators
opinion
ops
opt
option
optional
optionally
options
optionspanel
optout
or
orange
order
ordered
ordinal
oregon
org
organization
organized
orig
origargs
origin
original
originalairdate
originally
orphan
os
osm
osti
ot
other
otherpage
others
othertarget
otherwise
ou
our
out
outcome
outer
outline
output
outputs
outputstring
outside
over
overflow
overlap
overlapcalc
overlapicons
overlapn
overlapping
overlapprops
overlappropsi
overlaps
overlay
overlays
overridden
override
overrides
overview
overwrite
own
owner
ownership
owq
owy
oxford
oz
ozu
p
pa
pacific
pad
padded
padding
padlock
page
pageids
pagelink
pagename
pagenamenorm
pageobj
pageparam
pages
pagesresult
pagetext
pagetitle
pagetriage
pagetype
paid
pair
paired
pairs
pakistan
palatal
panama
panel
paper
papua
par
para
paragraph
param
parameter
parameters
paramorder
params
parens
parent
parentargs
parentheses
parentnode
parents
pargs
paris
park
parm
parms
parse
parsed
parsedescription
parseint
parseparam
parser
parsing
part
partial
particular
particularly
partof
parts
party
pass
passed
passenger
passing
past
paste
pat
patent
path
patrolled
pattern
patterns
pc
pcall
pd
pdf
pdw
peer
pending
pennsylvania
people
pepper
per
percent
percentage
performance
performed
perhaps
period
periodical
periods
permission
persian
persistent
person
personal
persons
pframe
pg
pge
ph
pha
phab
phabricator
philippines
phonetic
photo
php
phrase
phrases
physics
pi
picture
pid
pidgin
ping
pink
pinyin
pipe
piped
pipes
pixel
pixels
pl
place
placed
placeholder
places
placing
plain
plainlinks
plan
plateau
platform
player
please
plosive
plural
plus
pm
pmc
pmid
pn
png
po
point
pointer
points
poj
poland
policy
polish
political
pop
popdata
populate
population
popup
popuppreview
popups
popupstring
popuptitle
popuptoplinks
port
portal
portals
portion
portlet
portugal
portuguese
pos
position
positional
positioned
positive
possible
possibly
post
postal
postalveolar
postcondition
posted
postedit
posteditbuttons
posteditbuttonsvisual
postfix
postscript
potential
pound
pounds
poverty
pow
power
pp
ppp
pq
pr
pra
practice
pre
prec
preceded
preceding
precise
precision
precondition
pref
prefecture
prefer
preferable
preferably
preference
preferences
preferred
prefix
prefixed
prefixedtext
prefixes
prefixindex
prefs
prefspanel
prefswindow
preload
prepend
preprint
preprocess
preprocesssinglearg
present
presentation
presented
preserve
preset
president
press
pressure
pretty
prettylinkwidget
preunit
prev
prevent
preventdefault
prevents
preview
previewbox
previewlink
previewmaker
previews
previous
previously
primarily
primary
print
printed
printworthy
prior
private
probably
problem
problems
process
processed
processes
processing
prod
produce
produced
produces
producing
product
products
professional
profile
program
programming
progress
progressive
project
projects
promise
prompt
pron
pronunciation
prop
proper
properly
properties
property
propertyid
proposal
proposals
propose
proposed
props
prose
protect
protected
protection
protectionlevels
protectionobj
protectreason
proto
protocol
protoprops
prototype
proveit
provide
provided
provides
providing
province
provinces
provincial
proxy
ps
pt
pu
public
publication
publicationdate
publish
published
publisher
punctuation
purge
purple
purpose
purposes
push
pushpin
put
putin
puts
pv
pw
px
python
q
qa
qaa
qc
qcqco
qd
qf
qid
qjxqqa
ql
qt
qu
qualid
qualifier
qualifiers
quarter
quebec
quechua
query
question
questions
quick
quickform
quickly
quit
quite
qunit
quotation
quotations
quote
quoted
quotes
r
ra
radio
radius
rail
railroad
railway
railways
raise
ralttitle
ramzym
random
range
ranges
rank
ranking
ranks
rare
rate
rather
rating
ratio
rationale
raw
rawget
rawset
rcat
rcats
rcfilters
rcid
rcts
rd
re
read
reader
readers
reading
reads
ready
real
really
realname
reason
reasonator
reasons
received
recent
recognized
recommendations
recommended
record
recreate
rect
recursive
red
redefine
redir
redirect
redirected
redirects
redirmatch
reduce
redundant
ref
refer
reference
references
referring
refers
reflect
reflist
refname
refs
reftoolbar
reg
regardless
regex
regexp
region
regional
regions
register
registered
registers
registration
regular
reischauer
reject
related
relations
relative
release
released
relevant
relevantusername
reliable
relief
religion
religious
reload
rem
remain
remark
remember
removal
remove
removeblanks
removeclass
removed
removes
removing
ren
rename
render
rendered
rendering
renders
rep
repeat
repeated
replace
replacechild
replaced
replacement
replacements
replaces
reply
report
reported
reports
repository
represent
representative
represented
representing
represents
republic
request
requested
requesting
requests
require
required
requirements
requires
requiretarget
res
research
reserved
reset
resolution
resolve
resolved
resolves
resource
resources
respective
respectively
response
rest
restore
result
resulting
results
ret
retrieve
retrieved
retroflex
return
returned
returns
returntotraining
retval
reuse
rev
reverse
revert
revid
review
reviewed
revised
revision
revisions
rfc
rfd
rft
rgb
rgba
rhs
ri
richard
right
rights
rinfo
risk
river
rivers
rm
rmir
rn
ro
road
roads
rock
role
rollback
rom
romaji
roman
romania
romanization
root
round
rounded
route
routemap
row
rowargs
rowclass
rowprop
rowprops
rows
rowspan
rowstyle
royal
rr
rt
rtitle
rtl
ru
rule
rules
run
running
runway
rural
russia
russian
rvalue
rvprop
rx
s
sa
safe
sai
said
saimawnkham
saint
salt
same
samecontent
sami
samoa
sample
sampletext
san
sand
sandbox
sandboxtitle
sanitychecks
sans
santa
sars
satellite
save
savebutton
saved
saving
say
says
sb
sbn
sbnh
sbox
sc
scale
scaled
scales
scan
scheme
school
science
scientific
scope
scotland
screen
screenshot
scribunto
scribuntounit
script
scripts
scroll
scrollamount
scrolltop
sd
sdh
se
sea
seal
search
searched
searching
searchnsmenu
season
seasonrow
seasons
sec
second
secondary
seconds
section
sections
security
see
seems
seen
sel
seldom
select
selected
selection
selector
self
selfref
semantic
semi
send
sendmessage
sense
sensitive
sent
sentence
sentences
sep
separate
separated
separately
separator
separators
sepc
september
sequence
serial
series
seriesoverview
serif
serve
served
server
serves
service
services
session
set
setattribute
setcallbackparameters
setchangetags
setcontent
setcreateoption
seteditsummary
seterror
setfollowredirect
setlabel
setmetatable
setpopuphtml
setprototypeof
sets
settimeout
setting
settings
settingsdialog
settlement
setup
setwatchlist
seven
several
sf
sfn
sfnref
sh
shadow
sham
shan
shanghai
shape
share
shared
she
shift
shire
short
shortcut
shortcuts
shortened
shorter
shortname
should
shouldlog
shouldn
shouldskip
show
showflag
showing
shown
shows
showstep
showvalues
si
sibilant
sic
sichuan
side
sidebar
sierra
sig
sigfig
sign
signature
significance
significant
signs
silver
similar
similarly
simple
simpleprintf
simplewindow
simplified
simply
sin
since
singapore
single
singular
sino
sister
sit
site
sitelink
sites
six
size
sized
sizes
sizing
sj
sk
ski
skin
skins
skip
skipped
sl
slash
slavic
slice
slightly
small
smaller
smith
snak
snaktype
snippets
so
social
society
sock
sockpuppet
soft
software
solar
solid
solomon
solution
some
someone
something
sometimes
song
soon
sort
sortable
sorted
sorting
sortkey
sound
sounds
source
sourced
sources
south
southeast
southern
southwest
southwestern
sp
space
spaced
spaces
spacing
spain
spam
span
spanish
spans
speak
spec
special
speciallink
specialpage
species
specific
specifically
specification
specified
specifies
specify
specifying
speech
speed
speedtip
speedy
spell
spelled
spelling
spi
spin
split
sport
sports
sq
sqft
sqmi
square
squared
sr
src
sri
ss
ssa
ssrn
st
stabilize
stack
stacked
stacklayout
stand
standard
stands
star
start
started
startfile
starting
starts
stat
state
stated
statelem
statement
statements
states
static
staticprops
station
stations
statistics
stats
status
statuselement
std
steam
step
steps
steve
stf
sticky
still
stone
stop
storage
store
stored
story
str
strange
strategy
street
strict
string
strings
strip
stripped
stroke
strong
structure
structures
stub
students
studies
study
stuff
style
styles
styling
su
sub
subdiv
subdivision
subdivisions
subdivs
subgroup
subheader
subject
subjectspace
submission
submit
submitbutton
submitter
subpage
subpages
subscription
subsequent
subset
subst
substitute
substituted
substitutes
substitution
substr
substring
subtags
subtemplate
subtemplates
subunit
succeeded
success
such
sudan
suffix
suggested
suggestions
suitable
suite
summaries
summary
summer
sun
sup
super
superimposed
superscript
superunit
supplied
supply
support
supported
supporting
supports
suppress
suppressed
sure
surface
surname
surrounding
survey
sv
svg
sweden
swiss
switch
switcher
switzerland
sx
sym
symbol
symbols
synonym
syntax
syria
sysop
sysoponly
system
systems
t
ta
tab
tabari
tabindex
table
tables
tabletools
tabs
tabula
tag
tagclose
tagged
tagging
tagname
tagopen
tags
tai
tail
tailed
taiwan
take
taken
takes
talk
talkback
talkpage
talkpagenotiftopictitle
talkpagenotiftpl
tan
tang
tanzania
tarask
target
targetinput
targetpage
targets
targs
task
taskitemcontroller
tasks
taxobox
taxon
taxonomy
tb
tbl
tbody
tc
td
te
teahouse
team
technical
technology
tekija
tela
television
temp
temperature
template
templateargs
templatedata
templateeditor
templatename
templatepar
templates
templatestyles
templatetitle
temple
temporarily
temporary
ten
term
terminal
terminus
terms
territory
test
testcase
testcases
testcasestitle
testdata
testing
tests
text
textarea
textbox
textcontent
textinputwidget
texts
textselection
textstyle
tfd
tg
tgentry
th
thai
thailand
than
thank
thanks
that
the
thead
their
them
themselves
then
theory
there
therefore
these
they
thing
things
think
third
this
thispage
those
though
thousand
thread
three
through
throw
thumb
thumbnail
thumbs
thus
ti
tibetan
tilde
time
timeless
times
timestamp
timezone
tip
title
titleobj
titles
titlestring
titletext
tj
tk
tl
tls
tm
tmbox
tmp
tnt
to
toc
today
todo
together
toggle
token
tokens
tolowercase
ton
tone
tonne
tonumber
too
tool
toolbar
tools
tooltip
tooltips
top
topic
topics
torque
tostring
total
tour
tourism
town
township
townships
tp
tprintf
tr
track
tracking
tracks
trackstep
trade
traditional
trailing
train
training
trans
transclude
transcluded
transcluding
transclusion
transclusions
transcript
transcription
transcriptions
transform
transit
transition
transl
translate
translated
translation
translations
translit
transliteration
translittitle
transparent
transport
transportation
travel
treated
tree
trick
trigger
trill
trim
trimarg
trout
true
trustees
try
ts
tt
tu
tung
turkey
turkish
turn
turned
turtle
tutorial
tv
tw
twa
twice
twinkle
twinkleconfig
two
txt
type
typed
typeerror
typen
typeof
types
typical
typically
typing
u
ua
ubuntu
ucoc
ucode
udate
uf
ug
ui
uiconfig
uid
uk
ukraine
ul
ulx
un
undef
undefined
under
underscores
understand
undo
unexpected
unicode
union
unique
unit
unitcode
united
units
universal
university
unknown
unless
unlikely
unlink
unlinked
unlinker
unlinkwindow
unnamed
unnecessary
unpack
unprintworthy
unreferenced
unrounded
unset
unsourced
unspaced
until
unused
up
update
updated
updatefrommodel
updates
upload
upon
upper
uppercase
upright
ur
urban
uri
url
urls
us
usa
usability
usage
use
used
useful
usename
user
userissysop
userlinks
username
userpage
users
userspace
usertalk
usertalkpage
uses
usgal
usgs
using
usoz
ustring
usual
usually
ut
utc
util
utility
utype
uvular
uw
uyghur
v
va
val
valid
validate
validation
valinfo
valley
value
valuefunc
values
valuesi
van
vancouver
vandalism
var
variable
variables
variant
variants
variety
various
vb
ve
vector
vehidebetadialog
velar
venue
venues
verify
version
versions
vertical
very
vi
via
viber
victoria
video
vietnam
vietnamese
view
viewer
viewers
viewing
views
village
violation
violations
virgin
virginia
virus
visibility
visible
visitors
visual
visualeditor
visually
vl
vladimir
vn
vnames
voiced
voiceless
void
voivodeship
vol
volume
von
vote
voting
vowel
vowels
vs
w
wa
waad
waap
wales
wan
want
wanted
war
warn
warning
warnings
warring
was
washington
watch
watched
watchlist
watchlistexpiry
water
way
ways
wb
wbx
wc
wd
wdj
we
web
webarchive
webkit
website
week
weeks
weight
welcome
well
were
wes
west
western
wf
wgaction
wgarticleid
wgcanonicalspecialpagename
wgnamespacenumber
wgpagename
wgrelevantusername
wgserver
wgusername
wh
what
whatever
when
where
whether
which
while
white
whitelist
whitespace
who
whole
whose
why
wide
widget
width
wiki
wikibase
wikicode
wikidata
wikieditor
wikiedu
wikilink
wikilinked
wikilinks
wikimarkup
wikimedia
wikipage
wikipedia
wikipedias
wikiproject
wikiprojectcard
wikis
wikisource
wikitable
wikitext
wikitexti
wikivoyage
wiktionary
wild
will
window
windowmanager
windows
winter
wish
with
within
without
wizard
wl
wmf
wmflabs
women
won
word
wording
words
work
working
works
world
worldcat
worldcatid
would
wp
wpbannermeta
wpsave
wptextbox
wr
wrap
wrapped
wrapper
wrappers
wrapping
wraps
writable
write
writing
written
wrong
wt
wu
wuhan
wv
www
wy
x
xej
xfd
xfdc
xfdcloser
xg
xiang
xml
xmlhttprequest
xp
xv
xx
xxx
y
ya
yale
yangon
yd
year
yearly
years
yellow
yes
yesno
yet
yf
yi
yields
ym
ymd
ymdhm
ymdhms
york
you
your
yourself
ytype
yuan
yue
yunnan
yy
yyyy
z
za
zapotec
zbl
zealand
zero
zeros
zh
zhuang
zinh
zone
zoom
zyyy
{
|
}
~

¡
¢
£
§
©
«
¬
®
°
±
²
³
´
µ
¶
·
¹
»
¼
½
¾
¿
×
ß
æ
ð
÷
ø
þ
ħ
ĳ
ŀ
ł
ŋ
œ
ŧ
ǀ
ǁ
ǂ
ǃ
ɐ
ɑ
ɒ
ɔ
ɕ
ɘ
ə
ɛ
ɜ
ɞ
ɟ
ɡ
ɣ
ɤ
ɨ
ɪ
ɬ
ɭ
ɮ
ɯ
ɰ
ɲ
ɵ
ɹ
ɻ
ɾ
ʀ
ʁ
ʃ
ʉ
ʊ
ʌ
ʎ
ʏ
ʒ
ʔ
ʘ
ʝ
ʟ
ʰ
ʲ
ʷ
ʻ
ʼ
ʿ
ˀ
ˈ
ˌ
ː
˔
˕
˖
˗
˦
˩
̀
́
̂
̃
̄
̆
̇
̈
̉
̊
̋
̌
̍
̏
̑
̒
̓
̔
̛
̝
̞
̟
̠
̣
̤
̥
̦
̧
̨
̩
̪
̫
̬
̮
̰
̱
̸
̺
̻
̼
̽
͂
ͅ
͆
͇
͍
͡
α
β
γ
δ
ε
η
θ
ι
κ
λ
μ
ν
ξ
ο
π
ρ
ς
σ
τ
υ
φ
χ
ψ
ω
а
в
г
е
ж
з
и
к
о
с
т
у
ч
я
і
ћ
ө
ԍ
ا
ع
و
َ
ُ
ٔ
٩
ٯ
ं
इ
ई
म
स
ा
ि
े
्
।
ক
ত
দ
ধ
ন
প
ব
ম
য
র
ল
শ
ষ
স
়
া
ি
ী
ু
ে
্
ા
િ
ે
ો
ம
ர
ா
ி
ு
்
ം
ക
ത
ാ
ു
്
ก
ข
ค
ง
ช
ด
ต
ถ
ท
ธ
น
บ
ป
พ
ม
ย
ร
ล
ว
ศ
ส
ห
อ
ั
า
ิ
ี
ึ
ื
ุ
ู
เป
ๆ
็
่
้
์
က
ကခ
ကင
ကစ
ကဋ
ကတ
ကန
ကနန
ကပ
ကဗ
ကမ
ကယ
ကရ
ကရင
ကလ
ကသ
ခ
ခင
ခဒ
ခန
ခမ
ခရ
ခလ
ဂ
ဂရ
ဂရမ
ဂလ
ဃ
င
ငတ
ငန
ငပ
ငမ
ငယ
ငရ
ငဝ
ငၸ
ငၽ
စ
စက
စင
စစ
စဉ
စည
စတ
စတင
စနစ
စပ
စမ
စရ
စဝ
စသ
စသည
ဆ
ဆက
ဆင
ဆည
ဆန
ဆယ
ဆရ
ဇ
ဇန
ဈ
ဉ
ည
ဋ
ဌ
ဍ
ဏ
တ
တက
တဂ
တင
တစ
တည
တတ
တတၵ
တထ
တန
တပ
တမ
တမၼ
တယ
တရ
တလ
တဝ
တဝၼ
တသ
တဢ
တၵ
တၵတ
တၶ
တၶဝ
တၸ
တၺ
တၼ
တၼပ
တၼၼ
တၽ
တႁ
တႁတ
ထ
ထက
ထင
ထည
ထတ
ထန
ထပ
ထမ
ထယ
ထယဝ
ထရ
ထရစ
ထလ
ထဝ
ထသ
ထၵ
ထၵထ
ထၵယ
ထၸဝ
ထၼ
ထၽ
ဒ
ဒရ
ဓ
န
နက
နစ
နည
နတ
နန
နမ
နယ
ပ
ပင
ပစ
ပည
ပတ
ပထ
ပထမ
ပထဝ
ပန
ပပ
ပမ
ပယ
ပရ
ပရမ
ပရႁ
ပလ
ပဝ
ပသ
ပဢ
ပၵ
ပၵတ
ပၶ
ပၸ
ပၺ
ပၻ
ပၼ
ပၿ
ပႁ
ဖ
ဖက
ဖတ
ဖန
ဖမ
ဖယ
ဖရ
ဗ
ဗန
ဘ
ဘက
ဘဏ
မ
မက
မခ
မဂ
မင
မစ
မည
မတ
မတယ
မထ
မန
မပ
မပတ
မမ
မယ
မယဝ
မရ
မလ
မဝ
မဝၼ
မသ
မသၵ
မဟ
မဢ
မၵ
မၵထ
မၶ
မၶဝ
မၷ
မၸ
မၸၵ
မၺ
မၼ
မၼၼ
မႁ
ယ
ယခ
ယင
ယဉ
ယတ
ယတၼ
ယထ
ယန
ယပ
ယမ
ယယဝ
ယလ
ယဝ
ယသ
ယၵ
ယၶဝ
ယၼ
ယၼၼ
ရ
ရက
ရခ
ရင
ရစ
ရည
ရတ
ရတၼ
ရထ
ရန
ရပ
ရမ
ရမစ
ရမည
ရယ
ရရ
ရလ
ရဝ
ရသ
ရသည
ရၵ
ရၶ
ရၸ
ရၼ
ရၼသ
ရၼၼ
ရႁ
လ
လက
လင
လည
လတ
လန
လပ
လမ
လယ
လလ
လဝ
လသ
လၵ
လၶ
လၼ
လၼၼ
လႁ
ဝ
ဝက
ဝင
ဝတ
ဝန
ဝပ
ဝမ
ဝယ
ဝယဝ
ဝရ
ဝလ
ဝဝ
ဝသ
ဝၵ
ဝၸ
ဝၻတ
ဝၼ
ဝၼၼ
သ
သက
သင
သစ
သည
သတ
သတင
သတၼ
သထ
သထရ
သန
သပ
သဖ
သဘ
သမ
သမၼ
သယ
သရ
သလ
သဝ
သသ
သၵ
သၵတ
သၸ
သၺ
သၻ
သၼ
သၼၼ
သၽ
သၿ
ဟ
ဟင
ဟန
အ
အက
အခ
အင
အစ
အစဉ
အစည
အဆ
အဆင
အည
အတ
အထ
အထက
အဓ
အန
အနက
အနည
အပ
အဖ
အမ
အယ
အရ
အလ
အလက
အလယ
အဝ
အဝင
အသ
အသက
အသင
အဥ
ဢ
ဢင
ဢတ
ဢထ
ဢထၵ
ဢပ
ဢမ
ဢမရပ
ဢယ
ဢရ
ဢရသ
ဢရႁတ
ဢလ
ဢလၵ
ဢဝ
ဢသ
ဢၵ
ဢၶ
ဢၷ
ဢၸ
ဢၺ
ဢၼ
ဢၼတ
ဢၼၼ
ဢၽ
ဢႁ
ဥ
ဥက
ဥပဒ
ဥရ
ဧ
ဧရ
ါ
ာ
ိ
ီ
ု
ူ
ေ
ဲ
ဵ
ံ
့
း
္
်
ျ
ြ
ွ
ှ
၀
၁
၁၀
၁၁
၁၂
၁၃
၁၄
၁၅
၁၆
၁၇
၁၈
၁၉
၂
၂၀
၂၀၀၈
၂၀၁၅
၂၀၁၆
၂၁
၂၄
၂၅
၃
၃၀
၄
၅
၆
၇
၈
၉
၊
။
၌
၍
၎
၏
ၢ
ၵ
ၵင
ၵတ
ၵထ
ၵပ
ၵမ
ၵမႁ
ၵယ
ၵယဝ
ၵရ
ၵရၸရ
ၵလ
ၵဝ
ၵသ
ၵၵ
ၵၸ
ၵၻ
ၵၼ
ၵၼၼ
ၵၽ
ၵႁ
ၶ
ၶင
ၶတ
ၶပ
ၶမ
ၶမႁ
ၶယ
ၶရ
ၶလ
ၶဝ
ၶသ
ၶၵ
ၶၶ
ၶၸ
ၶၸဝ
ၶၼ
ၷ
ၷတ
ၷမႁ
ၷလ
ၷၼ
ၸ
ၸင
ၸတ
ၸပ
ၸမ
ၸယ
ၸရ
ၸလ
ၸဝ
ၸသ
ၸၵ
ၸၸ
ၸၺ
ၸၼ
ၹ
ၺ
ၻ
ၻၵ
ၻၼ
ၼ
ၼင
ၼတ
ၼထ
ၼပ
ၼမ
ၼမၼ
ၼယ
ၼရ
ၼရပတ
ၼရသ
ၼလ
ၼဝ
ၼဝတ
ၼသ
ၼသမ
ၼၵ
ၼၶ
ၼၺ
ၼၼ
ၼၼၼ
ၼၽ
ၽ
ၽင
ၽတ
ၽပ
ၽယ
ၽရ
ၽလ
ၽဝ
ၽဝၵ
ၽသ
ၽဢ
ၽၵ
ၽၼ
ၾ
ၾင
ၾရ
ၾရင
ၾလမ
ၾၵ
ၾၼ
ၿ
ၿလ
ႀ
ႁ
ႁင
ႁတ
ႁပ
ႁပတ
ႁမ
ႁဝ
ႁၵ
ႁၼ
ႂ
ႃ
ႄ
ႅ
ႆ
ႇ
ႈ
ႉ
ႊ
႐
႑
႑႐
႑႑
႑႒
႑႔
႑႕
႑႖
႑႘
႑႙
႒
႒႐
႓
႓႐
႓႒
႔
႕
႖
႗
႘
႙
႞
႟
ე
អ
ះ
ᥪ
᧠
᧣
ᨠ
ᨡ
ᨣ
ᨥ
ᨦ
ᨨ
ᨩ
ᨬ
ᵝ
​
‌
‎
‑
‒
–
—
‖
‘
’
“
”
†
‡
•
…
′
″
‼
‽
⁄
⁠
ⁿ
₤
₧
€
₮
™
←
↑
→
↓
↔
↷
⇒
−
√
∞
≈
≡
≤
≥
⊂
⋅
␥
③
④
⑦
◌
☎
♠
✓
✮
✽
⟨
⟩
ⱨ
⺀
⺄
⺆
⺈
⺊
⺌
⺕
⺝
⺸
⺼
⿰
⿱
⿲
⿳
⿴
⿵
⿶
⿷
⿸
⿹
⿺
⿻
〢
の
゙
コ
ユ
ー
㇁
㇂
㇄
㇇
㇈
㇉
㇓
㐁
㐄
㐅
㐌
㐫
㐬
㐭
㐮
㐱
㑒
㒵
㒸
㒼
㓁
㓞
㔾
㕛
㕣
㖾
㘝
㚅
㚇
㚔
㚘
㝉
㝡
㝴
㝵
㞋
㞢
㞷
㠩
㠭
㠯
㡀
㡭
㡿
㢲
㢴
㣇
㣺
㥯
㪅
㫄
㫐
㫒
㫺
㬅
㬎
㬥
㬰
㲋
㳄
㷠
㸒
㸚
㸦
㼌
㼲
㽞
㿟
䀠
䂞
䍃
䏍
䒑
䖍
䖒
䖝
䖵
䙴
䚻
䜌
䝿
䡛
䧹
䪞
一
丁
丂
七
丄
丅
丆
万
丈
三
上
下
丌
不
与
丏
丐
丑
专
且
丕
世
丘
丙
业
东
丞
丢
丣
两
严
並
丨
丩
个
丫
丬
中
丮
丰
丱
串
丵
丶
丷
丸
丹
为
主
丽
丿
乀
乂
乃
久
乆
乇
么
义
之
乌
乍
乎
乏
乐
乑
乔
乖
乗
乘
乙
乚
乛
乜
九
乞
也
习
乡
乳
乾
亀
亅
了
亇
予
争
事
二
亍
于
亏
亐
云
互
亓
五
井
亘
亚
亜
亞
亟
亠
亡
亢
交
亥
亦
产
亨
亩
享
京
亭
亮
亯
亰
亲
亳
亶
亷
人
亻
亼
亾
仁
今
介
仌
从
仐
仑
仒
仓
仕
他
付
仝
代
令
以
任
企
伊
伏
伐
休
会
伯
但
位
何
佘
余
作
佥
使
來
侈
侌
侖
侯
侵
便
保
俞
信
修
倉
倍
候
倠
備
傣
僉
僕
儿
兀
允
兂
元
兄
充
兆
兇
先
光
兊
克
兌
免
兑
兒
兓
兔
党
兜
兟
入
全
兩
兪
八
公
六
兮
兰
共
关
兵
其
具
典
兹
兼
冀
冂
冃
冄
内
冈
冉
冊
冋
册
再
冎
冏
冐
冒
冓
冖
冗
冘
军
农
冝
冡
冥
冫
冬
冷
几
凡
凢
凵
凶
凷
凸
凹
出
函
凾
刀
刁
刂
刃
刄
刅
分
切
刍
刑
刕
刖
列
刘
则
初
別
利
别
到
制
刺
則
削
剌
前
剡
剽
劉
力
功
加
劦
助
劫
劳
劵
勃
勇
勉
勒
動
務
勞
勤
勹
勺
勻
勾
勿
匀
匂
包
匆
匈
匊
匋
匍
匕
化
北
匚
匝
匡
匪
匱
匸
匹
区
医
匽
匿
區
十
卂
千
卄
卅
卆
升
午
卉
半
卌
华
卑
卒
卓
单
卖
南
卜
卝
卞
占
卡
卢
卣
卤
卦
卩
卪
卬
卯
印
危
即
却
卵
卷
卸
卻
厂
厃
厄
历
厈
厉
厌
厓
厘
厚
原
厤
厥
厨
厭
厲
厶
厷
厸
去
厼
厽
叀
参
參
叅
又
叉
及
友
双
反
叐
发
叒
叔
叕
取
受
叚
叜
叟
口
古
句
另
叩
只
召
可
台
叱
史
右
叵
号
司
叹
吂
各
吅
合
吉
吊
吋
同
名
后
吏
向
吕
君
吝
吞
否
含
启
吳
吴
吹
吾
呂
呆
呈
告
员
呙
周
命
咅
和
咎
咠
咢
咨
咸
咼
哀
品
哉
員
哥
哲
唐
商
啇
問
啚
啬
啻
善
喜
喬
單
喿
嗇
噩
嚴
囊
囗
囘
囙
囚
四
回
囟
因
囧
囬
困
囱
囷
固
国
圂
圅
國
圍
圓
土
圡
圣
圥
在
圭
地
圶
圼
坐
坒
坚
坴
垂
垔
垚
埀
埋
埶
執
基
堂
堅
堆
堇
堯
塞
墨
壘
士
壬
壯
声
壳
壴
壹
壺
壽
夂
处
夅
夆
备
夊
夋
夌
复
夏
夒
夕
外
夗
夘
多
夜
夢
大
夨
天
太
夫
夬
夭
央
失
夲
头
夷
夸
夹
夻
夾
奂
奄
奇
奈
奉
奎
奏
奐
契
奓
奔
奚
奞
奠
奢
奥
奭
女
奴
奻
好
如
妄
妙
妟
妥
妻
妾
姑
委
姜
威
娄
婁
婴
嬰
嬴
子
孑
孔
孕
孖
字
存
孚
孛
孝
孟
季
孤
学
孫
孱
學
宀
宁
宂
它
宅
宇
守
安
宋
完
宏
宓
宗
官
定
宛
宜
宝
客
宣
室
宮
宰
害
家
容
宾
宿
寄
寅
密
富
寒
察
寧
審
寫
寬
寮
寸
对
寺
寻
寽
対
寿
封
尃
射
将
將
專
尉
尊
尋
尌
對
小
少
尒
尓
尔
尖
尗
尚
尞
尢
尣
尤
尧
尨
尭
就
尸
尹
尺
尻
尼
尽
尾
尿
局
居
屈
屋
屎
屏
屑
展
屖
屚
属
屠
屡
屬
屮
屯
屰
山
屵
屾
岁
岂
岑
岡
岩
岳
岸
峯
島
崇
崑
崔
崖
崙
崩
嵬
嶲
巂
巛
川
州
巟
巠
巢
巤
工
左
巧
巨
巩
巫
差
己
已
巳
巴
巷
巸
巽
巾
巿
帀
市
布
希
帚
帛
帝
带
師
席
帶
常
干
平
年
幵
并
幷
幸
幺
幻
幼
幽
幾
广
広
庄
床
底
店
庚
府
度
庫
庭
庶
康
庸
廉
廌
廛
廣
廩
廴
延
廷
建
廾
廿
开
弁
弃
弄
弇
弋
式
弓
弔
引
弗
弘
弜
弟
弥
弦
弱
張
強
强
彊
彌
彎
彐
彑
当
彔
录
彖
彗
彡
形
彥
彦
彧
彭
彳
役
彼
往
待
律
徒
得
徙
從
復
微
徵
心
忄
必
忌
忍
志
忝
忠
忩
快
念
忽
忿
思
怠
急
怱
恆
恒
恩
恭
息
悉
患
悤
悲
悶
惠
惡
惢
愁
愈
意
愛
感
慈
慧
慮
憂
憲
應
戀
戈
戉
戊
戋
戌
戍
戎
成
我
戒
戔
或
戚
戠
戢
截
戲
戶
户
戹
戼
戾
房
所
扁
扇
手
扌
才
打
托
执
承
折
拉
拜
拿
掌
推
提
摩
支
攴
攵
收
攸
改
放
政
敄
敏
敕
敖
敗
敝
敞
敢
散
敦
敫
敬
数
敷
數
斂
文
斉
斊
斗
斤
斥
斩
斬
斯
新
方
於
施
斿
旁
旋
族
无
旡
既
旣
日
旦
旧
旨
早
旬
旱
旲
时
旾
昆
昇
昌
昍
明
昏
易
昔
昗
昜
星
春
昬
是
昱
昴
昷
時
晃
晋
晏
普
景
晶
智
暑
暴
曇
曩
曰
曲
曳
更
曷
書
曹
曼
曾
替
最
朁
會
月
有
朋
服
朔
朕
朗
望
朝
期
木
朩
未
末
本
札
朮
术
朱
朵
朶
朿
杀
杏
杜
束
条
来
東
杲
杳
松
析
林
枚
果
枝
枲
枼
某
柔
查
柬
柰
柴
栗
桀
桑
桼
梁
條
梟
梨
棘
棠
棥
森
楚
業
楽
榮
樂
樊
欠
次
欣
欮
欲
欶
欽
款
歆
歇
歛
止
正
此
步
武
歨
歪
歮
歯
歰
歲
歴
歷
歸
歹
歺
死
殳
段
殷
殸
殹
殺
殻
殿
毋
毌
母
每
毒
比
毕
毚
毛
毳
氏
氐
民
气
氣
水
氵
氶
氷
永
氺
氾
求
汝
汞
江
沃
沓
沙
沝
泉
法
波
泣
泥
泰
洛
洪
活
派
流
浦
浪
浮
淡
淮
清
渚
渠
湯
滿
漸
火
灬
灭
灰
灵
灷
炅
炎
炏
炗
炙
炭
為
烈
烏
烝
焉
無
焦
焱
然
煞
熊
熏
燕
營
燮
爪
爫
爭
爯
爰
爱
爲
爵
父
爻
爽
爾
爿
片
牙
牚
牛
牜
牟
牢
牧
牪
牽
犀
犬
犭
犮
狂
狄
狊
独
狺
猋
猒
猪
献
獻
玄
率
玉
王
玟
玨
珎
班
琴
瑟
瑩
瓜
瓦
甘
甚
生
産
用
甫
甬
田
由
甲
申
电
甶
男
甸
甹
画
甾
畀
界
畏
畐
留
畜
畟
畢
畧
畨
番
畫
異
畱
當
畺
畾
疊
疋
疌
疑
疒
疾
癶
癸
癹
登
發
白
百
皀
皃
的
皆
皇
皋
皐
皕
皮
皷
皿
盃
盆
盇
盈
益
盍
盎
监
盒
盖
盛
盡
監
盤
盧
目
直
相
盾
省
眇
眉
看
眔
眞
真
眷
眼
眾
着
睘
睪
睿
瞏
瞢
瞿
矍
矛
矞
矢
矣
知
矦
短
石
破
碎
磊
磨
示
礻
礼
祟
票
祭
禀
禁
禸
禹
禺
离
禽
禾
禿
秀
秃
秉
秋
科
秝
秦
移
稟
穀
穌
穴
究
穹
空
穿
突
窄
窒
立
竒
竜
竝
竟
章
童
竹
笑
笠
第
筆
等
答
箕
算
箴
節
篤
篭
米
粉
粛
粟
粤
粦
粲
糞
糸
糹
系
紀
約
納
素
索
紫
累
細
絜
絫
絲
維
綿
縣
繇
纍
纟
缶
网
罒
罔
罕
罗
罙
罡
罢
罪
署
罷
羅
羊
羌
羍
美
羔
羕
羗
羞
羡
羣
群
義
羲
羸
羽
翁
翏
習
翕
翟
翠
翼
老
耂
考
者
耆
而
耎
耑
耒
耳
耴
耶
耷
聂
聊
聖
聚
聶
聿
肀
肃
肅
肉
肖
肙
肥
肩
肯
育
肴
胃
背
胡
胥
能
脊
脩
膚
臣
臤
臧
自
臬
臭
臯
臱
至
致
臺
臼
臽
臾
臿
舀
舂
舄
與
興
舉
舌
舍
舛
舜
舞
舟
般
艮
良
色
艸
艹
艾
芒
芔
芬
芮
花
芳
芺
芻
苔
苗
苟
若
苦
英
茶
茸
荅
草
荒
荣
荼
莆
莧
莫
莽
菆
菊
菐
華
萬
落
葉
著
葛
董
葵
蒙
蒦
蒼
蓋
蓬
蓺
蔑
蔡
蕉
蕭
薄
薛
薦
薰
藍
藏
藥
蘭
虍
虎
虐
虒
虔
處
虖
虗
虘
虚
虛
虜
虞
虫
虽
蚤
蚩
蜀
蜜
蟲
蠡
血
行
衍
衛
衣
衤
表
衮
衰
袁
袞
褭
褱
襄
襾
西
覀
要
覃
見
規
覓
覧
親
覽
见
角
解
言
訁
訇
計
詹
誩
諸
讠
话
语
谷
豆
豈
豊
豐
豕
豖
豙
象
豦
豩
豪
豸
貇
貝
貞
貟
負
貢
貧
貪
貫
責
貳
貴
買
費
賁
資
賈
賏
賓
賔
賛
賞
賢
賣
質
賴
贊
贝
贡
责
贯
贲
贵
赖
赞
赤
赦
走
越
足
路
蹇
身
躬
車
軍
軎
軟
輦
车
辛
辜
辟
辥
辰
辱
農
辵
辶
边
达
过
近
连
迷
追
退
送
逆
逐
通
速
造
逢
連
逮
進
遀
遂
過
道
達
遣
適
遷
遺
邊
邑
邕
那
邦
邪
郎
部
郭
都
鄉
酉
酋
配
酓
釆
采
里
重
野
量
金
釒
錢
钅
長
镸
长
門
閃
閉
開
閏
閑
閒
間
閔
閵
閻
闌
门
间
闷
阑
阜
阝
阿
降
陳
隆
隊
隋
隡
隨
隱
隶
隹
隺
隻
隼
隽
难
雀
雁
集
雈
雋
雍
雐
雔
雙
雚
雜
雝
離
難
雨
雩
雪
雲
零
雷
需
霍
霜
霝
霞
霸
靈
靑
青
非
靡
面
靣
革
韋
韦
韭
韯
韱
音
頁
頃
項
須
頗
頡
頻
顛
页
風
风
飛
飞
食
飠
養
饣
首
香
馬
馮
駦
马
骨
高
髟
鬥
鬯
鬲
鬼
魚
魯
鮮
鱼
鲁
鳥
鳳
鸟
鹵
鹿
麃
麗
麥
麦
麻
黃
黄
黍
黎
黑
黒
黨
黹
黽
黾
鼎
鼓
鼠
鼻
齊
齋
齐
齒
齿
龍
龙
龜
龟
龠
龰
龱
龴
龵
龶
龷
龸
龹
ꡡ
ꧠ
ꧡ
ꧢ
ꧣ
ꧤ
ꧦ
ꨢ
ꩡ
ꩦ
ꩧ
ꩨ
ꩩ
ꩪ
ꩮ
者
艹
ﻮ
？
￼
�
𠀁
𠀃
𠀆
𠀉
𠀎
𠀐
𠁁
𠁣
𠂆
𠂇
𠂈
𠂉
𠂊
𠂋
𠂎
𠂒
𠂔
𠂛
𠂡
𠂢
𠂤
𠂬
𠂭
𠂹
𠃊
𠃋
𠃌
𠃍
𠃎
𠃑
𠃓
𠃔
𠃜
𠄌
𠄎
𠄠
𠄢
𠆢
𠆥
𠇍
𠈌
𠌵
𠓜
𠔉
𠔥
𠔼
𠔽
𠔿
𠕀
𠕁
𠕋
𠘧
𠘨
𠙻
𠙼
𠚏
𠚒
𠚤
𠚪
𠣏
𠤎
𠤕
𠥓
𠦄
𠦑
𠦝
𠧒
𠧗
𠧪
𠩺
𠪚
𠫓
𠫔
𠫤
𠬛
𠬝
𠬞
𠬢
𠬤
𠬶
𠮛
𠮦
𠮷
𠯑
𠱠
𠳮
𠷎
𡈼
𡉀
𡉵
𡌥
𡍮
𡏳
𡕒
𡕩
𡕰
𡖅
𡗗
𡗜
𡘆
𡘤
𡧱
𡨄
𡩧
𡬠
𡭽
𡰣
𡰥
𡰪
𡰯
𡰱
𡷈
𡸁
𡿨
𡿩
𡿪
𡿺
𢀖
𢀛
𢀩
𢁙
𢆉
𢆰
𢆶
𢇁
𢇇
𢉖
𢌬
𢌿
𢏚
𢑑
𢑚
𢖻
𢙣
𢛳
𢦏
𢦒
𢧵
𢼄
𢾕
𣁋
𣄼
𣅀
𣅽
𣍘
𣎳
𣎵
𣏋
𣏼
𣗥
𣥂
𣥖
𣦵
𣦼
𣧄
𣪊
𣪠
𣬉
𣳾
𣶒
𤇾
𤊽
𤐫
𤓰
𤔔
𤕨
𤣩
𤰇
𤰔
𤰞
𤴓
𤴔
𤽄
𥁑
𥁕
𥃦
𥃩
𥃭
𥇡
𥑟
𥘅
𥘈
𥝢
𥫗
𥱡
𦈢
𦉪
𦉬
𦉼
𦍌
𦍒
𦎧
𦐇
𦓔
𦔮
𦘒
𦙃
𦚏
𦣝
𦣞
𦣻
𦥑
𦥔
𦥯
𦨉
𦭝
𦰩
𧆞
𧈧
𧘇
𧰨
𧴪
𧴮
𧵩
𧾷
𨸏
𨾴
𩙿
𩠐
𩫏
𩵋
𪉷
𪜀
𪟽
𪠲
𪩲
𫇦
𫔭
𫜸
𫝀
𫠣
𫠩
𫢉
𫥞
𫩏
𫩠
𫪡
𫲽
𫶧
𬀷
𬐘
𬗌
𬙙
𬛸
𬜯
𬟩
𬯁
𬴘
𬺻
𬼉
𬼖
𭀰
𭁈
𭁨
𭅰
𭑈
𭕄
𭗼
𭤨
𭥫
𭻾
𮅕
𮊿
𮍌
𮍏
𮓗
𮥼
𮧮
廾
𰀁
𰀄
𰀈
𰀉
𰀕
𰀠
𰀡
𰀢
𰀪
𰁜
𰃮
𰆊
𰆘
𰋙
𰕎
𰢴
𰧭
𰯲
00--
01--
02--
03--
04--
06--
120--
14--
15--
16--
17--
18--
20--
21--
22--
221--
23--
24--
25--
26--
27--
28--
29--
30--
31--
32--
33--
34--
35--
36--
37--
38--
39--
40--
41--
42--
43--
44--
45--
46--
47--
48--
49--
50--
51--
52--
53--
54--
55--
56--
57--
58--
59--
60--
62--
64--
65--
66--
67--
68--
69--
70--
72--
73--
74--
76--
77--
78--
79--
80--
81--
82--
83--
84--
85--
86--
87--
88--
89--
91--
92--
94--
95--
96--
97--
98--
99--
a--
aa--
aaa--
aaaa--
ab--
above--
abstr--
ac--
acci--
activation--
activex--
ad--
add--
addto--
ae--
af--
afch--
ag--
agri--
ah--
ai--
air--
aj--
ak--
ako--
al--
ali--
all--
alt--
am--
amka--
an--
ankgta--
ans--
any--
ao--
ap--
api--
aq--
ar--
arg--
args--
aru--
as--
asse--
assi--
asso--
aste--
at--
au--
auto--
av--
ax--
ay--
az--
azerbai--
b--
ba--
back--
banner--
bar--
base--
bb--
bd--
be--
ber--
best--
bf--
bg--
bh--
bi--
bibli--
biyi--
bl--
block--
bn--
bo--
body--
boli--
bos--
bot--
box--
bp--
br--
brit--
bs--
bu--
build--
button--
by--
c--
ca--
calcu--
call--
can--
casc--
caswbka--
cat--
cb--
cc--
cd--
ce--
cell--
cent--
cfg--
ch--
chall--
cham--
chan--
change--
char--
check--
chri--
ci--
cite--
citeref--
cl--
claim--
clean--
close--
cm--
co--
col--
com--
commer--
communi--
conc--
cons--
cont--
contri--
conv--
copy--
corpo--
corr--
cp--
cr--
create--
cs--
cu--
cur--
current--
custom--
cvt--
cy--
d--
da--
data--
date--
dated--
db--
de--
dec--
decla--
def--
default--
del--
delete--
deno--
develo--
dha--
di--
diff--
dis--
disa--
disc--
discour--
display--
div--
dm--
do--
doc--
dom--
dot--
down--
dq--
dr--
drw--
du--
dw--
dy--
dz--
e--
ea--
eb--
ec--
ed--
edit--
edu--
ef--
effi--
eg--
ei--
el--
elec--
em--
empty--
en--
encour--
ency--
end--
eng--
eq--
equa--
equi--
er--
err--
error--
es--
escape--
et--
eu--
ev--
ex--
exp--
expi--
expl--
ext--
extra--
f--
fa--
faci--
fami--
fav--
fd--
fe--
fest--
fetch--
ff--
fi--
file--
find--
first--
fl--
flag--
fm--
fn--
for--
form--
format--
fq--
fr--
frac--
frame--
frie--
from--
fs--
ft--
fu--
full--
fuw--
g--
ga--
gaa--
gb--
gd--
ge--
gen--
general--
geo--
get--
getaction--
getbest--
getutc--
gf--
gg--
gi--
gl--
gm--
gn--
go--
got--
gp--
gr--
group--
gt--
gu--
guan--
gui--
gwa--
h--
ha--
har--
has--
he--
help--
hh--
hi--
hide--
ho--
hr--
html--
hu--
i--
ia--
ib--
ice--
icon--
id--
ie--
if--
ig--
il--
illu--
im--
image--
imp--
import--
in--
incorpo--
incre--
indu--
info--
inha--
init--
insert--
int--
inter--
inve--
ip--
iq--
ir--
is--
iso--
it--
item--
iv--
j--
ja--
je--
ji--
join--
jor--
js--
json--
ju--
jul--
jyy--
k--
ka--
kala--
kara--
ke--
key--
kg--
kh--
kha--
kil--
kilo--
kir--
km--
kn--
ko--
kp--
kr--
ku--
kul--
kun--
kur--
kv--
kw--
l--
la--
label--
land--
lang--
last--
lat--
lay--
lb--
lc--
le--
left--
lh--
li--
line--
ling--
link--
list--
lit--
ll--
lo--
load--
local--
log--
lon--
low--
ls--
lu--
lua--
ly--
m--
ma--
mag--
main--
mak--
make--
mal--
man--
map--
mar--
mark--
mask--
max--
mb--
mc--
me--
mer--
merge--
meta--
mg--
mi--
micr--
mid--
mill--
min--
mis--
mix--
ml--
mm--
mo--
modifi--
mon--
more--
mouse--
move--
mp--
mq--
mr--
ms--
mt--
mu--
multi--
multimode--
mw--
my--
n--
na--
naesazaeccueaesbrq--
name--
native--
nav--
nc--
ncy--
nd--
ne--
new--
news--
newsection--
next--
ng--
nh--
ni--
nj--
nl--
nn--
no--
node--
non--
nor--
north--
not--
note--
nr--
ns--
nt--
ntq--
nu--
num--
ny--
nz--
o--
oaaq--
obe--
obj--
obs--
oc--
od--
of--
off--
offset--
og--
oh--
ok--
ol--
old--
on--
onsave--
oo--
op--
open--
options--
or--
ord--
orth--
os--
ot--
other--
oto--
ou--
out--
outer--
over--
ow--
owx--
oz--
p--
pa--
pac--
page--
pale--
panel--
parse--
parsed--
parser--
pc--
pea--
pen--
per--
pg--
ph--
phil--
photo--
phy--
pi--
pl--
play--
po--
poly--
pop--
popup--
possibi--
post--
pp--
pr--
pre--
prefix--
prim--
print--
pro--
promo--
prot--
ps--
pt--
pu--
pw--
px--
q--
qa--
qaa--
qcq--
qd--
qf--
qia--
ql--
qu--
query--
qui--
quick--
r--
ra--
rankby--
raw--
rd--
re--
read--
reco--
red--
ref--
remove--
render--
rest--
result--
ret--
rev--
ri--
rm--
ro--
row--
rt--
ru--
run--
s--
sa--
safe--
sandbox--
save--
sax--
sb--
sc--
scie--
se--
search--
sec--
see--
semi--
ser--
set--
setup--
sf--
sh--
short--
show--
si--
simple--
site--
sk--
skip--
sl--
slo--
small--
sna--
so--
some--
sort--
sp--
sq--
sr--
ss--
st--
start--
stop--
str--
strip--
stu--
su--
sub--
sugg--
sun--
sup--
super--
surr--
sw--
swa--
swe--
sy--
syll--
t--
ta--
table--
tag--
talk--
tas--
task--
taun--
taxon--
tb--
tc--
td--
te--
teac--
tech--
temp--
terr--
test--
text--
tg--
th--
the--
this--
tho--
thumb--
ti--
time--
title--
tl--
to--
toc--
toggle--
top--
tr--
tracking--
trans--
trim--
tru--
trun--
ts--
tu--
tv--
tw--
twinkle--
txt--
ty--
type--
u--
ua--
ucf--
ug--
ui--
uk--
ul--
un--
under--
unit--
unlink--
up--
ur--
url--
us--
use--
user--
ut--
uw--
v--
va--
val--
van--
var--
ve--
ver--
verifi--
vi--
view--
viol--
vn--
vor--
w--
wa--
watch--
wb--
wc--
wd--
wdj--
we--
web--
wg--
wguser--
wh--
what--
wi--
wiki--
wl--
wor--
work--
worker--
wp--
wr--
wu--
wy--
x--
xg--
xml--
y--
ya--
yi--
ym--
yu--
z--
za--
ze--
zh--
ə--
δ--
ν--
σ--
τ--
ก--
ง--
น--
ย--
อ--
า--
เ--
က--
ခ--
ဂ--
င--
စ--
ဆ--
ဇ--
ည--
တ--
တမ--
ထ--
ဒ--
ဓ--
န--
ပ--
ဖ--
ဗ--
ဘ--
မ--
မၼ--
ယ--
ရ--
လ--
ဝ--
ဝၵ--
သ--
သပ--
သရ--
ဟ--
အ--
ဢရ--
ဤ--
ဥ--
ဧ--
၀--
၂--
၂၀--
၃--
၄--
၅--
၆--
၇--
၈--
၉--
ၵ--
ၷ--
ၸ--
ၸၵ--
ၺ--
ၻ--
ၼ--
ၽ--
ၽဝ--
ၾ--
ၿ--
ႁ--
႑--
႒--
႓--
႔--
႕--
႖--
႗--
႘--
႙--
--0
--00
--000
--01
--02
--03
--04
--05
--06
--07
--08
--09
--1
--10
--11
--12
--13
--14
--15
--16
--17
--18
--19
--2
--20
--21
--22
--23
--24
--25
--26
--27
--28
--29
--3
--30
--31
--32
--33
--34
--35
--36
--37
--38
--39
--4
--40
--41
--42
--43
--44
--45
--46
--47
--48
--49
--5
--50
--51
--52
--53
--54
--55
--56
--57
--58
--59
--6
--60
--61
--62
--63
--64
--65
--66
--67
--68
--69
--7
--70
--71
--72
--73
--74
--75
--76
--77
--78
--79
--8
--80
--81
--82
--83
--84
--85
--86
--87
--88
--89
--9
--90
--91
--92
--93
--94
--95
--96
--97
--98
--99
--a
--aa
--aap
--ab
--ability
--able
--ably
--ac
--action
--ad
--ada
--adhp
--ado
--ae
--af
--ag
--age
--ago
--ah
--ai
--ain
--ained
--ak
--al
--alias
--all
--ally
--alo
--als
--am
--ama
--ame
--an
--ana
--ance
--ane
--ang
--ani
--ano
--ans
--ant
--ao
--ap
--api
--aq
--ar
--ara
--ard
--area
--arg
--args
--ari
--array
--ary
--as
--ast
--at
--ata
--ate
--ated
--ates
--ating
--ation
--ations
--ator
--au
--av
--aw
--awa
--ay
--b
--ba
--bar
--base
--be
--berg
--bh
--bi
--bject
--ble
--block
--blurb
--bo
--box
--brqa
--bs
--bt
--bu
--burg
--button
--by
--c
--ca
--cale
--cat
--cco
--ce
--ced
--cell
--ces
--ch
--che
--ck
--class
--cle
--co
--code
--config
--controller
--count
--cribed
--cript
--cs
--ct
--cy
--d
--da
--dal
--data
--date
--day
--de
--ded
--des
--di
--dialog
--div
--dk
--do
--dor
--ds
--du
--dy
--e
--ea
--eact
--ear
--earch
--ec
--ect
--ection
--ed
--edit
--educator
--ee
--egorized
--ei
--ek
--el
--elem
--elf
--ely
--emic
--en
--ence
--ency
--end
--ener
--ensive
--ent
--ental
--ently
--enum
--eo
--ep
--epec
--eq
--er
--ering
--ern
--error
--ers
--es
--ese
--ess
--est
--et
--ete
--eter
--ets
--ev
--ew
--ey
--f
--fa
--fbablp
--fer
--ff
--field
--file
--flag
--form
--ful
--func
--g
--ga
--gc
--ge
--ged
--gedrevs
--gh
--gi
--ging
--go
--group
--gs
--gu
--gua
--h
--ha
--ham
--hand
--handler
--hc
--he
--header
--hed
--heet
--hel
--help
--here
--hi
--hint
--hip
--ho
--hop
--ht
--html
--hu
--hua
--i
--ia
--ial
--iam
--ian
--iation
--ib
--ible
--ic
--ica
--ical
--ics
--id
--ide
--ids
--ie
--ied
--ience
--ies
--if
--ified
--ify
--ight
--ign
--ii
--ik
--iki
--il
--ility
--illion
--im
--image
--img
--ims
--in
--ina
--index
--ine
--info
--ing
--ings
--ink
--input
--io
--ion
--ions
--ip
--ique
--is
--isation
--iscussion
--ise
--ised
--ish
--ism
--ist
--istic
--ists
--it
--ita
--ite
--item
--ities
--ity
--ium
--iv
--ivate
--ive
--ively
--ivity
--ix
--iy
--ization
--ize
--ized
--izing
--j
--ja
--je
--ji
--jju
--jk
--jo
--jr
--ju
--jy
--k
--ka
--ke
--key
--keys
--kh
--ki
--kia
--ko
--ks
--ku
--l
--la
--label
--land
--lar
--layout
--ld
--le
--led
--left
--les
--less
--level
--ley
--lf
--li
--line
--ling
--link
--links
--list
--ll
--lle
--lly
--lm
--lo
--loader
--log
--lp
--ls
--lt
--lu
--ly
--lying
--m
--ma
--man
--map
--mas
--match
--me
--med
--ment
--message
--mi
--mn
--mo
--mode
--model
--ms
--msg
--n
--na
--name
--names
--navlink
--nce
--nd
--nda
--ne
--ned
--ner
--nes
--nese
--ness
--ney
--ng
--ni
--nia
--ning
--nis
--nk
--no
--node
--nomtemplates
--note
--notice
--ns
--nt
--ntic
--ntq
--num
--number
--nx
--ny
--o
--oa
--ob
--obj
--object
--oe
--of
--ogy
--oi
--ok
--ol
--olo
--om
--ome
--omic
--omy
--on
--onal
--ong
--onic
--only
--ons
--oon
--opedic
--option
--options
--or
--ore
--ories
--orm
--ors
--ort
--ory
--os
--ot
--ote
--ou
--ous
--out
--ov
--ow
--oy
--oyed
--p
--pa
--pace
--page
--pages
--pan
--panel
--param
--params
--part
--path
--pe
--pec
--ped
--pei
--pelling
--pf
--pl
--plit
--po
--pond
--pos
--pref
--ps
--q
--qa
--qb
--qe
--qh
--qjy
--qk
--qoe
--que
--r
--ra
--raphy
--rb
--rc
--rd
--re
--red
--ref
--regex
--result
--results
--rf
--rg
--ri
--ria
--ries
--ring
--rl
--rm
--rn
--ro
--ron
--row
--rr
--rs
--rt
--ru
--ry
--s
--sa
--se
--sed
--ses
--set
--sh
--ship
--si
--sia
--sian
--sion
--sis
--sk
--sm
--so
--son
--ss
--st
--ster
--str
--student
--style
--swc
--sym
--sz
--t
--ta
--table
--tag
--tags
--tail
--tal
--talk
--tart
--tation
--tatus
--te
--tec
--ted
--template
--ter
--tes
--text
--th
--tha
--ti
--tic
--time
--ting
--tion
--tions
--tip
--title
--tive
--tle
--to
--toc
--top
--tor
--tr
--tring
--ts
--tt
--tu
--ture
--ty
--tyle
--type
--u
--ua
--ual
--ually
--uatu
--ub
--uc
--ue
--ui
--ul
--um
--ummary
--un
--ung
--up
--ur
--ure
--urg
--uri
--url
--us
--user
--ut
--ute
--v
--val
--value
--values
--ve
--ver
--ves
--view
--ving
--vo
--vr
--w
--wa
--way
--we
--web
--weipqe
--wi
--widget
--width
--wiki
--wk
--wo
--ws
--x
--xe
--xi
--y
--ya
--ye
--yi
--yo
--yp
--ype
--yr
--ys
--yt
--yu
--z
--za
--ze
--zi
--zo
--zu
--zy
--zz
--α
--ο
--ς
--น
--ร
--က
--င
--စ
--ည
--တ
--ထ
--န
--ပ
--မ
--ယ
--ရ
--လ
--ဝ
--သ
--၀
--၀၀
--၀၉
--၁
--၂
--၃
--၄
--၅
--၆
--၈
--၉
--ၵ
--ၶ
--ၸ
--ၺ
--ၻ
--ၼ
--ၽ
--ႁ
--႐
--႑
--႓
--႔
--႕
--႖
--႗
--႘
--႙
