!
"
#
##0
##1
##10
##11
##12
##13
##14
##15
##16
##17
##18
##19
##2
##20
##21
##22
##23
##24
##25
##26
##27
##28
##29
##3
##30
##31
##32
##33
##34
##35
##36
##37
##38
##39
##4
##40
##41
##42
##43
##44
##45
##46
##47
##48
##49
##5
##50
##51
##52
##53
##54
##55
##56
##57
##58
##59
##6
##60
##61
##62
##63
##64
##65
##66
##67
##68
##69
##7
##70
##71
##72
##73
##74
##75
##76
##77
##78
##79
##8
##80
##81
##82
##83
##84
##85
##86
##87
##88
##89
##9
##90
##91
##92
##93
##94
##95
##96
##97
##98
##99
$
%
&
'
(
)
*
+
,
-
.
/
0
000
01
02
03
04
05
06
07
08
1
10
100
1000
1001
1002
1003
1004
1005
1006
1007
1008
1009
101
1010
1011
1012
1013
1014
1015
1016
1017
1018
1019
102
1020
1021
1022
1023
1024
1025
1026
1027
1028
1029
103
1030
1031
1032
1033
1034
1035
1036
1037
1038
1039
104
1040
1041
1042
1043
1044
1045
1046
1047
1048
1049
105
1050
1051
1052
1053
1054
1055
1056
1057
1058
1059
106
1060
1061
1062
1063
1064
1065
1066
1067
1068
1069
107
1070
1071
1072
1073
1074
1075
1076
1077
1078
1079
108
1080
1081
1082
1083
1084
1085
1086
1087
1088
1089
109
1090
1091
1092
1093
1094
1095
1096
1097
1098
1099
11
110
1100
1101
1102
1103
1104
1105
1106
1107
1108
1109
111
1110
1111
1112
1113
1114
1115
1116
1117
1118
1119
112
1120
1121
1122
1123
1124
1125
1126
1127
1128
1129
113
1130
1131
1132
1133
1134
1135
1136
1137
1138
1139
1139189
114
1140
1141
1142
1143
1144
1145
1146
1147
1148
1149
115
1150
1151
1152
1153
1154
1155
1156
1157
1158
1159
116
1160
1161
1162
1163
1164
1165
1166
1167
1168
1169
117
1170
1171
1172
1173
1174
1175
1176
1177
1178
1179
118
1180
1181
1182
1183
1184
1185
1186
1187
1188
1189
119
1190
1191
1192
1193
1194
1195
1196
1197
1198
1199
12
120
1200
1201
1202
1203
1204
1205
1206
1207
1208
1209
121
1210
1211
1212
1213
1214
1215
1216
1217
1218
1219
122
1220
1221
1222
1223
1224
1225
1226
1227
1228
1229
123
1230
1231
1232
1233
1234
1235
1236
1237
1238
1239
124
1240
1241
1242
1243
1244
1245
1246
1247
1248
1249
125
1250
1251
1252
1253
1254
1255
1256
1257
1258
1259
126
1260
1261
1262
1263
1264
1265
1266
1267
1268
1269
127
1270
1271
1272
1273
1274
1275
1276
1277
1278
1279
128
1280
1281
1282
1283
1284
1285
1286
1287
1288
1289
1289000
129
1290
1291
1292
1293
1294
1295
1296
1297
1298
1299
13
130
1300
1301
1302
1303
1304
1305
1306
1307
1308
1309
131
1310
1311
1312
1313
1314
1315
1316
1317
1318
1319
132
1320
1321
1322
1323
1324
1325
1326
1327
1328
1329
133
1330
1331
1332
1333
1334
1335
1336
1337
1338
1339
134
1340
1341
1342
1343
1344
1345
1346
1347
1348
1349
135
1350
1351
1352
1353
1354
1355
1356
1357
1358
1359
136
1360
1361
1362
1363
1364
1365
1366
1367
1368
1369
137
1370
1371
1372
1373
1374
1375
1376
1377
1378
1379
138
1380
1381
1382
1383
1384
1385
1386
1387
1388
1389
139
1390
1391
1392
1393
1394
1395
1396
1397
1398
1399
14
140
1400
1401
1402
1403
1404
1405
1406
1407
1408
1409
141
1410
1411
1412
1413
1414
1415
1416
1417
1418
1419
142
1420
1421
1422
1423
1424
1425
1426
1427
1428
1429
143
1430
1431
1432
1433
1434
1435
1436
1437
1438
1439
144
1440
1441
1442
1443
1444
1445
1446
1447
1448
1449
145
1450
1451
1452
1453
1454
1455
1456
1457
1458
1459
146
1460
1461
1462
1463
1464
1465
1466
1467
1468
1469
147
1470
1471
1472
1473
1474
1475
1476
1477
1478
1479
148
1480
1481
1482
1483
1484
1485
1486
1487
1488
1489
149
1490
1491
1492
1493
1494
1495
1496
1497
1498
1499
15
150
1500
1501
1502
1503
1504
1505
1506
1507
1508
1509
151
1510
1511
1512
1513
1514
1515
1516
1517
1518
1519
152
1520
1521
1522
1523
1524
1525
1526
1527
1528
1529
153
1530
1531
1532
1533
1534
1535
1536
1537
1538
1539
154
1540
1541
1542
1543
1544
1545
1546
1547
1548
1549
155
1550
1551
1552
1553
1554
1555
1556
1557
1558
1559
156
1560
1561
1562
1563
1564
1565
1566
1567
1568
1569
157
1570
1571
1572
1573
1574
1575
1576
1577
1578
1579
158
1580
1581
1582
1583
1584
1585
1586
1587
1588
1589
159
1590
1591
1592
1593
1594
1595
1596
1597
1598
1599
16
160
1600
1601
1602
1603
1604
1605
1606
1607
1608
1609
161
1610
1610471
1611
1612
1613
1614
1615
1616
1617
1618
1619
162
1620
1621
1622
1623
1624
1625
1626
1627
1628
1629
163
1630
1631
1632
1633
1634
1635
1636
1637
1638
1639
164
1640
1641
1642
1643
1644
1645
1646
1647
1648
1649
165
1650
1651
1652
1653
1654
1655
1656
1657
1658
1659
166
1660
1661
1662
1663
1664
1665
1666
1667
1668
1669
167
1670
1671
1672
1673
1674
1675
1676
1677
1678
1679
168
1680
1681
1682
1683
1684
1685
1686
1687
1688
1689
169
1690
1691
1692
1693
1694
1695
1696
1697
1698
1699
17
170
1700
1701
1702
1703
1704
1705
1706
1707
1708
1709
171
1710
1711
1712
1713
1714
1715
1716
1717
1718
1719
172
1720
1721
1722
1723
1724
1725
1726
1727
1728
1729
173
1730
1731
1732
1733
1734
1735
1735442
1736
1737
1738
1739
174
1740
1741
1742
1743
1744
1745
1746
1747
1748
1749
175
1750
1751
1752
1753
1754
1755
1756
1757
1758
1759
176
1760
1761
1762
1763
1764
1765
1766
1767
1768
1769
177
1770
1771
1772
1773
1774
1775
1776
1777
1778
1779
178
1780
1781
1782
1783
1784
1785
1786
1787
1788
1789
179
1790
1791
1792
1793
1794
1795
1796
1797
1798
1799
18
180
1800
1801
1802
1803
1804
1805
1806
1807
1808
1809
181
1810
1811
1812
1813
1814
1815
1816
1817
1818
1819
182
1820
1821
1822
1823
1824
1825
1826
1827
1828
1829
183
1830
1831
1832
1833
1834
1835
1836
1837
1838
1839
184
1840
1841
1842
1843
1844
1845
1846
1847
1848
1849
185
1850
1851
1852
1853
1854
1855
1856
1857
1858
1859
186
1860
1861
1862
1863
1864
1865
1866
1867
1868
1869
187
1870
1871
1872
1873
1874
1875
1876
1877
1878
1879
188
1880
1881
1882
1883
1884
1885
1886
1887
1888
1889
189
1890
1891
1892
1893
1894
1895
1896
1897
1898
1899
19
190
1900
1901
1902
1903
1904
1905
1906
1907
1908
1909
191
1910
1911
1912
1913
1914
1915
1916
1917
1918
1919
192
1920
1921
1922
1923
1924
1925
1926
1927
1928
1929
193
1930
1931
1932
1933
1934
1935
1936
1937
1938
1939
194
1940
1941
1942
1943
1944
1945
1946
1947
1948
1949
195
1950
1951
1952
1953
1954
1955
1956
1957
1958
1959
196
1960
1961
1962
1963
1964
1965
1966
1967
1968
1969
197
1970
1971
1972
1973
1974
1975
1976
1977
1978
1979
198
1980
1981
1982
1983
1984
1985
1986
1987
1988
1989
199
1990
1991
1992
1993
1994
1995
1996
1997
1998
1999
2
20
200
2000
2001
2002
2003
2004
2005
2006
2007
2008
2009
201
2010
2011
2012
2013
2014
2015
2016
2017
2018
2019
202
2020
2021
2022
2023
2024
2025
2027
2029
203
2030
2039
204
2040
2049
205
2050
2059
206
2060
2069
207
2070
2079
208
2080
2089
209
2090
2099
21
210
2100
211
2110
212
2120
213
2130
214
2140
215
2150
216
2160
217
2170
218
2180
219
2190
22
220
2200
221
222
223
224
225
226
227
228
229
23
230
231
232
233
234
235
236
237
238
239
24
240
241
242
243
244
245
246
247
248
249
25
250
251
252
253
254
255
256
257
258
259
26
260
261
262
263
264
265
266
267
268
269
27
270
271
272
273
274
275
276
277
278
279
28
280
281
282
283
284
285
286
287
288
289
29
290
291
292
293
294
295
296
297
298
299
3
30
300
301
302
303
304
305
306
307
308
309
31
310
311
312
313
314
315
316
317
318
319
32
320
321
322
323
324
325
326
327
328
329
33
330
331
332
333
334
335
336
337
338
339
34
340
341
342
343
344
345
346
347
348
349
35
350
351
352
353
354
355
356
357
358
359
36
360
361
362
363
364
365
366
367
368
369
37
370
371
372
373
374
375
376
377
378
379
38
380
381
382
383
384
385
386
387
388
389
39
390
391
392
393
394
395
396
397
398
399
4
40
400
401
402
403
404
405
406
407
408
409
41
410
411
412
413
414
415
416
417
418
419
42
420
421
422
422000
423
424
425
426
427
428
429
43
430
431
432
433
434
435
436
437
438
439
44
440
441
442
443
444
445
446
447
448
449
45
450
451
452
4520
453
454
455
456
457
458
459
46
460
461
462
463
464
465
466
467
468
469
47
470
471
472
473
474
475
476
477
478
479
48
480
48000
481
482
483
484
485
486
487
488
489
49
490
491
492
493
494
495
496
497
498
499
5
50
500
501
502
503
504
505
506
507
508
509
51
510
511
512
513
514
515
516
517
518
519
52
520
521
522
523
524
525
526
527
528
529
53
530
531
532
533
534
535
536
537
538
539
54
540
541
542
543
544
545
546
547
548
549
55
550
551
552
553
554
555
556
557
558
559
56
560
561
562
563
564
565
566
567
568
569
57
570
571
572
573
574
575
576
577
578
57803513
579
58
580
581
582
583
584
585
586
587
588
589
59
590
591
592
593
594
595
596
597
598
599
6
60
600
601
602
603
604
605
606
607
608
609
61
610
611
612
613
614
615
616
617
618
619
62
620
621
622
623
624
625
626
627
628
629
63
630
631
632
633
634
63400
635
636
637
638
639
64
640
641
642
643
644
645
646
647
648
649
65
650
6500
651
652
653
654
655
656
657
658
659
66
660
661
662
663
664
665
666
667
668
669
67
670
671
672
673
674
675
676
677
678
679
68
680
681
682
683
684
685
686
687
688
689
69
690
691
692
693
694
695
696
697
698
699
7
70
700
701
702
703
704
705
706
707
708
709
71
710
711
712
713
714
715
716
717
718
719
72
720
721
722
723
724
725
726
727
728
729
73
730
731
732
733
734
735
736
737
738
739
74
740
741
742
743
744
745
746
747
748
749
75
750
751
752
753
754
755
756
757
758
759
76
760
761
762
763
764
765
766
767
768
769
77
770
771
772
773
774
775
776
777
778
779
78
780
781
782
783
784
785
786
787
788
789
79
790
791
792
793
794
795
796
797
798
799
8
80
800
801
802
803
804
805
806
807
808
809
81
810
811
812
813
814
815
816
817
818
819
82
820
821
822
823
824
825
826
827
828
829
83
830
831
832
833
834
835
836
837
838
839
84
840
841
842
843
844
845
846
847
848
849
85
850
851
852
853
854
855
856
857
858
859
86
860
861
862
863
864
865
866
867
868
869
87
870
871
872
873
874
875
876
877
878
879
88
880
881
882
883
884
885
886
887
888
889
89
890
891
892
893
894
895
896
897
898
899
9
90
900
901
902
903
904
905
906
907
908
909
91
910
911
912
913
914
915
916
917
918
919
92
920
921
922
923
924
925
926
927
928
929
93
930
931
932
933
934
935
936
937
938
939
94
940
941
942
943
944
945
946
947
948
949
95
950
951
952
953
954
955
956
957
958
959
96
960
961
962
963
964
965
966
967
968
969
97
970
971
972
973
974
975
976
977
978
979
98
980
981
982
983
984
985
986
987
988
989
99
990
991
992
993
994
995
996
997
998
999
:
;
<
=
?
@
\
^
_
a
aar
aba
abaqulusi
abbey
abbreviated
abbreviations
abego
abela
abelana
abelanwago
aberdeen
aberfeldy
abets
abja
abokato
about
above
abrahams
academic
academy
accept
acceptable
accepting
access
accessdate
accessible
accountants
ace
acftabf
acornhoek
across
act
active
actual
actually
ad
add
added
adding
additional
addo
adds
adelaide
adipisicing
adjacent
administration
administrative
adongo
adrianfrith
advanced
advisory
ae
aepyceros
aepycerus
aerial
afe
affect
afidafiti
africa
african
africanist
afrigter
afrika
afrikaans
afrikaanse
afrikaner
after
afterward
ag
aga
again
against
agala
agalago
aganang
age
agency
agets
aggeneys
agilego
agilwego
agincourt
agis
ago
agosetose
agostose
agrizzi
agulhas
agwe
ahead
ahlaahla
ahlola
ahlolela
ahlolelwa
aids
ailego
air
airbus
airliner
airlines
airplanes
airport
airways
akanyedits
akanyets
akaredits
akarelletsa
akarets
akgafets
akgofa
akgofis
akhaontente
akteur
aktrise
al
ala
alafa
alan
alas
alaska
albert
alberton
album
ale
aledi
aletare
alex
alexander
alexandra
alexandria
alexkor
alfred
algeria
ali
alias
aliased
alice
align
aligned
aligning
alignment
aliwal
all
allafrica
allanridge
allegations
allemansdrift
allen
alliance
allometric
allow
allows
alma
alogile
along
alongside
alpha
alphabet
already
also
alt
alternative
alternatively
although
alwa
alwas
always
am
ama
amahlathi
amajuba
amalia
amalie
amana
amanago
amanang
amanego
amathole
ambiguity
amega
amegago
amegile
amene
america
american
amerika
amerikaanse
amersfoort
amet
amodulasetulo
amogela
amogelegago
amogelwa
amogets
amogwago
amongwaledipharephare
amopresidente
amsterdam
amus
amy
an
ana
anago
analysis
ananya
anc
anchor
ancwl
and
andile
andre
ane
anega
aneng
angelo
angie
anglican
anglo
angola
ani
ankole
ann
anna
ano
anoj
anong
another
answer
antarctic
antarctica
anti
antiretroviral
anwa
anwago
any
ao
apara
apartheid
apea
apel
apes
apole
apolekose
apollo
aporele
appear
appears
appended
appendiculatus
apple
application
apply
appropriate
approximately
april
aquarium
arab
araba
arabela
arabic
archive
archived
arctic
are
area
areas
argentina
armenia
arms
arniston
aroga
arogana
arogane
aroganego
arogants
aroganya
arola
arolwa
aros
arots
around
arrives
artemisinin
arthur
article
articles
artiodactyl
as
asbestos
asean
ashton
asia
aside
aspx
assist
association
aston
at
ata
ate
athol
atile
atis
atlantic
atlantis
atlega
atlege
atlegilego
atolos
atona
ats
attempt
attribute
au
augrabies
august
aurora
australia
austria
author
authority
authors
auto
automatically
available
aviation
avoid
avoided
avril
avro
award
aya
ayliff
b
ba
baabi
baagi
baahi
baahlodi
baapostola
baard
baartman
babago
babaso
babedi
babegi
babita
babo
babolai
bachelor
back
background
badiris
badudi
badumedi
baelets
baemedi
baerase
baetapele
baeti
baetsi
bafaladi
bafsa
baganets
bagerika
bago
bagolegwa
bagolo
bagononelwa
bagupta
bagwera
bahlabani
bahlalosi
bahlankedi
bahlano
bahlaselwa
bahlokomedi
baholegi
bahung
baile
bain
baithuti
bajuda
baka
bakago
bakeng
bakerville
bakgethwa
bakgopedi
bakile
bakilwe
bakoloni
bakoloniale
bakriste
bakwa
bakwago
bakwena
bala
balaenopterids
balaodi
bale
baleen
baleka
balekane
baleni
baleti
balfour
ballito
baloto
balotong
balwa
balwela
bammala
bamokgatlo
bana
bane
baneng
bang
bangata
bangwadi
bangwe
banja
bank
banna
bants
bantu
banyalani
bao
baotledi
bapa
bapago
bapala
bapalami
bapalang
bapalwa
bapane
bapats
bapedi
bapets
baphadis
baphenkgis
bapolwa
bar
barack
baraloki
bararo
barbara
barberton
baremi
barkly
barnard
barulaganyi
barutwana
barwa
barwarre
barwedi
bas
basadi
base
based
basedimos
basekaseki
basekis
basenyi
basesis
basetsana
basic
baskin
baso
basshunter
baswa
batalets
batamela
batamelwa
batamets
bathekgi
batho
bathobaso
bathong
bathurst
bats
batsho
batsomi
batswadi
battlements
baviaans
bay
bbc
bbco
bc
bce
be
bea
beach
beakants
beaufort
bec
became
because
bedford
bee
beela
beelwa
been
beestekraal
before
bega
began
bege
begile
begilwe
bego
begwa
beibele
beijing
beile
beilego
beilwe
beilwego
being
beke
bekeng
bekker
bekkersdal
bela
belaela
belaelwa
belega
belegets
belegilwe
belegwa
belegwago
belegwe
belegwego
belfast
belgium
belgrade
bell
bella
belositi
below
beluga
belugas
ben
beng
benin
benoni
bere
bereka
berg
bergrivier
bergville
berlin
besieged
bethanie
bethesda
bethlehem
bethulie
betty
between
bewa
bewe
beyers
bheki
bhekisisa
bhisho
bibele
bidi
biesiesvlei
big
biko
bile
bilego
bilione
billion
bin
bina
binary
binh
birkenhead
birr
bissau
bitou
bits
bizana
bja
bjala
bjale
bjalo
bjalobjalo
bjaneng
bjang
bjo
bjoko
bjokong
bjona
bjoo
black
blank
blinkwater
bloemfontein
bloemhof
blouberg
blubber
blue
bmw
bn
bo
boa
boahlodi
board
bobe
bobedi
bobeli
bobeng
bobona
bobotse
bochabela
bodiba
bodikela
bodits
bodulo
bodumedi
body
boeing
boela
boelets
boema
boemedi
boemo
boemong
boer
boerewors
boetapele
boetapeleng
boeti
boetse
bofefo
bofokodi
bofora
bofsa
bogale
bogare
bogarebodikela
bogareng
bogela
bogobe
bogolo
bogologolo
bogos
bogosi
bogwera
bohlaba
bohlabani
bohlabela
bohlale
bohlano
bohlatse
bohle
bohloki
bohloko
bohlokomeding
bohlokwa
bohlologadi
bohodu
bohwa
bohwibidu
boifa
boifis
boikano
boikanong
boikarabelo
boiketlo
boikgafo
boikgethelo
boikhuts
boikhutso
boikokobets
boima
boimana
boipelaets
boipilets
boipolelo
boipus
boitapolos
boiteko
boithabis
boithaopo
boithomelo
boits
boitshwaro
boitshwarong
boitumelong
bojanala
bokagodimo
bokamoso
bokella
bokgabo
bokgoba
bokgole
bokgoleng
bokgoni
bokoloniale
bokopana
bokriste
boksburg
bolaile
bolailwe
bolailwego
bolaodi
bolawa
bolaya
bolayago
bold
boledis
bolekgolo
bolela
bolelago
bolele
boleloko
bolelwa
bolelwago
boleng
bolesome
bolesomepedi
bolesometee
boleta
bolets
boloka
bolokela
bolokile
bolokilwe
bolokwa
bolumo
bolwets
bomakgolo
bomasomehlano
bomasomenne
bomasomepedi
bomasomes
bomasomesenyane
bomasomeseswai
bomasometharo
bomasometshela
bomenets
bomme
bomong
bomorago
bona
bonaero
bonagala
bonagalago
bonala
bonalago
bone
bong
bongaka
bongani
bongwana
bongwe
bonkgetheng
bonnete
bonnyane
bonolo
bonts
bontshi
bonwa
bonwago
bonwe
bonwego
bonyane
bonyenyane
book
books
boomo
boophilus
boost
booysen
bopa
bopago
bopego
bophara
bophelo
bophelong
bophirima
bopilwe
bopilwego
bopresidente
bops
boradia
boradipolotiki
boraditaba
boramahlale
borapedi
borapeding
boraro
borarokhuets
border
borders
born
boroa
borofa
borokgo
boroso
borutho
borwa
borwabodikela
borwabohlabela
bos
bosasa
bose
bosenyane
bosenyi
boseswai
bosets
boshof
bosna
bosnia
boso
boswa
bot
botala
botebong
botee
botegago
botelele
both
botha
bothata
bothaville
botho
bothops
botlaaseng
botlalo
boto
botona
bots
botse
botseta
botshabelo
botshelela
botshepegi
botswadi
botswana
bottle
bottom
botumo
botwago
bouta
boutela
bouto
bowhead
box
boya
boycott
boyena
boyona
br
brackets
brak
brakpan
brandfort
brazil
brazzaville
break
breaking
bredasdorp
breede
brenda
brenton
brian
brics
bridge
brigitte
brink
brithani
brithania
british
brits
britse
broad
broadband
broederstroom
bronkhorstspruit
browser
browsers
bruce
bu
bubble
buddha
buelela
buffalo
building
buildings
built
buka
bula
bulegilego
bulela
bulelani
bulets
bulgaria
bultfontein
bulwa
burgersdorp
burgersfort
burkina
burundi
bus
bush
bushbuckridge
business
businesslive
but
buts
butterworth
buysdorp
by
c
ca
cadre
cala
caledon
calendars
california
calitzdorp
called
calls
camdeboo
cameroon
camp
camperdown
camps
can
canada
canadian
cannot
canto
cape
capital
capitalized
capricorn
caption
capture
car
care
cargo
carl
carletonville
carnarvon
carolus
case
cases
casino
castile
cat
category
cathay
cathcart
cato
cause
causes
cc
cd
ce
cederberg
cele
cell
cells
celow
census
center
centered
centering
central
centre
centurion
century
ceres
certain
cetacea
cetacean
cetshwayo
ceuta
chabane
chad
chair
chairman
chalo
change
changes
channel
chapter
chapters
characters
charges
charles
charlotte
charter
chartered
chartreuse
chatsworth
chatu
check
checked
checking
chelete
chernobyl
chief
chile
china
chinese
choose
chris
christiana
church
chweu
cilliers
citation
citations
cite
cited
cities
citing
citizen
city
clade
claiming
clanwilliam
clarens
clarity
clarkebury
class
classes
clear
click
cliff
clinic
clocolan
cm
cma
cn
co
coast
coastal
cobar
cod
code
coded
codes
coding
coffee
cofimvaba
cog
coins
coke
col
coligny
colin
collapse
collapsed
collapsible
collapsing
collection
collective
college
collin
collins
colon
colony
colophon
color
colors
coloured
coloureds
colspan
column
columns
com
combined
come
commas
commercial
commission
committee
common
commonly
commons
commonwealth
communications
communist
community
comoros
company
complete
completely
complex
compliance
compliant
compline
composed
concepcio
concepts
conference
confused
confusing
confusion
congo
congress
consectetur
consecutive
consider
consistent
consistently
constitutional
constitutionhill
construction
contain
containing
contains
contempt
content
contents
context
contiguous
contributors
control
convention
convert
coo
cookhouse
cool
cooperation
copy
core
cornea
cornelia
coronavirus
corporate
corporation
corresponding
corrie
cosatu
costalago
could
council
country
county
course
court
cover
covers
covid
cowies
cr
cradock
crane
cream
create
created
creating
credit
credo
creighton
crime
criminal
crisis
crocodile
cross
crossroads
cruiser
crustacean
cs
css
cunningmoor
curitiba
currency
current
currently
cusa
cusano
custom
cyril
cyrillic
d
da
dabi
dag
daiichi
daily
dailymaverick
dairy
dalindyebo
dam
damalinia
damonsville
dangor
danie
dannhauser
darkgray
darling
darwin
dash
dashes
daso
data
date
dateformat
dates
datha
dave
daveyton
david
davids
davis
davos
dawid
day
dc
dd
de
deal
dealesville
death
debe
dec
december
decimal
decoloratus
dedani
deep
default
defined
degree
del
delareyville
deliverer
delmas
delportshoop
democratic
demographics
demokrasi
denel
deneysville
denis
dennis
deokaran
department
depending
depends
deputy
der
derek
des
described
desemere
designation
desmond
despatch
destinations
detail
determined
deur
development
dewetsdorp
di
diakhaonto
dialebamo
diamusi
diaparo
diatla
dibaerase
dibatsela
dibatsele
dibe
dibeke
dibeng
dibets
dibilione
diboko
dibokwana
dibokwane
dibolumo
dibopego
dibopiwa
dibouto
diboutu
dick
dictatorship
dictionary
didiris
didolphin
die
diega
diegis
diela
dienywa
diets
dife
difehla
difepi
difference
different
difilimi
difofane
difoka
digagabi
digital
digter
dihlabeng
dihlaka
dihlakahlaka
dihlakahlake
dihlaloso
dihlapi
dihlare
dihlatse
dihlogo
dihlongwa
dihlopha
diilago
diintasteri
diiri
dijo
dika
dikabo
dikadimo
dikai
dikakanyo
dikalafi
dikalori
dikamano
dikanedits
dikanegelo
dikaonafats
dikarolo
dikarolong
dikarolwana
dikatse
dike
dikemedi
dikenti
dikepe
dikete
diketekete
dikgahlego
dikgao
dikgaruru
dikgatlong
dikgato
dikgeleswa
dikgetho
dikgethong
dikgetsi
dikgofa
dikgokagano
dikgolo
dikgomo
dikgopa
dikgopelo
dikgopo
dikgopolo
dikgos
dikgotsofats
dikgwebo
dikgwedi
dikgweding
dikhamphani
dikhamphaning
dikhilograma
dikhilomithara
dikholego
dikhubi
dikhuduego
dikhunkhwane
dikhwets
dikiri
dikliniking
dikokoni
dikolo
dikologa
dikologilego
dikoloi
dikolong
dikoloni
dikomiti
dikonteraka
dikopano
dikopanong
dikos
dikota
dikotsi
dikubu
dikutollo
dikwi
dilego
dilete
dileteng
dilo
dimaekro
dimela
dimetara
dimilione
diminerale
dimithara
dimmankgagane
dimmasepala
dimorphism
dimpimpi
dimps
dimus
dimusogae
dinaga
dinageng
dinaka
dinako
dinakong
dinala
dinaledi
dinamane
dinamelwa
dingangis
dingongorego
dingwalo
dingwalong
dingwe
dinko
dinoka
dinokana
dinomo
dinomoro
dinonwane
dinonwaneng
dintlha
dintlo
dints
dintwa
dinyakego
dinyakis
dinyakwa
dinyenyane
diofisi
diokobats
diopedi
dipaleseng
dipalo
dipalopalo
dipalotlalo
dipapadi
dipapats
dipeakanyets
dipeelets
dipego
dipelaelo
dipere
dipersente
dipeu
diphahlo
diphala
diphalane
diphapano
diphapos
dipharasaete
diphedi
diphego
diphelakadingwe
diphepheng
diphepo
diphetelo
diphetho
diphetogo
diphetolelo
diphiri
dipho
diphoofolo
diphoofolong
diphos
diphotlwa
diplomaat
dipoelo
dipoelong
dipolai
dipolante
dipolao
dipoledis
dipoleiti
dipolelo
dipolitiki
dipolokelo
dipoloko
dipolotiki
dipolotiking
dipono
diponts
dipopego
diporofense
dipotfolio
dipots
diprofense
diprofenseng
dipudi
dipuku
dipukung
dira
diragala
diragats
dirago
diranta
dire
director
direga
diregago
diregile
dirego
dirile
dirilego
dirilwe
dirilwego
diring
diripa
diris
diruiwa
dirwa
dirwe
dis
discouraged
disele
disemere
disenthimithara
disenyi
dishere
disney
display
displayed
displays
distance
district
diswants
ditaamane
ditaba
ditaelo
ditala
ditaolo
ditatofats
ditatso
ditau
ditefelo
ditefis
ditekanyets
diteko
ditekolo
diteng
dithaetlele
ditheko
ditheo
ditheris
dithibelo
ditho
dithokgwa
dithothomelo
dithoto
dithunya
dithus
dithutis
dithuto
ditiiso
ditikologong
ditimela
ditiragalo
ditirelo
ditirelong
ditiris
ditiro
ditlabakelo
ditlabela
ditlamo
ditlamorago
ditlemo
ditlhabologo
ditlhaelo
ditlhagis
ditlhahlobo
ditlhaka
ditlhalenama
ditlhaselo
ditlhohlo
ditlwaedi
ditlwaelo
ditokelo
ditokologo
ditona
ditone
ditopo
ditoropo
ditoropokgolo
ditoropong
dits
ditsebe
ditsebi
ditseno
ditsenogare
ditshadi
ditshekatsheko
ditsheko
ditshenyagalelo
ditshenyegelo
ditshepedis
ditshwanelo
ditshwants
ditshwayotshwayo
ditsobotla
ditswalano
ditumelano
ditumelelano
ditumellano
ditumellanong
ditumelo
ditumo
division
djibouti
dlamini
dna
do
doc
document
documentation
documents
does
doi
doing
dolor
dolphin
domain
donald
done
donen
dong
doornfontein
doornkop
doornlaagte
double
dr
drakenstein
drc
driefontein
drive
dstv
du
duarte
dubai
ducati
dudes
dudu
duduzane
due
dukathole
dukatole
dula
dulago
dule
dullstroom
duma
dumedis
dumela
dumele
dumelela
dumelelago
dumelelana
dumelelane
dumelelwa
dumelets
dumelwa
dumets
dundee
duplicating
durban
during
dutch
dutlile
dutlilego
duts
dutywa
dwarf
dwarskersbos
dyk
dzanani
e
ea
each
eago
eakarolo
eano
early
easier
east
easter
eastern
easy
eba
ebe
ebeletso
ebile
ebola
ebrahim
economic
economy
ed
eden
edenburg
edendale
edenville
edi
edirne
edit
edition
editor
editors
edits
education
edumbe
edward
ee
eela
eelwa
eena
efe
efela
eff
effect
efoga
ega
egago
egego
egelo
egile
egilego
egipita
ego
egong
egypt
ehlanzeni
either
eiusmod
eja
eke
ekeng
ekis
ekonomi
ekurhuleni
ela
elands
elang
ele
election
elective
electric
electricity
elego
elelets
element
elements
eleng
elets
elevation
elias
elim
elit
elizabeth
else
elundini
elwa
em
ema
emadlangeni
emakhazeni
emalahleni
emane
embed
eme
emela
emelago
emergence
emets
emfuleni
emirates
emis
emnambithi
empa
empty
emthanjeni
en
ena
enable
enale
enamel
enare
enca
enclose
enclosed
end
endangered
endumeni
ene
eneare
eneng
energy
enets
eng
engcobo
enge
english
engwe
enjene
enngwe
ennwe
enoch
enough
entertainment
entilwe
entire
entirely
entity
entry
entsoeng
enyane
enywa
eo
eoh
eona
ephraim
equator
equatorial
equivalent
equivalents
er
era
ere
erego
eritrea
erkki
ermelo
erroneously
error
erwe
erythrina
esego
esele
eshowe
eskom
espan
especially
established
estate
estcourt
eswatini
et
eta
etapele
etc
etela
etelela
etelets
ethekwini
ethiaa
ethics
ethiopia
ethiopian
ethnic
etihad
etilego
etis
etlehile
ets
etsa
etsoa
eups
euro
europa
europe
european
evangelical
even
every
ewa
ewago
ewn
ex
exactly
example
examples
excelsior
except
exist
exists
expanded
explicitly
expressed
ext
external
externally
extra
extraordinary
eya
eye
eyethu
f
fa
fact
factory
faele
faith
fall
falls
false
family
famous
fana
fao
fapa
fapafapana
fapana
fapane
fapanego
fapaneng
fapoga
farm
farming
fasana
fase
faso
fassie
fatima
fauresmith
fc
fe
feature
features
febe
febereware
feberware
february
federation
fedile
fedis
fedits
fedtraw
feela
fela
felago
felegets
felego
felela
feleledits
felelets
felelwa
felets
felo
fents
fenya
fenye
fepa
ferry
feta
fetago
fetakgomo
fetang
fete
fetela
fetelets
fetelwa
fetets
fetilego
fetileng
fetis
fetisisa
feto
fetofetoga
fetoga
fetoge
fetogego
fetogile
fetola
fetolwa
fetos
fetots
fets
few
fezile
ficksburg
field
fields
fighters
figlela
fihla
fihle
fihlela
fihlelela
fihlile
fikile
file
filimi
filwe
filwego
financial
finland
fires
first
fis
fish
fisherman
fit
five
fiwa
fiwago
fiwe
fix
fixed
flag
flaga
flagstaff
flats
fletcher
flipper
float
floating
fluke
fm
fo
fofa
foka
fokodits
fokola
fokolago
fokots
fola
folaga
folakha
follow
followed
following
follows
fologa
font
food
football
for
fora
foramo
foramong
force
forced
forces
foreign
forensiki
forest
form
format
formats
formatted
formatting
formed
former
forms
fort
forum
fos
found
foundation
founded
four
fouriesburg
fr
frac
frame
frameless
franc
franca
france
frances
francis
francisco
francois
frankfort
frans
franschhoek
fraser
free
freedom
french
frene
frere
from
front
fronting
fruit
ft
fukushima
full
fully
fumana
function
furse
further
fuselage
future
g
ga
gabedi
gabjale
gabo
gabohloko
gabon
gabonolo
gaborone
gabotse
gabotsebotse
gae
gaes
gaetsewe
gago
gagolo
gagwe
galefis
gallery
gama
gamagara
gambia
gamka
gammogo
gampe
gana
ganalaagte
ganedits
ganets
ganne
ganong
gansbaai
gants
ganyenyane
gape
gapelets
garden
gardens
gare
garib
gariep
gas
gata
gate
gatee
gatelela
gatis
gaufi
gauta
gauteng
gavin
gazelle
gb
ge
gear
gemsbok
genadendal
gender
general
generally
generate
generated
generates
genesi
geographical
george
georgia
geraldine
germany
germiston
gert
ges
get
gets
gevisser
geysdorp
ghana
gi
gigaba
gigi
gillitts
ginwala
give
given
gives
giyani
gje
glasses
glaudina
glen
global
go
goba
gobala
gobane
gobats
gobogilego
gobos
gobotse
godilego
godimo
godimodimo
godira
godis
goedgevonden
gofe
gofeta
gogela
gogolo
gohlegohle
gola
golago
gold
gole
golegwa
golf
golo
gomez
gomme
gona
gonyenyane
good
google
gopola
gopolwa
gopots
gordhan
gordon
gore
goswana
gotee
gotloga
gots
gov
govan
government
goya
gqabi
gqeberha
graaff
grabouw
grade
graeme
grahamstown
granada
grant
gray
great
greater
greda
greece
greek
green
greenland
gregorian
grey
greylingstad
greytown
gridcolor
groblersdal
groblershoop
groot
group
groups
grove
growing
growth
guardian
gugu
guides
guilded
guinea
gulf
gumede
gupta
guptas
gwa
gwala
gwe
gweba
gwede
gwen
h
ha
haba
habakopano
habats
habela
habeng
had
hadebe
hae
haena
haga
hago
hahiloeng
hais
haiti
hall
hamburg
hamilton
hamlet
hammanskraal
hammarskjo
hamorao
hamphani
hana
hand
hanekom
hangata
hani
hankey
hanover
hansen
hantam
hape
har
harare
harbour
hard
harding
hare
harrismith
harry
hartbeesfontein
hartbeespoort
hartebeespoort
hartebeest
hartswater
has
hatlaganyong
have
having
hawaii
hawks
hazyview
he
head
header
headers
heading
headquartered
healdtown
health
hebrew
hegofats
heidelberg
height
heilbron
hela
held
heledipharephare
helena
helete
hello
helminth
helo
help
helwa
hema
hemisphere
hemo
hendrina
hene
hennenman
hepatitis
here
herehello
herman
hermanus
herschel
hertzogville
herzegovina
hessequa
het
hex
hi
hidden
hidulla
high
higher
highlands
highway
hika
hila
hilafalo
hilafats
hill
hillbrow
hillcrest
hills
hilomithara
hilton
hina
hipa
hipi
hipisi
hipu
hirelets
his
hisi
histori
historing
history
hitis
hits
hiv
hiwana
hlabisa
hlabja
hlabollwa
hlabologilego
hlabos
hlaga
hlahlelwa
hlahloba
hlahlobje
hlakahlakane
hlakanela
hlakola
hlakubele
hlalos
hlalosa
hlalosago
hlalosits
hlaloswa
hlama
hlamats
hlamile
hlanganani
hlangwa
hlankela
hlano
hlaola
hlaolago
hlaolwa
hlaots
hlapa
hlaphogets
hlapi
hlasela
hlaselwa
hlatlama
hlatlangwa
hlatloga
hlatlogela
hlats
hlatse
hlatsela
hlatsets
hlatswa
hleng
hlo
hlogo
hlogong
hlohla
hlohleledits
hlohlelets
hloka
hlokago
hlokege
hloko
hlokofala
hlokofats
hlokofets
hlokomela
hlokomelwa
hlokomologwa
hlola
hlole
hlolwa
hloma
hlome
hlomile
hlomilwe
hlomilwego
hlompha
hlomps
hlongwa
hlopha
hlots
hluhluwe
hlwa
hlweka
hlwekilego
hlwekis
ho
hobhouse
hoedspruit
hoek
hogan
hoganets
hogo
hogsback
hoi
hola
holdings
holega
holly
holofedits
holofela
holofets
hologo
holwa
home
homepage
homis
homots
hona
hong
honolulu
hontis
hoogland
hoop
hoopstad
hope
hopefield
hore
hos
hots
houghton
hours
house
houses
housing
houston
how
however
howick
htm
html
http
https
huduga
hudugela
human
humane
humanega
humanegago
humansdorp
humilego
humis
humpback
hupamabaka
hupamabakeng
hupamaka
hupes
hupets
hupo
hwa
hwedits
hwets
hwetsa
hweu
hwile
hwilego
hyphen
hyphenated
i
iaea
ian
ibekeng
iboa
iboeng
ibsa
ice
iceland
id
idea
identified
identifier
identifiers
identify
idibala
idol
idols
ie
if
ifp
ignored
ii
iii
ika
ikana
ikanne
ikarabela
ikarabelago
ikarola
ikarole
ikemela
ikemets
ikemis
ikgafets
ikgogela
ikgomotseng
ikgwedi
ikhola
ikokobelets
ikona
ikonomi
ikwezi
il
ilafats
ile
ilego
ilembe
ileng
ilo
ima
image
images
imbabazane
imeile
immediately
immunoglobulin
imo
impala
impendle
implicit
implied
important
imvume
in
inanda
inare
inc
include
included
includes
including
increase
increased
increment
indaka
indented
independent
index
india
indian
indicate
indicated
indicates
indication
indigenous
individual
individually
industrial
ineela
infinitive
infobox
infoboxes
information
ing
ingwadis
inkatha
inkosi
inkwanca
inline
ins
insag
insert
inside
instance
instead
institute
instrument
intaseteri
intasteri
interests
interlingue
international
internet
interpreted
interview
interwiki
inthanete
intia
into
ints
intsika
inuit
invoice
inxuba
inya
inyago
inyego
inyo
iodine
iol
ipa
ipea
ipelaets
iphedis
iphithi
ipiledits
ipilets
ipolaya
ipolela
ipolelago
iprage
ipshina
ipsum
ipus
iran
iraq
ireland
ireledits
irelets
irene
iri
irish
is
isaac
isbn
isiraele
islam
island
iso
isolate
issue
issues
it
ita
italia
italicized
italics
itefelets
item
itemogela
ithala
ithaopets
ithekga
ithekgile
ithuta
ithutela
ithutile
itis
itketla
itlhagis
itlhalosa
itlhama
itlhamilego
itokis
itokolla
its
itself
itshwara
itshware
iv
ivermectin
ivoire
ivory
iwc
ix
ixopo
izingolweni
j
ja
jacaranda
jack
jackie
jacob
jacobsbaai
jacobsdal
jae
jafta
jagersfontein
jago
james
jamestown
jan
janaware
jane
jansenville
january
japane
japanese
jason
jb
jeffreys
jela
jeremane
jericho
jerusalem
jessie
jesu
jet
jete
jewa
joa
joale
joalo
joaloka
joalokaha
jobo
jobs
joburg
joe
joemat
johannes
johannesburg
john
johns
joint
jona
jonas
jongi
joshua
journal
journalism
journals
jozini
jpg
js
jt
judicial
julae
julian
julius
july
junction
june
just
justice
jwa
k
ka
kabago
kabelo
kabinete
kabineteng
kabo
kadimo
kae
kage
kagisano
kagiso
kago
kagoleswa
kahlolo
kai
kajeno
kakamas
kakarets
kakaretso
kakgofis
kalafi
kalafo
kamano
kamela
kamiesberg
kamma
kamogelo
kamoka
kamora
kamorago
kampa
kanana
kane
kanegelo
kang
kannaland
kantorong
kanye
kaonafats
kaone
kapa
kapejana
karabelo
karabo
karatara
kareeberg
kareedouw
karogano
karolo
karolong
karoo
kasteel
kata
katanela
katberg
katholika
katholike
kathrada
kathu
katlego
katlegong
katlehong
katolos
katse
kaunda
ke
keep
kei
kelders
kelets
kelo
kemedi
kempton
kena
kenela
kenilworth
kenneth
kenti
kenya
kepe
keratin
kereke
kestell
ketane
ketelo
key
kg
kgaets
kgafets
kgahlanong
kgahlego
kgahlilwe
kgahlis
kgakgets
kgale
kgalema
kgalemo
kganets
kgang
kgano
kganyoga
kganyogo
kgaola
kgaolo
kgaots
kgapelets
kgarebe
kgari
kgas
kgatelelo
kgatelets
kgatelopele
kgatha
kgathile
kgathilwe
kgathwago
kgati
kgatis
kgatlhano
kgatlhanong
kgato
kgatong
kgaufsi
kgauswi
kgenkgerepe
kgetha
kgethegilego
kgethego
kgethile
kgethilego
kgethilwe
kgethilwego
kgetho
kgetholla
kgethollo
kgethologanyo
kgethwa
kgethwe
kgetlengrivier
kgobja
kgobogo
kgobokana
kgobokedits
kgobokets
kgodis
kgogo
kgogomets
kgohlano
kgokaganego
kgokagano
kgokagants
kgokaganya
kgokgokgo
kgokong
kgole
kgolego
kgolegong
kgolo
kgolokgolo
kgoma
kgomarela
kgome
kgomo
kgona
kgonagala
kgonagalago
kgonagalo
kgonago
kgone
kgonis
kgonne
kgonthe
kgonthis
kgonts
kgopela
kgopelo
kgopelwa
kgopets
kgopolo
kgoro
kgorokgolo
kgoromelets
kgorong
kgorotsheko
kgos
kgoshi
kgosi
kgotla
kgotlelelo
kgotsofats
kgotsong
kgwagagolo
kgwagakete
kgwebis
kgwebo
kgwebong
kgwedi
kgweding
kgwele
kgwerano
kgwes
kha
khale
khama
khampepe
khamphani
khamphaning
khansele
khanye
khara
khayamnandi
kheis
khethollo
khiro
khoebo
khoi
khoisan
khokhase
kholo
kholofelo
khomis
khonferense
khonferenseng
khonferentshe
khonferentsheng
khonkhoriti
khonkrese
khoune
khuduego
khuduthamaga
khuets
khunkhwane
khupedits
khupets
khutlonne
khuts
khwezi
kibaki
kigali
kile
kilego
killed
kimberley
king
kingdom
kingsley
kirkwood
kisi
kitima
kitimela
klein
kleinbaai
klerk
klerksdorp
klipplaat
kliprivier
klm
kloof
km
know
known
knysna
ko
kobong
kodwa
koffiefontein
kokets
koko
kokstad
kolakolets
kolobe
kolobets
koloi
koloing
koloni
koloti
koloyana
komati
komga
komiti
komiting
komitiphethis
komponis
kona
konaona
kong
konteraka
kontinente
kontinenteng
kopana
kopane
kopanego
kopanela
kopanelo
kopaneng
kopanets
kopano
kopanokgothekgothe
kopanong
kopants
kopanya
kopanyo
kopanywa
kopelo
koporasi
koppie
koppies
korea
korean
kos
kosmos
koster
kota
kotane
kotara
koti
kotikoti
kotlo
koto
kotse
kotsi
kotsing
kou
kouga
kraal
kragbron
kranskop
kranspoort
krill
kriste
kromspruit
kroondal
kroonstad
kruger
krugersdorp
kruiper
kruisfontein
ku
kua
kubu
kudu
kudukudu
kuranta
kuro
kuruman
kwa
kwadukuza
kwagalago
kwagale
kwambonambi
kwangwanase
kwano
kwazulu
kwele
kwelobohloko
kwena
kwes
kwewa
kwinana
kyknet
kylemore
kzn
l
la
laaste
labo
labobedi
labohlano
labone
laboraro
laden
ladismith
lady
ladybrand
ladysmith
laedits
laela
laelago
laesense
laets
lagoon
lahlegelwa
lahlela
lahlwa
laingsburg
lake
lalela
lalets
lamola
land
lane
langa
langeberg
langid
language
languages
laola
laolege
laolegego
laolwa
laolwago
lapa
lapeng
large
larger
last
late
latela
latelago
latelana
latelwa
latent
latets
latin
latofadits
latofats
latola
latswa
latter
lauds
lavigne
law
lawn
lawrence
lb
ld
le
leading
leago
league
leandra
leano
learned
leba
lebadi
lebaka
lebala
lebalela
lebalele
lebana
lebane
lebanego
lebants
lebanya
lebanyago
lebanye
lebanyego
lebato
lebatong
lebelela
lebelelwa
lebelets
lebelo
lebelong
lebenkeleng
lebis
lebits
lebitso
leboa
leboabohlabela
leboea
leboelela
leboga
lebopo
lebopong
lebotse
lebowa
lebowakgomo
ledaily
lee
leeto
leeu
leeudoringstad
lefa
lefapa
lefapha
lefapheng
lefas
lefasana
lefasaneng
lefase
lefaseng
lefats
lefatshe
lefe
lefela
lefelo
lefelong
lefelwago
lefelwe
lefile
lefis
lefs
lefsa
left
lega
legae
legaeng
legal
legata
legato
legatong
lego
legodimo
legodimong
legokobu
legolo
legoro
legotlo
leha
lehlakore
lehlakoreng
lehlobe
lehloyo
lehlwa
lehono
lehu
lehumo
lehwelere
leier
leihlo
leihlong
leina
leino
leis
lejweleputswa
leka
lekala
lekalekane
lekalekanya
lekana
lekanago
lekanego
lekanets
lekants
lekanyedits
lekanyets
lekga
lekgoba
lekgolo
lekgolong
lekgotla
lekgotlapeamelao
lekgotlaphethis
lekgotlatheramelao
lekgotleng
lekholong
lekile
lekola
lekolwa
lekwa
lelapa
lelekoa
leleme
leloba
lelokelelo
leloko
lemoga
lemogegago
lemogile
lemogwa
lemogwe
lemos
lena
lenaneo
lenaneong
lenano
lenasia
leng
lengwalo
lengwe
lent
lents
lentsoe
lenyalo
lenyalong
lenyenyane
leo
leoatle
leone
leoto
lepelle
lephaka
lephalale
lephego
lephegwana
lephera
lephodisa
leqhwa
lera
lerapo
lerata
leratadima
lerateng
lerato
lereo
leruarua
lerumo
les
lesale
lesea
lesedi
lesogana
lesolo
lesolong
lesome
lesomepedi
lesomesenyane
lesometee
lesometshela
lesotho
less
leswa
leswao
leswika
leswikana
leswiswi
leswiswing
letaba
letadi
letala
letamo
letelele
letelwa
letets
lethaba
lethabo
letlakala
letlalo
letlalong
letlapa
letlase
letlhaka
letlopetlope
letlotlo
letona
lets
letsatsi
letsemeng
letseno
letshadi
letsogo
letsogong
letswalo
letswele
letter
leuba
lewatle
lewatleng
lewedi
li
libakeng
liberia
liberty
libode
libor
library
libya
lichtenburg
lichtenstein
liedjieskrywer
lies
lifofane
light
lihlopha
lijo
lik
likarolo
like
likepe
likewise
liki
likokoana
lilangeni
lilemo
lime
limela
limilione
limit
limited
limpopo
linaheng
linako
lincoln
lindiwe
lindley
line
linegrey
lines
ling
lingua
link
linked
links
linognathus
lintho
lionel
lipapali
lipolitiki
lipolotiki
lipuo
lisano
list
listed
lithuto
lits
little
live
livery
lives
livingstone
lla
lliki
llm
lo
loba
lobang
lobby
local
located
location
locations
lockdown
loerie
loga
logo
lokago
loke
lokela
lokelang
lokeledits
lokelets
lokelwa
lokets
lokilego
lokis
lokolla
lokollago
lokollots
lokollwa
lokologile
lokologilego
lokolots
loma
lona
london
long
longer
longest
longwa
lonmin
lorem
lot
lota
loti
louis
lourenc
louw
lower
lskuil
lte
luanda
lucas
luckhoff
lufthansa
luka
lukhanji
lula
lulang
lusaka
lutheran
luthuli
lutzville
lwa
lwants
lwela
lydekker
lydenburg
lyre
lysistemon
m
ma
maafrika
maaka
maano
maanomabe
maatla
maatlafats
mabadi
mabaka
mabakeng
mabandla
mabapi
mabarebare
mabe
mabedi
mabenkele
mabintwane
mabopane
mabotse
maburu
mabuyane
mabuza
machaba
maclear
madagascar
made
madi
madiba
madibeng
madikizela
madira
madonna
mae
maekroseko
maemo
maemong
maeto
mafahla
mafahlaneng
mafapha
mafasana
mafase
mafelelo
mafelelong
mafelo
mafelong
mafia
mafofane
mafokodi
mafolofolo
mafube
magaeng
magapu
magareng
magashule
magato
magic
magnus
magodimong
magolo
magoro
magotlo
mahala
mahikeng
mahlabisadihlong
mahlakore
mahlakoreng
mahlalagading
mahlale
mahlano
mahlaodi
mahlatse
mahlo
mahu
mahumo
mahwibidu
maikarabelo
maikemis
maikhuts
maikutlo
maikwelo
mail
main
maina
maindia
maine
mainly
maisemane
maitapis
maitekelo
maiteko
maitekong
maitemogelo
maitirelo
maitshwaro
majali
majemasweu
majoe
major
majuda
makala
makaleng
makana
make
makeleketle
makga
makgaung
makgeswa
makgoba
makgolo
makgolohlano
makgolonne
makgolopedi
makgolos
makgolosenyane
makgoloseswai
makgolotharo
makgolotshela
makgonthe
makgotla
makgowa
makhado
makhuduthamaga
makhura
making
makoko
makomonisi
makopana
makula
mala
malahla
malalane
malan
malange
malapa
malaria
malawi
maleba
malebana
malebane
malema
maleme
malemeng
maletswai
mali
mall
malmesbury
maloko
malokwa
malome
maloti
malusi
maluti
malwets
mamelodi
mamina
mampuru
mamusa
manaka
mananeo
mananeokgoparara
mandela
mandeni
mane
mang
mangaung
mangwalo
mangwalong
mangwe
mania
maniasis
mannya
mannyane
mantashe
manthole
mantle
manto
mants
mantsopa
manual
many
manyenyane
manzana
maoto
maotong
map
mapa
maphego
maphegwana
maphelo
maphelong
maphodisa
maphoto
maphumulo
maplandia
maqhubu
maquassi
marapo
mararo
marble
march
mare
marega
marematlou
marena
margaret
margate
margin
maria
marico
marikana
marinini
mark
marks
markup
marloth
maroga
maropene
marquard
martin
maru
maruarua
marula
maruleng
mary
mas
masea
maseko
masepala
masetlapelo
mashatile
mashego
masibambane
masilo
masilonyana
masolo
masome
masomehlano
masomenne
masomepedi
masomes
masomesenyane
masomeseswai
masometharo
masometharotee
masometshela
masters
maswafo
maswao
maswi
maswika
matala
matatiele
match
mateo
mater
material
mathata
mathbf
mather
mathole
mathomo
mathomong
matins
matjhabeng
matjila
matla
matlafats
matlakala
matlala
matlosana
matlotlo
matona
mats
matsebe
matshela
matshwao
matsogo
matswalo
matumba
matzikama
mauritania
mauritius
maverick
mawatle
mawatleng
max
may
mayotte
mba
mbalula
mbeki
mbete
mbhashe
mbhazima
mbombela
mbuzini
mcebisi
mchunu
mckinsey
mdantsane
mdluli
me
meago
mean
means
measure
mebala
mebasepala
mebedi
mebele
mebotse
mebus
mec
media
mediawiki
medication
mediro
medirong
medium
medumo
meepo
meepong
meer
meetlong
meetlwa
meetse
meetseng
meetsi
mefatong
mefsa
mefuta
megala
megolo
mehla
mehlala
mehlano
mehlape
mehlare
mehleng
mehlobo
mehola
mehuta
mei
mekerong
mekgatlo
mekgwa
mekhatlo
melao
melaotshepedis
melato
melats
melawana
mele
melilla
mellwane
melmoth
meloko
melomo
melomong
melville
member
members
memel
memeza
memorantamo
menang
mene
meneelo
mengwaga
mengwagalele
mengwagasome
mengwageng
mengwe
meno
menola
mentor
ments
menwana
menyetla
mephato
merabe
merafe
merafong
meraro
merero
merger
meru
mes
mesong
met
meta
metheo
method
methodist
methopo
metlae
metric
metropolitan
mets
metse
metsimaholo
metsotso
metsotswana
mexico
meyer
meyerton
mgcawu
mgijima
mhlaba
mhlongo
mhlontlo
mi
michael
middelburg
middle
middledrift
midlands
midrand
midvaal
mier
might
mile
milione
military
million
mines
mineworkers
mining
minister
minke
missal
mission
mist
mitha
mitochondrial
mk
mkhambathini
mkhize
mkhondo
mkhuluwa
mkuze
mlangeni
mm
mma
mmagwe
mmakau
mmala
mmalwa
mmankgagane
mmapa
mmapadi
mmarakeng
mmase
mmasepala
mmasepaleng
mme
mmegadikgang
mmele
mmeleng
mmepe
mmereko
mmino
mmoelanyi
mmogo
mmolai
mmolaya
mmolaye
mmole
mmoleledi
mmopi
mmots
mmus
mmuso
mmusogae
mna
mnquma
mo
moabi
moafrika
moagi
moahlodi
moakanyets
moamogedi
moano
mobe
mobu
moby
mochine
modder
mode
modern
modimo
modimolle
modiri
modiris
modiro
modjadjiskloof
modu
modula
modulasetulo
module
modumo
moedi
moeding
moelets
moemedi
moeno
moents
moetapele
mof
mofenyi
mofsa
mofutsanyana
mogalakwena
mogalats
mogale
moganets
mogato
mogkope
mogoeng
mogolo
mogologolo
mogononelwa
mogwase
mogwebi
mogwera
mohlagare
mohlagase
mohlahlami
mohlahlobi
mohlakanelwa
mohlala
mohlanka
mohlankedi
mohlankedimogolo
mohlapets
mohlare
mohlaselwa
mohlobo
mohlodi
mohlokomedi
mohlolo
mohlomongwe
mohokare
mohola
mohuta
mohwelere
mohwibidu
moiloa
moka
mokanseliri
moketedi
mokgahlo
mokgahlong
mokgaola
mokgatlo
mokgatlong
mokgekolo
mokgethwa
mokgopedi
mokgoro
mokgwa
mokhanselara
mokhatlo
mokhomis
mokhwi
mokibelo
mokitlana
mokoena
mokokotlo
mokolo
mokomis
mokonyane
mokopane
mokori
mokoti
mokoting
mola
molala
molaleng
molamo
molamu
molao
molaodi
molaokakanywa
molaong
molaotheo
molato
molatong
molats
molefe
molekane
moleketi
molekong
molema
molemole
molepolole
moletlo
moletlong
molodi
moloko
molomaganyi
molomo
molomong
molopo
molwela
molwelatokologo
momentamo
momets
mompati
mona
monagano
monang
moneyweb
mong
mongodi
mongodipharephare
mongoli
mongwadi
mongwaledi
mongwaledipharephare
mongwe
monitor
monitors
monkgo
monna
monnyane
mono
monodontid
monster
monsterlus
month
montreal
monyadiwa
monyakeng
monyakis
monyanya
moo
mooi
mooinooi
mookgophong
moorreesburg
mopalamente
mopani
mopapa
mophenkgis
mopis
mopitlo
mopresedente
mopresidente
mopududu
moputso
moqhaka
moqotetsane
morabe
morafe
morafo
morago
moragonyana
moraloki
moraloko
moranang
morao
moratorium
more
morena
morero
moretele
morgan
morgenzon
moriri
mormon
morning
morocco
moroka
morolong
moroto
morula
morulaganyi
moruti
morutis
morwa
morwedi
mos
mosadi
moscow
mosebenzi
mosegamanye
mosegare
mosekaseki
mosela
mosepelo
moses
mosesane
moso
mosque
moss
mossel
most
mostly
moswa
moswananos
mothalo
mothalong
motheo
motheong
mothibistad
motho
mothomoso
mothopo
mothus
motlanthe
motlats
mots
motsana
motse
motsekapa
motsemogolo
motseng
motsesetoropo
motsheganong
motshekga
motsoaledi
motsothwa
motsotso
mount
mountain
mouse
mouth
movement
mowe
moya
moyane
mozambique
mpa
mpe
mpeng
mph
mphahlele
mphato
mpho
mpholo
mpofana
mps
mpsha
mpshafats
mpshe
mpumalanga
ms
msimang
msinga
msukaligwa
msunduzi
mthatha
mtshali
mtubatuba
mtunzini
much
muelli
mugabe
muhammad
muizenberg
multibacillary
multiple
mumbai
municipal
municipalities
municipality
munster
murraysburg
museum
mushroom
musina
muso
must
mutale
mvezo
mya
myburgh
mycobacterium
myeni
myoglobin
mysticete
mysticetes
mzamomhle
mzansi
n
na
naa
naadhira
nabilego
naetrots
naga
nagana
naganwa
nageng
nago
naha
naheng
nako
nakong
nakwana
nala
nale
naledi
nalego
nalumango
nam
nama
namahadi
namakgale
namakwa
namane
name
named
namela
names
namibe
namibia
namune
nang
nanya
napier
nare
narrow
narrower
narwhal
narwhals
nasrec
natal
natala
national
nations
nato
nature
naude
navy
nchu
nd
ndebele
ndlambe
ndwedwe
ne
nea
neano
near
nearby
nec
necessarily
necessary
nederlandse
need
needed
needs
neela
neeng
neets
neighbourhood
neile
nelson
nelspruit
nene
neng
nepagets
nephi
nepis
nepo
nested
net
netefadits
netefats
netherlands
network
neuron
never
nevirapine
new
newcastle
newlines
news
newspaper
newspapers
newton
next
ng
ngaka
ngangis
ngata
ngcobo
ngcuka
ngene
ngoako
ngoe
ngongorego
ngoyi
ngqushwa
ngquza
ngwadile
ngwadilwe
ngwadilwego
ngwadis
ngwaga
ngwagakete
ngwagakgolo
ngwagakolo
ngwagamolele
ngwagasome
ngwageng
ngwagengkete
ngwagengkgolo
ngwagengsome
ngwakakete
ngwala
ngwalela
ngwalwa
ngwana
ngwanabo
ngwanenyana
ngwathe
ngwatobos
nhlanhla
niccolo
nigel
niger
nigeria
nile
nka
nkabe
nkabinde
nkandla
nkang
nkangala
nkayi
nketoana
nkga
nkgetheng
nkgokolo
nkomazi
nkonkobe
nkonyeni
nkosazana
nkumpi
nkwe
nna
nne
nnete
nngele
nngwe
nnos
nnoto
nnyane
no
nobel
nofemere
noga
noka
nokeng
nokuzola
nolofadits
nolofats
nombre
nombres
nomoro
nomvula
non
none
nongoma
nonyana
normally
north
northern
norvalspont
norway
norwegian
nos
noseweek
not
notable
note
notes
noupoort
nova
november
now
nowrap
nozizwe
npa
npdgd
nquthu
ntabankulu
ntepa
nthomela
ntlatlana
ntle
ntlha
ntlheng
ntlo
ntlokgolo
ntlong
ntombela
nts
ntse
ntsho
ntwa
ntweng
nuclear
num
number
numbered
numbers
numerical
nwa
nwelela
nxuba
nyaka
nyakago
nyake
nyakega
nyakegago
nyakile
nyakilego
nyakis
nyala
nyalana
nyalwa
nyama
nyamis
nyandeni
nyane
nyants
nyats
nyefola
nyenyane
nyenyefats
nyets
nyoni
nyuklea
nywa
nywaga
nywageng
nzo
o
oa
oana
oba
obama
oberholzer
ocean
oceania
octal
october
odendaalsrus
odontocete
odontocetes
oecd
of
ofadi
ofe
off
office
official
ofisi
ofising
often
ogae
ogg
ogofela
ohchr
ohle
ohrigstad
oil
oile
oilgate
oka
okamets
okets
oksits
oktobere
oktoboro
old
ole
oli
olifants
olifantshoek
oliver
olla
ollo
olos
oma
omago
omanya
ome
omego
omela
omepedi
omi
omile
omilego
omis
omit
omitted
omo
omong
ompe
on
ona
onalego
one
ong
onkgopotse
online
only
ontario
ontwerp
onverwacht
op
opa
opela
opele
opelwa
open
opened
opening
operates
ophelo
ophondweni
opo
opposite
option
optional
options
or
orange
orania
oranjeville
orca
order
orense
org
organic
organisation
organization
orig
original
orinoco
orkney
orlando
oro
osama
oscar
oselegae
oslo
other
others
otherwise
otla
otlela
otlolla
otlwa
otsebega
ottawa
ottosdal
ottoshoop
oudtshoorn
ourconstitution
out
outer
output
outside
over
overberg
overridden
override
overrides
overstrand
oviston
own
owned
oxpecker
oxpeckers
oyster
p
paarl
pabalelo
pacific
pack
padding
page
pages
pakeng
pakistan
pakteria
palamente
palamenteng
palelwa
palestina
palets
palo
palogare
palomoka
pambi
pamodzi
pan
panka
panorama
panoramio
papadi
papali
papats
papendorp
paperless
para
paradise
paragraph
parameter
parameters
parentheses
paris
park
parks
parliament
paromomisini
part
particular
partners
party
parvorder
parys
pass
past
patensie
paternoster
paterson
patrice
paucibacillary
paul
paulpietersburg
pay
pdf
pe
peace
peakanyo
pearston
peba
pebble
peddie
pedi
peelets
peerj
pego
peileka
pejana
pela
pelaelo
pele
pelego
peleng
peli
pella
pelo
peni
peninsula
pennsylvania
people
peopleareknowledge
pepeneneng
pepents
per
percent
performed
period
periodical
person
peru
peter
petrus
petrusburg
petrusville
pettersson
peu
pf
pg
phadimago
phadis
phaelago
phafoga
phaga
phagamego
phagamis
phahameng
phahlo
phakamani
phala
phalaborwa
phanele
phapang
phapano
phapos
pharasaete
pharephare
pharwago
phathi
phatlaladits
phatlalala
phatlalats
phatlalets
phato
phatswa
phega
phegelela
phegelelong
phekgola
phekolo
phekolwa
phela
phelago
phema
phengwa
phenkgis
phenyo
phepo
phepompe
pherekgong
pherekhong
phetelo
phetets
phetha
phethagats
phethago
phethe
phethile
phethilwe
phethis
phetho
phethwa
phetis
phetogelo
phetogo
phetolelo
phetos
phihlelelo
philadelphia
philip
philippines
philippolis
phiri
phis
pho
phofung
phokeng
phokots
phokwane
pholisi
pholising
pholletsa
phologa
pholos
phoofolo
phos
php
phuhlama
phulega
phumelela
phumola
phuphu
phupu
phus
phuthaditjhaba
phuthego
phuti
pianis
pic
pienaar
piet
pieter
pietermaritzburg
piketberg
pikoli
pilato
pilione
pina
pineapple
pinetown
pipe
pipes
pits
pitsi
pixley
plaatje
place
placed
places
plankton
platinum
play
please
pleat
ples
plessis
plettenberg
plotdata
plus
png
po
poelano
poelo
pofadder
point
points
poland
polanete
polante
polanteng
polao
polaong
polar
polasa
polaseng
poledis
polelo
polelong
polelwana
police
politics
politikus
polokego
polokelo
polokwane
polotiki
pomfret
pomo
pompo
ponagalo
pongola
pono
ponong
pontio
ponto
ponts
poo
pool
pools
pop
population
poraebete
porofense
porofensing
porojeke
porpoise
port
portrait
portugal
position
poso
posong
possible
possibly
post
postmasburg
potchefstroom
potefolio
potego
potgieter
pots
potsdam
pound
powell
power
pp
ppe
praebete
pratt
pravin
preferred
prefix
pres
present
presidency
president
presidente
press
pretoria
previewing
previously
pricewaterhousecoopers
prieska
primary
prime
prince
privatization
prize
probably
problem
problems
produced
produces
production
profense
profenseng
profes
professional
project
projeke
proper
properly
property
prosecuting
protine
prots
provide
provided
provides
province
provincial
ps
publication
publications
published
publisher
publishers
publishing
pudi
puku
pukung
pungo
puno
puo
purple
purpose
purposes
pus
puso
put
putla
putting
pwv
px
pygmy
python
q
qala
qalile
qalong
qantas
qeta
qetellong
qhoma
quang
que
queenstown
quickly
qumbu
qunu
quotation
quotes
r
ra
rabies
radio
radipolitiki
radipolotiki
rafael
rail
railway
rain
rajesh
raka
rakgadi
rakgolokhukhu
rakgwebo
rakile
rakilwe
rakilwego
rakwa
ralala
raloka
ralokile
ralokwa
ramaphosa
ramatlabama
ramatlaohle
ramatlhodi
ramokgopa
ramothibi
ramotshere
rand
randburg
randfontein
range
ranges
rankini
rankuwa
ranta
raraganego
rare
rarolla
rata
ratago
ratanang
rate
rather
rathoke
rathutamahlale
ratlou
ratoang
ratwa
ratwago
rawsonville
ray
raymond
rd
re
rea
reactor
read
readers
reading
reagan
realo
reason
reasons
rebranded
records
red
reddersburg
redelinghuys
reelets
refer
reference
referenced
references
referense
regents
region
registration
regular
regulatory
reile
reinet
reitz
reka
rekile
rekis
relations
reliability
rema
remains
remember
remove
rena
renamed
render
rendered
reneke
renosterberg
repabliki
replaced
replacing
report
repository
republic
republika
require
required
requirements
requires
rerets
reris
research
reserve
reserves
residential
residents
resolve
resort
respectively
rest
result
reta
retrieved
retwa
revenue
review
revised
rgb
rhodes
rhodesia
rich
richard
richards
richmond
richtersveld
ridge
riebeeckstad
riebeek
rietfontein
right
rights
rile
rin
river
riversdale
riverside
rna
ro
road
roads
roba
robago
robala
robben
robbery
robbins
robert
robertson
rock
rocks
roedtan
rola
role
roma
roman
romela
romelwa
romets
ronald
ronalda
roodepoort
rooigrond
roossenekal
rooyen
rora
rorqual
rorquals
rosendal
rotogela
rotogets
route
roux
rouxville
row
rows
rowspan
rre
rtl
ruiwa
rulagants
rulaganya
rulaganyeng
rulaganywa
rules
rural
ruri
ruruga
russell
russia
russian
rust
rustenburg
ruta
ruteng
ruth
rutwago
rwala
rwanda
rwele
s
sa
saa
sabata
sabc
sabcnews
sabie
sacp
sacu
sadc
saena
saennwe
safe
safety
saga
sahara
saharan
sahistory
saint
sakeman
sakhisizwe
sakramente
saldanha
salt
same
samente
sample
samuel
san
sanders
sandton
sanger
sangeres
sankara
sannieshof
saps
sarah
sars
sasha
saso
sasolburg
saundershoogte
say
says
scene
scheduled
schistosomiasis
school
schools
schweizer
science
scope
scorpions
scottish
screen
script
se
sea
seabe
searabia
search
seaside
seasons
seat
sebaka
sebakeng
sebaki
sebapadi
sebele
sebelebele
sebeletsa
sebelisa
sebelisoa
sebete
sebetsa
sebetsang
sebini
sebjalebjale
sebjana
seboka
sebokeng
seboko
sebokwana
sebopego
sebopegong
sebopiwa
seburu
sechaba
sechele
second
secondary
seconds
secret
section
sections
security
sed
sedibeng
sediko
sediris
sedumedi
sedutch
see
seela
seemo
seen
seets
sefa
sefahlego
sefala
sefaleng
sefapanong
sefate
sefe
sefofane
sefoka
sefora
sefsa
segagabi
segerika
sego
segokanyipalo
segolo
segomotsi
segonyana
segovia
segwera
sehla
sehlakahlaka
sehlakahlakeng
sehlare
sehleng
sehlobo
sehlodi
sehlogo
sehlong
sehloohong
sehlopha
sehlopheng
sehlora
seholo
seisemane
seisimane
sejeremane
sekaseka
sekepe
sekete
sekga
sekgoba
sekhukhune
sekhutlo
sekis
sekolo
sekolong
sekriste
sekwati
selaganya
selalelo
selati
selatine
selebi
selegae
selekane
selemo
selete
seleteng
self
selo
seloka
seme
semelo
semicolons
semmus
semmuso
semorafe
sena
senang
senegal
senekal
seng
sengwalwa
sengwe
sennyane
seno
senqu
sentence
senthara
sents
senya
senyago
senyane
senyega
senyegile
senyegilego
senyenyane
senzo
seo
seopedi
sepania
separate
separated
separators
sepedi
sepedis
sepela
sepelago
sepelelana
sepelelanago
sepetlele
sepetleleng
sepets
sephatlalats
sepheo
sephetho
sephiri
sephiring
sephuthelwana
sepikara
sepolotiki
sepotokisi
september
sequential
serengeti
serepa
sereto
seretse
series
seripa
seripagare
seriti
serobe
serolane
serve
serves
service
services
ses
sesa
sesane
sesotho
sespan
seswa
seswai
seswants
seswati
set
setaliana
setebele
seteis
setemere
setensele
seteraeke
setereke
setheo
setho
sethokgwa
sethosa
sethunya
setlagole
setlogo
setopo
sets
setsebi
setshaba
setsi
setsonga
setsoto
setswalle
setswana
setting
settlement
settlers
setulo
setulong
seven
sevenda
several
sewelo
sexwale
seychelle
seychelles
seymour
sezulu
shackleton
shaka
shanduka
she
shepstone
shift
shikongo
shilling
shilowa
shin
shingwedzi
shoes
shop
shopping
short
shorthand
should
show
showing
shown
si
sibande
sibusiso
side
sierra
sifiso
sign
signs
similar
simon
simple
simply
sinawo
since
singapore
singh
single
siprage
sir
sisulu
sit
site
sites
situated
siu
six
siyabonga
siyabuswa
siyancuma
siyathemba
size
sized
sizes
sizing
sizwe
skeerpoort
skeptic
skrywer
skukuza
slovo
slurry
small
smaller
smart
smithfield
so
soccer
social
society
sokhela
sol
sola
soldiers
solid
solwa
somalia
some
someng
somerset
sometimes
sona
sonar
sontaga
soria
sortable
sorting
sots
sound
source
sources
south
southafrica
southern
sowerby
sowetan
soweto
spaanse
space
spaces
spain
span
spans
speaking
special
species
specific
specifically
specified
specifier
specify
spelled
spindle
spout
spring
springbok
springbokfontein
springbokrugbyspeler
springfontein
springs
square
squid
src
srt
ssa
st
stadensrus
stage
stalingrad
stan
standard
standerton
standing
stanford
star
start
starting
state
states
station
statistics
status
steelpoort
steenhuisen
stella
stellenbosch
stem
step
stephen
sterkfontein
sterkspruit
sterkstroom
steve
stevenson
steyn
steynsburg
steynsrus
steytlerville
stigter
stilfontein
still
stop
stories
strand
strandfontein
street
stretford
struisbaai
students
stutterheim
style
styles
stylized
su
sub
subscription
subsequent
suburb
such
sudan
suggest
suid
suitable
summary
summer
summit
sun
sundaram
sunday
sung
sunset
supa
superbike
supply
support
supported
supports
sure
survives
svg
swana
swanago
swane
swanela
swanelago
swanelega
swanelwa
swanets
swants
swara
swarana
swarela
swarelelego
swartland
swartruggens
swarwa
swawa
swaya
swaziland
sweden
swellendam
swere
swerego
swerwe
swerwego
sweu
swikiri
switzerland
sydney
symmetry
symptoms
syntax
system
systems
sztemon
t
ta
taba
tabankulu
tabeng
table
tables
taelo
taerea
taets
tag
tags
tahera
tahlegelo
takes
tala
talente
talk
tambo
tanka
tanzania
taodis
taolo
tarkastad
tata
tatagwe
tatawes
tate
tatelano
tatofats
tatso
tau
taung
taxon
taxonomy
taylor
tb
td
te
tebalelo
tebogo
technical
technology
tee
teemane
tefets
tefo
teisesville
tekano
tekanyets
tekanyo
tekatekano
tekolo
telele
tema
temana
temba
tembeka
tembisa
temo
temogo
temokrasi
template
templates
tend
teng
teori
terms
territoriality
territories
test
text
texts
th
thaba
thabazimbi
thabela
thabo
thaepa
thakadu
thakgots
thala
thaloko
thambo
than
thapelong
thapo
tharo
tharong
that
thata
thato
the
thea
theelets
theewaterskloof
thehiloe
thehoa
theilwe
theilwego
their
thekga
thekgago
thekgile
thekgilwego
thekgo
thekgwa
thekgwago
thekinolots
thekniki
theknolots
theko
thelebis
thelela
them
themba
thembalihle
thembelihle
thembisile
then
thendara
thenisi
theoga
theogela
theos
thepa
there
these
theto
theunissen
they
thibela
thibelo
thibelwa
thibets
thin
thiomersal
third
this
thobalano
thohoyandou
thoilete
thoko
thokoza
tholo
thoma
thomago
thomas
thome
thomile
thomilego
thomilwe
thomilwego
thomis
thomo
thomson
thongwa
thopa
thopeng
thopile
thopilego
thopilwego
thops
thornhill
those
thoto
though
thousands
three
throat
through
thuba
thubega
thubja
thula
thulaganyo
thulamela
thulana
thulanago
thulano
thulanong
thuma
thumb
thumbnail
thumbnailing
thumbnails
thunts
thunya
thus
thusang
thutafase
thutamahlale
thutamahlaleng
thutaphedi
thuthupa
thutlwa
thuto
thutong
thwala
thwalwa
thwe
thwego
thwets
thwii
tia
tica
ties
tiilego
tiis
tikologo
tikologong
tikwana
till
time
times
timeslive
timets
tiragalo
tiragats
tirelo
tiris
tiro
title
titles
tla
tlaasana
tladistad
tlaelega
tlago
tlais
tlala
tlalelets
tlase
tlats
tle
tlema
tlets
tlhabets
tlhabi
tlhabollo
tlhaelo
tlhagelelo
tlhagis
tlhago
tlhahiso
tlhahlo
tlhahlobo
tlhalos
tlhaloso
tlhame
tlhamego
tlhamo
tlhano
tlhaologanyo
tlhaselo
tlhatlos
tlho
tlhodi
tlhogo
tlhokego
tlhoko
tlhokomelo
tlholo
tlholong
tlhompho
tlhora
tlhwekis
tlile
tlilego
tlis
tlo
tloaelehileng
tloaelo
tloga
tlogago
tlogela
tlogele
tlogelo
tlogelwa
tlogets
tloha
tlokwe
tlola
tlos
tlou
tlwaedits
tlwaela
tlwaelane
tlwaelega
tlwaelegile
tlwaelegilego
tlwaelo
tlwaets
tmi
to
toc
today
together
togo
toka
tokelo
tokologo
tokomane
tokyo
tomile
ton
tona
tonakgolo
tonki
tony
tonya
tonyago
too
toolbar
tools
top
topic
tor
toronto
toropo
toropokgolo
toropokgolokgolo
toropong
tot
total
touch
toward
towards
tower
town
towns
township
townships
toyota
tr
trade
traditional
train
traka
trans
transfer
transkei
translation
translator
translators
transnet
transport
transvaal
trasete
tree
trees
trevor
trial
tribune
trichardt
trillian
trillion
tripartite
trompsburg
trump
trust
try
ts
tsa
tsamaea
tsamaeang
tsamaisa
tsamaiso
tsamaisoa
tsantsabane
tse
tsea
tseba
tsebagadits
tsebagats
tsebago
tsebats
tsebe
tsebega
tsebegago
tsebego
tsebeng
tsebile
tsebis
tsebja
tsebjago
tsebje
tsebjego
tsebo
tsejoa
tsejoang
tsela
tseleng
tsena
tsenago
tsene
tsenego
tsenela
tsenelela
tsenelets
tsenets
tsents
tsenya
tsenye
tsenyo
tsenywa
tseo
tsepama
tsepamago
tsepame
tsepamego
tsepamis
tsetse
tshaba
tshabalala
tshadi
tshedimos
tshekamelo
tshekatsheko
tshekis
tsheko
tshekong
tshela
tshelago
tshelela
tshelelago
tshenyo
tshepe
tshepedis
tshepets
tshepis
tshepo
tshepong
tsheretshere
tshesane
tshiame
tshireletso
tshivenda
tshwane
tshwanelo
tshwarelo
tshwaro
tshwarwa
tshwenyanago
tshwenyega
tshwenyegile
tshwete
tsoang
tsoga
tsogo
tsogolekobong
tsohle
tsolwana
tsoma
tsomago
tsongwa
tsopola
tsos
tsunami
tsvangirai
tswa
tswadis
tswaing
tswala
tswalanago
tswalano
tswalanywa
tswalela
tswalelwa
tswalets
tswalo
tswelangpele
tswelopele
tu
tubatse
tuberculosis
tugela
tuka
tuma
tumelelano
tumelelo
tumelo
tumile
tumilego
tumis
tunisia
turfloop
turkey
tutu
tutuedits
tutuets
tv
tweeling
tweespruit
twitter
two
type
types
typical
typically
tzaneen
u
ubuhlebezwe
ubuntu
udf
udhr
udm
uganda
ugie
ugu
uitenhage
uk
ukraine
ulundi
umdoni
umgungundlovu
umhlabuyalingana
umhlanga
umis
umjindi
umkhanyakude
umkhonto
umlalazi
umngeni
umshwathi
umsobomvu
umtshezi
umuziwabantu
umvoti
umzimkhulu
umzimvubu
umzinyathi
umzumbe
un
under
underberg
unfortunately
ungulate
union
unions
unit
united
units
universe
university
univesithing
unless
unrecognized
until
up
upa
upago
uphongolo
upington
upo
upologo
upright
url
us
usa
usd
use
used
useful
user
users
uses
using
ussr
usual
usually
uthis
uthukela
utolla
utolots
utrecht
utswa
utswits
uwo
v
va
vaal
vaalbank
vaalwater
vale
valley
value
values
van
vanderbijlpark
variants
variety
various
venezuela
ventersburg
ventersdorp
venterstad
verde
verdict
vereeniging
verifiability
verkeerdevlei
version
vertical
vertically
verulam
very
veterinary
veterinaryresourcesuk
vhembe
vi
via
viaf
vibes
vice
vicente
victor
victoria
vierfontein
vietnam
view
vii
viii
viljoensdrif
viljoenskroon
village
villiers
vincent
vinci
vir
virginia
virus
visit
visitors
vivo
vol
volcker
volksrust
volume
volumes
voormalige
vorster
vortex
vosloorus
vrede
vredefort
vredenburg
vredendal
vryburg
vryheid
vulamehlo
vusi
vytjie
w
wa
wago
walter
wam
wana
want
war
warden
warning
warrenton
warszawa
wartburg
was
wasbank
washington
waste
wat
water
waterberg
waterval
watson
way
ways
we
web
website
websites
wego
wela
welago
welapele
wele
weledits
welela
welelago
welets
welkom
well
welopele
wena
wenliang
wepener
were
wesselsbron
west
western
westonaria
wet
wets
weu
wexford
whale
whales
what
when
where
whether
which
while
white
whites
whitney
whittlesea
who
whole
why
wide
widely
widest
width
widths
wiki
wikicode
wikidata
wikilink
wikilinked
wikilinking
wikimedia
wikipedia
wikipedias
wikisource
wikitable
wiktionary
wildebeest
wilderness
wildt
wile
wilge
will
willem
william
williams
willies
willowfontein
willowmore
wilson
winburg
window
windsorton
winelands
winnie
winter
witbank
with
within
without
wits
witwatersrand
witzenberg
wlelets
wo
wolmaransstad
wolseley
women
wona
woo
woodard
worcester
word
work
workers
working
works
world
worldfollowed
would
wp
wrap
wrapped
wrapping
write
written
wuhan
www
wysiwyg
x
xhariep
xhosa
xhtml
xii
xlv
xxxii
y
ya
yaba
yago
yakhe
yasmin
ye
year
years
yellow
yena
yeno
yeo
yerevan
yethemba
yethu
ymd
yo
yona
yoo
york
you
your
youth
yunibesithi
yunibesithing
yuniti
yuropa
yyyy
z
za
zambia
zanu
zar
zastron
zealand
zeerust
zf
zika
zimbabwe
zinniaville
ziphiid
zizi
zondo
zu
zululand
zuma
zwane
zweli
zwelitsha
{
|
}
¢
£
§
«
°
²
»
×
łobez
ɑ
ɛ
ʰ
ʼ
ˈ
ˌ
ː
̀
́
̂
̃
̄
̆
̇
̈
̉
̌
̓
̣
̧
̨
α
β
и
х
ं
ड
य
ा
ि
​
–
—
‘
’
“
”
†
•
″
⁄
€
↔
↷
≈
③
④
⑦
⺀
⺄
⺆
⺈
⺊
⺌
⺕
⺝
⺸
⺼
⿰
⿱
⿲
⿳
⿴
⿵
⿶
⿷
⿸
⿹
⿺
⿻
〢
コ
ユ
㇁
㇂
㇄
㇇
㇈
㇉
㇓
㐁
㐄
㐅
㐌
㐫
㐬
㐭
㐮
㐱
㑒
㒵
㒸
㒼
㓁
㓞
㔾
㕛
㕣
㖾
㘝
㚅
㚇
㚔
㚘
㝉
㝡
㝴
㝵
㞋
㞢
㞷
㠩
㠭
㠯
㡀
㡭
㡿
㢲
㢴
㣇
㣺
㥯
㪅
㫄
㫐
㫒
㫺
㬅
㬎
㬥
㬰
㲋
㳄
㷠
㸒
㸚
㸦
㼌
㼲
㽞
㿟
䀠
䂞
䍃
䏍
䒑
䖍
䖒
䖝
䖵
䙴
䚻
䜌
䝿
䡛
䧹
䪞
一
丁
丂
七
丄
丅
丆
万
丈
三
上
下
丌
不
与
丏
丐
丑
专
且
丕
世
丘
丙
业
东
丞
丢
丣
两
严
並
丨
丩
个
丫
丬
中
丮
丰
丱
串
丵
丶
丷
丸
丹
为
主
丽
丿
乀
乂
乃
久
乆
乇
么
义
之
乌
乍
乎
乏
乐
乑
乔
乖
乗
乘
乙
乚
乛
乜
九
乞
也
习
乡
乳
乾
亀
亅
了
亇
予
争
事
二
亍
于
亏
亐
云
互
亓
五
井
亘
亚
亜
亞
亟
亠
亡
亢
交
亥
亦
产
亨
亩
享
京
亭
亮
亯
亰
亲
亳
亶
亷
人
亻
亼
亾
仁
今
介
仌
从
仐
仑
仒
仓
仕
他
付
仝
代
令
以
任
企
伊
伏
伐
休
会
伯
但
位
何
佘
余
作
佥
使
來
侈
侌
侖
侯
侵
便
保
俞
信
修
倉
倍
候
倠
備
僉
僕
儿
兀
允
兂
元
兄
充
兆
兇
先
光
兊
克
兌
免
兑
兒
兓
兔
党
兜
兟
入
全
兩
兪
八
公
六
兮
兰
共
关
兵
其
具
典
兹
兼
冀
冂
冃
冄
内
冈
冉
冊
冋
册
再
冎
冏
冐
冒
冓
冖
冗
冘
军
农
冝
冡
冥
冫
冬
冷
几
凡
凢
凵
凶
凷
凸
凹
出
函
凾
刀
刁
刂
刃
刄
刅
分
切
刍
刑
刕
刖
列
刘
则
初
別
利
别
到
制
刺
則
削
剌
前
剡
剽
劉
力
功
加
劦
助
劫
劳
劵
勃
勇
勉
勒
動
務
勞
勤
勹
勺
勻
勾
勿
匀
匂
包
匆
匈
匊
匋
匍
匕
化
北
匚
匝
匡
匪
匱
匸
匹
区
医
匽
匿
區
十
卂
千
卄
卅
卆
升
午
卉
半
卌
华
卑
卒
卓
单
卖
南
卜
卝
卞
占
卡
卢
卣
卤
卦
卩
卪
卬
卯
印
危
即
却
卵
卷
卸
卻
厂
厃
厄
历
厈
厉
厌
厓
厘
厚
原
厤
厥
厨
厭
厲
厶
厷
厸
去
厼
厽
叀
参
參
叅
又
叉
及
友
双
反
叐
发
叒
叔
叕
取
受
叚
叜
叟
口
古
句
另
叩
只
召
可
台
叱
史
右
叵
号
司
叹
吂
各
吅
合
吉
吊
吋
同
名
后
吏
向
吕
君
吝
吞
否
含
启
吳
吴
吹
吾
呂
呆
呈
告
员
呙
周
命
咅
和
咎
咠
咢
咨
咸
咼
哀
品
哉
員
哥
哲
唐
商
啇
問
啚
啬
啻
善
喜
喬
單
喿
嗇
噩
嚴
囊
囗
囘
囙
囚
四
回
囟
因
囧
囬
困
囱
囷
固
国
圂
圅
國
圍
圓
土
圡
圣
圥
在
圭
地
圶
圼
坐
坒
坚
坴
垂
垔
垚
埀
埋
埶
執
基
堂
堅
堆
堇
堯
塞
墨
壘
士
壬
壯
声
壳
壴
壹
壺
壽
夂
处
夅
夆
备
夊
夋
夌
复
夏
夒
夕
外
夗
夘
多
夜
夢
大
夨
天
太
夫
夬
夭
央
失
夲
头
夷
夸
夹
夻
夾
奂
奄
奇
奈
奉
奎
奏
奐
契
奓
奔
奚
奞
奠
奢
奥
奭
女
奴
奻
好
如
妄
妙
妟
妥
妻
妾
姑
委
姜
威
娄
婁
婴
嬰
嬴
子
孑
孔
孕
孖
字
存
孚
孛
孝
孟
季
孤
学
孫
孱
學
宀
宁
宂
它
宅
宇
守
安
宋
完
宏
宓
宗
官
定
宛
宜
宝
客
宣
室
宮
宰
害
家
容
宾
宿
寄
寅
密
富
寒
察
寧
審
寫
寬
寮
寸
对
寺
寻
寽
対
寿
封
尃
射
将
將
專
尉
尊
尋
尌
對
小
少
尒
尓
尔
尖
尗
尚
尞
尢
尣
尤
尧
尨
尭
就
尸
尹
尺
尻
尼
尽
尾
尿
局
居
屈
屋
屎
屏
屑
展
屖
屚
属
屠
屡
屬
屮
屯
屰
山
屵
屾
岁
岂
岑
岡
岩
岳
岸
峯
島
崇
崑
崔
崖
崙
崩
嵬
嶲
巂
巛
川
州
巟
巠
巢
巤
工
左
巧
巨
巩
巫
差
己
已
巳
巴
巷
巸
巽
巾
巿
帀
市
布
希
帚
帛
帝
带
師
席
帶
常
干
平
年
幵
并
幷
幸
幺
幻
幼
幽
幾
广
広
庄
床
底
店
庚
府
度
庫
庭
庶
康
庸
廉
廌
廛
廣
廩
廴
延
廷
建
廾
廿
开
弁
弃
弄
弇
弋
式
弓
弔
引
弗
弘
弜
弟
弥
弦
弱
張
強
强
彊
彌
彎
彐
彑
当
彔
录
彖
彗
彡
形
彥
彦
彧
彭
彳
役
彼
往
待
律
徒
得
徙
從
復
微
徵
心
忄
必
忌
忍
志
忝
忠
忩
快
念
忽
忿
思
怠
急
怱
恆
恒
恩
恭
息
悉
患
悤
悲
悶
惠
惡
惢
愁
愈
意
愛
感
慈
慧
慮
憂
憲
應
戀
戈
戉
戊
戋
戌
戍
戎
成
我
戒
戔
或
戚
戠
戢
截
戲
戶
户
戹
戼
戾
房
所
扁
扇
手
扌
才
打
托
执
承
折
拉
拜
拿
掌
推
提
摩
支
攴
攵
收
攸
改
放
政
敄
敏
敕
敖
敗
敝
敞
敢
散
敦
敫
敬
数
敷
數
斂
文
斉
斊
斗
斤
斥
斩
斬
斯
新
方
於
施
斿
旁
旋
族
无
旡
既
旣
日
旦
旧
旨
早
旬
旱
旲
时
旾
昆
昇
昌
昍
明
昏
易
昔
昗
昜
星
春
昬
是
昱
昴
昷
時
晃
晋
晏
普
景
晶
智
暑
暴
曇
曩
曰
曲
曳
更
曷
書
曹
曼
曾
替
最
朁
會
月
有
朋
服
朔
朕
朗
望
朝
木
朩
未
末
本
札
朮
术
朱
朵
朶
朿
杀
杏
杜
束
条
来
東
杲
杳
松
析
林
枚
果
枝
枲
枼
某
柔
查
柬
柰
柴
栗
桀
桑
桼
梁
條
梟
梨
棘
棠
棥
森
楚
業
楽
榮
樂
樊
欠
次
欣
欮
欲
欶
欽
款
歆
歇
歛
止
正
此
步
武
歨
歪
歮
歯
歰
歲
歴
歷
歸
歹
歺
死
殳
段
殷
殸
殹
殺
殻
殿
毋
毌
母
每
毒
比
毕
毚
毛
毳
氏
氐
民
气
氣
水
氵
氶
氷
永
氺
氾
求
汝
汞
江
沃
沓
沙
沝
泉
法
波
泣
泥
泰
洛
洪
活
派
流
浦
浪
浮
淡
淮
清
渚
渠
湯
滿
漸
火
灬
灭
灰
灵
灷
炅
炎
炏
炗
炙
炭
為
烈
烏
烝
焉
無
焦
焱
然
煞
熊
熏
燕
營
燮
爪
爫
爭
爯
爰
爱
爲
爵
父
爻
爽
爾
爿
片
牙
牚
牛
牜
牟
牢
牧
牪
牽
犀
犬
犭
犮
狂
狄
狊
独
狺
猋
猒
猪
献
獻
玄
率
玉
王
玟
玨
珎
班
琴
瑟
瑩
瓜
瓦
甘
甚
生
産
用
甫
甬
田
由
甲
申
电
甶
男
甸
甹
画
甾
畀
界
畏
畐
留
畜
畟
畢
畧
畨
番
畫
異
畱
當
畺
畾
疊
疋
疌
疑
疒
疾
癶
癸
癹
登
發
白
百
皀
皃
的
皆
皇
皋
皐
皕
皮
皷
皿
盃
盆
盇
盈
益
盍
盎
监
盒
盖
盛
盡
監
盤
盧
目
直
相
盾
省
眇
眉
看
眔
眞
真
眷
眼
眾
着
睘
睪
睿
瞏
瞢
瞿
矍
矛
矞
矢
矣
知
矦
短
石
破
碎
磊
磨
示
礻
礼
祟
票
祭
禀
禁
禸
禹
禺
离
禽
禾
禿
秀
秃
秉
秋
科
秝
秦
移
稟
穀
穌
穴
究
穹
空
穿
突
窄
窒
立
竒
竜
竝
竟
章
童
竹
笑
笠
筆
等
答
箕
算
箴
節
篤
篭
米
粉
粛
粟
粤
粦
粲
糞
糸
糹
系
約
納
素
索
紫
累
細
絜
絫
絲
維
綿
縣
繇
纍
纟
缶
网
罒
罔
罕
罗
罙
罡
罢
罪
署
罷
羅
羊
羌
羍
美
羔
羕
羗
羞
羡
羣
群
義
羲
羸
羽
翁
翏
習
翕
翟
翠
翼
老
耂
考
者
耆
而
耎
耑
耒
耳
耴
耶
耷
聂
聊
聖
聚
聶
聿
肀
肃
肅
肉
肖
肙
肥
肩
肯
育
肴
胃
背
胡
胥
能
脊
脩
膚
臣
臤
臧
自
臬
臭
臯
臱
至
致
臺
臼
臽
臾
臿
舀
舂
舄
與
興
舉
舌
舍
舛
舜
舞
舟
般
艮
良
色
艸
艹
艾
芒
芔
芬
芮
花
芳
芺
芻
苔
苗
苟
若
苦
英
茶
茸
荅
草
荒
荣
荼
莆
莧
莫
莽
菆
菊
菐
華
萬
落
葉
著
葛
董
葵
蒙
蒦
蒼
蓋
蓬
蓺
蔑
蔡
蕉
蕭
薄
薛
薦
薰
藍
藏
藥
蘭
虍
虎
虐
虒
虔
處
虖
虗
虘
虚
虛
虜
虞
虫
虽
蚤
蚩
蜀
蜜
蟲
蠡
血
行
衍
衛
衣
衤
表
衮
衰
袁
袞
褭
褱
襄
襾
西
覀
要
覃
見
規
覓
覧
親
覽
见
角
解
言
訁
訇
計
詹
誩
諸
讠
谷
豆
豈
豊
豐
豕
豖
豙
象
豦
豩
豪
豸
貇
貝
貞
貟
負
貢
貧
貪
貫
責
貳
貴
買
費
賁
資
賈
賏
賓
賔
賛
賞
賢
賣
質
賴
贊
贝
贡
责
贯
贲
贵
赖
赞
赤
赦
走
越
足
路
蹇
身
躬
車
軍
軎
軟
輦
车
辛
辜
辟
辥
辰
辱
農
辵
辶
边
达
过
近
连
迷
追
退
送
逆
逐
通
速
造
逢
連
逮
進
遀
遂
過
道
達
遣
適
遷
遺
邊
邑
邕
那
邦
邪
郎
部
郭
都
鄉
酉
酋
配
酓
釆
采
里
重
野
量
金
釒
錢
钅
長
镸
长
門
閃
閉
開
閏
閑
閒
間
閔
閵
閻
闌
门
间
闷
阑
阜
阝
阿
降
陳
隆
隊
隋
隡
隨
隱
隶
隹
隺
隻
隼
隽
难
雀
雁
集
雈
雋
雍
雐
雔
雙
雚
雜
雝
離
難
雨
雩
雪
雲
零
雷
需
霍
霜
霝
霞
霸
靈
靑
青
非
靡
面
靣
革
韋
韦
韭
韯
韱
音
頁
頃
項
須
頗
頡
頻
顛
页
風
风
飛
飞
食
飠
養
饣
首
香
馬
馮
駦
马
骨
高
髟
鬥
鬯
鬲
鬼
魚
魯
鮮
鱼
鲁
鳥
鳳
鸟
鹵
鹿
麃
麗
麥
麦
麻
黃
黄
黍
黎
黑
黒
黨
黹
黽
黾
鼎
鼓
鼠
鼻
齊
齋
齐
齒
齿
龍
龙
龜
龟
龠
龰
龱
龴
龵
龶
龷
龸
龹
者
艹
？
🜨
𠀁
𠀃
𠀆
𠀉
𠀎
𠀐
𠁁
𠁣
𠂆
𠂇
𠂈
𠂉
𠂊
𠂋
𠂎
𠂒
𠂔
𠂛
𠂡
𠂢
𠂤
𠂬
𠂭
𠂹
𠃊
𠃋
𠃌
𠃍
𠃎
𠃑
𠃓
𠃔
𠃜
𠄌
𠄎
𠄠
𠄢
𠆢
𠆥
𠇍
𠈌
𠌵
𠓜
𠔉
𠔥
𠔼
𠔽
𠔿
𠕀
𠕁
𠕋
𠘧
𠘨
𠙻
𠙼
𠚏
𠚒
𠚤
𠚪
𠣏
𠤎
𠤕
𠥓
𠦄
𠦑
𠦝
𠧒
𠧗
𠧪
𠩺
𠪚
𠫓
𠫔
𠫤
𠬛
𠬝
𠬞
𠬢
𠬤
𠬶
𠮛
𠮦
𠮷
𠯑
𠱠
𠳮
𠷎
𡈼
𡉀
𡉵
𡌥
𡍮
𡏳
𡕒
𡕩
𡕰
𡖅
𡗗
𡗜
𡘆
𡘤
𡧱
𡨄
𡩧
𡬠
𡭽
𡰣
𡰥
𡰪
𡰯
𡰱
𡷈
𡸁
𡿨
𡿩
𡿪
𡿺
𢀖
𢀛
𢀩
𢁙
𢆉
𢆰
𢆶
𢇁
𢇇
𢉖
𢌬
𢌿
𢏚
𢑑
𢑚
𢖻
𢙣
𢛳
𢦏
𢦒
𢧵
𢼄
𢾕
𣁋
𣄼
𣅀
𣅽
𣍘
𣎳
𣎵
𣏋
𣏼
𣗥
𣥂
𣥖
𣦵
𣦼
𣧄
𣪊
𣪠
𣬉
𣳾
𣶒
𤇾
𤊽
𤐫
𤓰
𤔔
𤕨
𤣩
𤰇
𤰔
𤰞
𤴓
𤴔
𤽄
𥁑
𥁕
𥃦
𥃩
𥃭
𥇡
𥑟
𥘅
𥘈
𥝢
𥫗
𥱡
𦈢
𦉪
𦉬
𦉼
𦍌
𦍒
𦎧
𦐇
𦓔
𦔮
𦘒
𦙃
𦚏
𦣝
𦣞
𦣻
𦥑
𦥔
𦥯
𦨉
𦭝
𦰩
𧆞
𧈧
𧘇
𧰨
𧴪
𧴮
𧵩
𧾷
𨸏
𨾴
𩙿
𩠐
𩫏
𩵋
𪉷
𪜀
𪟽
𪠲
𪩲
𫇦
𫔭
𫜸
𫝀
𫠣
𫠩
𫢉
𫥞
𫩏
𫩠
𫪡
𫲽
𫶧
𬀷
𬐘
𬗌
𬙙
𬛸
𬜯
𬟩
𬯁
𬴘
𬺻
𬼉
𬼖
𭀰
𭁈
𭁨
𭅰
𭑈
𭕄
𭗼
𭤨
𭥫
𭻾
𮅕
𮊿
𮍌
𮍏
𮓗
𮥼
𮧮
廾
𰀁
𰀄
𰀈
𰀉
𰀕
𰀠
𰀡
𰀢
𰀪
𰁜
𰃮
𰆊
𰆘
𰋙
𰕎
𰢴
𰧭
𰯲
0--
2009--
a--
ab--
abbre--
abe--
abr--
abra--
acco--
achiev--
ad--
advertis--
af--
ag--
ah--
air--
aka--
al--
ala--
all--
alt--
am--
ama--
amo--
an--
anc--
any--
app--
ar--
arc--
as--
at--
au--
ax--
b--
ba--
baapo--
bac--
bagh--
baka--
bal--
ban--
bar--
bas--
be--
bec--
bei--
ber--
bet--
bi--
bio--
bis--
bitter--
blo--
bo--
bok--
bope--
bora--
boro--
borwa--
bos--
bot--
bots--
bow--
br--
bre--
brow--
bru--
bu--
buf--
bul--
bule--
but--
by--
c--
ca--
cal--
cam--
cc--
ccc--
cccl--
ccclx--
ccclxx--
ccclxxx--
cccx--
cccxc--
cccxx--
cccxxx--
ccl--
cclx--
cclxx--
cclxxx--
ccx--
ccxc--
ccxx--
ccxxx--
cd--
cdl--
cdlx--
cdlxx--
cdlxxx--
cdx--
cdxc--
cdxx--
cdxxx--
ce--
cen--
cha--
che--
chi--
cl--
cla--
cli--
clo--
clx--
clxx--
clxxx--
cm--
cml--
cmlx--
cmlxx--
cmlxxx--
cmx--
cmxc--
cmxx--
cmxxx--
co--
com--
con--
cond--
cont--
contr--
contri--
coo--
coordin--
cor--
cr--
cro--
cultu--
cx--
cxc--
cxx--
cxxx--
d--
da--
dang--
dar--
dc--
dcc--
dccc--
dcccl--
dccclx--
dcccx--
dcccxc--
dccl--
dcclx--
dcclxx--
dcclxxx--
dccx--
dccxc--
dccxx--
dccxxx--
dcl--
dclx--
dclxx--
dclxxx--
dcx--
dcxc--
dcxx--
dcxxx--
de--
def--
den--
dep--
deter--
di--
dih--
dihe--
dike--
dikho--
dikhu--
din--
dinaga--
dip--
dipamp--
dipe--
dipha--
diphe--
dipo--
dis--
dist--
dit--
dita--
dith--
ditl--
dl--
dlx--
dlxx--
dlxxx--
do--
dor--
dr--
dra--
dream--
du--
dwars--
dx--
dxc--
dxx--
dxxx--
e--
ea--
echolo--
ed--
ee--
eel--
eerste--
el--
eld--
ele--
em--
emp--
en--
er--
esch--
esi--
essen--
est--
et--
ets--
etu--
ever--
ex--
exp--
f--
fa--
fair--
far--
fe--
feto--
fi--
fie--
fin--
flexib--
fo--
for--
fou--
fr--
fu--
fun--
g--
ga--
gahla--
gan--
gar--
gau--
ge--
gene--
ger--
gi--
gil--
glen--
go--
good--
gou--
gr--
gro--
gu--
h--
ha--
hag--
har--
has--
he--
heath--
hec--
her--
heun--
hi--
hir--
hla--
hlo--
hlwe--
ho--
hol--
hope--
house--
hu--
hus--
hwe--
hwib--
hy--
i--
id--
iden--
ikg--
il--
im--
in--
initi--
inter--
iny--
is--
it--
itho--
its--
iv--
ixo--
j--
ja--
je--
jo--
ju--
jud--
juda--
k--
ka--
kan--
kar--
kat--
ke--
ken--
keta--
keur--
kg--
kga--
kgahle--
kgao--
kgau--
kget--
kgo--
kgobo--
kgotsof--
kha--
khao--
khe--
kho--
khu--
kilo--
kin--
kla--
klip--
ko--
kra--
krans--
ku--
kudu--
kwa--
l--
la--
lahle--
lam--
lang--
lat--
le--
leba--
lebe--
leboa--
lehla--
leka--
lemo--
len--
lep--
lepha--
lera--
les--
li--
lik--
lin--
lithu--
lo--
lou--
lu--
luc--
lume--
lun--
lx--
lxx--
lxxx--
m--
ma--
maa--
mab--
mac--
mafa--
mag--
maga--
mak--
maka--
makg--
mal--
male--
man--
mar--
mara--
maro--
marx--
mas--
mat--
math--
mati--
max--
mc--
mcc--
mccc--
mcccl--
mccclx--
mccclxx--
mccclxxx--
mcccx--
mcccxc--
mcccxx--
mcccxxx--
mccl--
mcclx--
mcclxx--
mcclxxx--
mccx--
mccxc--
mccxx--
mccxxx--
mcd--
mcdl--
mcdlx--
mcdlxx--
mcdlxxx--
mcdx--
mcdxc--
mcdxx--
mcdxxx--
mcl--
mclx--
mclxx--
mclxxx--
mcm--
mcml--
mcmlx--
mcmlxx--
mcmlxxx--
mcmx--
mcmxc--
mcmxx--
mcmxxx--
mcx--
mcxc--
mcxx--
mcxxx--
md--
mdc--
mdcc--
mdccc--
mdcccl--
mdccclx--
mdcccx--
mdcccxc--
mdccl--
mdcclx--
mdcclxx--
mdcclxxx--
mdccx--
mdccxc--
mdccxx--
mdccxxx--
mdcl--
mdclx--
mdclxx--
mdclxxx--
mdcx--
mdcxc--
mdcxx--
mdcxxx--
mdl--
mdlx--
mdlxx--
mdlxxx--
mdx--
mdxc--
mdxx--
mdxxx--
me--
melo--
men--
mengwa--
mer--
mhl--
mi--
mid--
min--
minu--
mira--
mis--
ml--
mlam--
mlx--
mlxx--
mlxxx--
mm--
mma--
mmu--
mmx--
mo--
moc--
moe--
mogo--
moh--
moha--
mohla--
mohlo--
mohu--
mok--
mokg--
mol--
molao--
mole--
mon--
moo--
mop--
mos--
mot--
motse--
mou--
mph--
ms--
mu--
mus--
mx--
mxc--
mxx--
mxxx--
n--
na--
naga--
nc--
nd--
ne--
neder--
ner--
new--
ng--
ngo--
ni--
nie--
nka--
nko--
nku--
no--
nor--
not--
nts--
nya--
nyan--
nye--
nyu--
o--
oa--
of--
oke--
on--
one--
oo--
op--
opera--
or--
ot--
out--
over--
p--
pa--
pamp--
par--
pass--
pat--
pe--
per--
pha--
phae--
phapha--
phe--
phet--
phi--
phih--
phu--
phy--
pi--
pie--
pil--
pla--
plooys--
po--
pon--
pop--
poro--
poten--
pr--
pre--
prec--
pred--
pro--
prog--
pros--
pu--
pub--
pul--
q--
qo--
qu--
r--
ra--
radi--
rand--
rat--
re--
red--
reg--
reli--
reto--
rev--
ri--
rie--
riet--
ris--
riv--
ro--
rooi--
ros--
rose--
ru--
s--
sa--
san--
say--
scale--
scho--
scient--
se--
sea--
sebe--
sebo--
sec--
sed--
sego--
seka--
sen--
seni--
sep--
ser--
sere--
ses--
set--
setha--
sha--
she--
shi--
si--
sil--
sin--
sky--
sla--
sna--
so--
soc--
some--
son--
sp--
spe--
spec--
st--
stein--
struc--
stu--
sty--
su--
sub--
suic--
sw--
swar--
sy--
sym--
t--
ta--
tal--
tar--
te--
techni--
tee--
tele--
ter--
tero--
terr--
th--
tha--
the--
thi--
tho--
thorn--
thu--
thuta--
ti--
tla--
tle--
tlha--
tlho--
tlo--
to--
town--
tr--
tra--
tri--
tro--
ts--
tsa--
tse--
tsh--
tshe--
tshi--
tsits--
tso--
tu--
tur--
u--
uit--
ul--
um--
un--
uni--
up--
upa--
us--
utol--
v--
va--
ven--
ver--
verky--
vi--
visu--
vlak--
vo--
w--
wa--
water--
we--
wel--
wes--
whis--
wi--
wil--
wind--
wit--
wo--
x--
xc--
xx--
xxx--
ya--
ye--
yo--
z--
za--
zenz--
--0
--00
--1
--2
--3
--4
--5
--6
--7
--8
--9
--a
--aai
--abo
--ad
--ae
--af
--agus
--aka
--al
--all
--alo
--am
--amo
--an
--ana
--ance
--and
--ang
--ans
--apa
--ara
--ari
--ary
--as
--ast
--ata
--ation
--ay
--b
--ba
--baai
--ball
--be
--bedu
--bets
--bi
--biotiki
--bis
--ble
--bo
--bs
--bu
--burg
--bury
--by
--c
--ca
--cal
--ce
--ch
--ci
--cia
--ck
--cl
--clv
--clx
--clxi
--clxv
--clxx
--clxxi
--clxxv
--clxxx
--clxxxi
--clxxxv
--ct
--cted
--ction
--ctions
--cts
--cv
--cx
--cxc
--cxci
--cxcv
--cxi
--cxl
--cxv
--cxx
--cxxi
--cxxv
--cxxx
--cxxxi
--cxxxv
--cy
--d
--da
--dacht
--dale
--de
--ded
--den
--di
--dia
--ding
--dorp
--ds
--du
--dweni
--dy
--e
--ed
--ef
--ego
--ei
--ein
--eki
--el
--ela
--elo
--em
--en
--ened
--eng
--eni
--ent
--er
--ers
--ert
--es
--ese
--est
--et
--ete
--ets
--ever
--ey
--ezwa
--f
--fa
--fadits
--fala
--fats
--fe
--ff
--fo
--fu
--fy
--g
--ga
--gadi
--gala
--gale
--ganya
--ge
--gedi
--gego
--gela
--geng
--ger
--gile
--gis
--gle
--go
--gomme
--gs
--h
--ha
--hala
--hang
--he
--hene
--heng
--hes
--hi
--hie
--hile
--hing
--hio
--hl
--hla
--hlano
--hle
--ho
--hoa
--hoek
--hof
--http
--https
--hu
--huti
--i
--ia
--ial
--ian
--ic
--ical
--ied
--iel
--ier
--ies
--iese
--if
--ift
--ify
--ign
--ii
--iki
--il
--ile
--ille
--in
--ina
--ine
--ined
--ing
--ini
--io
--ion
--ions
--ira
--is
--isa
--ise
--isi
--ite
--ities
--ity
--ive
--iwa
--izakhe
--ize
--jo
--k
--ka
--ke
--keng
--kgolo
--kgwa
--khu
--ki
--kis
--ko
--kop
--ks
--ku
--kwa
--kwe
--l
--la
--laagte
--lago
--ld
--lds
--le
--lela
--lelo
--leni
--lets
--lf
--li
--lia
--lic
--lie
--lis
--lk
--ll
--lla
--lle
--llo
--lls
--llwa
--lly
--lo
--loeng
--los
--ls
--lt
--lu
--lv
--lwa
--lwe
--lx
--lxi
--lxv
--lxx
--lxxi
--lxxv
--lxxx
--lxxxi
--lxxxv
--ly
--m
--ma
--man
--me
--mela
--melo
--meng
--meni
--ment
--mets
--mi
--mis
--mo
--mond
--ms
--my
--n
--na
--nani
--nant
--nas
--nce
--nd
--nda
--nde
--ndige
--ne
--neng
--neni
--nent
--nes
--ness
--ng
--ngo
--ngwe
--nhof
--ni
--nia
--ning
--nis
--nisi
--nism
--njini
--nkere
--nne
--no
--ns
--nse
--nt
--nta
--nte
--nto
--nts
--nty
--nuel
--ny
--nya
--nyana
--nyo
--nzi
--o
--oa
--oe
--oeng
--oho
--ol
--ola
--olo
--om
--on
--ong
--onnaise
--or
--ord
--os
--ot
--ots
--ous
--p
--pa
--pe
--ped
--peng
--perets
--phe
--pi
--plaas
--po
--pod
--pole
--poort
--pruit
--pt
--qa
--qapi
--r
--ra
--ral
--rats
--rd
--re
--rele
--reng
--res
--rg
--ri
--ria
--rick
--rie
--ries
--rift
--ring
--ris
--rivier
--rk
--rkrans
--rly
--rm
--rn
--ro
--ron
--room
--rp
--rry
--rs
--rskop
--rson
--rt
--rtje
--rug
--rwa
--ry
--s
--sa
--sburg
--sdorp
--se
--ser
--sey
--sh
--ship
--si
--sia
--sil
--sion
--so
--soa
--soe
--son
--song
--spruit
--srivier
--ss
--st
--stad
--swa
--sy
--t
--ta
--tan
--te
--ted
--tee
--tein
--ter
--tes
--th
--tha
--tharo
--thi
--tho
--thy
--ti
--tic
--ting
--tion
--tions
--tive
--tjie
--to
--ton
--tov
--town
--ts
--tse
--tsi
--tso
--tt
--tts
--ture
--tus
--ty
--u
--ubje
--uds
--ue
--ufi
--ug
--ul
--ula
--ular
--uli
--ulu
--um
--upi
--ur
--uro
--us
--ution
--uw
--uze
--v
--va
--vale
--ve
--vel
--veni
--ves
--vet
--vey
--vi
--view
--ville
--vlei
--w
--wa
--wako
--wane
--wang
--way
--we
--weni
--wi
--wini
--wn
--wood
--ws
--x
--xc
--xci
--xcv
--xi
--xl
--xv
--xx
--xxi
--xxv
--xxx
--xxxi
--xxxv
--y
--ya
--ye
--yi
--ys
--z
--za
--zane
--ze
--zi
--zo
