!
"
#
##0
##1
##10
##11
##12
##13
##14
##15
##16
##17
##18
##19
##2
##20
##21
##22
##23
##24
##25
##26
##27
##28
##29
##3
##30
##31
##32
##33
##34
##35
##36
##37
##38
##39
##4
##40
##41
##42
##43
##44
##45
##46
##47
##48
##49
##5
##50
##51
##52
##53
##54
##55
##56
##57
##58
##59
##6
##60
##61
##62
##63
##64
##65
##66
##67
##68
##69
##7
##70
##71
##72
##73
##74
##75
##76
##77
##78
##79
##8
##80
##81
##82
##83
##84
##85
##86
##87
##88
##89
##9
##90
##91
##92
##93
##94
##95
##96
##97
##98
##99
%
&
'
(
)
*
+
,
-
.
/
0
000
01
02
03
05
06
07
08
1
10
100
103
11
113
1139189
12
120
1289000
13
14
15
1564
16
1610471
17
1732707
1790
1791
1799
18
180
1800
1809
1812
1813
1816
1817
1819
1821
1822
1824
1835
1836
1837
1838
1840
1841
1843
1845
1847
1848
1849
1850
1853
1854
1857
1861
1862
1865
1869
1870
1874
1876
1881
1882
1883
1884
1885
1886
1887
1888
1889
1890
1892
1893
1894
1897
1898
1899
19
190
1900
1901
1902
1903
1904
1905
1907
1908
1909
1910
1911
1912
1913
1914
1915
1916
1917
1918
1919
1920
1921
1922
1923
1924
1925
1926
1927
1928
1929
1930
1931
1932
1933
1934
1935
1936
1937
1938
1939
1940
1941
1942
1943
1944
1945
1946
1947
1948
1949
195
1950
1951
1952
1953
1954
1955
1956
1957
1958
1959
1960
1961
1962
1963
1964
1965
1966
1967
1968
1969
197
1970
1971
1972
1973
1974
1975
1976
1977
19772
1978
1979
1980
1981
1982
1983
1984
1985
1986
1987
1988
1989
1990
1991
1992
1993
1994
1995
1996
1997
1998
1999
2
20
200
2000
2001
2002
2003
2004
2005
2006
2007
2008
2009
2010
2011
2012
2013
2014
2015
2016
2017
2018
2019
2020
2021
2022
21
210
22
220
223
23
230
24
244
25
250
259
26
260
27
270
28
280
287
29
290
3
30
300
31
32
320
326
35
36
37
38
393
4
400
41
42
422000
43
48
48000
495
497
5
50
500
52
522
539
570
6
62
63400
64
646
65
6500
66
67
7
70
700
71
75
8
80
84
85
86
860
87
88
9
900
904
978
988
:
;
<
=
?
_
a
abakus
abaot
abe
abraham
abu
access
accessed
activists
actor
ad
adam
adams
ademup
adrian
ae
aelan
aeland
aerlan
af
afganistan
afrika
afsaed
afta
after
agensem
aguila
ai
aien
ailan
aim
aiodin
ajentina
akiteksa
akses
aksess
akta
akting
aktiviti
al
alabama
alaska
alba
albania
albany
albert
albom
ale
alexander
alexandre
alfred
alice
alignbars
allen
alliance
allmovie
altri
alzette
ambae
ambrym
amenia
american
amerika
an
anamol
anas
and
andarabi
andorra
andrew
andy
anemol
angeles
angola
animal
animol
anna
annapolis
anne
antap
antatik
anthony
antologie
antoni
antonio
aot
april
aquino
arago
araki
araon
arara
archimedes
archive
argentina
arizona
arkansas
arkitekisa
armenia
arnaud
around
art
article
artist
arts
as
asbekistan
asia
askem
assisi
astronomi
at
atchin
atikel
atikol
atlanta
atom
au
auckland
augusta
austen
austin
australian
austronesian
aut
avoka
avril
azerbaijan
b
ba
babados
bachchan
bachelier
back
bae
baebol
baeoloji
bahamas
bakegen
balduzzi
balear
ball
bambae
bambu
banana
band
bangkok
banyan
baot
baptaes
bar
barack
barbara
barcelona
basic
basket
basketbol
bastien
batafrut
baton
bc
be
beijing
bekem
belarus
belize
beljiom
ben
benidorm
benjamin
berlin
bernard
berry
bette
betty
bhutan
bi
biaen
bibliothe
biden
bifo
big
bigbigfala
bigfala
bigfela
bigtaon
bigwan
bilif
biliv
bill
bilong
bin
biography
bislama
bisnesman
bitim
bito
bitwin
bl
black
blak
blem
blo
blog
blokem
blong
blufis
bob
bobby
bodi
boe
boen
boilem
boise
bol
bolivia
bon
borges
bosnia
boston
boteni
bottom
br
branch
braon
brasil
brata
brazil
bredfrut
brightblue
britannica
british
brown
budisim
building
buk
bulgaria
buluk
bus
busan
bush
by
byron
c
ca
cadeo
calvin
cambo
canberra
canet
cannon
cantabria
capricho
caracas
carl
carolina
carson
carter
casa
cassem
castell
castelle
castelsardo
catalana
catalonia
category
catherine
cell
cent
center
cervantes
championship
chan
chance
charles
charlot
chaux
chi
chicago
chief
chile
china
chinese
chorus
chris
christian
christopher
chroicocephalus
chuck
ci
citizen
city
clark
clasica
claudette
cleveland
clinton
co
cobar
coconut
college
colombia
color
colorado
columbia
columbus
com
comillas
commons
community
concepcio
concord
confucius
connecticut
conose
copenhagen
copernicus
corbusier
cosmoglotta
court
courtney
cristiano
croatia
cultura
curie
curitiba
czechia
d
da
daegu
daejeon
daerekta
dakdak
dakota
dali
daniel
danis
dante
darlow
darwin
database
date
dateformat
daugava
david
davis
de
decemba
ded
deforest
defren
dei
del
delaware
dels
demi
demokratik
denmak
denmark
density
denver
der
des
desemba
development
dewahl
di
diary
dick
dickens
dictionary
diego
dietrich
difren
diksonari
dipsi
disaen
disco
discogs
disemba
disfala
disionario
diversity
dmitry
do
dog
doi
dome
dominika
don
donald
dover
dragons
drama
dress
drink
du
dwight
dziecino
e
economi
ecuador
ed
eds
edward
efate
eit
ekonomi
eksperiens
ekwado
el
elemen
elisabet
elizabeth
ell
elton
em
emi
emmanuel
en
encyclopedia
england
english
eni
enjiniring
entry
envaeromen
envaeronmen
epistola
epril
erasmus
eria
es
escapat
esch
esia
espan
estonia
eswatini
et
etc
europa
europe
european
evanjelio
everi
evri
evriwan
exceptional
executive
f
faef
faenem
fala
familia
family
famle
famli
fan
fanny
faroe
fas
fashion
fasin
fastaem
faswan
fawad
fe
feb
februari
febuwari
federico
felipe
fernanda
fet
fiba
file
filem
filip
film
filosofi
finis
finlan
finland
fis
fish
fisikis
fit
flaeg
flagio
flaoa
florence
florida
fo
foma
fonda
fonds
for
four
fr
frameless
franc
franca
france
francesco
francis
francisco
franis
franjieh
frank
frankfort
franklin
franz
fren
french
fresh
fri
frida
friedrich
from
fruit
frut
fu
fukuda
ful
fulap
full
fulnem
fuster
futbol
g
ga
gabriel
gaga
galik
garci
gat
gates
gaudi
gavman
ge
gel
gem
gene
george
georges
georgia
gerald
giaman
gini
giorgio
giuseppe
givhan
givim
gje
gloria
glottolog
go
god
gogo
gohed
gol
gombe
gordon
gospel
gov
grace
grand
grant
graon
gray
great
greece
greek
green
gren
gridcolor
grik
grin
gris
gro
group
grup
gu
gud
gudfala
gudfla
guyana
gwangju
gwatemala
gyeongbu
gyongbu
h
had
haf
hafez
haiku
hair
haiti
halle
ham
hamburg
hampshire
han
handel
handred
hang
hangari
hans
hao
haos
hap
harding
hariken
harold
harrisburg
harrison
hartford
haruna
hatoyama
haus
hawaii
haydn
hed
height
helena
helpem
helsinki
helti
hem
hemi
hemia
henri
henry
herbert
hersegovina
herzegovina
heven
hevi
hil
hillary
him
hindi
hiphop
hira
his
hispan
history
histri
hiw
ho
hokey
hoknaet
hokusai
hol
holem
hollywood
honduras
hong
honolulu
hop
hos
hoshide
house
howard
html
htmlhttps
http
https
hu
huang
hugh
hyun
i
ia
iafd
ian
id
idaho
igat
igo
igor
ii
iii
ijip
ikat
ikoloji
il
ilan
illinois
ilyich
image
imagesize
imdb
impoten
in
inauguracion
incheon
increment
independent
index
india
indiana
indianapolis
indonesia
infomesen
inglan
inglis
inkludum
insaed
insaeklopidia
insait
insek
inside
intanet
interlingua
interlingue
internasonal
internet
iowa
irak
iran
ireland
is
isaac
isbn
ishida
islam
island
israel
it
itali
italo
itch
j
jacint
jack
jackman
jackson
jacobs
jae
jaena
jajmen
jamaika
james
jamfis
jane
janel
janewari
januware
januwari
japan
jas
java
jean
jeb
jefferson
jek
jemani
jeneresen
jenis
jenisim
jenuware
jes
jif
jim
jinping
jiografi
jioj
jiometri
jisas
joan
joe
joenem
johann
johannes
john
johnny
johnson
joiosa
jojia
jon
jonavos
jorge
jos
jose
josef
joseph
jouan
jp
jpg
jr
jude
judicial
juic
julae
juli
julia
july
jun
juneau
justice
justin
k
kabsikam
kaekae
kaen
kahlo
kaikai
kakae
kakai
kakao
kala
kalifornia
kalja
kalkot
kam
kamaot
kamel
kamtru
kan
kanada
kansas
kantri
kaontri
kaontris
kapis
kapital
kapitol
kaptel
karem
karen
karibin
kasakstan
kasem
kastom
kat
katalan
katalonia
katem
katolik
kava
keegan
kelly
kemistri
kentucky
kevin
ki
kiai
kilim
kilman
kim
king
kingdom
kirgistan
kitahara
klaem
klin
klos
klosap
km
knowles
ko
kodamaito
kokonas
kolem
kolosap
kompit
komposisen
kompost
kon
konektikat
kong
kongo
konstantin
konstitusen
kontinen
kontras
kook
kopi
kopra
koria
korin
kosta
kr
kraes
kras
kreager
krietiv
krin
kriol
kris
krismas
kristaniti
kristin
kroasia
ktx
kuba
kuk
kukum
kumala
kunkel
kuro
kurosawa
kween
kwerrya
l
la
lacrampe
lady
laef
laefkoja
laekem
laen
lafet
laif
laikem
laksembog
lanem
language
languages
langwis
lansing
lanwis
laplap
las
lata
late
latin
latvia
latvian
lavigne
law
lawrence
le
leave
lef
left
leg
legislative
leipzig
leji
lek
lem
lemon
leo
leonard
leonardo
les
less
li
lia
lida
liechtenstein
lif
life
likem
lincoln
linda
line
linegrey
lingua
linguistic
linguistics
lingwis
lini
link
links
litorasa
little
litwania
liu
live
lloyd
llui
lo
local
lojik
lokol
london
long
longfala
longtaem
lord
los
lou
louis
louisiana
love
lu
luganville
luis
luk
lukaotem
lukim
lukluk
luksave
lulu
luther
luxembourg
lv
m
ma
mackie
macron
madagaskar
madison
maen
mahfouz
mai
main
maj
mak
makem
maket
malakula
malampa
malekula
mali
mallorca
mama
man
mancha
mane
mangarisu
mani
manioc
maniok
manples
mao
map
mar
marcel
march
marco
mared
margaret
maria
marie
marino
marion
mark
market
marlene
martin
mary
maryland
mas
masaki
masayoshi
masedonia
masin
massachusetts
mat
matarine
mataskelekele
matematikis
mattarella
may
me
meat
medel
medisin
mei
mekem
meksiko
melanesia
melek
melekem
memba
men
metal
mexico
mi
mianma
michael
michał
michelangelo
michigan
mifala
mike
mikelanjelo
miki
milena
milian
milien
milion
million
mimar
minami
minista
minister
minnesota
mississippi
missouri
mit
miura
miusik
miusikoloji
miyazawa
mo
moa
model
modern
moines
moldova
molie
molta
momoi
momoka
momoko
momon
monaco
monako
monarch
money
monroe
montana
montaner
monte
montenegro
montgomery
more
mormon
moronae
mos
mosbi
moskow
mozart
mr
mu
muhammed
mun
mundo
museum
music
muvi
my
n
na
naef
naejiria
naen
naguib
nail
nakamal
nakanamanga
nakatampol
namambe
namba
nambatri
nambatu
nambawan
name
nangai
nao
napoleong
nara
narafala
narawan
naruhito
nashville
nasonal
natapoa
national
nationale
naus
nauvu
navara
ne
nebraska
nech
nem
nepal
neselan
nesen
net
netherlands
nevada
nevis
new
news
nha
nic
nice
nicolas
nicole
nid
nikaragwa
niu
niugini
niusilan
niutesteman
nm
no
nobel
nogat
nogud
nomata
nomo
nos
not
notis
notwes
nova
novaehollandiae
novemba
november
nowei
nueva
nut
o
obama
oceanic
oda
odinens
of
ofisol
oganaesesen
ogis
ohaeo
ohio
oil
ois
oklahoma
oktoba
oktomba
ol
olbaot
old
olfala
olgeta
oli
olsem
olsemia
oltaem
on
one
ono
open
opera
or
oregon
org
orientation
orthographic
osasco
osenia
ostrelia
ostria
ova
oven
p
pablisim
pablo
pacific
pacificus
pages
palamen
palau
palestrina
palma
palp
panama
pandanas
pandanus
panorama
panoramio
paoa
papa
papua
paris
park
party
pasifik
pat
pati
patricia
paul
paulo
peanut
pedro
pej
pem
penama
pennsylvania
pentecost
pentem
pentikos
people
pepa
per
period
persia
peru
peter
peterburg
ph
philip
philippines
phoenix
php
phraya
piaf
picasso
pierre
pig
pija
pijin
pikinini
pipol
pis
pisin
pitja
plan
planem
plant
plante
plate
player
plaza
plei
plenet
pleple
ples
plet
pleya
plotarea
plotdata
png
poe
poem
poesie
poet
polan
polanbol
poland
politik
politikis
polska
pop
popiula
popiular
popo
populaesen
populesen
por
pornografi
port
porter
portrait
portugal
potugol
praem
prague
pramoj
premi
presen
presiden
presidens
president
prince
prins
printim
prishud
prize
prodiusa
profet
project
projection
provens
providence
provins
ptilinopus
pua
puffinus
pulum
puscat
putum
px
pythagoras
q
qin
quam
que
quijote
r
rabindranath
rabis
racontas
raef
raep
raet
raeta
raetem
rafael
rai
ramon
raon
raphael
rard
rasia
ray
re
rebecca
red
redi
redirect
reed
refrens
relijin
relwei
renaissance
republic
republican
republika
resevem
reus
reva
review
rgb
rhode
ri
ria
richard
ridim
rie
riga
right
rij
rijon
rika
rilijin
rina
rio
ripablik
risos
rita
rivera
ro
robert
rock
rod
roger
romania
rome
romijn
rompasso
ron
ronald
ronaldo
rong
roosevelt
rouge
round
rquez
ru
rubens
rusia
rusum
s
sa
sacramento
saed
saens
saentis
saepras
saes
saet
sagrada
saint
sait
saki
sakura
salem
salmo
salvado
salvador
salwai
sam
samfala
samples
samtaem
samting
samuel
samwe
san
sanbij
sandlewood
sandra
sanma
santa
santiago
santo
santos
saon
saot
saotis
saotsaot
saotwes
sapos
sapotem
saratamata
sasaki
sato
saut
save
sayaka
scalemajor
schnell
school
schubert
se
sebia
sejong
sel
self
sem
sen
senjuri
sent
senta
sentrol
senturi
seoul
septemba
septembre
seraot
serbia
sercha
sergio
sevem
seven
shakespeare
shanghai
shape
shefa
shi
shift
shinawatra
shiratori
shqipe
si
sid
side
sidni
sigal
sik
sikis
siling
silva
simbol
simpol
sin
sinan
singa
singaotem
singer
singsing
sint
sipos
sir
siria
sistem
siti
skenderovic
skin
skrasem
skul
skulpja
skwisim
slef
slovakia
slovenia
smalfala
smit
smith
smol
smolfala
smolsmolfala
so
sol
sola
solomon
solwota
somare
somfala
son
sop
sophia
sosaeti
sot
south
spain
spanish
species
spen
spencer
spesel
spirit
spos
spot
springfield
sr
st
sta
stadi
stael
staka
stamba
stampa
staon
stap
starset
start
stat
state
statem
stefan
stej
stephen
stesen
stet
steven
still
stockholm
ston
stopem
stori
storian
story
stret
string
strong
studens
studies
style
sudan
suicide
suka
sukaken
summers
sung
sup
sur
surinam
suriname
susut
suzuki
sw
sweden
sweet
swiden
swim
swiselan
swit
switzerland
syllable
t
tabu
taelan
taem
tafea
taft
taim
takahashi
take
takem
takeo
talem
talemaot
taliban
talking
tallahassee
tanaka
tanis
tanna
taon
taosen
tarnovo
taro
taswe
taylor
tchaikovsky
te
team
ted
tede
tedei
tekem
teki
telegraph
televisen
television
tempol
ten
tennessee
tequixquiac
teritori
tete
texas
text
textbooks
th
thailand
the
theodore
theory
this
thomas
thumb
thumbnail
tid
tija
tijim
tijing
till
tim
time
timeaxis
times
ting
tingting
tlacote
to
tobago
toga
tok
tokbaot
tokio
tokples
toktok
tolstoy
tom
tongoa
top
topeka
torba
torres
traductet
traem
trang
transfermarkt
transletem
travel
tre
tree
trenton
tres
tresor
tri
trifala
trinidad
trink
tritmen
tru
truiden
trump
tu
tufala
tukmenistan
tul
tumas
turis
turist
turkey
tut
tv
twain
twitter
two
tyler
tyndale
tyto
u
uk
ukraine
ulsan
umar
umi
un
unaeted
unit
unity
university
up
upright
urugwae
us
usa
usem
usum
v
valencian
valletta
value
van
vanuatu
vatican
vegas
veliko
vella
veneswela
venezuela
verdaguer
veri
vermont
vertical
vicens
video
videoblog
vidio
vienna
vietnam
vignola
vila
vilej
village
vilnius
vinci
virginia
visen
vladimir
voes
vois
volcano
volibol
volkeno
von
vulgate
w
waet
walter
wan
wanem
wantaem
wantem
wanwan
warhol
warren
warsaw
wasem
washington
water
way
wayne
we
wea
web
weh
wei
werner
wes
west
wetem
white
width
wijwan
wikimedia
wikipedia
william
wilson
win
winim
winston
with
wivim
wo
wok
wokem
wokman
wol
wolfgang
woman
wora
wordlist
world
worldstatesmen
wota
wraeta
wright
wud
wuman
www
x
xcritic
xi
xx
y
ya
yam
yang
yasur
year
yelo
yet
yia
yias
york
you
young
youtube
yu
yufreres
yukren
yumi
yun
yunaeted
yunivesiti
yuriko
yurop
yus
yusa
yusum
yut
yyyy
z
zilan
|
}
~
²
·
×
ˈ
̀
́
̂
̃
̄
̆
̇
̈
̌
̓
̔
̣
̦
̧
̨
͂
͡
α
ε
λ
ο
ς
в
и
република
ا
ٓ
ं
क
ज
त
द
न
प
ब
भ
य
ल
स
ह
ा
ि
ी
ु
्
ং
ক
ঠ
থ
দ
ন
ব
র
ল
শ
া
ী
ু
ে
্
ส
ิ
ี
์
‎
–
—
‘
’
“
”
…
↔
↷
−
③
④
⑦
☉
☾
⺀
⺄
⺆
⺈
⺊
⺌
⺕
⺝
⺸
⺼
⿰
⿱
⿲
⿳
⿴
⿵
⿶
⿷
⿸
⿹
⿺
⿻
〢
お
り
゙
イ
コ
タ
ト
マ
ユ
㇁
㇂
㇄
㇇
㇈
㇉
㇓
㐁
㐄
㐅
㐌
㐫
㐬
㐭
㐮
㐱
㑒
㒵
㒸
㒼
㓁
㓞
㔾
㕛
㕣
㖾
㘝
㚅
㚇
㚔
㚘
㝉
㝡
㝴
㝵
㞋
㞢
㞷
㠩
㠭
㠯
㡀
㡭
㡿
㢲
㢴
㣇
㣺
㥯
㪅
㫄
㫐
㫒
㫺
㬅
㬎
㬥
㬰
㲋
㳄
㷠
㸒
㸚
㸦
㼌
㼲
㽞
㿟
䀠
䂞
䍃
䏍
䒑
䖍
䖒
䖝
䖵
䙴
䚻
䜌
䝿
䡛
䧹
䪞
一
丁
丂
七
丄
丅
丆
万
丈
三
上
下
丌
不
与
丏
丐
丑
专
且
丕
世
丘
丙
业
东
丞
丢
丣
两
严
並
丨
丩
个
丫
丬
中
丮
丰
丱
串
丵
丶
丷
丸
丹
为
主
丽
丿
乀
乂
乃
久
乆
乇
么
义
之
乌
乍
乎
乏
乐
乑
乔
乖
乗
乘
乙
乚
乛
乜
九
乞
也
习
乡
乳
乾
亀
亅
了
亇
予
争
事
二
亍
于
亏
亐
云
互
亓
五
井
亘
亚
亜
亞
亟
亠
亡
亢
交
亥
亦
产
亨
亩
享
京
亭
亮
亯
亰
亲
亳
亶
亷
人
亻
亼
亾
仁
今
介
仌
从
仐
仑
仒
仓
仕
他
付
仝
代
令
以
任
企
伊
伏
伐
休
会
伯
但
位
何
佘
余
作
佥
使
來
侈
侌
侖
侯
侵
便
保
俞
信
修
倉
倍
候
倠
備
僉
僕
儿
兀
允
兂
元
兄
充
兆
兇
先
光
兊
克
兌
免
兑
兒
兓
兔
党
兜
兟
入
全
兩
兪
八
公
六
兮
兰
共
关
兵
其
具
典
兹
兼
冀
冂
冃
冄
内
冈
冉
冊
冋
册
再
冎
冏
冐
冒
冓
冖
冗
冘
军
农
冝
冡
冥
冫
冬
冷
几
凡
凢
凵
凶
凷
凸
凹
出
函
凾
刀
刁
刂
刃
刄
刅
分
切
刍
刑
刕
刖
列
刘
则
初
別
利
别
到
制
刺
則
削
剌
前
剡
剽
劉
力
功
加
劦
助
劫
劳
劵
勃
勇
勉
勒
動
務
勞
勤
勹
勺
勻
勾
勿
匀
匂
包
匆
匈
匊
匋
匍
匕
化
北
匚
匝
匡
匪
匱
匸
匹
区
医
匽
匿
區
十
卂
千
卄
卅
卆
升
午
卉
半
卌
华
卑
卒
卓
单
卖
南
卜
卝
卞
占
卡
卢
卣
卤
卦
卩
卪
卬
卯
印
危
即
却
卵
卷
卸
卻
厂
厃
厄
历
厈
厉
厌
厓
厘
厚
原
厤
厥
厨
厭
厲
厶
厷
厸
去
厼
厽
叀
参
參
叅
又
叉
及
友
双
反
叐
发
叒
叔
叕
取
受
叚
叜
叟
口
古
句
另
叩
只
召
可
台
叱
史
右
叵
号
司
叹
吂
各
吅
合
吉
吊
吋
同
名
后
吏
向
吕
君
吝
吞
否
含
启
吳
吴
吹
吾
呂
呆
呈
告
员
呙
周
命
咅
和
咎
咠
咢
咨
咸
咼
哀
品
哉
員
哥
哲
唐
商
啇
問
啚
啬
啻
善
喜
喬
單
喿
嗇
噩
嚴
囊
囗
囘
囙
囚
四
回
囟
因
囧
囬
困
囱
囷
固
国
圂
圅
國
圍
圓
土
圡
圣
圥
在
圭
地
圶
圼
坐
坒
坚
坴
垂
垔
垚
埀
埋
域
埶
執
基
堂
堅
堆
堇
堯
塞
墨
壘
士
壬
壮
壯
声
壳
壴
壹
壺
壽
夂
处
夅
夆
备
夊
夋
夌
复
夏
夒
夕
外
夗
夘
多
夜
夢
大
夨
天
太
夫
夬
夭
央
失
夲
头
夷
夸
夹
夻
夾
奂
奄
奇
奈
奉
奎
奏
奐
契
奓
奔
奚
奞
奠
奢
奥
奭
女
奴
奻
好
如
妄
妙
妟
妥
妻
妾
姑
委
姜
威
娄
婁
婴
嬰
嬴
子
孑
孔
孕
孖
字
存
孚
孛
孝
孟
季
孤
学
孫
孱
學
宀
宁
宂
它
宅
宇
守
安
宋
完
宏
宓
宗
官
定
宛
宜
宝
客
宣
室
宮
宰
害
家
容
宾
宿
寄
寅
密
富
寒
察
寧
審
寫
寬
寮
寸
对
寺
寻
寽
対
寿
封
尃
射
将
將
專
尉
尊
尋
尌
對
小
少
尒
尓
尔
尖
尗
尚
尞
尢
尣
尤
尧
尨
尭
就
尸
尹
尺
尻
尼
尽
尾
尿
局
居
屈
屋
屎
屏
屑
展
屖
屚
属
屠
屡
屬
屮
屯
屰
山
屵
屾
岁
岂
岑
岡
岩
岳
岸
峯
島
崇
崑
崔
崖
崙
崩
嵬
嶲
巂
巛
川
州
巟
巠
巢
巤
工
左
巧
巨
巩
巫
差
己
已
巳
巴
巷
巸
巽
巾
巿
帀
市
布
师
希
帚
帛
帝
带
師
席
帶
常
干
平
年
幵
并
幷
幸
幺
幻
幼
幽
幾
广
広
庄
床
底
店
庚
府
度
庫
庭
庶
康
庸
廉
廌
廛
廣
廩
廴
延
廷
建
廾
廿
开
弁
弃
弄
弇
弋
式
弓
弔
引
弗
弘
弜
弟
弥
弦
弱
張
強
强
彊
彌
彎
彐
彑
当
彔
录
彖
彗
彡
形
彥
彦
彧
彭
彳
役
彼
往
待
律
徒
得
徙
從
復
微
徵
心
忄
必
忌
忍
志
忝
忠
忩
快
念
忽
忿
思
怠
急
怱
恆
恒
恩
恭
息
悉
患
悤
悲
悶
惠
惡
惢
愁
愈
意
愛
感
慈
慧
慮
憂
憲
應
戀
戈
戉
戊
戋
戌
戍
戎
成
我
戒
戔
或
戚
戠
戢
截
戲
戶
户
戹
戼
戾
房
所
扁
扇
手
扌
才
打
托
执
承
折
拉
拜
拿
掌
推
提
摩
支
攴
攵
收
攸
改
放
政
敄
敏
敕
敖
敗
敝
敞
敢
散
敦
敫
敬
数
敷
數
斂
文
斉
斊
斎
斗
斤
斥
斩
斬
斯
新
方
於
施
斿
旁
旋
族
无
旡
既
旣
日
旦
旧
旨
早
旬
旱
旲
时
旾
昆
昇
昊
昌
昍
明
昏
易
昔
昗
昜
星
春
昬
是
昱
昴
昷
時
晃
晋
晏
普
景
晶
智
暑
暴
曇
曩
曰
曲
曳
更
曷
書
曹
曼
曾
替
最
朁
會
月
有
朋
服
朔
朕
朗
望
朝
木
朩
未
末
本
札
朮
术
朱
朵
朶
朿
杀
杏
杜
束
条
来
東
杲
杳
松
析
林
枚
果
枝
枲
枼
某
柔
查
柬
柰
柴
栗
桀
桂
桑
桼
梁
條
梟
梨
棘
棠
棥
森
楚
業
楽
榮
樂
樊
欠
次
欣
欮
欲
欶
欽
款
歆
歇
歛
止
正
此
步
武
歨
歪
歮
歯
歰
歲
歴
歷
歸
歹
歺
死
殳
段
殷
殸
殹
殺
殻
殿
毋
毌
母
每
毒
比
毕
毚
毛
毳
氏
氐
民
气
氣
水
氵
氶
氷
永
氺
氾
求
汝
汞
江
沃
沓
沙
沝
泉
法
波
泣
泥
泰
洛
洪
活
派
流
浦
浪
浮
淡
淮
清
渚
渠
湯
滿
漸
火
灬
灭
灰
灵
灷
炅
炎
炏
炗
炙
炭
為
烈
烏
烝
焉
無
焦
焱
然
煞
熊
熏
熹
燕
營
燮
爪
爫
爭
爯
爰
爱
爲
爵
父
爻
爽
爾
爿
片
牙
牚
牛
牜
牟
牢
牧
牪
牽
犀
犬
犭
犮
狂
狄
狊
独
狺
猋
猒
猪
献
獻
玄
率
玉
王
玟
玨
珎
班
琴
瑟
瑩
瓜
瓦
甘
甚
生
産
用
甫
甬
田
由
甲
申
电
甶
男
甸
甹
画
甾
畀
界
畏
畐
留
畜
畟
畢
畧
畨
番
畫
異
畱
當
畺
畾
疊
疋
疌
疑
疒
疾
癶
癸
癹
登
發
白
百
皀
皃
的
皆
皇
皋
皐
皕
皮
皷
皿
盃
盆
盇
盈
益
盍
盎
监
盒
盖
盛
盡
監
盤
盧
目
直
相
盾
省
眇
眉
看
眔
眞
真
眷
眼
眾
着
睘
睪
睿
瞏
瞢
瞿
矍
矛
矞
矢
矣
知
矦
短
石
破
碎
磊
磨
示
礻
礼
祟
票
祭
禀
禁
禸
禹
禺
离
禽
禾
禿
秀
秃
秉
秋
科
秝
秦
移
稟
穀
穌
穴
究
穹
空
穿
突
窄
窒
立
竒
竜
竝
竟
章
童
竹
笑
笠
筆
等
答
箕
算
箴
節
篤
篭
米
粉
粛
粟
粤
粦
粲
糞
糸
糹
系
約
納
純
素
索
紫
累
細
絜
絫
絲
維
綿
緒
縣
繇
纍
纟
缶
网
罒
罔
罕
罗
罙
罡
罢
罪
署
罷
羅
羊
羌
羍
美
羔
羕
羗
羞
羡
羣
群
義
羲
羸
羽
翁
翏
習
翕
翟
翠
翼
老
耂
考
者
耆
而
耎
耑
耒
耳
耴
耶
耷
聂
聊
聖
聚
聶
聿
肀
肃
肅
肉
肖
肙
肥
肩
肯
育
肴
胃
背
胡
胥
能
脊
脩
膚
臣
臤
臧
自
臬
臭
臯
臱
至
致
臺
臼
臽
臾
臿
舀
舂
舄
與
興
舉
舌
舍
舛
舜
舞
舟
般
艮
良
色
艸
艹
艾
芒
芔
芬
芭
芮
花
芳
芺
芻
苔
苗
苟
若
苦
英
茶
茸
荅
草
荒
荣
荼
莆
莧
莫
莽
菆
菊
菐
華
萬
落
葉
著
葛
董
葵
蒙
蒦
蒼
蓋
蓬
蓺
蔑
蔡
蕉
蕭
薄
薛
薦
薰
藍
藏
藥
蘭
虍
虎
虐
虒
虔
處
虖
虗
虘
虚
虛
虜
虞
虫
虽
蚤
蚩
蜀
蜜
蟲
蠡
血
行
衍
衛
衣
衤
表
衮
衰
袁
袞
褭
褱
襄
襾
西
覀
要
覃
見
規
覓
覧
親
覽
见
角
解
言
訁
訇
計
詹
誩
諸
讠
谷
豆
豈
豊
豐
豕
豖
豙
象
豦
豩
豪
豸
貇
貝
貞
貟
負
貢
貧
貪
貫
責
貳
貴
買
費
賁
資
賈
賏
賓
賔
賛
賞
賢
賣
質
賴
贊
贝
贡
责
贯
贲
贵
赖
赞
赤
赦
走
越
足
路
蹇
身
躬
車
軍
軎
軟
輦
车
辛
辜
辟
辥
辰
辱
農
辵
辶
边
达
过
近
连
迷
追
退
送
逆
逐
通
速
造
逢
連
逮
進
遀
遂
過
道
達
遣
適
遷
遺
邊
邑
邕
那
邦
邪
郎
部
郭
都
鄉
酉
酋
配
酓
釆
采
里
重
野
量
金
釒
錢
钅
長
镸
长
門
閃
閉
開
閏
閑
閒
間
閔
閵
閻
闌
门
间
闷
阑
阜
阝
阿
降
陳
隆
隊
隋
隡
隨
隱
隶
隹
隺
隻
隼
隽
难
雀
雁
集
雈
雋
雍
雐
雔
雙
雚
雜
雝
離
難
雨
雩
雪
雲
零
雷
需
霍
霜
霝
霞
霸
靈
靑
青
非
靡
面
靣
革
韋
韦
韭
韯
韱
音
頁
頃
項
須
頗
頡
頻
顛
页
風
风
飛
飞
食
飠
飾
養
饣
首
香
馬
馮
駦
马
骨
高
髟
鬥
鬯
鬲
鬼
魚
魯
鮮
鱼
鲁
鳥
鳳
鸟
鹵
鹿
麃
麗
麥
麦
麻
黃
黄
黍
黎
黑
黒
黨
黹
黽
黾
鼎
鼓
鼠
鼻
齊
齋
齐
齒
齿
龍
龙
龜
龟
龠
龰
龱
龴
龵
龶
龷
龸
龹
者
艹
？
🜨
𠀁
𠀃
𠀆
𠀉
𠀎
𠀐
𠁁
𠁣
𠂆
𠂇
𠂈
𠂉
𠂊
𠂋
𠂎
𠂒
𠂔
𠂛
𠂡
𠂢
𠂤
𠂬
𠂭
𠂹
𠃊
𠃋
𠃌
𠃍
𠃎
𠃑
𠃓
𠃔
𠃜
𠄌
𠄎
𠄠
𠄢
𠆢
𠆥
𠇍
𠈌
𠌵
𠓜
𠔉
𠔥
𠔼
𠔽
𠔿
𠕀
𠕁
𠕋
𠘧
𠘨
𠙻
𠙼
𠚏
𠚒
𠚤
𠚪
𠣏
𠤎
𠤕
𠥓
𠦄
𠦑
𠦝
𠧒
𠧗
𠧪
𠩺
𠪚
𠫓
𠫔
𠫤
𠬛
𠬝
𠬞
𠬢
𠬤
𠬶
𠮛
𠮦
𠮷
𠯑
𠱠
𠳮
𠷎
𡈼
𡉀
𡉵
𡌥
𡍮
𡏳
𡕒
𡕩
𡕰
𡖅
𡗗
𡗜
𡘆
𡘤
𡧱
𡨄
𡩧
𡬠
𡭽
𡰣
𡰥
𡰪
𡰯
𡰱
𡷈
𡸁
𡿨
𡿩
𡿪
𡿺
𢀖
𢀛
𢀩
𢁙
𢆉
𢆰
𢆶
𢇁
𢇇
𢉖
𢌬
𢌿
𢏚
𢑑
𢑚
𢖻
𢙣
𢛳
𢦏
𢦒
𢧵
𢼄
𢾕
𣁋
𣄼
𣅀
𣅽
𣍘
𣎳
𣎵
𣏋
𣏼
𣗥
𣥂
𣥖
𣦵
𣦼
𣧄
𣪊
𣪠
𣬉
𣳾
𣶒
𤇾
𤊽
𤐫
𤓰
𤔔
𤕨
𤣩
𤰇
𤰔
𤰞
𤴓
𤴔
𤽄
𥁑
𥁕
𥃦
𥃩
𥃭
𥇡
𥑟
𥘅
𥘈
𥝢
𥫗
𥱡
𦈢
𦉪
𦉬
𦉼
𦍌
𦍒
𦎧
𦐇
𦓔
𦔮
𦘒
𦙃
𦚏
𦣝
𦣞
𦣻
𦥑
𦥔
𦥯
𦨉
𦭝
𦰩
𧆞
𧈧
𧘇
𧰨
𧴪
𧴮
𧵩
𧾷
𨸏
𨾴
𩙿
𩠐
𩫏
𩵋
𪉷
𪜀
𪟽
𪠲
𪩲
𫇦
𫔭
𫜸
𫝀
𫠣
𫠩
𫢉
𫥞
𫩏
𫩠
𫪡
𫲽
𫶧
𬀷
𬐘
𬗌
𬙙
𬛸
𬜯
𬟩
𬯁
𬴘
𬺻
𬼉
𬼖
𭀰
𭁈
𭁨
𭅰
𭑈
𭕄
𭗼
𭤨
𭥫
𭻾
𮅕
𮊿
𮍌
𮍏
𮓗
𮥼
𮧮
廾
𰀁
𰀄
𰀈
𰀉
𰀕
𰀠
𰀡
𰀢
𰀪
𰁜
𰃮
𰆊
𰆘
𰋙
𰕎
𰢴
𰧭
𰯲
0--
05--
10--
12--
13--
14--
15--
16--
17--
18--
3--
4--
5--
6--
7--
8--
9--
a--
ab--
ac--
ad--
adul--
ae--
ag--
ai--
ak--
aki--
al--
alex--
an--
ander--
anti--
ao--
ar--
are--
ari--
as--
ash--
asso--
at--
au--
austr--
b--
ba--
ban--
bangla--
bapt--
be--
bel--
ber--
bi--
big--
bis--
bl--
bo--
br--
brig--
bro--
bu--
bun--
c--
ca--
cal--
can--
cap--
car--
cere--
ch--
chi--
chu--
ci--
co--
col--
con--
cont--
cor--
cre--
cri--
cu--
d--
da--
de--
di--
dig--
dis--
div--
do--
doo--
dra--
du--
dy--
e--
ed--
ei--
eisen--
ek--
elek--
em--
en--
es--
esp--
eu--
evol--
ex--
f--
fa--
fae--
fe--
fer--
fi--
fil--
fluvg--
fo--
fol--
font--
fr--
fri--
fu--
fuj--
fuku--
g--
ga--
gab--
gali--
gam--
gar--
ge--
gen--
ger--
gi--
gil--
go--
gr--
gra--
gradu--
gram--
gre--
gu--
h--
ha--
har--
has--
hav--
hay--
haya--
he--
hi--
histo--
ho--
holi--
hor--
hu--
i--
id--
ik--
il--
im--
in--
indip--
ing--
ink--
inv--
ire--
is--
it--
j--
ja--
je--
jen--
jer--
ji--
jo--
jor--
jour--
ju--
k--
ka--
kai--
kal--
kaon--
kar--
kat--
ke--
ken--
kh--
ki--
kiyo--
ko--
kom--
kor--
kr--
ku--
kul--
kuri--
kuw--
l--
la--
le--
len--
lev--
li--
lit--
lo--
lu--
ly--
lyn--
m--
ma--
mad--
mal--
mat--
mau--
me--
mel--
mes--
mi--
mich--
mikh--
mil--
mo--
mon--
mor--
mu--
mur--
n--
na--
naka--
nap--
nat--
ne--
ni--
nic--
niko--
no--
nor--
nu--
o--
of--
ok--
ol--
or--
ot--
out--
ov--
p--
pa--
pan--
par--
para--
pas--
pe--
pen--
per--
pet--
ph--
pho--
pi--
pie--
po--
posi--
pr--
pri--
princi--
pro--
prote--
pu--
publi--
py--
qu--
r--
ra--
re--
repu--
rev--
ri--
rin--
ro--
rou--
ru--
rud--
s--
sa--
sap--
sar--
sau--
sc--
sca--
sch--
sci--
se--
sea--
sec--
sem--
ser--
sev--
sh--
she--
si--
sk--
so--
sol--
som--
sp--
st--
su--
sw--
syst--
t--
ta--
tak--
tal--
tan--
te--
tek--
test--
th--
tha--
ti--
to--
ton--
tor--
tr--
tra--
trans--
trav--
tru--
tsu--
tu--
tur--
u--
un--
uni--
v--
va--
vel--
ven--
ver--
vi--
vic--
vin--
vis--
vo--
w--
wa--
wan--
we--
wel--
wh--
wi--
wil--
wit--
wo--
wok--
wood--
xi--
y--
ya--
yo--
yoko--
yu--
z--
za--
zel--
zor--
--0
--00
--000
--1
--2
--3
--33
--4
--40
--44
--46
--5
--56
--58
--6
--60
--68
--69
--7
--72
--73
--77
--8
--82
--83
--9
--94
--a
--ach
--acio
--ada
--ae
--ais
--ak
--aki
--al
--ala
--am
--an
--ana
--ani
--ano
--ao
--ap
--ar
--ara
--ard
--ark
--aro
--ary
--as
--at
--ation
--ava
--awa
--ay
--b
--bag
--bi
--bia
--ble
--bo
--c
--ca
--ce
--ch
--cia
--ck
--co
--ct
--cy
--d
--da
--do
--ds
--du
--dum
--dy
--e
--ea
--ed
--ei
--ek
--el
--em
--en
--ens
--ent
--ep
--er
--ers
--es
--ese
--esen
--esi
--et
--eu
--ev
--eve
--ey
--f
--g
--ga
--ge
--ght
--gi
--go
--h
--ha
--hara
--he
--her
--hi
--ht
--i
--ia
--ial
--ic
--ica
--ick
--ics
--ie
--if
--ij
--ijan
--ik
--im
--in
--ina
--ine
--ing
--io
--ion
--ip
--iro
--is
--iti
--ity
--ium
--iz
--j
--ja
--ji
--k
--ka
--kawa
--ke
--ker
--ki
--kins
--ko
--kos
--ks
--ku
--l
--la
--land
--le
--les
--li
--lin
--ll
--lle
--lly
--ls
--lt
--ly
--m
--ma
--mad
--man
--mi
--my
--n
--na
--nce
--nd
--nda
--ndo
--ne
--ng
--ni
--nia
--nie
--nija
--ning
--nk
--nn
--ns
--nt
--nta
--num
--ny
--nzo
--o
--oa
--od
--ok
--ol
--om
--omi
--on
--ong
--ons
--or
--os
--ot
--oto
--ouf
--ov
--ovic
--ow
--p
--pim
--po
--pol
--pu
--r
--ra
--rah
--ral
--rd
--rdt
--re
--rem
--rg
--ri
--rick
--rik
--rn
--ro
--rs
--rt
--ry
--s
--sa
--se
--ses
--sh
--si
--sky
--so
--ss
--st
--su
--suo
--t
--ta
--tao
--te
--tem
--ter
--ters
--tes
--th
--ti
--tion
--to
--ton
--try
--ts
--ty
--u
--ua
--uel
--uke
--ul
--um
--un
--und
--uo
--up
--ur
--ura
--ures
--urs
--us
--ut
--v
--va
--ve
--vem
--ver
--ves
--vic
--vo
--w
--wa
--wan
--we
--wn
--wska
--x
--y
--ya
--yo
--z
--ze
--zio
--zo
--я
--ја
