!
"
#
##0
##1
##10
##11
##12
##13
##14
##15
##16
##17
##18
##19
##2
##20
##21
##22
##23
##24
##25
##26
##27
##28
##29
##3
##30
##31
##32
##33
##34
##35
##36
##37
##38
##39
##4
##40
##41
##42
##43
##44
##45
##46
##47
##48
##49
##5
##50
##51
##52
##53
##54
##55
##56
##57
##58
##59
##6
##60
##61
##62
##63
##64
##65
##66
##67
##68
##69
##7
##70
##71
##72
##73
##74
##75
##76
##77
##78
##79
##8
##80
##81
##82
##83
##84
##85
##86
##87
##88
##89
##9
##90
##91
##92
##93
##94
##95
##96
##97
##98
##99
$
%
&
'
(
)
*
+
,
-
.
/
0
00
000
0001
000161804
001
002
004
005
007
009
01
010
012
013
014
016666666666666666
019
02
020
021
023
027
028
03
030
033
034
038
039
04
040
044
047
05
050
051
053
054
05585262
056
06
060
068
07
070
072
073
077
08
084
085
086
09
090
092
095
096
098
1
10
100
1000
10000
100000
1000000
1000000000
1002
1003
1007
101
101325
102
103
104
1046
105
1054
1055
1055055
106
107
108
1080
109
11
110
111
112
1129848290276167
113
114
115
116
117
118
1185
119
1198
12
120
1200
121
12148
122
123
1234
123898
124
125
126
127
1276
1279
128
129
13
130
1300
1303
131
132
133
1337
134
135
136
1368
137
138
139
14
140
1400
141
142
143
144
145
1458
146
147
148
149
1492
15
150
1500
1503
1505
1507
151
1512
1514
1519
152
1521
153
154
155
1555
156
1563
157
1572
158
1582
1585
1586
159
1590
16
160
1600
1602
1603
1605
1609
161
1610
1619
162
1620
1621
1622
1623
1627
163
1630
164
1643
1644
165
1652
166
1660
1661
1664
1666
167
1670
1675
168
1681
1683
169
17
170
1700
1707
171
172
1722
1728
173
174
1740
175
176
1760
177
178
1781
1782
1783
1787
1789
179
1790
1792
1793
1795
1796
1797
1799
18
180
1800
1801
1802
1807
1809
181
1812
1813
1815
1817
1818
1819
182
1820
1821
1823
1824
1825
1829
183
1830
1831
1832
1834
1835
1837
1839
184
1840
1841
1842
1844
1845
1846
1847
18474
1849
185
1850
1851
1852
1853
1854
1855
1856
1857
1858
1859
186
1860
1861
1862
1863
1864
1865
1866
1867
1868
1869
187
1870
1871
1872
1873
1874
1875
1876
1877
1878
1879
188
1880
1881
1882
1883
1884
1885
1886
1887
1888
1889
189
1890
1891
1892
1893
1894
1895
1896
1897
1898
1899
19
190
1900
1901
1902
1903
1904
1905
1906
1907
1908
1909
191
1910
1911
1912
1913
1914
1915
1916
1917
1918
1919
192
1920
1921
1922
1923
1924
1925
1926
1927
1928
1929
193
1930
1931
1932
1933
1934
1935
1936
1937
1938
1939
194
1940
1941
1942
1943
1944
1945
1946
1947
1948
1949
195
1950
1951
1952
1953
1954
1955
1956
1957
1958
1959
196
1960
1961
1962
1963
1964
1965
1966
1967
1968
1969
1970
1971
1972
1973
1974
1975
1976
1977
1978
1979
198
1980
1981
1982
1983
1984
1985
1986
1987
1988
1989
199
1990
1991
1992
1993
1994
1995
1996
1997
1998
1999
2
20
200
2000
2001
2002
2003
2004
2005
2006
2007
2008
2009
2010
2011
2012
2013
2014
201402
2015
2016
2017
201703
2018
2019
202
2020
2021
2022
2024
203
204
2044809344
205
206
207
208
209
21
210
211
212
213
214
215
216
217
218
219
22
220
221
222
223
224
225
226
227
228
229
23
230
2300
231
232
233
234
235
236
237
238
239
24
240
241
242
243
244
245
246
247
248
249
25
250
2500
251
252
253
254
255
256
257
258
259
26
260
261
262
263
264
265
266
2666
267
268
269
27
270
2700
271
272
273
274
275
276
277
27777777777777779
278
279
28
280
282
283
285
286
2869
287
288
29
290
291
292
293
2937
294
296
297
3
30
300
3000
301
303
304
305
306
308
309
31
310
310890
311
312
313
315
316
3166
316846592
317
318
319
32
320
321
322
323
324
325
326
328
33
330
331
332
333
334
335
336
337
338
33884
339
34
340
341
343
344
345
346
347
348
349
35
350
351
352
353
354
355
3558179483314004
356
357
358
359
36
360
3600
361
362
363
364
365
366
367
368
37
370
371
373
375
376
377
378
379
38
380
383
384
386
387
388
39
390
392
395
397
398
399
4
40
400
4000
401
403
404
405
406
407
408
409
41
410
411
412
414
415
416856
417
418
4184
4184000
4184000000
419
42
420
4217
422
423
425
426
427
428
43
430
431
432
433
434
435
436
438
439
44
440
441
442
443
444
446
448
449
45
450
451
452
453
456
457
458
46
460
461
462
464
465
468
47
470
471
474
47487597
476
478
479
48
480
481
482
483
484
485
486
487
49
490
491
492
494
496
498
49875
499
5
50
500
5000
502
503
504
505
506
507
508
509
51
510
511
512
514
516
52
520
521
523
524
525
526
527
528
529
53
530
531
532
535
5359237
536
537
539
54
540
544
54609
547
548
5483
549
55
550
551
553
554
555
556
557
558
56
560
561
562
563
564
565
566
567
569
57
570
571
574
575
578
579
58
580
581
582
583
586
587
588
58987294928
59
590
591
59237
594
595
597
598
6
60
600
6000
601
602
602176487
603
604
605
606
608
609
61
610
612
614
615
618
619
62
620
621
623
624
625
626
628
629
63
630
634
635
639
64
640
641
642
643
644
647
649
65
650
651
652
654
655
6554
657
658
659
66
660
663
665
666
667
668
67
670
671
672
673
678
68
681
682
683
685
686
687
688
69
690
695
696
698
699
69987158227022
7
70
700
7000
701
702
703
704
705
706
708
71
711
713
715
716
717
718
72
720
721
722
723
73
731
732
733
735
736
737
738
74
740
741
742
743
745
746
747
749
75
750
751
752
753
754
755
756
757
758
76
760
761
762
763
766
767
768
769
77
770
771
772
774
775
776
777
78
780
781
785411784
786
79
790
792
793
795
796
797
798
8
80
800
8000
801
802
803776
804
80665
807
809
81
811
812
813
815
816
817
818
82
820
822
823
824
827
828
829
83
830
8316846592
833
834
835
836
837
84
840
841
842
844
846
848
849
85
850
851
852
85262
853
854
855
858
86
860
8601
861
863
867
868
869
87
870
872
873
874
876
878
88
880
882
884
885
886
88888888
889
89
891
892
895
896
9
90
900
905
907
909
91
910
911
912
913
914
915
917
919
92
921
925
926
928
93
931
93434
935
937
939
94
941
942
943
944
946
95
950
952
955
957
96
960
962
966
97
970
976
977
978
979
98
980
985
986
988
99
990
990921
994
995
996
999
:
;
<
=
>
?
@
\
^
_
a
aa
aaa
aage
ab
abajo
abbaye
abbey
abbr
abbreviate
abbreviated
abc
abdul
abe
aberdeen
abkai
able
ablo
ablon
ablona
ablonas
ablono
abluons
abot
about
above
abovecell
aboveclass
abovestyle
abraham
abruzzi
abruzzo
abs
absolute
abstract
absvalue
abu
ac
academy
acceleration
accent
accenture
accept
acceptable
acceptablecount
acceptableinstanceof
accepted
accepts
access
accessdate
accessed
according
account
ace
aceh
achaemenid
acid
acre
across
act
action
active
actual
actually
ad
adam
adams
add
addcat
addclass
added
adding
additem
addition
additional
addnamed
addon
addpositional
addrow
adds
ade
adeline
adige
adj
adjacent
adjectival
adjust
adjusted
admin
administrative
administrator
administrators
adolf
adriatic
adsur
adygea
ae
aegean
af
afghanistan
african
after
ag
again
against
age
ago
aguila
ah
ai
air
airbus
airdate
aires
airport
ais
ak
akira
al
alabama
alam
alan
alania
albania
albert
alberta
album
alcubilla
alegre
alemanni
alexander
alexandros
alfred
algeria
alias
aliases
aliaseslist
aliasesp
aliasesq
alicante
alighieri
align
alignment
all
allan
allcat
alldone
allen
allier
allnames
alloc
allocator
allow
allowed
allows
allowsmall
almaza
almeri
along
alpes
alpha
alphabet
already
als
alsace
also
alt
altai
alternate
although
altitude
altnames
alto
alttype
altvalue
always
am
amazon
ambox
america
american
amiens
amis
amman
among
amount
amour
amp
amsterdam
amur
an
ana
anakuhi
anastasius
anatolia
anchor
anchorencode
anchorid
anchors
and
andaluci
andaman
andhra
ando
andorra
andre
andrew
android
anfinsen
ang
angela
angeles
angelique
angola
anguilla
animal
ankra
anne
annum
another
ans
ansbach
anthem
anthony
antigua
antilles
anton
antonio
antonius
any
anylang
anylanguage
anything
anzu
ao
aoi
aosta
ap
api
apm
apostrophe
appalaches
appear
appears
append
appended
appends
appendutf
apple
apples
applicable
applied
applies
apply
appropriate
approx
april
aquila
aquitaine
ar
arabic
arabica
aragon
aramaic
arbitrary
arc
arch
architecture
archive
archived
archivedate
archives
archiveurl
ardenne
are
area
arenysdemunt
arg
argc
argentina
argkeys
argp
args
argsi
argsk
argskey
argsparam
argtables
argtableval
argument
arguments
argv
aria
arial
ark
arkhangelsk
armand
armenia
arms
around
arp
array
arrays
arrhenius
arrow
art
arte
arthur
article
articles
artists
arts
aruba
arxiv
arya
arz
as
asan
ascension
ascii
ashikaga
asia
asin
ask
aspx
assam
assemble
assembled
assembleoutput
assert
assign
assigned
assignments
associated
assume
assumed
ast
astrakhan
asturias
at
atayal
athens
atlanta
atlantique
atlas
atm
atmosphere
atms
attempt
attemptorder
attr
attribute
attributes
attrs
atv
au
aubusson
auckland
audio
august
augustus
aurelius
aus
austin
australia
australian
austria
auteurs
author
authority
authorlist
authors
auto
autoconfirmed
automated
automatic
automatically
autoreview
autoscaledimages
autovalue
auvergne
av
available
avar
avignon
avoid
awa
ax
axa
ay
az
azerbaijan
azur
b
ba
baak
baat
baau
babel
babelstone
back
background
backtranslate
backup
backwards
bad
baden
badge
badges
bahamas
bahasa
bahia
bahrain
bahru
bak
bakufu
bali
balinese
balkan
balkar
balkaria
ballade
baltic
bamberg
ban
bananas
band
banff
bang
bangka
bangladesh
bank
banknote
banknotes
banned
banner
banners
bannertemplate
banten
bar
barack
barat
barbados
barbuda
barcelona
bare
baroque
barrel
barrels
barthe
barton
bas
basa
base
based
basel
basestyle
basetext
bashkir
bashkortostan
basic
basilicata
basionym
basionymid
basionyms
basque
bat
bataille
batang
batavi
batavia
bay
bayern
bayubas
bb
bbc
bbl
bc
bce
bcl
bd
bdft
be
beatrix
beautiful
bec
because
become
becomes
bee
been
before
begin
beginning
begins
behavior
behaviour
being
belarus
belfort
belgium
belgorod
belitung
belize
bell
belo
below
belowcell
belowclass
belowstyle
belvedere
ben
benedictus
benefit
bengal
bengkulu
benjamin
berjocht
berkshire
berlin
bern
bernard
bert
berthierville
bertrand
besanc
beside
best
bestchange
bestrank
beststart
beststop
better
between
bf
bg
bh
bharu
bhp
bhutan
bi
biaau
bibcode
bie
big
bigseal
bill
billion
bin
bio
biographies
biography
birdlife
birmingham
birth
birthday
bishop
bissau
black
blacklist
blacklisted
blacklistentry
blair
blanc
blank
blica
block
blocked
bloemfontein
blp
blue
bluff
blurb
blurbobj
blurbs
bm
bmatrix
bms
bn
bnf
bo
board
bob
body
bodyclass
bodyrow
bodystyle
bodywidth
boeing
bohr
bokma
bold
boldface
bolivia
bona
bonaire
bonifacius
book
books
bool
boolean
bordeaux
border
bordered
boris
born
borneo
bosna
bosnia
boston
bot
botanist
both
botswana
bottom
boundless
bourse
box
boxargs
boxes
boxtable
boxtype
bp
bpy
bq
br
bracket
brackets
brandenburg
braun
braunschweig
brazilian
break
breaks
breinigerberg
bride
bridge
brilliance
brisbane
britain
britannica
britanny
british
brittany
brockhaus
broken
bronze
brooklyn
brown
bruno
bryansk
bryant
bs
bsh
bt
bts
btu
bu
buckingham
budapest
buenos
buf
buffer
buffersize
bug
bugzilla
build
builder
building
buildings
buildwikilink
built
builtin
buk
bulgaria
bulleted
bunun
burgundy
burkina
burundi
buryat
buryatia
busan
bush
bushel
business
but
butterfly
bw
bx
bxr
by
byron
bysen
byte
c
ca
cabo
cabrejas
cadastre
caelestinus
caen
caesar
cai
cal
calabria
calais
calculate
calculated
calendar
calendarid
calendarmodel
calgary
california
call
called
caller
calling
callparserfunction
calls
calorie
calories
calvin
cambridge
cameron
cameroon
camp
campania
campbell
campo
can
canada
canal
canberra
candi
cannot
canonical
canonicalname
cantabria
canusewikidata
cao
cap
capacity
capalign
cape
capita
capital
capitalization
caption
captiondiv
capture
caracena
carat
carbon
cardinal
cardo
caribe
carl
carlos
carolina
carrascosa
carter
cartography
case
cases
cash
cast
castel
castiglione
castilla
castle
cat
catalog
catalogue
catalonia
catalunya
categories
categorisation
categorise
categorization
categorize
category
categoryhandler
cathe
cathedral
catherine
catnocountry
catnosubdivision
cats
cattitle
cause
causes
cavaliers
cb
cbk
cc
cctld
cd
cdata
cdo
cdot
cdots
ce
ceb
cell
cellcount
celsius
celt
census
cent
center
centimeter
centimeters
centimetre
centimetres
central
centre
cents
century
ceo
certain
cf
cfg
cfgvalue
cfilename
ch
cha
chad
chai
chain
chak
cham
champagne
chan
chang
change
changed
changer
changes
channel
chap
chapito
chapter
chapterurl
char
character
characters
charantia
charente
charentes
charge
charles
charlotte
chars
charsi
chart
chartres
chat
chateau
chau
chaudie
che
chechen
chechnya
check
checkarg
checked
checking
checks
checktype
checkvalue
cheese
chelyabinsk
chemical
chemist
chemistry
chen
cheonan
cheongju
cherkessia
cherries
chess
chessboard
chet
cheu
cheung
chh
chha
chhai
chhak
chham
chhang
chhat
chhau
chhe
chhet
chheu
chhi
chhia
chhiam
chhiang
chhie
chhien
chhiet
chhim
chhin
chhio
chhiok
chhiong
chhit
chhiu
chhiuk
chho
chhoi
chhok
chhon
chhong
chhu
chhui
chhuk
chhun
chhung
chhut
chi
chia
chiak
chiam
chiap
chiau
chiba
chicago
chie
chien
chiet
child
chile
chim
chin
china
chinese
ching
chio
chiok
chiong
chit
chiu
chiuk
chiyo
cho
choi
choice
chok
chomolangma
chon
chong
choose
chopin
chosen
chpt
chr
chris
christian
christmas
christopher
chrono
chu
chui
chuk
chukotka
chun
chung
chungcheong
church
churchill
chuvash
chy
ci
cia
cid
ciliwung
cinca
cing
circa
circumstances
citadel
citakan
citation
citationclass
citations
cite
cited
citeparams
citeq
citeref
cites
citeweb
cithakan
cities
city
cjk
ckb
cl
claim
claimcommands
claims
claimsproperty
claimspropertyid
clair
clara
class
classes
classic
classical
claude
claudius
clayderman
cle
clean
cleanup
clear
clemens
cleveland
click
clinton
clm
clock
close
closehandle
closest
clowan
club
clyde
cm
cmbox
cn
co
coast
coat
coauthors
coca
cocos
code
codepoint
codes
codetype
coen
coetzee
coeur
coin
coins
col
cola
colclass
collapse
collapsed
collapsible
collect
collection
college
colombia
colombo
colon
color
colour
colours
cols
colspan
colstyle
columbia
column
columns
colwidth
com
combination
combinations
combo
combos
come
comma
command
commandname
commas
comment
comments
common
commonly
commons
commonscat
comoros
comp
companion
company
compare
comparedisplay
comparelink
compareurl
comparison
compatibility
complete
compliance
composite
compound
compresssparsearray
compute
computer
comte
con
concat
concatenate
concatenated
concatenation
concatvalues
condition
conditions
conf
conference
config
configtables
configuration
configured
conflict
congo
conjunction
connected
connecting
cons
conscience
consensus
conservation
consider
considered
console
const
constant
constantine
constantinus
constantius
constexpr
constructors
contain
containing
contains
content
contents
continue
contrast
contribution
contributor
contributorlist
control
conversion
convert
converted
converting
converts
convinfobox
cook
coord
coordinate
coordinates
coordinatespec
coordinsert
copenhagen
copied
copy
copyright
copytable
copytodirentry
core
corporate
corporation
correct
correctly
corresponding
corse
corsica
cos
cost
costa
cot
cottbus
could
coulomb
count
counter
counting
countries
country
county
coupe
courant
courbevoie
cov
covid
cplusplus
cpp
cr
cream
create
created
createfilew
createlink
createrow
creates
createtag
creating
creativity
creuse
crh
cristoforo
critical
croatia
cronin
cropped
cross
cruise
cruz
cs
csb
css
csstext
cstr
cterms
cu
cuba
cubic
cuft
cuin
cultural
culture
cumi
cunha
cur
curac
curie
curitiba
currency
current
currententityid
currentitem
currently
currenttitle
currentversion
currtaxon
curstate
custom
customary
customize
cuyd
cv
cvt
cvtround
cwt
cy
cypriot
cyprus
cz
czech
d
da
daa
daau
daegu
daejeon
dagestan
daigo
daily
dalai
dale
dalmatia
dam
dame
dan
dang
daniel
danny
dante
danyang
dare
dark
darwin
dash
data
database
databases
datacode
dataid
dataset
datastyle
datatype
datavalue
dataw
date
dateformat
dateprecedesdate
dateprecision
dates
datetime
datetimejulian
daur
david
davis
dawa
day
days
dd
de
dead
deadurl
deal
debug
dec
decade
december
decide
decimal
decimalprecision
decimals
decimeter
decimetre
declaration
decode
decorate
decorated
decrease
deepcopy
default
defaultargs
defaultkey
defaultlang
defaults
defaultseparators
define
defined
definition
definitions
defkey
deg
degli
degree
degrees
degsymbol
dejavu
del
delaware
delete
deleted
delimited
dell
demo
democratic
demopage
demospace
den
denied
denmark
denomination
denominations
denominator
density
denstr
department
depend
dependencies
dependent
depending
depends
dependvalue
deprecated
depth
deputy
der
derby
derek
des
desc
description
designated
desired
destructor
det
detail
details
detect
detected
determine
determined
determines
detroit
developed
development
dezerto
df
dhabi
di
diaeresis
diagnostic
diagram
diamond
dicis
dictionary
dictionnaire
did
didn
die
dies
diff
difference
different
digit
digital
digits
dijon
dik
dili
diq
dir
direction
directly
directories
directory
dirent
dirhandle
disable
disabled
discuss
discussion
disease
diseases
diseasesdb
disney
disneyland
disp
display
displayed
displayeditors
displaying
displayn
displays
dispute
disputes
dissertation
distance
distancefromleft
district
div
division
diz
djibouti
dl
dlclose
dlopen
dm
dmca
dmitri
dms
dmstest
dmy
dna
dne
do
doc
docname
docpage
docpagebase
docspace
doctitle
documentation
does
doesn
dog
doh
doi
doibroken
dollar
domain
domains
dominica
don
donald
done
dong
donghae
donum
doraemon
dordogne
doris
dose
dot
dots
double
doubs
douglas
down
dr
draft
drale
drama
dravida
dry
drygal
dsb
dsc
dst
dt
du
dua
dublin
due
duero
dummy
dump
dumpobject
dunam
dung
dunum
dup
duplicate
duplicates
duration
durban
dutch
dv
dvd
dwfileattributes
dwhighdatetime
dwight
dwlowdatetime
dword
dx
dy
dylan
dynasty
dz
dztwo
e
each
earlier
early
earth
earthquake
east
eastern
eb
ebchecked
ebrima
ec
echart
ecs
ecuador
ed
edcp
edge
edinburgh
edit
editable
editatend
editing
edition
editlink
editor
editorlist
editors
editrequest
edits
edo
edu
eduard
education
edward
edłoga
edłoha
ee
eeɛ
ef
effect
efficiency
eh
eid
eiffel
einstein
eisa
either
ej
el
elbrus
electronic
electronvolt
element
elements
elif
elizabeth
else
elseif
elsewhere
em
embargo
embargoed
emil
emilia
emission
emit
emits
eml
emonocot
empire
empty
emu
en
enable
enablebitmask
enabled
enclosed
encode
encoded
encyclopaedia
encyclopedia
end
endash
endashes
endbox
ended
endif
endparam
endrika
endtime
endtimed
endtimem
endtimey
energy
enforce
eng
engineering
england
english
engscale
ensure
enter
entered
entities
entity
entityid
entityobject
entries
entry
enum
enumerated
env
envfuncs
environment
enwiki
eo
episode
equal
equals
equivalent
equus
er
era
erase
erg
eritrea
erm
ernest
ernst
err
errc
errno
error
errormessage
errorprinter
errors
errortext
errs
erɤ
es
esas
esc
escape
espan
esperanto
est
established
establishment
estate
esteban
estimate
estonia
estrangelo
eswatini
et
etal
etc
ethiopia
ethnic
ethnologue
eu
euclid
eugene
eugenius
eure
euro
europe
european
euskara
eustatius
ev
even
evenk
event
events
every
ex
exact
example
examples
except
exception
exceptions
excluded
exec
executable
exhaust
exile
exist
existing
exists
exit
exp
expand
expanded
expandtemplate
expected
expecttype
expensive
experiment
experimental
experiments
expired
expiry
expiryfragment
explanation
explanationblurb
explanationsaction
explanationsactionlevel
explanationtext
explicit
explicitly
explore
exponent
export
expression
ext
extension
extensiontag
external
extra
extraclasses
extract
exxon
f
fa
faa
faat
fac
facebook
fact
factor
facts
fahrenheit
failed
fails
fake
falkland
fall
fallback
false
fam
family
fan
fang
fap
far
fargo
fargs
faroe
farther
faso
fat
fatal
fc
fdate
fe
features
february
federal
feet
felix
female
fen
fense
fetch
fetchlanguagename
fetchvalue
ff
fffd
fi
field
fields
fifa
fifo
fifth
figs
fiji
file
filebuf
filename
files
filespace
filestat
filesystem
fill
final
find
finddata
findlang
findname
findnamespaceid
finds
fingro
finished
finland
firenze
first
firstn
firstpostfix
firstrow
fischer
fisher
fiu
five
fix
fixed
fixup
fixups
fj
fl
flag
flags
flash
flavius
fleurs
flevoland
flex
flip
flipped
float
floating
floor
flora
florida
flow
flower
fluid
fm
fmargs
fmbox
fmt
fn
fo
foao
foarloage
foc
follow
followed
following
follows
fong
font
fonts
fontstyle
foo
foot
footer
footnote
footnotes
for
force
forces
ford
fore
foreign
form
format
formatattributes
formatdate
formatfile
formatfunc
formatinlanguage
formatlink
formatmessage
formatnum
formatparams
formats
formatstr
formattable
formatted
formatterurl
formattest
formatting
former
formula
fortnight
forward
fossil
fossilworks
found
foundation
foundrank
four
fourth
fox
fp
fpvdate
fr
frac
fracpart
fraction
fragment
frame
frameless
frameonly
franc
france
franche
francis
francisco
frank
frankfurt
frankfurter
franklin
franz
fre
frederick
free
freesans
freeserif
french
frequency
frequent
frequently
friedrich
friend
friesland
frisia
friulia
from
fromnumber
fromstart
fromtitlecount
fromutf
fromwchar
front
frp
frr
fruit
fs
fstream
ft
ftin
ftlastwritetime
ftlb
fu
fudge
fuel
fuentes
fui
fuji
fujian
fujiko
fujino
fujio
fuk
fukuoka
full
fullurl
fully
fun
funcname
function
functionality
functions
fung
fur
further
fut
future
fy
fyrimynd
g
ga
gaa
gaai
gaan
gaau
gabon
gabriel
gael
gag
gai
gaius
gal
galicia
gallery
gallon
gallons
gambia
game
gan
gang
gangneung
gangwon
gap
gaps
garamond
garden
garonne
gas
gasoline
gaspe
gate
gates
gau
gaulle
gauteng
gb
gcc
gco
gd
gdp
ge
geh
geim
gelderland
gen
gene
genera
general
generalcommands
generate
generated
generates
genereviews
genereviewsname
genereviewsnbk
generic
genesis
genova
genre
genus
geo
geobox
geographic
geographical
geography
geohack
geopolitical
georg
george
georges
georgetown
georgia
gerais
gerald
gerhart
german
germany
get
getargnums
getargs
getattr
getbeststatements
getboolean
getcontent
getcontentlanguage
getcurrentframe
getcurrenttitle
getentity
getentityid
getentityidforcurrentpage
getentityobject
getenvironment
getexpandedmessage
getfullpathnamew
gethookname
getlabel
getlasterror
getletters
getlink
getmapparams
getmetatable
getnamespaceparameters
getparameters
getparammappings
getparent
getqualifiervalue
getreferencedetail
getreferences
getreparsedata
gets
gettaxoninfoitem
getting
gettitle
gettitleobject
getvalue
getvaluebylang
getvaluebyqual
gg
ghana
ghc
gi
gia
giang
gibraltar
gie
gif
gigalitre
gilaki
gill
gim
gin
ging
ginger
gini
gionnaires
giovanni
girls
girona
gironde
git
giu
give
given
gives
gj
gje
gl
glasgow
glibcxx
glise
glk
global
globalframe
globals
globe
gm
gmatch
gmol
gmt
gn
gnd
gnuc
go
goe
goes
goh
gok
goku
gold
golden
gon
gong
gongju
good
google
gorbachev
gordimer
gormaz
got
gov
government
gps
gr
gradient
graham
gram
grams
gran
grand
grande
grant
grapsus
grass
gray
grc
gre
great
greater
greece
greek
green
greenland
greenwich
gregorian
gregorius
grenada
grenadines
griffin
gross
grosse
group
groupcell
grouping
groups
groupsgroups
groupstyle
gruzia
gs
gsub
gt
gu
guadeloupe
guatemala
gui
guide
guinea
gujarat
gun
gung
guy
guyana
gv
gw
gwa
gwangju
gwok
gwui
gy
gyeonggi
gyeongsang
gyo
gyoku
h
ha
haa
haag
haak
haau
had
hadrianus
haeckel
hai
hair
haiti
hak
hakka
half
hall
ham
hamberg
hamgyo
hampshire
han
hana
hand
handle
handled
handler
handlers
handlersk
handles
hands
hang
hangul
hanover
hans
hanzawa
hap
happy
hard
hardlink
harold
harrison
harry
harvard
has
hash
hat
hatnote
hau
hauptmann
haute
have
havel
having
haw
hawaii
hawke
hbo
hcard
hco
hcr
hd
hdi
he
header
headerid
heading
headingstyle
health
heat
hebrew
hectare
heh
height
heinrich
helena
hello
help
helper
helptext
helsinki
hemisphere
hen
henri
henry
herbert
herculius
here
hermann
hertz
herzegovina
hesse
het
heu
heung
hh
hi
hia
hibiscus
hidden
hiddencat
hide
hie
hien
hierarchy
hiet
hif
high
higher
highest
hildburghausen
hill
him
himachal
himalaya
hindi
hing
hio
hiong
hip
historic
historical
history
historylink
hitler
hiu
hiuk
hiun
hk
hl
hlist
hm
ho
hoa
hoh
hoi
hok
hokkaido
hold
holding
holds
holy
home
hon
honduras
hong
hongkong
honolulu
honorius
honshu
hook
hooks
hoorn
horizontal
horn
hornbostel
hornets
horsepower
host
hostname
hot
hotel
hour
hours
house
houston
how
howard
however
hp
hr
hrd
hs
hsb
ht
htm
html
htmlbuilder
http
https
hu
hua
huang
hudson
hue
huesca
hugo
human
humber
hundred
hundredweight
hung
hungary
hwanghae
hy
hybrid
hyderabad
hyphen
hyphenated
hyphens
hyun
hz
i
ia
iata
iau
ib
iberia
ibu
ic
icao
icd
iceland
ich
ichi
ichiro
icon
icons
id
identical
identifier
identifiers
identifies
identify
identities
ido
ids
idx
ie
ien
ies
ietf
if
ifdef
iferror
ifndef
ifroms
ifstream
ig
ign
ignore
ignored
ihp
ii
iii
iju
ik
il
ilisserut
illegal
illinois
ilo
ilyich
im
imac
image
imagecell
imagecelldiv
imageclass
imagecount
imagediv
imageemptycell
imageemptycellstyle
imagefilename
imageleft
imageleftcell
imagelink
imagelinks
imagenumbers
imageright
imagerightcell
imagerightnone
images
imagestyle
imbox
imdb
img
imp
imperial
impgal
impl
implement
implementation
implemented
implements
implied
important
imported
impoz
improper
in
ina
inactive
inauguracion
inc
incertae
inch
inches
include
included
includemetatable
includes
including
incorrect
incorrectly
increase
increment
incubator
indef
indefinite
indefinitely
indent
independence
independent
index
indexed
indian
indiana
indicated
indicating
indicator
indices
individual
indonesia
inext
inf
inflation
info
infobox
infoboxes
information
infrataxon
ing
ingushetia
inhabitant
inhabitants
inherit
inherits
inhierarchy
initial
initialise
initials
inlb
inline
inn
innocentius
inout
input
inputiterator
inputs
insensitive
insert
inserted
inset
inside
insitelinks
instagram
instance
instanceof
instanceofstate
instantiates
instead
institute
int
intable
integer
intended
inter
interface
interlanguage
interlingua
interlingue
internal
international
internet
interpreted
interview
interwiki
into
intro
introblurb
introduction
introfragment
invalid
invariant
invert
inverted
invisible
invocation
invoke
invoked
invoking
io
ioannes
ionia
ios
ip
ipa
ipad
ipairs
iparm
iphone
ipni
ipoh
iprage
ipv
iran
iraq
iraqi
ireland
irish
irkutsk
irving
is
isaac
isabart
isbn
iscomplex
isejima
isembedded
isfirst
island
islands
ismn
isn
isnegative
isnilorempty
isnotempty
iso
isodisplaynames
isoname
isonames
isplain
isprotected
israel
issmall
issn
issubpage
issue
issues
issuing
istalkpage
istemperature
istemplatepage
istemporary
istream
isvalid
isxn
it
ita
italic
italica
italicize
italicized
italics
italictitle
italmarker
italy
item
itemid
items
iter
iterate
iterator
iterators
itr
its
itself
itthem
iu
iucn
iung
iv
ivan
ivoire
iwidth
iɛu
j
ja
jaca
jackson
jacques
jae
jakarta
jamaica
jambi
james
jan
janeiro
january
japan
japanese
java
javascript
jawa
jayakarta
jayawikarta
jbo
je
jean
jefferson
jeju
jeolla
jerome
jersey
jeugdliteratuur
jezik
jfm
ji
jim
jimmy
jin
jit
jkey
jo
jobs
joe
johann
johannes
johannesburg
john
johnson
johor
join
joins
jones
jong
jordan
jose
joseph
joule
journal
jp
jpg
jpn
jr
json
jst
jstor
juan
jules
julex
julian
julius
july
jump
jun
jung
junicode
junior
jura
just
justin
justinian
jv
k
ka
kaa
kaap
kaau
kab
kabardino
kaeso
kagawa
kagoshima
kai
kak
kalimantan
kaliningrad
kalmyk
kalmykia
kam
kamakura
kampuchea
kang
kanji
kankaimon
kap
kapitsa
kara
karabakh
karachay
karelia
karl
karlsruhe
karnataka
kashubia
kastler
kat
katalogisering
kategori
kathedrale
kathmandu
kau
kavkaz
kazakh
kazakhstan
kb
kbs
kc
kcal
ke
keeling
keep
kelantan
kelvin
ken
keng
kennedy
kenning
kent
kenya
kerala
kern
kerry
ket
kev
kevin
key
keynes
keypos
keys
keyword
keywords
kg
kgco
kgf
kh
kha
khak
khakassia
kham
khan
khanty
khap
khat
khe
khek
khet
khew
khi
khia
khiam
khiang
khie
khien
khiet
khieu
khim
khin
khio
khip
khiu
khiuk
khiun
khiung
khiut
khmer
kho
khoa
khoai
khoey
khok
khon
khong
khorasan
khota
khu
khuai
khui
khun
khut
khwu
khwui
ki
kia
kiaau
kiam
kian
kiang
kiap
kie
kien
kiet
kigezo
kil
kilocalorie
kilocalories
kilogram
kilograms
kilojoule
kilojoules
kilolitre
kilometer
kilometers
kilometre
kilometres
kilomole
kilomoles
kilotonne
kilowatt
kim
kin
kinabalu
kind
king
kingdom
kings
kinki
kinshasa
kio
kiok
kiong
kip
kipling
kiribati
kirov
kit
kitts
kiu
kiung
kiyoshi
kj
kk
kl
km
kmol
kn
knight
know
known
ko
koa
koan
koat
kobe
koe
koet
koethttp
koethttps
koi
kok
komi
komikado
kon
kondo
kong
korea
korean
kot
kota
koteka
kpa
kr
krasnodar
krc
kreis
kro
ks
ksh
kt
ku
kuala
kuantan
kuet
kui
kuk
kumamoto
kung
kurd
kurdi
kurdish
kurihara
kursk
kut
kuwait
kv
kw
kwan
kwang
kwazulu
kwet
kwh
kwo
kwok
kwu
kwui
ky
kyrgyz
kyrgyzstan
kyril
kyu
l
la
laai
laan
laap
label
labeldiv
labelid
labelledby
labelorid
labrador
lac
lad
lady
lai
lak
lake
lakers
lama
lan
lanaudie
lancaster
land
lang
langcode
langobj
language
languages
langue
languedoc
lanka
laos
lap
large
largest
las
last
lastarg
lastauthoramp
lastfirst
lastfirsttable
lastn
lat
latdegrees
latdegsym
later
latestdatequalifier
latf
latin
latitude
latm
latminsym
latminutes
latseconds
latter
latvia
lau
laureate
laureates
laurent
laurentides
lausanne
law
lawrence
lax
lay
laydate
lazily
lazio
lb
lbco
lbe
lbf
lbfft
lbm
lbmol
lccn
lccnparts
lcwt
le
leader
leading
leap
least
leave
lechler
lee
left
legislature
leibniz
lemy
len
length
lenin
leningrad
leo
leon
leonard
leonardo
leone
leonidovich
les
lesotho
less
lessing
let
letter
letters
leu
leui
level
levels
lewis
lexically
lg
lhasa
lhs
li
lia
liaau
liang
liau
lib
libcpp
liberia
library
libraryutil
libre
libris
libya
lie
liechtenstein
lien
lif
life
lifetime
light
ligne
liguria
lij
like
likely
lille
lily
lim
limburg
limit
limited
limousin
limpopo
lin
lincoln
line
linear
lines
ling
link
linkbox
linkclasses
linked
linkey
linking
linkn
linkname
linkprefix
links
linktarget
linktext
linus
linux
lio
lion
liong
lip
lisa
lisize
lissabon
list
listcell
listclass
listed
listi
listitems
listnum
listonly
lists
liststyle
liststyletype
listtotext
listtype
liszt
lit
liter
literal
lithuania
litre
little
liu
liuk
liung
live
living
lix
lk
ll
lli
lmo
ln
lne
lng
lo
load
loaddata
loaded
loadi
loadsubmodules
lob
loc
local
locale
localized
locally
located
location
locations
locname
log
logic
lohas
loir
loire
loiret
lok
lombardia
lon
londegrees
londegsym
london
long
longer
longitude
lonminsym
lonminutes
lonseconds
look
looking
looks
lookup
loop
lord
lorraine
los
lost
lot
louis
louvre
lov
love
low
lower
lowercase
lowerk
lp
lpcwstr
lpostfix
lprefix
lr
lst
lt
ltd
ltf
lthumb
lu
lua
luaargs
luacode
lublin
luce
lucia
lucida
lucius
ludwig
lufthansa
lui
luis
luk
lumpur
lun
lune
lung
luther
luxembourg
lv
lvt
lwg
lwt
ly
lyon
m
ma
maai
maan
maarten
maau
mac
macbook
macedonia
mach
machine
macintosh
maciver
madagascar
made
madeira
madeleine
madonna
madrid
mafikeng
mag
magan
magazine
magic
magnetic
magnetizing
magnitude
magyar
maharashtra
mai
mailing
mailinglist
main
maincat
maine
mainly
mainsnak
mainspace
maint
maintenance
maison
major
mak
make
makebannertext
makecategorylink
makefullurl
makeinvokefunc
makeinvokefunction
makelist
makemessagebox
makeordinal
makes
makestartboxdata
makestartboxlinksdata
maketoolbar
makeurllink
makewikilink
makewikitexterror
making
mal
malacca
malagasy
malawi
malayalam
malaysia
maldives
male
mali
mall
malline
malta
maluku
malvinas
man
mang
manga
manhattan
manitoba
mann
mansi
mantovano
manual
manually
many
map
maplandia
maplink
mapping
mappings
mappingskey
mar
marathi
march
marche
marcus
margin
marguments
mari
maria
mariana
marie
marino
mario
maritime
mark
marker
markers
market
marks
marksize
markup
marne
mars
marseille
marshall
martin
martinique
martinson
martinus
marx
mary
masato
mask
maskn
mass
massachusetts
master
match
matches
matchesblacklist
matchhook
matching
math
mathematical
matic
mau
mauer
maurice
mauricie
mauritania
mauritius
max
maximum
maxlen
maxsearchlevels
maxsigfig
maxvals
maxwidth
may
maya
mayaddcalendar
maybe
mayumi
mb
mbox
mbq
mbtu
mcal
mcdonald
mcgill
mcode
md
mdf
mdy
me
mean
meaning
means
measurement
medelli
media
mediawiki
medical
medinaceli
medium
medlineplus
megacalorie
megalitre
megatonne
meiko
melaka
melayu
melbourne
member
members
membership
meme
memoized
men
menaion
mendeleev
menk
mer
mercury
merg
merge
mergearrays
mergedbottomrow
mergedrow
mergedtoprow
merkel
mesh
message
messagebox
messagename
messages
met
meta
metaargs
metaargskey
metadata
metatable
meter
meters
method
methods
metre
metres
metric
metro
metropole
metz
meu
mev
mexico
mf
mg
mh
mhr
mi
mia
miami
miang
michael
michel
michelangelo
michelson
micro
microformat
microformats
microlitre
micronesia
microsoft
mid
middelburg
middle
midi
midlands
midorikawa
mie
mien
might
mikhail
miki
milano
mile
miles
military
millennium
millicalorie
milliliter
millilitre
millimetre
million
min
minamoto
minangkabau
minas
minh
mini
minimize
minimum
minister
minneapolis
minnesota
minor
minquan
minsymbol
mint
minus
minute
minutes
mio
mirror
mismatch
miss
missing
mission
mississippi
mistral
mittelfranken
miu
mj
mk
ml
mlatm
mlist
mlt
mm
mmbtu
mmessagebox
mmmm
mmol
mn
mo
mobil
mobile
mod
mode
model
modele
modello
modelo
modf
modified
modifiers
modify
mods
module
modules
moi
mok
mol
molar
moldova
mole
moles
molise
moment
momordica
mon
mona
monaco
monet
mong
mongolian
mono
monolingualtext
monotypic
mont
monte
montenegro
montgomery
month
months
montpellier
montre
monts
montserrat
montsoreau
monument
monuments
moo
moon
morakot
mordovia
more
moreargumentsexist
moro
morocco
morokuzu
morrison
mos
moskva
most
motto
mountpointreparsebuffer
mouse
move
moved
moves
moz
mozambique
mp
mpgimp
mpgus
mph
mprotectionbanner
mpumalanga
mr
ms
msg
msgbuf
msgkey
mshared
msvc
mt
mta
mtabletools
mtr
mttnt
mu
mudel
mudell
mui
muk
mult
multiple
multiplier
mumbai
mun
mung
municipality
muriel
murmansk
muromachi
mus
muse
museum
music
must
mv
mw
mwh
mwl
my
myanmar
myo
myobject
myv
mzn
n
na
naam
nadine
nadu
nagorno
nah
naha
nahco
nahuatl
nai
nairobi
najib
naka
nam
name
named
namelist
namelistformat
names
namesep
namespace
namespacefragment
namespaces
namespacesns
namibia
nan
nang
nantes
naoki
nap
napie
napoleon
napoli
nara
nassau
natal
national
native
nativewp
natural
nauru
nautical
nav
navbar
navbox
navboxes
navboxparams
nazi
nba
nbk
nbsp
ncbi
nchen
ncipe
nd
ndataset
nds
ne
neal
near
nearest
necessary
nederland
need
needed
needle
needs
negative
negeri
neither
nela
nelly
nelson
nemachiyo
nen
nenets
nepal
nested
net
netherlands
network
neutral
never
nevis
new
newar
newer
newfoundland
newline
newobject
newrawmessage
news
newsgroup
newton
next
nextarg
nezu
nf
nfilesizehigh
ng
nga
ngai
ngan
ngang
ngat
ngawa
nghi
ngi
ngia
ngiak
ngiam
ngiap
ngiau
ngie
ngien
ngiet
ngim
ngin
ngio
ngiong
ngit
ngiu
ngiuk
ngo
ngoi
ngok
ngong
ngu
ngui
nguye
ngyang
nh
nha
nhl
ni
nia
nicaragua
nice
nickmard
nickname
nicolaus
nieuw
niger
nigeria
night
nih
niigata
nil
nilargs
nilargskey
nin
ninh
ninomiya
nip
nit
niue
nizhny
nl
nlia
nlm
nm
nmi
nn
nndb
no
noactive
nobel
nobelprize
noborder
nocat
nocomma
node
nodes
nodyn
noexcept
noexpiry
noflip
nofollow
noid
nok
nokia
nokto
nominal
non
nonautoscaledimages
none
nonmembers
noordoostpolder
nopp
nor
nord
normal
normally
norman
normandie
normandy
norse
norsk
north
northern
norwegian
nospecial
nosuke
not
notation
note
notes
nothing
notice
noto
notracking
notre
nouveau
nov
nova
novalue
november
novgorod
novo
novosibirsk
now
nowiki
nowrap
nowrapitems
np
npos
nr
nrm
ns
nscategory
nsec
nsid
nsname
nstable
nstext
ntova
nu
nueva
nui
null
nullptr
nulu
num
numargs
number
numbered
numbers
numdigits
numdot
numerals
numerator
numeric
numerical
numparam
nums
numsep
numstr
nun
nung
nusa
nv
ny
nya
nye
nyi
nynorsk
nytimes
nyuk
o
obama
obituaries
obj
object
objects
objproperty
obon
obs
obscure
observers
obsolete
oc
occitan
occur
occurs
ocinsoutput
oclc
oct
octavius
october
odd
oddeven
oe
oet
of
off
office
official
officialwebsite
offset
ofstream
often
ogham
oi
oil
oilbbl
ois
ok
okayama
okinawa
oklahoma
ol
old
oldattr
olu
olympic
om
oman
omargs
ombox
omim
omit
omitsep
omitted
on
once
one
ong
online
onlinelibrary
only
onlysourced
onlysrc
ontario
onu
ooɔ
op
open
opening
openlibrary
openmode
operating
operator
opt
option
optional
optionalarg
optionally
options
opts
or
oracle
orange
oranienburg
orca
orcoid
order
ordered
ordering
orders
ordinal
ordsuffix
orenburg
org
organisation
organization
ori
orig
origargs
origin
original
origink
orignumargs
origyear
orissa
oriya
orlando
orle
orleans
orphanet
os
osaka
osan
osma
osman
ossetia
osta
osti
ot
otemachi
other
others
otherwise
ottawa
otto
ounce
ounces
our
out
outaouais
outinfo
output
outputs
outside
outstring
outvalue
over
overflow
overhead
overijssel
overlap
overridden
override
overrides
overwrite
overwritten
own
owner
oxford
oxus
oxyge
oyun
oz
ozf
ozt
p
pa
pablo
padding
padlock
pag
page
pagename
pageobject
pages
pagesep
pagessep
pagetype
pagetypes
pahang
pai
pair
pairs
pak
pakistan
palace
palais
palau
palestine
pam
pan
panama
pang
pangkal
panorama
pap
papua
par
para
paraguay
param
parameter
parameterfuncs
parameters
paramorder
params
paramsi
paramsp
parc
parent
parentargs
parentargslowerk
parentargsparams
parentheses
parentinstanceof
parentitem
parentmonogenus
parentonly
parenttaxon
parenttaxonrank
pargs
paris
park
parm
parms
parmsi
parse
parsed
parsedec
parsedformat
parsedms
parseformat
parseinput
parseparam
parser
parserfunctions
part
particular
parts
partspart
party
pas
pascal
pashto
pass
passed
past
pat
path
pathlen
patrick
patro
patrom
patron
patrono
pattern
patterns
pau
paul
pauling
paulo
paulus
pawn
pays
pc
pcall
pcd
pd
pdc
pdf
pe
peck
pedia
pegged
pen
pence
pending
pennsylvania
penza
people
per
perak
percent
perch
performance
period
periodical
periodpos
periods
perlmutter
perm
permanently
permanis
permission
permissions
permitted
perms
perrow
perrowr
persepolis
persian
person
personal
personenlexikon
personi
pertext
perth
peru
perugia
pet
peter
peterburg
petroleum
peu
pev
pframe
pg
ph
pha
phai
phan
phat
phau
phe
pheng
phi
phia
phiang
phie
phien
philadelphia
philip
phin
phit
pho
phok
phone
phong
photo
php
phu
phun
phung
physicist
physics
pi
pia
piak
piang
picardie
picardy
pick
pid
pie
piece
pieces
piemonte
pien
pierre
pietermaritzburg
pietersburg
pih
pin
pinang
ping
pint
pinter
pinus
pio
piong
pipe
piped
pit
pittsburgh
pius
pixar
pj
pk
pl
place
placed
placeholder
placement
places
plain
plainlinks
plainlist
planeto
plant
plantilla
plantilya
plants
platform
platon
play
player
plaza
please
plu
plural
plus
pm
pmatrix
pmc
pmid
pms
pn
pnb
pnd
png
pnt
pntype
po
podcast
podolsk
poi
point
pointer
poitou
poj
pok
pol
pola
poland
policy
politics
polynesia
pondemaat
pong
pont
pop
population
por
port
portable
portal
porte
portion
portions
porto
portrait
portugal
pos
posdif
position
positional
positive
possible
possibly
post
postfix
postprocess
postscript
pot
potenta
pound
pounds
pour
povas
pow
power
pp
ppp
pr
pra
pradesh
pragma
pre
prec
preceding
precision
predefinic
predloga
predloz
preferable
preferred
prefetchedrefs
prefix
prefixed
prefixedtext
prefixes
prefixlength
prefixtable
preload
premier
preprocess
preprocessargs
preprocesssinglearg
presbyterian
present
presentation
preserve
president
press
pressure
pretoria
preunit
preunits
prev
prevent
prevents
preview
previous
previously
pri
primarily
primary
prime
prince
princeto
princeton
print
printer
printerror
printtitle
priority
prison
private
prix
prize
prizes
prms
pro
probably
problems
process
processed
processflagorcommand
processing
processitem
processseparators
produce
produced
produces
product
profile
program
programmes
project
promote
pronunciation
prop
proper
properly
propersign
propert
properties
property
propertyid
propertyvalue
propertyvalueandquals
propid
props
propvalue
protect
protected
protection
protectionblurb
protectionblurbs
protectioncategories
protectiondate
protectionlevel
protectionlevels
protectionlevelsaction
protectionlog
protectionobj
protocol
provence
provide
provided
provides
province
provincia
proximate
proxy
prudhomme
ps
psi
pt
ptr
pu
public
publication
publicationdate
publicationplace
publique
publisher
publishername
pubmed
puerto
puget
puglia
puk
pul
pulau
pun
punc
punctuation
punjab
punjabi
purge
purpose
purposes
push
put
putin
puyuma
px
pyeongchang
pyotr
pyre
pyrenees
q
qaeda
qargs
qatar
qid
qlcode
qnumber
qquad
qt
qtr
qu
qua
quad
quadpart
qual
qualid
qualifier
qualifierid
qualifiers
qualifierscount
qualifiersqualifierid
quals
quan
quantity
quart
que
quebec
queen
queens
queensland
query
question
quivira
quo
quote
quoted
quotes
quotient
qval
r
ra
rabindranath
rad
rade
radiation
rafael
raffael
raffaello
rail
raise
range
ranges
rank
rankpos
ranks
ranksrankpos
ranmaru
raphael
rare
rarely
rate
rather
ratio
rault
raw
rawget
rawset
rawvalue
ray
razak
rb
rc
rct
rd
re
read
readable
readers
readonly
reads
reagan
real
reason
reasonator
reasons
reasontext
rec
recognised
recognized
recommended
record
rect
recurse
recursion
recursive
red
rediffusion
redirect
redirects
reduce
redundant
ref
refbegin
reference
references
referenceurl
refhash
reflist
refparts
refresh
refs
regardless
regex
regina
region
regional
register
registration
regular
reiji
reims
reinterpret
related
relative
release
relevant
relief
religion
rem
remainder
remap
remove
removeblanks
removecolon
removed
removes
removing
rename
render
renderbox
rendered
rendernavbar
renders
renderstartbox
rendertrackingcategories
rene
rep
reparse
reparsedata
reparsetag
repeat
repl
replace
replacealias
replaced
replacedecimalmark
replacement
replaces
replacing
report
represent
representative
representing
represents
repu
republic
req
reqns
reqranks
request
requested
requesttype
require
required
requires
requiring
res
research
reserve
reset
resize
resolved
resolveentity
resort
resource
respondis
rest
result
resulting
resultparameters
results
ret
retrieved
return
returned
returning
returns
returnval
retval
rev
reverse
review
reviewer
reviews
rfc
rft
rgb
rh
rhin
rhine
rho
rhs
ri
riau
ric
rica
ricci
richard
rico
rida
right
rio
river
rivie
rjct
rkd
rlaag
rm
rmy
rn
rna
rname
rnc
rnl
ro
roa
robert
roc
rock
rockas
rockets
rocky
rod
roger
roh
roma
romagna
roman
romania
romantic
ronald
rook
roosevelt
root
rootpathlen
rosa
rotterdam
round
rounded
rounding
roundto
roussillon
route
row
rowargs
rowclass
rowcount
rowid
rownums
rows
rowspan
rowstyle
roy
royal
royuwaay
rs
rt
rtext
rtl
rttemberg
ru
ruby
rudd
rudolph
rudyard
rue
rukai
run
runic
running
rup
russell
russia
ruthenia
rutherford
rw
rwanda
ry
ryazan
ryo
ryukyu
s
sa
saa
saam
saan
saang
saba
sabah
sablon
sachs
sacramento
safe
saga
sah
sahara
sai
saint
sainte
saisiyat
saitama
sak
sakai
sakha
sakhalin
salamanca
salvador
sam
samafomot
samara
samaritan
samcheok
same
samoa
samogitia
sample
samuel
san
sandbox
sandboxes
sandboxlink
sandboxlinks
sandboxpreload
sandboxtitle
sanders
sang
sanitizedataset
sankt
sans
sansia
santa
santo
santos
sao
sapiens
sapporo
saratov
sarawak
sardegna
sars
saskatchewan
sat
sau
saudi
saul
savoia
savoie
saxon
saxony
say
says
sb
sbargs
sbl
sbox
sc
scale
scaled
scan
scandinavia
scc
schablon
schabloun
scheme
schloss
school
science
scientific
scn
sco
scope
scotland
screen
scribunto
script
scripts
scriptstyle
scripttitle
scwt
sd
sdata
sdot
se
sea
seagal
seal
sean
search
searching
season
seasons
seattle
sec
second
secondary
secondpostfix
seconds
secsymbol
sect
section
sections
sedis
see
seen
segoe
seine
selangor
selatan
select
selected
selena
self
selfref
selma
semantics
sembilan
semi
semicolon
sen
senegal
seng
sense
sent
seo
seosan
seoul
sep
separate
separated
separator
separators
sepc
september
sequence
sequences
ser
serbia
seremban
sergeyevich
sergius
serial
series
serieslink
serif
sero
serpento
serto
serve
server
services
serving
session
set
setformatandseparators
setmetatable
setranks
sets
setting
settings
settlement
seu
several
sevilla
seychelles
sf
sfs
sg
sgoe
sh
sha
shablon
shablono
shaft
shah
shakespeare
shallow
sham
shan
shanghai
share
shared
shawinigan
she
sheet
sheets
shell
shi
shikina
shikoku
shimane
shin
shing
shingo
shining
ship
shiraki
shizuoka
sho
short
shortcut
shortcutheading
shortcutlist
shortcuts
shortname
should
shouldbe
show
showerrors
showing
showinvalidtypeerror
shown
shows
showtaxon
shp
shu
shui
shuk
si
sia
siaau
siak
siang
siau
siberia
sicilia
side
sidebar
sidebox
sie
siegbahn
sien
sierra
siet
sigfig
sign
signature
significand
significant
sikavno
sikh
sil
silence
silver
sim
simi
similar
similarly
simple
simplify
sin
since
sinensis
sing
singapore
single
singlevalue
singular
sinhala
sint
sio
siong
sioni
sip
siprage
siprefixes
sir
sit
site
siteid
sitelink
sitelinks
sites
siu
siuk
siung
sixth
sixtus
size
sizeof
sjabloon
sk
skabelon
skantlyn
skip
skyline
sl
slash
slav
slavonic
slovakia
slovenia
sls
sm
small
smallest
smallparam
smg
smith
smolensk
smoot
sn
snak
snaks
snaksdtype
snaksp
snaktype
sni
snið
so
sock
socket
soft
software
soi
sok
sokcho
sola
solar
solid
solomon
solvay
somalia
some
something
sometimes
somevalue
somme
son
song
songs
sonohyan
sorbia
soria
sort
sortable
sorted
sortindices
sortkey
sortspan
sot
source
sourcecount
sourced
sourcedonly
sources
south
southern
souvenirs
sovereignty
soviet
sp
space
spaces
spacing
spain
span
spancss
special
species
specieswiki
specific
specified
specifies
specify
specprinter
speech
speed
speedy
spell
spelled
spelling
spider
split
spoken
spring
springer
sq
sqbr
sqft
sqin
sqkm
sqmi
sqrt
sqry
square
squared
sqyd
sr
sri
srn
ss
ssrn
st
stable
stack
stalin
stamp
stampa
standard
stanford
stanislas
stanley
star
start
startbox
started
starting
startswith
starttime
starttimed
starttimem
starttimey
stat
state
stated
statedin
statement
statements
states
statesparam
statesparameters
static
station
statistic
stats
statue
status
std
steam
steenhouwersgracht
stelo
step
stephanus
stephen
steve
steven
stf
stiff
still
stm
stock
stockholm
stone
stop
stops
store
stored
stores
story
stq
str
strange
strasbourg
street
strformat
strict
strictly
string
strings
stringtype
strip
stripmarker
stripmarkers
stripped
strong
strout
strt
struct
structure
strval
stt
studies
style
stylein
styleout
styles
styling
su
sub
subdiv
subdivision
subdivisions
subdivs
subf
subg
subgroup
subheader
subheaderrowclass
subheaderstyle
subinfo
subject
subjectitem
subjectns
subjectspace
subpage
subpages
subpagetext
subscription
subsect
subser
subsp
subst
substitute
substituted
substitutename
substitutenamelength
substitutenameoffset
substituteparameters
substr
subtables
subtemplates
subtype
subunit
subunits
subvar
success
successful
such
sud
sudan
suf
suffix
suggest
suggested
suggestions
sui
suicide
suk
sul
sulawesi
suleras
sully
sum
sumatera
sumatra
summary
summer
sun
sunda
sung
sunset
sup
super
supersect
superunit
supplied
support
supported
supports
suppress
suppressed
suppression
sur
sure
suriname
surname
surrogate
sut
suu
sv
svante
sverdlovsk
svg
sw
swahili
swap
sweden
switch
switchlang
sx
sydney
sylvestris
sym
symbol
symboliclinkreparsebuffer
symbols
symlink
symlinks
syndict
syntax
syriac
sysop
system
systemerrortext
sz
szablo
szablon
szl
t
ta
tab
table
tablemerge
tablerow
tables
tabletools
taean
taebaek
tag
tagalog
tagname
tagore
tags
tai
tail
taipei
taiwan
tajik
tajikistan
tak
takauji
take
takeda
takehito
taken
takes
talk
talkpage
talktext
talktitle
talɣa
tam
tambov
tamil
tamsui
tan
tanaka
tandfonline
tang
tanganyika
tanzania
taoyuan
tap
tara
tarask
target
targs
tarnovo
tarragona
task
tat
tatar
tatarstan
taxa
taxobox
taxon
taxonbar
taxonbars
taxonitalics
taxonname
taxonomic
taxonomy
taxonrank
taxontable
taylor
tbilisi
tbl
tbs
tc
tcoins
tcol
td
te
tea
teau
tec
tech
technology
techreport
tect
teimple
tel
telangana
telegraph
television
telugu
tembiechara
temp
temperature
templat
template
templatecat
templatecategory
templatecategoryrequirename
templatedata
templateeditor
templateerrorcategory
templatename
templates
templatesort
templatestyles
templatetitle
temple
temporary
temps
temujin
ten
tengah
tenggara
tenno
term
terminate
terms
tero
territories
territory
test
testcases
testcaseslink
testcaseslinkdisplay
testcaseslinks
testcasespreload
testcasestitle
tested
testing
tests
tet
teu
texas
text
textcell
textcellspan
textstyle
tfrac
tfromsv
tg
th
tha
thaai
thai
tham
than
thanh
thap
that
the
theatre
their
them
then
theodor
theodore
theodosius
there
therm
thermal
thermochemical
therms
these
thesis
thet
theu
theui
they
thi
thia
thiap
thiau
thie
thiele
thien
thiet
thin
thing
things
think
thinking
third
this
thisqid
thisrow
thisvalue
thit
thm
tho
thoi
thok
thomas
thon
thong
those
thot
though
thousand
three
threeway
through
throw
throwerror
thu
thua
thui
thuk
thumb
thumbcaption
thumbinner
thumbnail
thumbtime
thunder
thung
thuringia
thus
thut
ti
tia
tiam
tiau
tiberius
tidyval
tie
tienne
tig
tijgersgracht
till
tim
time
times
timestamp
timezone
timor
tin
tinfo
tit
tite
title
titlearg
titlecell
titleclass
titlecolspan
titlegroup
titlelink
titlenumber
titleobj
titles
titlestyle
titletype
tj
tk
tl
tld
tm
tmbox
tmp
tn
tname
tnone
tnt
to
tobago
tochłowice
today
todays
todo
together
togo
toiso
tokugawa
tokushima
tolkien
tolower
tomas
tome
tomsk
ton
tong
tonga
tonne
tontnt
tonumber
too
tools
tooltip
tooltipblurb
tooltipfragment
top
topic
torino
toronto
torque
torr
toscana
tostring
total
tottori
toupper
tour
tous
toutf
towchar
tower
town
tp
tpe
tpi
tr
tra
track
tracking
trackingcategories
tracy
traianus
trailing
train
trans
transchapter
transcluded
transcript
transit
translate
translated
translation
translator
translatorlist
transparent
transwiki
tre
treasure
treat
treated
tree
trick
tries
trieste
tright
trillion
trim
trimmed
trimwhitespace
trinidad
triody
tripura
tristan
trois
tropical
trow
troy
tru
trudeau
true
trump
trung
try
trying
ts
tsa
tsaa
tsai
tsak
tsam
tsan
tsang
tsap
tsat
tse
tsen
tset
tseu
tseui
tseung
tsfc
tsh
tsha
tshai
tshak
tshat
tshe
tshet
tshi
tshia
tshiam
tshie
tshiet
tshin
tshio
tshiong
tshit
tshiu
tshiuk
tsho
tshoi
tshon
tshong
tshu
tshui
tshuk
tshung
tshut
tsi
tsia
tsiak
tsiap
tsiet
tsim
tsin
tsio
tsiok
tsit
tsiu
tsiuk
tso
tsoi
tsok
tson
tsong
tsou
tssandboxtitle
tstitle
tstitleobj
tstyles
tsu
tsui
tsuk
tsun
tsung
tsut
tt
ttnt
tu
tuaran
tui
tuk
tum
tun
tung
tunisia
tuque
turin
turk
turkey
turkic
turkmen
turkmenistan
turn
tuva
tuvalu
tv
tvbs
tw
twelve
twice
twitter
two
txantiloi
txtlang
ty
type
typedata
typedef
typename
types
typical
typically
tyrrhenian
tyumen
tz
u
ua
ucero
uckermark
ucode
udm
udmurtia
ue
ug
uganda
ugria
ui
uielem
uint
uintmax
uk
ukraina
ul
ularge
ull
ulong
ulster
um
umbria
un
unacceptablecount
unbulleted
uncategorized
unclosed
und
undefined
under
underlying
underscore
underscores
unexpected
ung
unicode
unicodestring
unifont
union
unique
unit
unitcode
united
unitonly
units
unitsperdegree
unittester
universal
universita
universitas
universite
university
unknown
unknownparams
unless
unlinked
unnamed
unpack
unprotected
unprotection
unregistered
unset
unsigned
unstrip
unstripnowiki
unsupported
until
up
update
updatecurrent
upload
upon
upper
uppercase
upright
upside
ur
ural
urbanus
urbino
urdu
uri
uricomponents
url
urls
uruguay
us
usa
usage
usbbl
usbeerbbl
usbsh
usbu
usdrybbl
usdrygal
usdrypt
usdryqt
use
usecite
usecollapsibletextfields
used
useful
usename
usenetid
useparams
user
users
uses
usescurrenttitle
usesymbol
usewikidata
usgal
usgalatm
usgi
ushort
using
uskenning
usoz
uspk
uspt
usqt
ustring
usually
usub
utable
utah
utaki
utc
utf
utility
utrecht
utype
uyghur
uz
uzbek
uzbekistan
v
va
val
valencia
valentinian
valerius
valid
validate
validation
valinfo
valinfoi
valle
valois
valparai
vals
valsi
valsv
value
valuefunc
values
valuesarray
valuesarrayi
valurl
van
vanc
vancouver
vandal
vandalism
vanuatu
var
variable
variables
variations
variety
various
varname
vatican
vauthors
vcd
ve
vec
vector
veditors
veidne
veliko
velilla
veloster
veneto
venezia
venezuela
venis
veps
ver
verde
versailles
version
versions
verst
vertical
very
vet
vetus
vi
via
viaf
vicente
victor
victoria
video
vie
vietnam
view
viking
village
villagers
villar
ville
vincennes
vincent
vinci
vinh
virgin
virginia
vis
visayas
visible
visionneuse
visual
vladimir
vls
vname
vo
voi
void
vok
vol
volapu
volga
volgograd
vologda
volume
vom
von
vong
vorlage
vparam
vro
vs
vu
vue
vui
vuk
vun
vung
vut
vxxxxors
w
wa
waak
waan
wai
wakamoto
wakayama
wales
walk
wall
walls
walon
walt
walter
wan
wang
want
wanted
wantname
war
warndump
warning
warnings
warring
warriors
wars
warszawa
was
washington
washingtonpost
watch
water
watt
way
wchar
wd
we
weakly
web
website
wedding
week
weight
well
wells
were
west
western
wetland
wh
what
whatever
when
where
whether
which
while
white
whitelist
whitespace
who
whole
wholestr
whose
why
wi
wide
width
widths
wie
wien
wiki
wikibase
wikidata
wikidataid
wikilink
wikilinked
wikilinks
wikimedia
wikipedia
wikipedias
wikiproject
wikiquote
wikis
wikisource
wikispecies
wikitable
wikitext
wiktionary
wilde
wiley
wilhelm
wilhelmina
will
willem
william
williams
willis
wilson
win
windows
windsor
winston
winter
with
withdrawal
within
without
withspace
wo
wojewo
wolfgang
wolfsburg
won
wong
wonju
word
words
work
works
world
worldcat
worldcatid
would
wp
wrap
wrapped
wrapper
wrappers
write
written
wrong
wsc
wstring
wt
wu
wuerzburg
wui
wun
wut
wuu
www
x
xabblo
xal
xanyan
xerxes
xfff
xfffd
xh
xhi
xianse
xico
xl
xlo
xx
xxx
xxxxors
xy
y
ya
yahoo
yakut
yam
yamaguchi
yamalo
yamato
yamazaki
yan
yang
yangshuo
yanguas
yano
yap
yard
yards
yau
yd
ye
year
years
yemen
yen
yes
yesno
yet
yeu
yew
yfactor
yfull
yi
yid
yim
yin
yip
yit
yiu
yj
ym
ymd
yo
yok
yokoyama
yong
yoritomo
york
yorkshire
yoruba
you
young
your
yourself
youtube
youtuber
yr
yrediv
yrefactor
yreround
yround
yu
yuan
yucata
yue
yui
yuk
yun
yung
yushanseacloud
yushansunrise
yy
yyy
yyyy
z
za
zaa
zaap
zai
zak
zam
zambia
zamenhof
zan
zaragoza
zau
zazaki
zbl
ze
zea
zealand
zen
zeng
zero
zeros
zh
zha
zhi
zi
zim
zimbabwe
zip
zit
ziu
zj
zm
zoi
zone
zong
zoo
zu
zui
zuk
zung
zw
{
|
}
~
¢
£
§
«
¬
­
°
±
²
³
µ
¶
·
¹
»
¼
½
×
÷
ø
đa
đe
đi
đie
đo
ŋ
ſ
ƨ
ƻ
ȵ
ɏ
ɔ
ə
ɛ
ɬ
ɲ
ɼ
ɿ
ʃ
ʧ
ʰ
ʲ
ʻ
ʾ
ˁ
ˇ
ˈ
ˊ
ˋ
ˌ
ː
̀
́
̂
̃
̄
̆
̇
̈
̉
̊
̋
̌
̍
̓
̔
̛
̞
̣
̤
̧
̨
̪
̯
̿
͂
͘
΄
α
ε
μ
ν
ο
π
προ
ρ
ς
τ
τυπο
τυπον
φ
ω
ашаблон
бласть
в
вская
дакъа
дская
загвар
и
кевләр
лопапарцун
н
нская
о
область
обра
р
республика
с
т
у
украі
халыып
ць
ч
шабле
шаблон
ы
ь
ю
я
ямдылык
є
ҡалып
үлгі
үрнәк
կաղապար
ְ
ֲ
ִ
ֵ
ַ
ָ
ֹ
ֻ
ּ
ׁ
א
ב
ד
דיש
ה
הו
ו
ז
ח
ט
י
יי
כ
ל
ם
מ
מוסטער
נ
ס
ע
ף
פ
ר
ש
ת
תבנית
ا
استان
الگو
داڕێژە
ز
س
سانچو
سانچہ
شابلون
قالب
قېلىپ
م
ه
و
ي
َ
ُ
ِ
ٓ
ٔ
کينډۍ
۲
ܩܠܒܐ
ހ
ނ
ބ
ވ
ފ
ދ
ތ
ސ
ަ
ި
ެ
ް
ँ
ं
क
ग
च
ठ
त
द
न
प
ब
बधर
भ
म
र
ल
व
श
ष
स
ह
ा
ि
ी
ु
ू
ृ
े
ॉ
ो
्
ঁ
ং
গ
চ
ট
ঠ
ণ
ত
প
ব
ম
মড
মপ
য
র
ল
ষ
স
়
া
ি
ী
ু
ে
্
ਜ
ਦ
ਨ
ਨਮ
ਪ
ਬ
ਲ
ਹ
ਾ
ਿ
ੀ
ੂ
ੇ
ੰ
ં
ગ
ચ
જ
ઢ
ત
ળ
ા
ી
ુ
ો
ଆ
ଶ
଼
ା
ି
ட
தம
ந
ப
ர
ழ
வ
ா
ி
ு
்
ం
ఆ
గ
ణ
త
ద
ధ
ప
బ
మ
ర
ల
శ
స
హ
ా
ు
ూ
ె
్
ౕ
ౖ
ಂ
ಕ
ಖ
ಗ
ಘ
ಙ
ಚ
ಛ
ಜ
ಝ
ಞ
ಟ
ಠ
ಡ
ಢ
ಣ
ತ
ಥ
ದ
ಧ
ನ
ಪ
ಫ
ಬ
ಭ
ಮ
ಯ
ರ
ಲ
ಳ
ವ
ಶ
ಷ
ಸ
ಹ
ಾ
ು
ೆ
್
ೕ
೦
೧
೨
೩
೪
೫
೬
೭
೮
೯
ം
ക
ച
ന
പ
ഫലക
യ
വ
ാ
ി
ു
ൂ
്
ං
ක
ග
ඩ
ත
න
ප
ම
ය
ර
ල
ව
ස
්
ා
ැ
ි
ී
ු
ෙ
ล
ิ
ุ
ู
แบบ
แม
่
้
ແບບ
ແມ
່
໊
ໍ
་
།
ཀ
ཁ
ག
ང
ཆ
ཉ
ད
མ
ར
ལ
ས
ི
ུ
ེ
ོ
ྩ
ྫ
ྲ
ྷ
တ
မ
လ
သ
ာ
ိ
ု
ူ
း
ျ
ၽ
ႃ
ႆ
ႇ
თარგი
구조본부
남구
대만
대지진
동구
북구
서구
옛한글
중구
중앙
출동
틀
한겨레
현대
መለጠፊያ
ខ
ទ
ព
ភ
ម
រ
រគ
ស
ឰ
ា
ូ
ែ
ំ
័
្
᠋
ᠬᠣᠲᠠ
ᵊ
​
‍
‎
–
—
‘
’
“
”
„
†
‡
•
…
‧
‪
‬
‰
′
″
‹
›
⁄
⁻
ⁿ
₩
€
₼
₽
℃
℈
™
⅔
←
→
↔
↷
⇌
−
√
∶
≥
①
②
③
④
⑦
─
■
△
★
☉
☾
☿
♀
♂
♃
♄
♆
♇
♠
⛢
⯓
⺀
⺄
⺆
⺈
⺊
⺌
⺕
⺝
⺸
⺼
⿰
⿱
⿲
⿳
⿴
⿵
⿶
⿷
⿸
⿹
⿺
⿻
、
。
〈
〉
《
》
「
」
『
』
【
】
〔
〕
〢
あ
い
う
え
お
か
き
く
け
こ
さ
し
す
そ
た
ち
っ
つ
て
と
な
に
ぬ
ね
の
は
ひ
ふ
へ
ほ
ま
み
む
め
も
ゃ
や
ょ
よ
ら
り
る
れ
ろ
わ
を
ん
゙
゚
ァ
ア
ィ
イ
ウ
ェ
エ
オ
カ
キ
ク
ケ
コ
サ
シ
ス
セ
ソ
タ
チ
ッ
ツ
テ
ト
ナ
ニ
ネ
ノ
ハ
ヒ
フ
ヘ
ホ
マ
ミ
メ
モ
ャ
ヤ
ユ
ョ
ラ
リ
ル
レ
ロ
ワ
ン
・
ー
ㄉ
ㄏ
ㄓ
ㄔ
ㄕ
ㄖ
ㄣ
ㄤ
ㄧ
ㄨ
ㄪ
ㄴ
㇁
㇂
㇄
㇇
㇈
㇉
㇓
㐁
㐄
㐅
㐌
㐫
㐬
㐭
㐮
㐱
㑒
㒵
㒸
㒼
㓁
㓞
㓾
㔾
㕛
㕣
㖾
㘝
㚅
㚇
㚔
㚘
㜷
㝉
㝡
㝴
㝵
㞋
㞢
㞷
㠩
㠭
㠯
㡀
㡭
㡿
㢲
㢴
㣇
㣺
㥯
㪅
㫄
㫐
㫒
㫺
㬅
㬎
㬥
㬰
㬹
㲋
㳄
㷠
㸒
㸚
㸦
㼌
㼲
㽞
㿟
䀠
䂞
䍃
䏍
䒑
䖍
䖒
䖝
䖵
䗁
䗆
䙴
䚻
䜌
䝿
䡛
䥑
䧹
䪞
一
丁
丂
七
丄
丅
丆
万
丈
三
上
下
丌
不
与
丏
丐
丑
专
且
丕
世
丘
丙
业
东
丞
丢
丣
两
严
並
丨
丩
个
丫
丬
中
丮
丰
丱
串
临
丵
丶
丷
丸
丹
为
主
丼
丽
举
丿
乀
乂
乃
久
乆
乇
么
义
之
乌
乍
乎
乏
乐
乑
乒
乓
乔
乖
乗
乘
乙
乚
乛
乜
九
乞
也
习
乡
书
乳
乾
亀
亂
亅
了
亇
予
争
事
二
亍
于
亏
亐
云
互
亓
五
井
亘
亚
些
亜
亞
亟
亠
亡
亢
交
亥
亦
产
亨
亩
享
京
亭
亮
亯
亰
亲
亳
亶
亷
人
亻
亼
亾
亿
什
仁
仄
仅
今
介
仌
仍
从
仏
仐
仑
仒
仓
仔
仕
他
付
仙
仝
仡
代
令
以
仫
们
仮
仰
仲
仵
件
任
份
企
伊
伍
伏
伐
休
众
优
伙
会
伝
伟
传
伦
伯
估
伴
伸
伺
似
伽
佃
但
佇
佈
位
低
住
佐
佑
体
佔
何
佘
余
佚
佛
作
你
佢
佤
佥
佩
佬
佮
佰
佳
併
使
來
侈
例
侌
侖
侗
供
依
侧
侨
侮
侯
侵
便
係
促
俄
俊
俐
俗
保
俞
俠
信
俪
俫
修
俱
俾
倈
倉
個
倍
們
倒
候
倚
借
倠
倡
倫
倭
值
假
偉
偎
偏
偕
做
停
健
偲
側
偵
偶
偷
傀
傅
傈
傑
傘
備
傢
傣
储
催
傳
債
傷
傾
僅
僇
僉
像
僑
僕
僚
僮
僳
價
僻
儀
儂
億
儉
儒
儕
儘
償
儡
優
儲
儷
儿
兀
允
兂
元
兄
充
兆
兇
先
光
兊
克
兌
免
兑
兒
兓
兔
党
兜
兟
入
內
全
兩
兪
八
公
六
兮
兰
共
关
兴
兵
其
具
典
兹
养
兼
冀
冂
冃
冄
内
冇
冈
冉
冊
冋
册
再
冎
冏
冐
冒
冓
冕
冖
冗
冘
写
军
农
冝
冠
冡
冥
冪
冫
冬
冰
决
况
冶
冷
净
凃
凄
准
凈
凉
凌
凍
凝
几
凡
凢
凤
凰
凱
凵
凶
凷
凸
凹
出
击
函
凾
刀
刁
刂
刃
刄
刅
分
切
刊
刍
刑
划
刕
刖
列
刘
则
创
初
删
判
別
利
刪
别
刮
到
制
刷
券
刺
刻
則
削
剌
前
剑
剖
剛
剡
剧
剩
副
割
創
剽
劃
劇
劈
劉
劍
劑
力
劝
办
功
加
务
劣
劦
动
助
努
劫
劭
劳
劵
势
勁
勃
勇
勉
勒
動
務
勝
勞
募
勢
勤
勳
勵
勸
勹
勺
勻
勾
勿
匀
匂
包
匆
匈
匊
匋
匍
匕
化
北
匙
匚
匝
匠
匡
匣
匪
匯
匱
匸
匹
区
医
匽
匿
區
十
卂
千
卄
卅
卆
升
午
卉
半
卌
华
协
卑
卒
卓
協
单
卖
南
博
卜
卝
卞
占
卡
卢
卣
卤
卦
卩
卪
卫
卬
卯
印
危
即
却
卵
卷
卸
卻
厂
厃
厄
厅
历
厈
厉
厌
厓
厘
厚
厝
原
厤
厥
厦
厨
厭
厲
厶
厷
厸
去
厼
厽
县
叀
叁
参
參
叅
又
叉
及
友
双
反
叐
发
叒
叔
叕
取
受
变
叚
叜
叟
口
古
句
另
叩
只
叫
召
叭
可
台
叱
史
右
叵
叶
号
司
叹
叺
叻
吂
吃
各
吅
合
吉
吊
吋
同
名
后
吏
吐
向
吕
吗
君
吝
吞
吟
吠
否
吧
含
启
吳
吴
吵
吸
吹
吻
吾
呀
呂
呆
呈
告
呎
员
呙
呢
周
呪
味
呵
呸
呼
命
咀
咁
咅
和
咎
咖
咗
咠
咢
咨
咬
咸
咼
咽
哀
品
哆
哈
哉
响
哎
員
哥
哦
哩
哪
哭
哲
哺
唇
唐
唔
唧
售
唯
唱
啄
商
啇
啊
問
啓
啚
啜
啟
啡
啤
啦
啬
啱
啻
啾
喀
善
喇
喉
喊
喜
喝
喧
喪
喫
喬
單
喺
喻
喿
嗇
嗎
嗙
嗟
嗹
嗽
嘀
嘅
嘈
嘉
嘎
嘔
嘚
嘛
嘯
嘴
噂
噉
噍
噏
噢
器
噩
噪
噸
嚨
嚳
嚴
嚿
囊
囑
囓
囗
囘
囙
囚
四
回
囟
因
団
囧
囬
园
囯
困
囱
围
囷
固
国
图
圂
圅
圆
圈
國
圍
園
圓
圖
團
土
圡
圣
圥
在
圩
圭
地
圳
圶
场
圼
址
坂
均
坊
坌
坎
坏
坐
坑
坒
块
坚
坟
坡
坦
坪
坭
坳
坴
坵
垂
垈
型
垌
垔
垚
垣
埀
埃
埋
城
埔
埕
埗
埚
域
埠
埤
埶
執
培
基
埼
堂
堅
堆
堇
堡
堤
堯
堰
報
場
堵
堺
塊
塌
塑
塔
塗
塘
塚
塞
填
塱
塵
塽
塾
境
墅
墓
増
墙
墜
增
墟
墨
墩
墮
墳
墾
壁
壆
壇
壊
壓
壘
壞
壟
壤
壩
士
壬
壮
壯
声
壳
壴
壹
壺
壽
夂
处
夅
夆
备
変
夊
夋
夌
复
夏
夒
夕
外
夗
夘
多
夜
够
夠
夢
夥
大
夨
天
太
夫
夬
夭
央
失
夲
头
夷
夸
夹
夻
夾
奂
奄
奇
奈
奉
奎
奏
奐
契
奓
奔
奕
奖
套
奚
奞
奠
奢
奥
奧
奪
奭
奮
女
奴
奶
她
奻
好
如
妃
妄
妍
妖
妙
妝
妟
妥
妨
妮
妲
妳
妹
妻
妾
姆
姊
始
姐
姑
姓
委
姚
姜
姻
威
娃
娄
娘
娛
娜
娥
婁
婆
婚
婦
婧
婭
婴
婷
婿
媒
媧
媽
嫩
嫲
嬛
嬤
嬰
嬴
孃
子
孑
孔
孕
孖
字
存
孙
孚
孛
孝
孟
季
孤
学
孩
孫
孱
孵
學
宀
宁
宂
它
宅
宇
守
安
宋
完
宏
宓
宕
宗
官
宙
定
宛
宜
宝
实
実
审
客
宣
室
宮
宰
害
宵
家
容
宾
宿
寂
寄
寅
密
富
寒
寓
寛
察
寡
實
寧
寨
審
寫
寬
寮
寳
寵
寶
寸
对
寺
寻
导
寽
対
寿
封
尃
射
将
將
專
尉
尊
尋
尌
對
導
小
少
尒
尓
尔
尖
尗
尚
尝
尞
尢
尣
尤
尧
尨
尭
就
尸
尹
尺
尻
尼
尽
尾
尿
局
层
居
屆
屈
届
屋
屌
屍
屎
屏
屐
屑
展
屖
屚
属
屠
屡
層
屬
屮
屯
屰
山
屵
屾
岁
岂
岐
岑
岗
岛
岡
岩
岭
岳
岸
峇
峒
峙
峠
峡
峨
峪
峯
峰
島
峻
峽
崁
崇
崋
崍
崎
崑
崔
崖
崗
崙
崧
崩
嵊
嵌
嵙
嵬
嶋
嶲
嶺
嶼
嶽
巂
巒
巖
巛
川
州
巟
巠
巡
巢
巤
工
左
巧
巨
巩
巫
差
己
已
巳
巴
巷
巸
巽
巾
巿
帀
市
布
帆
师
希
帕
帖
帚
帛
帜
帝
帥
带
師
席
帮
帰
帳
帶
常
帽
幅
幌
幕
幟
幡
幢
幣
幫
幰
干
平
年
幵
并
幷
幸
幹
幺
幻
幼
幽
幾
广
広
庄
庆
庇
床
序
库
应
底
店
庚
府
度
座
庫
庭
庶
康
庸
庾
廂
廈
廉
廊
廌
廖
廛
廟
廠
廢
廣
廩
廬
廰
廳
廴
延
廷
建
廻
廾
廿
开
弁
弃
弄
弇
弋
弍
弎
式
弓
弔
引
弗
弘
弜
弟
张
弥
弦
弧
弱
張
強
弹
强
弼
弾
彈
彊
彌
彎
彐
彑
归
当
彔
录
彖
彗
彙
彝
彡
形
彥
彦
彧
彩
彪
彬
彭
彰
影
彳
役
彼
往
征
径
待
很
律
後
徐
徑
徒
得
徙
從
徠
御
復
循
微
徵
德
徹
徽
心
忄
必
忌
忍
忒
志
忘
忙
忝
忠
忩
快
念
忻
忽
忿
态
怎
怒
怕
思
怠
怡
急
性
怨
怪
怱
总
恁
恃
恅
恆
恇
恋
恐
恒
恕
恢
恨
恩
恪
恬
恭
息
恰
恶
悅
悉
悌
悟
悠
患
悤
您
悪
悲
悶
情
惑
惜
惟
惠
惡
惢
想
惹
愁
愈
愉
意
愕
愚
愛
感
愷
慄
慈
態
慎
慕
慘
慢
慣
慤
慧
慮
慰
慶
慷
慾
憂
憑
憤
憲
懂
懇
應
懲
懷
懸
懼
戀
戈
戉
戊
戋
戌
戍
戎
戏
成
我
戒
戔
或
战
戚
戠
戡
戢
截
戰
戲
戴
戶
户
戹
戼
戾
房
所
扁
扇
扈
手
扌
才
扎
打
托
扣
执
扮
扶
批
扼
找
承
技
抄
把
抑
抓
投
抗
折
护
报
抨
抱
抵
押
抽
拂
担
拆
拉
拋
拌
拍
拑
拒
拓
拔
拖
拘
招
拜
括
拯
拱
拳
拼
拾
拿
持
指
按
挑
挨
挪
振
捉
捌
捐
捕
捞
损
换
捧
捨
据
捱
捲
捷
捺
捽
掀
掃
授
掉
掌
排
掖
掘
掛
掠
採
探
掣
接
控
推
掩
措
描
提
插
揚
換
握
揪
揭
揮
援
損
搖
搜
搞
搪
搬
搭
搶
摄
摎
摩
摸
摺
摻
撇
撈
撐
撒
撞
撤
撥
撩
撫
撬
播
撮
撰
撲
撳
撾
擁
擂
擅
擇
擊
擋
操
擎
擔
據
擠
擦
擬
擱
擴
擺
擾
攀
攘
攜
攝
支
攴
攵
收
攸
改
攻
放
政
敄
故
效
敌
敎
敏
救
敕
敖
敗
敘
教
敝
敞
敢
散
敦
敫
敬
数
整
敵
敷
數
斂
斃
文
斉
斊
斌
斗
料
斜
斡
斤
斥
斧
斩
斬
断
斯
新
斷
方
於
施
斿
旁
旅
旋
旌
族
旗
无
旡
既
旣
日
旦
旧
旨
早
旬
旮
旯
旱
旲
时
旺
旾
昂
昃
昆
昇
昊
昌
昍
明
昏
易
昔
昗
昜
星
映
春
昬
昭
是
昱
昴
昷
昼
显
時
晃
晉
晋
晏
晓
晚
晝
晡
晨
普
景
晰
晴
晶
智
暂
暉
暑
暖
暗
暢
暦
暨
暫
暴
曁
曆
曇
曉
曙
曜
曝
曠
曩
曰
曲
曳
更
曷
書
曹
曼
曾
替
最
朁
會
月
有
朋
服
朏
朔
朕
朗
望
朝
期
木
朩
未
末
本
札
朮
术
朱
朴
朵
朶
机
朿
杀
权
杆
杉
李
杏
材
村
杜
束
条
来
杭
杮
杰
東
杲
杳
松
板
极
枋
析
枕
林
枚
果
枝
枠
枲
架
枼
柄
柏
某
柑
柒
染
柔
柘
查
柬
柯
柰
柱
柳
柴
柵
査
柾
柿
栄
标
栈
栏
栗
校
栢
株
样
核
根
格
栽
桀
桂
桃
框
案
桌
桐
桑
桓
桔
档
桥
桶
桼
桿
梁
梅
梓
梗
條
梟
梧
梨
梭
梯
械
梵
棄
棉
棋
棍
棒
棕
棘
棟
棠
棣
棥
棧
森
棱
棲
椅
植
椎
椏
椒
椚
椰
楊
楓
楚
楠
業
極
楷
楽
概
榄
榆
榔
榕
榜
榨
榮
榴
構
槍
様
槤
槺
槻
槽
樂
樊
樑
樓
標
樞
樟
模
樣
樨
横
樵
樸
樹
樺
橋
橘
橙
機
橫
檀
檔
檢
檨
檬
檸
櫃
櫈
櫻
欄
權
欖
欠
次
欣
欧
欮
欲
欶
欸
欺
欽
款
歆
歇
歌
歐
歓
歕
歙
歛
歡
止
正
此
步
武
歧
歨
歪
歮
歯
歰
歲
歴
歷
歸
歹
歺
死
殃
殉
殊
残
殖
殘
殳
段
殷
殸
殹
殺
殻
殼
殿
毀
毅
毋
毌
母
每
毒
毓
比
毕
毗
毚
毛
毫
毳
氏
氐
民
氓
气
氖
氙
氜
氝
氟
氡
氣
氦
氧
氨
氪
氫
氬
氮
氯
水
氵
氶
氷
永
氺
氾
汀
汁
求
汉
汐
汕
汗
汛
汝
汞
江
池
污
汨
汪
汶
決
汽
沃
沅
沈
沉
沐
沒
沓
沖
沙
沛
沝
没
沢
沫
河
油
治
沼
沿
況
泄
泉
泊
法
泗
泛
泡
波
泣
泥
注
泮
泰
泳
泵
泽
洁
洋
洗
洛
洞
津
洪
洲
活
派
流
浊
测
济
浏
浙
浦
浩
浪
浮
浰
浴
海
浸
涂
消
涉
涌
涛
涠
润
涪
涯
液
涵
涼
淀
淅
淆
淑
淙
淚
淞
淡
淨
淩
淪
淮
深
淳
淵
混
淺
添
清
渋
渐
渚
減
渠
渡
渣
渥
温
測
港
渴
游
湄
湖
湘
湛
湞
湧
湮
湯
湿
源
準
溝
溢
溥
溪
溫
溯
溴
溶
滁
滄
滅
滋
滎
滑
滕
滘
满
滯
滲
滴
滾
滿
漁
漂
漆
漏
演
漠
漢
漫
漱
漳
漸
漿
潑
潔
潘
潛
潜
潟
潢
潤
潭
潮
潯
潼
澀
澄
澎
澗
澤
澧
澱
澳
激
濁
濃
濕
濛
濟
濠
濤
濫
濬
濯
濱
瀋
瀏
瀕
瀘
瀛
瀝
瀧
瀨
瀬
瀰
瀾
灌
灘
灣
火
灬
灭
灰
灵
灶
灷
灼
災
炅
炆
炎
炏
炒
炗
炙
炭
炮
炸
点
為
烈
烏
烘
烝
烟
烤
热
焉
焊
焙
焚
無
焦
焱
然
煇
煉
煌
煖
煙
煞
煥
照
煬
煮
熄
熊
熏
熙
熟
熬
熱
熹
燃
燄
燈
燐
燒
燕
燜
營
燦
燧
燭
燮
爆
爐
爛
爧
爪
爫
爬
爭
爯
爰
爱
爲
爵
父
爸
爺
爻
爽
爾
爿
牆
片
版
牌
牙
牚
牛
牜
牟
牡
牢
牧
物
牪
牯
牲
特
牽
犀
犁
犍
犬
犭
犮
犯
状
狀
狂
狄
狊
狐
狗
狡
独
狭
狸
狹
狺
狼
猋
猒
猛
猩
猪
献
猴
猶
獄
獅
獎
獣
獨
獲
獵
獸
獻
玄
率
玉
王
玕
玜
玟
玨
玩
环
现
玲
玻
珀
珂
珊
珍
珎
珙
珞
珠
班
現
球
琅
理
琉
琊
琢
琦
琳
琴
琵
琶
琹
瑄
瑋
瑚
瑜
瑞
瑟
瑤
瑩
瑪
瑶
璃
璋
璘
璠
璧
環
璽
瓊
瓜
瓠
瓣
瓦
瓶
瓷
甄
甌
甘
甚
甜
生
產
産
用
甫
甬
甯
田
由
甲
申
电
甶
男
甸
甹
町
画
甾
畀
界
畏
畐
畑
畔
留
畚
畜
畝
畟
畠
畢
略
畧
畨
番
畫
異
畱
畲
當
畹
畺
畾
畿
疆
疇
疊
疋
疌
疏
疑
疒
疔
疫
疲
疹
疾
病
症
痊
痛
痞
痢
痰
痺
瘓
瘟
瘡
療
癒
癱
癶
癸
癹
発
登
發
白
百
皀
皃
的
皆
皇
皈
皋
皐
皕
皮
皷
皺
皿
盃
盆
盇
盈
益
盍
盎
监
盒
盖
盛
盜
盟
盡
監
盤
盧
目
盲
直
相
盼
盾
省
眇
眉
看
眔
眞
真
眠
眶
眷
眺
眼
眾
着
睇
睘
睞
睡
督
睦
睪
睭
睹
睿
瞄
瞏
瞢
瞭
瞿
矍
矛
矞
矢
矣
知
矦
矩
短
矮
石
矽
矿
码
砂
砈
砒
研
砦
破
砷
硃
硅
硒
硫
硬
确
硯
硼
碇
碎
碑
碗
碘
碧
碩
碰
碲
碳
碴
確
碼
磁
磊
磚
磡
磨
磯
磷
磺
礁
礄
礎
礙
礦
示
礻
礼
社
祀
祁
祇
祈
祐
祕
祖
祛
祜
祝
神
祟
祠
祢
祥
票
祭
禀
禁
禍
福
禧
禪
禮
禱
禸
禹
禺
离
禽
禾
禿
秀
私
秃
秉
秋
种
科
秒
秘
秝
租
秤
秦
秧
秩
积
称
移
稀
稅
程
稍
稔
稚
稜
稟
稠
種
稱
稷
稻
稼
稽
稿
穀
穆
穌
積
穎
穗
穩
穴
究
穷
穹
空
穿
突
窄
窒
窓
窖
窗
窟
窩
窮
窰
竄
立
竒
站
竜
竝
竞
竟
章
竣
童
端
競
竹
竺
竽
竿
笏
笑
笔
笙
笛
笠
符
第
筆
等
筋
筍
筑
筒
答
策
筠
筲
签
简
箇
箋
箕
算
管
箭
箱
箴
節
範
篇
築
篙
篠
篡
篤
篭
篼
簕
簗
簡
簧
簷
簽
簾
簿
籃
籍
籠
籤
籬
籲
米
类
粄
粉
粒
粗
粛
粟
粤
粥
粦
粮
粱
粲
粵
粽
精
糕
糖
糞
糟
糧
糭
糯
糸
糹
系
糾
紀
約
紅
紋
納
紐
純
紘
紙
級
紛
素
紡
索
紫
紬
累
細
紳
紹
終
組
結
絕
絜
絡
給
絫
統
絲
絵
絶
綏
經
綜
綠
綢
綫
維
綱
網
綴
綽
綿
緊
緋
緑
緒
線
緝
締
緣
編
緩
緬
緯
練
緻
縣
縫
縮
縱
總
績
繁
繆
繇
織
繞
繩
繪
繫
繳
繹
繼
繽
纂
續
纍
纖
纜
纟
红
约
级
纳
纸
线
练
组
细
织
终
绍
经
结
绕
给
络
绝
统
继
续
维
综
绿
缆
缓
编
缩
缶
缸
缺
缽
罅
罌
网
罒
罔
罕
罗
罙
罟
罡
罢
罩
罪
置
罰
署
罷
羅
羊
羋
羌
羍
美
羔
羕
羗
羞
羡
羣
群
義
羯
羲
羸
羽
翁
翊
翌
翏
習
翔
翕
翟
翠
翩
翰
翹
翻
翼
耀
老
耂
考
者
耆
而
耎
耐
耑
耒
耕
耗
耘
耙
耳
耴
耶
耷
耿
聂
聊
职
联
聖
聘
聚
聞
聯
聰
聲
聶
職
聼
聽
聾
聿
肀
肃
肅
肆
肇
肉
肖
肙
肚
肝
股
肢
肥
肩
肯
育
肴
肺
胃
背
胖
胚
胜
胞
胡
胥
胭
胰
胲
胸
能
脂
脅
脈
脉
脊
脑
脥
脩
脫
脸
脹
腎
腐
腓
腔
腦
腰
腳
腹
腾
腿
膁
膚
膛
膜
膝
膠
膣
膦
膨
膺
臂
臘
臟
臣
臤
臥
臧
臨
自
臬
臭
臯
臱
至
致
臺
臻
臼
臽
臾
臿
舀
舂
舄
舅
與
興
舉
舊
舌
舍
舒
舖
舘
舛
舜
舞
舟
航
般
船
艙
艮
良
色
艸
艹
艺
艾
节
芈
芎
芒
芔
芙
芝
芥
芦
芬
芮
芯
花
芳
芷
芸
芺
芻
芽
芾
苑
苓
苔
苖
苗
苟
苡
若
苦
英
苻
茂
范
茄
茅
茨
茫
茲
茵
茶
茸
茹
荀
荃
荅
草
荒
荔
荖
荣
荫
药
荷
荻
荼
莆
莉
莊
莎
莒
莓
莞
莧
莫
莱
莽
莿
菅
菆
菇
菈
菊
菌
菐
菓
菜
菠
菩
華
菱
菲
菻
萄
萊
萌
萍
萎
萣
营
萨
萩
萬
萱
落
葉
著
葛
葡
董
葦
葫
葬
葵
蒂
蒙
蒜
蒞
蒦
蒲
蒸
蒼
蓄
蓉
蓋
蓬
蓮
蓺
蔑
蔓
蔔
蔗
蔘
蔚
蔡
蔣
蔥
蔬
蔭
蔵
蕉
蕒
蕙
蕪
蕭
蕴
蕹
薄
薇
薊
薌
薐
薑
薛
薦
薩
薯
薰
藉
藍
藏
藝
藤
藥
藩
藴
藺
蘆
蘇
蘋
蘭
蘼
蘿
虍
虎
虐
虑
虒
虔
處
虖
虗
虘
虚
虛
虜
虞
號
虧
虫
虹
虻
虽
蚊
蚌
蚤
蚧
蚩
蚶
蚻
蛄
蛇
蛋
蛙
蛛
蛟
蛤
蜀
蜂
蜃
蜆
蜇
蜊
蜍
蜓
蜘
蜜
蜞
蜢
蜥
蜱
蜴
蜻
蝎
蝕
蝘
蝙
蝠
蝦
蝨
蝲
蝴
蝶
蝸
螂
融
螯
螳
螷
螺
蟄
蟆
蟬
蟲
蟹
蟻
蟾
蠅
蠍
蠔
蠟
蠡
蠣
蠻
血
衆
衊
行
衍
術
街
衙
衛
衝
衞
衡
衣
衤
表
衫
衭
衮
衰
衿
袁
袋
袒
袖
袞
被
裁
裂
装
裌
裏
裔
裕
補
裝
裡
裨
裴
裸
裹
製
複
褐
褒
褚
褭
褱
褶
襄
襟
襪
襲
襾
西
覀
要
覃
覆
見
規
覓
視
覡
覧
親
覺
覽
觀
见
观
规
视
角
觜
解
觸
言
訁
訂
訇
計
訊
討
訓
訖
託
記
訟
訥
訪
設
許
訴
診
註
詐
詔
評
詞
詢
試
詩
詮
詰
話
該
詳
詹
誌
認
誕
誘
語
誠
誡
誣
誤
誦
誩
說
誰
課
誹
誼
調
談
請
論
諜
諦
諫
諭
諮
諱
諷
諸
諾
謀
謂
謎
謗
謙
講
謝
謠
謬
謹
證
識
譚
譜
警
譯
議
譲
譴
護
譽
讀
變
讌
讓
讠
计
认
讨
训
议
讯
记
讲
讷
许
论
设
评
识
诉
词
译
试
话
询
该
详
语
误
说
请
诺
读
调
谐
谢
谱
谷
谿
豆
豈
豊
豎
豐
豕
豖
豙
豚
象
豦
豩
豪
豬
豸
豹
豺
貇
貌
貓
貝
貞
貟
負
財
貢
貧
貨
販
貪
貫
責
貳
貴
買
費
貼
貿
賀
賁
賃
賄
資
賈
賊
賏
賓
賔
賛
賜
賞
賠
賢
賣
質
賬
賭
賴
賺
購
賽
贈
贊
贖
贛
贝
贞
贡
财
责
质
贫
贯
贲
贴
贵
费
贺
资
赖
赛
赞
赤
赦
赫
走
赴
赵
起
趁
超
越
趕
趙
趣
趨
足
趾
跆
跌
距
跟
跡
跨
跪
路
跳
踏
踐
蹄
蹇
蹈
蹟
蹤
躁
躍
身
躬
車
軌
軍
軎
軒
軟
軫
軸
軻
較
載
輋
輒
輔
輕
輛
輝
輦
輩
輪
輯
輸
輻
輾
轄
轆
轉
车
轨
转
轰
轴
载
轿
较
辅
辑
输
辖
辘
辛
辜
辟
辣
辥
辦
辭
辰
辱
農
辵
辶
边
达
迁
迄
迅
过
迎
运
近
返
还
这
进
远
连
迦
迩
迪
迫
述
迴
迷
迹
迺
追
退
送
适
逃
逆
选
透
逐
途
逕
這
通
逝
速
造
逢
連
逮
週
進
逸
逼
逾
遀
遂
遇
遊
運
遍
過
遒
道
達
違
遙
遜
遠
遣
遥
適
遭
遮
遲
遵
遷
選
遺
遼
遽
避
邀
邁
還
邇
邊
邏
邑
邕
邛
邡
那
邦
邨
邪
邱
邵
邸
邻
郁
郊
郎
郝
郡
部
郫
郭
郴
郵
都
鄂
鄉
鄒
鄔
鄖
鄞
鄢
鄧
鄭
鄰
酆
酉
酋
配
酒
酓
酬
酮
酯
酱
酵
酷
酸
酿
醃
醉
醍
醐
醒
醜
醞
醫
醬
醮
醴
釀
釆
采
释
釋
里
重
野
量
釐
金
釒
釓
釔
釕
釘
釙
釜
針
釣
釤
釩
釷
釹
鈀
鈇
鈉
鈎
鈕
鈞
鈣
鈥
鈦
鈧
鈮
鈰
鈴
鈷
鈹
鈽
鈾
鉀
鉅
鉈
鉉
鉍
鉑
鉕
鉛
鉝
鉨
鉬
鉭
鉲
鉳
鉺
鉻
銀
銃
銅
銘
銜
銠
銣
銥
銦
銨
銩
銪
銫
銳
銷
銹
銻
鋁
鋂
鋅
鋇
鋒
鋦
鋨
鋪
鋯
鋰
鋱
鋼
錀
錄
錐
錒
錕
錢
錦
錫
錯
錳
錸
錼
鍅
鍆
鍇
鍋
鍥
鍩
鍶
鍺
鍾
鎂
鎖
鎘
鎝
鎢
鎣
鎦
鎮
鎳
鎵
鎶
鏈
鏌
鏑
鏗
鏘
鏡
鏷
鐒
鐘
鐠
鐡
鐨
鐮
鐳
鐵
鐽
鐿
鑀
鑊
鑑
鑣
鑪
鑭
鑰
鑲
鑼
鑽
鑾
钅
针
钛
钟
钱
钾
铁
铅
链
销
锌
锐
错
锡
镇
長
镸
长
門
閃
閉
開
閏
閑
閒
間
閔
閘
関
閣
閥
閩
閬
閱
閲
閵
閻
闆
闊
闌
闕
闖
關
闢
门
问
闰
间
闷
闻
闽
阅
阑
阙
阜
阝
阪
阮
防
阳
阴
阵
阶
阻
阿
陀
陂
附
际
陆
陈
降
限
陕
陛
陝
陡
院
陣
除
陰
陳
陵
陶
陷
陸
陽
隆
隊
隋
階
随
隔
隙
際
障
隡
隧
隨
險
隱
隴
隶
隸
隹
隺
隻
隼
隽
难
雀
雁
雄
雅
集
雈
雉
雋
雌
雍
雐
雒
雔
雕
雖
雙
雚
雜
雝
雞
離
難
雨
雩
雪
雯
雲
零
雷
雹
雺
電
需
霄
霆
震
霍
霖
霙
霜
霝
霞
霧
霰
露
霸
霹
霾
靁
靂
靈
靑
青
靖
靚
靜
非
靠
靡
面
靣
革
靶
靼
鞋
鞍
鞠
韃
韋
韓
韦
韩
韭
韯
韱
音
韶
韻
響
頁
頂
頃
項
順
須
頊
預
頓
頗
領
頡
頭
頸
頻
顆
題
額
顎
顏
顓
願
顛
類
顧
顯
页
顷
项
顺
须
顿
颂
预
领
频
颖
题
颜
風
颱
风
飛
飞
食
飠
飢
飯
飲
飾
餃
餅
養
餐
餔
餘
餡
館
饅
饒
饣
饭
饱
饼
首
香
馬
馮
馳
駁
駅
駐
駒
駕
駛
駦
駱
騎
騙
騰
騷
驅
驗
驚
驛
驟
马
驶
驻
驾
驿
验
骨
骸
骼
髀
體
高
髟
髮
鬆
鬍
鬚
鬥
鬧
鬪
鬯
鬲
鬼
魂
魄
魅
魏
魔
魚
魯
鮑
鮫
鮮
鯉
鯨
鰂
鰍
鰱
鱔
鱲
鱷
鱼
鲁
鲜
鳞
鳥
鳳
鳴
鴃
鴉
鴕
鴨
鴻
鴿
鵑
鵝
鵬
鵰
鵲
鶯
鶴
鷂
鷝
鷯
鷲
鷹
鷺
鸛
鸟
鸣
鹤
鹵
鹹
鹼
鹽
鹿
麃
麒
麓
麗
麟
麥
麦
麴
麵
麻
麼
麽
黃
黄
黍
黎
黑
黒
黔
默
黛
黜
點
黨
黹
黽
黾
鼎
鼓
鼠
鼻
齊
齋
齐
齒
齡
齣
齧
齿
龍
龐
龔
龙
龚
龜
龟
龠
龰
龱
龴
龵
龶
龷
龸
龹
鿫
鿬
ꀒ
ꁌ
ꁧ
ꂿ
ꃀ
ꃆ
ꃺ
ꄏ
ꄓ
ꄧ
ꄷ
ꅇ
ꅉ
ꆀ
ꆃ
ꆆ
ꆈ
ꆹ
ꇉ
ꇤ
ꈬ
ꉙ
ꉼ
ꊨ
ꋂ
ꋤ
ꌠ
ꍏ
ꍣ
ꍿ
ꎂ
ꎭ
ꏁ
ꏃ
ꏦ
ꏪ
ꏱ
ꐦ
ꐭ
ꑌ
ꑝ
ꑤ
꒿
ꙁ
ꭹ
ꮃ
ꮳ

者
艹
﹑
﹝
﹞
﻿
！
％
＆
（
）
，
－
．
／
：
；
＝
？
｜
～
🜨
𠀁
𠀃
𠀆
𠀉
𠀎
𠀐
𠁁
𠁣
𠂆
𠂇
𠂈
𠂉
𠂊
𠂋
𠂎
𠂒
𠂔
𠂛
𠂡
𠂢
𠂤
𠂬
𠂭
𠂹
𠃊
𠃋
𠃌
𠃍
𠃎
𠃑
𠃓
𠃔
𠃜
𠄌
𠄎
𠄠
𠄢
𠆢
𠆥
𠇍
𠈌
𠊎
𠌵
𠓜
𠔉
𠔥
𠔼
𠔽
𠔿
𠕀
𠕁
𠕋
𠘧
𠘨
𠙻
𠙼
𠚏
𠚒
𠚤
𠚪
𠣏
𠤎
𠤕
𠥓
𠦄
𠦑
𠦝
𠧒
𠧗
𠧪
𠩺
𠪚
𠫓
𠫔
𠫤
𠬛
𠬝
𠬞
𠬢
𠬤
𠬶
𠮛
𠮦
𠮷
𠯑
𠱠
𠳮
𠷎
𡈼
𡉀
𡉵
𡌥
𡍮
𡏳
𡒉
𡕒
𡕩
𡕰
𡖅
𡗗
𡗜
𡘆
𡘤
𡧱
𡨄
𡩧
𡬠
𡭽
𡰣
𡰥
𡰪
𡰯
𡰱
𡷈
𡸁
𡿨
𡿩
𡿪
𡿺
𢀖
𢀛
𢀩
𢁙
𢆉
𢆰
𢆶
𢇁
𢇇
𢉖
𢌬
𢌿
𢏚
𢑑
𢑚
𢖻
𢙣
𢛳
𢦏
𢦒
𢧵
𢼄
𢾕
𣁋
𣄼
𣅀
𣅽
𣍘
𣎳
𣎵
𣏋
𣏼
𣗥
𣥂
𣥖
𣦵
𣦼
𣧄
𣪊
𣪠
𣬉
𣳾
𣶒
𤇾
𤊽
𤐫
𤓰
𤔔
𤕨
𤣩
𤦽
𤰇
𤰔
𤰞
𤴓
𤴔
𤽄
𥁑
𥁕
𥃦
𥃩
𥃭
𥇡
𥍉
𥑟
𥘅
𥘈
𥝢
𥫗
𥱡
𦈢
𦉪
𦉬
𦉼
𦍌
𦍒
𦎧
𦐇
𦓔
𦔮
𦘒
𦙃
𦚏
𦣝
𦣞
𦣻
𦥑
𦥔
𦥯
𦨉
𦭝
𦰩
𧆞
𧈧
𧘇
𧰨
𧴪
𧴮
𧵩
𧾷
𨒂
𨧀
𨨏
𨭆
𨭎
𨸏
𨾴
𩙿
𩠐
𩫏
𩵋
𪉷
𪜀
𪟽
𪠲
𪩲
𫇦
𫔭
𫜸
𫝀
𫠣
𫠩
𫢉
𫥞
𫩏
𫩠
𫪡
𫲽
𫶧
𬀷
𬐘
𬗌
𬙙
𬛸
𬜯
𬟩
𬯁
𬴘
𬺻
𬼉
𬼖
𭀰
𭁈
𭁨
𭅰
𭑈
𭕄
𭗼
𭤨
𭥫
𭻾
𮅕
𮊿
𮍌
𮍏
𮓗
𮥼
𮧮
廾
𰀁
𰀄
𰀈
𰀉
𰀕
𰀠
𰀡
𰀢
𰀪
𰁜
𰃮
𰆊
𰆘
𰋙
𰕎
𰢴
𰧭
𰯲
00--
000--
00006--
001--
004--
02--
08--
100--
111--
118--
119--
11901--
120--
121--
122--
123--
124--
125--
126--
130--
132--
135--
157407--
222--
256--
31557--
350--
37--
38--
40--
44--
47--
51--
61--
63--
71--
72--
8888--
90--
95--
999--
a--
aa--
ab--
ac--
ad--
add--
added--
ae--
af--
afri--
ag--
ah--
ai--
air--
ak--
al--
alex--
all--
alt--
alter--
am--
an--
ana--
ander--
ang--
ano--
any--
ao--
ap--
ar--
arg--
argen--
args--
as--
asso--
ast--
at--
au--
auto--
av--
ax--
ay--
az--
azərbay--
b--
ba--
bal--
banner--
bar--
bas--
base--
bay--
be--
beau--
bec--
bel--
ber--
bh--
bi--
bib--
big--
bio--
blo--
bo--
book--
bor--
bou--
bour--
br--
brat--
bre--
bru--
bu--
bun--
bur--
c--
ca--
cai--
cal--
calcu--
can--
cap--
car--
casa--
cax--
ce--
cfg--
ch--
cha--
che--
check--
cheong--
ci--
cite--
cl--
claim--
cn--
co--
col--
com--
con--
cor--
corn--
cou--
cour--
cr--
cs--
cu--
cur--
cy--
cybe--
d--
da--
dam--
dan--
data--
date--
de--
dec--
decom--
default--
defi--
des--
deu--
di--
disam--
disco--
display--
disr--
diss--
do--
doc--
dome--
dr--
dre--
dt--
du--
dwt--
e--
ec--
ed--
edit--
ee--
ef--
eig--
el--
ele--
elec--
elekt--
em--
en--
end--
enig--
env--
er--
es--
escape--
et--
eu--
euro--
ev--
eval--
ex--
exp--
ext--
f--
fa--
fail--
fe--
feat--
fer--
fi--
file--
find--
fl--
flag--
fn--
fo--
for--
fr--
free--
fry--
fu--
fuen--
full--
fur--
g--
ga--
gal--
gar--
gaz--
ge--
gebr--
geo--
get--
getall--
getfile--
geum--
gi--
giga--
giu--
gl--
gn--
go--
gor--
got--
gover--
gr--
grace--
grad--
gro--
group--
gt--
gu--
h--
ha--
ham--
hand--
hap--
har--
has--
hat--
haw--
he--
hec--
her--
hera--
heri--
hi--
hiro--
hl--
ho--
hof--
hooks--
hs--
hu--
hwa--
hy--
i--
ia--
ib--
id--
ide--
ie--
if--
ig--
ik--
il--
illu--
im--
image--
images--
imp--
improve--
in--
indi--
injl--
inva--
io--
is--
ishi--
iso--
it--
ita--
iu--
iust--
iwa--
j--
ja--
jar--
je--
ji--
jo--
ju--
jul--
k--
ka--
kai--
kala--
kana--
kap--
kat--
kb--
ke--
ken--
kh--
ki--
kilo--
kk--
kl--
kn--
ko--
komp--
kr--
kt--
ku--
kw--
ky--
l--
la--
lamp--
lan--
lang--
las--
lat--
lay--
le--
leder--
lee--
les--
let--
li--
lib--
lich--
list--
lit--
ll--
llo--
lo--
log--
lon--
low--
lu--
lua--
ly--
m--
ma--
mac--
mai--
main--
mak--
make--
mal--
man--
map--
mar--
mark--
mate--
mb--
mc--
mcgr--
me--
medi--
mega--
memo--
men--
mer--
mess--
mi--
micro--
mid--
milli--
mirror--
mix--
miya--
mm--
mo--
mon--
mono--
mor--
mori--
mt--
mu--
mus--
my--
n--
na--
nam--
nav--
nd--
ne--
ner--
new--
nfile--
ng--
nh--
ni--
niko--
no--
non--
nor--
ns--
nu--
num--
ny--
nz--
o--
obe--
oce--
ok--
ol--
om--
on--
op--
or--
os--
out--
outer--
over--
oz--
p--
pa--
pan--
par--
parms--
path--
pe--
pen--
per--
phi--
physi--
pi--
pic--
pit--
pix--
pl--
po--
pp--
pre--
press--
pri--
print--
printname--
pro--
ps--
pu--
publi--
px--
py--
pye--
q--
qu--
quint--
r--
ra--
ramp--
rank--
raw--
re--
ref--
rega--
render--
resolve--
rey--
ri--
ro--
rou--
round--
rt--
ru--
s--
sa--
sam--
san--
sandbox--
sara--
sard--
satel--
sc--
scale--
scar--
sch--
se--
seo--
seong--
series--
set--
setfile--
setimage--
sf--
sh--
shi--
shq--
si--
sk--
sl--
slo--
sm--
small--
snak--
so--
some--
soom--
sp--
spe--
sq--
sr--
st--
ste--
str--
stu--
su--
sub--
subpage--
sul--
sun--
sup--
super--
sur--
sv--
sw--
sy--
sym--
sz--
t--
ta--
table--
tag--
tai--
tak--
te--
temp--
ter--
tera--
teru--
text--
th--
thai--
the--
ti--
tidyval--
time--
tl--
to--
top--
total--
tou--
town--
tr--
tra--
trans--
tre--
tro--
ts--
tt--
tu--
tur--
tw--
ty--
type--
u--
ua--
ue--
ug--
ui--
uk--
ul--
um--
un--
unit--
ur--
us--
use--
user--
v--
va--
val--
valde--
var--
ve--
ver--
vi--
viewedit--
vill--
vo--
w--
wa--
wal--
we--
web--
west--
wi--
wiki--
wil--
win--
wo--
won--
wood--
wy--
x--
xu--
y--
ya--
ye--
yeong--
yi--
yo--
yoshi--
yu--
z--
za--
ze--
zh--
zi--
zoo--
zu--
ɛ--
ελλη--
автон--
в--
мо--
н--
но--
р--
респ--
с--
т--
א--
י--
හ--
강--
--0
--00
--000
--000000
--01
--06
--08
--09
--1
--11
--12
--15
--18
--187
--19
--2
--20
--21
--22
--23
--24
--26
--28
--29
--3
--31
--32
--33
--36
--38
--4
--40
--4074073
--42
--43
--44
--47
--5
--51
--59
--6
--60
--63
--64
--66
--68
--7
--70
--77
--78
--79
--8
--82
--83
--833
--84
--85
--86
--87
--88
--9
--93
--94
--96
--97
--987
--99
--a
--able
--ac
--ach
--achi
--action
--actionlevel
--ad
--ada
--ae
--agata
--age
--agua
--ah
--ai
--aja
--aki
--al
--ala
--all
--am
--ame
--ametre
--ami
--an
--ance
--ane
--ani
--anism
--ano
--ans
--ant
--ao
--ar
--ara
--ard
--arg
--argname
--args
--ary
--as
--ase
--at
--ata
--ate
--ated
--ates
--ati
--ating
--ation
--atm
--au
--auth
--av
--ave
--avi
--aw
--ay
--b
--ba
--base
--be
--ber
--berg
--bes
--bi
--bl
--blank
--ble
--blurb
--bo
--boks
--box
--bu
--burg
--bus
--by
--c
--ca
--cas
--cat
--ce
--cer
--ces
--ch
--cheon
--cil
--cio
--ck
--class
--co
--code
--color
--court
--createurl
--ct
--cus
--cy
--d
--da
--dai
--das
--data
--date
--datus
--day
--de
--dhi
--di
--dir
--display
--do
--ds
--e
--ea
--eau
--eb
--econd
--ect
--ection
--ed
--eda
--eded
--editurl
--ee
--eg
--ego
--ei
--ein
--ejo
--el
--ell
--elle
--elo
--els
--ely
--em
--en
--ence
--end
--ent
--eon
--eong
--ep
--er
--ere
--ered
--eres
--erlabel
--ero
--ers
--ert
--ery
--es
--ese
--ess
--est
--et
--ets
--ett
--eux
--ew
--exw
--ey
--ez
--f
--ff
--fields
--flag
--format
--fraktur
--ft
--fu
--ful
--g
--ga
--gas
--ge
--ger
--ges
--gi
--gio
--go
--grey
--gu
--h
--ha
--hae
--he
--head
--her
--hg
--hi
--hic
--hn
--ho
--hop
--hwa
--i
--ia
--ial
--ian
--iana
--iano
--iant
--ianus
--ibility
--ic
--ica
--ical
--icity
--ico
--ics
--id
--ide
--ie
--iel
--ier
--ies
--ification
--ig
--iko
--il
--ile
--illa
--illo
--ily
--im
--image
--in
--ine
--ing
--ink
--inus
--io
--ion
--ions
--ir
--ire
--is
--ise
--ish
--isio
--iso
--isplay
--ist
--it
--ita
--ite
--item
--ities
--ito
--ity
--ium
--ius
--iv
--ive
--ivity
--ix
--ize
--ized
--j
--ja
--je
--ji
--jin
--jo
--ju
--k
--ka
--kawa
--ke
--ker
--key
--ki
--kin
--ko
--ks
--ku
--ky
--l
--la
--lar
--las
--ld
--le
--led
--left
--ler
--level
--ley
--lf
--li
--link
--links
--lis
--list
--ll
--lla
--lle
--llo
--lly
--lo
--ls
--ly
--m
--ma
--mad
--man
--map
--mask
--me
--ment
--mi
--ms
--mu
--n
--na
--nage
--nai
--nak
--name
--names
--nc
--ncy
--nd
--ne
--ner
--nes
--ness
--ng
--ni
--nia
--nie
--nis
--nn
--nna
--nne
--no
--ns
--nse
--nso
--nt
--nto
--num
--nums
--nus
--ny
--nym
--o
--oa
--obj
--obu
--od
--of
--og
--ojq
--ok
--oku
--ol
--olo
--om
--on
--ond
--one
--only
--ons
--ont
--or
--ordo
--ore
--ors
--os
--ot
--ou
--ous
--ov
--ow
--oy
--oz
--p
--pa
--page
--pages
--param
--parameter
--pe
--ped
--pf
--phylum
--pic
--ping
--po
--prot
--ps
--pt
--q
--qid
--qt
--r
--ra
--raktur
--rat
--ratus
--rce
--rd
--rdo
--rds
--re
--ref
--ren
--res
--rg
--rh
--ri
--ria
--rie
--rin
--ris
--rium
--rk
--rm
--rn
--rne
--ro
--rop
--ros
--row
--rre
--rry
--rs
--rst
--rt
--ru
--rus
--ry
--ryo
--rz
--s
--sa
--san
--se
--sed
--self
--ses
--sh
--shire
--si
--sk
--ska
--ske
--ski
--skt
--so
--son
--ss
--st
--state
--ster
--str
--style
--su
--sus
--sy
--sym
--t
--ta
--tag
--talkkey
--te
--ted
--tely
--tem
--ter
--tes
--text
--th
--ti
--tic
--time
--ting
--tion
--tions
--title
--tium
--to
--ton
--tor
--town
--tr
--tre
--tro
--ts
--tsch
--tt
--tta
--tte
--tur
--tus
--ty
--tyle
--type
--tz
--u
--ua
--ue
--uel
--ui
--ul
--um
--un
--up
--ur
--ura
--ure
--url
--us
--ut
--ute
--ux
--v
--va
--val
--value
--ve
--ved
--vi
--ville
--vin
--vo
--vsk
--w
--wa
--we
--wk
--wo
--word
--ws
--x
--y
--ya
--ye
--yo
--ys
--yu
--z
--za
--ze
--zo
--zu
--zy
--ɔ
--ι
--ς
--а
--е
--и
--ич
--к
--кая
--ки
--ла
--о
--ы
--я
--ה
--עם
--ن
--ᆫ
