!
"
#
##0
##1
##10
##11
##12
##13
##14
##15
##16
##17
##18
##19
##2
##20
##21
##22
##23
##24
##25
##26
##27
##28
##29
##3
##30
##31
##32
##33
##34
##35
##36
##37
##38
##39
##4
##40
##41
##42
##43
##44
##45
##46
##47
##48
##49
##5
##50
##51
##52
##53
##54
##55
##56
##57
##58
##59
##6
##60
##61
##62
##63
##64
##65
##66
##67
##68
##69
##7
##70
##71
##72
##73
##74
##75
##76
##77
##78
##79
##8
##80
##81
##82
##83
##84
##85
##86
##87
##88
##89
##9
##90
##91
##92
##93
##94
##95
##96
##97
##98
##99
%
&
'
(
)
*
+
,
-
.
/
0
000
002
02
03
06
07
08
1
10
100
1003
101
1042
1082
11
110
12
120
1289
13
14
141
1436
15
150
15000
16
1653
1659
1697
1711
1720
1758
176
1775
1793
1795
18
1800
1815
1820
1830
1831
1840
1850
1861
1882
1883
1884
1891
1895
19
190
1900
1901
1906
1907
1911
1912
1920
1921
1925
1926
1927
1931
1932
1933
1936
1939
1940
1941
1942
1943
1945
1946
1948
1950
1952
1953
1954
1955
1957
1958
1959
1960
1961
1962
1963
1965
1966
1969
1970
1971
1972
1974
1975
1977
1978
1979
1980
1981
1982
1983
1984
1985
1986
1987
1988
1990
1991
1994
1995
1996
1997
1998
1999
2
20
200
2000
2001
2002
2003
2004
2005
2006
2007
2008
2009
2010
2011
2012
2013
2014
2015
2016
2017
2018
2019
2026
2066
21
22
2241
23
230
24
25
250
26
27
275
28
29
3
30
300
31
310
32
320
33
34
350
36
37
383
39
4
40
400
41
42
4200
45
46
47
49
494
5
50
500
51
55
56
57
5900
6
60
600
63
639
64
67
686
7
70
700
8
80
800
8000
88
9
90
99
:
;
=
>
?
@
_
`
a
aau
ab
abbreviate
abbreviated
abbreviation
ablon
ablono
about
above
ace
acid
activite
actress
actuelle
ad
adamu
add
added
additional
advice
ae
afa
afar
affiche
afirita
afrikaans
after
agit
aguila
ahakoa
ahe
ahia
ahiahi
ahu
ahunui
ai
aia
ainsi
aires
ais
aise
aita
akamaru
akan
ake
akiaki
ako
akoako
akonga
akoranga
al
aleksandr
aliases
align
alignbars
all
allemand
allow
alors
als
also
alt
always
ama
amanu
amaru
ame
amerika
ami
amorphophallus
amotu
amui
an
ana
anaa
and
ang
angeles
angiosperms
ani
animal
animalia
animals
annona
annonaceae
ano
another
anuanu
anuanuraro
anuanurunga
any
ao
aorai
aore
aotearoa
apa
apataki
apato
apatoa
apg
api
apia
apooraa
appear
appearing
appears
appropriate
approximation
apre
apu
ar
ara
araa
araceae
aranda
arapania
aratai
aratika
archive
are
areteria
areva
argent
argument
arguments
ari
aria
aro
aroa
article
articles
arutua
arz
as
assez
assigned
association
associe
astacus
asterids
asu
at
ata
ateate
atepaiha
aterehau
atetina
ati
atira
atiraa
ato
atoa
atu
atua
atura
au
auahatanga
aucun
auitai
aussi
australie
australien
autahu
autera
author
authorities
authority
autogouverne
automatically
autre
autres
aux
av
ava
avae
available
avant
avatea
avec
ay
ayant
az
b
ba
babel
bacteria
baku
bar
barcelona
bas
based
be
beaucoup
been
being
belarus
below
beograd
berlin
better
between
bg
bianya
bibilia
bie
binomial
biological
bird
black
blank
bn
bokma
bold
bolded
bosna
bosnia
botany
both
bottom
box
boxes
br
brazil
bre
bronze
buka
burgos
but
bxr
by
bysen
c
ca
cainito
cale
called
cambrian
campanulids
can
cancer
candidatus
caption
cas
case
cases
cast
castro
catalunya
cate
category
cave
cdo
ce
cecropia
center
certain
certaines
certains
ces
cette
changes
chaque
charles
check
chine
chinese
chinois
chirac
choctaw
chrysophyllum
church
ci
circumstances
citakan
cited
cithakan
citrus
city
cl
clades
class
classe
classes
classification
classis
clowan
co
cobar
code
codes
collectivite
colombia
color
colors
column
com
comme
commelinids
common
commons
commonscat
commonskat
compe
complete
completely
complex
comply
computer
connaissance
conseil
conservation
considered
contain
content
contenu
continue
contre
conventions
cook
coor
copy
cordyline
core
corresponding
cr
cre
cream
created
crh
criteria
croate
csa
cse
cseba
curitiba
current
currently
cv
cy
d
da
dailles
dans
data
database
dateformat
day
de
default
del
deletion
densite
depuis
der
dernie
des
describe
described
describing
description
detail
deutsch
devenir
di
different
dimanche
diq
directory
discuss
discussion
disney
display
displayed
disputed
distribution
ditions
diversity
divisio
division
divisions
dm
do
documentation
does
domain
don
donc
done
donie
donieouvelle
drama
droite
du
duero
dv
dzyrzec
e
each
ecuador
edirne
edit
editor
edouard
eesti
ehara
ei
eiao
eie
ekalesia
el
element
elizabeth
elle
ellice
emmanuel
emporda
en
ena
enana
end
enei
english
entries
entry
eo
er
erau
ere
erythrina
es
est
established
et
etahi
etc
ete
eu
euasterids
eudicots
eukaryote
europa
eurosids
evanelia
even
every
ex
exactly
example
examples
except
exemple
extant
extinct
extinction
extinctions
extra
f
fa
faa
faaa
faaea
faahapa
faaho
faahoro
faahou
faaite
faaiteraa
faaora
faaravai
faaroo
faataa
faatere
faatereraa
faati
faatia
faatupu
fabaceae
fabids
fabriciano
fabricius
failure
faito
fakahina
fakarava
false
familia
families
family
fana
fanauhia
fangatau
fangataufa
fano
fara
farani
faraoa
farara
fare
farii
fatu
faufa
faufaa
faut
fe
feia
feliu
female
femmes
fenua
fepuare
feti
ff
fi
fichier
fidji
field
fiji
file
final
fini
first
flora
flower
flowering
fois
follow
following
football
for
forget
form
formal
formally
format
formica
forms
forth
fossil
fossils
four
fr
frameless
franc
franca
france
french
frequent
fritch
from
full
further
futuna
g
ga
gammarus
gation
gauche
ge
genera
generally
generate
generis
genus
gien
gilbert
gion
girona
give
given
gje
go
good
gorie
gouvernement
gov
government
grande
grandes
graphic
gray
grec
green
gridcolor
group
grouping
groups
gu
guamuam
guine
guinea
gv
h
ha
haapa
haapapu
haapii
haapiihia
haapiiraa
haere
haerenga
hak
hanahana
hangaia
hao
hapori
haraiki
has
hatutu
hau
haut
hauti
hautiraa
have
he
header
headers
hee
heheu
heheuraa
hei
height
help
hercegovina
here
hereheretue
heremani
hereto
herzegovina
hi
hia
hiahia
hierarchical
hierarchically
higher
hikueru
himene
hinaaro
hindi
hinengaro
hio
hipa
hiti
hiva
ho
hoe
hohoa
hoi
hoki
hollande
holocene
homarus
hommes
homo
hong
honiara
hononga
honu
hopea
hora
horo
hotu
hou
how
hoy
http
https
hu
hua
huahine
hui
huira
huiraatira
huita
huka
huku
hurae
hurdles
huru
hurufenua
hy
i
ia
ibge
ice
iczn
id
ido
iesu
if
ihi
iho
ii
iii
il
ilo
ilokano
ils
image
images
imagesize
imi
immediately
important
in
ina
inauguracion
include
included
includes
including
inclusion
incorpore
increment
inde
indicate
indicates
indicatif
indique
infobox
informal
informally
information
infraclassis
infraorder
infrastructures
ingoa
initially
instance
instead
institut
insulaire
intended
interlingua
interlingue
international
into
introduce
io
ioa
ioane
iosepha
ipomoea
iprage
iraa
irb
ire
iriti
is
isindebele
iso
it
ita
italic
italicized
italics
ite
itehia
iteraa
iti
ito
its
itself
iucn
iv
iwi
j
ja
jacques
janeiro
je
jean
jesberg
jeux
jezik
john
johr
jpeg
jpg
junior
just
jv
k
ka
kaa
kaha
kaituhi
kaiwaiata
kaiwhakaako
kaore
katiu
katoa
katorika
kauehi
kaukura
kaupapa
ke
kei
kernewek
key
ki
kia
kigezo
kii
kingdom
kingdoms
kiribati
kirimana
kitenga
kk
kletsk
km
kn
known
ko
koa
koinei
kong
kongo
kore
korero
kouaku
krc
ku
kua
kura
kv
kw
ky
l
la
label
lamiids
landais
lande
lang
languages
langue
langues
large
late
latin
le
lead
least
leaves
left
lelo
leo
les
leur
leve
level
li
lia
libre
lien
life
lifetime
ligne
like
line
linegrey
lingua
link
linked
linnaeus
lisboa
list
listed
lists
living
lle
lli
llierca
lo
localement
location
logo
lojban
long
los
lower
lr
lt
lu
lukashenko
lv
m
ma
maamaatuaiahutapu
maareva
maatauranga
macron
madagascar
made
magnolia
magnoliids
maha
mahana
mahi
mahia
mahina
mahiti
mai
maiao
maintenance
maira
mais
maitai
major
makaroa
makatea
make
makemo
makes
making
malgrat
mall
malline
malvaceae
malvids
mana
manihi
manner
manu
manuae
manually
manuhangi
manui
manureva
many
mao
maohi
maoro
map
maplandia
maps
mar
maramarama
mari
maria
mariannes
marinus
marite
marokau
marshall
marti
martin
marutea
mata
matahiti
matai
mataiva
matamua
matatatihata
matauranga
matches
mate
matua
matureivavao
mau
mauiatpala
mauiui
maupihaa
maupiti
may
mdf
me
mea
meanings
means
meheti
mei
meia
mekiro
melayu
melo
membres
mena
mene
menia
mer
mere
mesia
metera
metua
mg
mhr
mi
michel
micronesia
mie
migratory
mihi
milioni
minor
minsk
misioni
misleading
mitoronetia
mk
ml
mn
mo
moa
moana
mode
moho
momo
moni
monocots
monte
montessori
moorea
moraceae
morane
more
moresby
moromona
moroni
moruroa
most
motu
motuhake
motutunga
mou
moua
moyen
mr
mrj
ms
mua
muhia
muri
musa
musaceae
muse
must
myv
n
na
nah
nai
name
named
names
naming
namu
nani
nanumiti
nao
napuka
naruhito
nata
nati
nauhia
naura
nauru
ne
necessary
need
nehenehe
nei
nemachiyo
nengo
nested
netia
netienei
new
ng
nga
ngawari
ngo
ni
nia
niau
nicole
nihiru
niu
niue
niveau
no
noa
nodyn
noho
nom
nomenclature
non
nord
norfolk
norfuk
normally
normand
northern
noruvetia
norve
not
notable
notamment
notau
note
notes
noto
noume
nous
nouvelle
nova
novema
novial
now
nu
nucleic
nueva
nui
nuku
nukutavake
nukutepipi
number
nume
numera
numerals
nunaa
nunu
nuu
nya
nye
nynorsk
o
oa
oc
occitan
oe
of
ofa
official
officiel
often
ohi
ohie
ohipa
oia
oire
ois
old
oli
olympic
omitted
on
ona
one
only
ont
open
option
optional
opuaraa
or
ora
oraa
oraraa
order
orders
ordo
ore
orea
org
organisateur
organisation
organise
organism
organisms
ori
orientation
original
originally
oroa
orohena
orometua
os
osasco
oslo
oteania
other
otherwise
ou
out
outre
over
p
pa
paari
pacifique
pae
paeoniifolius
paetahi
page
pages
pai
pakiwaitara
palafrugell
palau
pam
pandanus
pangarau
paniora
papa
pape
papeete
papouasie
papu
papua
par
paraguay
parame
parameter
parameters
parani
paraoa
parata
parau
parentheses
parenthesis
pari
paris
part
participe
particular
particulie
partie
paruparu
pas
passe
patava
patifita
patrono
paulo
pays
pe
pedagogy
peltata
pendant
pendants
penei
perara
pere
perera
pereta
peretane
peretiteni
period
perititeni
permet
permian
peropheta
petit
peu
pftotaiete
phylogenetic
phylum
pi
picture
pidgin
pieroru
pihai
pii
piihia
pinaki
pisin
piti
pitkern
pl
place
placed
placement
plant
plantae
plantilla
plants
plaza
please
plotarea
plotdata
plus
plusieurs
pneumoniae
po
poaceae
podlaski
pohe
pohera
poi
point
poland
polski
polskim
polyne
pont
pooraa
popa
popaa
popo
population
porapora
poritita
poro
port
possible
possibly
posługuje
pou
pour
pouri
pouvez
poziomie
pre
predefinic
predloga
preferences
preferred
prehistoric
premie
present
proce
produce
project
projet
proper
provided
ps
pt
pu
pua
publique
puhi
puissances
puka
pukapuka
pukarua
punaauia
pupu
pura
purge
purpose
puta
putaiao
px
pyramidalis
q
qu
quaternary
que
question
qui
quivalent
r
ra
raa
raatau
rahi
rahiraa
rai
raiatea
raisons
raivavae
rana
ranei
rangahau
range
rank
ranks
rao
rapa
rapae
raraka
rare
raro
raroia
raru
rather
ration
ratou
rau
raua
rava
ravahere
rave
ravea
rawakore
re
rea
real
reao
recent
reclassified
recommended
ref
reference
references
referencing
referred
regard
regnum
regular
reira
reitoru
rekareka
rekoata
rement
reo
repeat
republika
repupirita
required
requires
rereketanga
res
result
resz
reva
rgb
rhododendron
ri
ria
ricaines
right
rima
rimatara
rio
riro
risk
rituania
ro
roa
rock
roma
roman
rongonui
roopu
rorofai
rosids
roto
rotopu
roubaix
ru
rua
rubiaceae
ruga
rugby
runga
rurutu
russe
russie
rutaceae
s
sa
sablon
sah
saint
same
samoa
sant
santa
sapiens
sarajevo
sarkozy
say
scalemajor
scaleminor
scientific
scinder
sco
scots
se
search
second
sectio
section
sections
see
sein
selva
semita
sensitive
sentation
sentence
separate
sept
set
seul
seuls
seven
several
sh
shablon
shift
should
shown
si
sidence
sie
signe
sil
simple
since
single
siprage
site
size
sk
skabelon
sl
slightly
small
so
some
someone
sometimes
son
sont
sorabe
soria
sorts
source
spain
sparingly
species
specified
specify
speedy
split
sport
sports
sq
square
sr
st
stampa
standard
stanislas
starr
start
states
status
stratigraphic
string
style
su
subclasses
subclassis
subdivision
subfamily
subgroup
subgroups
subject
suborder
subsections
subspecies
such
sui
suleras
superdomain
superfamilia
superfamily
superficie
superorder
superordo
supply
sur
surf
surrounded
suva
sv
sw
sweetbay
switzerland
synonym
synonyms
syntaxe
system
systems
szablon
szl
szta
t
ta
taa
taakaro
taakuta
taamotu
taata
table
tableau
tae
taea
taenga
tagalog
tags
taha
tahaa
tahanea
tahatai
tahi
tahiti
tahitien
tahito
tahuata
tai
taiarapu
taiaro
taiete
taime
taioraa
tairoto
takapoto
takaroa
takiwa
takume
talk
tamaiti
tamarii
tamariki
tana
tane
tangata
tani
tant
taonga
tapotapo
tapura
tara
taratoni
taravai
taravao
taro
tat
tata
tataitahi
tatakoto
tataru
tatauraa
tatou
tats
tau
taua
tauere
tauraa
taviri
taxa
taxobox
taxoboxes
taxon
taxonomic
tche
te
tea
tectorius
tei
teie
teimaha
teimple
teitei
tekava
tekokota
tel
telenovela
tematangi
templat
template
templates
ten
tenararo
tenarunga
tene
tenei
tenetere
tennis
teotarafia
tepapuri
tepoto
ter
tera
tere
terepia
terihi
territoire
territoires
tetahi
tete
tetepa
teti
teura
teva
text
textcolor
tg
th
than
that
the
their
them
then
there
these
they
things
third
this
those
threatened
three
thumb
thumbnail
thus
ti
tia
tiare
tien
tieti
tifita
tiharo
tihia
tikanga
tikehau
tikei
till
timeaxis
tinia
tinito
tino
tiraa
tiri
tiribati
tirometera
titauhia
titauraa
titifa
title
tiunu
tiurai
tk
tl
tm
to
toa
toau
toe
tohu
tok
tokelau
tokyo
tomite
tona
tonga
tonu
too
top
topa
toromona
toronga
toru
totegegie
tou
tournaments
tout
toutes
tr
traduction
tre
treated
tres
tribe
tribus
trinomial
tt
tu
tua
tuanake
tuaro
tuarua
tuatahi
tuati
tuete
tuha
tuhaa
tui
tuite
tumu
tupai
tupu
tupuai
ture
tureia
turiti
tuvalu
tuvaru
two
type
u
ua
ubuntu
udm
uetersen
uhune
uk
um
umotu
un
under
underground
understand
understanding
une
unis
unit
united
unless
unranked
up
upoo
ur
ura
uru
usage
use
used
user
users
uses
using
usually
utilisateurs
utilisation
utilise
utilisez
uvea
uz
v
va
vaataata
vae
vahanga
vahine
vahitahi
vai
vaihi
vairaatea
val
valeur
valid
value
vana
vanavana
vanilla
vanuatu
var
variable
variante
variantes
variegata
variety
varua
vau
ve
veia
veidne
veratalpa
vernacular
vertical
very
vi
vide
vie
vietnam
vietu
vignette
vii
vila
village
ville
vina
vini
virginiana
virus
viruses
viti
vitipetia
vo
voir
volapu
vous
w
wa
waahanga
wahine
waiata
wallis
walt
war
was
way
we
web
website
wehe
well
west
whai
whakaaro
whakaatu
whakaaturanga
whakahaere
whakahaerehia
whakamahia
whakamatau
whakangungu
whakapumautia
whakatuwherahia
whakawhanake
whanaketanga
whanau
whanui
whare
what
wheako
when
where
which
white
who
wi
widespread
width
wikimedia
wikipedia
wikipedias
wikiproject
will
wine
with
within
without
work
would
www
x
xal
xx
y
year
yo
york
you
your
ytkownik
yue
z
ze
zh
zingiberaceae
zoodivisio
zoology
zoosectio
zu
zykiem
{
|
}
¥
«
­
°
²
³
·
¹
»
×
đo
łobez
ŋ
ʻ
ʼ
ˈ
ˋ
ː
̀
́
̂
̃
̄
̆
̇
̈
̉
̊
̌
̓
̔
̛
̣
̤
̧
̨
̩
̭
̯
͡
α
ε
адыгэбзэ
ашаблон
беларуская
загвар
кевләр
коми
лопапарцун
н
републике
русскии
србије
у
халыып
шабле
шаблон
язык
ямдылык
ҡалып
үлгі
үрнәк
կաղապար
ִ
ا
الگو
اوزبیکچه
س
سانچہ
شاہ
قالب
مکھی
ه
و
ي
َ
ُ
ِ
ٓ
ٔ
ٕ
کينډۍ
ހ
ނ
ވ
ފ
ދ
ތ
ަ
ި
ެ
ް
ँ
ं
अ
क
ग
च
ज
ट
ठ
ड
ढ
त
थ
द
न
प
फ
ब
बधर
भ
म
र
ल
ळ
ष
स
ह
़
ा
ि
ी
ु
ृ
े
ै
ो
्
ঁ
ং
চ
ট
ঠ
ণ
প
ব
মপ
য
র
ল
ষ
স
়
া
ি
ী
ু
ে
্
ৰ
ਖ
ਗ
ਜ
ਨ
ਨਮ
ਪ
ਬ
ਾ
ੀ
ੁ
ੂ
ੰ
ં
ગ
ચ
જ
ઢ
ત
ળ
ા
ી
ુ
ો
ଆ
଼
ି
ப
ர
ழ
வ
ா
ி
ு
்
గ
త
మ
ల
స
ు
ూ
ె
ಂ
ಟ
ತ
ಪ
ಲ
ಳ
ು
ೆ
್
ೕ
ം
ച
പ
ഫലക
മ
ള
ാ
േ
്
ං
ක
ල
ස
්
ැ
ි
แบบ
แม
่
່
་
ཁ
ག
ང
ད
བ
ཡ
ར
ི
ོ
ྫ
တ
န
ဘ
မ
ယ
သ
ာ
း
်
ြ
ၢ
ၵ
ႂ
ႆ
თარგი
ᜈ
ᜊᜌ
ᜒ
᜔
ខ
ទ
ព
ភ
ម
រ
រគ
ស
ា
ូ
ែ
ំ
័
្
ᨁ
ᨕ
ᨗ
ᨙ
ᬶ
ᮓ
ᮔ
ᮞ
ᮥ
᮪
​
‎
–
—
‘
’
“
”
„
•
…
′
″
⁴
↔
↷
∂
≥
③
④
⑦
☿
♀
♂
ⰲ
ⰽ
ⰾ
ⱀ
ⱁ
ⱄ
ⱏ
ⱐ
ⱑ
ⴰ
ⵉ
ⵎ
ⵖ
ⵜ
ⵣ
⺀
⺄
⺆
⺈
⺊
⺌
⺕
⺝
⺸
⺼
⿰
⿱
⿲
⿳
⿴
⿵
⿶
⿷
⿸
⿹
⿺
⿻
〢
か
ら
゙
カ
コ
シ
ユ
ョ
ン
ー
㇁
㇂
㇄
㇇
㇈
㇉
㇓
㐁
㐄
㐅
㐌
㐫
㐬
㐭
㐮
㐱
㑒
㒵
㒸
㒼
㓁
㓞
㔾
㕛
㕣
㖾
㘝
㚅
㚇
㚔
㚘
㝉
㝡
㝴
㝵
㞋
㞢
㞷
㠩
㠭
㠯
㡀
㡭
㡿
㢲
㢴
㣇
㣺
㥯
㪅
㫄
㫐
㫒
㫺
㬅
㬎
㬥
㬰
㲋
㳄
㷠
㸒
㸚
㸦
㼌
㼲
㽞
㿟
䀠
䂞
䍃
䏍
䒑
䖍
䖒
䖝
䖵
䙴
䚻
䜌
䝿
䡛
䧹
䪞
一
丁
丂
七
丄
丅
丆
万
丈
三
上
下
丌
不
与
丏
丐
丑
专
且
丕
世
丘
丙
业
东
丞
丢
丣
两
严
並
丨
丩
个
丫
丬
中
丮
丰
丱
串
丵
丶
丷
丸
丹
为
主
丽
丿
乀
乂
乃
久
乆
乇
么
义
之
乌
乍
乎
乏
乐
乑
乔
乖
乗
乘
乙
乚
乛
乜
九
乞
也
习
乡
乳
乾
亀
亅
了
亇
予
争
事
二
亍
于
亏
亐
云
互
亓
五
井
亘
亚
亜
亞
亟
亠
亡
亢
交
亥
亦
产
亨
亩
享
京
亭
亮
亯
亰
亲
亳
亶
亷
人
亻
亼
亾
仁
今
介
仌
从
仐
仑
仒
仓
仕
他
付
仝
代
令
以
任
企
伊
伏
伐
休
会
伯
但
位
何
佘
余
作
佥
使
來
侈
侌
侖
侯
侵
便
保
俞
信
修
倉
倍
候
倠
備
僉
僕
僮
儿
兀
允
兂
元
兄
充
兆
兇
先
光
兊
克
兌
免
兑
兒
兓
兔
党
兜
兟
入
全
兩
兪
八
公
六
兮
兰
共
关
兵
其
具
典
兹
兼
冀
冂
冃
冄
内
冈
冉
冊
冋
册
再
冎
冏
冐
冒
冓
冖
冗
冘
军
农
冝
冡
冥
冫
冬
冷
几
凡
凢
凵
凶
凷
凸
凹
出
函
凾
刀
刁
刂
刃
刄
刅
分
切
刍
刑
刕
刖
列
刘
则
初
別
利
别
到
制
刺
則
削
剌
前
剡
剽
劉
力
功
加
劦
助
劫
劳
劵
勃
勇
勉
勒
動
務
勞
勤
勹
勺
勻
勾
勿
匀
匂
包
匆
匈
匊
匋
匍
匕
化
北
匚
匝
匡
匪
匱
匸
匹
区
医
匽
匿
區
十
卂
千
卄
卅
卆
升
午
卉
半
卌
华
卑
卒
卓
单
卖
南
卜
卝
卞
占
卡
卢
卣
卤
卦
卩
卪
卬
卯
印
危
即
却
卵
卷
卸
卻
厂
厃
厄
历
厈
厉
厌
厓
厘
厚
原
厤
厥
厨
厭
厲
厶
厷
厸
去
厼
厽
叀
参
參
叅
又
叉
及
友
双
反
叐
发
叒
叔
叕
取
受
叚
叜
叟
口
古
句
另
叩
只
召
可
台
叱
史
右
叵
号
司
叹
吂
各
吅
合
吉
吊
吋
同
名
后
吏
向
吕
君
吝
吞
否
含
启
吳
吴
吹
吾
呂
呆
呈
告
员
呙
周
命
咅
和
咎
咠
咢
咨
咸
咼
哀
品
哉
員
哥
哲
唐
商
啇
問
啚
啬
啻
善
喜
喬
單
喿
嗇
噩
嚴
囊
囗
囘
囙
囚
四
回
囟
因
囧
囬
困
囱
囷
固
国
圂
圅
國
圍
圓
土
圡
圣
圥
在
圭
地
圶
圼
坐
坒
坚
坴
垂
垔
垚
埀
埋
埶
執
基
堂
堅
堆
堇
堯
塞
墨
壘
士
壬
壯
声
壳
壴
壹
壺
壽
夂
处
夅
夆
备
夊
夋
夌
复
夏
夒
夕
外
夗
夘
多
夜
夢
大
夨
天
太
夫
夬
夭
央
失
夲
头
夷
夸
夹
夻
夾
奂
奄
奇
奈
奉
奎
奏
奐
契
奓
奔
奚
奞
奠
奢
奥
奭
女
奴
奻
好
如
妄
妙
妟
妥
妻
妾
姑
委
姜
威
娄
婁
婴
嬰
嬴
子
孑
孔
孕
孖
字
存
孚
孛
孝
孟
季
孤
学
孫
孱
學
宀
宁
宂
它
宅
宇
守
安
宋
完
宏
宓
宗
官
定
宛
宜
宝
客
宣
室
宮
宰
害
家
容
宾
宿
寄
寅
密
富
寒
察
寧
審
寫
寬
寮
寸
对
寺
寻
寽
対
寿
封
尃
射
将
將
專
尉
尊
尋
尌
對
小
少
尒
尓
尔
尖
尗
尚
尞
尢
尣
尤
尧
尨
尭
就
尸
尹
尺
尻
尼
尽
尾
尿
局
居
屈
屋
屎
屏
屑
展
屖
屚
属
屠
屡
屬
屮
屯
屰
山
屵
屾
岁
岂
岑
岡
岩
岳
岸
峯
島
崇
崑
崔
崖
崙
崩
嵬
嶲
巂
巛
川
州
巟
巠
巢
巤
工
左
巧
巨
巩
巫
差
己
已
巳
巴
巷
巸
巽
巾
巿
帀
市
布
希
帚
帛
帝
带
師
席
帶
常
干
平
年
幵
并
幷
幸
幺
幻
幼
幽
幾
广
広
庄
床
底
店
庚
府
度
庫
庭
庶
康
庸
廉
廌
廛
廣
廩
廴
延
廷
建
廾
廿
开
弁
弃
弄
弇
弋
式
弓
弔
引
弗
弘
弜
弟
弥
弦
弱
張
強
强
彊
彌
彎
彐
彑
当
彔
录
彖
彗
彡
形
彥
彦
彧
彭
彳
役
彼
往
待
律
徒
得
徙
從
復
微
徵
心
忄
必
忌
忍
志
忝
忠
忩
快
念
忽
忿
思
怠
急
怱
恆
恒
恩
恭
息
悉
患
悤
悲
悶
惠
惡
惢
愁
愈
意
愛
感
慈
慧
慮
憂
憲
應
戀
戈
戉
戊
戋
戌
戍
戎
成
我
戒
戔
或
戚
戠
戢
截
戲
戶
户
戹
戼
戾
房
所
扁
扇
手
扌
才
打
托
执
承
折
拉
拜
拿
掌
推
提
摩
撒
支
攴
攵
收
攸
改
放
政
敄
敏
敕
敖
敗
教
敝
敞
敢
散
敦
敫
敬
数
敷
數
斂
文
斉
斊
斗
斤
斥
斩
斬
斯
新
方
於
施
斿
旁
旋
族
无
旡
既
旣
日
旦
旧
旨
早
旬
旱
旲
时
旾
昆
昇
昌
昍
明
昏
易
昔
昗
昜
星
春
昬
是
昱
昴
昷
時
晃
晋
晏
普
景
晶
智
暑
暴
曇
曩
曰
曲
曳
更
曷
書
曹
曼
曾
替
最
朁
會
月
有
朋
服
朔
朕
朗
望
朝
木
朩
未
末
本
札
朮
术
朱
朵
朶
朿
杀
杏
杜
束
条
来
東
杲
杳
松
板
析
林
枚
果
枝
枲
枼
某
柔
查
柬
柰
柴
栗
桀
桐
桑
桼
梁
條
梟
梨
棘
棠
棥
森
楚
業
楽
榮
樂
樊
模
欠
次
欣
欮
欲
欶
欽
款
歆
歇
歛
止
正
此
步
武
歨
歪
歮
歯
歰
歲
歴
歷
歸
歹
歺
死
殳
段
殷
殸
殹
殺
殻
殿
毋
毌
母
每
毒
比
毕
毚
毛
毳
氏
氐
民
气
氣
水
氵
氶
氷
永
氺
氾
求
汝
汞
江
沃
沓
沙
沝
泉
法
波
泣
泥
泰
洛
洪
活
派
流
浦
浪
浮
淡
淮
清
渚
渠
港
湯
滿
漸
火
灬
灭
灰
灵
灷
炅
炎
炏
炗
炙
炭
為
烈
烏
烝
焉
無
焦
焱
然
煞
熊
熏
燕
營
燮
爪
爫
爭
爯
爰
爱
爲
爵
父
爻
爽
爾
爿
片
牙
牚
牛
牜
牟
牢
牧
牪
牽
犀
犬
犭
犮
狂
狄
狊
独
狺
猋
猒
猪
献
獅
獻
玄
率
玉
王
玟
玨
珎
班
琴
瑟
瑩
瓜
瓦
甘
甚
生
産
用
甫
甬
田
由
甲
申
电
甶
男
甸
甹
画
甾
畀
界
畏
畐
留
畜
畟
畢
畧
畨
番
畫
異
畱
當
畺
畾
疊
疋
疌
疑
疒
疾
癶
癸
癹
登
發
白
百
皀
皃
的
皆
皇
皋
皐
皕
皮
皷
皿
盃
盆
盇
盈
益
盍
盎
监
盒
盖
盛
盡
監
盤
盧
目
直
相
盾
省
眇
眉
看
眔
眞
真
眷
眼
眾
着
睘
睪
睿
瞏
瞢
瞿
矍
矛
矞
矢
矣
知
矦
短
石
破
碎
磊
磨
示
礻
礼
祟
票
祭
禀
禁
禸
禹
禺
离
禽
禾
禿
秀
秃
秉
秋
科
秝
秦
移
稟
穀
穌
穴
究
穹
空
穿
突
窄
窒
立
竒
竜
竝
竟
章
童
竹
笑
笠
筆
等
答
箕
算
箴
節
篤
篭
米
粉
粛
粟
粤
粦
粲
粵
糞
糸
糹
系
約
納
素
索
紫
累
細
絜
絫
絲
維
綿
縣
繇
纍
纟
缶
网
罒
罔
罕
罗
罙
罡
罢
罪
署
罷
羅
羊
羌
羍
美
羔
羕
羗
羞
羡
羣
群
義
羲
羸
羽
翁
翏
習
翕
翟
翠
翼
老
耂
考
者
耆
而
耎
耑
耒
耳
耴
耶
耷
聂
聊
聖
聚
聶
聿
肀
肃
肅
肉
肖
肙
肥
肩
肯
育
肴
胃
背
胡
胥
能
脊
脩
膚
臣
臤
臧
自
臬
臭
臯
臱
至
致
臺
臼
臽
臾
臿
舀
舂
舄
與
興
舉
舌
舍
舛
舜
舞
舟
般
艮
良
色
艸
艹
艾
芒
芔
芬
芮
花
芳
芺
芻
苔
苗
苟
若
苦
英
茶
茸
荅
草
荒
荣
荼
莆
莧
莫
莱
莽
菆
菊
菐
華
萬
落
葉
著
葛
董
葵
蒙
蒦
蒼
蓋
蓬
蓺
蔑
蔡
蕉
蕭
薄
薛
薦
薰
藍
藏
藥
蘭
虍
虎
虐
虒
虔
處
虖
虗
虘
虚
虛
虜
虞
虫
虽
蚤
蚩
蜀
蜜
蟲
蠡
血
行
衍
衛
衣
衤
表
衮
衰
袁
袞
褭
褱
襄
襾
西
覀
要
覃
見
規
覓
覧
親
覽
见
角
解
言
訁
訇
計
話
詹
語
誩
諸
讠
语
谷
豆
豈
豊
豐
豕
豖
豙
象
豦
豩
豪
豸
貇
貝
貞
貟
負
貢
貧
貪
貫
責
貳
貴
買
費
賁
資
賈
賏
賓
賔
賛
賞
賢
賣
質
賴
贊
贛
贝
贡
责
贯
贲
贵
赖
赞
赤
赦
走
越
足
路
蹇
身
躬
車
軍
軎
軟
輦
车
辛
辜
辟
辥
辰
辱
農
辵
辶
边
达
过
近
连
迷
追
退
送
逆
逐
通
速
造
逢
連
逮
進
遀
遂
過
道
達
遣
適
遷
遺
邊
邑
邕
那
邦
邪
郎
部
郭
都
鄉
酉
酋
配
酓
釆
采
里
重
野
量
金
釒
錢
钅
長
镸
长
門
閃
閉
開
閏
閑
閒
間
閔
閩
閵
閻
闌
门
间
闷
闽
阑
阜
阝
阿
降
陳
隆
隊
隋
隡
隨
隱
隶
隹
隺
隻
隼
隽
难
雀
雁
雅
集
雈
雋
雍
雐
雔
雙
雚
雜
雝
離
難
雨
雩
雪
雲
零
雷
需
霍
霜
霝
霞
霸
靈
靑
青
非
靡
面
靣
革
韋
韦
韭
韯
韱
音
頁
頃
項
須
頗
頡
頻
顛
類
页
風
风
飛
飞
食
飠
養
饣
首
香
馬
馮
駦
马
骨
高
髟
鬥
鬯
鬲
鬼
魚
魯
鮮
鱼
鲁
鳥
鳳
鸟
鹵
鹿
麃
麗
麥
麦
麻
黃
黄
黍
黎
黑
黒
黨
黹
黽
黾
鼎
鼓
鼠
鼻
齊
齋
齐
齒
齿
龍
龙
龜
龟
龠
龰
龱
龴
龵
龶
龷
龸
龹
ꆇ
ꉙ
ꦗ
ꦧ
ꦮ
ꦱ
ꭹ
ꮃ
ꮳ
ꯂ
ꯃ
ꯇ
ꯟ
ꯣ
ꯩ








者
艹
？
𐌲
𐌹
𐌺
𐌿
𐍃
𐍄
𞤢
𞤤
𞤨
𞤪
𞤵
𠀁
𠀃
𠀆
𠀉
𠀎
𠀐
𠁁
𠁣
𠂆
𠂇
𠂈
𠂉
𠂊
𠂋
𠂎
𠂒
𠂔
𠂛
𠂡
𠂢
𠂤
𠂬
𠂭
𠂹
𠃊
𠃋
𠃌
𠃍
𠃎
𠃑
𠃓
𠃔
𠃜
𠄌
𠄎
𠄠
𠄢
𠆢
𠆥
𠇍
𠈌
𠌵
𠓜
𠔉
𠔥
𠔼
𠔽
𠔿
𠕀
𠕁
𠕋
𠘧
𠘨
𠙻
𠙼
𠚏
𠚒
𠚤
𠚪
𠣏
𠤎
𠤕
𠥓
𠦄
𠦑
𠦝
𠧒
𠧗
𠧪
𠩺
𠪚
𠫓
𠫔
𠫤
𠬛
𠬝
𠬞
𠬢
𠬤
𠬶
𠮛
𠮦
𠮷
𠯑
𠱠
𠳮
𠷎
𡈼
𡉀
𡉵
𡌥
𡍮
𡏳
𡕒
𡕩
𡕰
𡖅
𡗗
𡗜
𡘆
𡘤
𡧱
𡨄
𡩧
𡬠
𡭽
𡰣
𡰥
𡰪
𡰯
𡰱
𡷈
𡸁
𡿨
𡿩
𡿪
𡿺
𢀖
𢀛
𢀩
𢁙
𢆉
𢆰
𢆶
𢇁
𢇇
𢉖
𢌬
𢌿
𢏚
𢑑
𢑚
𢖻
𢙣
𢛳
𢦏
𢦒
𢧵
𢼄
𢾕
𣁋
𣄼
𣅀
𣅽
𣍘
𣎳
𣎵
𣏋
𣏼
𣗥
𣥂
𣥖
𣦵
𣦼
𣧄
𣪊
𣪠
𣬉
𣳾
𣶒
𤇾
𤊽
𤐫
𤓰
𤔔
𤕨
𤣩
𤰇
𤰔
𤰞
𤴓
𤴔
𤽄
𥁑
𥁕
𥃦
𥃩
𥃭
𥇡
𥑟
𥘅
𥘈
𥝢
𥫗
𥱡
𦈢
𦉪
𦉬
𦉼
𦍌
𦍒
𦎧
𦐇
𦓔
𦔮
𦘒
𦙃
𦚏
𦣝
𦣞
𦣻
𦥑
𦥔
𦥯
𦨉
𦭝
𦰩
𧆞
𧈧
𧘇
𧰨
𧴪
𧴮
𧵩
𧾷
𨸏
𨾴
𩙿
𩠐
𩫏
𩵋
𪉷
𪜀
𪟽
𪠲
𪩲
𫇦
𫔭
𫜸
𫝀
𫠣
𫠩
𫢉
𫥞
𫩏
𫩠
𫪡
𫲽
𫶧
𬀷
𬐘
𬗌
𬙙
𬛸
𬜯
𬟩
𬯁
𬴘
𬺻
𬼉
𬼖
𭀰
𭁈
𭁨
𭅰
𭑈
𭕄
𭗼
𭤨
𭥫
𭻾
𮅕
𮊿
𮍌
𮍏
𮓗
𮥼
𮧮
廾
𰀁
𰀄
𰀈
𰀉
𰀕
𰀠
𰀡
𰀢
𰀪
𰁜
𰃮
𰆊
𰆘
𰋙
𰕎
𰢴
𰧭
𰯲
0--
1--
13--
15--
17--
18--
19--
20--
3--
4--
5--
6--
7--
8--
9--
a--
aa--
ab--
ac--
ada--
ahu--
ai--
al--
alba--
ameri--
an--
ap--
apa--
ape--
ar--
aro--
as--
astu--
at--
ata--
au--
av--
ay--
b--
ba--
ban--
bar--
be--
ber--
bi--
bis--
blan--
bo--
boa--
bos--
bou--
br--
bu--
c--
ca--
can--
car--
ce--
cen--
cer--
ch--
cha--
charac--
che--
chi--
cho--
chri--
ci--
cl--
cli--
co--
colo--
com--
con--
conomi--
contr--
cor--
cou--
cr--
csi--
d--
da--
de--
des--
di--
distan--
do--
du--
e--
ed--
ei--
el--
en--
er--
es--
eu--
ex--
exis--
f--
fa--
faa--
fe--
fen--
fer--
fi--
font--
foo--
fr--
fru--
g--
ga--
gal--
gan--
gar--
ge--
gen--
geo--
glo--
go--
gra--
gu--
h--
ha--
hanga--
he--
hi--
ho--
host--
hrvat--
hu--
hui--
i--
ia--
ic--
illu--
im--
in--
indi--
ir--
is--
ita--
ite--
iv--
j--
ja--
ju--
k--
ka--
kai--
kar--
ke--
ker--
ki--
ko--
kre--
kur--
l--
la--
le--
leb--
li--
llo--
lo--
lu--
m--
ma--
man--
mar--
me--
men--
mi--
micr--
mo--
mon--
mu--
n--
na--
ne--
nehi--
ni--
niu--
no--
nom--
nor--
nu--
nui--
o--
on--
or--
os--
oti--
p--
pa--
pai--
pe--
pen--
per--
pera--
pho--
pi--
pin--
pl--
po--
pol--
poli--
pri--
pro--
prog--
pu--
puig--
pur--
q--
qu--
r--
ra--
re--
ren--
ri--
ro--
roa--
ru--
s--
sa--
san--
sar--
se--
sen--
ser--
si--
sici--
sim--
sl--
slo--
so--
sol--
spe--
sr--
st--
sta--
statisti--
sti--
su--
sub--
subse--
sup--
super--
sz--
szop--
t--
ta--
tai--
tara--
tau--
te--
tea--
tem--
ter--
territo--
th--
ti--
to--
tor--
tr--
tro--
tt--
tu--
tua--
typi--
u--
un--
up--
utili--
utu--
v--
va--
vai--
ve--
ven--
ver--
vi--
vic--
victo--
vila--
vla--
vo--
vor--
w--
wa--
we--
wha--
whak--
whaka--
wi--
wil--
x--
y--
z--
ze--
zoosub--
به--
--0
--00
--01
--1
--17
--2
--3
--35
--38
--4
--43
--44
--5
--53
--6
--68
--7
--73
--76
--78
--8
--86
--87
--89
--9
--92
--93
--a
--aa
--ack
--ad
--ada
--ae
--af
--ai
--ain
--al
--an
--ant
--ar
--art
--as
--ata
--b
--ba
--be
--bi
--ble
--bo
--c
--ca
--ce
--ceae
--ch
--che
--ck
--co
--cus
--d
--da
--de
--ds
--dy
--e
--ea
--ed
--el
--ela
--ell
--emi
--en
--ent
--er
--era
--es
--ever
--ez
--f
--fie
--ft
--g
--ga
--ge
--gh
--go
--h
--ha
--hana
--hau
--he
--hi
--hia
--ho
--hr
--hu
--i
--ia
--iao
--ic
--ick
--ida
--ien
--ies
--iga
--il
--ine
--ing
--ion
--ir
--is
--it
--ito
--ium
--ized
--j
--k
--ka
--ke
--ki
--ko
--l
--la
--land
--ld
--le
--li
--ll
--lla
--llum
--lo
--lon
--lophone
--ls
--lt
--lu
--ly
--m
--ma
--mber
--me
--ment
--mo
--mp
--n
--na
--nc
--nce
--nd
--nda
--nde
--ndi
--nds
--ne
--nel
--nes
--net
--ng
--nga
--ni
--nien
--nne
--no
--ns
--nt
--nto
--nts
--nu
--num
--ny
--o
--ol
--on
--ons
--or
--os
--ot
--ous
--ow
--p
--pa
--pe
--phone
--pu
--q
--que
--r
--ra
--raa
--rate
--ray
--rc
--rd
--rda
--re
--ri
--rii
--rne
--ro
--rs
--rt
--ru
--ry
--s
--sa
--sch
--se
--ser
--ses
--sh
--si
--ska
--ss
--sse
--st
--t
--ta
--take
--tan
--tanga
--tano
--te
--ted
--tes
--teur
--ti
--tia
--ting
--tion
--tions
--tita
--to
--ton
--toro
--ts
--tu
--ty
--u
--ua
--ue
--ugh
--ui
--ul
--um
--ur
--us
--ux
--v
--va
--ve
--w
--wa
--x
--xa
--y
--ya
--z
--za
--ze
--zi
--а
--ь
--ز
