!
"
#
##0
##1
##10
##11
##12
##13
##14
##15
##16
##17
##18
##19
##2
##20
##21
##22
##23
##24
##25
##26
##27
##28
##29
##3
##30
##31
##32
##33
##34
##35
##36
##37
##38
##39
##4
##40
##41
##42
##43
##44
##45
##46
##47
##48
##49
##5
##50
##51
##52
##53
##54
##55
##56
##57
##58
##59
##6
##60
##61
##62
##63
##64
##65
##66
##67
##68
##69
##7
##70
##71
##72
##73
##74
##75
##76
##77
##78
##79
##8
##80
##81
##82
##83
##84
##85
##86
##87
##88
##89
##9
##90
##91
##92
##93
##94
##95
##96
##97
##98
##99
$
%
&
'
(
)
*
+
,
-
.
/
0
00
000
0000
001
002
003
01
02
03
04
05
050
06
07
08
09
095
1
10
100
1000
1002
101
1011
1014
1018
102
1020
102398
1024
1029
103
1030
1032
1033
1038
104
1045
1046
1048
105
1050
1051
1052
1056
1057
106
1060
1066
107
1071
1077
1078
1079
108
1081
1084
109
1091
1094
1097
11
110
1103
1106
1107
1109
111
1111
1115
112
1120
1129
113
1130
1132
1135
1136
1138
114
1141
1142
1146
1147
1149
115
1150
1155
1157
116
1160
117
1170
1176
1178
118
1182
1184
1185
1189
119
1195
1196
12
120
1200
1204
1205
121
1212
1213
1214
12148
1215
1218
1219
122
1220
1221
1225
1226
1228
123
1232
1233
1236
124
1240
1243
1248
125
1250
1253
1254
1257
126
1260
1263
1266
1268
127
1270
1271
1272
1273
1274
1275
1276
1278
128
1283
1285
1287
129
1291
1295
13
130
1300
1304
1305
1308
131
1310
1311
1312
1315
132
1323
1327
1328
1329
133
1334
1336
1338
134
1340
1342
1343
1349
135
1350
1352
136
137
1370
1375
1377
1378
138
1383
1385
1386
1388
139
1391
1398
14
140
1400
1401
1402
1403
1404
1405
1408
141
1411
1412
1415
1416
1418
142
1420
1423
1425
1426
143
1430
1431
1433
1437
1439
144
1440
1441
1444
1446
1447
1448
1449
145
1450
1451
1452
1453
1455
1456
1457
1459
146
1460
1464
1465
1466
147
1472
1473
1475
1476
1477
148
1480
1481
1482
1483
1484
1485
149
1490
1492
1495
1496
1497
1499
15
150
1500
1504
1506
1509
151
1510
1511
1512
1513
1515
1516
1519
152
1520
1521
1522
1524
1525
1526
1527
1528
1529
153
1530
1531
1533
1536
1538
1539
154
1540
1541
1544
1545
1546
1547
1549
155
1550
1553
1554
1555
1556
1557
1558
1559
156
1560
1562
1564
1565
1566
1567
1568
1569
157
1570
1571
1572
1573
1575
1576
1577
1579
158
1580
1581
1582
1585
1586
1587
1588
1589
159
1590
1592
1594
1595
1597
1598
16
160
1600
1601
1602
1603
1604
1605
1606
1607
161
1611
1612
1613
1616
1619
162
1620
1621
1622
1623
1624
1625
1626
1627
1629
163
1630
1631
1632
1634
1635
1637
1638
1639
164
1640
1641
1642
1643
1644
1645
1646
1647
1648
1649
165
1650
1651
1652
1653
1654
1655
1656
1657
1658
1659
166
1660
1661
1662
1663
1664
1665
1666
1667
1668
1669
167
1670
1671
1672
1673
1674
1675
1676
1677
1678
168
1680
1681
1682
1684
1685
1686
1687
1688
1689
169
1690
1691
1692
1693
1694
1695
1696
1697
1698
1699
17
170
1700
1701
1702
1703
1704
1705
1706
1707
1708
1709
171
1710
1711
1712
1713
1714
1715
1716
1717
1718
1719
172
1720
1721
1722
1723
1724
1725
1726
1727
1728
1729
173
1730
1731
1732
1733
1734
1735
1736
1737
1738
1739
174
1740
1741
1742
1743
1744
1745
1746
1747
1748
1749
175
1750
1751
1752
1753
1754
1755
1756
1757
1758
1759
176
1760
1761
1762
1763
1764
1765
1766
1767
1768
1769
177
1770
1771
1772
1773
1774
1775
1776
1777
1778
1779
178
1780
1781
1782
1783
1784
1785
1786
1787
1788
1789
179
1790
1791
1792
1793
1794
1795
1796
1797
1798
1799
18
180
1800
1801
1802
1803
1804
1805
1806
1807
1808
1809
181
1810
1811
1812
1813
1814
1815
1816
1817
1818
1819
182
1820
1821
1822
1823
1824
1825
1826
1827
1828
1829
183
1830
1831
1832
1833
1834
1835
1836
1837
1838
1839
184
1840
1841
1842
1843
1844
1845
1846
1847
1848
1849
185
1850
1851
1852
1853
1854
1855
1856
1857
1858
1859
186
1860
1861
1862
1863
1864
1865
1866
1867
1868
1869
187
1870
1871
1872
1873
1874
1875
1876
1877
1878
1879
188
1880
1881
1882
1883
1884
1885
1886
1887
1888
1889
189
1890
1891
1892
1893
1894
1895
1896
1897
1898
1899
19
190
1900
1901
1902
1903
1904
1905
1906
1907
1908
1909
191
1910
1911
1912
1913
1914
1915
1916
1917
1918
1919
192
1920
1921
1922
1923
1924
1925
1926
1927
1928
1929
193
1930
1931
1932
1933
1934
1935
1936
1937
1938
1939
194
1940
1941
1942
1943
1944
1945
1946
1947
1948
1949
195
1950
1951
1952
1953
1954
1955
1956
1957
1958
1959
196
1960
1961
1962
1963
1964
1965
1966
1967
1968
1969
197
1970
1971
1972
1973
1974
1975
1976
1977
1978
1979
198
1980
1981
1982
1983
1984
1985
1986
1987
1988
1989
199
1990
1991
1992
1993
1994
1995
1996
1997
1998
1999
2
20
200
2000
2001
2002
2003
2004
2005
2006
2007
2008
2009
201
2010
2011
2012
2013
2014
2015
2016
2017
2018
2019
202
2020
2021
2022
2023
203
2030
204
205
206
207
208
209
21
210
211
2110
212
213
214
215
216
217
218
219
22
220
221
222
223
224
225
226
227
228
229
23
230
231
232
233
234
235
23500
236
237
2373
238
239
24
240
2400
241
242
243
244
245
24500
246
2460
247
248
249
25
250
251
252
25200
25256
253
254
255
256
257
258
259
26
260
261
262
263
264
265
266
267
268
269
27
270
2700
271
272
273
274
275
27500
276
277
2770
2772
278
279
28
280
281
282
283
284
285
286
287
288
289
2893
29
290
291
292
293
294
295
296
297
298
299
3
30
300
3000
301
302
303
304
305
306
307
308
309
31
310
311
312
313
314
315
316
317
318
319
32
320
321
322
323
324
325
326
327
328
329
33
330
331
332
333
3330
334
335
336
337
338
339
34
340
341
342
343
344
345
346
347
348
349
35
350
351
352
353
354
355
356
357
358
359
36
360
361
362
363
364
365
366
367
368
369
37
370
371
373
374
375
376
377
379
38
380
381
382
383
384
385
386
388
389
39
390
391
39218
393
394
395
396
397
398
399
4
40
400
4000
401
402
403
404
405
406
407
408
409
41
410
411
412
413
416
417
418
419
42
420
4200
4205
4206
421
4217
423
425
426
427
428
429
43
430
431
432
433
434
435
436
437
438
439
44
440
441
442
443
444
446
447
448
449
45
450
4500
451
452
453
454
455
4553
456
457
458
459
46
460
461
464
465
466
467
468
469
47
470
471
472
473
474
476
477
479
48
480
482
485
486
487
488
49
490
493
494
497
498
5
50
500
501
502
503
504
505
506
508
509
51
510
511
512
513
515
517
519
52
520
52000
52100
522
523
524
525
526
528
529
53
53049
532
533
534
535
54
541
543
545
546
549
5490719
5490752
54908162
55
551
552
554
555
556
558
559
56
560
561
562
567
569
57
570
575
576
577
58
584
59
593
596
599
6
60
600
605
606
61
610
612
613
617
62
620
625
626
627
63
630
634
639
64
640
65
650
658
66
660
664
67
673
67300
675
68
681
688
69
7
70
700
7000
70425
71
711
713
72
72000
72100
72500
73
733
734
73500
736
74
747
748
75
750
753
756
757
758
76
762
765
769
77
770
774
775
778
78
780
783
79
790
791
793
794
795
796
799
8
80
800
81
812
814
815
81500
82
822
82500
83
830
831
835
836
838
839926713
84
840
842
843
844
845
848
849
85
850
851
852
855
859
86
861
869
87
870
872
87282624
874
875
876
877
87723320
87723353
878
879
88
882
884
887
89
890
898
899
9
90
900
901
902
903
904
905
906
91
911
912
913
915
917
918
919
92
920
922
923
924
93
932
933
934
937
94
940
944
945
948
949
95
95696
96
9600
965
96566
967
969
97
970
976
978
98
98085
983
985
987
99
991
997
999
:
;
<
=
>
?
@
\
^
_
`
a
aachen
aaron
aata
ab
abada
abade
abader
abado
abalain
abando
abandon
abandona
abandonar
abay
abayie
abbal
abbaye
abbe
abbey
abdallah
abdelaziz
abe
abeba
abegg
abeille
abel
abergement
abero
ability
abkhazie
able
ablo
ablon
ablona
ablonas
ablono
abo
abolicion
abonament
abonaments
abondance
abondantes
abondenta
abonner
abord
abou
abouens
about
above
abraham
abre
abregie
abreviacion
abri
abrite
abruce
absence
absi
absida
absolua
absorba
abstract
abuja
abus
abuse
abusefilter
abusefilters
ac
aca
acade
academia
academic
academy
acaunensium
acce
accent
accentue
accept
acceptable
accepte
accepted
accepting
access
accessibility
accessible
accident
accion
accions
acco
accord
according
accordingly
accords
account
accounts
accra
accueil
accueillante
accused
ace
ach
achal
achavone
achavonont
ache
acheta
achetar
achieve
achieved
achille
achillea
acie
acion
aco
acompagna
acompagne
acorda
acoue
acquere
acre
acrobatico
acronimo
across
act
acte
actes
actif
actifs
action
actions
activa
activament
activate
active
activisme
activista
activiste
activisto
activita
activite
activities
activity
acto
actor
actors
actos
actrice
actua
actualite
actually
actue
actuelle
actuellement
acuely
acusa
acuta
acutar
ad
ada
adalgisa
adam
adams
adapta
adaptacion
adaptacions
adapter
add
added
adding
addis
addition
additional
address
addresses
addressing
adds
ade
adelaide
adelayida
adelheid
adhanom
adhe
adicion
adio
adj
adje
adjo
adjust
adler
adme
admin
administra
administracion
administracions
administrateur
administrateurs
administratif
administration
administrativa
administrativament
administrative
administratives
administrator
administrators
admins
ado
adoce
adolf
adolphe
adonc
adonis
adopcion
adopta
adopte
adopter
adoptont
adq
adre
adresse
adresses
adriano
adriatica
adrien
adulto
adv
advance
advanced
advancedsearch
advantages
adve
advocate
advoye
adze
ae
aebischer
aegagrus
aele
aerdzan
aerial
aerni
aervan
aevi
af
afa
afama
afe
affaire
affaires
affame
affect
affecte
affected
affecting
affects
affiche
affiliate
affiliates
affilie
afganistan
afhosa
afiche
afichie
afichient
aficiona
afin
afirmant
afirmat
aflluent
aflluents
afluent
afluents
afouse
afpl
afra
africa
african
afrika
afrikaans
afrique
afriquen
afriquens
afrontaments
afronte
after
afterwards
ag
agace
again
against
agassiz
agatha
agaune
age
agence
agences
agenda
agglome
aggregation
aggregator
agit
aglle
agllo
agllome
aglome
agne
agnelli
agnes
ago
agostino
agosto
agoue
agouelya
agouelye
agrante
agrantia
agrantissements
agre
agrela
agricola
agricoles
agricolo
agricolos
agricultura
agriculture
agro
agroscopo
agu
aguila
aguilera
ahead
ai
aicher
aid
aide
aider
aigue
aiguille
ailleurs
aime
aimerions
aims
ain
ainsi
air
aire
aires
ais
aise
aises
ait
aivo
aix
ajoie
ajorna
ajoue
ajouter
ajoutez
ak
akarige
akarta
akte
al
ala
alacant
alagna
alain
alamagna
alaman
alamand
alamans
alan
alans
alar
alarme
alarni
alaska
alaval
alave
alba
alban
albanais
albane
albanesi
albania
albanie
albanne
albe
albert
alberti
alberto
albertville
albom
alboms
albon
albrecht
albstadt
album
alby
alcide
alcol
alcolisa
alcoran
alcune
ale
alem
alemagne
alemagnes
alemand
alemanda
alemands
alen
alens
alento
alentorn
alentorns
alentour
ales
alessandra
alessandro
aletsch
alex
alexander
alexandra
alexandre
alexandro
alexi
alexis
alexmar
alf
alfabe
alfons
alfonso
alfred
alfredo
alg
alge
algue
algues
ali
alia
alianc
aliance
aliances
alias
alibertine
alice
alida
alide
alie
alighieri
alimenta
alimentacion
alimentar
alimente
aliot
alisa
alisacion
alisar
alisator
alise
alismo
alita
alix
alize
alja
all
alla
allan
alle
alleborgobot
allemagne
allemand
allemann
allen
allez
alliance
allins
allirant
allocate
allocation
allons
allow
allowed
allowing
allows
ally
almanach
almer
almost
alo
alobrojos
alocacion
alogicos
alogie
along
alongie
alongside
alor
alors
aloys
alp
alpa
alpage
alpages
alpe
alpen
alpengarten
alpensteinbocks
alpes
alpestre
alpha
alphabet
alphonse
alpi
alpin
alpina
alpinae
alpine
alpinisme
alpiniste
alpino
alpins
alpium
already
als
alsace
also
alt
altara
alte
alten
alter
altermatt
alternatif
alternatifs
altes
although
altituda
altitude
alto
altre
altri
alura
alusion
alva
alve
alveoles
always
alye
alyo
alyor
alzace
alzacie
alzacien
alzaciens
am
ama
amadeo
amadeus
amanda
amanita
amanites
amaudruz
amaveulle
amayica
amazigh
amazigo
amazigos
ambacsaria
ambacsiors
ambassadeur
ambassadeurs
ambassador
ambassadors
ambe
ambicions
ambientale
amblagnio
ambox
ambra
ambule
ame
amen
amena
amendment
america
american
americana
americas
amfibiens
amfite
amherd
ami
amiane
amians
amimo
amimona
amis
amitie
ammann
amniotos
amo
amoblament
amodeye
among
amont
amonte
amor
amore
amoudruz
amount
amour
amours
ampe
ampion
ampionat
ampions
amplament
amste
amsterdam
amtes
an
ana
anai
analisa
analise
analyse
analysis
analytique
anarchistes
anarchisto
anarchistos
anastaso
anatolie
anatoliy
anatomia
anatomiques
ance
anche
ancia
ancian
anciana
ancianament
ancianes
ancians
ancie
ancien
anciena
ancienne
anciennes
anciens
ancora
and
andelot
andenmatten
anders
andes
andorra
andre
andrea
andreas
andreo
andres
andress
andrew
andri
android
andry
andue
andy
ane
anecdotes
anema
anemasse
anemone
anemos
anevie
anexa
ang
ange
angel
angela
angeles
angelica
angelika
angelique
angelo
angels
angerfist
angers
angevin
anglada
anglais
anglaise
angle
anglete
anglicana
anglle
angllete
angllo
angola
angole
angoule
anguissola
angule
ania
anie
anima
animacion
animal
animator
anime
anjelin
anjo
anjou
ankara
ann
anna
annalas
annales
annan
anne
annecy
annemarie
annetta
anni
annie
anniversaire
anniviers
anno
annonce
annonces
annos
announce
announced
announcement
announcements
announces
announcing
annual
annuel
annuelle
anonce
anonces
anonymes
another
anri
ans
ansaldi
anselme
ansermet
answer
ant
antagno
antan
antartica
ante
anthologie
anthony
anti
antica
antichi
antico
antigoa
antiles
antilyes
antioch
antioquia
antipape
antipolucion
antiquita
antiquity
antofagasta
antoine
antoinette
antologia
anton
antoni
antonia
antonio
antoua
antoue
antra
antre
antropologa
antropologia
anua
anue
anuros
any
anyone
anys
anything
anzon
ao
aoc
aohta
aop
aosta
aoste
aou
aousta
aouta
apa
apare
aparence
aparent
aparenta
aparicion
aparicions
apartegnent
apartenance
apartenence
apartheid
apartint
aparu
aparua
ape
apela
apelacion
apelar
apelens
apentse
apenze
aperc
apertium
apetit
apex
api
apiaceae
aple
aplica
aplicacion
aplicacions
aplique
apo
apocalipsa
apollo
apologies
apologize
apon
apond
apondant
aponde
apondent
apondont
apondre
apondu
apondues
apondus
apone
aponsa
aponses
aponte
aporta
aportar
apostolic
apostolica
apoue
apoye
app
apparence
appe
appeal
appear
appearance
appeared
appears
appel
appele
appenzell
appert
apple
applicable
applicants
application
applications
applied
applique
appliquer
apply
appre
appreciate
appreciated
apprends
approach
approcha
approche
approches
appropriate
approval
approved
approximately
apr
apre
aprentissa
april
aproche
aprovondia
aqu
aquae
aquatico
aque
aqueduc
aquerir
aquerit
aquino
aquit
aquitania
aquite
ar
ara
araba
arabe
arabes
arabia
arabic
arabica
arabie
arabo
arabos
aragnon
arago
aragon
aragone
aram
aramaic
arame
aran
arane
arat
araucano
arava
aravi
arban
arbana
arbane
arbaney
arbanna
arbe
arbie
arbio
arbitrage
arbitrary
arbitre
arbon
arbore
arc
arca
arcadia
arcana
arcangelo
arcangiul
arceve
arch
arche
archeve
archite
architectural
architecture
archiv
archive
archives
arciat
arcieux
arco
arconcie
arcs
arctica
ard
arde
ardecha
ardena
ardie
ardilye
ardj
ardoue
are
area
areas
aren
arena
aretha
areuse
argand
arge
argent
argenta
argentena
argentie
argentina
argovia
argument
ariane
ariant
arie
ariel
arime
aritme
ark
arkansas
arlanc
arlaud
arle
arli
arma
armaillis
armalye
armanac
armand
armandine
arme
armence
armenian
armenica
armeniena
armenteros
armes
armistice
armo
armor
armoue
arms
armstrong
arn
arna
arnad
arnald
arnica
arno
arnold
aroroumen
around
arp
arpe
arpelistock
arpenc
arpenche
arpenches
arpencs
arpes
arpeta
arpetan
arpetana
arpetanes
arpetania
arpetanisa
arpetanna
arpetannavarianta
arpetannes
arpetano
arpetanofona
arpetans
arpette
arpians
arpille
arpin
arpinismo
arpinisto
arpinistos
arpita
arpitan
arpitana
arpitanavarianta
arpitane
arpitanes
arpitania
arpitanian
arpitanie
arpitanismo
arpitanna
arpitano
arpitans
arpitienne
arpoueuille
arpuilles
arque
arrache
arrange
arratse
arre
arreva
arrevar
arrevat
arreve
arrevont
arri
arrie
arrionda
arriondi
arrive
arrondissament
arrondissement
arrondissements
ars
art
arte
artelys
artes
arthur
article
articles
articllo
articllos
articlo
articlos
artico
articula
articulacion
articulacions
artificia
artificie
artimbales
artisanat
artista
artiste
artistes
artistica
artisto
artistos
artists
artofe
artoue
arts
artsy
artun
artur
arturo
arva
arve
arvela
arvie
arvillard
arvo
arz
as
ascension
ascoli
ascona
asia
asian
asiatica
ask
asked
asking
asks
asmara
aspe
aspects
aspiracions
aspire
asr
assaigs
assassina
assassinat
asse
assembla
assemble
assemblla
asseto
assieta
assign
assignation
assigne
assigned
assignment
assimil
assimila
assirie
assise
assisi
assist
assistance
assisted
associacion
associacions
associate
associated
association
associe
associye
assompcion
assouan
assuit
assura
assurar
assure
assurer
ast
aste
asterace
asteraceae
astrantia
astrid
astroba
astrono
astronomia
astronomica
astronomico
astronomo
asturien
asturies
at
ata
ataca
atachie
atant
ataque
atatu
ate
ategnenta
atelie
atelier
atencion
atendent
atendre
atenta
atentat
athletes
ation
atitude
atla
atlantic
atlantica
atlantico
atlanticos
atlas
atle
atmosfe
ato
atomica
atomos
atone
ator
atos
atot
atraccion
atractifs
atre
atreye
atribua
atribuar
atribucion
atrice
atris
atriz
atro
attache
attaque
attend
attended
attends
attentat
attentes
attention
atti
attinger
attitude
au
aube
auberjonois
auberson
aubert
aucun
aucune
audience
audiences
audio
audios
audiovisuel
audrey
auenstein
auf
aug
augmente
august
augusta
auguste
augustin
augusto
aujourd
aula
aung
aupre
aups
auquel
aura
aure
aurore
aus
aussi
aussito
austin
autant
autelli
autes
auteur
auteurs
authority
auto
autochtones
autoconfiguration
autofill
automatic
automatically
automatique
automatiquement
automne
autonomous
autors
autour
autovalue
autre
autrefois
autres
autriche
auve
auvergne
aux
av
ava
availability
available
avait
aval
avalon
avanc
avance
avancie
avant
avanta
ave
avec
avegnir
avegnue
avelye
avencho
avenge
avengie
avenir
avenjont
aventure
aventures
average
aveso
avez
aviacion
aviant
avie
avignon
avila
avion
avions
avis
avit
aviu
avivon
avo
avocat
avoe
avoid
avoir
avoisinantes
avons
avoue
avouec
avouesi
avoui
avril
avu
award
awards
aware
awareness
away
ax
axe
axo
aya
ayant
ayas
ayasse
aye
ayent
ayer
aygue
ayimara
az
aze
azerbaijani
azhi
azincort
azincortoue
azov
azur
azuro
aɾxen
b
ba
babel
babilo
babylonia
bacall
bacalo
bach
bache
bacheleir
bachelie
bacher
back
background
backward
bacte
bad
bade
baden
baez
bagdad
bagna
bagnes
bague
bahamas
bahia
bahn
bahreyin
bahti
bai
bailly
baine
bains
bak
baker
bal
bala
balan
balance
balay
balcaniques
balcans
balcon
baldassare
bale
balet
balkans
ball
ballon
ballot
balme
balon
balte
balthasar
baltica
baltimore
baltos
balya
balye
balyif
balyont
balzac
ban
banca
bance
banche
band
bandes
bangalore
bangkok
bangllade
banja
banleya
banner
banque
bans
banteay
banye
baptista
baptistavarianta
baptiste
bar
bara
barack
baragne
baragnes
barba
barbara
barbares
barbaro
barbaros
barbarossa
barbier
barbieri
barbuda
barca
barcelona
barcino
bard
bardela
bardene
bare
baret
bari
barjaca
barline
barlocco
barma
barmaz
baro
baroca
baroco
baron
baronia
barque
barques
barra
barrage
barre
bars
bartelome
barthe
barthelet
barthes
barto
bartolome
bartolomeo
baruch
bas
basa
basch
basco
base
based
basel
baselica
baseline
basepagename
bases
bash
basic
basile
basilica
basis
basque
bassa
basse
bassel
basshunter
bassi
bassin
bastelye
bastien
bastille
bat
bataille
batailles
batalye
batalyes
bate
batha
batio
batiscafo
batman
batre
bats
battista
batu
bauche
baudelaire
baumberger
bavie
bay
baya
baylor
bb
be
beat
beatles
beatriz
beau
beaucoup
beaujolais
beaujolaises
beaumont
beauregard
beautiful
bec
became
because
beck
become
becomes
becoming
bedeutung
bedie
been
beethoven
before
befre
begin
beginning
begins
begun
behalf
behavior
behaviour
behind
bei
bein
being
beitra
beitrag
bel
belagouarda
belens
belge
belgique
belin
belinc
belize
belkacem
bell
bella
belle
bellegarde
belles
bellet
bellinzona
bello
bellot
belna
belo
below
belvedere
belye
ben
bena
benda
bendas
bende
bendes
bene
benedict
benedicta
benelux
bengali
benherox
benjamin
benno
benoi
bens
bentout
benvegnua
benvenuto
benz
ber
berdze
berg
berger
bergstrecke
berkov
berlin
berlioz
bern
berna
bernar
bernard
bernardi
bernardin
bernardo
bernasconi
berne
berner
berners
bernex
bernhard
bernin
bernois
bernoulli
berrichon
berset
bersetzung
berthelot
berthier
berthod
berthoud
bertin
bertold
bertolt
bertrand
bes
besanc
besenc
besens
besie
besoin
besouens
besson
bessona
bessons
best
bet
beta
betar
betat
betawiki
bete
beth
betont
better
bettina
between
beu
beurrou
beuys
beverly
bex
beyond
beyrouth
bg
bgc
bhattacharjee
bi
bia
bial
bianca
biatle
biatris
bibla
bibliografia
bibliographic
bibliographie
bibliote
bibliothe
bibliotheca
bibois
bich
bichurina
biden
bie
bief
bieler
bielle
bien
bienheureux
biens
biento
bienvenue
biert
biesse
biez
bifurcacion
big
bigger
biggest
bij
bild
bilengoua
bilinga
bilingue
bilingues
bill
billion
billy
bilyard
bilyets
bin
binel
bing
bingen
binh
bino
binomina
binomio
binto
bio
biobi
biodive
biografia
biografico
biographie
biographies
biographique
biography
biologia
biologica
biologiques
biologo
bionas
biotopo
bioue
birgit
birmania
birmanie
birokrat
birse
birthday
bis
bise
biserica
bissaou
bisse
bisses
biste
bistro
bistrot
bit
bits
bizance
bizantin
bizantina
bizet
bke
bl
bla
blablacar
black
blackwell
blaise
blament
blamentd
blan
blanc
blanca
blanchard
blanche
blanches
blanchett
blancs
blank
blason
blasonament
blatter
blau
blavignac
ble
bles
bleu
bli
blia
blica
blier
blir
bllaga
bllanc
bllanca
bllancharda
blle
bllo
blo
bloc
bloca
blocage
blocar
bloch
block
blocker
blocks
blocs
bloemfontein
blog
blogs
blondel
bloomsbury
bloquer
blos
blu
blua
blue
blues
bm
bmu
bn
bnf
bo
board
bob
bobbio
boccoli
bochale
boche
boches
bochet
bocion
bocon
bocons
bodini
body
boeuf
bogeries
bogon
bogota
boi
bois
boiset
boissier
boiteux
bokma
bola
bold
bole
bolegnio
boleve
bolivie
bologne
bolschoi
bolsonaro
bombance
bombardament
bombardement
bon
bona
bonaparte
bonavela
bonc
bone
bonheur
bonhor
bonifac
boniface
bonjorn
bonjour
bonn
bonna
bonnard
bonnaud
bonne
bons
bonvin
book
bookmark
books
boolean
boque
boqueten
boquetens
bor
bora
borassus
borbone
bord
borda
bordeaux
border
bordo
bordon
borg
borge
borgeaud
borgia
borgie
borgnatie
borgno
borgo
borgogna
borgogne
borguegnon
boris
borjon
borjons
bornes
bornet
borra
borre
borsie
borwa
bosco
bose
bosna
bosnia
bosnie
boso
boson
bossa
bossi
boston
bot
bota
botan
botanica
botanico
botanicos
botanique
botanista
botaniste
botanisto
bote
boterens
both
botie
botion
botione
botmultichill
boton
botons
bots
botsouana
bottier
bottom
bou
bouc
bouchet
bouchie
bouchoux
boucle
boudismo
boudisto
boudjiman
boue
bouely
bouelys
bouesc
bouescs
bouesse
bouesson
bougeries
boulanger
boun
bouquetin
bouquetins
bourbon
bourdain
bourg
bourgogne
bourla
bourrit
boussole
bout
bouta
bouterse
bouton
bouvier
bovessa
bovesse
bovet
bovidae
bovines
box
boxes
boxor
boyer
boze
bozel
bpt
bpy
br
bra
brabant
brac
brache
bracions
brail
braille
bramans
branch
branche
branches
branchie
brand
brande
brando
brasilia
brasilya
brasse
bratsy
bravo
brazilian
bre
break
breaking
brebant
brebis
brecha
brechon
brecht
bredineries
brega
bregaglia
bregogne
bregognon
breinigerberg
breitinger
breitling
brel
brenchie
brens
bres
bresie
bressan
bressanes
bresse
bretagna
bretagne
brete
breton
bretona
breuill
breve
brevet
brian
brianc
briciole
bridel
brides
bridge
brie
brief
briefe
brigitta
brigitte
bring
brins
brion
brisgau
brisgovia
brissago
bristol
brit
britain
britanica
britaniques
britannica
british
bro
broad
broadcast
broc
brocherel
brodard
broken
bron
bronzo
bros
brosse
brosses
brothers
brotio
brouye
browser
browsers
bru
bruce
bruga
brugger
bruit
brun
brunet
bruneyi
brunnen
bruno
brus
brusse
bruta
bs
bst
bu
bucare
bucha
buck
bucket
budape
budge
bue
buech
buely
buenos
buffaz
bug
bugatti
buge
bugenie
bugey
bugeysiennes
bugie
bugista
bugistes
bugisto
bugne
bugs
bugzilla
build
building
built
buj
bujon
bulgara
bulgaria
bulgarie
bulgaro
bull
bulle
bulletin
bulo
bulsara
bulye
bureau
bureaucrat
bureaucrate
bureaucrates
bureaucratiques
bureaucrats
burgondan
burgonde
burgondes
burgondia
burgondie
burgondo
burgondos
burkart
burkina
burlesque
burns
buro
burro
burton
burundi
bus
bush
business
busquets
busse
busserailles
bussie
buster
but
butch
bute
buthier
buts
button
buttons
buyat
buzhe
bwv
by
bya
bye
byin
byo
byrial
byzantine
c
ca
caba
caballe
cabare
cabas
cabina
cabinda
caboul
cabre
cabrero
cabrete
cacanie
cache
cachie
cadran
cadre
caduff
caen
caesar
cafe
cahier
cahiers
cai
caine
caio
cairn
caius
cake
cala
calabre
calabrese
calabrie
calc
calce
calcio
calde
cale
calendar
calendrie
calendrier
california
caligula
call
callas
called
calligrafo
calling
calls
calmar
calme
calmer
calmy
calque
caluire
calvados
calve
calvin
calw
calye
cam
cama
camarade
camargo
cambe
cambodg
cambont
cambridge
came
camera
cameron
camille
camillo
caminho
camp
campagna
campagne
campagnes
campaign
campania
campanie
campbell
camps
campus
camus
can
cana
canada
canadian
canadie
canadien
canal
canalblog
canaletto
canali
canaries
canaux
canberra
cancel
candidacy
candidat
candidate
candidates
candidats
candidatura
candidature
candidatures
candide
candolle
canes
cani
canica
canicos
canis
canischio
canismos
cannot
canonica
canonicament
canossa
cantal
cantare
canterbury
canti
canto
canton
cantona
cantonal
cantonale
cantone
cantons
cantorbe
canu
canut
canuts
caoc
cap
capa
capacita
capacite
capita
capital
capitala
capite
capitol
capitulacion
capra
capsula
caption
captions
caque
car
caracte
caratsch
carburant
carcul
carcule
carculs
card
cardena
cardiaca
cardinal
cards
care
caricaturiste
caricaturisto
carignan
carl
carla
carli
carlina
carlo
carlos
carmen
carnava
carnaval
carolina
caroline
carolingiens
carouge
carpano
carpates
carpe
carpenter
carpoforo
carra
carrasco
carre
carrel
carrelyon
carrie
carro
carroge
carrojo
carroll
carron
cars
cart
carta
carte
carter
cartes
cartografia
carton
carvalho
carvin
carvinisto
cas
casa
casablanca
casaneuve
casanova
casca
case
cases
caso
caspar
cassano
cassidy
cassin
cassini
cast
castafiore
castaing
caste
castellane
castello
castelnuovo
casterman
castex
castilia
castilyan
castilye
castle
cat
catala
catalan
catalana
catalanes
catalans
catalogne
catalogo
catalogue
catalunya
catastrofa
cate
catedra
catedral
categoria
categories
category
caterina
cathe
catherine
catholic
catholica
catholiques
catiers
cato
catolic
catolica
catolicismo
catolico
catolicos
catolicossat
catoliques
catscan
catsirant
caturelli
cause
caused
causes
caution
cava
cavalerie
cavalie
cavalier
cavalon
cave
cavelier
cavour
cayene
cayistro
cayon
cayons
cbk
cc
ccion
cciona
ccione
ccions
cdr
ce
ceb
ceci
cefan
cefp
cegni
ceil
cein
cel
cela
celaque
cele
celebration
celes
celeu
celi
celia
cell
cella
celle
celles
cellini
cells
celor
celos
celsius
celtic
celue
celui
cembre
cembro
cemetie
cemment
cen
cenis
censa
cent
centblue
cente
centenaire
centene
center
centeralt
centers
centes
centra
centrafrica
centrafrique
central
centrale
centralisacion
centre
centro
centros
cents
centslovak
century
cepaea
cependant
cependent
cer
cercle
cerda
ceremonies
ceremony
ceresins
cerlogne
cern
cerro
certain
certaines
certains
cervantes
cerve
ces
cessaire
cesseins
cest
cet
ceta
cete
cetes
ceti
ceto
cetos
cette
cetu
ceuta
ceux
cf
cfel
cff
cfl
cfll
cgn
ch
cha
chabanie
chabaud
chablais
chable
chabod
chabre
chace
chacera
chacior
chacun
chagall
chair
chaix
chal
chala
chalamont
chalamonte
chaland
chalant
chalarona
chalaronne
chale
chalender
chalendes
chalens
challant
challenge
chamba
chambave
chambe
chamberans
chambllon
chambo
chambra
chambradoc
chambre
chamo
chamond
chamonia
chamonix
chamoue
champ
champa
champagne
champagno
champdepra
champe
champegnon
champegnons
champflle
champion
championat
championne
champions
champs
chan
chanare
chanc
chance
chancelie
chande
chandie
chandio
chandolin
chanel
change
changed
changement
changements
changer
changes
changie
changing
chanjo
chanjos
channel
chano
chanoine
chanoines
chanoue
chanousia
chanoux
chanson
chansonnie
chansonniers
chansons
chant
chanta
chantar
chante
chanter
chantere
chantie
chantier
chantont
chantor
chantors
chantosa
chants
chapale
chapar
chape
chapele
chapelle
chapelon
chapitro
chaplin
chaponnie
chappe
chappuis
chapuis
chaque
chara
character
characters
charame
charantes
charbon
charbonie
chardin
chardo
chare
charente
charentes
charge
chargie
chari
charita
charles
charlet
charlie
charlo
charlotta
charlotte
charlue
charmase
charmese
charna
charole
charpentie
charpentier
charrie
charrota
charta
charte
charter
chartreuse
charue
charvagnou
charvet
charvio
chascon
chasper
chasque
chassagne
chassagneux
chassagni
chasseur
chassio
chat
chatagne
chate
chateau
chateauvieux
chatel
chats
chaumel
chaumont
chautagne
chaux
chavan
chavanes
chavano
chavon
chavona
chavonar
chavone
che
check
checkbox
cheers
chef
chel
chelie
chelyon
chemical
chemin
chemins
chena
chenal
chene
cheneve
cheney
chenit
chenouda
cher
chercher
cherchior
cherle
chermignon
chero
ches
chesa
chesque
chessex
chete
cheurs
cheva
cheval
chevalie
chevalier
chevalley
cheveux
chevri
chevrie
chevrier
chevrolet
chez
chi
chialamberto
chicago
chico
chie
chiel
chien
chier
chiera
chiesa
chiffres
chifros
children
chile
chili
chilla
chillon
chimie
chin
china
chine
chinese
chinois
chinoue
chins
chir
chirac
chirat
chis
chisto
chistos
chittagong
cho
chocolat
choice
choisir
choix
chon
chons
choose
choosing
chopin
chora
chorier
chos
chosa
chosale
chose
chosen
choses
choubeila
choue
chousa
chouses
chr
chre
chrestomathie
chris
chrisptde
christ
christel
christi
christian
christiana
christiane
christianes
christie
christina
christinat
christine
christmas
christo
christoffel
christoph
christophe
christopher
chronique
chroniques
chronologie
chronos
chu
chuck
chur
church
churchill
chute
chœur
ci
cia
cialament
cialement
ciales
cialisa
cialistos
ciba
cibeins
cice
ciceronis
ciclismo
cicllista
cicllisto
cicllo
cicr
cida
cidar
cide
cidr
cie
ciel
cielo
ciencias
cieux
cificament
cifico
cificos
cifie
cigni
cile
ciles
cilette
cilicie
cilos
cima
cime
cin
cine
cinema
cines
cinq
cinquante
cinquie
cio
cion
cipitacions
cipro
circo
circonscripcion
circuit
circulacion
circular
circule
ciro
cirsium
cis
cisa
cise
cision
cisions
cit
cita
citacion
citar
citation
citations
cite
cithakan
cities
citoid
citoyen
citoyenita
citoyens
citroe
cits
cittametropolitana
city
ciutat
civil
civila
civile
civiles
civilisacion
civilisacions
civilisation
civilo
civique
ckb
cke
ckiger
ckoerner
cl
cla
clair
claire
clairer
clara
claracion
claration
clarations
claris
clarke
clarte
class
classa
classe
classement
classes
classica
classical
classicament
classico
classificacion
classique
classless
claude
claudia
claudine
claudio
cle
clean
clear
clearer
clearfix
cleemis
clef
clerc
clermont
cles
cleveland
clica
clicant
clicar
click
clicked
clicking
clics
clier
clieu
climat
climate
clinico
clinton
clipperton
cliquez
clitoris
clive
clla
cllafa
cllara
cllaracion
cllare
cllarta
cllassa
cllassement
cllassements
cllassica
cllassico
cllassie
cllavie
clle
cllimat
cllimatico
cllimatologia
cllin
cllo
cllochie
cllodomir
cllos
clloue
cllusa
clluses
clo
clos
close
clovis
club
clube
clubes
clusa
cluse
cm
cma
cn
cnewa
cnica
cnicien
cniques
cnolog
cnologia
cnologies
cnrs
co
coa
coala
coalicion
coat
cobla
coce
cochrane
code
codemirror
codes
codo
codos
coe
coeur
cofie
cofondator
cog
cognasso
cogne
cognen
cognenc
cognessence
cognessences
cognessens
cognessont
cognessu
cognessua
cognessues
cognessus
cognetre
cognin
cognu
cognua
cognues
cognus
coin
col
cola
colaboracion
colaborar
colatin
cole
colena
colenes
coles
colette
colibris
colidor
collaborate
collaboration
collaborative
collapsed
colle
colleccion
colleccions
collect
collected
collectif
collection
collections
collective
collegium
collina
collomb
collonges
colloque
colloquium
colmar
colo
colog
cologia
cologne
colognons
colomb
colomban
colombe
colombia
colombie
colonges
colonia
colonialismo
colonie
colonies
colonisacion
colonjoue
colons
colont
color
colora
colors
cols
coltivacho
columbia
column
columns
com
coma
comanda
comandant
comande
comba
combat
combatre
combe
combes
combie
combin
combina
combine
combined
come
comena
comenc
comence
comencement
comencements
comencie
comencier
comene
comenes
comenistos
coment
comente
comercia
comerse
cometae
comevarianta
comfortable
comic
comico
comics
comie
coming
comission
comita
comite
command
comme
commence
commenced
commencer
comment
commentaire
commentaires
commente
comments
commission
commit
committee
commo
common
commons
commonwealth
commun
communal
communale
communautaire
communautaires
communaute
commune
communes
communicate
communication
communities
community
communityhealth
communod
communs
como
comon
comons
comores
compa
compact
compagnia
compagnie
compagnies
compagnon
compagnons
company
companys
compaore
compara
compare
compat
compatibilita
compatiblo
compatriotos
compe
compensa
compense
compesie
competicions
competition
complaint
complaints
comple
complet
complete
completed
completely
completes
completewhois
complets
complex
complica
complicacions
compo
comportament
comporte
composa
composar
compose
composicion
composicions
composior
composiors
compositor
compositrice
compre
compregnent
compregnont
comprenant
comprend
comprendre
compris
compromis
compta
compte
comptes
comptio
compto
comptont
computer
comta
comtat
comte
comtes
comtessa
comtesse
comto
comtois
comtos
comun
comuna
comunavarianta
comune
comunes
comunesvarianta
comuni
comunicacio
comunicacion
comunicacions
comunicar
comunie
comunion
comunita
comuno
comœnes
con
conc
conce
concentra
concentre
concepcio
concept
concepto
concepts
concernant
concerne
concerns
concert
concession
concevua
concha
conches
concilo
concilos
conciues
conco
concor
concors
concours
concre
concurrencie
concurrents
condacion
condana
conde
condicions
conditions
conduct
conducted
conduire
conduit
conduite
cone
confe
confegnon
conference
configuration
configure
configured
confins
confirma
confirme
confirmed
conflans
conflict
conflicting
conflicts
conflit
conflits
confllans
confllens
confo
confolent
confondont
confondre
conforma
conforme
conformos
confronta
confucius
confusion
congo
congratulations
congre
coni
conifa
conj
conjugaison
conjugaisons
connai
connaissance
connaissant
connecte
connected
connecticut
connery
connu
connue
conomia
conomica
conomico
conomicos
conomie
conomique
conomiques
conomisto
conque
conquis
conrad
conrado
consacra
consacre
conscience
conscient
conscients
conse
consed
conseil
conselie
consensus
conserva
conservateur
conservation
conserve
conserver
conside
consider
consideration
considered
consiste
consistent
conso
consola
consoma
consomacion
consona
consones
consonne
consonnes
consort
consortium
conspiracion
constance
constant
constanta
constantin
constantine
constantinople
constantinoplo
conste
constitua
constitucion
constituciona
constitue
constituont
constraints
construccion
construccions
constructeur
construction
constructive
constructor
construire
construit
construita
construite
construites
construits
consubstancie
consul
consuls
consulta
consultar
consultation
consultations
consulter
consultera
consultez
conta
contact
contacter
contacto
contactos
contain
contains
conte
contegnont
contegnu
contegnus
contempora
contemporain
contemporana
contemporary
contempore
contenant
contenir
content
contents
contenu
contenus
conter
contes
contest
contests
conteur
context
contexte
contextes
conti
contient
continent
continenta
continents
contint
continu
continua
continuar
continue
continuer
contio
contios
conto
contornent
contra
contraste
contre
contrebendie
contrede
contrefasse
contrefo
contribs
contribua
contribuar
contribucion
contribucions
contribue
contribuer
contribute
contributeur
contributeurs
contributing
contribution
contributions
contributor
contributors
contro
control
controla
controlar
controlled
controve
conurbacion
convarianta
conve
convegno
convencion
convencions
conversation
conversations
conversion
convert
converted
conye
cook
coolidge
coope
cooperation
coordinate
coordinating
coordinator
coordona
coordonner
coou
copa
copar
cope
copenaga
copes
copiye
copo
coppa
coppes
copponex
copta
copto
copy
copyright
coq
cor
cora
corac
corala
coralyon
corament
corar
coray
corba
corbassie
corbie
corbin
corboz
corbusier
corce
corcy
corda
corde
cordelye
cordey
cordon
core
corelli
corent
corenta
corents
corinne
corio
cornalin
cornavin
corne
corneille
cornelisz
corner
coron
corona
coronavirus
corps
corpus
corradin
corrado
corrate
corre
correa
correct
corrections
correctly
corregie
correspond
correspondance
correspondances
correspondant
correspondantes
correspondence
correspondent
corresponding
cors
corsa
corse
corses
corsier
corso
cort
corte
cortelya
cortena
cortene
cortil
cortils
cortinarius
corzie
cos
cosa
cosacos
coses
cosiste
cosse
cossene
cossone
costa
costumes
costumos
cot
cote
cotelli
cotema
cotemie
cotonou
cotton
cou
coubertin
couchepin
couchientes
coucou
coucy
coue
cougnais
couin
couintrin
coula
could
coule
coules
couma
coumba
coune
count
counter
countries
country
countryballs
coup
couperin
couple
cour
couraient
courant
courbet
courcheve
courmayeur
courriel
courrier
cours
course
court
courte
courtes
cousin
couta
coutes
coutie
coutumes
couturier
couverte
couvre
couvrir
couzon
cova
cove
cover
covering
covid
coward
cr
cra
cracion
craffonara
cran
crans
crant
crate
crates
cre
crea
create
created
creating
creation
creative
crebin
credit
credo
creto
crettaz
cretton
creuseu
creux
creva
crevar
crh
cri
cria
cricket
crime
crimes
crimo
crimos
crins
criont
crire
cris
crisa
crise
crisont
crist
crista
cristianisacion
cristianismo
cristiano
cristina
cristo
cristofllo
crit
crita
crite
criteria
crites
critica
critical
critique
crits
critura
criture
critures
crivain
crive
criven
crivena
crivens
crivent
crivez
crivont
cro
croacia
croacie
croatian
croato
croc
croche
croisent
croix
crome
cromio
cromosomos
cromwell
croniques
cronologia
cropped
crosa
crose
croses
cross
crot
croue
crouese
croueselyes
crouesie
crouex
crouyo
crowe
crox
croyances
croz
croze
crozet
crt
cru
crue
cruijff
crut
cruyff
cruz
cruzilles
cs
csb
csc
cseh
css
ct
cta
ctament
ctangllo
ctangllos
ctangule
ctar
ctares
cte
ctes
ctif
ctifs
ctiosa
ctiva
ctivament
ctives
ctivita
cto
ctologa
ctologia
ctologo
ctor
ctora
ctors
ctos
ctrica
ctrice
ctricita
ctrico
ctricos
ctrifia
ctrificacion
ctriques
ctro
ctronica
ctua
ctue
ctura
ctures
cu
cuba
cuche
cuchie
cuchient
cuchientenc
cuchientenche
cuchientencs
cuchont
cucion
cudiox
cudrefin
cue
cuens
cuira
cuisie
cuisine
cul
cula
cularo
cule
culmine
culminent
culo
cultiva
culto
cultos
cultura
cultural
culture
culturel
culturelle
cultures
cume
cumunavarianta
cun
cuna
cuneo
cunha
cuoira
cuore
cup
cura
cure
cureuil
curial
curie
curita
curitiba
current
currently
cursor
cursoring
curtiva
cusano
cusenes
cusin
custi
custom
customize
customizing
cut
cuta
cutif
cuve
cuvier
cuvrent
cuvrir
cv
cws
cy
cycle
cylindre
cyprien
cyprus
cyril
cœu
cœur
d
da
dabi
daccion
daction
dactor
dad
dada
daerii
daguerre
dai
daily
daimler
daivo
dakar
dal
dalai
dalby
dali
dallas
dalye
dalyes
dam
dama
dame
dament
dames
damien
damiens
damo
damon
dan
dana
danc
dance
dancers
dances
danciosa
dancourt
dane
danema
danemark
danenc
danger
dangerox
dangie
daniel
danny
dano
danoue
danre
dans
dansk
dant
dante
danubio
dapue
dar
darbe
darbelin
darbon
darcel
dardagni
dario
dark
darlington
darrie
darwin
darzons
das
data
database
databases
datang
date
dates
dau
daumier
dauphin
dauphine
davantage
davel
david
davo
davrieux
day
days
daytime
dc
de
dea
deacon
dead
deadline
dear
death
debeaumarche
debt
debussy
decca
december
decembro
decide
decided
decin
decina
decision
decisions
decrey
decurtins
dedan
dede
dedens
dedia
dedicata
dedicated
dedie
dediens
dediensvarianta
dedins
dedinsvarianta
default
define
definitions
defo
defoe
defro
deg
degeyter
degli
degra
degre
degruyter
deguie
deho
dehoniane
dehors
dei
deja
del
dela
delacroix
delano
delay
delayida
dele
delete
deleted
delivered
delivery
dell
della
delle
dello
delon
delphine
dels
delun
dem
dema
demanda
demandar
demande
demander
demanderont
demandes
demandons
deme
demenche
demenge
demeure
demi
demo
demora
demotz
dempue
den
denez
denie
denis
denise
dennis
denny
dens
densita
densvarianta
dent
dental
dentarisont
dente
dents
depardieu
departament
department
depending
depi
deplacer
deplazes
deploy
deployed
deploying
deployment
deployments
depoue
depue
depuis
dequier
der
dera
dere
deric
derive
derivont
dernie
dernier
derri
derrie
des
desarthe
desbordes
descartes
descombes
described
describing
descriptio
description
descriptions
dese
desertina
deshoulie
design
designed
designers
designs
desired
desit
desktop
desot
desquintes
dessando
desse
desservia
desservie
desservont
dessinateur
dessine
dessines
dessot
dessous
dessouslavy
dessu
dessus
destinataire
destination
destino
destitution
destrict
destricts
destruction
desus
desvarianta
det
detail
detailed
details
determine
determined
detroit
deu
deun
deus
deustre
deutsch
deutsche
deutschen
deutscher
deutsches
deutschland
deutz
deux
deuxie
dev
devant
devantie
devantier
deve
devegnir
devegnont
devegnu
devegnue
develop
developament
developed
developer
developers
developing
development
devendro
devendros
devenir
devenu
devenus
devers
devesa
devesont
device
devices
devient
devindrat
devint
devisa
devito
devoirs
devont
devos
devouard
devraient
devrait
devre
devæi
dfrac
dhaka
dhcp
di
dia
diable
diablerie
diacion
diacritico
diacriticos
diagnostico
diale
dialect
dialectale
dialectales
dialecte
dialectes
dialectologie
dialekt
dialettologia
dialog
dialogs
dialogue
diame
diana
diante
dias
diaspora
diata
diate
diats
dica
dicator
diccione
diccions
dicembre
dichter
dichtri
dichyonire
dicion
dicions
dick
dickens
dicofranpro
dict
dictator
dicte
dictionnaire
dictionnaires
dicto
dictons
dicziunari
did
dide
diderot
didier
didn
die
diego
diemoz
dien
diens
diensvarianta
dies
diese
diesel
dieth
dietrich
dieu
dife
diff
diffe
different
difficult
diffs
diffuse
diffusion
difices
difich
dificiles
dificilo
dificulta
difusa
difusion
dig
diga
dige
diger
digital
digne
dignita
digramme
dii
dij
dijon
dikchene
dikchone
dili
diligent
dill
dilma
dilun
dima
dimension
dimentacion
dimente
diminutif
din
dina
dinamica
dinar
dinastia
dinkha
dinna
dins
dinsvarianta
dio
dioce
diocese
dioclle
diomengevarianta
dion
diont
dipadi
diphtongue
diplo
diplomate
diplomatica
diq
dir
dire
direccion
direct
directa
directament
directement
directes
direction
directional
directives
directly
director
directrice
directrize
dirige
dirigie
dirk
dis
disa
disable
disabled
disambig
disambiguation
disaster
disciple
disciplina
disciplines
disco
discografia
discors
discos
discovery
discre
discuss
discussing
discussion
discussions
discuta
discutar
discuter
discutez
disentis
diseux
disney
dispare
disparicion
disparu
disparua
disparus
display
displayed
displays
disponible
disponibles
dispose
disposicion
disposition
disputa
disruption
dissemination
dissolucion
distance
distances
distendent
distinction
distincts
distinga
distingar
distingont
distingue
disto
distri
distribua
distribucion
distribue
distribute
distributed
distribution
distributor
district
districts
dit
dita
ditandii
ditar
dite
diter
diterrane
diteur
diteurs
dition
ditions
ditor
ditors
dits
diu
diua
diva
dive
divendro
divers
diverse
diverses
diversification
diversite
diversity
dividende
divina
divinita
divisa
divise
divisiblo
division
divisions
divisont
diye
dizionario
diœmenge
dj
dja
djaz
dje
djet
djibouti
djouiye
djta
dju
djunon
djœ
dl
dla
dmand
dme
dmitri
dms
dnie
do
dobla
doble
doblo
doblos
doc
doce
doctor
doctorat
doctrina
doctrines
document
documenta
documentacion
documentar
documentation
documente
documented
documents
does
doesn
doha
doi
doing
doire
dois
doit
doivent
dolent
dollar
dollars
dolor
dolores
dolors
dom
doma
domain
domaine
domaines
domba
dombes
dombista
dombiste
dombistes
dombisto
dombistos
dome
domenica
domenico
domenique
domina
dominacion
dominanta
domine
domini
dominique
domnin
dompierre
dompierro
dompierroue
don
dona
donacion
donald
donat
donation
donations
donba
donbass
donbin
donbiste
donbisto
donc
dondaine
done
dong
donia
donie
donien
donjon
donnait
donnas
donne
donner
donors
dont
donzie
dor
dora
dorato
doraye
dordogne
dore
doris
doron
dorothe
dortmund
dos
dossie
dossiers
dota
dou
doua
douane
douard
doubayi
double
doubs
doucet
doue
doues
douglas
dougou
dounah
dous
dousie
doux
douxie
douæi
dove
doves
down
dox
doyt
doze
dozen
dozens
dprononcie
dr
dra
draf
draft
drafting
drag
dragging
draghi
dragon
drala
drale
dramatica
dramaturjo
drance
drape
drawing
draws
dre
dream
dreaming
dreams
dreifuss
dret
drets
dreve
drevet
dri
driver
dro
droit
droits
droma
dromir
dront
drop
dropdown
dropped
dros
droue
droumi
droz
druey
drume
drusilla
ds
dsb
dscf
dschweiz
dso
dt
dts
du
dua
dublin
dubo
dubochet
dubois
dubs
duc
duca
ducacion
ducation
duccion
duch
duche
duchessa
duchesse
duchie
ducommun
duconse
ducourtil
ducreux
ducs
due
duens
duforn
dufour
duire
duit
duita
duites
dukakis
dulos
dumas
dumenic
dumondas
dunant
duncan
dunn
dunoyer
duo
duparc
duple
dupont
dupra
dupraz
duquint
dur
dura
durance
durand
durant
dure
durent
durera
dures
during
durnand
dus
dusktone
dustri
dusvarianta
dutch
dutre
duvillard
dv
dvarianta
dvor
dwight
dyan
dye
dynamic
dyon
dz
dza
dzai
dzakye
dzan
dze
dzen
dzi
dzo
dzodzet
dzoordzou
dzor
dzou
dzurique
dzœ
dœ
e
each
earl
earlier
early
earth
earthrise
easier
easily
east
eastern
easy
eau
eaux
ebadi
ebook
ebooks
ebsco
ec
ecariotos
eccle
echo
echos
ecle
eco
ecology
economia
economie
economique
economy
ecosistemo
ecoula
ed
edd
edgar
edicions
edison
edit
editathon
edited
edith
editing
edition
editions
editor
editorial
editors
edits
edizioni
edmond
edmund
edouard
eds
edt
edu
eduard
eduardo
educac
educacion
education
educational
educte
edur
edvard
edward
edwin
ee
een
ees
ef
efectiva
effacer
effect
effects
effectue
effectuer
effet
efficient
effort
efforts
effouæi
eg
ege
eggenschwyler
egipte
eglise
eglle
egllese
egloff
egoua
egz
egzemplos
eht
ehta
ehtoria
ei
eiffel
ein
eine
einer
einfu
einstein
einsy
either
el
elbe
ele
election
elections
element
elements
elena
eles
elevarianta
elias
eligible
elina
elisa
elisabeth
elitre
eliza
elizabeth
ell
elle
elles
elli
ellos
els
elsa
else
elsevier
elvis
elye
elzingre
em
ema
email
emanuel
emanuele
embanner
embarcont
embe
embie
emble
embranchament
embranchement
embranchements
embrun
emda
eme
emie
emil
emile
emilien
emirats
emma
emmanuel
emmode
emo
emp
empa
empache
empachie
empara
emparar
empare
empartia
empartiavarianta
empe
emperado
emperatrice
empereur
emperia
emperor
emperors
empire
empiro
emplacement
emplantacion
emple
empleye
empleyent
emplleye
emploie
employe
empo
emportance
emportant
emportanta
emportante
emportants
emportence
emposa
emposar
empossibla
empossiblo
empre
emprima
empronte
empty
empulsion
en
ena
enable
enabled
enabling
enca
encadra
encan
encant
ence
enchangie
enche
encicllope
enciclope
enciclopedia
encisa
encite
enclla
encllava
encllo
encllusion
encognu
encognuvarianta
encontra
encora
encorage
encoragie
encore
encorvarianta
encourage
encouraged
encourageons
encubacion
encura
encursions
encyclope
encyclopedia
encyclopedias
end
enda
ende
endes
endic
endica
endicacion
endicacions
endicant
endicar
endicatif
endien
endiens
endige
ending
endique
endiquiosa
endiquont
endispensa
endividu
endividue
endividus
endo
endone
endouæi
endre
endret
endroits
ends
endura
endustria
endustrialisa
endustrie
endustries
ene
enfance
enfant
enfants
enfata
enfe
enfeni
enfiltracion
enfin
enfllamacion
enflluence
enfluence
enfluences
enfluencie
enfo
enfocajon
enforce
enforceable
enforcement
enforma
enformacion
enformacions
enformatica
enformatico
enforme
enfrastructura
enfrastructures
engadina
engage
engagement
engagie
engancie
enge
engels
engenie
engenior
engine
engineer
engineering
england
english
engllobe
enguenot
enhance
enhancement
enisum
enjeux
enjoque
enjoy
enjures
enlightenment
enne
ennemi
ennio
enqu
enque
enregistra
enregistre
enric
enriching
enrico
ens
enscripcion
enscrit
enscrita
enscrite
enscrits
ense
ensemble
ensembllo
ensemblo
ensemblos
ensems
ensiems
ension
enspira
ensta
enstala
enstalacion
enstalacions
enstalat
enstalont
enstitua
enstitucion
enstitucions
enstitut
enstruccion
enstrument
enstruments
ensufisence
ensufisent
ensuite
ensule
ensure
ent
entannon
entanon
ente
entencion
entend
entendement
entendit
entends
entendu
enternaciona
enterpre
entie
entier
entire
entita
entities
entitula
ento
entora
entorn
entorna
entoura
entr
entra
entrar
entre
entrebetar
entrebete
entremont
entrepre
entreprenor
entretien
entretin
entroduccion
entroduita
entwicklung
env
enva
envasion
envasions
enve
envencion
enventa
envente
enventior
enveron
enveronance
enveronant
enveronence
envers
enversenc
enversenche
envetir
enveya
envie
environ
environment
environments
environnament
environs
envita
envoye
envoyer
enya
eo
eografia
eografica
eograficament
eografico
eograficos
eografo
eolocalisacion
eologia
eologo
eome
eomorfologia
eopolitica
ep
epalinjo
ephraim
epidemia
epiglota
episodes
eque
er
era
erasia
erdo
ere
eric
erich
erik
erika
erithacus
eritre
erlandais
ernakulam
erne
ernen
ernest
ernesto
ernst
ero
erocopa
eropa
erope
errard
erratique
erratiques
error
errors
ersten
es
escala
escalade
escandinavia
escania
esgrima
esoteric
espace
espaces
espagne
espagnol
espagnole
espan
espe
especially
esperanto
esport
esprima
esprit
esquele
esquisse
essai
essais
essartox
essayez
essayons
essays
essen
essential
esserts
est
estadio
estado
estaing
estanda
estandard
estat
estavalye
este
estel
estelle
esteve
esth
esther
estime
estonie
estra
estudis
estvarianta
et
eta
etalia
etalie
etalien
etat
etats
etc
ete
etg
ethavalye
ethiopian
ethnographie
ethnographique
ethnologie
ethnologue
etie
etienne
etieve
etimologia
etimologico
etiopie
etna
etnocrateka
etnografia
etude
etudes
etymologisches
eu
euclidie
euge
eugen
eugene
euler
euleridentity
eun
euna
eungn
eunna
eunte
euntre
eur
euro
eurocoin
europa
europe
europeada
european
eurovision
eut
euvradze
eux
eva
evaluate
evaluated
evaluation
evalwikimediaorg
evaristo
eve
even
evening
event
events
eventually
ever
everest
every
everybody
everyone
everything
evi
evo
evole
evolution
ex
exact
exactly
examen
example
examples
exarchate
exce
except
excepting
exception
exceptions
excited
excoffier
executed
executive
exekutiva
exemple
exemples
exist
existe
existence
existent
existing
expand
expanded
expanding
expansion
expansions
expe
expect
expected
expenses
experience
experienced
experiences
experimental
experiments
expertise
explaining
explains
explique
explorer
exploue
expo
exposicion
exposition
express
expressions
exprime
exte
extended
extension
extensions
extensively
external
externos
extre
eye
eynarde
ez
f
fa
fabio
fable
fabra
fabre
fabreca
fabrecacion
fabrecants
fabrica
fabrique
fac
facciolati
face
facebook
faces
facie
facilament
facile
facilement
facilitation
facilite
faciliter
facilitont
fact
facteur
facto
factor
factors
faculta
facultatif
faculte
fai
faieta
fairbanks
faire
fairy
fais
fait
faite
faitesdupatois
faits
fala
falabella
falanges
falavie
fall
falles
false
falsely
fam
famelye
famelyes
fameuille
fameuya
familiares
famille
family
famo
famos
famosa
famox
fan
fane
fanfoue
fanna
fanny
fano
fanoue
fant
fanto
fants
faq
far
faramans
faran
farcement
farcoz
fare
fareins
farena
farens
farina
farine
farinet
farinx
fario
farmacopa
farne
farou
farrah
farrokh
farrow
farsi
fascismo
fascista
fasent
fashion
fasianide
fasior
faso
fasse
fassent
fassus
faster
fastest
fat
fata
fatiga
fatio
fatse
fau
fauche
faucigny
faure
faut
fave
favie
favor
favora
favorisa
favorite
favrat
favre
fawcett
fayard
faye
fayeta
fayette
fazhin
fc
fdc
fe
feature
featured
features
feb
february
fed
federal
federation
federe
federica
federico
federiko
fee
feedback
feel
feels
fees
feillens
feira
felco
fele
felebe
felibe
felibre
felibrige
felibrijo
felice
felingi
felipe
felipines
felipo
felipon
felix
fellay
fellow
fellowship
felogne
fels
fely
felya
felye
felyensie
felyes
felyo
felyolar
felys
female
feme
femenin
feminism
femme
femmes
fen
fena
fend
fendre
fendu
fene
fenen
feni
fenia
fenicion
fenicions
fenio
fenir
fenis
fenitivament
fenolye
fenome
fenotte
fensa
fense
fer
fera
ferdinand
fere
ference
ferences
ferendon
feriant
ferin
ferma
ferme
fernand
fernandel
fernando
ferrand
ferre
ferrer
ferrero
ferret
ferro
ferroud
ferroviaire
ferrovie
ferry
ferveur
fesch
fese
fesica
fesicament
fesico
fesicos
fesiques
festival
festivals
festschrift
fet
feta
fetelya
fetra
feu
feuille
fevrie
few
feyenoord
feyes
ff
fff
fi
fia
fiar
fiat
ficcion
fice
ficelle
fiche
fichie
ficiye
fico
fictif
fide
fidj
fie
field
fier
fifa
figaro
figueras
figura
figuratorum
figure
figures
figuront
fil
filade
filate
file
fileexporter
fileimporter
files
filibe
fill
fille
filled
filleu
filleuler
fillon
film
filmo
filmografia
films
filoge
filologa
filologia
filologica
filologo
filosofia
filosofica
filosofico
filosofie
filosofo
filosofos
fils
filter
filtro
fily
filye
filyi
fin
fina
final
finala
finalament
finale
finalise
finalisto
finalization
finally
finance
financia
financie
find
findings
finges
fini
finicion
finicions
finir
finis
finish
finished
finit
finition
finitiva
finitivament
finlanda
finlande
finnish
finoue
fins
fio
fiorella
firant
fire
firent
firenze
firon
firont
first
fis
fisica
fisiologica
fit
fitzgerald
fiu
five
fix
fixa
fixe
fixed
fixes
fixing
fixo
flabellifer
flache
flag
flags
flamenc
flammarion
flandres
flashizhe
fle
fleurs
flexions
flirts
flla
fllachie
fllacho
fllanc
fllancs
flle
fllevia
fllevial
flleviala
fllevo
fllevos
fllo
fllon
fllor
fllora
fllore
fllorence
fllorent
fllorentin
fllorida
flloris
fllors
fllotent
fllotents
fllovarianta
flluidos
fllurie
floor
florence
florent
flores
florin
flow
flu
fluidite
flurnamen
flus
flux
fm
fo
foce
focus
focused
fode
foi
foire
fois
folders
folk
folklore
follate
follow
followed
following
follows
folye
fon
fonccion
fonccionament
fonccione
fonccions
foncie
fonction
fonctionnalite
fond
fonda
fondacion
fondament
fondamentala
fondamentales
fondamentals
fondat
fondateur
fondation
fondator
fondators
fondatrice
fondaye
fonde
fondements
fondont
fondou
fondrament
fonds
fondua
fone
fonetica
fonico
fono
fonologia
fonologica
fons
fonseca
fonso
font
fonta
fontaine
fontainebleau
fontan
fontana
fontanes
fontanet
fontanna
fontcuve
fonte
fonti
fontina
fonts
foot
football
footnotes
for
fora
force
forces
forcie
forclla
ford
fore
foresee
forestay
forez
forezhistoire
forget
forgie
forgons
form
forma
formacion
formacions
formal
formant
formar
format
formation
formations
formator
formats
formatted
formatting
formazza
forme
former
formes
formo
formont
forms
formula
formule
formulæ
forn
forna
forne
fornio
fornir
forrester
fort
forta
fortament
forte
fortemps
fortere
fortifia
fortificacions
fortification
forton
forts
forum
forvie
forward
fos
fossilisa
fossiors
fosson
fotbalo
foto
fotografa
fotografia
fotografies
fotografo
fotosinte
fotu
fotua
fou
fouaitcha
fouardze
foucault
foue
found
foundation
fountain
four
fournier
fournisse
fous
fouteba
fouæi
fox
foye
fp
fpl
fr
fra
frac
fracci
fraccion
fraccions
fractionnaire
fradre
frage
frageoloc
fragila
fragments
frameless
framework
fran
franc
franca
france
francesc
francesco
francesetti
francfo
francfort
franche
franchelens
franches
franchi
franchir
francia
francico
francigena
francilien
francis
francisco
franck
francke
franco
francofonia
francophone
francophones
francoprouvensal
francoprovenc
francoprovencal
francoprovensal
francoprovenzale
francorum
francoue
francs
franja
frank
franklin
frankoprovenzalischen
franpetan
franpitan
frans
franse
frantsa
franz
franzesch
franzo
frare
frasa
frasse
frasses
fratercula
frauenfeld
fre
frecciarossa
fred
freddie
frederick
free
freedom
freezes
freiburg
french
frenge
frequently
fresca
fret
frets
frey
freywiller
fribo
fribor
fribordze
friborg
friborge
fribourg
fribourgeois
fribourgeoise
fribourgeoises
fricativa
fricative
friday
fridelance
friederike
friedli
friedrich
friendly
frinse
frio
frioulan
fripa
fripe
frison
fritz
fro
froidefont
from
froma
fromadzo
fromegnio
front
frontalie
frontie
frossard
frp
fru
fruit
fruita
fruitie
fruits
fruta
frutie
frwiki
fs
fu
fue
fuen
fuera
fuit
fulbe
fulfill
full
fully
fulton
fulye
fumey
fun
function
functionality
functions
fund
fundamental
funding
fundraiser
fundraising
funds
funiculaire
funicule
fur
furka
furlane
furont
further
fus
fuseau
fusion
fusiona
fusione
fusions
fussballs
fuster
fut
futbol
futuna
futur
futura
future
futures
futuro
futuros
futurs
fuzzy
fy
g
ga
gabi
gabon
gabrie
gabriel
gabrielle
gacion
gadda
gaddafi
gade
gadget
gadgets
gadot
gae
gaera
gaetano
gaffori
gaffory
gag
gaga
gagarine
gage
gaidja
gal
gala
galament
gale
galement
galeria
galerie
galeriya
galibier
galice
galicia
galicien
galilei
galileo
galita
galite
gall
galleries
gallery
galli
gallia
gallica
gallimard
gallischen
gallo
galloromane
gallus
galo
galoue
galya
gama
gambie
game
games
gamsen
gana
gance
gandhi
gane
gangalar
ganime
ganter
ganterbach
ganterbrigga
ganz
ganzoni
gap
gapita
gara
garante
garbi
garc
garcia
gard
garda
garde
gardette
gardner
gare
garebie
gares
garibaldi
garland
garner
garnison
garnisons
garniture
garona
garriga
garry
gary
garzons
gascogne
gascon
gaspa
gaspard
gasparin
gaspoz
gaston
gate
gather
gatif
gativa
gauchat
gauche
gaule
gaulle
gauss
gauthier
gautier
gave
gay
gayda
gaze
gazette
gd
ge
geburtstag
gedenken
gedicht
geli
gelye
gemeinde
gemeinden
gemeindenamen
gen
gence
gencenie
genda
gende
gender
gendes
gene
genelye
general
generalitat
geneva
geneve
genevois
genevoise
genevoue
genevre
genf
gengo
genis
genix
genolier
genre
genro
genros
gens
gent
genta
gentes
gentile
gentilya
gentilyic
gents
genua
geo
geoarp
geoffray
geografia
geografica
geografico
geografiques
geologia
geome
geomorfologia
georg
george
georges
georgia
georgian
ger
gerais
gerald
gerard
gerardm
gerbore
gerda
gerhard
gerland
germain
germaine
german
germaniae
germanico
germano
germany
gero
gerrard
ges
gesammelte
geschichte
gesellschaft
gessene
gessner
gestion
get
gets
getting
gevand
gex
gey
gf
ggle
ghebreyesus
ghjuvan
gi
gia
giacometti
giacomo
giale
giambattista
gianadda
gianna
gianni
gibraltar
gica
gico
gide
gie
gien
giens
gier
gies
giez
gif
gifro
giger
gigno
gil
gilbe
gilbert
gilberte
gilles
gillie
gillioz
gima
gime
giment
gimnasia
gimo
gina
gine
ginette
gingolf
gingolph
gins
gioachino
gion
giona
gional
gionala
gionale
gionales
gionalisto
gionalistos
gionaux
gions
giorgio
giornata
giovanna
giovanni
gipta
girard
girardin
giro
giscard
gise
gisikon
gislacion
gistro
gistros
git
giuoco
giuseppe
give
given
giving
givo
gje
gl
gla
glacia
glacier
glaciers
gladiator
glandon
glaser
glauco
gle
glement
glenn
gles
gletsch
gletscher
gli
gliace
glise
glises
glisi
gll
glla
gllace
gllacie
gllaciologia
gllamentacion
gllandes
gllandon
gllaris
glle
glles
gllese
gllie
gllise
gllo
gllobalament
gllobo
gllosse
glloue
global
globale
globally
globe
glorieux
glossaire
glossaires
glosse
glota
gluck
gmenta
gmentacion
gmentar
gmente
gments
gmg
gmu
gn
gna
gnale
gnament
gne
gnement
gnent
gnes
gni
gnie
gnio
gniœ
gno
gnons
gnont
gnor
gnorerie
gnors
gnos
gnosco
go
goadeloupe
goal
goals
goatemala
gobat
gociacions
godal
godfather
godomar
goes
goethe
gogh
gognandises
goia
going
goire
golaz
golden
goldoni
gole
goles
gombe
gomie
gomorra
gon
gond
gonda
gondeba
gondoba
gone
gong
gont
gontran
good
gooding
goodman
google
gopi
gorbatchev
gore
gorges
gorgolyon
goria
gorie
gorien
gories
gorique
gorisa
gorisacion
gorki
gorman
gorrite
gory
gos
gosse
gossen
got
gota
gotica
gotico
gottfried
gotthold
gottlieb
goua
gouabe
gouaduit
gouaduits
goualo
gouarda
gouardar
gouardia
gouare
gouassie
goue
goueduit
goues
gouevarianta
gouges
gough
gouie
gouila
gourfo
gourma
gouvernance
gove
govena
governa
governement
governing
government
governor
goya
gpsr
gr
gra
grab
gradacion
grafi
grafia
grafica
grafico
grafie
grafies
grafiya
graham
gral
gramatica
grame
gramegna
grammaire
grammar
grammatica
grammatik
gran
granc
grand
granda
grandavarianta
grande
grandes
grandeur
grandjean
grands
grandson
granes
grange
granges
granie
granit
grant
granta
granted
grantes
grantfe
grantiors
grants
granulats
graphe
graphie
graphies
graphiques
graphs
grappe
grappein
grappin
gras
grass
grasse
grasset
grat
grata
grateful
gratianopolis
gratin
gratuita
graubu
grave
gravita
gray
grayoce
graz
graziadio
gre
great
greatly
grec
greco
greek
green
greenwich
greetings
gregory
grelye
gremaud
gremesuel
gremmo
grena
grenadenes
grene
grenie
grenna
grenoble
grenoblo
grenobloue
greson
gresons
gressa
gressan
gressona
gressone
greu
greub
greundzo
grevire
grey
greyerz
greyezo
grfc
gri
gria
grie
grieg
grimentz
grimmelshausen
grimmie
grimsel
grin
grinch
grincheux
grindze
grinjo
gripa
gris
grisa
grischun
grise
grisons
griva
gro
gropa
gropo
gros
gross
groth
grou
groue
group
groupe
groupes
groupo
groupos
groups
groussa
growth
gru
grue
grues
gruet
gruve
gruveren
gruverens
gruvie
gruye
gruyter
grønland
gt
gts
gu
gua
guadalajara
guangxi
guangxu
guarantee
guardian
gud
gue
guelyo
guelyon
guerra
guerre
guerres
gues
gueudde
gueux
guevarra
guex
guez
gui
guiabio
guicha
guiche
guichonnet
guida
guide
guidelines
guides
guido
guidos
guie
guignole
guila
guilbert
guilen
guillaume
guillermo
guilyo
guilyotie
guine
guisan
guita
guiyana
gulacion
gulie
gulo
gura
guracion
gurin
gus
gustav
gustave
guste
gusto
guterres
guy
guyana
guyane
guye
gv
gz
gzactament
gzactes
gzavie
gze
gzemple
gzemplo
gzemplos
gzence
gzige
gzion
gzista
gziste
gzistence
gzistont
gzodo
gzonimo
gzposicion
gzupe
gło
h
ha
haarlem
hab
habetentsvarianta
habillage
habillages
habita
habitant
habitants
habite
habitents
habituda
habitue
habsbo
hachette
hackathon
had
haddock
haden
hadow
hadrons
hadze
haemmerli
haendel
hage
hai
hak
hal
half
halicarnasso
hall
halle
haller
halley
hallyday
halta
hambo
hamburger
hameau
hamo
hamsun
han
hand
hande
handle
handling
hangout
hanks
hannibal
hannover
hanoi
hanovra
hanri
hans
haplo
happen
happened
happening
happens
happy
happyland
harassment
hard
harlem
harmonica
harpe
harpeitanya
harpitanya
harriet
harrieta
harris
harrison
harry
hartmann
harvard
has
hasa
hasard
hassauer
hat
hathloul
haut
haute
hautecombe
hautes
havayen
havayi
have
haven
having
haw
haydn
hayes
hayiti
haywood
hazel
haß
he
head
header
heading
headings
heads
health
healthy
hear
heard
hearing
heart
heat
heavy
hebdo
hebdomadaire
hebdomade
hebe
hebel
hebrew
hector
hediger
heer
hege
heidelberg
heiden
heidi
height
heilige
heim
heinrich
heinz
heinzmann
hel
held
helder
hele
helicopter
hello
helm
help
helped
helpful
helping
helps
helsinki
helvetas
helvetiae
helvetica
helveticae
helveticat
hemisphere
hen
hendaia
hendar
henri
henriet
henriets
henrik
henry
henrysuter
hension
hepatica
hepburn
her
herbace
herbarium
herbert
here
herge
heritage
herman
hermann
hermina
hermine
hero
herriot
herve
herzegovina
hesse
hessen
het
heure
heures
hevelius
hey
heyerdahl
hi
hidden
hiddencat
hide
hidro
hidroe
hidrografia
hidrologia
hidrologico
hie
hier
hierarchy
hifes
higgins
high
highbeam
highlight
highlighted
highlighting
highlights
highly
highsmith
higroforo
hilare
hildebrand
hile
hill
hills
him
himalaya
himno
hindi
hindo
hio
hip
hipe
hipote
hiratsuka
hiro
his
hispania
hisquin
histo
histoire
histoires
historia
historians
historica
historical
historically
historicament
historico
historicos
historie
historien
historiens
histories
historique
historiques
history
histoue
hit
hive
hivern
hiyawe
hl
hms
ho
hoa
hobbes
hodler
hof
hoffmann
hoi
holanda
holande
holartico
holbrook
hold
holder
holding
holland
hollande
hollywood
holstein
holy
homa
homana
homans
hombe
home
hommage
homme
hommes
hommo
homo
homoge
homonimia
homonimo
homos
honduras
hong
hongrie
hongries
hongroue
honneur
honolulu
honor
honora
honore
honors
hont
hooliganismo
hop
hope
hopefully
hopeta
hopkins
hoque
hora
horace
horaire
horaires
horatio
hore
hores
horizon
horizont
horizonte
horlogerie
horner
hors
horta
hortola
horvath
hoskins
hospic
hospice
hospita
hospitalie
host
hosted
hosting
hosts
hot
hota
hotel
hotzenko
houe
hour
hours
house
hovercards
how
however
hr
hringen
hrsg
hrung
hsb
ht
hta
htat
hte
htm
html
htre
http
https
hu
huang
hubacher
hubei
huber
hubert
hubs
hubschmied
hudri
hudry
hudson
hue
huesca
hugo
hugues
huguet
hui
huit
humaines
human
humana
humaniste
humanita
humanite
humanities
humbe
humbly
humboldt
hume
humen
humens
humida
humidita
humido
hummel
humoristica
humour
hun
hungarian
hunting
hura
hure
hy
hydrographie
hygrophorus
hymne
hyo
hyon
hz
i
ia
ian
iana
iata
iba
ibe
ibex
ibn
iboti
ibre
ibsen
ic
ica
icann
icao
ice
ici
ico
icon
icons
id
ida
ide
idea
idealab
ideas
idedens
identifeye
identifia
identificacion
identifie
identified
identifient
identifier
identifiers
identify
identita
identitaire
identite
ides
idia
idioce
idiotikon
ido
ie
ieg
ien
ieo
ier
ietf
ieu
if
ig
iglesia
ign
ignace
ignorance
iguije
ihre
ihta
ii
iie
iii
iiie
iiij
ij
ijc
ik
ikkje
il
ila
ildefons
ile
iles
ili
iliescu
ill
illa
ille
illi
illico
illinois
illiu
illusion
illustre
ilo
ils
ilustra
ilustros
im
ima
image
images
imagina
imagine
imate
imbe
imberti
imdb
ime
img
imico
imie
imier
imiques
immate
immense
immobilos
imnou
imo
imou
imp
impact
impe
imperium
implementation
implemented
implementing
import
importa
importance
importansa
important
importanta
importante
importantes
importants
importe
imported
importent
impossible
imprimerie
improve
improved
improvement
improvements
improving
impulse
in
ina
inactifs
inactive
inauguracion
incategory
include
includes
including
inclusion
inclusive
incorra
increase
increased
increases
incubator
indagacions
inde
independent
index
india
indian
indiana
indicate
indique
indiquer
indira
individual
individually
individuals
indo
indonesia
indre
ine
ines
infan
infants
influence
info
infoboks
infobox
infoboxes
inform
informa
informachon
informacion
information
informations
informe
informed
infos
infrastructura
infrastructure
infty
inge
ingenuity
ingos
ingrats
inhabitants
inicia
inicial
iniciala
iniciativa
initial
initially
initiative
initiatives
injos
inn
innocent
innocenzo
innsbruck
ino
inoccupe
inondacion
inoue
input
inque
inscription
inscrire
inse
insee
insert
inserted
inserter
inserting
inside
insider
inspector
inspire
insta
instala
instance
instead
institucio
institut
institute
institution
instituto
instruction
instructions
instruit
instrument
instruments
int
intangible
inte
integrated
intelectua
intellectuelle
intended
intention
inter
interact
intercite
intercompre
interdites
interest
interested
interface
interfaces
interlanguage
interlingue
internacional
internacionala
internal
international
internationale
internazionale
interne
internet
internets
internos
interpre
interre
interroger
interventions
intervocalique
interwiki
into
intra
intre
introduce
introduced
introduction
intuitive
inutilo
invalid
inve
inventaire
invente
inventeur
inventi
inventor
invernizio
investigates
investigations
invisible
invitation
invite
invited
inviter
invites
inviting
invitons
involved
involvement
io
ion
iona
ional
ionales
ionalismos
ionalisto
ionie
ions
ios
ip
ipa
ipe
ipecc
ipinformative
iprage
ipre
ips
ipte
ipv
ique
iqui
iquistan
ir
ira
iran
iraq
irc
ire
irigacion
irine
irlanda
irlande
iro
iron
ironde
irre
irrigation
irrigazione
irrigui
irun
is
isa
isaac
isabel
isabella
isabelle
isaia
isbn
isbns
ischen
ischgl
ise
isella
isera
iseron
isi
iskander
islam
islame
islamica
islamico
island
islanda
islande
islatif
islativa
ismo
isn
iso
isoglosses
isola
israe
israel
israye
issert
issime
issogne
issue
issues
issuye
ist
istanbul
istat
istitut
istoric
istos
istouare
istoue
istozhika
istozhiko
istrat
istrioto
istroroumen
it
ita
italia
italian
italiana
italiani
italianisation
italiano
italica
italico
italie
italien
italienisch
italienischen
italienne
italiens
italiye
italo
italy
ite
itecte
item
items
itine
its
itschu
itself
iu
iulia
iuris
iv
ivan
ive
ives
ivoue
ivre
ivrea
iweala
ix
ixe
izabela
izo
j
ja
jaberg
jaccod
jaccottet
jaccoud
jack
jackie
jackson
jacky
jacob
jacomb
jacopo
jacque
jacqueline
jacques
jacquet
jacquot
jada
jae
jaggi
jahrbuch
jahre
jahrhundert
jahrhunderts
jair
jakarta
jakob
jal
jalio
jalyon
jalyona
jamais
jame
james
jan
jane
janine
janis
januarius
january
janvie
janvier
japanese
japon
japonais
japone
jaque
jardi
jardin
jardins
jare
jargon
jarria
jarrie
jarriot
jas
jassane
jassens
jaune
java
javane
javascript
jay
jazz
jbo
jc
je
jean
jeanjaquet
jeanne
jefferson
jeffrey
jeg
jehanne
jel
jelie
jelien
jelin
jena
jennifer
jeremy
jerry
jerusalem
jesse
jesu
jet
jetant
jetar
jete
jetent
jethrobt
jeu
jeune
jeunes
jeuste
jeux
jewish
jhesu
ji
jia
jian
jiana
jigoro
jim
jimmy
jinping
jiua
jiues
jius
jo
joachim
joan
joanne
job
jobs
joconda
joe
joel
jofre
johan
johann
johanna
johannes
john
johnny
johns
johnson
johr
joie
join
joining
joje
jole
jolidon
joly
jon
jonas
jonathan
jonc
jones
jonon
jons
jont
joplin
jor
jorasses
jorat
jorcin
jordan
jorden
jorge
jorgia
jorn
jorna
jornal
jornalismo
jornalista
jornalisto
jorns
jors
jos
jose
josef
josep
joseph
jots
jouan
jouana
jouane
joue
jouen
jouena
jouene
joueno
jouenos
jouin
jour
journa
journal
journals
journaux
journe
journey
jours
jouta
jouventua
joux
jouye
jouyo
jouyor
jouyors
jouyoses
jovarianta
jovian
joyoeu
joze
jpg
jr
js
jst
jstor
ju
jua
juan
jud
juda
jude
judicie
judite
judith
judo
judy
jue
juen
juentures
juge
jugement
jugie
juif
juifs
juillet
juin
jul
jules
julia
julie
julien
juliette
julo
july
julye
june
jupite
jupiter
jura
juraments
jurassien
jurassienne
jurassiens
jure
juridiccion
juristo
jury
juscelino
jusqu
just
justament
justes
justice
justin
justo
justos
juventus
juxtaposition
juyors
jv
jyaryot
jyon
k
ka
kaamelott
kab
kaerou
kaha
kai
kaiser
kaiserin
kaja
kaka
kalbermatten
kallas
kamala
kambundji
kampala
kan
kanaan
kandinsky
kane
kangxi
kano
kant
kanton
kantons
kapita
kar
karabag
karine
karl
karlsruhe
karte
kategori
katharinenkloster
katherine
katie
katina
katy
kauffmann
kazacstan
ke
keaton
kebbi
keegan
keep
keeping
keiser
keller
kelly
kemal
kenia
kennedy
kenneth
kenzo
keolis
kept
kerala
kerboeuf
kerguelen
kerk
kevin
key
keyboard
kg
khan
khanaya
khanh
kharkiv
khatchatourian
ki
kibo
kie
kiel
kiev
killing
kilome
kilos
kilroy
kim
kin
kind
kinder
kindly
king
kinski
kiran
kirche
kirguizistan
kiribati
kit
kitsos
kk
kl
klaus
klimt
klub
klyman
klyo
km
kman
kmœr
kn
knecht
knotts
know
knowledge
known
knut
ko
koechlin
kofi
koine
kolonban
koman
komene
komouna
konarski
konba
konflan
kong
konrad
konstituo
konte
kontext
kopi
kor
korean
korsakov
kosovo
kou
koue
koupye
kouta
koute
koveyit
kra
krafft
kran
krc
kre
kri
kristian
kristol
krivon
krui
krutwig
ks
ksh
ksplike
kt
ku
kubilai
kubitschek
kuhn
kultur
kuonen
kurdi
kurdistan
kurdos
kurier
kurt
kurz
kv
kvar
kw
kwj
kyi
kyiv
kyrgyz
l
la
label
labeled
labellise
labels
labora
laboratior
laboratory
labs
lac
lace
lacertidae
lachenal
lacion
lacions
lack
lacour
lacroix
lad
ladin
ladina
ladinia
ladinischen
lado
ladona
lady
lae
laederich
laffitte
lafore
laga
lagger
lagie
lagopus
lagoua
lagrange
laguie
laham
lai
laida
laime
laire
laissant
laisse
laisser
lake
laleya
lama
lamartine
lamaz
lambe
lambert
lambiel
lame
lament
lames
lampion
lan
lana
lance
lancement
lancer
lanci
lancie
lancrens
lancy
land
landa
landau
lande
landes
landin
lands
landsma
lane
lang
langage
langagie
langes
langfr
langoua
language
languages
languard
langue
langues
lanie
lanka
lans
lansel
lant
lanzo
laon
laos
lapar
lapidum
lapraz
laquelle
laquene
laquinta
lar
lardschneider
large
larger
largest
largior
lariva
larmie
larmier
larousse
larron
larry
las
lascaux
lasse
lasso
last
lasts
lat
late
later
latest
latex
latin
latina
latines
latinolinguo
latins
latituda
latitude
latvian
launched
laupen
laura
laure
lauren
laurence
laurent
lausanne
lava
laval
lavarianta
lavaux
lave
lavela
lavenche
lavenchie
lavi
lavior
laviua
lavoue
law
lay
laye
layers
lazaro
lb
lbe
lbo
lc
lcero
lche
lcllusa
lcrox
ld
ldiont
ldior
ldo
ldote
ldoten
ldotena
ldotens
le
lea
lead
leadership
league
leander
leard
learn
learned
learning
least
leave
leben
lebrun
lec
lecce
leccion
lecinge
lecteur
lecteurs
lection
lectionnant
lectionne
lections
lectoral
lectorale
lectrices
lectronica
lectu
lecture
led
lee
leenards
lefranc
left
lega
legacy
legal
legendre
leger
leges
legie
legna
legnanesi
legne
legnes
legni
legnio
legnon
legnoue
lei
leimgruber
leipzig
lelouche
leman
lement
lemosin
lemps
len
lena
lenc
lence
lenches
lencs
lendeman
leng
lenga
lengoua
lengouadoc
lengouadocien
lengoues
lengouista
lengouiste
lengouistica
lengouistico
lengouisticos
lengouistiques
lengouisto
length
lengua
lengues
lenguistica
lenguisto
lenguoues
lenine
lens
lent
lente
lentsa
lenva
lenze
leo
leon
leonard
leone
leonhard
lequel
ler
lerina
lerins
les
leser
lesotho
lesquintes
less
lessing
lesvarianta
let
leta
letres
lets
letter
letteraria
letterarie
letteratura
lettonie
lettre
lettres
leu
leur
leurs
leva
levant
levantenc
levantenche
levantenches
levantencs
levar
levarianta
level
levent
lever
levi
levie
levitte
lewinsky
lewis
lex
lexicale
lexico
lexicografo
lexicographie
lexicon
lexikon
lexilogos
lexique
leya
leyen
leyon
leyone
leyonvarianta
lf
lfa
lfina
lfloor
lfo
lg
lge
lgica
lgra
lgrade
lgresenche
lguion
lgv
lhc
lherminieri
li
lia
liaison
lian
liape
liard
liban
libe
libia
libie
libien
libr
libra
librairie
library
libre
libri
librige
libro
libros
libus
lica
lice
licence
license
lich
licionor
lico
licopte
licula
liddes
lider
lidos
lie
liechtenstein
liem
liems
liemsvarianta
lien
liens
lies
liesu
lieu
lieux
life
liga
ligent
light
ligibilite
ligna
ligne
lignes
ligneux
lignevarianta
lignon
ligura
liguria
liguro
like
likely
lila
lili
liliane
lilienthal
lily
lim
lima
limar
limbo
limes
liminaires
liminar
limita
limitar
limitation
limitations
limite
limited
limites
limitont
limitrofes
limma
limmat
limoges
limojo
limosenc
limosin
limousin
lims
lin
lina
lincoln
lindgren
line
linga
lingua
linguarum
linguasphere
lingue
linguiste
linguistica
linguistico
linguisticos
linguistique
linguistiques
linguisto
linjos
link
linked
linking
links
linnaeus
linne
lins
lio
lion
lione
lionel
liorations
liorer
liorie
lios
liotard
lique
liques
liquido
liquidthreads
lir
lirant
lire
lirica
lis
lisa
lisabe
lisabeth
lisacion
lisbona
lise
lisez
lisi
lissabon
list
lista
liste
listed
listening
lister
listes
listo
lists
lit
lita
lite
literarische
literarischen
literatur
literatura
literature
literaturen
lites
lito
litora
litos
litte
litterar
litteratura
little
littre
lituania
lituanie
liturg
liturgia
liu
live
liver
liverpool
livi
livia
livo
livra
livre
livro
lix
liye
liyen
liyens
liyon
liyone
liyonvarianta
ll
llataye
lle
llegenda
llengua
ller
lles
lli
llibres
llie
llobregat
llosa
lloyd
llui
llull
lma
lmat
lmato
lmo
lmont
ln
lnave
lno
lnonte
lo
load
loaded
loading
lobuche
loc
loca
local
locala
localame
localament
locale
locales
localisa
localisacion
localisation
localisations
localisationupdate
localise
localised
localising
localita
localization
localize
locally
locals
locarno
located
location
locaux
loche
locke
loco
locomotiva
locomotive
locomotives
locotractors
locutors
lodi
lodia
lodico
lodie
lodrin
log
logements
logged
logica
login
logique
logo
logone
logos
logotipo
loi
loire
lois
loisirs
lola
lologismos
lomba
lombard
lombarda
lombardia
lombardie
lon
london
londre
londres
londro
long
longchamp
longe
longer
longere
longes
longior
longituda
longitude
longo
longoba
longobards
longre
longs
longueur
lons
lont
lonza
look
looking
looks
lop
lopes
lops
loquint
lor
lorba
lord
lordi
lore
lorent
lorenzo
lorre
lorrens
lors
lorsena
lorsin
lorsinna
lorsqu
lorussa
lorussia
lorussie
lorusso
los
lose
losena
lost
losvarianta
lot
lote
lothar
loti
lotta
lou
louable
louange
loue
loui
louis
louisa
louise
loujain
loune
lounes
loup
loups
lour
lourd
lous
louvain
louvre
louvro
louyes
louz
lovarianta
love
loves
lovey
lovinescu
low
lozana
loze
lozza
lp
lpe
lpelena
lpelenenche
lpes
lprononcie
lquita
lrome
ls
lse
lsg
lsoanin
lt
lta
lte
ltemps
ltica
ltico
ltiques
lto
ltornenche
ltos
lu
lua
luanda
lubomirska
luc
luca
lucanie
lucas
lucat
luci
lucia
lucid
lucide
lucido
lucie
lucien
lucienne
lucille
lucio
lucius
lucre
ludovic
ludwig
lue
luen
luens
lugdunum
lui
luigi
luis
luisa
luiz
lujo
luka
lula
lule
lules
lully
lumie
luminox
luna
lunae
lundi
lune
luo
lupus
lurcie
lure
lus
luse
lussembo
luta
lutant
lute
luther
lutin
lutse
lutte
luxembo
luxo
luy
luyet
luzern
luzerner
luzius
lv
lvarianta
lve
lvetica
lviv
lx
ly
lya
lyan
lydia
lye
lyes
lyeudo
lyi
lyndon
lyo
lyon
lyone
lyonnais
lyonnaise
lyonnaises
lyons
lyont
lyor
lyorar
lyore
lyors
lyoue
lyria
lyrik
lys
lyubo
lyœ
lz
lœr
m
ma
maastricht
mabillon
mable
mac
mace
macedonian
mach
machaby
machine
macia
macon
macron
madagasca
madama
madame
maddalena
made
madele
madeleine
madhusoodanan
madonna
madri
madrid
mae
mafalda
mag
magasin
magaziinou
magazine
magazines
magdaleina
magic
magie
magna
magne
magnin
magnituda
magre
magreb
magui
mahadhammaraza
maher
mai
maigres
mail
mailing
main
maine
mainly
maintain
maintenance
maintenant
mainteneur
maintenir
maintien
maire
mairie
mais
maison
maisons
maistre
maistriennes
maj
major
majora
majoracion
majorar
majorita
majoritarament
majorite
majors
majuscula
make
makes
making
mal
malabar
malabara
maladie
maladies
malancara
malankara
malavi
malayalam
malcolm
maldives
male
malgrat
malherbe
mali
malins
mall
malline
mallorca
malmo
malta
malya
malyence
mame
mament
mamife
mamis
man
manage
management
manager
manages
manama
manat
manca
manchester
mancipacion
manda
mandar
mandarin
mandat
mandela
mandoul
mandrin
mane
manet
maneyance
maneye
manfre
manga
mange
manger
mangeur
mangeurs
manhattan
manica
manico
manie
manife
manifestement
manila
mannheim
mannoia
manosca
manoue
manqua
manque
mans
mante
mantegnence
mantes
mantin
mantint
mantova
mantr
manual
manually
manue
manuel
manuellement
manuscrit
many
manzetti
mao
map
mapa
mapes
mapframe
maplandia
maps
maputo
maquignaz
mar
marc
marca
marcar
marce
marcel
marcelin
marceline
marcelo
march
marchand
marchandies
marchandises
marche
marchie
marci
marcia
marco
marcos
marcoux
marcoz
marcus
mare
marena
marenche
marenda
marendar
marenes
marens
margalye
margare
margaret
marge
margherita
margin
margot
margravena
margue
marguerita
marguerite
mari
maria
mariage
marianne
mariat
mariaux
marie
marieta
marilyn
marin
marina
marine
marins
mario
marioupol
maritima
maritimes
maritimo
marius
marjorie
mark
marked
market
marks
markus
marle
marley
marlon
marmettes
marmore
marmota
marmotes
marne
maro
maroc
maronita
maronito
marque
marquer
marques
marquis
marquisa
marquisat
marra
marrage
marrelye
mars
marse
marseille
marseilli
marselye
marshall
marsse
marsupia
marta
marte
martegne
martel
martene
marthe
marti
martial
martigny
martin
martina
martine
martinet
martini
martinica
martinique
martins
martinvarianta
martirs
martsi
martyrs
martyrum
maruyama
marx
mary
maryland
marzuolus
marzys
mas
masculin
mase
masi
masonry
masque
mass
massa
massachusetts
massacros
massalia
masse
massela
masseling
massi
massif
massifs
massimo
massis
massiva
massmessage
massmessages
masters
match
mate
material
materials
math
mathbb
mathematics
mathews
mathias
mathieu
mathilde
mathrm
matica
matico
maticos
matie
matin
matique
matiques
matisse
matt
mattarella
mattei
matter
mattha
matthew
matthieu
maturin
matzen
mau
maupassant
maura
maurice
maurienne
maurizio
mauroy
mauvoisin
max
maximala
maxime
maximilien
maximo
maximon
maximum
may
maya
maybe
mayen
mayenche
mayo
mayor
mayota
mazzolari
mbeki
mbio
mbro
mc
mcba
mcdc
mcdowell
mcgraw
mdennis
mdyeu
me
mean
meaney
meaningful
means
meantime
mecanica
mechalye
mechanisms
mechie
med
medalye
mede
media
mediate
mediawiki
medical
medieval
medievale
medium
medzi
meet
meeting
meetings
mege
megie
meglenoroumen
megna
megnon
mehmet
mehrsprachigkeit
meilleure
meilleures
meina
meison
meiz
meja
melbourne
melchior
meles
melkite
melye
mem
member
members
membra
membre
membres
membro
membros
meme
memo
memoria
memorial
memorie
memory
memoue
men
mena
menace
menacie
menar
mence
mencie
mencion
menciona
mende
mendelssohn
mennes
mens
mensue
mensuel
ment
mentaire
mentaires
mente
menthon
menton
mentone
mentor
ments
menu
menus
menuta
menutes
meon
mer
mercator
merce
merci
mercury
mere
merebe
merge
mergence
merian
meridionale
meridionals
merient
merior
meritont
merkel
merla
merlo
mermaz
mermet
mermillod
mersi
merula
mes
mese
mesera
mesere
meseres
mesqui
message
messager
messages
messajos
mestra
mestralenche
mesura
mesure
met
meta
metal
metawiki
mete
method
methods
metie
metre
metro
metropolitana
mets
mettras
mettre
metu
metua
meune
meunne
mexico
mexique
mexiquen
meyer
mezzenile
mg
mi
mia
miadzine
mica
mice
michae
michael
michel
michelangelo
michele
micheli
michelin
micheline
michelle
michigan
mickae
mico
micologia
microbiologia
microne
micura
mid
middle
midi
mie
mielx
mien
mies
mieux
might
migra
migracion
migracions
migrar
migrate
migration
miguel
mijor
mike
mikhai
mikhail
mikheil
mil
milan
milano
milciade
mile
milestones
milia
milice
milie
milions
militant
militants
military
milite
mille
miller
milleret
millet
milliers
million
milo
milos
milou
milton
milva
milya
milye
milyere
milyon
milyons
min
minas
mine
minence
mines
minh
mini
miniatura
minicipalita
minie
minima
minimize
minins
ministe
ministro
minor
minora
minores
minorita
minoritaires
minorite
minority
minsk
minutes
mio
mionne
mique
miquelon
mira
miramas
mirande
mirat
mirats
mire
mireille
miribel
miroir
mis
misa
mischabel
mise
mises
misfe
misini
miss
missing
mission
missiona
missione
missions
mississippi
missouri
miste
mistral
mistralenc
mistralienne
mit
mitica
mitico
mitologia
mitologico
mitologies
mitos
mittelalters
mitterrand
miu
mixte
mk
mkine
ml
mm
mn
mo
mobile
mobilo
mobilos
moc
mockups
mocracia
mocratica
mocrato
mocratos
moda
modane
mode
model
modelo
models
modera
modern
moderna
moderne
modernes
modes
modifia
modifiar
modificacion
modificacions
modifications
modifie
modifier
modifiont
modifying
modo
modon
modos
module
modulo
modulus
moeda
mogna
mognenens
mografia
mografico
mohamed
moi
moignans
moine
moins
moira
moire
moires
moiry
mois
moistre
moiti
moitie
mola
molar
molars
moldava
moldavie
moldova
mole
moleng
molette
moli
molia
molie
molin
molina
molins
moll
mologia
moluscos
molye
molyes
molæis
moment
mon
monaco
monarch
monaste
monastica
monatsblatt
monce
mond
monday
monde
mondia
mondial
mondiala
mondialament
mondiale
mondjoet
mondo
mondre
mone
mongoles
mongolian
mongolie
monia
monica
monie
monies
monika
monitor
monitoring
monobook
monod
monographie
monopoly
monroe
mons
monse
monsieur
monsior
monstracion
monstratif
mont
monta
montagna
montagne
montagnes
montagneux
montagno
montagny
montais
montalio
montana
montanna
montar
montarchie
montbe
montbelya
montbenoi
montbovon
montbre
montbrison
montce
monte
montelie
montenegro
montennoblo
montent
montesquieu
montessori
montet
montevideo
montey
montfa
montfe
montgelafre
montgene
montgero
montgolfier
montgorfie
montgouarnie
month
monthey
monthly
months
montjove
montjovet
montluc
montlue
montme
montmin
monto
montolieu
montpaca
montpellier
montpelye
montpelyie
montpensier
montra
montrar
montre
montrechie
montreya
montricher
montriond
montrolx
monts
montsape
montserrat
montsoreau
montt
montve
monuma
monuman
monument
monumenta
monumental
monumento
monuments
moon
moore
mor
mora
moracion
morale
morales
morand
morat
morativa
morceaux
morclles
morda
mordavia
more
moreau
morerod
moret
morez
morf
morfologia
morgan
morge
morges
mori
moria
morial
morir
morlon
mornant
morne
morning
moro
moroder
moronobu
morricone
morrison
morse
mort
morta
mortalita
morte
morton
morts
morzena
morzine
mos
moscou
mose
moskovitz
mossieu
most
mostly
mot
mota
moteur
mothie
motie
motier
moto
motogp
motor
motorisa
motors
motrices
mots
mottu
motu
mou
mouarte
mouche
moue
mouens
mouin
mouler
moulin
moulins
mounier
mountain
mountet
moura
mourete
moutanye
moutanyes
mouton
mouvament
mouvaments
mouvement
mouvemente
mouvements
movament
move
moved
movement
movimento
moving
moye
moyen
moyena
moyenna
moyenne
moyens
moz
mozambique
mozart
mp
mpl
mpossoupe
mr
mrs
mruta
ms
msg
mt
mu
mubra
much
mucient
mue
muendra
muens
muet
muffat
muhammad
mujinga
mulation
mulhouse
multi
multichill
multilingual
multilingue
multime
multimedia
multimoda
multiple
multiplicacion
multipliont
multiplo
mumbai
munatius
mund
mundart
mundarten
munich
municipa
municipale
municipalidad
municipalita
municipio
munster
munt
mur
mura
muralis
muralye
muralyes
murasse
muray
murcie
mure
mures
muret
muri
murith
murithienne
murphy
murs
murten
musazzi
musclos
muse
museo
musette
museum
musi
music
musica
musicals
musicians
musicie
musicien
musiciens
musik
musique
musiques
must
mustafa
mustang
musulman
musumeci
musumusu
muta
mutue
muze
mw
mwe
my
mycologue
mykolai
mylanguage
myste
mystique
mystiques
mythology
mythos
myung
myv
mze
mzn
n
na
nach
nachonala
nacion
naciona
nacional
nacionala
nacionalisacion
nacionalisto
nacionalistos
nacionalita
nacione
nacions
nadaud
nadia
nadiont
nae
naera
nage
nagement
nagie
nague
nah
nair
naissance
najoue
nakamikado
nakamura
nam
name
named
nament
naments
names
namespace
namespaces
namibie
naming
nan
nana
nance
nancy
nane
nang
nannini
nansoz
nant
nantes
nantuat
naouru
nap
naple
napole
napoleonsbru
napoliten
nar
narbona
narbone
narci
nard
naruhito
nas
nasa
nasale
nasales
nasalisation
nasalise
nastassja
nat
nata
natalia
nater
natezhe
nathalia
nathalie
nation
national
nationale
nationalisme
nations
native
nativita
nator
natur
natura
naturae
natural
naturalis
naturalisto
nature
naturel
naturelle
naturelles
naut
nava
naval
navale
navalny
navarra
nave
navegacion
navela
navigacion
navigate
navigation
navigator
navisence
nay
naye
nayif
nayiva
naz
nazare
nc
nce
ncenie
nche
nchen
ncia
ncie
nco
nd
nda
nde
nden
nder
ndner
ndnerromanische
ndnerromanischen
ndre
nds
ne
near
nearly
nebraska
necessarily
necessary
neci
need
needed
needs
neelamperoor
nef
nefs
negre
negri
neiges
nel
nell
nella
nelson
nement
nements
nemo
nemours
nen
nence
nenda
nendaz
nenet
nens
nent
neptuno
ner
nergie
nerlande
nert
neruda
nes
nesie
nessu
nestle
net
neta
netra
netralita
netrebko
netro
nettoyage
network
neu
neucha
neue
neuenburg
neueren
neuf
neufville
neumann
neut
neutral
neutre
nevada
nevers
new
newcomers
newer
newly
newman
news
newsletter
newsletters
newspaper
newspaperarchive
newspapers
newton
next
nez
nezie
nf
ng
nge
ngi
ngin
ngoua
ngoues
ngozi
nh
nha
nhat
ni
nia
nic
nica
nicaragoa
niccolo
nice
nichon
nico
nicola
nicolas
nicolaus
nicole
nicosia
nidevalde
nidvalde
nie
niedermann
niel
niemeyer
nien
niens
nies
nieuwe
nieve
nig
nigen
niggeler
night
nightingale
nigin
niki
nikita
niklaus
nikola
nikolaus
nil
nimes
nin
nine
nines
nino
nins
ninsula
nintendo
nio
niola
niom
nioms
niomsvarianta
nion
nior
niou
niro
nis
nisa
nissieux
nissille
nistan
nitien
nitif
niton
nive
nivela
nivio
nivo
nivole
nixon
nizier
nkova
nl
nlande
nm
nn
nna
nnavarianta
nneci
nnes
nno
no
noailles
nobe
nobel
nobelbot
nobilis
noces
nochatel
nocido
nocion
nocions
noe
noeditsection
noemi
nof
noir
noire
nom
noma
nomar
nombre
nombreuses
nombro
nombros
nombroses
nombrox
nomcomena
nome
nomenclatera
nomenclatura
nominacion
nominacions
nominate
nominated
nomination
nominations
nomme
noms
non
nonce
noncie
none
nont
noon
nor
norbert
nord
norden
nordico
nordicos
nore
norfuk
norma
normal
normala
normalament
normalement
normalisacion
normalisation
normally
normand
normandes
normandia
normandie
normaunde
normaundie
normes
norne
norroue
north
northern
norve
norway
nos
noster
nostradamus
nostro
not
nota
notament
notamment
notar
note
notent
notes
notez
notice
notification
notifications
notified
notify
notker
notoc
notorie
notre
nou
noue
nouhtron
nous
noute
nouthra
noutra
noutre
noutres
noutron
noutros
nouveau
nouveaux
nouvel
nouvelle
nouvelles
nouvelliste
nouvia
nov
nova
novalis
novara
novarianta
nove
novel
novels
november
novembre
novembro
noviewer
novio
novo
now
noye
noyo
noz
np
nr
nrm
nro
ns
nse
nster
nstruccion
nsula
nt
nta
nte
nter
ntis
ntm
ntre
nts
ntse
nu
nucle
nuda
nudismo
nudistes
nue
nuet
nueva
nuit
nul
nula
nulle
nuls
numa
number
numbered
numbers
nume
numerica
numerico
numero
numerotacion
nuod
nuria
nurre
nurretera
nursultan
nus
nv
nva
ny
nye
nynorsk
nyo
nyon
nzst
nœcha
o
oantropologia
oar
obama
ober
oberland
obert
oberwald
obevalde
obje
objectif
objectifs
objections
objective
objets
oblast
oblegatoue
obres
obse
observations
observatory
obsole
obsta
obtegnir
obtenir
obtent
obtenu
obtint
obvalde
oc
ocaasi
ocasion
occasion
occident
occidenta
occidental
occidentala
occita
occitan
occitana
occitane
occitanes
occitania
occitanisa
occitanismo
occitano
occitans
occupations
occupe
oce
ocellum
ocristianismo
octa
october
octobre
octobro
octodurus
ocupa
ocupacion
ocupe
ocupont
ocurrence
oda
ode
oder
odia
odo
odon
odore
odoro
odule
oe
oeuvre
of
ofaire
ofe
off
offenbach
offer
offered
offerts
office
official
officiel
offline
offres
ofic
oficia
oficial
oficie
oficio
ofilo
ofre
often
og
oganda
ogg
oggi
ogo
ografia
ografico
ografiya
ographie
ographique
ographiya
ohanesbo
ohio
ohrid
ohta
oi
oil
oingt
ois
oise
oiseaux
oit
oklahoma
okonjo
okyo
ol
olaf
olaire
olcas
old
olde
older
oldman
ole
olga
olimpia
olimpico
olimpicos
olitico
oliu
olivee
oliver
olivier
ollon
olo
oloc
olocalisation
ologia
ologica
ologico
ologicos
ologie
ologien
ologies
ologique
ologiques
ologo
ologos
olomon
oloron
ols
olsommer
oly
olympique
om
oman
omar
ombra
ombres
ombria
ombuds
ombudsperson
omc
ome
omnes
omo
omre
oms
on
ona
onard
once
oncor
oncora
oncou
oncouzhe
ondaine
ondula
one
onerie
ones
onex
onglle
onglles
ongoing
online
only
onn
onna
onora
ons
ont
onte
ontologia
ontrevalde
ontvarianta
onu
onze
onzie
oojs
ooui
op
opciona
ope
open
opened
opening
opera
operation
operations
operator
opinion
opinions
opo
opold
oposa
oposants
oposar
opose
oposicion
opportunities
opportunity
oppose
opposition
oprah
opt
optico
option
optional
options
or
ora
oral
orales
orange
oravarianta
orb
orba
orbita
orbiter
orche
ord
ordania
ordanie
ordenator
order
ordinateur
ordine
ordoney
ordons
ordre
ore
orelli
orelyac
orendre
ores
org
orga
organiques
organisa
organisacion
organisacions
organisar
organisation
organise
organiser
organismes
organismo
organismos
organization
organize
organized
organizing
organo
organos
orhan
oria
oriant
oriata
oricament
orico
orie
orient
orienta
oriental
orientales
orientation
oriente
ories
orige
origin
origina
original
originalita
origine
origines
origini
oringe
oriques
orita
orle
ormont
orna
orne
ornitologico
oro
orografica
orologia
orologica
oron
orque
orra
ors
orse
orsie
ort
orthodox
orthodoxe
orthodoxie
orthodoxwiki
orthographe
orthographes
ortodoxa
ortodoxe
ortodoxes
ortodoxo
ortografa
ortografia
ortsnamen
orwell
os
osa
oscar
osco
oslo
osman
osse
ost
ostervald
ostralie
oswald
ota
otab
otan
ote
oteu
other
others
otherwise
othmar
othon
otl
otoman
otomans
oton
otres
otriche
otrs
ottawa
otto
ottoman
ottomana
ou
ouagadougou
ouahigouya
oubl
oubli
oublia
oubliant
oubliar
oubliez
oucha
ouches
ouchi
ouchy
oudjons
oue
ouest
oueu
oui
ouigo
oulx
our
oura
ourane
ouri
ours
ousta
out
outa
outdated
outil
outils
outre
outreach
outside
ouvert
ouverte
ouverture
ouvrage
ouvrie
ova
ove
over
overgne
overlay
override
overview
ovra
ovri
ovrie
owl
own
owned
oxford
oxige
oyen
oyena
ozanam
ozbe
p
pa
pablo
paca
pacefico
pacha
pache
pacient
pacifica
pacifico
pacifismo
pacino
paco
pacot
padania
padanie
padze
pae
paetya
pafnouti
paganini
page
pages
pageviews
pagi
pagina
pahi
pai
paid
paik
pain
paisse
paisser
paissirant
paix
pal
palace
palacio
palais
palaos
palatal
palau
pale
paler
palerme
palermo
palma
palmare
palmyra
palud
pam
pamuk
pan
panama
panca
pand
pande
pane
panecie
panel
panenka
panigada
pannatier
panneau
panneaux
panorama
panoramica
panoramicos
panoramio
pants
paolo
pap
papa
papaga
papaya
pape
papes
papie
papoasie
paquistan
par
para
paracion
paradi
paradis
paradiso
paragoayi
paragraphs
parale
paralimpicos
paralle
param
parame
parameter
parameters
paramore
params
parar
parateur
paratiste
paratistes
parator
parc
parce
parch
parcie
parco
parcors
parcs
pare
pareil
parent
parenta
parente
parents
parer
paret
parfaitement
parfe
parfois
pargna
pari
parie
parigi
paris
parisie
park
parker
parking
parla
parlament
parlaments
parlar
parlars
parle
parlement
parlemente
parlements
parler
parlers
parlo
parlons
parlont
parma
parmelin
parmi
parmichon
paro
paroche
paroches
parochia
parodie
paroisse
paroisses
parola
parole
paroles
parooutcha
paroue
parque
parrain
parren
parscal
parser
parserfunctions
parses
part
parta
partage
partager
partagie
partajont
partaman
partame
partament
partamenta
partaments
partamouent
partamouentvarianta
parte
parteme
partement
partements
partementvarianta
parten
partenariat
partenariats
partene
parti
partia
partial
partias
partichiou
particion
particions
participa
participacion
participant
participants
participar
participate
participated
participating
participation
participe
participer
participez
particular
particularita
particularite
particularly
particules
particulie
particulier
partie
parties
partir
partis
partisan
partisans
partit
partner
partners
partnerships
parts
party
partya
parvis
pas
pasadjo
pascal
pascale
pass
passa
passage
passagie
passant
passar
passau
passe
passent
passere
passerelle
passerin
passio
passion
passiona
password
passwords
passy
past
paste
pasteur
pastor
pastorala
pata
patafisik
patagonia
patar
patchis
pate
pater
pathways
patio
patoche
patoe
patois
patoisans
patoisant
patoisants
patoise
patoises
patoisvda
patologies
patont
patoua
patoue
patouesans
patouesants
patr
patria
patriarcat
patriarch
patrice
patricia
patrick
patrimoine
patrimoineethistoiredechazellessurlyon
patrimonial
patrimoue
patro
patrocle
patrom
patron
patronimos
patrons
patue
pau
paul
paulette
pauline
paulo
paumier
pave
pavia
pavo
pavon
pawn
paye
payens
payi
payis
payisa
payisans
payot
pays
paysage
paysages
paysan
paz
pc
pcd
pce
pcion
pcions
pdc
pdf
pdt
pe
pearl
peau
peca
pecardia
pecardie
pecllar
pedon
pedro
peel
peer
peers
peider
peine
peint
peintre
peintures
pel
pela
pele
pelle
pellice
pellissier
pelosi
pen
pena
pencil
pend
pendance
pendant
pendanta
pendence
pendent
pendenta
pendentes
pendents
pendont
penes
penguelyons
peni
pensa
pensar
pense
pensez
penso
pensont
penta
pententa
pentes
people
peplinjo
peppard
pequegnot
per
perce
percentage
perd
perdere
perform
performance
perhaps
period
perioda
periodico
perme
permet
permetont
permettant
permettent
permettre
permi
permie
permission
permissions
permonade
pernelle
perosa
perpignan
perrache
perret
perrin
perron
perry
persa
perse
persepolis
persian
person
persona
personal
personalita
persones
personnage
personnaliser
personnalite
personne
personnel
personnes
perspectives
perth
pertinents
pertot
peruzzi
pesant
pesar
pescia
pese
peso
pesse
peta
petalie
petar
petchou
peter
petersbo
petie
petio
petit
petita
petite
petites
petitpierre
petits
petru
petsou
peu
peuple
peuples
peut
peuvent
pffer
phabricator
phalle
phane
phanie
phanois
phase
phases
phe
phil
philadelphia
philbin
philipp
philippe
philologie
philosophiae
philosophie
phine
phone
phore
photo
photographic
photographie
photography
photos
php
phrase
phu
phyllis
phyteuma
pi
pia
piano
piatse
pic
pica
picard
picasso
piccard
pico
pictografo
picture
picurie
picurismo
picuro
pide
pie
piece
pied
pieds
piemont
piemonte
piemontese
pierre
pierrehumbert
pierres
pierro
pierrovarianta
pieter
pietro
pieu
pignerol
pignochie
pih
pikachu
pila
pilaris
pilat
pilet
pillat
pilot
pilote
pilotes
piloto
pin
pinaceae
pine
ping
pinging
pinta
pintra
pintro
pintscher
pintur
pintura
pintures
pio
piole
piolle
pionie
pionnie
pionnier
pir
pire
pis
pisa
piscicultura
piscopa
piscopat
pissarro
pisse
pista
piste
pistes
pistole
pite
pitio
pitkern
pitt
pittet
piu
pixe
piz
pk
pl
pla
plac
placa
place
placed
placement
places
placette
placi
placie
plage
plages
plain
plaisir
plan
plana
planches
planck
plancus
plane
planes
planeta
planificacion
planitia
planna
planned
planning
planoise
plans
planta
plantacion
plante
plantes
plantilla
plantilya
plants
plaque
plasa
plase
plat
plata
plataforma
plate
plateforme
plates
platform
platforms
platine
platio
plats
platyo
play
playrra
plays
plaza
ple
please
pleased
plein
pleine
pleisi
plen
plepa
ples
pleto
pletout
pleye
plinio
plla
pllan
pllana
pllanna
pllanta
pllena
plles
pllesiors
pllusiors
plm
plmhttps
plo
ploma
plomes
plongie
plongient
plura
pluriel
plurilinguismo
plus
plusieurs
plusio
plusiors
pluton
plœ
pmids
pms
png
pno
po
poca
poche
pod
podarcis
poe
poesia
poesias
poetessa
poeto
poht
poi
point
points
poirier
poisson
poitou
poke
pol
pola
poland
polandball
pole
polenta
poleteins
polhane
poli
police
policie
policy
polier
poligona
poline
polish
polite
politica
political
politicament
politicien
politiciens
politico
politicos
politics
politicyen
politique
politiques
poll
polo
pologne
polonais
polone
polos
polski
polvarianta
polye
polyements
pomie
pompe
pompeu
pompidou
pomuce
pon
ponant
ponantenc
ponantenche
ponce
poncins
pond
ponde
pondit
pondre
ponent
ponimo
pons
ponsa
ponse
ponses
pont
pontarlie
pontarlier
pontboset
ponte
pontifica
pontificia
pontresina
ponts
pop
pope
popla
poplament
poplo
poplos
popolacho
popolo
poppins
populacion
populacions
populaire
populaires
popular
population
popule
popups
poque
poques
por
porce
porcelana
porche
pore
pormonia
porque
porrat
porre
porrentru
porsel
porsuit
port
porta
portacion
portail
portal
portant
portbou
porte
porteir
portent
portes
portie
porto
porton
portont
portrait
portre
portue
portugais
portugal
portugue
portuguese
porvua
porvus
posa
posant
posar
pose
poser
posicion
posicions
positif
position
positions
positiva
positive
poss
posse
possibilita
possibilite
possibla
possiblament
possible
possibles
possibllos
possiblo
possu
post
posta
poste
posted
posting
posto
postponed
posts
pot
pote
potencie
potential
potentially
potere
potes
potete
potie
potter
pottier
pottuz
pou
poue
pouede
poueng
pouent
pouenta
pouente
pouents
pouere
poueson
pouesse
pouessience
pouessiences
pouessient
pouessienta
pouessients
pouessont
pouetafontana
pouilleux
pouinna
poulaye
poule
poulets
poulye
poulyes
pour
pourchet
pouro
pourquoi
pourra
pourrai
pourrait
pourta
poussa
pousse
poussont
pouta
poutchant
poutchirant
poutine
poutou
pouvait
pouvez
pouvoir
pouvoirs
pouvon
pouvons
pouvro
pouye
pove
povens
povie
povont
power
powerful
poya
poye
poyenta
pp
ppelberg
ppr
pr
pra
prabhala
practice
practices
praetoria
prague
pramotton
prat
prateka
pratica
praticament
pratique
pratiques
pray
prayer
praz
pre
precision
predefinic
predloga
predloz
pree
prefer
preference
preferences
preferred
prefsection
pregni
pregnont
pregnotes
pregny
preload
preme
premi
premie
premier
premiera
premiers
premii
premio
prena
prencipa
prend
prendre
prends
prennent
prepare
prepared
pres
prese
presence
present
presenta
presentacion
presentant
presentar
presentation
presentations
presente
presentes
presents
president
presinjo
presley
press
presse
presses
pressie
pression
prestacions
prestre
pretoria
preuve
prevent
prevessins
preview
previews
previous
previously
preye
pri
prie
priest
prieure
prigent
prim
prima
primarily
primary
primat
primats
prime
primitif
primitiva
primo
princ
prince
princessa
princesse
principa
principal
principale
principalement
principales
principaux
principe
principes
principia
principo
principos
print
printemps
priode
priods
prior
priora
priorities
prioritize
pris
prise
prises
prit
priva
privacy
privat
private
prive
privile
privileged
prix
prizes
pro
proa
proba
probablament
probably
proble
problem
problems
proce
process
processes
processus
prochaine
prochaines
proche
proclama
proclamacion
procllama
procllamacion
prod
produccion
produce
producho
product
production
productive
productor
produit
produits
prof
profe
professeur
professional
professione
professor
profil
profilo
profit
profita
profiterant
profiteront
program
programeria
programme
programming
programo
programos
programs
progre
progress
proje
project
projects
projet
projets
prolonge
prolongement
prolongie
prolongient
promie
promo
promocion
promotion
promove
prompted
promulga
promulgacion
pron
pronnonce
pronom
prononc
prononce
prononcer
prononciacion
prononciacions
prononciation
prononciations
prononcie
prons
proof
propagacion
property
prophe
propo
proportion
propos
proposa
proposal
proposals
proposar
propose
proposed
proposer
proposicion
proposicions
proposition
propositions
propra
propre
propres
proprie
pros
prosa
proscripcions
prose
prospe
prosper
protagoniste
protat
protcho
prote
proteccion
protected
protection
protistos
proto
protocol
protocole
protohistoue
prototype
prototypes
prou
proumiers
prouve
prouvenc
prova
prove
provenc
provence
proverbes
provide
provided
provides
providing
province
provinces
provincia
provint
provisoue
provocacion
provond
provonda
provondior
provoque
proximita
pru
prunes
prunus
prussa
prusse
prussia
prussie
prussiens
przemys
prætoria
ps
psicologia
psicologo
pst
pt
pta
pte
ptembro
ptie
ptilos
ptista
ptisto
ptita
pto
pts
pu
pube
puble
publecacion
publecacions
publeye
publia
public
publica
publicacion
publicacions
publication
publications
publico
publicos
publie
publiou
publique
publiquen
publiques
publish
published
publisher
publishers
publishes
publishing
puc
pue
puerto
puget
pugin
puis
puissent
pult
pulyi
pump
pumpe
pumps
pur
pura
purcell
pure
purement
purgate
purge
purificacion
purja
purpose
purposes
puse
pusegne
put
puta
putacion
pute
putin
puzzle
px
pye
pyrame
pyre
python
pywikibot
pywikipedia
pywikipediabot
pæi
pœr
q
qatar
qeumen
qeumeun
qu
qua
quad
quader
quaglia
qualifia
qualifiar
qualificacion
qualifie
qualita
qualite
quality
quand
quang
quant
quanta
quantica
quantita
quaranta
quarante
quartararo
quartenoud
quarter
quartie
quarto
quasi
quator
quatoria
quatre
quatrie
quatro
quatros
que
quebe
queen
queenship
queer
quei
quel
quela
quelle
quelos
queloz
quelqu
quelque
quelques
queme
quement
quemeun
quemeunna
quemeunne
quemper
quence
quences
quene
quent
quenta
quentacion
quente
quentes
quentin
quenton
quentons
quents
querir
ques
quest
questia
question
questions
queumeunna
quevarianta
qui
quick
quickly
quiddity
quie
quier
quignot
quilibro
quin
quinche
quincy
quino
quint
quinta
quintes
quinze
quipa
quipe
quipes
quiquerez
quirino
quistan
quitar
quite
quivalent
quo
quoi
quota
quotation
quotidie
quotidien
quotidienne
r
ra
rabe
rable
raboud
rabouda
raccions
race
racena
racenes
races
rachat
rached
racheta
rachetar
rachid
racine
racines
racing
racion
racions
racistes
raconta
racontar
raconte
racorcie
racordament
radar
radcliffe
rade
radegonde
radica
radio
radiotelevisiun
raduno
raetica
rafae
rafael
raffaele
rafilye
rafond
rage
ragie
rai
raicho
rail
rainbow
raire
raires
rais
raise
raised
raison
raisonne
raisons
ral
rala
ralament
raldica
rale
ralement
ralisa
ralise
ralismo
ralonge
ralph
rals
rama
rambe
rambert
rambertia
rame
rament
rames
ramica
ramifia
ramon
ramoneur
ramonors
ramos
rampa
rampes
rampling
ramuz
ran
rance
rancie
randa
rande
rander
rando
randstad
rang
range
ranh
rans
rant
ranunculaceae
ranunculoides
ranz
ranzha
rap
rape
rapela
raphae
rapida
rapidament
rapido
rapidos
rapo
rapond
raponde
rapondent
rapondont
rapondre
rapondu
rapondua
rapondues
rapondus
rapport
rapports
rapre
rar
rard
rares
rarogne
ras
raspieler
raspille
rassembla
rassemblament
rassemblar
rassemble
rassemblont
rast
rat
rata
ratachie
ratel
rates
rateura
rathaus
rather
ratification
ration
rations
rativa
rats
ratura
rature
ratures
raud
ravel
ravenna
ray
raye
raymond
rayonament
rba
rban
rbayidj
rbde
rbe
rbena
rbes
rbia
rbie
rbo
rbos
rbro
rc
rca
rce
rcelyin
rcement
rcene
rces
rche
rcher
rches
rchestre
rcheve
rchevele
rchie
rchior
rchiors
rchtegott
rcia
rcie
rcing
rcio
rciu
rclla
rcllo
rco
rcomunalita
rcon
rconque
rcont
rcontinenta
rculanon
rcure
rcuro
rd
rda
rdame
rde
rdelye
rdes
rdia
rdinand
rdiont
rdiscipline
rdites
rdo
rdon
rdont
rdos
rdre
rdres
rdro
rds
rdun
rdvarianta
rdze
re
reach
read
readability
readers
reading
ready
reagan
real
reale
reali
really
realp
reason
reasons
reba
rebalye
rebapteye
rebata
rebe
rebelo
reblochon
rebloshon
rebrossament
rebrosse
rec
recafa
recamie
rece
receive
received
receives
recense
recensement
recent
recentchanges
recently
recerca
recet
receve
recevoir
recevront
reche
recherche
rechercher
recherches
recho
reciu
recllam
reco
recogne
recognessence
recognessont
recognessu
recognessua
recognetre
recognize
recognu
recognua
recognues
recognus
recomanda
recomenc
recommend
recommendations
recommended
reconstruccion
reconstruit
record
recorded
records
recruiting
recrutament
rectangles
recue
recueil
recueillir
recueillis
recula
reculle
red
reda
redactor
redd
rede
redesigned
redirect
redirects
redjoint
reduce
reduced
redzieliant
ree
refe
reference
references
referencing
referendum
refresh
refreshed
refujo
refusar
refuse
refuser
rega
regard
regarda
regarde
regarding
regards
reggae
regi
regia
regicllant
regina
regio
region
regional
regione
regions
regis
register
registered
registration
registres
regna
regnie
regnio
rego
regonfllo
regoua
regroupa
regroupe
regular
reh
rehte
rei
reich
reichel
reichenbach
reichlen
reimer
reims
reine
reines
reins
rejoignez
rejoindre
rejouendre
rejuend
rejuendont
rejuent
relacion
relacions
relate
related
relatif
relations
relativament
relative
relatively
relatives
relativita
rele
release
released
releases
relevant
reliable
reliably
relie
relig
religieuse
religion
religions
religiosa
religioscope
religioses
religiox
reliye
relogeria
relogie
rema
remain
remaining
remains
remaisse
reman
remane
remaneye
remanvarianta
remarca
remarquables
remarque
remarques
remassie
rembe
rembrandt
reme
remelyi
remember
remence
rement
remercions
reminder
remix
remo
remon
remont
remonta
remonte
remontont
remotorisa
removal
remove
removed
removing
remplac
remplaca
remplace
remplacement
remplacie
remplir
rempllace
rempo
remporta
rempre
remuar
ren
rena
renaissance
rename
renamers
renaming
renania
renard
renata
renault
renc
rence
rences
renche
renches
rencie
rencontra
rencontrar
rencontre
rencontro
rencontront
rencs
rend
rende
rendez
rendont
rendre
rends
rendu
rendua
rendus
rene
renens
renfata
renfo
renforcie
reng
renge
rengie
rennes
reno
renoir
renoma
renommage
renommer
renonculace
renove
renovela
rens
rense
renseignez
rent
renta
rental
rente
rentes
rentrar
rentre
rents
renume
renve
renæi
repair
repaisser
repartir
repassar
repe
rependua
replace
replaced
reply
repo
report
reporter
reports
repository
repre
reprend
representa
representative
represented
reprints
reprit
repro
reproduccion
reproductor
reproductors
reproduire
repu
repubblica
republic
reque
request
requested
requesting
requests
requin
require
required
requirements
requires
rer
rere
rerum
res
rese
research
reservation
resin
resolution
resolve
resonont
resource
resources
respond
responded
responsabilite
responsible
ressa
resse
ressemblances
ressent
resso
ressource
ressources
rest
restaurant
restauration
restaurer
reste
restent
rester
resto
restos
result
results
ret
reta
retenu
reterie
retic
retico
retie
retire
retirer
reto
retorn
retorna
retorns
retoromanistich
retorumantscha
retour
retranscrita
retranscrite
retre
retro
retroflaca
retrouve
retrova
retrovar
retrovat
retrove
return
returns
retœu
reus
reuss
reusse
reusser
reussi
reutcha
reva
revarianta
revavarianta
reve
revegne
revegnir
revendica
revere
reverie
revermont
reverse
revey
revie
review
reviewing
reviews
revigne
revilliod
revint
revisions
revisionslider
revitalisation
reviua
revoir
revolucion
revolution
revremont
revue
rey
reya
reynard
reyo
rez
rface
rfc
rfe
rfena
rfenoue
rficie
rfins
rfloor
rg
rga
rge
rgement
rgent
rges
rgi
rgie
rgnat
rgnata
rgne
rgo
rgp
rgs
rgues
rgvarianta
rhead
rhin
rhino
rho
rhodanien
rhone
rhttp
ri
ria
rialb
riane
riant
rias
riat
riatsch
riba
ric
rica
ricard
ricarda
rich
richard
riche
richesse
rickles
rico
ride
ridian
ridiona
rie
ried
riedmatten
riel
rien
rience
riences
rienes
rienne
riens
ries
rieur
rieure
rieux
rife
rificacion
rification
rifications
riga
right
righton
rights
rigord
riksma
rim
rimbaud
rime
rimella
rimenta
rimente
rin
rina
rinshe
rio
riobamba
rioda
riode
riodes
riom
rionda
rior
riora
riordan
riores
riors
riortie
rios
riosa
rioux
riox
ripa
ripart
rique
riquen
riquena
riques
rir
rire
rirs
ris
risa
risco
riscos
risole
risoletta
ristica
risticos
ristique
ristiques
risvarianta
rit
rita
ritable
ritanie
rite
rites
ritier
ritmo
rito
ritre
ritz
riu
riva
rivaz
rive
river
rivers
rives
rivie
riviera
riviere
rivoli
riyad
riza
rizomo
rj
rjo
rjolu
rjovarianta
rjuely
rk
rla
rlande
rle
rlin
rlo
rlogne
rlomagno
rlota
rlyi
rlyo
rm
rma
rmalismo
rman
rmanenta
rmania
rmanica
rmanico
rmanie
rmaniques
rmano
rmanofona
rmat
rme
rmegno
rmegnon
rmelyo
rmelyon
rmena
rmenar
rmence
rmengoua
rmeno
rmenos
rmens
rment
rmentacion
rmes
rmet
rmete
rmetent
rmetre
rmetront
rmica
rmico
rmicos
rmie
rmina
rmine
rminologia
rmission
rmita
rmo
rmoda
rmon
rmondialismo
rmont
rmonte
rmos
rms
rmy
rn
rna
rnaciona
rnacional
rnacionala
rnacule
rnament
rnance
rnand
rnard
rnardin
rnatif
rnativa
rnatives
rndu
rne
rnement
rnements
rnens
rnes
rnese
rneye
rnie
rnin
rnita
rno
rnon
rnor
rnos
rnoue
rns
rnya
rnye
rnyo
ro
roa
road
roadmap
roanet
roannais
roanne
robby
robe
robert
roberta
roberto
robin
robot
roc
roca
rocco
roch
roche
rochefoucauld
rochers
roches
rochet
rochetalye
rochie
rock
rockas
rodes
rodin
rodolfo
rodolphe
rodoreda
rodriguez
roe
roga
roge
rogemont
roger
rogers
roges
rogie
rohe
roi
rojo
rojomont
rol
roland
rolando
rolant
role
roles
rolf
roll
rolland
rolled
rolling
rolo
rolos
roma
romagne
romagno
romagnol
romain
roman
romana
romance
romances
romanche
romand
romanda
romande
romandes
romandia
romandie
romands
romane
romanes
romanesco
romania
romanica
romanisacion
romanische
romanischen
romanisches
romanmotie
romanna
romannavarianta
romano
romans
romantisme
rome
romen
romena
romens
romont
ron
rona
ronald
ronauta
ronc
rond
ronde
rondenia
rone
ronique
ronjat
rono
rons
ronsard
ront
roos
roosevelt
roquille
roquilye
ros
rosa
rosace
rosario
rose
roses
rosie
rosina
rosion
ross
rossa
rosse
rosselyon
rosset
rossi
rossillon
rossinelli
rossini
rossonoemi
rota
rotacion
rotacismo
rote
roten
rotes
rothorn
rotie
rotor
rotors
rots
rou
roua
rouan
rouana
rouanda
rouane
roube
roue
rouen
roues
rouge
rouges
roulament
roulant
roulantes
roule
roumancho
roumania
roumanie
roume
roumen
round
roures
rousa
rouse
rousseau
rousseff
rousses
routables
routage
route
routers
routing
roux
rovarianta
rover
row
rows
roy
roya
royal
royale
royaume
royaute
royen
royo
rp
rpa
rpazur
rpe
rpent
rpents
rpes
rpg
rpinismo
rpinisto
rpre
rps
rpuubyik
rque
rques
rquior
rr
rra
rrachu
rralata
rralye
rrand
rrandin
rrane
rrat
rrayes
rre
rregne
rregnio
rren
rrena
rrenmatt
rrens
rres
rri
rrie
rrite
rritoria
rritoue
rro
rrons
rror
rros
rrosa
rroue
rrovie
rrues
rs
rsa
rsalyo
rsament
rsaments
rsar
rse
rsent
rsera
rses
rsion
rsions
rsita
rsite
rso
rsona
rsonalita
rsone
rsones
rsont
rssm
rsvarianta
rt
rta
rtamagne
rtament
rte
rterbuch
rtere
rtes
rtg
rtical
rtie
rtin
rtins
rtiro
rtiste
rto
rtont
rtra
rtrand
rts
rtu
rtue
rtura
rture
rtvela
ru
rua
rubecula
rubens
ruby
ruchet
ruda
rudament
rudit
rudo
rudolf
rue
ruely
ruffieux
ruffinen
ruffiner
ruffy
rugbi
ruina
ruines
rules
ruma
rumantsch
rumantscha
run
runa
running
runs
ruols
rup
rupcion
rupicapra
ruption
ruptura
rus
rusa
rusale
ruse
rusel
russa
russe
russell
russes
russia
russian
russie
russo
russos
rut
rute
ruth
rutherford
ruva
rva
rvacion
rvacions
rvalo
rvan
rvar
rvarianta
rvatoue
rve
rvencion
rvencions
rves
rvi
rvia
rvic
rvice
rvices
rvicio
rvie
rvies
rvior
rvir
rvit
rvizhe
rvo
rvocalico
rvole
rvont
rvos
rvouiqui
rvouiquis
ry
rya
rye
rze
rzene
rzha
rzie
s
sa
saakashvili
saas
sabaudia
sabine
sabla
sablonie
sablons
sabo
sac
sacate
sachatlas
sachseln
saco
sacort
sacra
sacramento
sacre
sae
sael
safe
safepack
safety
saforin
safran
safurin
sage
sagesse
sagredo
sah
sahara
saharie
sahe
sai
sain
saint
sainte
sainti
saints
sais
saisit
sal
sala
saladin
salamanca
salassi
sale
salenches
salerno
sales
salin
salins
salla
sallanches
salle
salmo
salmonidae
salmoniformes
salo
salomon
salon
salonica
saltina
saltzbo
saluc
saluo
salut
salvador
salvan
salye
salyir
salyon
sambe
same
samedan
samedi
sami
samnaun
samoa
samoe
samouens
samuel
san
sana
sanatorium
sance
sancti
sanctorum
sanctue
sanctus
sanda
sandbox
sandrine
sandro
sanes
sanfourche
sanga
sangallo
sanger
sangon
sankt
sanna
sannes
sans
sant
santa
santana
sante
santeta
santi
santiago
santo
santong
santonge
santos
santoue
sants
sao
saoud
saoudita
sapaudia
sape
sapere
sapiens
sapin
sapins
saquene
sar
sara
sarah
sarda
sarde
sardo
sare
sarena
sarine
sarkozy
sarme
sarmonidos
sarpa
sarra
sarralyes
sarrie
sarro
sarte
sartenes
sarva
sarvan
sasse
sassena
sassenage
sassenajoue
sasson
sat
satanismo
sate
satira
satisfait
satolas
saturday
saturno
sauf
saugeais
saussure
sauvage
sauveur
sava
savantes
save
saved
savent
saventa
savie
savin
savoi
savoia
savoie
savoir
savoisien
savoisienne
savone
savoua
savoue
savoy
savoya
savoyar
savoyard
savoyarde
savoyardes
savoyards
savoye
savoyerli
savœ
saw
saxe
saxel
saxons
say
saymonet
says
sc
sca
scabe
scala
scalada
scale
scalera
scalie
scandinava
scandinaves
scandinavia
scandinavie
scandinavo
scandinavos
scargo
scarlatti
sce
scend
scendenta
scendents
scent
scents
sch
scha
sche
schedule
scheduled
schengen
scheuchzer
scheuermeier
schiaparelli
schiffenen
schiffenensee
schiller
schiner
schleswig
schloss
schlup
schmid
schmidt
schneider
scho
scholarly
scholarship
scholarships
scholz
schorta
schro
schu
schuchardt
schultz
schumann
schwarzkopf
schweiz
schweizer
schweizerische
schweizerischen
schwery
scie
science
sciences
scientific
scientifica
scientifico
scientificos
scientifique
scientifiques
scientists
scissions
scn
sco
scope
score
scos
scott
screen
screens
screenshot
scripcion
script
scripts
scroll
scrolled
scrolling
scultura
scuol
scurte
sd
sdes
sdiont
se
seamless
sean
search
searches
searching
seasonal
seats
seau
sebastian
sebastien
seccion
seccions
secession
sechie
secila
secilien
secolo
second
seconda
secondary
seconde
secondes
secondo
secors
secre
secret
section
sections
securepoll
security
see
seeing
seeking
seen
segment
segnalo
segni
segno
segnor
segnos
segond
segonda
segonde
segondes
seguin
sein
seit
selamat
select
selecta
selected
selecting
selection
selector
selena
self
selina
selisacion
selon
selu
selyinoue
selyins
selyon
sem
semadeni
semaine
semaines
semana
semanafiche
semanes
sembla
semblables
semble
semblent
semblont
sembrancher
seme
sement
semi
semonce
semonces
semond
semonde
semondont
sempach
semplon
sen
sena
senago
senan
senanes
sence
send
sendeco
sendecos
sending
senon
senosen
sens
sensa
sensacion
sense
sensibilita
sensiblo
sent
senta
sentacion
sentacions
sentant
sentants
sentar
sentation
sente
sentence
sentences
sentent
sentents
senter
sentie
sentont
sents
seok
separate
separated
sept
september
septembre
septembro
septentriona
septentrional
sequences
ser
sera
serant
serat
serbe
serbo
sere
serena
serge
sergi
sergio
seri
serie
series
seront
serre
sert
serva
servation
serve
servegne
servenye
server
servers
serveurs
servi
servic
service
services
servignat
servir
ses
sesse
session
sessions
sesteron
set
seto
setos
setout
setting
settings
seu
seul
seule
seulement
seuls
sevarianta
seve
seven
several
severie
severo
sevilla
seye
seyont
seyssel
sfe
sforza
sg
sgrabarczuk
sh
sha
shaker
shakespeare
shandling
shanghai
shape
share
shared
sharing
she
sheet
shidratacion
shift
shilling
shinto
shirley
shna
sho
short
shortcut
shortcuts
shorter
shortly
should
shouldn
show
showed
showing
shown
shows
shttps
si
sia
siastique
sibe
sica
sicila
sicilien
sico
sida
side
sidebar
sidence
sidencie
sident
sidenta
sidente
sidents
sie
siebot
siebrand
siecle
siegfried
siempre
sien
siena
siennes
siens
sierra
sierre
sierro
sies
sieviche
sigismond
siglo
sign
signa
signalisacion
signatura
signature
signatures
signe
signes
signifiant
significacion
significant
significantly
significativa
signifie
signo
signont
signorelli
signup
signups
sikart
siko
sil
sila
silabica
sile
silence
silenci
silie
silien
silja
siloe
silva
silvretta
sima
simbolica
simbolo
simbolos
sime
siment
simforian
similar
simmental
simon
simona
simone
simonetta
simpla
simplament
simple
simpler
simplifia
simplifie
simplified
simplo
simplon
simpto
sin
sina
sinai
sinayi
since
sincre
sindicat
sindicats
sindromo
sine
sines
sinfonie
sing
singapor
singena
singene
singer
singers
single
singles
singulie
singulier
sinia
sinonimo
sinonimos
sins
sint
sintaxa
sinte
sinus
sio
sion
sions
siprage
sir
sire
siria
siriaca
siriaco
sirice
sirie
siro
siros
sirs
sis
sische
sischen
sisches
sisouati
sistar
siste
sistema
sistemi
sistence
sistences
sister
sit
sita
site
sites
sitewide
sitez
sito
sitt
situa
situacion
situation
situations
situe
siuse
siut
siuta
siuveno
siuvent
siuventa
siuventes
siuvont
siuvre
siuvu
siuvua
siuvues
siuvus
sive
sivo
six
sixie
sixt
size
sizes
siœ
sjabloon
sk
skabelon
ski
skills
skin
skins
skopje
sky
sl
sla
slam
slava
sles
slider
slightly
slovaca
slovaco
slovaquie
slove
slovenc
slovenia
slower
slowly
sm
small
smaller
smartphone
smartphones
sme
smg
smith
smolensk
smyu
sn
sncf
snið
snowboard
so
soana
sobre
socia
social
sociala
sociale
sociales
socialista
socialisto
socialistos
socials
socie
societa
societad
society
socio
sociolinguistique
sociologia
sociologico
sociologie
sociologo
socquet
soda
sodan
sodoma
soeur
sofia
soflle
sofonisba
sofrir
software
soir
soire
soit
soixante
sol
sola
solaire
solament
solar
soldat
sole
soleil
solely
solemmio
soles
solesmes
solet
soleymieux
solide
solido
solie
solimena
sollicite
solo
solora
solothurn
solovianenko
solstic
solucion
solucions
solution
solutions
solve
soma
somalie
sombos
sombra
sombro
some
someone
something
sometimes
somewhere
somission
sommaire
sommaruga
sommes
sommet
son
sona
sonata
sonda
sondrebond
sone
sonements
song
songeon
songie
sonie
sonjo
sonjon
sonjons
sonjos
sono
sonores
sons
sont
soon
sopa
sophia
sophie
soprano
sor
sorbona
sorcie
sorda
sorlin
sormais
sormaux
sorra
sorry
sors
sorte
sortes
sorti
sortia
sortie
sortir
sos
soscafo
sot
sote
sotegnir
sotegnu
sotenir
sotho
sotint
sotise
sottens
sou
souabe
souazilande
souda
soudan
souegne
souessanta
souhaite
souhaitent
souhaitez
souhaits
souhe
soul
soulary
soule
soumettre
sound
sounnou
soupc
soupire
source
sources
sous
sousa
south
soutien
soutient
soutise
souvenir
souvenirs
souvent
souverainete
sovan
sove
sovent
sovere
sovie
soyt
spa
spac
space
spacia
spacial
spagna
spagne
spagnol
spagnola
spagnole
spagnols
spain
spam
spanish
sparrow
spartacus
spe
speak
speaking
speaks
special
species
specific
specification
speech
speed
sperantisto
speranto
spi
spin
spinola
spinosissimum
spinoza
spiracion
splana
spo
spoken
spon
spond
spondance
spondent
spondont
sponsa
spores
sport
sportif
sportifs
sportiva
sportives
sports
spoue
sprach
sprachatlas
sprache
sprachen
sprachgeographie
sprachgeschichte
sprachgrenze
spread
spreng
sprint
sprit
spritz
spyri
sq
sqrt
squ
sque
squi
squia
squicross
squiyor
sr
srei
srevegne
sri
srn
srpski
srpskohrvatski
srr
ss
ssa
ssament
ssan
ssana
ssance
ssances
ssand
ssanda
ssanna
ssans
ssarabia
ssarabie
ssart
ssarte
ssartenes
ssavarianta
sse
sseldorf
ssemie
ssemio
ssena
ssence
ssences
ssencie
ssene
ssens
ssent
sses
ssi
ssie
ssifs
ssin
ssina
ssinar
ssinator
ssinatrice
ssine
ssins
ssio
ssion
ssions
ssior
ssita
ssiva
ssli
sson
ssona
ssone
ssons
ssont
ssor
ssors
ssu
ssua
ssues
ssus
st
sta
stabilita
stacho
stacion
stacions
stade
stadium
stado
stados
stadt
stae
staff
stage
stalin
stament
stammtisch
stan
standa
standard
standardisa
standardise
standards
stanford
stanislas
stanley
stant
stante
stantismo
stants
star
start
started
starting
starts
stat
state
statement
statements
states
static
station
statistica
statistique
statistiques
statua
statue
statues
status
statut
statuts
stay
ste
stefanie
steiger
stein
steinbock
steinke
stellini
stencil
stendhal
stent
step
stephani
stephanie
stephen
steps
stes
steve
steven
stevenson
steward
stewards
stewart
sti
stica
stich
sticky
stico
sticos
stie
stile
still
stilo
stilos
stima
stimar
stimmen
stimont
stin
stina
stion
stions
stiques
stiva
stival
stivita
sto
stockholm
stockton
stones
stonia
stonie
stonien
stont
stop
stopped
stor
stora
storacion
storant
storants
store
stored
storia
storico
stories
story
stos
stou
stra
straka
stralasia
stralia
stralie
stralien
strasbo
strasbourg
strassburg
strate
strategic
strategy
strauss
stre
street
stres
strictly
stro
strodt
strofa
stromae
strong
struccion
struccions
structura
structure
structured
structures
stuart
studer
studi
studied
studien
studies
studio
studios
study
stuttgart
style
styles
styling
su
sua
sub
subdivisions
sube
subi
subject
subjects
submission
submissions
submit
submitted
submitting
subpage
subpages
subscribe
subscribed
subscription
substantially
substrat
subtropica
subvencions
subventions
succe
succeed
successful
successor
such
suche
sucro
sud
sue
suer
suez
suffit
sufisenta
sufixo
sufra
suga
suggest
suggested
suggestions
sui
suicide
suis
suisa
suissa
suisse
suisses
suissessa
suissesse
suisso
suissos
suit
suita
suitable
suite
suitos
suivantes
suivants
suivi
suivie
suivies
suivre
suje
sujet
sujets
sul
sule
sull
sulla
sulle
sulpis
sultan
sultat
sultats
sum
suma
sumbriva
sume
summarizes
summary
summit
sumo
sun
sunday
sundgau
sung
suo
suonen
supe
super
supercopa
superficie
superior
superpo
suple
supo
suposa
suposicion
supple
support
supported
supporting
supports
suppression
supprima
supprime
supprimer
supra
supradiale
supradialectale
supre
suprima
sur
surdez
sure
surface
suriname
surmiran
surnom
surnoma
surnoms
surpre
surre
surse
surto
surtot
surtou
surtout
survey
sus
susa
susanna
sustainability
sustainable
sustentacion
suter
sutherland
sutou
sutsilvan
suu
suve
suzanne
sv
svalba
svarianta
svg
svizra
svizzera
svizzeri
svn
sw
swadesh
swedish
swift
swiss
swisstopo
switch
switching
switzerland
sy
sybilla
sydney
sye
sylvain
sylvie
symbol
symbole
sync
syncing
syntax
syntaxe
syriac
syrian
sysop
syste
system
systema
systems
szablon
szl
t
ta
tab
tabac
table
tableau
tables
tablet
tablets
tabli
tablia
tablie
tablies
tablir
tablissement
tabllo
tablo
tabs
tache
tacion
tacomba
tadj
tae
tag
tagna
tagne
tags
tai
taient
tail
taille
tails
tain
taine
taines
tains
tait
take
taken
takes
taking
tal
tala
talent
tales
talgo
talia
talibans
talico
talie
talien
taliena
taliens
taliques
talk
talking
talleyrand
tallinn
talo
talurgie
taly
talye
talys
talɣa
tament
taments
tamerlan
tamo
tamorfica
tan
tande
tandis
tane
tanes
tang
tange
tango
tangs
tanqu
tanque
tant
tanta
tanuki
tanzanie
tap
tapa
tape
tapes
tapis
tappolet
tar
tara
taramarcaz
taras
tardif
tardiva
tare
tarentaise
tarente
target
tarificacion
tarifs
tarina
tariq
tariva
tarjei
tarn
tarnovo
tarquin
tarravoue
tarteflle
tas
task
taskforce
tasmania
tasso
tasson
tat
tatar
tatif
tation
tats
tau
taugwalder
taux
tavarianta
tave
tavela
tavernier
taxon
taxons
tayilande
tayipe
tayivan
taylor
tbilisi
tch
tchahte
tchalla
tchambava
tche
tchebychev
tchouiille
tchumi
tcl
tcm
tcp
te
teach
team
teams
teatro
teau
teaux
tech
technical
technique
techniques
technologies
technology
tecnico
tecnolo
tecnologia
tedros
tee
tegne
tegnir
tegnua
teilhard
teimple
tel
tela
telard
tele
telegram
telemann
telet
tell
teller
telles
telois
teloises
tels
telyon
telyone
temer
temo
tempe
tempera
templat
template
templatedata
templates
templatestyles
temple
templlo
templo
tempo
temporary
tempowholesperminute
temps
tems
temuco
ten
tena
tenbrou
tence
tences
tend
tendance
tende
tendent
tendont
tendre
tendu
tendua
tendus
tene
tenent
tenero
tenes
tenir
tennessee
tens
tensions
tent
tenta
tentar
tentativa
tente
tents
tenu
tepena
tepes
ter
tera
terat
tere
teresa
terie
terin
term
termas
terme
termine
terminent
terminer
terminera
terminus
termo
terms
terra
terrain
terre
terreaux
terreur
territoire
territoriale
territouare
territoue
territouero
tes
tesla
tessa
tesse
tessin
test
testcases
teste
tested
testi
testing
tests
tet
teta
teu
tevarianta
tevin
text
texte
texten
textes
texto
textos
tg
tgr
tgv
th
tha
thabo
thai
thalys
tham
than
thang
thank
thanks
thanna
that
the
theatre
their
thela
thele
them
thematic
theme
themes
themselves
then
thendiu
theodor
theodore
there
thesaurus
these
theta
they
theytaz
thi
thie
thing
things
think
thinking
third
this
tho
thode
thodes
thodologies
thodologique
tholey
thoma
thomas
thomasset
thone
thor
those
thottunkal
though
thought
thoughts
thousand
thousands
thre
thread
three
thro
through
throughout
thttps
thumb
thumbnail
thumbnails
thursday
thyon
ti
tia
tian
tiant
tianxiang
tibe
tibro
tica
ticament
ticion
ticions
ticket
tico
ticos
tie
tied
tien
tiena
tiendu
tienne
tiens
tient
tienta
tiepolo
tier
tiern
tiers
ties
tievare
tif
tige
tiges
tignes
till
tillier
tillon
tillonnet
tilo
tilyol
tim
timbre
time
timeline
timent
timents
times
timesignature
timologia
timologica
timologico
timor
timothy
tin
tina
tinguely
tins
tint
tintin
tio
tiola
tioles
tiolie
tions
tiopia
tiopie
tior
tipes
tipica
tipico
tipique
tipo
tipografia
tipologia
tipos
tique
tiques
tir
tirana
tiras
tire
tirolo
tirre
tirso
tis
tismo
tisse
tissot
tissu
tissus
tit
titanic
titeuf
title
titles
tito
titra
titre
titres
titro
titros
titule
tiu
tiua
tive
tivon
tk
tl
tles
tn
tname
tnamethi
tnamien
tnia
tnica
tnicita
tnico
tnie
tnies
tniques
tno
tnologa
tnologia
tnologo
tnonimo
to
tob
tobago
tobus
toc
toca
tocar
tocars
toce
tocelya
toche
tochont
tocie
tocio
toda
today
todes
todzor
toe
toepffer
tofoto
together
toggle
togo
toile
tois
tojorn
tokvo
tokyo
tole
toledo
tollion
tologia
tolon
tolosa
tom
toma
tomas
tomaschett
tomaticament
tomatico
tomaticos
tomatos
tomba
tombe
tome
tomes
tomobila
tomobile
tomobilo
tomorrow
tomotrices
ton
tonalita
tone
tones
tonga
toni
tonia
tonica
tonie
tonin
tonique
tonne
tonoma
tonomes
tonomia
tonomie
tonomisto
tonomistos
tonomo
tonon
tons
tont
tony
too
tool
toolbar
tools
tooltip
top
topgye
topic
topics
topografia
topografica
topographique
toponimia
toponimo
toponomastico
toponymes
toponymie
toponymique
toportre
toquio
tor
tora
tore
torens
torgnon
torino
torisacion
torise
torita
torite
torix
torloni
torn
torna
tornaments
tornar
tornat
torne
torni
torny
toromanischen
toronto
torota
torre
torrent
torrents
tors
torsten
tos
tosca
toscana
tot
tota
total
totalament
totalise
totalita
tote
totes
tots
tottes
tou
touch
toudj
toudje
toue
touit
toujours
toula
toulon
toulousa
tour
tourism
tourisme
tourismo
tourismus
tourist
touristica
touristicos
touristiques
tourne
tournesol
tournois
tours
tous
toussieu
tout
toute
toutes
towards
town
tozheur
tr
tra
traboules
trac
trace
traces
tracie
track
tracks
tractar
tracte
trad
trade
trademark
tradicion
tradiciona
tradicional
tradicionalament
tradicione
tradicionel
tradicions
tradition
traditionnelle
traditions
traduccion
traduction
traductor
traduire
traduit
traduita
traduits
traffic
trafic
trai
train
traite
traits
traje
trama
trame
trament
trameve
tramway
tranclle
trang
trange
trangie
trans
transarpenche
transcluded
transcripcion
transcription
transcrit
transcrits
transfe
transforma
transformacion
transformacions
transforming
transfrontalie
transicion
transite
transition
translatable
translate
translated
translates
translatewiki
translathon
translating
translation
translations
translator
translators
transmission
transnaciona
transnistria
transnistrie
transpo
transport
transporta
trapodos
trapu
tras
trava
travail
travaillant
travaille
travailler
travaillons
travaly
travalya
travalye
travalyont
travalyors
travaux
trave
travel
travers
traverse
traversent
tre
treatise
trebo
tree
trees
treille
tremblement
tren
trenna
trens
trent
trenta
trente
trentin
trept
tres
tresor
tretikov
tretu
treuve
trevie
trevo
trevor
trevu
treyent
tri
tria
triage
trial
triangles
triangllo
triangllos
tribu
tribulations
tribunal
tribune
tribus
tribute
trica
trices
trich
triche
trichien
trichiens
tricky
trico
tricolo
trie
trient
trieste
trimestriel
trinita
trio
triple
tristan
trivier
trizek
tro
troadeg
trobairitz
trobles
troblo
troblos
trofe
trois
trole
trolliet
trompette
tron
tronc
tront
trop
tropa
trope
tropes
tropica
tropicos
tropola
tropole
tropolitan
tropolitana
tropolite
tros
trossa
trou
troubadours
trouble
troue
trouene
trouon
troupeau
trouve
trouver
trouverez
trova
trovar
trove
trovens
trovont
troyes
true
truiden
truit
truita
truites
trullols
trump
trust
trusted
trustees
trutta
try
trying
ts
tsa
tsaeringue
tsalet
tsamportche
tsampt
tsanson
tsant
tsar
tsarina
tsati
tsch
tschberg
tschumi
tse
tsemeun
tsemin
tsi
tsii
tsiie
tsonga
tsouana
tsoug
tsougue
tsurique
tt
tta
tte
tter
ttingen
tu
tua
tuaillon
tualyon
tubo
tuche
tuches
tuchman
tuda
tude
tudes
tudia
tudiants
tudie
tudient
tudiye
tudiyer
tudiyont
tue
tuesday
tuileries
tuis
tulla
tum
tune
tunel
tunis
tunisia
tunisie
tunnel
tuor
tupena
tura
turbia
turbotrens
turc
turca
turcme
turco
turdus
ture
tures
turgi
turgovia
turin
turismo
turk
turkish
turlin
turn
turned
turner
turning
turques
turquia
turquie
turrel
turretin
tusk
tussaud
tute
tutonica
tutta
tutti
tuvalu
tux
tuyo
tv
tvarianta
tw
twain
twitter
twl
two
txantiloi
ty
tya
tyait
tye
tyes
tyeu
tyler
tymologie
tymologique
tyo
type
types
typing
typique
typography
tzarphat
tze
u
ua
uchard
uche
uchie
ucoc
ucrayena
ucrayenie
ucrayenien
ucre
uderzo
udine
ue
uecn
uefa
uely
uelys
uevras
ufonica
ug
uge
ugue
ui
uic
uillou
uk
ukraine
ukrainian
ukre
ulien
ulrich
uls
ulster
ultimate
ultra
ultramarenes
ulye
um
uma
umberto
umbura
ume
un
una
unavarianta
und
unde
undelete
under
understand
understanding
undo
une
unesco
unexpected
unfortunately
uni
unia
unias
unica
unicament
unico
unicode
unie
unies
unifia
unifiar
unificacion
unilate
unine
union
unione
unions
unique
uniquement
unir
unis
unit
unita
unite
united
unive
universa
universal
universalis
universel
universelle
universeta
universidad
universidade
universita
universitaires
universitat
universite
university
unknown
unless
unn
unna
unnavarianta
unnecessary
uno
unregistered
uns
unsubscribe
until
unvarianta
up
upcoming
update
updated
updates
updating
upload
uploads
uploadwizard
upon
upre
upright
ur
urbain
urbaine
urbanisa
urbanismo
urbanisto
urbe
urben
urbens
urdu
urfe
urgent
uri
uriburu
url
urode
uropa
uros
urs
urss
ursula
ursus
urugoay
urugoayi
us
usa
usability
usage
usancie
usd
use
used
useful
user
username
users
uses
usine
usines
using
usio
uso
usse
ussel
usteri
usual
usually
usurpacion
ut
utah
utc
utile
utiles
utilisa
utilisacion
utilisant
utilisar
utilisateur
utilisateurs
utilisation
utilisator
utilisators
utilise
utilisent
utiliser
utilisie
utilisont
utilita
utinjoue
utre
uve
uvre
uvrir
uvula
ux
uz
v
va
vacance
vacances
vaccari
vache
vaches
vachie
vacion
vacions
vae
vagin
vagneur
vagons
vagues
val
vala
valada
valais
valaisan
valaisanne
valaisannes
valaisans
valangin
valaye
valde
valdo
valdotain
valdotaine
valdote
valdoten
valdou
vale
valence
valencia
valenciana
valencians
valencien
valenciennes
valente
valentin
valentino
vales
valeurs
vali
valida
valie
valign
valire
valiret
valis
valladolid
vallaise
valle
vallenato
vallesia
valley
valli
valliret
vallis
vallo
valloire
vallon
vallorbe
vallotton
valls
valmore
valo
valognes
valon
valona
valonie
valor
valorisation
valors
valparai
valromey
valse
valsesia
valtournenche
valu
valua
valuable
valuation
value
values
vament
van
vanc
vandalism
vandalisme
vandalismes
vandalos
vange
vangilista
vangilos
vanoise
vanoue
vant
vanuatu
vapor
var
varax
vare
vareye
vargas
varia
variable
variacions
variant
varianta
variante
variantes
variation
variations
varie
varier
variety
various
varnent
varney
varnum
varo
varsovie
vascule
vasily
vasta
vat
vatican
vatorne
vatre
vatses
vau
vauban
vaud
vaudois
vaudoise
vaudoises
vautherin
vautrin
vaux
vb
vd
vda
vdg
ve
vec
vector
vega
vegne
vegnent
vegnerons
vegnes
vegnir
vegno
vegnon
vegnont
vegnu
vegnua
vegnus
vegoua
vegouarda
veidne
veil
veille
veillera
vela
veladjo
veladzo
velafranche
velage
velajo
velamonte
velano
velar
velarenc
velarenche
velarenches
velarencs
velavarianta
velay
velazhou
vele
veles
veleta
veliko
velin
velopa
velopament
velopar
velope
velopement
velopont
veloppement
velorbana
vely
velye
velyerat
velyon
ven
venance
venaria
venc
vencion
vencor
vencus
venda
vende
vendredi
vendus
vene
venent
veneux
venezue
vengt
vengtie
venir
venissieux
venon
vens
vensonna
vent
vento
ventre
ventuellement
ventuels
venu
venus
venye
ver
vera
verbes
verbier
verbo
verdi
verdun
vere
veren
verens
vereta
vergna
veriat
verie
verio
verkaufen
verlag
verlaine
vernay
verne
vernet
verney
vernier
verre
vers
versailles
versants
version
versions
versoix
versuch
vert
verte
verture
very
ves
vesaas
vese
vesena
vesenes
vesigots
vesin
vesins
vesitacion
vet
veta
veu
veugne
veuillez
veulla
veut
veux
veve
vevey
vex
veyes
veyle
veysonnaz
vezele
vi
via
viacion
viacions
viaduc
viaducs
viaidzou
viala
vian
viande
viatge
vic
vicario
vice
vicent
vicente
vichie
vichipedie
vicipaedia
victima
victimes
victoire
victor
victoria
victorin
victory
victoue
vicus
vida
vidal
vide
vident
video
videoclip
videos
videsott
vidi
vie
vieillards
viely
vielyavarianta
vielye
vielyes
vielyo
vielyovarianta
vielys
viena
vienna
vienne
vient
vies
vietnam
vietti
vieux
view
viewed
viewer
viewing
views
vige
vigne
vignette
vignirant
vigoda
vigor
vii
viie
viii
viiie
viiyou
vij
vikings
vikipedio
vikipediya
vila
vilajo
vilamonte
vilare
vilavarianta
vile
viles
vileta
villa
village
villages
villalbos
villards
villarinches
villarins
villars
ville
villefranche
villeneuve
villepin
villeroy
villes
villmergen
vilorbana
vilorbane
vilye
vilyon
vin
vincent
vincenzo
vinci
vindrat
vine
vingt
vinifera
vino
vins
vinse
vint
vio
viol
viola
violacion
violation
viole
violence
violenta
viollet
violon
vionnaz
vipe
viqu
viquipe
vira
virales
vire
viret
virginia
virginie
virgula
viriatis
viront
virtual
virus
vis
visa
visant
vise
visibla
visiblament
visible
visiblo
visiblos
visie
visioconfe
vision
visions
visit
visita
visite
vissoie
visual
visualeditor
visualeditordid
visualisar
visually
vit
vita
vitar
vite
vitessa
viticola
vitis
vito
vitou
vitra
vitznau
viu
viua
viuva
viuvavarianta
viva
vivace
vivaldi
vivant
vivare
vive
vivent
viventa
viventes
vivents
vives
vivet
vivie
vivont
vivre
vla
vladimir
vls
vo
voca
vocabolario
vocabulaire
vocabule
vocacho
vocacion
vocalicos
voconc
vocontiorum
vod
vodoue
voice
voici
voie
voile
voir
voira
voirique
vois
voisinage
voisines
voix
vokabule
vol
vola
volage
volar
volcan
volcanicos
volcanismo
vole
volens
voles
volet
voliva
volkova
volley
volodymyr
volont
volonta
volontaires
volonte
volontie
volria
vols
volta
voltaire
volts
volu
voluar
volucion
volucione
volucions
volue
volui
volume
volumes
volumo
volunteer
volunteering
volunteers
volution
volutionnaire
volvic
volye
vom
vomissements
von
vont
voor
vor
vora
voragina
vorar
vorarlberg
vore
vorlage
vorva
vos
vosg
vost
vot
votacion
votacions
votar
vote
voted
votent
votents
voter
voters
votes
voting
voto
votos
votre
vou
voudrait
voue
vouebe
voueda
vouedo
vouida
vouilloz
vouiqui
vouiquile
vouiquima
vouiquime
vouiquinove
vouiquipe
vouisqui
voulez
voulut
vous
voutes
voutra
voutres
voutron
voutros
vox
voya
voyage
voyages
voyagiors
voye
voyelle
voyelles
vp
vra
vrai
vre
vres
vri
vrie
vrier
vriezenveen
vro
vront
vros
vs
vtt
vu
vua
vuatavela
vuavarianta
vue
vues
vuillermoz
vuilyin
vuiquipe
vuite
vulgaire
vully
vulpes
vulva
vulyi
vung
vuoto
vurpas
vuthe
vuya
vye
vyeu
vyu
w
wa
waale
waeber
wagner
wait
waiting
wakker
wales
walk
walker
wall
wallis
walliser
walon
walser
walston
walter
walther
want
wanted
wanting
wants
wappen
war
warmly
warn
warner
warriors
wars
wartburg
warung
was
washington
wassily
watch
watchlist
watchlists
water
waterloo
watson
watt
watts
way
wayne
ways
we
wear
web
weber
webfonts
website
wednesday
week
weekly
weeks
weg
weil
weimar
weinberg
weiss
weisshorn
welcome
welcoming
well
welsh
welt
welter
wen
went
were
werk
werke
werlen
werner
west
western
westfalia
what
whatamidoing
whatever
whatismyip
when
where
whether
which
whichever
whig
while
whisky
white
who
whois
whole
whom
why
whymper
wi
wide
wider
width
wien
wiesbaden
wiki
wikibooks
wikidata
wikieval
wikifunctions
wikimania
wikime
wikimedia
wikimedians
wikinews
wikipe
wikipedia
wikipedians
wikipedias
wikipedie
wikipedija
wikis
wikisource
wikisources
wikitech
wikitext
wikiversity
wikivoyage
wikivoyages
wilde
wilder
wildhaber
wildstrubel
wilhelm
will
willi
william
williams
williamson
willibald
willien
willing
wilson
win
winckelmann
wind
window
windows
winfrey
winners
winston
winterthour
wish
wishes
wishlist
witch
witches
with
within
without
wm
wmde
wmf
wmi
wny
wo
wolf
wolfgang
woman
women
won
woodard
woodrow
woolf
word
words
work
workboard
worked
workflow
working
worklist
works
world
worldcat
worldwide
worley
worms
would
wp
wpwp
wright
write
writing
written
wrong
wu
wuhan
wulf
wunderli
wurtemberg
wuu
www
x
xa
xandrie
xandro
xas
xavier
xce
xcllues
xcllusivament
xdc
xe
xemplo
xeno
xes
xhosa
xi
xianfan
xic
xico
xicografo
xicologia
xicologo
xie
xii
xiie
xiii
xiiie
xion
xis
xiv
xive
xix
xixe
xixie
xo
xos
xpe
xplicacion
xplicar
xplique
xpllicacion
xplorar
xplorator
xplorators
xploue
xpo
xposent
xposicion
xpre
xpress
xprima
xprimar
xte
xtension
xtilo
xto
xtos
xtre
xua
xual
xualita
xue
xv
xvarianta
xve
xvi
xvie
xvii
xviie
xviii
xviiie
xviiiie
xx
xxe
xxi
xxie
xxvi
xxx
xxxx
y
ya
yan
yana
yann
yant
yanta
yantes
yasizhe
ye
year
years
yena
yenavarianta
yener
yens
yent
yenta
yerly
yes
yet
yeu
yeui
yi
yicllo
yiculo
yiculos
yidich
yie
yo
yoko
yolanda
yon
yona
yont
yoran
york
yorque
yosa
yoshihide
you
youguang
younan
your
youri
youssef
youtube
yu
yue
yueng
yulia
yun
yunus
yves
yvette
yvonne
yœ
z
za
zabe
zachary
zagre
zakka
zam
zambie
zamenhof
zanne
zarah
zdin
zdive
ze
zea
zealand
zedong
zeit
zeitschrift
zeitung
zelay
zelensky
zen
zenta
zermatt
zermatten
zernez
zero
zery
zet
zeudi
zgc
zh
zhanse
zhe
zho
zhon
zhou
zhuang
zi
zick
zie
zien
ziens
zihlmann
zimbaboue
zimmerli
zinal
zinsli
zita
ziœx
zneeff
znieff
zo
zola
zon
zona
zone
zones
zons
zoologia
zoom
zorro
zos
zoso
zot
zou
zouc
zoulou
zsa
zu
zuffere
zufferey
zum
zur
zurich
zusammen
zviad
zwischen
zygmunt
{
|
}
~

§
«
°
±
²
³
´
·
¹
º
»
×
æ
ð
þ
đo
ł
œ
œcume
œuvra
œuvre
œuvres
ɑ
ɔ
ɕ
ə
ɛ
ɟ
ɥ
ɪ
ɲ
ɸ
ʀ
ʁ
ʃ
ʊ
ʎ
ʎi
ʑ
ʒ
ʣ
ʤ
ʥ
ʦ
ʧ
ʨ
ʲ
ʻ
ʼ
ˈ
ˌ
ː
ˑ
˜
̀
́
̂
̃
̄
̆
̇
̈
̉
̊
̋
̌
̓
̔
̛
̞
̣
̦
̧
̨
̮
̯
̱
̹
͂
ͅ
͡
α
β
γαλα
γος
δ
ε
ει
η
θ
ι
και
λ
λο
μυ
μω
ν
ο
π
προ
ρ
ς
σου
το
τω
υ
φ
χ
ω
а
б
беларуская
в
википедия
википедија
вікіпедія
г
ж
з
и
клуб
н
на
нська
о
православна
православная
р
с
српски
српскохрватски
у
уикипедия
украі
форум
царква
церква
церковь
ч
шаблон
э
ю
կաղապար
ִ
ָ
ּ
ויקיפדיה
תבנית
ا
الگو
ر
سانچہ
قالب
كوردي
ل
ّ
ٓ
ٔ
ٕ
ނ
ވ
ފ
ތ
ަ
ް
ँ
ं
क
ग
च
ज
ट
ड
ढ
थ
द
ध
न
प
फ
म
य
र
ल
व
श
स
ह
ा
ि
ी
ु
ू
े
ॉ
ौ
्
ঁ
ং
ক
চ
ট
ড
ত
ন
প
ফ
ব
য
র
ল
স
়
া
ি
ু
ে
্
ਾ
ં
ક
ચ
ડ
ઢ
પ
ય
વ
ા
િ
ી
ો
ଚ
ଛ
ଞ
ା
୍
க
ட
ப
ய
ர
வ
ா
ி
ீ
ு
்
మ
స
ూ
ಂ
ಈ
ಕ
ಟ
ಡ
ದ
ನ
ಪ
ಯ
ಲ
ವ
ಸ
ಿ
ು
ೆ
್
ೕ
ം
ക
ച
ഡ
ത
ദ
പ
ഫലക
മ
യ
ര
ല
വ
ാ
ി
ീ
െ
േ
്
ක
ඩ
ප
ය
ල
ව
ස
්
ා
ැ
ි
ී
ෙ
ก
น
พ
ย
ล
ว
อ
ิ
ี
ุ
ู
แบบ
แม
่
้
ກ
ພ
ວ
ິ
ີ
່
་
ན
ར
ི
ོ
ྒ
ྟ
ྱ
က
င
စ
ဉ
ည
ပ
မ
အ
ာ
ိ
ု
ေ
့
း
်
ျ
ြ
ვიკიპედია
თარგი
위키백과
틀
ᓀᐦᐃᔭᐍᐏᐣ
ទ
ប
ព
រ
ស
ា
ី
ូ
ំ
័
្
ẟ
​
‌
‍
‎
‏
‐
‑
–
—
―
‘
’
“
”
„
†
•
…
‰
′
″
‹
›
‿
€
ℤ
ⅰ
ⅲ
ⅴ
ⅷ
ⅺ
→
↔
↳
↵
↷
∙
∫
≤
⌘
③
④
⑦
─
▪
☉
☺
☾
☿
♀
♂
♃
♄
♆
♇
♭
♯
⛢
✉
✍
✓
✗
⟨
⟩
⯓
ⴰ
ⴱ
ⴷ
ⴻ
ⴿ
ⵉ
ⵍ
ⵎ
ⵏ
ⵓ
ⵔ
ⵖ
ⵙ
ⵚ
ⵢ
ⵣ
⺀
⺄
⺆
⺈
⺊
⺌
⺕
⺝
⺸
⺼
⿰
⿱
⿲
⿳
⿴
⿵
⿶
⿷
⿸
⿹
⿺
⿻
。
〢
な
の
ま
り
゙
゚
ィ
カ
ク
ケ
コ
サ
ス
タ
ッ
テ
ト
ハ
ヒ
フ
ホ
モ
ュ
ユ
ラ
リ
ル
レ
ロ
ン
ー
㇁
㇂
㇄
㇇
㇈
㇉
㇓
㐁
㐄
㐅
㐌
㐫
㐬
㐭
㐮
㐱
㑒
㒵
㒸
㒼
㓁
㓞
㔾
㕛
㕣
㖾
㘝
㚅
㚇
㚔
㚘
㝉
㝡
㝴
㝵
㞋
㞢
㞷
㠩
㠭
㠯
㡀
㡭
㡿
㢲
㢴
㣇
㣺
㥯
㪅
㫄
㫐
㫒
㫺
㬅
㬎
㬥
㬰
㲋
㳄
㷠
㸒
㸚
㸦
㼌
㼲
㽞
㿟
䀠
䂞
䍃
䏍
䒑
䖍
䖒
䖝
䖵
䙴
䚻
䜌
䝿
䡛
䧹
䪞
一
丁
丂
七
丄
丅
丆
万
丈
三
上
下
丌
不
与
丏
丐
丑
专
且
丕
世
丘
丙
业
东
丞
丢
丣
两
严
並
丨
丩
个
丫
丬
中
丮
丰
丱
串
丵
丶
丷
丸
丹
为
主
丽
丿
乀
乂
乃
久
乆
乇
么
义
之
乌
乍
乎
乏
乐
乑
乔
乖
乗
乘
乙
乚
乛
乜
九
乞
也
习
乡
乳
乾
亀
亅
了
亇
予
争
事
二
亍
于
亏
亐
云
互
亓
五
井
亘
亚
亜
亞
亟
亠
亡
亢
交
亥
亦
产
亨
亩
享
京
亭
亮
亯
亰
亲
亳
亶
亷
人
亻
亼
亾
仁
今
介
仌
从
仐
仑
仒
仓
仕
他
付
仝
代
令
以
任
企
伊
伏
伐
休
会
伯
但
位
何
佘
余
作
佥
使
來
侈
侌
侖
侯
侵
便
保
俞
信
修
倉
倍
候
倠
備
僉
僕
儿
兀
允
兂
元
兄
充
兆
兇
先
光
兊
克
兌
免
兑
兒
兓
兔
党
兜
兟
入
全
兩
兪
八
公
六
兮
兰
共
关
兵
其
具
典
兹
兼
冀
冂
冃
冄
内
冈
冉
冊
冋
册
再
冎
冏
冐
冒
冓
冖
冗
冘
军
农
冝
冡
冥
冫
冬
冷
几
凡
凢
凵
凶
凷
凸
凹
出
函
凾
刀
刁
刂
刃
刄
刅
分
切
刍
刑
刕
刖
列
刘
则
初
別
利
别
到
制
刺
則
削
剌
前
剡
剽
劉
力
功
加
劦
助
劫
劳
劵
勃
勇
勉
勒
動
務
勞
勤
勹
勺
勻
勾
勿
匀
匂
包
匆
匈
匊
匋
匍
匕
化
北
匚
匝
匡
匪
匱
匸
匹
区
医
匽
匿
區
十
卂
千
卄
卅
卆
升
午
卉
半
卌
华
卑
卒
卓
单
卖
南
卜
卝
卞
占
卡
卢
卣
卤
卦
卩
卪
卬
卯
印
危
即
却
卵
卷
卸
卻
厂
厃
厄
历
厈
厉
厌
厓
厘
厚
原
厤
厥
厨
厭
厲
厶
厷
厸
去
厼
厽
叀
参
參
叅
又
叉
及
友
双
反
叐
发
叒
叔
叕
取
受
叚
叜
叟
口
古
句
另
叩
只
召
可
台
叱
史
右
叵
号
司
叹
吂
各
吅
合
吉
吊
吋
同
名
后
吏
向
吕
君
吝
吞
否
含
启
吳
吴
吹
吾
呂
呆
呈
告
员
呙
周
命
咅
和
咎
咠
咢
咨
咸
咼
哀
品
哉
員
哥
哲
哺
唐
商
啇
問
啚
啬
啻
善
喜
喬
單
喿
嗇
噩
嚴
囊
囗
囘
囙
囚
四
回
囟
因
囧
囬
困
囱
囷
固
国
圂
圅
國
圍
圓
土
圡
圣
圥
在
圭
地
圶
圼
坊
坐
坒
坚
坴
垂
垔
垚
埀
埋
城
埶
執
基
堂
堅
堆
堇
堯
塞
墨
壇
壘
士
壬
壯
声
壳
壴
壹
壺
壽
夂
处
夅
夆
备
夊
夋
夌
复
夏
夒
夕
外
夗
夘
多
夜
夢
大
夨
天
太
夫
夬
夭
央
失
夲
头
夷
夸
夹
夻
夾
奂
奄
奇
奈
奉
奎
奏
奐
契
奓
奔
奚
奞
奠
奢
奥
奭
女
奴
奻
好
如
妄
妙
妟
妥
妻
妾
始
姑
委
姜
威
娄
婁
婴
嬰
嬴
子
孑
孔
孕
孖
字
存
孚
孛
孝
孟
季
孤
学
孫
孱
學
宀
宁
宂
它
宅
宇
守
安
宋
完
宏
宓
宗
官
定
宛
宜
宝
客
宣
室
宮
宰
害
家
容
宾
宿
寄
寅
密
富
寒
察
寧
審
寫
寬
寮
寸
对
寺
寻
寽
対
寿
封
尃
射
将
將
專
尉
尊
尋
尌
對
小
少
尒
尓
尔
尖
尗
尚
尞
尢
尣
尤
尧
尨
尭
就
尸
尹
尺
尻
尼
尽
尾
尿
局
居
屈
屋
屎
屏
屑
展
屖
屚
属
屠
屡
屬
屮
屯
屰
山
屵
屾
岁
岂
岑
岡
岩
岳
岸
峯
島
崇
崑
崔
崖
崙
崩
嵬
嶲
巂
巛
川
州
巟
巠
巢
巤
工
左
巧
巨
巩
巫
差
己
已
巳
巴
巷
巸
巽
巾
巿
帀
市
布
希
帚
帛
帝
带
師
席
帶
常
干
平
年
幵
并
幷
幸
幺
幻
幼
幽
幾
广
広
庄
床
底
店
庚
府
度
庫
庭
庶
康
庸
廉
廌
廛
廣
廩
廴
延
廷
建
廾
廿
开
弁
弃
弄
弇
弋
式
弓
弔
引
弗
弘
弜
弟
弥
弦
弱
張
強
强
彊
彌
彎
彐
彑
当
彔
录
彖
彗
彡
形
彥
彦
彧
彩
彭
彳
役
彼
往
待
律
後
徒
得
徙
從
御
復
微
徵
心
忄
必
忌
忍
志
忝
忠
忩
快
念
忽
忿
思
怠
急
怱
恆
恒
恩
恭
息
悉
患
悤
悲
悶
惠
惡
惢
愁
愈
意
愛
感
慈
慧
慮
憂
憲
應
戀
戈
戉
戊
戋
戌
戍
戎
成
我
戒
戔
或
戚
戠
戢
截
戲
戴
戶
户
戸
戹
戼
戾
房
所
扁
扇
手
扌
才
打
托
执
承
技
折
拉
拜
拿
掌
推
提
摩
支
攴
攵
收
攸
改
放
政
敄
敏
敕
敖
敗
教
敝
敞
敢
散
敦
敫
敬
数
敷
數
斂
文
斉
斊
斗
斤
斥
斩
斬
斯
新
方
於
施
斿
旁
旋
族
无
旡
既
旣
日
旦
旧
旨
早
旬
旱
旲
时
旾
昆
昇
昌
昍
明
昏
易
昔
昗
昜
星
春
昬
是
昱
昴
昷
昺
時
晃
晋
晏
普
景
晶
智
暑
暴
曇
曩
曰
曲
曳
更
曷
書
曹
曼
曾
替
最
朁
會
月
有
朋
服
朔
朕
朗
望
朝
木
朩
未
末
本
札
朮
术
朱
朵
朶
朿
杀
杏
村
杜
束
条
来
東
杲
杳
松
板
析
林
枚
果
枝
枠
枲
架
枼
某
柔
查
柬
柰
柴
栄
栈
栗
桀
框
桑
桼
梁
條
梟
梨
棘
棠
棥
森
楚
業
楽
榮
樂
樊
模
欠
次
欢
欣
欮
欲
欶
欽
款
歆
歇
歛
歡
止
正
此
步
武
歨
歪
歮
歯
歰
歲
歴
歷
歸
歹
歺
死
殳
段
殷
殸
殹
殺
殻
殿
毋
毌
母
每
毒
比
毕
毚
毛
毳
氏
氐
民
气
氣
水
氵
氶
氷
永
氺
氾
求
汝
汞
江
沃
沓
沙
沝
泉
法
波
泣
泥
注
泰
洛
洪
活
派
流
浦
浪
浮
淡
淮
清
渚
渠
湖
湯
滿
漸
火
灬
灭
灰
灵
灷
炅
炎
炏
炗
炙
炭
為
烈
烏
烝
焉
無
焦
焱
然
煞
熊
熏
燕
營
燮
爪
爫
爭
爯
爰
爱
爲
爵
父
爻
爽
爾
爿
片
牙
牚
牛
牜
牟
牢
牧
牪
牽
犀
犬
犭
犮
狂
狄
狊
独
狺
猋
猒
猪
献
獻
玄
率
玉
王
玟
玨
现
珎
班
現
琴
瑟
瑩
璠
瓜
瓦
甘
甚
生
産
用
甫
甬
田
由
甲
申
电
甶
男
甸
甹
画
甾
畀
界
畏
畐
留
畜
畟
畢
畧
畨
番
畫
異
畱
當
畺
畾
疊
疋
疌
疑
疒
疾
癶
癸
癹
登
發
白
百
皀
皃
的
皆
皇
皋
皐
皕
皮
皷
皿
盃
盆
盇
盈
益
盍
盎
监
盒
盖
盛
盡
監
盤
盧
目
直
相
盾
省
眇
眉
看
眔
眞
真
眷
眼
眾
着
睘
睪
睿
瞏
瞢
瞿
矍
矛
矞
矢
矣
知
矦
短
石
破
碎
磊
磨
示
礻
礼
祕
祟
祥
票
祭
禀
禁
禸
禹
禺
离
禽
禾
禿
秀
秃
秉
秋
科
秝
秦
移
稟
穀
穌
穴
究
穹
空
穿
突
窄
窒
立
竒
竜
竝
竟
章
童
端
竹
笑
笠
筆
等
答
箕
算
箴
節
篤
篭
米
粉
粛
粟
粤
粦
粲
糞
糸
糹
系
約
納
素
索
紫
累
細
絜
絫
絲
続
維
綿
編
縣
繁
繇
纍
纟
红
绪
缶
网
罒
罔
罕
罗
罙
罡
罢
罪
署
罷
羅
羊
羌
羍
美
羔
羕
羗
羞
羡
羣
群
義
羲
羸
羽
翁
翏
習
翕
翟
翠
翼
老
耂
考
者
耆
而
耎
耑
耒
耳
耴
耶
耷
聂
聊
聖
聚
聶
聿
肀
肃
肅
肉
肖
肙
肥
肩
肯
育
肴
胃
背
胡
胥
能
脊
脩
膚
臣
臤
臧
自
臬
臭
臯
臱
至
致
臺
臼
臽
臾
臿
舀
舂
舄
與
興
舉
舌
舍
舛
舜
舞
舟
般
艮
良
色
艸
艹
艾
芒
芔
芬
芮
花
芳
芺
芻
苔
苗
苟
若
苦
英
茶
茸
荅
草
荒
荣
荼
莆
莧
莫
莽
菆
菊
菐
華
萬
落
葉
著
葛
董
葵
蒙
蒦
蒼
蓋
蓬
蓺
蔑
蔡
蕉
蕭
薄
薛
薦
薰
藍
藏
藥
蘭
虍
虎
虐
虒
虔
處
虖
虗
虘
虚
虛
虜
虞
虫
虽
蚤
蚩
蜀
蜜
蟲
蠡
血
行
衍
衛
衣
衤
表
衮
衰
袁
袞
複
褭
褱
襄
襾
西
覀
要
覃
見
規
覓
覧
親
覽
见
角
解
言
訁
訇
計
詹
語
誩
論
諸
警
讠
读
谷
豆
豈
豊
豐
豕
豖
豙
象
豦
豩
豪
豸
貇
貝
貞
貟
負
貢
貧
貪
貫
責
貳
貴
買
費
賁
資
賈
賏
賓
賔
賛
賞
賢
賣
質
賴
贊
贝
贡
责
贯
贲
贵
赖
赞
赤
赦
走
越
足
路
蹇
身
躬
車
軍
軎
軟
輦
车
辛
辜
辟
辥
辰
辱
農
辵
辶
边
达
过
迎
近
连
迷
追
退
送
逆
逐
通
速
造
逢
連
逮
進
遀
遂
過
道
達
遣
適
遷
遺
邊
邑
邕
那
邦
邪
郎
部
郭
都
鄉
酉
酋
配
酓
釆
采
里
重
野
量
金
釒
錢
钅
長
镸
长
門
閃
閉
開
閏
閑
閒
間
閔
閵
閻
闌
门
间
闷
阅
阑
阜
阝
阿
降
陳
陵
隆
隊
隋
隡
隨
隱
隶
隹
隺
隻
隼
隽
难
雀
雁
集
雈
雋
雍
雐
雑
雔
雙
雚
雜
雝
離
難
雨
雩
雪
雲
零
雷
需
霍
霜
霝
霞
霸
靈
靑
青
非
靡
面
靣
革
韋
韦
韭
韯
韱
音
頁
頃
項
須
頗
頡
頻
顛
類
页
風
风
飛
飞
食
飠
養
館
饣
首
香
馬
馮
駦
马
骨
高
髟
鬥
鬯
鬲
鬼
魚
魯
鮮
鱼
鲁
鳥
鳳
鸟
鹵
鹿
麃
麗
麥
麦
麻
黃
黄
黍
黎
黑
黒
黨
黹
黽
黾
鼎
鼓
鼠
鼻
齊
齋
齐
齒
齿
龍
龙
龜
龟
龠
龰
龱
龴
龵
龶
龷
龸
龹
ꙁ
ꙗ
ꜧ
ꞓ
ꭒ

者
艹
️
，
？
￼
𐌰
𐌱
𐌲
𐌴
𐌹
𐌻
𐌼
𐌽
𐌿
𐍂
𐍃
𐍅
𐍆
𒀀
𒉺
𒊭
👩
📲
🚀
🜨
𠀁
𠀃
𠀆
𠀉
𠀎
𠀐
𠁁
𠁣
𠂆
𠂇
𠂈
𠂉
𠂊
𠂋
𠂎
𠂒
𠂔
𠂛
𠂡
𠂢
𠂤
𠂬
𠂭
𠂹
𠃊
𠃋
𠃌
𠃍
𠃎
𠃑
𠃓
𠃔
𠃜
𠄌
𠄎
𠄠
𠄢
𠆢
𠆥
𠇍
𠈌
𠌵
𠓜
𠔉
𠔥
𠔼
𠔽
𠔿
𠕀
𠕁
𠕋
𠘧
𠘨
𠙻
𠙼
𠚏
𠚒
𠚤
𠚪
𠣏
𠤎
𠤕
𠥓
𠦄
𠦑
𠦝
𠧒
𠧗
𠧪
𠩺
𠪚
𠫓
𠫔
𠫤
𠬛
𠬝
𠬞
𠬢
𠬤
𠬶
𠮛
𠮦
𠮷
𠯑
𠱠
𠳮
𠷎
𡈼
𡉀
𡉵
𡌥
𡍮
𡏳
𡕒
𡕩
𡕰
𡖅
𡗗
𡗜
𡘆
𡘤
𡧱
𡨄
𡩧
𡬠
𡭽
𡰣
𡰥
𡰪
𡰯
𡰱
𡷈
𡸁
𡿨
𡿩
𡿪
𡿺
𢀖
𢀛
𢀩
𢁙
𢆉
𢆰
𢆶
𢇁
𢇇
𢉖
𢌬
𢌿
𢏚
𢑑
𢑚
𢖻
𢙣
𢛳
𢦏
𢦒
𢧵
𢼄
𢾕
𣁋
𣄼
𣅀
𣅽
𣍘
𣎳
𣎵
𣏋
𣏼
𣗥
𣥂
𣥖
𣦵
𣦼
𣧄
𣪊
𣪠
𣬉
𣳾
𣶒
𤇾
𤊽
𤐫
𤓰
𤔔
𤕨
𤣩
𤰇
𤰔
𤰞
𤴓
𤴔
𤽄
𥁑
𥁕
𥃦
𥃩
𥃭
𥇡
𥑟
𥘅
𥘈
𥝢
𥫗
𥱡
𦈢
𦉪
𦉬
𦉼
𦍌
𦍒
𦎧
𦐇
𦓔
𦔮
𦘒
𦙃
𦚏
𦣝
𦣞
𦣻
𦥑
𦥔
𦥯
𦨉
𦭝
𦰩
𧆞
𧈧
𧘇
𧰨
𧴪
𧴮
𧵩
𧾷
𨸏
𨾴
𩙿
𩠐
𩫏
𩵋
𪉷
𪜀
𪟽
𪠲
𪩲
𫇦
𫔭
𫜸
𫝀
𫠣
𫠩
𫢉
𫥞
𫩏
𫩠
𫪡
𫲽
𫶧
𬀷
𬐘
𬗌
𬙙
𬛸
𬜯
𬟩
𬯁
𬴘
𬺻
𬼉
𬼖
𭀰
𭁈
𭁨
𭅰
𭑈
𭕄
𭗼
𭤨
𭥫
𭻾
𮅕
𮊿
𮍌
𮍏
𮓗
𮥼
𮧮
廾
𰀁
𰀄
𰀈
𰀉
𰀕
𰀠
𰀡
𰀢
𰀪
𰁜
𰃮
𰆊
𰆘
𰋙
𰕎
𰢴
𰧭
𰯲
00--
01--
02--
03--
04--
06--
07--
09--
37--
58--
60--
62--
66--
67--
69--
71--
72--
73--
74--
82--
85--
86--
877--
90--
93--
96--
a--
aar--
ab--
abe--
abk--
abo--
ac--
ach--
aco--
act--
activ--
ad--
ada--
ade--
admira--
adu--
ae--
af--
affai--
ag--
age--
ago--
agu--
ah--
ai--
air--
ak--
al--
ala--
ale--
alem--
alex--
alg--
ali--
all--
allo--
alo--
alt--
alter--
alu--
am--
ama--
ambit--
ame--
amha--
ami--
ammini--
amont--
an--
ana--
anarc--
and--
ane--
ang--
anne--
anno--
annua--
ano--
anon--
ans--
ant--
anti--
antro--
ao--
apa--
ape--
api--
apo--
app--
appar--
appoi--
appro--
apr--
apro--
aq--
aqu--
ar--
ara--
arche--
ard--
are--
arist--
arma--
arp--
ars--
art--
artic--
as--
ascen--
ash--
asia--
ast--
at--
ata--
ate--
ativ--
atlant--
atri--
au--
auc--
aug--
aus--
auto--
aux--
av--
ave--
avo--
ay--
ayi--
az--
b--
ba--
back--
bad--
bai--
bal--
ban--
bapt--
bar--
baro--
bas--
bat--
batra--
bau--
baut--
bay--
be--
beau--
bec--
bei--
bel--
ben--
ber--
bern--
bes--
bet--
bey--
bi--
bia--
bibliog--
bie--
bien--
bio--
bis--
bit--
bl--
bla--
bli--
blo--
bo--
bob--
boli--
bom--
bon--
bor--
borna--
bos--
bot--
bou--
br--
bra--
brain--
bre--
brig--
brit--
bro--
brou--
brow--
bru--
bu--
bue--
bug--
bunde--
burg--
burgund--
but--
by--
bœ--
c--
ca--
cai--
cal--
cali--
cam--
can--
cana--
cap--
car--
care--
carolin--
cart--
cas--
casa--
cat--
catha--
cava--
cayi--
cc--
ce--
cen--
cer--
ceres--
ces--
ch--
cha--
chal--
cham--
chan--
charle--
chau--
chava--
che--
chena--
chent--
chi--
cho--
chr--
chron--
chry--
chu--
chy--
ci--
cia--
cicl--
cifi--
cime--
cin--
circu--
cit--
ciu--
cl--
cla--
cle--
clla--
cllassifica--
clo--
clus--
cn--
co--
codi--
cog--
col--
cola--
cole--
com--
coma--
come--
compl--
con--
concll--
condu--
confe--
confu--
conne--
conse--
const--
constru--
contempl--
coord--
cor--
corri--
cos--
coslova--
cosmo--
cot--
cou--
cour--
cr--
cra--
cre--
creye--
cri--
cro--
crono--
cru--
cry--
ct--
cto--
cu--
cue--
cul--
cun--
cut--
cy--
cyber--
cze--
cœ--
d--
da--
dago--
dal--
dan--
dar--
dau--
de--
del--
dela--
den--
des--
dev--
deve--
di--
dia--
dica--
dict--
die--
diffe--
dig--
digou--
dilu--
din--
dina--
dio--
diplo--
dir--
dis--
discu--
dissert--
dissi--
distin--
dj--
dja--
dje--
dl--
do--
doc--
doku--
dom--
dome--
don--
dor--
down--
dr--
dra--
dre--
dro--
dru--
du--
duc--
dur--
dy--
dynam--
dza--
dzo--
e--
ec--
eco--
ed--
ef--
eg--
egz--
eh--
ei--
el--
ele--
em--
eme--
emo--
emp--
empa--
empo--
en--
ena--
encl--
encu--
end--
ene--
enfo--
enga--
engia--
enne--
enrou--
ens--
ente--
entre--
env--
eo--
ep--
er--
era--
ero--
eropa--
errat--
es--
esca--
est--
estab--
et--
ethnocra--
etno--
eu--
euro--
eva--
evi--
ex--
exami--
excu--
exemp--
exin--
expe--
expl--
explica--
explo--
expo--
extra--
f--
fa--
fabr--
fac--
facili--
fahr--
fai--
fam--
fantast--
far--
fasc--
fat--
fau--
fe--
fed--
fen--
fer--
ff--
fi--
fict--
fil--
file--
filip--
fin--
fio--
fis--
fla--
fle--
fll--
flla--
flo--
flor--
flu--
fm--
fo--
folclor--
fon--
for--
fore--
fos--
foto--
fou--
fr--
fra--
fre--
free--
fribu--
fric--
frie--
fu--
fun--
fur--
g--
ga--
gag--
gal--
gam--
gand--
gaut--
ge--
gen--
geneva--
geo--
ger--
ges--
gf--
gi--
giova--
gisla--
giu--
gl--
gla--
gle--
gli--
glla--
glo--
glor--
gna--
gne--
go--
gogue--
gon--
gos--
gou--
goua--
gra--
grand--
graphi--
gre--
grenou--
gri--
gro--
gru--
gu--
gua--
gue--
gui--
guill--
gus--
gutt--
gy--
gz--
gze--
gœ--
h--
ha--
hab--
hai--
hal--
han--
hard--
harp--
has--
hay--
he--
hed--
hel--
hen--
her--
het--
hey--
hi--
hidro--
hip--
his--
historio--
hl--
ho--
horte--
how--
hr--
hu--
humori--
hy--
hyper--
i--
ia--
ic--
icon--
id--
ide--
identif--
ie--
ig--
ign--
ik--
il--
ili--
ill--
illus--
ilus--
im--
imig--
imita--
imp--
impe--
impres--
in--
ina--
increa--
inn--
inner--
ino--
inorga--
insc--
inspi--
int--
inte--
inter--
intro--
inve--
io--
ip--
ir--
is--
ist--
it--
ita--
ite--
iu--
iv--
j--
ja--
jac--
jas--
je--
jena--
ji--
jo--
jon--
jor--
jou--
ju--
jura--
juri--
k--
ka--
kab--
kala--
kar--
karam--
kau--
ke--
khu--
ki--
kl--
klein--
km--
kn--
ko--
kollo--
kompl--
kons--
kor--
kou--
kouti--
kra--
kri--
kt--
ku--
kw--
ky--
l--
la--
lac--
lag--
lan--
larmu--
las--
lat--
lau--
laut--
lay--
lc--
ld--
le--
lec--
lectri--
leg--
leh--
len--
les--
let--
leu--
leva--
lexico--
li--
lie--
liga--
ligi--
ligu--
lim--
limno--
lin--
lingoui--
lio--
lir--
lis--
ll--
lli--
lo--
loca--
lod--
log--
lon--
long--
lop--
lor--
los--
lou--
lp--
ls--
lt--
lu--
luc--
lue--
lus--
lv--
ly--
lye--
lyi--
lyo--
m--
ma--
mac--
mace--
mag--
mai--
main--
maj--
mal--
mamm--
man--
manci--
manife--
mante--
manu--
map--
mar--
mari--
mas--
master--
mathema--
mau--
max--
may--
maz--
maza--
mc--
mdc--
me--
med--
meer--
meid--
men--
ment--
mer--
mes--
met--
meta--
meu--
mey--
mi--
mil--
min--
mini--
minus--
mio--
mis--
mit--
ml--
mo--
mobi--
moc--
mod--
moda--
mold--
moli--
mon--
mons--
mont--
monte--
mor--
mora--
morbi--
morf--
mori--
mos--
mot--
mou--
mp--
mu--
mue--
mul--
multi--
mur--
muta--
mutua--
my--
mytho--
n--
na--
nam--
nan--
nar--
nas--
nc--
nd--
ne--
nes--
new--
nez--
ng--
nge--
ni--
nic--
nie--
nin--
nis--
nn--
no--
nobilia--
nom--
nomina--
non--
nor--
nos--
not--
nota--
nou--
nova--
ns--
nt--
nte--
nu--
nutri--
ny--
nœ--
o--
oc--
occlus--
od--
oda--
off--
og--
oi--
oka--
ol--
om--
on--
ont--
op--
opo--
opt--
or--
ora--
orb--
ord--
ore--
org--
orij--
orna--
oro--
ort--
os--
ost--
ou--
out--
over--
p--
pa--
pad--
pai--
pal--
palat--
palog--
pam--
pan--
panou--
pap--
par--
para--
pas--
patho--
patrio--
pau--
pe--
pen--
pend--
per--
perru--
pey--
pha--
phas--
pho--
phono--
phy--
physi--
pi--
pia--
pic--
pie--
pied--
pin--
pir--
pis--
pl--
pla--
plan--
plo--
plu--
po--
pod--
poe--
poi--
pol--
poly--
pon--
popol--
popu--
por--
post--
pot--
pou--
pour--
pp--
pra--
pre--
pri--
pro--
pros--
prote--
proto--
ps--
psycho--
pt--
pu--
pue--
puis--
pur--
purga--
px--
pya--
pyra--
q--
qua--
que--
qui--
quo--
quoti--
r--
ra--
racc--
rah--
rai--
ral--
ran--
rap--
rar--
rat--
ratif--
ray--
rba--
rbi--
rc--
rce--
rco--
rcu--
rcuri--
rd--
rde--
re--
rec--
red--
regne--
rei--
remi--
rempl--
ren--
reno--
repre--
repro--
requi--
res--
respe--
ret--
reto--
reve--
rg--
rge--
rgo--
rhe--
rhein--
ri--
ria--
ric--
rim--
rin--
rio--
ris--
rit--
ritua--
riu--
rj--
rm--
rman--
rme--
rmo--
rn--
rna--
rneyo--
rno--
ro--
roma--
ros--
rou--
rp--
rpe--
rpin--
rra--
rre--
rri--
rro--
rs--
rsa--
rsi--
rsist--
rt--
rte--
rtis--
rtist--
ru--
rubr--
rus--
rva--
rve--
rwa--
ry--
s--
sa--
sac--
sai--
sal--
sala--
salo--
sam--
san--
sans--
sar--
sara--
sat--
satir--
sau--
sauve--
sc--
sca--
scand--
sce--
sch--
sco--
scrit--
scu--
sculp--
sd--
se--
seign--
selu--
sem--
sen--
ser--
ses--
seu--
sey--
sh--
sha--
shala--
she--
sho--
show--
si--
sici--
sie--
sil--
sim--
simbo--
simpl--
simu--
sin--
sio--
sir--
sis--
sit--
sk--
sku--
sky--
sl--
sla--
slova--
sm--
so--
sol--
solida--
som--
son--
sona--
sonder--
sor--
sos--
sot--
sote--
sou--
souff--
spa--
spe--
spi--
spl--
sporo--
sprach--
sr--
ss--
ssa--
sse--
ssi--
st--
sta--
ste--
sti--
sto--
stra--
stric--
stru--
stu--
sty--
su--
sub--
suc--
sud--
sui--
sul--
sum--
sun--
sur--
sus--
sv--
sviz--
sw--
swiss--
sy--
syria--
t--
ta--
tact--
talema--
talurgi--
tan--
tar--
tas--
tau--
tch--
te--
teau--
tel--
tele--
tempo--
ten--
ter--
tes--
teu--
tey--
th--
the--
thi--
tho--
ti--
tim--
time--
tin--
tio--
tir--
tis--
titiv--
tl--
tno--
to--
toc--
todo--
tom--
ton--
top--
toponom--
tor--
tos--
tou--
tour--
tr--
tra--
tradu--
tradui--
tranc--
tranqui--
trans--
tre--
trem--
tren--
tri--
tro--
tru--
ts--
tsa--
tsamp--
tse--
tt--
tu--
tue--
turbo--
turd--
tv--
tw--
twe--
ty--
tœ--
u--
ue--
ug--
ult--
um--
un--
unani--
uni--
unifi--
unis--
up--
ur--
urs--
us--
usa--
ut--
ux--
v--
va--
val--
vala--
van--
var--
vare--
vau--
ve--
vela--
velop--
ven--
ver--
verna--
vers--
ves--
vese--
veu--
vey--
vi--
via--
vic--
vice--
vie--
view--
viga--
vigno--
viki--
villa--
vin--
viru--
vis--
visibi--
vit--
vita--
viœ--
vla--
vo--
vol--
volks--
vor--
vou--
vouar--
vra--
vreges--
vu--
vua--
vuis--
w--
wa--
way--
we--
web--
wen--
whe--
wi--
wiki--
win--
wo--
wu--
wy--
x--
xa--
xe--
xi--
xo--
xplo--
xpo--
y--
ya--
ye--
yo--
yougos--
yu--
z--
za--
ze--
zen--
zh--
zi--
zie--
zo--
zu--
œ--
ɔ--
ɪ--
δ--
θ--
λ--
μ--
ν--
ο--
π--
τ--
φ--
а--
бюр--
вик--
ев--
к--
н--
о--
п--
проч--
р--
ру--
с--
ا--
ম--
--0
--00
--06
--1
--10
--19
--2
--25
--27
--3
--4
--5
--6
--7
--8
--828
--9
--97
--a
--aa
--able
--ac
--acion
--ad
--adi
--ado
--ae
--ag
--age
--aging
--agna
--ah
--ai
--aie
--aient
--aires
--ak
--al
--ala
--ale
--all
--ally
--alp
--als
--alus
--am
--ament
--an
--ana
--and
--ani
--ano
--ans
--ant
--ants
--ao
--ar
--ard
--ari
--art
--ary
--as
--at
--ati
--atures
--au
--aux
--axe
--ay
--az
--azzo
--b
--ba
--ban
--bbia
--be
--bert
--bes
--bi
--bilita
--bla
--ble
--blement
--blika
--blo
--bo
--bot
--bra
--bru
--bs
--bu
--burg
--bus
--bwe
--c
--ca
--cal
--cate
--ce
--ceae
--ces
--ch
--cha
--chaft
--chaftlichen
--che
--chen
--chi
--chia
--cho
--cht
--ci
--cia
--cie
--cio
--cion
--cions
--ck
--cks
--co
--cs
--ct
--ction
--ctive
--cum
--cus
--cy
--czyn
--d
--da
--dae
--day
--de
--den
--des
--dette
--di
--dia
--dier
--din
--diont
--djo
--do
--doc
--don
--dos
--dots
--dro
--ds
--du
--dy
--dzo
--e
--ea
--eau
--ec
--eca
--ed
--eda
--ee
--eg
--ei
--el
--ela
--ella
--elle
--ello
--elmo
--ely
--em
--ement
--en
--ena
--ence
--encs
--ens
--ent
--ents
--enza
--eois
--ep
--er
--era
--ere
--erie
--ern
--erna
--ers
--es
--est
--et
--ets
--etti
--eu
--eum
--eur
--eurs
--eux
--ev
--ey
--ez
--f
--fa
--fe
--fey
--ff
--fi
--fo
--fort
--ft
--ful
--g
--ga
--gal
--gar
--ge
--gen
--ger
--ges
--gg
--gger
--ggi
--gh
--ght
--gi
--gia
--gida
--gie
--gin
--giox
--gis
--glossa
--gn
--gna
--gne
--gni
--gnie
--gno
--gnu
--gnua
--gny
--go
--gori
--grafo
--gs
--gton
--gu
--gue
--guts
--gy
--h
--ha
--han
--haus
--hc
--he
--heit
--hes
--hi
--hia
--hing
--hip
--hn
--ho
--hof
--hon
--horn
--host
--hs
--ht
--http
--https
--hu
--hy
--i
--ia
--iacum
--iae
--ial
--iale
--ian
--iana
--iat
--ibility
--ibla
--ic
--ica
--iche
--ichon
--icht
--ici
--icio
--ick
--ico
--icos
--ics
--icum
--id
--idae
--ie
--ien
--iens
--ier
--ies
--iet
--ieu
--ieux
--if
--ifia
--ifiar
--ifie
--ifs
--ify
--ig
--iga
--ige
--igna
--ignant
--igne
--igo
--ii
--ik
--ika
--il
--ild
--ille
--ils
--ily
--ilye
--im
--ime
--in
--ina
--ine
--ing
--ingi
--ington
--ini
--injo
--ino
--ins
--io
--ion
--ions
--ior
--iors
--iot
--iou
--ious
--ique
--iques
--ir
--ire
--ires
--iro
--is
--isa
--isacion
--isar
--isation
--isch
--ische
--ise
--isi
--isk
--isme
--ismo
--isse
--ist
--ista
--iste
--istes
--istik
--isto
--istos
--it
--ita
--ite
--ities
--ito
--itude
--itule
--ity
--iu
--ium
--ius
--iv
--iva
--ivas
--ive
--ivo
--ix
--iza
--ization
--ize
--ized
--j
--ja
--je
--ji
--jo
--jos
--jules
--k
--ka
--kai
--ke
--ken
--ker
--kes
--ki
--ko
--kommen
--kon
--ks
--kt
--l
--la
--land
--laz
--ld
--lde
--le
--lent
--ler
--les
--let
--ley
--li
--lia
--lic
--lichen
--lie
--lier
--lin
--lis
--lisa
--lita
--ll
--lla
--llas
--lle
--llement
--llet
--lli
--llo
--llon
--lly
--lo
--logi
--logia
--lom
--lon
--lor
--los
--loue
--loz
--ls
--lt
--lu
--lveolara
--ly
--lya
--lye
--lyi
--lyo
--lyon
--m
--ma
--magno
--man
--mat
--mb
--mba
--me
--ment
--ments
--mes
--mi
--mic
--mie
--mina
--mm
--mme
--mo
--mon
--mont
--mos
--mpe
--ms
--mu
--mus
--my
--n
--na
--nada
--nae
--nais
--nant
--nas
--nay
--nbo
--nc
--nca
--nce
--nces
--nches
--nchesen
--nci
--ncs
--ncy
--nd
--nda
--nde
--ndes
--ndi
--ndia
--ndie
--ndj
--ndo
--ndre
--nds
--ndu
--ne
--nea
--nel
--nelle
--nement
--nen
--ner
--nes
--net
--nex
--ney
--nez
--ng
--nga
--nge
--nges
--ngs
--ngy
--ni
--nia
--nie
--nier
--nimo
--nir
--nismo
--nista
--nita
--nite
--njo
--nn
--nna
--nne
--nner
--no
--nois
--non
--nons
--nor
--nos
--noue
--ns
--nsa
--nse
--nshe
--nsif
--nsis
--nsium
--nsiva
--nso
--nt
--nta
--nte
--ntes
--ntin
--nto
--ntro
--nts
--ntura
--nu
--nua
--num
--nus
--ny
--nya
--nye
--nyi
--nz
--nza
--nze
--o
--oa
--oba
--oche
--ock
--od
--ody
--oe
--ografica
--ografo
--oi
--ois
--oises
--ok
--oka
--ol
--ola
--oli
--olia
--olie
--olito
--olo
--om
--ome
--omia
--on
--ona
--one
--onie
--onne
--onniers
--ons
--ont
--or
--ore
--orre
--ors
--orum
--os
--osa
--ose
--ost
--ot
--otes
--ots
--ou
--oud
--oue
--oul
--ous
--ouve
--oux
--ov
--ow
--oy
--oye
--oz
--p
--pa
--pan
--par
--pe
--pes
--phic
--pi
--pie
--pla
--po
--port
--ppe
--pre
--ps
--pu
--q
--qu
--que
--ques
--quote
--r
--ra
--rad
--ram
--ran
--rands
--rar
--rat
--rc
--rce
--rd
--rda
--rde
--rdi
--rdoue
--re
--rel
--rem
--res
--rez
--rg
--ri
--ria
--rica
--rice
--rie
--ries
--rin
--ring
--rio
--ris
--rium
--rius
--rke
--rn
--rna
--rne
--rno
--ro
--ron
--ront
--ros
--rot
--rots
--rr
--rra
--rre
--rro
--rs
--rse
--rt
--rta
--rtar
--rte
--rted
--rti
--rts
--ru
--rum
--rve
--rvi
--ry
--s
--sa
--sau
--sbo
--se
--see
--sen
--sent
--ses
--sey
--sh
--shi
--si
--sia
--sie
--sif
--sk
--sme
--smo
--so
--son
--sont
--ss
--ssa
--sse
--ssent
--ssi
--sso
--st
--sta
--ste
--stic
--sto
--stos
--su
--sy
--t
--ta
--tal
--tan
--tana
--tant
--tar
--tat
--te
--ted
--tein
--tel
--ten
--ter
--tes
--th
--ti
--tic
--tica
--tici
--tie
--tif
--tifs
--tik
--ting
--tion
--tista
--tius
--tiva
--tives
--tivo
--tle
--to
--ton
--tor
--tory
--tos
--tosa
--town
--tr
--tra
--tre
--trice
--trices
--tro
--try
--ts
--tt
--tta
--ttaz
--tte
--ttes
--tti
--tto
--ttre
--tu
--tum
--tung
--tura
--tus
--ty
--tz
--u
--ua
--ual
--uay
--uc
--ucca
--ud
--uda
--ude
--udi
--udo
--ue
--uel
--uent
--uer
--ues
--ui
--uie
--uil
--uille
--uit
--ul
--ula
--ule
--ulo
--ult
--um
--uma
--un
--una
--une
--ung
--ungen
--uo
--up
--upe
--ur
--ura
--ure
--urer
--ures
--urg
--urn
--urra
--urre
--urs
--us
--usa
--use
--usi
--ut
--uta
--ute
--utra
--uty
--ux
--uy
--uzione
--v
--va
--varianta
--vas
--ve
--ved
--vi
--vie
--vo
--vre
--vry
--vu
--vy
--w
--wan
--ware
--way
--web
--wn
--x
--y
--ya
--yar
--yat
--ye
--yer
--yes
--yi
--ying
--yl
--yn
--yo
--yon
--ys
--yu
--z
--za
--zan
--zbo
--ze
--zel
--zell
--zer
--zett
--zi
--zia
--zio
--zione
--zioni
--zo
--zt
--zza
--œ
--œr
--œx
--α
--η
--ι
--ν
--ο
--ς
--υ
--а
--в
--е
--и
--ии
--к
--лып
--о
--р
--ская
--у
--ю
--я
--і
--ة
--ط
