!
"
#
##0
##1
##10
##11
##12
##13
##14
##15
##16
##17
##18
##19
##2
##20
##21
##22
##23
##24
##25
##26
##27
##28
##29
##3
##30
##31
##32
##33
##34
##35
##36
##37
##38
##39
##4
##40
##41
##42
##43
##44
##45
##46
##47
##48
##49
##5
##50
##51
##52
##53
##54
##55
##56
##57
##58
##59
##6
##60
##61
##62
##63
##64
##65
##66
##67
##68
##69
##7
##70
##71
##72
##73
##74
##75
##76
##77
##78
##79
##8
##80
##81
##82
##83
##84
##85
##86
##87
##88
##89
##9
##90
##91
##92
##93
##94
##95
##96
##97
##98
##99
$
%
&
'
(
)
*
+
,
-
.
/
0
00
000
0000
00000
000000
00001
00008
00009
0001
0002
00034
00035
0005
0006
00061
00064
00065
0007
00073
0008
00085
0009
001
0010
0011
0012
0013
0017
0018
00180
0019
002
0020
00200
00202
0027
003
00302
0031
0037
0038
004
005
005500
0058
006
0060
0061
007
0074
0078
008
009
01
010
0100
0101
0102
0103
0104
0108
0109
011
0110
0111
0112
0114
0115
0116
0118
0119
012
0124
0125
0128
013
0135
014
015
016
017
0170
0176
018
019
02
020
0200
0207
0212
0214
03
030
0302
0303
0309
031
032
04
0401
05
06
064
07
08
09
1
10
100
1000
10000
100000
1001
1003
1009
101
1010
101325
1016
102
1020
1029
103
1030
1032
1039
104
1040
1049
105
1050
1054
1055
1055055
106
1060
1065
1067
107
1070
108
1080
10800
1085
109
1090
1093
1099
11
110
1100
1101
1106
111
1110
112
1120
1124
1128
1129
113
1130
114
1140
1143
1145
115
1150
116
1160
117
1170
118
1180
1187
119
1190
12
120
1200
121
1210
1219
122
1220
1227
123
1230
1234
124
1240
1241
125
1250
126
1260
127
1270
1271
1276
1279
128
1280
129
1290
13
130
1300
1307
131
1310
1319
132
1320
1323
1326
1328
1329
133
1330
134
1340
1342
135
1350
1352
136
1360
1368
137
1370
1372
138
1380
139
1390
1392
1398
14
140
1400
1402
1405
1406
141
1410
142
1420
1422
1429
143
1430
1431
1432
1435
1439
144
1440
1445
1449
145
1450
1453
1457
1458
146
1460
1464
1469
147
1470
1476
148
1480
149
1490
1492
1499
15
150
1500
1501
151
1510
152
1520
1521
1524
153
1530
1537
154
1540
1549
155
1550
1555
1559
156
1560
157
1570
1572
158
1580
1582
1588
159
1590
1591
15919
15924
16
160
1600
1605
1609
161
1610
1611
162
1620
1621
1623
1627
163
1630
1638
164
1640
1643
1644
1645
1646
1649
165
1650
1652
166
1660
1661
1662
1664
167
1670
1672
1676
168
1680
1681
1683
169
1690
17
170
1700
171
1710
1715
172
1720
1727
1728
1729
173
1730
1735
174
1740
175
1750
176
1760
1769
177
1770
1776
178
1780
1789
179
1790
1795
1799
18
180
1800
1801
1802
1809
181
1810
1813
1819
182
1820
1823
1825
1829
183
1830
1831
1832
1834
1839
184
1840
1841
1842
1843
1844
1845
1846
1847
1848
1849
185
1850
1851
1852
1853
1854
1856
1857
1858
1859
186
1860
1861
1862
1863
1864
1865
1866
1867
1868
1869
187
1870
1871
1872
1873
1875
1877
1878
1879
188
1880
1881
1883
1884
1885
1887
1889
189
1890
1893
1894
1895
1897
1898
1899
19
190
1900
1901
1902
1903
1904
1905
1906
1907
1908
1909
191
1910
1911
1912
1913
1914
1915
1916
1917
1918
1919
192
1920
1921
1922
1923
1924
1926
1928
1929
193
1930
1931
1932
1933
1934
1935
1936
1937
1938
1939
194
1940
1941
1942
1943
1944
1945
1946
1947
1948
1949
195
1950
1951
1952
1953
1954
1955
1956
1957
1958
1959
196
1960
1961
1962
1963
1964
1965
1966
1967
1968
1969
197
1970
1971
1972
1973
1974
1975
1976
1977
1978
1979
198
1980
1981
1982
1983
1984
1985
1986
1987
1988
1989
199
1990
1991
1992
1993
1994
1995
1996
1997
1998
1999
2
20
200
2000
2001
2002
2003
2004
2005
2006
2007
2008
2009
201
2010
2011
2012
2013
2014
2015
2016
2017
2018
20181031
2019
202
2020
2021
2022
2026
203
204
205
206
207
208
209
21
210
2100
211
212
213
214
215
216
217
218
219
22
220
221
222
223
224
225
226
227
228
229
23
230
231
232
233
234
235
236
237
238
239
24
240
241
242
243
244
245
246
247
248
249
25
250
2500
2501
251
252
253
254
255
256
257
258
259
26
260
262
263
264
265
266
267
268
269
27
270
273
275
276
279
28
280
282
283
288
289
29
290
292
296
298
299
3
30
300
3000
3001
301
302
303
304
3048
305
309
31
310
310890
315
31557600
31557600000000000
316
31635
3166
316846592
32
320
321
325
33
330
334
336
34
340
344
35
350
355
3558179483314004
356
358
36
360
3600
3602
368
37
370
371
38
380
381
39
390
399
4
40
400
4000
4001
41
410
4184
4184000
4184000000
419
42
420
4201
4217
43
430
432
44
440
45
450
4501
46
460
47
470
47487597
479
48
480
483
49
490
495
498
499
5
50
500
5000
5001
51
510
52
520
53
530
533
539
54
540
55
550
5500
551
555
557
559
56
560
5601
57
570
575
58
580
589
58987294928
59
590
591
6
60
600
6001
601
602176487
604
606
607
61
610
618
62
620
625
626
627
63
630
639
64
640
649
65
650
655
66
660
668
67
670
68
680
686
689
69
690
699
7
70
700
701
705
709
7098
71
710
711
716
72
720
7201
725
727
728
729
73
730
735
74
740
742
75
750
752
76
760
762
768
77
770
772
779
78
780
785411784
787
79
790
791
8
80
800
80592
80665
81
810
813
82
820
8200
827
83
830
8316846592
84
840
847
85
850
85262
858
86
860
8601
87
870
88
880
885
889
89
890
891
897
9
90
900
9000
907
909
91
910
914
919
92
920
925
926
927
928
93
930
931
933
935
939
94
940
943
944
945
946
95
950
955
959
96
960
964
965
97
970
972
975
978
979
98
980
985
99
990
996
997
999
:
;
<
=
>
?
@
\
^
_
`
a
aa
aaa
aab
aac
aae
aaf
ab
aba
abbr
abbreviate
abbreviated
abbreviation
abbreviations
abc
abe
abf
abiko
abkai
abkhazia
abkhazian
able
ablon
abnaki
aboriginal
abort
about
above
abovecell
abovestyle
abraham
abs
absent
absolute
absvalue
abu
ac
acc
acceleration
accept
acceptable
acceptablecount
acceptableinstanceof
accepted
accepts
access
accessdate
accessed
accessibility
according
account
acd
acela
acf
achieve
acht
acre
across
action
actual
actually
acute
ad
ada
add
addcat
addclass
added
adding
additem
addition
additional
addnamed
addnewline
addpositional
address
addrow
adds
addsuffix
addtablerow
addunitlink
adeline
adj
adjacent
adjectival
adjust
adjusted
adlm
adm
admin
administrative
adolf
advanced
ae
aegean
af
aff
afghanistan
africa
african
after
ag
again
agape
agapo
age
agency
aghb
agi
ago
agta
aguila
ah
ahom
ai
aiatsis
aid
aik
aincrad
ainu
aircraft
airdate
airport
aiu
aizi
aiŋ
aja
aji
ak
aka
akb
akita
al
ala
alabama
alaska
albania
albanian
albany
alberta
alcl
alemannic
aleut
alexander
alexandre
alfred
algeria
algerian
ali
alias
aliases
aliaseslist
aliasesp
aliasesq
align
aligned
alignment
alive
all
allcat
allen
allk
allnames
allow
allowed
allows
alnum
alo
alone
along
alpha
alphabet
already
also
alt
alta
altai
alternate
alternative
alternatively
alternativemap
although
altnames
alttype
altvalue
alu
always
am
ama
amami
amazon
ambiguous
ambox
america
american
ami
among
amount
amour
amsterdam
amtrak
amusphere
amuzgo
an
ana
analysis
analyze
anastasius
ancash
ancestor
ancestral
anchor
anchors
ancient
and
anderson
andorra
andre
andrew
ang
angal
angeles
angle
anglo
angola
anguilla
anhui
animal
anna
anne
annum
another
answer
anthem
antigua
antilles
antonio
any
anylang
anything
anywhere
ao
aomori
apa
apache
api
apo
appear
appearance
appears
append
appended
appending
applicable
applied
applies
apply
appropriate
ar
ara
arab
arabia
arabian
arabic
aramaic
arc
arch
architect
architectural
archive
archived
archivedate
archiveis
archives
archiveurl
are
area
arg
argentina
argindex
argkeys
argnumber
args
argscfg
argscount
argsi
argsk
argskey
argstable
argsv
argtables
argument
arguments
ari
arial
arizona
arj
arkansas
armenia
armenian
armi
armn
arms
aromanian
around
arr
array
arrays
arrow
arrows
arthur
article
articles
artillery
artsakh
aruba
arxiv
as
ascension
ascii
ashe
asia
asin
asintld
ask
asmat
asp
assembleoutput
assert
assign
assigned
associated
association
assume
ast
asterisk
asu
at
ata
atlanta
atlantic
atlas
atm
atmosphere
atom
atta
attempt
attention
attr
attribs
attribute
attributes
attribution
attrs
au
auckland
augma
august
augustus
auk
australia
australian
austrian
author
authorformat
authority
authorlink
authorlist
authormask
authors
authorseparator
auto
automated
automatic
automatically
autumn
auŋ
av
ava
available
ave
avenue
avestan
avoid
avst
awa
awyu
aymara
ayta
az
azerbaijan
azerbaijani
aŋ
aʔ
b
ba
baa
bab
babelstone
bach
back
background
backgroundcolor
backtranslate
backwards
bad
badge
badges
bae
baf
baga
bah
bahamas
bahasa
bahrain
bai
bainouk
baka
baker
bakersfield
bal
baldwin
bali
balinese
balkan
balnibarbi
balochi
baltimore
bamu
bamum
ban
band
banda
bangladesh
banknote
banknotes
bantu
bar
barack
barbados
barbuda
bare
bareli
bari
baroque
barrel
barrels
basa
base
based
basestyle
basic
basionym
basionymid
basionyms
basma
basque
bass
bassa
batak
bati
batk
battle
battles
bau
bay
baz
bb
bba
bbc
bbe
bbf
bbl
bc
bca
bcd
bce
bcp
bd
be
beach
beaver
because
become
becomes
been
before
begin
begins
behavior
behaviour
bei
beijing
being
belarus
belarusian
belgium
belize
bell
belongs
below
belowstyle
ben
benedictus
beng
bengali
benin
benito
benjamin
benton
ber
berawan
berber
berkeley
berlin
bernard
best
bestchange
bestrank
beststart
bet
beta
better
between
bf
bfa
bff
bg
bgcolor
bgpad
bh
bhasa
bhf
bhks
bhoti
bhp
bhutan
bi
bia
biao
bias
bibcode
bibliographic
bicycle
bidayuh
bie
bieng
big
bigseal
bih
bihari
bikol
bilibili
billion
bin
binary
bing
birth
bishop
bissau
bit
bits
biu
bj
black
blacklist
blank
blefuscu
block
blocks
blue
bm
bms
bn
bo
board
bodo
body
bodyclass
bodyrow
bodywidth
bokma
bold
bolivia
bolivian
bom
bon
bonaire
bonaparte
bong
bonifacius
bontok
book
books
booktitle
boolean
boone
bopo
bopomofo
border
borderwidthnum
boro
borough
bosnia
bosnian
boston
bot
both
bots
botswana
bottom
box
boxargs
boxes
boxtable
boxtype
bozo
bp
bpy
bq
br
bracket
bracketclose
bracketopen
brackets
brah
brai
branch
brazil
brazilian
break
breaks
breton
britain
british
broad
broadest
broadly
brobdingnag
broken
bronze
brown
browser
bru
brunei
brunel
brunswick
bryan
bs
bscvt
bsh
bsicons
bsrow
bssplit
bssrws
bsto
btu
bu
bua
buchanan
buffalo
buffer
bug
bugi
buginese
bugzilla
buhd
buhid
build
builder
building
buildwikilink
built
builtin
bulgaria
bulgarian
bulleted
bundled
bunu
buo
buoi
buong
buren
buriat
burkina
burlington
burmese
burundi
buryat
bus
bushel
bushman
but
butler
button
buyang
bwa
bwi
by
byr
byte
c
ca
cabo
cache
cacl
caco
cadastre
caelestinus
caicos
cakm
cal
calculate
calculated
caldwell
caledonia
calendar
calendarmodel
calhoun
california
call
called
caller
calling
callistus
callparserfunction
calls
calorie
calories
camden
cameroon
campaign
campaignbox
campbell
can
canada
canadian
canberra
cannot
canonicalname
cans
cao
cap
cape
capita
capital
caption
captionstyle
capture
captured
captures
car
cardinal
cari
carian
caribbean
caribe
carl
carolina
carroll
carter
carthago
cartography
cas
cascade
cascades
case
cases
cash
cass
casualties
cat
categories
categorisation
categorise
categorization
categorize
categorized
category
catnocountry
cats
cattitle
caucasian
cause
causes
cb
cbc
cbk
cc
cca
ccd
ccr
cd
cda
cdata
cde
cdo
ce
cea
ceb
cel
cell
cellparams
cellprops
cells
cellwidth
celsius
celtic
census
cent
center
centered
centimeter
centimetre
centimetres
central
centre
cents
century
ceo
certain
cf
cfa
cff
cfg
cg
ch
cha
chad
chain
chakma
cham
champaign
change
changed
changes
chapter
chapterlink
chapterurl
chapterurlorigin
char
character
characters
charat
chargs
charles
charlotte
chatino
chaturanga
che
check
checkaliases
checkarchives
checkarg
checked
checkforstring
checking
checkisbn
checknum
checknumandaddsuffix
checks
checktype
checktypemulti
checkvalue
chemical
chengdu
cher
cherokee
chess
chester
cheyenne
chhi
chi
chia
chiang
chiba
chicago
chie
chief
chieng
chieu
chikudun
child
chile
chin
china
chinantec
chinese
chinesische
ching
chio
chiong
chippewa
chiu
chn
cho
choctaw
chong
chongqing
chontal
choose
chosen
choso
chr
christian
christmas
christopher
chu
chua
chung
chuo
church
ci
cia
cid
cie
cin
cincinnati
cing
cio
ciong
circa
circumflex
circumstances
citation
citationclass
citations
cite
cited
citeparams
citeq
citeref
citeweb
cities
city
ciu
civilian
cjk
cl
claim
claimcommands
claims
claimspropertyid
clair
clark
clarke
class
classes
classic
classical
classification
claudius
clay
clayderman
clean
cleanisbn
cleanup
clear
clemens
cleveland
click
clicking
clinton
clm
clo
clock
clone
close
closed
closedisp
closest
closing
cm
cmbox
cmt
cn
co
coast
coastal
coat
coatla
coauthor
coauthors
cocos
code
codepoint
codepoints
codepointtoscript
codes
codetype
coeur
coin
coins
col
colclass
collapse
collapsed
collapsible
collapsibles
colle
collect
collection
collective
collectivity
college
colombia
colon
color
colorado
colors
colour
cols
colspan
colspans
colspansi
colstyle
columbia
columbus
column
columns
com
comanche
combatant
combatants
combination
combinations
combine
combined
combining
combo
combos
come
comic
comma
command
commander
commanders
commas
comment
comments
common
commonly
commons
commonsmedia
commuter
comorian
comoros
comp
company
compare
compatibility
compatible
compile
complete
complex
complicated
composite
compound
compresssparsearray
compute
con
concat
concatenated
concatenation
condition
conditions
conf
conference
conferenceurl
config
configuration
configured
confined
conflict
conflicting
conflicts
congo
congress
conj
conjunction
conlang
connected
connecticut
connecting
connections
consider
considered
consistent
console
constructed
construction
contain
container
containing
contains
content
contentargs
contentcat
contentindex
contents
context
continuation
continue
contrast
contribution
contributor
control
controls
convention
conversion
convert
convertbs
converted
converter
converting
converts
convinfobox
cook
coord
coordinate
coordinates
coordinatespec
coords
coordstatements
copied
copt
coptic
copy
copyright
copytable
core
cornish
correct
correction
correctly
corresponding
cos
cost
costa
could
coulomb
count
counter
counting
countnotempty
countries
country
countscripts
county
coup
course
cov
covering
covers
covid
cp
cprt
cr
crawford
create
created
createrow
creates
createtracking
creating
creation
creator
cree
creek
creole
crispr
critical
croatia
croatian
cross
cruz
cs
css
csstext
ct
cterms
ctx
cu
cua
cuba
cubic
cuft
cuin
cuk
cumberland
cumi
cuneiform
cung
cunha
cuo
cur
curac
currencies
currency
current
currententityid
currentitem
currently
currenttitle
curstate
custer
custom
customary
customize
cuyd
cv
cvt
cvtinp
cvtinps
cvtround
cwt
cy
cycles
cypriot
cyprus
cyrillic
cyrl
cyrus
czech
d
da
daa
dab
dad
dade
dai
daily
daju
dak
dakota
dal
dalai
dallas
dam
dame
dan
dang
dani
danish
dar
dari
darius
darwin
dash
data
database
databases
datacode
datalc
datanum
dataset
datastyle
datatype
datavalue
date
datecode
dateformat
datelang
datenum
datenumi
dateprecedesdate
dateprecision
dates
datestr
datetime
datevec
dau
daur
david
daviess
davis
daw
day
daylight
db
dbb
dbe
dbf
dbms
dbprovince
dc
dd
ddd
de
dead
deadurl
deal
death
deaths
debug
dec
decade
decatur
decimal
decimalprecision
decimals
decimetre
decisive
decode
decompose
decrease
decyear
deepcopy
def
default
defaultkey
defaults
defaultseparators
define
defined
defines
definition
definitions
deg
degree
degrees
degsymbol
dek
dekalb
del
delaware
delete
deletion
delim
delimit
delta
dem
demo
democratic
demospace
den
deng
denmark
denomination
denominations
denominator
density
denstr
denver
depend
dependencies
depending
depends
dependvalue
depot
deprecated
depth
deputy
der
des
desc
describe
described
description
descriptions
desdemona
desert
design
desired
destroyers
det
detail
detailed
details
detect
detected
determine
determined
determines
determining
detroit
deutsch
deva
devanagari
development
device
df
dff
dformat
di
dia
diacritical
diaeresis
diagram
diagrams
dialect
dialects
dictionary
did
dida
die
diego
different
digit
digits
dili
dimli
din
dinka
dio
dioh
dir
direct
direction
directions
directly
disable
disabled
disambiguate
disambiguation
disambiguator
discuss
discussion
disease
diseases
diseasesdb
disp
display
displayauthors
displayed
displayeditors
displayfield
displaying
displayinline
displays
displayspan
dist
distance
distancefromleft
distinct
distinguish
district
diu
div
division
djibouti
djk
dl
dlen
dm
dml
dmm
dms
dmy
dna
dne
do
doc
documentation
doe
does
doesn
dog
dogon
doi
doibroken
dollar
dom
domain
dominica
don
donald
done
dong
donum
dora
doraemon
doreturn
dori
dos
dose
dot
dots
double
douglas
down
downcase
downeaster
downtown
dpart
dream
drei
dropdown
druga
dry
ds
dsrt
dst
dt
du
dua
dual
dubuque
due
duk
dumas
dummy
dunam
dunum
duo
dupl
duplicate
duployan
during
dusun
dutch
duty
dv
dvd
dwight
dx
dz
dza
e
ea
each
eagle
early
earth
easily
east
eastern
eb
ebe
ec
ecuador
ed
edcp
ede
edit
editable
editatend
editing
edition
editor
editorcount
editorformat
editorlist
editors
editorseparator
edo
edu
edwards
ee
eea
eee
eef
ef
eff
effect
effective
efficiency
efficient
eg
ego
egy
egyp
egypt
egyptian
eh
ei
eid
eighth
eing
either
eiŋ
ej
ek
el
ela
elba
electrified
electronvolt
element
elements
elevation
eliminate
elizabeth
eller
elp
elpc
elpcode
elpn
elpname
else
elseif
elsewhere
em
embargo
embed
embedded
embera
emission
emit
emonocot
empire
empty
emulated
en
enable
enabled
enclosed
encode
encoded
encyclopaedia
encyclopedia
end
ended
ending
endparam
endtime
endtimed
endtimem
endtimey
energy
eng
england
english
engscale
engvar
ensure
ensures
enter
entered
entering
entire
entities
entity
entityid
entityobject
entre
entries
entry
environment
enwiki
eo
equal
equals
equipment
equiv
equivalent
er
era
eratype
erg
erie
eritrea
erm
eros
err
errend
errmiss
errns
error
errorcomment
errorprinter
errors
errortext
errvalues
es
esc
escape
escaped
ese
esmeralda
espan
esperanto
essex
established
establishment
estimate
estonia
estonian
estrangelo
eswatini
et
etal
etc
ethi
ethiopia
ethiopic
ethnic
ethnologue
etrtina
etsu
eu
eugene
eugenius
euro
europa
europe
european
eustatius
ev
even
evenk
evenodd
event
events
every
everything
ex
exact
exactly
example
examples
except
exception
exceptions
exchange
exclamation
excluded
executive
exhaust
exile
exist
existing
exists
exotic
exp
expand
expanded
expandtemplate
expansion
expected
expecttype
expensive
explicitly
exponent
export
expr
express
expression
expressions
expwy
ext
extb
extend
extended
extension
extensions
extensiontag
external
externallink
externallinkid
extinct
extra
extraclasses
extract
extracted
extractnames
eyre
ez
eʔ
f
fa
facebook
facilities
factor
factory
fahrenheit
fail
fails
failure
fair
fali
fall
fallback
falls
false
fam
families
family
familycolor
fang
far
fargs
faroe
faso
faster
fatal
fault
fax
fayette
fb
fbc
fc
fd
fdate
fdf
fe
feasible
feature
features
federal
feel
feet
fef
feff
fehler
felix
female
ferry
fetch
fetches
fetching
fetchlanguagename
fetchvalue
few
ff
ffa
ffc
ffd
ffe
fff
ffff
ffffff
fg
fi
field
fields
fifa
fifth
figment
figs
figure
figures
fiji
file
filename
fill
filler
filter
fin
final
finalize
find
finder
findlang
finds
fine
finland
finnish
first
firstrow
fit
fix
fixed
fixedargs
fixups
fj
fl
flag
flags
flat
flemish
flex
flip
float
floating
floor
flora
florida
floridian
flow
floyd
fluid
flyer
fm
fmbox
fmt
fn
fo
foao
fold
follow
followed
following
follows
fon
font
fontcolor
fonts
fontsize
fontstyle
foo
foochow
foot
footer
footnote
footnotes
for
fora
force
forces
foreign
form
format
formatattributes
formatdate
formaterror
formatfunc
formating
formatinlanguage
formations
formatlink
formatmessage
formatnum
formatparams
formatpropertyvalues
formats
formatstr
formattable
formatted
formatterurl
formattest
formatting
former
formernext
forms
formula
forrow
forsee
forseeargstotable
forseetable
forseetabletostring
fort
fortnight
forward
fossil
fou
found
foundation
foundrank
four
fourth
fpvdate
fr
fra
frac
fracpart
fraction
fractions
fraktur
frame
frameless
frameonly
franc
france
francis
francisco
franklin
franz
free
freesans
freeserif
fremont
french
frequency
frequently
freud
friedrich
frisian
frm
fro
frofstate
frollo
from
fromtitlecount
front
fs
ft
ftin
fu
fuel
fujian
fukushima
fulfulde
full
fulton
func
funcname
function
functionality
functions
fur
furnish
further
futuna
future
fuzhou
fy
føy
g
ga
gabon
gada
gadaba
gaddafi
gael
gaelic
gah
gai
gal
gallery
gallon
gallons
gambia
gan
gang
gansu
gap
gaps
garfield
gas
gates
gateway
gau
gauge
gauges
gaugesize
gb
gbaya
gbe
gd
gdp
ge
geba
gelao
gem
gen
gene
general
generalcommands
generally
generate
generated
generates
genereviews
genereviewsname
genereviewsnbk
generic
genetic
genghis
genre
genus
geo
geographic
geographical
geography
geohack
geomask
geomasks
geopolitical
geor
george
georgia
georgian
german
germanic
germany
gesture
get
getargnums
getargs
getbeststatements
getboolean
getcode
getcolor
getcontent
getcontentlanguage
getcurrentframe
getcurrenttitle
getdata
getentity
getentityid
getentityidforcurrentpage
getentityobject
getiteratortriplet
getlabel
getline
getlink
getmapparams
getmetatable
getparameters
getparametervalue
getparammappings
getparent
getreferences
gets
getscript
getseparator
getting
gettitle
gettitleobject
getvalue
getvaluebyqual
getzoom
gev
gg
ggo
gha
ghale
ghana
gi
gia
giang
gibraltar
gie
ging
gini
gio
github
giu
give
given
gives
giving
gj
gje
gl
glag
glagolitic
glargs
global
globalframe
globals
globe
glotto
glottolog
glottopedia
glottorefname
gm
gmatch
gmol
gn
gnd
gnu
go
goa
goes
golden
gondi
gong
gonm
good
google
got
goth
gothic
gov
government
gpc
gr
grade
gradient
graham
gram
grams
gran
grand
grande
grant
grave
gray
grayson
grc
gre
great
greater
greatercontrast
grebo
greek
greeley
green
greene
greenwood
gregorius
grek
grenada
grenadines
grey
grid
gross
group
grouping
groups
grundy
gruzia
gs
gsub
gsw
gt
gu
gua
guadeloupe
guam
guang
guangdong
guangxi
guarani
guatemala
guernsey
gui
guide
guilin
guinea
guiyang
guizhou
gujarati
gujr
gula
gulf
gulliver
gun
gung
gunma
guns
guo
guru
guthrie
guyana
gw
gy
gyeongsang
gyr
h
ha
hachio
hack
had
hadrianus
haida
hainan
haiti
haitian
hak
hakka
half
hall
halvdel
hamilton
hamlet
hampshire
han
hancock
hand
handle
handled
handler
handlers
handling
hands
hang
hangul
hangzhou
hani
hanja
hano
hans
hant
hanunoo
happens
hardin
harding
harris
harrisburg
harrison
harry
hartford
harvard
has
haskell
hasval
hatnote
hatr
hau
hausa
have
haven
having
hawai
hawaii
hawk
haystack
hcard
hcl
hdi
he
header
headertext
heading
heard
heb
hebei
hebr
hebrew
hectare
height
heilongjiang
helena
hello
help
helper
helpful
hemisphere
henan
hence
henderson
henry
here
herodotus
herzegovina
hf
hg
hh
hi
hia
hiawatha
hidden
hiddencat
hide
hie
hieroglyphs
high
highest
highland
hill
himalaya
hindi
hindko
hing
hio
hiong
hira
hiragana
historic
historical
history
hitachi
hitler
hittite
hiu
hiv
hk
hkscs
hlist
hluw
hm
hma
hmng
hmnp
hmong
hnj
ho
hoa
hoan
hoat
hok
hold
holds
holmes
holo
holopedia
holy
homo
honduras
hong
hongkong
honorius
hook
hooks
horizontal
horsepower
host
hot
hour
hours
house
houston
houyhnhnm
houŋ
how
howard
however
hp
hr
hs
hsb
ht
htm
html
htmlbuilder
http
https
hu
hua
huak
huasteca
huave
huaŋ
hubei
hue
huge
hugo
hui
huishui
huitoto
huk
human
hun
hunan
hundredweight
hung
hungarian
hungary
huntington
huo
huong
huron
hussein
hy
hybrid
hyphen
hyphenated
hyphentodash
hz
i
ia
iah
iana
iata
iau
iaŋ
iaʔ
ib
ibaraki
iberian
ic
icd
iceland
icelandic
ich
icon
iconpre
iconprops
icons
iconscount
icontext
icontip
icontotal
icu
id
ida
idaho
identical
identifier
identifiers
identify
identities
ideograph
ideographic
ideographs
idi
idiom
ids
idx
ie
iek
ietf
ieu
ieŋ
ieʔ
if
iff
ifroms
ifugao
ign
ignore
ignored
ignoreisbn
ih
ihp
ii
ik
il
ila
ili
illini
illinois
image
imagecell
imagecelldiv
imageclass
imagecount
imagediv
imageemptycell
imageleft
imageleftcell
imageright
imagerightcell
imagerightnone
images
imbox
imc
img
immediate
immediately
imp
impaired
imperial
impgal
implement
implementation
implemented
implements
implict
implied
important
impoz
improper
in
ina
inactive
inactivedate
inappropriate
inarray
inc
inch
inches
include
included
includemetatable
includes
including
inclusion
incorrect
incorrectly
increase
incrementargnumber
incubator
ind
indent
index
indexes
indexing
india
indian
indiana
indic
indicate
indicated
indicating
indication
indices
individual
indo
indonesia
indonesian
indus
ine
inext
inflation
info
infobox
infoboxes
infoboximage
infoboxstyle
infocolor
information
infrastructure
ing
inhabitant
inhabitants
inherit
inherits
initial
initialise
initials
inline
inlinered
inner
innermongolia
innocentius
inout
inp
inps
input
inputs
ins
inscriptional
insert
inserted
inset
inside
instagram
instance
instanceof
instanceofstate
instead
institution
instructions
insurgents
int
intable
integer
integers
intended
inter
interfere
interlanguage
interlingua
intermodal
internal
internallinkid
international
interpreted
into
introduction
inuktitut
invalid
invalidcode
invalidpar
invargs
invariant
inverse
invert
inverted
invocation
invocations
invoke
invoked
invoking
involved
io
ioannes
ios
iowa
ip
ipa
ipairs
iparm
iqin
ir
ira
iran
iranian
iraq
iraqi
ireland
irish
iron
is
isa
isangle
isbn
iscomplex
isfirst
iskeyword
islamic
island
islands
isle
islong
isn
isnegative
isnilorempty
isnotempty
iso
isodate
isodisplaynames
isoexception
isoname
isonames
isoyear
isplain
israel
issmall
issn
issubpage
issue
issues
issuing
issupportedlanguage
istalkpage
istanbul
istemperature
isthmus
isu
it
ital
italian
italic
italicize
italicized
italics
italmarker
italy
item
itemid
items
iter
iterate
iterator
itneg
ito
its
itself
itthem
iu
iulius
ivoire
iwate
ix
iyo
iŋ
iɑ
iɑŋ
iəu
iɛu
j
ja
jaar
jack
jackson
jamaica
jamaican
james
jamo
jan
jane
japan
japanese
jasper
java
javanese
javascript
je
jean
jefferson
jeolla
jersey
jerusalem
jewish
jfm
ji
jia
jiangsu
jiangxi
jilin
jim
jo
joaquin
joaquins
joe
johann
john
johnson
johnston
join
joins
jointext
jones
jong
jordan
jose
joseph
joule
journal
jp
jpan
jpg
jr
json
jstor
ju
jua
juan
judeo
julian
julius
just
juǀ
k
ka
kaapor
kaba
kachin
kadazan
kadokawa
kai
kaili
kalapuya
kali
kalimantan
kalinga
kalmyk
kampuchea
kan
kana
kanagawa
kanji
kannada
kansas
kanum
kanuri
kap
kara
karen
karenin
karenina
karl
karo
kashmir
katakana
kathmandu
kawagoe
kayah
kayan
kazakh
kazakhstan
kaŋ
kb
kbr
kc
kcal
kci
kcl
ke
keeling
keep
keeporiginalkeys
kei
kek
kelvin
keng
kenning
kent
kentucky
kenya
kev
key
keys
keystone
keyword
kg
kgf
kh
kha
khaai
khabarovsk
khaki
kham
khan
khar
khmer
khmr
kho
khoj
khu
ki
kia
kiaŋ
kie
kill
killed
kilocalorie
kilocalories
kilogram
kilograms
kilojoule
kilometer
kilometers
kilometre
kilometres
kilomole
kilotonne
kilowatt
kim
kin
king
kingdom
kinnauri
kio
kiong
kiowa
kir
kirghiz
kiribati
kitts
kiu
kj
kk
kl
kla
km
kmol
kn
knda
knight
know
known
knox
ko
koi
kok
kol
koli
kom
komi
kon
kong
konkani
kono
kore
korea
korean
koro
kosovo
kota
kpa
kpc
kpelle
kr
kri
kriol
krit
kro
krumen
ks
ksh
kt
kthi
ku
kua
kublai
kui
kuku
kundera
kuo
kurdish
kuro
kurumba
kus
kuwait
kv
kvartal
kvartalet
kw
kwa
kwh
ky
kyr
kyrgyz
kyrgyzstan
kyu
kɑ
l
la
label
labeldiv
labelorid
labels
lac
lack
lafayette
lai
lak
lake
lakota
lala
lalo
lama
lamar
lampung
lamu
lana
lancaster
land
lang
langargs
langcode
langdateform
langname
langnameinlang
langobj
language
languagecode
languageicon
languagename
languages
langue
lanka
lao
laoo
laos
large
larger
largest
las
last
lastarg
lastauthoramp
lat
latdegrees
late
later
latestdatequalifier
latf
latin
latitude
latm
latminutes
latn
latseconds
latter
latvia
latvian
lauderdale
law
lawrence
lax
lay
laydate
laysource
laysummary
layurl
lazily
lazy
lb
lbco
lbf
lbfft
lbm
lbmol
lc
lccn
lccnparts
lcwt
ld
ldf
le
lea
lead
leader
leading
lear
least
leave
lebanon
lee
left
legacy
legal
legend
legislature
lele
len
length
lengua
lenin
leo
leone
lepc
lepcha
les
lesotho
less
let
letter
letterpos
letters
lev
level
levels
levin
lewis
lh
lhamte
lhoba
lhs
li
lia
liaoning
lib
liberia
liberty
libprovince
library
libraryutil
libya
license
lie
liechtenstein
lif
life
lifetime
light
ligurian
lik
like
likely
lilliput
lima
limb
limba
limbu
limit
limited
lin
lina
linb
lincoln
line
linear
linelength
linen
linenum
lines
linesep
linfo
linglist
lingua
linguist
linguistic
link
linked
linking
linkprefix
links
linkstonum
linktext
linktowiktionary
linn
linux
lio
lioh
lisboa
lissabon
list
listcell
listclass
listed
listitems
listnum
lists
liststyle
listtotext
listtype
lisu
lit
liter
literal
literary
lithuania
lithuanian
litre
little
liu
liv
live
livingston
liɑŋ
lk
ll
lng
lo
load
loaddata
loaded
loader
lob
loc
local
localized
locally
located
location
locations
locator
log
logan
logic
logo
logobject
loma
lon
londegrees
london
lone
long
longer
longitude
longscale
lonminutes
lonseconds
look
looking
looks
lookup
loop
los
losses
lou
louis
louisiana
loup
lov
love
low
lower
lowercase
lowerk
lowland
lowndes
lowood
lp
lprefix
lr
lt
ltf
lthumb
lu
lua
luacode
luamain
lucia
lucida
lucius
lue
lui
luk
lum
luna
luo
luri
luther
luwian
luxembourg
lv
ly
lyci
lycian
lydi
lydian
lyon
lzh
m
ma
maarten
mac
macao
macau
macedonia
macedonian
mach
machine
maclay
macon
macrolanguage
macron
macrons
madagascar
made
madison
madrid
mae
mag
magazine
magic
magiri
magnetic
magnitude
mahj
mai
maidu
main
maincat
maine
mainsnak
mainspace
maint
maintained
maintenance
major
mak
makasar
make
makeentryname
makeinvokefunction
makelist
makeordinal
makes
makewikitexterror
makewrapper
makhuwa
making
mal
mala
malagasy
malawi
malay
malayalam
malayo
malaysia
maldives
male
mali
mall
malta
malvinas
man
manager
mand
manda
mandaic
mandalay
mandatory
manhattan
mani
manichaean
maninkakan
manipuri
manobo
manual
manually
many
manza
maori
map
mapcolor
mapcolour
mapframe
mapframes
maplink
mapping
mappings
mappingskey
maps
mar
marathi
marathon
marc
margaret
margin
marguments
mari
maria
mariana
marino
marion
mark
marker
marks
marksize
markup
maroon
marquette
marshall
marti
martin
martinique
martinus
marwari
marx
mary
maryland
masela
mashan
mask
maskitem
maskitemid
maskitems
masklabel
masklabels
masktype
mason
mass
massachusetts
match
matches
matchhook
matching
math
mathematical
matic
mauritania
mauritius
max
maxarg
maximum
maxlen
maxsigfig
maxvals
may
maya
mayan
maybe
mayek
mayi
mayo
mazahua
mazatec
maŋ
mb
mbe
mbo
mbox
mbq
mbtu
mc
mcal
mccune
mcdonald
mcg
mci
mcintosh
mckinley
mclean
mcode
mcpherson
md
mda
mdy
me
meade
mean
means
measurement
measurementtolink
medefaidrin
media
mediawiki
medical
medieval
medlineplus
meetei
megatonne
mel
melanau
membership
men
menaion
mend
mende
menk
menominee
mention
meo
mer
merc
mercer
mercury
mergearrays
mergedbottomrow
mergedrow
mergedtoprow
mero
meroitic
mers
mesh
message
messages
messaging
met
meta
metaargs
metaargskey
metadata
metatable
meter
meters
method
metre
metres
metric
metro
metrolink
metropole
mev
mexico
mf
mg
mgcl
mgo
mh
mhatnote
mi
mia
miami
miao
michael
michigan
micro
microformat
microformats
micronesia
microsoft
mid
middle
middlesex
midland
midway
mie
mien
might
miguel
mih
mik
mil
mile
miles
military
mille
millennium
miller
milliard
milliliter
millilitre
millimetre
million
mills
milstrength
milwaukee
min
mind
mineral
minerva
ming
mingliu
minh
mini
miniature
minimal
minimum
minnesota
minradius
minsymbol
minus
minute
minutes
miscellaneous
mishmi
mismatch
miss
missing
mississippi
missouri
mit
mitchell
mito
miwok
mix
mixe
mixed
mixtec
mixtepec
miya
miyagi
miyako
miɑŋ
mj
mk
ml
mla
mlanguage
mlt
mlym
mm
mmbtu
mmol
mmt
mn
mno
mnong
mo
mobile
mod
mode
modern
modi
modify
module
modules
moi
mol
molar
moldova
moldovan
mole
moles
molo
moment
mon
monaco
mong
mongolia
mongolian
mono
monolingualtext
monotypic
monpa
monroe
montana
monte
montenegro
montgomery
month
months
montreal
moon
moore
mor
more
moreargumentsexist
morgan
mori
morioka
moroccan
morocco
morris
morton
mos
most
motto
mount
mountains
move
moz
mozambique
mpa
mpassengers
mpc
mpgimp
mpgus
mph
mr
mro
mroo
mru
ms
msg
msl
msn
mt
mtabletools
mtei
mtext
mtx
mu
mua
muammar
much
muji
mulao
mult
multilingual
multiple
multiplier
mum
muo
muria
murray
murut
musashino
museum
music
musical
mussolini
must
mustela
mw
mwh
mww
my
myanmar
mymr
myr
n
na
naalo
nacional
nacl
naga
nagano
nago
naha
nahco
nahuatl
nai
naked
nakhon
nam
nama
nambu
name
namecode
named
names
namesep
nameseparator
namespace
namespaces
namibia
nan
nand
naoh
napole
nar
nara
narb
narita
narrow
nas
nasdaq
nassau
nat
nation
national
nations
native
nato
natural
nauru
nautical
nav
navbar
navbox
navboxparams
navtable
navy
naxi
nazi
nb
nba
nbat
nbsp
nc
ncbi
nci
ncipe
ncov
nd
nda
ndargs
ndataset
ndates
nde
ndebele
ndef
nds
ne
nearest
nebraska
necessary
need
needed
needle
needs
negative
nei
neither
nelson
nen
nend
neo
nepal
nepali
nervgear
nested
net
netherlands
network
neun
nevada
never
nevis
new
newa
newari
newark
newline
newobject
newport
newrawmessage
news
newspaper
newton
next
nextarg
nez
ng
nga
ngbaka
nge
ngi
ngia
ngie
ngiek
ngio
ngiu
ngo
ngu
ngua
nguo
nguok
nh
nha
ni
nia
niagara
nicaragua
niccolo
nicholas
nickname
nicobarese
nicolaus
nie
niger
nigeria
nigerian
night
nih
niigata
nik
nikko
nil
nilargs
nilargskey
nilok
ningxia
ninh
ninka
ninth
nio
nisu
niu
niue
nixon
niŋ
nj
nkoo
nl
nlang
nlm
nm
nmi
nmonth
nn
no
nobel
noble
noborder
nocat
nocomma
node
nodes
nolink
nom
nominal
non
none
nopp
nor
norfolk
normal
normally
norman
north
northampton
northeast
northeastern
northern
northwest
northwestern
norwegian
nospace
nospecial
not
notation
note
notepad
notes
nothing
notice
noto
notracking
notre
nottoway
noufo
noval
novalue
now
nowiki
nowrap
nps
nr
ns
nsdetect
nshu
nsid
nsname
nspace
nstable
nstext
nstr
nte
nths
nu
nua
nuco
nueva
num
numargs
number
numbered
numbers
numdigits
numdot
numeral
numerals
numerator
numeric
numerical
nums
numsep
numstr
nuo
nv
nw
ny
nye
nynorsk
o
oa
oak
oakland
oaxaca
obama
obj
object
objects
obscure
obsolete
obsoleted
oc
occitan
occur
occurred
ocean
och
ocinsoutput
oclc
oct
od
odd
odia
oe
oedipus
of
off
offenders
office
official
officialwebsite
offset
ofi
often
og
ogam
ogden
oh
ohio
oi
oil
oirat
ois
oj
ojibwa
ok
okinawa
oklahoma
oko
oku
ol
olck
old
olympic
om
oman
ombox
omim
omit
omitsep
omitted
omoro
on
once
one
oneida
ones
ong
online
only
onlysourced
onlysrc
ono
ontario
op
opacity
open
opened
opening
openlibrary
operating
operator
operators
ophelia
opt
option
optional
optionalarg
optionally
options
optionsk
or
oracle
orange
orcoid
order
ordered
ordering
orders
ordinal
ordsuffix
ore
oregon
org
organization
organizations
ori
orig
origargs
origin
original
originally
originalurl
origink
orignumargs
origyear
oriya
orkh
orleans
oro
oromo
oroqen
orphan
orthographic
orthography
orya
os
osage
osceola
osge
osm
osma
osman
ossetia
osti
othello
other
others
otherwise
otomi
ottawa
ottoman
ou
ouk
ounce
ounces
our
out
outcome
outinfo
outp
output
outputbox
outputs
outputstr
outside
outstring
outvalue
ouŋ
over
overflow
overhead
overlaid
overlap
overlapcalc
overlapicons
overlapn
overlapparams
overlapprops
overlappropsi
overlaps
overlapt
overlay
overlinking
overridden
override
overridecode
overrides
overview
overwrite
owl
own
owned
owner
oxford
oyun
oz
ozt
oʔ
p
pa
pacific
pad
padded
padding
page
pagename
pageobject
pages
pahari
paharia
pahawh
pahlavi
pair
pairs
pak
pakistan
pal
palau
palaung
palawano
palestine
pali
palm
pam
pame
pamuk
pan
panama
pandora
panjabi
pano
papers
papua
par
para
paraguay
param
parameter
parameters
paramkey
paramorder
params
paramsi
paramsp
parens
parent
parentargs
parentargslowerk
parentargsparams
parentheses
parenthesis
parenthetical
parentitem
parentmonogenus
parentonly
parenttaxon
pargs
paris
park
parker
parking
parliament
parm
parms
parmsi
parse
parsed
parsedec
parsedformat
parsedms
parseformat
parseinput
parseparam
parser
parserfunctions
part
parthian
partial
participating
particular
parties
partof
parts
party
paschalis
pasco
pashai
pashayi
pashto
paso
pass
passed
passenger
passengers
past
paste
pat
path
patmos
pattani
pattern
patterni
patterns
pau
pauc
paul
paulus
pawnee
paz
paŋ
pc
pcall
pcr
pd
pe
peace
peck
pedia
pedro
peing
peiŋ
pen
peninsula
penn
pennsylvania
people
per
percent
percentage
percode
perform
performance
period
periodical
periods
perm
permitted
perrow
perrowr
perry
persian
person
peru
petersburg
pev
pframe
pg
pgtext
ph
phaa
phag
pharaoh
phelps
phi
philadelphia
philia
philippine
philippines
phillips
phli
phlp
phnx
pho
phoenician
phoenix
phone
phonetic
phowa
php
phrase
phrases
phu
physical
pi
pia
pick
pickens
pid
pidgin
pie
piece
pieces
pier
pierce
pierre
pike
ping
pint
pinyin
pioneer
pip
pipe
piped
pit
pitcairn
pius
pixar
pixels
piɑŋ
pj
pk
pl
place
placed
placeholder
placement
places
plain
plainlinks
plainlist
plains
plane
plant
plantilla
platform
platforms
platon
platte
platz
plaza
please
plen
plrd
plural
plus
pm
pmc
pmid
pnd
png
pnum
po
poe
poem
pog
point
pointer
points
pol
poland
polish
political
polk
polovica
polovina
polstrength
polynesia
pomo
pomona
pondemaat
pop
pope
popoloca
popoluca
populates
population
port
portal
portland
portugal
portuguese
pos
posdif
position
positional
positive
possible
possibly
post
postcondition
posteriori
postfix
postgroup
postscript
potter
pound
pounds
pour
pouŋ
pow
power
pp
ppp
ppprefix
pprefix
ppsuffix
pr
pra
practice
pradesh
prairie
prakrit
prc
pre
prec
preceded
precedence
preceding
precision
precondition
predefinic
prefer
preferable
preference
preferred
prefetchedrefs
prefix
prefixed
prefixedtext
prefixes
prefixtable
pregroup
prenational
prepend
preprocess
preprocessargs
preprocesssinglearg
present
presentation
preserve
press
pressure
presumably
pretty
preunit
prev
prevcodepoint
prevent
preview
previous
previously
pri
primarily
primary
primarydata
primavera
prince
print
printerror
private
pro
probably
problem
problems
process
processed
processing
produce
produced
produces
product
project
pronunciation
prop
proper
properly
propersign
properties
property
propertyid
propertyvalue
propertyvalueandquals
propid
props
prose
protected
protection
proto
protocol
protolanguage
provenc
provide
provided
provides
province
prr
prti
prva
ps
psi
psuffix
pt
ptv
pu
pua
pub
public
publication
publicationdate
publicationplace
published
publisher
publishername
puebla
puerto
pulaski
pumi
punan
punctuation
punjabi
punk
puo
purpose
purposes
pushpin
put
putin
putnam
puts
pwo
px
pythagoreio
pyu
q
qaeda
qara
qatar
qiandong
qid
qinghai
qq
qscode
qt
qtr
qu
qua
quad
quadrillion
qualid
qualifier
qualifierid
qualifiers
qualifierscount
qualifiersqualifierid
quals
quart
quarter
quarto
quasimodo
quebec
quechua
queen
query
question
qug
qui
quichua
quick
quincy
quo
quote
quotebox
quoted
quotes
quy
r
ra
rad
radius
rai
rail
railroad
railway
railways
randolph
range
ranges
rank
rankpos
ranks
ranksrankpos
rapid
rar
rare
rarely
rarotongan
rate
rather
ratio
raw
rawdisp
rawget
rawset
rawvalue
rct
rd
re
read
readable
reader
readers
reads
reagan
real
reason
reasonator
reasons
rebuilt
received
recognised
recognized
recommended
reconstructed
record
red
redefinition
redirect
redirects
reduce
redundant
reed
ref
refbegin
refer
reference
references
referenceurl
referencing
refers
refhash
refparts
refs
regex
regexp
region
regional
regions
register
registered
regular
reischauer
rejang
rel
related
relatedentity
relative
relevant
relief
religion
rem
remainder
remark
remove
removeblanks
removed
removes
ren
rename
render
rendered
renderpercombatant
renders
rendertrackingcategories
rep
repeat
repeated
replace
replacealias
replaced
replacedecimalmark
replacement
replacements
replaces
report
reported
representative
representing
represents
republic
req
requested
require
required
requires
requiring
res
reserved
resian
resolved
resolveentity
respective
respectively
rest
restable
restablei
result
resulting
resultparameters
results
ret
retalt
retrieved
retrv
return
returned
returning
returns
returnval
retval
reverse
review
revised
revival
revived
rfc
rft
rgb
rgbbycode
rgbw
rhode
rhs
rhundre
ri
riang
rica
rich
richard
richland
richmond
rico
ridership
right
riley
rinfo
rio
river
riyama
rjng
rm
rmir
rml
rmr
rmri
rn
rna
rname
ro
roa
road
roanoke
robert
robertson
rochester
rock
rockingham
rod
roger
roglai
rohg
rohingya
role
roma
roman
romance
romani
romania
romanian
romanization
romanized
romano
romansh
ron
ronald
roosevelt
root
round
rounded
rounding
roundto
route
routemap
routes
row
rowan
rowargs
rowclass
rowcount
rownums
rowparams
rowprop
rowprops
rows
rowsi
rowspan
rowstyle
royal
rozaj
rr
rriais
rtd
rtext
rtl
ru
ruby
rule
run
runic
running
runr
rup
russell
russia
russian
rutherford
rw
rwa
rwanda
s
sa
saba
sabah
sabine
sacramento
safe
safeforitalics
safejoin
safesubst
sah
sahara
sai
saint
saitama
saka
salar
saline
salish
salt
saluki
salvador
sam
sama
samaritan
samba
same
sami
samo
samoa
samos
sample
samr
san
sand
sandbox
sandburg
sandwich
sang
sans
sanskrit
santa
santiago
sao
sar
sara
sarb
sardinian
sars
satsuma
satunushi
sau
saudi
saur
saurashtra
save
saxon
say
saŋ
sbargs
sbl
sc
scale
scaled
scales
scan
scf
scheme
schuyler
scientific
scope
scotland
scott
scottish
screen
scribunto
script
scriptcode
scriptdata
scripts
scwt
sd
sdata
se
sea
seal
search
searchalias
searching
season
seattle
sebastian
sec
sechs
second
secondary
seconds
sect
section
see
seem
seen
seg
segoe
sei
sek
select
selected
selectone
self
selfclosing
selfref
semicolon
seminole
sen
sendai
seneca
senegal
seng
senoufo
sense
seoul
sep
separate
separated
separately
separating
separator
separators
sepc
seps
septa
september
sequence
sequences
ser
serbia
serbian
sergius
series
serieslink
seriesnumber
serif
serto
serve
server
service
services
serving
set
seterror
setmetatable
setnowrap
setnowrapelement
setranks
sets
setting
settings
settlement
seventh
several
sevier
seychelles
sf
sfinp
sfn
sg
sgnw
sh
shaanxi
shaft
shakespeare
shandong
shanghai
shanxi
shape
shapes
shared
shasta
shaw
shawnee
she
shelby
shenandoah
sheridan
sherman
shi
shift
shin
shinjo
shinjuku
shinkansen
sho
short
shortcut
shortened
shorthand
shortname
should
shouldbe
shouldshowpointmarker
show
showerrors
showid
showing
showinvalidtypeerror
shown
shows
shp
shrd
shu
si
sia
siang
sichuan
sidd
siddham
side
sidebar
sie
sieng
sierra
sieu
sigfig
sign
signature
signes
significand
significant
significantly
sik
sil
silver
silvester
sim
similar
similarly
simple
simplify
simply
sin
since
sind
sindhi
sing
singapore
single
singlevalue
singular
sinh
sinhala
sinhalese
sint
sio
sioh
siong
sioux
siprefixes
sir
site
siteid
sitelink
sitelinks
siu
sixth
sixtus
size
sizing
sjabloon
sk
skagit
skin
skip
skipped
sky
sl
sla
slash
slavic
slavonic
slovakia
slovene
slovenia
sm
sma
small
smaller
smallest
smith
smt
sn
snak
snaks
snaksp
snaktype
snapdate
so
soa
sobu
software
soga
sogdian
sokrates
sol
solar
solid
solomon
solution
som
somalia
some
someone
somerset
something
sometimes
somevalue
son
song
songhai
songhay
sora
sorbian
sort
sortable
sorted
sortedpairs
sorting
sortkey
sortlabel
sortspan
sos
sotho
sou
source
sourcecount
sourced
sources
south
southeast
southeastern
southern
southwest
southwestern
sovereignty
soyo
sp
space
spacer
spacerside
spaces
spacing
spain
span
spanish
speaker
speakers
spec
special
species
specific
specified
specifies
specify
specifying
speed
speedy
spell
spelled
spelling
splat
split
spokane
spoken
spring
springfield
sq
sqbr
sqft
sqin
sqkm
sql
sqm
sqmi
sqry
square
squared
sqyd
sr
src
sri
ss
ssrn
ssss
st
stack
stalin
standard
standards
stands
star
stark
start
starting
starts
starttime
starttimed
starttimem
starttimey
stat
state
stated
statedin
statement
statements
states
statesparam
statesparameters
station
stations
statistic
status
std
ste
steady
steam
step
stephanus
stephens
stevens
stewart
stf
still
stn
stock
stockholm
stockton
stone
stop
store
stored
storge
story
stout
str
street
strength
strformat
strict
string
strings
strip
stripmarker
stripped
stroke
strong
strout
structure
strval
stryear
stt
stub
style
styleratio
styles
su
sua
sub
subanen
subdiv
subdivision
subdivisions
subdivs
subf
subg
subheader
subheaderrowclass
subinfo
subject
subjectitem
subjectns
submit
subpage
subpageno
subpages
subscription
subscriptionrequired
subsect
subser
subsp
subst
substitute
substituted
subtag
subtags
subtemplates
subtype
subunit
suburban
subvar
succeded
success
successful
such
sudan
suf
suffered
sufficient
suffix
suffixes
suffolk
suggest
suggested
suggestions
suk
sulawesi
sullivan
summary
summer
summit
sumter
sun
sund
sundanese
sung
sunset
suo
sup
super
supersect
superseded
superunit
supplement
supplemental
supplementary
supplied
support
supported
supporting
supports
suppress
suppressed
sur
sure
suriname
surname
surrogates
sussex
sv
svg
sw
swahili
swap
sweden
swedish
swift
swiss
switch
switcher
switchlang
switzerland
sx
sy
sydney
syllabics
syllable
sylo
sylvestris
sym
symbol
symbols
symlink
synonym
synonyms
syntax
syrc
syria
syriac
system
systems
sz
sɛi
t
ta
tab
tabasco
table
tables
tabletools
tabulation
tacoma
tactical
tag
tagalog
tagb
tagbanwa
tagcontent
tagname
tagore
tags
tai
tail
taiwan
tajik
tajikistan
takasaki
take
taken
takes
takr
tal
tale
talk
talktext
talktitle
talu
tama
tamang
tamazight
tamil
taml
tang
tangut
tanks
tanzania
tara
tarahumara
tarask
target
targs
tasmania
tat
tatar
tau
tavt
taxon
taxonbar
taxonbars
taxonrank
tay
taylor
tb
tbilisi
tbl
tbody
tc
tcommon
tconcat
tcp
td
te
technical
tek
teke
telu
telugu
tem
temp
temperature
templat
template
templateargs
templatecat
templatecategory
templatedata
templateerrorcategory
templatename
templatepar
templates
templatestyles
templatetitle
temu
ten
tennessee
tepehua
tepehuan
term
terminal
terminated
termini
terminus
terms
territorial
territories
territory
test
testcases
tested
testing
tests
teton
tev
texas
text
textalign
textcell
textcellspan
textfmt
textspl
textstyle
tey
tf
tfng
tfrac
tg
tgentry
tglg
th
tha
thaa
thai
thailand
tham
than
tharu
that
the
their
them
then
there
therefore
therm
thermal
thermochemical
these
they
thie
thimphu
thing
things
third
this
thislink
thisvalue
thm
tho
thomas
thornfield
those
thousand
three
through
throwerror
thu
thumb
thumbcaption
thumbnail
thumbtime
thus
ti
tia
tianjin
tiaŋ
tibet
tibetan
tibt
ticket
tickets
tidy
tidyval
tie
tieng
tig
tii
til
tilde
tildes
tillamook
time
timecaption
times
timestamp
timezone
timor
tinsert
tio
tiong
tirh
titan
title
titlecell
titlecolspan
titlelink
titlenote
titleobj
titles
titlestyle
titletype
tiu
tiwa
tj
tk
tkl
tl
tlapanec
tld
tm
tmbox
tmp
tn
tname
tnone
tnt
to
toba
tobago
tochigi
today
todd
todo
together
togo
toiso
tokelau
tokyo
tol
tolstoy
tom
tome
ton
tong
tonga
tonne
tontnt
tonumber
too
tool
tools
top
topimage
topographic
tor
toro
toronto
torque
torr
tostring
tot
total
totonac
tout
touŋ
town
tp
tr
tra
track
tracking
trackingcategories
tracklength
tracks
traditional
traffic
trailing
train
tram
trans
transchapter
transcluded
transcluding
transclusion
transcript
transcripturl
transerror
transform
transit
transl
translate
translatecode
translated
translation
translations
translator
translit
transliteration
transparent
transport
transportation
transtitle
traveller
traverse
tre
treated
tredje
tree
tri
tribe
trigger
triggered
trillion
trim
trimarg
trimmed
trinidad
triqui
tristan
trotsky
trow
troy
true
try
ts
tsou
tstamp
tstitle
tstyles
tsu
tsugaru
tsuŋ
tt
ttc
ttnt
tu
tua
tunebo
tung
tunica
tunisia
tunisian
tuo
tur
turkey
turkic
turkish
turkmenistan
turks
turn
tuvalu
tuz
tv
tvrtina
tw
twi
twice
twin
twitter
two
tx
txt
txtlang
ty
tyler
typ
type
typedata
typen
types
typically
tz
tzstr
tɕ
tɕi
tɕy
u
ua
uai
uak
uang
uaŋ
uaʔ
ubl
ubuntu
uc
ucayali
ucfirst
uchibo
ucode
uda
udate
ue
ug
uganda
ugar
ugaritic
ui
uighur
uk
ukij
ukraine
ukrainian
ul
ulster
ulx
ulxargurl
ulxindx
um
uma
umi
un
unacceptablecount
unbulleted
uncertainty
uncl
unclosed
uncu
und
undeclared
undefined
under
underlying
underscore
underscores
undetermined
ung
unicode
unified
union
unique
unit
unitcode
united
unitlink
unitonly
units
unitsperdegree
universal
university
unix
unknown
unknownparams
unless
unlinked
unnamed
unpack
unrecognized
unset
unstrip
unstripnowiki
unsupported
until
unusual
uo
uoi
uok
uoŋ
uoʔ
up
uparrow
update
upl
upper
uppercase
upright
upside
ur
ura
ural
urbanus
urdu
uri
uricomponents
url
urlorigin
urls
urn
uru
uruguay
us
usa
usage
usbsh
usbu
usdrygal
use
usecite
usecollapsibletextfields
used
useful
usename
useparams
user
userbox
users
uses
usesymbol
usewikidata
usgal
using
usoz
uspt
usqt
ustring
ustrq
usual
usually
ut
utable
utah
utc
utf
util
utsunomiya
utype
uyghur
uz
uzbek
uzbekistan
uŋ
uɔ
v
va
vah
vai
vaii
val
valencian
valerror
valid
validate
validation
validity
valinfo
valley
vals
value
valuefunc
values
valuesarray
valuesarrayi
valurl
van
vancouver
vanuatu
var
variable
variables
variablevals
variant
variants
various
varname
vatican
vaticano
vcard
ve
vec
vegas
venezuela
ver
verde
verify
vermont
vernon
version
versions
verst
vertical
very
vi
via
viaf
vicente
victor
victoria
victorian
victory
vie
viet
view
vincent
violations
violet
virgin
virginia
visible
visually
vladimir
vname
vo
vol
volapu
volume
vom
von
vor
vorlage
vro
vronsky
vs
vt
vu
w
wa
wae
wake
wales
walk
walker
walla
wallis
wan
wancho
want
wanted
wantname
war
wara
waray
ward
warning
warnings
warren
warring
wars
was
washington
watapi
watch
water
watt
watut
wau
way
wayback
wayne
wd
we
web
webarchive
webcitation
webcite
website
webster
weight
well
wells
welsh
were
wesley
west
western
wh
what
whatever
wheeler
when
where
whether
which
while
whitcomb
white
whitelist
whitespace
who
whole
wholestr
whose
why
wichi
wichita
wide
widest
width
widths
wien
wik
wiki
wikibase
wikibooks
wikicode
wikidata
wikidatacoords
wikidataib
wikidataid
wikify
wikilink
wikilinked
wikilinks
wikimedia
wikinews
wikinewshas
wikipedia
wikiquote
wikis
wikisource
wikispecies
wikitable
wikitext
wikt
wiktionary
will
william
williamson
wilson
win
wind
windows
windsor
winnebago
winter
wisconsin
with
within
without
withspace
wo
woi
wolfgang
wom
won
wood
woods
worcester
word
words
work
works
world
worldcat
worldcatid
worth
would
wounded
wp
wrap
wrapped
wrapper
wrappers
wright
write
written
wrong
wsc
wu
wuu
wv
www
wyoming
x
xa
xal
xanyan
xdate
xe
xenia
xerxes
xg
xhi
xia
xian
xinjiang
xky
xlo
xpeo
xsux
xunion
xx
xxx
y
ya
yaeyama
yaka
yakut
yala
yale
yali
yamagata
yan
yangon
yangum
yard
yards
yau
yavapai
yc
yd
ye
year
years
yearstr
yellow
yemen
yerevan
yes
yesno
yet
yfactor
yg
yi
yiddish
yiii
yj
yk
ym
ymd
ymdhm
ymdhms
yo
yok
yokohama
yong
york
you
your
yourself
youtube
yr
yrediv
yrefactor
yreround
yround
ytw
yu
yua
yucatec
yue
yuf
yug
yughur
yui
yuma
yun
yunnan
yupik
yyyy
yø
yŋ
yɔ
z
za
zahl
zam
zambia
zapotec
zbl
zealand
zentralblatt
zephyr
zero
zeros
zh
zha
zhejiang
zhi
zho
zhuang
zima
zimbabwe
zinh
zj
zm
zn
zone
zoom
zoomed
zoque
zs
zu
zuŋ
zyyy
zz
zzzz
zɛik
{
|
}
~
¡
¢
£
¥
§
«
¬
¯
°
±
²
²¹
³
³³
´
µ
¶
·
¹
»
¼
½
¾
×
æ
æiŋ
æŋ
÷
ø
øy
øyk
øyŋ
øʔ
đa
đe
đi
đo
ħ
ł
ŋ
ŋa
ŋai
ŋi
ŋiaŋ
ŋouŋ
ŋɑk
œ
œyŋ
œŋ
œʔ
ƨ
ƻ
ɑ
ɑiŋ
ɑu
ɔ
ɔʔ
ɕ
ɛ
ɛi
ɛik
ɛiŋ
ɛu
ɛʔ
ɤ
ɸ
ʂ
ʔ
ʔi
ʔouŋ
ʔuŋ
ʔɑk
ʝ
ʝia
ʝy
ʮ
ʰ
ʻ
ʼ
ˀ
ˇ
ˈ
ˊ
ː
˘
˥
˦
˧
˨
˩
̀
́
̂
̃
̄
̆
̇
̈
̉
̊
̋
̌
̍
̏
̑
̓
̔
̛
̣
̤
̥
̦
̧
̨
̩
̱
̸
̿
͂
͘
͡
ͱ
ͽ
α
β
γ
δ
δημοκρατι
ε
ζ
η
θ
ι
κ
λ
μ
ν
ξ
ο
π
πη
ρ
ς
σ
τ
του
υ
φ
χ
ψ
ω
ϐ
ϑ
ϕ
ϣ
ϯ
ϰ
ϱ
ϲ
ϵ
в
до
е
з
и
к
н
на
половина
с
у
х
шаблон
ъ
ь
я
язы
є
і
ԧ
՛
՜
՞
՟
ա
և
֏
ִ
ַ
ָ
ֹ
ׁ
ה
ו
מ
ר
ש
של
؀
ا
از
الع
ب
ة
ر
فارسی
قالب
و
ي
ً
َ
ِ
ّ
ٓ
ٔ
ۇ
ی
۫
۲
܀
ݏ
ހ
ޱ
߀
ߺ
ࠀ
࠾
ࡀ
࡞
ࣿ
ऀ
ँ
ं
इ
ई
क
ग
च
ज
त
थ
द
ध
न
ब
भ
म
य
र
व
श
ष
स
ा
ि
ी
ु
े
ै
ो
ौ
्
ॿ
ঁ
ং
এর
ক
গ
ঝ
ট
ঠ
ড
ত
থ
দ
ধ
ন
প
ব
ম
য
র
ল
শ
ষ
স
়
া
ি
ী
ু
ৃ
ে
ৈ
্
৺
ਁ
ੵ
ઁ
ં
ચ
જ
ઢ
ળ
ા
ી
ો
૱
ଁ
ଆ
ଖ
ଗ
ଚ
ଛ
ଜ
ଞ
ଟ
ଡ
ଫ
ମ
ଯ
ର
ଷ
଼
ା
ି
ୀ
େ
୍
୷
ஂ
ப
ர
வ
ா
ு
்
௺
ఁ
౿
ಂ
ೲ
ം
ആ
ക
ട
ണ
ത
ദ
ധ
ന
പ
മ
യ
റ
ല
വ
ശ
ഷ
ാ
ി
ു
ൂ
െ
േ
ൈ
്
ൽ
ൿ
ං
ක
න
ප
භ
ර
ල
ෂ
ස
්
ා
ැ
ි
ූ
෴
ก
ด
ต
พ
ม
ย
ล
ว
ศ
อ
ิ
ี
ื
ุ
ู
แบบ
แม
่
้
์
๛
ກ
ໟ
ༀ
་
ག
ད
བ
ཡ
ི
ོ
࿚
က
႟
ა
ჼ
ჿ
ᄀ
년
옛한글
틀
ሀ
᎙
ᏼ
᐀
ᙿ
᚜
ᚠ
ᛰ
ᜀ
᜔
ᝀ
ᝓ
ᝠ
ᝳ
ក
៹
᠀
ᢪ
ᤀ
᥏
ᥐ
ᥴ
ᨀ
᨟
ᨠ
᪭
ᬀ
᭼
ᮀ
ᮿ
ᯀ
᯿
ᰀ
ᱏ
᱐
᱿
ỿ
῾
​
‌
‍
‎
‏
‑
–
—
―
‘
’
“
”
„
‟
•
…
‧
‪
‬
‰
′
″
※
⁄
⁵
⁵³
ⁿ
₂
₩
€
₹
₼
₽
℃
℈
ℵ
⅔
⅝
⅞
←
↑
→
↓
↔
↷
⇒
⇿
∀
−
∫
∽
≤
≥
⋅
⋿
⌀
⏳
③
④
⑦
⑨
─
■
▲
△
►
◆
○
●
☉
☾
☿
♀
♂
♃
♄
♆
♇
♏
♠
⛢
✓
✗
➿
⟀
⟨
⟩
⟯
⠀
⣿
⦀
⧿
⨀
⫿
⯓
ⰰ
ⱞ
ⲁ
⳿
ⴀ
ⴭ
ⴰ
⵿
ⶀ
ⷞ
⺀
⺄
⺆
⺈
⺊
⺌
⺕
⺝
⺩
⺫
⺮
⺳
⺸
⺼
⻍
⻏
⻖
⿰
⿱
⿲
⿳
⿴
⿵
⿶
⿷
⿸
⿹
⿺
⿻
、
。
〇
〈
〉
《
》
「
」
『
』
〔
〕
〜
〢
〿
ぁ
い
う
え
お
か
け
こ
し
た
ち
っ
て
と
な
の
は
ひ
へ
ほ
ま
み
む
め
も
ゃ
よ
ら
り
る
れ
わ
を
ん
゙
ゟ
゠
キ
ク
コ
シ
セ
チ
ッ
ト
ノ
ヒ
メ
ユ
ラ
ル
ン
・
ー
ヿ
ㄅ
ㄉ
ㄋ
ㄝ
ㄠ
ㄤ
ㄨ
ㄭ
ㄱ
ㆎ
ㆠ
ㆺ
㇁
㇂
㇄
㇇
㇈
㇉
㇓
ㇰ
ㇿ
㎡
㐀
㐁
㐄
㐅
㐌
㐫
㐬
㐭
㐮
㐱
㑒
㑚
㒵
㒸
㒼
㓁
㓞
㔾
㕛
㕣
㖾
㗝
㘝
㚅
㚇
㚔
㚘
㝉
㝡
㝴
㝵
㞋
㞢
㞷
㠩
㠭
㠯
㡀
㡭
㡿
㢲
㢴
㣇
㣺
㤚
㥯
㦿
㪅
㫄
㫐
㫒
㫺
㬅
㬎
㬥
㬰
㲋
㲺
㳄
㵟
㵥
㷄
㷠
㸒
㸚
㸦
㼌
㼲
㽞
㾀
㾪
㿟
䀠
䀹
䂞
䅢
䆊
䉐
䋎
䍃
䍜
䏍
䒑
䖍
䖒
䖝
䖵
䖻
䗁
䗃
䘼
䙴
䚻
䜌
䝿
䟛
䡛
䥑
䧹
䪞
䫌
䱝
䶎
䶑
䶵
一
丁
丂
七
丄
丅
丆
万
丈
三
上
下
丌
不
与
丏
丐
丑
专
且
丕
世
丘
丙
业
东
丞
丟
丢
丣
两
严
並
丨
丩
个
丫
丬
中
丮
丰
丱
串
临
丵
丶
丷
丸
丹
为
主
丼
丽
举
丿
乀
乂
乃
久
乆
乇
么
义
之
乌
乍
乎
乏
乐
乑
乒
乓
乔
乖
乗
乘
乙
乚
乛
乜
九
乞
也
习
乡
书
乩
乱
乳
乾
亀
亂
亅
了
亇
予
争
事
二
亍
于
亏
亐
云
互
亓
五
井
亘
亚
些
亜
亞
亟
亠
亡
亢
交
亥
亦
产
亨
亩
享
京
亭
亮
亯
亰
亲
亳
亶
亷
人
亻
亼
亾
亿
什
仁
仂
仅
仇
仈
今
介
仌
仍
从
仐
仑
仒
仓
仔
仕
他
仗
付
仙
仝
仡
代
令
以
们
仮
仰
仱
仲
件
任
份
仿
企
伊
伍
伏
伐
休
伓
众
会
伟
伬
伯
估
伲
伴
伸
伺
似
伽
但
佈
位
低
住
佐
佑
体
佔
何
佗
佘
余
佛
作
佟
你
佣
佤
佥
佩
佪
佬
佮
佳
併
佶
佺
佻
使
侃
來
侈
例
侌
侍
侖
侗
供
依
価
侧
侬
侮
侯
侵
侶
便
係
促
俄
俊
俗
俚
保
俞
俠
信
俤
俥
俬
修
俱
俾
倉
個
倍
們
倒
倖
候
倚
倛
借
倠
倡
倩
倪
倫
倭
值
假
偉
偌
偏
做
停
健
側
偵
偶
偷
偽
傀
傅
傈
傍
傑
傒
傘
備
傢
傣
催
傲
傳
債
傷
傾
僅
僉
僊
像
僑
僕
僚
僧
僳
價
僻
儀
儂
億
儆
儉
儋
儒
儕
儘
償
儡
儥
優
儲
儷
儿
兀
允
兂
元
兄
充
兆
兇
先
光
兊
克
兌
免
児
兑
兒
兓
兔
党
兜
兟
入
內
全
兩
兪
八
公
六
兮
兰
共
关
兵
其
具
典
兹
兼
冀
冂
冃
冄
内
冈
冉
冊
冋
册
再
冎
冏
冐
冒
冓
冕
冖
冗
冘
军
农
冝
冠
冡
冤
冥
冩
冫
冬
冰
决
况
冶
冷
准
凊
凌
凍
凝
几
凡
凢
凰
凱
凳
凵
凶
凷
凸
凹
出
击
函
凾
刀
刁
刂
刃
刄
刅
分
切
刊
刍
刑
划
刕
刖
列
刘
则
创
初
刡
刣
判
別
刨
利
刪
别
到
制
刷
券
刹
刺
刻
剃
則
削
剌
前
剎
剖
剛
剜
剝
剡
剧
剩
剪
副
割
創
剽
劃
劇
劉
劍
劑
力
办
功
加
务
劦
动
助
努
劫
劳
劵
勁
勃
勇
勉
勒
動
勖
勗
務
勝
勞
募
勢
勤
勳
勵
勸
勹
勺
勻
勾
勿
匀
匂
包
匆
匈
匊
匋
匍
匐
匕
化
北
匙
匚
匝
匠
匡
匪
匯
匱
匸
匹
区
医
匽
匾
匿
區
十
卂
千
卄
卅
卆
升
午
卉
半
卌
华
卑
卒
卓
協
单
卖
南
博
卜
卝
卞
占
卡
卢
卣
卤
卦
卩
卪
卫
卬
卯
印
危
即
却
卵
卷
卸
卻
卿
厂
厃
厄
历
厈
厉
厌
厓
厘
厙
厚
厝
原
厤
厥
厦
厨
厭
厲
厶
厷
厸
去
厼
厽
县
叀
叁
参
參
叅
又
叉
及
友
双
反
叐
发
叒
叔
叕
取
受
变
叙
叚
叛
叜
叟
叢
口
古
句
另
叩
只
叫
召
叭
可
台
叱
史
右
叵
号
司
叹
吂
吃
各
吅
合
吉
吊
吋
同
名
后
吏
吐
向
吓
吕
君
吝
吞
吟
否
吧
含
启
吳
吴
吵
吶
吸
吹
吼
吾
呀
呂
呆
呈
告
呌
员
呙
呢
呣
周
味
呵
呶
呸
呼
命
咅
和
咎
咏
咑
咒
咖
咠
咢
咧
咨
咫
咬
咯
咸
咼
咽
咿
哀
品
哄
哆
哇
哈
哉
哊
响
哎
員
哥
哦
哩
哭
哮
哲
哺
哼
唇
唉
唐
唔
唦
唧
售
唯
唱
唸
唻
商
啇
啊
問
啓
啚
啜
啞
啟
啡
啤
啦
啫
啬
啲
啷
啻
啼
喀
善
喆
喇
喉
喊
喏
喘
喙
喚
喜
喝
喪
喫
喬
單
喻
喿
嗇
嗚
嗞
嗣
嗦
嗵
嗶
嗽
嘅
嘆
嘉
嘎
嘔
嘘
嘛
嘢
嘲
嘴
噃
噉
噠
噦
器
噩
噬
噲
噴
噸
噹
嚏
嚕
嚗
嚟
嚨
嚮
嚴
嚽
囀
囇
囉
囊
囗
囘
囙
囚
四
囝
回
囟
因
囥
囧
囫
囬
园
囯
困
囱
囲
囷
固
国
图
圂
圃
圅
圇
圈
國
圍
園
圓
圖
團
土
圡
圣
圥
在
圭
地
圳
圶
场
圼
圾
址
坂
均
坊
坎
坐
坑
坒
块
坚
坡
坦
坪
坯
坴
坵
坻
垂
垃
型
垔
垕
垚
垣
垫
垮
埀
埃
埋
城
埔
埕
埗
域
埠
埶
執
培
基
埼
堂
堅
堆
堇
堡
堤
堪
堯
堰
報
場
堵
塊
塌
塍
塑
塔
塕
塗
塘
塚
塞
塢
塩
填
塵
塽
境
墅
墊
墓
墘
墙
墜
增
墨
墩
墮
墰
墻
墾
墿
壁
壇
壓
壘
壙
壞
壟
壤
壩
士
壬
壯
声
壳
壴
壹
壺
壽
夂
处
夅
夆
备
変
夊
夋
夌
复
夏
夒
夕
外
夗
夘
多
夜
够
夠
夢
夥
大
夨
天
太
夫
夬
夭
央
夯
失
夲
头
夷
夸
夹
夻
夾
奂
奄
奇
奈
奉
奎
奏
奐
契
奓
奔
奕
套
奘
奚
奞
奠
奢
奥
奧
奪
奭
奮
女
奴
奶
奸
奻
好
如
妃
妄
妊
妍
妒
妓
妖
妙
妝
妟
妥
妮
妹
妻
妾
姆
姊
始
姐
姑
姓
委
姕
姚
姜
姥
姦
姬
姮
姻
姿
威
娃
娄
娘
娛
娜
娟
娠
娥
娩
婁
婆
婉
婕
婚
婢
婦
婴
婺
婿
媒
媛
媧
媳
媼
媽
嫁
嫂
嫌
嫔
嫡
嫦
嫩
嬌
嬤
嬪
嬭
嬰
嬴
嬷
嬸
孃
子
孑
孔
孕
孖
字
存
孚
孛
孜
孝
孟
季
孤
学
孩
孫
孱
學
孽
宀
宁
宂
它
宅
宇
守
安
宋
完
宏
宓
宗
官
宙
定
宛
宜
宝
实
审
客
宣
室
宥
宦
宫
宮
宰
害
宴
宵
家
容
宽
宾
宿
寄
寅
密
寇
富
寒
寓
察
寢
實
寧
寨
審
寫
寬
寮
寰
寵
寶
寸
对
寺
寻
寽
対
寿
封
尃
射
尅
将
將
專
尉
尊
尋
尌
對
導
小
少
尒
尓
尔
尖
尗
尚
尞
尢
尣
尤
尧
尨
尭
就
尸
尹
尺
尻
尼
尽
尾
尿
局
居
屆
屈
屋
屍
屎
屏
屑
展
屖
屚
屜
属
屠
屡
層
屬
屮
屯
屰
山
屵
屹
屾
屿
岁
岂
岐
岑
岔
岡
岩
岭
岱
岳
岸
峡
峨
峪
峯
峰
島
峽
崇
崎
崑
崔
崖
崗
崙
崦
崩
嵊
嵌
嵐
嵩
嵬
嶲
嶺
嶼
嶽
巂
巖
巛
巜
川
州
巟
巠
巡
巢
巤
工
左
巧
巨
巩
巫
差
巰
己
已
巳
巴
巷
巸
巽
巾
巿
帀
市
布
帆
师
希
帕
帖
帚
帛
帝
帥
带
師
席
帳
帶
常
帽
幕
幟
幣
幫
干
平
年
幵
并
幷
幸
幹
幺
幻
幼
幽
幾
广
広
庄
庆
庇
床
序
应
底
庖
店
庙
庚
府
庠
度
座
庫
庭
庵
庶
康
庸
廁
廂
廈
廉
廊
廌
廖
廚
廛
廟
廠
廢
廣
廩
廬
廮
廳
廴
延
廷
建
廾
廿
开
弁
弃
弄
弇
弊
弋
式
弓
弔
引
弗
弘
弜
弟
张
弥
弦
弧
弱
張
強
弹
强
弼
彈
彊
彌
彎
彐
彑
归
当
彔
录
彖
彗
彙
彝
彡
形
彥
彦
彧
彩
彬
彭
彰
影
彳
役
彼
往
征
径
待
很
律
後
徐
徑
徒
得
徙
徛
從
御
復
循
微
徳
徵
德
徹
徽
心
忄
必
忌
忍
志
忘
忙
忝
忠
忤
忩
快
念
忻
忽
忿
态
怎
怒
怕
思
怠
怡
急
性
怨
怪
怱
总
恁
恆
恐
恒
恕
恢
恤
恨
恩
恪
恭
息
恰
悅
悉
悟
悠
患
悤
您
悲
悴
悶
悼
情
惇
惊
惑
惜
惟
惠
惡
惢
惨
惰
想
惹
惻
愁
愆
愈
愉
意
愚
愛
感
愧
慄
慈
態
慎
慕
慘
慢
慣
慧
慮
慰
慶
慾
憂
憐
憑
憒
憔
憤
憫
憲
憶
懇
應
懊
懒
懲
懶
懷
懸
懿
戀
戈
戉
戊
戋
戌
戍
戎
戏
成
我
戒
戔
或
战
戚
戠
戢
截
戰
戲
戳
戴
戶
户
戸
戹
戼
戾
房
所
扁
扇
扉
手
扌
才
扎
扒
打
扔
托
扛
扣
执
扬
扮
扯
扶
批
扼
找
承
技
把
抑
抒
抓
投
抖
抗
折
抛
护
报
披
抱
抹
押
抽
抾
拆
拇
拈
拉
拋
拌
拍
拒
拓
拔
拖
拗
拘
拚
招
拜
括
拯
拱
拳
拴
拼
拾
拿
持
挃
指
挈
按
挌
挑
挖
挨
挪
振
捆
捉
捏
捐
捕
捞
换
捨
据
捲
捵
捷
捺
捼
掃
掄
掇
授
掉
掌
掏
排
掖
掘
掙
掛
掠
採
探
接
控
推
掩
掰
揀
描
提
插
揚
換
握
揢
揭
揮
援
損
搓
搖
搗
搜
搞
搦
搨
搬
搭
搵
搶
摒
摔
摘
摜
摧
摩
摳
摸
摻
撇
撈
撐
撒
撕
撙
撞
撤
撥
撩
撫
播
撮
撲
撾
擁
擇
擊
擋
操
擎
擔
擘
據
擠
擦
擬
擲
擴
擺
擾
攀
攏
攔
攖
攜
攝
攤
支
攴
攵
收
攷
攸
改
攻
放
政
敄
故
敆
效
敎
敏
救
敕
敖
敗
敘
教
敝
敞
敢
散
敦
敫
敬
数
敲
整
敵
敷
數
斂
文
斉
斊
斌
斐
斑
斗
料
斜
斤
斥
斧
斩
斫
斬
断
斯
新
斷
方
於
施
斿
旁
旅
旋
旌
族
旗
无
旡
既
旣
日
旦
旧
旨
早
旬
旭
旱
旲
时
旺
旻
旾
昀
昂
昆
昇
昌
昍
明
昏
易
昔
昕
昗
昜
星
映
春
昨
昬
昭
是
昰
昱
昴
昶
昷
昺
显
時
晃
晉
晋
晏
晚
晝
晟
晡
晨
普
景
晰
晴
晶
智
晾
暉
暑
暖
暗
暝
暢
暨
暫
暱
暴
暹
暾
曆
曇
曉
曜
曝
曠
曦
曩
曰
曲
曳
更
曷
書
曹
曼
曾
替
最
朁
會
月
有
朋
服
朔
朕
朗
望
朝
期
木
朩
未
末
本
札
朮
术
朱
朴
朵
朶
机
朿
杀
权
杆
杉
李
杏
材
村
杖
杜
杞
束
条
来
杨
杭
杯
杰
東
杲
杳
杷
松
板
构
枇
析
枕
林
枚
果
枝
枫
枯
枲
架
枷
枸
枹
枼
柄
柏
某
柑
染
柔
柘
柚
柝
查
柬
柯
柰
柱
柳
柴
柿
栃
标
栖
栗
校
栢
栩
株
样
核
根
格
栽
桀
桂
桃
框
案
桌
桐
桑
桓
桔
档
桥
桶
桼
桿
梁
梅
梓
梗
條
梟
梢
梧
梨
梯
械
梳
梵
检
棄
棉
棋
棒
棕
棗
棘
棚
棠
棣
棥
森
棱
棲
棹
棺
椅
植
椎
椏
椒
椰
椿
楂
楊
楓
楔
楚
楞
楨
業
極
楷
楻
楼
楽
概
榆
榔
榕
榜
榦
榨
榭
榮
榴
構
槍
槓
様
槿
樁
樂
樊
樑
樓
樘
標
樞
樟
模
樣
横
樫
樹
樺
橄
橋
橘
橙
橛
機
橡
橢
橫
檀
檄
檐
檔
檜
檢
檨
檬
檯
檳
檸
檻
櫃
櫞
櫥
欄
權
欒
欖
欛
欠
次
欣
欧
欩
欮
欲
欶
欺
欽
款
歆
歇
歉
歌
歐
歛
歞
歡
止
正
此
步
武
歧
歨
歪
歮
歯
歰
歲
歴
歷
歸
歹
歺
死
殊
殖
殘
殳
段
殷
殸
殹
殺
殻
殼
殿
毀
毅
毋
毌
母
每
毒
毓
比
毕
毗
毚
毛
毫
毬
毳
氈
氏
氐
民
气
氕
氖
氘
氙
氚
氛
氟
氡
氣
氥
氦
氧
氨
氪
氫
氬
氮
氯
水
氵
氶
氷
永
氹
氺
氾
汀
汁
求
汆
汉
汕
汗
汙
汝
汞
江
池
污
汪
汶
決
汽
汾
沂
沃
沅
沈
沉
沒
沓
沖
沙
沛
沝
沟
沰
河
沸
油
治
沿
況
泄
泅
泉
泊
泌
法
泗
泛
泡
波
泣
泥
注
泯
泰
洁
洋
洗
洙
洛
洞
津
洪
洱
洲
洵
活
洽
派
流
济
浙
浚
浦
浩
浪
浮
海
浸
涂
消
涉
涌
涛
涪
涯
液
涵
涼
涿
淀
淄
淆
淋
淑
淒
淘
淚
淡
淤
淨
淩
淪
淫
淮
深
淳
淵
混
淹
淺
添
清
渐
渚
減
渝
渠
渡
渣
渤
渦
渧
温
測
渭
港
渴
游
湄
湉
湊
湍
湖
湘
湛
湧
湯
湾
溉
源
準
溜
溝
溥
溧
溪
溫
溯
溴
溶
滁
滄
滅
滇
滋
滌
滑
滓
满
滩
滬
滲
滴
滸
滾
滿
漁
漂
漆
漈
漏
演
漘
漠
漢
漤
漫
漯
漲
漳
漸
漿
潍
潑
潔
潘
潛
潜
潞
潟
潢
潤
潦
潨
潭
潮
潰
潼
澀
澄
澈
澎
澤
澱
澳
激
濁
濂
濃
濕
濛
濟
濠
濤
濫
濮
濰
濱
濾
瀆
瀉
瀋
瀏
瀑
瀕
瀘
瀚
瀛
瀝
瀾
灌
灘
灝
灣
火
灬
灭
灰
灴
灵
灶
灷
灼
災
炅
炆
炊
炎
炏
炒
炖
炗
炙
炭
炮
炳
炸
点
為
烈
烊
烏
烘
烝
烟
烤
烧
烯
烰
烴
烷
烹
烽
焉
焊
焙
無
焦
焯
焰
焱
然
煉
煌
煎
煙
煚
煞
煥
照
煩
煬
煮
熁
熊
熏
熒
熔
熙
熜
熟
熨
熬
熱
熹
熾
燁
燃
燈
燋
燎
燐
燒
燕
營
燦
燬
燭
燮
爆
爐
爛
爪
爫
爬
爭
爯
爰
爱
爲
爵
父
爸
爹
爺
爻
爽
爾
爿
牆
片
版
牌
牙
牚
牛
牜
牟
牡
牢
牧
物
牪
牯
牲
牳
特
牽
犀
犁
犖
犢
犧
犬
犭
犮
犯
状
狀
狂
狄
狊
狐
狗
狠
狡
独
狮
狸
狹
狺
狼
猋
猒
猖
猛
猜
猩
猪
猫
献
猴
猶
猷
獄
獅
獎
獗
獨
獲
獵
獸
獺
獻
獼
玄
率
玉
王
玟
玨
玩
现
玲
玻
珂
珅
珊
珍
珎
珠
珦
珪
班
現
球
琅
理
琉
琊
琛
琯
琰
琴
琵
琶
琿
瑋
瑗
瑚
瑛
瑜
瑞
瑟
瑣
瑤
瑩
瑪
瑯
瑰
璃
璋
璠
璧
環
瓊
瓏
瓜
瓠
瓢
瓣
瓦
瓮
瓶
瓷
甄
甌
甑
甕
甘
甚
甜
生
產
産
用
甫
甬
田
由
甲
申
电
甶
男
甸
甹
画
甾
畀
界
畏
畐
留
畜
畝
畟
畢
略
畦
畧
畨
番
畫
畬
異
畱
畲
當
畺
畾
疆
疇
疊
疋
疌
疍
疏
疑
疒
疔
疤
疫
疲
疳
疵
疼
疾
病
症
痕
痘
痙
痛
痞
痢
痰
痴
瘁
瘋
瘌
瘍
瘓
瘟
瘠
瘡
瘤
瘥
瘦
瘮
瘰
療
癌
癖
癩
癱
癲
癶
癸
癹
登
發
白
百
皀
皂
皃
的
皆
皇
皋
皐
皓
皕
皖
皮
皷
皿
盂
盃
盆
盇
盈
益
盍
盎
盐
监
盒
盖
盛
盜
盞
盟
盡
監
盤
盧
盪
目
盯
盱
盲
直
相
盼
盾
省
眇
眉
看
県
眔
眚
眞
真
眠
眨
眩
眯
眶
眷
眼
眾
着
睏
睘
睡
督
睦
睪
睭
睾
睿
瞏
瞓
瞢
瞬
瞭
瞳
瞻
瞿
矍
矛
矞
矢
矣
知
矦
矩
短
矮
石
矽
矾
矿
码
砂
砍
砒
研
砧
砲
破
砷
砸
砹
硃
硅
硒
硕
硝
硩
硫
硬
确
硼
碎
碗
碘
碚
碟
碧
碩
碭
碰
碱
碲
碳
碶
確
碼
磁
磊
磚
磨
磬
磯
磷
磺
礁
礎
礙
礤
礦
礫
示
礻
礼
社
祀
祁
祈
祐
祕
祖
祜
祝
神
祟
祠
祥
票
祭
祼
祿
禀
禁
禍
禎
福
禛
禦
禧
禪
禮
禱
禳
禸
禹
禺
离
禽
禾
禿
秀
私
秃
秈
秉
秋
种
科
秒
秘
秝
秞
租
秤
秦
秧
秩
秫
秭
秮
称
移
秾
稀
稅
稈
程
稍
稚
稞
稟
稠
種
稱
稷
稻
稼
稽
稿
穀
穄
穆
穌
積
穎
穗
穢
穩
穫
穴
究
穹
空
穿
突
窄
窑
窒
窓
窗
窩
窮
窾
竄
竇
立
竒
站
竜
竝
竞
竟
章
童
竭
端
競
竹
竿
笑
笔
笙
笞
笠
符
第
筅
筆
等
筋
筍
筑
筒
答
策
筝
筵
签
简
箂
箋
箏
箒
箔
箕
算
管
箬
箭
箱
箴
箸
節
範
篆
篇
築
篙
篡
篤
篩
篭
篮
篳
篷
簡
簪
簫
簷
簸
簽
簾
籃
籌
籍
籠
籤
籩
籮
籲
米
类
籽
粉
粑
粒
粕
粗
粘
粙
粛
粞
粟
粤
粥
粦
粱
粲
粳
粵
粹
粽
精
粿
糊
糕
糖
糜
糞
糟
糧
糯
糴
糸
糹
系
紀
紂
約
紅
紉
紋
納
紐
紓
純
紙
級
素
紡
索
紫
紮
累
細
紲
紹
終
絃
組
結
絕
絜
絞
絡
給
絨
絫
絮
統
絲
絳
絶
綁
綏
經
綜
綠
綢
綦
綫
綬
維
綱
網
綴
綵
綸
綻
綽
綿
緃
緊
緒
線
緝
締
緣
編
緩
緬
緯
練
緻
縄
縊
縛
縣
縮
縱
縷
總
績
繁
繆
繇
織
繞
繡
繩
繪
繫
繭
繳
繼
纂
續
纍
纏
纖
纜
纟
红
约
级
纪
纯
纷
纽
线
组
细
织
终
绍
经
结
绕
给
络
统
绪
维
缀
编
缩
缶
缸
缺
罐
网
罒
罔
罕
罗
罙
罟
罡
罢
罩
罪
置
罰
署
罵
罷
羅
羈
羊
羌
羍
美
羔
羕
羗
羞
羡
羣
群
義
羲
羸
羹
羽
羿
翁
翅
翊
翏
習
翔
翕
翟
翠
翡
翦
翩
翰
翹
翻
翼
耀
老
耂
考
者
耆
而
耎
耐
耑
耒
耕
耙
耦
耨
耳
耴
耶
耷
耻
耽
耿
聂
聊
联
聖
聚
聞
聯
聰
聲
聳
聶
職
聽
聿
肀
肃
肅
肇
肉
肌
肖
肘
肙
肚
肛
肝
股
肢
肥
肩
肪
肯
育
肴
肺
肿
胃
背
胎
胚
胜
胞
胡
胤
胥
胭
胰
胲
胶
胸
胼
能
脂
脅
脆
脈
脊
脏
脢
脧
脩
脫
脬
脰
脱
脾
腎
腐
腓
腔
腕
腡
腦
腫
腰
腳
腸
腹
腺
腿
膀
膈
膏
膚
膛
膜
膠
膨
膩
膺
膽
臂
臍
臒
臘
臚
臟
臣
臤
臧
臨
自
臬
臭
臯
臱
至
致
臺
臼
臽
臾
臿
舀
舂
舄
舅
與
興
舉
舊
舌
舍
舒
舛
舜
舞
舟
航
般
船
艇
艘
艦
艮
良
艱
色
艷
艸
艹
艺
艾
芋
芒
芔
芘
芙
芜
芝
芥
芬
芭
芮
芯
花
芳
芹
芺
芻
芽
芾
苏
苑
苔
苗
苞
苟
苣
若
苦
苯
英
茂
范
茄
茅
茉
茍
茜
茨
茲
茵
茶
茸
荀
荅
荆
草
荊
荑
荒
荔
荣
荷
荸
荼
莆
莇
莉
莊
莎
莒
莓
莖
莗
莞
莧
莨
莫
莱
莲
获
莽
菁
菅
菆
菇
菊
菌
菏
菐
菓
菜
菠
菢
菩
菪
華
菰
菱
菲
萄
萆
萊
萌
萍
营
萧
萨
萬
萱
萵
落
葆
葇
葉
著
葛
葡
董
葦
葫
葬
葵
蒂
蒐
蒔
蒙
蒜
蒦
蒲
蒸
蒻
蒼
蒿
蓄
蓆
蓉
蓋
蓟
蓬
蓮
蓺
蔑
蔔
蔗
蔡
蔣
蔥
蔬
蔭
蔴
蔸
蔽
蕃
蕉
蕊
蕎
蕖
蕙
蕩
蕪
蕭
蕲
蕹
蕾
薄
薇
薈
薊
薌
薐
薑
薛
薜
薦
薨
薩
薪
薯
薰
薺
藁
藉
藍
藏
藜
藝
藤
藥
藩
藿
蘆
蘇
蘊
蘋
蘑
蘭
蘿
虍
虎
虐
虒
虔
處
虖
虗
虘
虚
虛
虜
虞
號
虧
虫
虱
虹
虼
虽
蚊
蚌
蚓
蚕
蚣
蚤
蚨
蚩
蚰
蚱
蚵
蚶
蚻
蛄
蛇
蛋
蛙
蛛
蛟
蛤
蛦
蛼
蛾
蜀
蜂
蜃
蜆
蜈
蜊
蜑
蜒
蜓
蜘
蜚
蜜
蜞
蜡
蜢
蜫
蜱
蜻
蝀
蝎
蝕
蝗
蝘
蝙
蝠
蝦
蝴
蝶
蝸
螂
融
螞
螟
螢
螯
螳
螺
蟀
蟄
蟆
蟈
蟋
蟒
蟛
蟟
蟥
蟧
蟲
蟳
蟶
蟹
蟻
蠅
蠊
蠍
蠐
蠓
蠔
蠞
蠟
蠡
蠣
蠶
蠻
血
衆
行
衍
術
街
衙
衛
衝
衞
衡
衢
衣
衤
补
表
衫
衮
衰
衷
衹
袁
袋
袍
袖
袞
被
袼
裁
裂
装
裏
裔
裕
裙
補
裝
裡
裳
裴
裹
製
複
褐
褒
褚
褪
褭
褱
褲
褻
襄
襲
襾
西
覀
要
覃
覆
覈
見
規
覓
視
覡
覧
親
覭
覷
覺
覽
觀
见
角
解
觸
言
訁
訂
訇
計
訊
討
訓
託
記
訟
訣
訪
設
許
訴
診
註
証
詐
詔
評
詝
詞
詠
詢
試
詩
詮
詰
話
該
詳
詹
誇
誌
認
誓
誕
誘
語
誠
誡
誤
誦
誨
誩
說
説
課
誹
誼
調
談
請
諒
論
諡
諧
諫
諭
諮
諱
諷
諸
諺
諾
謀
謂
謔
謗
謙
講
謝
謠
謨
謹
證
譏
識
譚
譜
警
譬
譯
議
譴
護
譽
讀
變
讓
讚
讞
讠
计
认
议
讲
设
访
识
诗
话
询
该
详
语
误
说
请
诸
谦
谴
谷
谿
豆
豈
豉
豊
豎
豐
豕
豖
豙
豚
象
豢
豦
豩
豪
豫
豬
豸
豹
豺
貇
貌
貓
貝
貞
貟
負
財
貢
貧
貨
貪
貫
責
貯
貳
貴
貶
買
貸
費
貼
貽
貿
賀
賁
賂
賄
資
賈
賊
賏
賓
賔
賛
賜
賞
賠
賢
賣
賤
賦
質
賬
賭
賴
賺
購
賽
贅
贈
贊
贏
贖
贛
贝
贡
财
责
败
质
贯
贲
贴
贵
赖
赞
赢
赣
赤
赦
赫
走
赴
赵
起
趁
超
越
趕
趙
趣
趨
足
趾
跋
跑
距
跟
跡
跣
跨
跪
路
跳
踏
踐
踢
蹄
蹇
蹈
蹟
蹲
蹺
躃
躄
躍
躒
身
躬
躲
軀
車
軌
軍
軎
軒
軟
軸
軻
軼
軾
較
載
輔
輕
輛
輝
輦
輩
輪
輯
輸
輻
輾
輿
轄
轅
轆
轉
轎
车
载
较
辅
辉
辑
输
辖
辛
辜
辟
辣
辥
辦
辨
辭
辮
辯
辰
辱
農
辵
辶
边
达
迅
过
迎
运
近
返
这
进
远
连
迦
迨
迪
迫
述
迴
迵
迷
追
退
送
适
逃
逆
选
逊
透
逐
递
途
逕
逗
這
通
逛
逞
速
造
逢
連
逮
週
進
逷
逸
逼
逾
逿
遀
遂
遇
遊
運
遍
過
遐
道
達
違
遘
遙
遜
遞
遠
遣
適
遭
遮
遲
遵
遶
遷
選
遺
遼
避
邀
邁
還
邊
邏
邑
邕
邛
邢
那
邦
邪
邯
邱
邳
邵
邽
郊
郎
郑
郡
郢
部
郭
郴
郵
都
鄂
鄉
鄒
鄖
鄧
鄭
鄰
鄱
鄲
鄺
酆
酉
酋
配
酒
酓
酥
酪
酬
酮
酱
酵
酶
酷
酸
醃
醇
醉
醋
醒
醜
醫
醬
醮
釁
釆
采
釋
里
重
野
量
釐
金
釒
釓
釔
釕
釘
釙
釜
針
釣
釤
釩
釭
釷
釹
鈀
鈁
鈇
鈈
鈉
鈍
鈎
鈔
鈕
鈞
鈣
鈥
鈦
鈧
鈮
鈰
鈴
鈷
鈸
鈹
鈺
鈾
鉀
鉅
鉈
鉍
鉎
鉑
鉕
鉗
鉚
鉛
鉝
鉢
鉤
鉨
鉬
鉭
鉲
鉳
鉸
鉺
鉻
鉿
銀
銃
銅
銇
銓
銘
銜
銠
銣
銥
銦
銩
銪
銫
銳
銷
銻
鋁
鋅
鋇
鋒
鋦
鋨
鋪
鋯
鋰
鋱
鋸
鋼
錀
錄
錇
錐
錒
錘
錠
錢
錦
錨
錫
錯
錳
錶
錸
錼
鍀
鍅
鍆
鍇
鍋
鍍
鍘
鍛
鍩
鍵
鍶
鍺
鍾
鎂
鎄
鎇
鎊
鎔
鎖
鎗
鎘
鎝
鎢
鎮
鎳
鎵
鎶
鎿
鏈
鏌
鏑
鏗
鏡
鏨
鏰
鏷
鏻
鏽
鐒
鐘
鐠
鐤
鐦
鐨
鐳
鐵
鐸
鐽
鐿
鑀
鑄
鑑
鑒
鑥
鑪
鑭
鑰
鑼
鑽
钅
铋
银
链
销
错
锦
镇
镜
長
镸
长
門
閃
閆
閉
開
閏
閑
閒
間
閔
閘
閣
閩
閭
閱
閵
閻
闆
闊
闌
闖
闘
關
门
闪
问
间
闷
闻
闽
阅
阑
阜
阝
队
阡
阪
阮
防
阻
阿
陀
附
际
陆
陈
降
限
陜
陝
陞
院
陣
除
陪
陰
陳
陵
陶
陷
陸
陽
隅
隆
隊
隋
隍
階
随
隔
隘
際
障
隠
隡
隨
險
隱
隴
隶
隸
隹
隺
隻
隼
隽
难
雀
雁
雄
雅
集
雈
雉
雋
雌
雍
雐
雒
雔
雕
雖
雙
雚
雛
雜
雝
雞
離
難
雨
雩
雪
雲
零
雷
雹
雺
電
需
霄
霆
震
霉
霍
霓
霖
霜
霝
霞
霧
露
霸
霹
霽
霾
靂
靈
靑
青
靖
静
靚
靜
非
靠
靡
面
靣
革
靶
靸
鞋
鞍
鞏
鞔
鞘
鞠
韋
韓
韦
韭
韯
韱
音
韵
韶
韻
響
頁
頂
頃
項
順
須
頊
頌
預
頒
頓
頗
領
頜
頡
頦
頭
頷
頸
頻
顆
題
額
顏
顒
顔
顕
願
顚
顛
類
顧
顯
页
顶
项
顺
领
题
颜
風
颱
飄
风
飛
飞
食
飠
飯
飰
飲
飼
飽
飾
餃
餅
養
餐
餓
餔
餘
餜
餡
館
餻
饃
饅
饑
饒
饕
饣
馆
首
香
馬
馮
馳
馴
駁
駃
駐
駕
駛
駝
駢
駦
駱
駿
騎
騙
騫
騰
騶
騷
驅
驍
驐
驗
驚
驛
驟
驢
马
验
骤
骨
骲
骹
骿
髀
髒
髓
體
高
髟
髦
髮
髻
鬅
鬆
鬚
鬥
鬧
鬬
鬯
鬱
鬲
鬼
魁
魂
魄
魅
魇
魈
魏
魔
魚
魟
魨
魯
魷
魺
鮐
鮑
鮭
鮮
鮹
鯉
鯊
鯡
鯨
鯪
鯽
鰂
鰍
鰓
鰭
鰲
鰸
鰻
鱉
鱗
鱟
鱷
鱸
鱺
鱼
鲁
鲜
鲨
鳥
鳩
鳳
鳴
鴉
鴓
鴕
鴝
鴣
鴨
鴰
鴴
鴻
鴿
鵀
鵑
鵒
鵜
鵝
鵡
鵬
鵯
鵲
鶇
鶘
鶯
鶴
鶿
鷂
鷄
鷗
鷰
鷹
鷺
鸕
鸚
鸟
鸿
鹵
鹹
鹼
鹽
鹿
麃
麇
麒
麗
麟
麥
麦
麵
麸
麺
麻
麼
麽
麾
黃
黄
黍
黎
黐
黑
黒
黔
默
黙
黛
黜
點
黨
黴
黹
黽
黾
鼇
鼈
鼎
鼓
鼠
鼬
鼴
鼹
鼻
齅
齊
齋
齐
齒
齡
齣
齿
龍
龐
龔
龕
龙
龜
龟
龠
龰
龱
龴
龵
龶
龷
龸
龹
鿌
ꀀ
ꆇ
ꆈ
ꉙ
ꌠ
꒿
꓆
ꓐ
꓿
ꔀ
ꘫ
ꙁ
ꚁ
ꚗ
ꚠ
꛷
ꞌ
ꡀ
꡷
ꢀ
꣙
꣠
ꣻ
꤀
꤯
ꤰ
꥟
ꦀ
꧟
ꧠ
ꧾ
ꨀ
꩟
ꩠ
ꩿ
ꪀ
꫟
ꫠ
꫿
ꬁ
ꬮ
ꭰ
ꮿ
ꯀ
꯿


者
艹
ﬓ
ﬗ
ﭐ
﷽
ﹰ
ﻼ
﻿
！
＃
＆
（
）
＊
＋
，
－
．
／
：
；
＝
？
～
ｪ
￮
𐀀
𐃺
𐊀
𐊜
𐊠
𐋐
𐋡
𐋻
𐌀
𐌣
𐌰
𐌱
𐌲
𐌳
𐌴
𐌵
𐌶
𐌷
𐌸
𐌹
𐌺
𐌻
𐌼
𐌽
𐌾
𐌿
𐍀
𐍂
𐍃
𐍄
𐍅
𐍆
𐍇
𐍈
𐍉
𐍊
𐍐
𐍺
𐎀
𐎟
𐎠
𐏕
𐐨
𐑏
𐑐
𐑿
𐒀
𐒩
𐔀
𐔧
𐔰
𐕣
𐕯
𐘀
𐝧
𐠀
𐠿
𐡀
𐡟
𐡠
𐡿
𐢀
𐢯
𐣠
𐣿
𐤀
𐤟
𐤠
𐤿
𐦀
𐦟
𐦠
𐦿
𐨀
𐩘
𐩠
𐩿
𐪀
𐪟
𐫀
𐫶
𐬀
𐬿
𐭀
𐭟
𐭠
𐭿
𐮀
𐮯
𐰀
𐱈
𐳀
𐳲
𑀀
𑁯
𑂀
𑃁
𑃐
𑃹
𑄀
𑅃
𑅐
𑅶
𑆀
𑇙
𑈀
𑈽
𑊀
𑊩
𑊰
𑋹
𑌁
𑍴
𑒀
𑓙
𑖀
𑗝
𑘀
𑙙
𑚀
𑛉
𑜀
𑜿
𑣀
𑣿
𑫀
𑫸
𒀀
𒍮
𒐀
𒑳
𓀀
𓐮
𔐀
𔙆
𖠀
𖨸
𖩀
𖩯
𖫐
𖫵
𖬀
𖮏
𖼀
𖾟
𗂧
𗴂
𗹭
𘜶
𛰀
𛲟
𝐀
𝟿
𝠀
𝪯
𞠀
𞣖
𞤢
𞥟
🌀
🛅
🜨
𠀀
𠀁
𠀃
𠀆
𠀉
𠀎
𠀐
𠁁
𠁣
𠂆
𠂇
𠂈
𠂉
𠂊
𠂋
𠂎
𠂒
𠂔
𠂛
𠂡
𠂢
𠂤
𠂬
𠂭
𠂹
𠃊
𠃋
𠃌
𠃍
𠃎
𠃑
𠃓
𠃔
𠃜
𠄌
𠄎
𠄠
𠄢
𠆢
𠆥
𠆧
𠇍
𠈌
𠌵
𠓜
𠔉
𠔥
𠔼
𠔽
𠔿
𠕀
𠕁
𠕇
𠕋
𠘧
𠘨
𠙻
𠙼
𠚏
𠚒
𠚤
𠚪
𠚺
𠟶
𠣏
𠤎
𠤕
𠥓
𠦄
𠦑
𠦝
𠧒
𠧗
𠧪
𠩺
𠪚
𠫓
𠫔
𠫤
𠬛
𠬝
𠬞
𠬢
𠬤
𠬶
𠮛
𠮦
𠮷
𠯑
𠱠
𠲥
𠳮
𠷎
𡅏
𡈼
𡉀
𡉵
𡌥
𡍮
𡏳
𡕒
𡕩
𡕰
𡖅
𡗗
𡗜
𡘆
𡘤
𡚸
𡧱
𡨄
𡩧
𡬠
𡭽
𡯂
𡰣
𡰥
𡰪
𡰯
𡰱
𡷈
𡸁
𡿨
𡿩
𡿪
𡿺
𢀖
𢀛
𢀩
𢁙
𢆉
𢆰
𢆶
𢇁
𢇇
𢉖
𢌬
𢌿
𢏚
𢑑
𢑚
𢖻
𢙣
𢛳
𢦏
𢦒
𢧵
𢪱
𢯽
𢯾
𢱈
𢲫
𢼄
𢾕
𣁋
𣄼
𣅀
𣅽
𣆯
𣍐
𣍘
𣎳
𣎵
𣏋
𣏫
𣏼
𣗥
𣗬
𣥂
𣥖
𣦵
𣦼
𣧄
𣪊
𣪠
𣬉
𣳾
𣶒
𣷲
𣹇
𤇾
𤈦
𤊽
𤐫
𤓰
𤔔
𤕨
𤞚
𤣩
𤰇
𤰔
𤰞
𤴓
𤴔
𤽄
𥁑
𥁕
𥃦
𥃩
𥃭
𥇡
𥍉
𥏘
𥑟
𥘅
𥘈
𥝢
𥫗
𥱡
𥺪
𥻵
𦈢
𦉪
𦉬
𦉼
𦍌
𦍒
𦎧
𦐇
𦓔
𦔮
𦘒
𦙃
𦚏
𦚱
𦣝
𦣞
𦣻
𦥑
𦥔
𦥯
𦨉
𦭝
𦰩
𧆞
𧈧
𧋘
𧏫
𧑎
𧔢
𧕴
𧘇
𧰨
𧲇
𧴪
𧴮
𧵩
𧹔
𧾷
𨧀
𨨏
𨭆
𨭎
𨸏
𨾴
𩄻
𩎕
𩙿
𩚉
𩠐
𩨑
𩩍
𩫏
𩵋
𩸎
𩸞
𩽏
𪉷
𪏸
𪜀
𪟽
𪠲
𪩲
𪺾
𫇦
𫒦
𫔭
𫜸
𫝀
𫠣
𫠩
𫢉
𫥞
𫩏
𫩠
𫪡
𫲽
𫶧
𬀷
𬂌
𬐘
𬗌
𬙙
𬛸
𬜯
𬟩
𬯁
𬴘
𬺯
𬺻
𬼉
𬼖
𭀰
𭁈
𭁨
𭅰
𭑈
𭕄
𭗼
𭤨
𭥫
𭻾
𮅕
𮊿
𮍌
𮍏
𮓗
𮥼
𮧮
廾
𰀁
𰀄
𰀈
𰀉
𰀕
𰀠
𰀡
𰀢
𰀪
𰁜
𰃮
𰆊
𰆘
𰋙
𰕎
𰢴
𰧭
𰯲
000--
002--
003--
010--
011--
02--
03--
04--
06--
07--
27--
28--
29--
30--
31--
32--
33--
34--
35--
36--
37--
40--
4071--
41--
42--
43--
44--
45--
47--
50--
51--
52--
54--
56--
57--
59--
60--
61--
64--
71--
72--
80--
82--
85--
90--
98--
99--
a--
aa--
ab--
above--
ac--
acc--
acti--
ad--
add--
ae--
af--
ag--
ah--
ai--
ak--
al--
ala--
alex--
algon--
all--
alt--
am--
an--
ana--
and--
ang--
angli--
ani--
anta--
anti--
any--
ao--
app--
appli--
approxi--
apu--
ar--
ara--
arc--
arg--
args--
argsarg--
ari--
as--
ash--
ast--
asu--
at--
ata--
attr--
au--
austr--
auto--
av--
ava--
aw--
awe--
az--
b--
ba--
bab--
back--
bad--
bah--
bai--
bal--
bamb--
ban--
bar--
base--
bay--
be--
bel--
ben--
ber--
bet--
bh--
bi--
bib--
bid--
big--
bill--
bin--
bir--
biri--
bishnu--
bla--
blo--
bo--
bom--
bon--
bor--
bow--
br--
bris--
bro--
bu--
bug--
bur--
bus--
by--
c--
ca--
cal--
calcu--
call--
can--
cap--
car--
cas--
cat--
cc--
ce--
cell--
cfg--
ch--
cha--
che--
check--
chi--
cho--
chu--
ci--
cite--
cl--
claim--
clean--
co--
col--
com--
con--
constan--
cor--
cr--
cri--
cu--
cy--
cyber--
d--
da--
dam--
dar--
data--
date--
datetime--
daw--
de--
dec--
decil--
decla--
decode--
def--
demo--
des--
dha--
dho--
di--
dic--
diffe--
disa--
diss--
dja--
dji--
do--
dom--
down--
dra--
dri--
dry--
dt--
du--
dur--
dura--
dy--
e--
ea--
eb--
ec--
ed--
ef--
eh--
ei--
ej--
ek--
el--
elec--
electri--
em--
en--
end--
eng--
equa--
er--
es--
et--
etvr--
eu--
ev--
ex--
excl--
exclu--
exp--
ext--
f--
fa--
falk--
fe--
fi--
find--
first--
fix--
fl--
flag--
fo--
for--
fr--
frame--
free--
ft--
fu--
fuh--
full--
fy--
g--
ga--
gal--
gar--
gara--
gb--
ge--
geo--
ger--
get--
getall--
gi--
giga--
gl--
gn--
go--
gor--
got--
gow--
gr--
gram--
gt--
gu--
gua--
gui--
gun--
gurm--
gw--
gy--
h--
ha--
han--
har--
hard--
has--
hay--
he--
hel--
help--
her--
herm--
hi--
hic--
high--
hin--
hiro--
ho--
hoc--
hok--
hr--
hu--
hua--
hund--
hy--
hyper--
i--
ia--
ib--
ic--
id--
iden--
ie--
if--
ik--
il--
illu--
image--
img--
in--
inc--
info--
int--
inten--
inter--
io--
ip--
ir--
iri--
is--
isa--
ishi--
iso--
isvalid--
it--
iter--
iu--
iwa--
ix--
iz--
j--
ja--
jar--
je--
ji--
jo--
json--
ju--
k--
ka--
kai--
kala--
kan--
kana--
kap--
kar--
kara--
kari--
kate--
kb--
ke--
kel--
kg--
kh--
kho--
khu--
ki--
kilo--
kin--
kir--
kl--
kla--
km--
kn--
ko--
koi--
kok--
kom--
kon--
kor--
kpa--
kr--
kt--
ku--
kuni--
kus--
kv--
kw--
kwa--
ky--
l--
la--
lang--
lar--
lara--
las--
last--
lat--
lay--
le--
lee--
left--
lh--
li--
lib--
lime--
line--
link--
lis--
list--
lit--
ll--
lo--
log--
lon--
lu--
lua--
lui--
ly--
m--
ma--
mac--
mad--
mag--
maha--
main--
mak--
make--
mal--
man--
map--
mar--
mari--
mark--
masa--
matches--
max--
maza--
mb--
mc--
me--
medi--
mega--
mel--
men--
mer--
merc--
mesopota--
mess--
mg--
mi--
micro--
mid--
mil--
milli--
min--
mit--
ml--
mm--
mn--
mo--
moi--
mon--
mono--
mor--
mos--
msg--
mt--
mu--
mur--
mw--
my--
n--
na--
naka--
name--
nas--
nat--
nav--
naviga--
nc--
nd--
ne--
needs--
negi--
new--
ng--
nga--
ngo--
nh--
nha--
ni--
nj--
nn--
no--
non--
nonil--
nor--
not--
ns--
nu--
num--
ny--
nz--
nza--
o--
obi--
oc--
octil--
od--
og--
oh--
ok--
ol--
oli--
om--
on--
op--
opera--
or--
os--
ou--
out--
over--
oz--
p--
pa--
page--
pal--
pam--
pan--
papa--
para--
parent--
parms--
parse--
pat--
pe--
pen--
per--
ph--
phi--
pi--
pl--
pm--
po--
pol--
pon--
pow--
pr--
pra--
pre--
pri--
print--
pro--
provi--
ps--
pu--
py--
q--
qu--
qua--
qui--
quin--
quo--
r--
ra--
ram--
raw--
re--
read--
reco--
recom--
red--
ref--
refs--
regi--
remove--
render--
rep--
req--
ri--
rm--
ro--
roll--
rotu--
row--
ru--
rutl--
s--
sa--
sam--
san--
sar--
saw--
sc--
sch--
sco--
se--
sec--
self--
sen--
sep--
sequen--
ser--
set--
sextil--
sg--
sh--
shi--
sho--
show--
si--
sia--
sie--
sik--
sim--
sk--
sl--
sm--
small--
smartcar--
sn--
snak--
so--
som--
some--
sor--
sort--
sp--
sq--
squa--
sr--
st--
stan--
str--
stu--
sty--
su--
sub--
suk--
sup--
super--
sur--
susque--
sv--
sw--
sy--
syll--
sym--
sz--
t--
ta--
table--
tag--
tal--
tam--
tar--
tat--
tb--
te--
ten--
tera--
terr--
text--
tf--
tfroms--
th--
tha--
thu--
thumb--
ti--
til--
title--
tl--
tlac--
to--
tol--
ton--
top--
tot--
tous--
tr--
tre--
tri--
ts--
tsu--
tu--
tur--
tw--
ty--
type--
tz--
u--
ua--
ue--
ug--
uk--
ul--
um--
un--
unit--
up--
ur--
us--
use--
ut--
v--
va--
val--
van--
var--
varia--
ve--
ver--
vi--
vin--
vla--
vo--
vol--
vu--
w--
wa--
wai--
waka--
wal--
wan--
war--
way--
wd--
we--
wer--
west--
wh--
whit--
wiki--
wil--
wis--
wo--
wrap--
wu--
wyan--
x--
xa--
xe--
y--
ya--
yan--
ye--
yes--
yi--
yo--
yu--
z--
za--
zay--
zen--
zh--
zm--
zu--
ŋ--
ɑ--
ɔ--
α--
γ--
δ--
κ--
π--
ρ--
τ--
в--
л--
т--
ر--
س--
യ--
--0
--00
--000
--02
--03
--04
--05
--06
--1
--10
--14
--18
--19
--2
--20
--27
--27022
--28
--3
--30
--31
--33
--34
--35
--36
--37
--38
--39
--4
--40
--41
--42
--43
--44
--45
--46
--47
--5
--50
--52
--53
--55
--56
--57
--59
--6
--60
--62
--63
--64
--66
--67
--69
--7
--70
--71
--72
--73
--74
--75
--76
--79
--8
--80
--84
--85
--86
--87
--88
--9
--90
--99
--a
--aa
--aal
--able
--ably
--ac
--aca
--ach
--act
--ad
--adi
--ae
--aga
--age
--ah
--ai
--aic
--ain
--ains
--ak
--aki
--al
--ale
--ally
--altname
--am
--ambu
--ame
--an
--ana
--ance
--ane
--ani
--ano
--anon
--anpi
--ant
--ao
--ap
--aq
--ar
--ard
--arg
--argname
--args
--ari
--art
--aru
--ary
--as
--ase
--ashi
--at
--ate
--ated
--ates
--ation
--ations
--atm
--ato
--ats
--au
--auer
--aw
--ax
--ay
--aya
--aza
--b
--ba
--be
--bee
--ber
--bi
--bility
--bl
--blank
--ble
--bo
--boli
--box
--bu
--burg
--buri
--bylang
--c
--ca
--cat
--ce
--cell
--cer
--ces
--ch
--ci
--cil
--cion
--ck
--class
--co
--code
--colon
--color
--d
--da
--dale
--das
--data
--date
--de
--dhi
--di
--ding
--do
--ds
--du
--dy
--e
--ea
--ean
--ec
--ecke
--econd
--ect
--ects
--ed
--ee
--ei
--ek
--eka
--el
--ela
--ele
--ell
--ello
--em
--en
--ena
--eni
--ens
--ent
--eo
--eon
--eor
--ep
--epec
--er
--ere
--ered
--ero
--error
--ers
--es
--ese
--ess
--est
--et
--eti
--ets
--ett
--ew
--ey
--f
--fa
--face
--fe
--fied
--fier
--flag
--ford
--func
--g
--ga
--gan
--gas
--ge
--ged
--ger
--gere
--gg
--gga
--gh
--ghi
--ght
--gi
--gka
--gma
--go
--grad
--gu
--gue
--gwa
--gxi
--h
--ha
--hai
--ham
--hatan
--he
--head
--header
--hen
--her
--hes
--hi
--hin
--ho
--hu
--hua
--i
--ia
--iable
--ial
--ian
--iate
--iban
--ible
--ibo
--ic
--ica
--ical
--ick
--id
--ide
--ie
--ier
--ies
--ification
--ifies
--ig
--igh
--ii
--ik
--ika
--ike
--iki
--il
--ill
--ille
--im
--ima
--imo
--in
--index
--ine
--ing
--ington
--ini
--ink
--ino
--io
--ion
--ions
--ip
--ir
--iri
--is
--isation
--ise
--ish
--ism
--iso
--ist
--it
--ita
--ite
--item
--itre
--ity
--ium
--ius
--iv
--ive
--iwa
--ix
--iya
--ization
--ize
--ized
--izing
--j
--ja
--jar
--je
--ji
--jin
--jo
--ju
--k
--ka
--kas
--kawa
--ke
--kel
--ker
--ket
--key
--keys
--kh
--ki
--ko
--ks
--ku
--l
--la
--label
--lade
--land
--lar
--lard
--lau
--ld
--le
--left
--ler
--ley
--li
--licit
--lim
--liner
--link
--links
--lion
--lionth
--lis
--lish
--list
--ll
--lla
--lle
--lly
--lo
--loc
--ls
--ltepec
--lu
--ly
--m
--ma
--man
--max
--mba
--mbi
--me
--ment
--mi
--mo
--mp
--ms
--msg
--mu
--n
--na
--nal
--name
--nan
--naw
--nburg
--nce
--ncy
--nd
--ndi
--ndo
--ndu
--ne
--ner
--nes
--ness
--ney
--ng
--ngo
--ni
--nian
--nic
--ning
--nis
--nk
--nka
--nn
--no
--non
--ns
--nse
--nt
--nth
--nu
--num
--nums
--nus
--ny
--nya
--o
--oa
--oan
--oc
--ock
--oe
--of
--ohe
--oi
--ok
--ol
--ola
--oli
--om
--oma
--ome
--on
--ona
--ong
--oni
--onia
--only
--op
--or
--ord
--origin
--orm
--ort
--os
--osa
--ose
--osed
--ot
--ote
--oto
--ous
--out
--ov
--ow
--ows
--oy
--p
--pa
--page
--param
--pe
--pec
--ped
--pi
--po
--pos
--pp
--prefix
--pson
--pt
--pu
--q
--qid
--qt
--que
--r
--ra
--raktur
--ran
--rano
--ray
--rc
--rd
--rdi
--re
--red
--rg
--ri
--ria
--rian
--ric
--rick
--rie
--ring
--rinya
--rium
--rj
--rl
--rn
--rne
--ro
--ros
--row
--rr
--rra
--rs
--rt
--rta
--ru
--rum
--rus
--ry
--rze
--s
--sa
--san
--sas
--sburg
--se
--see
--set
--sh
--si
--side
--sive
--sk
--ska
--sko
--so
--space
--ss
--ssa
--st
--state
--ston
--str
--style
--su
--sus
--sville
--sym
--t
--ta
--tag
--tan
--tani
--te
--ted
--tely
--tepec
--ter
--tes
--tese
--text
--th
--thi
--ths
--ti
--tic
--ting
--tion
--title
--tja
--tla
--tle
--tm
--to
--ton
--tor
--town
--tr
--tre
--true
--ts
--tsa
--tsburg
--tt
--tte
--tu
--tus
--ty
--tyle
--type
--u
--ua
--uaca
--uan
--ub
--ubtags
--uce
--uchi
--ude
--ue
--ues
--ui
--uk
--uka
--uku
--ul
--ula
--ule
--ulu
--um
--un
--una
--uo
--up
--ur
--ure
--uri
--url
--us
--ut
--utla
--uya
--v
--va
--val
--value
--ve
--ved
--ven
--ver
--ves
--vi
--ville
--vo
--vu
--w
--wa
--wai
--wali
--way
--ways
--we
--wi
--width
--wiki
--writing
--ws
--x
--xi
--y
--ya
--ye
--year
--yi
--yo
--ys
--yu
--z
--za
--zawa
--ze
--zed
--zi
--zo
--zoo
--ŋ
--ʔ
--α
--ι
--ο
--ς
--ω
--а
--ец
--и
--ма
--н
--рть
--т
--та
--то
--я
--ן
--ل
--م
--ن
