!
"
#
##0
##1
##10
##11
##12
##13
##14
##15
##16
##17
##18
##19
##2
##20
##21
##22
##23
##24
##25
##26
##27
##28
##29
##3
##30
##31
##32
##33
##34
##35
##36
##37
##38
##39
##4
##40
##41
##42
##43
##44
##45
##46
##47
##48
##49
##5
##50
##51
##52
##53
##54
##55
##56
##57
##58
##59
##6
##60
##61
##62
##63
##64
##65
##66
##67
##68
##69
##7
##70
##71
##72
##73
##74
##75
##76
##77
##78
##79
##8
##80
##81
##82
##83
##84
##85
##86
##87
##88
##89
##9
##90
##91
##92
##93
##94
##95
##96
##97
##98
##99
$
%
&
'
(
)
*
+
,
-
.
/
0
00
000
01
019
02
029
041
050
07
072
1
10
100
102
103
104
109
11
110
114
12
125
127
13
132
14
140
15
150
153
155
16
17
18
184
1845
185
1852
1864
187
1870
1876
1879
1889
1893
1894
1897
19
1900
1902
1904
1906
1907
1910
1911
1912
1913
1915
1918
1920
1921
1924
1925
1928
1930
1931
1932
1933
1934
1935
1936
1937
1940
1941
1942
1943
1945
1947
1948
1949
195
1950
1951
1952
1953
1954
1956
1957
1958
1959
1960
1961
1962
1963
1964
1965
1966
1967
1968
1969
1970
1971
1972
1973
1974
1975
1976
1977
1978
1979
1980
1981
1982
1983
1984
1985
1986
1987
1988
1989
1990
1991
1992
1993
1994
1995
1996
1997
1998
1999
2
20
200
2000
2001
2002
2003
2004
2005
2006
2007
2008
2009
2010
2011
2012
2013
2014
2015
2016
2017
2018
2019
2020
2021
2022
21
22
223
228
23
24
243
25
250
26
27
270
28
288
29
3
30
31
312
32
33
339
34
378
38
383
4
40
400
41
414
419
42
421
45
46
47
48
49
5
50
500
53
55
6
60
640
646
650
651
6633
68
686
7
72
73
74
761
77
79
8
80
805
813
84
88
9
930
978
989
:
;
<
=
?
@
_
a
aaa
aberta
abitibi
ac
acamatcik
acamawsotc
acerim
aci
acicki
acikan
acimwakw
acit
acitc
acite
ackimaniwok
ackimaniwon
ackimineapi
aco
acotinikatew
actakaniwok
actakaniwoki
actakaniwon
actakinion
actakiniwok
actakiniwon
actan
actatc
actatcik
actaw
actawok
acte
actek
acteki
acterik
acterikopan
acteriw
actew
actewa
actorinaniwon
actotin
actualite
ade
affiche
afin
agathe
agne
agora
ahac
ahasiw
ahiwiniw
aia
aiamihanan
aiamihananiwok
aiamihaniwok
aiamihatc
aiamihatcik
aiamihaw
aiamihe
aiamihemikiwam
aiamihewin
aiamihewina
aiapew
aiatcinaniwok
aiatcitc
aicaritci
aicatc
aicatcik
aicaw
aicikicikak
aicinakoki
aicinakon
aicinakono
aicinakositcik
aicinakosiw
aicinakosiwok
aicinikasoritci
aicinikatek
aicinikateki
aiciwitc
aidan
aieskositc
aiin
aimihe
aimihewiniw
aimun
aipinaniwok
aisparik
aisparinik
aisparitc
aistakok
aistakoki
aitacikew
aitatc
aititoskaniwok
aititosketc
aitotak
aitotakik
aitotam
aitotcikatek
aka
akam
akami
akamik
akamikitcikamik
akamitcikanik
akawir
aki
akikwa
akimaskw
akireca
akirecawok
akitasotcik
akitasowin
akokatcic
akokek
akokerik
akokew
akokisikan
akokisikaniriw
akop
akopisonaniok
akopisonaniwon
akopisotc
akosi
akosikamikokw
akosikanak
akosikomikok
akosinaniwok
akosiritci
akositc
akositcik
akosiw
akosiwikamikok
akosiwikamikokw
akosiwin
akosiwiniw
akosiwokamikok
akoskasikaniwok
akota
akotaniwon
akotcik
akotcimakaniwiw
akotcorakanikaniwon
akotitakanion
akotitakaniwon
akotitaw
akowir
akso
akwane
al
alanis
alaska
albert
alberta
alexis
algonquin
alice
alisatrice
aller
alma
alt
alvin
ame
americanus
ametc
ametcik
amiskocic
amiskok
amiskw
amiskwa
amiskwan
amo
amos
anaha
anahawe
anaheriw
anahowe
anahwe
anaskaniwok
anaskaniwon
anawe
and
andre
anehi
ange
angela
angleterre
angus
anhweriw
ani
anicinape
aniha
anihe
aniheriw
anihi
anihowe
anihwe
aniki
aniwe
anne
annette
annie
anohe
anoheriw
anohowe
anohwe
anotc
anoutc
anowe
anowotc
ans
antoine
antoinette
aou
apatak
apatan
apatanik
apataniw
apatcitakaniwok
apatcitatc
apatcitatcik
apatcitaw
apatcitawok
apatisitc
apatisiw
apicacik
apicacin
apicacinik
apiciciritci
apicicitc
apicicitcik
apiciciw
apikocica
apin
apiritci
apita
apitak
apitan
apitc
apitcihakaniw
apitcihakaniwitc
apitcihatc
apitcihew
apitcik
apitcitakaniok
apitcitakaniwok
apitcitakaniwon
apitcitakiniwok
apitcitakiniwon
apitcitapanak
apitcitatc
apitcitatcik
apitcitaw
apitcitawok
apitisitc
apitisiw
apiw
apiwok
apowi
apowikaniwon
apwesitc
arakaniwitc
arakaniwitcik
arakaniwiw
arakapecakan
arakiniwitc
arakiniwitcik
arakiniwiw
arapi
arapikaniwon
araw
aric
aricapik
arikapecakan
arikic
arikica
arikik
arimak
ariman
arimanik
arimaniw
arimatc
arimiparitc
arimisiwiniw
arimomakaniwitc
arimomakaniwitcik
arimomakaniwiw
arimomakiniwitc
arimomatc
arimomew
arimotak
arimotam
arimotcikatek
arimotcikateki
arimotcikatew
arimowetc
arimowetcik
arimowew
arimowewin
arimowewinik
arimowewiniw
arimwaniwok
arimwetc
arimwetcik
arimwew
arimwewin
arimwewinik
arimwewiniw
arimwewok
aripi
aripoc
armatc
armowewin
arotakan
arotakanak
arotc
arotcikotc
arowepinaniwok
arowepitc
art
arthur
article
articles
arts
as
asam
asama
asamatikwaniwon
asamikaniwon
asati
asekaniwon
asian
asini
asinik
asinikan
asiniwa
asitakamik
asitakimik
asitakok
asitatisitc
asitcak
asitcaw
asitciparik
aska
askani
aski
askik
askikok
askikw
askiriw
asko
askowi
askwak
asperimowin
aspin
aspinikotc
assemble
assiniwi
association
assomption
at
ata
atamik
atamipekok
atamitowak
atamitwak
atampekok
atawaniwok
atawe
atawekamikocic
atawekamikw
atawewok
atca
atcapi
atcickatcik
atcickawok
atcictamakak
atciparik
atcita
atcitcamoc
atcitcamoca
atcokoc
atcokoca
atehikatek
athanase
atikamekok
atikamekw
atikamekwa
atikocic
atikok
atikw
atikwa
atimw
ation
atisokan
atisokana
atisokancic
atisokanicic
atisokaniciciriw
atisokanik
atisokaniriw
atisokaniw
atisokaniwok
atisokasotc
atisokatakaniwiritci
atisokatcikatek
atisoke
atisoketc
atisoketcik
atisokew
atisokewin
atisokwakaniwitc
atisokwakaniwitcik
atita
atos
atoskaniwok
atoskaniwon
atoskaniwonik
atoske
atoskectawatc
atosketc
atosketcik
atoskew
atoskewaketc
atoskewakopan
atoskewin
atoskewinik
atoskewiniw
atoskewok
atowaniwok
atowekamikok
attikamek
attikameks
atwaniwok
au
aure
autochtone
autochtones
autres
aux
avec
avoir
avril
aw
awaca
awacak
awacamec
awaci
awacic
awacicak
awacicic
awacimec
awaciwipan
awaciwiritci
awaciwitc
awacmec
awashish
awek
awesis
awesisa
awesisak
awesisik
awia
awik
awika
awikak
awiketc
awin
awiriw
awiriwa
awirwa
awocamec
awokan
awokaniwok
awoketcik
b
baccalaure
baie
band
baptiste
barrage
basile
batiste
bay
be
bear
beauce
beaupre
beaux
bec
bellemare
benoit
bernadette
bernard
bibliothe
bien
biento
big
birote
black
blainville
bleue
boivin
bonaventure
boniface
boucher
braves
britannique
brossard
bruno
bruxelles
by
c
ca
cacakwesinasot
cadre
cakitato
cakitoto
cako
cakotc
cakweciw
cal
campsite
canada
canadien
canadiens
candidatures
cap
capetciwotakanik
capwapitam
capwetcikotakanik
carey
carleton
carol
carte
cartes
cartier
catherine
cawemin
cawonok
cbc
ce
ceckwat
cecoc
cecoca
cectokwapi
cehamo
cekotcimik
cembre
cenak
cenam
cenewok
cenikatek
cenikateriw
cenikatew
centre
cesar
cette
cha
chachai
chaleurs
champlain
chandler
chantale
chaquan
charles
chatham
chicoutimi
chisasibi
christian
christine
ci
cicatcikonekan
cicikon
cicikw
cicip
cigwic
cikakw
cikinaniwok
cikohikanatikw
cikokominan
cikokw
cikopi
cikopia
cikopik
cikopiskak
cikopiwa
cikopiwitc
cikotai
cikwic
cile
cipicic
cipicik
cites
cits
ciwapinaniwok
ciwominan
ciwositc
ciwotakan
claire
clark
claude
cle
cna
co
cockwataha
cocokwetc
cocotesi
code
cois
cole
colette
colle
collection
colombie
color
com
comeau
commence
comment
commission
commons
communications
comte
concours
connaissance
conseil
constance
constant
contes
convention
coocoo
cook
coordinates
coria
coriak
coriariw
coriet
coronavirus
cosse
coupe
court
couture
covid
cowatc
cowemin
coweminak
coweminicic
cre
cree
cri
cris
cta
culture
d
dam
damase
dame
daniel
dans
david
de
delima
demandes
denis
denise
des
deux
devoir
dia
die
dit
dition
domesticus
dominique
donat
dossiers
dsc
du
dube
dupuis
dyolf
e
east
echaquan
eci
ecinakok
ecinakonik
ecinakositc
eckaniwon
eckwa
edmond
edmonton
eeyou
ehe
eka
ekarecaw
ekarecawok
eki
eko
ekoci
ekonetci
ekoni
ekosani
ekota
ekotca
ekotcani
ekote
ekoweriw
elisabeth
emery
emikwan
emitcikoci
emitcikocic
emitcikocica
emitcikocicak
emitcikocici
emitcokocic
emitikoci
emitikocica
emitikociwi
emma
emtcikocic
emtcikocicak
emtcikocici
en
encyclope
energie
enfants
enko
enkon
enkoweriw
enkweriw
enta
entendre
entrevue
epa
epe
epitc
epomci
epowamici
epwamci
epwamici
epwamoci
er
erikam
erikokwaskamikaw
ernest
erotc
erowatc
erowek
es
esko
eskoskamikak
espaces
est
estakok
estakonik
estelle
et
etacikean
etaciritci
etca
etcakwan
etci
etcipanik
eva
ewi
expe
expertise
f
facebook
fadden
faire
falls
farnham
fe
feature
femme
femmes
festival
ff
file
film
first
flamand
fleuve
florent
fondation
fontaine
for
force
fort
fr
franc
france
francis
francophone
g
gabriel
gala
galement
gaspe
ge
genevie
geometry
george
georges
gep
ghislain
gilles
gion
gis
gmaq
gouin
grand
grande
grands
groupe
groupes
guerre
guinard
guy
gwitchin
h
ha
habib
halifax
harry
haut
hawkins
he
henni
henri
henriette
herold
high
hills
histoire
ho
hockey
https
hudson
hydrique
i
ia
ica
icakopan
icakoponen
icamakak
icamakan
ican
icanano
icaniwok
icapan
icaritci
icaspan
icatc
icatcik
icaw
icawok
ici
iciepahamaketc
icihotc
icihowin
icikicikak
icinakok
icinakoki
icinakokipan
icinakon
icinakonik
icinakoniw
icinakonokwen
icinakosiritci
icinakositc
icinakositcik
icinakosiw
icinakosiwok
icinatek
icinikaso
icinikasokopon
icinikasopan
icinikasorikopon
icinikasoritci
icinikasoriwa
icinikasortci
icinikasotc
icinikasotcik
icinikasowin
icinikasowok
icinikatak
icinikatakaniw
icinikatakaniwiritci
icinikatakaniwitc
icinikatakaniwitcik
icinikatakaniwiw
icinikatakaniwok
icinikatakiniw
icinikatakiniwitc
icinikatakiniwiw
icinikatam
icinikatamok
icinikatatcik
icinikatcikatek
icinikatcikateki
icinikatcikatepan
icinikatcikaterik
icinikatcikateriw
icinikatcikatew
icinikatek
icinikatepan
icinikaterik
icinikateriw
icinikatew
icinikatimok
icinkasoriwa
icinkasotc
icinkatakaniwitc
icinkatakiniwitc
icinkatakiniwok
icinkatcikatek
icinkatcikatew
icinkatek
icinkatew
icipekahikan
icirowerik
icitatcik
icitaw
iciwepak
iciwepisitc
ickipitatanatikokaniwon
ickote
ickoteapi
ickotek
ickoterew
ickoteriw
ickotewapo
ickwa
ickwaparik
ickwatek
ickwatem
ickwatemiriw
ickwaterik
ickwateriw
ickweca
ickwecak
ickwecic
ickweciwiritci
ickweciwitc
icpimik
illustrer
ils
images
imi
in
inde
indian
indiens
inlet
innu
innus
international
internationaux
inuit
irakonike
irakonikewinik
irakonikewiniw
irapatak
irapatcitatc
irapatcitatcik
irapatcitcikan
irapatcitcikaniw
irapatisitc
irapitak
irapitcitcakan
irapitcitcikan
irapitcitcikana
irapitisiritci
irapitisitc
irapitisiw
irik
irikik
irikikaskomikak
irikokwak
irin
irinacit
irinacitc
irinatiko
irinatikw
irinatikwapo
irini
irinicak
irinik
irinikotc
iriniokw
iriniskak
iriniw
iriniwa
iriniwiritci
iriniwitc
iriniwitcik
iriniwiw
iriniwok
iriniwokw
irinkokoc
irisowin
iroquois
isai
isaie
isbn
isidore
iskwak
iskwakamik
iskwarik
iskwatowitc
iskwecic
iskweitc
iskweiw
iskwejic
iskwew
iskwewa
iskwewiriwa
iskwewitc
iskwewiw
iskwewok
iskwewokw
island
isparik
isparin
isparinik
ispariniw
isparitc
isparitcik
ispariw
ispokok
ispokon
israel
istakok
it
ita
itactek
itakaniw
itakaniwiw
itakaniwok
itakinikopan
itakiniwitc
itakitc
itakopan
itamitcitaniwok
itanion
itaniwok
itaniwon
itapikopon
itapinaniwok
itapitc
itasinahak
itasinahikana
itasinahiketc
itasinahikewin
itat
itatc
itatcihitisoritci
itatcihitisotc
itatcihitisowin
itatcik
itatikaw
itatisitc
itatisitcik
itatisokemakak
itaw
itawok
itci
ite
iteker
itekera
itekopan
itekopon
itekoponen
itemakak
itemakan
itemikak
itemikan
itemikaniw
itemkan
itepanak
iterimew
iterimowiniw
iteritak
iteritakon
iteritakositc
iteritam
iteritci
iteriwa
itertak
itertam
itetc
itetcik
itew
itewakopan
itewin
itewina
itewiniw
itewok
itewokw
iti
itikera
itikititc
itiko
itikokopan
itikotc
ititakositc
ititin
ititoskaniwok
ititosketc
ititoskew
ititoskewina
itoniok
itonion
itoniwok
itoniwon
itotisketc
itotiskew
itotiskewin
itwaniwok
itwaniwon
ivan
j
jacob
jacqueline
jacques
james
jane
janvier
je
jean
jeannine
jeunes
jeunesse
jimmy
joey
john
johnson
joliette
jos
jose
joseph
jour
joyce
jpeg
jpg
judith
juillet
juin
julie
junior
jusqu
justin
k
ka
kaci
kackihatc
kackihew
kackiho
kackitaian
kackitapan
kackitaritci
kackitariwa
kackitatc
kackitatcik
kackitaw
kackitawok
kahnawake
kaie
kakakew
kakatcarakocic
kaketin
kaki
kakike
kakitaweritak
kakone
kakw
kakwetci
kamissino
kanape
kanata
kanatak
kanawapamew
kanawapatamokw
kanawapatamone
kanawapatcikatek
kanawapatcikatew
kanawapitcikatek
kanawerimakaniwitcik
kanawerimew
kanaweritak
kaneiw
kanesatake
kanewiw
kape
kapecinaniwok
kapecitcik
kapi
kapotowan
karowa
kartoc
kashtin
kasirin
kasitcitcaniwok
kaskerimatc
kaskerimatcik
kaskeritak
kaskeritakik
kaskeritakok
kaskeritakon
kaskeritakosiw
kaskeritam
kaskeritamopanak
kaskeritcikatek
kaskeriten
kaskina
kaskinohamasotc
kaskinohamatokamikok
kaskinohomasotc
kaskinomatokomikok
kata
katca
kateri
katetcik
katolik
kawasikototc
kawawachikamach
kawi
kawisitc
ke
kebek
keci
kecin
kecko
kecpin
kek
kekat
kekekw
keki
kekir
kekocic
kekocica
kekociciriw
kekocicriw
kekociriw
kekora
kekorakeki
kekotc
kekwan
kekwariw
kekwcic
kena
kenin
kenojuak
kenositc
kepek
kepitc
kera
ketca
ketcinatc
kete
ketin
kewir
kewirawaw
kewirawow
kewirow
kewirowaw
kewirowow
ki
kiackoriw
kiackw
kiapatc
kicakamitek
kicakimitek
kicapewitcik
kicapiskisikan
kicapiskisikanik
kicasiketc
kicatc
kice
kiceatisiritci
kiceatisitc
kiceatisitcik
kicemos
kicepa
kicepawok
kicepowacik
kicepwacik
kici
kiciatisitc
kiciatisitcik
kicik
kicika
kicikak
kicikarik
kicikaw
kiciparik
kicirew
kicitek
kiciterik
kicitew
kiciwasiw
kiciwatisitc
kickahaskwe
kickapiskarik
kickipotcikan
kickipotcikeparik
kicko
kickwa
kicowekaniw
kicpin
kictapatak
kictapatan
kictapeitc
kictapewite
kictapitak
kictapitan
kictapitaniw
kictapitisiw
kictatc
kictatcik
kictaw
kicteritak
kicteritakok
kicteritakositc
kicteritakosiw
kicteritamowin
kicteriten
kictes
kika
kiketc
kimikiwam
kimiwok
kimiwon
kimiwonik
kimocomino
kimocominok
kimocominook
kimocominowok
kimosamatc
kimosapitc
kimotc
kimotci
kimotitc
kinec
kinecic
kinehirowimowinino
kinepikocic
kinepikw
kinepokok
kini
kinikositc
kinoce
kinocew
kinocewa
kinocewaniwon
kinoke
kinokepitcikan
kinokepitcikanik
kinokew
kinopekaniw
kinopekisiw
kinosiw
kinoskon
kinoskosiw
kinowapitamokw
kinowapitcikatek
kinowariw
kinowaskosiw
kinowec
kipa
kipacimotcik
kipahikan
kipahikanak
kipahikatew
kipaw
kipe
kipecinaniwok
kipecitcik
kir
kiraka
kirakisiw
kirano
kiraskimatc
kirawe
kircike
kirctam
kirika
kirike
kirikik
kiripi
kiripin
kirka
kirowe
kisinak
kisinarik
kisinariw
kisinaw
kisipekahikan
kisisikatek
kisisipatakaniwok
kisisotc
kisisowakaniwitc
kiskerimakaniwitc
kiskerimakaniwiw
kiskerimatc
kiskerimatcik
kiskerimew
kiskerimitisotc
kiskerimitisotcik
kiskeritak
kiskeritakik
kiskeritakok
kiskeritakon
kiskeritakositc
kiskeritakositcik
kiskeritakosiw
kiskeritakosiwok
kiskeritam
kiskeritamaritci
kiskeritamok
kiskeritamone
kiskeritamoritci
kiskeritamowin
kiskeritcikatek
kiskertakosiw
kiskinihomato
kiskinohamakanak
kiskinohamakaniwitcik
kiskinohamake
kiskinohamaketc
kiskinohamakew
kiskinohamakewin
kiskinohamakewinik
kiskinohamakewiniw
kiskinohamako
kiskinohamakotc
kiskinohamaso
kiskinohamasotc
kiskinohamasotcik
kiskinohamasowokw
kiskinohamatawkamikok
kiskinohamatawkamikw
kiskinohamatawkomikoriw
kiskinohamatokamikok
kiskinohamatokamikw
kiskinohamatokamikwa
kiskinohamatowikamikok
kiskinohamatowikamikw
kiskinohamatowkamikw
kiskinohamowakaniwitcik
kiskinohamowakaniwiwok
kiskinohamowatc
kiskinohomakanak
kiskinohomakaniwok
kiskinohomake
kiskinohomaketc
kiskinohomaketcik
kiskinohomakewinik
kiskinohomakewiniw
kiskinohomako
kiskinohomaso
kiskinohomasotc
kiskinohomatokamikok
kiskinohomowakaniwitc
kiskinohomowatc
kiskinohomowatcik
kispakak
kispiwatak
kispiwatakik
kispiwatam
kispiwatcikatek
kit
kita
kitaki
kitaskinak
kitaskino
kitca
kitci
kitcikamik
kitciki
kitciko
kitciparik
kitciparitc
kitcitwa
kitciwe
kitigan
kitikan
kitikanik
kitikaniok
kitikaniw
kitikaniwok
kitikaniwon
kitikaniwonik
kitike
kitiketcik
kito
kitoritci
kitoriw
kitotakan
kitotakanik
kitotakaniw
kitotakaniwok
kitotc
kiwe
kiwetcik
kiwetinisiw
kiwetino
kiwetinok
kiwetinokw
kiwetnok
kiwetonok
kiwew
kiwewok
km
ko
koctatcihakaniwitcik
koctatikonik
koctatikoniw
kokoc
kokom
kokominac
kokominacak
kokomino
kokotce
kokotcewa
kon
konakisiritci
konakisitc
konik
konikisiritci
koniwok
konkerinitc
korowe
kosikok
koski
kotak
kotakahik
kotakeriw
kotakhik
kotakihi
kotakihik
kotakik
kotawino
kotc
kotci
kotcihatc
kotcikotc
kotcitatc
kotcitaw
kotcitawok
kotik
kotikhi
kotikhik
kotikihik
kotikik
kotonitatc
kotowanik
kotowaniwok
kotowew
kowiskw
krika
kris
kta
kuujjuaq
kwapihikan
kwei
kwekahakew
kwekweciw
kweskite
kwetcitatc
kwisk
kwiskw
l
la
labrador
lac
lake
lanaudie
land
language
langue
lard
laurent
laurentides
laval
le
legault
leme
les
leur
lexique
lhjmq
lie
lieu
ligue
lina
line
lisabeth
lissa
liste
lizabeth
lnh
logo
loi
lorette
louis
louisa
louise
loup
luc
lucie
lucien
m
ma
macakatcik
macamekos
mackawisiw
mackiki
mackikiapo
mackikiaporiw
mackikiatikw
mackikiatikwa
mackikiriniwa
mackikiriw
mackikiwapokaniwon
mackikiwiw
mackikiwok
mackoci
mackociriw
mackotik
mackowak
mackowisitc
mackowisiw
madeleine
madenen
madon
maggie
mahikan
mahikana
mai
maia
maison
maka
makate
makatesitc
makatesiw
makatewak
makatewariw
makatewaw
makatewisitc
makatewisiw
maker
makockatcitaw
makomikotc
makona
makonatc
makonikotc
makonikotcik
makue
male
maliotenam
mamacic
mami
mamik
mamitcitc
mamitoneritak
mamitoneritasinahikana
mamo
mamowinitotcik
manactakana
manawan
manawani
manawanik
manawaniriniwa
mani
manikaniwok
manikaniwon
maniketc
manikwasaniwon
manin
maninikatek
maninikatew
manitaniwon
manito
manitoba
manitom
manitonikok
manitowok
maniwaki
manouane
mantcoc
mantcoca
mantcocak
mantokaso
mantokasohok
mapiketik
maratak
maratanik
marc
marcel
marguerite
mari
marie
mariette
mario
marker
marotc
martcenic
martha
marthe
mary
mashteuiatsh
masinactetcitcikan
masinactetcitcikaniciriw
masinactetcitcikanik
masinactetcitcikaniw
masinactetcitcikaniwok
masinahak
masinaham
masinahamokoponen
masinahikan
masinahikana
masinahikanatikw
masinahikanatikwapo
masinahikanik
masinahikaniw
masinahike
masinahiketc
masinahiketcik
masinahikew
masinahotisotc
masinasotc
masinasowiniw
masinatcikan
masinatek
masinawapiskisinahikan
masinihikan
masinihikaniw
maskinoce
maskisin
maskisitcik
masko
maskomi
maskomik
maskoretcic
maskowa
maskwa
maskwaniwon
matakan
matakanik
matana
matanak
matanarik
matawak
matawaw
matawisitc
matca
matcaiane
matcaniwok
matcaritci
matcataw
matcatc
matcatcik
matcaw
matcawok
matce
matceatisitc
matceatohonaniwon
matcectakaniwok
matcehotc
matcekatek
matceketc
matcekik
matcekiritci
matcekitc
matcekiw
matceparik
matceparinik
matceretc
matcewrikotc
matci
matcihitisotc
matcike
matcikonam
maticowe
matikatc
matisiritci
matisitc
matisitcik
matisiw
matisiwin
matisiwinik
matisiwok
matok
mattawa
mattawin
maurice
mauricie
mawotci
mawotcihakaniwitc
mawotcihew
mawotcihitonaniokw
mawotcihitonaniwok
mawotcihitotcik
mawotcitakaniwon
mawtci
mawtcitatc
maxime
mcgill
mckenzie
me
meckotcickawok
meckotcita
meilleur
meka
mekatekorew
mekatekorewa
mekatewokorew
mekatewokorewok
mekotekorew
mekowata
mekwa
mekwat
mekwata
mekwatc
memacic
membre
memekweciw
ment
mequesh
mer
merganser
mergus
meskanak
meskanariw
meskanaw
meskano
metapeckeka
metapeckekak
metaperotin
metowakaniwok
metowaketc
metowakew
metowan
metowanikana
metowanionik
metowaniw
metowaniwok
metowemew
metowespan
metowetc
metowetcik
metowew
metowewinik
metowewok
metowewokamikw
mew
mexique
mi
mia
mianscum
micak
micaki
micapoc
micarik
micariw
micaw
mice
micer
michel
mici
micikitiriwa
micikititc
micikititcik
micikitiw
mickaniwok
mickatc
mickaw
mickekok
mickekominan
mickekwatikw
mickwarik
mickwariw
micta
mictahi
mictai
mictcikociriw
mictiko
mictikocik
mictikok
mictikoke
mictikokw
mictikoriw
mictikowa
mictikowok
mictikowon
mictikw
mictikwa
midget
mihatc
mihew
mihitisotc
mihitisotcik
mikak
mikatesiw
mikiamiriw
mikinakw
mikisiw
mikisiwa
mikiwam
mikiwama
mikiwamicic
mikiwamicicik
mikiwamik
mikiwamiriw
mikiwamiskak
miko
mikocawisiw
mikocitc
mikociw
mikomin
mikominan
mikomini
mikon
mikona
mikonoweciw
mikoriw
mikositc
mikosiw
mikosiwok
mikwaw
mikwetc
mile
mina
minahakaniwiw
minahikw
minatc
minatcitakaniwon
minawa
minawatc
minic
minicapo
miniciriw
minictikoriw
minictikwapiskok
minikwaniwok
minikwaniwon
minikwetc
minikwew
mininikatew
minoc
minocak
minowatc
minwatc
miparik
miparin
miparinik
mipatatc
mirakaniwitc
mirakaniwiw
mirakositc
mirapakon
miratc
miratcik
miremakak
miremikanik
mirerimo
mirerimotc
mireritak
mireritakik
mireritakon
mireritam
mireritamok
mireritamokw
mireriten
miretc
miretcik
mirew
miriin
mirik
mirikosi
miro
mirocin
mirocinik
mirokak
mirokaw
mirokiritci
mirokisitc
mirokitc
mirokiw
mirokiwin
mirokoposiw
miromakosiw
miroparik
miroparin
miroparinik
miroparitc
mirosiriwa
mirositc
mirosiw
miroskamik
miroskamin
miroskaminik
mirotakonik
mirotakoniw
mirotakosiw
mirowacik
mirowacin
mirowacinik
mirowaciniw
mirowapitan
mirowapitisiw
mirwacin
misawatc
miscamingue
misinaniwok
misinaso
misinhikaniw
misiwe
misiwkiwamik
miska
miskak
miskatek
miskaterik
miskomik
misotc
misowatc
misowe
mista
mistahimaskwa
mistissini
miswatc
mita
mitana
mitapetik
mitatc
mitato
mitaw
mitcakamik
mitcek
mitceki
mitcen
mitcenik
mitceniw
mitceno
mitcerak
mitcet
mitcetaw
mitcetc
mitcetinaniwon
mitcetiok
mitcetipanak
mitcetiritci
mitcetiriwa
mitcetitc
mitcetitcik
mitcetiw
mitcetiwok
mitcetiwokw
mitceto
mitcetowek
mitcetwaw
mitci
mitcik
mitcikawin
mitcim
mitcima
mitcimik
mitcimiriw
mitcin
mitcinaniwok
mitcinaniwon
mitcinatwe
mitciritci
mitciso
mitcisonaniwok
mitcisonaniwokw
mitcisotc
mitcisotcik
mitcisowakan
mitcitawok
mitcitc
mitcitcik
mitciw
mitciwok
mite
mitek
miti
mitik
mitina
mitowi
mitwi
moar
mobile
mocak
moci
mockinakiniwitc
mockinam
mockinikatek
mockinikatew
mode
mohakw
mohawk
moi
mokockatcitatc
mokockatisitc
mokoman
mokomanapiskw
mokotakan
mokotakaniw
mollen
monde
monsieur
mont
montagnais
montagnes
montmagny
montre
monts
morasikan
more
moriak
mos
mosa
mosowan
motaniwok
motatam
motc
motci
motcik
motetc
mowakaniw
mowakaniwitc
mowakaniwiw
mowakiniw
mowakiniwitc
mowakiniwiw
mowatc
mowatcik
mowew
mowewok
mowisonaniwok
mowisonaniwon
myre
n
na
nac
naha
nahacowetc
nahiparin
nahwe
nakapehanok
nakapehonok
nakatikotcik
nakickak
nakota
nakowe
nakowi
nakwakan
nakwe
nakwi
nama
namecica
namekos
namekosa
namekosi
namepar
namepirtehesiw
names
namesa
namesak
naminas
naminasiriw
nanakatcihakaniwitc
nanakatcitakaniwok
nanakatcitakaniwon
nanakatcitatc
nanakatcitatcik
nanakatcitaw
nanakatisitc
nanake
nanakitcihatc
nanakitcitaw
nanikotana
nanikotin
nanikotina
nanipowitc
nanto
nantonak
nantonawakaniwiw
napanew
nape
napewitc
napikwan
napitc
naskakotc
naskapi
naskapis
naskwatc
nass
nastasia
nata
natapictawakaniwitcik
natarapaniwon
natasha
natci
natcipictakewinik
nation
national
nationale
nations
natisinahikaniwoc
native
natoswaniwon
natowi
natowirewaniwon
natwi
ncwaso
nda
nde
ne
neashit
nehe
neheriw
nehi
nehirisiwok
nehiro
nehiromo
nehiromonaniok
nehiromotc
nehiromotcik
nehiromowin
nehiromowiniw
nehirosiwa
nehirosiwok
nehirosiwokw
nehirowi
nehirowimowin
nehirowisi
nehirowisik
nehirowisikw
nehirowisiok
nehirowisiskak
nehirowisitcik
nehirowisiw
nehirowisiwa
nehirowisiwok
nehirowisiwokw
nehirowiskwew
nehorowisiw
neki
nemitana
nequado
neriw
neriwisiok
nespitc
nespitci
nespitotam
nespitowinak
neta
nete
new
newashish
newaw
newiriwa
news
ni
niagara
niapitc
niaran
niaraniriwa
niarano
niarino
nicike
nicirew
niciriwa
nicitana
nicitcik
nicitina
niciwok
niciwonatcitakaniwoki
niciwonatcitakaniwon
nico
nicomitana
nicowasaw
nicowaso
nicowaw
nicowitcikatek
nicowow
nictam
nictana
nictes
nictesak
nictiriwa
nicto
nictowaw
nictowek
nictowitc
nicw
nicwa
nicwaso
nicwaw
nicwo
nihe
niheriw
nihi
nika
nikamo
nikamoritci
nikamotc
nikamotcik
nikamowin
nikamowiniw
nikan
nikani
nikanik
nikanipitc
nikanipiw
nikaniw
nikapehonok
nikapewnok
nikatak
nikear
niketcotcinehon
niki
nikickowatc
nikikw
nikiska
nikohakiniw
nikon
nikotc
nikotin
nikotowaso
nikotwaso
nikotwatciriwa
nimicomec
niminaniwok
nimitcik
nimocom
nin
ninan
ninio
nipa
nipahakaniwitc
nipahakaniwiw
nipahatc
nipahatcik
nipahikotc
nipahikotcik
nipakitok
nipan
nipaniwok
nipara
niparitci
nipatatc
nipatc
nipatcik
nipaw
nipawok
nipewan
nipi
nipic
nipica
nipicapo
nipicik
nipiciriw
nipiciwitc
nipicke
nipik
nipimatisiwinik
nipin
nipinatcac
nipinik
nipinowa
nipira
nipiriw
nipiwok
nipo
niporitci
niporiwa
nipotc
nipowiritci
nipowitc
nipowitcik
nipra
niquay
nir
nirctam
nisakitan
nisga
nisistak
nisistam
nisitotakon
niska
nit
nita
nitacikan
nitaskinan
nitata
nitawakitc
nitawikik
nitawikin
nitawikiritci
nitawikitc
nitawikiw
nitawkiritci
nitawkitc
nitawkiw
nitawokik
nitawokin
nitawokinik
nitawokino
nitawokiritci
nitawokiriwa
nitawokitc
nitawokitcik
nitawokiw
nitawokiwok
nitc
nitcanicak
nitcicanak
nite
nitehik
nitokiw
nitowakik
nitowakitc
nitowakiw
nitowkitc
nitwakiw
no
noce
noceskoriw
nocewitc
nohowe
nohwe
noko
nokok
nokon
nokonik
nokonikopon
nokoniw
nokositc
nokositcik
nokosiw
nokosiwok
nom
noranda
norbert
nord
north
nos
nosinetakaniwokw
nosinetakaniwonik
nosinetatc
nosinetaw
nosinetawokw
nota
notawi
notawinan
notc
notci
notcihimiskwaniwon
notcimi
notcimik
notcimiw
notcinaniwok
notcinaniwon
notepariritci
noteparitcik
notre
nous
nouveau
nouvel
nouvelle
nrowi
nta
nte
nti
ntoho
ntohotc
ntohotcik
ntokihitisohok
ntokohiewinik
ntokohotc
ntoparinaniwok
ntoparitc
ntotcikatek
ntowamatc
ntowatc
ntoweritak
ntoweritakik
ntoweritam
ntoweritaman
nunavut
o
obedjiwan
obligatoire
obomsawin
ocakai
ocakaitc
ocakak
ocaki
ocamec
ocawackaw
ocawackositc
ocawackosiw
ocaweciciw
ocawicicitc
ocawiciciw
ociceca
ocihakaniwiritci
ocihakaniwitc
ocihakaniwitcik
ocihakaniwiw
ocihakinitc
ocihakiniwitc
ocihakiniwiw
ocihatc
ocihatcik
ocihew
ocikohotc
ocima
ocimo
ocimotc
ocitakaniok
ocitakaniokw
ocitakanionik
ocitakaniwok
ocitakaniwoki
ocitakaniwon
ocitakaniwonik
ocitakiniok
ocitakiniwok
ocitakiniwon
ocitakiniwonik
ocitan
ocitaniok
ocitaniwok
ocitaritci
ocitatc
ocitatcik
ocitaw
ocitawok
ockaci
ockacia
ocki
ockicikok
ockicikw
ockinikicic
ockinikicica
ockinikiw
ockinikiwa
ockinikiwok
ocockweto
ocokan
ocokanik
ocokonik
ocpimik
octesa
octikwan
octikwanik
octikwaniw
octobre
octotak
odanak
ode
of
office
ohe
ohomisiw
ohomisiwa
ohomsiwa
ohowe
ohwe
ohweriw
ois
okaca
okacic
okaia
okanagan
okaromitc
okawi
okawia
okawinan
okawiwa
oke
okice
okickamanisiw
okima
okimacic
okimaciwinik
okimaciwitc
okimaciwiw
okimahitc
okimairiwa
okimakaniok
okimakaniokw
okimakaniwok
okimakaniwon
okimakaniwonik
okimakaniwonopan
okimakatakaniwiw
okimakatikotc
okimaketcik
okimakwakaniwitc
okimakwew
okimaw
okimawa
okimawiciwinik
okimawinak
okimawinik
okimawipan
okimawiritci
okimawiriwa
okimawispan
okimawitc
okimawitcik
okimawiw
okimawok
okimawokw
okitapiskw
okitc
okitci
okitikw
okititin
okoma
okomesa
okomitc
okosa
okosiwawa
okot
okotakan
okotinak
okowak
okowimesa
okwekinak
okwimesa
olocalisation
oma
omasinahikan
omasinahikanik
omemew
omicapinan
omicomeca
omiki
omikiamew
omikitc
omikiwam
omikiwamik
omikonima
omikonimik
omikw
omisa
omisitak
omisitanak
omismawitc
omistak
omitcimim
omitcimiwoc
omitoneritcikan
omitoneritcikanik
omocoma
on
onactatc
onahakicim
onahakicima
onakitik
onapem
onapema
onapemiw
onawis
one
onf
onicinitcik
onihatc
onihewokw
onihikaniwon
onikam
onikamicik
onikamik
onikamowin
onikatitin
onikew
onikihikonanak
onikihikowa
onikihikowawa
onikihikwa
onimiski
onimiskickoteapi
onimiskiskak
onimiskiw
onimiskiwa
onipim
onitatcik
onitcanica
onitcaniciritci
onitcaniciriw
onitcanicitc
onitcaniciwaw
onitcaniciwawa
onitcaniciwow
onitcaniciwowa
onitcaniwa
onitik
onitinik
onondaga
onoskwatikw
onotc
ont
ontario
oowe
opan
opanik
open
opiawiw
opictikweak
opictikweiak
opimatisiwin
opimatisiwinik
opimatisiwiniw
opimatisiwiniwak
opimatisiwiniwaw
opimera
opimetak
opisikan
opisimoma
opitciwan
opitciwanik
opitciwon
opitciwonok
opiwi
opockoteiak
opohotc
opwam
opwamik
or
orakan
orakanik
orakeskw
orakeskwa
orakonike
orakonikewin
orakonikewiniw
orale
orapitcikatek
ordre
orekahikiwamaniwon
oreritak
oreritam
oreritcikatek
org
orina
orle
orocowewin
orowinaniwok
orowiparik
orowiparinik
orowitamik
orowitc
orowitimik
orowiw
osam
osami
osapwakan
osawapasikaniwon
osawarik
osawaw
osawesiw
osawisitc
osawisiw
osekowaniokw
osekwaniwon
osikatek
osikatew
osima
osimiwawa
osit
osita
ositaskoriw
ositaskw
ositinak
oskan
oskana
oskanik
oskat
oskatik
oskatinak
oski
oskisk
osko
oskon
oskonik
oso
osok
ospiskon
ospiskonik
ospiton
ospitonik
ospitoninak
ot
ota
otacikan
otacikaniw
otactamikok
otactimikok
otactimikw
otactimiwk
otahi
otaia
otakaci
otakai
otakikoma
otakikomitc
otakocik
otakocinik
otakosiwin
otakweto
otakwetosima
otamiro
otamironaniwok
otamironaniwon
otamiroritci
otamiroriwa
otamirotakaniwok
otamirotakaniwon
otamirotakaniwonik
otamirotatc
otamirotatcik
otamirotaw
otamirotc
otamirotcik
otamirowakaniwok
otamirowaketcik
otamirowin
otamirowina
otamirowinik
otamirowiniw
otamirowok
otananik
otanisa
otanisiwaw
otanisiwawa
otapan
otapanaskokaniwon
otapanik
otapaniw
otapaniwon
otapi
otapinak
otapinakik
otapinam
otapinatc
otapinawso
otarimowewin
otarimowewiniwaw
otarimwewiniwaw
otasinakek
otaski
otaskik
otaskitc
otaskiwak
otaskiwaw
otaskiwow
otasnakek
otatakon
otatama
otatcihitisotc
otatcihitisotcik
otatisokan
otatokon
otawak
otawi
otawia
otawinan
otawiwa
otcek
otcepikiwitc
otci
otcickica
otciman
otciparik
otciparin
otciparinik
otciparitc
otcipariw
otcipirik
otciritci
otciriwa
otcirowek
otcirowemakana
otcirowemakanan
otcirowemakina
otcita
otcitakotc
otcitc
otcitci
otcitcica
otcitcik
otcitcinak
otciw
otciwiw
otcockw
otcotcocanapom
otcotcoma
otcotcomik
ote
oteckan
otehi
otehik
otehimin
otehiminan
otehimini
otek
otekirepima
otena
otenak
otenam
otenamik
otenariw
otenaw
otenawa
otenawok
oteno
otenowa
oterni
otikona
otinak
otinakaniwitc
otinakiniwiw
otinam
otinikatek
otinikaterik
otinikateriw
otinikatew
otinkateki
otipatcimowin
otirinima
otirisowin
otiskwema
otisnakew
otitacikewin
otitakotc
otitawinik
otitikotc
otitiman
otitoskewin
otokai
oton
otonik
otosa
ototakon
ototetc
ototew
ototewok
ototokon
ototokwakan
ototokwankan
ottawa
ou
ouest
ouje
ouverture
owe
owec
owectciketcik
oweriw
owiaw
owitcicana
p
pa
pacitc
pacitci
packew
pacta
pactek
pactone
pactonew
pactonewa
page
pages
paix
pakahakwan
pakahakwana
pakahanik
pakan
pakana
pakanatikw
pakanicic
pakekaneskisiniw
pakekin
pakekina
pakekiniapiriw
pakicicitc
pakicik
pakiciniritci
pakicinitc
pakiciw
pakitahwaniwon
pakitik
pakitinak
pakitinik
pakitinikatek
pakitohaniwok
pakitohwaniwok
pako
pakoserimowiniw
pakotci
pakwe
pakwecikan
pakwecikanikaniwok
pakwehapotew
pamatisitc
pamatisitcik
pamatisiw
pamatohotcik
pamatowitc
pamicikopikepitcikan
pamicikopikepitcikanik
pamikicikwepitcikan
pamikicikwepitcikanik
pamipatatc
pamitcitc
pamitoneritak
pananis
papaskiw
papawapikepitcikaniw
papeikw
papikicik
papitoc
papokosinaso
par
parak
parame
participants
participation
pas
pascal
pasikatek
paskisikan
pasotc
pasowakaniwiw
patak
patam
patama
patari
patcisikwa
patoc
patrick
paul
pauline
pawictikw
pe
pecitcik
pecocik
pecotcic
pecotcik
pecotik
pectcik
pee
pehew
pehikon
peiko
peikociriwa
peikon
peikonok
peikw
peikwa
peikwakamik
peikwaw
peikwo
pekatc
pekon
pekonok
pekopiwan
pekwakimik
pekwaw
pemacic
pemantcic
pematcic
penta
perce
pessamit
petak
petakok
petakon
petakoniw
petakositc
petakosiw
petam
petaw
petawok
petcikatek
petcimotew
peten
petiquay
petowatc
petowaw
petowew
peut
philippe
philome
phine
photo
photographique
photos
picapiciw
picard
pici
picicikw
picipotcikan
piciw
pictewakamik
pieds
pien
pierre
pikesaniminan
pikisikan
pikitik
pikiw
pikiwa
pikogan
pikokw
pikototokwaniwon
pimatisikopon
pimatisin
pimatisinaniwok
pimatisiritci
pimatisirtci
pimatisitc
pimatisitcik
pimatisiw
pimatisiwin
pimatisiwinik
pimatisiwiniw
pimatisiwok
pimoteian
pimotetc
pimotew
pinaskin
pinawetc
pinawew
pinecic
pineshish
pinesotc
pipok
pipon
pipona
piponakoc
piponesikopon
piponesipan
piponesitc
piponesiw
piponicitc
piponiciw
piponik
piponikak
piponikarik
piponike
piponkak
piponkarik
pireca
pirecic
pirecica
pirecicak
piresiw
piresiwok
pirew
pirewa
pirewok
pirewominan
pisiko
pisim
pisimok
pisimokw
pisimw
pisimwa
pisimwok
piskareparinik
piskatek
piskatew
pismok
pismw
pitahak
pitakamik
pitaketc
pitaketcik
pitakew
pitakiepohatc
pitama
pitc
pitcerak
pitci
pitcikwi
pitcipipok
pitcipipon
pitciw
pitiketc
pitiketcik
pitikew
pitoc
pitokew
pittikwi
piwapiskok
piwapiskw
place
plessisville
ploye
plus
point
pointe
politique
ponapaniwon
poni
ponimatisitc
ponipimatisiw
ponitaw
pontaw
port
portneuf
positc
posiw
posiwok
pot
potcoc
pour
powakan
pre
premie
presse
presses
price
principe
prix
projet
projets
properties
pwactikw
pwasimikosiw
px
q
qu
que
quebec
quel
qui
quitich
quitish
quoquochi
r
radio
rakasimon
rale
rard
rareak
rareiak
rarewak
rasop
ration
re
reine
rekak
rekaw
reko
rene
repentigny
replacer
reretc
res
ric
richard
richelieu
richmond
right
rikapi
rikarot
rikasimon
rikasimonik
rikihotc
rikik
rikwaskatakaniwitc
rikwato
rimouski
ririkictis
ririkitcitcan
risim
riskipek
riskipew
riskipotakaniwono
riskipotek
risosowapi
rita
ritamat
ritat
ritetamin
ritoskaniapiskw
river
rivie
riw
robertson
roberval
roch
rock
roger
ronique
rosaire
rose
rotc
rotik
rotinik
rouge
rouyn
rowerik
s
sa
saguenay
saint
sainte
sakasiketc
sakatakana
sakay
sakhikanik
sakhikinik
sakihakik
sakihakiniwiw
sakihatc
sakihatcik
sakihew
sakihiewin
sakihikakamaw
sakihikan
sakihikana
sakihikanik
sakihikaniw
sakihikantoponymie
sakihikinik
sakihitin
sakihiwetc
sakihiwewin
sakitan
sakitapan
sakitatc
sakitatcik
sakitaw
sakitawok
sakotc
salomon
samian
samuel
sani
saniwitc
sante
sar
sasikatek
sasipakwecikan
saskatchewan
sault
schefferville
science
sciences
scott
se
seau
secondaire
sehamo
seigneurie
sekisitc
sence
seni
sentation
sepier
sept
septembre
seront
ses
sesekatikw
shawinigan
sherbrooke
sidney
sie
sikahatasotc
sikaret
sikinikatew
sikok
sikon
sikonik
sime
simon
simone
sioui
sioux
sipi
sipia
sipik
sipiriw
sipiwa
sisipaskot
sisiw
siskapatinikatek
siskapatinikatew
six
skat
soigne
soka
sokak
sokarik
sokatisitc
sokisitc
sokispon
son
sont
sophie
sort
sosan
sosep
sosikatek
sosowapi
soter
sound
sous
squamish
st
stanley
ste
steve
stoneys
sur
sus
sutton
suwet
suzanne
symbol
t
ta
tabwe
taci
tacikak
tacikam
tacikan
tacikaniok
tacikanionik
tacikaniwok
tacikatek
tacikatew
tacikein
tacikekopan
tacikematc
tacikematcik
tacikemew
tacikemikotc
tacikepan
tacikepanak
tacikeritci
tacikeriwa
tacikertci
taciketc
taciketcik
tacikew
tacikewakopon
tacikewakoponen
tacikewaspan
tacikewin
tacikewok
tacikewokw
tacikowew
tacinaniwok
tacinaniwon
tacipanak
taciritci
taciriwa
tacitcik
tacitikenak
taciwakopan
taciwakopanen
taciwakopon
taciwok
taciwokw
tackipotcikan
tahltan
takaiak
takaiaw
takamekw
takapikenikan
takickako
takikamik
takinak
takocicimok
takocik
takocin
takocinitc
takocinitcik
takocinok
takociparik
takociparin
takocnitcik
takok
takoki
takokipan
takon
takonatc
takonik
takonike
takonikopan
takonikotc
takonipan
takoniw
takono
takonokopan
takonopan
takopite
takwakik
takwakin
takwakinik
tamckotc
tan
tante
tapacic
tapahikan
tapickakan
tapickotc
tapiskwan
tapit
tapowe
tapwatcikaniw
tapwatcike
tapwatciketcik
tapwe
tapwerimitisowikw
tarasak
tarew
tariaw
tarikopan
taritci
tariwa
tat
tata
tatak
tataw
tatawitc
tatc
tatcik
tatiki
tatiniw
tatino
tatinotike
tato
tatokanikisitc
tatokonakisitc
tatopipona
tatopiponesipan
tatopiponesitc
tatopiponesiw
tatopiponikak
tatopiponikarik
tatopiponkarik
tatoponikak
taw
tawatcikan
tawok
tawokw
tc
tca
tcaki
tcani
tcatcer
tcetceckicic
tci
tciman
tcimanicic
tcimanik
tcimaniriw
tcimaniw
tcimatakaniwok
tcimatakaniwon
tcimateriw
tcintcire
tcipa
tcipaiatikw
tcipakowaniwok
tcipakwakaniwok
tcipakwan
tcipakwaniwok
tcipaw
tcipe
tcirowematc
tcitcatci
tcotco
tcotcocanapo
tcotcocimite
te
teauvert
tecikotc
tekaci
tekakwitha
tekarep
tekci
tekera
tekici
tekirep
tekirepicica
teperitciketc
tepirak
tepwatikotc
terak
terre
terrebonne
terres
territoire
tesinikaniw
tesinike
tesiniketc
tetawitc
tetci
tetipiwakan
tetisinahikan
tewehikan
tewehikana
text
the
thecanadianencyclopedia
thomas
thumb
tici
tikinakan
tikinakanikaniwon
tipahikahneaw
tipahikan
tipahikanatikw
tipahikaneak
tipahikaneaw
tipahikanicic
tipahikatek
tipahirotinan
tipanictawin
tipapasotc
tipaskonikan
tipaskonikewinik
tipatcimo
tipatcimomakak
tipatcimomakok
tipatcimonaniwok
tipatcimotc
tipatcimotcik
tipatcimowin
tipatcimowok
tiperimikotc
tiperitak
tiperitakik
tiperitakok
tiperitam
tipertam
tipi
tipickotc
tipirawe
tipirowe
tipiskak
tipiskarik
tipiskaw
tipiski
tipisko
tiripana
tis
tisorakan
titak
titakik
titam
tite
title
tito
titopipona
titoponesitc
to
tohana
tohetc
tokok
tokon
tom
tootoo
topis
toponymie
toponymiques
toronto
totak
totakik
totakotc
totam
totaman
totamok
totamoritci
totcikatek
totcikatekipan
totcikaterik
totcikatew
totowakaniwitc
totowakaniwitcik
totowakaniwiw
totowatc
totowew
tourisme
toute
tradition
trage
traite
tre
trois
trudeau
tu
tuque
type
u
uashat
un
une
universite
upright
uqac
uqam
user
utenam
v
va
val
valeur
valley
vancouver
ve
vents
victoria
victoriaville
vide
viens
vignette
village
ville
vincent
vision
voir
vollant
volution
voter
vous
vrier
w
wa
wacamec
wacapaniwon
wacik
wacikamak
wacitc
wackeciw
wackeciwa
wactek
wactenamakan
waiec
waiesiw
wakinaskwaniwon
wakoc
wakoca
wakwek
wamatc
wamew
wamin
waminak
waminapo
wamincic
wap
wapak
wapamakaniwitc
wapamatc
wapamatcik
wapamaw
wapamew
wapamitin
wapamosoritci
wapaniska
wapaniskakw
wapanok
waparik
wapariw
wapatak
wapatakik
wapatam
wapataman
wapatarietc
wapiciciw
wapicipic
wapictani
wapictikwanetc
wapikon
wapikoni
wapikonia
wapikoniriw
wapisahawisitc
wapisinaso
wapisiritci
wapisitc
wapisitcik
wapisiw
wapitak
wapitam
wapitaman
wapoc
wapoca
wapoco
wapocotehetc
wapowan
waptak
warowik
wasauksing
waseskonisiw
waseskoniw
washish
wasikahikan
wasikatotc
wasikicikw
wasikototc
wasite
waska
waskaganish
waskok
waskomiko
wasokototc
waswanipi
waw
wawatc
wawiesiw
wawiriw
wawitak
wawitcihietc
waworiw
we
web
webm
wec
wecihakaniwitc
wecihakiniwipan
wecipamatc
wecitorinaniwon
weckat
weckatc
weckatcic
wectakaniwok
wectakiniwok
wectatc
wectatcik
wectatotcik
wectaw
wectawok
wee
wekimatc
wekisi
wellie
wemistikocicak
wemitikocimonaniwok
wemotaci
wemotacik
wendake
wendakik
wepahapaniwon
wepahapetc
wepahapetcik
wepihapaniwon
wepihapetc
wepinaso
wepinasonik
wepinasoniw
west
wet
wetci
wetciparik
wewerita
wi
wiak
wias
wiasiketc
wiasim
wiasiriw
wiaw
wiawik
wicamakaniwiw
wicamew
wiec
wikasi
wikasia
wikasik
wikasikaniwon
wikasimitc
wikasiriw
wikatciciw
wiki
wikicin
wikiconvention
wikimakoponen
wikimaritci
wikimatc
wikime
wikimedia
wikimew
wikipe
wikipedia
wikipetcia
wikitciciw
wikwamotai
wikwamotekaniwon
wikwamoti
wikwapit
wikwas
wikwasatikok
wikwasatikw
wikwasik
wikwasiriw
william
win
windigo
windsor
winikis
winnipeg
wipatc
wipit
wipita
wir
wirakaniwitc
wirakiniwitc
wirata
wirawaw
wirawow
wircike
wirctam
wiricike
wirin
wirinotc
wirowaw
wirowow
wirsis
wirtip
wirwow
wisakatikw
wisaketcakw
wisaketcakwa
wisikak
wisikipokw
wisikisitc
wiskat
wiskata
wisopi
witak
witakik
witam
witamakemakak
witamako
witamakotc
witamokw
witamowakaniwitc
witamowatc
witamowew
witc
witcewakaniwitc
witcewew
witcewiko
witci
witcicana
witcicanik
witcihakaniwitc
witcihakaniwiwakopan
witcihatc
witcihew
witcihici
witcihietc
witcihiew
witcihiin
witcihiko
witcihikotc
witcihikotcik
witcihiwetc
witcihiwew
witcikatek
witcikatew
witcimetowemew
witciriniwa
witcitacikematc
witcitatc
witcitaw
witiko
wiwa
woodstock
wow
www
x
y
york
yves
z
zachary
ze
zibi
{
|
}
~
¨
«
­
°
²
¸
»
ʼ
̀
́
̂
̈
̧
̱
в
‎
–
—
‘
’
“
”
•
…
′
″
↔
↷
③
④
⑦
⺀
⺄
⺆
⺈
⺊
⺌
⺕
⺝
⺸
⺼
⿰
⿱
⿲
⿳
⿴
⿵
⿶
⿷
⿸
⿹
⿺
⿻
〢
コ
ユ
㇁
㇂
㇄
㇇
㇈
㇉
㇓
㐁
㐄
㐅
㐌
㐫
㐬
㐭
㐮
㐱
㑒
㒵
㒸
㒼
㓁
㓞
㔾
㕛
㕣
㖾
㘝
㚅
㚇
㚔
㚘
㝉
㝡
㝴
㝵
㞋
㞢
㞷
㠩
㠭
㠯
㡀
㡭
㡿
㢲
㢴
㣇
㣺
㥯
㪅
㫄
㫐
㫒
㫺
㬅
㬎
㬥
㬰
㲋
㳄
㷠
㸒
㸚
㸦
㼌
㼲
㽞
㿟
䀠
䂞
䍃
䏍
䒑
䖍
䖒
䖝
䖵
䙴
䚻
䜌
䝿
䡛
䧹
䪞
一
丁
丂
七
丄
丅
丆
万
丈
三
上
下
丌
不
与
丏
丐
丑
专
且
丕
世
丘
丙
业
东
丞
丢
丣
两
严
並
丨
丩
个
丫
丬
中
丮
丰
丱
串
丵
丶
丷
丸
丹
为
主
丽
丿
乀
乂
乃
久
乆
乇
么
义
之
乌
乍
乎
乏
乐
乑
乔
乖
乗
乘
乙
乚
乛
乜
九
乞
也
习
乡
乳
乾
亀
亅
了
亇
予
争
事
二
亍
于
亏
亐
云
互
亓
五
井
亘
亚
亜
亞
亟
亠
亡
亢
交
亥
亦
产
亨
亩
享
京
亭
亮
亯
亰
亲
亳
亶
亷
人
亻
亼
亾
仁
今
介
仌
从
仐
仑
仒
仓
仕
他
付
仝
代
令
以
任
企
伊
伏
伐
休
会
伯
但
位
何
佘
余
作
佥
使
來
侈
侌
侖
侯
侵
便
保
俞
信
修
倉
倍
候
倠
備
僉
僕
儿
兀
允
兂
元
兄
充
兆
兇
先
光
兊
克
兌
免
兑
兒
兓
兔
党
兜
兟
入
全
兩
兪
八
公
六
兮
兰
共
关
兵
其
具
典
兹
兼
冀
冂
冃
冄
内
冈
冉
冊
冋
册
再
冎
冏
冐
冒
冓
冖
冗
冘
军
农
冝
冡
冥
冫
冬
冷
几
凡
凢
凵
凶
凷
凸
凹
出
函
凾
刀
刁
刂
刃
刄
刅
分
切
刍
刑
刕
刖
列
刘
则
初
別
利
别
到
制
刺
則
削
剌
前
剡
剽
劉
力
功
加
劦
助
劫
劳
劵
勃
勇
勉
勒
動
務
勞
勤
勹
勺
勻
勾
勿
匀
匂
包
匆
匈
匊
匋
匍
匕
化
北
匚
匝
匡
匪
匱
匸
匹
区
医
匽
匿
區
十
卂
千
卄
卅
卆
升
午
卉
半
卌
华
卑
卒
卓
单
卖
南
卜
卝
卞
占
卡
卢
卣
卤
卦
卩
卪
卬
卯
印
危
即
却
卵
卷
卸
卻
厂
厃
厄
历
厈
厉
厌
厓
厘
厚
原
厤
厥
厨
厭
厲
厶
厷
厸
去
厼
厽
叀
参
參
叅
又
叉
及
友
双
反
叐
发
叒
叔
叕
取
受
叚
叜
叟
口
古
句
另
叩
只
召
可
台
叱
史
右
叵
号
司
叹
吂
各
吅
合
吉
吊
吋
同
名
后
吏
向
吕
君
吝
吞
否
含
启
吳
吴
吹
吾
呂
呆
呈
告
员
呙
周
命
咅
和
咎
咠
咢
咨
咸
咼
哀
品
哉
員
哥
哲
唐
商
啇
問
啚
啬
啻
善
喜
喬
單
喿
嗇
噩
嚴
囊
囗
囘
囙
囚
四
回
囟
因
囧
囬
困
囱
囷
固
国
圂
圅
國
圍
圓
土
圡
圣
圥
在
圭
地
圶
圼
坐
坒
坚
坴
垂
垔
垚
埀
埋
埶
執
基
堂
堅
堆
堇
堯
塞
墨
壘
士
壬
壯
声
壳
壴
壹
壺
壽
夂
处
夅
夆
备
夊
夋
夌
复
夏
夒
夕
外
夗
夘
多
夜
夢
大
夨
天
太
夫
夬
夭
央
失
夲
头
夷
夸
夹
夻
夾
奂
奄
奇
奈
奉
奎
奏
奐
契
奓
奔
奚
奞
奠
奢
奥
奭
女
奴
奻
好
如
妄
妙
妟
妥
妻
妾
姑
委
姜
威
娄
婁
婴
嬰
嬴
子
孑
孔
孕
孖
字
存
孚
孛
孝
孟
季
孤
学
孫
孱
學
宀
宁
宂
它
宅
宇
守
安
宋
完
宏
宓
宗
官
定
宛
宜
宝
客
宣
室
宮
宰
害
家
容
宾
宿
寄
寅
密
富
寒
察
寧
審
寫
寬
寮
寸
对
寺
寻
寽
対
寿
封
尃
射
将
將
專
尉
尊
尋
尌
對
小
少
尒
尓
尔
尖
尗
尚
尞
尢
尣
尤
尧
尨
尭
就
尸
尹
尺
尻
尼
尽
尾
尿
局
居
屈
屋
屎
屏
屑
展
屖
屚
属
屠
屡
屬
屮
屯
屰
山
屵
屾
岁
岂
岑
岡
岩
岳
岸
峯
島
崇
崑
崔
崖
崙
崩
嵬
嶲
巂
巛
川
州
巟
巠
巢
巤
工
左
巧
巨
巩
巫
差
己
已
巳
巴
巷
巸
巽
巾
巿
帀
市
布
希
帚
帛
帝
带
師
席
帶
常
干
平
年
幵
并
幷
幸
幺
幻
幼
幽
幾
广
広
庄
床
底
店
庚
府
度
庫
庭
庶
康
庸
廉
廌
廛
廣
廩
廴
延
廷
建
廾
廿
开
弁
弃
弄
弇
弋
式
弓
弔
引
弗
弘
弜
弟
弥
弦
弱
張
強
强
彊
彌
彎
彐
彑
当
彔
录
彖
彗
彡
形
彥
彦
彧
彭
彳
役
彼
往
待
律
徒
得
徙
從
復
微
徵
心
忄
必
忌
忍
志
忝
忠
忩
快
念
忽
忿
思
怠
急
怱
恆
恒
恩
恭
息
悉
患
悤
悲
悶
惠
惡
惢
愁
愈
意
愛
感
慈
慧
慮
憂
憲
應
戀
戈
戉
戊
戋
戌
戍
戎
成
我
戒
戔
或
戚
戠
戢
截
戲
戶
户
戹
戼
戾
房
所
扁
扇
手
扌
才
打
托
执
承
折
拉
拜
拿
掌
推
提
摩
支
攴
攵
收
攸
改
放
政
敄
敏
敕
敖
敗
敝
敞
敢
散
敦
敫
敬
数
敷
數
斂
文
斉
斊
斗
斤
斥
斩
斬
斯
新
方
於
施
斿
旁
旋
族
无
旡
既
旣
日
旦
旧
旨
早
旬
旱
旲
时
旾
昆
昇
昌
昍
明
昏
易
昔
昗
昜
星
春
昬
是
昱
昴
昷
時
晃
晋
晏
普
景
晶
智
暑
暴
曇
曩
曰
曲
曳
更
曷
書
曹
曼
曾
替
最
朁
會
月
有
朋
服
朔
朕
朗
望
朝
木
朩
未
末
本
札
朮
术
朱
朵
朶
朿
杀
杏
杜
束
条
来
東
杲
杳
松
析
林
枚
果
枝
枲
枼
某
柔
查
柬
柰
柴
栗
桀
桑
桼
梁
條
梟
梨
棘
棠
棥
森
楚
業
楽
榮
樂
樊
欠
次
欣
欮
欲
欶
欽
款
歆
歇
歛
止
正
此
步
武
歨
歪
歮
歯
歰
歲
歴
歷
歸
歹
歺
死
殳
段
殷
殸
殹
殺
殻
殿
毋
毌
母
每
毒
比
毕
毚
毛
毳
氏
氐
民
气
氣
水
氵
氶
氷
永
氺
氾
求
汝
汞
江
沃
沓
沙
沝
泉
法
波
泣
泥
泰
洛
洪
活
派
流
浦
浪
浮
淡
淮
清
渚
渠
湯
滿
漸
火
灬
灭
灰
灵
灷
炅
炎
炏
炗
炙
炭
為
烈
烏
烝
焉
無
焦
焱
然
煞
熊
熏
燕
營
燮
爪
爫
爭
爯
爰
爱
爲
爵
父
爻
爽
爾
爿
片
牙
牚
牛
牜
牟
牢
牧
牪
牽
犀
犬
犭
犮
狂
狄
狊
独
狺
猋
猒
猪
献
獻
玄
率
玉
王
玟
玨
珎
班
琴
瑟
瑩
瓜
瓦
甘
甚
生
産
用
甫
甬
田
由
甲
申
电
甶
男
甸
甹
画
甾
畀
界
畏
畐
留
畜
畟
畢
畧
畨
番
畫
異
畱
當
畺
畾
疊
疋
疌
疑
疒
疾
癶
癸
癹
登
發
白
百
皀
皃
的
皆
皇
皋
皐
皕
皮
皷
皿
盃
盆
盇
盈
益
盍
盎
监
盒
盖
盛
盡
監
盤
盧
目
直
相
盾
省
眇
眉
看
眔
眞
真
眷
眼
眾
着
睘
睪
睿
瞏
瞢
瞿
矍
矛
矞
矢
矣
知
矦
短
石
破
碎
磊
磨
示
礻
礼
祟
票
祭
禀
禁
禸
禹
禺
离
禽
禾
禿
秀
秃
秉
秋
科
秝
秦
移
稟
穀
穌
穴
究
穹
空
穿
突
窄
窒
立
竒
竜
竝
竟
章
童
竹
笑
笠
筆
等
答
箕
算
箴
節
篤
篭
米
粉
粛
粟
粤
粦
粲
糞
糸
糹
系
約
納
素
索
紫
累
細
絜
絫
絲
維
綿
縣
繇
纍
纟
缶
网
罒
罔
罕
罗
罙
罡
罢
罪
署
罷
羅
羊
羌
羍
美
羔
羕
羗
羞
羡
羣
群
義
羲
羸
羽
翁
翏
習
翕
翟
翠
翼
老
耂
考
者
耆
而
耎
耑
耒
耳
耴
耶
耷
聂
聊
聖
聚
聶
聿
肀
肃
肅
肉
肖
肙
肥
肩
肯
育
肴
胃
背
胡
胥
能
脊
脩
膚
臣
臤
臧
自
臬
臭
臯
臱
至
致
臺
臼
臽
臾
臿
舀
舂
舄
與
興
舉
舌
舍
舛
舜
舞
舟
般
艮
良
色
艸
艹
艾
芒
芔
芬
芮
花
芳
芺
芻
苔
苗
苟
若
苦
英
茶
茸
荅
草
荒
荣
荼
莆
莧
莫
莽
菆
菊
菐
華
萬
落
葉
著
葛
董
葵
蒙
蒦
蒼
蓋
蓬
蓺
蔑
蔡
蕉
蕭
薄
薛
薦
薰
藍
藏
藥
蘭
虍
虎
虐
虒
虔
處
虖
虗
虘
虚
虛
虜
虞
虫
虽
蚤
蚩
蜀
蜜
蟲
蠡
血
行
衍
衛
衣
衤
表
衮
衰
袁
袞
褭
褱
襄
襾
西
覀
要
覃
見
規
覓
覧
親
覽
见
角
解
言
訁
訇
計
詹
誩
諸
讠
谷
豆
豈
豊
豐
豕
豖
豙
象
豦
豩
豪
豸
貇
貝
貞
貟
負
貢
貧
貪
貫
責
貳
貴
買
費
賁
資
賈
賏
賓
賔
賛
賞
賢
賣
質
賴
贊
贝
贡
责
贯
贲
贵
赖
赞
赤
赦
走
越
足
路
蹇
身
躬
車
軍
軎
軟
輦
车
辛
辜
辟
辥
辰
辱
農
辵
辶
边
达
过
近
连
迷
追
退
送
逆
逐
通
速
造
逢
連
逮
進
遀
遂
過
道
達
遣
適
遷
遺
邊
邑
邕
那
邦
邪
郎
部
郭
都
鄉
酉
酋
配
酓
釆
采
里
重
野
量
金
釒
錢
钅
長
镸
长
門
閃
閉
開
閏
閑
閒
間
閔
閵
閻
闌
门
间
闷
阑
阜
阝
阿
降
陳
隆
隊
隋
隡
隨
隱
隶
隹
隺
隻
隼
隽
难
雀
雁
集
雈
雋
雍
雐
雔
雙
雚
雜
雝
離
難
雨
雩
雪
雲
零
雷
需
霍
霜
霝
霞
霸
靈
靑
青
非
靡
面
靣
革
韋
韦
韭
韯
韱
音
頁
頃
項
須
頗
頡
頻
顛
页
風
风
飛
飞
食
飠
養
饣
首
香
馬
馮
駦
马
骨
高
髟
鬥
鬯
鬲
鬼
魚
魯
鮮
鱼
鲁
鳥
鳳
鸟
鹵
鹿
麃
麗
麥
麦
麻
黃
黄
黍
黎
黑
黒
黨
黹
黽
黾
鼎
鼓
鼠
鼻
齊
齋
齐
齒
齿
龍
龙
龜
龟
龠
龰
龱
龴
龵
龶
龷
龸
龹
者
艹
？
🜨
𠀁
𠀃
𠀆
𠀉
𠀎
𠀐
𠁁
𠁣
𠂆
𠂇
𠂈
𠂉
𠂊
𠂋
𠂎
𠂒
𠂔
𠂛
𠂡
𠂢
𠂤
𠂬
𠂭
𠂹
𠃊
𠃋
𠃌
𠃍
𠃎
𠃑
𠃓
𠃔
𠃜
𠄌
𠄎
𠄠
𠄢
𠆢
𠆥
𠇍
𠈌
𠌵
𠓜
𠔉
𠔥
𠔼
𠔽
𠔿
𠕀
𠕁
𠕋
𠘧
𠘨
𠙻
𠙼
𠚏
𠚒
𠚤
𠚪
𠣏
𠤎
𠤕
𠥓
𠦄
𠦑
𠦝
𠧒
𠧗
𠧪
𠩺
𠪚
𠫓
𠫔
𠫤
𠬛
𠬝
𠬞
𠬢
𠬤
𠬶
𠮛
𠮦
𠮷
𠯑
𠱠
𠳮
𠷎
𡈼
𡉀
𡉵
𡌥
𡍮
𡏳
𡕒
𡕩
𡕰
𡖅
𡗗
𡗜
𡘆
𡘤
𡧱
𡨄
𡩧
𡬠
𡭽
𡰣
𡰥
𡰪
𡰯
𡰱
𡷈
𡸁
𡿨
𡿩
𡿪
𡿺
𢀖
𢀛
𢀩
𢁙
𢆉
𢆰
𢆶
𢇁
𢇇
𢉖
𢌬
𢌿
𢏚
𢑑
𢑚
𢖻
𢙣
𢛳
𢦏
𢦒
𢧵
𢼄
𢾕
𣁋
𣄼
𣅀
𣅽
𣍘
𣎳
𣎵
𣏋
𣏼
𣗥
𣥂
𣥖
𣦵
𣦼
𣧄
𣪊
𣪠
𣬉
𣳾
𣶒
𤇾
𤊽
𤐫
𤓰
𤔔
𤕨
𤣩
𤰇
𤰔
𤰞
𤴓
𤴔
𤽄
𥁑
𥁕
𥃦
𥃩
𥃭
𥇡
𥑟
𥘅
𥘈
𥝢
𥫗
𥱡
𦈢
𦉪
𦉬
𦉼
𦍌
𦍒
𦎧
𦐇
𦓔
𦔮
𦘒
𦙃
𦚏
𦣝
𦣞
𦣻
𦥑
𦥔
𦥯
𦨉
𦭝
𦰩
𧆞
𧈧
𧘇
𧰨
𧴪
𧴮
𧵩
𧾷
𨸏
𨾴
𩙿
𩠐
𩫏
𩵋
𪉷
𪜀
𪟽
𪠲
𪩲
𫇦
𫔭
𫜸
𫝀
𫠣
𫠩
𫢉
𫥞
𫩏
𫩠
𫪡
𫲽
𫶧
𬀷
𬐘
𬗌
𬙙
𬛸
𬜯
𬟩
𬯁
𬴘
𬺻
𬼉
𬼖
𭀰
𭁈
𭁨
𭅰
𭑈
𭕄
𭗼
𭤨
𭥫
𭻾
𮅕
𮊿
𮍌
𮍏
𮓗
𮥼
𮧮
廾
𰀁
𰀄
𰀈
𰀉
𰀕
𰀠
𰀡
𰀢
𰀪
𰁜
𰃮
𰆊
𰆘
𰋙
𰕎
𰢴
𰧭
𰯲
0--
10--
12--
14--
16--
17--
18--
19--
3--
33--
34--
4--
45--
5--
6--
7--
8--
84--
88--
89--
9--
a--
ac--
aca--
aci--
acki--
aco--
acoka--
acta--
acto--
ad--
admini--
ah--
ahi--
ai--
aia--
aic--
aicte--
aiekwa--
aih--
aike--
aimha--
aip--
ait--
aiti--
ak--
aka--
aki--
ako--
akoc--
akot--
akwa--
akwacteci--
akwe--
al--
alex--
algon--
all--
am--
ame--
amis--
an--
ane--
ani--
ap--
apa--
apatci--
apatcita--
api--
apiko--
aptci--
ar--
arap--
arge--
ari--
arikcik--
arim--
arimer--
arimi--
arimihi--
arimitakosin--
arimowa--
aripet--
arm--
aro--
as--
aski--
asperi--
at--
ata--
atci--
atea--
ati--
atika--
atis--
atos--
au--
aw--
b--
ban--
bar--
bas--
be--
beau--
bel--
bi--
bon--
bou--
br--
bro--
bu--
c--
ca--
cakwer--
can--
car--
caw--
cawer--
caweri--
ce--
cec--
ch--
che--
ci--
cico--
cicope--
cika--
cike--
ciker--
cikerimakani--
ciko--
cina--
cip--
cipa--
ciwa--
ck--
cla--
co--
coc--
coco--
cocok--
com--
con--
consul--
coord--
cowe--
cower--
coweri--
cr--
cte--
d--
de--
di--
dig--
don--
dor--
du--
dur--
e--
ec--
ecina--
ed--
el--
eli--
em--
emitco--
en--
er--
eri--
erikok--
es--
esi--
eskocka--
et--
euro--
extra--
f--
fa--
fi--
fla--
for--
fou--
g--
ga--
gag--
ge--
ger--
gol--
gr--
gra--
gu--
h--
ha--
hal--
hist--
hor--
hou--
hu--
i--
ia--
ic--
icaw--
ici--
icika--
icinakas--
icinika--
icinkata--
icir--
ickini--
ickip--
icko--
icpa--
im--
in--
ir--
ira--
irapa--
irikwaski--
is--
isa--
isk--
iskwa--
iskwatowi--
iskwe--
ispa--
ispokos--
it--
ita--
itapa--
itapike--
itati--
ite--
iter--
iti--
itohi--
itoho--
itotis--
j--
je--
jo--
ju--
k--
ka--
kac--
kacke--
kacki--
kakeski--
kaki--
kamic--
kana--
kanawe--
kanawer--
kanew--
kani--
kano--
kanowe--
kanoweri--
kas--
kasis--
kasker--
kaski--
kaskino--
kaskinohamake--
kaskinoho--
kat--
ke--
kes--
ki--
kiac--
kic--
kica--
kice--
kiciatisi--
kiciwe--
kicki--
kico--
kictapa--
kicte--
kicter--
kicteri--
kim--
kimo--
kimot--
kin--
kina--
kini--
kino--
kinoko--
kinop--
kinowap--
kinower--
kip--
kipaci--
kipita--
kir--
kis--
kisisa--
kisisi--
kisisipa--
kisiso--
kisisowa--
kiske--
kisker--
kiskeri--
kiski--
kiskino--
kiskinoha--
kiskinohama--
kiskinoho--
kiskinoweri--
kispa--
kispiwa--
kit--
kitci--
kiti--
kitota--
kiwa--
kiwoter--
ko--
koc--
kocta--
kok--
koko--
kor--
kos--
kosi--
koso--
koto--
kwac--
kwakwap--
kweckwe--
kwes--
l--
la--
le--
li--
lingui--
lo--
ly--
m--
ma--
mac--
maci--
macika--
maciko--
macko--
mag--
maha--
mai--
mako--
mama--
mamec--
mami--
mamowi--
man--
manto--
mapike--
mar--
mart--
mas--
masin--
masina--
masinactepar--
masinahac--
masinahi--
masinapis--
masinaso--
masinaw--
masinhi--
masini--
masinihi--
masinihike--
mat--
mata--
mataka--
matce--
matco--
mati--
matisin--
maw--
me--
mec--
mes--
met--
meto--
metwa--
mi--
mic--
mick--
micka--
micki--
micko--
mik--
mika--
miki--
miko--
mikwa--
mil--
min--
mini--
minik--
mino--
mip--
mipar--
mir--
mira--
mire--
mirer--
miri--
miro--
mirocka--
mirwatci--
mis--
misa--
misi--
misin--
misinhi--
misk--
misko--
miw--
miwi--
mo--
mocka--
mocko--
moco--
moha--
mokoca--
mon--
monihi--
mor--
mote--
mow--
mowetci--
mu--
n--
na--
nah--
nahe--
nahi--
name--
nana--
nanaka--
nanto--
nas--
natawe--
natci--
nato--
natokohowe--
ne--
neka--
nekatci--
nero--
neu--
ni--
nict--
nihe--
nik--
nika--
nike--
nikic--
nikicko--
niko--
nipi--
nipo--
nis--
nisa--
nisit--
nisito--
nisitowin--
nit--
nita--
nitawki--
nito--
no--
noca--
nos--
nosinet--
not--
note--
nto--
ntoko--
ntowa--
ntowapa--
ntoweri--
ntwa--
nu--
o--
oc--
oca--
ocawa--
ocawo--
oci--
ociha--
ocita--
oco--
ocpikwac--
octesi--
ojib--
okari--
okitawe--
okiti--
oko--
okos--
okwe--
omes--
omi--
omicom--
omis--
omisi--
omisima--
omo--
on--
ona--
onat--
oni--
onic--
onihi--
onikatakani--
onikihi--
onit--
onitca--
ono--
op--
opictiko--
or--
ora--
orac--
oras--
org--
ori--
orikihi--
orin--
orini--
orisa--
oro--
oroco--
orowi--
os--
osa--
osawa--
osek--
ospi--
ot--
ota--
otact--
otacta--
otarimwe--
otata--
otatcih--
otci--
otcicka--
otcip--
otcirowe--
otcotcomi--
ote--
oti--
otini--
oto--
ototer--
ou--
p--
pa--
pac--
paca--
pacakip--
pak--
paka--
pakici--
pakickewo--
pakitin--
pakoser--
pakoseri--
pakwe--
pam--
pamatis--
pamatisin--
pamer--
pami--
pamitone--
pamitoner--
pamiw--
papawapi--
papi--
par--
pas--
pasor--
pasowe--
patas--
pe--
peci--
peciwa--
peco--
peiko--
peko--
pekwa--
pensi--
per--
petci--
pi--
piapis--
piki--
piko--
pikot--
pim--
pima--
pimatisi--
pin--
pis--
piska--
piskare--
pita--
pitake--
pitaker--
pitike--
pla--
po--
poko--
pom--
poni--
posin--
pot--
pr--
pro--
pu--
pwa--
pwacti--
r--
ra--
raci--
rare--
re--
ren--
rer--
ri--
rin--
riski--
rit--
ro--
ron--
ros--
rot--
roy--
ru--
rus--
s--
sa--
sai--
sakahi--
saki--
sakiha--
sakiwepar--
sap--
sasi--
sau--
se--
ser--
servi--
ses--
sha--
si--
sika--
siki--
ski--
so--
soci--
soki--
st--
su--
syl--
t--
ta--
tac--
tacike--
tak--
takapi--
tako--
takop--
tan--
tap--
tapa--
tapi--
tapic--
tapicko--
tar--
tas--
tat--
tato--
taw--
tca--
tci--
tcim--
tcima--
tcir--
te--
tep--
tepi--
tepwa--
tes--
tesini--
teti--
tetipa--
th--
thi--
thun--
ti--
tipa--
tipahi--
tipapa--
tipas--
tiper--
tiripa--
titi--
tito--
to--
tohe--
tos--
tot--
totowa--
tour--
towe--
tr--
tri--
tu--
u--
uni--
uq--
ur--
v--
ver--
vi--
vo--
w--
wa--
wac--
waci--
wacteni--
wai--
wama--
wamin--
wane--
wap--
wapa--
wapi--
war--
was--
wases--
wasi--
wasko--
watco--
waw--
wawi--
wawita--
we--
wec--
wecipap--
wecta--
weki--
wep--
wepa--
wepha--
wepiha--
wepini--
wer--
wet--
wh--
wi--
wic--
wica--
wicama--
wik--
wiki--
wikwa--
wir--
wisa--
wisi--
witci--
witis--
wo--
x--
y--
yu--
--0
--06
--09
--1
--15
--17
--2
--3
--36
--37
--4
--44
--5
--52
--54
--59
--6
--66
--7
--8
--83
--87
--9
--92
--96
--a
--ac
--achingue
--aci
--acik
--age
--ahak
--ahi
--ai
--ak
--akaniwitc
--aketc
--aketcik
--akew
--akik
--akiniwiw
--akok
--akopan
--akopanen
--akopon
--akwen
--al
--am
--amakopanen
--amik
--amikok
--amin
--amok
--an
--ana
--anak
--ane
--anen
--anik
--aniok
--aniokw
--anionik
--aniw
--aniwitc
--aniwiw
--aniwok
--aniwokw
--aniwon
--ano
--api
--apiskw
--ard
--arik
--aritci
--as
--aso
--asotc
--aspan
--at
--atc
--atcik
--ate
--atek
--aterik
--ateriw
--atew
--atikoriw
--atikw
--atikwa
--atisiw
--au
--aw
--awaw
--ay
--b
--burg
--c
--ca
--cak
--can
--ce
--che
--ci
--cic
--cica
--cicak
--cik
--cikan
--cikaniw
--cike
--ciketc
--cimok
--cimon
--cin
--cinan
--cinik
--cip
--ciriw
--ciriwa
--citc
--citcik
--ciw
--ck
--ckak
--ckamikanik
--ckatc
--ckatcik
--ckaw
--ctakaniwok
--ctek
--cteki
--cterik
--ctew
--ctik
--d
--da
--de
--di
--ds
--e
--ec
--ed
--ek
--ekan
--ekw
--ekwe
--el
--en
--er
--erik
--eriw
--es
--esitc
--esiw
--etc
--etcik
--eur
--ew
--ewok
--f
--g
--ge
--gne
--gs
--gue
--h
--hak
--hakaniwitc
--hakaniwiw
--hakaniwok
--hakik
--hakopan
--ham
--haniwon
--hatc
--haw
--hawok
--hawsotc
--he
--hew
--hewok
--hi
--hietc
--hiew
--hiewok
--hikan
--hikanatikw
--hikanik
--hikaniwok
--hikatek
--hikateki
--hikatew
--hiko
--hikok
--hikw
--him
--hin
--hitotcik
--hitowok
--ho
--hon
--honaniwok
--horn
--hotc
--http
--https
--i
--ia
--iak
--ian
--iarik
--ic
--ica
--icic
--icica
--icik
--ie
--iekw
--iew
--if
--ihakiniwiw
--ihew
--ihi
--ihok
--ii
--iin
--ik
--ikan
--ikaniw
--ikaniwok
--ikaniwon
--ikatek
--ikatew
--iketc
--iketcik
--iki
--ikok
--ikopan
--ikopon
--ikw
--im
--imatc
--in
--inak
--inam
--inan
--inaniwok
--ine
--inetc
--inik
--inikan
--initc
--iniw
--iniwitc
--iniwok
--ino
--io
--iok
--iokw
--ionik
--ipan
--ipana
--ipanak
--ire
--irew
--irik
--iritci
--iriw
--iriwa
--irowa
--is
--isi
--isitc
--isiw
--isiwin
--isiwiniw
--it
--itatc
--itc
--itcik
--iw
--iwa
--iwak
--iwaw
--iwawa
--iwiritci
--iwitc
--iwitcik
--iwiw
--iwoc
--iwok
--iwokw
--iwon
--iwonik
--iwow
--ix
--j
--k
--ka
--kahak
--kak
--kam
--kamak
--kamik
--kamikok
--kamikw
--kan
--kana
--kanak
--kanatikw
--kanik
--kanikw
--kaniok
--kaniokw
--kanionik
--kaniriw
--kaniw
--kaniwiw
--kaniwok
--kaniwokw
--kaniwon
--kaniwonik
--karik
--kasitc
--katc
--katek
--kateki
--katew
--kaw
--ke
--kean
--keiak
--keian
--kepan
--keritci
--ketc
--ketcik
--kew
--kewin
--kewinik
--kewiniw
--kewok
--ki
--kik
--kina
--kipan
--kiw
--ko
--koc
--kok
--komikok
--komikokw
--kon
--konak
--kopan
--kopanen
--kopon
--koponen
--korikaniwon
--kositc
--kosiw
--kosiwok
--kotek
--kowik
--kowin
--kowok
--kw
--kwan
--kwe
--kwik
--l
--la
--ld
--le
--let
--lis
--ll
--lle
--lly
--ls
--lt
--ly
--m
--ma
--mak
--makanik
--makaniwitc
--make
--makok
--man
--masotc
--matc
--matonaniwok
--me
--mekw
--mes
--metowematc
--mew
--mi
--mik
--mikan
--mikanik
--min
--mis
--mitotcik
--mkak
--mo
--mok
--mokw
--motc
--mowin
--mowinik
--mowiniw
--mowok
--n
--na
--nak
--nakaniwiw
--nam
--nan
--naniok
--naniokw
--nanion
--nanionik
--naniwok
--naniwokw
--naniwon
--naniwonik
--naniwoniw
--nano
--nant
--natikw
--nawaw
--nce
--nd
--ne
--ni
--nic
--nica
--niciw
--nik
--nikatek
--nikok
--nikw
--niok
--niokw
--nion
--nioniw
--nis
--niskotape
--niw
--niwirtci
--niwitc
--niwiw
--niwiwok
--niwok
--niwokw
--niwon
--niwonik
--nna
--nne
--nnes
--no
--nok
--nowatc
--ns
--nt
--nts
--ny
--o
--oc
--ok
--okaniwon
--okopan
--okopanen
--okopon
--okw
--okwen
--om
--on
--onak
--onen
--onik
--oniw
--ono
--opan
--opanen
--opon
--oponen
--oritci
--oriw
--os
--osiok
--ositc
--ositcik
--osiw
--ot
--otc
--otcik
--ow
--owa
--owakaniwikopan
--owan
--owatc
--owaw
--owi
--owiniw
--owok
--p
--pan
--panak
--panen
--parik
--parin
--parinik
--pariniw
--paritc
--paritcik
--pariw
--pariwok
--pataw
--pe
--pekw
--pew
--pi
--piatikw
--pie
--pinaniwok
--piskw
--pitak
--pitam
--pitcikan
--piw
--po
--pok
--pokw
--pon
--pona
--prik
--prin
--q
--r
--ra
--rad
--ratc
--rd
--re
--reca
--retc
--rew
--rewok
--ri
--rie
--rik
--rikopan
--rimaso
--rimatc
--rimawok
--rimew
--rimo
--rin
--rini
--rinik
--riniw
--riniwa
--riniwiw
--riniwok
--ritc
--ritci
--riw
--riwa
--riwetc
--ro
--rs
--rt
--rtak
--rtam
--rtamok
--rtci
--rte
--rus
--rwa
--ry
--s
--sa
--sak
--san
--se
--sh
--si
--siketc
--sikew
--sin
--sinaso
--sinasotc
--siok
--sipan
--siriwa
--sis
--sitc
--siw
--siwok
--sk
--ska
--skak
--skaniwok
--skarik
--skaw
--skik
--skok
--skositc
--skosiw
--skwewa
--so
--son
--sonaniwok
--sotc
--sowok
--span
--ss
--sse
--t
--ta
--taiekw
--tak
--takaniwiw
--takaniwok
--takaniwon
--takaniwonik
--take
--takiniwok
--takopan
--takosiw
--tam
--tan
--taniwok
--tanok
--taso
--tatc
--taw
--tc
--tcan
--tci
--tcik
--tcikan
--tcikaniwok
--tcitcikan
--te
--tek
--ten
--terik
--tetc
--tew
--tewa
--tewok
--th
--ti
--tik
--tike
--tikik
--tikok
--tikosiw
--tikoskak
--tikw
--tikwa
--tin
--tion
--tisitc
--tiso
--titc
--tiw
--to
--tonaniwokw
--towok
--ts
--tte
--u
--um
--ur
--urs
--us
--ut
--uw
--ux
--v
--ville
--w
--wa
--wak
--wakamik
--wakaminik
--wakaniwiw
--wakaniwok
--waketc
--wakik
--wakopan
--wakopon
--wam
--wan
--wanionik
--waniwok
--waniwon
--warik
--watc
--watciwok
--waw
--we
--wek
--wew
--wi
--win
--winaniwok
--winaniwon
--winik
--winiw
--wiritci
--wisiw
--witc
--wiw
--wiwok
--wk
--wok
--wokw
--won
--wonik
--worewok
--wow
--x
--xe
--y
--z
