!
"
#
##0
##1
##10
##11
##12
##13
##14
##15
##16
##17
##18
##19
##2
##20
##21
##22
##23
##24
##25
##26
##27
##28
##29
##3
##30
##31
##32
##33
##34
##35
##36
##37
##38
##39
##4
##40
##41
##42
##43
##44
##45
##46
##47
##48
##49
##5
##50
##51
##52
##53
##54
##55
##56
##57
##58
##59
##6
##60
##61
##62
##63
##64
##65
##66
##67
##68
##69
##7
##70
##71
##72
##73
##74
##75
##76
##77
##78
##79
##8
##80
##81
##82
##83
##84
##85
##86
##87
##88
##89
##9
##90
##91
##92
##93
##94
##95
##96
##97
##98
##99
$
%
&
'
(
)
*
+
,
-
.
/
0
00
000
01
02
04
06
08
090
1
10
100
11
112
12
120
13
14
15
150
16
165
17
1758
1767
1773
1776
1782
1784
1789
1790
1796
1797
1799
18
180
1803
1812
1818
1826
1828
1829
1831
1836
1837
1840
1841
1845
1847
1848
1850
1862
1866
1871
1878
1886
1899
19
1900
1901
1904
1911
1916
1918
1920
1921
1925
1926
1927
1930
1931
1934
1935
1936
1937
1938
1939
1940
1942
1943
1944
1945
1946
1947
1948
1949
1950
1951
1952
1953
1954
1955
1956
1957
1958
1959
1960
1961
1962
1963
1964
1965
1966
1967
1968
1969
1970
1971
1972
1973
1974
1975
1977
1978
1979
1980
1981
1982
1983
1984
1985
1986
1987
1988
1989
1990
1991
1992
1993
1994
1995
1996
1997
1998
1999
2
20
200
2000
2001
2002
2003
2004
2005
2006
2007
2008
2009
201
2010
2011
2012
2013
2014
2015
2016
2017
2018
2019
2020
2021
2022
21
210
22
23
24
240
25
250
26
27
270
28
280
29
3
30
300
31
32
320
33
35
356
36
37
38
4
40
41
42
43
44
45
46
47
474
49
5
50
500
54
56
58
59
6
60
600
63
66
67
68
7
70
71
8
80
85
853
89645
9
90
901787
92
978
98
:
;
=
?
_
`
a
abable
abdi
abe
abetifi
abigail
abiodun
abloh
ablotsi
ablɔɖe
ablɔɖegbeɖiɖi
ablɔɖevinyenye
abo
abodakpi
abomey
about
aboyo
abra
abraham
abram
academy
accra
achimota
ad
ada
adam
adamekp
adams
adato
addo
address
ade
adedada
adelia
adeɛmekpɔxe
adido
adjei
ado
adodo
adolf
adre
adrelia
adrɛs
aduadu
adze
adzo
adzra
adzɔ
adzɔgbe
ae
af
afa
afadzato
afghanistan
afi
afia
afii
afima
afimae
afisi
afisia
afisiafi
afisiwo
aflaga
aflao
africa
african
afrika
afrikatɔ
afrikatɔwo
afrique
afɔ
afɔdzi
afɔdzido
afɔfiɛ
afɔku
afɔɖeɖe
again
agba
agbagba
agbale
agbalɛ
agbe
agbeli
agbelia
agbemadon
agbemavɔ
agbemeŋkeke
agbemeŋutinya
agbenɔnɔ
agbenɔƒe
agble
agbledede
agbledela
agbledelawo
agblɔ
agbo
agbugbɔ
agbɔ
agbɔsɔsɔ
agbɔsɔsɔme
ageɖe
aguila
agɔ
agɔkɔli
ahafo
ahe
ahia
airport
aisha
aiyeola
ajayi
akametatia
akan
ake
akello
akla
ako
akowo
akpa
akpaa
akpawo
akpe
akple
akpofure
akpɔ
akrofi
akufo
akɔ
akɔdada
akɔntabubu
akɔɖu
aladese
alafa
alakija
alasa
albania
albidum
ale
alebe
alegbegbe
alesi
alfred
algeria
all
alliance
almeida
almighty
alo
alphabet
alɔ
alɔfa
am
ama
amadede
amadedea
amadedeawo
amadedewo
ame
amea
ameaɖewo
amedokpo
amedome
amedzro
amedɔdɔ
amega
amegbetɔ
amegbetɔwo
ameh
amekukuwo
amen
amenu
america
american
amerika
amerikatɔ
amerikatɔwo
amesi
amesiame
amesiawo
amesiwo
ametiakɔdala
amewo
ameyibɔ
ameɖibɔ
ameɖuɖu
ami
among
amos
ampe
ampea
ampetulawo
amu
amuga
an
ana
anagbe
analysis
and
andorra
andre
andrew
aneke
angeles
anglikan
anguilla
animal
aniunoh
ankara
anna
annona
anthony
antigua
anyango
anye
anyi
anyiehe
anyigba
anyigbaga
anyigbe
anyɔnyɔ
anɔ
apostolo
apostolorum
apple
april
aque
arabgbe
argentina
armenia
army
artemisinin
asa
asante
asanteawo
asantewaa
ascended
ashanti
asi
asia
asieke
asiekelia
asime
asinu
asisi
asitelefon
asitsala
asitsatsa
asitɔtrɔ
asiwo
asixɔxɔ
asiɖeɖe
asra
asrafo
asrafoha
asrafomega
asrafowo
asrɔ
assemble
assembly
assiba
asvivfg
asylum
at
ata
atayi
ate
ateŋu
ati
atia
atiglinyi
atike
atikewo
atikewɔla
atikewɔwɔ
atikutsetse
atikutsetsewo
atitsoga
atiwo
atlantika
atrɔ
atsa
atsi
atsiaƒu
atso
atsu
atsya
atsyɔ
atsɔ
atta
attipoe
attisso
atɔ
august
augustine
australia
austria
ava
ave
avenor
avu
avunɔ
avuwo
avɔ
avɔa
avɔtata
avɔwo
award
awo
awu
awɔ
awɔe
axa
axe
axɔ
ayameʋu
ayi
aza
azi
aziaku
azɔ
aƒe
aƒea
aƒeme
aƒemela
aƒenɔ
aƒetɔ
aƒlao
aƒle
aƒu
aɖaba
aɖaŋu
aɖaŋudeha
aɖaŋudɔwo
aɖaŋuɖoha
aɖaŋuɖola
aɖaŋuɖoɖo
aɖe
aɖee
aɖeke
aɖewo
aɖewoe
aɖi
aɖo
aɖu
aɖuba
aʋa
aʋaa
aʋafia
aʋawɔla
aʋawɔwɔ
aʋawɔwɔa
aʋawɔɣi
b
ba
baba
babiawo
babington
bachelor
bada
badagry
bahamas
bamf
banda
baobab
barbados
barthe
base
basel
bastiani
bastille
batteux
bay
bbc
bc
be
beatles
beijing
bel
belarus
belgium
believe
belize
bena
benetice
benin
benintɔ
benjamin
benɛ
berlin
best
bi
bia
biabia
biblia
big
billion
biography
bird
bisiɔp
bisiɔpga
bisola
bla
black
blaene
blaeve
blaevelia
blatɔ
blema
blengo
bli
blibo
bliboa
blues
blugbe
body
boo
book
border
born
bosna
bosnia
botswana
boŋ
bra
braide
bratislava
brazil
brazzaville
bremen
britain
britaintɔwo
british
brong
brother
bruce
brussels
bu
bubu
bubuawo
bubume
bubutɔ
bubuwo
bucharest
budapest
bui
bulgaria
buna
buren
buried
burkina
buru
by
bydgoszcz
bɔ
bɔbɔ
bɔbɔe
bɔhɔtni
bɔl
bɔlƒoƒo
c
calais
california
canada
cape
car
category
catholic
cazeneuve
ccc
celsius
center
centrale
centre
ceuta
charles
chi
chidiebere
chile
china
chinaweb
chinedu
chinese
chirac
chris
christ
christaller
christian
christine
christmas
chrysophyllum
church
churches
citation
city
claretian
class
clerk
club
cms
co
coast
cobra
code
college
colombia
com
come
commission
common
communion
conceived
concepcio
concordia
congo
congress
convention
coronavirus
costalago
cotonou
cottonwood
council
country
county
covid
credo
croatia
crowther
crucified
cuba
culture
curitiba
cynthia
cyprus
czechia
d
da
daa
dada
dadaa
dadi
dahomey
dakar
damasko
dame
damɛ
dana
daniel
dankwa
dasiamime
data
david
day
dayan
daytona
daɖi
de
dea
dead
december
dede
dedienɔnɔ
dei
dekɔnuwo
del
delta
democratic
demokrasi
denis
denmark
denu
denyigba
der
des
descended
detsi
deutsche
development
deŋgɔwo
deŋugɔ
di
dictionary
didi
didime
didina
didiƒe
die
diedrich
dies
diger
dijitaal
dim
district
distrikt
ditions
divre
dns
dnssec
do
doa
dodo
dodokpɔ
dokita
dokuisinɔnɔ
dom
domain
dome
domenyinu
domenyinyi
domenyiŋuse
dometɔ
dometɔa
dominique
dona
dong
douard
doƒe
drɔ
du
dua
duawo
dublin
dudzikpɔla
dudzikpɔlaga
dudɔnunɔla
duga
duk
dukplɔ
dukplɔla
dukplɔlaga
dukplɔlanyenye
dukplɔlawo
dukplɔse
dukplɔsea
dukɔ
dukɔa
dukɔame
dukɔawo
dukɔmenɔlawo
dukɔmevi
dukɔmeviwo
dukɔwo
dukↄ
dumega
dunya
dunyaheha
dunyahehawo
dunyahehe
dunyahela
during
duta
dutadɔnunɔla
dutanyanyuigblɔla
dutanyanyuigblɔlawo
dutanyawo
dutatsolawo
dutoƒo
dutoƒotiatiawɔɣi
duwo
duƒuƒu
dye
dz
dzadzra
dzadzraɖo
dzama
dzamanya
dze
dzea
dzemeni
dzena
dzesi
dzeside
dzesii
dzesiwo
dzeƒe
dzeɖoɖo
dzi
dzia
dzidudu
dzidzedze
dzidzi
dzidzim
dzidzime
dzidzimeviwo
dzidzɔ
dzidɔ
dziehe
dzieheɣedzeƒe
dzigbe
dzigbewo
dzii
dzikpɔkpɔ
dzikpɔla
dzila
dzilawo
dzinu
dzitrɔ
dziviwo
dzivɔ
dzixɔsewo
dziyiyi
dziƒo
dziɖula
dziɖum
dziɖuɖu
dziɖuɖua
dziɖuɖumega
dziɖuɖuwo
dziɖuɣi
dzo
dzodze
dzodzo
dzome
dzove
dzoxɔxɔ
dzoxɔxɔnamɔ
dzoɖa
dzoɖagbe
dzra
dzraɖoƒe
dzrom
dzudzɔ
dzɔ
dzɔa
dzɔdzɔ
dzɔdzɔenyenye
dzɔdzɔme
dzɔdzɔmeŋutinunya
dɔ
dɔa
dɔdzikpɔla
dɔdzikpɔlaga
dɔe
dɔkɔ
dɔlar
dɔle
dɔlekui
dɔlela
dɔlele
dɔlelea
dɔme
dɔvɔ
dɔwo
dɔwɔha
dɔwɔla
dɔwɔlawo
dɔwɔnawo
dɔwɔwɔ
dɔwɔwɔwo
dɔwɔƒe
dɔwɔƒea
dɔwɔƒewo
dɔwɔɖui
dᴐwᴐna
e
earth
east
easter
ebia
ebɔ
ecran
ecuador
ed
ede
edem
edi
edo
edoa
edze
edzi
edziedzi
edzikpɔla
edzivɔ
efe
ega
egbe
egbea
egbegbe
egblɔ
egbugbɔ
egbɔ
eglise
egɔme
ehati
ehia
eka
ekpe
ekpɔ
eku
el
elabe
elabena
elagib
ele
elebe
elektrikŋuse
elizabeth
elue
elɔ
ema
eme
emegbe
emenɔlawo
emmanuel
emmanueli
en
ena
ene
eneawo
enelia
energy
england
english
enu
enuenu
enugu
enumake
enya
enye
enyi
enyia
enyilia
enɔ
ep
ephraim
eritrea
erskine
es
esi
esia
esiae
esiata
esiawo
esime
esiwo
esrɔ
est
ester
estonia
esu
eswatini
et
eta
eteƒe
etrɔ
etsi
etsɔ
etsɔme
etsɔtsɔ
etɔ
etɔlia
etɔxɛe
eu
euro
europa
europatɔ
europe
eva
eve
eveawo
evee
evelia
everlasting
evɔ
ewe
ewo
ewu
ewɔ
ewɔa
ex
exɔ
eya
eyade
eyae
eyata
eye
eyi
eza
ezra
ezu
eŋglisi
eŋglisiawo
eŋlisi
eŋlisiawo
eŋlisigbe
eŋlisigbeme
eŋu
eƒe
eƒo
eƒoa
eɖanye
eɖe
eɖewo
eɖi
eɖo
eɖoe
eɖokui
eɖokuisi
eɖu
eʋe
eʋeawo
eʋegbe
eʋli
eʋu
f
faa
fabius
fafa
fante
faroe
faso
father
faure
fe
februar
february
federal
federalist
fefe
fefewɔla
fefewɔlawo
fefewɔƒe
femaxee
fi
fia
fiaa
fiadu
fiadzue
fiaga
fiana
fianu
fiawo
fiaɖuƒea
fifia
file
film
finish
finland
first
fish
fiɖagbe
flag
fli
florida
flower
fofo
fofoa
food
for
force
ford
foreign
forgiveness
forster
foto
fototamɔ
fotowo
fotoɖeɖe
fourah
frameless
franc
france
francis
francophone
frankadua
franse
franseawo
fransegbe
fransetɔwo
free
freetown
from
fruit
fu
fufɔfɔ
fɔ
g
ga
gadabursi
gadzraɖoƒe
gadzraɖoƒea
gaganye
gake
gakpɔtɔ
gale
gali
gambia
game
gana
ganvi
ganyawo
gastarbeiter
gaxɔ
gaƒoƒo
gb
gba
gbadzaa
gbale
gbalɛ
gbatɔ
gbe
gbegbe
gbegble
gbegbɔgblɔ
gbegbɔgblɔwo
gbegɔmeɖela
gbemagbe
gbemela
gbesiagbe
gbetatɔwo
gbewo
gbeŋutinunyala
gbeŋutise
gbeƒa
gbeɖe
gbeɖiɖi
gbeɖiɖiwo
gbeɖuɖɔ
gble
gblɔ
gbogbo
gbugbɔ
gbɔ
gbɔdɔdɔ
gbɔe
gbɔgblɔ
gbɔgbɔ
gbɔkpɔha
gbɔkpɔla
gbɔna
gbɔsɔsɔ
ge
gede
gegeɖe
gena
general
geographical
george
georgia
germania
germany
geɖe
geɖewo
ghana
ghanatɔ
ghanatɔwo
ghanavi
ghanaweb
ghost
gidi
gilbert
gini
gion
gje
glen
gli
global
glory
gnassingbe
go
goawo
god
godo
gododo
godoo
gold
gollmer
gome
gomekpɔkpɔ
gomenɔamesi
gomenɔamesiwo
gota
gothenburg
gottlieb
gov
government
grand
great
greece
gregoria
grenada
grunitzky
gt
gtld
guangxi
guatemala
guilin
guinea
gulf
gɔ
gɔme
gɔmedzedze
gɔmedzedzea
gɔmedzesuku
gɔmesese
gɔmeɖeɖe
gɔmeɖoanyi
gɔmeɖoanyila
gɛ
h
ha
haas
habɔbɔ
habɔbɔa
hadome
hadzidzi
hafi
haho
hall
hamburg
hame
hamea
hameawo
hand
harrison
hatsotso
hatsotsowo
hawo
haƒoha
he
hea
heaven
hebri
hebrigbe
hebritɔwo
hehe
hehenaƒe
hehexɔxɔ
helagbe
helatɔwo
helena
hell
helsinki
hena
henri
henry
henyii
hepatitis
herbert
hercegovina
hermann
herzegovina
hetsɔ
hi
hia
hilla
his
history
hitler
hlɔ
ho
hoffman
hoi
holy
home
honduras
hong
hours
house
hoʋiʋli
hoʋiʋlia
hoʋlilawo
http
https
huang
hungary
hunyahunya
i
icann
iceland
id
igbo
ii
iii
ijebu
ikedieze
image
imeko
in
inauguracion
inc
inde
india
ink
inkjet
inks
institut
institute
interlingue
international
internet
into
iom
ipa
iprage
iraq
ire
ireland
is
isak
isbn
islands
islington
israel
it
italia
italy
ivoire
iŋlis
iŋlisiawo
j
ja
jackson
jacques
jamaica
james
january
japan
je
jean
jefferson
jerry
jesus
joe
johann
john
johnson
johnsons
joseph
jpg
jr
judge
july
june
k
ka
kaba
kabakaba
kadodo
kadodowo
kafukafu
kafukafuwo
kahn
kaka
kakaɖedzi
kale
kamerun
kampala
kanaan
kansa
kara
kata
katoliko
katolikotɔwo
ke
kee
keke
kekeake
kele
ken
kentucky
kenya
kesinɔtɔ
kesinɔtɔwo
keta
kibera
kilometa
kinderhook
king
kingdom
kinshasa
klalo
klo
kloe
kluvi
kluvinyenye
kluviwo
km
ko
kodjo
kodua
koe
kofi
koforidua
koklo
komla
kong
kongo
korea
kotipizza
kotoka
koŋ
kp
kpa
kpadzi
kpakple
kpali
kpaliawo
kpalime
kpata
kpe
kpekpe
kpekpeɖeŋu
kpekpeɖeŋunana
kpeɖe
kpeɖeŋutɔ
kpeɖodzi
kpeɖodzinya
kpl
kple
kpli
kplii
kplikpa
kplɔ
kplɔe
kplɔla
kpo
kpovitɔwo
kpui
kpuie
kpuitɔ
kpukpuie
kpɔ
kpɔa
kpɔe
kpɔkplɔ
kpɔkpɔ
kpɔla
kpɔm
kpɔna
kpɔtɔ
kpɔɖeŋu
kpɔɖeŋuwo
kristo
kristotɔ
kristotɔwo
kroa
ku
kufuor
kugbewo
kuku
kumasi
kura
kurdgbe
kutsetse
kuxi
kuxia
kuxiwo
kuɖagbe
kuɖe
kwadjoman
kwame
kwasi
kɔ
kɔklɔ
kɔkoe
kɔku
kɔkɔ
kɔkɔe
kɔkɔea
kɔkɔme
kɔkɔtɔ
kɔledzi
kɔmpiuta
kɔnyskɔvɔla
kɔpi
kɔsiɖa
kɔsiɖaa
kɔsiɖagbe
kɔƒe
kɔƒea
l
la
laa
lae
lagos
lally
lame
lamese
language
languages
latin
latingbe
latvia
lawo
le
lea
left
lelawo
lele
leone
les
level
lezoto
li
lia
liberia
libia
liechtenstein
life
lily
limann
lincoln
linguistic
lionel
lique
lisbon
lissabon
list
lithuania
liwoe
liƒo
liƒowo
ln
lo
lododo
lododowo
lolo
lolome
lome
london
long
loo
lord
los
lot
louis
louisiana
lt
lugo
luka
lɔ
lɔlɔ
lɔƒo
lɛta
m
ma
maathai
macaulay
macedonia
madison
madrid
magazine
magic
magnus
mail
major
makurdi
malaria
malawi
malaysia
mali
malnutrition
malta
mama
mamlea
mamlɛtɔ
mampong
mana
mani
manmomon
mans
manya
manye
manɔ
manɔanyi
manɔmee
map
maplandia
march
maria
marino
mario
maritime
markt
martin
mary
masa
massachusetts
mateo
mateŋu
mauritania
mawo
mawu
mawunya
mawunyadɔgbedela
mawunyadɔgbedelawo
mawunyagblɔla
mawutsideta
mawuwo
mawɔsedzi
may
maŋgo
maɖe
mclaren
me
mea
mebɔ
mede
medi
mediterania
medze
mee
mega
megbe
megbea
mehia
mekpe
mekpɔ
mele
meli
melilla
melɔ
memleɖagbe
mena
menya
menye
menɔ
menɔa
menɔna
mermaz
mes
mese
mesɔ
meta
mete
metsɔ
mewɔa
mexico
mexɔ
mg
mi
mia
michael
mie
miesrɔa
migration
miles
milion
military
miliɔn
million
mills
mina
minh
ministries
minsk
mission
mitsinyedɔ
mitsinyenye
mk
mlɔeba
mo
mobiyina
modzaka
mohamed
moldova
monaco
mone
monroe
montage
monte
moritania
morning
mose
motto
mount
movement
mozambiki
mozzarella
mtv
mu
muricata
museum
my
mɔ
mɔdodo
mɔdzi
mɔfiamewo
mɔkekewo
mɔkpɔm
mɔnu
mɔnuwo
mɔvlo
mɔxenu
mɔzɔ
mɔzɔla
mɔzɔlawo
mɔzɔzɔ
mɔɖeretɔ
mↄzↄla
n
na
naa
nae
naija
nairobi
nakpɔ
nam
name
names
namibia
nana
nane
naneke
nanya
nanɔ
nascar
natchaba
national
nationale
nations
nawo
nawɔ
naxor
naxɔ
ne
needed
negbe
nelson
nembo
nenema
nenye
neo
netherlands
network
neue
new
news
nhat
nicolas
niger
nigeria
nigeriatɔ
nigeriatɔwo
njuguna
nkrumah
no
nollywood
nono
normal
north
norway
notsi
nouhouai
november
novo
nsi
ntem
nu
nuawo
nubabla
nudzodzoewo
nudzɔdzɔ
nueva
nufafiawo
nufiafia
nufiala
nufialaga
nufialawo
nugbegble
nugodo
nugododeƒe
nukpuiwo
nukpɔkpɔ
nukuwo
numekugbale
numekuku
nunya
nunyiame
nunyiamemademade
nunyiamewo
nunɔla
nunɔladɔ
nunɔlaga
nunɔlanyenye
nusi
nusianu
nusiwo
nusrɔ
nusrɔla
nusɔsrɔ
nutala
nutata
nutatawo
nuteƒekpɔkpɔ
nuteƒewɔwɔ
nuto
nutoa
nutoame
nutodziɖula
nutome
nutomea
nutowo
nutowome
nutsitsi
nutsotso
nuvɔ
nuwo
nuwuwu
nuwɔla
nuwɔna
nuwɔwɔ
nuwɔwɔa
nuxexle
nuŋlɔtsi
nuŋlɔɖi
nuŋlɔɖiwo
nuŋɔŋlɔ
nuŋɔŋlɔwo
nuƒoƒo
nuɖuɖu
nuɖuɖuwo
nya
nyaa
nyadzɔdzɔ
nyadzɔdzɔdɔwɔƒe
nyadzɔdzɔwo
nyadzɔdzɔŋlɔla
nyagblɔɖila
nyagbɔgblɔ
nyala
nyametsotso
nyanyui
nyasiawo
nyatakaka
nyatakakadzraɖoƒe
nyatakakatsoƒewo
nyatakakawo
nyateƒe
nyawo
nyayɔyɔ
nyaƒoɖeamenu
nyaɖeɖefia
nyaʋiʋli
nye
nyea
nyee
nyenye
nyi
nyigba
nyim
nyitsɔ
nyiɖu
nyo
nyonyome
nyrɔ
nyui
nyuie
nyuitɔ
nyɔnu
nyɔnuvi
nyɔnuviwo
nyɔnuwo
nyɔnyrɔ
nyɛ
nɔ
nɔa
nɔe
nɔewo
nɔgodzikpletɔmewo
nɔna
nɔnɔ
nɔnɔme
nɔnɔmetata
nɔnɔmetatawo
nɔviaŋutsu
nɔviwo
nɔviŋutsu
nɔƒe
nɛ
o
obadiah
oceania
ochieng
october
ode
odogwu
of
office
officer
official
ohio
ois
ojo
okioh
old
olu
olympio
omoba
on
online
only
or
orchestra
org
organization
orthographic
osaka
oshoffa
oslo
osɔfo
otaten
other
ouidah
our
oxford
oyo
p
page
pakistan
pan
panama
papa
paris
parliament
party
pasta
patrice
paul
paulo
pe
peace
peki
people
pepa
peru
peter
petro
philippines
pierre
piezo
pilate
pilato
pizza
pl
plastik
plaza
po
poland
polandgbe
polska
polyester
pontio
pontius
porsche
port
porto
portugal
pp
ppe
prague
prayer
pre
presbyte
presbyteria
president
press
primrose
printerlake
printers
printing
prix
professor
progressio
project
promotions
protection
protein
proverbs
ps
publique
publishing
puerto
pull
px
pɔlisigbe
pɔtugisgbe
pɛ
pɛpɛpɛ
q
quebec
quincy
r
race
racing
racontas
ramkalawan
rard
rawlings
re
reagan
reference
referensiwo
reformation
reformed
refugee
refugees
regiment
region
registry
rene
report
republic
republican
republicans
republicantɔwo
republik
republika
research
resurrection
retrieved
revolutionary
reykjavi
rich
rico
rienne
riga
right
rio
riona
rispal
ro
road
rolex
roma
roman
romania
romatɔwo
rome
ronald
roosevelt
rose
roubaix
rpt
rshavn
ru
russia
russification
rut
s
sa
sahara
saint
saints
sakramento
samuel
san
santiago
sanusi
sao
satelait
savanes
save
saŋku
saɖaganunɔla
saɖaganunɔlaga
saɖaganuto
saɖaganutoa
saɖaganutome
scca
school
scotland
se
sea
sebring
section
segbalɛ
segbalɛa
seine
sekɛndrisuku
seminary
senegal
senyala
senyawo
september
serbia
series
serug
sese
sesietɔ
seun
sewo
sewɔtakpekpe
sewɔtakpekpea
seychelles
seƒoƒo
seƒoƒowo
sh
shelby
shirt
shuga
si
sia
siaa
siame
siamlɔm
siawo
sierra
sike
silesia
silesiagbe
siligo
sime
singapore
singer
sinima
sinimawo
sinimawɔla
sins
sinɔɖ
siprage
siria
sitsoƒe
sitsoƒedzilawo
siwo
siwoyɔna
slovakia
slovenia
so
soil
somalia
somaliland
son
sophie
sosialist
soursop
south
spain
spanish
spirit
sports
srɔ
st
star
state
states
stephansdom
stephen
stockholm
strauss
students
sub
sublimation
subɔ
subɔla
subɔsubɔ
subɔsubɔha
suda
sudan
sue
suesuesue
suffered
suku
sukua
sukudede
sukutatɔ
sukuviawo
sukuviwo
sukuwo
suriname
susu
susua
susuwo
susɔ
sweden
switzerland
sylvanus
sylvester
symbolum
synod
syria
system
sɔ
sɔgbɔ
sɔhɛwo
sɔlemeha
sɔlemehakplɔla
sɔlemexɔ
sɔlemexɔga
sɔsrɔ
sɔsɔ
sɔŋ
sɛkɛnd
t
ta
taa
tae
tagbo
taiwan
takpekpe
takpekpea
takpekpega
tallinn
talon
tam
tame
tamɔ
tan
tanak
tanyae
tanzania
tarax
tata
tatawo
tatia
tatɔ
taʋlila
te
team
teaŋu
tedoxe
tegbee
television
terax
tete
teti
teŋu
teƒe
teƒenɔla
teƒenɔlawo
teƒewo
teɖe
th
the
theological
theresa
third
this
thomas
thumb
thumbnail
ti
tia
tiae
tiatia
tiatiawɔblɔɖe
tiatiawɔɣi
tiatiawɔɣia
tierno
tikal
tikiti
times
tirana
titina
to
toa
tobago
today
toffa
togbɔ
togbɔbe
togo
togoland
togotɔ
togotɔwo
tokyo
tome
toner
top
tora
toulouse
tourism
tox
toxɔdu
track
trade
transfer
tre
trinidad
trinity
trɔ
trɔna
trɔtrɔ
tsa
tsadidi
tsana
tsaxe
tsaxewo
tsaƒu
tsi
tsia
tsidzadza
tsidzaƒe
tsie
tsimanɔlame
tsitretsiɖeŋulawo
tsitsi
tsitsitɔ
tso
tsoa
tsoe
tsona
tsotso
tsoƒe
tsoƒewo
tsyadi
tsɔ
tsɔa
tsɔna
tsɔtsrɔ
tsɔtsɔ
tu
tua
tugbedzedze
tum
tunisia
turkey
tutu
tututu
tutuɖo
tv
twi
twice
tɔ
tɔa
tɔawo
tɔdziʋu
tɔe
tɔgbe
tɔgbuiyɔvi
tɔmela
tɔsisi
tɔtrɔ
tɔtɔ
tɔwo
tɔwu
tɔxe
tɔxewo
tɔxɛ
tɔxɛwo
tɔɖiayɔvi
u
ubuntu
uganda
uk
ukraine
ula
ump
un
und
under
undernutrition
une
union
united
university
upper
upright
ur
uruguay
us
usd
used
v
va
valley
van
vange
vaseɖe
vatican
vava
vayi
vaɖo
ve
vea
vee
venezuela
verde
verlag
vernon
veve
vevi
vevie
vevietɔ
vevitɔ
vevitɔwo
vi
via
viawo
viaŋutsu
vicente
victoria
video
vidzidzi
vie
vienna
vietnam
vilnius
vincent
vinyɔnu
vinyɔnuvi
virgin
virginia
visa
vivi
vivivi
viwo
viŋutsu
viɖe
vo
volta
volume
von
vovo
vovototo
vovovo
vovovowo
vrahovice
vɔ
vɔlta
vɔvɔ
vɔvɔm
vɛ
w
waakye
wangari
warri
warsaw
warszawa
was
washington
watkins
wavel
weber
website
west
westermann
white
who
whois
wi
wiah
wickiana
wien
wikinews
wikipedia
wikipeɖia
wikipiɖia
william
wimbledon
winnenden
with
wo
woa
woade
woagblɔ
woakpɔ
woana
woanɔ
woata
woatae
woate
woateŋu
woato
woatsɔ
woatu
woawo
woawɔ
woaxɔ
woaza
woaƒo
woaɖe
woaɖo
wobu
wobua
wobui
woda
wode
wodea
wodena
wodo
wodoe
wodometɔ
wodona
wodze
wodzi
wodzii
wodzrana
woe
wofa
woga
wogatiae
wogayɔna
wogblɔ
wogblɔna
wogbugbɔ
wohia
woke
wokpe
wokpɔ
wokpɔna
woku
wole
woma
womagble
womate
wome
womede
women
wometsɔ
womeza
wona
wonya
wonyae
wonye
wonyi
wonyina
wonɔ
wonɔna
woodard
world
wosi
wota
wotaa
wote
woti
wotia
wotiae
wotiam
wotrɔ
wotso
wotsɔ
wotsɔa
wotsɔe
wotsɔna
wotu
wotɔ
wotɔna
wova
wowu
wowɔ
wowɔa
wowɔna
woxɔ
woxɔe
woyɔ
woyɔa
woyɔe
woyɔna
woyɔnae
woza
woŋlɔ
woƒe
woƒo
woɖe
woɖea
woɖee
woɖi
woɖii
woɖo
woɖoa
woɖoe
woɖu
woɖua
woɖuna
woɖunae
wu
wuiatɔ
wuienelia
wuietɔ
wuieve
wuiɖekɛlia
www
wɔ
wɔa
wɔe
wɔla
wɔm
wɔna
wɔnawo
wɔnɛ
wɔwɔ
x
xaran
xatsaxatsa
xe
xewo
xexe
xexea
xexeame
xexeme
xexemeʋa
xexle
xexleme
xianfan
xla
xle
xoxo
xoxoa
xoxoawo
xɔ
xɔa
xɔasi
xɔe
xɔese
xɔlɔ
xɔna
xɔse
xɔsemeʋuʋu
xɔsemeʋuʋua
xɔxɔ
xɔŋkɔ
xɔŋkɔwo
y
ya
yaa
yabo
yae
yakob
yame
yanuar
yawo
yawoɖagbe
ye
yea
yeakpɔ
yeanye
yeawɔ
yeaxɔ
yeazu
yeboah
yehowa
yen
yerusalem
yesaya
yesu
yevu
yevuawo
yevugbewo
yevuwo
yewo
yewoa
yewoawɔ
yewoaxɔ
yewoƒe
yeye
yeyea
yeyee
yeyewo
yeƒe
yi
yia
yikɛ
yim
yina
yiɖe
yoel
yohanes
yohannes
yome
yona
york
yorubatɔwo
yosua
yoto
you
yudatɔ
yudatɔwo
yunivɛsiti
yuropa
yɔ
yɔna
yɔnae
z
za
zambia
zaza
zealand
zentralbibliothek
zhuang
zi
zia
zigeɖe
zikpui
zimbabwe
zimenɔla
zimenɔɣi
zone
zu
zua
zuna
zɔ
zɔa
zɔmɔ
|
}
~
¢
°
²
·
ðasefowo
ðe
ðeka
ðewohi
ðokuisinɔamesi
ðoɖo
ðɔkta
łobez
ŋ
ŋdi
ŋgɔ
ŋgɔdonyawo
ŋgɔnɔla
ŋgɔyiyi
ŋkeke
ŋkekewo
ŋku
ŋkɔ
ŋkɔa
ŋkɔaɔ
ŋkɔe
ŋkɔme
ŋkɔwo
ŋlɔ
ŋlɔa
ŋlɔe
ŋlɔla
ŋlɔlawo
ŋti
ŋu
ŋudɔ
ŋue
ŋugbe
ŋugɔ
ŋukɔ
ŋuse
ŋutase
ŋuti
ŋutifafa
ŋutigbale
ŋutila
ŋutinya
ŋutsu
ŋutsuvi
ŋutsuwo
ŋutɔ
ŋutɔŋutɔ
ŋɔli
ŋɔŋlɔ
ŋɔŋlɔawo
ŋɔŋlɔdzesi
ŋɔŋlɔdzesiwo
ƒ
ƒe
ƒea
ƒeawo
ƒewo
ƒo
ƒoa
ƒoe
ƒome
ƒomea
ƒometɔwo
ƒomevi
ƒoxla
ƒoƒo
ƒoƒuawo
ƒu
ƒua
ƒukpo
ƒuna
ƒuta
ƒuƒlu
ƒuƒoƒo
ɑ
ɔ
ɔfis
ɔktober
ɔldzeria
ɖ
ɖa
ɖaa
ɖagbe
ɖase
ɖasefowo
ɖaseɖigbale
ɖaseɖigbalɛ
ɖaŋununya
ɖaɖa
ɖe
ɖea
ɖee
ɖeka
ɖekae
ɖekawɔwɔ
ɖeke
ɖeko
ɖesiaɖe
ɖevi
ɖevime
ɖevimenɔɣi
ɖeviwo
ɖewo
ɖewohi
ɖeɖe
ɖeɖea
ɖi
ɖikeke
ɖiɖi
ɖo
ɖoa
ɖoe
ɖokui
ɖokuisinɔnɔ
ɖola
ɖoƒe
ɖoƒea
ɖoɖo
ɖoɖoa
ɖoɖowo
ɖoɖowɔwɔ
ɖu
ɖua
ɖukɔ
ɖukɔa
ɖum
ɖuna
ɖuɖu
ɖɔkta
ɖɔwɔƒe
ɛ
ɛtɔ
ɛxe
ɣaɣlawo
ɣe
ɣeaɖewoɣi
ɣedzeƒe
ɣemaɣi
ɣesiaɣi
ɣetoɖoƒe
ɣetoɖoƒeƒuta
ɣeyiyi
ɣeyiɣi
ɣeyiɣia
ɣeyiɣiwo
ɣeɖula
ɣleti
ɣletia
ɣletigale
ɣletigba
ɣletigbale
ɣletiwo
ʋa
ʋe
ʋea
ʋegbe
ʋeʋe
ʋli
ʋlia
ʋliʋli
ʋu
ʋunyaʋunya
ʋuʋu
ʋuʋum
ʋɔnu
ʋɔnudrɔ
ʋɔnudɔdrɔ
ʋɔtru
ʋɛ
ˈ
ˌ
ː
˜
̀
́
̂
̃
̄
̆
̇
̈
̉
̊
̌
̔
̛
̣
̧
̨
͂
͡
α
αγι
αν
εις
εκ
η
ι
και
μενον
ν
ντα
ου
ουρανου
πιστευ
ρα
ς
τ
τη
ω
ֲ
ַ
ֹ
ב
דברי
י
יהושע
ך
ע
ק
س
ه
و
َ
ُ
​
–
—
‘
’
“
”
…
″
↔
↷
③
④
⑦
☉
☾
⺀
⺄
⺆
⺈
⺊
⺌
⺕
⺝
⺸
⺼
⿰
⿱
⿲
⿳
⿴
⿵
⿶
⿷
⿸
⿹
⿺
⿻
〢
コ
ユ
㇁
㇂
㇄
㇇
㇈
㇉
㇓
㐁
㐄
㐅
㐌
㐫
㐬
㐭
㐮
㐱
㑒
㒵
㒸
㒼
㓁
㓞
㔾
㕛
㕣
㖾
㘝
㚅
㚇
㚔
㚘
㝉
㝡
㝴
㝵
㞋
㞢
㞷
㠩
㠭
㠯
㡀
㡭
㡿
㢲
㢴
㣇
㣺
㥯
㪅
㫄
㫐
㫒
㫺
㬅
㬎
㬥
㬰
㲋
㳄
㷠
㸒
㸚
㸦
㼌
㼲
㽞
㿟
䀠
䂞
䍃
䏍
䒑
䖍
䖒
䖝
䖵
䙴
䚻
䜌
䝿
䡛
䧹
䪞
一
丁
丂
七
丄
丅
丆
万
丈
三
上
下
丌
不
与
丏
丐
丑
专
且
丕
世
丘
丙
业
东
丞
丢
丣
两
严
並
丨
丩
个
丫
丬
中
丮
丰
丱
串
丵
丶
丷
丸
丹
为
主
丽
丿
乀
乂
乃
久
乆
乇
么
义
之
乌
乍
乎
乏
乐
乑
乔
乖
乗
乘
乙
乚
乛
乜
九
乞
也
习
乡
乳
乾
亀
亅
了
亇
予
争
事
二
亍
于
亏
亐
云
互
亓
五
井
亘
亚
亜
亞
亟
亠
亡
亢
交
亥
亦
产
亨
亩
享
京
亭
亮
亯
亰
亲
亳
亶
亷
人
亻
亼
亾
仁
今
介
仌
从
仐
仑
仒
仓
仕
他
付
仝
代
令
以
任
企
伊
伏
伐
休
会
伯
但
位
何
佘
余
作
佥
使
來
侈
侌
侖
侯
侵
便
保
俞
信
修
倉
倍
候
倠
備
僉
僕
儿
兀
允
兂
元
兄
充
兆
兇
先
光
兊
克
兌
免
兑
兒
兓
兔
党
兜
兟
入
全
兩
兪
八
公
六
兮
兰
共
关
兵
其
具
典
兹
兼
冀
冂
冃
冄
内
冈
冉
冊
冋
册
再
冎
冏
冐
冒
冓
冖
冗
冘
军
农
冝
冡
冥
冫
冬
冷
几
凡
凢
凵
凶
凷
凸
凹
出
函
凾
刀
刁
刂
刃
刄
刅
分
切
刍
刑
刕
刖
列
刘
则
初
別
利
别
到
制
刺
則
削
剌
前
剡
剽
劉
力
功
加
劦
助
劫
劳
劵
勃
勇
勉
勒
動
務
勞
勤
勹
勺
勻
勾
勿
匀
匂
包
匆
匈
匊
匋
匍
匕
化
北
匚
匝
匡
匪
匱
匸
匹
区
医
匽
匿
區
十
卂
千
卄
卅
卆
升
午
卉
半
卌
华
卑
卒
卓
单
卖
南
卜
卝
卞
占
卡
卢
卣
卤
卦
卩
卪
卬
卯
印
危
即
却
卵
卷
卸
卻
厂
厃
厄
历
厈
厉
厌
厓
厘
厚
原
厤
厥
厨
厭
厲
厶
厷
厸
去
厼
厽
叀
参
參
叅
又
叉
及
友
双
反
叐
发
叒
叔
叕
取
受
叚
叜
叟
口
古
句
另
叩
只
召
可
台
叱
史
右
叵
号
司
叹
吂
各
吅
合
吉
吊
吋
同
名
后
吏
向
吕
君
吝
吞
否
含
启
吳
吴
吹
吾
呂
呆
呈
告
员
呙
周
命
咅
和
咎
咠
咢
咨
咸
咼
哀
品
哉
員
哥
哲
唐
商
啇
問
啚
啬
啻
善
喜
喬
單
喿
嗇
噩
嚴
囊
囗
囘
囙
囚
四
回
囟
因
囧
囬
困
囱
囷
固
国
圂
圅
國
圍
圓
土
圡
圣
圥
在
圭
地
圶
圼
坐
坒
坚
坴
垂
垔
垚
埀
埋
埶
執
基
堂
堅
堆
堇
堯
塞
墨
壘
士
壬
壯
声
壳
壴
壹
壺
壽
夂
处
夅
夆
备
夊
夋
夌
复
夏
夒
夕
外
夗
夘
多
夜
夢
大
夨
天
太
夫
夬
夭
央
失
夲
头
夷
夸
夹
夻
夾
奂
奄
奇
奈
奉
奎
奏
奐
契
奓
奔
奚
奞
奠
奢
奥
奭
女
奴
奻
好
如
妄
妙
妟
妥
妻
妾
姑
委
姜
威
娄
婁
婴
嬰
嬴
子
孑
孔
孕
孖
字
存
孚
孛
孝
孟
季
孤
学
孫
孱
學
宀
宁
宂
它
宅
宇
守
安
宋
完
宏
宓
宗
官
定
宛
宜
宝
客
宣
室
宮
宰
害
家
容
宾
宿
寄
寅
密
富
寒
察
寧
審
寫
寬
寮
寸
对
寺
寻
寽
対
寿
封
尃
射
将
將
專
尉
尊
尋
尌
對
小
少
尒
尓
尔
尖
尗
尚
尞
尢
尣
尤
尧
尨
尭
就
尸
尹
尺
尻
尼
尽
尾
尿
局
居
屈
屋
屎
屏
屑
展
屖
屚
属
屠
屡
屬
屮
屯
屰
山
屵
屾
岁
岂
岑
岡
岩
岳
岸
峯
島
崇
崑
崔
崖
崙
崩
嵬
嶲
巂
巛
川
州
巟
巠
巢
巤
工
左
巧
巨
巩
巫
差
己
已
巳
巴
巷
巸
巽
巾
巿
帀
市
布
希
帚
帛
帝
带
師
席
帶
常
干
平
年
幵
并
幷
幸
幺
幻
幼
幽
幾
广
広
庄
床
底
店
庚
府
度
庫
庭
庶
康
庸
廉
廌
廛
廣
廩
廴
延
廷
建
廾
廿
开
弁
弃
弄
弇
弋
式
弓
弔
引
弗
弘
弜
弟
弥
弦
弱
張
強
强
彊
彌
彎
彐
彑
当
彔
录
彖
彗
彡
形
彥
彦
彧
彭
彳
役
彼
往
待
律
徒
得
徙
從
復
微
徵
心
忄
必
忌
忍
志
忝
忠
忩
快
念
忽
忿
思
怠
急
怱
恆
恒
恩
恭
息
悉
患
悤
悲
悶
惠
惡
惢
愁
愈
意
愛
感
慈
慧
慮
憂
憲
應
戀
戈
戉
戊
戋
戌
戍
戎
成
我
戒
戔
或
戚
戠
戢
截
戲
戶
户
戹
戼
戾
房
所
扁
扇
手
扌
才
打
托
执
承
折
拉
拜
拿
掌
推
提
摩
支
攴
攵
收
攸
改
放
政
敄
敏
敕
敖
敗
敝
敞
敢
散
敦
敫
敬
数
敷
數
斂
文
斉
斊
斗
斤
斥
斩
斬
斯
新
方
於
施
斿
旁
旋
族
无
旡
既
旣
日
旦
旧
旨
早
旬
旱
旲
时
旾
昆
昇
昌
昍
明
昏
易
昔
昗
昜
星
春
昬
是
昱
昴
昷
時
晃
晋
晏
普
景
晶
智
暑
暴
曇
曩
曰
曲
曳
更
曷
書
曹
曼
曾
替
最
朁
會
月
有
朋
服
朔
朕
朗
望
朝
木
朩
未
末
本
札
朮
术
朱
朵
朶
朿
杀
杏
杜
束
条
来
東
杲
杳
松
析
林
枚
果
枝
枲
枼
某
柔
查
柬
柰
柴
栗
桀
桑
桼
梁
條
梟
梨
棘
棠
棥
森
楚
業
楽
榮
樂
樊
欠
次
欣
欮
欲
欶
欽
款
歆
歇
歛
止
正
此
步
武
歨
歪
歮
歯
歰
歲
歴
歷
歸
歹
歺
死
殳
段
殷
殸
殹
殺
殻
殿
毋
毌
母
每
毒
比
毕
毚
毛
毳
氏
氐
民
气
氣
水
氵
氶
氷
永
氺
氾
求
汝
汞
江
沃
沓
沙
沝
泉
法
波
泣
泥
泰
洛
洪
活
派
流
浦
浪
浮
淡
淮
清
渚
渠
湯
滿
漸
火
灬
灭
灰
灵
灷
炅
炎
炏
炗
炙
炭
為
烈
烏
烝
焉
無
焦
焱
然
煞
熊
熏
燕
營
燮
爪
爫
爭
爯
爰
爱
爲
爵
父
爻
爽
爾
爿
片
牙
牚
牛
牜
牟
牢
牧
牪
牽
犀
犬
犭
犮
狂
狄
狊
独
狺
猋
猒
猪
献
獻
玄
率
玉
王
玟
玨
珎
班
琴
瑟
瑩
瓜
瓦
甘
甚
生
産
用
甫
甬
田
由
甲
申
电
甶
男
甸
甹
画
甾
畀
界
畏
畐
留
畜
畟
畢
畧
畨
番
畫
異
畱
當
畺
畾
疊
疋
疌
疑
疒
疾
癶
癸
癹
登
發
白
百
皀
皃
的
皆
皇
皋
皐
皕
皮
皷
皿
盃
盆
盇
盈
益
盍
盎
监
盒
盖
盛
盡
監
盤
盧
目
直
相
盾
省
眇
眉
看
眔
眞
真
眷
眼
眾
着
睘
睪
睿
瞏
瞢
瞿
矍
矛
矞
矢
矣
知
矦
短
石
破
碎
磊
磨
示
礻
礼
祟
票
祭
禀
禁
禸
禹
禺
离
禽
禾
禿
秀
秃
秉
秋
科
秝
秦
移
稟
穀
穌
穴
究
穹
空
穿
突
窄
窒
立
竒
竜
竝
竟
章
童
竹
笑
笠
筆
等
答
箕
算
箴
節
篤
篭
米
粉
粛
粟
粤
粦
粲
糞
糸
糹
系
約
納
素
索
紫
累
細
絜
絫
絲
維
綿
縣
繇
纍
纟
缶
网
罒
罔
罕
罗
罙
罡
罢
罪
署
罷
羅
羊
羌
羍
美
羔
羕
羗
羞
羡
羣
群
義
羲
羸
羽
翁
翏
習
翕
翟
翠
翼
老
耂
考
者
耆
而
耎
耑
耒
耳
耴
耶
耷
聂
聊
聖
聚
聶
聿
肀
肃
肅
肉
肖
肙
肥
肩
肯
育
肴
胃
背
胡
胥
能
脊
脩
膚
臣
臤
臧
自
臬
臭
臯
臱
至
致
臺
臼
臽
臾
臿
舀
舂
舄
與
興
舉
舌
舍
舛
舜
舞
舟
般
艮
良
色
艸
艹
艾
芒
芔
芬
芮
花
芳
芺
芻
苔
苗
苟
若
苦
英
茶
茸
荅
草
荒
荣
荼
莆
莧
莫
莽
菆
菊
菐
華
萬
落
葉
著
葛
董
葵
蒙
蒦
蒼
蓋
蓬
蓺
蔑
蔡
蕉
蕭
薄
薛
薦
薰
藍
藏
藥
蘭
虍
虎
虐
虒
虔
處
虖
虗
虘
虚
虛
虜
虞
虫
虽
蚤
蚩
蜀
蜜
蟲
蠡
血
行
衍
衛
衣
衤
表
衮
衰
袁
袞
褭
褱
襄
襾
西
覀
要
覃
見
規
覓
覧
親
覽
见
角
解
言
訁
訇
計
詹
誩
諸
讠
谷
豆
豈
豊
豐
豕
豖
豙
象
豦
豩
豪
豸
貇
貝
貞
貟
負
貢
貧
貪
貫
責
貳
貴
買
費
賁
資
賈
賏
賓
賔
賛
賞
賢
賣
質
賴
贊
贝
贡
责
贯
贲
贵
赖
赞
赤
赦
走
越
足
路
蹇
身
躬
車
軍
軎
軟
輦
车
辛
辜
辟
辥
辰
辱
農
辵
辶
边
达
过
近
连
迷
追
退
送
逆
逐
通
速
造
逢
連
逮
進
遀
遂
過
道
達
遣
適
遷
遺
邊
邑
邕
那
邦
邪
郎
部
郭
都
鄉
酉
酋
配
酓
釆
采
里
重
野
量
金
釒
錢
钅
長
镸
长
門
閃
閉
開
閏
閑
閒
間
閔
閵
閻
闌
门
间
闷
阑
阜
阝
阿
降
陳
隆
隊
隋
隡
隨
隱
隶
隹
隺
隻
隼
隽
难
雀
雁
集
雈
雋
雍
雐
雔
雙
雚
雜
雝
離
難
雨
雩
雪
雲
零
雷
需
霍
霜
霝
霞
霸
靈
靑
青
非
靡
面
靣
革
韋
韦
韭
韯
韱
音
頁
頃
項
須
頗
頡
頻
顛
页
風
风
飛
飞
食
飠
養
饣
首
香
馬
馮
駦
马
骨
高
髟
鬥
鬯
鬲
鬼
魚
魯
鮮
鱼
鲁
鳥
鳳
鸟
鹵
鹿
麃
麗
麥
麦
麻
黃
黄
黍
黎
黑
黒
黨
黹
黽
黾
鼎
鼓
鼠
鼻
齊
齋
齐
齒
齿
龍
龙
龜
龟
龠
龰
龱
龴
龵
龶
龷
龸
龹
者
艹
﻿
（
）
，
？
🜨
𠀁
𠀃
𠀆
𠀉
𠀎
𠀐
𠁁
𠁣
𠂆
𠂇
𠂈
𠂉
𠂊
𠂋
𠂎
𠂒
𠂔
𠂛
𠂡
𠂢
𠂤
𠂬
𠂭
𠂹
𠃊
𠃋
𠃌
𠃍
𠃎
𠃑
𠃓
𠃔
𠃜
𠄌
𠄎
𠄠
𠄢
𠆢
𠆥
𠇍
𠈌
𠌵
𠓜
𠔉
𠔥
𠔼
𠔽
𠔿
𠕀
𠕁
𠕋
𠘧
𠘨
𠙻
𠙼
𠚏
𠚒
𠚤
𠚪
𠣏
𠤎
𠤕
𠥓
𠦄
𠦑
𠦝
𠧒
𠧗
𠧪
𠩺
𠪚
𠫓
𠫔
𠫤
𠬛
𠬝
𠬞
𠬢
𠬤
𠬶
𠮛
𠮦
𠮷
𠯑
𠱠
𠳮
𠷎
𡈼
𡉀
𡉵
𡌥
𡍮
𡏳
𡕒
𡕩
𡕰
𡖅
𡗗
𡗜
𡘆
𡘤
𡧱
𡨄
𡩧
𡬠
𡭽
𡰣
𡰥
𡰪
𡰯
𡰱
𡷈
𡸁
𡿨
𡿩
𡿪
𡿺
𢀖
𢀛
𢀩
𢁙
𢆉
𢆰
𢆶
𢇁
𢇇
𢉖
𢌬
𢌿
𢏚
𢑑
𢑚
𢖻
𢙣
𢛳
𢦏
𢦒
𢧵
𢼄
𢾕
𣁋
𣄼
𣅀
𣅽
𣍘
𣎳
𣎵
𣏋
𣏼
𣗥
𣥂
𣥖
𣦵
𣦼
𣧄
𣪊
𣪠
𣬉
𣳾
𣶒
𤇾
𤊽
𤐫
𤓰
𤔔
𤕨
𤣩
𤰇
𤰔
𤰞
𤴓
𤴔
𤽄
𥁑
𥁕
𥃦
𥃩
𥃭
𥇡
𥑟
𥘅
𥘈
𥝢
𥫗
𥱡
𦈢
𦉪
𦉬
𦉼
𦍌
𦍒
𦎧
𦐇
𦓔
𦔮
𦘒
𦙃
𦚏
𦣝
𦣞
𦣻
𦥑
𦥔
𦥯
𦨉
𦭝
𦰩
𧆞
𧈧
𧘇
𧰨
𧴪
𧴮
𧵩
𧾷
𨸏
𨾴
𩙿
𩠐
𩫏
𩵋
𪉷
𪜀
𪟽
𪠲
𪩲
𫇦
𫔭
𫜸
𫝀
𫠣
𫠩
𫢉
𫥞
𫩏
𫩠
𫪡
𫲽
𫶧
𬀷
𬐘
𬗌
𬙙
𬛸
𬜯
𬟩
𬯁
𬴘
𬺻
𬼉
𬼖
𭀰
𭁈
𭁨
𭅰
𭑈
𭕄
𭗼
𭤨
𭥫
𭻾
𮅕
𮊿
𮍌
𮍏
𮓗
𮥼
𮧮
廾
𰀁
𰀄
𰀈
𰀉
𰀕
𰀠
𰀡
𰀢
𰀪
𰁜
𰃮
𰆊
𰆘
𰋙
𰕎
𰢴
𰧭
𰯲
0--
10--
15--
17--
18--
19--
3--
4--
5--
6--
7--
8--
9--
a--
abi--
abɔ--
ac--
ad--
ade--
adi--
adzɔ--
ag--
aga--
aha--
aja--
ak--
aka--
aku--
akua--
al--
ala--
alex--
alf--
am--
ama--
ame--
ameta--
ametia--
an--
anci--
ang--
ar--
arch--
aru--
as--
ascen--
asi--
asitsa--
at--
ata--
au--
avu--
aƒɔ--
b--
ba--
bar--
bas--
bat--
be--
ber--
bi--
biograp--
bla--
bo--
bon--
br--
bre--
bu--
bur--
c--
cae--
can--
cast--
cc--
ce--
chi--
cin--
clau--
co--
com--
con--
conc--
coo--
cr--
cre--
d--
da--
dan--
de--
dec--
desi--
di--
do--
dome--
domenyi--
du--
dukɔ--
dume--
duta--
dutanyigba--
dz--
dze--
dzi--
dziehe--
dzo--
dzɔ--
dɔ--
e--
ea--
eco--
ed--
edzi--
ega--
egbe--
ek--
el--
eli--
eme--
en--
enc--
es--
et--
ex--
eʋe--
f--
fa--
fe--
fefe--
fi--
fia--
fo--
fr--
fu--
fɔ--
g--
ga--
gar--
gaŋuti--
gbe--
gbɔ--
ge--
gen--
ger--
gi--
go--
gre--
gu--
h--
ha--
hakpa--
han--
har--
he--
hi--
histo--
ho--
hol--
hu--
hɔ--
i--
im--
in--
infec--
intro--
is--
it--
j--
ja--
je--
jo--
ju--
k--
ka--
kamede--
kar--
ke--
kha--
khar--
ki--
ko--
kpa--
kpe--
kpɔ--
ku--
kw--
kɔ--
l--
la--
lab--
lak--
lan--
le--
li--
lin--
lo--
lolo--
lu--
m--
ma--
madeame--
madze--
madzɔma--
mal--
man--
manɔ--
mar--
masɔ--
mawu--
me--
megbe--
mem--
men--
mi--
mia--
mic--
mie--
min--
mit--
mo--
mon--
mor--
mos--
mu--
mɔ--
mɔnu--
n--
na--
ne--
ni--
no--
nor--
nu--
nukokoe--
nuku--
nume--
numie--
nuteƒe--
nutome--
nuƒ--
nya--
nyi--
nyɔnu--
nɔ--
o--
obe--
on--
oper--
or--
osas--
p--
pa--
par--
pash--
pat--
pe--
pen--
pente--
per--
phi--
pho--
pi--
pl--
po--
poly--
pon--
pop--
pr--
pro--
produc--
psal--
public--
q--
qu--
quin--
r--
ra--
ram--
ran--
re--
resi--
ri--
ro--
ru--
s--
sa--
sanc--
sar--
sc--
se--
sedzi--
sen--
sep--
ser--
sh--
sha--
si--
so--
solu--
sp--
spe--
st--
sta--
stu--
su--
suk--
suku--
sur--
sɔ--
t--
ta--
taɖo--
te--
ter--
terr--
th--
ti--
tic--
to--
tome--
tour--
tro--
tsa--
tsi--
tsita--
tso--
tu--
tun--
tɔ--
u--
ug--
un--
va--
ve--
ven--
ver--
vi--
via--
vo--
vu--
vɔ--
w--
wa--
wi--
wil--
win--
wo--
woa--
wome--
wui--
wɔ--
x--
xa--
xe--
xɔ--
y--
ya--
yameʋu--
yao--
ye--
yea--
yemaga--
yi--
yoru--
yu--
yɔ--
z--
za--
ze--
zi--
zieg--
zɔ--
ðe--
ðoɖo--
ŋ--
ŋku--
ŋkugba--
ŋkɔ--
ŋu--
ŋɔ--
ƒ--
ƒe--
ƒo--
ƒu--
ɖa--
ɖe--
ɖeka--
ɖi--
ɖo--
ɖu--
ɖukɔ--
ɖɔ--
ɛ--
ɣ--
ɣe--
ʋi--
ʋu--
α--
ζω--
ν--
π--
πα--
τ--
χρισ--
--0
--1
--2
--3
--4
--5
--51
--6
--61
--7
--72
--76
--8
--87
--88
--9
--91
--95
--a
--ace
--ad
--al
--am
--an
--ance
--ant
--ard
--aro
--as
--au
--aux
--awo
--b
--be
--bu
--c
--cal
--ce
--ch
--che
--cial
--cies
--ck
--ct
--ction
--d
--da
--de
--dedɔ
--di
--dia
--do
--dodo
--ds
--dzeƒe
--dzi
--dzro
--dɔ
--dɔa
--dɔwo
--e
--ea
--ed
--ef
--el
--eld
--elle
--em
--en
--er
--ern
--es
--f
--fa
--fe
--fia
--fo
--fu
--g
--ga
--gbale
--gbe
--ge
--gen
--ger
--gi
--go
--gs
--h
--ha
--he
--hi
--ho
--ht
--i
--ia
--ian
--ic
--ice
--ie
--il
--im
--in
--ine
--ing
--ion
--ip
--ir
--is
--it
--iwo
--k
--ka
--ke
--kirche
--ko
--koko
--kpɔ
--kra
--ku
--kui
--kɛ
--l
--la
--lawo
--ld
--le
--let
--li
--lity
--ll
--lle
--lly
--ls
--lu
--ly
--lɔ
--m
--ma
--me
--ment
--mevi
--mi
--ms
--mɔ
--n
--na
--nal
--nce
--nd
--ne
--nes
--ng
--ngs
--nh
--ni
--nia
--nio
--nk
--nn
--no
--ns
--nt
--nu
--ny
--nya
--nyawo
--nyenye
--nyi
--nɔ
--nɛ
--o
--on
--ons
--or
--os
--ot
--ou
--ous
--p
--pe
--pi
--ps
--que
--ques
--r
--ra
--rald
--ram
--rc
--rd
--re
--rg
--ri
--ria
--rial
--ric
--rk
--rn
--ro
--rry
--rs
--rt
--rty
--ru
--rum
--rus
--ry
--s
--sa
--se
--si
--sing
--sm
--srafowo
--srɔ
--ss
--st
--su
--sui
--suku
--sɔ
--sɔwo
--sɛ
--t
--ta
--te
--ted
--ter
--th
--ti
--tic
--tion
--tiwo
--to
--tral
--tri
--tries
--ts
--tse
--tsi
--tsu
--tt
--tu
--tɔ
--tɔwo
--u
--ua
--ue
--ugh
--um
--up
--us
--ut
--uwa
--v
--va
--ve
--vi
--vɔ
--w
--wa
--ward
--way
--wers
--wo
--wu
--wɔ
--wɔla
--wɔwɔ
--wɔƒe
--wɔƒea
--x
--xi
--xɔ
--y
--ya
--ye
--yi
--z
--za
--ze
--zer
--zi
--ziaku
--zu
--zɛ
--ŋlɔla
--ŋu
--ŋutinunya
--ƒe
--ƒoha
--ɔ
--ɖa
--ɖe
--ɖedzi
--ɖeɖe
--ɖi
--ɖo
--ɖuƒe
--ɖɔ
--ɛ
--ɣi
--ʋu
--α
--ελθο
--ι
--ν
--ο
--ον
--ς
--אל
--ה
--כה
--ם
--ↄ
