!
"
#
##0
##1
##10
##11
##12
##13
##14
##15
##16
##17
##18
##19
##2
##20
##21
##22
##23
##24
##25
##26
##27
##28
##29
##3
##30
##31
##32
##33
##34
##35
##36
##37
##38
##39
##4
##40
##41
##42
##43
##44
##45
##46
##47
##48
##49
##5
##50
##51
##52
##53
##54
##55
##56
##57
##58
##59
##6
##60
##61
##62
##63
##64
##65
##66
##67
##68
##69
##7
##70
##71
##72
##73
##74
##75
##76
##77
##78
##79
##8
##80
##81
##82
##83
##84
##85
##86
##87
##88
##89
##9
##90
##91
##92
##93
##94
##95
##96
##97
##98
##99
$
%
&
'
(
)
*
+
,
-
.
/
0
00
000
01
02
04
06
07
08
1
10
100
1000
11
1139189
12
120
1289000
13
14
15
150
1500
16
160
1610471
17
1710
1732707
18
1800
1831
1861
1864
1880
1898
19
190
1914
1922
1935
1936
1939
1944
1945
1946
1948
1949
1951
1957
1958
1959
1960
1961
1962
1964
1965
1967
1968
197
1970
1974
1975
1976
1978
1980
1981
1982
1986
1987
1988
1989
1990
1991
1992
1993
1994
1995
1996
1997
1998
1999
2
20
200
2000
2001
2002
2003
2004
2005
2006
2007
2008
2009
2010
2011
2012
2013
2014
2015
2016
2017
2018
2019
2020
2021
2022
21
22
23
230
24
240
25
250
26
27
270
28
29
290
3
30
300
31
33
34
35
380
4
40
400
41
422000
428
44
45
47
48
48000
5
50
51
54
574
6
60
63400
65
6500
66
7
70
8
80
800
8168
84
9
90
911741
978
:
;
<
=
>
?
@
^
_
a
abada
abbaretz
abe
ablo
ablon
ablona
ablonas
ablono
abre
absent
acacia
academia
accepte
accueil
achille
achterburgwal
activist
ad
adamade
adamaden
additionnelle
adɔla
af
afel
affecte
affichage
affiche
afficher
afganistan
afin
afiriki
afirikidisidi
africa
africaine
afrika
afrique
agit
aguila
ai
aidara
aide
aigrefeuille
ainsi
aires
ais
aise
aisland
ajouter
ak
aka
akra
al
ala
albert
albida
albɔmu
ale
alfa
alge
ali
alibi
align
alignement
alimaɲi
alinayasɔrɔ
alizeri
aljeri
allemand
alonso
alpha
als
alt
alternativement
aly
amadou
amadu
ambox
america
americain
amerika
ameriki
amerikika
amphibius
amsterdam
an
ana
ancenis
ancien
and
ane
angeles
angilɛkan
angola
anh
ani
ankara
ant
anthropologie
antibes
antony
anw
apparai
apparaisse
appel
applique
appliquer
april
ar
arabu
arabukan
aradiyo
arcachon
archive
area
argentina
argument
art
article
articles
arts
as
ascq
asia
askia
asnie
association
asturiana
at
atlantik
attention
au
aucun
august
aussi
auto
autocollapse
automatiquement
autre
autres
auverne
aux
avant
avec
avertissement
avertissements
avessac
avray
aw
awards
awirilikalo
ayidara
ayiti
az
azawad
b
ba
baa
baabu
baalo
baara
baaradaw
baarakɛ
baarakɛlaw
baarakɛwari
baaraw
baba
babban
babenba
babolo
background
bada
badayanfa
baga
bagan
bagangena
bagani
baganw
bagneux
bahamasi
bailleul
bajalan
baji
bakan
bakelenda
bakrunba
bala
balani
bali
balikukalan
balises
balo
baltik
bama
bamako
bamakɔ
bamana
bamanaan
bamanan
bamanankan
bamanantle
bamananw
bambara
bameteri
bametri
bamokɔ
bamuso
bamɛtri
bamɛtrɛ
ban
bana
banabatɔ
banabatɔw
banakisɛ
banaw
bandeau
bandeaux
bandiagara
banga
bange
bangelen
bangera
bangladesh
banja
banna
banque
bar
bara
barak
barakɛyɔrɔ
bari
barika
baro
barre
barsa
bas
basi
basse
bastien
bataille
bauche
baud
baule
bava
baw
bawo
baya
bayɛlɛ
be
beach
bee
beijing
belebele
belizi
ben
bena
benin
benkan
benkanw
benutzer
benɛn
ber
berber
berberuw
berlin
berliner
bernerie
bew
bg
bi
biak
bible
biden
biduuru
bien
bignon
bii
bila
bilali
bilen
billancourt
bin
binaani
binani
binh
bini
binna
binni
biot
bisau
bisigi
bisigili
biwɔrɔ
bl
bla
blalen
blanche
blara
blasugula
blen
bleu
blica
bloc
blocs
blois
blonba
bluz
bm
bn
bo
bobo
boh
boi
bois
boiseau
bokum
boli
bolivia
bolloma
bolo
boloci
boloda
bolofara
bolofaran
bolokoli
bolola
boloma
bon
bonba
bonheur
bonya
bora
bordeaux
borne
bosna
bosnia
both
botswana
bottom
bouaye
boubacar
bouguenais
boulogne
bourg
bourges
bout
boya
boɲa
boɳa
br
brains
brazaville
brazil
bref
bretagne
brevin
britania
bsk
bu
buenos
buga
bugu
bugula
bulgaria
bulon
burkina
buru
burukina
burundi
bush
but
buteli
bɔ
bɔkolo
bɔlen
bɔli
bɔn
bɔnna
bɔra
bɛ
bɛgan
bɛjɛfanga
bɛliziki
bɛn
bɛna
bɛse
bɛsɛ
bɛw
bɛɛ
c
ca
caa
caama
cable
cad
cadre
caf
cakɛda
cama
caman
cannes
capital
car
caracte
carin
carquefou
carrɛ
cas
caselle
casson
cate
category
categorytoc
catus
caution
caya
cayara
ccccff
ce
ceci
cefarin
cela
cellier
cellule
cellules
cema
cent
center
centre
cercle
ces
cessaire
cette
cewa
cfa
cha
chale
chaource
chapelle
chaque
chargement
charles
charlotte
chartres
chauve
chaville
che
chef
cheix
chi
chicago
chiisme
chiites
chile
china
chinese
chinois
chir
choisir
chou
chu
ci
cia
cial
ciden
cifie
cikin
cili
cinq
cira
cision
cisse
citakan
citation
citations
cite
city
clamart
cle
clear
clichy
cloud
cmdt
co
coast
cobar
coco
code
cogo
cogomin
cogoya
cole
collapsed
colombes
colombia
colorer
colors
com
comme
commentaire
commons
commonscat
commonskat
commonwealth
commune
complexe
comporte
conc
concelles
concepcio
congo
connaissance
conomique
contenant
contenu
contient
contradictions
contro
coord
coquette
corps
correctement
correspondant
corrige
corsept
cory
costalago
cote
coton
coue
couffe
couleur
couleurs
coulibaly
coup
courant
courbevoie
cours
court
coutras
crase
cre
criture
cs
css
cultural
curitiba
cy
cɔti
cɛ
cɛba
cɛkɔrɔba
cɛla
cɛma
cɛmancɛ
cɛw
d
da
daa
daaga
daan
dabila
dabo
dabɔ
dabɔra
dafalen
dafri
dafɛ
daga
dagayɔrɔ
dakan
dakar
dakun
dala
dalen
dalilu
dama
damadɔ
damanata
dambe
dambɛ
damine
daminɛ
dan
danbe
danbo
danbɔ
dancɛ
danfara
dankan
dankari
danmark
dans
dantigɛkan
dantigɛli
danw
danye
dara
dasɔgɔlen
data
database
datugu
datugunen
datugunike
datugunikɛ
datugura
david
daye
daɲ
daɲɛ
ddddff
de
debout
dec
dege
dekalgms
del
deli
delinna
demba
demisɛn
den
denbaya
denkɛ
denw
depuis
dernie
derval
des
description
dessous
dessus
destine
deus
deutschkenntnisse
deux
deuxie
development
devrait
dew
di
dia
diabate
diago
diakite
diallo
diamana
diarra
diatɛ
diawara
dibo
dictionnaire
die
diego
dieser
digi
diine
diinɛ
dilan
dilla
din
dine
dinɛ
dique
dira
directement
discussion
diseases
disi
dit
ditions
divatte
diya
diyen
diɔ
diɔra
diɛkulu
diɛra
diɲɛ
djamana
djan
djandjan
dje
djenne
dji
djo
dla
dlɔ
dms
do
doc
documentation
documenter
dogo
dogon
doit
doivent
dokumentation
dolar
dollars
dolo
doloya
dom
dominika
don
dona
donc
dong
doni
donkibaru
donkili
donko
donna
donne
donnen
donni
donniya
donso
dont
doon
dougou
dow
drame
droite
dsb
du
dugu
duguba
duguden
dugudenw
dugudew
dugujukɔrɔ
dugukolo
dugula
duguma
dugumakolo
dugumogo
dugutigi
duguw
duk
dulonnen
duman
dumuni
dun
dunaw
dunia
duniya
dunow
dunun
dunuun
dure
duru
dusu
duun
duuru
dɔ
dɔgɔ
dɔgɔkun
dɔgɔtɔrɔya
dɔkɔ
dɔkɔtɔrɔso
dɔkɔtɔrɔya
dɔn
dɔni
dɔnke
dɔnkili
dɔnkilidala
dɔnkilidalaw
dɔnkiliw
dɔnnen
dɔnni
dɔnniya
dɔrɔ
dɔrɔn
dɔw
dɔɔni
dɛ
dɛmɛ
dɛmɛkɛ
dɛmɛn
dɛn
dɛsɛ
dɛw
e
ebola
ebolatɔ
education
edłoga
edłoha
effet
eglisi
einstein
el
elhaj
elle
elsevier
em
empire
en
encore
encyclope
english
engliz
enroule
enroulement
ente
entier
entre
eo
eq
equity
er
erbray
erdre
eritrea
eropa
eropaka
erreurs
es
esbva
escoublac
espace
espaces
espania
espanyi
espanyikan
espaɲi
est
este
estonia
eswatini
et
etc
etiopia
eu
europe
european
ex
exception
exclure
exclus
exemple
exemples
existe
explicitement
exportɛ
f
fa
faa
faaba
faama
faamadugu
faamamara
faamu
faamuya
faan
faba
fac
factbook
facultatif
faga
fagalen
failles
faire
fait
falen
fali
fama
famakan
faman
famuya
fan
fana
fanba
fandɔ
fanga
fangan
fantanya
fara
farafin
farafina
farafinna
farako
farala
faralen
faranfasibali
faranfasilen
faransi
faransikan
faraɲwankan
fari
farigan
farikolo
farikoloɲɛnajɛ
farilaji
farima
fariman
farin
farka
fasa
faso
fasojamana
fasokan
fasokanw
faut
fb
fe
februye
feere
fein
feinw
felis
fen
fensen
fere
ferme
fernando
festival
fi
fiche
fichier
fietsen
fila
filana
filanan
filaw
file
fili
filmu
filɛ
fin
fini
finiw
finkolo
finland
finye
finzin
fitini
fixe
fiɲɛ
fl
fla
flanan
flanflan
fleurs
fleuve
float
flottant
fmi
fo
focogo
fodobakan
fokase
folo
fond
fongou
fontenay
for
format
forme
formula
foro
foroba
forobakɛnɛ
forobanafolo
forum
foto
fourni
fournie
fournit
foyi
fp
fr
frameless
franc
franca
france
francisco
francophonie
frankofoni
franse
fransekan
fransew
fraternite
freedom
freetown
from
fula
fulaw
fulfulde
fura
furak
furakɛ
furakɛli
furu
furula
futa
fɔ
fɔbaa
fɔcogo
fɔkoflayali
fɔla
fɔli
fɔlifɛn
fɔlikan
fɔlikulu
fɔlila
fɔlisen
fɔlɔ
fɔlɔla
fɔlɔw
fɔra
fɔta
fɔyɔrɔ
fɔɔnɔ
fɛ
fɛgɛ
fɛin
fɛn
fɛnsɛn
fɛnɛ
fɛrɛ
fɛɛrɛ
fᴐ
g
ga
gaan
gabon
gafe
gafes
gafew
gafire
gal
gala
galo
gama
gambi
gambia
gan
gana
gansan
gao
garches
garci
garenne
gatemala
gauche
ge
geji
gen
generic
gennevilliers
george
georgia
ger
gerekan
gerekanna
gi
gien
gindo
gine
gion
giripu
giriya
gitari
gje
gl
glain
gle
glise
global
gms
gne
gnein
gnini
gno
go
gon
gonza
gorie
gories
goriser
gou
goulaine
gouvernement
grand
grande
graphique
gras
grasse
gray
green
greki
gridcolor
grigonnais
groupe
groupes
groupn
gsw
guangsi
gue
guide
guillemets
guindo
guine
guinea
gun
gunjate
gunw
gwele
gɔn
gɛlɛ
gɛlɛya
gɛn
gɛnɛralɛ
gɛrɛsi
h
habib
habituellement
hadamaden
hadamadenw
hadamadenya
hai
hak
hakili
hakilila
hakilina
hakilinaw
hakɛ
hali
hamdalayi
har
hat
haut
hdi
he
helsinki
hercegovina
herengracht
herzegovina
hi
hidden
hiddencat
higher
hiji
hilaire
hin
hippopotamus
ho
hoa
honduras
hong
honolulu
houlihan
house
hr
hsb
html
http
https
hu
huang
huit
hy
hɔrɔn
hɔrɔnya
i
ibn
ibrahim
ibu
ico
icon
icona
id
ie
ii
iko
il
ilimi
ilimin
ils
image
images
imi
impair
impairs
impression
in
ina
inafo
inafɔ
inauguracion
inclure
increment
index
india
indicators
indique
indiquer
indiquez
indonesia
ine
inflexion
information
ingliz
inna
inse
insee
institut
inte
interlingue
international
internet
interneti
intervalle
iprage
iraq
is
isa
isbn
islam
ispaniya
ispanyikan
israil
isse
issy
it
itali
italie
italiya
ivoire
j
ja
jaa
jaabi
jabaat
jabate
jabi
jackson
jae
jago
jagodon
jagodonna
jagokɛlaw
jagomajira
jagomajiralaw
jagoya
jakite
jakuma
jala
jalan
jalo
jama
jamaika
jamakuntigi
jamal
jamana
jamanaden
jamanadenw
jamanadew
jamanakuntigi
jamanakuntigiya
jamanakutigi
jamanatigi
jamanaw
jami
jamu
jan
jango
jans
januari
janya
japan
jara
jata
jate
jatelen
jatera
je
jean
jekulu
jeli
jeliba
jeliw
jermani
jerusalem
ji
jibuti
jida
jidala
jigi
jigilen
jiginna
jigun
jigunw
jikori
jin
jina
jinaw
jine
jira
jiri
jiw
jiɲɛ
jo
job
jogo
john
johnson
joli
joliba
jolibɔn
jon
jona
josariyaw
jose
josiraw
joue
jour
jpg
ju
jugu
juguw
juguya
juigne
juillet
juin
jukɔrɔ
jula
julakan
julaw
julaya
julien
july
june
jurakan
juru
jusqu
juste
justice
justified
juyekalo
jødedomen
jɔ
jɔlen
jɔli
jɔn
jɔnjɔn
jɔnw
jɔyɔrɔ
jɛ
jɛgɛ
jɛkulu
jɛkuluɲɛma
jɛlen
jɛn
jɛnselekenaani
jɛnsenni
jɛnɲa
k
ka
kaan
kaarta
kaata
kab
kaba
kabako
kabi
kabii
kabila
kabilaw
kabinda
kabini
kabla
kabo
kaburu
kabɔ
kadi
kafara
kafo
kakan
kakon
kakɔn
kakɔrɔ
kalafli
kalan
kalanbolo
kalancogo
kalanden
kalandenw
kalanko
kalanni
kalanso
kalifa
kallo
kalo
kama
kamarilen
kamerun
kami
kan
kana
kanada
kanhak
kankan
kanku
kansas
kansu
kante
kanw
kanɲ
kap
kapitali
kapɔti
kara
karaibu
karajago
karamɔgɔ
karayibu
kari
karidon
karisa
kartaje
kase
kaseti
kasimu
kaso
kasɔrɔ
kata
kataa
kategoriw
kati
katolik
kaw
kawula
kayes
kayi
ke
kei
keita
kele
kelen
kelenna
kelenya
kelenyalen
keleyalen
ken
kene
kenedugu
kenya
kera
ki
kidal
kiim
kiin
kila
kilo
kilome
kilometiri
kilomɛtrɛ
kilomɛtɛrɛ
kilɛ
kilɛme
kin
kiri
kise
kisi
kisɛ
kita
kitabu
kk
km
ko
kodio
kodɔnɲanamaya
kofe
kofɛ
kogo
kogoji
kojugu
koli
kolo
kolokani
kolon
kolonbi
komin
komor
komore
kon
konare
konate
kondo
kone
kong
kongo
kongresi
kono
konon
kononto
konowari
koon
koord
kora
korea
koro
koroba
koron
kos
kose
kosobe
kosobɛ
koson
kosta
kosɛbɛ
koulikoro
koutiala
kouyate
kretien
krisa
krista
kru
krɛfɛ
ku
kuba
kulibali
kulikoro
kulu
kuluba
kulubali
kuluw
kuluwo
kuma
kumaden
kumadonso
kumajago
kumalaci
kumamunun
kuman
kumasen
kumaɲɔgɔnya
kumi
kun
kuna
kunafoni
kunafonilaseli
kunben
kunda
kunfɔlɔ
kungo
kungokolon
kunkan
kunko
kunkun
kunnafoni
kuntigi
kuntlenaw
kununni
kura
kuranɛ
kuraw
kuru
kurufa
kuturu
kuun
kuwate
kyoto
kyw
kɔ
kɔdugu
kɔfɛ
kɔgɔji
kɔgɔjibolo
kɔkan
kɔlɔn
kɔmɔkili
kɔn
kɔni
kɔnna
kɔnɔ
kɔnɔla
kɔnɔna
kɔnɔtɔ
kɔnɔwari
kɔri
kɔrɔ
kɔrɔba
kɔrɔlen
kɔrɔn
kɔrɔnfɛ
kɔrɔntlebi
kɔrɔw
kɔrɔyalikɛ
kɔsan
kɔson
kɔsɔn
kɛ
kɛcogo
kɛla
kɛlen
kɛli
kɛlɛ
kɛlɛbolo
kɛlɛbolow
kɛlɛcɛw
kɛlɛtigi
kɛlɛw
kɛmɛ
kɛmɛda
kɛmɛdaw
kɛmɛsarada
kɛnɛ
kɛnɛjɛ
kɛnɛya
kɛra
kɛrɛ
kɛrɛfɛ
kɛɲɛ
kᴐnᴐ
l
la
lab
labaara
labaaralen
laban
labanna
labe
labonba
labɔli
labɔnba
labɔɔra
labɛnni
lada
ladala
ladaw
lafitini
lafiya
lagine
lajɛ
lajɛlen
lakafolen
lakafolikɛ
lakali
lakalira
lakana
lakanani
lakika
lakilɛ
lakodɔnna
lakodɔnnen
lakumani
lam
lamini
lampedusa
lamuguri
lamunu
landes
landi
langue
langues
laquelle
largeur
lasago
lasamanen
lase
laseli
lasɔn
lat
latain
latin
latɛmɛni
law
lawale
lawalɛ
layidu
laɲaga
laɲini
lb
le
left
len
lengua
leon
leone
les
lesoto
leur
levallois
leye
lez
li
libelle
liberator
liberia
liberiya
liberte
liberty
libya
lie
lien
liens
lies
lieu
ligne
lignes
limiter
linegrey
lingua
link
liste
listes
lo
logo
loire
lokey
lome
lonan
london
lors
lorsqu
lorsque
los
louis
louisfert
lt
lu
lubenan
luce
lui
luka
lv
lɛ
lɛw
m
ma
maa
maana
mab
mabɔ
machecoul
macina
madagaskar
maden
madonnen
madrid
madɔnnen
mago
mah
mai
maine
maintenance
maire
mais
mako
makoɲe
mal
malabry
malakoff
malawi
malaysia
mali
maliden
malik
mall
mallakar
malline
malmaison
malo
maluku
mamadou
mamunuw
man
mana
mande
manden
mandenkan
mandinko
manew
mangoro
maninkakan
mankaan
mankan
mankutu
mansa
mansamara
mansamuso
mansaw
mansaya
manto
mantow
map
maplandia
mara
marakaw
marako
marala
maramafen
march
marche
marge
mari
mariam
marie
marifa
marifaw
mariyam
marne
marnes
maroko
mars
marsac
marsi
masa
masala
masalabolo
masalaboso
masaladɔn
masalas
masaya
masere
masina
massassi
massaya
masu
masurunya
masurunyala
masuruya
masuruyala
matarafa
matarafali
matique
matiques
matsayin
mauritanie
mauves
mays
mbabane
mbembe
me
media
mediawiki
mediterane
meilleraye
meksik
meksiko
mene
ment
mentaire
mer
merci
mes
message
mettre
meudon
mhnt
mi
mibɛ
michael
michel
middle
miiri
milion
miliyon
mille
million
millions
millɛ
milu
min
mina
minanw
mine
minh
mini
minisiriso
minnu
minu
minw
minɛ
misali
misbaho
mise
misi
misiri
misiw
misra
miɲankakan
miɲankaw
mk
mnla
mo
mocratique
mode
modele
modelo
modibo
modification
modifie
modifier
mogo
mogow
mohamed
mohamɛd
moins
moisdon
moko
momikɛla
monde
mondial
mone
montagne
monte
montrouge
monzon
moon
mopti
moritani
mot
moti
moto
mototakisiw
motto
mou
moulineaux
moussa
moutiers
mouzeil
mozanbik
mozdahir
ms
mt
mu
mugan
mugu
muhamadu
mujallar
mukɔsɔn
mun
munu
munun
munuw
muru
murutili
musa
musakabo
muse
museum
music
muso
musoko
musow
my
mɔgɔ
mɔgɔw
mɔrɔni
mɛ
mɛkalo
mɛkisiki
mɛn
n
na
naani
naaninan
naara
nafa
nafama
nafan
nafasorosira
nafasɔrɔsira
nafolo
nafoloko
nafolotigiya
nafolow
nairobi
nali
nama
namespace
namibia
nan
nana
nani
nansara
nanterre
nantes
nara
nare
nataw
national
navbox
navigation
naw
nazaire
nbaa
nbe
nc
ncogo
ndon
ne
nen
nes
network
neuf
neuilly
new
news
ng
nga
ngo
nh
nha
ni
niamɛ
nice
nicolas
niger
nijer
nijeria
nikaragwa
nima
nimaf
nimayali
nin
nini
ninnu
ninu
nio
nistan
niveau
nizɛri
niɛmɔgɔ
niɛnɔgɔ
niɛnɛbɔyɔrɔ
nk
nka
nkalon
nkalontig
nko
nkɔri
nl
nn
nna
nnen
nnenw
nni
nnik
nnin
nnnnnn
no
nobr
nofanbru
noinclude
nom
noms
non
none
normale
nort
norve
norway
norwij
note
notre
nous
nouveau
nova
november
novembre
novo
nowrap
nozay
nr
nsirasun
nson
nt
ntalen
nten
ntigiɲɛ
ntilen
nu
nueva
num
numfor
numu
nun
nuna
nunu
nuun
nuw
nw
ny
nye
nyini
nyogo
nɔ
nɔdonna
nɔfɛ
nɔgɔ
nɔgɔya
nɔnɔ
nɛ
nɛgɛ
nɛgɛsira
nɛrɛ
o
obama
obligatoire
obligatoires
obsole
obɛnata
oc
occidental
of
office
officiel
og
ographie
ola
old
olu
omis
on
one
oni
ons
ont
option
optionnel
optionnels
or
ordon
ordre
org
osasco
ostralia
ou
oudezijds
ouest
oumar
ouverte
oye
p
page
pages
paimbœuf
pairs
palette
palettes
panama
pankuru
par
paragraphe
param
parame
parcimonie
pare
paris
part
particulie
particulier
pas
pasifik
pasifiki
patrie
patrom
paul
paulo
pays
pazanne
pdf
pe
penfao
permanents
permet
perret
peru
petit
peul
peuple
peut
peuvent
phan
philbert
pho
phoenix
pierre
pins
piriac
pistolet
pistoli
pixels
pl
place
placer
plaine
plantilla
plaza
pleine
plessis
plotdata
plus
plusieurs
png
point
poland
politik
politiki
politikimɔgɔ
pologne
pont
population
pornic
pornichet
port
portail
portails
portal
portigiz
portigiziw
porto
portrait
possible
posteri
pour
pouvez
poyi
pr
pre
predefinic
predloga
predloz
premie
premier
prend
principe
priorite
prise
progre
projet
prophe
proprement
proprie
provoquer
ps
pt
publique
puceul
puteaux
px
pɔrisini
q
qu
quatre
que
quelques
qui
quotidien
r
ra
raccourci
racontas
radio
rafrai
raison
rande
range
rankings
ransi
ration
ray
rda
re
recense
recommandations
recommande
redirects
redon
refrain
region
regroupe
reine
religion
rement
remplacer
renault
rence
rendu
renvoyant
repu
republic
republika
requis
rer
res
respecter
respectivement
retrieved
retz
reze
rgb
ri
riaille
riba
rica
rie
rieur
rieure
rif
right
rika
rio
rique
risila
rite
rivie
rkiye
ro
robinson
roche
rodesia
roi
roma
roman
rome
ron
roses
rouans
roubaix
rouge
roulant
roulante
roulants
roule
roulement
royaume
ru
rueil
rwanda
rɔ
s
sa
saaba
saan
saba
sababou
sababu
sabanan
sabati
sablon
sabu
sabula
saffre
saga
sagara
sagaw
sago
sahara
saheli
sahelikoron
sahelikɔrɔn
sahelitlebi
saheliyan
saheliyanfan
saint
sainte
sala
salen
salif
salvador
sama
samani
sambacanou
samiya
samoa
samori
san
sanfe
sanfɛ
sanga
sangali
sangare
sanger
sangha
sani
sanie
sanjankalanso
sanji
sanko
sankɔrɔta
sans
sante
santiago
sanu
sanya
sara
sarada
saralon
sariya
sariyasen
saudia
saute
sautron
savine
saya
sceaux
schouten
se
seattle
sebe
sebeden
seben
sebenin
sebesun
section
seen
segi
segin
segina
seginna
segou
segu
seine
seko
sekonidɔnko
seku
sela
selekenani
seli
selon
sen
sena
sendon
sendonni
sene
senegal
senegali
senflaninyali
senfɛ
senkan
senna
sent
sentation
sente
senw
sept
september
sera
seri
serifu
seront
sert
ses
seshel
seul
seule
seychelles
sezamu
shanghai
shariya
shekara
shi
shift
shiv
shiya
shiɲɛ
shu
si
sia
sibiri
siby
sida
sident
sidibe
sie
sigi
sigibaw
sigida
sigilen
sigili
siginiden
siginikalan
sigira
sigiyɔrɔ
signe
sigui
sika
sikaso
sikasso
silame
silameya
silamɛ
silamɛya
simple
simplifie
sin
sina
sindi
sinima
sinimanjata
sinsin
sinsinnen
sintin
sintinba
sintira
siprage
sira
siraba
siran
siri
sirilanw
sirilen
sisan
sise
sisew
sissoko
sisɔkɔ
site
siti
siya
siɲɛta
sjabloon
sk
skabelon
sl
snið
so
sogo
sogolon
soit
sokurani
sokɔnɔ
sokɔnɔbagan
solo
solomana
somali
son
songai
songay
songhai
soni
soninke
sont
soro
sortira
soudan
souleymane
source
sous
south
souvent
sow
space
spe
sq
sr
st
stade
standard
start
states
stokolm
studio
studyportals
style
stylecorps
styledessous
styledessus
stylegroupe
styleimpair
styleliste
stylepair
styles
styletitre
su
subgroup
suce
sudan
sugu
suguw
suguya
suicide
suivant
suivi
suivre
suka
sulemani
sultat
suma
suman
sumara
sumaw
sumaya
sun
sunbala
sunjata
suno
sunsun
supe
supple
suppression
sur
suresnes
suriya
suru
surun
surunya
susu
suu
suun
suw
sv
swedi
swedikan
swisi
syntaxe
syɛfan
szablon
sɔ
sɔn
sɔrasi
sɔrɔ
sɔrɔdasiw
sɔrɔko
sɔrɔla
sɔɔn
sɛ
sɛbenca
sɛbenna
sɛbɛ
sɛbɛn
sɛbɛnin
sɛbɛnni
sɛgɛrɛ
sɛkɛla
sɛnɛ
sɛnɛgal
sɛnɛkɛ
sɛnɛkɛla
sɛra
t
ta
taa
taabolo
taafe
taalen
taamasɛnw
taamaʃy
taara
tableau
taboloma
taga
tah
taille
taino
taire
taji
tal
tali
talike
talikɛ
tall
talɣa
tamasheq
tan
tana
tangalan
tanikɔnɔntɔn
tanisheginan
taniɛ
tanzania
tanɛ
tara
tarawele
tarawere
tare
tariku
tarukan
tasuma
tat
tata
tatboi
tats
tau
taw
te
teau
teaubriant
teauroux
technique
tel
tele
telefɔni
teliya
telle
temin
templat
template
ten
tenay
tend
tenir
tes
tester
text
texte
th
tha
the
thi
this
thouare
thumb
thumbnail
ti
tia
tiama
tiaya
tie
tig
tige
tigi
tigiw
tigiya
tigne
tigɛ
tiin
tila
tilalen
tile
tilebi
tilebin
till
tillon
timbuktu
times
tin
titre
tiɛ
tiɲɛni
tkm
tl
tla
tlanaani
tlasabanan
tle
tlebi
tlebiyanfan
tnavbar
to
tobi
tobilen
togo
toi
tokyo
tola
tombouctou
ton
tone
tonnes
too
top
tora
touches
toucouleur
toujours
toumani
toumni
toure
tous
tout
toute
toutes
tpg
tr
tragelaphus
trang
trans
traore
travail
trawere
tre
treffieux
tres
trois
trouve
troyes
trɛ
tsl
tu
tuareg
tubabu
tubabukan
tubabuw
tufinw
tuga
tugu
tugun
tugunen
tuguni
tukulor
tulo
tulon
tulu
tulubilenw
tuma
tumadɔ
tumamin
tumani
tumutu
tun
tunizi
ture
turkme
txantiloi
tyokoya
type
tɔ
tɔgɔ
tɔgɔda
tɔgɔdara
tɔgɔladon
tɔgɔlaka
tɔgɔw
tɔn
tɔnba
tɔnden
tɔndenw
tɔntɔnni
tɔw
tɔɔn
tɛ
tɛmɛ
u
ubuntu
uemoa
uganda
uk
uka
ukrain
umar
umu
un
uncollapsed
une
unhcr
union
uniquement
unis
unit
unite
united
unity
university
uppermost
us
usa
usage
user
uti
utilisant
utilisateur
utilisateurs
utilisation
utilise
utiliser
utilisez
v
vai
valeur
valeurs
value
vanves
vaucresson
vay
ve
vec
veidne
veillez
veloppement
vence
venezuela
verdi
vers
vertical
veuillez
vi
vicente
vide
vie
vierzon
vietnam
vignes
vignette
villa
village
ville
villeneuve
villes
vincent
vingt
violation
virus
visuelles
viter
voici
voir
vom
vorlage
vous
vouvantes
vres
vu
vue
vung
w
wa
waati
wagadugu
wahl
wala
walasa
wale
walew
waleya
waleyali
wali
walima
walisa
wanda
wani
waraba
wari
wariko
wasa
washington
washinton
wasolo
watan
wati
watikura
watti
wdi
we
web
weele
wele
wendogo
werew
west
white
width
wien
wiki
wikicommons
wikimedia
wikipe
wikipedia
wikiquote
wili
wo
woiro
wolo
wolofila
wolonfla
wolora
wolovila
woodard
world
woro
worodugu
worodugukoron
worodugukɔrɔn
worodugutlebi
woroduguyanfan
woron
woyo
wu
wula
wuli
wusu
www
wɔrɔ
wɔɔrɔ
wɛlɛ
wɛrɛ
wɛrɛw
x
xose
y
ya
yaala
yaalata
yaguine
yala
yan
yana
yanfan
yankan
yapen
yarjejeniya
ye
year
yeelen
yelen
yeli
yen
yere
yeretaa
yesu
yi
yira
yiran
yiri
yiriwa
yiriwalen
yiriwara
yo
yooro
york
yoro
yoroni
yu
yue
yuhana
yɔrɔ
yɔrɔmin
yɔrɔw
yɛ
yɛlɛma
yɛlɛmali
yɛrɛ
yɛrɛmahɔrɔnya
yɛrɛmahɔrɔnyalen
yɛrɛta
z
zaman
zana
zanbia
zea
zealand
zh
ziirin
zimbabwe
zuwa
{
|
}
£
«
°
²
³
´
·
º
»
đa
ŋ
ŋana
ŋanaya
ƙasa
ƙungiyar
ɔ
ɗalibai
ɗaukar
ɛ
ɛndonezi
ɛntɛrinɛti
ɲ
ɲa
ɲafunke
ɲana
ɲanamaya
ɲini
ɲinini
ɲuman
ɲwan
ɲwankan
ɲɔ
ɲɔgɔlɔnbɔ
ɲɔgɔmɛ
ɲɔgɔn
ɲɛ
ɲɛdɔn
ɲɛmɔgɔ
ɲɛmɔgɔw
ɲɛmɔgɔya
ɲɛnamaya
ɲɛshin
ɲɛsin
ɲᴐgᴐn
ʃ
ʃi
ʃy
ʼ
ˈ
ː
̀
́
̂
̃
̄
̆
̇
̈
̉
̊
̋
̌
̛
̣
̧
̩
ε
εε
προ
ς
τυπο
л
н
шаблон
үлгі
ԑ
կաղապար
ְ
ִ
ֵ
ָ
ׂ
א
י
ל
מוסטער
ר
ש
תבנית
،
؟
ا
الجمهورية
العربية
الگو
ر
س
قالب
ه
و
َ
ُ
ِ
ْ
ٔ
ٕ
ނ
ވ
ފ
ތ
ަ
ް
߃
ߊ
ߋ
ߌ
ߍ
ߎ
ߏ
ߐ
ߒߞߏ
ߓߊ
ߘߌ
ߞߊߙߊ
ߡߊ
ߦߋ
߫
߬
߭
߮
߯
߰
߲
߸
ँ
ं
क
च
ज
ञ
द
न
प
भ
य
र
ष
स
ह
ा
ि
ी
े
ै
्
।
ঁ
চ
ট
ল
স
া
ে
্
ଟ
ମ
େ
୍
ப
ர
வ
ா
ு
்
ಂ
ಟ
ಪ
ಲ
ು
ೆ
್
ೕ
ක
ල
ස
්
ැ
ි
แบบ
แม
่
თარგი
틀
‎
‏
–
—
‘
’
“
”
„
•
…
′
″
↑
↓
↔
↷
③
④
⑦
☉
☾
♀
♂
⺀
⺄
⺆
⺈
⺊
⺌
⺕
⺝
⺸
⺼
⿰
⿱
⿲
⿳
⿴
⿵
⿶
⿷
⿸
⿹
⿺
⿻
〢
コ
ユ
㇁
㇂
㇄
㇇
㇈
㇉
㇓
㐁
㐄
㐅
㐌
㐫
㐬
㐭
㐮
㐱
㑒
㒵
㒸
㒼
㓁
㓞
㔾
㕛
㕣
㖾
㘝
㚅
㚇
㚔
㚘
㝉
㝡
㝴
㝵
㞋
㞢
㞷
㠩
㠭
㠯
㡀
㡭
㡿
㢲
㢴
㣇
㣺
㥯
㪅
㫄
㫐
㫒
㫺
㬅
㬎
㬥
㬰
㲋
㳄
㷠
㸒
㸚
㸦
㼌
㼲
㽞
㿟
䀠
䂞
䍃
䏍
䒑
䖍
䖒
䖝
䖵
䙴
䚻
䜌
䝿
䡛
䧹
䪞
一
丁
丂
七
丄
丅
丆
万
丈
三
上
下
丌
不
与
丏
丐
丑
专
且
丕
世
丘
丙
业
东
丞
丢
丣
两
严
並
丨
丩
个
丫
丬
中
丮
丰
丱
串
丵
丶
丷
丸
丹
为
主
丽
丿
乀
乂
乃
久
乆
乇
么
义
之
乌
乍
乎
乏
乐
乑
乔
乖
乗
乘
乙
乚
乛
乜
九
乞
也
习
乡
乳
乾
亀
亅
了
亇
予
争
事
二
亍
于
亏
亐
云
互
亓
五
井
亘
亚
亜
亞
亟
亠
亡
亢
交
亥
亦
产
亨
亩
享
京
亭
亮
亯
亰
亲
亳
亶
亷
人
亻
亼
亾
仁
今
介
仌
从
仐
仑
仒
仓
仕
他
付
仝
代
令
以
任
企
伊
伏
伐
休
会
伯
但
位
何
佘
余
作
佥
使
來
侈
侌
侖
侯
侵
便
保
俞
信
修
倉
倍
候
倠
備
僉
僕
儿
兀
允
兂
元
兄
充
兆
兇
先
光
兊
克
兌
免
兑
兒
兓
兔
党
兜
兟
入
全
兩
兪
八
公
六
兮
兰
共
关
兵
其
具
典
兹
兼
冀
冂
冃
冄
内
冈
冉
冊
冋
册
再
冎
冏
冐
冒
冓
冖
冗
冘
军
农
冝
冡
冥
冫
冬
冷
几
凡
凢
凵
凶
凷
凸
凹
出
函
凾
刀
刁
刂
刃
刄
刅
分
切
刍
刑
刕
刖
列
刘
则
初
別
利
别
到
制
刺
則
削
剌
前
剡
剽
劉
力
功
加
劦
助
劫
劳
劵
勃
勇
勉
勒
動
務
勞
勤
勹
勺
勻
勾
勿
匀
匂
包
匆
匈
匊
匋
匍
匕
化
北
匚
匝
匡
匪
匱
匸
匹
区
医
匽
匿
區
十
卂
千
卄
卅
卆
升
午
卉
半
卌
华
卑
卒
卓
单
卖
南
卜
卝
卞
占
卡
卢
卣
卤
卦
卩
卪
卬
卯
印
危
即
却
卵
卷
卸
卻
厂
厃
厄
历
厈
厉
厌
厓
厘
厚
原
厤
厥
厨
厭
厲
厶
厷
厸
去
厼
厽
叀
参
參
叅
又
叉
及
友
双
反
叐
发
叒
叔
叕
取
受
叚
叜
叟
口
古
句
另
叩
只
召
可
台
叱
史
右
叵
号
司
叹
吂
各
吅
合
吉
吊
吋
同
名
后
吏
向
吕
君
吝
吞
否
含
启
吳
吴
吹
吾
呂
呆
呈
告
员
呙
周
命
咅
和
咎
咠
咢
咨
咸
咼
哀
品
哉
員
哥
哲
唐
商
啇
問
啚
啬
啻
善
喜
喬
單
喿
嗇
噩
嚴
囊
囗
囘
囙
囚
四
回
囟
因
囧
囬
困
囱
囷
固
国
圂
圅
國
圍
圓
土
圡
圣
圥
在
圭
地
圶
圼
坐
坒
坚
坴
垂
垔
垚
埀
埋
埶
執
基
堂
堅
堆
堇
堯
塞
墨
壘
士
壬
壯
声
壳
壴
壹
壺
壽
夂
处
夅
夆
备
夊
夋
夌
复
夏
夒
夕
外
夗
夘
多
夜
夢
大
夨
天
太
夫
夬
夭
央
失
夲
头
夷
夸
夹
夻
夾
奂
奄
奇
奈
奉
奎
奏
奐
契
奓
奔
奚
奞
奠
奢
奥
奭
女
奴
奻
好
如
妄
妙
妟
妥
妻
妾
始
姑
委
姜
威
娄
婁
婴
嬰
嬴
子
孑
孔
孕
孖
字
存
孚
孛
孝
孟
季
孤
学
孫
孱
學
宀
宁
宂
它
宅
宇
守
安
宋
完
宏
宓
宗
官
定
宛
宜
宝
客
宣
室
宮
宰
害
家
容
宾
宿
寄
寅
密
富
寒
察
寧
審
寫
寬
寮
寸
对
寺
寻
寽
対
寿
封
尃
射
将
將
專
尉
尊
尋
尌
對
小
少
尒
尓
尔
尖
尗
尚
尞
尢
尣
尤
尧
尨
尭
就
尸
尹
尺
尻
尼
尽
尾
尿
局
居
屈
屋
屎
屏
屑
展
屖
屚
属
屠
屡
屬
屮
屯
屰
山
屵
屾
岁
岂
岑
岡
岩
岳
岸
峯
島
崇
崑
崔
崖
崙
崩
嵬
嶲
巂
巛
川
州
巟
巠
巢
巤
工
左
巧
巨
巩
巫
差
己
已
巳
巴
巷
巸
巽
巾
巿
帀
市
布
希
帚
帛
帝
带
師
席
帶
常
干
平
年
幵
并
幷
幸
幺
幻
幼
幽
幾
广
広
庄
床
底
店
庚
府
度
庫
庭
庶
康
庸
廉
廌
廛
廣
廩
廴
延
廷
建
廾
廿
开
弁
弃
弄
弇
弋
式
弓
弔
引
弗
弘
弜
弟
弥
弦
弱
張
強
强
彊
彌
彎
彐
彑
当
彔
录
彖
彗
彡
形
彥
彦
彧
彭
彳
役
彼
往
待
律
徒
得
徙
從
復
微
徵
心
忄
必
忌
忍
志
忝
忠
忩
快
念
忽
忿
思
怠
急
怱
恆
恒
恩
恭
息
悉
患
悤
悲
悶
惠
惡
惢
愁
愈
意
愛
感
慈
慧
慮
憂
憲
應
戀
戈
戉
戊
戋
戌
戍
戎
成
我
戒
戔
或
戚
戠
戢
截
戲
戶
户
戹
戼
戾
房
所
扁
扇
手
扌
才
打
托
执
承
折
拉
拜
拿
掌
推
提
摩
支
攴
攵
收
攸
改
放
政
敄
敏
敕
敖
敗
敝
敞
敢
散
敦
敫
敬
数
敷
數
斂
文
斉
斊
斗
斤
斥
斩
斬
斯
新
方
於
施
斿
旁
旋
族
无
旡
既
旣
日
旦
旧
旨
早
旬
旱
旲
时
旾
昆
昇
昌
昍
明
昏
易
昔
昗
昜
星
春
昬
是
昱
昴
昷
時
晃
晋
晏
普
景
晶
智
暑
暴
曇
曩
曰
曲
曳
更
曷
書
曹
曼
曾
替
最
朁
會
月
有
朋
服
朔
朕
朗
望
朝
木
朩
未
末
本
札
朮
术
朱
朵
朶
朿
杀
杏
杜
束
条
来
東
杲
杳
松
析
林
枚
果
枝
枲
枼
某
柔
查
柬
柰
柴
栗
桀
桑
桼
梁
條
梟
梨
棘
棠
棥
森
楚
業
楽
榮
樂
樊
欠
次
欣
欮
欲
欶
欽
款
歆
歇
歛
止
正
此
步
武
歨
歪
歮
歯
歰
歲
歴
歷
歸
歹
歺
死
殳
段
殷
殸
殹
殺
殻
殿
毋
毌
母
每
毒
比
毕
毚
毛
毳
氏
氐
民
气
氣
水
氵
氶
氷
永
氺
氾
求
汝
汞
江
沃
沓
沙
沝
泉
法
波
泣
泥
注
泰
洛
洪
活
派
流
浦
浪
浮
淡
淮
清
渚
渠
湯
滿
漸
火
灬
灭
灰
灵
灷
炅
炎
炏
炗
炙
炭
為
烈
烏
烝
焉
無
焦
焱
然
煞
熊
熏
燕
營
燮
爪
爫
爭
爯
爰
爱
爲
爵
父
爻
爽
爾
爿
片
牙
牚
牛
牜
牟
牢
牧
牪
牽
犀
犬
犭
犮
狂
狄
狊
独
狺
猋
猒
猪
献
獻
玄
率
玉
王
玟
玨
珎
班
琴
瑟
瑩
瓜
瓦
甘
甚
生
産
用
甫
甬
田
由
甲
申
电
甶
男
甸
甹
画
甾
畀
界
畏
畐
留
畜
畟
畢
畧
畨
番
畫
異
畱
當
畺
畾
疊
疋
疌
疑
疒
疾
癶
癸
癹
登
發
白
百
皀
皃
的
皆
皇
皋
皐
皕
皮
皷
皿
盃
盆
盇
盈
益
盍
盎
监
盒
盖
盛
盡
監
盤
盧
目
直
相
盾
省
眇
眉
看
眔
眞
真
眷
眼
眾
着
睘
睪
睿
瞏
瞢
瞿
矍
矛
矞
矢
矣
知
矦
短
石
破
碎
磊
磨
示
礻
礼
祟
票
祭
禀
禁
禸
禹
禺
离
禽
禾
禿
秀
秃
秉
秋
科
秝
秦
移
稟
穀
穌
穴
究
穹
空
穿
突
窄
窒
立
竒
竜
竝
竟
章
童
竹
笑
笠
筆
等
答
箕
算
箴
節
篤
篭
米
粉
粛
粟
粤
粦
粲
糞
糸
糹
系
約
納
素
索
紫
累
細
絜
絫
絲
維
綿
縣
繇
纍
纟
缶
网
罒
罔
罕
罗
罙
罡
罢
罪
署
罷
羅
羊
羌
羍
美
羔
羕
羗
羞
羡
羣
群
義
羲
羸
羽
翁
翏
習
翕
翟
翠
翼
老
耂
考
者
耆
而
耎
耑
耒
耳
耴
耶
耷
聂
聊
聖
聚
聶
聿
肀
肃
肅
肉
肖
肙
肥
肩
肯
育
肴
胃
背
胡
胥
能
脊
脩
膚
臣
臤
臧
自
臬
臭
臯
臱
至
致
臺
臼
臽
臾
臿
舀
舂
舄
與
興
舉
舌
舍
舛
舜
舞
舟
般
艮
良
色
艸
艹
艾
芒
芔
芬
芮
花
芳
芺
芻
苔
苗
苟
若
苦
英
茶
茸
荅
草
荒
荣
荼
莆
莧
莫
莽
菆
菊
菐
華
萬
落
葉
著
葛
董
葵
蒙
蒦
蒼
蓋
蓬
蓺
蔑
蔡
蕉
蕭
薄
薛
薦
薰
藍
藏
藥
蘭
虍
虎
虐
虒
虔
處
虖
虗
虘
虚
虛
虜
虞
虫
虽
蚤
蚩
蜀
蜜
蟲
蠡
血
行
衍
衛
衣
衤
表
衮
衰
袁
袞
褭
褱
襄
襾
西
覀
要
覃
見
規
覓
覧
親
覽
见
角
解
言
訁
訇
計
詹
誩
諸
讠
谷
豆
豈
豊
豐
豕
豖
豙
象
豦
豩
豪
豸
貇
貝
貞
貟
負
貢
貧
貪
貫
責
貳
貴
買
費
賁
資
賈
賏
賓
賔
賛
賞
賢
賣
質
賴
贊
贝
贡
责
贯
贲
贵
赖
赞
赤
赦
走
越
足
路
蹇
身
躬
車
軍
軎
軟
輦
车
辛
辜
辟
辥
辰
辱
農
辵
辶
边
达
过
近
连
迷
追
退
送
逆
逐
通
速
造
逢
連
逮
進
遀
遂
過
道
達
遣
適
遷
遺
邊
邑
邕
那
邦
邪
郎
部
郭
都
鄉
酉
酋
配
酓
釆
采
里
重
野
量
金
釒
錢
钅
長
镸
长
門
閃
閉
開
閏
閑
閒
間
閔
閵
閻
闌
门
间
闷
阑
阜
阝
阿
降
陳
隆
隊
隋
隡
隨
隱
隶
隹
隺
隻
隼
隽
难
雀
雁
集
雈
雋
雍
雐
雔
雙
雚
雜
雝
離
難
雨
雩
雪
雲
零
雷
需
霍
霜
霝
霞
霸
靈
靑
青
非
靡
面
靣
革
韋
韦
韭
韯
韱
音
頁
頃
項
須
頗
頡
頻
顛
類
页
風
风
飛
飞
食
飠
養
饣
首
香
馬
馮
駦
马
骨
高
髟
鬥
鬯
鬲
鬼
魚
魯
鮮
鱼
鲁
鳥
鳳
鸟
鹵
鹿
麃
麗
麥
麦
麻
黃
黄
黍
黎
黑
黒
黨
黹
黽
黾
鼎
鼓
鼠
鼻
齊
齋
齐
齒
齿
龍
龙
龜
龟
龠
龰
龱
龴
龵
龶
龷
龸
龹
者
艹
？
🜨
𠀁
𠀃
𠀆
𠀉
𠀎
𠀐
𠁁
𠁣
𠂆
𠂇
𠂈
𠂉
𠂊
𠂋
𠂎
𠂒
𠂔
𠂛
𠂡
𠂢
𠂤
𠂬
𠂭
𠂹
𠃊
𠃋
𠃌
𠃍
𠃎
𠃑
𠃓
𠃔
𠃜
𠄌
𠄎
𠄠
𠄢
𠆢
𠆥
𠇍
𠈌
𠌵
𠓜
𠔉
𠔥
𠔼
𠔽
𠔿
𠕀
𠕁
𠕋
𠘧
𠘨
𠙻
𠙼
𠚏
𠚒
𠚤
𠚪
𠣏
𠤎
𠤕
𠥓
𠦄
𠦑
𠦝
𠧒
𠧗
𠧪
𠩺
𠪚
𠫓
𠫔
𠫤
𠬛
𠬝
𠬞
𠬢
𠬤
𠬶
𠮛
𠮦
𠮷
𠯑
𠱠
𠳮
𠷎
𡈼
𡉀
𡉵
𡌥
𡍮
𡏳
𡕒
𡕩
𡕰
𡖅
𡗗
𡗜
𡘆
𡘤
𡧱
𡨄
𡩧
𡬠
𡭽
𡰣
𡰥
𡰪
𡰯
𡰱
𡷈
𡸁
𡿨
𡿩
𡿪
𡿺
𢀖
𢀛
𢀩
𢁙
𢆉
𢆰
𢆶
𢇁
𢇇
𢉖
𢌬
𢌿
𢏚
𢑑
𢑚
𢖻
𢙣
𢛳
𢦏
𢦒
𢧵
𢼄
𢾕
𣁋
𣄼
𣅀
𣅽
𣍘
𣎳
𣎵
𣏋
𣏼
𣗥
𣥂
𣥖
𣦵
𣦼
𣧄
𣪊
𣪠
𣬉
𣳾
𣶒
𤇾
𤊽
𤐫
𤓰
𤔔
𤕨
𤣩
𤰇
𤰔
𤰞
𤴓
𤴔
𤽄
𥁑
𥁕
𥃦
𥃩
𥃭
𥇡
𥑟
𥘅
𥘈
𥝢
𥫗
𥱡
𦈢
𦉪
𦉬
𦉼
𦍌
𦍒
𦎧
𦐇
𦓔
𦔮
𦘒
𦙃
𦚏
𦣝
𦣞
𦣻
𦥑
𦥔
𦥯
𦨉
𦭝
𦰩
𧆞
𧈧
𧘇
𧰨
𧴪
𧴮
𧵩
𧾷
𨸏
𨾴
𩙿
𩠐
𩫏
𩵋
𪉷
𪜀
𪟽
𪠲
𪩲
𫇦
𫔭
𫜸
𫝀
𫠣
𫠩
𫢉
𫥞
𫩏
𫩠
𫪡
𫲽
𫶧
𬀷
𬐘
𬗌
𬙙
𬛸
𬜯
𬟩
𬯁
𬴘
𬺻
𬼉
𬼖
𭀰
𭁈
𭁨
𭅰
𭑈
𭕄
𭗼
𭤨
𭥫
𭻾
𮅕
𮊿
𮍌
𮍏
𮓗
𮥼
𮧮
廾
𰀁
𰀄
𰀈
𰀉
𰀕
𰀠
𰀡
𰀢
𰀪
𰁜
𰃮
𰆊
𰆘
𰋙
𰕎
𰢴
𰧭
𰯲
0--
11--
13--
14--
15--
16--
17--
18--
19--
3--
33--
35--
4--
5--
50--
6--
60--
7--
70--
8--
9--
a--
ab--
abo--
abu--
ac--
acti--
actu--
ad--
af--
ah--
ai--
ajou--
al--
ale--
ali--
am--
an--
ani--
ap--
ar--
ara--
arabi--
ari--
as--
astu--
at--
aten--
au--
aw--
az--
b--
ba--
bal--
bam--
ban--
bana--
bar--
bay--
be--
bel--
ben--
ber--
bi--
bin--
bio--
ble--
bo--
bor--
bou--
br--
bru--
bu--
bɔ--
bɛ--
bɛn--
bᴐ--
c--
ca--
canton--
cas--
cate--
ce--
cer--
chr--
ci--
cifi--
cis--
clas--
co--
com--
con--
const--
cont--
contri--
cor--
cou--
cu--
cultu--
cɛ--
d--
da--
dag--
daga--
dan--
de--
dem--
den--
di--
dic--
dis--
distan--
diɔ--
dla--
do--
doku--
dom--
don--
dou--
dra--
du--
dɔ--
dɔn--
dɛ--
e--
eco--
egi--
el--
em--
en--
equ--
er--
es--
espa--
et--
ex--
expli--
f--
fa--
fan--
far--
fas--
fe--
fede--
fenisi--
fi--
fil--
fin--
fl--
fo--
fonc--
fonction--
for--
fr--
fu--
fun--
funan--
fɔ--
fɛ--
fɛn--
g--
ga--
ge--
gi--
gil--
gno--
go--
gra--
gri--
gu--
guang--
guim--
gɛrɛ--
h--
ha--
han--
has--
he--
her--
hi--
ho--
hu--
hɛrɛ--
i--
identifi--
igi--
im--
in--
inc--
inclu--
is--
it--
j--
ja--
jama--
jate--
je--
jen--
ji--
jih--
jiri--
jo--
ju--
jɔ--
jɛ--
k--
ka--
kaba--
kal--
kala--
kam--
kan--
kar--
kas--
kate--
ke--
kh--
khas--
ki--
kir--
ko--
kodi--
kol--
kon--
kou--
kri--
krɛnkrɛ--
ku--
kuma--
kun--
kɔ--
kɔlɔ--
kɔn--
kɔnɔ--
kɛ--
kɛlɛ--
kɛrɛ--
kɛrɛnkɛrɛ--
l--
la--
labɔ--
lako--
lan--
las--
le--
legi--
lev--
li--
lo--
loca--
lu--
m--
ma--
maa--
mag--
mai--
mam--
man--
mar--
mara--
mas--
mau--
maxi--
me--
mi--
mik--
mil--
mili--
min--
misɛ--
mo--
mu--
musul--
mɔ--
mɔgɔ--
mɛ--
n--
na--
nan--
navi--
ne--
ni--
nian--
nie--
nin--
niɔgɔ--
niɛ--
nk--
nku--
nkɔ--
no--
nor--
nou--
np--
npɔ--
nt--
nta--
nti--
ntola--
nu--
nugu--
ny--
nɔ--
nɔrɔ--
o--
ob--
oc--
on--
osa--
ou--
p--
pan--
par--
pat--
pe--
pen--
per--
person--
phi--
pi--
pic--
pl--
po--
pol--
poli--
pom--
pr--
pre--
pro--
proc--
prof--
propo--
pu--
q--
qu--
quar--
r--
ra--
rap--
re--
reli--
rem--
ren--
ri--
ro--
ru--
s--
sa--
sac--
sam--
san--
sanna--
sav--
scale--
se--
sen--
ser--
sey--
she--
shu--
si--
sigi--
siki--
sira--
skand--
so--
sogo--
som--
son--
sou--
soun--
sp--
st--
su--
sule--
sun--
sup--
sur--
sɔrɔ--
sɛ--
sɛgɛ--
t--
ta--
taa--
tai--
tal--
tama--
tan--
tani--
tanni--
te--
tem--
ter--
ti--
tla--
to--
tom--
ton--
tou--
tr--
tu--
tulo--
tun--
ty--
tɔ--
tɔgɔ--
tɛ--
u--
un--
uni--
ur--
v--
ve--
ver--
vi--
vir--
vo--
w--
wa--
waga--
wal--
we--
wiki--
wil--
win--
wo--
wor--
wu--
x--
xi--
ya--
yama--
ye--
yi--
yo--
yu--
yɛ--
yɛrɛ--
z--
za--
đ--
ŋun--
ɲ--
ɲa--
ɲɔ--
ɲɛ--
ʃ--
ال--
س--
ߖ--
ߘ--
ߙ--
ߟ--
--0
--00
--1
--2
--3
--37
--4
--43
--5
--55
--56
--6
--62
--7
--8
--87
--9
--91
--93
--95
--a
--aan
--aba
--age
--ai
--ailleul
--aire
--al
--am
--ama
--an
--andugu
--ant
--ar
--ara
--ari
--as
--at
--ata
--ation
--au
--aw
--aya
--b
--ba
--baa
--baju
--baw
--be
--bi
--bla
--ble
--bo
--bola
--bolo
--bre
--bu
--burg
--bɔ
--bɔla
--bɔlaw
--bɔrɔkan
--bɛ
--c
--ca
--cal
--ce
--ch
--ci
--ck
--cogo
--ct
--cɛ
--d
--da
--daw
--de
--den
--di
--dimi
--do
--don
--dɔnna
--e
--el
--eld
--en
--ent
--enw
--er
--es
--ese
--et
--eur
--eurs
--eus
--ez
--f
--fa
--fe
--fenw
--fina
--fla
--fo
--fɔ
--fɛ
--fɛnw
--g
--ga
--gara
--ge
--gi
--go
--goi
--gs
--gu
--gui
--gurun
--gɔ
--gɛ
--h
--hd
--hi
--i
--ia
--ic
--ie
--ien
--ier
--ight
--iin
--ik
--ika
--ikan
--il
--ila
--ili
--illeul
--ime
--in
--ins
--io
--ion
--ir
--ire
--is
--ise
--it
--ita
--ite
--iw
--iya
--ize
--j
--jan
--je
--ji
--jɛ
--k
--ka
--kalo
--kan
--kaw
--ke
--ki
--ko
--kow
--ks
--ku
--kun
--kɔrɔ
--kɛ
--kɛla
--kɛlaw
--kɛw
--l
--la
--lakali
--lan
--land
--law
--le
--len
--lenw
--li
--likɛ
--lin
--ll
--lla
--lle
--lo
--lon
--lu
--ly
--lɔɔn
--lɛ
--lɛw
--m
--ma
--man
--manba
--mani
--maw
--mba
--me
--ment
--mi
--min
--minɛnw
--mite
--mu
--muw
--mɔn
--mɛ
--n
--na
--nan
--naw
--nbaju
--nc
--nce
--ncɛ
--nd
--nde
--ndi
--nds
--ne
--nen
--ner
--ng
--ni
--nia
--nie
--nin
--nna
--no
--nou
--ns
--nt
--nta
--nu
--nw
--nya
--nɛ
--o
--ogo
--oire
--okan
--oli
--on
--or
--os
--ou
--ow
--p
--pa
--ph
--po
--pte
--r
--ra
--rd
--re
--ri
--ria
--ris
--rk
--rn
--rna
--rne
--ro
--rs
--rt
--rta
--ru
--rus
--ry
--rɛ
--s
--sa
--se
--sh
--si
--so
--ss
--ssa
--sse
--st
--sɛ
--t
--ta
--table
--tan
--tao
--te
--ter
--ti
--tigi
--tili
--tion
--to
--tre
--ts
--tu
--ty
--tz
--tɔ
--tɔn
--tɔrɔ
--tɛ
--u
--ua
--ue
--uer
--uf
--uku
--um
--un
--una
--unu
--ur
--ure
--us
--ut
--ux
--uye
--v
--ver
--via
--w
--wa
--wu
--x
--xe
--y
--ya
--yah
--yalen
--yali
--yar
--yara
--ye
--yi
--yɔrɔ
--yɛ
--z
--ze
--zi
--zo
--ɔ
--ɔgɔ
--ɔn
--ɔɔn
--ɛ
--ɛl
--ɛn
--ɲi
--رية
--ي
--ᴐ
