!
"
#
##0
##1
##10
##11
##12
##13
##14
##15
##16
##17
##18
##19
##2
##20
##21
##22
##23
##24
##25
##26
##27
##28
##29
##3
##30
##31
##32
##33
##34
##35
##36
##37
##38
##39
##4
##40
##41
##42
##43
##44
##45
##46
##47
##48
##49
##5
##50
##51
##52
##53
##54
##55
##56
##57
##58
##59
##6
##60
##61
##62
##63
##64
##65
##66
##67
##68
##69
##7
##70
##71
##72
##73
##74
##75
##76
##77
##78
##79
##8
##80
##81
##82
##83
##84
##85
##86
##87
##88
##89
##9
##90
##91
##92
##93
##94
##95
##96
##97
##98
##99
$
%
&
'
(
)
*
+
,
-
.
/
0
00
000
0001
0002
001
002
003
004
008
01
012
016
019
02
024
026
028
03
032
037
04
040
044
045
048
05
050
06
060
064
066
07
072
077
08
080
09
1
10
100
1000
1002
101
1010
1016
102
1024
1027
103
1038
104
1043
1047
105
106
107
108
109
11
110
1102
111
112
113
114
115
116
117
118
119
12
120
1200
121
1212
122
123
1237
124
125
126
127
128
1282
129
13
130
1300
1306
131
1317
132
133
134
1342
135
136
1363
137
138
139
14
140
1400
141
1416
142
1420
143
144
1445
145
1453
1458
146
147
148
149
1490
1494
1496
1497
1498
15
150
1500
1503
1506
1508
151
1511
1513
1517
152
1521
1522
153
1533
154
15429
15430
1547
155
1552
156
1560
1564
1567
157
1572
158
1580
1582
159
1590
1591
1592
1595
1597
1598
1599
16
160
1600
1601
1604
1608
1609
161
1611
162
1623
163
164
1646
1648
165
1650
1652
1655
166
167
168
1685
169
1690
1697
17
170
1700
1704
171
1710
1715
172
173
1732
1735
174
1740
1744
1745
175
1753
1754
1758
176
1763
1765
1766
177
1770
1775
1778
178
1780
1783
1784
1785
1786
1787
1788
1789
179
1790
1792
1793
1796
1797
1799
18
180
1800
1801
1802
1803
1804
1805
1806
1807
1809
181
1810
1811
1812
1813
1814
1815
1816
1817
1818
1819
182
1820
1821
1824
1825
1826
1828
1829
183
1830
1832
1833
1835
1836
1838
1839
184
1840
1841
1842
1843
1844
1845
1846
1847
1848
1849
185
1850
1852
1853
1854
1855
1856
1857
1858
1859
186
1860
1861
1862
1863
1864
1865
1866
1867
1868
1869
187
1870
1871
1872
1873
1874
1875
1876
1877
1878
1879
188
1880
1881
1882
1883
1884
1885
1886
1887
1888
1889
189
1890
1891
1892
1893
1894
1895
1896
1897
1898
1899
19
190
1900
1901
1902
1903
1904
1905
1906
1907
1908
1909
191
1910
1911
1912
1913
1914
1915
1916
1917
1918
1919
192
1920
1921
1922
1923
1924
1925
1926
1927
1928
1929
193
1930
1931
1932
1933
1934
1935
1936
1937
1938
1939
194
1940
1941
1942
1943
1944
1945
1946
1947
1948
1949
195
1950
1951
1952
1953
1954
1955
1956
1957
1958
1959
196
1960
1961
1962
1963
1964
1965
1966
1967
1968
1969
197
1970
1971
1972
1973
1974
1975
1976
1977
1978
1979
198
1980
1981
1982
1983
1984
1985
1986
1987
1988
1989
199
1990
1991
1992
1993
1994
1995
1996
1997
1998
1999
2
20
200
2000
2001
2002
2003
2004
2005
2006
2007
2008
2009
201
2010
2011
2012
2013
2014
2015
2016
2017
20170724
20170725
2018
2019
202
2020
2021
2022
2023
203
204
205
206
207
2070
208
209
21
210
211
2117
212
213
214
215
216
217
218
219
2192
22
220
2200
221
222
223
224
225
226
227
228
229
23
230
231
232
233
234
235
236
237
238
239
2394
24
240
241
242
243
244
245
246
247
248
249
25
250
251
2513
252
253
254
255
256
257
258
259
26
260
261
262
263
264
265
266
2660
267
268
27
270
271
272
273
274
275
276
277
278
279
28
280
281
282
283
284
285
286
287
288
289
29
290
291
292
293
294
295
2950
296
298
299
2995
2999
3
30
300
3000
301
302
3025
304
305
306
307
308
309
31
310
311
312
313
314
315
316
3166
317
318
32
320
3200
32020
321
322
323
324
325
326
327
328
33
330
331
332
333
334
335
336
337
338
339
34
340
341
342
343
344
345
346
347
348
349
35
350
3500
351
352
354
355
356
358
36
360
361
362
363
365
366
367
37
370
371
372
374
375
376
377
379
38
380
382
383
384
385
386
387
388
39
390
39030
39033
39040
391
392
393
395
397
399
4
40
400
401
402
403
404
405
406
407
409
41
410
4106
411
412
413
414
415
417
418
419
42
421
422
423
424
425
427
428
429
43
430
431
432
433
434
435
436
437
438
439
44
440
442
445
446
447
448
449
45
450
452
453
454
455
456
457
4576
46
460
461
462
464
465
4653
466
469
47
471
472
473
474
475
476
477
478
48
480
482
483
49
490
493
495
496
497
5
50
500
5000
501
503
504
505
506
507
508
51
510
511
512
513
514
516
519
52
520
523
525
526
527
528
53
530
533
534
536
537
538
539
54
540
542
543
544
545
548
55
550
551
552
555
556
557
558
559
56
560
561
563
564
565
566
569
57
570
572
576
578
58
580
581
584
585
587
588
589
59
590
591
592
594
596
598
6
60
600
6000
603
604
6046
605
608
61
613
614
615
616
618
619
62
621
622
623
624
625
626
627
629
63
630
631
632
633
635
636
637
638
639
64
640
641
642
648
649
65
650
651
652
653
654
655
66
660
661
663
664
666
667
668
669
67
670
672
673
674
675
677
678
68
680
682
683
685
686
687
688
689
69
691
694
695
697
7
70
700
7000
703
704
707
708
71
710
712
713
714
715
716
717
719
72
720
722
723
725
726
727
728
7283
729
73
730
733
734
736
738
74
740
744
745
749
75
750
751
752
754
756
759
76
760
764
765
767
768
77
770
772
773
774
776
78
780
781
784
7881
789
79
791
792
793
797
8
80
800
801
803
809
81
812
816
8171
819
82
820
821
822
83
830
832
833
834
835
836
838
839
84
840
844
848
849
85
850
852
85256
853
856
857
86
861
862
864
865
866
867
87
870
872
875
876
877
88
880
886
888
889
89
89255
894
895
896
897
9
90
900
901703
902
904
905
907
909
909015
91
911
912
913
914
917
92
920
921
922
924
928
929
93
933
934
936
937
94
940
942
944
945
946
947
95
950
952
954
959
96
960
964
966
968
97
971
976
978
979
98
984
986
987
988
99
990
992
993
994
995
997
998
999
:
;
<
=
>
?
@
\
^
_
`
a
aa
aachen
ab
abada
abade
abbeville
abbey
abbots
abbotts
abbreviations
abeli
aber
aberdeen
abile
abilite
abina
abine
abineda
abinedes
abinei
abingdon
abita
abitanc
abitant
abitazion
abitaziun
abite
abitova
abondanza
abram
abrami
abramitica
abruzzo
abtei
abu
ac
academia
academich
academy
acadia
acaro
acaulis
access
accession
accomack
achemenid
acioche
acqua
acres
acton
acuileia
acumpaniedes
ad
ada
adagio
adair
adalbert
adalerch
adam
adams
adamsville
adang
adarlerch
adda
addia
addison
addition
adele
adeodato
ades
adesc
adige
adina
adinfora
adler
ado
adolf
adora
adoranza
adore
adrian
adriatich
adrova
adum
adurva
adurvanza
adurve
adurveda
adurvedes
adurvei
advance
ae
aea
aede
aerial
aeroport
afa
afb
aferme
affairs
afghanistan
aflue
afre
africa
afton
ag
aga
agacin
agata
agatha
agency
agg
aghel
agn
agnes
agno
agordino
agost
agostini
agostinim
agostino
agosto
agreiter
agricolto
agrigento
agu
agua
ah
ahrweiler
ai
aichach
aiken
ain
aint
air
aire
airlines
airport
ais
aisch
aiscio
aisne
aitkin
aiu
aiut
aix
ajache
akademie
akron
al
ala
alabama
alachua
alado
alalongia
alamance
alameda
alamo
alamos
alamosa
alaska
alauta
alb
alba
alban
albanese
albania
albany
albemarle
albert
alberti
alberto
albin
albino
albion
albions
albrecht
albu
album
alcide
alcorn
alda
aldedainco
aldel
alden
aldi
aldidancuei
aldo
aldon
ale
aleac
ales
alessandria
alessandro
alessio
aleutians
alex
alexander
alexandria
alexandrov
alexia
alexius
alfabet
alfalfa
alfer
alfons
alfonso
alfred
alfreider
alg
alger
alhambra
ali
alianza
alice
alie
alighieri
align
alignbars
alincontra
all
alla
alle
allegan
allegany
alleghany
allegheny
allen
allendale
allentown
aller
allerton
alles
allga
alliance
allier
allison
alm
alma
almanco
alois
aloisia
alp
alpe
alpena
alpenverein
alpes
alpha
alphons
alpi
alpin
alpine
alpini
alpinist
alpino
alpinum
als
also
alt
alta
altamont
altar
altdorf
alte
altenburger
altenkirchen
altes
altladinisches
altmarkkreis
alto
alton
altonn
altoona
altos
alvije
alze
alzey
am
ama
amadio
amador
amalia
amana
amand
amando
amazones
amazonia
amberg
ambie
ambient
ambiente
ambolt
amboy
amelia
amen
america
american
americhes
ames
amesa
amez
amherst
ami
amich
amik
aministratif
aministratifs
aministrativa
aministratives
aministrazion
aministrazions
amisc
amity
ammerland
amo
amor
amore
amp
ampe
ampez
ampezan
ampezana
ampezans
ampezzan
ampezzano
ampezzo
amstel
amsterdam
amur
an
ana
analisa
anca
anche
anchor
ancient
ancona
anconta
ancora
ancuoi
and
anda
andalusia
ander
anderlan
anderson
andes
andines
andli
andover
andrac
andre
andrea
andreas
andrew
andrews
andri
andria
androscoggin
anemone
anes
anescion
anfa
anfat
angel
angela
angeles
angelica
angelina
angelo
angelus
angiul
angiuli
angola
angoon
anhalt
anhang
ani
aniel
anima
animas
anime
anjou
ann
anna
annalas
annamaria
annapolis
anne
annemarie
anni
anno
anoka
anonim
anp
anpezan
anpezane
anpezo
anri
ans
ansbach
ansciuda
anson
ant
antartich
ante
antelao
antelope
antenac
anter
anterleghes
anterme
antermoia
antermoiasee
anthonius
anthony
antica
antich
antiches
antichite
antichs
antics
antioch
antoine
antologia
anton
antone
antoni
antonio
antony
antrim
antwerpen
aon
aost
aosta
apache
aparat
ape
apede
apel
apollo
aposta
apostul
apostuli
appanoose
apple
appleton
april
aquila
aquileia
aquitaine
ara
arab
arabba
arabia
aragon
aransas
arapahoe
arata
aratada
arate
arbor
arc
arcadia
arcangiul
archaea
archeologia
archeologics
archer
architet
architetura
archiv
archive
arco
arcola
arctic
arda
arde
arden
ardennes
ardmore
are
area
arecibo
arena
ares
arezzo
argentina
argume
argyle
aria
arie
aristoteles
arizona
arje
arjent
arjonj
arjonjer
arjont
arjontes
arjunt
arkansas
arlington
armentara
armin
armonia
armor
armstrong
arno
arnold
around
arpa
arpagaus
arpejon
arpizade
arpize
arpizeda
arriba
arrow
arrowhead
arroyo
ars
art
arte
artejanat
artejans
arthur
artich
article
articul
articuli
artisc
artist
artista
artistc
artisti
artistica
artistich
artistiches
arturo
arundel
as
asbury
ascension
aschaffenburg
aschi
ascil
asco
ascognu
ascoli
ash
ashby
ashford
ashland
ashley
ashtabula
ashton
asia
asiria
aslune
aspec
aspen
aspet
aspeta
assa
asse
assumption
asti
aston
astrahan
astronomia
astronomich
at
atascosa
atchison
atelier
ater
athens
athesia
atif
atira
ativita
ativite
atkinson
atlanta
atlantic
atlantich
atlantique
atlantiques
atlas
atlet
atleta
atmosfera
atoka
atomich
atoms
atra
atres
atri
attica
attivita
atto
atwood
atzwang
au
aube
aubin
auburn
auch
aude
audenes
audes
audi
audrain
audubon
auf
aufstieg
auglaize
augsburg
august
augusta
augustin
augustine
augustus
ault
aunejia
aurelia
auri
aurich
auril
aurona
auronzo
aurora
aus
ausiliar
aussicht
austen
austin
australia
austria
austriaca
austriach
austro
aut
auta
aute
auter
autere
auteresc
auters
autes
auti
auto
auton
autonn
autonom
autonoma
autonomes
autonomia
autonomous
autor
autorenkompendium
autores
autoriteies
autra
autres
autri
autur
auturs
auvergne
aux
auze
av
ava
avair
avalon
ave
avei
avellino
avenime
averau
avery
aveyron
avisa
avisio
avoca
avon
avondale
avoyelles
avra
avs
award
ay
az
azenta
azienda
aziun
aztecs
azur
azzurro
b
ba
baar
bab
babi
babilonia
baca
bach
bache
bacher
backgound
backgroundcolors
bacteria
bad
baden
badger
badia
badioc
badiot
badiote
bagnolo
bahn
bai
baia
baie
bailey
bain
bainbridge
bains
baita
baja
baker
bakersfield
bal
baldissera
baldwin
baleares
balena
balenes
balest
ball
ballard
balleta
balletta
balsamo
balsan
balthasar
baltic
baltich
baltimore
bamberg
bambin
banca
banch
bancroft
band
bandiera
bangor
bank
banks
banner
bannock
bao
bap
baptist
bar
baraga
barandun
barantli
barat
barate
barbara
barber
barbian
barblan
barbour
barceloneta
bardata
bardola
bari
bariera
barletta
barn
barnes
barnesville
barnim
barnstable
barnwell
baroch
baron
barra
barre
barrington
barron
barrow
barry
barstow
barth
bartholomew
bartlett
bartolomei
barton
bartow
bas
basa
basc
basch
basckortostan
base
based
basel
baselgia
basilicata
basin
bass
bassa
bassett
basta
bastian
bastrop
bataia
bataian
batalia
batavia
bateria
baters
bates
batesville
bath
batista
baton
battaglia
battista
battle
batu
bauer
bautzen
bavaresc
baxter
bay
bayard
bayfield
bayou
bayreuth
bayside
bbecke
bbkl
bd
be
beach
beacon
beadle
bear
beauchamp
beaufort
beaulieu
beaumont
beauregard
beaver
beaverhead
bec
beca
becco
becker
beckham
bedaia
bedaies
bedeutende
bedford
bedfordshire
bee
beech
beecher
beechwood
been
begleitbuch
bei
beim
bein
beitra
beitrag
bel
bela
belardi
belarus
belau
bele
belgium
belje
belknap
bell
bella
bellas
belle
belleair
bellefonte
belleville
bellevue
bellunesi
belluno
bellwood
belmont
belmonte
beloit
belora
belsy
belton
beltrami
belum
belun
belvedere
belvidere
ben
bena
bend
benede
benedescion
benedetto
benedi
benedict
benedida
benediscion
benedisciun
benefiziat
benevento
beni
benito
benjamin
bennett
bennington
benson
bent
bentheim
bentley
benton
benzie
bepe
bepo
ber
bera
berba
berblick
berchtesgadener
berea
beretsch
berg
bergamo
bergen
bergischer
bergstation
bergstraße
berkeley
berks
berkshire
berlin
bern
bernalillo
bernard
bernardi
bernardino
bernhard
bernina
bernkastel
berrien
berry
bersetzung
berstot
berstots
bertie
berto
berwick
berwyn
bessemer
bestia
bestiam
besties
bethany
bethel
bethesda
bethlehem
between
beulah
bever
beverly
bexar
bezirksgemeinschaft
bezzola
bi
biagio
bianco
bib
biberach
bibia
biblia
bibliografia
bibliographie
bibliographisches
biblioteca
bibliotech
bicycle
bie
biedenkopf
biei
bielefeld
biella
bieloruscia
bielorussia
bien
bienville
bierjun
biesces
biescia
bifrun
big
bike
bildenden
bildhauer
bildid
billings
bindebo
bingen
binger
bingham
bio
biografia
biographien
biologia
biology
birch
bird
birkenfeld
birmingham
bis
bisch
bishop
bismarck
bitburg
bitterfeld
bizantin
bl
bla
black
bladen
blaine
blair
blanc
blanca
blanch
blanchard
blancia
blanco
bland
blason
blava
ble
blein
bleje
blick
blingen
bliss
block
bloomfield
blooming
bloomingdale
bloomington
blount
blue
bluewater
bluff
bluffs
bluffton
blumenwelt
bmw
bo
boa
bocacci
boccaccio
bocia
bodensee
bodenseekreis
boe
bogen
bogn
boiling
bois
boise
bolivar
bolivia
bologna
bolp
bolsena
bolshoy
bolton
bolzano
bon
bona
boname
bonamenter
bonanza
bond
bones
boneseghes
boni
bonifaci
bonita
bonito
bonner
bonneville
bonta
book
boone
boonville
bordeaux
border
borgo
borken
bormida
bornech
borough
boroughs
bos
bosc
bosch
bosco
bosnia
bosque
bossier
boston
bosworth
botetourt
bottineau
bottom
bouches
boughton
boulder
bourbon
bourg
bourgogne
bow
bowie
bowling
bowman
box
boyd
boyle
bozen
bra
brabant
brac
braces
brach
bracun
braddock
bradenton
bradford
bradley
brady
braies
brampton
branch
branchville
brandenburg
brandon
brantley
brasil
brau
bray
brazoria
brazos
bre
brea
breckenridge
bredles
bref
bregostana
bregostane
bregostanes
breisgau
bremen
bremer
brent
brenta
brentwood
brescia
bressan
bressanone
bresse
bretagne
bretania
breuil
brevard
brewster
brianza
brice
brida
bridge
bridgeport
bridges
bridgeville
bridgewater
brie
brien
brighton
brindisi
bristol
bristow
britanich
britannica
brixen
brixinensia
bro
broad
broadview
broadwater
broadway
brodi
brom
brompton
bron
bronson
bront
brook
brooke
brookfield
brookhaven
brookings
brooklyn
brooks
brookside
brooksville
brookville
broome
broughton
broward
brown
browning
browns
brownsboro
brownsville
bru
bruce
bruel
brule
brum
bruma
brun
bruneck
brunel
brunelg
bruno
brunsin
brunswick
bruscia
brush
brutto
bryan
bryant
bu
buc
bucca
buch
buchanan
buchenstein
buchholz
buckhorn
buckingham
buckinghamshire
buckland
buckner
bucks
buddha
buena
buffalo
bugon
buia
buja
buje
bujes
bula
bulacia
bulgaria
bull
bulla
bullitt
bulsan
bun
buna
buncombe
bundesamt
bundesla
bunker
buns
bur
burbank
burdenge
bureau
buren
burg
burgauner
burgenlandkreis
burggrafenamt
burgh
burgruine
burke
burleigh
burleson
burlington
burnech
burnet
burnham
burns
burnside
burnsville
burnt
burr
burt
burta
burton
bus
busan
busc
bush
bushnell
bust
bustac
but
bute
butler
butte
butterfield
by
byron
bz
c
ca
caa
cabell
cabo
cache
caddo
cademia
caderas
cadieli
cadore
caduff
caflisch
cagliari
caguas
cai
caio
cairo
caje
caji
cajo
cal
calabria
calabro
calais
calaveras
calcasieu
caldwell
cale
caledonia
calende
calender
calendri
calfosch
calhoun
california
calighe
callaway
calligari
calonia
caltanissetta
calumet
calvados
calvenzano
calvert
calverton
calw
camathias
cambria
cambridge
cambridgeshire
camden
camel
cameron
camino
camp
campania
campbell
campionac
campionat
campione
campitello
campiune
campo
campobasso
campolongo
campus
camuy
can
cana
canaan
canada
canadian
canal
canale
canavese
canazei
canc
canch
canche
candido
candlewood
cane
caney
cannon
canon
canova
cansla
cansles
canssles
cant
cantal
canton
canvas
canyon
canzun
canzuns
cap
cape
capela
capeles
capi
capital
capitala
capitan
capite
capitela
capiteles
capitui
caplan
capo
cappella
capra
car
cara
carabiner
carater
carateristica
carateristiches
caratsch
carbon
carbondale
cari
caribich
caricatures
cariera
carl
carla
carleton
carlina
carlisle
carlo
carlos
carlton
carmel
carmen
carnescia
carnot
caro
carolina
caroline
carrara
carroll
carrollton
cars
carson
carter
carteret
carthage
carver
cary
casa
casachstan
casale
casanova
cascade
cascata
cascate
caserta
cason
caspar
casper
caspich
cass
cassa
cassano
casse
cassian
cassora
cassville
castel
castelberg
castelletto
castello
castelnau
castelnuovo
castiglione
castiglioni
castilia
castl
castle
castro
catalan
catalog
catalogh
catalogo
catalonia
catania
catanzaro
catarina
catawba
categoria
cater
caterina
catinaccio
catolica
catolich
catores
catron
cattaraugus
caucas
caux
cavalese
cavalier
cavallino
cave
cayuga
caz
cazet
cd
ce
ceca
cech
cecil
cecilia
cedar
cedarville
cef
celiabinsk
cell
celle
celtich
cembra
cen
cena
centenario
centene
center
centerville
central
centrale
centralia
centre
centreville
centro
centrum
century
cepe
cera
ceramica
cerf
cerreto
cerro
certa
certaldo
ces
cesa
cesare
cesena
ch
cha
chaffee
chain
cham
chambers
champagne
champaign
chandler
chanzun
chanzuns
chapel
chapelle
chapman
char
charente
chariton
charles
charleston
charlevoix
charlotte
charlton
chase
chasper
chatham
chaumont
chautauqua
chaves
che
cheder
chedri
chedul
chei
chel
chela
chelan
cheles
chelsea
chemun
chemunanza
chemung
chemuns
cheney
cher
chera
cherda
cherde
cherie
cheriton
cherokee
cherry
cherta
chertes
cherz
ches
chesapeake
chesc
cheshire
chest
chesta
chester
chesterfield
chestes
chesto
cheu
chevy
cheyenne
chi
chia
chiampel
chiantzun
chianzun
chiarta
chicago
chiche
chickasaw
chico
chiena
chiesa
chieti
chillicothe
chilo
chilton
chimica
chimich
chimiches
chimney
china
chino
chio
chiocchetti
chippewa
chir
chiri
chis
chisago
chisc
chitara
chitares
chittenden
chiusa
chizzali
cho
choctaw
chouteau
chow
chr
chrestomathie
chrisostomos
christ
christa
christi
christian
christiauna
christie
christina
christine
christliche
christoph
christophe
christus
chsische
chstadt
chte
church
churchill
ci
cia
ciacia
ciaciade
ciade
ciadenac
ciadura
ciafa
ciafe
ciajea
ciala
cialan
ciale
cialova
cialt
ciamo
ciamp
ciampac
ciampana
ciampanes
ciampani
ciampanii
ciampanil
ciampe
ciampedel
ciampidel
ciampine
ciampinoi
ciamps
cian
cianace
cianacei
ciancel
ciancia
ciandepine
ciandevaves
cians
cianta
ciantada
ciantan
ciantarin
ciantarina
ciantarines
ciantarins
ciante
ciantia
cianties
cianton
ciantons
cianzon
cianzonjentbona
ciapa
ciape
ciapel
ciara
ciare
ciaria
ciarita
ciarnace
ciasa
ciascian
ciases
ciaslat
ciastel
ciastelat
ciastelbadia
ciastiei
ciastlins
ciata
ciaulonch
ciaulong
ciaval
ciavaleis
ciavalier
ciavazes
ciavei
ciavuel
cibola
cidra
cie
ciel
cielo
cil
cile
cilento
cima
cimarron
cime
cin
cina
cinch
cineja
cinesc
cinque
cinquetorri
cio
ciof
ciofes
cionstoan
ciopa
cioura
cipre
cipri
ciprian
cipro
cir
circle
circolo
cirillo
cisles
cite
cities
citrus
citta
city
ciucotca
ciuita
ciuldi
ciule
civetta
civitella
ck
cke
cken
ckes
clackamas
claiborne
clair
claire
clallam
clara
clare
claremont
clarence
clarendon
clarion
clark
clarke
clarks
clarksburg
clarkston
clarksville
classa
classica
classich
classificaziun
classifiche
clatsop
claudia
claudio
clausthal
claustra
clay
clayton
cle
clear
clearfield
clearview
clearwater
cleburne
clermont
cleveland
cliff
clifford
clifton
climax
climbing
clinton
clio
cloppenburg
cloud
cloverdale
club
cluses
clyde
cm
cn
cnodla
co
coahoma
coal
cobb
coburg
coche
cochem
cochise
coconino
coda
codesc
codifiche
codington
codla
cody
coesfeld
coffee
coffey
coi
coira
coiu
col
cola
colbert
cold
coldwater
cole
colegades
coleghe
coleman
coles
colf
colfax
colfosch
colfosco
collabora
colle
college
colleselli
colleton
collier
collin
collins
collinsville
colma
cologne
colombia
colonia
colonial
colony
color
colorado
colore
colores
colors
colp
colpa
colquitt
coltive
colton
columbia
columbiana
columbus
colusa
colz
com
comanche
comane
combat
combate
combatu
combe
come
comerz
comfort
comici
comics
coming
comite
commedia
commerce
commercial
common
commons
community
como
comosa
compagnia
compare
comple
complete
comploi
comploj
comportame
composiziun
compre
comprensoriale
compton
comstock
comte
comun
comunal
comunanza
comune
comunicazion
comunidad
comunita
comunite
comuniteies
comuns
con
conca
concord
concordia
concuista
concuiste
concuistes
concurs
conde
condiziuns
condu
cone
conejos
conesc
conesce
conesciu
conferme
confesse
confin
confine
confins
confrunt
congregazion
connecticut
conrad
conradin
conscidre
consei
constantini
consule
cont
conta
conte
contea
contegnu
contejes
contemporana
contenuc
contest
conties
contine
continental
continuite
contra
contribut
contrin
conturines
convent
converse
conway
cook
cooke
coolidge
cooper
cooperativa
coordinates
coos
coosa
copa
cope
copia
copies
copper
cor
corai
coral
coralina
corbie
corda
cordes
cordova
corea
corespogn
corf
corinth
corn
corner
corners
corning
cornwall
corona
corones
corp
corre
cors
corsa
corse
corsica
corso
corson
corte
cortina
cortland
coru
corv
corvara
coryell
cos
cosci
coscienza
cosenza
coser
coshocton
cosi
cossa
cosses
costa
costadedoi
costamula
costanta
costes
costituzion
costruzion
costruziun
cotan
cotant
cottage
cotton
cottonwood
coulee
council
countries
country
county
cour
couronne
court
courtenay
courthouse
courtland
cove
cover
covington
coweta
cowley
cowlitz
cows
coz
cr
crab
craffonara
crafons
crafuns
craig
craighead
crane
craven
crawford
crawfordsville
cre
creato
creature
crede
credo
creek
creml
cremona
crenshaw
crep
crepa
crepaz
creps
crepuscolo
crescent
cresciu
cresciuda
crespe
crespeina
crest
cresta
crestina
crestomazia
creston
crestview
crestwood
cretta
creusc
creuse
cri
cria
crim
criminal
cripl
criples
crisa
crisc
crist
cristallino
cristallo
cristc
cristian
cristiana
cristianejim
cristianes
cristians
cristina
cristl
cristo
cristoforo
critica
critich
crittenden
croatia
croatto
croazia
croce
crockett
croda
crodes
croft
crofton
croix
cromosoms
cromwell
cronica
crook
crooked
crop
cropped
crosby
cross
crosse
crossing
crossroads
crotone
crousc
crow
crowley
crown
crucis
crusc
cruz
cruzia
cruzie
crystal
cu
cualita
cuantite
cuarta
cuarto
cuatier
cuba
cuca
cuch
cuciarin
cudan
cudejel
cudesch
cudisch
cudlea
cuecena
cuecenes
cueciun
cuega
cuer
cuestion
cueta
cui
cuinta
cuinto
cuira
cul
culac
cule
culea
culeghea
culeghedes
culezion
cullman
cult
cultura
cultural
culturala
culturale
culturali
culture
culturel
culturela
cultureles
cultures
culver
cum
cumbater
cumberland
cumbria
cume
cumenanza
cumerz
cumin
cumite
cumpani
cumpanies
cumpe
cumpededa
cumponist
cumposizions
cumpra
cumpre
cumpune
cumunita
cumuniteies
cun
cuna
cuncors
cundizion
cundizions
cune
cuneo
cunesce
cunesciu
cunesciuda
cunesciudes
cunesciui
cunfin
cunfina
cunfins
cunflic
cunfront
cunfrunte
cung
cunlaurade
cunliame
cunliedes
cunscidra
cunse
cunselier
cunserva
cunt
cunta
cunte
cuntedes
cuntemporana
cuntia
cunties
cuntine
cuntinentel
cuntova
cuntra
cuntrol
cunve
cunzedu
cunzerc
cunzert
cuort
cuorta
cup
cur
cura
curat
curate
curazia
curi
curida
curieres
curona
curry
curs
cursc
curt
curta
curtina
curu
curvea
curveies
cuse
cushing
cusio
custer
cut
cuxhaven
cuyahoga
cy
cypress
cyprian
cyr
czech
d
da
dac
dachau
dad
dade
daduman
dagnora
dahme
dai
daide
dailo
dainora
dajan
dajova
dajovel
dakota
dal
dala
daldo
dale
dales
dalg
dall
dalla
dallas
dalle
dalonc
dals
dalton
dalunc
dam
damana
damanda
damande
damane
damascus
dame
dames
dampro
dan
dana
danbury
danby
danca
dane
danfora
daniel
danimarca
dann
dannenberg
danora
dant
dantado
dantadut
dantaldut
dante
danter
danterce
dantersasc
dantone
danube
danville
danz
dapo
dapoz
dapunt
dar
dara
dare
darien
darke
darkgrey
darlington
darmstadt
das
dasse
dassen
dat
data
databasecomuni
date
dateformat
datei
dates
datrai
dau
daujin
daune
dauni
dauphin
dauton
davagne
davant
davart
davenport
davent
davia
david
davidson
davie
daviess
davis
davo
davos
dawson
day
dayton
dc
de
dea
deache
deal
dean
dearborn
deberieda
debic
debits
debota
debuje
debujegn
decamerone
decatur
declara
declarajm
declare
decurtins
dedica
dediche
dedicheda
dedite
dedo
dedora
deep
deer
deerfield
defata
defe
defendura
defiance
defin
defini
definitivame
definizion
definiziun
defora
defre
degan
degasper
degasperf
deggendorf
degli
degu
degugn
degun
deguna
deguni
dei
deida
dein
deis
dekalb
del
dela
delago
deland
delavan
delaware
delhi
dell
della
dellas
delle
dello
dels
delta
dem
deme
demenegog
demetz
demez
demo
democratica
democrazia
demografia
demografich
den
denali
denant
denham
denis
denmark
dennis
denominazion
densita
dent
denton
denver
departime
department
depe
depenc
depenjade
depenjova
depent
deperpo
deplazes
deplu
depona
depuent
der
derby
derbyshire
derc
derjon
dertura
dertureda
deru
derungs
des
desalla
desc
descende
desche
deschutes
descrizion
descrizionfascia
descuri
descurida
descurides
desdru
dese
desert
desfare
desfarenzie
desfata
desfere
desferenzie
desferenzieia
desfre
desgrazia
desha
desine
desmostra
desoto
desparti
despartiziun
desproch
dess
desse
dessegur
dessel
dessenia
desseniade
dessenie
dessot
destaca
destache
destanza
destatis
deste
destenduda
destin
destinations
destira
destudafuech
desvalies
desvalis
desvalivanza
desvalives
detail
detlara
detlare
detroit
deu
deuel
deus
deutsch
deutsche
deutschen
deutscher
deutschland
deux
deve
developed
deventa
devente
deventeda
deventei
devers
deverti
devon
dewey
dewitt
dexter
deze
dezember
dezijion
dezijions
dharz
di
dia
dialec
dialekte
dialet
dialetto
dialogo
diameter
diamond
diare
dibona
dickens
dickey
dickinson
dickson
dictionary
didancuei
didier
die
dieburg
diego
diepholz
diesc
dietrich
dietro
dieu
digan
digl
dij
dijan
dijo
dijon
dijova
dijun
dik
dil
dilf
dill
dillingen
dillingham
dillon
dils
dimenjiuns
din
dinastia
dingolfing
dinrer
dinsta
dinvie
dinviern
dio
diozeja
dipartime
dir
diretame
direte
direzion
dirighe
dis
disc
disch
disciplina
disciplines
discuscion
dispruch
distanza
district
dit
dita
ditatura
dite
dithmarschen
ditt
diu
divide
divijion
divin
divinite
dix
dixie
dixon
dizionario
djvu
dl
dla
dlace
dlacia
dles
dliche
dlieja
dliejes
dliejia
dlijia
dlijies
dlonch
dlongia
dls
dlungia
dna
dner
do
doa
dobbiaco
doc
doche
docume
documenc
document
documenta
documentazion
documente
documenteda
dodesc
dodge
dodson
doe
does
doi
dolasila
doleda
dolf
dolomia
dolomit
dolomitai
dolomitale
dolomitan
dolomiten
dolomitenladiner
dolomites
dolomiti
dolores
dom
doman
domanda
dome
domenico
domesdi
dominant
dominic
dominicus
dominik
dominium
don
dona
donau
donca
doniphan
donna
donnersbergkreis
door
dopl
dopo
dopro
dora
dorado
dorchester
dordogne
dorf
dorigo
dorives
dormi
dorset
dos
doss
dosses
dotor
dotour
double
doubs
douglas
dova
dove
dover
dovia
down
downs
downsville
dr
dragon
dragons
dragun
draguns
drap
drava
drayton
dre
drei
dreig
dresden
dret
dreta
drew
drexel
drin
drive
dro
droc
droch
drucklegung
drusus
dry
dt
dteregion
dtirol
dtiroler
dtirolla
dtirols
du
duas
dublieda
dublin
dubois
dubuque
duc
ducat
duchesne
dudley
due
dui
duleda
duman
dumanda
dumat
dume
dumont
dun
duna
dunbar
duncan
dundee
dunes
dunhuang
dunkirk
dunklin
dunlap
dunn
duos
dupage
duplin
dupont
dura
durch
durham
durich
duron
dut
duta
dutaorela
dutc
dute
dutes
duto
dutor
duval
dwestpfalz
dwight
dyer
e
ea
eagle
ean
earl
early
earth
east
eastern
eastland
easton
eaton
eau
ebe
ebersbach
ebersberg
ebes
ebraich
echo
eckernfo
economia
economica
economich
ecuador
ecuator
ecuiliber
ed
edberte
eddy
eddyville
edelkastanie
edema
eden
eder
edgar
edge
edgecombe
edgefield
edgemont
edgerton
edgewater
edgewood
edinburg
edison
edit
edith
edizion
edizions
edmund
edna
eduard
educazion
educaziun
edwards
edwardsville
effingham
ega
eghes
egit
egl
egn
egon
egordin
eguia
egypt
eh
ei
eia
eiche
eichsfeld
eichsta
eie
eifelkreis
eila
ein
einaudi
eine
einem
einer
eines
einheimischen
einleitung
eir
eira
eis
eisacktal
eisem
ej
ejam
ejaude
eje
ejim
el
ela
elaborazion
elba
elbe
elbert
elberta
elder
eldorado
elefanc
elefant
eleme
elemenc
element
elementera
elementeres
elena
eles
elfriede
elgin
elia
elisabeta
elisabeth
elizabeth
elizabethtown
elk
elkhart
elkins
elko
elkton
ell
ella
elle
ellecosta
elliott
ellis
ellsworth
elm
elmer
elmira
elmo
elmore
elmwood
elpes
els
elsa
elster
elton
elwood
ely
emanuel
emerald
emerson
emery
emil
emilia
emilio
emma
emmendingen
emmet
emmons
empara
empermo
empire
empo
emportanza
ems
emsland
en
ena
ence
enceben
enchin
enciclopedia
enciclopedie
enco
encuei
encyclopædia
end
endere
endo
endut
energia
enfin
enfinamai
engadin
engel
engelbert
engelhard
engiadin
engiadina
engl
england
englewood
english
enjigne
enlaouta
enlongiaju
enna
enneberg
ennepe
enrescida
ensci
enstes
enstesc
ent
ente
enten
enterprise
entite
entourn
entratant
entreda
enzkreis
enzo
eores
epica
epl
epoca
equus
er
era
erath
erba
erding
erft
ergobando
erica
erich
erie
erika
eritrea
erlacher
erlangen
ermes
ernest
ernesto
ernst
ero
eroina
erratischer
ert
erwin
erza
erzgeb
erzgebirgskreis
es
escambia
esop
esperc
esperienza
esperienzes
esprescion
ess
essa
essen
esser
essex
esslingen
essonne
est
estate
estates
estenjiun
ester
estetica
estimates
estonia
estrem
et
eta
etc
ete
eterna
eth
etiopia
etna
etnica
etnich
etowah
etres
etrusch
ettore
eu
eucarioc
eugene
eure
eureka
eures
euro
europa
europe
europea
european
europeica
europeich
europeics
euskirchen
eva
evangeline
evangelista
evans
evansville
eve
everett
evergreen
everton
eves
evoluziun
ewd
ewing
ex
exeter
express
ey
eye
ez
f
fa
fabian
fabrica
fabricac
fabricat
fabriche
fabricheda
fabris
fabula
fac
face
fadia
fadri
fai
faig
fair
fairbanks
fairfax
fairfield
fairmont
fairmount
fairview
fajan
fajo
fajon
fajova
fala
falcade
falcon
fall
fallon
falls
falmouth
faloria
falzarego
falzares
fam
familia
familie
familienforschung
families
fan
fancela
fanes
fannin
fant
fantasia
far
fara
faraun
fargo
faribault
farina
farley
farm
farmersville
farmingdale
farmington
farms
farnham
farwell
fas
fasa
fascegn
fascia
fascian
fascism
fascist
fascista
fases
fassa
fassatal
fat
fata
fate
fates
fatima
fato
fatt
fatta
fauje
faulk
faulkner
fauquier
faure
faus
fayette
fayetteville
fe
fedaa
fedaia
fede
fedei
fedele
federa
federal
federazion
federei
federel
federela
federeles
federico
fedom
fedon
fei
feides
fej
fekarte
felice
felix
felizita
felton
femena
fen
feni
fenomenns
fenomens
fenton
fenwick
fer
ferata
ferates
ferdinand
ferdinando
fergus
ferguson
ferle
ferm
ferme
fermeda
fermedes
fermo
fern
ferndale
fernwood
ferrara
ferrata
ferrie
ferris
ferrovia
ferry
fers
ferte
fertuna
fes
fesc
fesl
festa
festeje
festes
festide
festival
festschrift
feter
fever
fi
fia
fiamac
fiames
fic
fichtelgebirge
fidel
fie
field
fields
fiem
fiemme
fier
fiera
fig
figliol
figo
figura
figure
figures
fil
fila
file
filg
filip
filippo
fill
fillmore
film
filmfestival
films
filomena
filosof
filosofia
filosofs
fin
fina
finanziame
fine
fineda
fini
finiste
finlandia
finley
fins
fio
fions
fiori
fire
firenze
firma
firmes
firmiliano
first
fis
fiscalina
fischburg
fish
fisher
fisica
fisics
five
fl
fla
flagler
flam
flama
flaminio
flat
flathead
flats
flavio
fle
flem
fleming
flemington
flensburg
flickr
flint
flo
flora
floral
flore
florence
florent
flori
florian
florida
florin
flower
floyd
flu
flugi
fluors
flur
flurin
flurnamenkarte
flus
fo
fod
fodom
fodoma
fodoms
foggia
fol
folclor
folio
folsom
fond
fondamentai
fondamentales
fondazion
fondaziun
fonde
fondo
fonguns
fontaine
fontaines
fontana
fontanac
fontanas
fontanes
fonte
fontenay
fontsize
fonz
foothills
fopa
for
fora
foradeca
forca
force
forcella
forces
forchheim
ford
fore
forest
forestville
forge
forges
fork
forks
forli
forma
format
formazion
formazione
formaziun
forme
formes
formin
forn
forni
forrest
forst
forsyth
fort
forte
fortuna
forza
forzes
fos
fosa
fosc
fosces
fosch
foscia
foss
fossa
fosse
fossel
fosses
fossil
foster
foto
fotograf
fotografia
fotografies
fotos
fountain
four
fova
fovel
fovela
fowler
fox
foy
fr
fra
frabica
frabicat
frabiche
frabicheda
franc
francavilla
france
francesch
francesco
franche
franchetti
francis
francisco
francisville
franco
francois
frank
frankenberg
frankfort
frankfurt
franklin
franz
franze
franzeisc
franzeja
franzeji
franzia
franzl
franzous
frara
frasa
frauen
frazion
frazions
fre
frea
frederick
fredericksburg
fredesc
fredonia
free
freeborn
freedom
freeland
freeman
freeport
freiburg
freie
freinademetz
freins
freising
fremont
frena
french
frenes
frequenza
fresch
fresco
fresko
fresno
freudenstadt
freyung
frida
friedberg
friedrich
friendship
friesland
frisco
fritz
friu
friul
friuli
froi
from
front
frontull
frosinone
fru
fruc
fruitland
frunt
frut
fs
fu
fuech
fulda
fulestier
fulestieres
fullerton
fulton
fume
fundade
fundame
fundamentel
fundamentela
fundamenteles
fundazion
fundeda
funes
funifor
funivia
funs
funtana
funtanes
funtaunas
funz
funzion
funzions
funziuns
fuorma
furcela
furche
furcheta
furchetta
furcia
furdenan
furlan
furlana
furma
furmazion
furme
furmeda
furmescere
furnadoia
furnadoies
furnas
furneda
furnes
fussel
fussiei
fusties
g
ga
gabriel
gabriele
gad
gadertal
gadsden
gage
gaines
gainesville
gaius
galaria
galassies
galeder
galena
galerie
gales
galesburg
galilei
galileo
galizia
gallatin
galleria
gallerie
gallery
gallia
galt
galveston
gana
ganes
gap
gard
garda
gardecia
garden
gardena
gardenazza
gardene
gardenera
gardenese
gardens
gardner
garejeda
garejedes
gares
garfield
garland
garmisch
garner
garonne
garrett
garrison
gartner
garvin
gary
gas
gasconade
gasperi
gasser
gaston
gate
gates
gateway
gau
gaudenz
gauja
gaujes
gaujiun
gausiung
gay
gazela
gazella
ge
geauga
gebru
geisler
geislergruppe
geislerspitzen
geizhals
geißler
gejia
geju
gem
gema
gemeindeverzeichnis
gen
gene
general
generala
generazion
generazions
genere
generel
generela
genesee
genetica
genetich
geneva
genevieve
genevra
genie
genoa
genofefa
genova
genovefa
genoveva
gens
gentry
genus
geografia
geografica
geograficame
geografich
georg
george
georges
georgetown
georgia
ger
gerau
germain
german
germania
germanica
germaniches
germanisches
germantown
germany
germersheim
geronimo
gers
gervais
geschichte
geschlecht
gespra
ghedina
ghent
gherde
gherdeina
gherdenacia
gherlanda
ghetto
ghetun
ghiranzes
gi
gia
giac
giachen
giacia
giacobe
giacomo
gial
gialina
giames
gian
gianotti
gianzun
giapa
giape
giat
giata
giate
giatl
giau
giauri
giaurida
gibraltar
gibson
gie
gieri
gießen
gifford
gifhorn
gila
gilbert
giles
gillespie
gilliam
gilman
gilo
gio
gion
giorgio
giornata
giosef
giovan
giovannes
giovanni
gir
girard
girardeau
gironde
gisela
gita
giu
giuana
giuani
giulan
giulia
giuliani
giuseppe
giusta
giustizia
giut
giuvani
giuven
giuvens
gje
gl
glacier
glade
gladstone
glasgow
glass
glen
glencoe
glendale
glenn
glens
glenview
glenville
glenwood
gli
gliejia
glion
glise
gloria
gloucester
gloucestershire
glu
glynn
gn
gnanca
gnara
gnel
gni
gnir
gniva
gno
gns
gnu
gnuda
go
goder
goethe
gogebic
gold
golden
golf
golo
gondola
gonot
gonzales
good
goodhue
goodrich
goose
gordo
gordon
gorizia
goshen
goslar
gotha
gotich
gottfried
gove
govern
governe
gr
gra
grabfeld
grace
grady
grafenau
graffonara
grafia
grafschaft
grafton
gragn
graham
gralba
gramatica
grammatica
gran
grana
granada
granby
granc
grand
granda
grande
grandes
grandview
grane
grange
granger
granite
grant
granville
grappa
grass
gratia
gratiot
gratulazion
graubu
graves
gray
grays
grayson
grazia
graziadio
grd
gre
great
greater
greca
grech
grecia
grecs
gredine
gredner
greeley
green
greenbrier
greene
greenfield
greens
greensboro
greensburg
greenup
greenville
greenwich
greenwood
gregg
gregor
gregorian
gregorio
gregory
greifswald
greiz
grenada
gresham
gretel
gretl
gretna
grey
griale
gridcolor
grien
gries
grifes
grijon
grijons
grimes
grisc
grischuns
gro
groenlandia
grof
grofes
grofs
grohmann
grond
grop
grosse
grosseto
grossrubatscher
ground
group
grove
groveland
grover
groves
groß
große
gru
gruber
grum
grunc
grund
grundy
grunt
grup
grupa
grupes
gruppe
gruppo
grups
gu
gua
guadalupe
guant
guarda
guayama
gudench
gudon
gue
guernsey
guerra
gufidaun
guglielmo
guide
guido
guilford
guinea
gulf
gunnison
gunzenhausen
gupta
gusela
gustav
gustin
gustl
guthrie
guttenberg
guviern
gwinnett
gymnasiums
h
ha
haag
haarlem
habarovsk
habe
habersham
habsburg
haddon
hai
haines
hainich
hale
halfway
halifax
hall
halle
haller
hallerjth
halton
hamburg
hameln
hamilton
hamlet
hamlin
hammond
hampden
hampshire
hampstead
hampton
han
hancock
hanley
hanna
hannover
hanover
hans
hanson
hanti
happy
harbor
harbour
harburg
hardee
hardeman
hardin
harding
hardwick
hardy
harford
harlan
harlem
harmony
harnett
harper
harrington
harris
harrisburg
harrison
harrisville
harry
hart
hartford
hartland
hartley
hartsville
harvey
harwich
harwood
harz
has
haskell
hast
hastings
hatch
hatfield
hatillo
hatley
hatton
haun
haus
hausen
haut
haute
hautes
hauts
havana
have
havel
havelland
haven
haverhill
havre
hawaii
hawaiian
hawk
hawkins
hawley
hawthorne
hayden
hayes
hayesville
hayfield
hays
hayti
hayward
haywood
hazel
hazleton
haßberge
hc
he
head
heart
heath
heber
hebron
heft
heide
heidekreis
heidelberg
heidenheim
heidi
height
heights
heilbronn
heilige
heiligen
heiligkreuzkirche
heindl
heinrich
heinsberg
hel
helen
helena
hellrigl
helmstedt
hemingway
hemlock
hempstead
hen
henderson
hendricks
hendry
hennepin
henrico
henrietta
henriette
henry
herbert
herefordshire
herford
heritage
herkimer
herman
hermann
hermitage
hernando
herrn
hersfeld
hertford
hertfordshire
herwig
herzberg
herzegovina
herzogtum
hesse
hessen
hewitt
hewlett
hexensessel
hexenstein
hi
hickman
hickory
hidalgo
hidden
hie
high
higham
highland
highlands
highly
hilaire
hildburghausen
hildesheim
hill
hillcrest
hills
hillsboro
hillsborough
hillsdale
hillside
hilltop
hilton
hinckley
hindi
hinds
hinton
historgia
historia
historisches
history
hitchcock
hitler
hl
hlbach
hldorf
hle
hlen
hler
hlung
hlungen
hne
ho
hobart
hochsauerlandkreis
hochschwarzwald
hochtaunuskreis
hockey
hocking
hockley
hof
hofer
hoffman
hohe
hohen
hohenlohekreis
hoke
holbrook
holcomb
holden
holiday
holland
hollister
hollow
holly
hollywood
holme
holmes
holnaider
holstein
holt
holton
holzknecht
holzland
holzminden
home
homeland
homer
homestead
homewood
homme
homo
honduras
hong
honolulu
hood
hook
hoonah
hooper
hope
hopewell
hopkins
horn
horry
horse
horseshoe
horton
hosianna
hot
hotel
hotiei
houghton
house
houston
howard
howe
howell
however
hoz
hr
hren
hrer
hrigen
hrsg
html
http
https
hu
hubbard
hudson
hughes
hugo
hull
humacao
humboldt
humphreys
hundertja
hundred
hungary
hunsru
hunt
hunter
hunterdon
huntingdon
huntington
huntley
huntsville
huossa
hurley
huron
hutc
hutton
hyde
hyder
i
ia
iachiam
iaco
iacun
iade
iadesc
iadi
iakutsk
ial
ian
ianesc
ianon
iapan
iapanesc
iarina
iaroslavl
iasa
iat
iau
iberia
iberville
ic
ich
id
ida
idaho
iddie
ide
idea
ideal
idees
ideies
identita
idia
idie
idiom
idioma
idioms
idrogen
idrografica
idrografich
idua
idum
ie
iede
iedesc
iel
iela
ien
iender
ierusalem
ies
iesu
iesus
if
iga
igher
igheri
igl
ihre
ii
iii
ij
ija
ijula
ijules
il
ila
ilario
iles
ilg
ille
illinois
ilm
ilo
ils
iluminism
ilvy
im
image
imagesize
imajes
iman
img
imgp
imparadu
impare
imper
imperadour
imperia
imperial
impormetu
impormo
importanc
important
importantes
in
ina
inacre
inant
inaugurazion
inc
inca
ince
includes
including
inco
increment
incunta
independe
independence
india
indian
indiana
indianola
indice
indiche
individuel
indo
indoeuropeics
indre
indus
industria
industry
ine
ines
inferiore
influenza
influs
informaziuns
ingalls
ingham
inghiltera
ingio
ingram
ingrid
ingu
inhalt
inlandflu
inlet
inman
inn
innen
inner
innsbruck
ino
inom
inoms
inovazion
inovazions
input
inrescida
ins
insam
inscio
insediame
insee
insom
inson
insta
inste
insteies
institute
insu
insuda
insulin
intan
inte
intende
intenziun
interlaken
intern
international
internazional
internazione
internet
intratan
inuem
inuemes
invern
inverness
inverno
invie
inviern
inwood
inyo
inze
io
ioannes
iola
ion
ione
ionia
ionio
iori
iou
iowa
ir
ira
irach
iran
ire
iredell
ireland
irkutsk
irlanda
iron
irondale
ironton
iroquois
irpino
irsara
irvington
irwin
is
isa
isabel
isabella
isaia
isar
isarch
isbn
isc
ischi
ise
isernia
ises
isla
islam
islamica
island
islanda
islands
isle
islip
iso
isola
isolde
isonzo
ispira
israel
ist
istat
iste
istitut
istituto
istituzion
istituzions
istoric
isules
it
ita
italia
italiana
italiani
italiano
italy
itasca
ite
ithaca
iu
iuchin
iudaism
iulius
iuniores
iupiter
iust
iv
ivan
ivanhoe
ivano
ivanovo
ivuere
ix
izard
ize
j
ja
jacinto
jack
jackson
jacksonville
jacob
jacobus
jacun
jadins
jahn
jahre
jahrgang
jahrhundert
jahrhunderts
jakob
james
jamestown
jan
janantone
jane
janesville
janmati
janmatie
janon
january
jape
jara
jasper
jau
jay
je
jean
jeff
jefferson
jeffersonville
jeghes
jel
jen
jena
jene
jenewein
jenn
jennings
jent
jepele
jerichower
jerome
jersey
jerusalem
jes
jesus
jeta
jeu
jeuf
jevun
jewell
jewett
jf
ji
jia
jic
jim
jir
jit
jita
jites
jiva
jivela
jo
joan
joaquin
joch
joe
johann
johanna
johannes
john
johns
johnson
johnston
johnstown
joined
jon
jonas
jones
jonesboro
jonesville
jonn
jonta
jordan
jose
josef
josefine
joseph
josephine
jou
jouf
jouy
jpeg
jpg
ju
juac
juan
juana
juaut
jubila
juda
jude
judith
juebia
juech
juesc
juga
jugade
jughea
jugn
julian
julien
julius
jumbie
jumbierch
jump
jun
junction
june
juneau
junere
juni
juniata
juniores
junta
juntlan
jupiter
jura
jurmana
jurnalist
jus
just
justice
justify
justizia
juventus
k
ka
kaiserslautern
kaiserstuhl
kalamazoo
kalb
kale
kalkaska
kalter
kama
kanawha
kandiyohi
kane
kankakee
kansas
kapelle
kapitel
karin
karl
karlheinz
karlsruhe
karnol
kasan
kaslatter
kassel
kassian
kasslatter
kastelruth
katharina
katrin
kauai
kaufman
kay
kb
ke
kearney
keene
keim
keith
kelder
kelheim
keller
kelly
kemerovo
kenai
kendall
kenilworth
kennedy
kenosha
kensington
kent
kenton
kentucky
kenwood
keokuk
kerala
kern
kerr
kerschbaumer
kershaw
keswick
key
keynes
keystone
kg
ki
kickapoo
kidder
kimball
kimberly
kind
kinderga
king
kingdom
kingfisher
kingman
kings
kingsbury
kingsland
kingsley
kingston
kingsville
kinzig
kiowa
kirby
kirchberg
kirche
kirchen
kirchheim
kirk
kirkby
kirkwood
kirschbaum
kirtland
kissingen
kit
kitsap
kittitas
kittson
kitzingen
klamath
klaus
klausen
klein
kleine
kleve
klickitat
kloster
km
knob
knoll
knolls
knox
knoxville
ko
koblenz
kodiak
koeln
kofel
kohlhaupt
koine
kol
kong
konrad
konstantin
konstanz
kootenai
kosciusko
kossuth
kostner
kostroma
koyukuk
krai
krais
kraj
krasnodar
krasnoiarsk
kreis
kremlin
kreuz
kreuzkofel
kreuznach
kro
kronach
ku
kuban
kulmbach
kunst
kunstausstellung
kunstdenkma
kunsthistorisches
kusel
kusilvak
kyffha
kœ
l
la
labastide
labette
labor
lac
lach
lackawanna
laclede
lacs
ladin
ladina
ladinas
ladine
ladiner
ladinerfreund
ladines
lading
ladini
ladinia
ladinien
ladinische
ladinischen
ladinischer
ladino
ladins
laender
lafayette
lafourche
lagacio
lagazoi
lagazoui
lagazuoi
laghel
lago
lagobraies
lagoon
lagrange
laguna
lagustel
lahn
laion
laite
lajas
lajen
lake
lakeland
lakeport
lakes
lakeside
lakeview
lakeville
lakewood
lakota
lama
lamar
lamb
lambert
lamont
lamoure
lan
lana
lancashire
lancaster
land
landau
lande
landes
landeskreis
landesmuseum
landing
landkreis
landkreise
landro
landry
landsberg
landscape
landshut
lane
lanes
langdon
langental
langer
langford
langgartner
langkofel
langkofelgruppe
langley
langton
lansdowne
lansel
lansing
lanz
laora
laore
laour
laours
lapeer
laporte
lapro
lara
laramie
larciune
lardschneider
larenzan
large
larghe
largo
larimer
lario
larjac
las
lasalle
lasce
lascia
lassen
laste
lasties
lastoi
lastuns
lat
latah
latemar
latham
latimer
latin
latina
lato
latvia
lauderdale
lauenburg
laur
laura
lauranc
laure
laurel
laurens
laurent
laurin
laurino
laurova
laurs
lausitz
lautbezeichnung
lava
lavaca
lavaredo
lavarela
lave
lawn
lawrence
lawrenceville
lawson
lawton
layton
lazio
lba
lbs
lccn
ld
ldegalerie
le
lea
leake
leander
lear
leavenworth
lebanon
leben
lec
lecce
lecco
lech
lechsant
lecorda
lecort
lectrisc
lecurdanza
lecurdanzes
lecurde
lecurdon
lecurdons
lee
leeds
leelanau
leer
leesburg
left
legally
lege
leges
legge
legn
legno
legre
legrima
lehigh
leicestershire
leiden
leigh
leipzig
leisure
leland
lemon
lemont
len
lena
lenawee
lene
lenert
lenga
lengaz
leningrad
lenoir
lenox
leo
leon
leonard
leonardo
leopardi
leopold
lepro
ler
lerch
leresc
lergia
lerner
lernri
lersc
les
leslie
lessu
lester
let
letcher
leterar
leterara
leterato
leteratura
leteratures
leterera
letereres
letonia
letura
letures
leu
leur
level
levisc
levy
lewis
lewisburg
lewiston
lewistown
lewisville
lexicon
lexikon
lexington
lez
lezuo
lg
li
lia
liam
liams
lians
lianza
liber
liberta
liberty
libra
libri
lichtenfels
lichtmess
lick
licking
lie
liechtenstein
lied
lieda
liede
liedes
liedia
liej
lieje
liejenda
liejendes
liejer
lienz
lies
lietres
lifc
life
lift
light
lightgrey
ligia
ligre
ligure
liguria
lije
like
lilium
lillehammer
lima
limburg
lime
limestone
lin
lina
linacia
linard
lincoln
lincolnshire
linda
lindau
linden
lindsay
line
linea
linert
ling
lingac
lingaz
linges
lingia
lingiola
lingua
linguist
linguistica
linguistich
linguistiche
linguistiches
linguistics
linia
linies
link
linn
linnaeus
linton
linwood
linz
lion
lippe
lipscomb
lires
lirica
lisa
lisabeta
lisbon
liseo
lista
lit
lita
litade
litanies
litchfield
literatur
literatura
literaturschaffen
lithuania
litografia
litteratura
little
littleton
lituania
live
livel
liverpool
livinallongo
livingston
livonia
livorno
lize
lizeo
lizia
ll
lla
llano
ller
lln
lloyd
lmdr
lo
loa
lob
locai
local
locala
locales
located
locatelli
location
loch
locia
lock
lockhart
lockport
locust
lode
lodemasciza
lodge
lodi
lodigiano
loga
logan
loghe
logo
loing
loir
loire
loiret
lois
loma
lomas
lombardia
lombardo
lomellina
lominus
lonc
lonch
london
lone
long
longes
longheza
longia
longiaru
longview
lonoke
lonsdale
lookout
loomis
loop
lorain
lore
lorenzi
lorenzo
lores
loretto
lorraine
lors
los
lost
lot
lou
loudon
loudoun
louf
louis
louisa
louisburg
louisiana
louisville
loup
lourdes
love
lovell
low
lowell
lower
lowndes
loze
ls
lss
lu
lubbock
luc
luca
lucas
lucca
luce
lucerne
luci
lucia
luciana
luciano
lucie
lucio
ludlow
ludwig
ludwigsburg
ludwigslust
luech
luesa
luesc
lugio
luigi
luis
luisa
lujanta
lum
lumbardia
lumberton
lumes
luna
lunch
lunenburg
lunghe
lungia
lungiaru
lungo
lunz
lupton
lur
lura
luray
lus
lusenberg
luther
luxemburg
luz
luzerne
lva
lven
lycoming
lyman
lynchburg
lyndon
lynn
lynnville
lyon
lyons
lys
lz
m
ma
macedonia
macerata
maciaconi
macomb
macon
macoupin
madalena
maddalena
madera
madison
madisonville
madona
madonna
madrid
maester
maestra
maestre
maestri
maestro
magdalena
maggiore
magliano
magna
magne
magnifica
magnolia
magny
mahaska
mahl
mahlknecht
mahnomen
mahoning
mai
maidl
maie
main
maine
mainz
maioranza
maiour
mair
maiu
maiuranza
maius
majer
majera
majeri
majon
majoni
major
mal
malade
malaga
malan
malatia
malden
maler
malga
malheur
malia
malo
mals
malsiner
malta
malvern
maly
mamifer
mamifers
mammoth
mammut
man
manageriacomunal
manassas
manatee
manche
manchester
mancia
manco
manda
mandeville
mandl
mandli
manduchiei
mane
manfred
manga
mange
mangia
mangiaerba
manhattan
mani
maniera
manifestazion
manifestazions
manira
manires
manistee
manitou
manitowoc
manor
manoscrit
manoscritto
mans
mansfeld
mansfield
mansi
manteni
mantua
manuel
manuela
manuscrit
manz
manzoni
maomet
map
maple
mapleton
maplewood
mar
mara
marais
maran
marano
marathon
marble
marburg
marc
marcade
marcel
marche
marchionni
marcia
marcion
marco
marcus
mare
marebbe
marengo
mareo
marevegna
margaret
margareth
margherita
margraviat
maria
mariana
marianna
mariano
maricopa
marida
maride
marideda
marie
mariele
maries
marietta
marin
marina
marine
marinette
maring
marino
mario
marion
mariposa
maritime
maritimes
maritsa
mark
market
markham
marks
markt
markus
marlboro
marlow
marmolada
marmolata
marmoleda
marmotta
marmotte
marne
maro
marou
marquette
mars
marsh
marshall
marshfield
marston
marta
martell
martin
martina
martiner
martinez
martini
martino
martinsburg
martinsville
martinus
marton
marueia
marueies
marusa
marx
mary
maryland
marys
marysville
masare
mascima
mason
masra
massa
massac
massachusetts
massapequa
massaries
massimilian
massimiliano
massimo
mastle
mastral
mat
matagorda
matanuska
matematica
mateo
matera
materia
materiai
material
mathews
mathias
mathis
mati
matia
matie
matilde
matrikel
matt
matta
matthews
matthias
matura
mauer
mauges
maui
maun
maurice
mauritz
mauriz
maurizio
mauro
maurus
maury
mauta
maverick
max
maximilian
maxwell
may
maya
mayen
mayenne
mayes
mayfield
mayrhofer
maysville
mayville
maywood
maza
maze
mazin
mazzel
mazzin
mb
mber
mbol
mbri
mcclain
mccook
mccormick
mccracken
mccurtain
mcdonald
mcdonough
mcdowell
mcgregor
mchenry
mcintosh
mckean
mckenzie
mckinley
mclean
mclennan
mcleod
mcnairy
mcpherson
mdr
me
mead
meade
meadow
meadowbrook
meadows
mecca
mechanicsburg
mechanicsville
mecklenburg
mecklenburgische
mecosta
medejina
medel
medem
medema
medemmo
medemo
medford
media
medical
medicine
medievala
medieve
medievel
medievela
medina
medio
mediteran
mediterran
medley
medo
meeker
mefo
mei
meigs
mein
meiningen
meis
meisc
meister
meisules
meißen
meißner
mej
mejes
mel
melbourne
melchiore
mellaun
mellette
melodia
melodies
melrose
melt
melton
melvin
member
memoria
memorias
memphis
men
mena
menard
menardi
mendocino
mendon
mendota
mendranza
mendranzes
mene
meneda
meneguto
menlo
menominee
ment
mentor
menuc
menza
mer
merced
mercer
merch
mere
meriden
meridian
merit
merita
meriwether
merrick
merrill
merrimack
merritt
mersa
merseyside
merz
merzig
mes
mesa
mesan
mesana
mesaria
mesaval
mesc
mesdi
mesnil
mesoamerica
mesolitich
mesopotamia
mesquite
mess
messa
messe
messel
messer
messia
messina
messova
messu
mesun
mesuns
mesura
met
meta
metai
metamora
metan
mete
meter
meto
metoda
metodes
metova
metri
metro
metropolis
metropolitan
metropolitana
metter
mettmann
metu
metuda
metudes
metui
metz
meurthe
meuse
mexico
mez
mezdi
mezzo
mezzodi
mh
mhz
mi
mia
miami
miara
michael
michel
michelangelo
michele
michiel
michigan
miculau
micura
middle
middleburg
middlesex
middleton
middletown
midland
midlands
midlothian
midway
midyear
mie
miec
mienun
miesbach
mieu
mifflin
miguel
milam
milan
milanese
milano
mile
milesc
milford
mili
milia
miliarc
milions
militer
miliuns
mill
millard
millbrook
mille
milledgeville
miller
millersburg
millerton
millington
million
mills
milltown
millville
miltenberg
milton
milwaukee
min
mina
minca
minden
mine
miner
mineral
minert
mines
ming
mingo
mini
miniatura
minidoka
minister
minneapolis
minnehaha
minnesota
minor
minoranze
minova
mio
mira
miribung
mis
mischi
misericordia
mission
mississippi
missoula
missouri
mister
misurina
mit
mitans
mitchell
mitchellville
mitologia
mittelmark
mittelsachsen
mitterer
mitterrutzner
mituns
miu
miure
mix
mm
mme
mmerda
mo
moar
mobile
moca
moda
model
modena
modern
moderna
modernes
modernism
moderns
modiei
modo
modoc
moe
moeli
moena
moenat
mohave
mohawk
moidl
moimento
moines
mol
moldavia
mole
molecoles
moler
molera
moleri
molignon
moline
moling
molise
moltina
molto
molziner
monaco
monarch
monarchia
monastero
monastery
monc
mond
mondial
mondiala
mondiei
mondo
mondovi
mone
monferrato
mongol
mongolia
monika
moniteau
monkton
monmouth
monn
mono
monona
monongalia
monroe
monroeville
monrovia
mons
mont
montagna
montagne
montague
montana
montcalm
montclair
monte
montebello
monteleone
montello
montenegro
monterey
montes
montezuma
montfort
montgomery
monti
monticello
montigny
montpelier
montreal
montreuil
montrose
monume
monument
monumento
monza
monzoni
moody
moon
moor
moore
mooresville
moors
moos
moose
mora
moral
morava
morbihan
morc
more
morehouse
moreton
morgan
morgantown
morin
moritz
morlang
morley
moro
moroder
morrill
morris
morrison
morristown
morrisville
morro
morrow
mort
morta
mortes
morton
morts
morve
moscau
moscow
mose
mosel
moselle
mosena
moss
moster
mostra
mostres
motifs
motivazions
motor
motta
motte
moulton
moultrie
mound
mounds
mount
mountain
mountains
mountrail
movime
moviment
mower
mp
mpara
mpare
mpe
mpede
mper
mpermo
mpes
mpl
mpla
mplant
mples
mpli
mpo
mps
mpue
mpurtanc
mpurtant
mpurtanta
mpurtantes
mpurtanza
ms
msk
msu
mt
mu
much
muda
mudame
mudazions
mude
mudele
muef
mueia
mueria
muessa
muet
muever
muhlenberg
mujene
mujiga
mul
mulberry
mulin
mulins
multnomah
mume
mumma
mund
mundart
mundiei
mundiel
mundiela
mune
munich
muniga
munighes
munt
muntagnola
muntagnoles
muntanioles
muntes
muntijela
munts
muond
muoth
mur
murade
murcia
mureda
mures
murezzan
murfre
murfreit
murphy
murr
murray
murs
mus
musa
musc
muscatine
musciat
musciatsalin
museo
museum
museums
musical
musicala
musicales
musicologia
musiga
musizist
muskegon
muskingum
muskogee
musner
musselshell
mussner
mussolini
muste
mustra
mustre
musulmans
mut
muta
mutans
mutons
mutta
muvime
my
myers
myrtle
mystic
mz
n
na
nach
nachtrag
nacogdoches
nade
nadel
nadia
nagano
naguabo
name
nan
nancy
nanticoke
napa
naples
napoleon
napoli
nas
nasa
nasc
nasciu
nasciuda
nasciudes
nasciui
nash
nashua
nashville
nassau
nasswand
natchitoches
national
nationalmuseum
nato
natrona
natura
naturai
natural
naturala
naturale
naturales
nature
naturei
naturel
naturela
natureles
naturkunde
naturmuseum
naturpark
natz
nau
navajo
navarre
navarro
naveda
nay
nazareth
nazion
nazional
nazionala
nazionale
nazionalism
nazions
nazism
nazista
naziun
nc
nce
nchen
nchin
nchina
nchinamei
ncia
ncisles
ncont
ncuei
nd
nda
nde
ndebo
nden
ndepende
nder
nderdi
ndes
ndner
ndra
ndre
ndri
ndurade
ndut
ne
near
nebraska
neburg
neck
neckar
nederland
nef
nefeld
negra
nei
neif
neigra
neiße
nel
nell
nella
nelle
nelson
nemaha
nemisc
nen
neolatins
neolitich
neosho
nepot
neptune
ner
nes
ness
net
nether
netherlands
netun
neu
neuburg
neue
neuf
neuilly
neukirchen
neumarkt
neunkirchen
neus
neuss
neustadt
neustift
neuville
neuvy
neuwied
neva
nevada
neve
nevel
nevela
nevic
new
newald
newark
newberry
newburg
newcastle
newell
newington
newport
news
newton
newtown
next
nez
nfin
nfurmazions
ng
nge
ngen
nghe
nghiltiera
ngle
ngrandi
ngrandida
ngrandime
ngrum
ni
nia
niagara
nianca
nica
nicholas
nichols
nicholson
nicht
nicka
nicola
nicolai
nicolas
nicolaus
nicole
nicollet
nicolo
nie
niederfrieniger
niedersachsen
niel
nienburg
nience
nies
niger
night
nijni
nikolaus
nil
niles
nilo
nis
nives
nixon
nizza
njer
nn
nna
no
noass
noassa
nobel
noble
nobles
nobli
nocker
nodaway
noe
nogent
noi
nom
nome
nomina
nomine
non
nona
noni
nora
norbert
nord
nordfriesland
nordhausen
nordrhein
nordsachsen
nordtirol
nordwestmecklenburg
norfolk
normal
normalme
norman
normandia
normandy
normanton
normes
norris
norte
north
northampton
northamptonshire
northeast
northeim
northern
northfield
northport
northumberland
northwest
northwood
norton
norvegia
norwalk
norway
norwich
norwood
nos
nosc
noss
nossa
nost
nosta
nostra
not
note
notes
notre
notte
nottinghamshire
nouf
nouvelle
nova
novara
nove
novela
novella
november
novgorod
novi
novosibirsk
nowata
noza
noze
nozes
nozza
nozze
nr
nresci
nrescida
nrescides
nridlame
ns
nsa
nsc
nsci
nscila
nsel
nsenia
nseniame
nsenianc
nseniant
nsenianta
nsenie
nste
nster
nstler
nstlerbund
nt
nta
ntaie
ntan
ntant
nte
ntel
ntende
nter
nteres
nteressant
nternaziunel
nternaziunela
nternaziuneles
ntervista
ntes
nteur
nther
ntle
ntraunides
ntreda
ntri
nu
nucleoid
nucleus
nudre
nueces
nuef
nuefce
nuet
nuetes
nueva
nueves
num
number
numer
numeri
numina
numineda
nun
nunzia
nuoro
nuovo
nus
nutizies
nuve
nuvolau
nw
nyack
nye
nz
nza
nzburg
nzes
nzia
nzie
nzies
o
oak
oakdale
oakhurst
oakland
oakley
oaks
oakville
oakwood
oasis
ob
ober
oberallga
oberbacher
oberbergischer
oberhavel
oberlin
oberpfalz
oberspreewald
obietif
obion
obispo
oblast
obletter
ocajion
occitan
occitania
ocean
oceana
oceania
oclc
oconee
oconto
ode
odell
odenwald
odenwaldkreis
oder
oderland
odessa
odla
odle
odles
odlina
odu
odun
of
offenbach
offenburg
office
ofizial
ofizialmenter
ogden
oglala
ogle
oglethorpe
oglio
ogni
oh
ohio
oies
oise
ojo
okaloosa
okanogan
okfuskee
oklahoma
okmulgee
okrug
oktober
ola
olach
olache
olanda
olandeja
olandesc
olaneres
old
oldenburg
oldham
oldwikisource
ole
olimpiades
olimpics
oliva
olive
oliver
olivet
olivia
olma
olmsted
olney
olona
olp
olpe
olympia
om
oma
omaha
ombert
omer
omi
oms
on
ona
one
oneida
online
onondaga
onor
ons
onslow
ontario
ontonagon
onu
onur
open
opera
operes
operetes
opf
opra
opres
optanc
opzions
or
ora
oradeca
orala
oramai
orange
orangeburg
orangeville
orar
oratiun
orazion
oraziuns
orbita
orchard
orchestra
orco
orcoiocl
ord
orde
orden
ordin
ore
oregon
orenburg
oressi
org
organ
organisazion
organisazions
organisaziun
organism
organisms
orge
orghen
orgun
orie
orient
orientale
orientales
orientation
origina
original
origini
oristano
orla
orland
orleans
orne
oro
oroville
orsola
ortenaukreis
orthographic
ortisei
ortodossa
ortofoto
ortografia
os
osage
osborne
osc
oscar
osceola
oslo
osnabru
ossola
ost
ostalbkreis
ostallga
osterholz
ostflanke
ostholstein
osti
ostprignitz
osttirol
oswald
oswego
ot
ota
otce
otcent
otero
other
otober
otoe
otoman
otsego
ottawa
otter
ottilia
otto
ou
ouachita
ouen
our
ouray
outa
outagamie
outermost
outorita
outre
outside
ova
ovel
ovela
oven
over
overseas
overton
ovest
ovl
ovla
ovun
owen
owyhee
oxford
oxfordshire
oz
ozark
ozaukee
ozean
ozeans
ozide
p
pa
pablo
pace
pacific
padana
paderborn
padova
padre
padua
paejes
paes
paesaj
paesc
paese
pag
page
pai
paia
paiame
paian
paiern
paisc
pakistan
pala
paladina
palais
palatalisaziun
palaz
palazzo
pale
paleolitich
palermo
palestine
palla
pallioppi
palm
palma
palmas
palmer
palmetto
palms
palmyra
palo
paloma
palos
palota
palua
paluc
palusc
pamlico
pan
pana
panama
pancheri
panola
panorama
panoramica
panoramio
panthera
paoli
paolo
papa
papanti
papaver
papier
par
para
parabel
parabola
paradise
paralleltexte
paratoni
paravis
parc
parcelas
parch
parche
parchim
parco
pardac
pardell
pare
parei
parete
paris
parish
park
parkdale
parker
parlame
parlamento
parlari
parle
parma
paro
parochie
parola
paroles
parora
parores
part
parte
partel
partenkirchen
parti
particulera
partida
partides
partime
partis
partisans
partit
parva
parzellenkarte
pas
pasa
pasadena
pasca
pascion
pasco
pascolo
paso
pasolini
pasqua
pass
passa
passada
passaggio
passaic
passaje
passajieres
passan
passau
passe
passeda
passeier
passeriformes
passo
passogiau
passova
passua
paster
pastura
pastures
pat
pate
pater
paterno
paternoster
paths
patria
patriarcat
patricio
patrick
patrimone
patron
patrons
patterson
paul
paula
paulding
pauli
paulina
paur
paures
paurs
pava
pavaro
pave
pavia
paw
pawnee
paxton
payne
pays
paz
pazifich
pdf
pe
pea
peach
peak
peaks
pearl
pec
pecan
pece
pech
peck
pecos
pedagogich
pedetliva
pedro
pedroc
pedron
pedrutscherhof
pedu
pegna
peidar
peider
peine
peitler
peitlerkofel
pekin
pel
pelda
pelegrinaje
peles
pelham
pelican
pellegrini
pellegrino
pelmo
pembina
pembroke
pemiscot
penc
pender
pendleton
peni
penia
penijula
peninsula
penn
pennington
pennsylvania
penobscot
pensa
pensacola
pense
pensier
pensieres
pensons
penultima
peoria
pepi
peppi
per
pera
peraforada
perathoner
perauter
perce
perche
perchel
perd
perde
perdica
perdu
pere
peres
perez
perfet
pericul
period
perioda
periodes
periodica
peristi
perkins
perm
permez
permo
pero
perra
perry
perryville
persenon
persia
persian
persona
personalite
persones
persunaliteies
persunel
persunela
pert
pertan
pertes
peru
perugia
pervia
pes
pesaro
pesc
pescara
pescol
pescosta
pescostac
pest
peter
petersburg
petit
petite
petlin
peton
petra
petrus
pez
peza
pezzei
pezzeijf
pfaffenhofen
pfalz
pfarre
pfarrkirche
pfister
phelps
philadelphia
philip
philipsburg
phillips
phillipsburg
philomena
phoenix
photo
photography
php
physoplexis
pi
pia
piacenza
piade
pian
piana
piano
piatt
piatto
piave
piaz
piazza
pib
pic
pica
piccolo
piccolruaz
pice
piceno
picera
piceres
pici
picia
piciade
piciudel
piciuel
piciule
pickaway
pickens
picol
picolin
pie
piedi
piedmont
pief
pieif
piemont
piemonte
piena
pier
piera
pieralongia
pierce
piere
pieres
piero
pierre
pies
piesc
pieta
pietro
pieve
pievel
pigeon
pigon
pike
pil
pilat
pilicia
pilon
pilot
pima
pin
pinakothek
pinal
pincan
pine
pinehurst
pinellas
pines
pineville
pinewood
piney
pinneberg
pins
pinsier
pinto
pinus
pinzagen
pioneer
pionier
piova
piovan
pipestone
pire
pirmasens
pisa
pisciadoi
pisciadoies
pisciadu
piscop
pista
piste
pistoia
pite
pitkin
pitl
pitla
pitli
pitor
pitschaider
pitscheider
pitschen
pitschieler
pitt
pittsburg
pittsburgh
pitura
pitures
piu
piz
piza
pizes
pizuela
pizzinini
pl
pla
place
placer
placidus
plage
plain
plaine
plainfield
plains
plainview
plainville
plajes
plan
planaces
plancker
plane
planet
planetary
planker
plano
plans
plant
planta
plantae
plantation
plantes
plaquemines
plata
plates
platon
platte
plattkofel
plaza
plazame
plazes
plazola
ple
pleasant
pleasanton
pleasantville
plesdinaz
plessis
pli
plie
plo
ploania
plom
ploner
plonerm
plose
plotarea
plotdata
ploune
plovan
plu
pluan
pluania
plueia
plum
plumas
plurel
pluton
plutosc
plymouth
pmid
pnas
png
po
pocahontas
pocono
pode
podei
podessa
podesta
podium
podiums
podu
poec
poejia
poejies
poem
poems
poesia
poesias
poesie
poesies
poet
poetica
poggio
poi
poinsett
point
pointe
points
pol
polach
poland
pole
polesine
politica
politich
politiches
politics
politiga
polk
pollam
pollamv
pollock
polo
polonia
polver
pomagagnon
pomeroy
pomona
pon
pona
ponc
ponce
pond
pondera
ponderosa
pont
ponte
pontives
pontotoc
pop
popa
pope
popes
poplar
popolar
popolara
popolares
popolazion
popolazions
popolaziun
popolaziuns
popolo
popui
popul
popularas
population
populations
populazion
populazions
populera
populi
por
porater
porcel
porche
porci
pordenone
pordoi
pordu
porfir
porica
pormez
porsenu
porsona
porsones
port
porta
portada
portage
portal
portamont
portavescova
porte
porter
portes
portland
porto
portsmouth
portugal
portughesc
porve
pos
posc
positionskarte
posizion
possa
posse
possen
post
posta
postc
poststeig
potenza
potok
potomac
potsdam
pottawatomie
pottawattamie
potter
povester
powder
powell
power
powers
poweshiek
powhatan
poz
poza
pozza
pp
ppingen
pra
prack
pradel
pradesh
prado
praga
prags
pragser
prairie
pranives
prato
pratt
praule
pre
preble
precolombianes
prei
preistoria
prejenta
prejentazion
premi
prender
prener
prentiss
pres
presbitere
presciapech
presciapuech
presciun
prescott
prese
preside
president
presque
press
pressi
presso
preston
preve
prevesc
prezipitazions
price
prie
priera
priesc
priest
prignitz
prijunieres
prim
prima
primes
primiziant
primordiala
primorski
prims
prince
princeton
principe
prinoth
prinz
prinze
prinzipac
prinzipai
prinzipala
prinzipales
prinzipat
prinzipela
prinzips
prion
prior
priors
prisc
privat
privata
prix
pro
proa
problem
problems
procarioc
proctor
prodigo
produc
produzion
produziun
prof
professe
professor
professur
profet
profondite
program
programa
programm
programs
proiec
proiet
proinzia
projection
promenade
pronunzia
propi
propio
proposta
prosa
prospect
proteses
protest
protestanta
protoladin
prou
prova
provence
proverbi
proves
providence
province
provincia
provinz
provinzia
provinzial
provinziela
provinzies
prozes
prozesc
prozescion
prozesciun
pru
pruca
prucker
prudot
prugger
prum
pruma
prumes
prums
pruscia
pruzescion
ps
psalms
pseudonim
psicologia
pskov
pu
public
publica
publicazion
publicazions
publich
publiche
publicheda
publichei
puciacia
pude
pudeje
pudova
pudra
pudu
pue
pueblo
puec
pueces
puech
puecia
puenc
puent
pueresc
puerto
puez
puezspitzen
pufels
puflatsch
puglia
pulaski
pulitica
pultre
pultret
punt
punta
punte
puntives
puntl
punton
pur
purcel
purciun
purger
purta
purtan
purte
purteda
purtoi
purtoies
purtova
purtruep
puscibl
pusciblta
puscion
puscions
pushmataha
puster
pute
puter
putia
putnam
puy
px
pyeongchang
pyre
pyrmont
pz
q
qu
qua
quagga
quai
quaist
qual
quala
quals
quarto
quay
que
queen
queens
quei
quel
quell
quella
quellas
quels
quentin
quest
questa
qui
quincy
quinta
quist
quista
quitman
r
ra
rabans
rabanser
rac
raccolta
racconti
rachel
racine
racoiu
radio
radiotelevisione
raetia
rafael
ragusa
rai
raida
raijes
raimund
rain
rainbow
rainel
raion
raions
raisa
raisc
raiser
raiun
raiuns
raje
raleigh
ralls
ralston
ram
rames
ramona
ramsey
ran
ranch
ranchettes
ranchitos
rancho
ranchos
randall
randolph
range
rankin
ransom
rapid
rapides
rapids
rapina
raporc
raport
raprejentanc
rapresentazion
rascho
rasmo
rastatt
rata
rathaus
rault
ravalli
ravenna
ravensburg
ravises
ray
raymond
rba
rc
rch
rchen
rda
rde
re
reading
reage
real
realise
realism
reaziun
rec
rechia
recklinghausen
recone
reconesciment
reconesciu
recordanzes
recorde
rect
recune
red
redazion
redentor
redfield
redwood
reed
refer
referat
refere
referime
referiment
reforma
refugio
regen
regensburg
reggio
regina
region
regionale
regionales
regionalverband
regionen
regions
regis
registrazion
regiun
regn
regola
regolara
regole
regoles
regor
regules
rehl
reich
reisigl
reja
rejon
rejona
rejone
rejoneda
rejons
rel
relazion
relaziun
relaziuns
relief
reliefs
relige
religion
religions
religious
religiousa
religiun
religiuns
rembrandt
rems
ren
renaissance
renascime
renasciment
renate
render
rendsburg
reniant
reno
renon
rensselaer
renuveda
renville
repartizion
reperc
representazions
republic
republica
republiches
rer
res
resc
resciesa
rescion
reserve
resi
reside
residents
reson
resort
respet
ressori
ressurezion
rest
resta
restaureda
reste
resteda
restei
restova
resultac
resultat
retesc
retic
retica
retich
retiches
retils
retlam
retoroman
retoromans
retoromontscha
retorumantscha
retrat
retz
reunificazion
reutlingen
reve
reverda
revere
reverendo
reviers
revista
revoluzion
revoluziun
rey
reynolds
rezia
rgb
rha
rhein
rheingau
rheinisch
rheinland
rhin
rho
rhode
ri
ria
riam
rica
rice
riceville
rich
richard
richardson
riche
richebuono
riches
richey
richfield
richland
richmond
richtung
richwood
rico
ridge
ridgecrest
ridgefield
ridgeville
ridgeway
riding
ridl
ridli
rie
ried
ries
rieti
rieux
rifesser
rifesserjb
riffeser
riflessi
rifugio
rigais
right
rigo
rijeda
riley
rimas
rimes
rimini
rin
rina
ringen
ringgold
ringwood
rio
riola
ripley
rising
rita
ritchie
ritten
ritter
riva
river
riverdale
rivers
riverside
riverton
riverview
rives
rivie
riviera
rivulet
rkheim
rkisch
rkischer
rlitz
rm
rma
rme
rmul
rn
rna
rnberg
rnberger
ro
roa
road
roads
roanoke
roba
robbins
robert
roberts
robertson
robeson
robinson
rocca
rocchetta
roch
roche
rochelle
rochester
rock
rockbridge
rockdale
rockford
rockingham
rockland
rockport
rocks
rockville
rockwall
rockwell
rockwood
rocky
roda
rode
rodella
roder
rodes
rodolf
rodolfo
roe
roes
roger
rogers
rogersville
roi
roia
rojo
roland
rolette
rolling
roma
romagn
romagna
romain
roman
romana
romanes
romania
romanich
romanisazion
romano
romans
romantica
romantich
romantics
romantizism
rome
romeo
ron
ronc
ronch
ronco
ronda
rooks
roosevelt
ros
rosa
rosalia
rosar
roscoe
rose
roseau
rosebud
rosedale
roseland
rosemont
rosengarten
rosenheim
roseville
rosius
roslyn
ross
rossa
rossi
rossville
rostock
rostov
rot
rota
rotazism
rotenburg
roth
rottal
rotterdam
rottonara
rottweil
rouge
round
route
rovigo
rovisi
rowan
rowling
roy
royal
royalton
rozes
rra
rrach
rs
rstenfeldbruck
rt
rta
rter
rtes
rth
rtl
rttemberg
ru
rua
ruacia
rubatscher
ruby
rudi
rudiferia
rudolf
rudolfine
rudolstadt
rudy
rue
rueda
ruf
ruhr
ruina
ruines
rujena
rujene
rujeneda
rujenedes
rujneda
rumanc
rumancia
rumanon
rumauntsch
rumi
run
runcac
runcadic
runcaudie
rungaudie
runggaldier
rupert
ruppin
rural
rus
rusc
rusce
ruscel
ruscello
ruscia
rush
rushville
rusina
rusk
russa
russell
russellville
russia
rustlea
rut
ruth
rutherford
rutland
rutledge
ruva
ruvan
ruve
ruveda
ruves
ruvova
ruvun
ry
rye
rz
rzburg
rzjoch
s
sa
saale
saalekreis
saalfeld
saarbru
saarburg
saarland
saarlouis
saarpfalz
sabana
sabedin
sabina
sabine
sabino
sabiona
sac
sach
sacher
sachsen
sacra
sacramento
sacred
sacro
sacun
sad
saddle
saeben
sage
sagen
saginaw
sagra
sai
saimper
sainsom
saint
sainte
saints
saira
saisom
saites
sajon
sajons
sal
sala
sale
salem
salerno
salesei
salieries
salina
salinas
saline
salisbury
salle
salles
salmon
salo
salt
salten
saltillo
saltria
salu
saluda
salut
salva
salvan
salvans
salvari
salvatore
salve
salveres
salzburg
salzlandkreis
salzwedel
samara
sambe
samedan
sammler
sammlung
sampford
sampson
samson
san
sanbe
sanborn
sanc
sanch
sanciana
sand
sanders
sandia
sandoval
sands
sandusky
sandwich
sandy
sanford
sangamon
sanilac
sanin
sanita
sankt
sannio
sannita
sanoner
sanpete
sant
santa
santagenofefa
santee
santi
santiago
santiscima
santner
santo
santuel
sanueva
sao
sapiens
sapu
sar
sara
saral
sarasota
saratoga
saratov
sardegna
sardis
sare
sargent
sarpy
sarte
sarthe
sas
sasc
saslonch
saslong
sasplat
sass
sassari
sasso
sassolungo
sassongher
sassopiatto
sassrigais
satelic
satelit
saturn
saude
saudeies
saudi
sauk
saunders
sauri
saut
sauta
sautaria
saute
sauveur
sava
savage
savannah
save
savigny
savoia
savoie
savon
savona
savova
sawyer
saybrook
sc
scaies
scala
scalemajor
scaleminor
scalieret
scapulier
scarperi
scarpiei
scassada
sce
scebe
sceben
scel
scen
scena
scenes
sceno
scer
sces
sch
scha
schabs
schaumburg
sche
schelet
schenectady
schengen
schenk
schenna
schi
schienboden
schlarigna
schlern
schleswig
schloss
schlu
schmalkalden
schmalzl
schmid
scho
schon
schongau
school
schreiner
schrifttums
schrobenhausen
schu
schutzhu
schuyler
schuylkill
schwa
schwalm
schwandorf
schwarzwald
schweinfurt
schweiz
sci
scia
sciadules
scialdi
sciampe
scibla
sciblota
sciche
scie
scienboden
science
scientifica
scientifich
scienza
scienzes
sciliar
scilie
scilier
scimon
scinca
scinche
scines
scio
scioh
scioldi
scioto
scioz
scipa
sciuz
scizer
scizeri
scizri
sco
scola
scolastich
scole
scoles
scolina
scolines
scomence
scora
scorcio
scores
scotia
scotland
scotoni
scott
scotts
scottsville
scranton
screven
scri
scribner
scric
scrij
scrio
scripta
scrisc
scrit
scrita
scrite
scrites
scrito
scritti
scritura
scriv
scrive
scrivia
scu
scuadra
scuadres
scul
scule
sculeies
sculi
sculte
scultore
scultori
scultura
scultures
scume
scumence
scumencia
scumenciame
scunanza
scuola
scur
scurcia
scurta
scute
se
sea
seabrook
searcy
seaside
seat
seaton
sebald
sebastian
sec
sece
seceda
seco
second
seconda
secondo
section
secue
secui
secul
seculi
secunda
secundo
sedalia
sedan
sedgwick
sedim
sedims
see
seen
seenplatte
sefa
segeberg
segn
segner
segnor
segonda
segondo
segra
segur
segura
segure
segurme
sei
seilbahn
sein
seine
seis
seiser
seiseralm
sela
self
selin
sella
sellagruppe
sellajoch
sellaronda
sellatu
selles
selma
sels
selva
selvafoto
semadeni
semea
semi
seminar
seminole
semper
sempre
sen
seneca
senes
seng
senger
senie
senn
sennes
senoner
senpre
senso
sent
senta
sentadins
sente
senteda
senti
sentiero
sentime
senza
sepl
sepultura
sequoyah
sera
serbia
seria
serie
serighelamoos
serra
served
servi
service
servijes
servisc
ses
sest
sesta
sesto
sestriere
set
sete
setember
settlement
settsass
seuc
seura
seurante
seven
severn
sevier
seville
seward
seymour
sezion
seziun
sfe
sfondo
sgors
sgr
sgrinfles
shade
shady
shakespeare
shamrock
shannon
sharon
sharp
sharpsburg
shasta
shaw
shawano
shawnee
sheboygan
sheffield
shelby
shelbyville
sheldon
shell
shelton
shenandoah
sheridan
sherman
sherwood
shi
shiawassee
shift
shiloh
shirley
shoals
shore
shoreham
shores
shorewood
short
shoshone
shrewsbury
shropshire
si
sia
siand
sibe
siberia
sibley
sich
sicilia
side
sides
sidney
sie
sief
sieg
siegen
siegfried
siela
sieles
siena
sienes
sierra
sies
sieu
sigat
sigmaringen
signal
significat
signor
signur
sigu
sil
silba
siller
silver
silverdale
silverton
silvester
silvia
silvio
simboi
simbol
simbul
similaun
simmler
simon
simona
simpson
sin
sina
sinai
since
singer
singul
singuler
sinistra
sinti
sion
sior
siour
sioux
sir
siracusa
sis
siskiyou
sistem
sistematica
sistems
sisto
sit
site
sittich
situazion
situazions
siu
siur
siusi
six
sizilia
skagit
ski
skiing
sky
skyline
sl
slalom
slargia
slarie
slater
slava
sleepy
slope
slovachia
slovak
sloven
slovenia
sm
smith
smithfield
smiths
smithville
smolensk
smueia
smueies
smyrna
smyth
sn
snel
snohomish
snow
snyder
so
societad
society
socorro
socre
soest
sofia
sogec
soget
sogn
soing
sol
sola
solano
solar
solda
soldas
sole
soler
solit
solo
solon
som
soma
somalia
somavia
some
somea
someia
somers
somerset
somerton
somerville
somie
somme
sommer
son
sona
sondrio
sone
sonja
sonn
sonneberg
sonns
sonoma
sonora
sontheimer
soplajes
sopra
sor
sora
soraga
soraperra
sorapis
sorapiss
sore
sort
sortes
sosta
sostanza
sostanzes
sot
sota
sotanives
sotbosch
sotciastel
sote
sotfamilia
sotite
soto
sotria
sotriffer
sotto
soul
sound
soura
sourantout
sous
south
southampton
southeast
southern
southport
southside
southwest
sovenz
sovietica
sozial
soziala
soziales
soziel
soziela
sozieles
sozieta
soziete
soziologia
spa
spagna
spalding
spania
spanish
spanuel
spare
sparks
sparta
spartanburg
sparti
spartida
spartides
spartii
spartizion
spave
spavente
spe
species
spedel
speed
spencer
sper
speranza
spersa
spescha
spessart
speta
spezia
spezifica
spiedl
spiert
spina
spinalonga
spinel
spinges
spink
spirc
spirit
spirt
spiz
spiza
spize
splighe
spo
spokane
sport
sportif
sprache
spree
spreewald
sprichwo
spring
springdale
springfield
springs
springville
sprint
spus
spusa
square
ss
ssa
ssapescosta
sse
ssel
ssen
sses
ssi
ssps
st
sta
stac
stada
stade
stadion
stadium
stadt
stafeta
stafford
staffordshire
stage
stai
stained
stair
stajova
stala
stamford
stammbuches
stampa
stand
standard
stanfield
stanford
stanislaus
stanley
stanly
stanton
stanwood
stapleford
stapleton
star
stark
starke
starnberg
starr
start
stas
stat
stata
statarticul
state
statela
stateles
states
station
statistiches
statistics
statistik
statistisches
stato
statua
statuc
statues
status
statut
staunton
stavropol
stazion
stazions
ste
stearns
steda
steele
steeple
stefan
stefano
steffan
steger
stein
steinburg
steiner
steinerne
steinfurt
stella
stendal
stephen
stephens
stephenson
ster
sterch
sterling
sterreich
sterreichischen
sterreichisches
sterscia
sterzing
stes
stetteneck
steub
steuben
stevens
stevia
steviola
stewart
stewartsville
steyler
stickney
stiera
stil
stilistica
still
stillwater
stina
stlejuc
stlet
stlop
stlu
stlujuc
stlut
stluta
sto
stockbridge
stockholm
stockton
stoddard
stoke
stokes
stone
stonewall
stony
storia
storica
storicamenter
storich
storiches
storics
stories
storiografia
stormarn
story
stour
stow
strada
stradon
strasburg
stratford
stratton
straubing
stravarde
strawberry
stre
stream
streda
stredes
street
strenta
stretton
stri
stria
stries
strinades
strine
strion
strions
striun
strom
strome
strong
stroto
structure
struga
strume
strumentisc
strutura
strutures
stu
stua
stuart
stude
studesc
studi
studia
studie
studies
studio
study
stuei
stufan
stuffer
stuflesser
sturgeon
sturgis
stutsman
stuttgart
su
sua
sublette
sud
sudafrica
sudan
sudtirol
sue
suenter
suenz
suessen
sueur
suffolk
sugar
sui
sul
sula
sulaz
sule
sull
sulla
sulle
sullivan
sullo
sully
sulphur
sulpice
sulzbach
sum
sume
sumers
summer
summerfield
summerville
summit
sumner
sumter
sun
suna
sunbury
sune
suneria
suneries
sunflower
sunnyside
sunova
sunrise
sunset
suonetti
super
superfamilia
superior
superiore
supli
suplii
sur
sura
surans
sure
sureghes
surrey
surry
sursilvan
susdal
susitna
susquehanna
sussex
suste
susy
sut
sutter
sutton
suve
suvenz
suzedu
suzes
sverdlovsk
svezia
svg
svilup
svilupa
svilupe
svilupea
svilups
svizer
svizera
svizra
svp
swan
swansea
swanton
sweet
sweetwater
swift
sycamore
sylvan
sylvania
syracuse
system
t
ta
tabela
tabernacul
table
tabor
taca
tafel
taft
tag
tai
taibon
tail
taiwan
tal
talbot
tale
talia
taliagn
talian
taliana
talianes
taliani
talians
talladega
tallapoosa
talmage
talmud
tama
tambres
tamil
tammany
tammers
tan
tanc
tanesini
taney
tanf
tang
tangipahoa
tant
tanto
taos
tappeiner
taranto
tardives
tarn
tarrant
tas
tassis
tatar
tatarstan
tauber
taunus
tavella
taylor
taylorsville
tazewell
te
teater
teatri
teatro
teau
teauneuf
tecnica
tecnich
tecniches
tecnologia
tecul
tecumseh
tegni
tegnir
tegnu
tehama
tei
teis
tel
tela
teleferica
teleferiches
teles
televijion
tell
teller
teltow
tema
tematica
tematiches
teme
temp
tempera
temperato
temperatura
temperatures
tempes
tempesta
temple
templeton
tempo
temps
ten
tende
teni
tenida
tenides
teniva
tennessee
tennis
tentativo
teologia
teoria
ter
tera
terac
teramo
teresa
teritore
terme
terni
terra
terrace
terre
terrebonne
terrell
territories
terry
terschak
tersloh
tert
tervela
terz
terza
terzo
tes
tesc
tesino
test
testamaint
testame
testament
testemonianzes
testemunianzes
testi
testimonianzes
testo
tesur
teton
teufelskralle
texas
text
textdata
tg
tgei
tgi
tgia
th
thames
that
thayer
the
thecat
their
themen
theodor
there
they
this
thomas
thompson
thompsonville
thornton
thorpe
three
thu
thumb
thurston
ti
tia
tiberius
ticino
tidom
tie
tieja
tienne
tier
tiera
tieres
tierra
tiers
tierwelt
ties
tieu
tif
tigni
tigris
till
tillamook
tillon
timber
time
timeaxis
tina
tinderla
tioga
tipes
tippecanoe
tipton
tira
tires
tirol
tiroleja
tiroler
tirolesc
tirolischen
tirolo
tirschenreuth
tisens
tishomingo
tita
titelblatt
titul
tituli
titus
titusville
tiumen
tl
tla
tlama
tlameda
tlamei
tlamova
tlass
tlavir
tler
tlera
tles
tlesura
tlima
tlo
tluses
tn
to
toa
tobia
tobias
toblach
toc
toca
toch
todd
tode
todesc
todesch
todescia
tofana
tofane
tofanes
tofla
tofles
tol
toladinischen
toledo
toles
tolland
tolo
tom
toma
tomas
tome
tompkins
tone
toni
tooele
toole
top
topeka
topografica
topon
toponim
toponims
toponomastica
tor
tores
torinese
torino
torna
toromanische
toronto
torrance
torre
torres
torri
torricella
torrington
tors
tosc
toscana
tosescortina
tosi
tot
total
totalite
totemica
tour
touraine
tout
towards
tower
towers
town
towner
townsend
tr
tra
trac
tracy
trade
tradime
tradizion
tradizionalme
tradizioni
tradizions
tradiziun
tradiziunel
tradiziunela
traduzion
traduzions
tragedies
trail
traill
trails
trainer
trains
tramans
tramedoi
tramonto
trani
transport
trapani
trapp
tras
traslate
trasmiscion
trasmiscions
trasport
trat
trata
tratan
tratat
tratazion
trate
trates
tratto
traunstein
travenanzes
travers
traverse
travis
tre
trebinger
trebo
treccani
trecime
tree
trego
trei
treis
tremont
trempealeau
trenker
trent
trenta
trentin
trentino
trento
trenton
tres
tresl
treviso
tribunel
tributary
trier
triest
trimble
trina
trinadeianesc
trinidad
trinita
trinity
tro
troa
trogkofel
trognora
troi
troies
trop
trostburg
trout
troy
tru
trudi
true
truep
truepa
truepes
trueps
trumbull
trun
trupes
ts
tschapit
tscharner
tscher
tschiel
tscho
tsicuta
tt
tta
tte
ttel
tten
tting
ttingen
tu
tua
tubia
tubla
tuca
tucker
tucova
tucson
tude
tula
tulan
tulare
tulova
tulsa
tuma
tume
tumeda
tumei
tunel
tunica
tunnel
tuolumne
tuor
tuot
turchia
turin
turisc
turism
turistica
turitg
turkey
turm
turnade
turne
turner
turond
turont
turtle
tuscaloosa
tuscarawas
tuscola
tustin
tut
tuta
tuts
tutt
tuttas
tutti
tuttlingen
tv
twain
twin
two
tyler
tyne
typak
tyrol
tyrone
tz
tzen
tzenlied
tzer
tzi
u
ubl
ubli
uc
ucajion
ucel
uciei
uckermark
ucraina
ude
udera
udin
udu
ududa
ududes
udui
uedl
uedli
uel
uelas
uele
uelzen
uem
uemes
uf
ufer
ufes
ufizialme
ufiziei
ufiziel
ufiziela
ufizieles
ufizielme
ufs
ugld
ugrister
ui
uinta
uintah
ujep
ujes
ujinanza
ujins
ujo
uk
ul
ula
ulache
ule
ulen
ulenta
ulg
ulm
ulon
ulova
ulrich
ulrike
ulster
ultim
ultima
ultimame
ultime
ultimi
ultimo
ultims
ulu
ulza
um
uma
uman
umana
umanes
umanita
umanite
umatilla
umbria
ume
ums
un
una
und
under
underwood
une
uneranza
uneranzes
unes
unesc
unesco
unfat
ung
ungaria
uni
unic
unica
unida
unides
unieja
unifiche
unii
unika
union
unione
unions
uniontown
unionville
unis
unit
unite
united
uniti
unity
uniun
univa
univel
univers
universal
universita
universite
universiteies
university
unn
unna
unser
unsere
unsplash
unstrut
unter
unterallga
unterbuchfelder
unterholzner
unterland
unterplatzer
until
uomo
upland
upon
upper
upright
upshur
upson
upton
ur
ura
ural
uramer
uran
urante
urapro
urasas
urazions
urban
urbana
urbar
urbino
ure
ures
urganisazion
uridl
urie
urient
urientela
urigin
uriginel
uriginela
urita
urname
urs
ursprung
ursula
ursus
urt
urtije
urtijei
urtisei
urvia
us
usa
usanza
usanzes
usc
usche
used
userkreis
uses
usna
usserve
ustaria
ustaries
ut
uta
utah
utc
ute
utente
utes
utia
utica
utilia
utl
utober
utrecht
uvalde
uzide
uzidentela
uŋ
v
va
vaces
vacia
vade
vael
vahrn
vai
vail
vain
vaina
vair
vais
vajolet
val
valacia
valada
valades
valantin
valch
valdusa
vale
valea
valeda
valedes
valence
valencia
valentia
valentin
valentine
valentini
valentino
valeron
valgamia
valgo
valgu
valgugn
valgun
valguna
valgunes
valguni
valier
valis
valisa
vallader
vallazza
valle
valley
valli
vallon
vallongia
valongia
valor
valores
valova
valparola
valparolapass
vals
valsugana
value
valuta
van
vanas
vance
vancouver
vandalia
vandoies
vangeli
var
varda
varde
vare
varente
varese
varianta
variantes
variazion
variazions
variete
vario
varna
vastle
vater
vatican
vaucluse
vaux
ve
vechta
vede
vedei
veder
vedl
vedla
vedlame
vedle
vedles
vedli
vedu
veduda
veduta
vega
vegas
vegn
vegne
vegni
vegnir
vegniva
vegnu
vegnuda
vegnudes
vegnus
veia
veid
veie
veies
vein
veisc
veit
vejins
vel
vela
velch
velozite
ven
venango
venciu
vende
vendova
vendu
venere
veneta
veneto
venezia
venezian
venice
vent
venter
vento
ventura
venu
venuesta
venus
ver
vera
verb
verbano
verc
vercelli
verde
verden
verdes
verdi
verdings
verdon
vere
veres
vergin
verginer
verlag
verlagsanstalt
vermilion
vermillion
vermont
vernalis
vernel
vernon
vero
verona
veronika
verra
vers
versailles
verscion
version
verso
versuch
vert
vertical
verzeichnis
verzon
ves
vescovo
vescul
vesculi
vest
vester
veta
vetta
vez
vi
via
viac
viadi
vian
vianua
vibo
vic
vicel
vicentino
vicenza
vich
vici
vicino
vicksburg
vico
victor
victoria
victory
vid
video
videsott
vie
viejo
vieli
viena
vienna
vienne
viera
viere
vieres
vieresc
viers
viersch
viersen
vies
vieux
viev
view
vif
vigil
vigilio
vign
vigna
vignes
vigni
vignun
vigo
vii
viii
vijins
vijion
vijita
vijite
vijo
vik
viking
viktor
vila
vilaine
vilas
vile
viles
villa
village
villanderer
villanders
villanova
villas
ville
villefranche
villeneuve
villers
villiers
villno
vin
vinatzer
vinazer
vincent
vincenz
vincenzo
vinci
vineland
vineyard
vining
vino
vinton
vinzenz
vio
viola
violet
vir
vire
virgil
virgin
virginia
virtu
vis
vista
viste
visuela
vit
vita
vital
viterbo
vito
vitoria
vitta
vittorio
vittur
viv
viva
vivasagramoena
vivat
vive
viver
vives
vivova
vivu
vladimir
vna
vo
vocabolar
vocabolario
vocai
vogelsbergkreis
vogelwelt
vogtl
vogtlandkreis
voi
vol
volga
volgograd
voll
vollmann
voltaire
volum
volume
volusia
vom
von
vor
vorarlberg
voronej
vorpommern
vos
vosges
vre
vres
vuel
vulkaneifel
vulpius
vus
w
wa
wabash
wabasha
wabaunsee
waco
wade
wadena
wadern
wadsworth
wagner
wagoner
wahkiakum
wake
wakefield
walcott
wald
waldeck
walden
waldnaab
waldo
waldron
waldshut
wales
walker
wall
walla
wallace
waller
wallingford
wallowa
walnussbaum
walnut
walpole
walpoth
walsh
walter
waltham
walther
walton
waltraud
walworth
wandfresko
wang
wapello
ward
ware
warendorf
warm
warren
warrenton
warsaw
wartburgkreis
warwick
warwickshire
was
wasatch
wasco
washburn
washington
washita
washoe
washtenaw
watauga
water
waterford
waterloo
watertown
waterville
watkins
watonwan
watson
waukesha
waupaca
waushara
waverly
way
wayland
wayne
waynesboro
waynesville
weakley
wear
web
webb
weber
weblinks
webster
weekly
weger
weilburg
weilheim
weimar
weimarer
weinstraße
weiss
weißenburg
welch
welcome
weld
weldon
well
wellington
wells
wellston
wellsville
welponer
welschellen
welt
welton
wendel
wengen
wenneker
wentworth
were
werke
werner
werra
wert
wesel
weser
wesermarsch
wesley
west
westbrook
westbury
westchester
western
westerwald
westerwaldkreis
westfalen
westfield
westlake
westminster
westmont
westmoreland
weston
westover
westphalia
westport
westville
westwood
wetteraukreis
wetzel
wexford
wharton
whatcom
wheatland
wheatley
wheaton
wheeler
which
whitchurch
white
whitehall
whitesboro
whiteside
whitewater
whitfield
whiting
whitley
whitman
whitmore
whitney
whittier
whitwell
wichita
wicomico
width
wie
wien
wight
wiki
wikidata
wikimedia
wikipedia
wikiquote
wikisource
wikiversity
wilburton
wilcox
wild
wilder
wildwood
wilhelm
wilkes
wilkin
wilkinson
will
willacy
willard
willeit
willi
william
williams
williamsburg
williamson
williamsport
williamstown
williston
willoughby
willow
willows
willy
wilmington
wilson
wilsonville
wilton
wiltshire
wimmer
winchester
wind
windham
window
windsheim
windsor
winfield
wing
wingate
winn
winnebago
winneshiek
winnsboro
winona
winslow
winston
winter
winterborne
winterbourne
winthrop
winton
wir
wisconsin
wise
wissenschaften
with
withdrawal
within
witt
wittenberg
wittgenstein
wittlich
wittmund
wka
wo
wohlgemuth
wold
wolf
wolfenbu
wolff
wolfgang
wolfratshausen
wolkenstein
wood
woodard
woodbine
woodburn
woodbury
woodford
woodland
woodlawn
woodruff
woods
woodside
woodson
woodstock
woodville
woodward
wootton
worcester
worcestershire
world
worms
worth
worthington
wright
wrightsville
wu
wunsiedel
www
wyandot
wyandotte
wye
wyoming
x
xi
xii
xiv
xix
xls
xter
xv
xvi
xviii
xx
y
yabucoa
yadkin
yakima
yale
yamhill
yankee
yankton
yarmouth
yates
yavapai
yazoo
ye
yell
yellow
yellowstone
yolo
yonne
york
yorkshire
yorktown
yorkville
you
young
youngsville
yuba
yukon
yuma
yvelines
z
za
zacan
zaccaria
zacchia
zacchiagb
zacharias
zachei
zaita
zaites
zakan
zallinger
zambelli
zandle
zandli
zandt
zanesville
zanna
zapata
zar
zara
zarat
zardini
zareda
zbergli
ze
zebra
zeche
zeder
zeeland
zeitschrift
zell
zelula
zelular
zelulara
zelules
zeno
zent
zenter
zentrala
zentrel
zentrela
zenz
zenza
zephyrhills
zeremoniela
zerto
zeruch
zes
ziclus
zidle
zie
ziel
ziers
zinnen
zion
zipla
ziplade
ziple
zipleda
zipledes
ziplei
ziplova
ziprian
zirca
zirm
zirme
zirmes
zita
zitadin
zite
ziteies
zivilte
zo
zoldo
zollernalbkreis
zona
zones
zoruch
zu
zuid
zum
zuoz
zur
zurich
zwei
zwickau
zwischen
|
}
~
¡
©
ª
«
­
°
±
²
³
´
µ
¶
·
º
»
×
ß
æ
ŋ
ŋs
ʒ
ʲ
ʼ
ʾ
ʿ
ˈ
ː
˛
̀
́
̂
̃
̄
̆
̇
̈
̊
̋
̌
̓
̔
̠
̣
̤
̥
̦
̧
̨
̮
͂
α
ι
ν
ο
ρ
ς
υ
беларусь
в
года
д
е
и
кемеровскои
краи
на
населения
начало
о
области
область
округ
республика
ск
федеральныи
численность
ְ
ַ
ָ
ּ
ד
ה
ל
מ
ש
ت
ع
ل
ه
َ
ِ
ّ
ْ
ٔ
ܐ
ܫ
ܲ
ܵ
ܿ
द
ब
र
ल
श
स
ा
ि
ु
ू
े
्
ব
র
ল
া
ু
ে
্
ு
்
ಕರ
ಟಕ
ನ
ಾ
್
་
།
བ
ལ
ུ
ེ
င
ု
်
​
‎
‑
‒
–
—
‘
’
‚
“
”
„
†
•
…
′
″
‹
›
€
ℙ
→
↓
↔
↷
−
③
④
⑦
ⓓ
ⓔ
ⓘ
ⓜ
ⓟ
ⓣ
◇
☾
♀
♂
♄
♆
⺀
⺄
⺆
⺈
⺊
⺌
⺕
⺝
⺸
⺼
⿰
⿱
⿲
⿳
⿴
⿵
⿶
⿷
⿸
⿹
⿺
⿻
〢
゙
ア
コ
シ
タ
テ
ト
ナ
ニ
ハ
フ
メ
ユ
ラ
ル
ン
ー
㇁
㇂
㇄
㇇
㇈
㇉
㇓
㐁
㐄
㐅
㐌
㐫
㐬
㐭
㐮
㐱
㑒
㒵
㒸
㒼
㓁
㓞
㔾
㕛
㕣
㖾
㘝
㚅
㚇
㚔
㚘
㝉
㝡
㝴
㝵
㞋
㞢
㞷
㠩
㠭
㠯
㡀
㡭
㡿
㢲
㢴
㣇
㣺
㥯
㪅
㫄
㫐
㫒
㫺
㬅
㬎
㬥
㬰
㲋
㳄
㷠
㸒
㸚
㸦
㼌
㼲
㽞
㿟
䀠
䂞
䍃
䏍
䒑
䖍
䖒
䖝
䖵
䙴
䚻
䜌
䝿
䡛
䧹
䪞
一
丁
丂
七
丄
丅
丆
万
丈
三
上
下
丌
不
与
丏
丐
丑
专
且
丕
世
丘
丙
业
东
丞
丢
丣
两
严
並
丨
丩
个
丫
丬
中
丮
丰
丱
串
丵
丶
丷
丸
丹
为
主
丽
丿
乀
乂
乃
久
乆
乇
么
义
之
乌
乍
乎
乏
乐
乑
乔
乖
乗
乘
乙
乚
乛
乜
九
乞
也
习
乡
乳
乾
亀
亅
了
亇
予
争
事
二
亍
于
亏
亐
云
互
亓
五
井
亘
亚
亜
亞
亟
亠
亡
亢
交
亥
亦
产
亨
亩
享
京
亭
亮
亯
亰
亲
亳
亶
亷
人
亻
亼
亾
仁
今
介
仌
从
仐
仑
仒
仓
仕
他
付
仝
代
令
以
任
企
伊
伏
伐
休
会
伯
但
位
何
佘
余
作
佥
使
來
侈
侌
侖
侯
侵
便
俄
保
俞
信
修
倉
倍
候
倠
備
僉
僕
儿
兀
允
兂
元
兄
充
兆
兇
先
光
兊
克
兌
免
兑
兒
兓
兔
党
兜
兟
入
全
兩
兪
八
公
六
兮
兰
共
关
兵
其
具
典
兹
兼
冀
冂
冃
冄
内
冈
冉
冊
冋
册
再
冎
冏
冐
冒
冓
冖
冗
冘
军
农
冝
冡
冥
冫
冬
冷
几
凡
凢
凵
凶
凷
凸
凹
出
函
凾
刀
刁
刂
刃
刄
刅
分
切
刍
刑
刕
刖
列
刘
则
初
別
利
别
到
制
刺
則
削
剌
前
剡
剽
劉
力
功
加
劦
助
劫
劳
劵
勃
勇
勉
勒
動
務
勞
勤
勹
勺
勻
勾
勿
匀
匂
包
匆
匈
匊
匋
匍
匕
化
北
匚
匝
匡
匪
匱
匸
匹
区
医
匽
匿
區
十
卂
千
卄
卅
卆
升
午
卉
半
卌
华
卑
卒
卓
单
卖
南
卜
卝
卞
占
卡
卢
卣
卤
卦
卩
卪
卬
卯
印
危
即
却
卵
卷
卸
卻
厂
厃
厄
历
厈
厉
厌
厓
厘
厚
原
厤
厥
厨
厭
厲
厶
厷
厸
去
厼
厽
叀
参
參
叅
又
叉
及
友
双
反
叐
发
叒
叔
叕
取
受
叚
叜
叟
口
古
句
另
叩
只
召
可
台
叱
史
右
叵
号
司
叹
吂
各
吅
合
吉
吊
吋
同
名
后
吏
向
吕
君
吝
吞
否
含
启
吳
吴
吹
吾
呂
呆
呈
告
员
呙
周
命
咅
和
咎
咠
咢
咨
咸
咼
哀
品
哉
員
哥
哲
唐
商
啇
問
啚
啬
啻
善
喜
喬
單
喿
嗇
噩
嚴
囊
囗
囘
囙
囚
四
回
囟
因
囧
囬
困
囱
囷
固
国
圂
圅
國
圍
圓
土
圡
圣
圥
在
圭
地
圶
圼
坐
坒
坚
坴
垂
垔
垚
埀
埋
城
埶
執
基
堂
堅
堆
堇
堯
塞
墨
壘
士
壬
壯
声
壳
壴
壹
壺
壽
夂
处
夅
夆
备
夊
夋
夌
复
夏
夒
夕
外
夗
夘
多
夜
夢
大
夨
天
太
夫
夬
夭
央
失
夲
头
夷
夸
夹
夻
夾
奂
奄
奇
奈
奉
奎
奏
奐
契
奓
奔
奚
奞
奠
奢
奥
奭
女
奴
奻
好
如
妄
妙
妟
妥
妻
妾
姑
委
姜
威
娄
婁
婴
嬰
嬴
子
孑
孔
孕
孖
字
存
孚
孛
孝
孟
季
孤
学
孫
孱
學
宀
宁
宂
它
宅
宇
守
安
宋
完
宏
宓
宗
官
定
宛
宜
宝
客
宣
室
宮
宰
害
家
容
宾
宿
寄
寅
密
富
寒
察
寧
審
寫
寬
寮
寸
对
寺
寻
寽
対
寿
封
尃
射
将
將
專
尉
尊
尋
尌
對
小
少
尒
尓
尔
尖
尗
尚
尞
尢
尣
尤
尧
尨
尭
就
尸
尹
尺
尻
尼
尽
尾
尿
局
居
屈
屋
屎
屏
屑
展
屖
屚
属
屠
屡
屬
屮
屯
屰
山
屵
屾
岁
岂
岑
岡
岩
岳
岸
峯
島
崇
崑
崔
崖
崙
崩
嵬
嶲
巂
巛
川
州
巟
巠
巢
巤
工
左
巧
巨
巩
巫
差
己
已
巳
巴
巷
巸
巽
巾
巿
帀
市
布
希
帚
帛
帝
带
師
席
帶
常
干
平
年
幵
并
幷
幸
幺
幻
幼
幽
幾
广
広
庄
床
底
店
庚
府
度
庫
庭
庶
康
庸
廉
廌
廛
廣
廩
廴
延
廷
建
廾
廿
开
弁
弃
弄
弇
弋
式
弓
弔
引
弗
弘
弜
弟
弥
弦
弱
張
強
强
彊
彌
彎
彐
彑
当
彔
录
彖
彗
彡
形
彥
彦
彧
彭
彳
役
彼
往
待
律
徒
得
徙
從
復
微
徵
心
忄
必
忌
忍
志
忝
忠
忩
快
念
忽
忿
思
怠
急
怱
恆
恒
恩
恭
息
悉
患
悤
悲
悶
惠
惡
惢
愁
愈
意
愛
感
慈
慧
慮
憂
憲
應
戀
戈
戉
戊
戋
戌
戍
戎
成
我
戒
戔
或
戚
戠
戢
截
戲
戶
户
戹
戼
戾
房
所
扁
扇
手
扌
才
打
托
执
承
折
拉
拜
拿
掌
推
提
摩
支
攴
攵
收
攸
改
放
政
敄
敏
敕
敖
敗
敝
敞
敢
散
敦
敫
敬
数
敷
數
斂
文
斉
斊
斗
斤
斥
斩
斬
斯
新
方
於
施
斿
旁
旋
族
无
旡
既
旣
日
旦
旧
旨
早
旬
旱
旲
时
旾
昆
昇
昌
昍
明
昏
易
昔
昗
昜
星
春
昬
是
昱
昴
昷
時
晃
晋
晏
普
景
晶
智
暑
暴
曇
曩
曰
曲
曳
更
曷
書
曹
曼
曾
替
最
朁
會
月
有
朋
服
朔
朕
朗
望
朝
木
朩
未
末
本
札
朮
术
朱
朵
朶
朿
杀
杏
杜
束
条
来
東
杲
杳
松
析
林
枚
果
枝
枲
枼
某
柔
查
柬
柰
柴
栗
桀
桑
桼
梁
條
梟
梨
棘
棠
棥
森
楚
業
楽
榮
樂
樊
欠
次
欣
欮
欲
欶
欽
款
歆
歇
歛
止
正
此
步
武
歨
歪
歮
歯
歰
歲
歴
歷
歸
歹
歺
死
殳
段
殷
殸
殹
殺
殻
殿
毋
毌
母
每
毒
比
毕
毚
毛
毳
氏
氐
民
气
氣
水
氵
氶
氷
永
氺
氾
求
汉
汝
汞
江
沃
沓
沙
沝
泉
法
波
泣
泥
泰
洛
洪
活
派
流
浦
浪
浮
淡
淮
清
渚
渠
湯
滿
漢
漸
火
灬
灭
灰
灵
灷
炅
炎
炏
炗
炙
炭
為
烈
烏
烝
焉
無
焦
焱
然
煞
熊
熏
燕
營
燮
爪
爫
爭
爯
爰
爱
爲
爵
父
爻
爽
爾
爿
片
牙
牚
牛
牜
牟
牢
牧
牪
牽
犀
犬
犭
犮
狂
狄
狊
独
狺
猋
猒
猪
献
獻
玄
率
玉
王
玟
玨
珎
班
琴
瑟
瑩
瓜
瓦
甘
甚
生
産
用
甫
甬
田
由
甲
申
电
甶
男
甸
甹
画
甾
畀
界
畏
畐
留
畜
畟
畢
畧
畨
番
畫
異
畱
當
畺
畾
疊
疋
疌
疑
疒
疾
癶
癸
癹
登
發
白
百
皀
皃
的
皆
皇
皋
皐
皕
皮
皷
皿
盃
盆
盇
盈
益
盍
盎
监
盒
盖
盛
盡
監
盤
盧
目
直
相
盾
省
眇
眉
看
眔
眞
真
眷
眼
眾
着
睘
睪
睿
瞏
瞢
瞿
矍
矛
矞
矢
矣
知
矦
短
石
破
碎
磊
磨
示
礻
礼
祟
票
祭
禀
禁
福
禸
禹
禺
离
禽
禾
禿
秀
秃
秉
秋
科
秝
秦
移
稟
穀
穌
穴
究
穹
空
穿
突
窄
窒
立
竒
竜
竝
竟
章
童
竹
笑
笠
筆
等
答
箕
算
箴
節
篤
篭
米
粉
粛
粟
粤
粦
粲
糞
糸
糹
系
約
納
素
索
紫
累
細
絜
絫
絲
維
綿
縣
繇
纍
纟
缶
网
罒
罔
罕
罗
罙
罡
罢
罪
署
罷
羅
羊
羌
羍
美
羔
羕
羗
羞
羡
羣
群
義
羲
羸
羽
翁
翏
習
翕
翟
翠
翼
老
耂
考
者
耆
而
耎
耑
耒
耳
耴
耶
耷
聂
聊
聖
聚
聶
聿
肀
肃
肅
肉
肖
肙
肥
肩
肯
育
肴
胃
背
胡
胥
能
脊
脩
膚
臣
臤
臧
自
臬
臭
臯
臱
至
致
臺
臼
臽
臾
臿
舀
舂
舄
與
興
舉
舌
舍
舛
舜
舞
舟
般
艮
良
色
艸
艹
艾
芒
芔
芬
芮
花
芳
芺
芻
苔
苗
苟
若
苦
英
茶
茸
荅
草
荒
荣
荼
莆
莧
莫
莽
菆
菊
菐
華
萬
落
葉
著
葛
董
葵
蒙
蒦
蒼
蓋
蓬
蓺
蔑
蔡
蕉
蕭
薄
薛
薦
薰
藍
藏
藥
蘭
虍
虎
虐
虒
虔
處
虖
虗
虘
虚
虛
虜
虞
虫
虽
蚤
蚩
蜀
蜜
蟲
蠡
血
行
衍
衛
衣
衤
表
衮
衰
袁
袞
褭
褱
襄
襾
西
覀
要
覃
見
規
覓
覧
親
覽
见
角
解
言
訁
訇
計
詹
誩
諸
讠
谷
豆
豈
豊
豐
豕
豖
豙
象
豦
豩
豪
豸
貇
貝
貞
貟
負
貢
貧
貪
貫
責
貳
貴
買
費
賁
資
賈
賏
賓
賔
賛
賞
賢
賣
質
賴
贊
贝
贡
责
贯
贲
贵
赖
赞
赤
赦
走
越
足
路
蹇
身
躬
車
軍
軎
軟
輦
车
辛
辜
辟
辥
辰
辱
農
辵
辶
边
达
过
近
连
迷
追
退
送
逆
逐
通
速
造
逢
連
逮
進
遀
遂
過
道
達
遣
適
遷
遺
邊
邑
邕
那
邦
邪
郎
部
郭
都
鄉
酉
酋
配
酓
釆
采
里
重
野
量
金
釒
錢
钅
長
镸
长
門
閃
閉
開
閏
閑
閒
間
閔
閵
閻
闌
门
间
闷
阑
阜
阝
阿
降
陳
隆
隊
隋
隡
隨
隱
隶
隹
隺
隻
隼
隽
难
雀
雁
集
雈
雋
雍
雐
雔
雙
雚
雜
雝
離
難
雨
雩
雪
雲
零
雷
需
霍
霜
霝
霞
霸
靈
靑
青
非
靡
面
靣
革
韋
韦
韭
韯
韱
音
頁
頃
項
須
頗
頡
頻
顛
页
風
风
飛
飞
食
飠
養
饣
首
香
馬
馮
駦
马
骨
高
髟
鬥
鬯
鬲
鬼
魚
魯
鮮
鱼
鲁
鳥
鳳
鸟
鹵
鹿
麃
麗
麥
麦
麻
黃
黄
黍
黎
黑
黒
黨
黹
黽
黾
鼎
鼓
鼠
鼻
齊
齋
齐
齒
齿
龍
龙
龜
龟
龠
龰
龱
龴
龵
龶
龷
龸
龹
者
艹
﻿
？
𠀁
𠀃
𠀆
𠀉
𠀎
𠀐
𠁁
𠁣
𠂆
𠂇
𠂈
𠂉
𠂊
𠂋
𠂎
𠂒
𠂔
𠂛
𠂡
𠂢
𠂤
𠂬
𠂭
𠂹
𠃊
𠃋
𠃌
𠃍
𠃎
𠃑
𠃓
𠃔
𠃜
𠄌
𠄎
𠄠
𠄢
𠆢
𠆥
𠇍
𠈌
𠌵
𠓜
𠔉
𠔥
𠔼
𠔽
𠔿
𠕀
𠕁
𠕋
𠘧
𠘨
𠙻
𠙼
𠚏
𠚒
𠚤
𠚪
𠣏
𠤎
𠤕
𠥓
𠦄
𠦑
𠦝
𠧒
𠧗
𠧪
𠩺
𠪚
𠫓
𠫔
𠫤
𠬛
𠬝
𠬞
𠬢
𠬤
𠬶
𠮛
𠮦
𠮷
𠯑
𠱠
𠳮
𠷎
𡈼
𡉀
𡉵
𡌥
𡍮
𡏳
𡕒
𡕩
𡕰
𡖅
𡗗
𡗜
𡘆
𡘤
𡧱
𡨄
𡩧
𡬠
𡭽
𡰣
𡰥
𡰪
𡰯
𡰱
𡷈
𡸁
𡿨
𡿩
𡿪
𡿺
𢀖
𢀛
𢀩
𢁙
𢆉
𢆰
𢆶
𢇁
𢇇
𢉖
𢌬
𢌿
𢏚
𢑑
𢑚
𢖻
𢙣
𢛳
𢦏
𢦒
𢧵
𢼄
𢾕
𣁋
𣄼
𣅀
𣅽
𣍘
𣎳
𣎵
𣏋
𣏼
𣗥
𣥂
𣥖
𣦵
𣦼
𣧄
𣪊
𣪠
𣬉
𣳾
𣶒
𤇾
𤊽
𤐫
𤓰
𤔔
𤕨
𤣩
𤰇
𤰔
𤰞
𤴓
𤴔
𤽄
𥁑
𥁕
𥃦
𥃩
𥃭
𥇡
𥑟
𥘅
𥘈
𥝢
𥫗
𥱡
𦈢
𦉪
𦉬
𦉼
𦍌
𦍒
𦎧
𦐇
𦓔
𦔮
𦘒
𦙃
𦚏
𦣝
𦣞
𦣻
𦥑
𦥔
𦥯
𦨉
𦭝
𦰩
𧆞
𧈧
𧘇
𧰨
𧴪
𧴮
𧵩
𧾷
𨸏
𨾴
𩙿
𩠐
𩫏
𩵋
𪉷
𪜀
𪟽
𪠲
𪩲
𫇦
𫔭
𫜸
𫝀
𫠣
𫠩
𫢉
𫥞
𫩏
𫩠
𫪡
𫲽
𫶧
𬀷
𬐘
𬗌
𬙙
𬛸
𬜯
𬟩
𬯁
𬴘
𬺻
𬼉
𬼖
𭀰
𭁈
𭁨
𭅰
𭑈
𭕄
𭗼
𭤨
𭥫
𭻾
𮅕
𮊿
𮍌
𮍏
𮓗
𮥼
𮧮
廾
𰀁
𰀄
𰀈
𰀉
𰀕
𰀠
𰀡
𰀢
𰀪
𰁜
𰃮
𰆊
𰆘
𰋙
𰕎
𰢴
𰧭
𰯲
00--
01--
02--
06--
08--
09--
111--
21293--
229--
26--
31--
32--
35--
36--
38--
39--
42--
44--
45--
46--
48--
49--
50--
51--
52--
54--
56--
57--
58--
60--
61--
64--
69--
70--
72--
73--
74--
76--
77--
78--
79--
80--
81--
82--
84--
86--
88--
89--
90--
95--
96--
97--
98--
a--
aa--
ab--
abu--
ac--
acade--
ack--
aco--
acompag--
acu--
acum--
acus--
ad--
ada--
ade--
adel--
ado--
adro--
ae--
af--
ag--
aga--
agri--
ah--
ai--
air--
aji--
ak--
ake--
al--
ala--
alb--
ald--
alder--
ale--
alg--
ali--
all--
allgem--
alm--
als--
alt--
alta--
alten--
am--
ama--
ami--
ammer--
amp--
an--
ana--
and--
anna--
ans--
ant--
antro--
anz--
ap--
apfe--
apli--
apo--
app--
aqua--
ar--
ara--
arband--
arc--
archeologi--
are--
argen--
argo--
arha--
ari--
arji--
ark--
arm--
arme--
arn--
aro--
arpe--
ars--
arte--
arti--
artifi--
arz--
as--
ash--
aso--
astro--
astu--
at--
ates--
atra--
atu--
au--
auf--
aul--
aus--
aut--
auto--
av--
ava--
ave--
ax--
ay--
az--
b--
ba--
bab--
babi--
back--
bad--
bag--
bagn--
bai--
bal--
ball--
ban--
banc--
bar--
bard--
barn--
bas--
batal--
batt--
bau--
baum--
bay--
be--
beau--
bec--
bed--
bee--
bei--
bel--
bell--
belle--
ben--
ber--
berg--
bern--
berry--
beson--
beth--
bey--
bi--
bib--
bick--
bid--
bie--
bielo--
big--
bil--
bin--
bio--
bir--
birn--
bis--
bl--
bla--
black--
blanken--
ble--
blo--
bloom--
blue--
bly--
bo--
bob--
bod--
boe--
boll--
bolo--
bon--
bona--
bond--
bor--
bos--
bou--
boule--
bous--
bow--
boy--
boz--
bra--
brad--
bram--
bre--
brego--
brenn--
bri--
bridg--
brig--
brim--
brin--
brix--
bro--
broad--
brock--
broom--
brown--
bru--
bry--
bu--
buc--
buck--
bul--
bun--
bur--
burg--
bus--
bux--
by--
c--
ca--
cabar--
cac--
cado--
cai--
cal--
cam--
camb--
camo--
camp--
campo--
can--
cana--
cap--
capaz--
capi--
capo--
capuz--
car--
carpe--
cas--
casal--
cast--
casta--
castel--
cate--
cathe--
cau--
cava--
cay--
caz--
ce--
cel--
cele--
celes--
cen--
cer--
cerch--
ces--
cey--
ch--
cha--
chal--
char--
chat--
chats--
che--
chel--
chi--
chia--
chick--
chil--
chilo--
cho--
chr--
chu--
ci--
cia--
ciado--
cie--
cin--
cio--
cir--
ck--
cla--
classi--
clax--
clay--
cle--
cli--
clo--
clu--
co--
coal--
cod--
cog--
cogno--
coi--
col--
colabora--
cold--
cole--
colon--
com--
combi--
con--
confu--
conserva--
contra--
cor--
coreo--
cores--
corn--
cos--
cou--
cour--
cow--
coy--
cr--
cran--
cre--
cres--
cri--
cria--
cro--
crom--
cross--
crox--
cru--
cu--
cue--
cul--
cum--
cun--
cune--
cup--
cur--
cures--
cut--
cy--
cyc--
d--
da--
dahl--
dal--
dale--
dam--
dan--
dar--
das--
dau--
day--
daz--
dc--
de--
dea--
deca--
decoraz--
dejes--
del--
dela--
deli--
dell--
dem--
den--
der--
des--
desc--
desla--
deter--
devo--
devoz--
di--
dia--
die--
differ--
dig--
digita--
din--
dio--
dis--
dl--
dla--
do--
dob--
doc--
dod--
dol--
dolo--
dom--
don--
dor--
dorn--
dou--
down--
doy--
dr--
dre--
dri--
drome--
drum--
dry--
dt--
dtirol--
du--
dul--
dun--
dur--
dut--
dy--
dyna--
e--
ea--
east--
ebers--
ec--
eccle--
eck--
econ--
ed--
edge--
educ--
ef--
eg--
egiz--
eh--
ehren--
ei--
ein--
eis--
eisen--
eje--
el--
elec--
elep--
elet--
elk--
ell--
ellis--
elm--
els--
ely--
em--
emb--
emi--
emo--
emp--
en--
end--
ent--
ep--
ephr--
epp--
er--
erlen--
es--
esca--
esiste--
esplora--
est--
et--
eu--
eura--
euro--
eva--
eve--
ex--
ey--
ez--
ezez--
f--
fa--
fab--
fai--
fair--
fal--
falk--
fam--
fan--
far--
farm--
fas--
fau--
faw--
fe--
fel--
feld--
feli--
fen--
fer--
festi--
feu--
fi--
fia--
fie--
fif--
fig--
figliol--
fil--
fila--
fin--
fina--
fio--
fis--
fisch--
fitz--
fl--
fla--
fle--
flet--
flo--
flu--
fo--
fol--
fond--
fontan--
fonte--
for--
fos--
fou--
fox--
fr--
fra--
fre--
free--
frem--
fri--
friends--
fruit--
fry--
fu--
ful--
g--
ga--
gad--
gala--
gali--
gall--
gamb--
gar--
gas--
gau--
ge--
gea--
gedenk--
gem--
gen--
genit--
geo--
geolo--
ger--
ghe--
ghi--
ghiac--
gi--
gia--
gian--
giar--
gie--
gil--
gill--
gio--
gipfel--
gir--
giu--
giubi--
giudi--
gl--
glad--
glas--
glen--
gli--
glor--
gn--
gni--
go--
god--
gol--
gold--
good--
gor--
gos--
goti--
gott--
gou--
gow--
gr--
gra--
grab--
grain--
gramati--
gran--
grand--
gras--
gray--
gre--
green--
grey--
gri--
grif--
grim--
gro--
groß--
gru--
gse--
gu--
gua--
guar--
gue--
gui--
gul--
gur--
guy--
h--
ha--
hack--
had--
hai--
hal--
hall--
hals--
ham--
hamm--
han--
hand--
hans--
har--
hara--
hart--
harts--
has--
hau--
haup--
haw--
hay--
he--
hec--
hed--
heilig--
heimat--
hel--
hen--
her--
herb--
herm--
hern--
hers--
heu--
hey--
hi--
hia--
hie--
high--
hil--
hild--
hill--
hins--
hl--
ho--
hob--
hoch--
hod--
hof--
hol--
hold--
holl--
holz--
holzs--
holzschni--
home--
hoo--
hop--
hope--
hor--
horn--
hors--
hoy--
hr--
hu--
hump--
huns--
hur--
hy--
i--
ia--
iag--
ian--
ic--
id--
ida--
ident--
ie--
if--
ig--
ign--
ij--
il--
ilde--
illus--
ilus--
im--
imac--
in--
ina--
inc--
indi--
indicaz--
infra--
ing--
ingl--
iniz--
inn--
ins--
inter--
interpreta--
inz--
io--
ipo--
ir--
is--
iscri--
ise--
iso--
ist--
it--
ita--
iu--
iv--
j--
ja--
jac--
jag--
jan--
jar--
je--
jen--
jes--
jeu--
ji--
jo--
jomel--
jon--
jou--
ju--
jumb--
jun--
k--
ka--
kal--
kam--
kand--
kar--
katholi--
ke--
kea--
kel--
ken--
kenn--
kent--
ker--
ket--
kewa--
key--
ki--
kil--
kill--
kin--
kinder--
king--
kirch--
kirchen--
kirk--
kit--
kla--
kle--
know--
ko--
kol--
kra--
kre--
kreis--
kri--
kron--
kru--
ku--
kul--
ky--
l--
la--
lac--
lad--
lake--
lamo--
lamp--
lan--
land--
lang--
langen--
lar--
las--
lat--
lau--
laute--
lav--
law--
lay--
laz--
le--
lea--
lec--
led--
lee--
leg--
lei--
leim--
len--
les--
let--
ley--
lez--
lg--
li--
lie--
lil--
lill--
lin--
lit--
lizo--
ll--
lo--
lock--
logan--
loh--
long--
los--
lou--
love--
low--
lox--
loy--
ls--
lu--
luc--
lud--
lum--
lus--
lux--
ly--
lyd--
lyn--
lynd--
lynn--
m--
ma--
mac--
mack--
mag--
magi--
magni--
mai--
main--
maj--
mal--
man--
mani--
mar--
marien--
mary--
mat--
mate--
mau--
maul--
max--
may--
mayer--
maz--
mb--
mc--
mcc--
mcca--
mcfar--
mck--
mcn--
me--
mead--
meg--
mel--
men--
mer--
merca--
mes--
mesa--
met--
meta--
mey--
mi--
mick--
micr--
microf--
mid--
mil--
mili--
mill--
min--
mini--
mir--
mira--
mire--
mis--
mit--
mito--
mittel--
mo--
mobi--
mof--
mol--
mole--
mon--
mona--
mond--
mono--
mont--
monte--
moor--
moore--
mor--
more--
mors--
mos--
moss--
mou--
mous--
moy--
mp--
mpe--
mper--
mu--
muc--
mul--
mun--
mur--
mus--
my--
n--
na--
nach--
nan--
nar--
nas--
nau--
navi--
naz--
nc--
nd--
ne--
need--
nei--
nen--
neo--
ner--
nes--
net--
neu--
new--
nfe--
ng--
ni--
nia--
nie--
nieder--
nig--
nigs--
nil--
nis--
nji--
nn--
no--
non--
nor--
nord--
north--
not--
nou--
novo--
noy--
ns--
nt--
nter--
ntit--
nu--
num--
nun--
nuo--
nw--
ny--
nz--
o--
oa--
oak--
ob--
ober--
oc--
occa--
occi--
of--
og--
oh--
ok--
oka--
oke--
ol--
ola--
old--
oli--
olimp--
oll--
olo--
om--
on--
ona--
one--
op--
opp--
opz--
or--
ora--
ore--
org--
ori--
os--
osa--
osl--
ospe--
osser--
ost--
oster--
ot--
ou--
our--
over--
owens--
ox--
oy--
oz--
p--
pa--
pack--
pag--
pai--
palm--
pan--
par--
para--
pare--
park--
pas--
pat--
pau--
paz--
pe--
pea--
pedr--
pel--
pelegr--
pen--
pend--
penn--
pens--
pent--
per--
persuna--
pes--
peti--
petro--
pett--
pey--
phi--
phil--
phy--
pi--
pia--
pic--
pid--
pie--
pier--
pil--
pin--
pine--
pio--
piram--
pit--
pits--
pitt--
pitts--
piz--
pla--
plan--
platts--
ple--
pli--
plo--
plou--
plu--
pluri--
po--
poi--
pol--
pon--
pont--
pop--
por--
pos--
post--
pou--
pow--
poy--
pra--
pre--
pred--
prei--
pri--
princi--
pro--
proc--
promo--
prop--
pru--
pry--
pu--
puc--
pud--
pul--
pur--
puscibi--
pusiz--
puy--
py--
q--
qu--
qua--
que--
qui--
r--
ra--
rab--
rac--
rad--
raf--
rai--
ram--
rams--
ran--
rapre--
raprese--
raven--
ravens--
raw--
ray--
rc--
re--
rec--
red--
reeds--
refu--
regu--
reh--
rei--
rein--
rel--
reli--
ren--
res--
respu--
ressu--
rex--
rez--
rhe--
ri--
ria--
ric--
rich--
ridg--
rie--
rif--
rig--
rin--
ring--
rinoz--
ris--
river--
rn--
ro--
roa--
robi--
roc--
rocca--
rock--
rod--
roe--
rohr--
roju--
rom--
ron--
roque--
ros--
rose--
rosen--
ross--
rot--
roth--
rou--
rous--
row--
rox--
roy--
rren--
rs--
rsch--
rter--
ru--
rubi--
rud--
ruf--
rug--
run--
rung--
rus--
rush--
rut--
ry--
rz--
s--
sa--
sab--
sac--
sad--
sag--
saha--
sai--
sal--
salt--
sam--
san--
sand--
sapp--
sar--
sas--
sass--
sati--
sau--
saus--
savo--
saw--
sax--
say--
sc--
sca--
scale--
scand--
scar--
scart--
scat--
sce--
sch--
scha--
schi--
schu--
schw--
sci--
scie--
sco--
scu--
se--
sea--
sebas--
sec--
see--
sego--
sei--
seiten--
sel--
sen--
sep--
sepol--
ser--
sera--
ses--
set--
sex--
sey--
sha--
she--
shel--
shep--
sher--
shi--
sho--
shu--
si--
sib--
sid--
sidd--
sie--
sil--
sims--
sin--
sis--
ske--
ski--
sky--
sl--
slar--
slat--
slaugh--
sli--
slo--
sm--
smo--
sn--
so--
socia--
sol--
som--
somma--
son--
sonnen--
sop--
sor--
sost--
soste--
sot--
sou--
soura--
south--
sov--
soz--
sp--
spa--
spar--
spe--
spi--
spo--
spra--
ssa--
st--
sta--
stan--
ste--
stein--
ster--
sto--
stock--
stone--
stra--
straf--
stram--
strath--
stri--
stru--
stu--
sty--
su--
sub--
suc--
sud--
suf--
sul--
sum--
sun--
sunny--
sur--
sura--
sus--
sut--
suther--
sw--
swa--
sy--
syl--
t--
ta--
tag--
tai--
tal--
talla--
tan--
tanza--
tar--
tas--
te--
tel--
tele--
ten--
tenta--
tentati--
teo--
teor--
ter--
terri--
tes--
tex--
tg--
th--
the--
thor--
thorn--
thou--
thu--
thur--
ti--
tid--
tie--
til--
tir--
tis--
tl--
tla--
to--
tof--
tol--
tom--
ton--
top--
tor--
tot--
toten--
tou--
tour--
tow--
toy--
tr--
tra--
traf--
tras--
tre--
tri--
tril--
trin--
tro--
tru--
ts--
tsch--
tscha--
tschant--
tschi--
tt--
tu--
tuf--
tur--
turn--
tut--
tv--
tw--
ty--
tz--
u--
uc--
uf--
ufi--
ufiz--
ul--
um--
umor--
un--
una--
undesce--
une--
ung--
uni--
unter--
up--
ur--
ura--
uran--
urga--
urt--
us--
ut--
v--
va--
vac--
val--
van--
var--
vau--
ve--
vec--
vehi--
vel--
ven--
ver--
ves--
vesco--
vesu--
vey--
vi--
via--
vic--
vid--
vie--
viji--
vila--
vill--
villa--
ville--
vin--
vir--
vis--
visch--
vit--
viv--
vize--
vo--
vol--
volk--
von--
vor--
vu--
vul--
w--
wa--
wai--
wal--
wald--
walk--
wall--
wals--
wan--
wana--
war--
warm--
was--
wat--
watch--
wau--
wauk--
we--
wea--
wed--
wee--
weed--
weh--
wei--
wein--
wel--
wen--
wend--
wer--
wes--
west--
wester--
wet--
whe--
wheat--
whi--
whit--
white--
wic--
wick--
wid--
wie--
wig--
wiggi--
wiki--
wil--
wilm--
wim--
win--
wind--
wink--
wins--
wis--
wit--
wo--
wol--
woo--
wood--
woods--
wool--
wools--
wor--
wu--
wy--
x--
xi--
xx--
y--
yan--
yau--
ye--
z--
za--
zar--
ze--
zeit--
zi--
zie--
zim--
zir--
ziv--
zivil--
zo--
zu--
zum--
ß--
æ--
автон--
в--
--0
--00
--02
--08
--1
--10
--11
--15
--18
--19
--2
--20
--21
--22
--23
--24
--25
--27
--28
--3
--30
--31
--32
--34
--35
--36
--38
--4
--41
--43
--44
--45
--46
--48
--5
--50
--51
--53
--54
--56
--59
--6
--61
--62
--63
--65
--66
--67
--68
--7
--70
--72
--74
--75
--76
--77
--8
--80
--81
--83
--85
--86
--9
--91
--92
--95
--96
--98
--a
--ac
--ace
--ach
--ack
--ad
--ada
--ade
--ado
--adu
--ae
--age
--agn
--ago
--ah
--ai
--aia
--ak
--al
--ala
--ald
--ale
--all
--am
--ame
--ament
--an
--ana
--anc
--and
--ando
--ane
--ang
--ano
--ans
--ansicht
--ant
--anza
--ao
--ap
--ar
--ara
--ard
--are
--ari
--aro
--ary
--as
--asca
--ast
--at
--ata
--ate
--ath
--atiches
--ation
--atiun
--ato
--aton
--ator
--au
--aud
--augh
--aun
--ava
--avi
--aw
--ax
--ay
--aya
--az
--azion
--b
--ba
--bach
--bad
--bbs
--be
--bek
--bel
--ben
--ber
--berg
--bes
--bi
--bia
--bin
--bo
--boraziun
--born
--boro
--bourne
--bra
--brook
--bru
--bs
--bu
--burg
--burn
--bury
--bush
--by
--c
--ca
--cada
--cata
--caz
--cchio
--cco
--ce
--cei
--celona
--ces
--ch
--cha
--che
--chen
--cho
--chs
--cht
--chu
--ci
--cia
--cion
--ciun
--ck
--ckley
--cl
--co
--code
--condi
--cote
--cott
--cq
--cre
--creek
--cs
--ct
--cton
--cundi
--cus
--cy
--d
--da
--dae
--dale
--das
--dd
--ddy
--de
--deda
--del
--den
--der
--des
--dge
--dham
--di
--dia
--dieu
--dis
--diva
--dl
--dle
--dler
--dley
--do
--don
--dor
--dore
--dorf
--doro
--dot
--dour
--dours
--dova
--dra
--dre
--dri
--dron
--ds
--dt
--du
--dum
--dus
--dy
--e
--ea
--eba
--eby
--ec
--eca
--ech
--eck
--ed
--eda
--ede
--edes
--edgar
--edia
--ee
--eer
--ef
--ego
--ei
--eia
--eich
--eies
--eigh
--eja
--eji
--ek
--el
--ela
--ele
--eles
--eley
--ell
--elli
--ello
--em
--en
--enac
--enau
--enbach
--enc
--ene
--enfeld
--engo
--enheim
--eno
--ens
--ent
--enthal
--ento
--enza
--eo
--ep
--er
--era
--erby
--ere
--eres
--eri
--eria
--ering
--ern
--erna
--ers
--ert
--erton
--es
--esa
--esc
--ese
--esheim
--esi
--ess
--et
--ete
--eto
--etown
--ets
--ett
--etta
--ette
--etti
--etto
--etz
--eu
--euil
--eum
--eur
--eus
--eux
--ev
--ex
--ey
--ez
--eze
--ezia
--f
--fa
--fahrt
--fe
--feld
--fels
--fen
--ff
--ffe
--fi
--field
--fo
--fod
--foot
--ford
--fort
--fronc
--fs
--ft
--ful
--fun
--furt
--g
--ga
--gal
--game
--gan
--gano
--garten
--gate
--gau
--ge
--gee
--gel
--gen
--ger
--ges
--gg
--ggio
--ggs
--gh
--gham
--ghe
--ghes
--ght
--ghton
--gi
--gia
--gists
--gl
--gle
--gler
--glia
--glio
--gn
--gna
--gnac
--gnano
--gne
--gnes
--gno
--gny
--go
--gon
--grd
--gs
--gt
--gton
--gu
--gue
--gung
--gus
--gy
--h
--ha
--hac
--hagen
--hal
--ham
--hard
--haven
--haw
--hay
--he
--head
--hei
--heim
--hen
--her
--hes
--hey
--hi
--hia
--hill
--hin
--hing
--hio
--hl
--hn
--ho
--hoe
--hof
--hofen
--holm
--holz
--hon
--hor
--horpe
--horst
--hs
--ht
--hu
--hun
--hurst
--hy
--i
--ia
--iac
--iada
--ial
--iam
--iame
--iana
--iano
--ias
--ibi
--ic
--ica
--ice
--ich
--iches
--ici
--ick
--ico
--icott
--ics
--id
--ida
--idae
--ide
--ider
--ie
--ied
--iei
--iel
--ier
--iera
--iers
--ies
--ieta
--ieu
--if
--ificazion
--ifs
--ig
--ige
--iggs
--ight
--igi
--ign
--igna
--ignano
--igne
--igny
--igo
--ii
--iidae
--ik
--ika
--ike
--il
--ile
--ill
--illa
--illo
--illy
--im
--ima
--ime
--imo
--in
--ina
--ine
--ines
--ing
--ingen
--ington
--ini
--ino
--ins
--int
--io
--ion
--ions
--ior
--ios
--iova
--ip
--ir
--ire
--irz
--is
--isa
--isada
--isazion
--isc
--isch
--ische
--ischen
--ischer
--iscima
--ise
--iseda
--isedes
--ish
--ism
--iso
--issa
--issima
--ist
--ista
--istica
--istich
--istiches
--istics
--isy
--it
--ita
--ite
--ito
--its
--ity
--itz
--iu
--ium
--iun
--iuns
--ius
--iva
--ive
--ives
--ix
--iz
--izia
--iziun
--j
--ja
--je
--jeda
--jei
--jel
--jer
--jes
--ji
--jiun
--jo
--k
--ka
--kau
--ke
--kel
--ken
--kendorf
--kenham
--ker
--ket
--kett
--ki
--kie
--kin
--kins
--kirche
--kley
--ko
--kow
--ks
--ku
--kum
--ky
--l
--la
--lage
--lais
--lake
--land
--lands
--lar
--lard
--lay
--lba
--lbach
--lby
--lc
--ld
--lda
--lde
--ldo
--le
--lea
--leda
--lee
--lei
--len
--ler
--les
--let
--lew
--ley
--lf
--li
--lia
--lica
--lico
--lidae
--lin
--line
--lio
--lis
--lise
--liseda
--list
--lite
--lk
--ll
--lla
--lle
--llen
--lles
--lli
--llo
--llung
--llungen
--lly
--lm
--lme
--ln
--lo
--lon
--lor
--lph
--ls
--lsheim
--lsk
--lt
--lta
--lte
--lto
--lton
--lu
--lunga
--lus
--ly
--lyn
--lz
--m
--ma
--man
--mann
--mar
--mas
--mbe
--mby
--me
--menc
--ment
--mente
--menter
--mer
--mi
--min
--mm
--mo
--mon
--mont
--moor
--moos
--mp
--mpa
--ms
--mu
--mus
--my
--n
--na
--nac
--nada
--nal
--nale
--nar
--nard
--nat
--nata
--nate
--nati
--nau
--nay
--nberg
--nburg
--nby
--nc
--nce
--nche
--nci
--ncy
--nd
--nda
--ndale
--nde
--ndi
--ndo
--ndon
--ndorf
--ndro
--ndum
--ne
--neda
--nee
--nega
--nel
--nen
--ner
--nes
--ney
--nf
--nfeld
--ng
--nga
--nge
--nger
--ngham
--ngo
--ngs
--ngton
--nhagen
--nhain
--nham
--nheim
--ni
--nia
--nic
--nico
--nie
--ning
--ningham
--nington
--nk
--nka
--nn
--nna
--nne
--nnes
--nno
--no
--nock
--non
--nor
--nova
--novo
--now
--ns
--nse
--nsee
--nsk
--nson
--nt
--nta
--ntai
--ntanc
--ntanza
--ntazion
--ntaziun
--nte
--ntea
--nteles
--nter
--ntes
--nthal
--nti
--ntia
--ntin
--ntino
--nto
--nton
--ntova
--ntra
--nts
--nu
--nus
--nut
--ny
--nya
--nz
--nza
--nze
--nzes
--nzo
--o
--oa
--oc
--och
--ock
--od
--oda
--ode
--oe
--of
--og
--ogn
--ogna
--ogne
--oi
--oids
--ois
--ok
--ol
--ola
--oli
--oll
--olls
--olo
--ologh
--oly
--om
--ombe
--on
--ona
--ond
--onda
--one
--ong
--oni
--onia
--onne
--ons
--ont
--onta
--ood
--ook
--oon
--op
--or
--ore
--ores
--orf
--ori
--oria
--orn
--orpe
--ors
--orum
--orus
--os
--osa
--ot
--ote
--oth
--ott
--ou
--ough
--our
--ous
--out
--oux
--ov
--ova
--ovsk
--ow
--own
--ows
--oy
--p
--pa
--pac
--pass
--pe
--pee
--pei
--pete
--phy
--pi
--pio
--platz
--play
--po
--polis
--pool
--port
--pp
--ppa
--ppe
--ppen
--pping
--ps
--pt
--pton
--pu
--pul
--q
--que
--r
--ra
--rad
--rade
--rai
--ral
--ran
--rano
--ras
--rat
--rate
--rath
--raziun
--rbe
--rby
--rc
--rca
--rd
--rdo
--rds
--re
--reale
--reda
--ree
--rei
--rella
--res
--rese
--ret
--rez
--rf
--rfeld
--rg
--ri
--ria
--ribuc
--ric
--rick
--rie
--ril
--rin
--rio
--ris
--rk
--rley
--rly
--rm
--rmoor
--rn
--rne
--rno
--rns
--ro
--rod
--rolo
--ron
--rone
--rop
--ros
--roux
--row
--rpe
--rr
--rs
--rsheim
--rson
--rst
--rt
--rta
--rte
--rton
--rtown
--rts
--rty
--ru
--rum
--rve
--ry
--s
--sa
--sau
--say
--sbad
--sberg
--sboro
--sburg
--sbury
--sby
--sc
--sca
--sch
--scime
--sciu
--sco
--sdorf
--se
--see
--sel
--sen
--ser
--ses
--set
--sey
--sh
--shafen
--shagen
--sham
--sheim
--shire
--si
--sia
--side
--sio
--sk
--sle
--sley
--sm
--sne
--snes
--so
--son
--sova
--sozialismus
--spitze
--sport
--ss
--ssa
--sse
--sso
--sson
--ssy
--st
--sta
--stadt
--stag
--ste
--stead
--stedt
--steig
--sti
--ston
--stone
--storf
--stown
--stra
--su
--sville
--sy
--t
--ta
--tad
--tada
--tadt
--tag
--tal
--tan
--tar
--tas
--tat
--tau
--tby
--te
--tea
--tead
--teca
--ted
--teda
--tedt
--tel
--ten
--ter
--tes
--teuil
--tg
--th
--tha
--thal
--tham
--ti
--tia
--tic
--tica
--tich
--tiches
--tico
--tics
--tidae
--tif
--tile
--tin
--ting
--tingham
--tington
--tino
--tio
--tion
--tions
--tir
--tis
--tiva
--tives
--tl
--tle
--tley
--tner
--to
--tok
--ton
--tona
--tone
--tons
--top
--tor
--tos
--tost
--tou
--tova
--tow
--town
--tr
--tra
--tre
--tree
--tri
--ts
--tsch
--tsk
--tt
--tta
--tte
--tti
--tto
--tton
--tts
--tu
--tum
--tur
--tura
--ture
--turm
--turno
--tus
--ty
--tz
--u
--ua
--ual
--uc
--uca
--uch
--ud
--uda
--ue
--ueil
--uel
--uer
--ues
--uf
--ufen
--ug
--uga
--ugh
--ughn
--ui
--uil
--uin
--uk
--ukee
--ul
--ula
--ulin
--ult
--um
--un
--ungen
--uno
--uns
--unt
--uorn
--up
--ur
--ura
--ure
--ures
--urg
--uri
--urn
--urne
--urs
--urt
--ury
--us
--usa
--use
--usse
--ut
--uth
--utier
--ux
--uy
--uz
--uze
--uziun
--uziuns
--v
--va
--vale
--ve
--ved
--vel
--ver
--ves
--vi
--via
--view
--ville
--vl
--vo
--vu
--vue
--vy
--w
--wa
--wan
--way
--ways
--we
--weg
--weiler
--well
--wich
--wick
--wig
--win
--witz
--wn
--wo
--wood
--ws
--wton
--wy
--wyn
--x
--xa
--xton
--y
--ya
--yan
--ye
--yer
--yl
--yn
--ys
--z
--za
--zac
--zana
--zano
--zay
--ze
--zel
--zen
--zer
--zes
--zet
--zheim
--zi
--zia
--zie
--zil
--zin
--zio
--zion
--zions
--ziun
--ziuns
--zo
--zolo
--zon
--zone
--zy
--zza
--zzano
--zzi
--zzo
--ß
--ŋ
--ς
--ая
--в
--и
--ии
--н
--о
--ое
--я
