!
"
#
##0
##1
##10
##11
##12
##13
##14
##15
##16
##17
##18
##19
##2
##20
##21
##22
##23
##24
##25
##26
##27
##28
##29
##3
##30
##31
##32
##33
##34
##35
##36
##37
##38
##39
##4
##40
##41
##42
##43
##44
##45
##46
##47
##48
##49
##5
##50
##51
##52
##53
##54
##55
##56
##57
##58
##59
##6
##60
##61
##62
##63
##64
##65
##66
##67
##68
##69
##7
##70
##71
##72
##73
##74
##75
##76
##77
##78
##79
##8
##80
##81
##82
##83
##84
##85
##86
##87
##88
##89
##9
##90
##91
##92
##93
##94
##95
##96
##97
##98
##99
$
%
&
'
(
)
*
+
,
-
.
/
0
00
000
0000
000000
001
002
01
02
03
04
05
06
07
08
09
1
10
100
1000
10000
101
102
103
104
105
106
107
108
109
11
110
111
112
113
114
115
116
117
118
119
12
120
1200
121
122
123
124
125
126
127
128
129
13
130
131
132
133
134
135
136
137
138
139
14
140
141
142
143
144
145
146
147
148
149
15
150
1500
151
152
153
154
155
156
157
158
159
16
160
1600
161
162
163
164
165
166
167
168
169
17
170
1700
171
172
173
174
175
176
177
1772
178
1789
179
1790
1792
1793
1796
1797
1798
1799
18
180
1800
1804
181
1814
1815
1818
1819
182
1820
1822
1824
1825
1828
1829
183
1830
1832
1834
1835
1836
1837
1838
1839
184
1840
1841
1842
1843
1844
1845
1846
1847
1848
1849
185
1850
1851
1852
1853
1854
1855
1856
1857
1858
1859
186
1860
1861
1862
1863
1864
1865
1866
1867
1868
1869
187
1870
1871
1872
1873
1874
1875
1876
1877
1878
1879
188
1880
1881
1882
1883
1884
1885
1886
1887
1888
1889
1890
1891
1892
1893
1894
1895
1896
1897
1898
1899
19
190
1900
1901
1902
1903
1904
1905
1906
1907
1908
1909
191
1910
1911
1912
1913
1914
1915
1916
1917
1918
1919
192
1920
1921
1922
1923
1924
1925
1926
1927
1928
1929
1930
1931
1932
1933
1934
1935
1936
1937
1938
1939
194
1940
1941
1942
1943
1944
1945
1946
1947
1948
1949
195
1950
1951
1952
1953
1954
1955
1956
1957
1958
1959
196
1960
1961
1962
1963
1964
1965
1966
1967
1968
1969
197
1970
1971
1972
1973
1974
1975
1976
1977
1978
1979
1980
1981
1982
1983
1984
1985
1986
1987
1988
1989
199
1990
1991
1992
1993
1994
1995
1996
1997
1998
1999
2
20
200
2000
2001
2002
2003
2004
2005
2006
2007
2008
2009
201
2010
2011
2012
2013
2014
2015
2016
2017
2018
2019
202
2020
2021
2022
204
205
206
208
209
21
210
211
212
215
22
220
224
225
226
23
230
232
234
235
24
240
25
250
2500
255
256
26
260
27
270
275
28
280
29
290
3
30
300
3000
31
32
320
325
33
330
34
340
35
350
36
360
365
37
38
380
39
4
40
400
4000
41
42
43
44
45
450
46
47
48
49
5
50
500
5000
51
52
53
54
55
550
56
57
58
59
6
60
600
61
62
63
639
64
65
650
66
67
68
69
7
70
700
71
72
73
74
75
750
76
77
78
79
8
80
800
81
82
83
84
85
86
87
88
89
9
90
900
91
92
93
94
95
96
97
972
973
974
978
98
99
:
;
<
=
>
?
@
\
^
_
`
a
aa
ab
abbr
abbrev
abbreviation
abc
able
about
above
ac
academic
academy
access
accessdate
accessed
according
account
accounts
acid
across
act
action
active
actor
actress
ad
add
addclass
added
adding
addition
additional
address
adds
adithyak
adv
advanced
ae
af
afdview
affairs
affect
afghanistan
africa
african
after
again
against
age
agency
air
aircraft
airport
akhiljaxxn
al
alberta
album
alex
alexander
ali
alias
aliases
align
all
alliance
allow
allows
along
alpha
alpinia
already
also
alt
alternate
alternative
although
always
am
america
american
among
amp
an
analysis
anchor
ancient
and
andrew
animal
animals
anna
anne
annual
anoop
anoopan
another
anti
any
anything
ap
api
appear
appearance
appears
append
apple
applied
apply
appropriate
april
ar
arab
arabic
architecture
archive
archived
archives
ardisia
are
area
areas
arg
args
argument
arguments
arjunkmohan
arms
army
around
array
art
arthur
article
articles
articleshow
artist
arts
as
asia
asian
ask
asp
aspx
assembly
associated
association
at
attr
au
audio
august
australia
australian
author
authority
authors
auto
automatic
automatically
available
avoid
award
awards
away
az
b
ba
back
background
bad
baker
bangalore
bangladesh
bank
banner
bar
base
based
basic
bat
battle
bay
bb
bbc
bc
bce
bd
be
beach
because
become
been
before
begin
beginning
behind
being
below
bengal
berlin
best
beta
better
between
beyond
bf
bg
bible
bibliography
big
bin
bio
biographical
biography
biology
biotik
bird
birds
birth
bit
black
blank
block
blog
blogspot
blood
blue
board
body
bold
bombay
book
books
boolean
border
born
boston
bot
botanical
both
bottom
box
boxes
br
branch
brazil
break
bridge
brief
britain
britannica
british
brown
browser
buffer
building
built
bulletin
bush
business
but
butterflies
butterfly
button
by
c
ca
calendar
calicut
california
call
called
calls
cambridge
came
can
canada
canadian
cannot
cape
capital
caption
care
case
cases
castle
cat
catalog
catalogue
categories
category
catholic
cause
cc
cd
ce
cell
cells
census
center
central
centre
century
certain
cf
cfg
ch
change
changed
changes
changing
channel
chapter
character
characters
charles
chart
check
chemical
chemistry
chennai
chess
chicago
chief
child
children
china
chinese
choose
christ
christian
christopher
church
cinema
circle
citation
citations
cite
cited
cities
city
civil
claim
claims
class
classes
classical
classification
clear
click
climate
close
club
cm
cms
cn
co
coast
code
codes
coins
col
collapsed
collapsible
collection
collections
college
colombia
color
colors
colour
columbia
column
columns
com
combination
come
comma
comment
commentary
comments
commission
committee
common
commons
communist
communities
community
company
complete
complex
computer
concat
conference
config
configuration
conflict
congress
consensus
conservation
consider
considered
contact
contain
container
containing
contains
content
contents
context
contribute
contributions
control
conversion
convert
coordinates
copy
copyright
core
correct
corresponding
could
council
count
countries
country
county
course
court
cover
covid
create
created
creates
creek
cricket
criteria
critical
cross
cs
css
cultural
culture
cup
current
currently
custom
d
da
daily
dam
dance
dark
das
data
database
datavalue
date
dates
david
davidraju
day
days
db
dc
dd
de
dead
death
deaths
dec
december
decimal
def
default
defaults
defined
definition
del
delete
deleted
deletion
delhi
delivery
democracy
democratic
den
density
department
deprecated
der
des
described
description
descriptions
deshabhimani
design
designation
detail
detailed
details
development
devi
df
di
dictionary
did
die
different
digit
digital
digits
dioscorea
direct
directed
direction
directly
director
disambiguation
discussion
disease
display
displayed
displays
distribution
district
div
division
djvu
do
doc
document
documentary
documentation
documents
does
doesn
doi
domain
don
done
dot
double
down
dq
dr
draba
drug
dsc
dst
du
due
during
dutch
dynasty
e
each
early
earth
east
eastern
ece
economic
ed
edit
edited
editing
edition
editor
editors
edits
eds
edu
education
educational
edward
ee
effect
egg
egypt
either
el
election
elections
element
elements
elephant
elizabeth
else
elseif
em
empire
empty
en
encyclopaedia
encyclopedia
encyclopædia
end
endemic
energy
engine
engineering
england
english
enter
entered
entertainment
entire
entity
entries
entry
environment
environmental
episode
equal
equivalent
era
err
error
errors
es
essays
established
et
etc
eu
europe
european
even
event
events
every
evidence
evolution
ex
example
examples
except
exhibition
exist
existing
exists
expand
expanded
experience
express
expressway
external
extra
eye
f
fa
face
facebook
fact
facts
fair
fall
falls
false
family
far
father
fe
feature
featured
features
feb
february
federal
feedback
female
festival
few
ff
ffffff
fi
fiction
field
fields
file
files
film
films
final
find
fire
first
fish
five
fix
fixed
flag
flags
float
floor
flora
florida
flower
flowers
focus
folk
follow
followed
following
follows
font
food
foot
football
footnotes
for
force
foreign
forest
form
format
formats
formatting
former
forms
fort
forum
found
foundation
four
fourth
fr
frac
frame
france
francis
frank
free
freedom
french
frog
from
front
fruit
ft
full
fully
function
functions
further
future
g
ga
gallery
game
games
gandhi
garden
gb
ge
gender
general
generally
generate
generated
genus
geographic
geography
geometry
george
german
germany
get
getargs
getparent
giant
girl
give
given
gives
glacier
glass
global
go
god
gold
golden
good
google
gov
government
grammar
grand
gray
great
greater
greece
greek
green
grey
ground
group
groups
gsub
gt
guardian
guide
guidelines
guinea
gundert
h
ha
had
half
hall
hand
handbook
handler
hans
harvard
has
have
having
he
head
header
heading
health
heart
height
held
hello
help
henry
her
here
heritage
hi
hidden
hide
high
higher
hill
him
hindi
hindu
his
historic
historical
history
holy
home
hope
hospital
hour
house
how
however
htm
html
http
https
hu
human
hyderabad
i
ibn
ice
icon
id
identification
identifier
if
ii
iii
il
illustrated
image
images
imdb
img
immediate
imperial
important
in
inc
include
included
includes
including
independent
index
india
indian
indiatimes
indica
indicate
indigofera
individual
indonesia
info
infobox
information
initial
inline
input
insert
inside
instance
instead
institute
instructions
int
integer
intended
internal
international
internet
interview
interwiki
into
introduction
invalid
ip
ipa
ipairs
iran
ireland
irish
irshad
irvin
irwin
is
isbn
islam
islamic
island
islands
iso
israel
issn
issue
issues
it
italian
italic
italy
item
items
its
itself
iucn
iv
j
ja
jairodz
james
jan
january
japan
japanese
java
jean
jesus
jewish
john
johnson
join
jones
jose
joseph
journal
jpg
jr
js
jstor
july
june
just
justice
k
ka
kadavoor
kannur
karnataka
ke
keep
kerala
key
keys
kg
khan
king
kingdom
km
know
knowledge
known
ko
kolkata
kollam
kong
korea
korean
krishna
kumar
l
la
label
labels
labour
lac
lady
lake
land
lang
langcode
language
languages
lanka
large
largest
last
lat
late
later
latest
latin
latitude
law
lb
le
lead
leader
leading
leaf
league
learn
least
leave
lee
left
legal
legend
len
length
les
less
let
letter
letters
level
li
liberal
library
license
licensing
life
light
like
limit
limited
line
lines
link
linked
links
list
listed
lists
literary
literature
little
live
living
ll
lo
load
local
location
log
logo
london
long
longer
longitude
look
looking
lord
los
lost
louis
love
low
lower
lsgkerala
ltd
lu
lua
m
ma
machine
made
madhyamam
madras
magazine
magnolia
main
maintenance
major
make
makes
making
malabar
malayalam
malaysia
malaysian
male
malikaveedu
man
management
manoramaonline
manual
many
map
maps
mar
march
margin
mark
marker
marks
markup
martin
mary
mask
mass
master
match
matches
material
math
mathrubhumi
matter
max
may
mc
md
me
meaning
means
med
medal
media
mediawiki
medical
medicine
meenakshi
meet
meeting
member
members
memorial
men
menon
message
messages
met
meta
method
metropolitan
mexico
mg
mi
michael
mid
middle
might
military
million
min
mind
minister
ministry
minor
minutes
missing
mission
ml
mm
mn
mobile
mode
model
models
modern
module
modules
mol
molecular
month
months
moon
moore
more
morebits
most
mother
mount
mountain
mountains
move
movement
movie
movies
mp
mr
ms
msg
mt
mu
much
muhammad
multi
multiple
mumbai
museum
music
muslim
must
mw
my
n
na
nair
nam
name
named
names
namespace
nasa
nation
national
nations
native
natural
nature
navbox
navigation
navigational
nc
nd
ne
near
necessary
need
needed
needs
negative
nepal
net
netherlands
network
never
new
news
newsletter
newspaper
next
nf
ng
nh
nic
night
nil
niyamasabha
nl
nm
no
nobel
node
non
none
normal
normally
north
northern
not
notable
note
notes
nothing
notice
noun
nouns
nov
novel
november
now
null
num
number
numbered
numbers
numeric
ny
o
obj
object
oblast
ocean
oclc
oct
october
odayanchal
of
off
office
official
offset
often
ogg
oh
oil
old
olympic
omitted
on
once
oncidium
one
online
only
ontario
op
open
opt
option
optional
options
or
orange
order
ordo
org
organization
oriental
origin
original
os
other
others
otherwise
our
out
output
outside
over
override
overview
own
oxford
p
pa
pacific
padding
page
pagename
pages
painting
pairs
pakistan
palace
paper
papers
papilio
par
param
parameter
parameters
params
parent
paris
park
parliament
parms
part
particular
parts
party
pass
passed
past
path
pattern
patterns
paul
pdf
pe
peace
penguin
people
per
percent
performance
period
persian
person
personal
peter
pg
ph
philippines
philosophy
photo
photos
php
physical
physics
pi
picture
pictures
pierre
pipi
pl
place
placed
places
plain
plan
planet
plant
plants
plate
play
player
please
plus
pm
pmid
png
po
poems
poetry
point
points
police
policy
political
politics
popular
population
portal
portrait
portuguese
pos
position
possible
post
posted
poster
power
pp
practice
pradesh
pre
precision
preferences
preferred
prefix
prepared
present
president
press
pressure
preview
previous
primary
prince
princeton
print
printed
private
prize
pro
probably
problem
problems
process
produce
produced
produces
product
production
profile
program
project
projects
prop
proper
properly
properties
property
protected
protection
provide
provided
provides
province
psalms
pt
public
publication
publications
published
publisher
publishers
publishing
punjabi
pupa
purple
purpose
put
px
q
qid
qualifier
quality
queen
query
question
questions
quote
quotes
r
ra
radio
rail
railway
rajapuram
rajesh
rameshng
random
range
ranjithsiji
rank
rather
rationale
raw
ray
rd
re
read
reader
readers
reading
real
reason
recent
recommended
record
records
recurrent
red
rediff
redirect
redirects
ref
reference
references
region
regional
register
related
relations
release
released
relevant
reliable
relief
religion
religious
remove
removed
rendered
replace
report
reports
republic
request
require
required
requires
res
research
resolution
resource
resources
result
results
ret
retrieved
return
returned
returns
rev
review
revised
revolution
rice
richard
right
rights
river
ro
road
robert
rock
role
roman
room
root
rose
roshan
round
route
routledge
row
rows
royal
rs
ru
rule
rules
run
russia
russian
rv
s
sa
sabha
sahib
said
saint
same
san
sanctuary
sandbox
sanskrit
santa
saskatchewan
save
say
says
sc
scale
school
science
sciences
scientific
score
scott
screen
script
scripts
se
sea
search
season
sec
second
secondary
secret
section
sections
security
see
seen
select
selected
selection
self
sense
sentence
sep
separate
separated
separator
september
series
service
services
set
sets
setting
seven
several
shah
shall
share
she
shield
shift
shiju
ship
short
shortname
should
show
showing
shown
shows
si
side
sign
significant
signpost
silver
similar
simon
simple
simply
sin
since
singapore
singh
single
sir
sister
site
sites
six
size
sk
skin
sl
small
smith
snake
so
social
society
software
solar
solid
some
something
sometimes
son
song
songs
soon
sort
sound
source
sources
south
southern
soviet
soyuz
sp
space
spaces
spain
span
spanish
special
species
specific
specified
specify
speech
speed
split
sport
sports
spring
squad
square
sr
sri
st
stage
standard
star
start
state
statement
statements
states
station
statistics
stats
statue
status
step
stephen
still
stone
stop
stories
story
str
street
string
strip
structure
sts
stub
students
studies
study
style
styles
sub
subeesh
subject
subpage
subscribe
subsp
subtemplates
success
such
suffix
suggested
summary
summer
sun
supplied
support
supported
sure
surname
survey
sv
svg
switch
symbol
symbols
syntax
system
systems
t
ta
tab
table
tables
tag
tags
take
taken
takes
tales
talk
tamil
target
taxobox
taxon
taxonomy
taylor
td
te
team
tech
technical
technology
television
tell
template
templatedata
templates
temple
ten
tennis
term
terminus
terms
territories
territory
test
testament
testing
texas
text
texts
th
thailand
than
that
the
theatre
thehindu
their
them
then
theory
there
these
they
things
think
third
this
thomas
those
though
thought
threatened
three
through
thumb
thumbnail
thus
tiger
tikader
till
time
times
timesofindia
title
titles
tksujith
tm
tma
to
today
together
tonumber
too
tool
tools
tooltip
top
topic
topics
tostring
total
tour
tourism
tower
town
tp
tr
track
tracking
trade
tradition
traditional
trans
translate
translated
translation
translations
translator
travel
treatment
tree
trend
trim
true
trust
try
tt
turkey
turn
tv
twa
twinkle
two
type
types
u
ucode
uk
ukraine
un
und
under
unesco
unicode
union
unique
unit
united
units
university
unknown
unless
unnamed
unreviewed
unsubscribe
until
up
update
updated
upload
upon
upper
upright
url
us
usa
usage
use
used
useful
user
username
users
uses
using
ustring
usually
utc
utilities
utricularia
utype
v
va
vaccinated
vaccine
val
valid
valley
value
values
van
var
variable
variant
various
ve
verb
verbs
version
versions
vertical
very
vi
via
victoria
video
vietnam
view
vii
viii
vijayan
village
vinayaraj
virgin
visible
visual
visualeditor
viswaprabha
vol
volume
von
vowel
vs
vssun
w
wales
wall
walter
want
war
warning
wars
was
washington
watch
water
way
wd
we
web
website
week
weekly
weight
welcome
well
were
west
western
what
when
where
whether
which
while
white
who
whole
whose
why
wide
width
wife
wiki
wikibase
wikidata
wikilink
wikimedia
wikipedia
wikipedias
wikiproject
wikis
wikisource
wikitext
wild
wildlife
will
william
wilson
window
windows
winner
winter
wish
with
within
without
wmf
woman
women
won
wood
word
words
work
working
works
world
would
wp
wrapper
write
writer
writers
writing
written
www
x
xi
y
yale
year
years
yellow
yes
yesno
yet
york
you
young
your
youtube
z
zealand
zh
zone
zoo
{
|
}
~
¢
£
§
©
«
­
°
±
²
´
µ
·
º
»
¼
½
¾
×
æ
ð
ø
ƒ
ə
ɪ
ɯ
ʃ
ʲ
ʷ
ʻ
ʼ
ʿ
ˈ
ˉ
ˌ
ː
ˑ
̀
́
̂
̃
̄
̆
̇
̈
̉
̊
̋
̌
̐
̓
̔
̛
̝
̞
̠
̣
̥
̦
̧
̨
̱
͂
͡
α
β
γ
δ
ε
η
θ
ι
λ
μ
ν
π
ς
σ
τ
υ
φ
ω
в
и
с
шаблон
،
ا
ب
ت
ر
س
ع
ف
ق
ل
م
ن
ه
و
ي
َ
ُ
ِ
ّ
ْ
ٓ
ٔ
ٕ
ँ
ं
ः
क
ख
ग
च
ज
ट
ड
ण
त
थ
द
ध
न
प
ब
भ
म
य
र
ल
व
श
ष
स
ह
़
ा
ि
ी
ु
ू
ृ
े
ै
ो
ौ
्
।
॥
ক
গ
ট
ত
দ
ন
প
ব
ম
য
র
ল
স
়
া
ি
ী
ু
ে
্
ਾ
ા
ી
୍
க
ச
ட
த
ந
ன
ப
ம
ய
ர
ற
ல
வ
ா
ி
ு
ூ
ெ
ே
ை
்
ం
న
ా
ి
ు
్
ಂ
ಕ
ಗ
ಣ
ತ
ದ
ನ
ಪ
ಬ
ಯ
ರ
ಲ
ವ
ಹ
ಾ
ಿ
ು
ೂ
ೆ
್
ೕ
ം
ഃ
അ
അക
അകത
അകന
അകപ
അകമ
അകറ
അകല
അകലത
അഖ
അഖണ
അഗ
അഗത
അഗസ
അഘ
അങ
അച
അഛ
അജ
അജയ
അഞ
അട
അടക
അടങ
അടച
അടഞ
അടയ
അടവ
അഡ
അണ
അണക
അത
അതത
അതന
അതല
അഥ
അഥവ
അദ
അധ
അധർമ
അന
അനങ
അനധ
അനന
അനല
അനവധ
അനശ
അനസ
അനർത
അപ
അപക
അപകട
അപകടകരമ
അപകടങ
അപകടത
അപകടസ
അപഗ
അപമ
അപര
അപരന
അപലപ
അപവ
അപസ
അപഹര
അഫ
അബ
അബദ
അഭ
അഭയ
അമ
അമര
അമല
അമർത
അയ
അയക
അയച
അയപ
അയയ
അയർലണ
അയൽ
അയൽക
അര
അരക
അരങ
അരച
അരയ
അരയശ
അരവ
അറ
അറകള
അറബ
അറയ
അറവ
അറസ
അല
അലക
അലങ
അലഞ
അലഹബ
അലൻ
അലർജ
അള
അളക
അളന
അളവ
അഴ
അഴക
അവ
അവക
അവഗണ
അവങ
അവത
അവതര
അവതരണ
അവതരണത
അവധ
അവന
അവനവന
അവബ
അവമ
അവയ
അവയവ
അവയവങ
അവര
അവരവര
അവറ
അവല
അവള
അവശ
അവസ
അവസര
അവസരങ
അവസരത
അവസരമ
അവൎക
അവൻ
അവൻറ
അവർ
അവർക
അവർകള
അവർകൾ
അവർകൾക
അവൾ
അവൾക
അശ
അഷ
അസ
അസത
അസന
അസമ
അസമത
അസറ
അസഹ
അസർബ
അഹ
അഹങ
അഹത
അഹമ
അഹര
അൎത
അൎദ
അൻ
അൻപത
അൻസ
അർക
അർച
അർജ
അർജന
അർത
അർഥ
അർദ
അർപ
അർബ
അർമ
അർഹ
അർഹന
അൽ
അൽഗ
അൽപ
അൽഫ
അൽബ
അൽമ
അൾജ
അൾട
അൾത
ആ
ആക
ആകക
ആകട
ആകപ
ആകയ
ആകസ
ആകർഷ
ആകർഷകമ
ആകർഷണ
ആകർഷണങ
ആഖ
ആഗ
ആഗമ
ആഗസ
ആഘ
ആങ
ആച
ആചര
ആജ
ആഞ
ആട
ആഡ
ആണ
ആണവ
ആത
ആഥൻസ
ആദ
ആദര
ആദരവ
ആധ
ആന
ആനക
ആനകള
ആനകൾ
ആനന
ആനപ
ആനയ
ആപ
ആപത
ആഫ
ആബ
ആഭ
ആഭരണങ
ആമ
ആമത
ആമസ
ആയ
ആയത
ആയപ
ആയവൻ
ആര
ആറ
ആറന
ആല
ആലത
ആലപ
ആലയത
ആള
ആഴ
ആഴത
ആഴമ
ആവ
ആവരണ
ആവശ
ആവർത
ആശ
ആശങ
ആശയ
ആശയക
ആശയങ
ആശയത
ആശയമ
ആശയവ
ആഷ
ആസ
ആസന
ആഹ
ആൎക
ആൺ
ആൺക
ആൺത
ആൺമക
ആൻ
ആൻഡ
ആൻഡമ
ആൻറ
ആർ
ആർക
ആർച
ആർജ
ആർട
ആർത
ആർതർ
ആർദ
ആർപ
ആർമ
ആർസ
ആൽ
ആൽക
ആൽപ
ആൽഫ
ആൽബ
ആൽബങ
ആൽബത
ആൽബർട
ആൾ
ആൾക
ആൾട
ഇ
ഇക
ഇഗ
ഇങ
ഇച
ഇഛ
ഇജ
ഇഞ
ഇട
ഇടക
ഇടങ
ഇടത
ഇടന
ഇടപ
ഇടമ
ഇടയ
ഇടയന
ഇടവ
ഇഡ
ഇണ
ഇണക
ഇണങ
ഇണച
ഇത
ഇതന
ഇതര
ഇതറ
ഇതല
ഇദ
ഇന
ഇനങ
ഇനത
ഇനമ
ഇപ
ഇഫക
ഇബ
ഇമ
ഇയ
ഇയർ
ഇര
ഇരകള
ഇരട
ഇരപ
ഇരയ
ഇരവ
ഇറ
ഇറക
ഇറങ
ഇറച
ഇല
ഇലക
ഇലകള
ഇലകൾ
ഇലത
ഇലപ
ഇലയ
ഇള
ഇളക
ഇളയ
ഇളയത
ഇളവ
ഇവ
ഇവക
ഇവന
ഇവയ
ഇവര
ഇവറ
ഇവള
ഇവൻ
ഇവർ
ഇവർക
ഇവൾ
ഇഷ
ഇസ
ഇസബ
ഇഹ
ഇഹല
ഇൻ
ഇൻക
ഇൻട
ഇൻഡ
ഇൻഡക
ഇൻഡസ
ഇൻപ
ഇൻഫ
ഇൻഫർമ
ഇൻറർന
ഇൻവ
ഇൻഷ
ഇൻസ
ഇർവ
ഇർഷ
ഇൽ
ഈ
ഈക
ഈഗ
ഈച
ഈജ
ഈട
ഈഡ
ഈണ
ഈദ
ഈന
ഈയ
ഈര
ഈറ
ഈവ
ഈവക
ഈശ
ഈസ
ഈർപ
ഉ
ഉക
ഉഗ
ഉച
ഉജ
ഉട
ഉടന
ഉടനട
ഉടമ
ഉടമയ
ഉടമസ
ഉടല
ഉടൻ
ഉഡ
ഉണ
ഉണക
ഉണങ
ഉണര
ഉണൎത
ഉണർത
ഉണർന
ഉത
ഉതക
ഉദ
ഉദയ
ഉദരത
ഉദരവശ
ഉന
ഉപ
ഉപക
ഉപകര
ഉപകരണ
ഉപകരണങ
ഉപകരണത
ഉപകരണമ
ഉപഗ
ഉപജ
ഉപത
ഉപദ
ഉപന
ഉപപ
ഉപപത
ഉപഭ
ഉപമ
ഉപയ
ഉപര
ഉപവ
ഉപസ
ഉബ
ഉഭ
ഉഭയജ
ഉമ
ഉമർ
ഉയ
ഉയര
ഉയരത
ഉയരമ
ഉയരവ
ഉയൎത
ഉയൎന
ഉയർച
ഉയർത
ഉയർന
ഉര
ഉരഗങ
ഉരസ
ഉറ
ഉറക
ഉറങ
ഉറച
ഉറപ
ഉറവ
ഉല
ഉലക
ഉള
ഉളവ
ഉഴ
ഉവ
ഉഷ
ഉസ
ഉർദ
ഉർവ
ഉൽ
ഉൽക
ഉൽപ
ഉൾ
ഉൾക
ഉൾന
ഉൾപ
ഉൾഭ
ഊ
ഊക
ഊട
ഊണ
ഊത
ഊന
ഊര
ഊറ
ഊഷ
ഊഹ
ഊർജ
ഋ
ഋഗ
ഋത
ഋഷ
ഌ
എ
എഎ
എക
എകദ
എഗ
എങ
എച
എജ
എഞ
എട
എടക
എടത
എഡ
എണ
എത
എദ
എന
എനർജ
എപ
എഫ
എബ
എമ
എയ
എയറ
എയർ
എയർപ
എയർല
എയർവ
എര
എറ
എറണ
എല
എള
എഴ
എവ
എവറസ
എസ
എൺപത
എൻ
എൻഎ
എൻക
എൻജ
എൻട
എൻഡ
എൻറ
എൻസ
എർത
എൽ
എൽസ
ഏ
ഏക
ഏകക
ഏകകങ
ഏകത
ഏകദ
ഏകന
ഏജന
ഏജൻസ
ഏഞ
ഏട
ഏണസ
ഏത
ഏതത
ഏതദ
ഏന
ഏപ
ഏര
ഏറ
ഏല
ഏഴ
ഏവ
ഏവമ
ഏവര
ഏഷ
ഏർപ
ഏൽപ
ഐ
ഐഎസ
ഐക
ഐട
ഐഡ
ഐഡന
ഐത
ഐപ
ഐബ
ഐയ
ഐര
ഐറ
ഐലന
ഐവ
ഐശ
ഐസ
ഐസക
ഐഹ
ഐൻസ
ഒ
ഒഎസ
ഒക
ഒച
ഒട
ഒടയഞ
ഒഡ
ഒണ
ഒത
ഒന
ഒപ
ഒഫ
ഒബ
ഒമ
ഒയ
ഒര
ഒറ
ഒല
ഒള
ഒഴ
ഒസ
ഒഹ
ഒൻപത
ഒർ
ഓ
ഓക
ഓഗസ
ഓങ
ഓട
ഓഡ
ഓണ
ഓണററ
ഓത
ഓപ
ഓഫ
ഓമന
ഓയ
ഓര
ഓറ
ഓറഞ
ഓല
ഓള
ഓവ
ഓവറ
ഓവർ
ഓഷ
ഓസ
ഓഹര
ഓൎത
ഓൎമ
ഓൺ
ഓൺല
ഓർ
ഓർക
ഓർഗ
ഓർഗന
ഓർഡ
ഓർഡർ
ഓർത
ഓർബ
ഓർമ
ഓൾ
ഓൾഡ
ഔ
ഔട
ഔദ
ഔപച
ഔര
ഔറ
ഔഷധ
ഔഷധഗ
ഔഷധങ
ഔഷധമ
ഔഷധസസ
ഔസ
ക
കക
കകത
കകപ
കകള
കകൾ
കകൾക
കഗ
കങ
കച
കചര
കജ
കഞ
കട
കടക
കടങ
കടത
കടന
കടപ
കടമ
കടയ
കടല
കടവ
കടൽ
കടൽക
കടൽത
കടൽപ
കഠ
കഡ
കണ
കണക
കണങ
കണത
കണമ
കത
കതക
കതകള
കതകൾ
കതന
കതയ
കതര
കഥ
കഥക
കഥകള
കഥകൾ
കഥയ
കദ
കധ
കന
കനക
കനങ
കനത
കനല
കപ
കപട
കപര
കഫ
കബ
കബന
കഭ
കമ
കമണ
കമത
കമന
കമല
കമലഹ
കമഹ
കമൽ
കയ
കയച
കയത
കയറ
കയല
കയർ
കര
കരക
കരകള
കരങ
കരച
കരഞ
കരട
കരണ
കരണങ
കരണത
കരണപ
കരണമ
കരണവ
കരത
കരന
കരപ
കരഭ
കരമ
കരയ
കരള
കരവ
കരസ
കരൻ
കരൾ
കറ
കറക
കറങ
കറന
കറൻസ
കല
കലക
കലകള
കലകൾ
കലങ
കലണ
കലത
കലന
കലമ
കലയ
കലര
കലവ
കലശ
കലശല
കലഹ
കലർത
കലർന
കള
കളക
കളകയ
കളങ
കളഞ
കളത
കളന
കളമ
കളയ
കളര
കളല
കളവ
കളർ
കഴ
കഴക
കവ
കവച
കവണ
കവന
കവയ
കവര
കവറ
കവല
കവർ
കശ
കശക
കഷ
കഷണ
കഷണങ
കസ
കസന
കസനത
കസനവ
കസഭ
കസഭയ
കസമ
കസസ
കഹ
കൎണ
കൎത
കൎമ
കൺ
കൺട
കൺപ
കൺഫ
കൺവ
കൺസ
കൺസർവ
കൺസൾട
കൻ
കൻഡ
കൻഡറ
കൻമ
കൻസ
കർ
കർക
കർണ
കർത
കർതവ
കർദ
കർപ
കർമ
കർമണ
കർശനമ
കർഷ
കർഷക
കർഷകര
കർഷകർ
കർഷണ
കൽ
കൽക
കൽന
കൽപ
കൽപന
കൽറ
കൽസ
കൾ
കൾക
കൾച
കൾത
കൾപ
കൾഭ
ഖ
ഖക
ഖകന
ഖകരമ
ഖകള
ഖകൻ
ഖകൾ
ഖഗ
ഖങ
ഖച
ഖജ
ഖഡ
ഖണ
ഖത
ഖദ
ഖന
ഖനങ
ഖനത
ഖനന
ഖനമ
ഖനവ
ഖപ
ഖഭ
ഖമ
ഖയ
ഖര
ഖരങ
ഖരണ
ഖരത
ഖരന
ഖരമ
ഖരൻ
ഖല
ഖലകള
ഖലകൾ
ഖലയ
ഖവ
ഖസ
ഖൻ
ഖർ
ഖർജ
ഗ
ഗക
ഗങ
ഗച
ഗജ
ഗഡ
ഗഢ
ഗണ
ഗണങ
ഗണത
ഗണന
ഗണപത
ഗത
ഗതക
ഗതത
ഗതന
ഗതമ
ഗതയ
ഗതവ
ഗതസ
ഗദ
ഗധ
ഗന
ഗപ
ഗബ
ഗഭ
ഗമ
ഗമത
ഗമന
ഗമനങ
ഗമനത
ഗമമ
ഗമല
ഗയ
ഗര
ഗരത
ഗറ
ഗല
ഗലക
ഗലത
ഗള
ഗവ
ഗവണ
ഗവത
ഗവൺമ
ഗവർണ
ഗവർണറ
ഗവർണർ
ഗവർമ
ഗശ
ഗസ
ഗഹ
ഗൺ
ഗൻ
ഗർ
ഗർക
ഗർത
ഗർഭ
ഗർവ
ഗൽ
ഗൽസ
ഗൾ
ഗൾഫ
ഘ
ഘക
ഘങ
ഘട
ഘടക
ഘടകങ
ഘടകമ
ഘടന
ഘടനകള
ഘടനകൾ
ഘടനയ
ഘണ
ഘത
ഘന
ഘനത
ഘനമ
ഘമ
ഘര
ഘവ
ഘവൻ
ഘർഷ
ഘർഷങ
ങ
ങക
ങട
ങണ
ങത
ങന
ങമ
ങയ
ങര
ങല
ങള
ങളടങ
ങളന
ങളല
ങഴ
ങൻ
ങൽ
ങൾ
ങൾക
ങൾതന
ങൾപ
ച
ചക
ചകക
ചകങ
ചകത
ചകന
ചകമ
ചകര
ചകള
ചകൻ
ചകൾ
ചകൾക
ചങ
ചച
ചഞ
ചട
ചടക
ചടങ
ചണ
ചത
ചതന
ചതല
ചദ
ചന
ചനക
ചനകള
ചനകൾ
ചനത
ചനമ
ചനയ
ചനവ
ചപ
ചഭ
ചമ
ചമച
ചമഞ
ചമയ
ചമർത
ചയ
ചയക
ചയങ
ചയച
ചയത
ചയപ
ചയമ
ചയവ
ചര
ചരക
ചരങ
ചരട
ചരണ
ചരണങ
ചരണത
ചരത
ചരന
ചരമ
ചറ
ചറൽ
ചല
ചലച
ചലഞ
ചലന
ചലനങ
ചലനത
ചലമ
ചലസ
ചള
ചവ
ചവച
ചവട
ചവടക
ചവടത
ചവന
ചവയ
ചവര
ചവറ
ചവൻ
ചവർ
ചവർക
ചശ
ചസ
ചൎയ
ചൻ
ചർ
ചർച
ചർമ
ചൽ
ചൽസ
ഛ
ഛക
ഛത
ഛദ
ഛന
ഛമ
ഛയ
ഛസ
ഛൻ
ഛർദ
ജ
ജക
ജകമണ
ജകള
ജകൾ
ജഗ
ജഗത
ജഗദ
ജഗന
ജഘ
ജങ
ജജ
ജട
ജഡ
ജഡത
ജത
ജദ
ജധ
ജന
ജനക
ജനങ
ജനത
ജനതയ
ജനന
ജനനത
ജനപ
ജനമ
ജനയ
ജനറ
ജനറല
ജനറൽ
ജനവ
ജനവര
ജനശ
ജനസ
ജനസമ
ജപ
ജപത
ജബ
ജഭ
ജമ
ജയ
ജയക
ജയകരമ
ജയങ
ജയചന
ജയത
ജയദ
ജയന
ജയനഗര
ജയപ
ജയഭ
ജയമ
ജയര
ജയറ
ജയവ
ജയശ
ജയസ
ജയൻ
ജര
ജറ
ജല
ജലക
ജലജ
ജലത
ജലദ
ജലധ
ജലന
ജലപ
ജലമ
ജലവ
ജലസ
ജവ
ജവഹർല
ജവർമ
ജശ
ജസ
ജഹ
ജൻ
ജൻസ
ജർ
ജർമ
ജർമന
ജർമൻ
ജർഷ
ഝ
ഞ
ഞക
ഞങ
ഞട
ഞണ
ഞത
ഞന
ഞപ
ഞമ
ഞയ
ഞയച
ഞര
ഞരമ
ഞല
ഞള
ഞവ
ഞവയ
ഞവര
ഞശ
ഞസ
ഞൻ
ഞർ
ഞൾ
ട
ടക
ടകക
ടകങ
ടകത
ടകന
ടകപ
ടകമ
ടകയ
ടകര
ടകള
ടകവ
ടകസ
ടകർ
ടകൾ
ടഗ
ടങ
ടച
ടഞ
ടട
ടഡ
ടണ
ടണങ
ടണത
ടണമ
ടണവ
ടത
ടതദ
ടതയ
ടതല
ടദ
ടധ
ടന
ടനക
ടനങ
ടനത
ടനവധ
ടപ
ടപര
ടബ
ടഭ
ടമ
ടമണ
ടമത
ടമയ
ടമല
ടയ
ടയക
ടയച
ടയത
ടയറ
ടയർ
ടര
ടരങ
ടറ
ടറൽ
ടല
ടവ
ടവക
ടവന
ടവയ
ടവര
ടവറ
ടവൻ
ടവർ
ടവർക
ടശ
ടസ
ടഹ
ടൺ
ടൻ
ടൻപ
ടൻസ
ടർ
ടർക
ടർച
ടർട
ടർത
ടർന
ടർഫ
ടർബ
ടർമ
ടൽ
ഠ
ഠക
ഠകള
ഠകൾ
ഠങ
ഠത
ഠന
ഠപ
ഠഭ
ഠമ
ഠയ
ഠര
ഠവ
ഠശ
ഠസ
ഠൻ
ഡ
ഡക
ഡഗ
ഡങ
ഡച
ഡഡ
ഡണ
ഡത
ഡന
ഡനങ
ഡനത
ഡപ
ഡപത
ഡബ
ഡഭ
ഡമ
ഡയ
ഡയഗ
ഡയറ
ഡയറക
ഡര
ഡറ
ഡറൽ
ഡല
ഡലങ
ഡലത
ഡലമ
ഡവ
ഡവന
ഡവര
ഡവലപ
ഡവർ
ഡവർമ
ഡശ
ഡസ
ഡൺ
ഡൻ
ഡൻറ
ഡൻഷ
ഡൻസ
ഡർ
ഡൽ
ഡൽഹ
ഢ
ഢന
ഢമ
ഢവ
ണ
ണക
ണകള
ണഗ
ണങ
ണച
ണജ
ണഞ
ണട
ണണ
ണത
ണതയ
ണദ
ണധ
ണന
ണപ
ണഭ
ണമ
ണമല
ണയ
ണയങ
ണയത
ണര
ണറ
ണല
ണവ
ണവർ
ണശ
ണസ
ണൻ
ണർ
ണർത
ണർന
ണൽ
ത
തക
തകക
തകങ
തകത
തകന
തകപ
തകമ
തകയ
തകര
തകരമ
തകല
തകള
തകഴ
തകവ
തകശ
തകൻ
തകർ
തകർക
തകർച
തകർത
തകർന
തകൾ
തകൾക
തഗ
തഗത
തങ
തച
തജ
തഞ
തട
തടങ
തടഞ
തടത
തടയ
തടവ
തടസ
തടസമ
തഡ
തണ
തണമ
തണല
തത
തതയ
തതസ
തഥ
തദ
തദന
തധ
തന
തനക
തനങ
തനത
തനന
തനപ
തനമ
തനയ
തനര
തനല
തനവ
തപ
തപക
തപത
തപദ
തപര
തപസ
തഫ
തബ
തഭ
തമ
തമണ
തമത
തമന
തമപ
തമമ
തമയ
തമല
തമസ
തമൻ
തയ
തയക
തയച
തര
തരക
തരങ
തരണ
തരണത
തരണമ
തരത
തരന
തരപ
തരബ
തരഭ
തരമ
തരയ
തരവ
തരവന
തരസ
തറ
തറക
തറച
തറയ
തറവ
തല
തലക
തലങ
തലച
തലത
തലന
തലപ
തലമ
തലയ
തലവ
തലവന
തലവൻ
തലശ
തലസ
തള
തളത
തളർന
തഴ
തവ
തവക
തവണ
തവണയ
തവത
തവന
തവനങ
തവമ
തവയ
തവര
തവള
തവളകൾ
തവളയ
തവസ
തവൻ
തവർ
തവർക
തശ
തശര
തസ
തസമ
തഹ
തൎക
തൺ
തൻ
തൻക
തൻപ
തൻമ
തൻറ
തർ
തർക
തർജ
തർദ
തർപ
തർഭ
തർല
തർവ
തൽ
തൽക
തൽപ
തൽഫലമ
തൽമണ
ഥ
ഥക
ഥകള
ഥകർത
ഥകൾ
ഥങ
ഥത
ഥതയ
ഥന
ഥനകൾ
ഥനയ
ഥപ
ഥമ
ഥയ
ഥര
ഥറ
ഥല
ഥലങ
ഥലത
ഥലന
ഥലമ
ഥലവ
ഥവ
ഥശ
ഥസ
ഥൻ
ഥർ
ഥർക
ദ
ദക
ദകര
ദഗ
ദഗത
ദങ
ദച
ദജ
ദണ
ദത
ദദ
ദദർശ
ദധ
ദന
ദനക
ദനങ
ദനത
ദനന
ദനപ
ദനമ
ദനയ
ദനവ
ദനൻ
ദപ
ദപരമ
ദബ
ദഭ
ദമ
ദമന
ദമയന
ദയ
ദയങ
ദയത
ദയന
ദയപ
ദയമ
ദയയ
ദയവ
ദയസ
ദര
ദരങ
ദരന
ദരമ
ദരയ
ദരര
ദരവ
ദരസ
ദരൻ
ദറ
ദല
ദള
ദളങ
ദവ
ദശ
ദശകങ
ദശമ
ദശരഥന
ദശലക
ദസ
ദസഞ
ദഹ
ദഹന
ദൻ
ദൻക
ദർ
ദർപ
ദർബ
ദർഭ
ദർഭങ
ദർഭത
ദർശ
ദർശകര
ദർശന
ദർശനങ
ദർശനത
ദർശനമ
ദൾ
ധ
ധക
ധകന
ധകമ
ധകര
ധകള
ധകൻ
ധകർ
ധഗ
ധങ
ധച
ധജല
ധത
ധതയ
ധതര
ധദ
ധന
ധനക
ധനകള
ധനകൾ
ധനങ
ധനഞ
ധനത
ധനന
ധനമ
ധനയ
ധനവ
ധനസ
ധനസഹ
ധനൻ
ധപ
ധബ
ധഭ
ധമ
ധമത
ധമതക
ധമതത
ധമന
ധമല
ധയ
ധര
ധരണ
ധരന
ധരൻ
ധവ
ധവന
ധവയ
ധവൻ
ധവൽക
ധശ
ധസ
ധസമയത
ധൎമ
ധൻ
ധർ
ധർമ
ധർമര
ധർവ
ന
നക
നകത
നകമ
നകള
നകൾ
നഖ
നഖങ
നഗ
നഗര
നഗരങ
നഗരത
നഗരപ
നഗരമ
നഗരവ
നഗരസഭ
നഗരസഭയ
നഗറ
നഗർ
നങ
നച
നജ
നഞ
നട
നടക
നടത
നടന
നടപ
നടപട
നടയ
നടര
നടൻ
നഡ
നഡയ
നണ
നത
നതക
നതകള
നതത
നതന
നതമ
നതയ
നതര
നതല
നതവ
നഥ
നദ
നദണ
നധ
നന
നനഞ
നനന
നനയ
നനവ
നപ
നപക
നപത
നപര
നപരമ
നഫ
നബ
നഭ
നമ
നമത
നമന
നമല
നമസ
നയ
നയങ
നയജ
നയത
നയതന
നയന
നയമ
നയര
നയവ
നര
നരക
നരകത
നരചന
നരചയ
നരധ
നരന
നരപ
നരവ
നരസ
നറ
നല
നലക
നള
നളന
നഴ
നവ
നവക
നവജ
നവന
നവമ
നവയ
നവര
നവള
നവസ
നവൎക
നവൻ
നവർ
നവർക
നവൾ
നശ
നഷ
നസ
നസത
നസന
നസമ
നഹ
നഹദ
നൎത
നൻ
നർ
നർജ
നർജന
നർത
നർഥ
നർന
നർമ
നർവ
നൽ
നൽക
നൽകണ
നൽകണമ
നൽകപ
പ
പക
പകന
പകമ
പകയ
പകര
പകരണ
പകരണങ
പകരമ
പകല
പകവ
പകശ
പകൻ
പകർ
പകർക
പകർച
പകർത
പകർന
പകർപ
പകൽ
പകൽപ
പഗ
പഗത
പങ
പച
പജ
പഞ
പട
പടക
പടങ
പടത
പടന
പടപ
പടയ
പടയണ
പടര
പടവ
പടർന
പഠ
പഠന
പഠനക
പഠനങ
പഠനത
പഠനമ
പഠനവ
പഠനശ
പണ
പണങ
പണത
പണന
പണമ
പണയ
പണവ
പത
പതത
പതന
പതനത
പതയ
പഥ
പഥങ
പഥത
പദ
പദങ
പദത
പദമ
പദവ
പന
പനക
പനകള
പനകൾ
പനങ
പനച
പനത
പനപ
പനമ
പനയ
പനവ
പപ
പബ
പഭ
പമ
പമല
പയ
പയന
പയറ
പയർ
പര
പരക
പരകള
പരകൾ
പരത
പരദ
പരന
പരപ
പരബ
പരമ
പരമശ
പരയ
പരല
പരവ
പരശ
പരസ
പറ
പറക
പറകയ
പറങ
പറഞ
പറത
പറന
പറപ
പറമ
പറയ
പറയണ
പറയപ
പറയര
പററ
പറവ
പല
പലക
പലങ
പലത
പലതര
പലതരത
പലതവണ
പലപ
പലഭ
പലമ
പലയ
പലര
പലവ
പലസ
പലഹ
പലർക
പള
പഴ
പഴക
പഴങ
പഴഞ
പഴത
പഴന
പഴമ
പഴയ
പഴയക
പഴയത
പഴയന
പഴവ
പഴശ
പവ
പവക
പവത
പവന
പവൻ
പവർ
പശ
പഷ
പസ
പസന
പസഫ
പസമ
പഹ
പൎയ
പൎവ
പൺ
പൻ
പൻഹ
പർ
പർക
പർട
പർണ
പർദ
പർന
പർപ
പർമ
പർവ
പർവത
പർവതങ
പർവതത
പർവതന
പർശ
പൽ
പൾസ
ഫ
ഫക
ഫങ
ഫട
ഫണ
ഫത
ഫന
ഫയ
ഫയറ
ഫയല
ഫയർ
ഫയർഫ
ഫയൽ
ഫര
ഫറ
ഫറവ
ഫറസ
ഫല
ഫലക
ഫലകങ
ഫലകത
ഫലങ
ഫലത
ഫലന
ഫലപ
ഫലഭ
ഫലമ
ഫലവ
ഫലസ
ഫഷണൽ
ഫസ
ഫസറ
ഫസർ
ഫൻ
ഫൻസ
ഫർ
ബ
ബക
ബഗ
ബങ
ബച
ബജ
ബജറ
ബഞ
ബട
ബഡ
ബണ
ബത
ബദ
ബധ
ബന
ബപ
ബബ
ബഭ
ബമ
ബയ
ബര
ബരത
ബറ
ബറൽ
ബല
ബലക
ബലത
ബലപ
ബലമ
ബലവ
ബലഹ
ബള
ബവ
ബഷ
ബസ
ബഹ
ബഹദ
ബൺ
ബൻ
ബൻസ
ബർ
ബർക
ബർഗ
ബർട
ബർണ
ബർമ
ബർല
ബൽ
ബൾഗ
ബൾബ
ഭ
ഭക
ഭഗ
ഭഗത
ഭഗവ
ഭഗവത
ഭഗവദ
ഭഗവൻ
ഭങ
ഭജ
ഭജന
ഭജനത
ഭട
ഭടന
ഭണ
ഭത
ഭദ
ഭന
ഭപ
ഭമ
ഭയ
ഭയങ
ഭയത
ഭയന
ഭയപ
ഭയമ
ഭയവ
ഭര
ഭരണ
ഭരണക
ഭരണകർത
ഭരണഘടന
ഭരണഘടനയ
ഭരണങ
ഭരണത
ഭരണന
ഭരണപരമ
ഭരണമ
ഭരണവ
ഭരണസ
ഭരണസമ
ഭരത
ഭരതന
ഭരതൻ
ഭരതർഷഭ
ഭരദ
ഭല
ഭവ
ഭവങ
ഭവത
ഭവദ
ഭവന
ഭവനങ
ഭവനത
ഭവപ
ഭവമ
ഭവവ
ഭവസ
ഭവൻ
ഭസ
ഭൎത
ഭൻ
ഭർത
മ
മക
മകത
മകഥ
മകഥയ
മകന
മകമ
മകര
മകരണ
മകരമ
മകള
മകവ
മകൻ
മകൾ
മകൾക
മഖ
മഗ
മഗത
മഘട
മങ
മച
മചന
മചര
മജ
മജന
മജൻ
മഞ
മട
മടക
മടങ
മഠ
മഠത
മഡ
മഡഗ
മണ
മണക
മണത
മണന
മണമ
മണര
മണല
മണവ
മണസ
മണൻ
മണർ
മണർക
മണൽ
മണൽക
മത
മതക
മതങ
മതത
മതന
മതപ
മതപര
മതപരമ
മതമ
മതല
മതലകൾ
മതലപ
മതലയ
മതവ
മതസ
മഥ
മദ
മദന
മദർ
മധ
മന
മനക
മനത
മനന
മനപ
മനമ
മനയ
മനശ
മനസ
മപ
മപഞ
മപര
മബ
മഭ
മമ
മമത
മയ
മയക
മയങ
മയത
മയന
മയമ
മര
മരക
മരങ
മരച
മരണ
മരണക
മരണങ
മരണത
മരണന
മരണപ
മരണമ
മരണമടഞ
മരണമടയ
മരണയ
മരണവ
മരണശ
മരത
മരന
മരപ
മരമ
മരയ
മരവ
മരശ
മറ
മറക
മറച
മറഞ
മറന
മറയ
മററ
മറവ
മല
മലക
മലകള
മലകൾ
മലങ
മലഞ
മലത
മലന
മലപ
മലബ
മലമ
മലയ
മലര
മള
മഴ
മഴക
മഴയ
മഴവ
മവ
മവന
മവർമ
മശ
മഷ
മസ
മസക
മസത
മസമ
മഹ
മഹത
മഹദ
മഹന
മഹമ
മഹല
മഹർഷ
മഹൽ
മൎത
മൎയ
മൺ
മൺപ
മൺറ
മൺവ
മൺസ
മൻ
മൻക
മൻപ
മൻമ
മൻസ
മർ
മർക
മർത
മർദ
മർമ
മർശ
മർശകർ
മർശങ
മർശന
മർശനങ
മർശനത
മർശമ
മൽ
മൽപ
മൽസ
മൽസര
മൾ
മൾക
മൾട
യ
യക
യകക
യകത
യകതയ
യകന
യകമ
യകയ
യകര
യകരമ
യകല
യകള
യകവ
യകൻ
യകർ
യകർമ
യകൾ
യകൾക
യഗ
യഘട
യങ
യച
യചര
യജ
യജന
യജമ
യഞ
യട
യടക
യടന
യടനത
യഡ
യണ
യണഗ
യണത
യണന
യണപ
യണമ
യണൻ
യണൽ
യത
യതക
യതകള
യതകൾ
യതത
യതന
യതമ
യതയ
യതല
യഥ
യദ
യധ
യന
യനക
യനന
യനയ
യനല
യനശ
യനൻ
യപ
യപക
യപത
യപദ
യപര
യപരമ
യബ
യബന
യബല
യഭ
യമ
യമക
യമങ
യമണ
യമത
യമന
യമപ
യമപരമ
യമമ
യമര
യമറ
യമല
യമവ
യമശ
യമസ
യമസഭ
യമസഭയ
യമഹ
യമർഹ
യയ
യയങ
യയത
യയന
യയമ
യയശ
യര
യരക
യറ
യറയ
യല
യലക
യഴ
യവ
യവക
യവത
യവന
യവയ
യവര
യവശ
യവസ
യവഹ
യവഹര
യവൻ
യവർ
യവർക
യവർഗ
യവൽക
യശ
യശക
യശര
യശസ
യഷ
യസ
യസന
യസനത
യസഭ
യസഭയ
യസമ
യസമര
യസമരത
യസമരസ
യസഹ
യഹ
യഹര
യൎക
യൎത
യൺ
യൻ
യൻക
യൻമ
യൻറ
യൻഷ
യൻസ
യർ
യർക
യർത
യർഥ
യർന
യർപ
യർമ
യൽ
ര
രക
രകങ
രകട
രകടന
രകടനങ
രകടനത
രകടമ
രകത
രകഥ
രകന
രകമ
രകയ
രകര
രകരണ
രകല
രകലയ
രകള
രകവ
രകൻ
രകൾ
രകൾക
രഖ
രഗ
രഗണ
രഗത
രഗല
രഘ
രങ
രച
രചക
രചന
രചനകള
രചനകൾ
രചനയ
രചയ
രചര
രചരണ
രഛ
രജ
രജകള
രജന
രജനന
രജപ
രജസ
രജൻ
രഞ
രട
രഡ
രണ
രണക
രണകള
രണകൾ
രണഗത
രണങ
രണത
രണന
രണപ
രണമ
രണയ
രണയത
രണര
രണവ
രണസ
രത
രതത
രതന
രതപ
രതമ
രതയ
രതര
രതല
രതലത
രഥ
രഥത
രഥന
രഥമ
രദ
രദക
രദന
രദമ
രദവ
രദൻ
രദർശ
രദർശന
രദർശനങ
രദർശനത
രധ
രന
രനട
രനടന
രനന
രനല
രപ
രപഞ
രപത
രപദ
രപര
രപരമ
രപരവ
രഫ
രബ
രബന
രബല
രബലമ
രഭ
രഭദ
രഭയ
രഭരണ
രമ
രമക
രമങ
രമണ
രമണക
രമണങ
രമണത
രമണപഥത
രമണമ
രമണവ
രമത
രമദ
രമന
രമപ
രമമ
രമയ
രമര
രമരഹ
രമല
രമവ
രമസ
രമഹ
രമൻ
രയ
രയത
രയന
രയമ
രയല
രയവ
രയൽ
രര
രരചന
രറ
രല
രള
രളചര
രളത
രളന
രളപ
രളമ
രളയ
രളവ
രളവർമ
രളസ
രവ
രവക
രവങ
രവച
രവചന
രവചനങ
രവട
രവണ
രവണത
രവത
രവധ
രവന
രവമ
രവര
രവവ
രവശ
രവസ
രവഹ
രവൻ
രവർ
രവർഗ
രവർത
രവർമ
രശ
രശക
രശറ
രശലഭങ
രശസ
രഷ
രഷന
രസ
രസക
രസകരമ
രസങ
രസത
രസതന
രസന
രസഭ
രസഭയ
രസമ
രസര
രസവ
രസവത
രസസ
രസർക
രഹ
രഹങ
രഹണ
രഹത
രഹപ
രഹമ
രഹര
രഹവ
രഹസ
രൺ
രൺജ
രൻ
രൻമ
രൻസ
രർ
രർക
രൽ
റ
റക
റകള
റകൾ
റഗ
റങ
റച
റജ
റഞ
റട
റഡ
റണ
റത
റദ
റന
റനന
റപ
റഫ
റഫറൻസ
റഫർ
റബ
റമ
റയ
റയൽ
റര
ററ
റല
റള
റളവ
റഴ
റവ
റവന
റവര
റശ
റഷ
റസ
റഹ
റൺ
റൺസ
റൻ
റൻസ
റർ
റർജ
റർട
റർഡ
റർന
റർപ
റർഫ
റർമ
റർസ
റൽ
ല
ലഎന
ലക
ലകങ
ലകണ
ലകത
ലകന
ലകപ
ലകമ
ലകര
ലകള
ലകവ
ലകൻ
ലകൾ
ലകൾക
ലഖ
ലഗ
ലഗണന
ലഘ
ലഘട
ലങ
ലച
ലചന
ലജ
ലഞ
ലട
ലടങ
ലടച
ലടയ
ലഡ
ലണ
ലത
ലതയ
ലദ
ലധ
ലധന
ലന
ലനത
ലനവ
ലപ
ലഫ
ലബ
ലഭ
ലഭമ
ലമ
ലമത
ലമന
ലയ
ലയങ
ലയത
ലയന
ലയമ
ലയളവ
ലയവ
ലയൻ
ലയർ
ലര
ലറ
ലറയ
ലല
ലള
ലവ
ലവക
ലവണ
ലവണങ
ലവത
ലവന
ലവര
ലവഴ
ലവസ
ലവൻ
ലവർ
ലവർഷ
ലശ
ലസ
ലഹ
ലഹര
ലഹള
ലഹളയ
ലൻ
ലൻഡ
ലൻസ
ലർ
ലർക
ലർച
ലർത
ലൽ
ള
ളക
ളകള
ളകവ
ളകൾ
ളഗ
ളങ
ളച
ളചലച
ളജ
ളഞ
ളട
ളടക
ളണ
ളണമ
ളത
ളതല
ളതലത
ളദ
ളന
ളനങ
ളനത
ളപ
ളബ
ളഭ
ളമ
ളയ
ളയട
ളയത
ളര
ളറ
ളല
ളള
ളളത
ളവ
ളവന
ളവയ
ളവര
ളവൎക
ളവൻ
ളവർ
ളവർക
ളശ
ളസ
ളൻ
ളർ
ളർന
ളർപ
ളർഷ
ളൽ
ഴ
ഴക
ഴകള
ഴകൾ
ഴങ
ഴച
ഴഞ
ഴടക
ഴടങ
ഴത
ഴന
ഴപ
ഴമ
ഴയ
ഴര
ഴറ
ഴല
ഴവ
ഴൽ
വ
വക
വകക
വകത
വകന
വകഭ
വകയ
വകര
വകല
വകള
വകവ
വകർമ
വകൾ
വഗ
വങ
വച
വചന
വചനങ
വചനത
വചര
വജ
വജന
വഞ
വട
വടക
വടകര
വടങ
വഡ
വണ
വണങ
വണന
വണൻ
വത
വതകള
വതകൾ
വതങ
വതത
വതന
വതമ
വതയ
വതവ
വദ
വദത
വദന
വധ
വധശ
വന
വനക
വനകള
വനകൾ
വനകൾക
വനങ
വനത
വനദ
വനന
വനപ
വനമ
വനമന
വനയ
വനവ
വനസ
വപ
വപര
വബ
വഭ
വഭക
വമ
വമന
വമല
വമസ
വയ
വയത
വയന
വയമ
വയറ
വയല
വയലറ
വയവങ
വയസ
വയർ
വയർല
വയൽ
വര
വരക
വരകള
വരകൾ
വരങ
വരച
വരട
വരണ
വരണങ
വരണത
വരണമ
വരത
വരദ
വരന
വരപ
വരമ
വരമന
വരയ
വരയൻ
വരര
വരവ
വരശ
വരസ
വരൻ
വരൾച
വറ
വല
വലക
വലങ
വലഞ
വലത
വലന
വലപ
വലമ
വലയ
വലയത
വള
വളങ
വളച
വളഞ
വളത
വളപ
വളമ
വളയ
വളര
വളവ
വളൎത
വളർച
വളർത
വളർന
വഴ
വഴക
വഴങ
വവ
വവർഗ
വശ
വശക
വശങ
വശത
വശപ
വശമ
വശവ
വഷള
വസ
വസങ
വസത
വസന
വസമ
വസവ
വഹ
വഹണ
വഹന
വൎക
വൎഗ
വൎണ
വൎത
വൎദ
വൎഷ
വൎഷത
വൺ
വൻ
വൻക
വൻകര
വൻകരയ
വൻത
വൻപ
വൻസ
വർ
വർക
വർഗ
വർഗങ
വർഗത
വർച
വർജ
വർട
വർണ
വർത
വർതത
വർദ
വർധ
വർന
വർപ
വർമ
വർഷ
വർഷക
വർഷങ
വർഷത
വർഷമ
വർഷവ
വൽ
വൽക
വൽപ
വൾ
ശ
ശക
ശകന
ശകരമ
ശകലന
ശകലനത
ശകള
ശഗ
ശങ
ശച
ശജ
ശജന
ശജയ
ശജര
ശജർ
ശണ
ശത
ശതക
ശതകത
ശതമ
ശദ
ശദമ
ശന
ശനത
ശനമ
ശനഷ
ശപ
ശപരമ
ശബ
ശബര
ശഭ
ശമ
ശമന
ശയ
ശയങ
ശയത
ശയന
ശയമ
ശയവ
ശര
ശരണ
ശരത
ശല
ശലഭ
ശലഭങ
ശലഭപ
ശവ
ശവക
ശവത
ശവന
ശവപ
ശവസ
ശവൻ
ശവൻനമ
ശവർഷ
ശശ
ശസ
ശൻ
ശർക
ശർമ
ഷ
ഷക
ഷകങ
ഷകന
ഷകനദ
ഷകയ
ഷകര
ഷകരമ
ഷകള
ഷകൻ
ഷകർ
ഷകർക
ഷകൾ
ഷകൾക
ഷഗ
ഷങ
ഷച
ഷജ
ഷട
ഷഡ
ഷണ
ഷണക
ഷണങ
ഷണത
ഷണന
ഷണപ
ഷണപദ
ഷണമ
ഷണയ
ഷണര
ഷണറ
ഷണല
ഷണവ
ഷണശ
ഷണസ
ഷണർ
ഷണൽ
ഷത
ഷതകള
ഷതകൾ
ഷതയ
ഷദ
ഷധ
ഷന
ഷനറ
ഷനൽ
ഷപ
ഷബ
ഷഭ
ഷമ
ഷമത
ഷമതയ
ഷമമ
ഷമയ
ഷയ
ഷയങ
ഷയത
ഷയമ
ഷയര
ഷയവ
ഷര
ഷരങ
ഷരത
ഷരമ
ഷരവ
ഷറ
ഷല
ഷവ
ഷശ
ഷഷ
ഷസ
ഷസന
ഷസൻ
ഷഹ
ഷൺ
ഷൻ
ഷൻമ
ഷൻസ
ഷർ
ഷർട
സ
സക
സകല
സകലത
സകലവ
സകള
സകൾ
സഖ
സഗ
സങ
സച
സജ
സഞ
സഡ
സണ
സണൽ
സത
സതത
സദ
സദസ
സധ
സന
സനങ
സനത
സനയ
സപ
സപദ
സപര
സഫ
സഫല
സഫലമ
സബ
സബത
സഭ
സഭക
സഭകള
സഭകൾ
സഭയ
സമ
സമക
സമഗ
സമചത
സമത
സമതല
സമതലങ
സമതലത
സമന
സമഭ
സമമ
സമയ
സമയങ
സമയത
സമയമ
സമയവ
സമര
സമരങ
സമരത
സമവ
സമസ
സമർത
സമർപ
സയ
സയന
സയൻസ
സയൻസസ
സര
സരങ
സരണ
സരത
സരപ
സരമ
സരവ
സരസ
സറ
സല
സവ
സവക
സവങ
സവത
സവമ
സവസ
സവർണ
സശ
സസ
സസറ
സഹ
സഹക
സഹകര
സഹകരണ
സഹകരണത
സഹജമ
സഹത
സഹദ
സഹനട
സഹപ
സഹമ
സഹവ
സഹസ
സൎക
സൎഗ
സൎപ
സൎവ
സൺ
സൺസ
സൻ
സൻസ
സർ
സർക
സർഗ
സർച
സർജ
സർജന
സർജറ
സർട
സർദ
സർപ
സർപഞ
സർമ
സർലൻഡ
സർവ
സർവകല
സർവത
സർവദ
സർവഭ
സർവവ
സർവശ
സർവസ
സൽ
സൽക
സൽമ
സൾഫ
സൾഫർ
ഹ
ഹക
ഹകന
ഹകര
ഹകള
ഹകൻ
ഹകർ
ഹകൾ
ഹഗ
ഹങ
ഹച
ഹചര
ഹജ
ഹഡ
ഹണ
ഹത
ഹദ
ഹന
ഹനങ
ഹനത
ഹനന
ഹനമ
ഹപ
ഹബ
ഹബന
ഹഭ
ഹമ
ഹയ
ഹയർ
ഹയർസ
ഹര
ഹരജ
ഹരണ
ഹരണങ
ഹരണത
ഹരണമ
ഹരമ
ഹരൻ
ഹറ
ഹല
ഹള
ഹവ
ഹശ
ഹസ
ഹസൻ
ഹൻ
ഹൻല
ഹർ
ഹർജ
ഹർത
ഹർഷ
഼
ഽ
ഽഗ
ഽത
ഽഥ
ഽദ
ഽധ
ഽന
ഽപ
ഽബ
ഽഭ
ഽയ
ഽസ
ഽഹ
ാ
ി
ീ
ു
ൂ
ൃ
ൄ
െ
േ
ൈ
്
ൎ
ൎക
ൎഗ
ൎച
ൎജ
ൎണ
ൎത
ൎദ
ൎന
ൎപ
ൎബ
ൎമ
ൎയ
ൎല
ൎവ
ൎസ
ൗ
ൟ
ൠ
ൡ
ൢ
൦
൧
൧൦
൧൧
൧൨
൧൩
൧൪
൧൫
൧൬
൧൭
൧൮
൧൯
൨
൨൦
൨൧
൨൨
൨൩
൨൪
൨൫
൨൬
൨൭
൨൮
൨൯
൩
൩൦
൩൧
൩൨
൩൩
൩൪
൩൫
൩൬
൩൭
൪
൪൦
൫
൬
൭
൮
൯
൹
ൺ
ൺക
ൺഗ
ൺട
ൺഡ
ൺത
ൺപ
ൺഫ
ൺഫറൻസ
ൺമ
ൺമക
ൺറ
ൺല
ൺവ
ൺഷ
ൺസ
ൺസന
ൺസൺ
ൻ
ൻഎന
ൻക
ൻകര
ൻഗ
ൻഗണന
ൻച
ൻജ
ൻട
ൻഡ
ൻഡറ
ൻഡല
ൻഡർ
ൻത
ൻതന
ൻദ
ൻന
ൻപ
ൻപത
ൻപറഞ
ൻഫ
ൻബ
ൻബർഗ
ൻഭ
ൻമ
ൻയ
ൻറ
ൻല
ൻവ
ൻവല
ൻവശത
ൻഷ
ൻഷന
ൻഷൻ
ൻസ
ൻസന
ൻസറ
ൻസസ
ൻസൺ
ൻസർ
ൻഹ
ർ
ർആന
ർആൻ
ർക
ർഖ
ർഖണ
ർഗ
ർഗങ
ർഗത
ർഗന
ർഗമ
ർഗരറ
ർഗവ
ർഘ
ർഘക
ർഘമ
ർഘവ
ർച
ർജ
ർട
ർഡ
ർഡന
ർഡൻ
ർഡർ
ർണ
ർണമ
ർണയ
ർണല
ർണവ
ർണർ
ർണൽ
ർത
ർതര
ർഥ
ർഥങ
ർഥത
ർഥമ
ർദ
ർധ
ർന
ർപ
ർപറ
ർഫ
ർബ
ർബണ
ർബന
ർബറ
ർബല
ർബലമ
ർബൺ
ർബർ
ർഭ
ർഭവ
ർമ
ർമന
ർമറ
ർമസ
ർമൻ
ർമൽ
ർയ
ർര
ർറ
ർല
ർലഭ
ർലമ
ർലറ
ർള
ർവ
ർവച
ർവചന
ർവത
ർവന
ർവമ
ർവര
ർവറ
ർവഹ
ർവർ
ർവർണ
ർശ
ർശന
ർഷ
ർഷന
ർഷൻ
ർഷൽ
ർസ
ർഹ
ർഹമ
ൽ
ൽക
ൽഗ
ൽച
ൽജ
ൽട
ൽഡ
ൽത
ൽതന
ൽദ
ൽന
ൽനടയ
ൽപ
ൽപത
ൽപര
ൽപറഞ
ൽഫ
ൽബ
ൽഭ
ൽമ
ൽമക
ൽര
ൽറ
ൽവ
ൽവച
ൽവന
ൽവര
ൽവർ
ൽശ
ൽഷ
ൽസ
ൽസൺ
ൽഹ
ൾ
ൾക
ൾകയ
ൾഗ
ൾച
ൾട
ൾഡ
ൾഡൻ
ൾത
ൾതന
ൾന
ൾപ
ൾഫ
ൾബ
ൾമ
ൾവ
ൾവഴ
ൾഷ
ൾസ
ൿ
්
ා
ි
ෙ
ั
ิ
ี
ุ
่
้
་
​
‌
‍
‎
‏
‑
–
—
‘
’
“
”
„
†
‡
•
…
′
″
‹
›
₁
₂
€
₹
←
↑
→
↔
↷
∈
−
≥
⋅
③
④
⑦
►
▼
●
♀
♔
♥
♫
✆
✉
✱
❁
❙
❚
⺀
⺄
⺆
⺈
⺊
⺌
⺕
⺝
⺸
⺼
⿰
⿱
⿲
⿳
⿴
⿵
⿶
⿷
⿸
⿹
⿺
⿻
〢
の
゙
コ
ト
ユ
ン
ー
㇁
㇂
㇄
㇇
㇈
㇉
㇓
㐁
㐄
㐅
㐌
㐫
㐬
㐭
㐮
㐱
㑒
㒵
㒸
㒼
㓁
㓞
㔾
㕛
㕣
㖾
㘝
㚅
㚇
㚔
㚘
㝉
㝡
㝴
㝵
㞋
㞢
㞷
㠩
㠭
㠯
㡀
㡭
㡿
㢲
㢴
㣇
㣺
㥯
㪅
㫄
㫐
㫒
㫺
㬅
㬎
㬥
㬰
㲋
㳄
㷠
㸒
㸚
㸦
㼌
㼲
㽞
㿟
䀠
䂞
䍃
䏍
䒑
䖍
䖒
䖝
䖵
䙴
䚻
䜌
䝿
䡛
䧹
䪞
一
丁
丂
七
丄
丅
丆
万
丈
三
上
下
丌
不
与
丏
丐
丑
专
且
丕
世
丘
丙
业
东
丞
丢
丣
两
严
並
丨
丩
个
丫
丬
中
丮
丰
丱
串
丵
丶
丷
丸
丹
为
主
丽
丿
乀
乂
乃
久
乆
乇
么
义
之
乌
乍
乎
乏
乐
乑
乔
乖
乗
乘
乙
乚
乛
乜
九
乞
也
习
乡
乳
乾
亀
亅
了
亇
予
争
事
二
亍
于
亏
亐
云
互
亓
五
井
亘
亚
亜
亞
亟
亠
亡
亢
交
亥
亦
产
亨
亩
享
京
亭
亮
亯
亰
亲
亳
亶
亷
人
亻
亼
亾
仁
今
介
仌
从
仐
仑
仒
仓
仕
他
付
仝
代
令
以
任
企
伊
伏
伐
休
会
伯
但
位
何
佘
余
作
佥
使
來
侈
侌
侖
侯
侵
便
保
俞
信
修
倉
倍
候
倠
備
僉
僕
儿
兀
允
兂
元
兄
充
兆
兇
先
光
兊
克
兌
免
兑
兒
兓
兔
党
兜
兟
入
全
兩
兪
八
公
六
兮
兰
共
关
兵
其
具
典
兹
兼
冀
冂
冃
冄
内
冈
冉
冊
冋
册
再
冎
冏
冐
冒
冓
冖
冗
冘
军
农
冝
冡
冥
冫
冬
冷
几
凡
凢
凵
凶
凷
凸
凹
出
函
凾
刀
刁
刂
刃
刄
刅
分
切
刍
刑
刕
刖
列
刘
则
初
別
利
别
到
制
刺
則
削
剌
前
剡
剽
劉
力
功
加
劦
助
劫
劳
劵
勃
勇
勉
勒
動
務
勞
勤
勹
勺
勻
勾
勿
匀
匂
包
匆
匈
匊
匋
匍
匕
化
北
匚
匝
匡
匪
匱
匸
匹
区
医
匽
匿
區
十
卂
千
卄
卅
卆
升
午
卉
半
卌
华
卑
卒
卓
单
卖
南
卜
卝
卞
占
卡
卢
卣
卤
卦
卩
卪
卬
卯
印
危
即
却
卵
卷
卸
卻
厂
厃
厄
历
厈
厉
厌
厓
厘
厚
原
厤
厥
厨
厭
厲
厶
厷
厸
去
厼
厽
叀
参
參
叅
又
叉
及
友
双
反
叐
发
叒
叔
叕
取
受
叚
叜
叟
口
古
句
另
叩
只
召
可
台
叱
史
右
叵
号
司
叹
吂
各
吅
合
吉
吊
吋
同
名
后
吏
向
吕
君
吝
吞
否
含
启
吳
吴
吹
吾
呂
呆
呈
告
员
呙
周
命
咅
和
咎
咠
咢
咨
咸
咼
哀
品
哉
員
哥
哲
唐
商
啇
問
啚
啬
啻
善
喜
喬
單
喿
嗇
噩
嚴
囊
囗
囘
囙
囚
四
回
囟
因
囧
囬
困
囱
囷
固
国
圂
圅
國
圍
圓
土
圡
圣
圥
在
圭
地
圶
圼
坐
坒
坚
坴
垂
垔
垚
埀
埋
城
埶
執
基
堂
堅
堆
堇
堯
塞
墨
壘
士
壬
壯
声
壳
壴
壹
壺
壽
夂
处
夅
夆
备
夊
夋
夌
复
夏
夒
夕
外
夗
夘
多
夜
夢
大
夨
天
太
夫
夬
夭
央
失
夲
头
夷
夸
夹
夻
夾
奂
奄
奇
奈
奉
奎
奏
奐
契
奓
奔
奚
奞
奠
奢
奥
奭
女
奴
奻
好
如
妄
妙
妟
妥
妻
妾
姑
委
姜
威
娄
婁
婴
嬰
嬴
子
孑
孔
孕
孖
字
存
孚
孛
孝
孟
季
孤
学
孫
孱
學
宀
宁
宂
它
宅
宇
守
安
宋
完
宏
宓
宗
官
定
宛
宜
宝
客
宣
室
宮
宰
害
家
容
宾
宿
寄
寅
密
富
寒
察
寧
審
寫
寬
寮
寸
对
寺
寻
寽
対
寿
封
尃
射
将
將
專
尉
尊
尋
尌
對
小
少
尒
尓
尔
尖
尗
尚
尞
尢
尣
尤
尧
尨
尭
就
尸
尹
尺
尻
尼
尽
尾
尿
局
居
屈
屋
屎
屏
屑
展
屖
屚
属
屠
屡
屬
屮
屯
屰
山
屵
屾
岁
岂
岑
岡
岩
岳
岸
峯
島
崇
崑
崔
崖
崙
崩
嵬
嶲
巂
巛
川
州
巟
巠
巢
巤
工
左
巧
巨
巩
巫
差
己
已
巳
巴
巷
巸
巽
巾
巿
帀
市
布
希
帚
帛
帝
带
師
席
帶
常
干
平
年
幵
并
幷
幸
幺
幻
幼
幽
幾
广
広
庄
床
底
店
庚
府
度
庫
庭
庶
康
庸
廉
廌
廛
廣
廩
廴
延
廷
建
廾
廿
开
弁
弃
弄
弇
弋
式
弓
弔
引
弗
弘
弜
弟
弥
弦
弱
張
強
强
彊
彌
彎
彐
彑
当
彔
录
彖
彗
彡
形
彥
彦
彧
彭
彳
役
彼
往
待
律
徒
得
徙
從
復
微
徵
心
忄
必
忌
忍
志
忝
忠
忩
快
念
忽
忿
思
怠
急
怱
恆
恒
恩
恭
息
悉
患
悤
悲
悶
惠
惡
惢
愁
愈
意
愛
感
慈
慧
慮
憂
憲
應
戀
戈
戉
戊
戋
戌
戍
戎
成
我
戒
戔
或
戚
戠
戢
截
戲
戶
户
戹
戼
戾
房
所
扁
扇
手
扌
才
打
托
执
承
折
拉
拜
拿
掌
推
提
摩
支
攴
攵
收
攸
改
放
政
敄
敏
敕
敖
敗
敝
敞
敢
散
敦
敫
敬
数
敷
數
斂
文
斉
斊
斗
斤
斥
斩
斬
斯
新
方
於
施
斿
旁
旋
族
无
旡
既
旣
日
旦
旧
旨
早
旬
旱
旲
时
旾
昆
昇
昌
昍
明
昏
易
昔
昗
昜
星
春
昬
是
昱
昴
昷
時
晃
晋
晏
普
景
晶
智
暑
暴
曇
曩
曰
曲
曳
更
曷
書
曹
曼
曾
替
最
朁
會
月
有
朋
服
朔
朕
朗
望
朝
木
朩
未
末
本
札
朮
术
朱
朵
朶
朿
杀
杏
杜
束
条
来
東
杲
杳
松
析
林
枚
果
枝
枲
枼
某
柔
查
柬
柰
柴
栗
桀
桑
桼
梁
條
梟
梨
棘
棠
棥
森
楚
業
楽
榮
樂
樊
欠
次
欣
欮
欲
欶
欽
款
歆
歇
歛
止
正
此
步
武
歨
歪
歮
歯
歰
歲
歴
歷
歸
歹
歺
死
殳
段
殷
殸
殹
殺
殻
殿
毋
毌
母
每
毒
比
毕
毚
毛
毳
氏
氐
民
气
氣
水
氵
氶
氷
永
氺
氾
求
汝
汞
江
沃
沓
沙
沝
泉
法
波
泣
泥
泰
洛
洪
活
派
流
浦
浪
浮
淡
淮
清
渚
渠
湯
滿
漸
火
灬
灭
灰
灵
灷
炅
炎
炏
炗
炙
炭
為
烈
烏
烝
焉
無
焦
焱
然
煞
熊
熏
燕
營
燮
爪
爫
爭
爯
爰
爱
爲
爵
父
爻
爽
爾
爿
片
牙
牚
牛
牜
牟
牢
牧
牪
牽
犀
犬
犭
犮
狂
狄
狊
独
狺
猋
猒
猪
献
獻
玄
率
玉
王
玟
玨
珎
班
琴
瑟
瑩
瓜
瓦
甘
甚
生
産
用
甫
甬
田
由
甲
申
电
甶
男
甸
甹
画
甾
畀
界
畏
畐
留
畜
畟
畢
畧
畨
番
畫
異
畱
當
畺
畾
疊
疋
疌
疑
疒
疾
癶
癸
癹
登
發
白
百
皀
皃
的
皆
皇
皋
皐
皕
皮
皷
皿
盃
盆
盇
盈
益
盍
盎
监
盒
盖
盛
盡
監
盤
盧
目
直
相
盾
省
眇
眉
看
眔
眞
真
眷
眼
眾
着
睘
睪
睿
瞏
瞢
瞿
矍
矛
矞
矢
矣
知
矦
短
石
破
碎
磊
磨
示
礻
礼
祟
票
祭
禀
禁
禸
禹
禺
离
禽
禾
禿
秀
秃
秉
秋
科
秝
秦
移
稟
穀
穌
穴
究
穹
空
穿
突
窄
窒
立
竒
竜
竝
竟
章
童
竹
笑
笠
筆
等
答
箕
算
箴
節
篤
篭
米
粉
粛
粟
粤
粦
粲
糞
糸
糹
系
約
納
素
索
紫
累
細
絜
絫
絲
維
綿
縣
繇
纍
纟
缶
网
罒
罔
罕
罗
罙
罡
罢
罪
署
罷
羅
羊
羌
羍
美
羔
羕
羗
羞
羡
羣
群
義
羲
羸
羽
翁
翏
習
翕
翟
翠
翼
老
耂
考
者
耆
而
耎
耑
耒
耳
耴
耶
耷
聂
聊
聖
聚
聶
聿
肀
肃
肅
肉
肖
肙
肥
肩
肯
育
肴
胃
背
胡
胥
能
脊
脩
膚
臣
臤
臧
自
臬
臭
臯
臱
至
致
臺
臼
臽
臾
臿
舀
舂
舄
與
興
舉
舌
舍
舛
舜
舞
舟
般
艮
良
色
艸
艹
艾
芒
芔
芬
芮
花
芳
芺
芻
苔
苗
苟
若
苦
英
茶
茸
荅
草
荒
荣
荼
莆
莧
莫
莽
菆
菊
菐
華
萬
落
葉
著
葛
董
葵
蒙
蒦
蒼
蓋
蓬
蓺
蔑
蔡
蕉
蕭
薄
薛
薦
薰
藍
藏
藥
蘭
虍
虎
虐
虒
虔
處
虖
虗
虘
虚
虛
虜
虞
虫
虽
蚤
蚩
蜀
蜜
蟲
蠡
血
行
衍
衛
衣
衤
表
衮
衰
袁
袞
褭
褱
襄
襾
西
覀
要
覃
見
規
覓
覧
親
覽
见
角
解
言
訁
訇
計
詹
誩
諸
讠
谷
豆
豈
豊
豐
豕
豖
豙
象
豦
豩
豪
豸
貇
貝
貞
貟
負
貢
貧
貪
貫
責
貳
貴
買
費
賁
資
賈
賏
賓
賔
賛
賞
賢
賣
質
賴
贊
贝
贡
责
贯
贲
贵
赖
赞
赤
赦
走
越
足
路
蹇
身
躬
車
軍
軎
軟
輦
车
辛
辜
辟
辥
辰
辱
農
辵
辶
边
达
过
近
连
迷
追
退
送
逆
逐
通
速
造
逢
連
逮
進
遀
遂
過
道
達
遣
適
遷
遺
邊
邑
邕
那
邦
邪
郎
部
郭
都
鄉
酉
酋
配
酓
釆
采
里
重
野
量
金
釒
錢
钅
長
镸
长
門
閃
閉
開
閏
閑
閒
間
閔
閵
閻
闌
门
间
闷
阑
阜
阝
阿
降
陳
隆
隊
隋
隡
隨
隱
隶
隹
隺
隻
隼
隽
难
雀
雁
集
雈
雋
雍
雐
雔
雙
雚
雜
雝
離
難
雨
雩
雪
雲
零
雷
需
霍
霜
霝
霞
霸
靈
靑
青
非
靡
面
靣
革
韋
韦
韭
韯
韱
音
頁
頃
項
須
頗
頡
頻
顛
页
風
风
飛
飞
食
飠
養
饣
首
香
馬
馮
駦
马
骨
高
髟
鬥
鬯
鬲
鬼
魚
魯
鮮
鱼
鲁
鳥
鳳
鸟
鹵
鹿
麃
麗
麥
麦
麻
黃
黄
黍
黎
黑
黒
黨
黹
黽
黾
鼎
鼓
鼠
鼻
齊
齋
齐
齒
齿
龍
龙
龜
龟
龠
龰
龱
龴
龵
龶
龷
龸
龹
꠱
者
艹
﻿
？
�
𠀁
𠀃
𠀆
𠀉
𠀎
𠀐
𠁁
𠁣
𠂆
𠂇
𠂈
𠂉
𠂊
𠂋
𠂎
𠂒
𠂔
𠂛
𠂡
𠂢
𠂤
𠂬
𠂭
𠂹
𠃊
𠃋
𠃌
𠃍
𠃎
𠃑
𠃓
𠃔
𠃜
𠄌
𠄎
𠄠
𠄢
𠆢
𠆥
𠇍
𠈌
𠌵
𠓜
𠔉
𠔥
𠔼
𠔽
𠔿
𠕀
𠕁
𠕋
𠘧
𠘨
𠙻
𠙼
𠚏
𠚒
𠚤
𠚪
𠣏
𠤎
𠤕
𠥓
𠦄
𠦑
𠦝
𠧒
𠧗
𠧪
𠩺
𠪚
𠫓
𠫔
𠫤
𠬛
𠬝
𠬞
𠬢
𠬤
𠬶
𠮛
𠮦
𠮷
𠯑
𠱠
𠳮
𠷎
𡈼
𡉀
𡉵
𡌥
𡍮
𡏳
𡕒
𡕩
𡕰
𡖅
𡗗
𡗜
𡘆
𡘤
𡧱
𡨄
𡩧
𡬠
𡭽
𡰣
𡰥
𡰪
𡰯
𡰱
𡷈
𡸁
𡿨
𡿩
𡿪
𡿺
𢀖
𢀛
𢀩
𢁙
𢆉
𢆰
𢆶
𢇁
𢇇
𢉖
𢌬
𢌿
𢏚
𢑑
𢑚
𢖻
𢙣
𢛳
𢦏
𢦒
𢧵
𢼄
𢾕
𣁋
𣄼
𣅀
𣅽
𣍘
𣎳
𣎵
𣏋
𣏼
𣗥
𣥂
𣥖
𣦵
𣦼
𣧄
𣪊
𣪠
𣬉
𣳾
𣶒
𤇾
𤊽
𤐫
𤓰
𤔔
𤕨
𤣩
𤰇
𤰔
𤰞
𤴓
𤴔
𤽄
𥁑
𥁕
𥃦
𥃩
𥃭
𥇡
𥑟
𥘅
𥘈
𥝢
𥫗
𥱡
𦈢
𦉪
𦉬
𦉼
𦍌
𦍒
𦎧
𦐇
𦓔
𦔮
𦘒
𦙃
𦚏
𦣝
𦣞
𦣻
𦥑
𦥔
𦥯
𦨉
𦭝
𦰩
𧆞
𧈧
𧘇
𧰨
𧴪
𧴮
𧵩
𧾷
𨸏
𨾴
𩙿
𩠐
𩫏
𩵋
𪉷
𪜀
𪟽
𪠲
𪩲
𫇦
𫔭
𫜸
𫝀
𫠣
𫠩
𫢉
𫥞
𫩏
𫩠
𫪡
𫲽
𫶧
𬀷
𬐘
𬗌
𬙙
𬛸
𬜯
𬟩
𬯁
𬴘
𬺻
𬼉
𬼖
𭀰
𭁈
𭁨
𭅰
𭑈
𭕄
𭗼
𭤨
𭥫
𭻾
𮅕
𮊿
𮍌
𮍏
𮓗
𮥼
𮧮
廾
𰀁
𰀄
𰀈
𰀉
𰀕
𰀠
𰀡
𰀢
𰀪
𰁜
𰃮
𰆊
𰆘
𰋙
𰕎
𰢴
𰧭
𰯲
00--
01--
02--
03--
04--
05--
07--
08--
20--
21--
22--
23--
24--
25--
26--
27--
28--
29--
30--
31--
32--
33--
34--
35--
36--
37--
38--
39--
40--
41--
42--
43--
44--
46--
48--
49--
51--
52--
53--
54--
56--
57--
58--
61--
63--
64--
67--
68--
71--
74--
76--
79--
80--
81--
82--
84--
85--
86--
87--
88--
89--
99--
a--
aa--
ab--
abstr--
ac--
acce--
ad--
add--
adv--
ae--
af--
ag--
agri--
ah--
ai--
air--
ak--
aka--
al--
all--
alt--
am--
amo--
an--
ang--
ange--
ani--
ans--
any--
ap--
apo--
appli--
ar--
arch--
archaeo--
as--
assu--
astr--
at--
ath--
ato--
au--
auto--
ave--
az--
b--
ba--
bar--
be--
ben--
ber--
bha--
bhu--
bi--
bil--
bio--
bis--
bla--
bo--
bon--
bor--
bou--
br--
bra--
bre--
bro--
broad--
bru--
bu--
budd--
bur--
bure--
by--
c--
ca--
cal--
calcu--
camp--
can--
car--
caro--
cas--
cat--
cc--
ce--
cele--
cen--
ch--
cha--
cham--
char--
che--
chi--
cho--
circu--
cit--
citiz--
cla--
cle--
cli--
clo--
co--
col--
com--
commu--
compo--
con--
conc--
cond--
conf--
consi--
const--
cont--
conte--
contr--
contri--
conve--
cor--
corpo--
cr--
cra--
cre--
cri--
cris--
cro--
cru--
cu--
cy--
cyc--
d--
da--
dani--
daugh--
de--
dec--
deg--
depe--
develo--
di--
diag--
diffe--
dis--
disc--
dist--
do--
down--
dr--
dra--
dre--
du--
dy--
e--
eag--
ear--
eco--
ed--
el--
ele--
elec--
em--
ema--
en--
end--
epi--
er--
es--
et--
eu--
ex--
experi--
expl--
ext--
f--
fa--
fami--
fe--
fer--
fet--
ff--
fi--
figu--
fil--
file--
fin--
fla--
flo--
fly--
fo--
font--
foot--
for--
fos--
fr--
frequ--
fri--
fu--
full--
fun--
g--
ga--
gad--
gar--
gau--
gaz--
ge--
gen--
gene--
geo--
get--
gi--
gil--
glo--
go--
gr--
gra--
gre--
gu--
h--
ha--
har--
has--
hat--
he--
her--
hi--
high--
ho--
home--
hon--
hor--
horiz--
hos--
html--
hu--
hus--
hy--
i--
id--
ide--
ident--
if--
igno--
il--
illu--
imp--
imple--
in--
indu--
influ--
inst--
int--
inte--
inter--
inve--
invo--
ir--
is--
iso--
it--
iv--
j--
ja--
jack--
je--
ji--
jo--
joh--
ju--
k--
ka--
kan--
kar--
ke--
ken--
key--
kha--
ki--
kil--
kilo--
kin--
ko--
ku--
kun--
l--
la--
lau--
le--
lectu--
lew--
li--
lin--
link--
lo--
lu--
ly--
m--
ma--
mac--
macro--
mag--
maha--
make--
mal--
man--
mar--
marri--
mc--
me--
mech--
mega--
mem--
mer--
meta--
mi--
mic--
micro--
min--
mir--
mis--
mix--
mo--
moh--
mon--
monu--
mor--
morn--
morr--
mos--
mu--
munic--
mur--
my--
n--
na--
nar--
nav--
nd--
ne--
neu--
new--
news--
ng--
ni--
no--
nob--
nor--
nu--
num--
ny--
o--
observ--
oli--
on--
one--
op--
open--
or--
ori--
os--
out--
over--
p--
pa--
pad--
page--
pan--
par--
pe--
pen--
per--
ph--
phil--
phy--
pi--
pl--
plu--
po--
poly--
por--
pr--
pra--
pre--
pri--
pro--
prog--
proto--
pseu--
psycho--
pu--
pun--
py--
q--
qu--
que--
r--
ra--
rag--
raja--
rat--
re--
rec--
rece--
red--
ref--
regis--
regu--
remo--
ri--
rid--
ris--
ro--
row--
ru--
rus--
s--
sa--
sac--
sal--
sar--
sau--
sc--
sch--
scho--
sci--
scot--
se--
sen--
sequ--
ser--
ses--
set--
sh--
sha--
shar--
shi--
si--
sk--
sl--
sla--
slo--
so--
sol--
sp--
spea--
spec--
spel--
spir--
spo--
sq--
st--
stan--
ste--
sto--
stu--
su--
sub--
sugge--
sul--
summ--
sun--
sup--
super--
suppl--
sur--
sus--
sw--
swe--
sy--
t--
ta--
taiw--
te--
teac--
temp--
ter--
text--
th--
the--
thi--
thiru--
tho--
thr--
ti--
time--
to--
tor--
tr--
tra--
trans--
tre--
tri--
trib--
tro--
tru--
tu--
tur--
tw--
typi--
u--
un--
unive--
up--
ur--
us--
user--
ut--
v--
va--
ve--
ven--
ver--
vi--
vic--
vio--
virtu--
vo--
vol--
w--
wa--
wal--
we--
web--
whe--
wi--
wiki--
win--
wit--
wo--
wor--
wro--
x--
xi--
xx--
y--
ya--
yo--
yu--
yy--
z--
ze--
zoo--
α--
ا--
ال--
र--
അ--
അക--
അഗ--
അട--
അത--
അഥ--
അധ--
അന--
അപ--
അമ--
അയ--
അര--
അല--
അൻ--
അൽ--
ആ--
ആദ--
ആഭ--
ആയ--
ആള--
ആവ--
ആർ--
ആൽ--
ഇ--
ഇവ--
ഇൻ--
ഈ--
ഉ--
ഉണ--
ഉദ--
ഉപ--
ഉഭ--
ഉൽ--
ഊ--
ഋ--
എ--
എട--
എവ--
എൻ--
എൽ--
ഏ--
ഏക--
ഏത--
ഐ--
ഒ--
ഒര--
ഓ--
ഔ--
ക--
കക--
കജ--
കഥ--
കന--
കപ--
കമ--
കര--
കല--
കള--
കവ--
കൺ--
കൻ--
കർ--
കൽ--
കൾ--
ഖ--
ഖന--
ഖര--
ഗ--
ഗജ--
ഗദ--
ഗപ--
ഗമ--
ഗള--
ഗവ--
ഗസ--
ഘ--
ങ--
ങള--
ങൾ--
ച--
ചക--
ചന--
ചപ--
ചമ--
ചര--
ഛ--
ജ--
ജക--
ജഗ--
ജന--
ജനന--
ജഭ--
ജമ--
ജയ--
ജല--
ജവ--
ജസ--
ഝ--
ഞ--
ഞവ--
ട--
ടക--
ടത--
ടന--
ടപ--
ടമ--
ടര--
ടവ--
ടൻ--
ടർ--
ടൽ--
ഠ--
ഡ--
ഡയ--
ഢ--
ണ--
ണക--
ണത--
ണന--
ണപ--
ണമ--
ണവ--
ണസ--
ണൻ--
ത--
തക--
തഗ--
തജ--
തത--
തദ--
തന--
തപ--
തമ--
തര--
തള--
തവ--
തസ--
തൻ--
തർ--
തൽ--
ഥ--
ഥന--
ദ--
ദന--
ദപ--
ദമ--
ദയ--
ദല--
ദവ--
ദശ--
ദൎ--
ധ--
ധന--
ധവ--
ന--
നക--
നത--
നന--
നപ--
നമ--
നയ--
നര--
നള--
നവ--
നസ--
നർ--
പ--
പക--
പട--
പദ--
പന--
പമ--
പര--
പല--
പവ--
പൻ--
പൽ--
ഫ--
ഫറ--
ബ--
ഭ--
ഭക--
ഭവ--
മ--
മക--
മദ--
മന--
മപ--
മമ--
മല--
മവ--
മസ--
മർ--
യ--
യക--
യഗ--
യണ--
യത--
യദ--
യധ--
യന--
യപ--
യഭ--
യമ--
യര--
യവ--
യസ--
യൻ--
യർ--
ര--
രക--
രഗ--
രഘ--
രച--
രജ--
രണ--
രത--
രഥ--
രദ--
രധ--
രന--
രപ--
രഫ--
രഭ--
രമ--
രയ--
രര--
രവ--
രശ--
രസ--
രഹ--
രൻ--
റ--
റവ--
റൻ--
റർ--
ല--
ലക--
ലത--
ലന--
ലമ--
ലയ--
ലവ--
ലസ--
ള--
ളക--
ളള--
ഴ--
വ--
വക--
വത--
വദ--
വധ--
വന--
വഭ--
വമ--
വയ--
വര--
വള--
വവ--
വസ--
വൻ--
വൽ--
ശ--
ശക--
ശത--
ശന--
ശമ--
ശയ--
ശര--
ശവ--
ഷ--
ഷണ--
ഷപ--
ഷമ--
ഷയ--
സ--
സക--
സന--
സബ--
സമ--
സര--
സല--
സവ--
സഹ--
സർ--
ഹ--
ഽ--
ഽഭ--
ൎ--
ൟ--
൩--
൪--
൫--
൬--
൭--
൮--
൯--
ൺ--
ൻ--
ൻഡ--
ൻപ--
ൻമ--
ൻസ--
ർ--
ർഘ--
ർണ--
ർഥ--
ർഭ--
ർമ--
ർവ--
ർഷ--
ൽ--
ൽക--
ൽന--
ൽപ--
ൽബ--
ൽമ--
ൽവ--
ൽസ--
ൾ--
ൿ--
--0
--00
--1
--2
--3
--4
--5
--6
--7
--8
--9
--a
--able
--aceae
--ach
--ad
--ae
--age
--ah
--ai
--ain
--ak
--al
--ala
--ald
--ally
--als
--am
--ama
--an
--ana
--ance
--ang
--ani
--anic
--ant
--ants
--ao
--ar
--ara
--ard
--args
--ari
--aries
--ary
--as
--at
--ata
--ate
--ated
--ates
--ation
--ations
--ative
--au
--ax
--ay
--b
--ba
--ball
--bar
--be
--berg
--bi
--ble
--bo
--box
--bs
--bu
--c
--ca
--cat
--ce
--ceae
--ced
--ceedings
--cent
--cer
--ces
--ch
--ck
--co
--cs
--ct
--cted
--ction
--cus
--cut
--cy
--d
--da
--day
--de
--ded
--di
--dia
--do
--ds
--dy
--e
--ea
--eae
--east
--ec
--ed
--ee
--ees
--ef
--ei
--ek
--el
--ell
--ella
--en
--ena
--ence
--ens
--ensis
--ent
--eo
--ep
--er
--eri
--ering
--ers
--erse
--ersity
--ert
--ery
--es
--ess
--est
--et
--eus
--ever
--ew
--ey
--ez
--f
--fer
--file
--ft
--ful
--fy
--g
--ga
--galam
--ge
--ged
--gen
--ger
--gh
--ght
--gi
--gic
--ging
--go
--gs
--gu
--gue
--h
--ha
--ham
--han
--he
--hed
--hes
--hi
--hini
--hip
--ho
--ht
--i
--ia
--ial
--ian
--iana
--ias
--ibute
--ic
--ica
--ical
--ick
--icle
--ics
--icus
--id
--idae
--ide
--ie
--ied
--ier
--ies
--ig
--ii
--ik
--il
--illa
--im
--imum
--in
--ina
--ine
--ing
--ings
--ini
--io
--ion
--ions
--ip
--ir
--is
--ise
--ish
--ision
--ism
--ist
--ists
--it
--ite
--ities
--ity
--ium
--ius
--ive
--ivity
--ix
--ization
--ize
--ized
--j
--ja
--ji
--ju
--k
--ka
--kal
--ke
--ker
--key
--kh
--ki
--ko
--ks
--ku
--l
--la
--lan
--ld
--le
--lected
--led
--ler
--ley
--lf
--li
--lia
--lin
--line
--ling
--link
--lins
--lis
--list
--lity
--lk
--ll
--lla
--lle
--lly
--lm
--lo
--ls
--lt
--lus
--ly
--m
--ma
--man
--map
--mas
--mb
--me
--ment
--mi
--mit
--mo
--mphus
--mpt
--ms
--my
--n
--na
--nal
--name
--nce
--ncy
--nd
--nda
--nds
--ne
--ned
--ner
--nes
--ness
--ney
--ng
--ni
--nia
--ning
--nis
--nji
--nk
--nn
--no
--ns
--nsis
--nt
--ntion
--nts
--nu
--ny
--o
--obj
--oc
--ock
--od
--of
--ogy
--ok
--oke
--ol
--olia
--om
--ome
--omy
--on
--one
--ong
--ons
--ony
--oo
--oor
--or
--ora
--orama
--ore
--orm
--ors
--ory
--os
--osa
--ot
--ou
--ough
--ous
--ow
--p
--pa
--page
--pe
--ped
--ph
--phy
--port
--pp
--ps
--pt
--q
--que
--r
--ra
--ral
--ran
--rb
--rd
--re
--rg
--ri
--ria
--rian
--ric
--rich
--rie
--ring
--ris
--rk
--rl
--rm
--rmal
--rn
--ro
--rr
--rry
--rs
--rt
--rum
--rus
--ry
--s
--sa
--se
--sed
--ser
--ses
--sh
--si
--sia
--sion
--sis
--sive
--sm
--snak
--son
--ss
--st
--ster
--sur
--sus
--sy
--t
--ta
--tal
--tan
--tation
--te
--ted
--ter
--tes
--text
--th
--tha
--ti
--tial
--tic
--tical
--tics
--tine
--ting
--tio
--tion
--tions
--tis
--title
--tive
--tle
--tly
--to
--ton
--tor
--ts
--tu
--tum
--ture
--tus
--ty
--tya
--tyle
--type
--tz
--u
--ua
--ual
--uction
--ud
--ue
--ul
--ula
--ular
--ult
--um
--up
--ur
--ura
--ure
--uri
--url
--us
--ut
--ute
--ution
--v
--va
--ve
--ved
--vy
--w
--wa
--way
--west
--x
--y
--ya
--yam
--year
--yer
--ys
--z
--za
--ze
--എ
--ക
--കങ
--കന
--കമ
--കയ
--കര
--കല
--കള
--കൻ
--കൾ
--ഖ
--ഗ
--ഘ
--ങ
--ച
--ഛ
--ജ
--ഞ
--ട
--ഠ
--ഡ
--ണ
--ണത
--ത
--തത
--തന
--തയ
--ഥ
--ദ
--ധ
--ന
--നത
--നമ
--നയ
--നവ
--പ
--പദ
--പര
--ഫ
--ബ
--ബന
--ഭ
--ഭയ
--മ
--മണ
--മത
--മന
--മല
--യ
--യത
--യന
--യറ
--ര
--രങ
--രത
--രമ
--രവ
--റ
--റയ
--ല
--ലയ
--ലർന
--ള
--ഴ
--ഴക
--വ
--വന
--ശ
--ശക
--ഷ
--സ
--സമ
--ഹ
--ൎശ
--ൎഷ
--൦
--൦൦
--൧
--൨
--൩
--൪
--൫
--൬
--൭
--൮
--൯
--ൺ
--ൻ
--ൻഡ
--ൻസ
--ർ
--ർക
--ർഗ
--ർണ
--ർത
--ർമ
--ർഷ
--ൽ
--ൽക
--ൾ
--ൾക
