!
"
#
##0
##1
##10
##11
##12
##13
##14
##15
##16
##17
##18
##19
##2
##20
##21
##22
##23
##24
##25
##26
##27
##28
##29
##3
##30
##31
##32
##33
##34
##35
##36
##37
##38
##39
##4
##40
##41
##42
##43
##44
##45
##46
##47
##48
##49
##5
##50
##51
##52
##53
##54
##55
##56
##57
##58
##59
##6
##60
##61
##62
##63
##64
##65
##66
##67
##68
##69
##7
##70
##71
##72
##73
##74
##75
##76
##77
##78
##79
##8
##80
##81
##82
##83
##84
##85
##86
##87
##88
##89
##9
##90
##91
##92
##93
##94
##95
##96
##97
##98
##99
%
&
'
(
)
*
+
,
-
.
/
0
00
000
01
02
04
065
07
08
1
10
100
107
11
114
12
13
131
14
149
15
150
154
16
17
1755
1764
1786
18
180
1880
1898
19
1901
1902
195
1978
1979
1980
1981
1982
1983
1984
1985
1986
1987
1988
1990
1993
1995
1996
1998
2
20
200
2000
2002
2003
2004
2005
2006
2007
2008
2010
2011
2012
2013
2015
2017
2018
2019
2020
2021
2022
21
210
22
23
24
25
250
26
260
264
27
279
28
280
29
3
30
300
31
32
320
33
34
35
350
360
37
38
39
4
40
400
41
42
43
44
45
450
47
48
5
50
500
51
55
58
6
61
62
63
64
65
67
68
69
7
70
700
71
74
79
8
80
9
90
900
91
96
999
:
;
<
=
>
?
_
a
aa
aba
abaruya
abi
abirika
abrika
abu
abuja
abyssinica
acacia
acapulco
accelerometer
accra
aciari
aciarirwo
acokire
acomari
activist
aden
africa
african
africana
afrika
aga
agagwo
agazzano
agenti
agi
agima
ahootire
ahu
aids
aigi
aigire
aikaraga
aikari
aingi
aini
airi
aisraeli
aka
ake
akenya
aki
akoragwo
akoro
akristiano
aku
alawii
alfred
algorithm
alkalaini
alkali
all
almaza
altshuller
ama
ambere
ambi
ambu
america
amerika
amu
amwe
an
ana
anake
anarogu
and
anda
andi
andijan
andrea
andu
ang
anga
angeles
angi
angola
ania
anja
anjaruo
ankara
ano
anshan
anshun
antonio
anyiti
ao
apple
april
arang
arap
archive
arda
are
ari
aria
ario
aristotle
arms
artiko
aru
arutwo
arxan
as
asafa
asia
at
ataragi
ate
ateti
athamaki
athi
athletics
athomeire
athondekire
athuri
athuthuria
ati
atlanta
atomic
atomiki
atomu
atu
atuaria
atui
atumia
atungatire
august
augustus
aurea
australia
aya
ayo
b
ba
baci
baconi
bacteria
baghdad
baicheng
baise
baishan
baki
baltimore
banduithia
banga
bangi
bango
bantu
baoding
baoji
baotou
baoyoroji
baoyoronji
bara
baranja
bari
barkam
barre
bata
batithio
baxt
bayo
bayoroji
bbi
be
beihai
beijing
belgrade
belize
belmopan
bendera
bengi
benth
benxi
ber
berlin
beryllium
betu
between
bhutan
bi
biacara
biashara
biblia
bill
binzhou
biometric
bira
biri
bito
biu
black
bo
bocyugo
bogota
bohr
bole
bolt
bongo
boolean
borandi
boron
bosna
bosnia
boston
botswana
bourg
brazil
brothers
bu
bucia
buhuri
building
bukhara
buku
bulgarian
bungoma
buremuwaki
burundi
bururi
bururu
busia
business
c
ca
caesar
cagi
cagu
cairo
caji
calpurnia
cama
camara
can
cancu
cangu
cangzhou
capensis
capital
carbon
caria
caribbean
castle
category
cation
ceceni
cemanio
ceng
cenita
cenjagia
cenjia
center
central
cero
ceroru
ceru
chad
chaina
chairman
championships
changchun
changsha
chaoyang
charles
chemical
chemistry
chengde
chengdu
chetumal
chi
chiba
chicago
chile
china
chirchiq
chongqing
chuzhou
ci
cia
ciacio
ciaga
ciagi
ciake
ciaku
ciama
ciambi
ciambiki
ciana
ciao
ciaragio
ciari
ciaru
ciarwo
cietagwo
ciganona
cigi
cigino
cigo
cihu
cii
ciira
cikoragwo
ciku
cini
cio
ciohanitio
ciohi
ciothe
cipiyu
cira
ciri
ciria
cirio
cirithania
ciru
citizen
city
ciu
ciugo
ciumbe
ciumo
clusters
co
coat
cocoa
coka
cokia
collection
colombia
com
comari
come
computer
conakry
concepcio
concepts
configuration
congo
constituency
copper
country
course
court
critique
croatia
croton
cu
cuindeni
cuka
cukuru
culture
cuma
cumbi
cunji
curitiba
currency
cuumi
cybernetics
d
da
daily
dali
dalian
dallas
damascus
dana
dandong
daniel
danyang
daqing
data
databasi
datong
david
daye
de
december
deduction
delingha
democratic
der
des
detroit
dezhou
dhabi
dhaka
dictionary
die
diego
digital
digito
dingzhou
dini
dio
disney
distance
djamena
do
domanovic
domingo
dominican
dongguan
dovyalis
draft
drc
du
dunhua
dunhuang
dvd
dz
dzong
e
earth
east
eastern
ebola
ecuador
ed
edison
edition
ega
egekia
egypt
einer
el
eldoret
electronic
electronics
elektroni
elements
embakasi
embu
emperor
empiricism
en
ena
endekithia
ene
eng
engineering
engl
english
eni
enia
enshi
epistemology
era
eraini
erektro
erektroni
erektroniki
erementi
erenhot
eri
eronino
eru
esperanto
et
etagwo
etchmiadzin
etha
etia
euphorbiaceae
europe
ex
exchange
f
fabaceae
faiba
faraday
faranja
february
fengcheng
fi
file
firosofi
first
fithi
five
flag
fm
for
force
ford
foshan
frameless
francisco
free
french
from
ft
fu
fukuoka
fungi
future
fuzhou
g
ga
gabon
gacui
gaka
gakoragwo
galaxy
gambia
gami
gamiriri
gamma
ganaga
gania
gano
ganzhou
garu
gasi
gata
gatagati
gatano
gatatu
gates
gathadu
gatheti
gathi
gatu
gatundu
gaturumo
gatutura
gavana
ge
gejiu
gendere
general
genrich
geometry
gerekano
gerera
gereria
geria
gerithimithia
getha
ghana
gi
gia
gico
gie
gikaro
giku
gikundi
gikuyu
gima
ginya
giriki
gita
gitagwo
gitano
githi
githungu
githweri
gito
gje
gloria
gmail
go
god
goka
gold
golmud
gongo
gongona
gooco
google
government
gp
gps
great
growth
gryfice
gu
guangzhou
guatemala
guci
guigang
guikira
guilin
guinea
guiping
guiyang
gukorwo
gumo
guni
guo
guothehari
guthia
guthima
guthoma
guthondeka
guthunda
gutiri
guto
gutumira
gutwika
guu
gwa
gwaci
gwaka
gwake
gwakwo
gwanja
gwatani
gwataniro
gwete
gwi
gwika
gwo
h
ha
hagwete
haha
hahu
haiti
haka
hakani
hakiri
hakuhi
hamamatsu
hami
hamia
hamwe
hana
handa
handiwea
handu
handwo
hang
hangi
hango
hani
hanoi
hanyu
hanzhong
hanzu
harbin
hardware
hari
haria
haro
haru
has
hatari
hau
havana
he
heart
hecengobina
hefei
hegang
heho
heihe
heirwo
helium
helsinki
hena
hengyang
heni
henry
henu
heo
hercegovina
herzegovina
heshan
heyuan
hezuo
hi
hia
higo
hihi
hindi
hingo
hingure
hinya
hiphop
hiroshima
history
hithitori
hiti
hitia
ho
hochst
hohhot
home
honge
honokio
honolulu
hooto
horo
hota
hotan
hotel
hothaga
hothi
hoti
hotomia
hotoro
house
houston
html
http
https
hu
huangshan
huizhou
huko
human
humo
hunchun
hunja
hunjo
huro
huthu
hydrogen
hydrokarbon
hyroxide
i
iaaf
ibanda
ibandi
ibango
ibm
ibuku
ica
icagi
icangu
ici
icigo
icio
ico
icu
iembe
iga
igana
iganda
igera
igi
igiri
igongona
igoti
igu
iguru
igwa
igweta
ihana
ihandagwo
iharo
ihenya
ihi
ihinda
ihu
ii
ijduvon
ikamba
ikari
ikaro
iki
ikinya
ikiragwo
ikoragu
ikoragwo
iku
ikumi
ikundi
ikwa
im
image
imbo
imera
imu
imwana
imwe
in
ina
india
indigenous
indo
indonesia
industrial
inene
information
ingi
ini
inia
injini
injinia
injiniarini
innovation
ino
inooro
inovacioni
institute
intel
intelligence
interface
international
internet
inya
inyamu
inyanya
ioni
ionic
iprage
ira
irathi
irathiro
iratu
ire
iregi
irema
iri
iria
irie
irio
iron
iru
irua
irute
irwo
is
isaac
isbn
islamabad
isukha
it
itagwo
italy
itanya
itara
itari
iteani
itek
itemi
ithano
ithathatu
ithatu
itherero
ithi
ithia
ithomagwo
ithondekaga
ithondekagwo
ithondeketwo
ithu
itu
itugi
itumagira
itumagirwo
itumbi
itumi
itwi
iu
ium
iundu
ivoire
iwanda
iya
iyamu
iyo
iyu
j
jaabani
jabaani
jabaanisi
jae
jamaica
janeiro
japan
jecu
jericho
jerusalem
jesu
ji
jiangmen
jiaozuo
jiexiu
jieyang
jilin
jinan
jingdezhen
jinghong
jinzhou
jixi
jizzax
johana
johannesburg
john
johnson
jomo
joshua
joyce
jpg
justice
k
ka
kabiri
kabogo
kabul
kadi
kaga
kagera
kagi
kagia
kagio
kagwo
kahinda
kahora
kahua
kaifeng
kaine
kaingi
kaiyuan
kaizen
kakamega
kama
kambuni
kameme
kamu
kamwe
kana
kanaani
kanana
kangding
kangi
kani
kanini
kanio
kanite
kanitha
kanji
kano
kanu
karachi
karakita
karati
karaya
karbon
kari
karia
karo
karu
karundo
karungo
kashgar
kathithitemu
kathmandu
kau
kaunti
kauti
kawaida
kawasaki
kayo
ke
keeri
kembu
kemu
kenda
kengo
kenya
kenyatta
keri
kernel
kero
khiva
ki
kia
kiabirika
kiambi
kiambiria
kiambu
kifalanse
kihumo
kikuyu
kilimanjaro
kimabururi
kimwe
kindu
king
kingdom
kinya
kinyani
kinyaniria
kinyi
kio
kiohari
kiohi
kira
kirathi
kirdi
kire
kiria
kirundi
kisumu
kitakyushu
kithayathi
kithia
kiu
kiugo
kiwatho
knowledge
ko
kobe
koini
kokand
kombuita
komiconi
komiti
komoria
kompaudi
kompuita
komputa
komputiini
komputini
konagia
kongo
kongoe
konie
konza
koragu
koragwo
koramu
korea
korean
koretwo
korona
korwo
kothi
krako
kristiano
kristo
kritik
ktn
ku
kua
kubanga
kugarura
kugeria
kugwete
kuhanda
kuhena
kuhi
kuhn
kuma
kumamoto
kumana
kumenya
kumia
kundu
kunming
kunshan
kuo
kuona
kuonania
kuramata
kuri
kuria
kurigana
kuruta
kuthini
kuu
kuuga
kuuma
kwa
kwaga
kwagi
kwagiria
kwambararia
kwambi
kwandi
kwandika
kwaragio
kwarahu
kwari
kwaria
kwenja
kwi
kwigerenia
kwina
kwo
kwogu
kwoguo
kwogwo
kwonania
kwotamu
kyoto
kyrgyzstan
l
la
laini
laiwu
lam
lanceolata
langfang
language
languages
lanka
lantana
las
laws
left
lhasa
li
liaoyang
liberia
libor
libraires
life
lijiang
lincang
line
linfen
links
linus
linux
linxia
linyi
lithium
liuyang
lives
location
logic
logo
loire
lord
los
louis
lu
luka
luoyang
lydnevi
m
ma
maai
maaka
mabataro
mabati
mabu
mabuku
mabururi
machani
maciira
macindano
macini
macio
macira
macokaga
madagascar
madini
maga
magana
mageragi
magi
magira
magirwo
magomano
magongona
magoti
magu
maguru
maguta
magwo
maheni
mahenya
mahi
mahiga
mahinda
mahinya
mahu
mahuti
mai
maica
maiganona
maigi
main
maingi
maisha
maita
maitho
make
maki
makinya
makiria
makoragwo
maku
makuhi
makumbi
makuragia
malagasy
malawi
mali
malindi
mamaa
mammal
mamo
mamu
mamwe
mana
management
managua
manama
mandi
manene
mang
mangi
mani
mao
maoming
map
maplandia
maragia
maranga
maratathi
march
margilan
mari
maria
marika
maritwa
maru
marutaga
maslow
matamu
matano
matari
matemo
mathabu
mathako
mathangu
mathare
mathi
mathiko
mathomo
mathondekaga
mathu
mati
matiri
matirio
matonyo
matter
matu
matua
matuku
matumagiru
matwi
mau
maumaga
maumi
maundu
mauuge
mawatho
mawi
mawira
maya
mayo
mba
mbaara
mbe
mbeere
mbegu
mbembe
mbere
mbeu
mbi
mbia
mbica
mbiraru
mbo
mbocinia
mboco
mbogo
mbu
mbuguiro
mbuiguiro
mbunge
mbura
mburi
mbuthia
mbuti
me
meciragia
meciria
medelli
media
meeciria
meeri
megiella
meizhou
mekanik
mekaniko
meku
memba
meme
memerekia
men
mena
menya
menyo
mera
merera
meri
meru
mesoni
metaga
metagwo
metaphysics
metaphysik
metha
methodi
mexico
mi
miaka
miako
miami
miangi
mianyang
mibango
michael
microscope
microsoft
mieke
miena
mihango
mikoa
milioni
million
milwaukee
minene
mingi
mingini
minginiciu
minh
minister
minneapolis
minu
mira
mire
mirimu
mirioni
miro
mirongo
mirrioni
mirwo
mita
mithemba
miti
mitino
mitugo
mo
mobailo
mobairo
mogaru
mohoro
moi
moko
mombasa
monrovia
montehermoso
montsoreau
monzo
morekiu
moscow
moshchena
mothe
motto
mount
mozambique
mps
mt
mu
mucii
mudanjiang
muhaka
muhianire
muhiano
muingi
mumera
mundu
munene
muno
muoyo
murimu
musa
mustang
mutau
muteng
muthemba
muthingi
muti
mutumia
muuma
mwabi
mwai
mwaka
mwakaini
mwaki
mwana
mwandi
mwanya
mwaya
mwe
mwega
mwena
mwene
mwerekere
mweri
mweru
mwi
mwikire
mwisho
n
na
nacio
naguo
nagwo
nai
nairobi
nake
nakuru
namangan
namba
namibia
namo
nanchang
nanjing
nanning
nanping
nantong
nanyang
nao
naruhito
nation
national
natural
nayo
nda
ndai
ndaihu
ndari
ndau
ndege
ndegwa
ndemwa
ndenimaki
ndereti
nderu
ndeto
ndi
ndindiki
ndini
ndirisha
nditi
ndo
ndoro
ndu
ndugata
nduire
nduku
ndundu
ndurumeni
ndwari
negativu
nema
nenda
nene
net
netherlands
netiwaki
netwaki
netwon
neural
new
news
newton
ng
nga
ngai
ngami
nganja
ngari
ngaru
ngathi
ngavana
ngerekania
ngerekano
ngeremani
ngeretha
ngi
ngima
nginya
ngire
ngiri
ngiriki
ngirobu
ngiya
ngo
ngoga
ngombe
ngombo
ngora
ngorithimu
ngoro
ngu
nguhi
ngumbaco
ngumo
ngunyi
nguo
ngurani
ngware
ni
nia
niamey
nicio
niels
niger
nigeria
nigetha
niguo
niigata
nikoragwo
nikuri
nina
ningbo
ningi
nini
ninotekinoronji
nio
nis
nita
niukrea
niundu
niutriti
niwe
niwega
niyo
nja
njaacu
njahi
njamba
njara
njaranda
njata
njega
njeri
njeru
nji
njiometi
njira
njocua
njogu
njokereri
njomo
njorua
nju
njugi
njumura
no
nobel
nobelprize
noberi
nobero
nocio
north
norway
novo
nowe
nowi
nu
nukus
nurata
nya
nyaga
nyagi
nyagumi
nyakua
nyama
nyamu
nyang
nyari
nyatta
nyene
nyeri
nyi
nyina
nyingi
nyiti
nyoni
nyu
nyumba
nza
o
obici
object
oburemu
occampo
odinga
odm
of
official
ohari
oho
oi
okiohari
okoru
old
olympics
ombe
on
ona
onayo
onekana
ongo
oni
oo
orange
ordos
org
organaizationi
orleans
oro
oroto
osaka
osasco
ota
othe
other
ou
oxigen
oxigeni
oya
oyo
ozoni
p
page
paki
pakistan
panama
panzhihua
papilionaceae
paradigm
park
paro
party
patent
patenti
pathways
paulo
pawa
pc
peace
penglai
people
periodic
peru
pest
philadelphia
philosopher
philosophers
philosophy
philosphy
php
phyllis
physics
pi
piacentino
piacenza
pietro
pingxiang
pir
pittsburgh
plage
platinum
pnu
pocitivu
poland
politics
population
pornichet
porter
porto
portugese
positive
potasium
powell
poznan
pres
presenter
president
primary
prime
prizes
programmu
programu
proposition
protoni
pu
pure
px
q
qarshi
qidong
qingyuan
qinzhou
qionghai
qiqihar
qitaihe
qo
qufu
quiet
qujing
r
ra
racia
racio
racu
radio
radoje
raga
ragia
ragu
ragwo
raihu
raila
raini
raka
ramata
ramati
ramu
rangi
rani
rania
ranio
rano
ranu
rari
rata
rathi
rathimi
rathu
rationalism
ratu
ratuthu
raya
re
reality
reason
reasoning
references
reggea
reine
reke
rekondi
relay
rema
renda
reporter
republic
reri
reroi
rfid
rg
rhamnaceae
rhamnus
ri
ria
riboti
rica
rich
rie
riera
rigana
right
rigitani
riika
rika
rima
rimi
rimu
rina
ringa
ringana
ringi
rio
rira
rire
riri
riria
ririe
ririo
riru
rita
ritagwo
ritwa
riu
riua
river
rizhao
ro
road
robot
rogers
rogiki
roho
rongo
ronjiki
rora
roubaix
royal
ru
rubiaceae
ruga
rugari
ruhuhu
ruili
ruithia
ruka
ruki
rumwe
rungu
rura
rurenda
rurendaini
ruri
ruria
ruriri
rurumia
ruta
rutaceae
rutaga
rutani
rutha
ruthiomi
rwa
rwake
rwanda
rwao
rwaragio
rwi
rwo
s
sa
sagamihara
saikayati
saint
saitama
sakai
salicaceae
salim
salvador
samarkand
samidoh
sammy
samsung
san
sana
sanmenxia
santo
school
schrodinger
science
season
seattle
sekondi
september
serbia
seti
setiraiti
shanghai
shangrao
shangri
shantou
shanwei
shaoguan
shenyang
shenzhen
shijiazhuang
shizuoka
sigino
silicon
singapore
siping
siprage
site
social
socio
socrates
sodium
software
sofutiwea
somalia
south
southern
space
spain
spanish
spirit
sport
sri
st
stagi
states
statistics
studio
su
suicide
summer
sung
suzhou
svg
swahili
swot
syria
system
systems
sztemon
t
ta
tabanagio
tabari
table
taga
tagwo
tai
taiyuan
taizhou
tajikistan
talbot
tambo
tambu
tano
tanzania
tara
taranto
taratara
tareki
tari
tariki
tarnovo
taru
tashkent
tatau
tatu
tau
tauni
taxonomy
te
technology
tego
tegucigalpa
teithagi
tekinoroji
tekinoronji
teknoloji
teknoroji
telecommunications
tene
terebiceni
tereko
termez
teti
th
thaa
thabuni
thagi
thagia
thai
thaiga
thailand
thaka
thakame
thako
thama
thamaka
thamaki
thani
thari
thayathi
thayatisti
thayu
the
themba
thengia
thenya
theory
theri
theru
thi
thia
thii
thiini
thiki
thiku
thima
thimaku
thimo
thimphu
thimu
thinema
thinga
thingi
thingira
thiomi
thiong
thiori
thirikari
thiru
thiteceni
thithi
thithitemu
thitima
thitu
thiu
thodeka
thogora
thoko
thoma
thomas
thome
thomi
thomithia
thomo
thomwo
thondeka
thondekaga
thondekagwo
thondeketwo
thondeki
thondekire
thondekirwo
thondekwo
thoome
thu
thugundi
thukuru
thumb
thumbnail
thungu
thunu
thurano
thutha
thuthuria
thuti
thwai
thweri
ti
tia
tianshui
ticuma
tidone
tie
tigi
tiiri
tijuana
time
tina
tio
tiri
titanium
titika
titikagwo
titu
tld
to
tokyo
toluca
tombo
tondu
tonga
tongoria
tongoro
toro
torvalds
town
toyota
tps
travail
triz
troubadour
tsunami
tu
tuaria
tubiri
tugo
tugutumira
tui
tuku
tuma
tumagi
tumagira
tumagirwo
tumen
tumi
tumira
tumite
tungata
tura
turi
turing
turkana
turkey
turpan
turwa
tuwi
tv
twa
twe
twi
twike
two
u
uchkuduk
ucio
ucumi
ucuumi
uetersen
uganda
ugi
uguo
uhoro
uhuru
ukoragwo
ukraine
ulanqab
umi
umo
umobasi
un
und
undu
unene
ungi
ungu
union
united
unity
university
upright
urgench
urgut
uri
uria
urimi
urusi
usa
usain
uu
uuge
uyu
uzbekistan
v
vairasi
val
valley
veliko
venasi
verbenaceae
vernunft
version
vietnam
view
views
viewshttps
villa
village
virus
vobkent
vol
w
wa
waagi
waaki
wafangdian
wagagu
wagio
wahu
waigu
wake
waki
wales
wambi
wamu
wanda
wandi
wangari
wanjiku
wanjiru
wao
wari
warie
waru
watch
wathani
watho
waya
wayo
we
web
website
wega
wenda
wendo
west
wetagwo
wi
wiira
wiki
wikimedia
wikipedia
wikipedias
wikire
wilkes
william
wira
wisdom
witagwo
with
wonjoria
woodard
world
worship
wothe
wrocław
wuhai
wuhan
wuhu
wuwei
wuyishan
www
x
xi
xining
xinxiang
xinyi
xinzheng
xo
y
ya
yake
yamu
yan
yancheng
yangi
yangjiang
yangquan
yanji
yao
yari
yayo
years
yemen
yerevan
yetagwo
yichang
yichun
yinchuan
yingkou
yingtan
ynoq
yo
yokohama
york
yothe
you
young
youtube
yu
yuanping
yulin
yumen
yumi
yuncheng
yunfu
yunibaci
yushu
yuxi
z
zambia
zanzibar
zarafshan
zhangjiakou
zhangye
zhanjiang
zhaoqing
zhongshan
zhuhai
zibo
zimbabwe
zu
zunyi
{
|
}
«
°
´
·
»
ło
łobez
ʻ
ˈ
ː
̀
́
̂
̃
̄
̆
̇
̈
̊
̋
̌
̛
̣
̦
̧
̱
и
о
х
س
ه
و
َ
ُ
‎
‏
–
‘
’
“
”
•
″
↔
↷
≈
③
④
⑦
☿
♀
♂
♃
⺀
⺄
⺆
⺈
⺊
⺌
⺕
⺝
⺸
⺼
⿰
⿱
⿲
⿳
⿴
⿵
⿶
⿷
⿸
⿹
⿺
⿻
〢
コ
ユ
㇁
㇂
㇄
㇇
㇈
㇉
㇓
㐁
㐄
㐅
㐌
㐫
㐬
㐭
㐮
㐱
㑒
㒵
㒸
㒼
㓁
㓞
㔾
㕛
㕣
㖾
㘝
㚅
㚇
㚔
㚘
㝉
㝡
㝴
㝵
㞋
㞢
㞷
㠩
㠭
㠯
㡀
㡭
㡿
㢲
㢴
㣇
㣺
㥯
㪅
㫄
㫐
㫒
㫺
㬅
㬎
㬥
㬰
㲋
㳄
㷠
㸒
㸚
㸦
㼌
㼲
㽞
㿟
䀠
䂞
䍃
䏍
䒑
䖍
䖒
䖝
䖵
䙴
䚻
䜌
䝿
䡛
䧹
䪞
一
丁
丂
七
丄
丅
丆
万
丈
三
上
下
丌
不
与
丏
丐
丑
专
且
丕
世
丘
丙
业
东
丞
丢
丣
两
严
並
丨
丩
个
丫
丬
中
丮
丰
丱
串
丵
丶
丷
丸
丹
为
主
丽
丿
乀
乂
乃
久
乆
乇
么
义
之
乌
乍
乎
乏
乐
乑
乔
乖
乗
乘
乙
乚
乛
乜
九
乞
也
习
乡
乳
乾
亀
亅
了
亇
予
争
事
二
亍
于
亏
亐
云
互
亓
五
井
亘
亚
亜
亞
亟
亠
亡
亢
交
亥
亦
产
亨
亩
享
京
亭
亮
亯
亰
亲
亳
亶
亷
人
亻
亼
亾
仁
今
介
仌
从
仐
仑
仒
仓
仕
他
付
仝
代
令
以
任
企
伊
伏
伐
休
会
伯
但
位
何
佘
余
作
佥
使
來
侈
侌
侖
侯
侵
便
保
俞
信
修
倉
倍
候
倠
備
僉
僕
儿
兀
允
兂
元
兄
充
兆
兇
先
光
兊
克
兌
免
兑
兒
兓
兔
党
兜
兟
入
全
兩
兪
八
公
六
兮
兰
共
关
兵
其
具
典
兹
兼
冀
冂
冃
冄
内
冈
冉
冊
冋
册
再
冎
冏
冐
冒
冓
冖
冗
冘
军
农
冝
冡
冥
冫
冬
冷
几
凡
凢
凵
凶
凷
凸
凹
出
函
凾
刀
刁
刂
刃
刄
刅
分
切
刍
刑
刕
刖
列
刘
则
初
別
利
别
到
制
刺
則
削
剌
前
剡
剽
劉
力
功
加
劦
助
劫
劳
劵
勃
勇
勉
勒
動
務
勞
勤
勹
勺
勻
勾
勿
匀
匂
包
匆
匈
匊
匋
匍
匕
化
北
匚
匝
匡
匪
匱
匸
匹
区
医
匽
匿
區
十
卂
千
卄
卅
卆
升
午
卉
半
卌
华
卑
卒
卓
单
卖
南
卜
卝
卞
占
卡
卢
卣
卤
卦
卩
卪
卬
卯
印
危
即
却
卵
卷
卸
卻
厂
厃
厄
历
厈
厉
厌
厓
厘
厚
原
厤
厥
厨
厭
厲
厶
厷
厸
去
厼
厽
叀
参
參
叅
又
叉
及
友
双
反
叐
发
叒
叔
叕
取
受
叚
叜
叟
口
古
句
另
叩
只
召
可
台
叱
史
右
叵
号
司
叹
吂
各
吅
合
吉
吊
吋
同
名
后
吏
向
吕
君
吝
吞
否
含
启
吳
吴
吹
吾
呂
呆
呈
告
员
呙
周
命
咅
和
咎
咠
咢
咨
咸
咼
哀
品
哉
員
哥
哲
唐
商
啇
問
啚
啬
啻
善
喜
喬
單
喿
嗇
噩
嚴
囊
囗
囘
囙
囚
四
回
囟
因
囧
囬
困
囱
囷
固
国
圂
圅
國
圍
圓
土
圡
圣
圥
在
圭
地
圶
圼
坐
坒
坚
坴
垂
垔
垚
埀
埋
埶
執
基
堂
堅
堆
堇
堯
塞
墨
壘
士
壬
壯
声
壳
壴
壹
壺
壽
夂
处
夅
夆
备
夊
夋
夌
复
夏
夒
夕
外
夗
夘
多
夜
夢
大
夨
天
太
夫
夬
夭
央
失
夲
头
夷
夸
夹
夻
夾
奂
奄
奇
奈
奉
奎
奏
奐
契
奓
奔
奚
奞
奠
奢
奥
奭
女
奴
奻
好
如
妄
妙
妟
妥
妻
妾
姑
委
姜
威
娄
婁
婴
嬰
嬴
子
孑
孔
孕
孖
字
存
孚
孛
孝
孟
季
孤
学
孫
孱
學
宀
宁
宂
它
宅
宇
守
安
宋
完
宏
宓
宗
官
定
宛
宜
宝
客
宣
室
宮
宰
害
家
容
宾
宿
寄
寅
密
富
寒
察
寧
審
寫
寬
寮
寸
对
寺
寻
寽
対
寿
封
尃
射
将
將
專
尉
尊
尋
尌
對
小
少
尒
尓
尔
尖
尗
尚
尞
尢
尣
尤
尧
尨
尭
就
尸
尹
尺
尻
尼
尽
尾
尿
局
居
屈
屋
屎
屏
屑
展
屖
屚
属
屠
屡
屬
屮
屯
屰
山
屵
屾
岁
岂
岑
岡
岩
岳
岸
峯
島
崇
崑
崔
崖
崙
崩
嵬
嶲
巂
巛
川
州
巟
巠
巢
巤
工
左
巧
巨
巩
巫
差
己
已
巳
巴
巷
巸
巽
巾
巿
帀
市
布
希
帚
帛
帝
带
師
席
帶
常
干
平
年
幵
并
幷
幸
幺
幻
幼
幽
幾
广
広
庄
床
底
店
庚
府
度
庫
庭
庶
康
庸
廉
廌
廛
廣
廩
廴
延
廷
建
廾
廿
开
弁
弃
弄
弇
弋
式
弓
弔
引
弗
弘
弜
弟
弥
弦
弱
張
強
强
彊
彌
彎
彐
彑
当
彔
录
彖
彗
彡
形
彥
彦
彧
彭
彳
役
彼
往
待
律
徒
得
徙
從
復
微
徵
心
忄
必
忌
忍
志
忝
忠
忩
快
念
忽
忿
思
怠
急
性
怱
恆
恒
恩
恭
息
悉
患
悤
悲
悶
惠
惡
惢
愁
愈
意
愛
感
慈
慧
慮
憂
憲
應
戀
戈
戉
戊
戋
戌
戍
戎
成
我
戒
戔
或
戚
戠
戢
截
戲
戶
户
戹
戼
戾
房
所
扁
扇
手
扌
才
打
托
执
承
折
拉
拜
拿
掌
推
提
摩
支
攴
攵
收
攸
改
放
政
敄
敏
敕
敖
敗
敝
敞
敢
散
敦
敫
敬
数
敷
數
斂
文
斉
斊
斗
斤
斥
斩
斬
斯
新
方
於
施
斿
旁
旋
族
无
旡
既
旣
日
旦
旧
旨
早
旬
旱
旲
时
旾
昆
昇
昌
昍
明
昏
易
昔
昗
昜
星
春
昬
是
昱
昴
昷
時
晃
晋
晏
普
景
晶
智
暑
暴
曇
曩
曰
曲
曳
更
曷
書
曹
曼
曾
替
最
朁
會
月
有
朋
服
朔
朕
朗
望
朝
木
朩
未
末
本
札
朮
术
朱
朵
朶
朿
杀
杏
杜
束
条
来
東
杲
杳
松
析
林
枚
果
枝
枲
枼
某
柔
查
柬
柰
柴
栗
桀
桑
桼
梁
條
梟
梨
棘
棠
棥
森
楚
業
楽
榮
樂
樊
欠
次
欣
欮
欲
欶
欽
款
歆
歇
歛
止
正
此
步
武
歨
歪
歮
歯
歰
歲
歴
歷
歸
歹
歺
死
殳
段
殷
殸
殹
殺
殻
殿
毋
毌
母
每
毒
比
毕
毚
毛
毳
氏
氐
民
气
氣
水
氵
氶
氷
永
氺
氾
求
汝
汞
江
沃
沓
沙
沝
泉
法
波
泣
泥
泰
洛
洪
活
派
流
浦
浪
浮
淡
淮
清
渚
渠
湯
滿
漸
火
灬
灭
灰
灵
灷
炅
炎
炏
炗
炙
炭
為
烈
烏
烝
焉
無
焦
焱
然
煞
熊
熏
燕
營
燮
爪
爫
爭
爯
爰
爱
爲
爵
父
爻
爽
爾
爿
片
牙
牚
牛
牜
牟
牢
牧
牪
牽
犀
犬
犭
犮
狂
狄
狊
独
狺
猋
猒
猪
献
獻
玄
率
玉
王
玟
玨
珎
班
琴
瑟
瑩
瓜
瓦
甘
甚
生
産
用
甫
甬
田
由
甲
申
电
甶
男
甸
甹
画
甾
畀
界
畏
畐
留
畜
畟
畢
畧
畨
番
畫
異
畱
當
畺
畾
疊
疋
疌
疑
疒
疾
癶
癸
癹
登
發
白
百
皀
皃
的
皆
皇
皋
皐
皕
皮
皷
皿
盃
盆
盇
盈
益
盍
盎
监
盒
盖
盛
盡
監
盤
盧
目
直
相
盾
省
眇
眉
看
眔
眞
真
眷
眼
眾
着
睘
睪
睿
瞏
瞢
瞿
矍
矛
矞
矢
矣
知
矦
短
石
破
碎
磊
磨
示
礻
礼
祟
票
祭
禀
禁
禸
禹
禺
离
禽
禾
禿
秀
秃
秉
秋
科
秝
秦
移
稟
穀
穌
穴
究
穹
空
穿
突
窄
窒
立
竒
竜
竝
竟
章
童
竹
笑
笠
筆
等
答
箕
算
箴
節
篤
篭
米
粉
粛
粟
粤
粦
粲
糞
糸
糹
系
約
納
素
索
紫
累
細
絜
絫
絲
維
綿
縣
繇
纍
纟
缶
网
罒
罔
罕
罗
罙
罡
罢
罪
署
罷
羅
羊
羌
羍
美
羔
羕
羗
羞
羡
羣
群
義
羲
羸
羽
翁
翏
習
翕
翟
翠
翼
老
耂
考
者
耆
而
耎
耑
耒
耳
耴
耶
耷
聂
聊
聖
聚
聶
聿
肀
肃
肅
肉
肖
肙
肥
肩
肯
育
肴
胃
背
胡
胥
能
脊
脩
膚
臣
臤
臧
自
臬
臭
臯
臱
至
致
臺
臼
臽
臾
臿
舀
舂
舄
與
興
舉
舌
舍
舛
舜
舞
舟
般
艮
良
色
艸
艹
艾
芒
芔
芬
芮
花
芳
芺
芻
苔
苗
苟
若
苦
英
茶
茸
荅
草
荒
荣
荼
莆
莧
莫
莽
菆
菊
菐
華
萬
落
葉
著
葛
董
葵
蒙
蒦
蒼
蓋
蓬
蓺
蔑
蔡
蕉
蕭
薄
薛
薦
薰
藍
藏
藥
蘭
虍
虎
虐
虒
虔
處
虖
虗
虘
虚
虛
虜
虞
虫
虽
蚤
蚩
蜀
蜜
蟲
蠡
血
行
衍
衛
衣
衤
表
衮
衰
袁
袞
褭
褱
襄
襾
西
覀
要
覃
見
規
覓
覧
親
覽
见
角
解
言
訁
訇
計
詹
誩
諸
讠
谷
豆
豈
豊
豐
豕
豖
豙
象
豦
豩
豪
豸
貇
貝
貞
貟
負
貢
貧
貪
貫
責
貳
貴
買
費
賁
資
賈
賏
賓
賔
賛
賞
賢
賣
質
賴
贊
贝
贡
责
贯
贲
贵
赖
赞
赤
赦
走
越
足
路
蹇
身
躬
車
軍
軎
軟
輦
车
辛
辜
辟
辥
辰
辱
農
辵
辶
边
达
过
近
连
迷
追
退
送
逆
逐
通
速
造
逢
連
逮
進
遀
遂
過
道
達
遣
適
遷
遺
邊
邑
邕
那
邦
邪
郎
部
郭
都
鄉
酉
酋
配
酓
釆
采
里
重
野
量
金
釒
錢
钅
長
镸
长
門
閃
閉
開
閏
閑
閒
間
閔
閵
閻
闌
门
间
闷
阑
阜
阝
阿
降
陳
隆
隊
隋
隡
隨
隱
隶
隹
隺
隻
隼
隽
难
雀
雁
集
雈
雋
雍
雐
雔
雙
雚
雜
雝
離
難
雨
雩
雪
雲
零
雷
需
霍
霜
霝
霞
霸
靈
靑
青
非
靡
面
靣
革
韋
韦
韭
韯
韱
音
頁
頃
項
須
頗
頡
頻
顛
页
風
风
飛
飞
食
飠
養
饣
首
香
馬
馮
駦
马
骨
高
髟
鬥
鬯
鬲
鬼
魚
魯
鮮
鱼
鲁
鳥
鳳
鸟
鹵
鹿
麃
麗
麥
麦
麻
黃
黄
黍
黎
黑
黒
黨
黹
黽
黾
鼎
鼓
鼠
鼻
齊
齋
齐
齒
齿
龍
龙
龜
龟
龠
龰
龱
龴
龵
龶
龷
龸
龹
者
艹
？
￼
🜨
𠀁
𠀃
𠀆
𠀉
𠀎
𠀐
𠁁
𠁣
𠂆
𠂇
𠂈
𠂉
𠂊
𠂋
𠂎
𠂒
𠂔
𠂛
𠂡
𠂢
𠂤
𠂬
𠂭
𠂹
𠃊
𠃋
𠃌
𠃍
𠃎
𠃑
𠃓
𠃔
𠃜
𠄌
𠄎
𠄠
𠄢
𠆢
𠆥
𠇍
𠈌
𠌵
𠓜
𠔉
𠔥
𠔼
𠔽
𠔿
𠕀
𠕁
𠕋
𠘧
𠘨
𠙻
𠙼
𠚏
𠚒
𠚤
𠚪
𠣏
𠤎
𠤕
𠥓
𠦄
𠦑
𠦝
𠧒
𠧗
𠧪
𠩺
𠪚
𠫓
𠫔
𠫤
𠬛
𠬝
𠬞
𠬢
𠬤
𠬶
𠮛
𠮦
𠮷
𠯑
𠱠
𠳮
𠷎
𡈼
𡉀
𡉵
𡌥
𡍮
𡏳
𡕒
𡕩
𡕰
𡖅
𡗗
𡗜
𡘆
𡘤
𡧱
𡨄
𡩧
𡬠
𡭽
𡰣
𡰥
𡰪
𡰯
𡰱
𡷈
𡸁
𡿨
𡿩
𡿪
𡿺
𢀖
𢀛
𢀩
𢁙
𢆉
𢆰
𢆶
𢇁
𢇇
𢉖
𢌬
𢌿
𢏚
𢑑
𢑚
𢖻
𢙣
𢛳
𢦏
𢦒
𢧵
𢼄
𢾕
𣁋
𣄼
𣅀
𣅽
𣍘
𣎳
𣎵
𣏋
𣏼
𣗥
𣥂
𣥖
𣦵
𣦼
𣧄
𣪊
𣪠
𣬉
𣳾
𣶒
𤇾
𤊽
𤐫
𤓰
𤔔
𤕨
𤣩
𤰇
𤰔
𤰞
𤴓
𤴔
𤽄
𥁑
𥁕
𥃦
𥃩
𥃭
𥇡
𥑟
𥘅
𥘈
𥝢
𥫗
𥱡
𦈢
𦉪
𦉬
𦉼
𦍌
𦍒
𦎧
𦐇
𦓔
𦔮
𦘒
𦙃
𦚏
𦣝
𦣞
𦣻
𦥑
𦥔
𦥯
𦨉
𦭝
𦰩
𧆞
𧈧
𧘇
𧰨
𧴪
𧴮
𧵩
𧾷
𨸏
𨾴
𩙿
𩠐
𩫏
𩵋
𪉷
𪜀
𪟽
𪠲
𪩲
𫇦
𫔭
𫜸
𫝀
𫠣
𫠩
𫢉
𫥞
𫩏
𫩠
𫪡
𫲽
𫶧
𬀷
𬐘
𬗌
𬙙
𬛸
𬜯
𬟩
𬯁
𬴘
𬺻
𬼉
𬼖
𭀰
𭁈
𭁨
𭅰
𭑈
𭕄
𭗼
𭤨
𭥫
𭻾
𮅕
𮊿
𮍌
𮍏
𮓗
𮥼
𮧮
廾
𰀁
𰀄
𰀈
𰀉
𰀕
𰀠
𰀡
𰀢
𰀪
𰁜
𰃮
𰆊
𰆘
𰋙
𰕎
𰢴
𰧭
𰯲
0--
10--
17--
18--
19--
20--
3--
4--
5--
6--
7--
8--
9--
a--
aa--
ac--
age--
agi--
agu--
aho--
air--
aki--
ako--
al--
an--
ao--
ar--
ara--
aru--
as--
at--
ata--
auran--
autho--
b--
ba--
bar--
baz--
be--
bei--
bes--
besh--
bet--
bi--
bio--
bl--
bo--
bri--
brid--
bro--
bu--
c--
ca--
cabi--
cal--
car--
carp--
cet--
cha--
che--
chi--
cho--
chri--
chro--
ci--
cia--
ciandi--
cii--
cio--
cir--
ciu--
co--
communi--
con--
cow--
cre--
cu--
d--
da--
de--
dia--
dis--
do--
doc--
dong--
du--
e--
ed--
effec--
elect--
emi--
en--
ere--
et--
ev--
ex--
ez--
f--
fa--
fer--
fi--
fra--
fran--
fu--
g--
ga--
gao--
ge--
gen--
ger--
gi--
go--
gra--
gu--
guci--
gui--
guthu--
gwe--
gwiki--
h--
ha--
hai--
hanc--
he--
hi--
ho--
hono--
hu--
hua--
huay--
i--
iba--
ico--
ie--
iga--
ige--
igi--
igu--
iha--
ihe--
ihu--
ika--
iki--
iko--
im--
in--
inji--
ira--
iro--
iru--
is--
ish--
it--
ita--
itha--
ithi--
ithode--
ithon--
itu--
j--
ja--
je--
ji--
jinc--
jing--
jo--
ju--
k--
ka--
kai--
kar--
kata--
ke--
ki--
kiri--
ko--
kon--
kos--
ku--
kuo--
kuru--
kwa--
kwe--
kwi--
l--
la--
le--
li--
lib--
ligu--
lo--
lon--
long--
lu--
m--
ma--
mac--
maca--
maco--
mag--
mage--
magi--
mai--
maika--
maka--
mako--
man--
mar--
mara--
mare--
mata--
mate--
math--
matha--
mati--
matu--
mau--
maz--
mba--
mbu--
me--
medit--
mee--
meme--
menye--
mer--
metaphys--
mi--
mic--
micro--
miss--
mo--
moo--
mu--
mwa--
mwe--
my--
n--
na--
nas--
nav--
nda--
nde--
ndi--
ndu--
ne--
ng--
nga--
nge--
ngi--
ngo--
ngu--
ni--
niya--
nja--
nji--
njia--
njo--
no--
nu--
nya--
nyi--
nyo--
o--
ol--
on--
one--
op--
oq--
os--
p--
pa--
pan--
par--
passiflo--
pat--
pe--
pet--
phi--
pho--
phys--
pi--
po--
popu--
pre--
prin--
prog--
psyc--
pu--
q--
qing--
qo--
qu--
r--
ra--
rau--
re--
ri--
rii--
ro--
ru--
s--
sa--
sar--
sc--
se--
sea--
semi--
sen--
sensa--
ser--
sha--
shah--
she--
shi--
shu--
si--
sis--
slov--
so--
sola--
speci--
spi--
st--
su--
sy--
t--
ta--
taa--
tac--
te--
teki--
th--
tha--
thau--
the--
thi--
thita--
thode--
thu--
ti--
to--
tod--
tong--
trans--
tre--
tri--
tu--
twi--
u--
uch--
un--
uni--
usa--
uta--
v--
va--
ver--
vi--
w--
wa--
war--
we--
wi--
wik--
wiki--
wo--
wu--
xi--
xian--
xin--
xing--
y--
ya--
yan--
yi--
yo--
yone--
yu--
z--
za--
zhao--
zhu--
--0
--03
--1
--2
--3
--4
--5
--6
--66
--7
--8
--89
--9
--93
--97
--a
--aceae
--aga
--ai
--al
--als
--am
--ams
--an
--ao
--ary
--as
--au
--ay
--b
--ba
--bi
--bod
--bu
--c
--ca
--cal
--ce
--ceae
--ces
--ch
--che
--cher
--cht
--chte
--ci
--cle
--cles
--cs
--cu
--cus
--d
--da
--dao
--de
--di
--dia
--do
--du
--dy
--e
--ea
--ect
--ed
--ef
--el
--eli
--em
--en
--ense
--ent
--er
--es
--etwo
--eve
--f
--fa
--ft
--g
--ga
--gaga
--gani
--ge
--geete
--gen
--gh
--ght
--gi
--gia
--gici
--gimi
--gio
--gira
--girwo
--gna
--go
--gs
--gu
--gunda
--gundo
--gundwo
--gwa
--gwo
--gzhou
--gzi
--h
--ha
--haga
--hai
--han
--he
--heo
--hi
--ho
--hu
--hua
--i
--ia
--ika
--il
--in
--ine
--ing
--ini
--io
--ion
--ire
--is
--ism
--it
--iti
--ja
--ji
--k
--ka
--ke
--ki
--ko
--kou
--ku
--kuru
--kwea
--kwo
--l
--la
--lb
--ld
--le
--lg
--li
--lia
--ling
--lity
--ll
--lla
--ller
--lles
--lli
--logy
--ls
--lt
--lu
--ly
--m
--ma
--me
--mi
--mo
--ms
--mu
--mwo
--n
--na
--naga
--nagio
--nal
--nce
--nd
--nda
--ndi
--ndu
--ne
--ng
--nga
--ngi
--ngs
--ngwo
--ni
--nia
--nie
--nja
--nje
--nk
--no
--ns
--nt
--nts
--nu
--nwo
--ny
--nye
--nywo
--o
--ok
--om
--on
--ong
--ons
--os
--p
--pa
--pe
--ping
--ples
--q
--qiu
--que
--r
--ra
--raceae
--rama
--rance
--rb
--rd
--rdia
--re
--ren
--rera
--rere
--ri
--ria
--rie
--rio
--riq
--rire
--riria
--rk
--rms
--rn
--ro
--ronji
--rs
--ru
--rum
--ruo
--ruya
--rwa
--rwo
--ry
--s
--sa
--se
--ses
--sh
--sha
--shan
--shi
--shui
--si
--sis
--sm
--so
--ss
--st
--sta
--sti
--t
--ta
--tagi
--tan
--tata
--tch
--te
--ter
--tes
--th
--tha
--thi
--thia
--thimu
--tho
--ti
--tire
--tive
--to
--tor
--try
--ts
--tt
--tu
--two
--ty
--u
--ual
--um
--uo
--uri
--us
--v
--va
--ve
--vo
--w
--wa
--wo
--x
--xon
--y
--ya
--ye
--yer
--yi
--yo
--yu
--z
--za
--ze
--zhou
--zo
--и
--на
