!
"
#
##0
##1
##10
##11
##12
##13
##14
##15
##16
##17
##18
##19
##2
##20
##21
##22
##23
##24
##25
##26
##27
##28
##29
##3
##30
##31
##32
##33
##34
##35
##36
##37
##38
##39
##4
##40
##41
##42
##43
##44
##45
##46
##47
##48
##49
##5
##50
##51
##52
##53
##54
##55
##56
##57
##58
##59
##6
##60
##61
##62
##63
##64
##65
##66
##67
##68
##69
##7
##70
##71
##72
##73
##74
##75
##76
##77
##78
##79
##8
##80
##81
##82
##83
##84
##85
##86
##87
##88
##89
##9
##90
##91
##92
##93
##94
##95
##96
##97
##98
##99
$
%
&
'
(
)
*
+
,
-
.
/
0
00
000
007
01
011
012
013
014
016
017
019
02
020
021
022
023
024
025
026
027
028
029
03
030
031
032
033
034
035
036
037
038
039
04
040
041
042
043
044
045
046
047
048
049
05
050
051
052
053
054
055
056
057
058
059
06
060
061
062
063
064
065
066
067
068
069
07
070
071
072
073
074
075
076
077
078
079
08
080
081
082
083
084
085
086
087
088
089
09
090
091
092
093
094
095
096
097
098
099
1
10
100
1000
100000
101
10100
102
103
104
105
106
107
108
109
11
110
111
112
113
114
115
116
117
118
119
12
120
121
122
123
124
125
126
127
128
129
13
130
131
132
133
134
1347
135
136
137
138
139
14
140
141
142
143
144
145
146
147
148
149
15
150
1500
151
152
153
154
155
156
157
158
159
16
160
161
162
163
164
165
166
167
168
169
17
170
171
172
173
174
175
1757
176
177
178
179
1790
18
180
1800
1802
1803
181
1814
1815
182
1821
1824
1826
183
1830
1833
1834
1835
1836
1837
1838
184
1841
1842
1844
1846
1847
1849
185
1850
1851
1852
1856
1857
1858
1859
186
1860
1861
1862
1863
1864
1865
1866
1867
1868
1869
187
1870
1871
1872
1873
1874
1875
1876
1877
1878
1879
188
1880
1881
1882
1883
1884
1885
1886
1887
1888
1889
189
1890
1891
1892
1893
1894
1895
1896
1897
1898
1899
19
190
1900
1901
1902
1903
1904
1905
1906
1907
1908
1909
191
1910
1911
1912
1913
1914
1915
1916
1917
1918
1919
192
1920
1921
1922
1923
1924
1925
1926
1927
1928
1929
193
1930
1931
1932
1933
1934
1935
1936
1937
1938
1939
194
1940
1941
1942
1943
1944
1945
1946
1947
1948
1949
195
1950
1951
1952
1953
1954
1955
1956
1957
1958
1959
196
1960
1961
1962
1963
1964
1965
1966
1967
1968
1969
197
1970
1971
1972
1973
1974
1975
1976
1977
1978
1979
198
1980
1981
1982
1983
1984
1985
1986
1987
1988
1989
199
1990
1991
1992
1993
1994
1995
1996
1997
1998
1999
2
20
200
2000
2001
2002
2003
2004
20040616075334
2005
2006
2007
2008
2009
201
2010
2011
2012
2013
2014
2015
2016
2017
2018
2019
202
2020
2021
2022
2024
203
204
205
206
207
208
209
21
210
211
212
213
214
215
216
217
218
219
22
220
221
222
223
224
225
226
227
228
229
23
230
231
232
233
234
235
236
237
238
239
24
240
241
242
243
244
245
246
247
248
249
25
250
251
252
253
254
255
256
257
258
259
26
260
261
262
263
264
265
266
267
268
269
27
270
271
272
273
274
275
276
277
278
279
28
280
281
282
283
284
285
286
287
288
289
29
290
291
292
293
294
295
296
297
298
299
3
30
300
3000
301
302
303
304
305
306
307
308
309
31
310
311
312
313
314
315
316
317
318
319
32
320
321
322
323
324
325
327
329
33
330
331
333
334
335
336
337
338
339
34
340
343
344
345
346
347
348
349
35
350
351
352
354
355
356
357
358
359
36
360
361
363
365
366
368
369
37
370
371
372
373
374
375
378
38
380
381
385
386
387
389
39
391
393
394
395
397
399
4
40
400
401
402
403
404
407
408
41
415
417
42
420
424
425
426
428
429
43
430
431
433
434
436
437
438
439
44
440
441
442
443
444
445
446
447
45
450
451
452
453
454
455
456
459
46
460
461
463
464
465
466
467
47
470
472
473
475
476
477
478
479
48
480
482
483
484
485
486
487
49
491
492
493
495
496
498
5
50
500
5000
502
503
504
507
509
51
510
511
512
515
516
517
519
52
520
521
522
523
525
526
529
53
530
532
533
534
536
537
54
540
541
542
543
545
546
55
550
551
552
553
555
559
56
561
562
563
565
566
567
568
569
57
570
571
574
575
576
579
58
580
582
584
59
592
593
594
595
597
599
6
60
600
602
607
61
610
611
612
614
617
618
62
620
622
625
63
632
636
64
640
644
645
65
650
66
661
67
674
68
69
7
70
700
71
72
720
73
74
75
750
76
77
78
79
8
80
800
81
82
83
84
85
86
87
88
89
9
90
900
91
92
93
94
95
96
97
978
979
98
99
999
:
;
<
=
>
?
@
\
^
_
`
a
aa
aaptos
ab
abad
abadi
abaik
abang
abbas
abbasiyah
abbreviata
abd
abdi
abdominalis
abdul
abdullah
abdurrahman
aberrans
abi
abidin
abih
abjad
abnormis
about
abraham
abri
abstrak
abu
abubakar
abuih
abung
abyssocladia
ac
academy
acalolepta
acanthella
acanthonevra
acanthotetilla
acara
acarnia
acarnidae
acarnus
acaro
acartauchenius
accessed
aceh
achalcus
achmad
aciculites
acidiella
acidiostigma
acinia
aciurina
acnemia
acok
acragas
acritus
acroceratitis
acropsilus
acrotaeniostola
acrotona
act
actia
actinopodidae
actinoptera
actinopus
actium
aculeata
aculepeira
acuminata
acusilas
acuta
acutipennis
acutipula
acutus
ad
ada
adaik
adalah
adaloh
adam
adaptasi
adapun
adat
ade
adegan
adejeania
adel
adesmus
adetus
adi
adiak
adiaknyo
adil
adinegoro
adipati
adityawarman
administrasi
administratif
administrativ
admontia
adnan
ado
adolah
adonan
adonyo
adopulo
adopun
adu
aduak
adusta
ae
aedes
aedimorphus
aegogropila
aegophagamyia
aek
aeletes
aelurillus
aeolesthes
aequalis
aerenea
af
afdeling
affairs
affinis
afgan
afghanistan
afraflacilla
africa
africana
africanus
afrika
afrizal
afrolimonia
afroneta
after
ag
agabus
against
agak
agam
agama
agamo
agapanthia
agar
agdam
age
agelas
agelasidae
agelasta
agen
agency
agiah
agilis
agobardus
agong
agorius
agresi
agresif
agriculture
agromyza
agromyzidae
aguang
agung
agus
agustus
agyneta
ah
ahli
ahmad
ahn
ahsan
ai
aia
aianyo
aie
air
airlines
airport
aisyah
aisyiyah
aj
ajak
ajang
ajaran
aji
ajo
ak
aka
akademi
akademik
akademisi
akan
akar
akbar
akbid
akhia
akhianyo
akhir
akhirnya
akhirnyo
akia
akianyo
akiaran
akibaik
akibaiknyo
akibat
akibek
akper
akrab
akreditasi
aksara
akses
aksi
aktif
aktivis
aktivitas
aktor
aktris
aku
akun
akuntansi
akut
al
ala
alabama
alah
alahan
alai
alaik
alam
alami
alan
alang
alas
alasan
alaska
alat
alata
alba
albert
albescens
albicans
albifrons
albitarsis
albolineata
albomaculata
albomaculatus
albosignata
albovittata
album
alcatraz
aldrich
aldrichi
ale
alectona
aleh
alek
aleochara
alepia
alergi
aleucosia
alex
alexander
alexanderi
alfa
alfabet
alfred
alga
ali
aliah
alias
alif
alih
alim
aliran
alisjahbana
aljabar
aljazair
alkitab
alkohol
all
allah
allen
alliopsis
allobaccha
allocotocera
allodia
allodiopsis
allograpta
allopachria
alluaudi
alluaudomyia
alm
alor
alpaida
alpha
alpina
alquran
also
altaica
alternatif
alticola
alu
alua
aluih
alum
aluminium
alumni
alun
alur
alwi
am
amabilis
amai
amaik
amak
amaknyo
aman
amanat
amanda
amauromyza
amazon
amazonica
ambang
amber
ambiak
ambigua
amblypsilopus
ambo
amboina
ambon
ambun
ameh
america
american
americana
americanus
amerika
ametlla
amfibi
amictus
amin
amir
ammophilomima
amo
amoena
amor
amorphinopsis
ampadu
ampang
ampek
amphicnaeia
amphilectus
amphimedon
amphineurus
amphoriscus
ampia
ampiang
amrullah
ams
amsterdam
amurensis
amycus
an
anaglyptus
anai
anak
anaknyo
analis
analisis
analog
analysis
anam
anambas
anarete
anas
anastoechus
anastrepha
anatella
anatolia
anatomi
anau
anautojenik
ancak
ancaman
anceps
anchor
ancient
ancorina
ancorinidae
ancua
ancylorhynchus
and
anda
andalas
andaleh
andaman
andamanensis
anderson
andi
andina
andre
andrenosoma
andrew
android
aneflomorpha
aneh
aneka
anelaphus
aneomochtherus
anepsion
aneuk
aneura
ang
angek
angel
angeles
anggaran
anggota
anggotanyo
anggrek
angin
angka
angkasa
angkaso
angkatan
angkek
angko
angkola
angkot
angku
angkutan
angok
angola
angolensis
angso
angularis
angulata
angulatus
anguliphantes
angusta
angustifrons
angustipennis
ani
animalia
animasi
anisa
anisia
anisopodus
anjiang
anjik
anjuang
anna
annamanum
annulata
annulatus
annulicornis
annulipes
anomala
anomiopus
anomoia
anopheles
anoplophora
anotylus
antankarana
antar
antara
antaranyo
antarctica
antariksa
antarktika
antaro
antarobanso
antaronyo
antartika
antena
antennalis
antennata
antho
anthomyiidae
anthony
anthos
anthrax
anti
antibiotik
antibodi
antigen
antioksidan
antocha
antodice
antologi
antonio
antropologi
antu
anugerah
anwar
anyaman
anyo
ao
ap
apa
apak
apaknyo
aparatur
aperta
aphoebantus
aphrodisium
api
apicalis
apicata
aplikasi
aplomya
aplysina
aplysinidae
apo
apobilo
apocephalus
apokah
apolai
apollo
apolysis
apomecyna
apopun
apotolamprus
app
appendiculata
april
apriona
aprionus
aq
ar
ara
arab
arabia
arabic
arabica
arachnida
arachnodes
arachnura
araeoncus
arah
arak
aram
araneae
araneidae
araneus
arang
araniella
arati
aratinyo
arau
arbitrase
arbitration
arbuscula
arca
archer
architecture
archive
archived
archytas
arctica
arctotipula
arcuata
arcuatus
arcuphantes
are
area
areal
arek
arema
aren
arena
arenosa
ares
argentata
argentea
argentina
argentinomyia
argiope
argyra
ari
arianops
arief
arif
arifin
arizonensis
ark
arkeolog
arkeologi
arkys
armada
armata
armatus
armenia
armigeres
armstrong
arnaudi
arnoldii
aroma
arounova
arsenik
arsip
arsitek
arsitektur
art
artefak
artemisina
arteri
arthrocnodax
arthropoda
arthur
arti
article
articles
artikel
artimpaza
artinya
artinyo
artis
arts
aru
aruih
arus
arya
as
asa
asahan
asal
asali
asam
asanyo
asarkina
asas
asasi
asbestopluma
ascyltus
asean
asem
asemonea
aset
asetat
ash
ashikaga
ashtabula
asia
asian
asiang
asiatica
asiaticus
asilidae
asilus
asin
asing
asisten
asli
aslinyo
asmara
aso
asok
asosiasi
asoy
aspal
aspek
aspera
asphondylia
aspirasi
asrama
asri
assaat
assamensis
assimilis
assist
association
astathes
asteroid
asteropus
asthenargus
astochia
astronomi
astronomical
asuransi
asy
asynapta
asyndetus
at
atap
atarba
atarbodes
atas
atau
ataupun
ataxia
ateh
atehnyo
aten
ater
aterrima
atesta
ateuchus
atherigona
atheta
atholus
ati
atlantica
atlantik
atlas
atlet
atmosfer
atok
atoknyo
atom
atomosia
atra
atraksi
atrata
atrichopogon
atripes
attenuata
aturan
atylotus
atypophthalmus
au
aua
audio
audisi
audouin
august
aula
aulagromyza
auletta
aulia
aulospongus
aur
aurantiaca
aurata
aurea
aurotipula
australia
australian
australiensis
australis
australoechus
austria
austrolimnophila
austromolophilus
austronesia
austrophorocera
austrosynapha
autalia
autumnalis
auxa
av
available
aw
awa
awak
awal
awalnya
awalnyo
awam
awan
awanyo
award
awards
ax
axinella
axinellidae
axinyssa
axosuberites
ay
aya
ayah
ayahnyo
ayaik
ayam
ayan
ayat
ayu
az
azarkina
azerbaijan
azhar
azhari
aziz
azores
azwar
b
ba
baa
baagamo
baarati
baarti
baasa
bab
baba
babadan
babagai
babagi
babahan
babahaso
babahayo
babak
babaliak
baban
babandiang
babantuak
babarapa
babarapo
babasis
babateh
babatehan
babaun
babeda
babedo
babi
babicaro
babuah
babuek
babukik
babungo
babunyi
baburu
baca
bacaan
bacabang
bacakak
bacampua
bacanius
bacarai
bacarito
bacchisa
bachtiar
back
baco
bacoan
baconia
bactrocera
bada
badagang
badah
badai
badak
badakekan
badampak
badan
badannyo
badarah
badasa
badasakan
badasaran
badasarkan
badaulaik
badia
badiameter
badiri
badirinyo
badminton
badunsanak
baduo
baduri
bae
baeoura
baffin
bafokus
bafungsi
bagabuang
bagagar
bagaimano
bagala
bagalombang
baganti
bagantian
bagantuang
bagarak
bagaya
bagerak
baghdad
bagi
bagian
bagindo
bagitu
bagonjong
baguno
bagurau
baguru
bagus
bah
bahagia
bahama
bahan
bahannyo
bahar
bahari
bahasa
bahasia
bahasil
bahaso
bahasonyo
bahayo
bahkan
bahrain
bahri
bahru
bahsonyo
bahu
bahubuangan
bahubungan
bahwa
bahwasanyo
baiak
baik
baiklim
bailey
baisi
bait
baitu
baja
bajak
bajalan
bajanji
bajarak
bajaso
baju
bajuang
bajudua
bajudul
bajumlah
bak
baka
bakaduduakan
bakadudukan
bakaik
bakaitan
bakakuatan
bakal
bakalompok
bakambang
bakambangnyo
bakapasitas
bakar
bakarajo
bakat
bakatinggian
bakato
bakau
bakeh
bakeri
bakhvalov
bakisar
bako
bakomunikasi
bakso
bakteri
bakti
baku
bakuaso
bakumpua
bakunjuang
bakurang
bal
bala
balabiah
balabiahan
balado
balah
balahan
balai
balainan
balakang
balakangan
balaku
balando
balang
balangsuang
balanjo
balanjuik
balansuang
balantai
balap
balari
baldratia
baleh
balenggek
balerang
balerong
bali
baliak
baliau
balik
balikpapan
balkan
ball
ballus
balmaceda
balogh
balok
balokasi
baluik
balun
bamacam
bamain
bamakna
bambang
bambu
bamigrasi
bamotor
bamukasuik
bamukim
bamulo
ban
bana
banamo
banang
banca
bancano
banco
band
banda
bandar
bandara
bandaro
bandera
bandiang
bando
bandung
bang
banggai
bangka
bangkai
bangkak
bangkik
bangkinang
bangko
bangkok
bangku
bangladesh
bangsa
bangsawan
bangso
bangun
bangunan
bangunannyo
bani
banilai
banjar
banjarmasin
banjir
bank
banks
banksi
banque
bansi
banso
bantan
bantangan
banten
banteng
bantu
bantuak
bantuaknyo
bantuan
banua
banuhampu
banyak
banyaknyo
banyuasin
banyuwangi
bao
baoperasi
bapak
bapakai
bapaknyo
bapandangan
bapandapek
bapanduduak
bapangaruah
baparan
baparang
baperan
bapikia
bapindah
bapisah
bapori
bappenas
bapuaso
bapusek
bar
bara
barabaik
baracun
barado
baragam
baragamo
baraik
baraja
barakhia
baralek
baraliah
barambuik
baranang
barang
baranggotakan
barangkek
barani
baranti
barapi
barapo
bararti
barasa
barasal
barasia
barasiah
barasil
barat
barati
barbara
barbata
barcelona
bareaksi
baredar
bareh
barek
bareknyo
bareproduksi
barhasil
baribeh
barih
barikuik
barikuiknyo
baringin
baris
barisan
barisi
baritania
barito
barium
barnes
baro
barono
baroperasi
barrion
barrows
baru
baruah
baruak
baruang
barubah
barukuran
barulah
barulak
barulang
barumua
barumun
barupo
barus
barusaho
basa
basah
basaiang
basakolah
basalis
basamo
basamoan
basandi
basangkutan
basanjato
basarato
basatu
base
based
basi
basifaik
basifat
basifek
basijarah
basilewskyi
basipaik
basis
basket
baso
basobok
basonyo
basri
bastatus
basudaro
basuki
basumber
basuo
basurek
baswedan
bata
batagak
batahan
batahap
batahun
batak
batalua
batalyon
batam
batambah
batampek
batamu
batandiang
batang
batangguang
batanghari
batangnyo
batantangan
batanyo
batas
batavia
batawi
bateh
baterai
batesi
bathippus
bathyphantes
bathypogon
batiah
batiak
batik
batin
batindak
batingkek
batino
batipe
batipuah
batipuh
batocera
batrachorhina
batrai
batrisodes
batu
batua
batuah
batuak
batuan
batuang
batugas
batugeh
batujuan
batuka
batur
baturuik
batusangka
batusangkar
batzella
bau
bauab
baubah
baubuangan
baukuran
baulang
baumua
baun
bausaho
bavariasi
bavia
bawah
bawahan
bawahnyo
bawang
bawarna
bawarno
bawenang
bayang
bayi
bayu
bayua
bazaar
bb
bbc
bc
bd
bdelyrus
be
beach
beasiswa
beata
beatty
beaver
bebas
bebek
bebelis
beberapa
beberapo
beckeri
beda
bedah
bedanyo
bedo
begitu
beijing
bekas
bekasi
beko
bela
belajar
belakang
belanda
belando
belas
belgia
beliau
belida
belitung
bella
bellardina
belle
bellota
bellus
belum
belvosia
ben
benar
bencana
benda
bendera
bendi
bengalensis
bengkalis
bengkulu
benjamin
benoit
bensin
benteng
bentuk
benua
bequaerti
berada
berang
berarti
berasal
berat
berau
berbagai
berbahasa
berbasis
berbatasan
berbeda
berdasarkan
berdeniella
berdiri
bergenstamm
bergerak
bergisch
bergquist
berhak
berhasil
berikut
beringotipula
berita
berkas
berkembang
berlaku
berland
berlin
bernama
berperan
berry
bersama
bersatu
berubah
berupa
besar
besemah
beserta
besi
best
beta
betawi
betino
beton
betung
between
bezzia
bf
bg
bh
bhakti
bhd
bhutan
bi
bia
biak
biannulata
bianor
biaro
biasa
biasanyo
biaso
biasonyo
biaya
biayo
bibia
bibliografi
bicincta
bickel
bicolor
bicornis
bid
bidan
bidang
bidens
bidentata
bidessonotus
bidessus
bieber
biemna
bifasciata
bifida
bifurcata
big
biji
bijo
bila
bilah
bilalang
bilang
bilangan
biliak
bilineata
bill
billaea
billion
bilo
bilobata
bima
bimaculata
bimaculatus
bimbingan
bin
bina
binantang
binatang
biner
bingkai
bini
bininyo
binjai
bintan
bintang
binti
biografi
biography
bioko
biologi
biologis
biology
bioskop
biota
bipunctata
biro
birokrasi
birokrat
biru
bisa
bisaltes
biseta
bisetosa
bishop
bisnis
biso
bispinosa
bissau
bisuak
biswas
bit
bivittata
bizantium
bj
bk
bl
black
blackwall
blanchard
bledius
blepephaeus
blepharella
blepharipa
blepharoneura
blepisanis
blest
blog
blok
blondelia
blue
blust
bm
bmkg
bmw
bn
bni
bnpb
bo
board
boattini
bobot
bodi
body
boeckeler
boer
bogor
bohdanowicz
bojonegoro
bola
bolak
boletina
bolitochara
bolivia
boliviana
bolon
bolu
bolyphantes
bom
bombyliidae
bombylisoma
bombylius
bonai
bond
bone
bonjol
book
books
boot
boott
borealis
borgmeieri
borneensis
borneo
borojevic
borophaga
bos
bosegh
bosmans
bosnia
boston
botani
botanophila
botswana
bottom
boury
boven
bowerbank
boy
bp
bpcb
bpp
bps
bq
br
brabant
brachypeza
brachypogon
brachypremna
brady
brasil
brasiliensis
brauer
brawijaya
brazil
breda
breitfuss
brescovit
brevicornis
brevicornu
brevipalpis
brevipennis
brevipes
brevis
brian
brignoli
brill
britain
britania
britannica
brithura
british
bromo
broughton
brown
browni
browser
bruchi
brunei
brunettia
brunnea
brunnescens
brunneus
bryant
bryophaenocladius
brøndsted
bs
bt
bu
buah
buahan
buahnyo
buai
buakaw
buang
buatan
buay
buaya
buayo
bubaris
bubua
bubuak
bubur
budak
budaya
budayawan
budayo
buddha
budha
budi
budidaya
budidayo
buek
bugih
bugis
building
bujang
bujua
bujur
bukan
bukanlah
bukik
bukiktinggi
bukit
bukittinggi
bukti
buku
bukunyo
bulan
bulando
bulbosa
bulek
bulgaria
buliah
bulian
bulu
buluah
bumbu
bumetopia
bumi
bunda
bundo
bung
bunga
bungker
bungo
bungonyo
bungsu
bunguran
bunker
bunuah
bunyi
buo
bupati
burger
burgo
burhanuddin
burke
bursa
burton
burtonanchora
burtoni
buru
buruak
buruang
buruh
burung
bus
busana
business
but
buta
butler
buton
butuah
buya
bv
bw
bwf
bx
by
byron
bz
c
ca
cabang
cacat
cacia
caciang
cacospongia
cacostola
cadangan
cadiak
caesar
cagar
cahaya
cahayo
caia
cairan
cakupan
calcarea
calcinai
caledonia
caliak
california
californica
californicus
caliginosa
callia
callidium
callimetopus
callitrichia
callyspongia
callyspongiidae
calodexia
calon
calthropella
calycomyza
calyx
cam
camargo
cambridge
cameh
cameroon
camp
campestris
campiglossa
campo
campsicnemus
camptomyia
campua
campuran
campylocheta
campylomyza
can
canada
canadensis
canaliculata
canariensis
candi
cando
canduang
canescens
caniago
canthidium
canthon
canthyporus
cap
cape
capek
capellen
capensis
capital
caporiacco
cara
carballo
carbonaria
carcelia
carcinops
carex
cari
caricea
carinata
carinatus
carito
carl
carmia
carnivorous
caro
carolina
caroline
carolinensis
caronyo
carpelimus
carpophthoromyia
carrhotus
carta
carter
carteri
carteriospongia
caryomyia
case
castanea
castaneus
cat
catachlorops
catageiomyia
catakan
catalina
catalog
catatan
category
catharsius
catua
catur
caucasica
caudata
caulospongia
causa
caussols
cavernicola
cavernosa
caves
cb
cc
ccd
cd
ce
cecidomyia
cecidomyiidae
cegak
cek
ceko
celebensis
celina
cemara
cenaku
cendekiawan
cenderung
census
censusindia
center
central
centralis
centre
centromerus
century
ceo
cephalotes
ceramah
cerambycidae
ceraticelus
ceratinella
ceratinops
ceratinopsis
ceratitis
ceratocheilus
ceratopogon
ceratopogonidae
ceratopsion
cerdas
cerdistus
cereopsius
ceresium
cerita
cerodontha
ceromya
ceroplesis
cerotainia
cerpen
cervicornis
cet
cetak
cetakan
cf
cg
ch
cha
chaetabraeus
chaetocladius
chaetophthalmus
chaetostomella
chai
chairil
chalcionellus
chalcoscirtus
chalcotropis
chalid
chalinidae
chalinula
challenge
cham
chamberlin
champa
champion
championship
chan
chandra
chang
change
chaniago
chao
chapter
characella
chariesthes
charles
che
cheilotrichia
chelidonium
chelonaplysilla
chelsea
chen
cherly
cherm
cherry
cherrybelle
chetogena
chetostoma
chevrolet
chi
chibi
chicago
chickering
chile
chilensis
chili
china
chinensis
chinese
chino
chionea
chira
chironomidae
chironomus
chirothecia
chlamydopsis
chloridolum
chlorophorus
chniewicz
cho
choerades
choeromorpha
choi
chondrilla
chondrocladia
chondropsis
chondrosia
chonocephalus
chorizopes
chris
christian
christine
christopher
christy
chromatomyia
chrysanthrax
chrysanthus
chrysopogon
chrysoprasis
chrysops
chrysosoma
chrysotus
chu
church
ci
cianjur
cibatu
ciek
cieknyo
cigak
cikal
cikampek
ciliata
cina
cinachyrella
cincin
cincta
cindawan
cindua
cinerascens
cinerea
cingulata
cino
cinta
cinto
ciocalypta
cipta
ciptaan
cirebon
ciri
cita
cities
cito
citra
citrina
city
civil
cj
ck
cl
clackers
cladochalina
cladocroce
cladorhiza
cladorhizidae
cladotanytarsus
cladura
clara
claripennis
clark
clarke
claspettomyia
class
clastobasis
clathrata
clathria
clathrina
clathriodendron
clavata
clavigera
cleomenes
clephydroneura
cleptometopus
clerck
climate
clinodiplosis
clinohelea
cliona
clionaidae
cloniophorus
closterus
club
clusiosoma
cluzobra
clypeodytes
clytocerus
clytus
cm
cn
cnemolia
cnn
co
coast
cobalt
cobanus
cocalodes
coccorchestes
cocok
cocos
code
coelosia
coelosphaera
coelosphaeridae
coelotrypes
coenosia
cognata
cokelat
coklat
coleoptera
coleoxestia
collaris
collectie
collection
college
collinsia
colobothea
color
coloradensis
colorado
colors
columbia
com
comba
comedy
cometes
commission
common
commons
communis
community
compacta
companion
company
comparative
compressa
compsibidion
comptosia
conan
concinna
concolor
condong
condylostylus
conference
confinis
conform
confusa
confusus
congoensis
congress
conica
conicera
coniceromyia
conifera
conjuncta
connexa
conophorus
conservation
consimilis
consobrina
consortium
conspicua
contarinia
contemporary
contoh
contohnyo
control
convention
convergens
cook
coomani
copa
copek
copelatus
copestylum
cophura
copris
coprophanaeus
coptocercus
coptops
coquillettidia
coquillettomyia
corak
corallistes
cordyla
cordylomera
coriacea
cornell
cornulum
cornuta
cornutus
corona
coronavirus
corporation
corsica
corsomyza
corticata
cortodera
corus
corvospongilla
coryphasia
corythalia
coscinoderma
cosmisoma
cosmophasis
costa
costalis
costaricensis
costata
cotinamerika
cotinusa
council
country
county
court
cov
covid
cp
cq
cr
crambe
crane
craniella
crassa
crassicornis
crassipes
crassus
creek
crella
crellidae
cribrochalina
cricotopus
crinita
cristata
cristatus
crocidium
crosby
cross
crossotus
cruciata
cruz
cryptocanthon
cryptolabis
cryptophorellia
cs
css
ct
ctenophora
cu
cuaca
cuaco
cubadak
cubensis
cubo
cuci
cucu
cukuik
cukup
culex
culicidae
culicoides
culiseta
cultural
culture
cuma
cumi
cumming
cuneata
cup
cupak
curah
curam
curie
curito
curran
current
curta
curup
curvata
cut
cutler
cv
cw
cx
cy
cyamon
cybister
cycling
cyclosa
cydistomyia
cylindrepomus
cylindrica
cylindricus
cylindromyia
cymbastela
cynthia
cyrba
cyrtarachne
cyrtoneurina
cyrtophora
cyrtopogon
cyrtosia
cytaea
cytherea
cz
d
da
dactylia
dactylolabis
dacus
dada
dadiah
dado
dae
daeng
daerah
daerahnyo
dafta
daftar
dagang
dagiang
daging
dahan
dahl
dahlan
dahlgrenius
dahulu
dahulunyo
dai
daihatsu
daily
daimyo
dak
dakek
dakeknyo
dakwah
dal
dalam
dalamnyo
dalapan
dam
damai
damalis
damam
damar
damaskus
damhoeri
damikian
dampak
dan
dana
danau
dance
dando
dang
dangan
dangdut
dangka
danguang
daniel
dapaik
dapat
dapek
dapil
daptar
dapua
dara
darah
darajaik
darat
daratan
darek
dari
daring
daripada
daripado
darlingtoni
daro
darul
darurat
darussalam
darwinella
darwinellidae
darwis
das
dasa
dasanyo
dasar
dasarnyo
dasineura
dasophrys
dasybasis
dasyhelea
dasymolophilus
dasypogon
data
database
datang
datangnyo
datar
dataran
datiak
dato
datu
datuak
datuk
daud
daulu
daulunyo
daun
daunnyo
david
davis
day
daya
dayak
dayo
db
dc
dd
de
debehogne
debilis
debit
debut
debutnyo
december
decipiens
decora
decorata
decoratus
deddy
deeleman
definisi
dek
dekade
dekan
dekat
deklarasi
dekompresi
del
delapan
delegasi
delhi
deli
delia
delicata
delicatula
delta
deltochilum
deltshev
demak
deman
demang
demi
demikian
demografi
demografik
demokrasi
demokrat
demokratik
demokratis
demonax
demospongiae
den
dendam
dendang
dendeng
dendrilla
dendryphantes
dendy
dendyi
dengan
denis
denmark
denpasar
densa
densepunctata
dentata
denticulata
deopalpus
depan
departemen
department
depati
depik
depok
depresi
depressa
deputi
der
derajat
dercitus
dere
derolus
deronectes
deroplia
derovatellus
des
desa
desain
descanso
desember
desert
deserticola
deskripsi
desmacella
desmacellidae
desmacidon
desmiphora
desmopachria
desqueyroux
desvoidy
desy
detail
detective
detik
development
devi
dewa
dewan
dewantara
dewasa
dewey
dewi
dexia
df
dg
dh
dhabi
dharma
dharmasraya
dhien
dhumavati
di
dia
diabetes
diabuih
diacarnus
diachlorus
diadelia
diadoan
diadokan
diadopsi
diaduak
diagia
diagiah
diagiahan
diagnosis
diajaan
diakses
diakui
dialami
dialek
diam
diambiak
diamesa
diameter
dianggap
dianggok
diangkek
dianjurkan
diantaranyo
diantaro
diantaronyo
dianugerahi
dianuik
dianut
diaphorus
diapik
diarsipkan
diartian
diateh
diatua
diatur
diawali
dibaco
dibagi
dibagian
dibaka
dibali
dibandiang
dibandiangan
dibandiangkan
dibandingkan
dibangun
dibantu
dibantuak
dibao
dibaok
dibarasiahan
dibari
dibarikan
dibatasi
dibatehi
dibawah
dibedakan
dibentuk
diberi
diberikan
dibintangi
dibuang
dibubarkan
dibuek
dibueknyo
dibuka
dibukak
dibungkuih
dibunuah
dicaliak
dicampua
dicapai
dicari
dicaritoan
dicetak
dichaetomyia
dichelacera
dichotoma
dichotomius
dicladocera
dicranomyia
dicranophragma
dicranoptycha
dictenidia
dictionary
dictyodendrilla
dictyonellidae
didalam
didalamnyo
didapek
didapekan
didasarkan
didefinisikan
didirian
didirikan
didiscus
didominasi
diduga
didukuang
die
diesel
diestota
diet
difficilis
difusi
diganti
digantian
digantikan
digital
digitata
digitatus
digoel
digoreng
digul
digunakan
digunoan
digunokan
dihadiri
dihammaphora
dihapuih
dihapus
dihasiakan
dihasilkan
dihexaclonus
dihiasi
dihuni
diikuikan
diikuti
diimbau
diingek
diiriangi
diisi
dijadian
dijadikan
dijago
dijalanan
dijalankan
dijalehan
dijua
dijuluki
dijumpai
dijumpoi
dikaikan
dikaliliangi
dikalola
dikalompokkan
dikaluaan
dikaluakan
dikambangan
dikambangkan
dikana
dikarajoan
dikaranoan
dikaranokan
dikaruniai
dikatahui
dikataui
dikatoan
dikatokan
dikecamatan
dikecekan
dikelola
dikenal
dikenali
diketahui
diketuai
dikia
dikirim
diklasifikasikan
dikonfirmasi
dikonsumsi
dikuasai
dikuasoi
dikunjuangi
dilahiakan
dilaksanakan
dilakuan
dilakukan
dilalui
dilangkoki
dilanjuikan
dilanjuikkan
dilantiak
dilantik
dilapisi
dilaporan
dilaporkan
dilarang
dilatakan
dilatakkan
dilatata
dilayani
dilengkapi
diliek
dilinduangi
dilindungi
diluncuakan
dima
dimainan
dimainkan
dimakamkan
dimakan
dimanfaatkan
dimano
dimas
dimasak
dimasuakan
dimasuakkan
dimekarkan
dimensi
dimidiata
dimidiatus
dimiliki
diminati
dimintak
diminum
dimuek
dimulai
din
dinamika
dinamoan
dinamoi
dinamokan
dinas
dinasti
dindiang
dinding
dinera
ding
dingin
dini
dinilai
diniyah
dinyanyian
dinyatoan
dinyatokan
dioctria
diogmites
dioksida
diolah
diolenius
dipacayo
dipacik
dipagunoan
dipagunokan
dipahami
dipakai
dipakiroan
dipakirokan
dipalajari
dipandang
dipangaruahi
dipangaruhi
dipanggang
dipanggia
diparaluan
dipareso
diparintah
diparoleh
dipasang
dipaso
dipatuan
diperkenalkan
dipertuan
dipicayo
dipiliah
dipimpin
dipindahan
dipindahkan
dipisahan
diplocephalus
diploma
diplomat
diplomatik
diplonevra
diplostix
diponegoro
dipotong
diproduksi
dipromosikan
diptera
dipunyo
dipunyoi
diraiah
dirajo
dirancang
dirandam
dirasmian
dirasoan
dirawat
direktorat
direktur
diresmian
diresmikan
diri
dirilis
dirinyo
dirjen
dirphya
dirujuak
dirut
disababkan
disabuik
disabuikan
disabuikkan
disadioan
disadiokan
disahkan
disajian
disajikan
disalasaian
disampaian
disampaikan
disampiang
disangko
disarang
disarankan
disaratoi
disasuaikan
disatujui
discalis
discobola
discodermia
discolor
disease
disebabkan
disebut
disembolus
diserahkan
diserap
disiko
disimpan
disinan
disingkek
disiplin
disitu
disjuncta
diskografi
diskusi
disobokan
dispar
dissimilis
distenia
distincta
distinctus
distribusi
distrik
disuaroan
disukoi
disuruah
disusul
disusun
disutradarai
ditabang
ditabik
ditabikan
ditabikkan
ditagakan
ditagakkan
ditahan
ditajamahan
ditakan
ditambah
ditambahan
ditambahkan
ditampekan
ditampilkan
ditampuah
ditamuan
ditamui
ditamuii
ditamukan
ditanam
ditandoi
ditandotangani
ditangani
ditangkok
ditantuan
ditantukan
ditarimo
ditatapkan
ditayangan
ditemukan
diterapkan
diterbitkan
ditetapkan
ditinggaan
ditonton
ditopang
ditujuan
ditujukan
ditulak
ditulih
ditulis
ditumbuak
ditunjuak
diturunkan
ditutua
ditutuakan
ditutuik
diubah
diukua
diumuman
diumumkan
diundang
diunggah
diuni
divergens
diversa
dives
divisa
divisi
diwakili
diyakini
dj
djamaluddin
djambek
djamil
djamin
djohan
djur
dk
dki
dkk
dl
dll
dlr
dm
dn
dna
do
doa
docosia
dodol
dohrniphora
doi
dokter
doktor
dokumen
dokumentasi
dolar
doleschall
dolichopeza
dolichopodidae
dolichopus
dolok
dolophones
dolphin
domain
domestik
dominan
dominasi
don
dong
dongeng
donggala
doom
doraemon
dorcadion
dorodjatun
dorongan
dorsalis
dosen
dosis
dotor
double
douglas
down
downsiomyia
dp
dpd
dpl
dpp
dpr
dprd
dq
dr
dragmacidon
dragon
drama
dream
drino
dro
drosophila
drs
drulia
drymeia
ds
dt
du
dua
dubia
dubiaranea
dubius
duchassaing
duduak
dugaan
duke
duku
dukuangan
dukun
dukungan
dulang
dulu
dulunyo
dumai
dunia
dunie
dunio
dunn
dunsanak
duo
duplex
durasi
duri
durian
dusun
duta
dutch
dv
dw
dx
dy
dyal
dymasius
dynatosoma
dysidea
dysideidae
dysmachus
dystasia
dytiscidae
dz
dziedzickia
e
ea
eagle
early
earth
east
eastern
eb
eblisia
eburia
eburodacrys
ec
echinata
echinochalina
echinoclathria
echinodictyum
echinopodium
echinostylinos
ecionemia
ecology
economic
economics
economy
ectrepesthoneura
ectyodoryx
ectyomyxilla
ecuador
ed
edinburgh
edisi
edison
edited
edition
editor
eds
education
edward
edwards
edwardsi
ee
een
ef
efek
efektif
effendi
efferia
efisien
eg
egesina
eh
ej
ejaan
ejov
ek
eka
ekologi
ekonom
ekonomi
ekosistem
eks
eksekutif
eksentrisitas
eksistensi
eksklusif
ekspedisi
eksperimen
ekspor
ekspres
ekspresi
ekstrakurikuler
ekuador
el
elaphidion
elegans
elegantula
elektro
elektromagnetik
elektron
elektronik
elektronika
elemen
elephantomyia
elephantomyodes
elit
elitra
elizabeth
ellipteroides
elly
eloeophila
elok
elongata
elongatus
elor
els
elst
elytrimitatrix
em
emarginata
emas
emathis
emerit
emerton
emirat
emisi
emodotipula
emosi
empat
empeda
empek
empidideicus
en
enam
encyclopaedia
encyclopedia
encyclopædia
end
endapan
endectyon
endemik
energi
engineering
england
english
enim
enola
ensiklopedi
ensiklopedia
entelecara
entertainment
entri
environment
enzim
eo
eodorcadion
eosen
ep
epactoides
epalpus
epania
epepeotes
epeus
ephydatia
epicypta
epidemiologi
epiechinus
epierus
epiphragma
epirinus
episode
epitoxus
epocilla
eq
er
era
eranina
erax
erecta
eremotipula
eretmapodites
eric
erigone
erigonoplus
eriocera
eriophora
erioptera
eriovixia
eris
ernest
eropa
erupsi
erylus
erythrus
es
esai
esenbeckia
eskov
esnault
esperiopsidae
esperiopsis
essays
estheria
estola
estoloides
et
ethiopia
etika
etimologi
etnik
etnis
eu
euaresta
eucelatoria
euderces
eudicrana
eugnophomyia
eulaira
eumicrotipula
eun
eunapius
eunidia
euophrys
euphranta
euphylidorea
eupogonius
eurasia
eurithia
europe
european
eurylister
eurypon
euryspongia
eurysternus
euscelidia
euspilotus
eustala
eustiromastix
eutolmus
eutreta
eutrichota
ev
eva
evan
evarcha
everest
evolusi
ew
ewing
ex
excavata
excisa
exechia
exechiopsis
exhyalanthrax
exigua
exiguus
exilis
eximia
exocelina
exocentrus
exoprosopa
exorista
express
extensa
ey
ez
f
fa
fabricius
facebook
facialis
fage
fahmi
fairmairei
fajar
faksi
fakta
faktor
fakultas
falcata
fallax
falsafah
falsomesosella
famili
familia
family
far
farmasi
farpoint
farra
fasciata
fasciatus
fasciculata
fasciospongia
fascipennis
fase
fasilitas
fatmawati
fatwa
fauna
fauzi
favorit
fb
fc
fd
fe
feb
februari
february
federal
federasi
felly
feminin
femoralis
femorata
fenestrata
fenomena
feri
fermentasi
fernald
fernandez
ferruginea
ferrugineus
festiva
festival
ff
fg
fh
fi
fibrosa
fibulia
fidena
field
fifa
fight
fiji
fikih
fiksi
file
filem
filipina
film
filmografi
filosofi
filsafat
filsuf
filum
fimbriata
fimbriatus
final
finali
finalis
financial
finlandia
finlaya
fiqih
firdaus
firma
firman
first
fisik
fisika
fistulosa
fitri
fitur
fj
fk
fkip
fl
flabellata
flabelliformis
flash
flava
flavescens
flavicans
flavicornis
flavicoxa
flavida
flavifrons
flavipalpis
flavipennis
flavipes
flaviventris
flavolineata
flavus
flora
florence
flores
floricomus
florida
floridensis
flu
fluda
fm
fn
fo
fokus
fonem
food
football
for
forbes
forcepia
forcipata
forcipomyia
ford
foreign
forensik
formal
formasi
format
formosa
formosana
formosus
formotipula
formula
fort
fortis
forum
fosil
foto
fotografer
fotografi
foundation
fountain
fox
fp
fq
fr
fragilis
fraksi
franc
franca
france
franch
francis
francisco
franganillo
frank
frankfurt
franz
frasa
frea
frederick
free
frekuensi
french
freya
freyi
friedrich
friends
frigga
frigida
from
fromont
front
frontalis
fronte
frontinella
fruit
fs
ft
ftv
fu
fuad
fuadi
fuliginosa
full
fulva
fulvipes
fulvus
fumipennis
fundamental
funebris
fungsi
fungsinyo
furcata
furcatus
fusca
fuscipennis
fuscipes
fuscus
futsal
future
fv
fw
fx
fy
fz
g
ga
gabon
gabuangan
gabungan
gadang
gadangan
gadangnyo
gadiang
gadih
gading
gadis
gadjah
gado
gaduang
gaek
gaeknyo
gagal
gagasan
gajah
gajalo
gajbe
gaji
gala
galamai
galang
galapagos
galeh
galeri
galiano
gallery
galodo
galogandang
galok
galombang
gamawan
gamba
gambar
gambaran
gambia
game
gamelan
games
gampo
gampong
gan
ganda
gandang
gandhi
gandum
gangan
gangguan
gangsa
gani
ganti
gantiang
ganting
gantuang
gao
gara
garak
garakan
garam
garang
gardzinska
gareja
garih
garik
garis
garuda
gary
gas
gasteracantha
gastrozona
gata
gatah
gawang
gay
gaya
gayo
gazetteer
gb
gc
gd
ge
gea
gede
gedung
gehrels
geisha
gejala
gekko
gelar
gelliodes
gellius
gelombang
gema
gemala
gemeente
geminata
gempa
gen
gendang
gender
general
generasi
genetik
genetika
geniculata
genom
genre
gentilis
genting
genus
geodesi
geodia
geodiidae
geofisika
geografi
geografis
geologi
geometris
geomysaprinus
george
georgia
gerak
gerakan
geranomyia
gerbang
gereja
gerindra
german
geron
gertsch
gf
gg
gh
ghana
giant
giat
gibbons
gigantea
gigas
gigi
gilo
ginjal
ginting
girlband
gita
gizi
gj
gje
gk
gl
glabra
glacialis
gladbach
glaphyra
glauca
glaukoma
glenea
gletser
global
globosa
glukosa
gm
gn
gnadochaeta
gnomidolon
gnophomyia
gnypeta
go
goa
gobah
god
godang
godok
goephanes
goeroe
gol
gold
golden
golf
golkar
golongan
gombak
gombia
gonarthrus
gonatium
gong
gongylidiellum
gongylidioides
gonia
goniodineura
gonioscelis
gonjong
gonomyia
gonza
good
goodricke
goodwin
google
goreang
goreng
gorontalo
gorybia
gotong
gov
government
gowa
gp
gq
gr
gracilipes
gracilis
gram
gramedia
grammonota
grammoptera
grand
grandis
granit
grant
grantessa
grantia
graphogaster
graphomya
graptomyza
grasshoff
grata
gratis
gravitasi
gray
grayella
great
greater
greek
green
greenland
gregorian
gresik
gressitti
grisea
griseipennis
grisescens
griseus
griswold
groeneveld
groningen
group
groups
grove
grube
grup
gs
gt
gto
gu
gua
guancha
guardian
guatemala
gubernur
guci
gudang
gue
guguak
gugur
gugus
guiana
guide
guinea
guineensis
guitarra
gula
gulai
gulo
gumarang
guno
gunoan
gunuang
gunung
guo
gurah
gurih
guru
gurun
gusti
guttata
guttatus
guyana
gv
gw
gx
gy
gymnastes
gymnodia
gymnophora
gymnopleurus
gymnosoma
gynoplistia
gyrophaena
gz
h
ha
haag
habibie
habih
habitat
habitatnyo
habrocestum
habronattus
habropogon
had
haddad
hadi
hadiah
hadir
hadis
hadits
hae
haeckel
haemagogus
haematopota
haeterius
hainanensis
hajar
hajdu
haji
hak
hakim
hal
halaban
halal
halaman
halamannyo
haleakala
halichoclona
halichondria
halichondriidae
haliclona
halicnemia
halicometes
halim
halimah
halisarca
hall
halnyo
halodiplosis
haluan
haluih
ham
hamacantha
hamadruas
hamata
hamataliwa
hambatan
hamengkubuwana
hamid
hamil
hamka
hamparan
hampia
hamzah
han
hancua
handbook
hang
hans
hansen
hantu
hanya
hanyo
hanyolah
hanzi
haplinis
happy
harafiah
harago
haram
harapan
harato
harau
hardyi
harfiah
harga
hari
harian
harimau
harinyo
haroldius
harry
harta
harten
haruih
harum
harun
harus
harvard
has
hasan
hasanuddin
hasarius
hasia
hasianyo
hasil
hasilnyo
hassan
hasselt
hasundutan
hasyim
hati
hatta
havaika
have
hawaii
hayati
hb
hbs
hc
hd
he
head
health
hebat
hebecnema
hebrides
hec
hee
height
heimer
heizmannia
hektar
hektare
helena
helenae
helictopleurus
heligmonevra
helin
helina
heliocopris
heliophanus
helius
hello
helsdingen
helvetia
hemiasterella
hemigellius
hemilea
hemingway
hemipenthes
hendri
henry
hentschel
hentz
hentzia
hepatitis
herbivora
hercegovina
hercostomus
heritage
herm
herman
herophydrus
heryawan
hesperotipula
het
heterachthes
heteralonia
heteromeyenia
heteropogon
heterorotula
heterotropus
heteroxyidae
hewan
hexachaeta
hexadella
hexatoma
hf
hg
hh
hias
hiasan
hiburan
hidangan
hidayat
hidayatullah
hidrogen
hiduik
hiduiknyo
hidup
higginsia
high
hijau
hijrah
hikayat
hikmah
hilaira
hilal
hilang
hilaris
hilia
hilir
hill
hills
himalaya
himpunan
hindia
hindu
hingga
hinggo
hipertensi
hippopsis
hippospongia
hirsuta
hirsutus
hirta
hirtipes
his
hispaniola
hispida
hispo
hister
histeridae
historical
historis
history
histrio
hit
hitam
hits
hiu
hj
hk
hl
hlm
hm
hn
ho
hobi
hogg
holarktik
holcocephala
holm
holmb
holmelgonia
holmes
hololepta
holoplatys
holopogon
holopsamma
holorusia
holt
holvorcem
holy
homaxinella
home
honda
honduras
hong
hongaria
hongkong
honoris
hooper
hoplolabis
horizontal
hormiga
hormon
horrida
hoshino
hospital
host
hotel
house
houten
houtman
hovorei
how
howardina
howdeni
howe
hozawa
hp
hq
hr
hs
ht
html
http
https
hu
hubuangan
hubuangannyo
hubungan
hui
hujan
hukum
hukuman
hull
hulu
hum
human
humas
humbang
humeralis
humilis
huruf
husein
hussein
hutan
hv
hw
hwa
hwan
hx
hy
hyalina
hyang
hyattella
hybolasius
hybomitra
hydaticus
hydroglyphus
hydrophoria
hydrophorus
hydroporus
hydrotaea
hydrovatus
hye
hygrotus
hyllisia
hyllus
hymedesmia
hymedesmiidae
hymenancora
hymeniacidon
hymerhabdia
hypaeus
hyphydrus
hypobletus
hypocacculus
hypocaccus
hypognatha
hypomma
hypselistes
hypsioma
hypsosinga
hyrtios
hyun
hz
i
ia
iain
iak
ialah
ianthella
ianuarie
ibadah
ibadat
ibn
ibnu
ibrahim
ibrani
ibu
ibukota
ibunyo
ichthyodes
icius
id
ida
idactus
idangan
ide
ideal
identifikasi
identik
identitas
ideologi
idham
idiocera
idioglochina
idiopyga
idris
idrus
iduik
iduiknyo
idul
iei
if
ignobilis
iguana
ihi
ii
iii
ijau
ijazah
ijin
ijuak
ika
ikan
ikatan
ikek
ikhlas
ikip
iklan
iklim
iko
ikolah
ikon
ikua
ikuik
il
ilang
ilau
ilegal
ilia
ilimu
ilir
ilmiah
ilmu
ilmuwan
ilor
ilyas
ilybius
im
image
imam
iman
imbang
imigran
imitans
imitator
immaculata
imperfecta
implan
implementasi
impor
improphantes
imran
imun
in
inaequalis
inang
inc
incek
incerta
incestophantes
inci
incisa
including
incognita
incompleta
inconspicua
incrustans
indah
indak
indaklah
indang
indeks
independen
inderapura
index
india
indian
indiana
indica
indicus
indische
individu
indo
indonesia
indonesian
indophantes
indopuro
indosiar
indotipula
indra
indragiri
indrapura
induak
induaknyo
induk
industri
inermis
inf
infeksi
inflasi
inflata
influenza
info
informal
informasi
informatika
information
infrastruktur
infuscata
inggirih
inggo
inggrih
inggris
ingin
ini
inilah
inornata
inornatus
inovasi
insecta
insignis
insinyur
insolita
inspirasi
instagram
instansi
insting
institusi
institut
institute
institutul
instruksi
instrumen
insulana
insularis
insulin
int
intan
integra
intelektual
intensif
interaksi
interior
intermedia
intermedius
internal
internasional
international
internet
interrupta
interview
inti
into
introduction
invasi
investasi
investor
inyiak
inyo
iolah
ion
ional
iophon
ios
iotroata
iotrochota
iotrochotidae
ipa
ipb
iphone
iqbal
ir
irak
irama
iran
iraq
ircinia
irciniidae
irian
iris
irlandia
irregularis
irura
irwan
is
isa
isbn
ischnothrix
ischnotoma
ishak
isi
isinyo
iskandar
isl
islam
islamic
islamiyah
island
islandiana
islands
ismail
iso
isochariesthes
isodictya
isodictyidae
isonzo
isotop
isoxya
israel
israil
issn
issues
istana
istanbul
istano
istiadaik
istilah
istimewa
istiqlal
istocheta
istri
istrinyo
isu
it
itali
italia
itam
itb
itiak
ito
its
itu
itulah
iucn
iv
ivie
ix
iyo
iyolah
izin
j
ja
jaapiella
jabatan
jabatannyo
jabrayil
jack
jackson
jacob
jacobs
jacobsoni
jadi
jadwal
jae
jaeff
jaek
jago
jaguang
jagung
jahe
jahja
jaja
jajahan
jajak
jajaran
jakarta
jaksa
jala
jalaluddin
jalan
jalanan
jalannyo
jaleh
jalil
jalua
jalur
jam
jamaah
jamaicensis
jamaika
jamak
jaman
jambak
jambatan
jambi
jambu
jamee
james
jami
jamil
jamu
jamua
jan
jandela
jane
janetiella
jang
jangan
jangka
jangkauan
jangko
janiah
janih
janin
janjang
janji
jantan
jantuang
jantung
januari
january
jao
japan
japanagromyza
japanese
japang
japonica
japonicus
japuik
jarak
jarang
jari
jariang
jaringan
jarum
jasa
jaso
jasonyo
jaspis
jati
jatuah
jatuahnyo
jatuh
jauah
jauh
java
javana
javanica
jawa
jawab
jawek
jawi
jaya
jayapura
jazirah
jazz
jb
jc
jd
je
jean
jejak
jembatan
jember
jendela
jenderal
jendral
jenis
jenkin
jepang
jepara
jerman
jeruk
jerusalem
jet
jewish
jf
jg
jh
ji
jibril
jika
jiko
jikok
jilid
jin
jingga
jinih
jiwa
jj
jk
jkt
jl
jm
jmpl
jn
jo
joan
jocque
johan
johannes
john
johnny
johnson
johnsoni
johor
joko
jokowi
jollas
jolong
jonathan
jones
jong
jongkok
joo
joon
jopang
jordanoleiopus
jorong
jose
joseph
joshua
journal
jp
jpg
jpl
jq
jr
js
jt
ju
jua
juan
juara
juaro
jucunda
judul
juels
juga
jugo
juki
juli
julukan
july
jumaik
jumalah
jumat
jumlah
jumlahnyo
jun
june
jung
jungiella
juni
junior
juo
juri
jurnal
jurnalis
jurnalistik
juru
jurusan
justin
justru
jusuf
juta
jutaan
jv
jw
jx
jy
jz
k
ka
kaa
kaadaan
kaagamoan
kaahlian
kaamanan
kaampek
kaanam
kaanekaragaman
kab
kaba
kabakaran
kabakeh
kabangkitan
kabangsaan
kabanyakan
kabar
kabaradoan
kabau
kabebasan
kabel
kabiasaan
kabiasoan
kabijakan
kabinet
kabudayaan
kabudayoan
kabuik
kabun
kabupaten
kabutuahan
kabutuhan
kacamatan
kacang
kacapatan
kacepatan
kaciak
kaco
kacomato
kacuali
kadai
kadal
kadalam
kadalaman
kadang
kadar
kadatangan
kadaulatan
kader
kadiaman
kadir
kadokteran
kadua
kaduduakan
kadudukan
kaduo
kaduonyo
kafilah
kagagalan
kagiatan
kagiatannyo
kagunoan
kahadiran
kahakiman
kahamilan
kahidupan
kahilangan
kahneman
kahormatan
kaidah
kaidupan
kain
kaindahan
kainginan
kaira
kairo
kaisar
kaistimewaan
kajadian
kajahatan
kajai
kajang
kajian
kajuaraan
kajuaroan
kakaisaran
kakak
kakaknyo
kakalahan
kakao
kakarabatan
kakayoan
kaki
kakinyo
kaku
kakuasaan
kakuasoan
kakuatan
kakurangan
kala
kaladi
kalah
kalahiaran
kalahiran
kalainan
kalalawa
kalam
kalamin
kalangan
kalas
kalau
kalawi
kalcerrytus
kaldera
kaledonia
kaleh
kalender
kaleng
kalereng
kali
kalian
kaliang
kaligrafi
kaliliang
kalimaik
kalimantan
kalimo
kalinyo
kalio
kalkulus
kalla
kalompok
kalsium
kaltim
kalua
kaluak
kaluang
kaluanyo
kaluarga
kaluarganyo
kaluargo
kalurahan
kamajuan
kamampuan
kamampuannyo
kamanakan
kamanangan
kamang
kamantarian
kamar
kamardekaan
kamatian
kamatiannyo
kamba
kambali
kambang
kambiang
kambing
kamboja
kamera
kamerdekaan
kamerun
kami
kamil
kamiriangan
kamiripan
kamiskinan
kamp
kampai
kampanye
kampar
kampuang
kampuangnyo
kampung
kampus
kamu
kamudian
kamungkinan
kamus
kan
kanada
kanagarian
kanai
kanaiakan
kanaikan
kanak
kanal
kanan
kanari
kancah
kancang
kandali
kandang
kandangnyo
kandaraan
kandih
kandraan
kanduang
kanduangan
kandungan
kaneda
kang
kanji
kanker
kantang
kantin
kantor
kantua
kapa
kapacayoan
kapadatan
kapado
kapal
kapalo
kapalonyo
kapamilikan
kapamimpinan
kapamimpinannyo
kapantiangan
kaparaluan
kaparcayoan
kapas
kapasitas
kapau
kapeh
kapicayoan
kapitan
kapolda
kapolisian
kapten
kapua
kapuas
kapulauan
kapur
kaputuihan
kaputusan
karabaik
karaeng
karagaman
karajaan
karajinan
karajo
karajoan
karajonyo
karajosamo
karak
karakorum
karakter
karakteristik
karambia
karang
karangan
karangko
karano
karanonyo
karantina
karapatan
karate
karateh
karawang
karbamazepin
karbohidrat
karbon
karbonat
kareh
karek
karena
kareno
karesidenan
karet
kareta
kargo
kariang
karibia
karier
kariernyo
karih
karim
karimun
karir
karirnyo
karma
karno
karo
karojo
karsch
karshomyia
kartanegara
kartini
kartu
karugian
karupuak
karusakan
karya
karyanyo
karyawan
kasa
kasadaran
kasado
kasadoalah
kasadonyo
kasaimbangan
kasalahan
kasalamatan
kasaluruahan
kasaluruhan
kasambilan
kasamoan
kasampatan
kasapakatan
kasatuan
kasehatan
kasempatan
kasenian
kashmir
kasiak
kasih
kasihatan
kasim
kasta
kasultanan
kasus
kasutanan
kaszabi
kata
katahanan
katan
katantuan
katarampilan
katarangan
katedral
kategori
kathmandu
katigo
katik
katiko
katinggian
kato
katolik
katsuura
katto
katua
katuju
katujuah
katumanggungan
katuo
katupek
katurunan
katurunannyo
kau
kauangan
kaum
kaunikan
kauntuangan
kaur
kawah
kawajiban
kawan
kawannyo
kawasan
kawenangan
kawi
kawin
kaya
kayakinan
kayo
kayu
kazakhstan
kb
kc
kd
ke
keadaan
keadilan
keamanan
kebangkitan
kebangsaan
kebanyakan
kebijakan
kebudayaan
kebun
kebutuhan
kec
kecamatan
kecap
kecek
kecepatan
kecerdasan
kecil
kecuali
kedah
kedelai
kediri
kedokteran
kedua
keduo
kegiatan
keguruan
kehidupan
kehormatan
kehutanan
kei
kejadian
keju
kejuaraan
kekaisaran
kekerasan
kekuasaan
kekuatan
kelahiran
kelamin
kelantan
kelapa
kelas
kelenjar
kelenteng
kelinci
keller
kelly
kelok
kelompok
keluarga
kelurahan
kemal
kemampuan
kematian
kembali
kembang
kembar
kemdikbud
kemenakan
kemendagri
kementerian
kementrian
kemerdekaan
kemudian
kendaraan
kenek
kental
kenya
kenyensis
kepada
kepahiang
kepala
kepemimpinan
kepolisian
kepulauan
kepustakaan
keputusan
kerajaan
kerajinan
keramat
keramik
keraton
kereta
kerinci
kering
keripik
kerito
kerja
kerjasama
kerupuk
kerusuhan
kesatria
kesatuan
kesehatan
kesejahteraan
kesempatan
kesenian
kesultanan
ketan
ketapang
ketat
ketek
keteknyo
ketentuan
ketiga
ketika
ketiko
ketinggian
ketua
keturunan
keuangan
kevin
keyserling
kezia
kf
kg
kh
khalifah
khan
khas
khatib
khatulistiwa
khazar
khmer
khusus
khususnyo
ki
kicauan
kida
kijang
kilometer
kim
kima
kimia
kinabalu
kinerja
king
kingdom
kini
kiniko
kipang
kipeh
kira
kirgizstan
kiri
kirkpatrick
kiro
kironyo
kisah
kisaran
kita
kitab
kitabullah
kito
kitt
kivuensis
kj
kk
kl
klan
klasifikasi
klasik
klautau
klet
klinik
klinis
klub
kluet
km
kn
knip
knowledge
ko
koalisi
kobayashi
koch
kochi
kock
kodam
kode
kodok
koefisien
koi
koin
kok
koki
kokoh
kolam
koleksi
kolektif
kolesterol
kolom
kolombia
kolonel
kolong
koloni
kolonial
kolosva
koltun
kom
koma
komandan
komando
kombinasi
komedi
komentar
komering
komersial
komet
komik
komika
komisaris
komisi
komisioner
komite
komoditas
komodo
komoro
kompas
kompetisi
komplek
kompleks
komplikasi
komponen
komposisi
komputasi
komputer
komunih
komunikasi
komunikator
komunis
komunisme
komunitas
komuter
kondisi
konfederasi
konferensi
konflik
kong
konglomerat
kongo
kongres
konon
konsentrasi
konsep
konser
konservasi
konservatif
konsisten
konsonan
konstantinopel
konstitusi
konstitusional
konstruksi
konsultan
konsumen
konsumsi
kontak
konteks
kontemporer
konten
kontrak
kontribusi
kontrol
kontroversi
koordinasi
koordinat
koordinator
koperasi
kopi
koponen
koran
korban
korea
koreografer
koridor
korlevic
korona
koronavirus
korsika
korupsi
kosakata
kosong
kosta
kota
kotak
kotamadya
kotanyo
koto
kotoran
koum
koyama
kp
kpk
kpu
kq
kr
krakatau
kratochvi
kratos
kraus
kreatif
krecz
kredit
kreol
kreta
krimea
krisis
kristal
kristen
kriteria
kritik
kritikus
kritis
kriya
kroasia
kromium
kru
ks
kt
ku
kuah
kuaik
kuala
kuali
kualitas
kualuh
kuantan
kuaso
kuat
kuba
kubah
kubang
kubu
kuburan
kuciang
kudian
kudo
kudus
kue
kuek
kuil
kuku
kulczynski
kulek
kuliah
kulik
kuliknyo
kuliner
kulit
kultur
kumandan
kumango
kumbang
kuminih
kumpulan
kumuah
kunci
kundang
kuniang
kunik
kuning
kuningan
kunjuangan
kunjungan
kuno
kunth
kunyik
kupang
kupu
kura
kurai
kurambiak
kurang
kurangnyo
kuranji
kurarua
kurdi
kurikulum
kurinci
kurisi
kurma
kuro
kursi
kursus
kuruang
kurun
kus
kushiro
kusuih
kutai
kutiko
kutipan
kutub
kuwait
kv
kw
kwan
kx
ky
kyo
kyoto
kyung
kyushu
kz
l
la
lab
laba
labah
labek
label
labiah
labicymbium
labih
laboratorium
labu
labuah
labuhan
labuhanbatu
lacconectus
laccophilus
lacustris
ladang
lado
laeta
laetesia
laetus
laevis
lagenda
lagi
lago
lagu
lagunyo
lah
lahan
lahat
lahia
lahianyo
lahir
lai
laia
lain
lainnya
lainnyo
lainyo
laju
laki
lakinyo
laksamana
laksana
laku
lala
lalang
lalok
lalu
lam
lama
lamah
lamak
laman
lamang
lamarck
lambago
lambah
lambang
lambe
lambek
lambok
lambrecht
lambretta
lambuang
lamela
lamellata
laminacauda
lamo
lamongan
lamonyo
lampau
lampu
lampuang
lampung
lan
land
landak
landasan
lanei
langan
langau
langelurillus
langik
langit
langka
langkah
langkat
langkawi
langkok
langkoknyo
langkueh
langona
langsuang
langsung
language
languages
lanjuik
lanjutan
lanka
lansek
lansuang
lantai
laos
laosensis
lapa
lapan
lapangan
lapau
lapeh
lapek
laphria
laphystia
lapih
lapis
lapisan
laporan
larangan
laras
lareh
largest
lari
larinia
laruik
larva
larvanyo
las
laser
lasi
lasiocercis
lasiopogon
lasioptera
laskar
lasuang
lat
lata
latak
lataknyo
latar
lateralis
latiah
laticeps
laticornis
latief
latif
latifrons
latihan
latin
latipennis
latrunculia
latrunculiidae
latto
latuihan
latus
lauak
laubenfels
laufeia
lauik
laura
laut
lautan
lava
law
lawah
lawan
lawang
lawas
laweh
lawehnyo
lawrence
laxenecera
layak
layaknyo
layanan
layang
layar
lazim
lb
lc
ld
ldii
le
leaf
league
leang
leba
lebanon
lebanyo
lebar
lebiah
lebih
lebong
lecteria
ledomyia
lee
leechi
left
legal
legenda
legendaris
legislatif
lehnert
leia
leiden
leiodermatium
leiosella
leiponeura
leita
lelaki
lele
leluhur
lemak
lematang
lembaga
lembah
lembak
lembar
lempeng
lencana
lendenfeld
lendenfeldi
lenggang
lengkap
lennon
lensa
lentera
leone
lepage
lepanus
lepida
lepidanthrax
lepidus
lepthyphantes
leptoconops
leptogaster
leptolabis
leptomorphus
leptostylus
leptotarsus
leptura
lepturges
lereang
lereng
les
leschenaultia
leskia
lespesia
lessert
lestari
leste
lestodiplosis
letkol
letnan
leucandra
leucetta
leucettusa
leucilla
leucophora
leucosolenia
leucostoma
leuser
level
levi
levii
levis
levy
lewaik
lewat
lf
lg
lh
lhokseumawe
li
lia
liak
liang
liar
liatongus
liau
liberal
libnotes
library
libya
lidah
lie
liek
life
liga
light
ligyra
lihat
lihia
likas
like
lilin
lim
lima
limau
limbago
limbata
limbodessus
limnophila
limnophora
limnophyes
limo
limonia
limoniidae
limopuluah
lincoln
linda
lindneri
linduang
line
linear
linearis
lineata
lineatus
lingga
lingkaran
lingkuang
lingkuangan
lingkung
lingkungan
lingkup
lingua
linguistics
linguistik
link
linnaemya
lintah
lintang
lintas
lintasan
lintau
linteh
linyphantes
linyphia
linyphiidae
liodessus
lipek
lipi
lipsothrix
liputan
lirik
liriomyza
lisan
lise
lispe
lispocephala
lissodendoryx
list
listrik
liter
literatur
literature
litorhina
litsinger
little
littoralis
live
liverpool
liwaik
lixophaga
lj
lk
ll
lm
ln
lo
lobata
lobatus
lobiah
localita
localities
locket
locuint
logam
loghat
logika
logistik
logo
logunov
lokal
lokasi
lokasinyo
lokomotif
lolos
lomatia
lomba
lombok
lompek
london
loneos
long
longicauda
longicollis
longicornis
longipalpis
longipalpus
longipennis
longipes
longirostris
longiseta
longmans
longurio
lonjong
lontiok
lontong
lophosia
lord
lordotus
lore
lorong
los
louis
love
lower
loyang
lp
lq
lr
ls
lt
ltd
lu
lua
luak
luanyo
luar
luas
lubang
lubis
lubuak
lubuk
lubuklinggau
lucas
lucida
luctuosa
lueh
lugens
lugubris
luhak
lukisan
lukla
lukman
luko
luluih
lulus
lulusan
lumajang
lumba
lumbini
lumpur
lumuik
lunak
lunang
lunata
lunatipula
lundbeck
lundbecki
luneik
lurah
lurida
luruih
lutea
luteola
lutuik
lutzomyia
luweh
lv
lw
lx
ly
lycidas
lydella
lypha
lyssomanes
lz
m
ma
maa
maabihan
maadoan
maadok
maagia
maagiah
maagiahan
maagih
maaja
maajaan
maajak
maalami
maambek
maambiak
maanggap
maangkek
maanuik
maasiakan
maatua
mac
macam
macan
macandrewia
macaroeris
macedonia
machadoi
machimus
machine
mack
macmillan
maco
macquart
macquarti
macquartia
macrocondyla
macrolabis
macromastix
maculata
maculatus
maculipennis
maculosa
mada
madagascariensis
madagaskar
madang
maddison
made
madeira
madinah
madiun
madrasah
madrid
madu
madura
maevia
magazine
magek
magelang
magister
magma
magna
magnesium
magnifica
magnificus
magnitudo
magnus
mago
maha
mahal
maharaja
maharajo
maharani
mahasiakan
mahasilkan
mahasiswa
mahathir
mahisok
mahkamah
mahkota
mahmud
mahyeldi
mai
maikuik
maikuti
mailangan
maimbau
maimun
main
mainan
maingek
maira
maisi
maizar
majalah
majapahit
majelis
majilih
majlis
major
maju
mak
maka
makah
makam
makan
makanan
makassar
makasuik
make
makedonia
makhan
makhluk
makin
making
makkah
makmur
makna
mako
makonyo
maksimal
maksimum
malabihi
malah
malahiakan
malaikaik
malaikat
malainkan
malaisei
malaka
malakek
malaksanakan
malakuan
malakukan
malalui
malam
malambangan
malambangkan
malang
malangkuang
malanjuik
malanjuikan
malanjuikkan
malapeh
malapehan
malaporan
malaporkan
malarang
malaria
malarian
malarikan
malatakan
malatiah
malatuih
malawan
malaweh
malawi
malay
malaya
malayani
malaysia
malayu
maleba
malewati
mali
malibaikan
malibatkan
maliek
malik
malikussaleh
malimpah
malin
malinduangi
malindungi
malingka
malintang
malintasi
malinteh
maliputi
maliter
mall
malloch
mallochi
mallochohelea
mallophora
malompek
malu
malukih
maluku
maluncua
mamacik
mamahami
mamainan
mamainkan
mamak
mamakai
mamakan
mamaknyo
mamalia
mamaluak
mamanangan
mamanangi
mamanangkan
mamanciang
mamandang
mamanfaatkan
mamanjang
mamanjek
mamanuahi
mamanuhi
mamarentah
mamarintah
mamarintahkan
mamasak
mamasang
mamastian
mamasuakan
mamasuaki
mamasuki
mambaco
mambagi
mambahas
mambaka
mambalah
mambali
mambangun
mambantang
mambantu
mambantuak
mambao
mambaok
mambari
mambarikan
mambawahi
mambawo
mambayia
mambedaan
mambedakan
mambela
mambuang
mambuek
mambueknyo
mambuka
mambukak
mambunuah
mambutuahan
mambutuahkan
mamicu
mamiliah
mamiliaki
mamiliki
mamimpin
mamindahan
maminta
mamintak
maminum
mamisahan
mamisahkan
mamotong
mampakiroan
mampakuek
mampalajari
mampangaruahi
mampangaruhi
mamparatian
mamparingati
mamparoleh
mampartahankan
mampatahanan
mampatahankan
mamproduksi
mampu
mampunyai
mampunyoi
mamudahan
mamuek
mamulai
mamungkinan
mamungkinkan
mamutuihan
man
mana
manabikan
manabikkan
manado
managah
managakan
managakkan
management
manahan
manajemen
manajer
manakan
manakankan
manaliti
manamaikan
manambah
manambahan
manampati
manampekan
manampilan
manampilkan
manampuah
manampuang
manamuan
manamui
manamukan
manan
mananam
manandatangani
manandoan
manandoi
manandotangani
manang
manangah
manangani
manangkok
manantang
manantuan
manantukan
manara
manarapkan
manari
manariak
manarik
manarimo
manaro
manaruih
manaruihan
manatap
manatapkan
manawarkan
mancagah
mancakuik
mancakup
mancaliak
mancaliakan
mancapai
mancari
mancaritoan
mancataik
mancatat
mancegah
mancetak
manchester
mancik
manciptakan
mancolok
mancubo
mancuci
mandailing
mandaki
mandalam
mandalami
mandanga
mandapek
mandapekan
mandapekkan
mandar
mandarin
mandarito
mandasak
mande
mandeh
mandehnyo
mandenyo
mandeteksi
mandi
mandiami
mandidiah
mandiri
mandirian
mandirikan
mandominasi
mandorong
manduduaki
manduduki
mandukuang
manerapkan
manetap
manfaaik
manfaat
mangacu
mangadoan
mangaja
mangaji
mangakhiri
mangaku
mangakui
mangalahan
mangalahkan
mangalami
mangalia
mangaliliangi
mangalola
mangaluaan
mangaluakan
mangambangan
mangambangkan
mangambiak
mangana
manganai
mangandalian
manganduang
manganggap
mangangkek
manganuik
mangarah
mangarajoan
mangarati
mangatahui
mangatasi
mangatoan
mangatokan
mangatua
mangatur
mangawali
mangawasi
mangecek
mangecekan
mangenai
mangenal
manggabuangkan
manggadang
manggalagak
manggaleh
manggali
manggambaran
manggambarkan
mangganggu
mangganti
manggantian
manggantikan
manggar
manggarik
manggerek
manggopoh
manggunakan
manggunoan
manggunokan
manghadapi
manghasiakan
manghasilkan
manghubuangkan
mangikuti
mangirim
mangiriman
mangirimkan
mangkaji
mangklaim
mangko
mangkritik
mangkuto
mangolah
mangora
mangorbit
manguasai
manguasoi
mangubah
mangumpuaan
mangumpuan
mangumuman
mangumumkan
mangunggah
mangunjuangi
mangunoan
mangurangi
manih
manikah
manikahi
manikmati
manilai
manimbuakan
manimbulkan
maningga
maninggaan
maninggakan
maningkek
maningkekan
maningkeknyo
maninjau
maniru
manis
manjabaik
manjabat
manjabek
manjadi
manjadian
manjadiannyo
manjadikan
manjadikannyo
manjago
manjalanan
manjalang
manjalani
manjalankan
manjalehan
manjalin
manjamin
manjawek
manjua
manjulang
mano
manokwari
manolak
manolong
manonjol
manonton
manota
mansuphantes
mansur
mansyur
mantah
mantan
mantari
mantra
mantri
manual
manuju
manuk
manulak
manulih
manulis
manunggu
manunjang
manunjuak
manunjuakan
manunjuakkan
manunjukan
manunjukkan
manuntuik
manuruik
manuruiknyo
manurun
manurunan
manurunkan
manusia
manusio
manuskrip
manutuik
many
manyababan
manyababkan
manyabuik
manyabuikan
manyabuikkan
manyabuiknyo
manyadari
manyadioan
manyadiokan
manyalamaikan
manyalanggarokan
manyalasaian
manyalasaikan
manyambuik
manyampaian
manyampaikan
manyandang
manyangkuik
manyanyi
manyarah
manyarahan
manyarang
manyarupoi
manyatoan
manyatokan
manyatu
manyeba
manyebabkan
manyebar
manyebarkan
manyerap
manyiapkan
manyimpan
manyukoi
manyusun
map
mar
mara
marabuik
marah
maraiah
maraih
marajo
marancang
marantau
marapalam
marapi
marapulai
maraso
marasoan
marato
marayoan
marcello
march
marco
mardeka
mareka
maret
marga
margaret
margarinotus
margaromma
margasatwa
marginalis
marginata
marginatus
marhum
mari
maria
mariam
marica
marie
marine
maritim
maritima
mark
markas
market
marketing
marmorata
maro
maroko
marokok
maropoan
marpissa
mars
marshall
marshalli
martabak
martella
martie
martin
martini
maruina
marujuak
marupakan
marupoan
marupokan
marusak
marusik
mary
marzuki
mas
masa
masajik
masak
masakan
masalah
masarakaik
masehi
masia
masiah
masiang
masicera
masih
masin
masing
masjid
maskapai
masker
maskipun
maso
masonyo
massa
massachusetts
massal
master
mastophora
masuak
masuakan
masuaknyo
masuk
masyarakaik
masyarakaiknyo
masyarakat
masyumi
mata
matah
matahari
matan
matang
mataram
matematika
materi
material
materialisme
mati
matilei
mato
matoari
matohari
matriks
matrilineal
matua
maubah
maubek
maulana
maumuman
maumumkan
mauni
maupun
mauritius
maurus
mausia
mawakili
max
maxima
maximus
may
maya
mayakini
mayang
mayetiola
mayor
mayoritas
mazda
mazhab
mb
mc
mcnaught
md
mdpl
me
mecometopus
mecopisthes
mecynargus
medali
medan
medetera
media
medical
medicine
medina
medis
mediterania
mediterranea
mediterranean
mega
megaciella
megacyllene
megalepthyphantes
megalitik
megaselia
megawati
megophtalmidia
mei
meigenia
meioneta
meja
mekanik
mekanisme
mekkah
meksiko
melaka
melakukan
melaloncha
melalui
melanagromyza
melanolimonia
melati
melawan
melayu
melbourne
melinjo
meliputi
mello
memang
membangun
membentuk
member
memberikan
membran
membuat
membuek
memiliki
memori
memorial
men
menanti
menara
menarik
mencapai
mencari
mendagri
mendirikan
mendoza
menemerus
menengah
menerima
menesia
menge
mengenai
mengenal
menggunakan
menghasilkan
menhir
menikah
meninggal
menit
menjabat
menjadi
mental
mentawai
menteng
menteri
mentok
menu
menuju
menulis
menuruik
menurut
menyerang
merah
meraih
merangin
merantau
merapi
merdeka
merek
mereka
meriam
merian
meridionalis
merina
merionoeda
mermessus
meromacrus
merrett
merupakan
merupoan
merupokan
mesa
mesembrius
mesin
mesir
meski
meskipun
mesnil
mesocyphona
mesomyia
mesopotamia
mesosa
messenger
messua
mestika
mesuji
metabolisme
metacatharsius
metaleptyphantes
metalimnobia
metallica
metania
metaphidippus
metasphenisca
metazygia
meteorologi
metepeira
meter
meterioptera
methia
metode
metopina
metopobactrus
metriocnemus
metro
metropolitan
mewah
mexcala
mexicana
mexicanus
mexico
mey
mf
mg
mh
mhz
mi
miami
micans
michael
michelotti
michigan
micrargus
micrathena
microciona
microcionidae
microcyba
microdytes
microlinyphia
microneta
microphthalma
micropsectra
microsoft
microstylum
microtipula
middle
mie
migran
migrasi
mihrab
mike
mikro
mikroorganisme
mil
milesia
miliak
miliar
milik
militer
miller
milleri
millidge
million
millot
mimbar
mimomyia
mimosybra
mimpi
min
minahasa
minaik
minang
minangkabau
minaret
minaro
minat
mind
mineral
ming
minggu
mingguan
mini
minicia
minik
minima
minimal
minimum
minimus
minke
minor
minoritas
mintonia
minum
minuman
minuscula
minuta
minutus
minyak
mira
mirabilis
miranda
miriang
mirip
misalnya
misalnyo
misanyo
misi
miskin
mispila
missulena
mit
mitologi
mitos
mitra
mitsubishi
mixta
mizan
mj
mk
ml
mm
mn
mo
mobil
mobile
mochtar
moda
modal
mode
model
moden
moderen
modern
modesta
modestus
modifikasi
mogrus
mohamad
mohamed
mohammad
mohon
moko
molekul
molekuler
mollis
molophilus
monanchora
monardia
monarki
mongol
mongolia
mongolica
mongoma
monochamus
monoclona
monohelea
monoxenus
monster
montana
montanus
monticola
monumen
monyet
moon
moral
more
morellia
morfologi
morio
mormia
moro
moskow
most
motif
motor
motto
mount
mountain
moussay
movie
moyang
mozambique
mp
mpr
mq
mr
ms
mt
mti
mu
mual
muar
muara
muaro
muatan
muay
muchtar
mucronata
muda
mudah
mudiak
mudo
mudonyo
muek
mufakaik
mufti
mughiphantes
muhamad
muhammad
muhammadiyah
muhl
mui
mukasuik
mukasuiknyo
mukim
muko
mukomuko
muktamar
mula
mulai
mulia
mulo
muloi
mulonyo
multi
multiformis
muluik
mumbai
muncua
muncuanyo
muncul
munda
mundur
mungkin
mungko
muningsyah
munir
munroi
muntah
murah
murid
murik
murina
murni
murrayi
musa
musajik
musca
muscidae
museum
musi
music
musik
musim
musisi
musium
muslim
muslimin
mustafa
musti
musuah
musyawarah
mutabilis
mutasi
mutiara
mutlaknyo
mutu
muyang
mv
mw
mx
my
myanmar
mycale
mycalidae
mycetophila
mycetophilidae
mycodiplosis
mycomya
mydaea
myia
myiopharus
myllaena
myopites
myospila
myrmarachne
mythicomyia
myung
myxilla
myxillidae
mz
n
na
nabi
nachi
naczi
nada
nadiem
nadu
nafis
naga
nagar
nagara
nagaranyo
nagari
nagarinyo
nagaro
nagori
naiak
naik
nak
nalayan
nam
nama
namche
namibia
namo
namonyo
nampak
namun
nan
nana
nang
nanggroe
nangko
nannocyrtopogon
nanos
nanotechnology
nanus
napomyza
naqsyabandiyah
nara
nas
nasa
nasdem
nasi
nasib
nasional
nasionalis
nasionalisme
naskah
nasrul
nasution
nat
natal
natalensis
nation
national
nations
natrium
natsir
natuna
natural
nature
naubolus
navis
nawawi
nazi
nazir
nb
nba
nc
ncaa
ncov
nd
ndak
ndani
ndez
ndsted
ne
neaetha
nealcidion
neaspilota
neat
neavei
nebrioporus
nebula
nebulosa
nebulosus
needville
nees
negara
negatif
negeri
neglecta
nekara
nektar
nelayan
nelmes
nemopalpus
nemoraea
nemoscolus
nenek
neobidessus
neoclytus
neocompsa
neodexiopsis
neoempheria
neognophomyia
neoitamus
neolasioptera
neolimonia
neolophonotus
neomaso
neomelaniconion
neomochtherus
neomuscina
neomyia
neon
neonella
neonitocris
neopetrosia
neoplocaederus
neoporus
neoscona
neosybra
nepal
nepalensis
nepenthes
nephrotoma
neptosternus
neptunus
nerax
neriene
nesopeza
net
netflix
netherlands
nethinius
network
neuratelia
neurigona
neurolyga
neutron
new
news
newton
nf
ng
ngarai
nh
ni
niaga
niaik
nias
nicaragua
nicholas
nicolet
nieh
niei
niger
nigeria
nigra
nigrescens
nigricans
nigricauda
nigriceps
nigricornis
nigrifrons
nigrina
nigripalpis
nigripennis
nigripes
nigrita
nigritarsis
nigriventris
nigrum
nikah
nikobar
nil
nilai
nilea
nilobezzia
ning
niniak
nio
niphates
niphatidae
niphona
niphoparmena
nippononeta
nippotipula
nira
nirkabel
nirlaba
nitens
nitida
nitidus
nitrogen
nj
njan
nk
nl
nm
nn
no
nobel
nobilis
nodosa
noegus
noer
nogoghi
nol
nominasi
nomor
non
nona
noor
nopember
norma
normal
norman
north
northern
norwegia
not
notabilis
notata
notolomatia
nov
nova
novaezealandiae
novantinoe
novel
november
now
np
nq
nr
ns
nt
ntul
nu
nuda
nugini
nuklir
nunavut
nupserha
nur
nurbaya
nurdin
nurul
nusa
nusantara
nutrisi
nv
nw
nx
ny
nya
nyak
nyaman
nyanyian
nyato
nyeri
nyo
nyonya
nyssodrysternum
nz
o
oa
ob
obat
oberea
obereopsis
objek
obliqua
obor
obrium
obscura
obscuripennis
obscurus
observasi
observatorium
observatory
obsoleta
obtusa
obyek
oc
occidentalis
oceanapia
ocellata
ochicanthon
ochlerotatus
ochracea
ocrepeira
ocrisiona
october
ocu
ocularia
oculata
ocyptamus
od
odas
odontocera
oe
oedaspis
oedothorax
of
office
official
og
ogan
oh
ohio
ohwi
oi
oizumi
oj
ok
oksida
oksigen
oktober
ol
olah
olahan
olahraga
old
oldroydi
oleh
olenecamptus
oligota
oligotrophus
olimpiade
olivacea
om
omalodes
omar
ombak
ombilin
omega
omeh
ommata
ommatius
on
oncideres
oncosclera
onde
onder
ondr
one
onitis
online
only
ono
ontario
onthophagus
onthophilus
oo
op
opaca
open
opera
operasi
operclipygus
ophiomyia
ophrynia
opini
opisthoncus
opsion
optik
oq
or
oral
orang
orbit
orbitalis
orde
order
ordo
oreodera
oreodytes
oreoneta
oreonetides
org
organ
organik
organisasi
organisme
organization
orient
oriental
orientalis
orientasi
original
orimarga
orimargula
orkes
ormia
ormosia
ornamen
ornata
ornatipennis
ornatus
oropeza
oropus
orseolia
orsonwelles
orthocladius
orthopodomyia
ortodoks
os
osaka
oseania
osis
ostedes
oswaldia
ot
otak
other
otis
oto
otomatis
otomotif
otonom
otonomi
otoritas
otot
ottoman
ou
our
out
ov
ovalis
over
ow
ox
oxeata
oxford
oxyna
oxyopes
oxyopidae
oxypoda
oxyrhiza
oy
oz
ozodicera
p
pa
pabandiangan
pabatasan
pabatehan
pabedaan
pabedoan
pabrik
pabukitan
paburuan
pacah
pacahan
pacayo
pachastrella
pachastrellidae
pachychalina
pachycraerus
pachydissus
pachyteria
pacific
pacifica
pacificus
pacu
pada
padagang
padagangan
padahal
padalaman
padamaian
padang
padangpanjang
padangroco
padat
padati
padeh
padek
padendang
paderi
padi
padilla
pado
padok
padoman
padri
paduan
padusi
padusinyo
paga
pagai
pagantian
pagar
pagarakan
pagaruyuang
pagaruyung
pagawai
page
pagerakan
pagi
pagoda
pagu
paguno
pagunuangan
pagunungan
paguruan
paham
pahang
pahat
pahimpunan
pahlawan
pai
paik
painan
paja
pajabaik
pajabat
pajak
pajalanan
pajalanannyo
pajanjian
pajuang
pajuangan
pak
pakabunan
pakai
pakaian
pakakeh
pakambangan
pakambangannyo
pakampuangan
pakan
pakanbaru
pakar
pakarajo
pakarajoan
pakarangan
pakaro
pakawinan
pakek
paket
pakiroan
pakistan
pakotaan
pakpak
paku
pakumpulan
pala
palabuahan
palabuhan
palai
palajaran
palakon
palaksana
palaksanaan
palaku
palang
palanggan
palanggaran
palangka
palangki
palano
palasik
palatiah
palatih
palatihan
palauik
palawak
palawanan
palayan
palayanan
palayaran
palearktik
palembang
pales
palestina
palestine
paliang
palinduang
palinduangan
paling
pallens
pallescens
pallida
pallidipennis
pallidula
palliduphantes
pallidus
pallipes
palo
palomar
palombaan
palopor
palpada
palpalis
palpelius
palpomyia
palsu
palu
paluang
palukih
paluru
palustris
pamahaman
pamain
pamainan
pamakaian
pamakaiannyo
pamakaman
pamakan
pamaluak
pamanang
pamandangan
pamandian
pamanfaatan
pamannyo
pamaran
pamarentah
pamarentahan
pamaresoan
pamarintah
pamarintahan
pamarintahannyo
pamasalahan
pamasangan
pamasaran
pambaco
pambagian
pambaharuan
pambahasan
pambakaran
pambakuan
pambalajaran
pambalap
pambali
pambangkik
pambangunan
pambangunannyo
pambantu
pambantuak
pambantuakan
pambantukan
pambao
pambaok
pambarian
pambarontakan
pambaruan
pambateh
pambayaran
pambinaan
pambuatan
pambuek
pambuekan
pambukaan
pambuluah
pamekaran
pamenan
pameran
pamerintah
pamerintahan
pamikiran
pamiliahan
pamiliak
pamilihan
pamilik
pamilu
pamimpin
pamindahan
pamintaan
pamisahan
pamohonan
pamuda
pamudo
pamujaan
pamukaan
pamukiman
pamukoan
pan
panabangan
panabik
panah
panaklukan
panaliti
panalitian
panama
panambahan
panambangan
panamensis
panamoan
panamomops
panampilan
panamuan
pananaman
panando
pananganan
pananggalan
panantuan
panarangan
panari
panarimo
panarimoan
panaruih
panas
panasihat
panawaran
pancapaian
pancarian
pancasila
panchayat
pancipta
pancorius
pandai
pandaki
pandakian
pandampiang
pandan
pandanaan
pandang
pandangan
pandapaik
pandapatan
pandapek
pandarito
pandatang
pandeka
pandemi
pandidiakan
pandidik
pandidikan
pandidikannyo
pandiri
pandirian
pandji
panduan
panduduak
panduduaknyo
panduduk
pandudukan
panduduknyo
pandukuang
paneh
panel
panelus
panen
pangacara
pangadilan
pangajaran
pangajian
pangakuan
pangalaman
pangalola
pangalolaan
pangamatan
pangambangan
pangambilan
pangan
pangangguran
pangangkatan
pangantin
panganuik
pangaragoan
pangarang
pangartian
pangaruah
pangaruh
pangasiangan
pangatahuan
pangatauan
pangaturan
pangawasan
pangdam
pangean
pangek
pangembangan
pangeran
panggaleh
panggang
pangganti
panggantian
panggarak
panggerek
panggiat
panggilan
pangguang
panggunaan
panggung
pangguno
panggunoan
panggunonyo
pangharagoan
panghargaan
panghargoan
panghasil
panghormatan
panghulu
pangikuik
pangilun
panginapan
pangiriman
pangka
pangkakeh
pangkalan
pangkek
panglihatan
panglima
panglimo
pangobatan
pangolahan
pangonius
panguaso
pangubatan
pangucapan
pangulu
pangumuman
pangunjuang
panguruih
pangusaha
pangusaho
panikahan
panilaian
panimerus
paninggalan
paningkatan
paningkekan
panitia
panjago
panjajah
panjajahan
panjalajah
panjalehan
panjang
panjangnyo
panjaro
panjek
panji
panjua
panjualan
panjuru
panompang
panonton
panorama
pantai
panthera
panti
pantiang
pantun
panuah
panulih
panulisan
panumpang
panunjang
panurunan
panutua
panutuik
panutupan
panyabab
panyababnyo
panyabungan
panyadioan
panyaia
panyair
panyajian
panyakik
panyalasaian
panyangga
panyanyi
panyarangan
panyebaran
panyimpanan
panyuko
panyusun
panyusunan
panzeria
papaduan
papan
papanjangan
paparangan
papatah
paper
papillata
papillosa
papindahan
papua
papuana
papuanus
papuatipula
papuensis
papustakaan
par
para
parabek
parabezzia
parabola
parachironomus
paraclius
paradaban
paradangan
paradelphomyia
paradidyma
paradilan
paradoxa
paradoxus
parafreutreta
parafroneta
paraguay
paragymnastes
parah
parahu
paraiaran
parairan
parak
paralatan
paralimnophila
parallela
paralu
paramongoma
parampek
paran
paranan
parancanaan
parancih
parandra
parang
parangkaik
parangkek
parantaro
parantau
parantauan
paraphidippus
parasaan
parasit
parastrangalis
parasyringella
paratian
paratimea
paratropus
paraturan
paravilla
parawatan
parawixia
parayoan
parazoa
pardagangan
pardana
pardano
pare
parekonomian
parempheriella
parepierus
paresperella
parhatian
pari
pariaman
pariangan
parigi
parik
parikanan
parilaku
parilisia
paringatan
paringkek
parintah
pariode
paripurna
paris
paristiwa
parisus
parit
pariuak
pariwisata
parjalanan
parjuangan
park
parkir
parlemen
parmukaan
parnah
parnikahan
paro
parolehan
paromalus
paroster
parpatiah
parsen
part
partahanan
partai
partamo
partamonyo
partangahan
partanian
parti
partikel
paru
paruah
parubahan
paruik
parumahan
parundang
parunggu
parupo
parusahaan
parusahoan
parusaoan
parva
parvicellula
parvula
parvulus
parvus
paryphoconus
pas
pasa
pasagi
pasai
pasak
pasakutuan
pasal
pasalisiahan
pasaman
pasambahan
pasamoan
pasan
pasang
pasangan
pasar
pasaran
pasarikatan
pasatuan
pasatujuan
pasawat
pasca
pascasarjana
pasebaran
pasegi
paserta
pasia
pasiapan
pasien
pasifik
pasir
pasisia
paso
paspor
pasti
pasukan
pasukannyo
patagonica
patah
patahanan
patai
patambangan
patamo
patamonyo
patampuran
patamuan
patandiangan
patandingan
patang
patangahan
patani
patanian
patel
paten
pati
patih
patimbangan
patogen
patrick
patrilineal
pattani
patuang
patuik
patukaran
patumbuahan
patumbuhan
patunjuak
patunjuakan
patunjukan
pauah
pauh
paul
pauliani
pauper
paus
pautan
pawakilan
payah
payakumbuah
payakumbuh
payokumbuah
payuang
payung
pb
pbb
pc
pd
pdf
pdikm
pdip
pdri
pe
peace
peak
pebruari
peckham
peckhami
pectinata
pedagang
pedang
pedaria
pedas
pedoman
peduli
pedunculata
pegawai
pegesimallus
pegohylemyia
pegomya
pegunungan
pejabat
pejuang
pekalongan
pekan
pekanbaru
pekerja
pekerjaan
pelabuhan
pelajar
pelajaran
pelaksana
pelaksanaan
pelalawan
pelangi
pelargoderus
pelastoneurus
pelatihan
pelayanan
pelbagai
pelecopsis
pelegrina
pelestarian
peleteria
pelita
pellenes
pellucida
pelopor
pelukis
pemain
pemandangan
pematang
pembagian
pembangunan
pembantu
pembawa
pembentukan
pemberantasan
pemberontakan
pembina
pembinaan
pembuatan
pemekaran
pemeran
pemerintah
pemerintahan
pemikiran
pemilihan
pemilu
pemimpin
pempek
pemrograman
pemuda
pena
penai
penampang
penang
penanganan
penares
pencak
pendek
pendidikan
pendiri
pendirian
pendleburyi
penduduk
pendudukan
peneliti
penelitian
penerbang
penerbangan
penerbit
penerbitan
penetapan
peng
pengacara
pengadilan
pengajar
pengajian
pengalaman
pengantin
pengarang
pengaruh
pengelolaan
pengembangan
pengertian
pengetahuan
pengganti
penghargaan
penghulu
pengkajian
pengobatan
pengurus
pengusaha
penicillata
peninggalan
peningkatan
penjajahan
pensacola
pensiun
penting
penuh
penulis
penyair
penyakit
penyanyi
penyelenggaraan
people
pepadun
pepes
per
peradaban
perai
perairan
perak
peran
peranan
perancis
perang
perangkek
peraturan
perawang
perbankan
perbedaan
percepatan
perdagangan
perdamaian
perdana
perdata
perekonomian
perempuan
perencanaan
perforata
pergerakan
pergi
perguruan
perhatian
perhiasan
perhimpunan
perhubungan
peribaea
pericoma
perikanan
perilaku
perilampsis
peringatan
peringkat
period
periode
periodik
peripheroptera
peripsychoda
periscepsia
perissus
peristiwa
perjalanan
perjanjian
perjuangan
perkawinan
perkebunan
perkembangan
perlindungan
perm
permainan
permaisuri
permanen
permi
permukaan
pernah
pernikahan
perolehan
peromyia
perpatih
perplexa
perpustakaan
pers
persamaan
persatuan
persegi
persekutuan
persen
persentase
persero
persia
persiapan
persija
persimilis
persis
persoalan
personal
personil
perspective
perspektif
persyaratan
pertahanan
pertama
pertamina
pertamo
pertandingan
pertanian
pertempuran
pertemuan
pertengahan
perti
pertimbangan
pertuan
pertunjukan
peru
perubahan
perumahan
perundang
perusahaan
peruviana
perwakilan
perwira
pesantren
pesarini
pesat
pesawat
peserta
pesisir
pesta
peta
petak
petani
peter
peternakan
peters
peti
petiolata
petisi
petrie
petromica
petrorossia
petrosia
petrunkevitch
peucetia
pf
pg
ph
phaea
phaeacius
phakellia
phalacrotophora
phanaeus
phanias
phaonia
pharsalia
phasia
phebellia
phelister
phiale
phidippus
phil
philaeus
philates
philhygra
philip
philipotabanus
philippinensis
philippines
philodicus
philoliche
philonthus
philophylla
philornis
philosepedon
philosophy
phintella
phlebotomus
phlegra
phloeodictyidae
phone
phora
phoracantha
phorbas
phorbia
phoridae
phorinia
phoriospongia
phorocera
photo
php
phronia
phryneta
phryxe
phthinia
phthiria
phylidorea
phyllolabis
phyllospongia
phytobia
phytoecia
phytoliriomyza
phytomyptera
phytomyza
pi
piagam
piala
picayo
picta
picticornis
pictipennis
pictures
pictus
pidana
pidari
pidato
pidie
pidonia
piel
pierre
pigott
pihak
pikiran
pilaria
pilem
piliahan
piliang
pilihan
pilipina
pilosa
pilosus
pilot
pimpinan
pin
pinang
pindah
pindang
pinggang
pinggia
pinggir
pinggiran
pinjaman
pinjaro
pink
pinto
pintu
pinus
pione
pipa
pires
piriang
pisang
pisau
pita
pitcairn
pitcher
pitih
pityohyphantes
pj
pk
pkb
pki
pks
pl
plagiata
plagiogramma
plagiohammus
plagithmysus
plana
planet
planetella
planetesimal
planodema
plant
plants
plasma
plastik
plastophora
platambus
platensina
platform
platnick
plato
platylister
platylomalus
platynectes
platysoma
platytipula
plaumanni
player
plaza
plectromerus
plectroninia
plegaderus
pleret
pleuralis
plexippoides
plexippus
pliomelaena
plumosa
plusiomyia
pluto
pm
pn
pneumonia
png
pns
po
pochyta
pocock
poecilanthrax
poecillastra
poeciloneta
pogonioefferia
pohon
poimenesperus
poin
point
pokok
pola
polandia
polda
pole
polen
polimer
polinesia
polisi
polita
politeknik
political
politics
politik
politikus
politisi
politus
pollinosa
polo
polri
poltys
polusi
polwan
polymastia
polymera
polypedilum
polyzonus
pompey
pon
pondasi
pondok
ponsel
pontianak
pop
popular
populasi
populasinyo
populat
population
populer
porifera
porrhomma
porricondyla
port
portal
portia
portugal
portugih
portugis
pos
posisi
posisinyo
positif
poso
post
postingan
potato
potensi
pothyne
poto
potong
potongan
potret
powell
power
pp
ppp
pq
pr
pra
prabowo
pradesh
prajurit
praktik
praktis
pramuka
pranala
prancis
prangko
prasarana
prasasti
pratama
pratensis
pravec
prawiranegara
prayitno
pre
predator
prefektur
premier
premium
prescott
presenter
presiden
president
press
prestasi
pria
pribadi
pribumi
prima
primata
primer
primitiva
primordial
princeps
princeton
pringsewu
prinsip
prionocera
prionolabis
prionus
prioritas
prix
pro
probezzia
procecidochares
procera
procladius
proctacanthus
prodi
production
produk
produksi
produktif
produsen
produser
prof
profesi
profesional
profesor
profil
profile
progonomyia
program
progresif
project
proklamasi
proklamator
prolixa
promachus
prominens
promosi
pronous
propaganda
properti
propinqua
propinquus
propinsi
proposal
prosa
prosedur
prosena
proses
prosesi
prosesor
prosoplus
prosopocera
protein
protelean
protes
protestan
proto
protogonomyia
protokol
proton
protosuberites
provinsi
provisional
proxima
proximus
proyek
prri
pruinosa
prusia
ps
psammocinia
psammoclema
psapharochrus
psecas
psectrocladius
psectrosema
pselaptrichus
pselliophora
pseudacteon
pseudamycus
pseudexechia
pseudicius
pseudocalamobius
pseudolimnophila
pseudonapomyza
pseudoperomyia
pseudophorellia
pseudosuberites
psi
psikologi
psiloconopa
psorophora
pssi
psychoda
psychodidae
psyrassa
pt
pterelachisus
pterolophia
ptilocaulis
ptilodexia
ptilogyna
ptkm
ptn
ptocasius
pu
pua
puaso
pubescens
pubian
public
publications
publik
publikasi
published
publishers
publishing
pucuak
puerto
puffin
puisi
pukua
pukul
pula
pulang
pulau
pulchella
pulchellus
pulcher
pulcherrima
pulchra
puliciphora
pulitzer
pullata
pulo
puluah
puluahan
puluh
puluik
pumila
pun
punah
puncak
puncaknyo
punctata
punctatus
puncticollis
punctipennis
pungguang
punjab
punyo
pupuik
pura
purba
purbakala
puri
purn
purnama
purpurea
purpuricenus
purwakarta
pus
pusako
pusat
pusek
pusilla
pusillus
puskesmas
pustaka
putaran
putera
puteri
puti
putiah
putih
putin
putra
putri
putuih
putusan
pv
pw
pwi
px
py
pygmaea
pygmaeus
pygommatius
pygophora
pyrellia
pyrestes
pyriformis
pytheas
pz
q
qa
qatar
qb
qc
qd
qe
qf
qg
qh
qj
qk
ql
qm
qn
qo
qp
qq
qr
qs
qt
qu
quadrata
quadrimaculata
quadrimaculatus
quadrivittata
quedius
queenshead
queensland
qur
quraish
quraisy
quran
qv
qw
qx
qy
qz
r
ra
rabab
rabano
rabdophaga
rabi
rabuang
rachman
racun
radang
radar
raden
radiasi
radiata
radikal
radio
radiospongilla
raffles
rafflesia
rafli
raga
ragam
ragi
rago
ragu
rahang
rahasia
rahasio
rahim
rahmah
rahman
rahmat
rain
rainbow
rais
raja
rajah
rajo
rakik
rakov
raksasa
rakyaik
rakyat
ram
rama
ramadan
ramadhan
ramah
ramai
rambai
rambatan
rambuik
rami
ramirez
ramo
ramosa
rampah
ran
ranah
ranang
ranau
rancak
rancangan
randah
randai
randang
rang
rangik
rangka
rangkaian
rangkayo
rangkiang
rangko
rani
rantai
rantang
rantau
rantiang
rao
rapat
rapek
rapi
rara
ras
rasa
rashid
rasiko
rasio
rasmi
raso
rasonyo
raspailia
raspailiidae
raspaxilla
rasul
rasulullah
rasuna
rasyid
rata
ratna
rato
ratok
ratu
ratuih
ratusan
raun
rawa
rawan
rawas
rawo
ray
raya
raymond
rayo
rayon
razak
rb
rc
rcti
rd
re
read
reaksi
reaktor
real
recensa
record
records
red
redaksi
redaktur
reducta
redwood
reedy
referensi
reformasi
regalis
regina
regional
register
regnum
regu
reguler
reichenbachia
reimoser
reinhard
reinhold
rejang
rekaman
rekayasa
rekonstruksi
rekor
rekreasi
rekso
rektor
rel
relatif
relief
religi
religion
religious
remaja
rembau
rempah
rencana
renceh
rendah
rendang
rengat
reniera
renovasi
rentan
repens
report
reproduksi
reptil
republic
republik
republika
rer
res
resapan
research
resep
reseptor
residen
resimen
resmi
resolusi
resort
resources
respon
respons
resseliella
restoran
results
reticulata
reticulatus
retrieved
rev
review
revolusi
revolusioner
revolution
rex
reza
reznicek
rf
rg
rh
rhabdastrella
rhabderemia
rhabdochaeta
rhabdogaster
rhabdomastix
rhagoletis
rhantus
rhaphium
rhaphuma
rheide
rhene
rhipidia
rhizaxinella
rhizoniera
rhochmopterum
rhodopina
rhopalomyia
rhopalophora
rhytiphora
ri
ria
riau
ribu
ribuan
rica
rice
richard
richter
rico
ridley
ridleyi
ridwan
right
rights
rigida
rijsttafel
rika
rimba
rimbang
rimbo
rindu
ringan
rinjani
rio
ris
rise
riset
risiko
ritual
rivai
river
riwayaik
riwayat
riyadh
rizal
rj
rk
rl
rm
rn
rngen
rni
ro
road
robert
robineau
robot
robusta
robustus
rock
roda
roesli
roewer
roger
roh
rohana
rohani
rohtang
rokan
roket
rokok
rollard
roma
roman
romawi
rombongan
romitia
rondibilis
rondoni
roni
rono
ropica
rosalba
rose
rosea
rosihan
rossi
rostrata
rotan
rote
roti
rotunda
rotundipennis
routledge
row
roy
royal
royong
rp
rq
rr
rri
rs
rt
ru
ruam
ruang
ruangan
rubella
rubens
rubiah
rubida
rubra
rubrik
rudal
rudis
rudolf
rudra
rueh
rufa
rufescens
ruficauda
ruficollis
ruficornis
rufina
rufipennis
rufipes
rufithorax
rufiventris
rufula
rufus
rugosa
rugosus
ruiz
rujak
rujuak
rujuakan
rujukan
ruku
rukun
rumah
rumahnyo
rumania
rumik
rumpuik
rumpun
run
runciang
runner
runtuah
rupa
rupiah
rupo
ruponyo
rusa
rusak
rusia
rusli
ruso
russell
russia
russian
rustica
rute
rutilia
rutin
rv
rw
rx
ry
rymosia
ryn
rz
s
sa
saaik
saari
saaristo
saat
saba
sabab
sabagai
sabagaimano
sabagainyo
sabagian
sabah
sabai
sabalah
sabaleh
sabaliaknyo
sabalum
sabalumnyo
sabalun
sabalunnyo
sabana
sabananyo
sabang
sabanta
sabanyak
sabatang
sabauh
sabelah
sabethes
sabroskyi
sabtu
sabuah
sabuak
sabuik
sabuikan
sabulan
sabutan
sacara
sacaro
sacukuiknyo
sadang
sadangkan
sadar
sadarano
sado
sadoalah
sadoalahnyo
sadolah
sadonyo
saedaran
sagadang
sagalo
sagan
sagi
sagitigo
sago
sagu
sah
sahabaik
sahabat
saham
sahara
sahari
saharusnyo
sahingga
sahinggo
said
saidi
saikua
saindaknyo
sainggo
sains
saint
saintifik
sairiang
saisuak
saitis
saito
saja
sajak
sajalan
sajarah
sajarawan
sajauah
sajenis
sajian
sajinih
sajo
sajuak
sajumlah
saka
sakai
sakalava
sakali
sakaliguih
sakaligus
sakaliliang
sakaliliangnyo
sakalompok
saketek
saketeknyo
sakik
sakit
sakita
sakitar
sakitaran
sakitarnyo
sako
sakola
sakolah
saksi
sakti
sakumpulan
sakura
sakurang
sakutu
sala
salafi
salah
salai
salain
salak
salaku
salalu
salam
salama
salamaik
salamo
salanjuiknyo
salapan
salapeh
salasai
salat
salatan
salawat
salaweh
saleh
salek
salendang
salero
saliang
salib
salim
salimpaung
salinan
saling
salju
salman
salmon
salo
salpingogaster
salticidae
salticus
saluak
saluang
salueh
saluran
saluruah
saluruh
salvador
sam
sama
samaai
samacam
samad
samak
samakin
samananjuang
samangaik
samanjak
samantaro
samaran
samarinda
samaso
samba
sambah
sambal
sambalado
sambia
sambilan
sambuah
saminggu
samintaro
samo
samoa
samosir
sampah
sampai
sampan
samparono
sampek
sampel
sampelong
sampiang
sampik
samping
samudera
samudra
samuik
samulo
samurai
san
sanak
sanang
sandalodes
sandi
sandiri
sandiwara
sang
sangaik
sangaiklah
sangajo
sangat
sangay
sangek
sanggar
sanggau
sanghyang
sangihe
sangir
sangkek
sangketo
sani
saniman
sanjai
sanjato
sanjo
sanskerta
santa
santan
santiago
santo
santos
saolah
saorang
sapai
sapanjang
sapanuahnyo
saparti
saparuah
sapasang
sapeda
saperda
saperti
sapi
saprinus
sapuluah
sar
sara
saraf
saragam
sarah
sarai
saraiella
sarambi
saran
sarana
sarang
sarangan
saranggo
sarangkaian
sarangkek
sarano
sarasah
sarato
saratuih
sarawak
sarbuak
sarcotragus
sardinia
sarekat
sari
sariak
sariamin
saribu
sarik
sarikaik
sarikat
sarikek
sarinda
sarjana
sarolangun
saroman
saropogon
saroto
sars
saruang
saruaso
sarupo
sarupojo
sasak
sasamo
sasaran
sasaurang
sassacus
sastera
sastra
sastrawan
sasuai
sasuatu
sasudah
sasudahnyo
satahun
satalah
satampek
satangah
sataruihnyo
satasiun
sataun
satchelliella
sate
satelah
satelit
sati
satinggi
satingkek
satiok
sato
satria
satu
satuan
satuju
satunyo
saturnalia
satwa
saud
saudagar
saudara
saudaro
saudi
saumua
saurang
saus
sauteri
sav
savignia
savtshenkia
saw
sawah
sawahlunto
sawakatu
sawaktu
sawit
saya
sayang
sayangnyo
sayok
sayoknyo
sayua
sayur
sayuran
sayuti
sb
sbb
sc
scalaris
scamboneura
scaptia
scapularis
scarabaeidae
scarabaeus
scedella
sceptonia
scharff
schenkel
schizomyia
schkuhr
schmidt
schmidti
school
schools
schoutedeni
schulzei
schummelia
schwein
sciades
sciapus
science
sciences
scientific
scione
sciophila
scopalina
scopocira
scotinotylus
scott
sctv
scutellaris
scutellata
scylaticus
sd
sdm
sdn
se
sea
seabrai
search
season
sebab
sebagai
sebagian
sebanyak
sebaran
sebelah
sebelas
sebelum
sebelumnya
seberang
sebesar
sebuah
sebutan
secara
secaro
second
security
sedang
sedangkan
sederhana
sedge
see
segar
segera
segi
segmen
sehat
sehingga
sei
sejahtera
sejak
sejarah
sejarawan
sejati
sejumlah
sekaligus
sekarang
sekitar
sekitarnya
sekjen
sekolah
sekretariat
sekretaris
seks
seksi
seksual
sektor
sekunder
sekutu
sel
selain
selalu
selama
selamat
selandia
selangor
selanjutnya
selat
selatan
seleksi
selo
seluas
seluruh
semangat
semarang
sembilan
semen
semenanjung
sementara
semesta
semi
semifinal
seminar
semljicola
sempat
semua
senat
senberg
sendiri
sendok
senegal
senegalensis
seng
seni
seniman
senin
senior
senostoma
sensus
sentimeter
sentral
senyawa
seo
seok
seorang
seoul
sepak
sepakbola
sepanjang
separata
seperti
september
septentrionalis
sepuluh
sequoia
serabi
serambi
serang
serangan
serat
serawai
serba
serbia
serdang
seremban
sergentomyia
seri
serial
seribu
sericea
sericeus
series
serikat
sering
seriphidomyia
serius
serixia
serotonin
serrata
serromyia
serta
server
service
seseorang
sesuai
sesuatu
set
setan
setelah
setempat
setia
setiap
setiawan
setigera
setosa
setosus
sewaktu
seychellensis
seychelles
sf
sg
sh
sha
shah
shamakhi
shanghai
shannoni
shannonomyia
sharur
sherpa
shi
shieren
shift
shihab
shimizu
shin
shogun
short
show
si
sia
siak
sialang
siam
siamang
siamensis
siang
sianok
siantan
siantar
siap
siapo
siaran
siberia
siberut
sibianor
sibirica
sibiricus
sibolga
sidang
sidempuan
siding
sidusa
sie
sierra
sifaik
sifat
sifek
siger
sigi
sigmatomera
sigmaxinella
signata
signatus
signifikan
siguntua
siguntur
sihaik
sijarah
sijarahnyo
sijarawan
sijobang
sijunjuang
sijunjung
sikap
sikek
sikerei
sikkimensis
siklus
siko
sikola
sikolah
sikumbang
silam
silang
silat
silek
silinder
silla
siloca
silometopus
silsilah
silungkang
silva
silvatica
silvestris
silvicola
silvius
sim
simaetha
simalungun
simawang
simbol
simeulue
similis
simillima
similosodus
simon
simoni
simpang
simpanse
simplex
simson
simulans
simulator
sinabung
sinan
sinar
sinayan
sindrom
sinensis
sinetron
singa
singapore
singapura
singel
singgah
singgalang
singh
singhasari
singingi
singkarak
singkatan
singkek
singkil
single
singo
singularis
sini
sinica
sinopsis
sinotipula
sintaksis
sintula
sinuata
sinuosa
sinyal
sipadeh
sipaik
sipak
siphona
sipil
sipora
siprus
sir
sirah
siregar
siriah
sirip
sirkuit
sirkulasi
sirup
sisa
sisi
sisicottus
sisilia
sisinyo
siso
sisonyo
sistem
sistim
siswa
sisyphus
site
siti
sitti
sitticus
situ
situasi
situbondo
situs
sj
sjahrir
sjarifuddin
sk
skala
skenario
skor
skotlandia
skripsi
skuat
skuter
sl
slamet
slavia
slovenia
slowakia
sm
sma
small
sman
smith
smithi
smittia
smk
smp
sms
sn
snowdon
so
soal
soares
sobasina
social
society
socorro
soeharto
soekarno
soekarnoputri
soest
soestella
soetan
soewardi
sofia
sojak
sokotra
solida
solieria
solitaria
sollas
solo
solok
solomon
solusi
somalia
somatidia
some
sondra
song
songket
sonoma
soo
sop
sopan
sophia
sophira
sophronica
sorang
sordida
sore
sorong
soror
sos
sosial
sosialis
sosiologi
sosok
soto
sotomayor
south
southeast
southern
soviet
sp
space
spacewatch
spanyol
spartaeus
special
species
speciosa
spectabilis
spesialis
spesialisasi
spesies
spesifik
spesifikasi
spesimen
spheciospongia
sphecozone
sphenella
spider
spike
spilogona
spinifera
spinipennis
spinipes
spiniphora
spinosa
spinosus
spinulosa
spirastrella
spirembolus
spiritual
splendens
splendida
spogostylum
spongia
spongiidae
spongilla
spongillidae
spongionella
spongosorites
spons
sport
spring
sq
square
sr
sri
sriwijaya
ss
st
stabil
stackelbergi
stad
stadion
stadium
staf
staff
stai
stamps
stand
standar
standard
stanford
staphylinidae
star
start
stasiun
state
states
station
statistica
statistics
statistik
status
stefaniola
steffy
stegomyia
stellata
stelletta
stelligera
stelodoryx
stemonyphantes
stenaelurillus
stenellipsis
stenhomalus
stenocorus
stenophragma
stenopogon
stenotabanus
stenus
stephen
stephens
sternocoelis
sternopriscus
sternotomis
sterphus
stertinius
steud
steven
steyerm
sthenias
stichillus
stichopogon
stictoleptura
stictotarsus
stie
stigmatica
stikes
stilobezzia
stipitata
stit
stizocera
stkip
stnk
stoeba
stone
stonei
store
stories
story
stovia
straits
strand
strandi
strangalia
strategi
strategis
stratospongilla
street
striata
striatus
stroke
strongylacidon
strongylophora
structurii
struktur
stryphnus
stuckenbergi
studi
studies
studinyo
studio
study
stupa
sturmia
stylata
stylifera
stylissa
stylopus
stypommisa
styringomyia
su
suaka
suami
suaminyo
suanggi
suara
suaro
suasana
suatu
suavis
sub
subagai
subalah
subang
subarang
suberea
suberites
suberitidae
subfamilia
subfasciata
subjek
subregnum
subspesies
subtilis
subua
subur
suci
sudah
sudan
sudaro
sudirman
suduik
suez
suhatman
suhu
suka
sukabumi
sukadana
sukarno
suko
sukses
suku
sulaiman
sulaman
sulawesi
sulik
sultan
sulu
suma
sumando
sumangaik
sumatera
sumatra
sumatrana
sumatranus
sumatrensis
sumba
sumbangan
sumbar
sumbawa
sumbayang
sumber
sumberdaya
sumedang
sumpah
sumpur
sumsel
sumsum
sumua
sumur
sun
sunan
sunda
sunday
sung
sungai
sungayang
sungguahpun
sungguh
sunnah
sunni
sunrise
suntiang
sunting
suok
sup
supayo
super
superba
superbus
supermarket
sur
surabaya
surah
surakarta
surambi
surang
surat
surau
surek
suriah
suriname
surong
survei
survey
surya
suryadarma
susah
susi
susilo
susu
susunan
sutan
sutradara
suturalis
suzuki
sv
svg
sw
swadaya
swasta
sweden
swedia
swiss
sx
sy
syafi
syafruddin
syah
syaiful
syaikh
syair
syam
syara
syaraik
syarak
syarat
syariah
syarif
syarifah
syarikat
sybistroma
sybra
sycettusa
sycon
sycorax
syeikh
syekh
syi
syiah
syllimnophora
syllitus
symplecta
sympycnus
synageles
synagelides
synapha
synemosyna
syntemna
syntormon
syrphidae
system
systems
systoechus
systropus
syukur
sz
szu
szynski
t
ta
taadok
taakhia
taakia
taba
tabagi
tabaiak
tabaik
tabaka
tabanam
tabang
tabanidae
tabano
tabanocella
tabantang
tabantuak
tabantuaknyo
tabanus
tabanyak
tabaru
tabateh
tabek
tabel
tabi
tabiang
tabik
tablet
tabu
tabuah
tabuang
tabuek
tabuik
tabukak
tabukti
tabunuah
tacaliak
tacapai
tacataik
tacatat
tachina
tachinidae
tachygyna
tachytrechus
taczanowski
tadaftar
tadakek
tadanga
tadapek
tadi
tadiri
tae
taeniata
tafsir
tagabuang
tagadang
tagaduah
tagak
tagaknyo
tagantuang
tagolong
tahadap
tahadok
tahan
tahanan
tahap
tahapan
taher
tahir
tahta
tahu
tahubuang
tahun
tahunan
tahunnyo
tainfeksi
tainspirasi
taipei
taiwan
taiwanensis
tajadi
tajadilah
tajadinyo
tajago
tajam
tajamahan
tajikistan
tajun
tak
takadang
takah
takaik
takamuko
takana
takanai
takanan
takanduang
takao
takauji
takdir
takenal
takhta
taknik
takonfirmasi
takoyaki
taksi
taksonomi
takuik
takuruang
talabiah
talago
talah
talalu
talam
talampau
talang
talangensis
talapeh
talatak
talavera
tale
taleh
talempong
talepon
tali
talibaik
talibat
talibek
taliek
talingo
talok
talotak
talua
taluak
taluko
tamaik
taman
tamasuak
tamasuk
tamat
tambah
tambahan
tambang
tambo
tambusai
tamiang
tamil
tampaik
tampak
tampaknyo
tampek
tampeknyo
tampil
tampilan
tampuah
tampuruang
tamu
tamuan
tamurun
tan
tana
tanago
tanah
tanahnyo
tanam
tanaman
tanamo
tanang
tanasevitch
tanda
tandiang
tando
tanduak
tang
tangah
tangahnyo
tangan
tangannyo
tangerang
tangga
tanggal
tanggamus
tanggapan
tanggo
tangguang
tangkai
tangkis
tangkok
tango
tani
tanikawa
tanita
tanjuang
tanjung
tanjungbalai
tanjungpinang
tank
tanpa
tanpo
tantang
tantangan
tantara
tantaro
tantu
tantunyo
tanuak
tanun
tanyato
tanypremna
tanyptera
tanytarsus
tanzania
taonura
tapadek
tapai
tapak
tapangaruah
tapanjang
tapantiang
tapanuli
tapaso
tapek
tapeknyo
tapi
tapian
tapiliah
tapinocyba
tapisah
tapuang
tar
tarab
taradok
tarakhia
tarakhir
taram
taranak
tarancam
tarandah
tarang
tarantulo
taraso
taratak
tarateh
tarbiyah
tarekat
target
tarhadap
tari
tarian
tarif
tarik
tarikaik
tarimo
tarlatak
tarmizi
tarok
tarowongan
tarsalis
tarsius
taruang
taruih
tarumbu
tarusan
tarutamo
tasabuik
tasadio
taseba
tasebar
tasebuik
tasikmalaya
tasimpan
tasiocera
tasiso
tasmania
tasuo
tasusun
tata
tatagak
tatanan
tatangkok
tatantu
tatap
tatapi
tatar
tatinggi
tato
tatok
tatulih
tatuo
tatutuik
tau
taufik
taufiq
tauhid
taun
taunan
taurat
tautamo
tautenburg
tavakilian
tawa
tawar
tawaran
tayang
taylor
tb
tbk
tc
tchatkalophantes
td
te
team
teater
tebing
tebo
techcrunch
technology
tedania
tedaniopsis
teenebelle
teens
tegal
teh
tehran
tekanan
teknik
teknis
teknologi
teks
tekstil
tekstur
tektonik
telah
telamonia
telegram
telekomunikasi
telepon
televisi
telkom
telmatoscopus
telua
teluk
telur
tema
tembak
tembok
tempat
tempe
temperatur
tempo
tempur
ten
tenaga
tenella
tenera
tengah
tenggara
tenggelamnya
tenggi
tengku
tenis
tentang
tentara
tenuipes
tenuiphantes
tenuis
teori
tephritidae
tephritis
tepi
terakhir
terapan
terapi
teras
terbaik
terbang
terbesar
terbit
terbuka
terdapat
terdiri
terellia
terengganu
teretrius
terhadap
teri
teritorial
teritoriale
terjadi
terjal
terjemahan
terjun
terkait
terkenal
terkondensasi
terletak
termasuk
terminal
terminalis
ternate
terpadu
terpilih
terpios
territories
tersebut
tertentu
tertinggi
tertinjau
tes
tesla
test
testacea
tetangga
tetap
tetapi
tethya
tethyopsis
tetilla
tetillidae
teton
tetragoneura
tetraopes
tetreuaresta
teucholabis
teuchophorus
teuku
teungku
tewas
texana
texanus
texas
text
tf
tg
th
tha
thai
thaib
thailand
thaler
thalib
thalysias
than
that
thawalib
the
their
thenea
theonella
theonellidae
theory
there
thevenetimyia
they
thiania
thiele
thinobius
thinophilus
thiodina
this
thomas
thompson
thomsoni
thoosa
thoracica
thorecta
thorectidae
thorell
thorelliola
thought
three
thricops
through
thrypticomyia
thrypticus
thumb
thyene
thyenula
thyridanthrax
ti
tiang
tiara
tiba
tibet
tibialis
tibo
tidak
tidore
tiga
tigo
tigris
tikader
tiku
tikuluak
tilatang
till
tim
timah
timbago
timbakau
timbua
time
timea
times
timnas
timnyo
timor
timua
timur
tindak
tindakan
tingga
tinggal
tinggam
tinggi
tingginyo
tingkah
tingkat
tingkatan
tingkek
tinjauan
tinju
tiok
tionghoa
tiongkok
tipe
tipih
tipula
tipulidae
tipulodina
tiro
titan
titanium
titi
titiak
titian
titik
tj
tjokroaminoto
tk
tkr
tl
tm
tmesisternus
tmnr
tn
tni
to
toba
today
toga
toilet
toko
tokoh
tokohindonesia
tokugawa
tokyo
tol
tolah
tolmerus
tom
tomaik
tomasiewicz
tomat
tome
tomoplagia
ton
tonggak
tonkinensis
tony
top
topik
topografi
topomyia
topsent
topsenti
topsentia
toraja
torr
toschia
total
tour
tower
town
towns
townsend
townsendi
toxochalina
toxomerus
toxophora
toxorhina
toxorhynchites
toyota
tp
tq
tr
trade
tradisi
tradisional
tradition
tragocephala
trans
transaksi
transfer
transformasi
transisi
transmigrasi
transmisi
transneptunus
transportasi
transversa
transversalis
travel
trentepohlia
tri
triangularis
triarga
tribalus
trichodolichopeza
trichomachimus
trichomyia
trichoncus
trichonta
trichopoda
trichopterna
trichosia
trichotipula
tricolor
tridens
tridentata
trifasciata
trigonoptera
trilineata
triliun
trimaculata
trimurti
trinidad
triphleba
triplicitipula
tripteroides
trirhithrum
tristis
trite
trivittata
trochospongilla
troglohyphantes
trombofilia
tropenmuseum
tropica
tropical
tropicomyia
tropidion
tropis
troya
truk
truncata
truncatus
trupanea
trypanaeus
trypanaresta
trypeta
trypeticus
ts
tsi
tsunami
tt
tu
tua
tuah
tuan
tuang
tuangku
tuanku
tuberculata
tuberculatus
tuberosa
tubuah
tubuahnyo
tubuh
tubulosa
tucker
tugas
tugasnyo
tugeh
tugu
tuh
tuhan
tujuah
tujuan
tujuannyo
tujuh
tuka
tukang
tulak
tulang
tulih
tulis
tulisan
tulisannyo
tullgren
tullgrenella
tulus
tumbuah
tumbuahan
tumbuh
tumbuhan
tumor
tumpang
tun
tuneh
tungga
tunggak
tunggal
tunggu
tungkek
tungku
tunisia
tunku
tuntutan
tuo
tuonyo
tupai
turis
turk
turkey
turki
turkmenistan
turnamen
turneri
turuik
turun
turunan
tusitala
tusuak
tutaibo
tutua
tutuik
tv
tvri
tw
twitter
two
tx
ty
tylogonus
type
typhochrestus
tz
u
ua
uang
uap
ub
ubek
ubi
ubua
ubuangan
uc
ucapan
ud
uda
udang
udara
udaro
ue
ueda
uefa
uesac
uf
ug
uganda
ugm
uh
uhf
ui
uii
uin
uj
ujan
uji
ujian
ujuang
ujuangnyo
ujung
uk
ukiran
ukm
ukraina
ukum
ukuran
ukurannyo
ul
ula
ulahrago
ulakan
ulama
ulamo
ulando
ulang
ular
ulasan
ulin
ulomyia
ulos
ulosa
ulu
um
uma
umah
umaik
umar
umat
umayyah
umbi
umbrosa
umno
umpamonyo
umua
umuanyo
umum
umumnya
umumnyo
un
unand
uncinata
und
undang
undangan
under
undulata
unesco
unggeh
unggul
unggulan
ungkapan
ungu
uni
unica
unicolor
unifasciata
uniformis
unik
unimal
union
unit
united
universal
universitas
university
unix
unjuak
unp
unram
unsua
unsur
unto
untuak
untuk
untung
unwin
uo
up
upacara
upacaro
upaya
upayo
upi
uppsala
upt
uq
ur
uracanthus
uramya
urang
uranotaenia
uranus
urata
urban
urdu
urek
urgleptes
urin
url
urophora
uroxys
urquhart
uruf
uruguay
urusan
urutan
us
usa
usaha
usaho
usai
usali
use
users
usia
using
uskup
usman
ussuriensis
usu
usua
usul
usulan
usus
ut
uta
utahensis
utak
utama
utamo
utamonyo
utan
utang
utara
utaro
ute
utomo
utsmani
utsmaniyah
uttar
uturunku
utusan
uu
uud
uv
uvarus
uw
ux
uy
uz
uzbekistan
v
va
vacelet
vadoni
vaksin
vaksinasi
valencia
valida
validus
valsartan
value
van
vaniot
var
varia
variabel
variabilis
varian
varians
variasi
variegata
variegatus
varipes
vasseur
vatikan
vb
vc
vd
ve
ved
vegas
vegetasi
venezuela
ventralis
venusta
venustus
vera
verde
veribubo
verifikasi
vernalis
verrallina
verrucosa
versi
versicolor
version
vertebrata
vertikal
vestiplex
vf
vg
vh
vi
via
vibrissina
vicina
vicinus
viciria
victor
victoria
vidalia
video
vidio
vietnam
view
vihara
vii
viii
villa
villages
villeneuve
villiersi
villosa
villosus
vincent
vink
vinson
violacea
virescens
virgata
virginia
viridigona
viridis
virus
vis
visa
visi
visual
vitamin
vittata
vittatus
vitticollis
vj
vk
vl
vm
vn
vo
voc
vockerothi
voice
vokal
vokalis
vol
voli
volksraad
vols
volume
vomerula
von
voor
vosmaeropsis
vp
vq
vr
vrh
vs
vt
vu
vulcanella
vulgaris
vulkanik
vv
vw
vx
vy
vz
w
wa
wabah
wacana
wadah
wadi
wafaik
wafat
wagner
wagneriana
wahabi
wahana
wahid
wahlenb
wahyu
wajah
wajib
wajik
wak
wakatu
wakia
wakil
waktu
wal
walau
walaupun
walckenaer
walckenaeria
wales
wali
walikota
walker
walkeri
wall
wallace
walter
wan
wang
wangi
wanita
wanless
war
warga
warih
warisan
warna
warnanyo
warno
wartawan
waruga
warung
was
washington
water
watu
wawancara
way
wayang
wayback
wb
wc
wd
we
web
weber
website
wedang
wenda
were
wesolowska
west
western
westring
wewenang
wf
wg
wh
what
whatsapp
wheeler
when
which
white
whitelegge
who
why
wib
wider
widodo
width
wijaya
wijck
wiki
wikimedia
wikipedia
wikipustakasumatra
wikisijunjuang
wikisumatra
wilayah
wilayahnyo
will
willd
william
williams
williamsi
willistoni
wilson
wilsonella
wilsoni
windows
winnertzia
winter
winthemia
wirabuana
wirthi
wisata
wisatawan
wisma
with
wittei
wj
wk
wl
wm
wn
wni
wo
wollstonecraft
women
won
wong
wonogiri
woo
woodi
woodiphora
woomera
wordpress
work
works
world
worms
wp
wq
wr
wright
writer
writing
ws
wt
wu
wuhan
wujuik
wulp
wunderlich
wv
ww
www
wx
wy
wyeomyia
wz
x
xa
xanthaciura
xb
xc
xd
xe
xenofrea
xerosaprinus
xestospongia
xf
xg
xh
xi
xie
xii
xiii
xinglong
xiv
xj
xk
xl
xm
xn
xo
xp
xq
xr
xs
xt
xu
xv
xvi
xw
xx
xy
xylotrechus
xystrocera
xz
y
ya
yaginuma
yaginumaella
yahudi
yahya
yaitu
yaitunyo
yak
yakni
yale
yaman
yamatotipula
yamin
yang
yani
yarkand
yasin
yatim
yayasan
yb
yc
yd
ye
year
years
yellow
yemen
yen
yeon
yerusalem
yesus
yeung
yf
yg
yh
yi
yin
yj
yk
yl
yllenus
ym
yn
yo
yogyakarta
yoitu
yola
yonex
yong
yoo
yoon
yordan
yordania
york
yorker
you
young
your
youtube
yp
yq
yr
ys
yt
yu
yuan
yudhoyono
yun
yunani
yunnanensis
yunus
yupiter
yusuf
yv
yvesia
yw
yx
yy
yyyy
yz
z
zabka
zain
zainal
zaini
zainuddin
zaira
zaitun
zam
zaman
zanzibar
zaquan
zat
zed
zelandoglochina
zelandotipula
zenillia
zenodorus
zhang
zheng
zhu
ziarah
zikani
zimbabwe
zimini
zoltowski
zona
zonata
zosteria
zu
zubir
zygoballus
zygomyia
{
|
}
~
£
©
«
­
°
±
²
³
·
º
½
×
ı
ŋ
ǁ
ʻ
ʾ
ʿ
ˈ
ˌ
ː
̀
́
̂
̃
̄
̆
̇
̈
̊
̋
̌
̓
̔
̛
̣
̦
̧
̸
͂
͡
α
β
δρο
ε
ζ
ι
μ
ς
σος
ω
а
и
м
н
с
т
я
ְ
ִ
ּ
ד
י
ا
ب
ت
ج
ح
د
ر
س
ش
ع
ف
ق
ك
ل
م
ن
ه
و
ي
ٍ
َ
ُ
ِ
ّ
ْ
ٔ
ٕ
क
ग
त
द
न
प
म
र
श
ा
ि
ी
ु
े
ो
्
া
ி
்
ั
ิ
ี
่
་
្
​
‎
‐
–
—
‘
’
“
”
„
•
…
′
″
⁄
€
→
↔
↵
↷
−
≥
③
④
⑦
●
⟨
⟩
⺀
⺄
⺆
⺈
⺊
⺌
⺕
⺝
⺸
⺼
⿰
⿱
⿲
⿳
⿴
⿵
⿶
⿷
⿸
⿹
⿺
⿻
《
》
〢
し
と
に
み
゙
コ
ス
ユ
ー
㇁
㇂
㇄
㇇
㇈
㇉
㇓
㐁
㐄
㐅
㐌
㐫
㐬
㐭
㐮
㐱
㑒
㒵
㒸
㒼
㓁
㓞
㔾
㕛
㕣
㖾
㘝
㚅
㚇
㚔
㚘
㝉
㝡
㝴
㝵
㞋
㞢
㞷
㠩
㠭
㠯
㡀
㡭
㡿
㢲
㢴
㣇
㣺
㥯
㪅
㫄
㫐
㫒
㫺
㬅
㬎
㬥
㬰
㲋
㳄
㷠
㸒
㸚
㸦
㼌
㼲
㽞
㿟
䀠
䂞
䍃
䏍
䒑
䖍
䖒
䖝
䖵
䙴
䚻
䜌
䝿
䡛
䧹
䪞
一
丁
丂
七
丄
丅
丆
万
丈
三
上
下
丌
不
与
丏
丐
丑
专
且
丕
世
丘
丙
业
东
丞
丢
丣
两
严
並
丨
丩
个
丫
丬
中
丮
丰
丱
串
丵
丶
丷
丸
丹
为
主
丽
丿
乀
乂
乃
久
乆
乇
么
义
之
乌
乍
乎
乏
乐
乑
乔
乖
乗
乘
乙
乚
乛
乜
九
乞
也
习
乡
乳
乾
亀
亅
了
亇
予
争
事
二
亍
于
亏
亐
云
互
亓
五
井
亘
亚
亜
亞
亟
亠
亡
亢
交
亥
亦
产
亨
亩
享
京
亭
亮
亯
亰
亲
亳
亶
亷
人
亻
亼
亾
仁
今
介
仌
从
仐
仑
仒
仓
仕
他
付
仝
代
令
以
任
企
伊
伏
伐
休
会
伯
但
位
何
佘
余
作
佥
使
來
侈
侌
侖
侯
侵
便
保
俞
信
修
倉
倍
候
倠
備
僉
僕
儿
兀
允
兂
元
兄
充
兆
兇
先
光
兊
克
兌
免
兑
兒
兓
兔
党
兜
兟
入
全
兩
兪
八
公
六
兮
兰
共
关
兵
其
具
典
兹
兼
冀
冂
冃
冄
内
冈
冉
冊
冋
册
再
冎
冏
冐
冒
冓
冖
冗
冘
军
农
冝
冡
冥
冫
冬
冷
几
凡
凢
凵
凶
凷
凸
凹
出
函
凾
刀
刁
刂
刃
刄
刅
分
切
刍
刑
刕
刖
列
刘
则
初
別
利
别
到
制
刺
則
削
剌
前
剡
剽
劉
力
功
加
劦
助
劫
劳
劵
勃
勇
勉
勒
動
務
勞
勤
勹
勺
勻
勾
勿
匀
匂
包
匆
匈
匊
匋
匍
匕
化
北
匚
匝
匡
匪
匱
匸
匹
区
医
匽
匿
區
十
卂
千
卄
卅
卆
升
午
卉
半
卌
华
卑
卒
卓
单
卖
南
卜
卝
卞
占
卡
卢
卣
卤
卦
卩
卪
卬
卯
印
危
即
却
卵
卷
卸
卻
厂
厃
厄
历
厈
厉
厌
厓
厘
厚
原
厤
厥
厨
厭
厲
厶
厷
厸
去
厼
厽
叀
参
參
叅
又
叉
及
友
双
反
叐
发
叒
叔
叕
取
受
叚
叜
叟
口
古
句
另
叩
只
召
可
台
叱
史
右
叵
号
司
叹
吂
各
吅
合
吉
吊
吋
同
名
后
吏
向
吕
君
吝
吞
否
含
启
吳
吴
吹
吾
呂
呆
呈
告
员
呙
周
命
咅
和
咎
咠
咢
咨
咸
咼
哀
品
哉
員
哥
哲
唐
商
啇
問
啚
啬
啻
善
喜
喬
單
喿
嗇
噩
嚴
囊
囗
囘
囙
囚
四
回
囟
因
囧
囬
困
囱
囷
固
国
圂
圅
國
圍
圓
土
圡
圣
圥
在
圭
地
圶
圼
坐
坒
坚
坴
垂
垔
垚
埀
埋
埶
執
基
堂
堅
堆
堇
堯
塞
墨
壘
士
壬
壯
声
壳
壴
壹
壺
壽
夂
处
夅
夆
备
夊
夋
夌
复
夏
夒
夕
外
夗
夘
多
夜
夢
大
夨
天
太
夫
夬
夭
央
失
夲
头
夷
夸
夹
夻
夾
奂
奄
奇
奈
奉
奎
奏
奐
契
奓
奔
奚
奞
奠
奢
奥
奭
女
奴
奻
好
如
妄
妙
妟
妥
妻
妾
姑
委
姜
姿
威
娄
婁
婴
嬰
嬴
子
孑
孔
孕
孖
字
存
孚
孛
孝
孟
季
孤
学
孫
孱
學
宀
宁
宂
它
宅
宇
守
安
宋
完
宏
宓
宗
官
定
宛
宜
宝
客
宣
室
宮
宰
害
家
容
宾
宿
寄
寅
密
富
寒
察
寧
審
寫
寬
寮
寸
对
寺
寻
寽
対
寿
封
尃
射
将
將
專
尉
尊
尋
尌
對
小
少
尒
尓
尔
尖
尗
尚
尞
尢
尣
尤
尧
尨
尭
就
尸
尹
尺
尻
尼
尽
尾
尿
局
居
屈
屋
屎
屏
屑
展
屖
屚
属
屠
屡
屬
屮
屯
屰
山
屵
屾
岁
岂
岑
岡
岩
岳
岸
峯
島
崇
崑
崔
崖
崙
崩
嵬
嶲
巂
巛
川
州
巟
巠
巢
巤
工
左
巧
巨
巩
巫
差
己
已
巳
巴
巷
巸
巽
巾
巿
帀
市
布
希
帚
帛
帝
带
師
席
帶
常
干
平
年
幵
并
幷
幸
幺
幻
幼
幽
幾
广
広
庄
床
底
店
庚
府
度
庫
庭
庶
康
庸
廉
廌
廛
廣
廩
廴
延
廷
建
廾
廿
开
弁
弃
弄
弇
弋
式
弓
弔
引
弗
弘
弜
弟
弥
弦
弱
張
強
强
彊
彌
彎
彐
彑
当
彔
录
彖
彗
彡
形
彥
彦
彧
彭
彳
役
彼
往
待
律
徒
得
徙
從
復
微
徵
心
忄
必
忌
忍
志
忝
忠
忩
快
念
忽
忿
思
怠
急
怱
恆
恒
恩
恭
息
悉
患
悤
悲
悶
惠
惡
惢
愁
愈
意
愛
感
慈
慧
慮
憂
憲
應
戀
戈
戉
戊
戋
戌
戍
戎
成
我
戒
戔
或
戚
戠
戢
截
戲
戶
户
戸
戹
戼
戾
房
所
扁
扇
手
扌
才
打
托
执
承
折
拉
拜
拿
掌
推
提
摩
支
攴
攵
收
攸
改
放
政
敄
敏
敕
敖
敗
敝
敞
敢
散
敦
敫
敬
数
敷
數
斂
文
斉
斊
斗
斤
斥
斩
斬
斯
新
方
於
施
斿
旁
旋
族
无
旡
既
旣
日
旦
旧
旨
早
旬
旱
旲
时
旾
昆
昇
昌
昍
明
昏
易
昔
昗
昜
星
春
昬
是
昱
昴
昷
時
晃
晋
晏
普
景
晶
智
暑
暴
曇
曩
曰
曲
曳
更
曷
書
曹
曼
曾
替
最
朁
會
月
有
朋
服
朔
朕
朗
望
朝
木
朩
未
末
本
札
朮
术
朱
朵
朶
朿
杀
杏
杜
束
条
来
東
杲
杳
松
析
林
枚
果
枝
枲
枼
某
柔
查
柬
柰
柴
栗
桀
桑
桼
梁
條
梟
梨
棘
棠
棥
森
楚
業
楽
榮
樂
樊
欠
次
欣
欮
欲
欶
欽
款
歆
歇
歛
止
正
此
步
武
歨
歪
歮
歯
歰
歲
歴
歷
歸
歹
歺
死
殳
段
殷
殸
殹
殺
殻
殿
毋
毌
母
每
毒
比
毕
毚
毛
毳
氏
氐
民
气
氣
水
氵
氶
氷
永
氺
氾
汁
求
汉
汝
汞
江
沃
沓
沙
沝
泉
法
波
泣
泥
泰
洛
洪
活
派
流
浦
浪
浮
海
淡
淮
清
渚
渠
港
湯
滿
漸
灣
火
灬
灭
灰
灵
灷
炅
炎
炏
炗
炙
炭
為
烈
烏
烝
焉
無
焦
焱
然
煞
熊
熏
燕
營
燮
爪
爫
爭
爯
爰
爱
爲
爵
父
爻
爽
爾
爿
片
牙
牚
牛
牜
牟
牢
牧
牪
牽
犀
犬
犭
犮
狂
狄
狊
独
狺
猋
猒
猪
献
獻
玄
率
玉
王
玟
玨
珎
班
琴
瑟
瑩
瓜
瓦
甘
甚
生
産
用
甫
甬
田
由
甲
申
电
甶
男
甸
甹
画
甾
畀
界
畏
畐
留
畜
畟
畢
畧
畨
番
畫
異
畱
當
畺
畾
疊
疋
疌
疑
疒
疾
癶
癸
癹
登
發
白
百
皀
皃
的
皆
皇
皋
皐
皕
皮
皷
皿
盃
盆
盇
盈
益
盍
盎
监
盒
盖
盛
盡
監
盤
盧
目
直
相
盾
省
眇
眉
看
眔
眞
真
眷
眼
眾
着
睘
睪
睿
瞏
瞢
瞿
矍
矛
矞
矢
矣
知
矦
短
石
破
碎
磊
磨
示
礻
礼
社
神
祟
票
祭
禀
禁
福
禸
禹
禺
离
禽
禾
禿
秀
秃
秉
秋
科
秝
秦
移
稟
穀
穌
穴
究
穹
空
穿
突
窄
窒
立
竒
竜
竝
竟
章
童
竹
笑
笠
第
筆
等
答
箕
算
箴
節
篤
篭
米
粉
粛
粟
粤
粦
粲
糞
糸
糹
系
約
納
素
索
紫
累
細
絜
絫
絲
維
綿
縣
繇
纍
纟
缶
网
罒
罔
罕
罗
罙
罡
罢
罪
署
罷
羅
羊
羌
羍
美
羔
羕
羗
羞
羡
羣
群
義
羲
羸
羽
翁
翏
習
翕
翟
翠
翼
老
耂
考
者
耆
而
耎
耑
耒
耳
耴
耶
耷
聂
聊
聖
聚
聶
聿
肀
肃
肅
肉
肖
肙
肥
肩
肯
育
肴
胃
背
胡
胥
能
脊
脩
膚
臣
臤
臧
自
臬
臭
臯
臱
至
致
臺
臼
臽
臾
臿
舀
舂
舄
與
興
舉
舌
舍
舛
舜
舞
舟
般
艮
良
色
艸
艹
艾
芒
芔
芬
芮
花
芳
芺
芻
苔
苗
苟
若
苦
英
茄
茶
茸
荅
草
荒
荣
荼
莆
莧
莫
莽
菆
菊
菐
華
萬
落
葉
著
葛
董
葵
蒙
蒦
蒼
蓋
蓬
蓺
蔑
蔡
蕉
蕭
薄
薛
薦
薰
藍
藏
藥
蘭
虍
虎
虐
虒
虔
處
虖
虗
虘
虚
虛
虜
虞
虫
虽
蚤
蚩
蜀
蜜
蟲
蠡
血
行
衍
衛
衣
衤
表
衫
衮
衰
袁
袞
褭
褱
襄
襾
西
覀
要
覃
見
規
覓
覧
親
覽
见
角
解
言
訁
訇
計
詹
語
誩
諸
讠
谷
豆
豈
豊
豐
豕
豖
豙
象
豦
豩
豪
豸
貇
貝
貞
貟
負
貢
貧
貪
貫
責
貳
貴
買
費
賁
資
賈
賏
賓
賔
賛
賞
賢
賣
質
賴
贊
贝
贡
责
贯
贲
贵
赖
赞
赤
赦
走
越
足
路
蹇
身
躬
車
軍
軎
軟
輦
车
辛
辜
辟
辥
辰
辱
農
辵
辶
边
达
过
近
连
迷
追
退
送
逆
逐
通
速
造
逢
連
逮
進
遀
遂
過
道
達
遣
適
遷
遺
邊
邑
邕
那
邦
邪
郎
部
郭
都
鄉
酉
酋
配
酓
釆
采
里
重
野
量
金
釒
錄
錢
钅
長
镸
长
門
閃
閉
開
閏
閑
閒
間
閔
閵
閻
闌
门
间
闷
阑
阜
阝
阿
降
陳
隆
隊
隋
隡
隨
隱
隶
隹
隺
隻
隼
隽
难
雀
雁
集
雈
雋
雍
雐
雔
雙
雚
雜
雝
離
難
雨
雩
雪
雲
零
雷
需
霍
霜
霝
霞
霸
靈
靑
青
非
靡
面
靣
革
韋
韓
韦
韭
韯
韱
音
頁
頃
項
須
頗
頡
頻
顛
页
風
风
飛
飞
食
飠
養
饣
首
香
馬
馮
駦
马
骨
高
髟
鬥
鬯
鬲
鬼
魚
魯
鮭
鮮
鱼
鲁
鳥
鳳
鸟
鹵
鹿
麃
麗
麥
麦
麻
黃
黄
黍
黎
黑
黒
黨
黹
黽
黾
鼎
鼓
鼠
鼻
齊
齋
齐
齒
齿
龍
龙
龜
龟
龠
龰
龱
龴
龵
龶
龷
龸
龹
ꥈ
ꦂ
ꦠ
ꦢ
ꦤ
ꦩ
ꦱ
ꦶ
ꦸ
ꦼ
꧀
者
艹
﻿
（
）
？
�
🌠
🌱
🍯
𠀁
𠀃
𠀆
𠀉
𠀎
𠀐
𠁁
𠁣
𠂆
𠂇
𠂈
𠂉
𠂊
𠂋
𠂎
𠂒
𠂔
𠂛
𠂡
𠂢
𠂤
𠂬
𠂭
𠂹
𠃊
𠃋
𠃌
𠃍
𠃎
𠃑
𠃓
𠃔
𠃜
𠄌
𠄎
𠄠
𠄢
𠆢
𠆥
𠇍
𠈌
𠌵
𠓜
𠔉
𠔥
𠔼
𠔽
𠔿
𠕀
𠕁
𠕋
𠘧
𠘨
𠙻
𠙼
𠚏
𠚒
𠚤
𠚪
𠣏
𠤎
𠤕
𠥓
𠦄
𠦑
𠦝
𠧒
𠧗
𠧪
𠩺
𠪚
𠫓
𠫔
𠫤
𠬛
𠬝
𠬞
𠬢
𠬤
𠬶
𠮛
𠮦
𠮷
𠯑
𠱠
𠳮
𠷎
𡈼
𡉀
𡉵
𡌥
𡍮
𡏳
𡕒
𡕩
𡕰
𡖅
𡗗
𡗜
𡘆
𡘤
𡧱
𡨄
𡩧
𡬠
𡭽
𡰣
𡰥
𡰪
𡰯
𡰱
𡷈
𡸁
𡿨
𡿩
𡿪
𡿺
𢀖
𢀛
𢀩
𢁙
𢆉
𢆰
𢆶
𢇁
𢇇
𢉖
𢌬
𢌿
𢏚
𢑑
𢑚
𢖻
𢙣
𢛳
𢦏
𢦒
𢧵
𢼄
𢾕
𣁋
𣄼
𣅀
𣅽
𣍘
𣎳
𣎵
𣏋
𣏼
𣗥
𣥂
𣥖
𣦵
𣦼
𣧄
𣪊
𣪠
𣬉
𣳾
𣶒
𤇾
𤊽
𤐫
𤓰
𤔔
𤕨
𤣩
𤰇
𤰔
𤰞
𤴓
𤴔
𤽄
𥁑
𥁕
𥃦
𥃩
𥃭
𥇡
𥑟
𥘅
𥘈
𥝢
𥫗
𥱡
𦈢
𦉪
𦉬
𦉼
𦍌
𦍒
𦎧
𦐇
𦓔
𦔮
𦘒
𦙃
𦚏
𦣝
𦣞
𦣻
𦥑
𦥔
𦥯
𦨉
𦭝
𦰩
𧆞
𧈧
𧘇
𧰨
𧴪
𧴮
𧵩
𧾷
𨸏
𨾴
𩙿
𩠐
𩫏
𩵋
𪉷
𪜀
𪟽
𪠲
𪩲
𫇦
𫔭
𫜸
𫝀
𫠣
𫠩
𫢉
𫥞
𫩏
𫩠
𫪡
𫲽
𫶧
𬀷
𬐘
𬗌
𬙙
𬛸
𬜯
𬟩
𬯁
𬴘
𬺻
𬼉
𬼖
𭀰
𭁈
𭁨
𭅰
𭑈
𭕄
𭗼
𭤨
𭥫
𭻾
𮅕
𮊿
𮍌
𮍏
𮓗
𮥼
𮧮
廾
𰀁
𰀄
𰀈
𰀉
𰀕
𰀠
𰀡
𰀢
𰀪
𰁜
𰃮
𰆊
𰆘
𰋙
𰕎
𰢴
𰧭
𰯲
00--
129--
137--
138--
141--
153--
154--
155--
156--
159--
160--
162--
163--
164--
215--
220--
225--
226--
228--
243--
246--
247--
248--
249--
253--
257--
264--
275--
283--
284--
285--
286--
291--
295--
297--
299--
310--
312--
315--
316--
32--
321--
322--
329--
337--
338--
34--
340--
347--
35--
350--
354--
355--
356--
357--
359--
36--
360--
363--
37--
39--
41--
42--
50--
51--
52--
53--
54--
55--
56--
57--
58--
59--
60--
61--
62--
63--
64--
65--
66--
67--
68--
69--
70--
71--
72--
73--
74--
75--
76--
77--
78--
79--
80--
81--
82--
83--
84--
85--
86--
87--
88--
89--
90--
91--
95--
96--
97--
978--
98--
99--
aa--
ab--
aber--
abys--
ac--
acan--
acantho--
acce--
acco--
achr--
acro--
act--
acum--
acut--
ad--
ada--
adi--
ado--
adve--
ae--
aego--
aegy--
aene--
aenigm--
aequ--
aero--
aethi--
af--
afgh--
afro--
ag--
agra--
agri--
agro--
ah--
ai--
air--
aj--
ak--
aki--
akom--
aku--
al--
alam--
albi--
albo--
albos--
albu--
alge--
algo--
ali--
all--
alm--
almar--
alpi--
alte--
alti--
am--
amar--
ambl--
ami--
amogh--
amph--
amphi--
ampl--
ampli--
an--
anac--
anat--
ancy--
and--
ang--
angusti--
ani--
aniso--
anne--
annu--
anom--
anop--
anoplo--
anta--
antar--
ante--
anten--
anthra--
anthro--
anti--
antr--
ao--
ap--
apa--
aph--
aphr--
api--
apice--
apici--
apo--
app--
approxi--
aq--
aqua--
aqui--
ar--
ara--
arbo--
arci--
arcu--
argu--
argy--
argyro--
ari--
art--
as--
asi--
asim--
asso--
astr--
at--
athe--
atri--
atro--
au--
audi--
aur--
aureo--
auri--
auricu--
aust--
austra--
austro--
auto--
av--
aw--
ax--
ay--
az--
ba--
baa--
bab--
baba--
bact--
bae--
baga--
bah--
bais--
bak--
baka--
bal--
bala--
ban--
band--
bang--
bao--
bapa--
bar--
baru--
basa--
basi--
basu--
bata--
bath--
batu--
bau--
baz--
be--
beat--
beau--
beck--
bega--
bela--
bell--
ben--
bera--
berb--
berc--
berd--
bere--
berf--
berg--
berh--
beri--
berj--
berk--
berl--
berm--
bern--
bero--
berp--
bers--
bert--
bess--
bezz--
bh--
bi--
bia--
bid--
bin--
bingk--
biom--
birm--
bisc--
bist--
bitubercu--
bk--
bl--
blan--
blepha--
bloo--
bo--
bohe--
boli--
bom--
bona--
boni--
bont--
born--
boro--
bp--
br--
brac--
brach--
brachy--
brev--
brevi--
bri--
bris--
brit--
bron--
broo--
brun--
brunne--
brunni--
bryo--
bu--
bubar--
budd--
bukh--
bulb--
bull--
bumi--
bundes--
burg--
burm--
bus--
but--
by--
ca--
caer--
caku--
calc--
cale--
cali--
call--
calli--
calo--
cam--
camer--
can--
cap--
capil--
carb--
carc--
card--
care--
carp--
carr--
cass--
cast--
cat--
cauc--
cava--
cave--
cavi--
ce--
cecidocha--
cele--
cent--
centro--
ceph--
cephal--
cera--
cerb--
cere--
cero--
ceyl--
ch--
cha--
chaet--
chaetople--
che--
chi--
chlo--
chloro--
cho--
chondro--
chry--
chryso--
chu--
ci--
cinc--
cine--
cing--
cinn--
circ--
circum--
cl--
clau--
clav--
clem--
cli--
clin--
clyp--
clyt--
cn--
co--
cocc--
cock--
coer--
cogn--
cole--
coll--
colo--
colu--
coly--
com--
communi--
compli--
conc--
cond--
conf--
cong--
conj--
conn--
cono--
conr--
cons--
consti--
cont--
conti--
conu--
conv--
copt--
coqu--
cora--
cord--
core--
corn--
corp--
corr--
corti--
cost--
coun--
cr--
cras--
craspe--
crassi--
crea--
cren--
cres--
cret--
cri--
cribr--
cribri--
cris--
cruc--
cryp--
crypto--
cten--
cu--
curt--
curti--
curv--
curvi--
cusp--
cy--
cyan--
cycl--
cycn--
cyli--
cylind--
cyrt--
da--
dae--
dal--
dam--
dan--
darm--
darw--
de--
deca--
dece--
deci--
decu--
defe--
defi--
dek--
del--
delec--
demo--
den--
dendo--
dendro--
dense--
depdi--
der--
des--
desti--
dete--
dexi--
dh--
di--
dia--
dibu--
dice--
dick--
didi--
die--
diff--
dig--
diga--
digu--
diha--
dihu--
dii--
diju--
dika--
dike--
diku--
dilu--
dimo--
din--
dipa--
dipe--
diper--
dipl--
diploc--
dire--
diru--
disa--
disam--
disc--
dise--
disi--
diso--
disp--
diss--
dist--
disti--
distin--
dita--
dite--
diti--
ditu--
divi--
dj--
do--
docu--
doli--
dolicho--
dolo--
don--
dorc--
dory--
dr--
drac--
du--
dua--
dubi--
duo--
dupli--
dw--
dy--
dz--
e--
ea--
eb--
ebur--
ec--
ech--
echin--
ectop--
ed--
eden--
ef--
eg--
eh--
ei--
ek--
eks--
el--
elec--
eleg--
elep--
elgo--
elli--
elon--
em--
en--
encr--
end--
eng--
enge--
eo--
ep--
ephi--
epi--
epil--
epim--
epipe--
eq--
er--
erem--
eri--
erra--
eryt--
erythr--
erythroc--
es--
este--
et--
eti--
eu--
eucu--
eulo--
eume--
eupl--
euro--
eury--
eust--
ev--
eva--
evolut--
ex--
exca--
exce--
expe--
extr--
fa--
fact--
fair--
falc--
falk--
fals--
fant--
far--
fasc--
fasci--
fascicu--
fe--
feat--
feder--
femo--
fene--
ferg--
fern--
ferr--
fest--
fi--
fict--
fili--
fini--
fisi--
fiss--
fist--
fl--
flabel--
flac--
flam--
flav--
flavi--
flavica--
flavis--
flavoc--
flavof--
flavomac--
flavos--
flavoscutel--
flavovit--
flex--
flor--
flu--
fo--
for--
formo--
fove--
fr--
frag--
fram--
fran--
frau--
fred--
fri--
fris--
fu--
fulg--
fulig--
fulv--
fulvi--
fumi--
furc--
fusc--
fusci--
fusi--
g--
ga--
gali--
gall--
gan--
gard--
gaur--
gaz--
ge--
gen--
genicu--
geog--
geom--
geop--
geos--
gera--
germ--
gh--
gi--
gia--
gibb--
gil--
gim--
gin--
gir--
gl--
glab--
glob--
glyp--
glypto--
gm--
gn--
gnat--
go--
gond--
goog--
googol--
gorb--
goro--
gr--
grac--
gracil--
gran--
grap--
grav--
greg--
grif--
gris--
griseo--
grosse--
gu--
gua--
guang--
guia--
gutt--
gy--
gymn--
gymnoc--
gymnop--
h--
ha--
habr--
had--
hae--
hak--
hal--
ham--
han--
hapl--
hard--
harm--
hart--
has--
haya--
haz--
he--
hebe--
hein--
heli--
hell--
helo--
helv--
hemi--
hemo--
hend--
hern--
hesp--
hesper--
hesy--
hexa--
hexo--
hi--
hia--
hibe--
hid--
hidro--
hierog--
higg--
high--
hil--
him--
hin--
hings--
hiper--
hipo--
hippop--
hir--
hirsu--
hirti--
his--
histo--
hit--
hk--
ho--
hoff--
holc--
holl--
holo--
homa--
homo--
hono--
hova--
hu--
hulu--
hum--
hung--
hy--
hybr--
hydro--
hype--
hypo--
hyst--
i--
ia--
ibe--
ibu--
ich--
ict--
id--
if--
ign--
ike--
ikh--
il--
ili--
illi--
illu--
illust--
ilus--
im--
imbe--
imi--
impro--
in--
inaequ--
inc--
inde--
indi--
indo--
indu--
inf--
ini--
inno--
inop--
inqu--
insc--
insi--
inso--
insp--
inst--
insu--
int--
inter--
inve--
invent--
investi--
ir--
iri--
irro--
irw--
is--
isa--
isch--
iso--
isti--
it--
iv--
iyy--
ja--
jam--
jan--
jaya--
jaz--
je--
ji--
jin--
jo--
jp--
ju--
juve--
ka--
kaa--
kab--
kaba--
kabar--
kaitan--
kaka--
kake--
kala--
kale--
kali--
kalo--
kan--
kapa--
kapi--
kara--
kari--
kart--
karu--
kasa--
kata--
kati--
kau--
kawarga--
kawe--
kayu--
kaz--
ke--
kebu--
kec--
kedu--
kei--
kele--
kemen--
kemu--
kend--
keper--
keri--
kert--
kete--
kh--
ki--
kies--
kilo--
kim--
kl--
kli--
kn--
ko--
kole--
kom--
kompi--
kond--
konf--
kons--
konsti--
kont--
konv--
kota--
koz--
kp--
kr--
kri--
ks--
ku--
kuri--
kus--
kw--
ky--
la--
lacc--
lace--
lacu--
laet--
laev--
laevi--
lam--
lamel--
lan--
lanceo--
langk--
lapp--
lat--
lati--
laur--
le--
leg--
lei--
leiod--
lemb--
leng--
leon--
lepi--
lepido--
lept--
leptor--
les--
leuc--
leucop--
leucot--
lew--
lh--
li--
libe--
lili--
lim--
limno--
lind--
ling--
linn--
lins--
liop--
liss--
lith--
lito--
litu--
lk--
ll--
lo--
long--
longi--
lont--
loph--
lp--
lu--
luci--
luct--
lunu--
lute--
lutei--
luz--
ly--
ma--
maa--
mac--
macro--
madr--
magn--
mah--
maha--
mahe--
mai--
mak--
mala--
male--
mali--
malt--
mama--
maman--
mamb--
mami--
mamin--
mamm--
mamp--
mampaj--
mampar--
mamu--
man--
mana--
manem--
mang--
manga--
mangaki--
mange--
mangg--
manggam--
mangh--
mangu--
mani--
manum--
many--
manyam--
manyub--
manyum--
maor--
map--
mar--
marg--
marmo--
mas--
mathe--
mats--
matt--
maun--
maur--
mb--
mc--
me--
meco--
mecy--
medi--
medioc--
mega--
megis--
mego--
mei--
mela--
melan--
melanocep--
mele--
meli--
melo--
memb--
meme--
memp--
memper--
men--
meng--
menga--
mengg--
mengh--
mengu--
meningkat--
menya--
menye--
menyu--
merc--
mere--
meri--
meso--
mess--
meta--
metall--
mexi--
mi--
micr--
microc--
microd--
microp--
micros--
microt--
mikro--
mil--
milit--
mime--
mimo--
min--
minutis--
miri--
miss--
mit--
mm--
mn--
mo--
moec--
mojo--
molo--
molu--
mona--
mono--
mons--
mont--
mora--
mori--
moti--
mour--
move--
moz--
mp--
mr--
mu--
mucr--
muha--
multi--
muly--
musc--
must--
muz--
my--
myst--
na--
nahd--
nan--
nanti--
nas--
nat--
navi--
naz--
nd--
ne--
nebr--
neder--
nego--
nemo--
neoa--
neob--
neoc--
neocale--
neol--
neolimno--
neom--
neop--
neos--
neot--
nepent--
nesi--
neur--
neuroblas--
neva--
new--
ng--
ni--
nico--
nigr--
nigri--
nigroc--
nigrof--
nigrol--
nigromac--
nigrop--
nigros--
nigroti--
nipp--
niti--
nitidi--
nive--
nj--
no--
noct--
nodu--
non--
not--
nova--
ns--
nu--
nudi--
numi--
nur--
ny--
nya--
nyct--
oa--
ob--
obli--
obliqu--
obsc--
obso--
oc--
occi--
occu--
ocel--
ochr--
ochreo--
ocne--
octa--
octo--
ocu--
od--
odon--
oe--
oedi--
of--
og--
oh--
oi--
oj--
ok--
okin--
ol--
oligo--
oliv--
olym--
om--
on--
oo--
op--
oph--
or--
orbicu--
oreg--
oreo--
ori--
orig--
orth--
os--
oscu--
ot--
oto--
ou--
ov--
over--
ow--
ox--
oxyl--
oxyt--
oz--
pa--
pach--
pai--
pak--
pala--
pale--
pali--
pall--
pallid--
pallidi--
palm--
palpi--
paman--
pamb--
pambi--
pame--
pami--
pamo--
pamp--
pamu--
pan--
panam--
panan--
panang--
panar--
panca--
panda--
panem--
pang--
panga--
pangara--
pange--
pangg--
pangh--
pangu--
panya--
panyabu--
panyamp--
panyara--
panye--
panyeleng--
panyu--
par--
para--
pare--
park--
parvi--
pas--
pasa--
pata--
patr--
patri--
patt--
patua--
pauc--
pb--
pd--
pe--
pect--
pedi--
pedo--
pele--
pell--
pelo--
pemb--
pember--
peme--
pena--
penc--
pend--
pene--
peng--
pengun--
peni--
penici--
penins--
penj--
penn--
pent--
penu--
peny--
per--
peri--
petr--
pexo--
pg--
ph--
phac--
phae--
phaeno--
phan--
phau--
pheidoli--
phil--
phoe--
phyl--
phyllo--
phym--
phys--
physi--
phyt--
pi--
pict--
pili--
pils--
pin--
pl--
plac--
plag--
plagi--
plan--
plas--
plat--
platyp--
play--
plesi--
pleu--
pli--
plocam--
plot--
plum--
plur--
pm--
pn--
po--
podo--
poec--
poecil--
poes--
pogono--
poli--
poll--
poly--
polyne--
pon--
pop--
post--
pota--
pp--
pr--
pra--
pre--
pri--
prim--
pris--
pro--
prole--
prost--
proto--
ps--
psammo--
pseu--
pseuda--
pseudafr--
pseude--
pseudo--
psilo--
psyc--
pt--
pter--
pu--
pube--
publ--
pulc--
pull--
pulv--
pun--
punct--
purp--
purw--
pus--
pustu--
py--
pygm--
pyre--
q--
qa--
qu--
quad--
quadri--
quadris--
quer--
qui--
quinqu--
ra--
radio--
rail--
raja--
ram--
ran--
ras--
ray--
re--
rect--
red--
refe--
refl--
reg--
regu--
rei--
rel--
reni--
repl--
repos--
repr--
repu--
res--
resis--
reti--
retr--
rev--
rez--
rh--
rhacho--
rheo--
rhin--
rhiz--
rhod--
rhopal--
rhyn--
ri--
rich--
ring--
rint--
ris--
riz--
ro--
rodri--
roh--
roos--
rosa--
rost--
rs--
ru--
rube--
rubi--
rubr--
rubri--
rufi--
rufo--
run--
rw--
ry--
sa--
saga--
sah--
sai--
saka--
sakh--
sakuli--
sali--
salt--
salu--
sam--
san--
sar--
sari--
sarum--
saty--
saw--
saxi--
sc--
scep--
sch--
scha--
sche--
schl--
schm--
schn--
scho--
schu--
scia--
scien--
scle--
scol--
scop--
scot--
scri--
scul--
scut--
se--
sea--
seba--
secu--
sedi--
segi--
seku--
sel--
semb--
semi--
semp--
sena--
seng--
seno--
sens--
sent--
sept--
septem--
sepu--
serr--
sertif--
serv--
sess--
set--
seti--
sexmac--
sh--
sha--
sher--
shi--
si--
sigm--
sign--
sili--
silves--
sim--
simil--
sina--
sinc--
sind--
sine--
sing--
sino--
sint--
sinu--
siphono--
sir--
sisy--
sj--
sjaf--
sk--
sl--
sm--
sn--
so--
soci--
soeb--
soed--
soeg--
soek--
soem--
soet--
soft--
sole--
soli--
solu--
sord--
sp--
spat--
spec--
spek--
sphae--
spi--
spicu--
spil--
spin--
spini--
spir--
sple--
spor--
squa--
sr--
sri--
st--
ste--
stef--
stel--
stelli--
stem--
sten--
stenos--
step--
ster--
sterno--
stew--
sti--
stict--
stigm--
stim--
stom--
stra--
stre--
stri--
stria--
strio--
stro--
strong--
stru--
styl--
su--
sub--
succ--
suff--
suka--
sulc--
sulci--
sulf--
sulp--
sup--
super--
sur--
susp--
sv--
sw--
sy--
syah--
sylv--
symp--
syna--
synd--
ta--
taba--
tach--
tae--
tai--
tak--
tala--
talu--
tamb--
tamp--
tan--
tang--
tapa--
tapro--
tar--
tata--
tau--
te--
tech--
tele--
telo--
temb--
temp--
temu--
ten--
teneb--
tenui--
teph--
tera--
terb--
terc--
terd--
tere--
terg--
terh--
terk--
terl--
term--
termito--
tern--
tero--
terp--
terr--
ters--
tert--
teru--
tes--
tessel--
teth--
tetr--
tetrao--
text--
th--
tha--
the--
therm--
thi--
thin--
thor--
thre--
thur--
ti--
tim--
ting--
tj--
tm--
tn--
to--
tol--
tom--
ton--
torq--
tort--
toxi--
toxo--
tr--
trac--
trachy--
trans--
trea--
tri--
tricho--
trop--
trot--
trun--
tryp--
ts--
tsi--
tu--
tua--
tube--
tuberc--
tubi--
tubu--
tudua--
tumb--
tumi--
tun--
turb--
turg--
turkes--
tw--
ty--
tz--
ub--
uc--
ud--
ug--
uh--
uj--
uk--
ul--
ultr--
um--
umbr--
un--
und--
under--
unguicu--
uni--
up--
ur--
us--
ut--
uy--
va--
vacc--
vail--
vale--
valp--
van--
var--
vari--
vasi--
ve--
velu--
vene--
vent--
verb--
vere--
verm--
vermicu--
vern--
verr--
vers--
verti--
vesp--
vete--
vi--
vig--
viol--
virg--
viri--
viridi--
viti--
vitt--
vitti--
vl--
vo--
vol--
vu--
w--
wa--
wal--
wan--
war--
was--
we--
west--
wh--
wi--
wieden--
wiki--
wil--
win--
wir--
wis--
wit--
wo--
wr--
wu--
wy--
xa--
xant--
xantho--
xe--
xeno--
xi--
xx--
xy--
xylo--
ya--
yaz--
ye--
yi--
yo--
yp--
yu--
yun--
z--
zaf--
zah--
zai--
zam--
zav--
ze--
zea--
zeb--
zel--
zer--
zet--
zoo--
zor--
zot--
zu--
zulk--
zygi--
đ--
ا--
ال--
ب--
--0
--00
--01
--02
--03
--04
--05
--06
--07
--08
--09
--1
--10
--11
--12
--13
--14
--15
--16
--17
--18
--19
--2
--20
--21
--22
--23
--24
--25
--26
--27
--28
--29
--3
--30
--31
--32
--33
--34
--342
--35
--36
--37
--38
--39
--4
--40
--41
--42
--43
--44
--45
--46
--47
--48
--49
--5
--50
--51
--52
--53
--54
--55
--56
--57
--58
--59
--6
--60
--61
--62
--63
--64
--65
--66
--67
--68
--69
--7
--70
--71
--72
--73
--74
--75
--76
--77
--78
--79
--8
--80
--81
--82
--83
--84
--85
--86
--87
--88
--89
--9
--90
--91
--92
--93
--94
--95
--96
--97
--98
--99
--a
--aan
--aar
--aat
--ab
--aba
--able
--ac
--aca
--acea
--aceae
--aceus
--achina
--aci
--acies
--acus
--acy
--ad
--adaan
--ae
--aea
--ael
--aensis
--af
--afi
--ag
--aga
--agi
--ago
--ah
--aha
--ahan
--ahkan
--ahu
--ai
--aik
--ain
--aja
--ak
--akan
--aki
--akkan
--al
--ald
--alia
--alis
--alo
--als
--am
--ama
--ami
--amia
--amis
--amyia
--an
--ana
--anan
--andriaria
--ane
--anensis
--ang
--angan
--ani
--anni
--annia
--annya
--annyo
--ano
--ans
--ansi
--ant
--anus
--ao
--ap
--ape
--aq
--ar
--ara
--aran
--ard
--ardi
--ari
--aria
--aris
--aro
--arsis
--ary
--as
--ascia
--asciata
--asi
--asis
--aspis
--aster
--astix
--at
--ata
--atan
--ate
--ated
--ates
--ati
--ation
--ato
--ator
--attus
--atum
--atur
--atus
--au
--ava
--ax
--ay
--ayo
--b
--ba
--bah
--bai
--ban
--bat
--be
--beh
--bek
--bel
--belli
--ber
--berg
--bes
--bet
--bi
--bia
--bihan
--bik
--bil
--bilis
--bis
--ble
--bo
--boh
--bok
--bol
--bra
--bu
--bua
--buih
--buik
--buk
--bul
--bun
--bur
--burg
--by
--c
--ca
--cae
--cak
--cal
--cale
--calis
--cana
--cang
--cans
--cantha
--car
--carkan
--cas
--catus
--cayaan
--cca
--cco
--ce
--cea
--ceae
--celis
--cella
--cens
--censis
--ceps
--cer
--cera
--cerus
--ces
--ceus
--ch
--chi
--cht
--ci
--cia
--ciae
--cian
--ciata
--ciatus
--cies
--cil
--cing
--cinus
--cis
--ck
--cki
--cle
--cles
--co
--coi
--cok
--cola
--collis
--con
--cornis
--cs
--ct
--cta
--ctata
--ctatus
--ctes
--ctic
--cts
--ctum
--ctus
--cu
--cula
--culus
--cum
--cus
--cy
--cyna
--d
--da
--dae
--dah
--dali
--daptasi
--dar
--dau
--dax
--ddin
--de
--dea
--dei
--del
--den
--der
--des
--deta
--di
--diak
--dii
--dik
--dikbud
--din
--dion
--dipes
--dir
--dis
--dita
--dium
--dius
--djo
--dkan
--do
--dok
--dokan
--dom
--dra
--ds
--dt
--dti
--du
--ducta
--duk
--dum
--dun
--dung
--dungan
--dur
--dus
--dy
--dytes
--e
--ea
--eae
--ean
--eana
--ear
--eata
--eatus
--eb
--eba
--ebrosa
--ec
--eces
--ech
--ecta
--ectus
--ed
--eda
--edes
--edo
--ee
--eer
--ef
--eformis
--egara
--eh
--ei
--eia
--ein
--eira
--eja
--ek
--el
--ela
--elas
--elea
--eli
--elia
--elis
--ell
--ella
--elli
--ellus
--elus
--em
--ema
--emah
--eme
--emen
--emia
--emis
--emur
--emus
--en
--ena
--ene
--eng
--eni
--enia
--enium
--ens
--ense
--ensi
--ensis
--ensitas
--ent
--enta
--ental
--entosa
--ents
--entus
--enus
--eo
--eola
--ep
--eptus
--er
--era
--ere
--erg
--ergi
--eri
--eria
--erma
--ern
--eros
--ers
--ert
--ertus
--erum
--erus
--ery
--es
--esa
--escens
--ese
--esi
--esia
--esis
--eso
--ess
--essa
--est
--esta
--et
--eta
--eter
--etes
--eth
--eti
--etic
--etik
--etis
--etosa
--ett
--etus
--eum
--eur
--eura
--eus
--ev
--eva
--evi
--ewa
--ex
--exa
--exia
--ey
--eyi
--ez
--eza
--ezi
--f
--fa
--fer
--fera
--ferus
--fex
--fi
--fida
--fikasi
--froneta
--frons
--ft
--ful
--g
--ga
--gabdian
--gae
--gah
--gai
--gajar
--gak
--gal
--galir
--galo
--galompokan
--gamudi
--gan
--gang
--gar
--gat
--ge
--gei
--gek
--gensis
--ger
--gera
--geri
--gga
--ggam
--ggar
--ggaroan
--ggih
--ggu
--ggung
--gh
--gi
--gia
--giah
--giang
--gih
--ginata
--ging
--gka
--gkai
--gkan
--gkat
--gke
--gkok
--gku
--gkuak
--gkudu
--gkuih
--gkuik
--glenes
--gma
--gn
--gna
--gnyo
--go
--gon
--gona
--gra
--grafi
--gs
--gsa
--gsi
--gso
--gu
--gun
--gunaan
--gung
--gungsi
--gunjungi
--gur
--gus
--gy
--h
--ha
--haga
--hah
--haik
--han
--hana
--hannyo
--har
--hara
--haro
--haroan
--hat
--he
--hea
--hek
--hela
--helea
--her
--hes
--hi
--hia
--hica
--hii
--hila
--hilus
--hina
--hing
--hirus
--hkan
--hleps
--hnyo
--ho
--hora
--horax
--horus
--hra
--hrix
--hroma
--hron
--http
--hu
--hua
--hus
--hy
--hysis
--i
--ia
--iaan
--iae
--iah
--iak
--iakan
--ial
--ialis
--ian
--iana
--iang
--ianus
--iar
--ias
--iasi
--iata
--iatus
--ib
--iba
--ibat
--ic
--ica
--icae
--ical
--ice
--iceps
--ich
--ici
--ico
--icola
--icollis
--icornis
--ics
--icta
--ictus
--icula
--icum
--icus
--id
--ida
--idae
--ides
--idi
--idia
--idik
--idis
--idium
--idius
--idus
--ie
--iella
--ien
--iens
--iensis
--ier
--ieri
--ies
--if
--ifacies
--ifer
--ifera
--iformis
--ifrons
--ig
--iga
--igenia
--iger
--igera
--igh
--igi
--igma
--ign
--ignata
--ignatus
--igra
--ih
--ii
--ik
--iki
--iknyo
--il
--ila
--ilah
--ilan
--ile
--ili
--ilis
--iliun
--illa
--illus
--ilobus
--ilus
--im
--ima
--imo
--imus
--imyia
--in
--ina
--inae
--inan
--inata
--ine
--inea
--inensis
--ing
--ingan
--inggi
--ingi
--ings
--ini
--ino
--inosa
--ins
--inus
--inyo
--io
--ioi
--iola
--ion
--ions
--iops
--iopsis
--ior
--ious
--ip
--ipennis
--ipes
--iphya
--ir
--ira
--iri
--iria
--iro
--is
--isasi
--iscus
--ish
--isi
--ism
--isme
--issa
--ist
--ista
--ister
--istyla
--it
--ita
--itan
--itarsis
--itas
--itata
--ites
--ithorax
--iti
--itik
--itis
--ity
--ium
--iun
--ius
--iva
--ive
--ivora
--ix
--iyah
--iyyah
--iz
--iza
--ization
--j
--ja
--jaga
--jah
--jahi
--jak
--jar
--jarah
--jen
--ji
--jia
--jo
--ju
--juk
--jut
--k
--ka
--kab
--kah
--kai
--kaik
--kak
--kal
--kam
--kaman
--kan
--kannyo
--kap
--kar
--kasi
--kat
--ke
--keh
--kek
--ken
--kensis
--ker
--kes
--ket
--kh
--khiri
--ki
--kia
--kih
--kii
--kik
--kin
--kir
--kis
--kit
--kkan
--knyo
--ko
--kok
--kon
--kota
--kovi
--ks
--ksekusi
--ksi
--ktek
--ktif
--ku
--kua
--kuan
--kuasi
--kuik
--kung
--kut
--ky
--l
--la
--lae
--lah
--lai
--lak
--lan
--lang
--lar
--lation
--lau
--laus
--ld
--ldi
--le
--lea
--leh
--lei
--lek
--len
--lensis
--lepis
--ler
--leri
--let
--letti
--ley
--leyi
--li
--lia
--liahan
--lica
--lih
--lii
--lik
--likan
--lin
--lina
--ling
--linus
--lis
--lisis
--lit
--litas
--lity
--liun
--lius
--lkan
--ll
--lla
--llae
--llah
--llata
--llatus
--lle
--llei
--llelus
--lles
--lli
--llis
--llo
--llum
--llus
--lma
--lo
--loba
--log
--logi
--logy
--lok
--lon
--lonia
--lopia
--lor
--lpis
--lpus
--ls
--lta
--lti
--lty
--lu
--luk
--lula
--lum
--lus
--ly
--lya
--lytus
--lı
--m
--ma
--mad
--mae
--mah
--mal
--man
--mani
--mas
--mat
--mau
--mba
--mbahan
--mbang
--mbangan
--mbo
--mbu
--mbyx
--me
--med
--men
--mensis
--mer
--mera
--merus
--mi
--mia
--mic
--micus
--mik
--mima
--mir
--mis
--mma
--mnophila
--mo
--mon
--mpa
--mpek
--mpok
--ms
--mu
--muk
--mun
--mur
--mura
--mus
--my
--mya
--myia
--myza
--n
--na
--naan
--nae
--nah
--nai
--nak
--nal
--nam
--nan
--nata
--nce
--nci
--ncong
--nctus
--ncuan
--ncus
--nd
--nda
--ndang
--ndi
--ndiang
--ndo
--ndra
--ndus
--ne
--nea
--ned
--nei
--nel
--nella
--nen
--nensis
--ner
--neri
--nes
--neura
--news
--ng
--nga
--ngan
--ngek
--ngen
--ngensis
--ngga
--nggu
--ngi
--ngka
--ngkan
--ngkap
--ngkuik
--ni
--nia
--nian
--niana
--nica
--nick
--nicus
--niella
--nih
--nii
--nik
--nipennis
--nis
--nisme
--nius
--nju
--nkan
--nna
--nne
--nnis
--nnyo
--no
--noi
--ns
--nsa
--nse
--nsi
--nsis
--nt
--nta
--ntaan
--ntah
--ntai
--ntak
--ntan
--ntara
--ntes
--ntha
--nti
--ntian
--ntis
--nto
--nts
--ntu
--ntuakan
--num
--nung
--nus
--ny
--nya
--nyi
--nyo
--o
--oa
--oae
--oan
--oba
--ock
--ocladius
--od
--oda
--odes
--odus
--odytes
--oe
--oek
--oel
--oensis
--of
--og
--ogaster
--ogi
--ogis
--ogon
--ogy
--oh
--ohelea
--oi
--oid
--oides
--ois
--ojo
--ok
--oka
--okan
--ol
--ola
--olata
--olia
--olik
--olo
--olog
--ologi
--ology
--olon
--olus
--om
--oma
--omma
--omo
--omorpha
--omyia
--omyza
--on
--ona
--onal
--onaris
--ond
--onensis
--ong
--ongkan
--oni
--onia
--onic
--onis
--ons
--onta
--onus
--onyo
--ood
--oon
--oona
--op
--opa
--opeza
--ophila
--opogon
--oporus
--ops
--opsis
--optera
--opterus
--opus
--or
--ora
--orasi
--orata
--oratus
--ord
--ore
--orensis
--ori
--oria
--oris
--ormis
--oro
--orpha
--ors
--orum
--orus
--ory
--os
--osa
--osi
--osia
--osoma
--ossa
--osterna
--osum
--osus
--ot
--ota
--otata
--otatus
--otes
--oti
--otus
--ous
--out
--ov
--ova
--ovi
--ow
--ox
--p
--pa
--pah
--pak
--pan
--pat
--pe
--ped
--peh
--peira
--pek
--pel
--pennis
--pensis
--pes
--pex
--peza
--pha
--phaga
--phantes
--phia
--phis
--phorus
--phus
--pi
--pia
--pik
--pina
--pinosa
--pis
--pkan
--ple
--plex
--po
--poda
--pogon
--por
--pora
--porus
--ps
--psis
--pt
--pta
--pto
--ptus
--pu
--puh
--puik
--pul
--pun
--pur
--pura
--pus
--put
--pyga
--pygus
--q
--qua
--quama
--que
--r
--ra
--rad
--rae
--rafi
--rah
--rai
--raik
--raja
--rak
--ral
--ralis
--ran
--rap
--rapha
--rat
--rax
--rd
--rdi
--rdo
--re
--rea
--reh
--rehan
--rei
--rek
--ren
--rens
--rensis
--ret
--reta
--reus
--rg
--rgi
--ri
--ria
--ricus
--rida
--rie
--rientasi
--rigi
--rii
--rik
--ril
--rima
--rimus
--rin
--rina
--ring
--rinus
--rir
--ris
--rita
--rium
--rius
--rix
--rkan
--rki
--rma
--rman
--rn
--rne
--rnis
--rno
--rnus
--ro
--roa
--roi
--rok
--ron
--rons
--ros
--rosoma
--rov
--rpha
--rphus
--rra
--rs
--rsa
--rt
--rta
--rti
--rto
--ru
--ruan
--rul
--rum
--rung
--rus
--ry
--ryi
--s
--sa
--saan
--sae
--sai
--sak
--salis
--san
--sar
--sari
--sasi
--sat
--sata
--sca
--scens
--sch
--sche
--sco
--scopus
--se
--sek
--sen
--sensis
--sentasi
--ser
--ses
--sh
--si
--sia
--sian
--sif
--sii
--sikan
--sil
--sima
--sin
--sina
--sinus
--sion
--sipasi
--sis
--sity
--sius
--skan
--skii
--sky
--skyi
--sm
--sme
--smia
--smian
--smus
--so
--sok
--sol
--soma
--son
--soni
--sonia
--sor
--spa
--spina
--spis
--ss
--ssa
--ssima
--sso
--ssus
--st
--sta
--stan
--ster
--stes
--stik
--sto
--stola
--stra
--sts
--stus
--styla
--su
--sud
--suik
--sul
--sum
--sus
--sy
--syah
--t
--ta
--taan
--tah
--tai
--taian
--tak
--takan
--tal
--tam
--tama
--tami
--tan
--tar
--taran
--tas
--tasan
--tasi
--tat
--tation
--tatus
--tau
--te
--tea
--ted
--tega
--teh
--tei
--tek
--tella
--ter
--tera
--teralis
--terna
--ternus
--terus
--teryx
--tes
--teur
--teus
--th
--tha
--thi
--thia
--thorax
--thrax
--thrix
--thus
--thy
--ti
--tia
--tiah
--tiak
--tian
--tib
--tic
--tica
--ticollis
--ticus
--tie
--ties
--tif
--tifera
--tifrons
--tigma
--tii
--tik
--tika
--til
--tilis
--tin
--tina
--ting
--tinus
--tion
--tions
--tiosa
--tir
--tis
--tius
--tivitas
--tkan
--tma
--tnyo
--to
--toi
--toides
--tok
--tokan
--ton
--tor
--tori
--torum
--tory
--tos
--tosa
--town
--tra
--trangalia
--trix
--tro
--tropesa
--ts
--tt
--tta
--tte
--tti
--ttus
--tu
--tua
--tuik
--tuk
--tul
--tula
--tum
--tur
--tura
--tus
--ty
--tyla
--tylus
--typa
--tzi
--u
--ua
--uaan
--uah
--uaia
--uak
--ual
--uan
--uaso
--ub
--uca
--ud
--uddin
--udi
--udin
--ue
--uel
--uen
--uensis
--ues
--ugo
--uh
--uhan
--ui
--uih
--uik
--uit
--uk
--uka
--ukan
--uko
--ukuan
--ul
--ula
--ulam
--uler
--uli
--ulicollis
--ulis
--ulus
--um
--un
--una
--unai
--unan
--une
--ung
--ungan
--ungi
--uo
--up
--ur
--ura
--uran
--urca
--ure
--urg
--uri
--uru
--uruah
--urus
--us
--usa
--usca
--usi
--ut
--uti
--utus
--uus
--ux
--uxi
--v
--va
--vae
--ve
--vi
--via
--vitas
--vo
--vora
--vus
--w
--wa
--wah
--wai
--waik
--wan
--wati
--we
--weh
--well
--west
--wi
--wigi
--wira
--wo
--x
--xa
--xantha
--xea
--xi
--xia
--xis
--y
--ya
--yaan
--yae
--yah
--yai
--yaik
--yam
--yan
--yana
--yanyi
--yar
--yat
--yataan
--yatoan
--ychus
--ye
--yga
--ygus
--yi
--yia
--yla
--ylata
--ylus
--yma
--yn
--yna
--yo
--yoan
--yoi
--yphora
--ypus
--yra
--yria
--ys
--ytes
--yu
--yuik
--yyah
--yza
--z
--za
--zae
--zal
--zan
--ze
--zi
--zia
--zii
--zo
--ı
--ا
--د
--ه
--ي
