!
"
#
##0
##1
##10
##11
##12
##13
##14
##15
##16
##17
##18
##19
##2
##20
##21
##22
##23
##24
##25
##26
##27
##28
##29
##3
##30
##31
##32
##33
##34
##35
##36
##37
##38
##39
##4
##40
##41
##42
##43
##44
##45
##46
##47
##48
##49
##5
##50
##51
##52
##53
##54
##55
##56
##57
##58
##59
##6
##60
##61
##62
##63
##64
##65
##66
##67
##68
##69
##7
##70
##71
##72
##73
##74
##75
##76
##77
##78
##79
##8
##80
##81
##82
##83
##84
##85
##86
##87
##88
##89
##9
##90
##91
##92
##93
##94
##95
##96
##97
##98
##99
%
&
'
(
)
*
+
,
-
.
/
0
000
01
02
04
06
07
08
1
10
100
11
12
1200
13
14
144
1492
15
150
1500
16
17
1770
1793
18
180
1800
1804
1808
1819
1821
1831
1851
1856
1861
1868
1869
1876
1878
1881
1883
1884
1885
1886
1889
1892
1896
1899
19
190
1900
1901
1906
1911
1912
1914
1917
1918
1919
1920
1921
1924
1926
1928
1929
1930
1931
1934
1935
1936
1937
1939
1940
1941
1943
1944
1945
1946
1947
1948
1949
1950
1951
1953
1954
1955
1957
1958
1959
1960
1961
1962
1963
1964
1965
1966
1967
1968
1969
197
1970
1971
1972
1973
1974
1975
1976
1977
1978
1979
1980
1981
1982
1983
1984
1985
1986
1987
1988
1989
1990
1991
1992
1993
1994
1995
1996
1997
1998
1999
2
20
200
2000
2001
2002
2003
2004
2005
2006
2007
2008
2009
201
2010
2011
2012
2013
2014
2015
2016
2017
2018
2019
2020
2021
2022
21
22
220
23
24
25
250
2500
26
27
270
28
29
3
30
300
31
312
33
35
350
355
36
4
40
400
42
43
44
446
45
450
48
494
5
50
500
503
504
524
540
550
6
60
600
612
64
655
66
688
7
70
700
752
8
800
9
90
953
978
:
;
=
>
?
@
_
a
abau
abba
abc
abestos
abkhazia
aboriginal
about
abus
act
actress
adalet
adam
adatta
administration
administrative
administresen
ae
afghanistan
africa
afrika
agensim
ai
aialan
aids
ailan
ailand
ailans
aires
ais
aislan
ajentina
ajetiv
akiolosi
akrotiri
al
alains
albenia
alfabet
alicante
aliyev
all
allen
alotau
also
amamas
amazon
ambum
amenia
america
american
amerika
amerikan
ami
an
ananit
and
andora
andorra
anglim
angola
animal
aninit
antap
anti
antropolosi
apated
aposel
applied
aprika
april
ar
arab
arabia
aragon
arais
arakain
arapela
arara
arawa
archive
are
area
arere
argentina
arise
aristoteles
armenia
arms
aroma
article
artikls
aruba
as
asaroka
asbestos
ascension
asia
asples
assembly
association
astrapia
at
ata
aten
atikel
ating
atlantik
atom
au
auckland
auerbach
august
augustus
australia
australian
aut
autim
autonomous
autsait
auxiliary
awa
az
azerbaijan
b
ba
bac
bagarap
bagarapim
bagdad
baha
bahrain
bai
baibel
bailiwick
baim
baku
balarat
balgeria
bali
balus
bang
bangladesh
banis
banisim
bar
barangay
barraba
bask
basshunter
batak
bataplai
bay
be
bea
bear
beatles
behaviourisim
bek
bel
belaras
belis
beljiam
bendago
benedict
benedicta
benedik
beng
benin
bensheim
bercianos
bergoglio
berlin
berne
bes
betlehem
between
bhutan
bi
biden
bierzo
bifo
big
bigpela
bihain
bihainim
bikam
bikman
biknem
bikos
bikpela
bikpla
biktaun
bilip
bilipim
bill
bilon
bilong
bilongen
bin
binatang
binen
binh
binumarien
biodaivesiti
bipo
bird
birua
bislama
bisnis
bisop
bissau
bl
blakpela
blong
blongen
blu
blue
blupela
blut
bo
boccoli
bodi
bogenvil
bogota
bokis
bolivia
bon
book
border
borneo
bos
bosim
bosna
bosnia
bot
botswana
bowdler
br
bra
bras
brasil
brata
bratislava
brazilian
breinigerberg
bridge
bringim
brisbin
britain
briten
british
brobergen
bruk
brukim
brunai
buai
buda
budapest
buddha
budisim
buenos
buk
buka
bulgaria
bulmakau
bun
bung
bungim
burma
bus
bush
but
bw
by
c
ca
caesar
caledonia
camargo
cambodia
can
canada
canary
cape
capital
caribbean
carl
castile
category
causes
cc
center
central
centre
ch
champion
chart
chi
chicago
chile
china
chinese
chorus
christmas
chungcheong
church
ci
circumcision
citi
city
cl
claimed
climate
clinton
cloudy
co
coast
coastal
coat
cocos
collectivity
college
color
com
commons
commonwealth
community
comoros
computer
concepcio
congo
connors
constitutional
contextual
continue
cook
copper
cork
coronavirus
costa
costalago
council
countries
country
course
cov
covid
cracow
creek
cropped
crown
cs
css
cuba
cue
culture
curitiba
currently
cuyo
cuyonon
cyprus
czech
czechia
d
da
dai
daiman
daka
dam
daniel
danis
daru
darwin
daulo
daun
daunim
david
dawin
day
de
dei
del
democracy
democratic
demokrasi
demokratik
denmak
denmark
densiti
dependencies
dependency
der
des
description
dhekelia
di
diachronic
dialekt
diatomit
diesel
difren
dikteta
dili
diplomatically
direction
direksion
dis
disemba
dispela
displa
distance
distinguish
district
distrik
divlopmen
diwai
dna
dok
dokta
don
donald
dong
doors
drai
draiva
dringim
drive
dublin
dutch
e
earth
east
eastern
ecser
ecuador
edirne
education
edukesen
edward
ee
eesti
egrikalsa
egsempel
egypt
einstein
ekonomi
ekonomikis
eksampel
eksempel
ekuwado
el
eleksen
elemen
elements
em
emblems
emi
emirates
en
eng
enga
england
english
enimol
enlaitmen
ensaiklopedia
environmen
environment
epril
eria
eritrea
es
eshte
esia
espan
esperanto
estonia
estronomi
et
etc
ethiopia
ethnologue
etpela
eu
euro
european
evaluation
eve
f
fa
facebook
fail
faipela
fait
faiv
faivpela
faivten
falkland
famili
fasin
faso
february
februeri
federal
federated
federation
femas
femili
ferdinand
fes
fi
fiji
file
filipin
finga
finlan
finland
fire
first
fisi
flag
flash
flo
fly
fo
foa
foapela
following
fonde
food
fopela
for
former
forpela
forum
foundation
fr
fraide
frame
franc
franca
france
francis
francisco
free
frege
french
frens
freud
fri
fridom
from
full
fut
futuna
g
ga
gabon
gaden
gambia
games
gan
gandi
garnet
gat
gavaman
gavana
gavman
gdansk
ge
gen
general
geographical
george
georgia
germanic
germany
ghana
gi
giaman
giana
gil
giraun
givim
gje
glossary
gne
go
god
godelleta
gol
gordon
goroka
got
gov
governing
government
grama
grammar
grand
gras
graun
great
greenland
gregori
grinpela
gris
group
grup
gryfice
gu
guadalcanal
guam
guari
guatemala
guernsey
guinea
gulf
gun
gut
gutpela
guyana
gyeonggi
h
ha
hagen
hailans
haiti
halivim
halonen
hamamas
hamas
hamiltan
han
handet
hangari
hangul
hap
harim
has
hat
hatpela
hau
haus
hawai
hawaiian
he
health
heart
hebrew
hegel
heidelberg
hekte
helena
helpim
helt
helyse
hem
herzegovina
hesegovina
het
hetbokis
heven
hia
highlands
hindi
hindu
hinduisim
hiri
his
histori
historia
history
hiv
hn
ho
hoa
hobat
hoi
hokkaido
holan
holi
holiday
holim
holy
honduras
hong
honshu
hos
hot
hotel
house
hr
hrvatska
html
http
https
hu
hul
human
husait
husat
i
ibin
iceland
id
ido
igat
igo
ii
ijip
ikam
il
ileksen
ilves
im
image
imel
immanuel
in
ina
inap
includes
indai
indastri
independan
independans
independen
independens
independent
india
indigenous
indipendens
indo
indonesia
indonesian
indonisia
infomesen
infrequently
inglan
ingle
inglis
inland
ino
insait
institute
intanet
interlingua
interlingue
international
iprage
irak
iran
iraq
ireland
irian
is
isbn
isi
isindebele
islam
islamic
island
islands
islas
israel
isrel
ist
ista
istap
istat
isten
it
itali
italian
italiano
itok
its
iv
ivoire
ivolusan
j
ja
jackson
jacob
jacques
jae
jagger
jakarta
james
january
janueri
janus
japan
jasper
jawa
jaya
je
jeff
jefferson
jem
jeman
jemani
jespersen
jiograpi
jisas
joe
john
johnson
jon
jordan
joseph
jpg
juda
judaisim
jugenheim
julai
julia
julius
july
jun
june
jung
jupita
jurisdiction
k
ka
kafe
kago
kaikai
kaikaim
kain
kainkain
kairuku
kakaruk
kala
kalabus
kalabusim
kalap
kalas
kaledonia
kalenda
kalendar
kalsa
kam
kamano
kamap
kamapim
kambodia
kambra
kampani
kanada
kanaka
kandep
kant
kantri
kanu
kapital
kapitol
kapten
kapul
karabakh
kardinal
karim
karl
kastom
kathmandu
katim
katolik
kaukau
kaunsel
kaunsil
kaunti
ke
keeling
keis
keltik
kemistri
ken
kens
kenya
kerema
kernewek
ketlik
kevin
keywords
kh
khan
khanh
ki
kiau
kilim
kilomita
kim
kina
king
kingdom
kirap
kirapim
kiribas
kisim
klia
klostu
km
known
ko
kod
koiari
kokonas
kokopo
kol
kolambia
kolim
kolorado
komonwelt
kompiam
komputa
komuniti
kon
kong
kongo
kontinen
kontinent
kopi
korea
korean
koreathe
koria
kos
kosovo
kot
krai
krais
kriol
krismas
kristen
kros
krowesia
kuala
kubuntu
kuk
kukim
kuman
kumul
kundiawa
kuro
kuwait
kwin
kwinslan
ky
kyushu
l
la
lae
lagaip
laif
laik
laikim
lain
lainim
laip
lajes
lajik
laksembog
lamington
lan
land
landen
language
languages
lanka
laos
lapun
larem
larim
larry
las
late
latin
latvia
lavigne
law
le
lebanon
led
left
legal
lek
lelo
leo
leone
leontiev
lesotho
leste
let
leta
lev
li
liberation
liberia
lida
lig
liklik
lille
lingua
linguistics
lingwistikis
link
linux
lip
list
lista
litorasa
lituwenia
lo
loa
logos
lokal
lokol
london
long
longen
longpela
longtaim
longwe
lonseston
los
lotu
lotuim
love
lu
lublin
lubuntu
luk
lukautim
lukim
lukluk
luksave
lukum
lumpur
luna
lus
lusim
luteran
luther
luxembourg
luzon
lv
m
ma
macao
macedonia
madagascar
madang
madrid
magani
magic
magyar
mahomet
maikronesia
maikronisia
mail
main
mainland
mak
maket
makim
mako
malawi
malay
malaysia
maldives
male
malesia
mali
malolo
malta
mama
mamapapa
mamel
man
mande
mandela
manesmen
mangi
mani
manila
manmeri
manus
map
maplandia
marasin
marcia
marcos
mari
maria
mariana
marie
marino
marit
mark
marshall
martin
marx
mas
masalai
maski
masol
mata
matica
matmat
maun
mauntain
maunten
mauritania
mauritius
maus
may
mayad
me
meditesen
mekeo
mekim
meksiko
melanesia
melanesian
melayu
melben
memba
member
men
meri
metals
metro
mi
michael
micronesia
milen
milian
milien
milion
military
million
min
mine
minh
minim
mining
minista
mipela
mit
mn
mo
moa
module
molekel
momase
momon
monaco
moni
moning
monte
montenegro
montsoreau
more
moresby
morobe
morrison
mos
mosbi
mosko
mosovce
most
moti
motu
mozambique
mp
mun
municipality
municiplaity
muruk
museum
music
musik
musiker
mustang
muvmen
my
myanmar
n
na
nabaut
nagorno
naimanya
nain
nainpela
naispela
nait
nam
namba
nambafaiv
nambafo
nambatri
nambatu
nambawan
nambis
name
namel
names
namibia
nap
narakain
narapela
narapla
narpela
narra
nasa
nascar
nasional
nating
national
nations
natural
nau
naun
nauru
ncipe
nde
ne
negotiation
neim
nek
nem
nepal
nes
nesen
nesenal
nesenel
nesens
netherlands
nevis
new
news
ng
nga
nh
nha
nicaragua
nidim
nie
niger
nigeria
night
niinisto
nil
niu
niue
niugini
niukasel
nius
niusilan
niuspepa
no
nofok
nogat
nogut
nois
noken
norfolk
norfuk
north
northern
norway
not
noten
noud
nova
novemba
novial
novialiste
now
nowe
nu
numba
nupela
nyv
nz
o
oa
occasionally
occupied
october
of
official
ofisa
ofisel
often
ogas
ogastas
oklan
oktoba
ol
olbri
old
olgeta
oli
olkain
olpela
olrait
olsem
oltaim
oman
on
one
online
op
opera
opis
opisal
or
orait
orba
order
org
organel
organization
organized
oro
orsak
osenia
oslo
ossetia
ostrelia
ostria
oteros
other
otodos
otonomos
ottawa
otto
our
out
ovce
over
overseas
p
pa
pablisim
pacific
paia
painim
painimaut
painimautim
pairap
pait
paitim
pakistan
palai
palamen
palau
palawan
palestine
palestinian
panama
pandemic
pangu
panguna
papa
papua
paradisaea
paradisaeidae
paradise
paraguay
paraguwai
paris
parotia
part
pas
pasifik
pasim
pasin
pasis
paspas
pastaim
pat
pater
pati
paura
pawa
pdf
pe
pei
pela
peles
pen
people
pepa
per
periodic
peru
pes
pesen
pesia
pet
peter
philippines
photos
piano
pidgin
pii
pijin
pikini
pikinini
piksa
pilai
pilipin
pilosopi
pinis
pinisim
pinlan
pipel
pipol
pis
pisin
pita
pitken
pitkern
pl
plak
planet
planim
planis
plante
planti
platon
plaua
plenteson
plenti
ples
png
po
poisin
polan
police
polinesia
polis
political
politik
politikal
politikis
politiks
polski
ponetikis
ponoloji
pop
popi
popondetta
popularly
populesen
poret
porgera
port
pos
pot
poten
potugal
poznan
pp
praim
prais
pranis
pren
presiden
president
presley
pri
princesa
principality
private
pronaun
protestan
province
provins
prut
puerto
pukpuk
pulim
pundaun
pusiket
putim
putrajaya
px
pyongyang
pyrite
q
qatar
qe
qua
quang
queen
queensland
quezon
quintana
r
ra
rabaul
racontas
radio
rafael
rais
rait
raitim
raits
ramo
ran
ranawe
rasia
ratzinger
raun
raunim
rausim
rbigo
re
reagan
real
rebel
recognized
redim
redio
referens
referred
region
reims
relations
ren
rendered
report
reptail
republic
republik
republika
res
resis
resolution
ret
retpela
ri
rica
riga
right
rights
rigo
rijen
ring
rio
ripablik
ripot
ro
robert
roc
rock
rolling
rom
roma
romans
rome
romenia
ronald
rong
rot
ru
rudd
rudolphi
rusia
russian
rwanda
s
sa
sabat
sahara
saiens
saientis
saikoanalisis
saikolosi
saina
saint
saiprus
sais
sait
saksak
salim
salvador
samoa
sampela
sampla
samting
san
sanap
sandaun
sande
sanlait
santa
santiago
santu
sapos
sapotim
sarere
sars
saten
saudi
saussure
saut
sauten
save
saveman
sayor
schloss
school
science
se
sea
search
sebia
see
seeheim
sek
seket
sel
self
sen
senegal
senis
senisim
sentens
sentral
sentrel
sentrol
seoul
sepik
septemba
september
serbia
service
seven
sevim
sevis
seychelles
sharpe
shikoku
shout
si
siaman
siamani
sianghai
siapan
sidarta
sidni
sielong
sierra
sik
sikis
sikispela
sikul
sil
silan
silavik
sili
silip
simbu
sin
since
sindaun
sing
singapo
singapore
singaut
singsing
sintakis
sios
siot
sip
sipesol
sipik
siprage
sipsip
sir
sistem
site
siti
sk
skelim
skin
skotlan
skul
skulim
slev
slip
slovakia
slovenia
smith
smolpela
so
socialist
society
sofia
soim
soka
sokrates
sol
sola
soldia
solomon
solomons
solwara
somalia
somare
some
sompela
song
sons
soria
sosaiti
sosiolosi
soto
sotpela
sout
south
sovereignty
space
spaida
spain
special
spelim
spen
spider
spirit
split
sri
srpska
st
sta
stadi
stadim
stap
stapim
star
stat
state
states
statim
station
status
stephen
stet
stets
ston
stones
stop
stopim
stori
strait
straits
street
stret
stretpela
stroke
strong
strongim
strongpela
subject
sudan
suicide
sumatin
sun
sung
suomi
sur
surinam
suriname
susu
sutim
suwidan
suwisalan
sv
sveinbjarnargerdi
svenska
svg
swaziland
sweden
swidan
swisalan
sydney
syria
system
szczecin
szeged
t
table
tabon
tagalog
tagbanwa
tahiti
tai
tailan
taim
taipei
tais
taiwan
tajikistan
talatala
tan
tanim
tantanim
tanzania
tapini
tarja
tarnovo
tasmania
tasmenia
tasol
taun
taunsvil
tausen
tavurvur
te
tede
tekewe
teki
televisen
ten
tenkyu
teritori
territorial
territories
territory
testamen
text
th
thailand
thales
that
the
theoretical
theory
these
this
thomas
through
thumb
thumbnail
ti
till
tim
time
timoa
timor
ting
tingim
tingting
tiori
tisa
tit
to
tobago
tok
tokaut
tokelau
tokim
tokio
tokples
toksave
toktok
tokyo
tome
ton
tonga
toppdoma
tores
toronto
torre
torres
tour
tower
tr
trabel
traim
traipela
trang
translation
transnistria
tren
tresa
tret
tri
trinde
trinidad
tripela
tripla
tru
trump
trung
tsak
tu
tudak
tude
tuesday
tumas
tumbuna
tunde
tupela
tupla
turis
tuvalu
tv
two
u
ua
uan
ubuntu
ug
uganda
uk
un
unaitet
under
union
united
universita
university
unives
unserdeutsch
upright
uruguay
us
usa
usim
uzbekistan
v
va
vab
valduerna
valencia
value
vanimo
vanuatu
vatikan
ve
vega
veliko
vella
venesuwela
verde
vi
vicente
victoria
video
vie
vienna
vietnam
view
viktoria
vila
viles
vilnius
virgin
virus
visayas
vko
vo
voices
vokabelari
vot
vs
vulcan
vygotsky
w
wa
wabag
wain
waintaim
wait
waitpela
wales
walker
wan
wanem
wankain
wanlain
wanpela
wanpla
wantaim
wantok
wanwan
wapenamanda
war
wara
wari
was
wasim
waswas
wataim
water
way
we
web
websait
website
wei
wel
welingtan
well
wels
wes
west
westen
western
wet
wewak
which
who
whole
width
wik
wiken
wiki
wikimedia
wikipedia
wiktionary
william
wilson
win
windo
wingti
winim
winter
wisdom
with
wo
woa
wod
woitape
wok
wokabaut
wokabout
wokim
wol
wolis
wonpela
woodard
woodsreef
word
world
woso
wulongong
www
x
xubuntu
y
ya
yangpela
yelo
yemen
yerevan
yerusalem
yet
yia
yok
yokohama
york
you
yu
yukren
yumi
yunaited
yunaitet
yunit
yunivesiti
yurop
yuropien
yuruguwai
yusim
z
za
zagreb
zambia
zamboanga
zealand
zeppelin
zimbabwe
|
~
°
²
đo
ł
łobez
ŋ
ʻ
̀
́
̂
̃
̄
̆
̇
̈
̉
̊
̋
̌
̓
̔
̛
̣
̤
̧
̨
̭
͂
α
ε
ς
адыгэбзэ
беларуская
коми
н
русскии
у
украі
язык
ִ
אינטרנט
המדינות
טבלת
סיומות
סיומת
ا
اوزبیکچه
ر
س
شاہ
مکھی
ه
و
ي
َ
ُ
ِ
ٓ
ٔ
ހ
ވ
ދ
ި
ެ
ं
अ
क
ग
ज
ट
ठ
ड
त
थ
द
न
प
फ
ब
भ
म
र
ल
ळ
ष
स
ह
़
ा
ि
ी
ु
ृ
े
ै
ो
्
ং
ঠ
ণ
প
ব
ভ
য
র
ল
ষ
়
া
ি
ী
ু
্
ਖ
ਗ
ਜ
ਪ
ਬ
ਭ
ਾ
ੀ
ੁ
ੰ
ખ
ગ
ત
ભ
ર
સ
ા
ી
ુ
ો
્
ଆ
଼
ି
க
ங
ச
த
ப
ய
ர
ழ
ா
ி
ூ
ை
்
గ
త
భ
ల
ా
ు
ె
్
ತ
ಳ
ು
್
ം
ള
ാ
ං
ක
ල
ස
ා
ි
་
ཁ
ག
ང
ད
བ
ཡ
ར
ི
ོ
ྫ
တ
န
ဘ
မ
ယ
သ
ာ
း
်
ြ
ၢ
ၵ
ႂ
ႆ
한국어
ᜈ
ᜊᜌ
ᜒ
᜔
ខ
ភ
ម
រ
ស
ា
ែ
្
ᨁ
ᨕ
ᨗ
ᨙ
ᬶ
ᮓ
ᮔ
ᮞ
ᮥ
᮪
‌
‎
–
—
‘
’
“
”
•
…
′
↔
↷
③
④
⑦
☾
☿
♀
♂
♃
♄
♆
⛢
ⰲ
ⰽ
ⰾ
ⱀ
ⱁ
ⱄ
ⱏ
ⱐ
ⱑ
ⴰ
ⵉ
ⵎ
ⵖ
ⵜ
ⵣ
⺀
⺄
⺆
⺈
⺊
⺌
⺕
⺝
⺸
⺼
⿰
⿱
⿲
⿳
⿴
⿵
⿶
⿷
⿸
⿹
⿺
⿻
〢
い
え
お
か
け
こ
さ
す
て
と
な
に
の
は
ま
む
も
ら
り
れ
わ
ん
゙
カ
ク
コ
シ
タ
ト
モ
ユ
ョ
ラ
ワ
ン
ー
ㄱ
ㄴ
ㄷ
ㄹ
ㅁ
ㅂ
ㅅ
ㅇ
ㅈ
ㅊ
ㅋ
ㅌ
ㅍ
ㅎ
ㅏ
ㅐ
ㅓ
ㅔ
ㅗ
ㅜ
ㅡ
ㅣ
㇁
㇂
㇄
㇇
㇈
㇉
㇓
㐁
㐄
㐅
㐌
㐫
㐬
㐭
㐮
㐱
㑒
㒵
㒸
㒼
㓁
㓞
㔾
㕛
㕣
㖾
㘝
㚅
㚇
㚔
㚘
㝉
㝡
㝴
㝵
㞋
㞢
㞷
㠩
㠭
㠯
㡀
㡭
㡿
㢲
㢴
㣇
㣺
㥯
㪅
㫄
㫐
㫒
㫺
㬅
㬎
㬥
㬰
㲋
㳄
㷠
㸒
㸚
㸦
㼌
㼲
㽞
㿟
䀠
䂞
䍃
䏍
䒑
䖍
䖒
䖝
䖵
䙴
䚻
䜌
䝿
䡛
䧹
䪞
一
丁
丂
七
丄
丅
丆
万
丈
三
上
下
丌
不
与
丏
丐
丑
专
且
丕
世
丘
丙
业
东
丞
丢
丣
两
严
並
丨
丩
个
丫
丬
中
丮
丰
丱
串
丵
丶
丷
丸
丹
为
主
丽
丿
乀
乂
乃
久
乆
乇
么
义
之
乌
乍
乎
乏
乐
乑
乔
乖
乗
乘
乙
乚
乛
乜
九
乞
也
习
乡
乳
乾
亀
亅
了
亇
予
争
事
二
亍
于
亏
亐
云
互
亓
五
井
亘
亚
亜
亞
亟
亠
亡
亢
交
亥
亦
产
亨
亩
享
京
亭
亮
亯
亰
亲
亳
亶
亷
人
亻
亼
亾
仁
今
介
仌
从
仐
仑
仒
仓
仕
他
付
仝
代
令
以
任
企
伊
伏
伐
休
会
伯
但
位
何
佘
余
作
佥
使
來
侈
侌
侖
侯
侵
便
保
俞
信
修
倉
倍
候
倠
備
僉
僕
僮
儿
兀
允
兂
元
兄
充
兆
兇
先
光
兊
克
兌
免
兑
兒
兓
兔
党
兜
兟
入
全
兩
兪
八
公
六
兮
兰
共
关
兵
其
具
典
兹
兼
冀
冂
冃
冄
内
円
冈
冉
冊
冋
册
再
冎
冏
冐
冒
冓
冖
冗
冘
军
农
冝
冡
冥
冫
冬
冷
几
凡
凢
凵
凶
凷
凸
凹
出
函
凾
刀
刁
刂
刃
刄
刅
分
切
刍
刑
刕
刖
列
刘
则
初
別
利
别
到
制
刺
則
削
剌
前
剡
剽
劉
力
功
加
劦
助
劫
劳
劵
勃
勇
勉
勒
動
務
勞
勤
勹
勺
勻
勾
勿
匀
匂
包
匆
匈
匊
匋
匍
匕
化
北
匚
匝
匡
匪
匱
匸
匹
区
医
匽
匿
區
十
卂
千
卄
卅
卆
升
午
卉
半
卌
华
卑
卒
卓
单
卖
南
卜
卝
卞
占
卡
卢
卣
卤
卦
卩
卪
卬
卯
印
危
即
却
卵
卷
卸
卻
厂
厃
厄
历
厈
厉
厌
厓
厘
厚
原
厤
厥
厨
厭
厲
厶
厷
厸
去
厼
厽
叀
参
參
叅
又
叉
及
友
双
反
叐
发
叒
叔
叕
取
受
叚
叜
叟
口
古
句
另
叩
只
召
可
台
叱
史
右
叵
号
司
叹
吂
各
吅
合
吉
吊
吋
同
名
后
吏
向
吕
君
吝
吞
否
含
启
吳
吴
吹
吾
呂
呆
呈
告
员
呙
周
命
咅
和
咎
咠
咢
咨
咸
咼
哀
品
哉
員
哥
哲
唐
商
啇
問
啚
啬
啻
善
喜
喬
單
喿
嗇
噩
嚴
囊
囗
囘
囙
囚
四
回
囟
因
囧
囬
困
囱
囷
固
国
圂
圅
國
圍
園
圓
土
圡
圣
圥
在
圭
地
圶
圼
坐
坒
坚
坡
坴
垂
垔
垚
埀
埋
埶
執
基
堂
堅
堆
堇
堯
塞
墨
壘
士
壬
壯
声
壳
壴
壹
壺
壽
夂
处
夅
夆
备
夊
夋
夌
复
夏
夒
夕
外
夗
夘
多
夜
夢
大
夨
天
太
夫
夬
夭
央
失
夲
头
夷
夸
夹
夻
夾
奂
奄
奇
奈
奉
奎
奏
奐
契
奓
奔
奚
奞
奠
奢
奥
奭
女
奴
奻
好
如
妄
妙
妟
妥
妻
妾
姑
委
姜
威
娄
婁
婴
嬰
嬴
子
孑
孔
孕
孖
字
存
孚
孛
孝
孟
季
孤
学
孫
孱
學
宀
宁
宂
它
宅
宇
守
安
宋
完
宏
宓
宗
官
定
宛
宜
宝
客
宣
室
宮
宰
害
家
容
宾
宿
寄
寅
密
富
寒
察
寧
審
寫
寬
寮
寸
对
寺
寻
寽
対
寿
封
尃
射
将
將
專
尉
尊
尋
尌
對
小
少
尒
尓
尔
尖
尗
尚
尞
尢
尣
尤
尧
尨
尭
就
尸
尹
尺
尻
尼
尽
尾
尿
局
居
屈
屋
屎
屏
屑
展
屖
屚
属
屠
屡
屬
屮
屯
屰
山
屵
屾
岁
岂
岑
岡
岩
岳
岸
峯
島
崇
崑
崔
崖
崙
崩
嵬
嶲
巂
巛
川
州
巟
巠
巢
巤
工
左
巧
巨
巩
巫
差
己
已
巳
巴
巷
巸
巽
巾
巿
帀
市
布
希
帚
帛
帝
带
師
席
帶
常
干
平
年
幵
并
幷
幸
幺
幻
幼
幽
幾
广
広
庄
床
底
店
庚
府
度
庫
庭
庶
康
庸
廉
廌
廛
廣
廩
廴
延
廷
建
廾
廿
开
弁
弃
弄
弇
弋
式
弓
弔
引
弗
弘
弜
弟
弥
弦
弱
張
強
强
彊
彌
彎
彐
彑
当
彔
录
彖
彗
彡
形
彥
彦
彧
彭
彳
役
彼
往
待
律
徒
得
徙
從
復
微
徵
心
忄
必
忌
忍
志
忝
忠
忩
快
念
忽
忿
思
怠
急
性
怱
恆
恒
恩
恭
息
悉
患
悤
悲
悶
惠
惡
惢
愁
愈
意
愛
感
慈
慧
慮
憂
憲
應
戀
戈
戉
戊
戋
戌
戍
戎
成
我
戒
戔
或
戚
戠
戢
截
戲
戶
户
戹
戼
戾
房
所
扁
扇
手
扌
才
打
托
执
承
折
拉
拜
拿
掌
推
提
摩
撒
支
攴
攵
收
攸
改
放
政
敄
敏
敕
敖
敗
敝
敞
敢
散
敦
敫
敬
数
敷
數
斂
文
斉
斊
斗
斤
斥
斩
斬
斯
新
方
於
施
斿
旁
旋
族
无
旡
既
旣
日
旦
旧
旨
早
旬
旱
旲
时
旾
昆
昇
昌
昍
明
昏
易
昔
昗
昜
星
春
昬
是
昱
昴
昷
時
晃
晋
晏
普
景
晶
智
暑
暴
曇
曩
曰
曲
曳
更
曷
書
曹
曼
曾
替
最
朁
會
月
有
朋
服
朔
朕
朗
望
朝
木
朩
未
末
本
札
朮
术
朱
朵
朶
朿
杀
杏
杜
束
条
来
東
杲
杳
松
析
林
枚
果
枝
枲
枼
某
柔
查
柬
柰
柴
栗
桀
桑
桼
梁
條
梟
梨
棘
棠
棥
森
楚
業
楽
榮
樂
樊
欠
次
欣
欮
欲
欶
欽
款
歆
歇
歛
止
正
此
步
武
歨
歪
歮
歯
歰
歲
歴
歷
歸
歹
歺
死
殳
段
殷
殸
殹
殺
殻
殿
毋
毌
母
每
毒
比
毕
毚
毛
毳
氏
氐
民
气
氣
水
氵
氶
氷
永
氺
氾
求
汝
汞
江
沃
沓
沙
沝
泉
法
波
泣
泥
泰
洛
洪
活
派
流
浦
浪
浮
海
淡
淮
清
渚
渠
港
湯
湾
滿
漸
灣
火
灬
灭
灰
灵
灷
炅
炎
炏
炗
炙
炭
為
烈
烏
烝
焉
無
焦
焱
然
煞
熊
熏
燕
營
燮
爪
爫
爭
爯
爰
爱
爲
爵
父
爻
爽
爾
爿
片
牙
牚
牛
牜
牟
牢
牧
牪
牽
犀
犬
犭
犮
狂
狄
狊
独
狺
猋
猒
猪
献
獻
玄
率
玉
王
玟
玨
珎
班
琴
瑟
瑩
瓜
瓦
甘
甚
生
産
用
甫
甬
田
由
甲
申
电
甶
男
甸
甹
画
甾
畀
界
畏
畐
留
畜
畟
畢
畧
畨
番
畫
異
畱
當
畺
畾
疊
疋
疌
疑
疒
疾
癶
癸
癹
登
發
白
百
皀
皃
的
皆
皇
皋
皐
皕
皮
皷
皿
盃
盆
盇
盈
益
盍
盎
监
盒
盖
盛
盡
監
盤
盧
目
直
相
盾
省
眇
眉
看
眔
眞
真
眷
眼
眾
着
睘
睪
睿
瞏
瞢
瞿
矍
矛
矞
矢
矣
知
矦
短
石
破
碎
磊
磨
示
礻
礼
神
祟
票
祭
禀
禁
禸
禹
禺
离
禽
禾
禿
秀
秃
秉
秋
科
秝
秦
移
稟
穀
穌
穴
究
穹
空
穿
突
窄
窒
立
竒
竜
竝
竟
章
童
竹
笑
笠
筆
等
答
箕
算
箴
節
篤
篭
米
粉
粛
粟
粤
粦
粲
粵
糞
糸
糹
系
約
納
素
索
紫
累
細
絜
絫
絲
維
綿
縣
繇
纍
纟
缶
网
罒
罔
罕
罗
罙
罡
罢
罪
署
罷
羅
羊
羌
羍
美
羔
羕
羗
羞
羡
羣
群
義
羲
羸
羽
翁
翏
習
翕
翟
翠
翼
老
耂
考
者
耆
而
耎
耑
耒
耳
耴
耶
耷
聂
聊
聖
聚
聶
聿
肀
肃
肅
肉
肖
肙
肥
肩
肯
育
肴
胃
背
胡
胥
能
脊
脩
膚
臣
臤
臧
自
臬
臭
臯
臱
至
致
臺
臼
臽
臾
臿
舀
舂
舄
與
興
舉
舌
舍
舛
舜
舞
舟
般
艮
良
色
艸
艹
艾
芒
芔
芬
芮
花
芳
芺
芻
苔
苗
苟
若
苦
英
茶
茸
荅
草
荒
荣
荼
莆
莧
莫
莱
莽
菆
菊
菐
菜
華
萬
落
葉
著
葛
董
葵
蒙
蒦
蒼
蓋
蓬
蓺
蔑
蔡
蕉
蕭
薄
薛
薦
薰
藍
藏
藥
蘭
虍
虎
虐
虒
虔
處
虖
虗
虘
虚
虛
虜
虞
虫
虽
蚤
蚩
蜀
蜜
蟲
蠡
血
行
衍
衛
衣
衤
表
衮
衰
袁
袞
褭
褱
襄
襾
西
覀
要
覃
見
規
覓
覧
親
覽
见
角
解
言
訁
訇
計
話
詹
語
誩
諸
讠
语
谷
豆
豈
豊
豐
豕
豖
豙
象
豦
豩
豪
豸
貇
貝
貞
貟
負
貢
貧
貪
貫
責
貳
貴
買
費
賁
資
賈
賏
賓
賔
賛
賞
賢
賣
質
賴
贊
贛
贝
贡
责
贯
贲
贵
赖
赞
赤
赦
走
越
足
路
蹇
身
躬
車
軍
軎
軟
輦
车
辛
辜
辟
辥
辰
辱
農
辵
辶
边
达
过
近
连
迷
追
退
送
逆
逐
通
速
造
逢
連
逮
進
遀
遂
過
道
達
遣
適
遷
遺
邊
邑
邕
那
邦
邪
郎
部
郭
都
鄉
鄭
酉
酋
配
酓
釆
采
里
重
野
量
金
釒
錢
钅
長
镸
长
門
閃
閉
開
閏
閑
閒
間
閔
閩
閵
閻
闌
门
间
闷
闽
阑
阜
阝
阿
降
陳
隆
隊
隋
隡
隨
隱
隶
隹
隺
隻
隼
隽
难
雀
雁
雅
集
雈
雋
雍
雐
雔
雙
雚
雜
雝
離
難
雨
雩
雪
雲
零
雷
需
霍
霜
霝
霞
霸
靈
靑
青
非
靡
面
靣
革
韋
韓
韦
韭
韯
韱
音
頁
頃
項
須
頗
頡
頻
顛
页
風
风
飛
飞
食
飠
養
饣
首
香
馬
馮
駦
马
骨
高
髟
鬥
鬯
鬲
鬼
魚
魯
鮮
鱼
鲁
鳥
鳳
鸟
鹵
鹿
麃
麗
麥
麦
麻
黃
黄
黍
黎
黑
黒
黨
黹
黽
黾
鼎
鼓
鼠
鼻
齊
齋
齐
齒
齿
龍
龙
龜
龟
龠
龰
龱
龴
龵
龶
龷
龸
龹
ꆇ
ꉙ
ꦗ
ꦧ
ꦮ
ꦱ
ꭹ
ꮃ
ꮳ
ꯂ
ꯃ
ꯇ
ꯟ
ꯣ
ꯩ








者
艹
（
？
𐌲
𐌹
𐌺
𐌿
𐍃
𐍄
𞤢
𞤤
𞤨
𞤪
𞤵
🜨
𠀁
𠀃
𠀆
𠀉
𠀎
𠀐
𠁁
𠁣
𠂆
𠂇
𠂈
𠂉
𠂊
𠂋
𠂎
𠂒
𠂔
𠂛
𠂡
𠂢
𠂤
𠂬
𠂭
𠂹
𠃊
𠃋
𠃌
𠃍
𠃎
𠃑
𠃓
𠃔
𠃜
𠄌
𠄎
𠄠
𠄢
𠆢
𠆥
𠇍
𠈌
𠌵
𠓜
𠔉
𠔥
𠔼
𠔽
𠔿
𠕀
𠕁
𠕋
𠘧
𠘨
𠙻
𠙼
𠚏
𠚒
𠚤
𠚪
𠣏
𠤎
𠤕
𠥓
𠦄
𠦑
𠦝
𠧒
𠧗
𠧪
𠩺
𠪚
𠫓
𠫔
𠫤
𠬛
𠬝
𠬞
𠬢
𠬤
𠬶
𠮛
𠮦
𠮷
𠯑
𠱠
𠳮
𠷎
𡈼
𡉀
𡉵
𡌥
𡍮
𡏳
𡕒
𡕩
𡕰
𡖅
𡗗
𡗜
𡘆
𡘤
𡧱
𡨄
𡩧
𡬠
𡭽
𡰣
𡰥
𡰪
𡰯
𡰱
𡷈
𡸁
𡿨
𡿩
𡿪
𡿺
𢀖
𢀛
𢀩
𢁙
𢆉
𢆰
𢆶
𢇁
𢇇
𢉖
𢌬
𢌿
𢏚
𢑑
𢑚
𢖻
𢙣
𢛳
𢦏
𢦒
𢧵
𢼄
𢾕
𣁋
𣄼
𣅀
𣅽
𣍘
𣎳
𣎵
𣏋
𣏼
𣗥
𣥂
𣥖
𣦵
𣦼
𣧄
𣪊
𣪠
𣬉
𣳾
𣶒
𤇾
𤊽
𤐫
𤓰
𤔔
𤕨
𤣩
𤰇
𤰔
𤰞
𤴓
𤴔
𤽄
𥁑
𥁕
𥃦
𥃩
𥃭
𥇡
𥑟
𥘅
𥘈
𥝢
𥫗
𥱡
𦈢
𦉪
𦉬
𦉼
𦍌
𦍒
𦎧
𦐇
𦓔
𦔮
𦘒
𦙃
𦚏
𦣝
𦣞
𦣻
𦥑
𦥔
𦥯
𦨉
𦭝
𦰩
𧆞
𧈧
𧘇
𧰨
𧴪
𧴮
𧵩
𧾷
𨸏
𨾴
𩙿
𩠐
𩫏
𩵋
𪉷
𪜀
𪟽
𪠲
𪩲
𫇦
𫔭
𫜸
𫝀
𫠣
𫠩
𫢉
𫥞
𫩏
𫩠
𫪡
𫲽
𫶧
𬀷
𬐘
𬗌
𬙙
𬛸
𬜯
𬟩
𬯁
𬴘
𬺻
𬼉
𬼖
𭀰
𭁈
𭁨
𭅰
𭑈
𭕄
𭗼
𭤨
𭥫
𭻾
𮅕
𮊿
𮍌
𮍏
𮓗
𮥼
𮧮
廾
𰀁
𰀄
𰀈
𰀉
𰀕
𰀠
𰀡
𰀢
𰀪
𰁜
𰃮
𰆊
𰆘
𰋙
𰕎
𰢴
𰧭
𰯲
0--
10--
11--
12--
15--
16--
18--
19--
3--
38--
4--
5--
6--
7--
8--
9--
a--
ab--
abo--
abr--
acc--
ach--
activ--
ad--
admin--
ai--
ak--
al--
all--
alp--
alt--
an--
ang--
ant--
ap--
ar--
as--
asebai--
astu--
at--
au--
ay--
azərbay--
b--
ba--
bal--
ban--
bar--
be--
bek--
bel--
ber--
bet--
bew--
bi--
bik--
bl--
bo--
bor--
bos--
br--
bu--
buil--
bur--
bus--
c--
ca--
cal--
camp--
can--
cap--
car--
cast--
ce--
ch--
cha--
chri--
ci--
cl--
clo--
co--
com--
con--
conf--
cor--
cri--
cs--
cu--
cy--
cym--
d--
da--
dai--
dan--
de--
dec--
deuts--
di--
didi--
dis--
do--
du--
dzieci--
e--
ed--
eg--
el--
elek--
eli--
em--
en--
es--
estr--
eu--
ex--
f--
fa--
fe--
fer--
fi--
fil--
fla--
fo--
fr--
fur--
g--
ga--
gam--
ge--
ger--
gi--
go--
gra--
gu--
gua--
gut--
h--
ha--
hai--
halo--
hap--
he--
hel--
hend--
hi--
him--
hit--
ho--
hos--
hot--
hu--
hun--
i--
ig--
il--
im--
imig--
in--
inter--
inven--
ir--
is--
iv--
j--
ja--
je--
jer--
ji--
jo--
jose--
ju--
jus--
k--
ka--
kal--
kam--
kar--
kara--
kat--
ke--
ker--
kh--
ki--
kli--
ko--
komi--
kra--
kri--
ku--
kur--
l--
la--
lai--
lat--
le--
li--
lingu--
lo--
lu--
m--
ma--
make--
mal--
mam--
man--
mar--
mat--
mate--
mcmx--
me--
medite--
mi--
mil--
mili--
mo--
moldo--
mon--
mong--
moun--
mu--
mus--
n--
na--
nait--
namba--
ne--
ni--
nit--
no--
nor--
nu--
num--
o--
oc--
of--
ol--
op--
or--
ori--
ostron--
p--
pa--
pan--
pano--
papa--
para--
parlia--
pe--
pen--
pente--
per--
pha--
pi--
piet--
pin--
pl--
plu--
po--
pol--
poli--
pra--
pre--
prin--
pro--
prog--
pu--
q--
qu--
r--
ra--
raun--
re--
res--
revo--
ri--
rij--
ro--
ru--
s--
sa--
sam--
sch--
se--
semi--
ser--
sh--
si--
sig--
sim--
sk--
sko--
sla--
slo--
so--
sp--
spea--
spi--
st--
stu--
su--
sub--
supp--
sw--
swe--
swit--
t--
ta--
tar--
te--
ten--
ter--
th--
tho--
ti--
to--
tr--
tra--
tran--
tre--
tri--
tro--
ts--
tu--
tua--
tun--
tur--
ty--
u--
un--
v--
va--
val--
valde--
vati--
ve--
ver--
vi--
vil--
villa--
vo--
w--
wa--
wal--
wan--
wat--
wi--
wil--
wu--
x--
y--
ya--
yu--
z--
ze--
zo--
به--
مص--
--0
--1
--2
--3
--32
--37
--38
--4
--41
--5
--52
--53
--54
--57
--58
--6
--7
--73
--8
--80
--88
--9
--91
--93
--94
--95
--96
--97
--98
--a
--abet
--ace
--ack
--ad
--ai
--aia
--ain
--ak
--al
--am
--an
--anu
--ap
--apim
--ar
--ara
--ary
--as
--at
--ated
--ation
--au
--b
--ba
--be
--bet
--c
--ca
--cal
--cca
--ce
--ces
--ch
--cha
--che
--cia
--ck
--co
--craft
--ct
--ction
--cy
--d
--da
--dala
--de
--den
--di
--do
--dos
--ds
--du
--e
--ea
--ean
--ection
--ed
--eg
--ei
--ek
--el
--eli
--em
--en
--ens
--ent
--er
--eration
--ere
--eri
--ers
--es
--ese
--esen
--est
--et
--eted
--f
--fe
--g
--ga
--ge
--ger
--geul
--go
--gua
--h
--her
--hi
--hl
--i
--ia
--ian
--ic
--ica
--id
--ie
--ien
--ies
--ight
--ija
--ik
--ikis
--il
--im
--in
--ine
--ing
--io
--ion
--ions
--ip
--ique
--iro
--is
--ism
--it
--iti
--ius
--j
--je
--k
--ka
--kan
--ke
--ko
--ks
--kt
--kta
--l
--la
--lata
--ld
--le
--les
--li
--lia
--ling
--ll
--lla
--llo
--lm
--lo
--loji
--long
--lp
--ls
--lta
--ly
--m
--ma
--mal
--man
--me
--ment
--mi
--mic
--mo
--mon
--ms
--n
--na
--nal
--nce
--nd
--ndo
--ne
--ner
--ng
--ni
--nia
--nic
--nk
--no
--ns
--nt
--nta
--ny
--o
--od
--ol
--on
--onal
--ong
--onia
--or
--os
--ot
--otte
--p
--pa
--pe
--pela
--pla
--pu
--que
--r
--ra
--ral
--ras
--rd
--rdu
--re
--rg
--ri
--ria
--rian
--ris
--rk
--rm
--rn
--ro
--rol
--rs
--rt
--rta
--rti
--ry
--s
--sa
--se
--see
--sh
--si
--sia
--sim
--slav
--so
--son
--st
--stein
--sti
--sze
--t
--ta
--tal
--te
--ted
--ter
--tera
--teria
--ters
--tes
--the
--ti
--tic
--tik
--tiks
--tion
--tive
--to
--town
--tre
--ts
--tsch
--tski
--tu
--ty
--u
--ua
--ude
--ue
--uel
--ul
--ula
--um
--up
--ure
--us
--ut
--v
--ve
--w
--wa
--we
--wn
--x
--y
--ya
--yer
--yo
--ys
--z
--za
--ze
--zi
--ь
--ي
