!
"
#
##0
##1
##10
##11
##12
##13
##14
##15
##16
##17
##18
##19
##2
##20
##21
##22
##23
##24
##25
##26
##27
##28
##29
##3
##30
##31
##32
##33
##34
##35
##36
##37
##38
##39
##4
##40
##41
##42
##43
##44
##45
##46
##47
##48
##49
##5
##50
##51
##52
##53
##54
##55
##56
##57
##58
##59
##6
##60
##61
##62
##63
##64
##65
##66
##67
##68
##69
##7
##70
##71
##72
##73
##74
##75
##76
##77
##78
##79
##8
##80
##81
##82
##83
##84
##85
##86
##87
##88
##89
##9
##90
##91
##92
##93
##94
##95
##96
##97
##98
##99
$
%
&
'
(
)
*
+
,
-
.
/
0
00
000
01
02
03
0362
04
05
06
0673
07
08
09
1
10
100
1000
1001
101
1016
1017
102
103
104
105
106
107
108
1080
109
1093
11
110
111
112
113
114
115
116
117
118
119
12
120
121
122
123
124
125
126
127
128
129
13
130
131
132
133
134
135
136
137
138
139
14
140
141
142
143
144
145
146
147
148
149
15
150
1500
151
152
153
154
155
156
157
158
159
16
160
1600
161
162
163
164
165
166
167
168
169
1692
17
170
1700
171
172
173
174
175
177
178
179
18
180
1800
181
1815
1819
182
1820
1821
1829
183
1830
1832
1833
1835
1836
1837
1838
184
1840
1841
1842
1843
1844
1845
1846
1847
1848
1849
185
1850
1851
1852
1853
1854
1855
1856
1857
1858
1859
186
1860
1861
1862
1863
1864
1865
1866
1867
1868
1869
187
1870
1871
1872
1873
1874
1875
1876
1877
1878
1879
188
1880
1881
1882
1883
1884
1885
1886
1887
1888
1889
189
1890
1891
1892
1893
1894
1895
1896
1897
1898
1899
19
190
1900
1901
1902
1903
1904
1905
1906
1907
1908
1909
191
1910
1911
1912
1913
1914
1915
1916
1917
1918
1919
192
1920
1921
1922
1923
1924
1925
1926
1927
1928
1929
1930
1931
1932
1933
1934
1935
1936
1937
1938
1939
194
1940
1941
1942
1943
1944
1945
1946
1947
1948
1949
195
1950
1951
1952
1953
1954
1955
1956
1957
1958
1959
196
1960
1961
1962
1963
1964
1965
1966
1967
1968
1969
197
1970
1971
1972
1973
1974
1975
1976
1977
1978
1979
198
1980
1981
1982
1983
1984
1985
1986
1987
1988
1989
1990
1991
1992
1993
1994
1995
1996
1997
1998
1999
2
20
200
2000
2001
2002
2003
2004
2005
2006
2007
2008
2009
201
2010
2011
2012
2013
2014
2015
2016
2017
2018
2019
202
2020
2021
2022
2023
2026
203
2030
204
205
2050
206
207
208
209
21
210
2100
211
213
215
216
217
218
219
22
220
222
223
224
225
227
229
23
230
2307
231
232
233
234
235
236
237
239
24
240
241
242
243
244
245
247
25
250
251
252
253
255
256
257
26
260
261
262
265
266
267
268
27
270
273
275
279
28
280
281
282
284
285
288
29
290
291
292
293
294
3
30
300
3000
302
303
305
306
31
310
312
313
317
32
320
321
322
33
330
331
332
333
337
34
340
341
346
347
35
350
356
36
360
365
37
370
375
38
380
388
39
390
393
4
40
400
4000
41
419
42
43
4331
44
440
45
450
46
460
47
48
49
5
50
500
5000
51
52
53
54
55
550
56
57
58
59
6
60
600
61
62
620
63
639
64
65
650
66
67
68
69
7
70
700
707
71
72
73
737
74
744
747
75
750
76
77
78
79
8
80
800
808
81
82
83
84
85
86
87
88
89
9
90
900
91
92
93
94
95
96
97
978
9789956796069
98
99
990961
:
;
<
=
>
?
@
\
^
_
`
a
aa
aaa
aachen
aan
aardklop
aaron
aaronson
ab
aba
ababa
abacha
abachkina
abaga
abaghi
abakaliki
abali
abania
abanye
abanyela
abara
abasi
abass
abata
abawanye
abayomi
abaza
abba
abbas
abbey
abbie
abbott
abby
abc
abd
abdalla
abdallah
abdel
abdelaziz
abdelhamid
abdelkader
abdellatif
abdelli
abderrahmane
abdi
abdo
abdou
abdoulaye
abdu
abdul
abdullah
abdullahi
abeba
abebe
abel
abele
abelmoschus
abena
abeokuta
aberdeen
abi
abia
abidine
abidjan
abigail
abimbola
abiodun
abiola
ablade
abney
abo
aboh
abolitionist
aborigine
abortion
abou
aboudi
aboudia
about
above
abraham
abrams
abroad
abron
abs
absa
abstract
abstraction
abstracts
abu
abua
abubakar
abudei
abudu
abughi
abuja
abule
abuo
abuse
ac
acade
academia
academic
academy
acaraje
acc
access
accessdate
accessed
accident
according
account
accountability
accountants
accounting
accounts
accra
ace
aces
acha
achara
acheampong
achebe
achi
achicha
achieng
achievement
achievers
achimota
achiuwa
acho
achour
achu
acid
acn
acre
acres
across
acrylic
act
acting
action
active
activism
activist
activists
activities
actor
actors
actress
actresses
acts
ad
ada
adaba
adabaghi
adabere
adabereghi
adadevoh
adaeze
adaku
adam
adama
adamawa
adams
adamu
adan
adaora
adaptation
adc
add
added
addis
addison
additions
addo
ade
adea
adebayo
adebayor
adebisi
adebiyi
adedayo
adedeji
adefarasin
adegbite
adegoke
adejoke
adekola
adekoya
adekunle
adel
adelaide
adele
adeleke
adeleye
ademola
ademoye
adeniji
adenike
adeniran
adeniyi
adenowo
adenuga
adeola
aderin
adesanya
adesina
adesua
adesuwa
adetiba
adewale
adeyemi
adeyemo
adeyeye
adeyinka
adi
adichie
adighi
adigide
adimora
adinkra
adire
adjective
adjectives
adjei
adjetey
adkins
adler
admin
administration
administrative
admiral
ado
adoption
adreesi
adrian
adu
adua
adult
advance
advanced
advancement
adventist
adventure
adventures
advertising
advisor
advisory
advocacy
advocate
adwoa
ae
aero
aerospace
aesthetic
aesthetics
af
afa
afaha
afar
afc
afcon
afd
affair
affairs
affected
afghanistan
afi
afikpo
afirika
afo
afolabi
afolayan
afor
afp
afri
africa
africain
africaine
africaines
african
africana
africanism
africanist
africans
africobra
africultures
afriika
afrika
afrikaans
afrikaanse
afrikan
afrikaner
afrikaners
afrinvest
afrique
afrisa
afro
afroasiatic
afrobasket
afrobeat
afrobeats
afropop
after
afternoon
afu
ag
aga
agaa
agaala
agadi
agafe
agafeela
agafeghi
agaghari
agaghi
again
against
agakari
agatha
agba
agbaala
agbachitere
agbada
agbadata
agbado
agbagha
agbaghari
agbago
agbagwoju
agbahapu
agbaje
agbaji
agbakari
agbake
agbako
agbakwa
agbakwu
agbakwunye
agbakwunyere
agbali
agbamakwu
agbamume
agbanwe
agbanweela
agbanwere
agbanye
agbanyeghi
agbapu
agbara
agbari
agbasa
agbasaala
agbasawanye
agbasi
agbaso
agbata
agbataobi
agbati
agbawa
agbaze
agbazinye
agbo
agbor
agbu
agburu
age
aged
agege
agemo
agence
agency
agenda
agent
ages
agglomeration
agha
aghaghi
aghanya
aghara
aghi
agho
aghu
agi
agnes
agni
ago
agreement
agricultural
agriculture
agu
agugu
aguiyi
agulu
agum
agwa
agwaetiti
agwako
agwara
agwo
agwu
agwunobi
agyeman
ah
aha
ahaghi
ahapu
ahazi
ahaziri
ahead
ahebi
ahi
ahia
ahiazu
ahiri
ahlam
ahmad
ahmadiyya
ahmadu
ahmed
aho
ahoputara
ahram
ahu
ahuike
ai
aia
aid
aida
aids
aigbe
aime
aims
ain
aina
ainslie
air
airbus
aires
airline
airlines
airport
airtel
airways
ais
aise
aisha
ait
aj
aja
ajah
ajasa
ajax
ajayi
ajegunle
aji
ajibade
ajo
ajol
aju
ajunwa
ak
aka
akaebe
akallo
akan
akande
akao
akara
akari
akato
akau
akawanye
ake
akello
akhenaten
aki
akilu
akin
akindele
akintola
akintunde
akinwunmi
akinyele
akinyemi
akiolu
akitoye
ako
akoka
akoko
akon
akosua
akpa
akpaaka
akpagbu
akpaghi
akpako
akpali
akpan
akpara
akparaghi
akparama
akparamaagwa
akparamagwa
akpari
akpasu
akpata
akpi
akpo
akporo
akpu
aku
akuapem
akuko
akuku
akunyili
akure
akuzi
akwa
akwaaba
akwadebe
akwado
akwadoghi
akwadokwa
akwadola
akwadoro
akwaga
akwaghari
akwalite
akwanga
akwanyere
akwara
akwo
akwu
akwukwo
akwute
akwutere
akyeampong
al
ala
alaa
alaba
alabama
alabi
alac
alade
alaeze
alaghachi
alaibe
alain
alaka
alake
alakija
alaku
alam
alan
alao
alaoui
alaska
alatise
alausa
alba
albania
albany
albert
alberta
alberto
albinism
albion
albo
album
albums
albuquerque
alcam
ale
aleah
alemu
ales
alex
alexander
alexandra
alexandre
alexandria
alexis
alf
alfred
alge
algebra
alger
algeria
algerian
algiers
algo
alhaja
alhaji
ali
alice
alicia
alien
align
alimi
alimosho
alison
aliu
alive
aliyu
alkali
all
allafrica
allah
allan
allen
alli
alliance
allied
allison
allmovie
allmusic
alloco
allophone
allophones
allows
allred
allstars
alma
almanac
almaz
almeri
almond
alo
alone
along
alonge
alonzo
alor
alpha
alphabet
already
als
also
alston
alt
alter
alternate
alternative
altman
alto
alu
aluko
aluminum
alumni
alumnus
alusi
alveolar
alvin
always
am
ama
amaa
amaala
amaara
amabeghi
amachaghi
amachibido
amachibidoro
amadi
amadioha
amadou
amaechi
amaghi
amaka
amakwa
amal
amala
amalite
amaliteghi
amalitela
amalitere
amamihe
amamikpe
amanda
amani
amanye
amaokwu
amapiano
amar
amara
amarachi
amarteifio
amasi
amata
amateur
amato
amaza
amazigh
amazing
amazon
amazons
ambassador
amber
ambode
ambrose
ambulance
ame
ameh
amel
amelia
amen
amendment
amer
ameri
america
american
americans
amerika
ames
amhara
amharic
amherst
ami
amin
amina
aminata
aminu
amir
amistad
ammar
amnesty
amoah
amobi
among
amoo
amoosu
amor
amos
amour
amp
amr
amsterdam
amu
amuchara
amur
amuru
amusan
amuwo
amvca
amy
an
ana
anabata
anabataghi
anabatala
anacamptis
anaghi
anako
anakpo
anakwere
analysis
anam
anambra
anang
ananias
anapu
anarchism
anarchist
anata
anatii
anatomy
anatsui
anc
anchor
ancient
and
andersen
anderson
andoni
andre
andrea
andreas
andrei
andrew
andrews
andries
andy
aneke
ange
angel
angela
angeles
angelina
angelo
angels
angers
angie
angli
anglican
anglo
angola
angus
ani
anikulapo
animal
animals
animated
animation
animator
anime
anioma
anita
aniwura
anka
ankomah
ann
anna
annan
annang
anne
annette
annex
annie
anniversary
announced
announces
annual
ano
anonymous
another
anouar
anozie
anpp
ans
ansah
ansar
ansell
ant
anta
antarctic
antarctica
anthem
anthologies
anthology
anthony
anthropological
anthropology
anti
antiquity
anto
antoine
antoinette
anton
antonio
antwerp
anu
anumanu
anwa
anwale
anwansi
anwar
anwu
any
anya
anyanwu
anyaoku
anye
anyere
anyi
ao
aofiyebi
ap
apa
apagya
apapa
apart
apartheid
apata
apaye
apb
apc
aperture
apga
api
apollo
apostolic
app
appear
appiah
apple
apples
applied
appointed
appoints
appreciation
approach
apr
apre
april
apu
aqabat
ar
ara
arab
araba
arabe
arabesque
arabi
arabia
arabian
arabic
arabu
arafa
arafat
arambi
aramco
arapara
arase
arbitration
arbor
arc
arcade
arch
archaeology
archdiocese
archer
archie
architect
architects
architectural
architecture
archive
archived
archives
arctic
ard
are
area
areas
aregawi
arena
aretha
argentina
argus
ari
aria
aribisala
arik
arinze
arise
aristokrat
arizona
arkansas
arkham
arlington
armah
armed
armenia
armenian
arms
armstrong
army
arnett
arnhem
arno
arnold
arnott
aro
arochukwu
arondizuogu
around
aroussia
arrest
arrowsmith
arsenal
art
arte
artes
artforum
arthur
article
articles
artificial
artillery
artist
artiste
artistes
artistic
artists
artnet
artnews
arts
artspace
artsy
artthrob
artwork
artworks
aru
arua
arunga
arusha
arute
arutere
arutu
aryan
as
asa
asaa
asaba
asad
asambodo
asamoah
asante
asare
asataghi
asatara
asato
aschenborn
asemota
ash
asha
ashanti
ashby
ashe
ashes
ashipa
ashlee
ashley
ashoka
ashour
ashraf
ashton
asi
asia
asian
asiatic
asin
asiwaju
asl
asma
aso
asompi
asomugha
asp
aspen
aspx
assaut
assefa
assembly
assessment
asset
assistance
assistant
associate
associated
associates
association
associations
astakhov
aston
astor
asu
asuquo
asusu
asylum
at
ata
ataa
atai
atef
atelier
athens
athlete
athletes
athletic
athletics
athol
ati
atiku
atkins
atlanta
atlantic
atlas
atle
ato
atomic
atr
atrash
atta
attack
attah
attention
attessia
attia
attorney
atu
atumatu
au
aubrey
auckland
auction
audience
audio
audrey
audu
auf
aug
august
augusta
auguste
augustine
augustus
auntie
aus
austen
austin
australia
australian
austria
austrian
author
authority
authors
autism
auto
autobiography
autonomous
autumn
aux
ava
available
avant
avec
avelino
avengers
avenue
avery
aviation
aviv
avon
avril
awa
awakpo
awan
awara
award
awarded
awards
awareness
away
awe
awgu
awi
awilo
awka
awled
awo
awolowo
awoniyi
awori
awosika
awu
awujale
awwad
axe
axis
ay
aya
ayad
ayana
ayanda
aye
ayo
ayodele
ayoola
ayorinde
ayra
ayuba
az
aza
azaghachi
azerbaijan
azi
azikiwe
aziz
aziza
azo
azu
azurest
b
ba
baa
baala
baale
baara
bab
baba
babajide
babalola
babangida
babatunde
babayaro
babcock
babel
babes
baby
baccar
bachelo
bachelor
bachelors
back
background
backstage
bacon
bacteria
bad
badagry
badana
badawi
baddest
badminton
badmus
badoe
badu
baer
baffoe
bafta
bag
baggara
baghdad
bagirmi
baha
bahamas
bahia
bahr
bahrain
bahraini
bai
bailey
bains
baka
bakaba
bakare
baker
bakr
bal
bala
balde
balducci
baldwin
balewa
bali
ball
ballet
balogun
balonwu
baltic
baltimore
baltrop
baltzar
bam
bama
bamako
bamanankan
bambara
bamboo
bamidele
ban
bana
banana
banat
band
banda
bang
banga
bangkok
bangladesh
bangura
bani
banj
banjo
banjul
bank
banking
bankole
banks
banky
banner
bantoid
bantu
banyana
banye
banyere
baobab
baptist
baptizim
bar
bara
barack
barbados
barbara
barbarian
barbary
barber
barbican
barcelona
barclays
bard
bari
bariga
barker
barkley
barlow
barnard
barnes
baron
baroudi
barr
barracks
barrett
barrister
barron
barry
barsaoui
bas
basa
basaa
base
baseball
based
basel
bashir
basic
basil
basin
basket
basketball
basketbo
basquiat
basra
bass
bassa
bassey
bassong
bastian
basutoland
bat
bata
batara
bataringaya
bates
bath
bathurst
batik
batley
batman
baton
batri
battalion
battiss
battle
bauchi
bawanye
baxter
bay
bayelsa
bayern
bayero
bayo
bayoloji
bayou
bayreuth
bazaar
bb
bbc
bc
bce
bd
be
bea
beach
beacon
bead
beads
bean
beans
bear
bearden
bears
beast
beasts
beat
beatles
beatrice
beats
beautiful
beauty
beaux
bebe
bebey
bebi
beboid
became
because
beck
becker
becky
become
becomes
becoming
bedford
bedouin
bee
beef
beeld
been
beer
beers
bees
before
beghi
begho
begin
beginning
begins
behind
bei
beier
beijing
being
beirut
beit
bekee
bekele
bel
belai
belarus
belarusian
belata
belatara
belediyespor
belfast
belgian
belgium
belgrade
believe
belinda
bell
bella
bellanaija
belle
belles
bello
bellview
bellville
below
belt
bemba
ben
bench
bend
bende
bendel
bender
bendi
bendor
benedict
benfica
bengal
bengali
benghazi
beni
benin
benjamin
bennani
bennett
benny
benson
bent
benton
benue
benz
bepu
berber
bercey
bere
berg
bergen
berger
berkeley
berkshire
berlin
berlinale
bern
bernard
bernardo
bernice
bernie
berom
berry
bert
bessie
best
bester
bet
beta
beth
beti
betsy
better
betty
between
beukes
bevel
beverly
bey
beyonce
beyond
bez
bf
bfa
bfi
bi
bia
biafra
biafran
bialiatski
bianca
biara
bibie
bibiri
bible
bibliography
bic
bida
biden
bido
bidoro
bie
bieber
biennale
biennial
big
biga
biggers
biggest
bight
bihar
biko
bikoi
bikwa
bilbao
bilbrew
bilia
bilie
bilitere
bill
billboard
billie
billing
billion
billionaire
billy
biltong
bimbo
bimi
bin
binam
bini
binnelanders
bint
binta
binyere
bio
biochemistry
biodiversity
biodun
bioenergy
biographical
biography
biological
biology
biomass
biotechnology
bipu
biputara
biputere
bird
birds
biri
birmingham
birnin
birth
birthday
births
bisho
bishop
bisi
biskit
bislett
bissau
bisso
bit
bitch
bitter
bix
biya
black
blackburn
blackman
blackness
blacks
blackwell
blair
blaise
blake
blanc
blanche
blank
blantyre
blaq
blaqbonez
blast
blayton
blaze
blench
blessed
blessing
blige
blind
bling
blink
blo
block
blockbuster
blodgett
bloemfontein
blog
blogspot
blondy
blood
bloom
bloomberg
bloomington
blossom
blount
blow
blu
blue
blues
bm
bmg
bmw
bn
bo
boafo
board
boat
bob
bobby
bobotie
bochi
bode
bodies
body
boeing
boekhandel
boer
boerewors
boghossian
boi
bois
bojia
boko
bola
bolaji
bolanle
bold
bolewa
bolivia
bollywood
bolshevik
bolus
boma
bomb
bombay
bon
bona
bond
bondage
bone
bones
bongi
bongo
bonn
bonnie
bonny
bono
bonsu
bontemps
boo
booba
book
booker
books
boolu
boom
boone
boot
booth
bopol
bordeaux
border
borders
boris
born
bornaz
borno
bornu
boro
borough
bosch
bosco
bose
boshoff
bosman
bosnia
boss
boston
bot
botanical
botany
both
botha
botswana
bottle
bottom
bouabre
bouchnak
boughedir
boukaka
boulaye
boulder
boulevard
bound
bourguiba
bournemouth
bouro
boushaki
bouwer
bouzid
bovi
bowen
bowie
bowl
box
boxing
boy
boyce
boyd
boyega
boyeldieu
boys
boyz
boziana
bp
br
brabin
brackets
bradford
bradley
branch
brand
brandeis
brandon
brandt
brandy
brasil
brass
brassica
braun
brave
bravo
braxton
brazil
brazilian
brazzaville
bread
break
breakfast
breaking
breaks
breakthrough
breaststroke
breath
bred
breeders
bremen
brenda
brett
brewer
breweries
brewery
brewing
breytenbach
brian
brice
bride
bridge
bridges
bridget
brief
briefing
briefly
brien
brigade
brigadier
briggs
bright
brighton
brigitte
brik
bring
brings
brink
bristol
britain
britannica
briten
british
britney
brittle
bro
broad
broadcast
broadcasters
broadcasting
broadway
broccoli
brochure
brock
broke
broken
brong
bronwyn
bronx
bronze
brook
brooke
brooklyn
brooks
bros
broth
brother
brotherhood
brothers
brown
browne
brt
bruce
brunei
bruno
brush
brussels
bruyn
bryan
bryant
bs
bsc
bu
bua
buari
bubata
bubu
buchanan
bucharest
buchi
buck
buckingham
bucknor
budapest
buddha
budget
buea
buenos
bufee
bufere
buffalo
buganda
bugara
buhari
building
buildings
built
buju
bukola
bukwa
bula
bulaga
bulawayo
bulgaria
buli
bulie
buliri
bulite
bull
bulletin
bundesliga
bundestag
bunmi
bunny
bura
buraimoh
bureau
burg
burger
burgers
burke
burkina
burkinabe
burma
burmese
burn
burna
burning
burns
burroughs
bursary
burse
burston
burt
burton
buru
burukwa
burundi
bus
busby
bush
busia
business
busiswa
bust
busta
but
butcher
bute
butere
buthelezi
butler
butter
butterfly
buuru
buzzfeed
bwf
by
byanyima
bye
byrd
byron
c
ca
cabaret
cabbage
cabbages
cabinet
cable
cadbury
cadet
caesar
caf
cafe
cage
caine
cairo
cake
cal
calabar
calabash
calder
caleb
calender
calgary
cali
california
caliphate
call
callaloo
called
calling
calls
calvin
camara
cambodia
cambridge
camden
came
cameo
camera
cameron
cameroon
cameroonian
cameroons
cameroun
camille
camp
campaign
campaigner
campbell
campus
can
canada
canadian
canady
canal
canaria
canary
cancer
candace
candice
candidate
candidates
candy
cannes
cannon
canoe
canon
canton
canvas
cap
cape
capital
capitec
capitol
capo
cappella
caps
captain
caption
car
carbon
card
cardiff
cards
care
career
carey
caribbean
carl
carla
carlo
carlos
carman
carmen
carmine
carnegie
carnival
caro
carol
carole
carolina
caroline
carolyn
caroni
carr
carrie
carroll
carry
carson
carstens
carter
carthage
cartier
cartoon
cartoonist
carver
casa
casablanca
casbah
case
cases
casey
cash
casino
cass
cassava
cassell
cassper
cast
casting
castle
cat
catalog
catalogue
cataract
categories
category
caterpillars
cathedral
catherine
catholic
catlett
caucasian
caucus
caught
cauliflower
causa
cause
causes
cave
cbc
cbe
cbn
cbs
cc
cca
ccfr
ccm
ccr
cd
cdc
cdu
ce
cecil
cecilia
cecily
cedar
cele
celebrate
celebrates
celebrating
celebration
celebrity
celestine
cell
celsius
celtic
cement
cemetery
census
cent
centenary
centennial
center
centers
central
centrale
centre
centro
cents
century
ceo
ceramics
cercul
cerdotola
ceres
certain
certificate
certified
cf
cfr
cgi
ch
cha
chaa
chaabi
chaati
chaatu
chad
chadic
chaga
chaghi
chagoury
chahine
chai
chain
chair
chairman
chaka
challenge
challenges
chama
chamba
chamber
chambers
champagne
champaign
champion
champions
championship
championships
champs
chan
chance
chancellor
chandler
chanel
change
changed
changes
changing
channel
channels
chapel
chapman
chappell
chapter
chapungu
chara
character
characters
charge
chari
charity
charl
charleroi
charles
charleston
charlie
charlize
charlotte
charlton
charmaine
chart
charter
chartered
charts
chase
chat
che
cheb
chebe
chebere
check
checklist
chee
cheese
chef
chefuo
chefuru
cheikh
chekwa
chekwaa
chelsea
chemical
chemistry
chemists
chen
chenevix
cheng
chengde
chepu
chere
cheromei
cherono
cherry
cheruiyot
cheryl
chess
chester
cheta
chetan
chetara
chevron
chez
chi
chiaha
chiamaka
chianya
chibok
chicago
chichi
chick
chicken
chidi
chidinma
chie
chief
chiefs
chiepe
chika
chike
chikere
chiko
chikwara
child
childhood
children
chile
chili
chill
chima
chimamanda
chin
china
chinedu
chineke
chinese
chiney
chinko
chinmoy
chinn
chinua
chinwe
chinweizu
chinyere
chioma
chip
chips
chiri
chiromo
chite
chiteanya
chitekwara
chitere
chitwood
cho
choc
chocolate
choice
choir
chongqing
choputara
choro
chosen
choufli
chow
chris
chrisland
christ
christi
christian
christianity
christie
christina
christine
christmas
christophe
christopher
christy
chronic
chronicle
chronicles
chu
chuchu
chuck
chuks
chukwu
chukwudi
chukwuemeka
chukwujekwu
chukwuka
chukwuma
chukwuogo
chuma
chung
church
churches
churchill
chutney
chyna
ci
cia
cid
cile
cilliers
cincinnati
cindy
cine
cinema
cinemas
cinnamon
circle
circuit
circumcision
circus
cisco
cisse
cit
citation
cite
cited
cities
citing
citizen
citizens
city
citypopulation
civic
civil
cl
claims
claire
clan
clara
clare
claremont
clarence
clark
clarke
clarkson
clash
class
classes
classic
classical
classics
classification
claude
claudette
claudia
claus
clay
cle
clean
clear
clearwater
clement
clemson
cleopatra
cleveland
cliff
clifford
climate
clinic
clinical
clinton
clio
clive
clock
cloete
close
cloth
cloud
club
clubs
cm
cms
cn
cnbc
cnn
co
coach
coal
coalition
coast
coastal
coat
cobb
cobhams
cobra
coca
coco
coconut
cod
code
coel
coetzee
coffee
coffin
cohen
coin
coke
coker
cokes
col
cola
colaianni
cold
cole
coleman
coles
colescott
colin
coll
collaboration
collaborative
collage
collages
collapse
collected
collection
collections
collective
colleen
college
colleges
collegiate
collins
colloquium
cologne
colombia
colonel
colonial
colonialism
colonization
colony
color
colorado
colored
colors
colour
coloured
colours
columbia
columbus
column
colvin
com
coma
combat
combs
come
comedy
comes
comfort
comic
comics
coming
command
commander
commando
comment
commentary
commerce
commercial
commission
commissioner
commitment
committee
common
commons
commonwealth
commune
communication
communications
communist
communities
community
comoros
companies
companion
company
comparative
competition
compilation
complete
complex
composer
comprehensive
compton
computer
comrade
con
conakry
conan
concept
conceptual
concern
concerns
concert
concord
concrete
confederation
conference
confessions
confidential
conflict
congo
congolese
congos
congotronics
congress
connect
connecticut
connection
conner
connie
connor
conrad
conscience
consciousness
consequences
conservation
conservative
conservatives
conservatory
consonant
consonants
consortium
constable
constance
constant
constantin
constantine
constituency
constituent
constitution
constitutional
construction
consultant
consulting
consumer
contact
containing
conteh
contemporain
contemporanea
contemporary
content
contest
context
continent
continental
continents
contract
contractors
contribution
contributions
control
convent
convention
conversation
conversations
cook
cooking
cool
cooper
cooperation
cooperative
coordinates
cop
copa
cope
copenhagen
copley
coppa
coptic
copy
copyright
coral
corcoran
core
coretta
corey
coriander
corinne
cornelia
cornelius
cornell
corner
corona
coronavirus
corp
corporate
corporation
corps
corpus
corrections
corruption
cosby
cosmetics
cosmo
cosmopolitan
cost
costa
cote
cotonou
cotter
cotton
could
coulibaly
council
count
countdown
countee
counter
countries
country
county
coup
coupe
courage
courier
course
court
courtney
courts
couscous
couture
cov
covenant
coventry
cover
covered
covid
cow
cowboys
cox
cp
craft
crafts
craig
crammed
crane
crash
crawford
crayfish
crazy
cre
cream
create
created
creates
creating
creation
creative
creativity
creator
credit
creedence
creek
creole
crescent
crew
cricket
crime
crimea
crimes
criminal
criminology
crisis
critic
critical
criticism
critics
croatia
croatian
cronje
crop
cropped
crosby
cross
crossing
crossroads
crow
crown
crowther
cruz
cry
crystal
cs
css
csu
ct
cu
cuba
cuban
cube
cubes
cudjoe
cuisine
cullen
cult
cultural
culture
culturel
cultures
cum
cumin
cummings
cup
cuppy
curated
curator
current
curriculum
curry
curtis
cushitic
custard
customs
cut
cutting
cuvier
cv
cw
cyber
cycle
cynthia
cyprus
cyril
czech
d
da
daa
daba
dabara
dabeere
dabere
dabo
dachi
dad
dada
daddy
dadiya
daegu
dago
dahomey
dai
daily
daisy
dak
daka
dakar
dako
dakore
dakota
dakwasi
dal
dale
dali
dalian
dalit
dallas
daly
dam
damallsvenskan
damascus
dame
dames
dami
damian
damien
damijo
damilola
damme
damon
dan
dana
dance
dancehall
dancer
dancing
danger
dangerous
dangote
daniel
daniels
danish
danjuma
danladi
danny
danquah
dans
dante
danticat
daolu
daoud
daphne
dapu
dar
dara
daramola
dare
darego
darfur
dark
darkness
darko
darling
dartmouth
darwin
das
dash
dass
dat
data
database
date
datooga
daughter
daughters
daume
daura
dave
davenport
david
davido
davids
davidson
davidtz
davies
davis
daw
dawn
dawson
day
dayo
days
daz
dazzie
db
dc
dd
de
dead
deadly
deal
dean
dear
death
debanye
debanyere
debara
debbie
debe
debere
deborah
debt
debut
dec
decade
decarava
december
dechara
decision
declaration
decolonization
dede
dee
deela
deen
deep
deeper
def
defar
default
defence
defender
defenders
defense
defined
definition
degaara
deghari
degree
degrees
dei
deko
dekwara
del
delano
delaware
dele
deletion
delhi
deliveries
delivery
dell
della
delle
dellinger
delta
deluxe
dem
demand
dembe
democracy
democrat
democratic
democrats
den
deng
denies
denis
denise
denmark
dennis
dent
dentaa
denver
department
deportivo
depp
depression
dept
depth
depu
deputara
deputy
der
derby
dere
derek
derrick
des
descent
description
desemba
desert
design
designed
designer
designers
designs
desire
desk
desmond
desperate
despite
desta
destiny
detail
details
detective
detroit
deutsche
developing
development
devil
devon
devrouax
dey
dezie
dezighari
deziri
dhabi
dhalla
di
dia
diab
diabate
dial
dialect
dialects
diallo
dialogue
diamond
diamonds
diana
diane
diaries
diary
diaspora
diaz
dibaba
dibango
dibi
dibia
dice
dick
dickson
dictionary
dictionnaire
did
diddy
didi
didier
didn
die
died
diego
dies
diesel
dietrich
dieu
difference
different
dig
diger
digest
digiri
digirii
digital
dignity
dijitalu
dika
dike
dikeh
dilbit
dima
dimension
dimmendaal
din
dina
dinara
dine
dini
dinner
dio
diocese
diogo
dion
diop
dior
diouf
dioxide
diplo
diploma
diplomacy
diplomat
dir
dirac
dire
direct
direction
directions
director
directorate
directors
directory
diri
dirk
dirty
dis
disambiguation
disarmament
disaster
discipline
disco
discografi
discography
discogs
discovery
discs
discus
discussion
disease
diseases
disemba
disguise
dishes
diski
diskus
disney
dispatch
display
displays
dissertation
dist
distance
distinction
distinguished
distribution
district
distrikti
dit
ditions
div
diva
divas
diversity
divine
divisio
division
divorce
diwura
dixon
dj
djembe
djibouti
dk
dkasti
dladla
dlamini
dm
dml
dna
do
doatec
doba
doc
dochie
doctor
doctoral
doctorate
doctors
document
documenta
documentary
documentation
documents
dodo
dodoma
doe
does
dog
dogg
dogon
dogs
doha
doi
doing
dokpesi
dolapo
dollar
dollars
dolly
dolma
dolphin
dom
domain
dome
domestic
dominic
dominican
dominique
don
donald
dondi
done
donetsk
dong
donga
donia
donkor
donli
donna
donovan
doo
doodle
door
doping
dora
doran
doreen
dorian
doris
doro
dorothy
dortmund
dos
doss
dosunmu
dot
doual
douala
double
doubles
doug
douglas
douglass
doula
dove
dovey
dow
dowling
down
downey
download
downtown
doye
doyle
dozie
doziri
dp
dpp
dr
draft
drag
drago
dragon
drake
drama
dramatic
draogo
draw
drawing
drawings
drc
dre
dream
dreams
dreck
drent
dress
drew
drift
drink
driskell
driss
drive
driver
driving
dro
drogba
droit
drop
drug
drugs
drum
dry
dsm
dss
dstv
du
duala
dubai
dube
dublin
dubois
dudley
due
duet
duff
duga
dugara
duiker
duke
dum
duma
dumas
dumebi
dumelo
dunbar
duncan
dundee
duo
durban
durbar
durham
during
duro
durojaiye
duru
dust
dutch
dutse
duty
duuru
duzie
duziri
dv
dvd
dwayne
dyantyi
dying
dyk
dylan
dynamic
dynamo
dynasty
e
ea
each
eagle
eagles
earl
earley
early
earth
east
eastbourne
eastenders
easter
eastern
eastman
easy
eat
eating
eazi
eb
eba
ebe
ebee
ebelata
ebele
ebemsidee
ebenezer
ebenside
ebensidee
ebere
ebert
ebesidee
ebi
ebibi
ebido
ebiela
ebighi
ebili
ebipu
ebo
ebola
ebony
ebonyi
ebonylife
eboro
ebrahim
ebu
ebubata
ebube
ebubo
ebufe
ebuga
ebughari
ebughi
ebuka
ebule
ebuli
ebum
ebumnobi
ebumnuche
ebumpu
ebun
ebupu
eburu
ebute
ebutekari
ebutela
ec
eche
echebe
echefu
echefuru
echegbu
echeghi
echekari
echekwa
echekwara
echepu
echere
echeta
echetara
echi
echiche
echichi
echikunwoke
echo
eco
ecole
ecological
ecology
ecommerce
economic
economics
economist
economy
ecosystem
ecowas
ecuador
ecuele
ed
edda
eddie
eddine
eddy
ede
edeba
edebanye
edebanyere
edebe
edebere
edeela
edeghari
edeghi
edekari
edeko
edekwa
edem
edemede
edemsibi
edemsibia
eden
edensi
edensibi
edensibia
edepu
edere
ederede
edeturu
edewor
edezi
edgar
edge
edi
edina
edinburgh
edit
edited
edith
edition
editions
edito
editor
editorial
editors
edmond
edmonton
edmund
edna
edo
edobe
edobere
edochie
edoghi
edozi
edozien
eds
edu
eduardo
education
educational
eduga
eduhie
edun
eduzi
edward
edwards
edwin
ee
een
ef
efcc
efe
efeghari
efere
eff
effat
effect
effective
effects
effurun
efik
efl
efu
efua
efunahu
eg
egan
egba
egbe
egbema
egbo
egbochi
egbu
egbugbere
egbugbu
egbughi
egbuke
egburu
egbutu
ege
egg
eggon
eghan
ego
egoli
egonu
egosi
egosighi
egosikari
egosikwa
egosila
egosipu
egosiputa
egosiri
egun
egungun
egusi
eguzo
eguzobe
eguzogide
eguzosi
egweri
egwu
egwupu
egwuregwu
egwuri
egwuru
egwuruegwu
egypt
egyptian
ehi
ehichapu
ehihie
ehikhamenor
ehir
ehota
eid
eight
eileen
ein
eisner
eje
ejective
ejedebe
ejeghari
ejekwa
ejere
eji
ejide
ejidere
ejighi
ejigide
ejije
ejiji
ejikari
ejike
ejiko
ejikwa
ejima
ejiofor
ejiri
ejirila
ejiro
eju
ejupu
ek
ekambi
eke
ekeinde
ekeko
ekele
ekenye
ekere
ekeresimesi
ekeri
ekesa
eket
eketa
ekewa
ekewapu
ekike
ekiri
ekiti
eko
ekoid
ekong
ekpe
ekpebi
ekpebiela
ekpebiri
ekpene
ekpenta
ekpere
ekpeye
ekpo
ekpochapu
ekpuchi
ekpughe
ekpughere
ekpuk
eku
ekubo
ekun
ekwe
ekweghi
ekweko
ekwensu
ekwenti
ekwenye
ekwenyeghi
ekwenyere
ekwere
ekweremadu
ekwesi
ekwesighi
ekweta
ekwo
ekworo
ekwu
ekwuchitere
ekwughachi
ekwughi
ekwukari
ekwukwa
ekwun
ekwuola
ekwupu
ekwuputa
ekwuputala
ekwuputara
ekwuri
ekwuru
ekwusa
ekwusi
el
elaine
elba
elcinema
eldee
elder
ele
eleanor
eleba
elebara
elechi
elected
election
elections
electoral
electric
electronic
electronica
eleda
eleghara
elegharakari
eleghi
elekari
elekere
eleko
elektro
elekwasi
elele
elementary
elementri
elephant
eleta
eletrik
eletriki
eletro
eletu
eli
elias
elijah
elisabeth
elise
elisha
elite
eliza
elizabeth
ella
elle
ellen
ellie
ellil
ellington
elliot
elliott
ellis
ellison
elma
eloff
eloy
elsa
elsie
elton
elu
eluigwe
elumelu
elvis
em
ema
email
emam
emb
embassy
eme
emebeghi
emebere
emebi
emebu
emecha
emechaa
emechabeghi
emechara
emechi
emechiri
emee
emeela
emefu
emegbu
emeghachi
emeghari
emeghe
emeghi
emegide
emegideri
emejuputa
emeka
emekari
emeko
emekwa
emela
emelite
emelitere
emem
ememe
ememme
emenike
emepe
emepu
emeputa
emerald
emere
emergence
emergency
emerging
emeri
emeriela
emeritus
emeru
emesapu
emesi
emesia
emeso
emeto
emetu
emezi
emezighari
emeziwanye
emezu
emezughi
emi
emily
eminem
emir
emirate
emirates
emma
emmanuel
emmerson
emmy
emo
emokpae
emory
emperor
empire
employment
empowerment
empress
empty
emume
en
ena
enahoro
enamel
encomium
encounter
encounters
encyclopaedia
encyclopedia
encyclopædia
end
endangered
endicott
endowment
ends
endsars
ene
enemkpali
enemy
energy
enfant
enfants
eng
engagement
engine
engineer
engineering
engineers
engines
england
english
engr
eni
eniola
eno
enough
enow
ensemble
enterprise
enterprises
entertainer
entertainment
entrepreneur
entrepreneurs
entrepreneurship
entry
enu
enugu
enugwu
environment
environmental
enwe
enwebeghi
enwee
enweela
enweghi
enwekari
enwekwa
enwekwara
enwekwu
enwere
enweri
enweta
enwetabeghi
enwetaghi
enwetakwa
enwetala
enwetara
enwetawo
enwetu
enwezor
enwonwu
enwu
enye
enyefe
enyeghi
enyekari
enyekwa
enyela
enyemaka
enyere
enyerela
enyewo
enyi
enyimba
enyo
enyocha
ep
epe
epic
epidemiology
episcopal
episode
episodes
eprel
eps
epstein
epurel
equal
equality
equatorial
equity
er
era
erasmus
ere
eredivisie
erekwa
erere
eri
eric
erica
erics
erigbu
erighi
erik
erikari
erin
eriri
erite
eritrea
ernest
ernst
ero
error
errors
eru
erubeghi
erughi
erule
eruo
eruola
erute
es
esan
escape
ese
esemokwu
eseohe
esere
eserese
eseti
esham
eshia
esi
esichara
esiebo
esighi
esikari
esikwa
esiri
esite
esiwanye
eso
esochi
esoghi
esokari
esokwa
esonu
esonye
esonyela
esonyere
esonyewo
esorola
esorowo
esote
espace
espan
especially
espn
essay
essays
essence
essential
essex
essid
essien
est
established
establishment
estate
esther
estonia
esu
eswatini
et
eta
etc
etche
etching
ete
etemeete
eternal
ethel
ethics
ethio
ethiopia
ethiopian
ethiopic
ethnic
ethnologue
eti
etienne
etim
etinye
etinyeghi
etinyekari
etinyekwa
etinyela
etinyere
etiopia
etisalat
etiti
eto
etolite
etolitela
etomi
etoola
etozu
etu
etv
eu
eucharia
euge
eugene
eureka
euro
europa
europe
european
eva
evan
evangelical
evans
eve
evelyn
even
evening
event
events
ever
everard
everton
every
everybody
everyday
everything
evidence
evil
evolusho
evolutio
evolution
ewe
ewebata
ewebatara
eweghachi
eweghachiri
eweghara
ewelite
ewepu
ewere
ewerekwa
ewerela
eweta
ewetara
ewezuga
ewing
ewu
ewuli
ewulite
ewute
ex
examination
examinations
example
examples
excellence
exchange
exclusive
executed
executive
exeter
exhibit
exhibition
exhibitions
exile
exit
expansion
experience
experimental
expert
exploitation
exploration
exploring
expo
export
exposition
express
expression
expressionism
expressions
expressway
exquisite
extended
extension
external
extinction
extra
extraordinary
exxon
eye
eyes
eyi
eyikari
eyisi
eyo
ez
eze
ezeani
ezema
ezere
ezerioha
ezi
ezie
eziga
ezigara
ezigbo
ezighi
ezinau
ezinu
ezinulo
eziokwu
ezipu
ezo
ezoghi
ezra
ezu
ezube
ezubere
ezughi
ezuko
ezumezu
ezumike
ezuru
ezute
ezz
ezza
f
fa
fab
faber
fabian
face
facebook
faces
facing
fact
factor
factory
facts
faculty
fader
fadhel
fahmy
fai
fair
fairy
faith
fake
fakeye
fakhoury
fakhr
falcone
falcons
faleti
fali
fall
falling
falls
fally
falola
false
falz
fame
familia
families
family
famous
fan
fanagalo
fang
fani
fannin
fanny
fans
fantastic
fantasy
fante
fanwo
fao
far
farafina
farah
fares
farhat
farid
farida
farley
farm
farmer
farmers
faro
farouk
farrell
fascist
fashion
fashola
faso
fast
fasuba
fat
fate
faten
father
fathers
fati
fatima
fatma
fatou
fauset
favorite
fawaz
fawazir
fawcett
fawehinmi
fawzi
fax
faye
fayemi
faze
fbi
fc
fct
fdc
fdl
fe
fear
feat
feature
featured
features
featuring
feb
febru
february
febu
febuwari
feder
federal
federation
fee
feel
feeling
feet
feghouli
fehri
fel
fela
felicia
felix
fell
fella
fellow
fellows
fellowship
fellowships
female
femi
feminism
feminist
feminists
femme
femmes
fenerbahc
fenton
fer
ferdinand
fere
ferguson
fernando
fero
ferreira
ferry
feso
fespaco
fest
festac
festival
festivals
festus
feuille
fever
few
ff
ffc
fgm
fi
fiba
fiber
fiction
fidelity
field
fields
fiesta
fifa
fifi
fifth
fifty
fig
fight
fighters
fighting
figure
figures
fiji
fil
filani
file
files
filipino
film
filmmaker
filmmakers
filmografii
filmography
films
fim
fin
final
finalist
finals
finance
financial
find
finding
fine
fingers
finland
finnish
fiofori
fiona
fiore
fire
fireboy
firewall
firm
firmware
first
fish
fisher
fisheries
fishing
fisk
fist
fit
fitzgerald
fivb
five
fiziks
fk
fl
flag
flags
flame
flames
flash
flashback
flat
flats
flavour
fleet
fleming
flemish
flesh
fletcher
fleur
flight
flint
flip
floating
flora
florence
florida
flow
flower
flowers
floyd
flu
fly
flying
flynn
fm
fnb
fo
focus
fogerty
fola
folake
folarin
folashade
folawiyo
foliyo
folk
folklore
following
fon
fondation
font
fontaine
fontsize
food
foods
fools
foot
football
footballer
footballers
for
forbes
forbidden
force
forced
forces
ford
fordham
fordjour
foreign
forest
forestry
forever
forget
forgotten
form
format
formation
former
forms
forrest
fort
fortuna
fortune
forty
forum
forward
fossil
fosso
foster
foto
fouad
found
foundation
foundations
founded
founder
fountain
four
fourati
fourie
fourth
fowler
fox
foxx
fr
fra
fragile
frai
frame
framework
franc
franca
francaise
france
frances
francesco
franchise
francine
francis
francisca
francisco
franck
franco
francois
franconian
francophone
francophonie
frank
frankfurt
frankie
franklin
frans
franz
fraser
fraternity
fre
fred
freddie
freddy
frederick
free
freed
freedman
freedom
freeman
freestyle
freetown
french
fresh
freshman
fricative
fricatives
friday
fridays
fried
friedman
friedrich
friend
friends
friendship
frieze
friji
frimpong
fringe
fritz
from
front
frontier
frost
fruit
ft
ftu
ftz
fu
fuck
fufu
fugard
fuji
ful
fulani
fulbright
fulham
full
fuller
fullerton
fun
functioning
fund
funeral
fungi
funk
funke
funmi
funmilayo
funny
fuo
further
furu
fusion
future
futures
fw
g
ga
gaa
gaara
gaba
gabigara
gabon
gaborone
gabriel
gabriela
gabriella
gachara
gaddafi
gafe
gafee
gafere
gaga
gage
gaghari
gaghi
gail
gaines
gaither
gakwara
gakwuru
gakwuuru
gal
gala
galal
galaxy
gale
galerie
galik
gallagher
galleria
galleries
gallery
gallo
gam
gamal
gambia
gambo
game
games
gamil
gan
gana
gandhi
ganduje
gang
gangsta
gani
ganihu
ganiihu
gansu
gaositwe
gaps
gara
garage
garanya
garba
garcia
garde
garden
gardens
gardner
gareth
gari
garner
garrett
garri
garris
garrison
garvey
gary
gas
gasi
gate
gates
gateway
gatsby
gauge
gauteng
gavin
gawa
gawad
gawara
gay
gayaza
gaye
gaz
gaza
gazette
gb
gba
gbaa
gbaara
gbachara
gbachi
gbachiri
gbachitere
gbadamosi
gbadara
gbadoro
gbaga
gbagara
gbagburu
gbagha
gbaghaara
gbaghara
gbago
gbagoro
gbagyi
gbahapu
gbajiri
gbakere
gbako
gbakwara
gbakwu
gbakwunye
gbakwunyere
gbala
gbali
gbanahu
gbanari
gbanwe
gbanwee
gbanwere
gbanye
gbanyere
gbanyu
gbapu
gbara
gbasa
gbasaa
gbasara
gbasasi
gbasawanye
gbasi
gbasiri
gbaso
gbasoo
gbasoro
gbatara
gbati
gbawara
gbaya
gbazere
gbazinye
gbazinyere
gbaziri
gbazite
gbazitere
gbe
gbenga
gbo
gbochie
gbochiri
gboo
gboroja
gbr
gbu
gbuo
gbupu
gburu
gburugburu
gbusi
gcina
gdp
ge
gear
gebre
gee
geers
gen
gender
gendler
gene
general
generation
generations
generic
genesis
genetic
geneva
genevieve
genital
genius
genocide
genome
gent
gentleman
genus
genzebe
geo
geoffrey
geographic
geographical
geography
geological
geology
geometric
georg
george
georges
georgetown
georgette
georgia
georgina
geothermal
ger
gerald
gerard
gere
gerhard
germain
german
germany
gertrude
gerund
get
gets
getting
getty
gh
gha
ghachi
ghachiri
ghachite
ghada
ghaghi
ghana
ghanaian
ghanaweb
ghandi
ghanem
ghara
ghari
ghariokwu
ghata
ghazal
ghee
ghent
ghetto
ghg
ghi
gho
gholson
ghoriba
ghost
gi
giant
giants
gibbs
gibson
gide
gideon
gidere
gidewo
gidi
gif
gift
gigi
gil
gilbert
gill
gilliam
gillian
gillick
gilly
gilmer
gims
gina
ginger
giovanni
girl
girls
gish
giuseppe
give
given
gives
giving
giwa
giza
gje
gl
glacier
glaciers
gladys
glamour
glasgow
glass
glen
glenn
glo
globacom
global
globe
gloria
glory
glottal
glottolog
glover
glyph
gma
gne
gnu
go
goa
goal
goals
goat
god
goddess
goddy
godfrey
godi
gods
godwin
goes
goethe
gogo
gogulu
going
gokada
gola
gold
goldberg
goldblatt
golden
goldie
goldman
goldsmith
golf
gombe
gone
gong
good
goodbye
goodluck
goodman
goodreads
goodwill
google
goolu
goomenti
gooro
gordimer
gordon
gordy
gore
goro
gosi
gosikwara
gosipu
gosiputa
gosiputara
gosiri
gospel
goss
got
gotham
gothenburg
gothic
gov
govender
governance
governing
government
governor
governorate
governors
govt
gowon
gq
gqulu
gra
grace
graceanna
grade
graduate
graeme
graffiti
graham
grahamstown
grammar
grammy
gran
granada
grand
grande
grange
grannies
granola
grant
granta
graphic
graphics
grass
grassfields
grave
graves
gray
great
greater
greatest
greece
greek
green
greenberg
greene
greenland
greens
greensboro
greenwich
greenwood
greg
gregorian
gregory
grenadines
grenoble
gresham
greta
grey
grid
griffin
griin
grik
griot
gris
groove
gross
ground
groundnut
group
groups
grove
growing
grown
growth
grp
gs
gtbank
gu
gua
gualinga
guangdong
guangxi
guangzhou
guaranty
guard
guardian
guatemala
gucci
gue
guest
gueye
guggenheim
guidance
guide
guidelines
guild
guildhall
guilty
guinea
guinean
guingamp
guinness
guitar
guizhou
gujarati
gula
gulama
gulder
gulf
gully
gulu
gum
gumuz
gun
guns
gunyere
guosa
gupta
gur
gurage
gurira
guru
gustav
guthrie
guy
guyana
guzo
guzobe
guzobekwara
guzobere
guzogidere
guzoro
guzosie
guzosiri
gwa
gwako
gwandara
gwara
gwe
gwen
gwendolyn
gwo
gwongworo
gwu
gwuo
gwupu
gwuru
gy
gyang
gypsy
h
ha
haala
haase
habib
habiba
habibi
habila
had
hadhra
hadith
hadiza
hadj
hafez
hafsat
hagedorn
hague
hai
haifa
haile
hainan
hair
haiti
haitian
hajiya
hajjaj
hakeem
hakim
hal
hala
hale
half
halim
halima
hall
halle
halloween
halsey
ham
hama
hamadi
hamama
hamburg
hamburger
hamdi
hamed
hamid
hamilton
hamlet
hammam
hammer
hammerl
hammie
hammond
hampshire
hampton
hamri
hamza
han
hana
hanan
hancock
hand
handbook
handcox
hands
haneze
hani
hank
hanna
hannah
hanover
hans
hansen
happiness
happy
hapu
haqq
hara
haram
harare
harbor
harcourt
hard
hare
harissa
harlem
harlequin
harleston
harmattan
harmon
harmony
harold
harouna
harper
harpercollins
harrassowitz
harriet
harriman
harrington
harris
harrison
harrow
harry
harrysong
hart
hartford
haruna
harvard
harvest
harvey
has
hasan
hasemyer
hashtag
hasni
hassan
hat
hate
hatem
hatiye
hau
haunted
haus
hausa
haut
haute
hauwa
havana
have
haven
hawa
hawaii
hawaiian
hawkins
haworth
hay
hayat
hayden
hayes
hayet
hayward
hazel
hazi
hazie
hazighari
haziri
hb
hbo
hcards
hd
he
head
headies
headquarters
heads
healing
health
healthcare
healthy
heard
heart
heartland
hearts
heat
heather
heathrow
heaven
heavy
hebrew
hedi
hedwig
heerden
heffermehl
heforshe
hefuna
hegerberg
heidi
height
heights
hein
heineken
heinemann
heinrich
heirs
heksie
hekta
hel
held
helen
helena
helene
heliopolis
hell
hellen
hello
helmut
helmy
help
helped
helsinki
hemisphere
hemochromatosis
hemphill
hen
henderson
hendrik
henkel
hennacy
hennessy
henri
henry
henshaw
hepatitis
her
herald
herbert
herculis
here
heritage
herman
hermann
hermanus
hero
heroes
herring
hertzog
herve
herzegovina
heshmat
het
hewatch
hewitt
hey
hi
hibere
hibiscus
hibru
hicks
hidden
hide
high
higher
highland
highlife
highway
hijab
hilary
hilda
hill
hillary
hills
hillsong
hilton
him
hind
hindi
hindu
hip
hipu
his
hissabat
histoire
historian
historic
historical
histories
history
historymakers
hit
hitler
hits
hiv
hiwar
hiwe
hiwere
hlongwa
hmd
hms
ho
hob
hobbs
hoc
hockey
hoe
hoffman
hofmeyr
hogan
holby
hold
holder
holding
holdings
holds
holiday
holland
hollingsworth
holloway
holly
hollywood
holman
holmes
holocaust
holt
holy
home
homecoming
homeland
homepage
homepod
homes
homme
hommes
homo
homonu
hon
honda
honduras
honey
hong
honolulu
honor
honorable
honorary
honored
honoris
honors
honour
honourable
honours
hons
hood
hoodoo
hooks
hop
hope
hopes
hopkins
hoputara
hopwood
horace
horizon
horizons
hormone
horn
horror
horse
horses
horton
hosni
hosny
hospital
host
hot
hotara
hotel
hotels
hotspur
hottentot
hottest
hou
houari
houghton
hour
hours
house
houses
housewives
housing
houston
how
howard
however
hozo
hq
hrd
htm
html
http
https
hu
hub
hubei
hubert
huckaby
huda
hudson
huffington
hugh
hughan
hughes
hugo
huguenot
hui
huisgenoot
hulk
hull
human
humanitarian
humanities
humanity
humphrey
hund
hundred
hung
hungarian
hungary
hunger
hunt
hunter
huntington
hurdles
hurston
huru
hus
husband
hussaini
hussein
hustle
hyde
hyderabad
hydrogen
hylton
hyperallergic
i
iaaf
ian
ias
iata
iba
ibadan
ibe
ibekwe
ibelata
ibeno
iberibe
ibi
ibibi
ibibio
ibipu
ibm
ibn
ibo
ibom
ibrahim
ibru
ibu
ibufe
ibuga
ibughari
ibuli
iburu
ibute
ic
ica
icc
ice
iceberg
iceland
icelandic
iche
ichebe
icheku
ichekwa
ichepu
ichere
icheta
ichi
ichie
ichu
icon
icons
ict
id
ida
idah
idahosa
iddo
ide
idea
ideas
ideato
idebe
idei
ideko
idemili
identity
idepu
idewu
idi
idia
idibia
idina
idir
ido
idobe
idol
idols
idoma
idowu
idozi
idris
idrissa
idu
iduga
iduzi
ie
if
ifa
ife
ifeajuna
ifeanyi
ifeoma
iffhs
ifo
ifufe
ifuru
ig
iga
igala
iganmu
igba
igbasa
igbe
igbo
igbobi
igbochi
igboland
igbos
igbu
igbuchapu
ige
ighodaro
igodo
igosi
igosipu
igu
igurube
iguzo
iguzobe
iguzogide
iguzosi
igwe
igwefoto
igwu
ihe
ihedioha
iheme
iheomume
ihere
ihi
ihiala
ihicha
ihichapu
ihie
ihs
ihu
ihuenyo
ihunanya
ii
iii
ijaw
ije
ijebu
ijede
ijele
ijeoma
ijere
ijeri
iji
ijide
ijiko
ijikwa
ijipt
ijora
iju
ijuanya
ik
ika
ike
ikechukwu
ikeja
ikeji
ikekwe
ikenga
ikenne
ikenye
ikere
ikesa
ikewapu
ikhamanga
ikhwa
ikike
ikikere
ikiri
iko
ikoku
ikom
ikono
ikorodu
ikosi
ikot
ikoyi
ikpa
ikpe
ikpeazu
ikpebi
ikpere
ikpo
ikpochapu
ikpu
ikpuchi
ikpughe
ikpuru
iku
ikuku
ikwe
ikweko
ikwenye
ikwere
ikwerre
ikwo
ikwu
ikwupu
ikwuri
ikwuu
il
ila
ile
ileba
ileghara
ileko
ilekwasi
ilesa
ilesha
ileta
ilex
ili
illinois
illustrated
ilo
ilorin
ilu
im
ima
image
images
imagination
imagine
imaging
imam
iman
imdb
ime
imebi
imecha
imechi
imegbu
imeghari
imeghe
imegide
imeju
imeko
imepu
imeri
imeru
imetu
imewe
imezi
imezighari
imeziwanye
imezu
imf
img
imi
imirikiti
immigrant
immigration
imo
imota
impact
imperial
implosive
improve
in
ina
inaugural
inc
inch
include
included
includes
including
inclusion
incorporated
incorporates
inde
independence
independent
index
india
indian
indiana
indianapolis
indicum
indie
indies
indigenous
indigo
individual
indo
indonesia
indonesian
indoor
industrial
industries
industry
ine
inec
infantry
infectious
infinitive
infinity
influence
influential
influenza
info
infobox
information
infrastructure
inge
ingle
ingrid
inherit
ini
initiated
initiative
initiatives
injera
injin
injini
injinia
ink
inn
inner
innes
innocence
innocent
innovation
innovative
ino
input
inquirer
inquiry
inside
insideclimate
insider
inspector
inspiration
inspirational
inspired
instagram
installation
instead
institut
institute
institution
institutions
instrumental
insurance
int
intanet
integrated
integrity
intellectual
intelligence
inter
interactive
intercontinental
interdisciplinary
interest
interface
interior
internacional
internal
international
internationale
internet
interpol
interpretation
intervention
interview
interviews
intervocalic
interwiki
interwikitmp
into
introduction
inventaire
investigation
investment
investments
invisible
invitational
inwe
inweta
inye
inyeaka
inyefe
inyere
inyocha
inyom
io
iol
iom
iowa
ip
ipa
ipcc
ipupa
ira
iran
iraq
iraqi
ire
ireland
irene
irepodun
iri
irighiri
irii
iris
irish
irma
iro
iroha
irokotv
iron
ironsi
iru
irving
is
isa
isaac
isabel
isabella
isaiah
isale
isbn
ise
iseokwu
iseyin
ishi
ishii
ishmael
isi
isiagu
isiakwu
isiala
isibaya
isidingo
isii
isiokwu
islam
islamic
islamist
island
islands
ismail
ismaila
iso
isoko
isolo
isong
isonye
isonyere
israel
issa
issn
issue
issues
ista
istanbul
isu
it
ita
itali
italia
italian
italy
ite
iteghete
item
items
itenani
iteolu
itf
iti
itinye
ito
itolite
itolu
itoolu
its
itsekiri
itself
itt
itu
itunes
itv
iv
ivan
ivo
ivoire
ivorian
ivory
ivy
iwa
iwe
iweala
iwebata
iweghachi
iweghachite
iwepu
iwere
iweta
iwobi
iwu
iwughachi
iwulite
ix
iya
iyabo
iyalode
iyamah
iyanya
iyasu
iyi
iyke
ize
izere
izi
iziga
iziko
izipu
izizi
izo
izon
izrel
izu
izugbe
izute
j
ja
jaafar
jabavu
jacana
jack
jackie
jackson
jacksonville
jacob
jacobs
jacqueline
jacques
jada
jade
jae
jag
jager
jagz
jah
jaheen
jai
jakande
jaket
jalade
jam
jamaica
jamal
jamar
jamel
james
jamie
jamila
jan
jane
janeiro
janet
jani
january
japan
japanese
jara
jari
jarrell
jasmine
jason
jay
jazeera
jaziri
jazz
jazzy
je
jea
jean
jeanette
jeanne
jeannette
jee
jeere
jeff
jeffers
jefferson
jeffrey
jegede
jehova
jelimo
jemima
jenifa
jenkins
jenna
jenner
jennie
jennifer
jennings
jenny
jensen
jenu
jenuari
jepchirchir
jepkosgei
jeptoo
jerbi
jere
jeremiah
jeremy
jeroen
jerome
jerry
jersey
jerusalem
jesse
jessica
jessie
jesu
jesuit
jesus
jet
jets
jeune
jeunesse
jewel
jewell
jewish
jews
ji
jide
jidenna
jidere
jie
jigawa
jigidere
jiji
jijiji
jiko
jikwa
jikwaa
jill
jim
jimi
jimmy
jimoh
jin
jinja
jinzhou
jiri
jiria
jirila
jishou
jisiri
jisoo
jita
jive
jizo
jju
jm
jnr
jo
joa
joan
joanna
joanne
joans
joat
job
joburg
jodi
joe
joel
joey
johan
johann
johanna
johannes
johannesburg
john
johnny
johns
johnson
johnston
joins
joint
joke
jollof
jomo
jon
jonah
jonathan
jones
jongh
joram
jordan
jorge
jos
jose
josef
joseph
josephine
josh
joshua
josky
jou
joubert
jour
journal
journalism
journalist
journalists
journey
joy
joyce
jozi
jpeg
jpg
jr
js
jstor
ju
juan
juanita
juanya
juba
jubilee
judd
jude
judge
judicial
judith
judo
judy
juice
juju
jukun
jukunoid
jul
julai
jules
julia
julian
juliana
julie
juliet
julius
july
jum
jumia
jumoke
jump
jun
junction
june
jungle
junior
junn
jupu
juputara
juru
jury
jus
just
justice
justin
jute
juu
juun
juunu
juventus
jy
k
ka
kaa
kaadi
kab
kaba
kabale
kabinet
kabir
kabiye
kabyle
kacha
kachamara
kachasi
kadaga
kader
kadi
kadinal
kadir
kaduna
kae
kagbu
kagbuo
kagburu
kagga
kai
kaibe
kaikpe
kainji
kaiwu
kakawa
kal
kala
kalahari
kalakuta
kalam
kale
kalenda
kali
kalle
kalthoum
kalu
kama
kamakwa
kamal
kamara
kambalu
kamel
kamerun
kamgbe
kamkwamba
kammu
kampala
kamwe
kan
kanayo
kanda
kandu
kane
kani
kanival
kannada
kannywood
kano
kansa
kansas
kansu
kanu
kanumba
kanuri
kanye
kapchorwa
kapeeti
kapet
kapi
kappa
kara
karabo
karai
karama
karate
kardashian
kare
karen
kari
karia
karim
karin
kariri
karl
karma
karnataka
karo
karoo
kasai
kasi
kass
kassel
katagum
katalo
katalog
kate
kateb
katembo
katharine
katherine
kathleen
kathryn
kathy
katidral
katie
katigori
kato
katrina
katsina
katy
katz
kaufman
kaur
kay
kayo
kayode
kazakhstan
kazan
kcee
ke
kebbi
kebe
kebede
kedu
kee
keene
keep
keeping
keere
keffi
kehinde
kei
keita
keith
kekele
kekere
keko
kelani
kelechi
kelee
kelere
kelly
kelvin
kemgbe
kemi
kemistri
kemp
kemper
ken
kendall
kendell
kendrick
kenkey
kennedy
kenneth
kenny
kensington
kent
kente
kentridge
kentucky
kenya
kenyan
kenyatta
kenyere
kenzo
kerala
kere
keri
kerry
kesaa
kesara
kesh
kesha
keta
ketara
ketu
kevin
kew
kewa
kewaa
kewapu
kewara
key
keyboard
keyes
keys
kg
kh
kha
khadija
khaimah
khair
khaled
khalid
khalifa
khalil
khan
kharkiv
khartoum
khoe
khoekhoe
khoisan
khorshid
khottab
khumalo
ki
kia
kiambukuta
kianni
kibera
kibet
kichin
kick
kid
kidnapped
kids
kiev
kigali
kigen
kiiza
kiki
kikuyu
kilimanjaro
kill
killed
killer
killing
kills
kilogram
kilomita
kim
kimani
kimberley
kimberly
kin
kind
king
kingdom
kings
kingsley
kingston
kingsway
kinshasa
kiplagat
kipyego
kipyegon
kiri
kiribati
kirikiri
kirk
kiss
kisses
kit
kita
kitchen
kivu
kizz
kknk
klaasi
klarer
klas
klasi
klein
klerk
klo
kloss
km
knight
knights
knockout
knopf
know
knowledge
knowles
known
knox
knust
ko
koch
koffi
kofi
kogi
kojo
koki
koko
kol
kola
koleji
kolkata
kollwitz
kolo
koloane
kom
koma
konate
kong
kongo
konono
koodu
kool
koos
kor
kora
korea
korean
kornegay
korona
kosoko
koti
kotoko
kou
kourouma
kp
kpa
kpachaara
kpachapu
kpachara
kpagburu
kpakpando
kpali
kpalie
kpaliri
kpalite
kpalitere
kpam
kpamkpam
kpara
kpari
kpasuru
kpata
kpatara
kpe
kpebie
kpebiri
kpebisiri
kpee
kpere
kpo
kpochapu
kporo
kpu
kpuchie
kpuchiri
kpughee
kpughere
kpuru
kpuwere
kra
krai
kraist
kredit
kresge
kris
krishnan
krismas
kristi
kristian
kristin
kru
krueger
kruger
krut
ks
kto
ktoba
ku
kuchiri
kudirat
kuhlman
kuiper
kuka
kuki
kuku
kuli
kulthum
kulture
kumalo
kumar
kumasi
kumba
kumi
kung
kunle
kunming
kunst
kunsthalle
kunstverein
kurt
kuru
kush
kuteb
kuti
kuwait
kuziri
kuznetsova
kuzwayo
kw
kwa
kwaa
kwabatara
kwadebe
kwadebere
kwado
kwadokwara
kwadoo
kwadoro
kwaga
kwagara
kwaghi
kwaku
kwakum
kwali
kwalite
kwalitere
kwame
kwami
kwankwaso
kwanye
kwanyeere
kwanyere
kwapu
kwara
kwasi
kwasio
kwatu
kwatuo
kwaturu
kwazi
kwazulu
kwe
kwei
kweko
kwela
kweli
kwenye
kwenyere
kwenyesiri
kwere
kwesi
kwesiri
kweta
kwetara
kwo
kwu
kwubiri
kwughachi
kwughachiri
kwukwara
kwuo
kwuola
kwupu
kwuputara
kwuri
kwuru
kwusara
kwusi
kwusiri
ky
kyambogo
kyiv
kyknet
kyle
kyoto
l
la
laa
laan
laaziza
lab
labe
label
labelu
labidi
labor
laboratory
labour
lac
lace
lachey
lack
ladi
ladies
ladipo
lady
laedo
lafarge
lafayette
lafia
lager
laghachi
laghachiri
laghachite
laghachitere
lagodi
lagoon
lagos
lagosians
lagosphoto
lai
laila
lake
lakes
lakhdar
lakshmi
lala
lam
lamar
lamata
lamb
lambda
lambo
lamidi
lamido
lamington
lamjarred
lan
lanari
lancaster
lance
land
landi
landscape
lane
laney
lang
langa
lange
lango
langston
language
languages
langues
lanka
lanre
lansing
lantern
lanzhou
lao
laos
lapto
lara
large
lari
larry
las
laser
lashes
lassaad
last
lasu
late
lateef
later
latex
latham
lati
latif
latifa
latifah
latin
latitude
lattier
latvia
lau
laude
laughter
launch
launches
laura
laureate
lauren
laurence
laurent
lauretta
laurie
lauryn
lausanne
law
lawal
lawanson
lawma
lawrence
laws
lawson
lawyer
lawyers
lay
layali
layiwola
layla
laylah
lazarevic
lazarus
lazio
lb
lbs
lcc
lcda
ld
le
lead
leader
leaders
leadership
leading
leaf
league
leah
leap
lear
learning
leave
leaving
leba
lebanese
lebano
lebanon
lebara
lebeelu
lebo
lecture
lecturer
led
lee
leeds
leekwa
left
legacy
legal
legend
legendary
legends
leghaara
leghachi
legion
legislation
legislative
legislature
legit
lego
legon
legos
lei
leica
leicester
leiden
leigh
leila
leipzig
leith
leji
leki
lekki
leko
lekwasi
lele
lelee
lema
lemi
lemon
lemu
lena
lens
leo
leon
leonard
leonardo
leone
leopoldville
lerato
lere
leroux
leroy
les
lesbian
lesley
leslie
lesotho
less
lesson
lessons
let
leta
letter
letters
lettres
levant
level
levels
levi
levine
levy
lewinsky
lewis
lexicon
lexington
ley
leye
lg
lga
lgas
lgbt
lgbtq
li
libe
libel
liberal
liberalism
liberation
liberia
liberian
liberorum
libertarian
liberties
liberty
libraries
library
libre
libreville
libya
libyan
license
lie
liebenberg
liefde
lien
lies
lieutenant
liewe
life
lifestyle
lifetime
lift
lig
liga
light
lightner
lights
ligue
lik
like
lil
lila
lilanga
lilia
lilian
lille
lillian
lilly
lily
lim
lima
limit
limited
limits
limo
limpopo
lin
lincoln
linda
lindiwe
lindsay
lindsey
line
linear
lines
lingala
linguistic
linguistics
linguistique
link
linkedin
links
linus
lion
lionel
lionheart
lions
lipshitz
lipstick
lira
liri
lisa
lisbon
list
listed
listen
lists
lit
lite
literary
literature
literatures
litere
lithuania
little
liu
live
lived
livelihood
liver
liveright
liverpool
lives
living
livingston
livingstone
lix
liz
liza
lizzie
ll
llb
llc
lle
ller
lloyd
lm
ln
lo
local
location
lock
lockdown
locke
lockett
loco
lodge
logan
logic
logistics
logo
logone
lohan
loko
lokoja
lokole
lokomotiv
lokoya
lola
lolo
lombard
lome
london
lonely
long
longitude
longman
longomba
look
looked
looking
lookman
loop
loose
lopes
lopez
lopit
lora
lord
lords
lorenzo
lorna
loroupe
lorraine
los
losing
loss
lost
lot
lota
lotfi
lotuko
lotus
lotz
lou
louie
louis
louisa
louise
louisiana
louisville
lounge
louw
love
lovelace
lovell
lover
lovers
loves
loving
low
lower
loyola
lp
lra
lsu
lt
ltd
lu
luambo
luanda
luba
lucas
lucie
luck
lucky
lucy
ludwig
lugbara
luis
luisa
luke
lulu
lumie
lumumba
lunch
lungu
luo
luru
lusaka
lutfi
luther
lutheran
luthuli
luton
lutumba
luv
lux
luxembourg
luxor
luxury
lyce
lydia
lyn
lynch
lynn
lynne
lynxxx
lyon
lyric
lyrics
m
ma
maa
maachi
maahi
maapu
maara
maasai
maatu
maay
maazi
mabel
mabiala
mabrouk
mabunda
mabuza
mac
macarthur
macau
macaulay
macbeth
macdowell
macgregor
mach
machi
machibido
machibidoro
machine
machona
mack
mackay
macmillan
macon
macro
macron
mad
madagascar
madam
madame
made
madeleine
madge
madi
madih
madilu
madison
madjozi
madness
madonna
madrid
madu
maduabum
madueke
mae
maestro
mafa
mafia
magazin
magazine
magburu
magema
maggie
maggs
maghi
maghreb
maghrebi
magic
magistrate
magu
magubane
mahad
mahadim
mahadu
mahadum
mahaduma
mahama
mahanyele
mahatma
mahdaoui
mahdi
maher
mahfouz
mahi
mahia
mahlangu
mahmood
mahmoud
mahmud
maho
mahu
mai
maid
maiduguri
mail
main
maina
maine
mainland
mainstream
maint
maintenance
maison
maj
maja
majang
majdi
majesty
majid
majie
major
majors
mak
maka
make
makeba
maker
makerere
makers
makes
makhaya
makhuwa
makiadi
makinde
making
makinwa
mako
makoko
makoma
maktoub
maku
makun
makurdi
makwa
makwaara
makwara
makwu
mal
malagasy
malaika
malan
malaria
malawi
malawian
malay
malaysia
malcolm
maldives
male
maleek
malek
malherbe
mali
malick
malik
malite
maliteghachi
maliteghachiri
malitekwara
malitere
mall
mallam
malmo
malope
malt
malta
malware
mama
mamadou
mambiloid
mambo
mami
mamie
mamu
man
mana
management
manager
managing
manar
manchester
manchu
mandara
mande
mandela
mandindi
mandu
mandyeng
mane
manga
mangbetu
mango
mangrove
mangwana
manhattan
mani
mania
manifesto
manila
manitoba
mann
mansiamina
mansour
manu
manual
manuel
manuscript
many
manya
manye
manyere
manyika
mao
map
mapangala
mapinduzi
mapping
maps
maputo
mar
mara
marae
marais
maram
marathon
marathons
marble
marc
marcel
march
marchant
marcia
marco
marcos
marcus
mare
margaret
margi
margin
marguerite
mari
maria
mariah
mariam
marian
marianne
marie
mariela
mariga
marilyn
marina
marine
marinovich
mario
marion
maritime
marjorie
mark
market
marketing
markets
marks
marlene
marley
marlin
maroc
maroko
maroni
marquis
marrakech
marrakesh
marriage
married
marry
mars
marseille
marsh
marshal
marshall
martha
martial
martin
martine
martinez
martins
martyrs
marv
marvel
marvin
mary
maryam
maryland
mas
masa
masai
masedonia
masekela
mash
mashinini
masi
mask
masks
mason
masquerade
masquerades
masr
masry
mass
massa
massachusetts
massey
masta
mastas
master
mastercopy
masters
mata
matara
match
matches
mater
material
materials
matheba
mathematical
mathematics
matilda
matoub
matrix
matt
matter
matters
matthew
matthews
matu
maureen
maurice
mauritania
mauritius
mautloa
maverick
mavin
mavis
max
maxwell
may
maya
mayer
mayi
mayo
mayor
mayorkun
mays
mazhar
mazi
mb
mba
mbadamba
mbaise
mbaka
mbale
mbanga
mbara
mbarara
mbarga
mbari
mbata
mbau
mbc
mbe
mbeki
mbelata
mbenza
mberede
mbgn
mbi
mbibi
mbido
mbilite
mbinye
mbipu
mbiputa
mbo
mbu
mbubata
mbubreyo
mbufe
mbughari
mbuli
mbum
mbunobi
mbupu
mbuso
mbutu
mbuze
mc
mcbride
mcbrown
mccreedy
mcdonald
mcdonnell
mcewen
mcgee
mcgill
mcgowan
mcgregor
mckay
mckenzie
mcneill
md
mdc
mdi
me
mean
meaning
means
measures
mebere
mebie
mebiri
mec
mecca
mecha
mechaa
mechakwara
mechanical
mechanics
mechara
mechie
mechiri
med
medal
media
mediawiki
medicaid
medical
medicine
medina
mediterenian
mediterranean
medium
mee
meek
meela
meer
meet
meeting
meets
mefuru
meg
mega
megan
meghachi
meghachiri
meghari
meghee
meghere
meghi
megide
megidere
mehdi
meier
mein
meji
mejo
mejupu
mejuputa
mejuputara
meka
mekky
meko
mekwara
mel
melanie
melbourne
melissa
melite
mellon
melody
melvin
member
members
memoir
memoirs
memorial
memoriam
memories
memory
memphis
men
mena
mendel
mendes
mendoza
mendy
menelik
mensah
ment
mental
menti
mention
mentu
menu
mepee
mepere
mepu
mer
mercedes
mercer
merchant
mercury
mercy
mere
meredith
merenu
meri
merie
meriem
merikwara
meriri
merit
merkel
merry
merton
meru
merwe
mes
meseret
mesi
mesie
mesiri
meskerem
message
messenger
met
meta
metal
meteorologist
meter
meters
methane
method
methodist
meto
metres
metric
metro
metropolis
metropolitan
metta
metu
metz
meworo
mexico
meyer
meyers
mez
mezie
mezighari
meziwanye
meziwanyere
mezue
mezuo
mezuru
mfa
mfe
mfr
mfu
mg
mgba
mgbaa
mgbaaka
mgbaba
mgbada
mgbagha
mgbaghara
mgbaghari
mgbago
mgbagwoju
mgbaka
mgbake
mgbako
mgbakwunye
mgbali
mgbanaka
mgbanwe
mgbapu
mgbaru
mgbasa
mgbasawanye
mgbati
mgbawa
mgbazi
mgbazinye
mgbe
mgbede
mgbei
mgbere
mgbi
mgbidi
mgbo
mgbochi
mgbochiume
mgbu
mgbukpo
mgudlandlu
mh
mhlophe
mi
mia
miami
mic
michael
michaela
michaelis
miche
micheal
michel
michele
michelle
michigan
michika
micro
microbiology
microformats
microsoft
mid
middelburg
middle
middlesex
midia
midlands
midnight
midwest
mie
miftah
mighty
migrant
migrants
migration
miguel
mikano
mike
mikel
mikhail
mikpuru
milan
mildred
mile
miles
military
milk
mill
mille
millennium
miller
millet
millin
million
millionaire
mills
millwall
milly
milton
milwaukee
mimi
mimiko
min
mina
minaj
mind
minds
mine
mineral
minerva
mines
ming
mini
minine
mining
miniseries
minista
minister
ministers
ministri
ministries
ministry
minna
minneapolis
minnesota
minnie
minor
minorities
minority
minsk
mint
minter
minutes
miracle
miracles
mirage
miranda
miri
miriam
mirror
misho
miss
missing
mission
missionary
mississippi
missouri
missy
mistah
mister
mit
mita
mitchell
miti
mitii
mix
mixed
mixtape
mixtapes
mkhize
mko
mkpa
mkpado
mkpagbu
mkpako
mkpali
mkpanaaka
mkpanaka
mkpara
mkpari
mkparita
mkpebi
mkpeghari
mkpesa
mkpi
mkpirikpi
mkpirisi
mkpo
mkpocha
mkpochapu
mkpofu
mkpoko
mkpu
mkpuchi
mkpughe
mkpuru
mkwem
mlambo
mls
mm
mma
mmachi
mmachibido
mmado
mmadu
mmalite
mmanu
mmanwu
mmanya
mmanye
mmasi
mmata
mmd
mme
mmebe
mmebi
mmecha
mmechi
mmechuihu
mmefu
mmega
mmegbu
mmeghachi
mmeghari
mmeghe
mmegide
mmegwara
mmehie
mmejo
mmejuputa
mmeka
mmeko
mmekorita
mmekpa
mmelite
mmeme
mmemme
mmepe
mmepeanya
mmepu
mmeputa
mmeri
mmeru
mmesapu
mmesi
mmeso
mmeto
mmetu
mmezi
mmezighari
mmezu
mmi
mmiri
mmu
mmuo
mmuta
mn
mnamet
mnangagwa
mnet
mo
mob
mobil
mobile
mobo
mobolaji
mobutu
mode
model
models
modern
moderna
moderne
modernism
modise
modiselle
modjaji
module
modupe
moez
mofe
mofokeng
mofu
mogadishu
mohamed
mohammad
mohammed
mohombi
moi
moin
moines
moire
mojo
mokhtar
molara
moldova
molecular
molly
molo
moloi
molokhiya
moloney
molteno
mom
moma
mombasa
moment
moments
momo
momoh
mon
mona
monaco
monalisa
moncef
monday
monde
monetary
money
mongol
mongolia
mongolian
mongols
monica
monitor
monk
monkey
monograph
monroe
monrovia
monster
montana
montclair
monte
montenegro
montgomery
month
monthly
montpellier
montre
montreal
monu
monument
moody
moon
moore
moosa
mopane
moral
more
morgan
morio
morning
moroccan
morocco
morogoro
morphemes
morphology
morris
morrison
mort
mortgage
morton
mosaic
moscow
mose
moser
moses
moshood
mosley
mosque
moss
most
mostafa
mostert
mother
mothers
motion
motlhalo
moto
motor
motors
motown
motsepe
moufida
mouna
mounir
mount
mountain
mourad
mouse
moussa
mouth
moutoussamy
move
moved
movement
movements
movie
movies
moving
moyamba
moyo
mozambican
mozambik
mozambique
mozis
mp
mpaghara
mpako
mpe
mpempe
mpi
mpigi
mposi
mps
mpu
mpumalanga
mputa
mr
mrs
ms
msa
msamati
msc
mselmani
msezane
msimang
mt
mthethwa
mtn
mtv
mu
mubarak
mubi
much
mugabe
mugabi
muhammad
muhammadu
muhammed
muhammet
mujuru
mukomberanwa
mukono
mulder
multi
multichoice
multimedia
multiple
mumbai
mummy
muna
mund
mundi
munich
municipal
municipality
munist
munyaradzi
mupi
mural
murals
murder
murle
murphy
murray
mursi
murtala
muru
musa
muse
museo
museum
museums
museveni
mushin
music
musica
musical
musician
musicians
musique
muslim
muson
must
mustafa
mustapha
mustard
mutharika
mutilation
mutu
mutual
mutuma
muvhango
muzik
mvp
mvusi
mw
mwakpo
mwangi
mwanza
mwashinga
mwe
mweghachi
mwenda
mwepu
mwu
mwute
my
myanmar
myburgh
mydrim
myers
myiri
myriam
myself
myspace
mystery
myth
mzansi
n
na
naa
naacp
naani
nabata
nabatara
nabil
nachtwey
nacional
nada
nadi
nadia
nadine
nady
naeto
nafaanra
nafo
naga
naghi
nagide
naguib
nagy
nahu
nai
naia
naigeria
naija
naijeria
naiji
naijiri
naijiria
naijiriya
naijria
naima
nair
naira
nairobi
nakai
nakate
naked
nako
nakwa
nakwazi
nakweere
nakwere
nal
nala
naledi
nam
nama
namayanja
nambooze
name
named
names
namibia
namusisi
nan
nana
nancy
nandi
nani
nanjing
nantes
nanya
nanyi
naomi
naoufel
naouret
nap
napoleon
napoli
naptip
napu
nara
narain
narcisse
nari
narrative
nas
nasa
nasarawa
nash
nashville
nasr
nasrallah
nass
nassau
nasser
nasty
nat
nata
natakwara
natal
natala
natalia
natalie
natara
natasha
nathan
nathaniel
nation
national
nationale
nationality
nations
native
nato
natural
nature
nau
naval
navy
naya
naza
nazi
nb
nba
nbc
nbudata
nc
ncaa
nce
ncf
ncha
nchara
nche
nchebe
nchedo
nchegbu
nchekasi
nchekwa
nchekwube
nchen
ncheta
nchi
nchikota
ncho
nchoputa
nchu
ncipe
ncnc
nd
nda
ndaba
ndabara
ndabere
ndagwurugwu
ndaitwah
ndakpo
ndandarika
ndani
ndanitv
ndc
nde
ndebanye
ndebe
ndebele
ndeko
ndemsibia
ndensibia
ndenye
ndepu
nderbeu
ndetu
ndez
ndezi
ndezighari
ndi
ndia
ndiaye
ndida
ndidi
ndina
ndiri
ndlovu
ndo
ndokwa
ndombe
ndoro
ndozi
ndozighari
ndri
ndu
ndubuisi
nduka
ndukwe
nduzi
ne
nea
neal
neale
near
nebraska
nec
necessary
ned
need
needed
needs
nefertiti
negash
negative
negro
negroes
negus
nehme
neil
neill
nejib
nel
nelly
nelson
neo
nepal
nepali
neptune
nero
ness
nest
nestle
net
netball
netflix
netherlands
neto
netwo
network
networks
nevada
never
neville
new
newark
newcastle
newcomer
newman
newport
news
newsboys
newsletter
newspaper
newspapers
newswatch
newsweek
newton
nexim
next
nexus
nfl
nft
ng
nga
ngafe
ngaghari
ngahari
ngalaba
ngamo
nganga
ngbanwe
ngcobo
ngema
ngemba
ngho
ngizim
ngn
ngo
ngos
ngosi
ngosipu
ngosiputa
ngozi
ngu
ngugi
nguni
nguzo
nguzobe
nguzogide
nguzozi
ngwa
ngwaa
ngwaahi
ngwaike
ngwako
ngwanro
ngwao
ngwe
ngwo
ngwongwo
ngwu
ngwugwu
ngwuputa
nh
nha
nhata
nhatanha
nhazi
nhazighari
nhicha
nhiwe
nho
nhoputa
nhu
ni
nia
niamey
nicaragua
nice
nicholas
nick
nickelodeon
nicki
nicky
nico
nicola
nicolas
nicole
nie
nielsen
nife
nig
nigel
niger
nigeria
nigerian
nigerians
nigerien
night
nightingale
nights
nihu
nii
niile
nijiria
nik
nike
niki
nikki
nile
nilo
nilotic
nime
nimo
nin
nina
nine
ningxia
niniola
ninja
nio
nirox
niru
nite
nitrogen
nj
njaba
njami
nje
njedebe
njeghari
njehie
njem
njerep
njide
njigide
njikere
njiko
njikota
njikwa
njiri
njirimara
njo
njoku
njoroge
njoum
njupu
nk
nka
nkabinde
nkanu
nkasi
nkata
nkato
nke
nkea
nkebi
nkechi
nkedo
nkeji
nkeko
nkem
nkenke
nkenu
nkeo
nkeonwe
nkesa
nketa
nkewa
nkezi
nki
nkiri
nkiru
nko
nkoropu
nkosi
nkpuchi
nkrumah
nku
nkuchi
nkuku
nkume
nkuzi
nkwa
nkwadebe
nkwado
nkwaghari
nkwago
nkwako
nkwalite
nkwanye
nkwari
nkwaru
nkweko
nkwenkwe
nkwenye
nkwo
nkwonkwo
nkwu
nkwubi
nkwuchite
nkwuko
nkwupu
nkwuputa
nkwuri
nkwusa
nkwuto
nkwuwa
nl
nla
nlaghachi
nlc
nle
nleba
nlebanya
nlebara
nleda
nledo
nleghari
nleko
nlekota
nlele
nlere
nlereanya
nleta
nlezianya
nlo
nloghachi
nm
nma
nmadu
nn
nna
nnabata
nnagide
nnaji
nnakwere
nnamdi
nnapu
nnata
nne
nneka
nnenna
nnewi
nno
nnochi
nnochite
nnpc
nnu
nnukwu
nnupu
nnwale
nnwere
nnweta
nnyefe
nnyocha
no
noa
noaa
noah
nobel
noble
noe
noel
nog
noho
noir
noire
nok
nollywood
nolte
nom
noma
nominated
nomination
nominations
nominee
nominees
non
none
noni
nonkilling
nonso
nonviolent
noor
nor
nord
norden
nordic
norfolk
norma
normal
norman
normington
norris
north
northeast
northern
northwest
northwestern
norton
norway
norwegian
norwich
nos
not
notable
note
notes
nothing
notorious
notre
nottingham
nouah
noue
noun
nour
noura
noureddine
nouri
nouvelle
nouvelles
nov
nova
novel
novelist
novels
novemba
november
novo
now
npa
npc
npfl
npr
nr
nraranye
nrc
nri
nrita
nrite
nrm
nro
nru
nrubeisi
nse
nshima
nshok
nsi
nsibidi
nsibti
nsidee
nsima
nsinweta
nsit
nso
nsofor
nsogbu
nsonaazu
nsonye
nsu
nsukka
nt
nta
ntachi
ntaki
ntakiri
ntakti
ntanet
ntaneti
ntaramahu
ntecha
nther
nti
ntinent
ntinye
ntiwapu
nto
ntolite
ntombela
ntorobi
ntorobia
ntozu
ntsoma
ntu
ntuaka
ntughari
ntule
ntuli
ntuliaka
nturu
ntutu
ntuzi
ntuziaka
nu
nuc
nuclear
nude
nuer
nuhu
nuit
nuklia
number
numbers
numeric
nunn
nupe
nupedia
nur
nurse
nursery
nursing
nut
nutrition
nw
nwa
nwaa
nwaafo
nwaanyi
nwachukwu
nwada
nwadike
nwafo
nwafor
nwale
nwalee
nwalere
nwamba
nwankwo
nwanna
nwanne
nwanoku
nwanyeruwa
nwanyi
nwapa
nwara
nwari
nwata
nwataki
nwatakiri
nwayi
nwayo
nwe
nwebiisinka
nwebisiinka
nwee
nweekwa
nweela
nweere
nweghachi
nweghi
nweko
nwekwa
nwekwara
nwekwuo
nwelue
nwepu
nwere
nwesi
nweta
nwetaghachi
nwetaghi
nwetakwa
nwetakwala
nwetakwara
nwetala
nwetara
nwetasi
nwete
nwetere
nwfl
nwoke
nwoko
nwokolo
nwosu
nwsl
nwu
nwunye
nwuru
nxumalo
ny
nya
nyaahu
nyanga
nyarko
nyarroh
nyasaland
nyboma
nyc
nye
nyechara
nyeere
nyefe
nyefee
nyefere
nyeghi
nyekari
nyekwa
nyekwara
nyela
nyembe
nyere
nyi
nyiri
nyiwe
nyocha
nyochaa
nyochachara
nyochara
nyong
nyovest
nyra
nysc
nytimes
nyu
nz
nzacha
nzaghachi
nze
nzebo
nzekwu
nzeogwu
nzere
nzewi
nziko
nzipu
nzo
nzu
nzube
nzuko
nzute
nzuzo
nzuzu
o
oa
oak
oakland
oando
oasis
oau
oba
obafemi
obaigbena
obalende
obama
obasanjo
obasi
obe
obere
obi
obiano
obibi
obikwelu
obilade
obinna
obio
obiora
obiri
obituary
object
objects
obodo
oboh
oboli
obolo
obong
obosara
obosi
obote
observatory
observer
obu
obudu
obukwa
obula
oburu
oby
oc
occupation
ocean
oceania
ocha
oche
ocheeze
ochi
ochichi
ochie
oclc
oct
october
od
ode
odeaku
odeakwu
odee
odi
odibo
odida
odide
odili
odinani
odo
odofin
odu
oduduwa
odukoya
odumegwu
odumeje
odunlade
odunsi
odutola
odysseus
odyssey
oecd
of
ofada
ofala
ofe
ofesi
off
office
officer
official
ofo
ofoborh
ofr
often
ofu
ofufe
ofufo
og
oga
ogba
ogbako
ogbanje
ogbe
ogbenye
ogbi
ogbo
ogboh
ogbu
ogbugbo
ogbugbu
ogbunigwe
oge
ogene
oghe
oghere
ogho
ogi
ogidi
ogige
ogilvie
ogo
ogoja
ogologo
ogu
ogudu
ogugu
oguibe
ogun
ogunbiyi
ogundipe
ogunjami
ogunlesi
ogunlewe
ogunmola
ogunsanya
oguta
ogwashi
ogwe
ogwu
ogwumike
oh
oha
ohafia
ohere
ohi
ohia
ohio
ohu
ohuhu
ohuru
oil
ois
oja
ojeikere
oji
ojih
ojii
ojiji
ojo
ojoo
ojota
ojude
ojuelegba
ojuju
ojukwu
ok
oka
okacha
okachamara
okafor
okagbare
okanlawon
okaro
okayafrica
oke
okechukwu
okeke
okenye
okere
okereke
okey
okhai
okigbo
okigwe
okike
okirikiri
oklahoma
oko
okocha
okoh
okojie
okoli
okolie
okolo
okomoko
okon
okonjo
okonkwo
okooko
okoro
okorobi
okorocha
okoronkwo
okoye
okpa
okpala
okpalaeke
okpe
okpete
okpo
okpokoro
okpomo
okpomoku
okporo
okporou
okpu
okpueze
okpukpe
okpukpere
okpukperechi
okpukpu
okpuru
okra
okrika
oktoba
oku
okuku
okuma
okundaye
okunna
okwa
okwu
okwui
okwukwe
ol
ola
olabisi
oladapo
olaiya
olajumoke
olajuwon
olamide
olaniyan
olatunji
olayinka
old
older
ole
olee
oleracea
olga
olile
olileanya
olili
olimpia
olimpik
olisa
oliseh
olita
oliv
olive
oliver
olivia
olivier
olofin
oloko
olokun
olomide
olonisakin
olori
olowo
olowofoyeku
olowu
olu
oluchi
olufemi
olulu
olumba
olumide
olunloyo
oluo
oluronbi
olusegun
olusola
olusona
oluwa
oluwole
olympia
olympic
olympics
olympik
om
oma
omagbemi
omaha
oman
omar
omawumi
ombale
ombudsman
ome
omebe
omee
omega
omeili
omeiwu
omekome
omempu
omenaala
omenala
omenka
omere
omi
omimi
omnibus
omo
omogbehin
omokri
omoni
omos
omotic
omotola
omotoso
omowunmi
omu
omuma
omume
omumu
on
ona
onabanjo
onabolu
onayemi
onazi
once
ondo
one
oneness
ones
ongota
ongue
oni
onicha
onikan
onitsha
onli
online
only
ono
onobrakpeya
onodu
onome
ons
ontario
onu
onwa
onwe
onweghi
onwere
onwetara
onwu
onwuliri
onwunwe
onwurah
onyango
onye
onyeabor
onyeama
onyebuchi
onyeikpe
onyeisi
onyeisiala
onyeka
onyekwere
onyema
onyenokwe
onyenwe
onyinye
onyinyo
onyo
onyonyo
onyoo
oo
oon
oosterbroek
op
opara
opekata
open
opens
opera
operation
operations
opetum
ophthalmology
opi
opinion
opobo
opoku
opold
oppenheimer
opportunities
opportunity
opposition
oprah
option
optional
opupu
or
ora
oracle
oral
oran
orange
orchard
orchestra
orchestre
orchid
orchids
ordega
order
orders
ordinary
ordre
ore
oregon
org
organ
organic
organisation
organism
organization
organizations
ori
oria
oriaku
orie
orient
oriental
orientation
origin
original
origins
orio
oriri
orisaguna
orizu
orji
orlando
orleans
orlu
oro
oroma
oromia
oromo
oron
oroxylum
orthodox
orthography
oru
oruru
os
osa
osadebe
osagie
osaka
osakwe
osas
osasco
osazuwa
osborne
oscar
oscars
ose
osei
oshimiri
oshin
oshinowo
oshoala
oshodi
oshun
osi
osikapa
osili
osimhen
osimiri
osinachi
osinbajo
osise
osisi
osisioma
osita
oslo
osman
oso
osogbo
osote
ostriker
osu
osun
osunde
osupa
ot
ota
otedola
othello
other
others
oti
otii
otis
oto
ottawa
otto
ottoman
otu
otukpo
otulu
otunba
otuto
otutu
ou
ouagadougou
ouattara
oud
oue
ouertani
ouma
our
ousmane
out
outdoor
output
outside
outsider
outstanding
over
overall
overbea
overseas
overview
owa
owanto
owen
owens
owere
owerri
own
owo
owoh
owu
owusu
owuwa
owuwe
owuwu
oxfam
oxford
oxytocin
oya
oye
oyebade
oyedepo
oyekan
oyelami
oyelowo
oyetoro
oyeyemi
oyi
oyibo
oyingbo
oyiyi
oyo
oyongo
oyoyo
oz
ozalla
ozara
ozi
ozileka
ozio
ozioma
ozizi
ozo
ozolua
ozoma
ozor
ozu
ozugbo
ozuru
ozuzo
ozuzu
p
pa
paa
paarl
pablo
pac
pace
pacenti
pacific
pacifism
pacifist
pack
packer
padding
page
pageant
pages
pai
paid
pain
paint
painter
painters
painting
paintings
pakistan
pakistani
palace
palais
palatal
palau
palazzo
palermo
palestine
palestinian
palette
pallisa
palm
palmas
palmer
palo
pals
pam
pamela
pan
panafrican
panama
pandemic
panel
panorama
pantheon
panther
paolo
pap
papa
papas
paper
paperback
papers
papua
par
para
paradai
parade
paradise
paradox
paraguay
paralympic
paralympics
parameter
parameters
paramount
parents
parirenyatwa
paris
parish
park
parker
parks
parktown
parliament
parliamentary
parser
parsley
parsons
part
parties
partner
partners
partnership
parts
party
pas
pascal
pasent
pasenti
paspo
pass
passage
passe
passed
passes
passion
past
paste
pastel
pasto
pastor
paswo
pat
patel
patent
paterson
path
pathology
pati
patience
patoranking
patrice
patricia
patrick
patriotic
patron
patta
patterns
patterson
patti
patton
paul
paula
pauline
paulo
pavel
pavilion
paw
pax
pay
payne
pays
paz
pbs
pc
pdf
pdfoffice
pdp
pe
peabody
peace
peacock
peak
pearce
pearl
pearson
peas
peckover
pedro
peeji
peer
peggy
peju
peking
pele
pelewura
pelican
peltier
pemba
pen
penal
penalties
penalty
penang
penariti
pendleton
peng
penguin
peninsula
penn
pennock
pennsylvania
penny
pensu
pentiko
people
peoples
pepper
pepsi
per
percent
perception
percy
pere
pereira
perez
perfect
performance
performances
performing
peri
period
perkins
permanent
perry
pers
persian
person
personal
personalities
personality
persons
perspective
perspectives
peru
peshia
petals
pete
peter
peters
petersburg
petit
petroleum
pettway
pf
pfa
pg
ph
phane
phantom
pharmaceutical
pharmacy
phase
phd
phe
pheelz
phelps
phi
phil
philadelphia
philanthropy
philip
philippe
philippine
philippines
philips
phillip
phillips
phillis
philosophy
phipps
phiri
phoenix
phone
phonetic
phonological
phonology
phosphorus
photo
photograph
photographer
photographers
photographic
photographie
photographs
photography
photos
php
phuthi
phyllis
phyno
physical
physicians
physics
physiology
pi
piano
picasso
pick
picture
pictures
pidgin
pie
piece
pieces
pienaar
pierce
pierneef
pierre
piet
pieter
pietermaritzburg
pieters
pieterse
pigozzi
pilgrim
pilot
pimps
pin
pine
pink
pinkett
pinki
pinterest
pioneer
pioneering
pioneers
pipe
pipeline
piper
pippin
pirates
pirg
pistorius
pita
pitbull
pitch
pittman
pittsburgh
pius
pizza
pl
place
places
plagiarism
plain
plan
plane
planet
planifolia
planned
planning
plans
plant
plantain
plantashun
plantation
plants
plaque
plastic
plastik
plate
plateau
platform
platinum
platnumz
plato
platt
play
playboy
played
player
players
playhouse
playing
plays
plaza
plc
please
pleasure
plessis
plum
plummer
plumptre
plus
plymouth
pm
pmc
pmid
png
po
pocket
pocock
podcast
poe
poem
poems
poet
poetics
poetry
poets
point
points
poison
pol
poland
polar
polese
police
policies
policy
polish
political
politician
politics
polk
poll
pollen
pollock
polo
polylepis
polytechnic
pompidou
pongo
pool
poor
pop
pope
poppy
popu
popular
population
por
porridge
port
portal
porter
portfolio
portia
portland
porto
portrait
portraits
ports
portsmouth
portugal
portuguese
pos
position
positions
positive
possible
post
postal
postcolonial
postdoctoral
poster
postgraduate
pot
potan
potash
potchefstroom
potenza
poteto
potgieter
potiskum
potter
pou
poug
pound
pounds
pour
poverty
powell
power
powerful
powers
pp
ppe
pr
practice
practices
practitioners
pradesh
prague
prai
prairie
praise
praiz
prajwala
pratt
prc
pre
precious
prefecture
prefix
prefixes
prefontaine
premie
premier
premiere
premiership
premium
preparatory
preposition
presbyterian
present
presentation
presented
presenter
presents
preservation
presidency
president
presidential
presidents
presley
press
presse
pressreader
pressure
prestige
presumption
pretoria
pretorius
pretty
prevent
prevention
pri
price
pride
priest
primaries
primary
primavera
prime
primera
primetime
prince
princess
princeton
princewill
principal
principles
prinsloo
print
printed
printing
printmaking
prints
priscah
priscilla
prison
privacy
private
prix
prize
pro
problem
problems
proceedings
process
processing
proctor
produced
producer
producers
production
productions
products
prof
profai
professional
professor
profile
profiles
profit
program
programme
programmes
programs
progress
progressive
progressives
prohibition
project
projection
projects
prominent
promise
promising
promo
promotion
pronounced
pronunciation
properties
property
prophet
proquest
prose
prospect
prostitution
protect
protection
protectorate
protein
protest
protestant
proto
protocol
prototype
proud
providence
province
provinces
provincial
ps
pseudonym
psychiatric
psychological
psychology
psychosocial
pt
pta
ptsd
pty
pu
pub
public
publication
publications
publique
published
publisher
publishers
publishing
pudding
puerto
puff
puku
pulitzer
pulp
pulse
pumpkin
punch
punchng
punjab
punk
purchase
purdue
pure
purple
purpose
pursuit
puru
push
put
puta
putara
putin
px
pygmy
pyramid
pyramids
python
q
qalb
qamar
qatar
qc
qin
qing
qinghai
qingming
quaker
qualification
qualifiers
qualifying
quality
quantum
quarshie
quarter
quarterly
quarters
quartet
quartier
quatre
que
quebec
queen
queens
queensland
queer
quest
question
questions
qui
quick
quiet
quilt
quilting
quilts
quincy
quinn
qunta
r
ra
raara
rabai
rabat
rabbi
rabbit
rabis
race
rachael
racheal
rachel
rachid
racial
racing
rada
radcliffe
radebe
radical
radio
rae
rafael
raffia
rafiki
rage
raging
rahman
rai
raiders
rail
railroad
railway
rain
rainbow
raj
raja
raji
raleigh
rally
ralph
ram
rama
ramadan
ramaphosa
rammellzee
ramos
ramsey
ramy
ramzi
ramzy
rand
randall
randolph
random
randy
range
rangers
rani
rankin
rano
ranodu
ransi
ransome
rap
rapa
rape
raphael
rapid
rapids
rapper
rapport
rapu
raquel
rard
rare
ras
rashed
rasheeda
rashid
ration
rava
raw
ray
raymond
rb
rc
rca
rd
rdc
re
reach
read
reader
readers
reading
ready
reagan
real
realism
reality
reason
rebecca
rebel
rebellion
rebounds
receive
received
receives
recent
recipient
recognition
reconciliation
reconstruction
record
recorded
recording
recordings
records
recreation
rector
red
reddy
redemption
redgrave
redio
redmon
redone
ree
reed
reekado
reel
rees
ref
reference
referendum
reflection
reflections
reform
refugee
refugees
regard
reggae
reggie
regiment
regina
reginald
region
regional
register
registration
regula
regular
reid
reign
reilly
reisman
rekto
related
relations
relay
relays
rele
release
released
releases
relief
religion
religious
reloaded
rema
remains
remember
remembering
remi
reminisce
remix
remixed
remixes
remo
rena
renaissance
rencontres
rene
rensburg
rentmeister
repeat
repertory
report
reporter
reporters
reporting
reports
representation
representative
representatives
reproductive
republic
republican
republiki
republished
request
required
requires
rere
res
rescue
research
reserve
resi
residence
residency
resident
resistance
resisters
resolution
resort
resource
resources
response
responsibility
rest
restaurant
result
results
ret
retail
rethinking
retrieved
retrievin
retrospective
return
returns
reuters
rev
revenue
reverend
reverse
review
reviews
revised
revisited
revival
revolt
revolution
revolutionary
revue
rewane
rex
rey
reynolds
rez
reza
rfi
rgen
rhine
rhoda
rhode
rhodes
rhodesia
rhodesian
rhona
rhonda
rhouma
rhymes
rhythm
rhythms
ri
ria
riaa
riaad
riad
ric
rica
ricardo
rice
rich
richard
richards
richardson
richmond
rick
ricky
rico
ricordi
ride
ridge
ridha
ridim
ridley
rie
rieure
rif
rift
right
rights
rigo
rihanna
riley
rim
ring
rings
rio
riot
riri
risa
rise
risi
rising
risk
rita
rite
ritekwara
ritere
ritual
river
rivers
riverside
rk
rna
ro
road
roads
roast
rob
robben
robbie
robbins
robert
roberta
roberto
roberts
robertson
robeson
robin
robinson
robot
robotech
robotics
roc
rochas
rochat
rochereau
rochester
rock
rockefeller
rocky
rodeo
rodin
rodney
rodriguez
roger
rogers
roi
rok
roland
role
roles
roll
rolling
rom
roma
roman
romance
romani
romania
romanian
romanized
romano
romare
romdhane
rome
romeo
ron
ronald
ronke
ronnie
rookie
room
roosevelt
root
roots
ros
rosa
rosary
rose
rosemallow
rosemary
rosen
roses
rosette
ross
rotary
rotimi
rotten
rotterdam
rouge
rough
round
rousseau
route
routledge
roux
rovers
row
rowland
roy
royal
rs
rt
rtd
rtp
ru
rubin
ruby
rudolf
rue
rugby
rughi
rule
rules
ruley
ruling
rumba
run
runner
running
runtown
ruo
rural
ruru
rush
rusk
rusks
russell
russia
russian
rustenburg
rute
rutere
rutgers
ruth
ruuru
rwanda
rwandan
ryan
rye
s
sa
saa
saad
saar
saatchi
saba
sabah
sabc
sabdariffa
saber
sabri
sabrina
sabry
sacha
sacks
sacramento
sacre
sacred
sadat
sadc
saddam
saddle
sade
sadik
sadiq
sae
saeed
saf
safaa
safari
safe
safety
safia
safiya
safta
saga
sage
sagini
sahara
saharan
saheed
sahel
sahistory
saho
sai
said
sails
saint
saints
sakr
sal
sala
salaam
salad
salah
salam
salama
salami
sale
saleh
salem
salisbury
sall
salle
sally
salma
salon
salsa
salt
salvador
salzburg
sam
sama
samantha
samba
sambo
same
sami
samia
samir
samira
sammy
samosa
samosas
sampler
sampson
samson
samsung
samuel
san
sana
sanaa
sanctuary
sand
sanda
sandbox
sanders
sandler
sandra
sands
sandton
sandwich
sandy
sanford
sang
sanger
sango
sani
sankofa
sanlam
sanni
sans
santa
santana
santiago
santos
sanusi
sanwo
sao
sapele
sapphire
saqr
sar
sara
sarafina
sarah
sarkodie
saro
sarpong
sars
sarz
sash
sasha
sasol
sat
satb
satellite
sati
satire
satirical
sato
saturday
sau
sauce
saudi
saul
saunders
sausage
sava
savage
savanna
savannah
save
savings
savoy
saw
sawyer
sawyerr
saxon
saxophon
saxophone
say
sayed
sayensi
says
sb
sc
scale
scandal
scandinavia
scene
scenes
scha
schadeberg
scheme
schmidt
schneider
schoenmaker
scholar
scholars
scholarship
scholarships
scholtz
schomburg
school
schools
schreiner
schreuders
schro
schuster
schwartz
sci
science
sciencehistory
sciences
scientific
scientist
scientists
scotland
scott
scottish
scout
scouts
scream
screen
screenplay
screenprint
script
sculptor
sculptors
sculpture
sculptures
sdp
se
sea
seal
seales
sealy
sean
search
searle
searles
season
seasons
seat
seattle
sebastian
sebert
sec
second
secondary
secret
secretariat
secretary
secrets
section
sections
sector
securities
security
sedrick
see
seed
seehofer
seeks
seen
segil
segun
segunda
seif
sekai
sekit
seko
sekondiri
sekondri
sekoto
selasi
selassie
selby
select
selected
selection
self
selim
selina
selling
selma
semi
seminari
seminary
semitic
semolina
sen
senate
senator
senatorial
senbanjo
senchiri
senegal
senegalese
senghor
sengstacke
senior
sense
sentimita
sentinel
senufo
seo
seoul
sep
sept
septemba
september
ser
serbia
sere
serge
sergeant
serial
serie
series
serious
serpentine
served
service
services
ses
sesame
sesotho
sessions
set
setan
seti
sets
settlement
settlements
seun
seven
seventh
several
seville
sex
sexion
sexual
sexy
seychelles
seydou
seyi
sfenj
sg
sh
sha
shaaban
shaanxi
shabab
shade
shadia
shadicor
shadow
shadows
shafik
shafiq
shagari
shah
shainman
shaka
shake
shaker
shakespeare
shakira
shalom
sham
shams
shang
shanghai
shannon
shape
shared
sharia
sharif
sharing
sharjah
shark
sharma
sharon
sharp
shatta
shaw
shawky
shawn
shay
she
shearer
sheet
sheffield
shehu
sheikh
sheila
sheldon
shell
shelter
sheng
shenzhen
sheppard
sheraton
sherawat
sherif
sherine
sherman
shewa
shi
shia
shield
shift
shilluk
shin
shine
shining
ship
shirley
shiro
shirts
shit
shizzi
sho
shock
shoes
shola
shona
shonibare
shoot
shooting
shop
shore
short
shot
should
show
showbiz
showcase
showing
shows
showtime
shrine
shu
shuga
shukri
si
sianya
sibanda
sibande
sic
sichuan
sick
sickle
sid
side
sidebar
sidhom
sidi
sidibe
sidiki
sidney
sie
sierra
siga
sigcau
sigma
sign
signature
signed
signet
signs
sikakane
sikwa
sikwuo
sil
silence
silent
silicon
silk
sills
silt
silva
silveira
silver
silverbird
simaro
simelane
simenti
simeon
simi
similar
simmons
simon
simone
simple
simply
simpson
sims
sin
sina
sinach
sinai
sinamo
sinan
since
sinclair
sinensis
sineti
sineto
sing
singapore
singer
singers
singh
singing
single
singles
singleton
sings
sinima
sino
sins
siopis
sip
sir
sire
siri
siria
sirleaf
sis
sisi
sistemu
sister
sisters
sisulu
sitcom
site
sitere
sites
sithole
situation
six
sixth
size
sizwe
sk
skales
ske
skepta
sketch
skills
skin
skowhegan
skul
sky
sl
slade
slaheddine
slam
slave
slavery
slaves
slavic
sleep
sleepless
slice
slide
slim
slimane
slovak
slovakia
slovenia
slovo
slow
slum
smac
small
smart
smc
sme
smile
smiri
smit
smith
smithsonian
smoke
smolin
smuts
snake
snap
snoop
snow
snowden
so
soad
soale
soap
soapie
sobhi
soccer
soccerway
sochiri
sochirinu
social
socialism
socialist
socie
societies
society
sociolinguistic
sociology
sofia
soft
software
soga
soho
soil
sokari
sokoto
sokwa
sol
sola
solange
solanke
solar
sold
soldier
soldiers
solicitors
solidarity
solly
solo
solomon
solutions
somali
somalia
somaliland
some
somerset
something
somewhere
somo
somolu
son
song
songs
songwriter
sonia
sonodisc
sons
sony
sonye
sonyeere
sonyekwara
sonyere
soo
sooro
sophia
sophie
soprano
soraya
sorbonne
sorghum
soria
soro
sorority
sorry
soshal
sotho
souad
soukous
soul
souls
soumah
sound
soundcity
soundcloud
sounds
soundtrack
soup
source
sources
sous
south
southampton
southeast
southeastern
southern
southwest
southwestern
soviet
sow
soweto
sowore
sowunmi
soy
soyinka
sp
space
spaces
spaceship
spain
span
spanish
sparks
spartacus
spartak
spd
speak
speaker
speakers
speaking
speaks
spears
special
species
specific
specified
spectrum
speech
speed
spektor
spelman
spen
spence
spencer
spice
spider
spier
spike
spin
spinall
spinz
spirit
spirits
spiritual
spla
split
splm
spoken
spoon
spor
sport
sporting
sports
spot
spotify
spotlight
spread
spring
springbok
springer
springfield
springs
springstone
sprint
spurlock
spurs
sq
squad
squadron
square
squash
squire
sr
sri
ss
ssa
sseldorf
ssp
sss
st
sta
stacy
stade
stadium
staff
stafford
stage
stakes
stal
stampu
stan
stanbic
stand
standard
standards
stander
standing
stanford
stanley
star
starch
starr
stars
start
started
startup
state
statement
statements
states
statesman
station
statistical
statisticians
statistics
statue
status
stay
ste
steam
stedelijk
steel
steele
steeplechase
steepu
steeti
stefan
stefanie
stein
steiner
stella
stellenbosch
stem
step
stephanie
stephen
stephens
steps
steptoe
sterling
stern
steti
steve
steven
stevens
stevenson
stevie
stew
stewart
stews
steyn
sti
stigma
still
sting
stock
stockholm
stoke
stokes
stolen
stone
stonebwoy
stoner
stones
stop
store
stores
stories
storm
storms
story
straight
strange
stranger
strasbourg
strategic
strategies
strategy
stream
streat
street
streeter
streets
strelia
stri
strictly
strike
string
strings
strip
strok
stroman
strong
structure
structures
struggle
struik
stu
stuart
student
students
studies
studio
studios
studiyo
study
stuff
stunt
stuttgart
style
styles
su
sub
subedi
subject
subjunctive
subscription
subsequent
subsp
success
successful
such
sud
sudan
sudanese
sudanic
sue
suffix
suffixes
suffrage
suffragette
sufi
sugar
suggested
suid
suit
suite
suites
sukulu
sukuma
sule
suleiman
sullivan
sultan
summer
summit
sun
sundance
sunday
sunderland
sunflower
sunflowers
sunni
sunny
sunrise
sunset
sunshine
sunstrum
sunsum
suny
supe
super
superior
superliga
superman
superstar
suppl
supplement
supply
support
supporting
supreme
sur
surface
surgery
suri
suriname
surmic
surrey
surtie
surulere
survey
survival
survivor
susan
susanne
suskin
sussex
sustainability
sustainable
sutherland
suya
suzanne
suzhou
suzman
suzy
sv
svg
sw
swahili
swallow
swansea
swap
swapo
swart
swarthmore
swazi
swaziland
sweat
sweden
swedish
sweet
swim
swimmer
swimming
swing
swiss
switch
switzerland
sy
sydney
sykes
syllabic
sylvanus
sylvester
sylvia
symbol
symphony
symposium
syndicate
syndrome
syntax
syracuse
syran
syria
syrian
syrup
system
systems
t
ta
taa
taba
tabeghi
table
tabu
tachara
tadesse
tadjo
taekwondo
tafari
tafawa
tafelberg
taft
tag
taghachi
taghachiri
taghi
tagoe
tags
tagzi
taha
tahar
tahie
tahini
tahrir
tai
taipei
taiwan
taiwo
taiye
tajikistan
tajine
takari
takawira
take
taken
takes
taking
takoradi
takwa
takwala
takwara
tala
talal
tale
talent
tales
tali
talib
talk
talking
talks
tall
tam
tama
tambo
tamer
tamil
tamlin
tampa
tan
tana
tandy
tang
tangale
tanganyika
tangier
tango
tank
tanki
tanner
tanya
tanzania
tanzanian
tao
taotie
taoufik
tape
tara
taraba
tarek
targaryen
target
tari
tariq
tarka
task
tasmania
taste
tata
tate
tau
taught
tawo
tawokwa
tax
taxi
taxonomy
taya
taylor
tayo
tayou
tb
tbs
tc
te
tea
teacher
teachers
teaching
team
teams
tears
teatro
teau
tebogo
tebu
tech
technical
technikon
techno
technologies
technology
ted
teda
teddy
tedela
tedx
tee
teen
teenage
teens
teepu
teff
teghi
tehran
tej
tekno
teknu
teknuzu
tel
tele
telecom
telecommunications
telegraph
telenovela
televisho
televisio
television
telivisheneng
telivisho
tell
telling
tells
tema
tembo
template
templates
templatestyles
temple
tempo
temps
tems
ten
tenant
tengenenge
teni
tenis
tennessee
tennis
tenor
tere
terence
teresa
term
terminal
terra
terre
terrell
terribles
territory
terry
tertiary
tesfaye
teso
test
testament
testing
teta
texas
text
textile
texts
th
tha
thabo
thai
thailand
thames
thami
than
thank
thant
that
thauron
the
theater
theatre
their
thelma
them
themba
theme
then
theo
theodore
theological
theology
theophilus
theory
therapy
there
theresa
theron
these
thesis
thessaloniki
theta
they
thiam
thief
thierry
thing
things
think
third
this
thisday
thisdaylive
thomas
thompson
thomson
thon
thorburn
those
thought
thousand
three
thriller
throne
through
throw
thug
thulani
thumb
thunberg
thunder
thursday
thutmose
ti
tian
tianjin
tiberino
tibet
tico
tie
tienne
tiep
tier
tiffany
tiger
tigers
tigray
tigrinya
tii
tikana
tiketi
tilastopaja
till
tillim
tim
timaya
timberlake
time
times
timi
timor
timothy
tin
tina
tinsel
tinubu
tinye
tinyekwara
tinyere
tip
tira
tiri
tirunesh
tisch
titans
titi
titilola
title
titles
titus
tiv
tivoid
tiwa
tladi
tlali
tlatli
tlhabi
tn
to
tobago
tobi
toby
tochukwu
today
todd
together
togo
togolese
toi
toiles
toit
toke
toko
tokyo
tola
told
tolite
tolitere
toll
tolliver
tolu
tom
tomas
tomato
tomatoes
tome
tommy
tomorrow
ton
tone
tong
toni
tonight
tonto
tony
tonye
too
took
tools
top
tope
topo
toriola
toro
toronto
tororo
tosin
tot
total
tottenham
touch
toulouse
tounsi
tour
toure
tourism
tournament
tours
tout
toward
towards
tower
towers
town
towns
townsend
township
towry
toxic
toyin
toyota
tozuru
tpok
trace
tracey
track
tracking
tracks
tracy
trade
trading
tradition
traditional
traditions
traffic
trafficking
trail
train
training
trans
transcorp
transcript
transcription
transformation
transforming
transgender
transit
transition
transitional
transkei
translated
translation
translations
transnational
transparent
transport
transportation
transvaal
traore
trap
trauma
travel
traveling
tre
treasure
treasures
treasury
treatment
tree
trees
trek
trends
trenton
trevor
tri
trial
trials
triangle
triangular
tribe
tribeca
tribes
tribunal
tribune
tribute
trick
tricks
triennale
triennial
trill
trilogy
trinidad
trinity
trio
trip
triple
tripoli
tripp
trium
triumph
trollope
trophy
tropical
trouble
troupe
troy
true
trump
trust
trustees
truth
trying
ts
tschumi
tsedale
tsegay
tshabalala
tshepo
tshwane
tsitsi
tsonga
tswana
tt
ttingen
tu
tuareg
tubman
tucker
tudes
tuesday
tufts
tugela
tuggar
tulip
tum
tumadi
tunde
tune
tunes
tunis
tunisia
tunisian
tunisie
tunisna
tunstall
tuo
tupac
tupu
turbine
turf
turin
turkey
turki
turkish
turn
turner
turning
turns
turntable
turtel
turu
tuskegee
tutsi
tutu
tv
tvsa
twala
tweet
twentieth
twenty
twi
twilight
twin
twins
twist
twitter
two
tx
ty
tyler
type
tyra
tyrone
u
uac
uace
uae
uba
ubangian
ube
ubi
ubo
ubochi
ubong
ubu
ubuntu
uc
uche
uchechi
uchechukwu
uchendu
ucla
uct
ud
uda
udaume
ude
udechukwu
udi
udic
udo
udoh
udoka
udu
ududo
uefa
ufo
ufodu
ufuoma
ug
ugali
uganda
ugandan
ugba
ugbo
ugboro
ugbu
ugbua
ugegbe
ughelli
ugo
ugodi
ugwu
uhie
uhuru
uhuruchi
ui
uju
uk
uka
ukara
ukeje
ukelle
uko
ukpo
ukraine
ukrainian
uku
ukwa
ukwara
ukwe
ukwu
ukwuu
ul
ule
uli
ulli
ulo
uloakwukwo
ulrich
ultimate
um
uma
umahi
umar
umaru
umbrella
ume
umea
umeala
umeh
umm
umoh
umolu
umu
umuahia
umuaka
umunna
umunwanyi
umuzi
un
una
unaids
unc
uncle
uncredited
und
under
undergraduate
underground
understanding
undp
une
unemployment
unere
unesco
unfccc
unhcr
unicef
unigwe
unilag
unilever
union
unions
unique
unisa
unit
unita
unite
united
units
unity
univ
universal
universe
universiade
universite
universities
university
unizik
unknown
unlimited
unn
uno
unreviewed
unsourced
unthank
until
untitled
unu
unyi
up
update
updated
updf
upload
upon
upper
uprising
ur
uranium
urban
urbana
urdu
ure
urhobo
uri
url
ursula
uru
uruan
uruguay
uruk
urukurubu
us
usa
usage
usaid
usc
usd
usda
use
used
user
uses
usher
using
usman
uso
usoro
utah
utc
utep
uto
utopia
utrecht
utu
uu
uvular
uwa
uwani
uwe
uweojii
uwopa
uyo
uys
uzalo
uzbekistan
uzo
uzoma
uzor
uzuzu
v
va
vaccine
vai
val
vale
valencia
valentine
valerie
valley
value
values
vampire
van
vancouver
vanderbilt
vanessa
vanguard
vanguardngr
vanilla
vanity
vano
vanunu
var
variant
variety
various
vat
vatican
vaughan
vaughn
vc
ve
vector
vegas
vegetables
veil
velar
velvet
vemba
venda
venezia
venezuela
venice
venture
ventures
venus
ver
vera
verb
verde
verlag
vermont
vernacular
vernon
veronica
verse
version
verso
very
veteran
vetere
vh
vi
via
vibe
vic
vice
vicker
vicky
victim
victims
victor
victoria
victorian
victory
vida
video
vidio
vidiyo
vie
vienna
vietnam
vietnamese
view
viewers
views
vii
viii
viljoen
villa
village
villard
villarreal
ville
villiers
vincent
vinegar
vintage
vinyl
viola
violence
violet
violin
vip
viper
vir
viral
virgin
virginia
virtual
virunga
virus
visa
viserys
visible
vision
visions
visit
visiting
vista
visual
vita
vital
vitamin
viteri
viva
vivian
vivier
vivour
vixen
vladimir
vo
vocal
vocalist
vocational
vodacom
vodafone
vogue
voice
voices
voix
vol
volleyball
volta
volume
von
voodoo
vootu
vos
vote
voting
votu
vous
vowel
vowels
vox
voyage
vp
vr
vries
vs
vu
w
wa
waa
waal
waala
waara
waconzy
waddy
wade
wadeson
wadsworth
wafu
waghi
wagner
wahab
wai
wainaina
wait
waiting
waje
waka
wakari
wake
wakpo
wakporo
wakwara
wal
wala
wale
wales
wali
walid
walk
walker
walking
wall
wallace
walls
walsh
walt
walter
walters
walther
wan
wana
wanda
wande
wanderers
wang
wangechi
wanna
wanner
want
wanted
wants
wanye
wapu
war
wara
warara
ward
warda
warder
waregem
wari
waring
warner
warrant
warren
warri
warrior
warriors
wars
warsame
warsaw
warwick
was
wash
washington
wasila
waste
wat
wata
watch
watchlist
water
watercolor
waterfront
waters
watford
watkins
watson
watts
wave
wavell
waves
wawo
wax
way
waya
wayback
wayne
wayo
ways
waziri
wdg
we
wealth
wear
weather
weaver
web
webata
webatara
webb
weber
websit
website
webster
webu
wedara
wedding
wednesday
wee
weebu
week
weekend
weekly
weere
weet
wegara
weghaara
weghachi
weghachiri
weghachite
weghachitere
weghara
wei
weight
weightlifting
weinstein
weird
weiss
welcome
weldon
welfare
welitere
well
welle
wellington
wells
welsh
weltklasse
wema
wemba
wembley
wen
wendy
wenger
wentz
wenwu
wepu
weputara
were
wergirtin
werrason
wesley
wesleyan
west
westbrook
western
westminster
westport
wet
weta
wetara
wezu
wfc
wfm
wharton
what
wheatley
wheel
wheeler
when
where
which
while
whip
whispers
white
whitfield
whitney
whitten
who
whole
whose
why
wi
wia
wichita
wicked
wid
wide
width
wiesbaden
wife
wigan
wii
wiki
wikidata
wikimedia
wikipedia
wikiquote
wikisource
wiktionary
wild
wildes
wildlife
wiley
wilfred
wilhelm
wilhelmina
wilkinson
will
willem
william
williams
williamson
willie
willis
willow
willy
wilpf
wilson
wim
wimbledon
win
wina
winans
wind
windhoek
windo
window
windows
windsor
wine
winfrey
wing
wings
winifred
winner
winners
winnie
winning
winnipeg
wins
winston
winter
wire
wisconsin
wisdom
wise
wish
wit
witch
with
within
without
witkin
witness
wits
witwatersrand
wives
wiwa
wizkid
wj
wnba
wo
wokwa
wol
wole
wolf
wolfsburg
wolof
wolverhampton
wolves
woman
women
won
wonder
wonderland
wong
wood
woodruff
woods
woodson
woodstock
woody
worcester
word
words
work
worked
worker
workers
working
works
workshop
world
worldcat
worlds
worldwide
worm
worship
worst
worth
would
wouw
wow
wp
wpa
wrestling
wright
write
writer
writers
writing
writings
written
wrong
wrote
wsl
wu
wuchara
wughachi
wughachiri
wukari
wulite
wuo
wurld
wuru
wushu
wusie
wusiri
wuta
wwe
www
wycombe
wyk
x
xaba
xavier
xenakis
xerox
xhosa
xi
xia
xiahou
xiamen
xingwana
xinjiang
xl
xtra
xu
xx
y
ya
yaba
yabasi
yabatech
yabu
yacoubi
yahaya
yahia
yahoo
yahya
yakubu
yala
yale
yam
yan
yana
yang
yangtze
yao
yaounde
yar
yard
yarde
yasin
yasmin
yasmine
yassin
yassine
yates
ybnl
ycee
ye
year
years
yeboah
yehia
yellow
yemen
yemi
yemisi
yen
yes
yesterday
yet
yetunde
yewande
yi
yie
yighari
yighi
yikari
yinchuan
ying
yinka
yiri
yizo
ymca
ynaija
yo
yobe
yoga
yogo
yoko
yola
yom
yomi
york
yorker
yorkshire
yoru
yoruba
yorxe
you
youlou
youm
young
your
yours
youssef
youth
youtube
yoweri
yu
yuan
yue
yugoslavia
yung
yurop
yusuf
yuzovka
yves
yvette
yvonne
z
za
zaa
zack
zaghachi
zaghachiri
zaghawa
zahara
zahra
zai
zaiem
zaiko
zainab
zaire
zaki
zamalek
zaman
zamani
zambia
zamfara
zanu
zanzibar
zapatista
zara
zaramo
zari
zaria
ze
zealand
zebra
zee
zeina
zeitung
zeitz
zelda
zelofhad
zenith
zere
zero
zetkin
zewditu
zh
zhang
zhou
zhuwao
zi
ziaka
zie
ziere
ziga
zigara
zighari
ziiri
zika
zikwaara
zille
zimbabwe
zimbabwean
zindzi
zine
zineb
zion
zipu
ziri
zitere
zlatan
zo
zoe
zoid
zombie
zone
zones
zoo
zoology
zora
zoro
zouk
zu
zubere
zukiswa
zuko
zulfikar
zulu
zuma
zuo
zur
zurich
zuru
zute
zutere
{
|
}
~
¢
£
§
©
«
®
°
±
²
´
·
»
½
×
æ
ø
ı
ŋ
ǝ
ɐ
ɑ
ɒ
ɓ
ɔ
ɗ
ə
ɛ
ɟ
ɡ
ɣ
ɤ
ɨ
ɪ
ɲ
ɾ
ʃ
ʉ
ʊ
ʌ
ʒ
ʔ
ʷ
ʹ
ʻ
ʼ
ʽ
ʾ
ʿ
ˆ
ˈ
ˌ
ː
̀
́
̂
̃
̄
̆
̇
̈
̉
̊
̋
̌
̓
̛
̠
̣
̦
̧
̨
̩
̪
̰
̱
͡
α
β
γ
ε
θ
μ
ς
σ
χ
ω
а
е
и
о
р
с
т
шаблон
ѕ
і
،
؟
ا
الا
ب
ة
ت
ح
خ
د
ر
س
ش
ع
ف
في
ل
م
من
ن
ه
و
ي
َ
ُ
ِ
ّ
ْ
ٓ
ٔ
ٕ
ं
ः
क
ग
च
ज
त
द
ध
न
प
भ
म
य
र
ल
व
स
ा
ि
ु
े
ो
्
খ
স
া
ি
্
்
ಕ
ಣ
ಪ
ಲ
ಾ
ಿ
ೆ
್
්
ු
እ
​
‌
‎
‒
–
—
‘
’
“
”
„
†
•
…
‬
′
″
‹
›
⁄
₦
€
™
→
↔
↷
−
③
④
⑦
☃
♡
➜
⟨
⟩
ⲥ
ⴰ
ⵉ
ⵜ
⺀
⺄
⺆
⺈
⺊
⺌
⺕
⺝
⺸
⺼
⿰
⿱
⿲
⿳
⿴
⿵
⿶
⿷
⿸
⿹
⿺
⿻
、
『
』
〜
〢
あ
た
と
な
に
の
る
゙
コ
ス
タ
テ
ユ
ン
ー
㇁
㇂
㇄
㇇
㇈
㇉
㇓
㐁
㐄
㐅
㐌
㐫
㐬
㐭
㐮
㐱
㑒
㒵
㒸
㒼
㓁
㓞
㔾
㕛
㕣
㖾
㘝
㚅
㚇
㚔
㚘
㝉
㝡
㝴
㝵
㞋
㞢
㞷
㠩
㠭
㠯
㡀
㡭
㡿
㢲
㢴
㣇
㣺
㥯
㪅
㫄
㫐
㫒
㫺
㬅
㬎
㬥
㬰
㲋
㳄
㷠
㸒
㸚
㸦
㼌
㼲
㽞
㿟
䀠
䂞
䍃
䏍
䒑
䖍
䖒
䖝
䖵
䙴
䚻
䜌
䝿
䡛
䧹
䪞
一
丁
丂
七
丄
丅
丆
万
丈
三
上
下
丌
不
与
丏
丐
丑
专
且
丕
世
丘
丙
业
东
丞
丢
丣
两
严
並
丨
丩
个
丫
丬
中
丮
丰
丱
串
丵
丶
丷
丸
丹
为
主
丽
丿
乀
乂
乃
久
乆
乇
么
义
之
乌
乍
乎
乏
乐
乑
乔
乖
乗
乘
乙
乚
乛
乜
九
乞
也
习
乡
书
乳
乾
亀
亅
了
亇
予
争
事
二
亍
于
亏
亐
云
互
亓
五
井
亘
亚
亜
亞
亟
亠
亡
亢
交
亥
亦
产
亨
亩
享
京
亭
亮
亯
亰
亲
亳
亶
亷
人
亻
亼
亾
仁
今
介
仌
从
仐
仑
仒
仓
仕
他
付
仝
代
令
以
任
企
伊
伏
伐
休
会
伯
但
位
何
佘
余
作
佥
使
來
侈
侌
侖
侯
侵
便
保
俞
信
修
倉
倍
候
倠
備
僉
僕
儿
兀
允
兂
元
兄
充
兆
兇
先
光
兊
克
兌
免
兑
兒
兓
兔
党
兜
兟
入
全
兩
兪
八
公
六
兮
兰
共
关
兵
其
具
典
兹
兼
冀
冂
冃
冄
内
冈
冉
冊
冋
册
再
冎
冏
冐
冒
冓
冖
冗
冘
军
农
冝
冡
冥
冫
冬
冷
几
凡
凢
凵
凶
凷
凸
凹
出
函
凾
刀
刁
刂
刃
刄
刅
分
切
刍
刑
刕
刖
列
刘
则
初
別
利
别
到
制
刺
則
削
剌
前
剡
剽
劉
力
功
加
劦
助
劫
劳
劵
勃
勇
勉
勒
動
務
勞
勤
勹
勺
勻
勾
勿
匀
匂
包
匆
匈
匊
匋
匍
匕
化
北
匚
匝
匡
匪
匱
匸
匹
区
医
匽
匿
區
十
卂
千
卄
卅
卆
升
午
卉
半
卌
华
卑
卒
卓
单
卖
南
卜
卝
卞
占
卡
卢
卣
卤
卦
卩
卪
卬
卯
印
危
即
却
卵
卷
卸
卻
厂
厃
厄
历
厈
厉
厌
厓
厘
厚
原
厤
厥
厦
厨
厭
厲
厶
厷
厸
去
厼
厽
叀
参
參
叅
又
叉
及
友
双
反
叐
发
叒
叔
叕
取
受
叚
叜
叟
口
古
句
另
叩
只
召
可
台
叱
史
右
叵
号
司
叹
吂
各
吅
合
吉
吊
吋
同
名
后
吏
向
吕
君
吝
吞
否
含
启
吳
吴
吹
吾
呂
呆
呈
告
员
呙
周
命
咅
和
咎
咠
咢
咨
咸
咼
哀
品
哉
員
哥
哲
唐
商
啇
問
啚
啬
啻
善
喜
喬
單
喿
嗇
噩
嚴
囊
囗
囘
囙
囚
四
回
囟
因
囧
囬
困
囱
囷
固
国
图
圂
圅
國
圍
園
圓
土
圡
圣
圥
在
圭
地
圶
圼
坐
坒
坚
坴
垂
垔
垚
埀
埋
城
埶
執
基
堂
堅
堆
堇
堯
塞
墨
壘
士
壬
壯
声
壳
壴
壹
壺
壽
夂
处
夅
夆
备
夊
夋
夌
复
夏
夒
夕
外
夗
夘
多
夜
夢
大
夨
天
太
夫
夬
夭
央
失
夲
头
夷
夸
夹
夻
夾
奂
奄
奇
奈
奉
奎
奏
奐
契
奓
奔
奚
奞
奠
奢
奥
奭
女
奴
奻
好
如
妄
妙
妟
妥
妻
妾
始
姑
委
姜
威
娄
婁
婴
嫩
嬰
嬴
子
孑
孔
孕
孖
字
存
孚
孛
孝
孟
季
孤
学
孩
孫
孱
學
宀
宁
宂
它
宅
宇
守
安
宋
完
宏
宓
宗
官
定
宛
宜
宝
客
宣
室
宮
宰
害
家
容
宾
宿
寄
寅
密
富
寒
察
寧
審
寫
寬
寮
寸
对
寺
寻
寽
対
寿
封
尃
射
将
將
專
尉
尊
尋
尌
對
小
少
尒
尓
尔
尖
尗
尚
尞
尢
尣
尤
尧
尨
尭
就
尸
尹
尺
尻
尼
尽
尾
尿
局
居
屈
屋
屎
屏
屑
展
屖
屚
属
屠
屡
屬
屮
屯
屰
山
屵
屾
岁
岂
岑
岡
岩
岳
岸
峯
島
崇
崑
崔
崖
崙
崩
嵬
嶲
巂
巛
川
州
巟
巠
巢
巤
工
左
巧
巨
巩
巫
差
己
已
巳
巴
巷
巸
巽
巾
巿
帀
市
布
希
帚
帛
帝
带
師
席
帶
常
干
平
年
幵
并
幷
幸
幺
幻
幼
幽
幾
广
広
庄
庆
床
底
店
庚
府
度
庫
庭
庶
康
庸
廉
廌
廛
廣
廩
廴
延
廷
建
廾
廿
开
弁
弃
弄
弇
弋
式
弓
弔
引
弗
弘
弜
弟
张
弥
弦
弱
張
強
强
彊
彌
彎
彐
彑
当
彔
录
彖
彗
彡
形
彥
彦
彧
彭
彳
役
彼
往
待
律
徐
徒
得
徙
從
復
微
徵
心
忄
必
忌
忍
志
忝
忠
忩
快
念
忽
忿
思
怠
急
怱
恆
恒
恩
恭
息
悉
患
悤
悲
悶
惠
惡
惢
愁
愈
意
愛
感
慈
慧
慮
憂
憲
應
戀
戈
戉
戊
戋
戌
戍
戎
成
我
戒
戔
或
戚
戠
戢
截
戲
戶
户
戹
戼
戾
房
所
扁
扇
手
扌
才
打
托
执
承
折
拉
拜
拳
拿
掌
推
提
摩
支
攴
攵
收
攸
改
放
政
敄
敏
敕
敖
敗
教
敝
敞
敢
散
敦
敫
敬
数
敷
數
斂
文
斉
斊
斗
斤
斥
斩
斬
斯
新
方
於
施
斿
旁
旋
族
无
旡
既
旣
日
旦
旧
旨
早
旬
旱
旲
时
旾
昆
昇
昌
昍
明
昏
易
昔
昗
昜
星
春
昬
是
昱
昴
昷
時
晃
晋
晏
普
景
晶
智
暑
暴
曇
曩
曰
曲
曳
更
曷
書
曹
曼
曾
替
最
朁
會
月
有
朋
服
朔
朕
朗
望
朝
期
木
朩
未
末
本
札
朮
术
朱
朵
朶
朿
杀
李
杏
村
杜
束
条
来
杭
東
杲
杳
松
析
林
枚
果
枝
枲
枼
某
柔
查
柬
柰
柴
栗
桀
案
桑
桥
桼
梁
梅
條
梟
梨
棘
棠
棥
森
楚
業
楽
榮
樂
樊
欠
次
欣
欮
欲
欶
欽
款
歆
歇
歛
止
正
此
步
武
歨
歪
歮
歯
歰
歲
歴
歷
歸
歹
歺
死
殳
段
殷
殸
殹
殺
殻
殿
毋
毌
母
每
毒
比
毕
毚
毛
毳
氏
氐
民
气
氣
水
氵
氶
氷
永
氺
氾
求
汉
汝
汞
江
沃
沈
沓
沙
沝
河
治
泉
法
波
泣
泥
泰
洛
津
洪
活
派
流
浦
浪
浮
海
淡
淮
清
渚
渝
渠
温
港
湖
湯
溪
滨
滿
漳
漸
火
灬
灭
灰
灵
灷
炅
炎
炏
炗
炙
炭
為
烈
烏
烝
焉
無
焦
焱
然
煞
熊
熏
燕
營
燮
爪
爫
爭
爯
爰
爱
爲
爵
父
爻
爽
爾
爿
片
牙
牚
牛
牜
牟
牢
牧
牪
牽
犀
犬
犭
犮
狂
狄
狊
独
狺
猋
猒
猪
献
猴
獻
玄
率
玉
王
玟
玨
珎
班
琴
瑟
瑩
瓜
瓦
甘
甚
生
産
用
甫
甬
田
由
甲
申
电
甶
男
甸
甹
画
甾
畀
界
畏
畐
留
畜
畟
畢
畧
畨
番
畫
異
畱
當
畺
畾
疊
疋
疌
疑
疒
疾
癶
癸
癹
登
發
白
百
皀
皃
的
皆
皇
皋
皐
皕
皮
皷
皿
盃
盆
盇
盈
益
盍
盎
监
盒
盖
盛
盡
監
盤
盧
目
直
相
盾
省
眇
眉
看
眔
眞
真
眷
眼
眾
着
睘
睪
睿
瞏
瞢
瞿
矍
矛
矞
矢
矣
知
矦
短
石
研
破
碎
磊
磨
示
礻
礼
社
祟
票
祭
禀
禁
福
禸
禹
禺
离
禽
禾
禿
秀
秃
秉
秋
科
秝
秦
移
稟
穀
穌
穴
究
穹
空
穿
突
窄
窒
立
竒
竜
竝
竟
章
童
竹
笑
笠
筆
等
答
策
箕
算
箴
節
篤
篭
米
粉
粛
粟
粤
粦
粲
糞
糸
糹
系
紀
約
納
素
索
紫
累
細
絜
絫
絲
維
綿
縣
繇
纍
纟
线
缶
网
罒
罔
罕
罗
罙
罡
罢
罪
署
罷
羅
羊
羌
羍
美
羔
羕
羗
羞
羡
羣
群
義
羲
羸
羽
翁
翏
習
翕
翟
翠
翼
老
耂
考
者
耆
而
耎
耑
耒
耳
耴
耶
耷
聂
聊
聖
聚
聶
聿
肀
肃
肅
肉
肖
肙
肥
肩
肯
育
肴
胃
背
胡
胥
能
脊
脩
膚
臣
臤
臧
自
臬
臭
臯
臱
至
致
臺
臼
臽
臾
臿
舀
舂
舄
與
興
舉
舌
舍
舛
舜
舞
舟
般
艮
良
色
艸
艹
艾
芒
芔
芬
芮
花
芳
芺
芻
苔
苗
苟
若
苦
英
茶
茸
荅
草
荒
荣
荼
莆
莧
莫
莽
菆
菊
菐
華
营
萬
落
葉
著
葛
董
葵
蒙
蒦
蒼
蓋
蓬
蓺
蔑
蔡
蕉
蕭
薄
薛
薦
薰
藍
藏
藥
蘭
虍
虎
虐
虒
虔
處
虖
虗
虘
虚
虛
虜
虞
虫
虽
蚤
蚩
蜀
蜜
蟲
蠡
血
行
衍
街
衛
衣
衤
表
衮
衰
袁
袞
褭
褱
襄
襾
西
覀
要
覃
見
規
覓
覧
親
覽
见
角
解
言
訁
訇
計
詹
誩
諸
讠
谷
豆
豈
豊
豐
豕
豖
豙
象
豦
豩
豪
豸
貇
貝
貞
貟
負
貢
貧
貪
貫
責
貳
貴
買
費
賁
資
賈
賏
賓
賔
賛
賞
賢
賣
質
賴
贊
贝
贡
责
贯
贲
贵
赖
赞
赣
赤
赦
走
越
足
路
蹇
身
躬
車
軍
軎
軟
輦
车
辛
辜
辟
辥
辰
辱
農
辵
辶
边
达
过
运
近
连
迷
追
退
送
逆
逐
通
速
造
逢
連
逮
進
遀
遂
過
道
達
遣
適
遷
遺
邊
邑
邕
那
邦
邪
邯
郎
部
郭
都
鄉
酉
酋
配
酓
釆
采
里
重
野
量
金
釒
錢
钅
铁
镇
長
镸
长
門
閃
閉
開
閏
閑
閒
間
閔
閵
閻
闌
门
间
闷
阑
阜
阝
阳
阿
降
院
陳
隆
隊
隋
隡
隨
隱
隶
隹
隺
隻
隼
隽
难
雀
雁
集
雈
雋
雍
雐
雔
雙
雚
雜
雝
離
難
雨
雩
雪
雲
零
雷
需
霍
霜
霝
霞
霸
靈
靑
青
非
靡
面
靣
革
韋
韦
韭
韯
韱
音
頁
頃
項
須
頗
頡
頻
顛
页
風
风
飛
飞
食
飠
養
饣
馆
首
香
馬
馮
駦
马
骨
高
髟
鬥
鬯
鬲
鬼
魚
魯
鮮
鱼
鲁
鳥
鳳
鸟
鹵
鹿
麃
麗
麥
麦
麻
黃
黄
黍
黎
黑
黒
黔
黨
黹
黽
黾
鼎
鼓
鼠
鼻
齊
齋
齐
齒
齿
龍
龙
龜
龟
龠
龰
龱
龴
龵
龶
龷
龸
龹
者
艹
：
？
￼
𠀁
𠀃
𠀆
𠀉
𠀎
𠀐
𠁁
𠁣
𠂆
𠂇
𠂈
𠂉
𠂊
𠂋
𠂎
𠂒
𠂔
𠂛
𠂡
𠂢
𠂤
𠂬
𠂭
𠂹
𠃊
𠃋
𠃌
𠃍
𠃎
𠃑
𠃓
𠃔
𠃜
𠄌
𠄎
𠄠
𠄢
𠆢
𠆥
𠇍
𠈌
𠌵
𠓜
𠔉
𠔥
𠔼
𠔽
𠔿
𠕀
𠕁
𠕋
𠘧
𠘨
𠙻
𠙼
𠚏
𠚒
𠚤
𠚪
𠣏
𠤎
𠤕
𠥓
𠦄
𠦑
𠦝
𠧒
𠧗
𠧪
𠩺
𠪚
𠫓
𠫔
𠫤
𠬛
𠬝
𠬞
𠬢
𠬤
𠬶
𠮛
𠮦
𠮷
𠯑
𠱠
𠳮
𠷎
𡈼
𡉀
𡉵
𡌥
𡍮
𡏳
𡕒
𡕩
𡕰
𡖅
𡗗
𡗜
𡘆
𡘤
𡧱
𡨄
𡩧
𡬠
𡭽
𡰣
𡰥
𡰪
𡰯
𡰱
𡷈
𡸁
𡿨
𡿩
𡿪
𡿺
𢀖
𢀛
𢀩
𢁙
𢆉
𢆰
𢆶
𢇁
𢇇
𢉖
𢌬
𢌿
𢏚
𢑑
𢑚
𢖻
𢙣
𢛳
𢦏
𢦒
𢧵
𢼄
𢾕
𣁋
𣄼
𣅀
𣅽
𣍘
𣎳
𣎵
𣏋
𣏼
𣗥
𣥂
𣥖
𣦵
𣦼
𣧄
𣪊
𣪠
𣬉
𣳾
𣶒
𤇾
𤊽
𤐫
𤓰
𤔔
𤕨
𤣩
𤰇
𤰔
𤰞
𤴓
𤴔
𤽄
𥁑
𥁕
𥃦
𥃩
𥃭
𥇡
𥑟
𥘅
𥘈
𥝢
𥫗
𥱡
𦈢
𦉪
𦉬
𦉼
𦍌
𦍒
𦎧
𦐇
𦓔
𦔮
𦘒
𦙃
𦚏
𦣝
𦣞
𦣻
𦥑
𦥔
𦥯
𦨉
𦭝
𦰩
𧆞
𧈧
𧘇
𧰨
𧴪
𧴮
𧵩
𧾷
𨸏
𨾴
𩙿
𩠐
𩫏
𩵋
𪉷
𪜀
𪟽
𪠲
𪩲
𫇦
𫔭
𫜸
𫝀
𫠣
𫠩
𫢉
𫥞
𫩏
𫩠
𫪡
𫲽
𫶧
𬀷
𬐘
𬗌
𬙙
𬛸
𬜯
𬟩
𬯁
𬴘
𬺻
𬼉
𬼖
𭀰
𭁈
𭁨
𭅰
𭑈
𭕄
𭗼
𭤨
𭥫
𭻾
𮅕
𮊿
𮍌
𮍏
𮓗
𮥼
𮧮
廾
𰀁
𰀄
𰀈
𰀉
𰀕
𰀠
𰀡
𰀢
𰀪
𰁜
𰃮
𰆊
𰆘
𰋙
𰕎
𰢴
𰧭
𰯲
00--
01--
02--
03--
05--
07--
08--
09--
17--
28--
30--
31--
32--
35--
36--
38--
40--
41--
43--
47--
51--
52--
53--
55--
56--
58--
59--
66--
78--
80--
81--
82--
84--
85--
86--
89--
90--
93--
94--
95--
978--
97805--
99--
a--
aa--
ab--
aba--
abdel--
abdul--
abi--
abo--
abs--
abu--
abyss--
ac--
acc--
ach--
achi--
actu--
ad--
ada--
add--
ade--
adi--
adjam--
ado--
adu--
adverti--
ae--
af--
afri--
afro--
afu--
ag--
aga--
agba--
agbe--
ago--
agro--
agu--
agum--
ah--
aha--
aho--
ahu--
ai--
air--
aiye--
aj--
aja--
aji--
ak--
aka--
ake--
akh--
aki--
akin--
ako--
akpa--
aku--
al--
ala--
alder--
ale--
aleks--
ali--
all--
alleg--
alo--
alph--
als--
alt--
alu--
am--
ama--
ambe--
ame--
ami--
amp--
amphi--
amr--
amu--
an--
ana--
anc--
and--
anglo--
ani--
ann--
ano--
ant--
anthro--
anti--
anu--
any--
anya--
ao--
ap--
apa--
api--
app--
appli--
appoint--
appro--
aq--
aqu--
ar--
ara--
arc--
arch--
ard--
are--
ari--
aro--
art--
arts--
aru--
as--
asa--
asce--
ash--
asi--
aso--
asp--
assa--
assass--
asse--
ast--
aste--
asu--
at--
ata--
ath--
ati--
atti--
atu--
au--
auto--
ava--
ave--
avi--
avo--
aw--
awa--
awo--
ay--
aya--
aye--
ayo--
az--
aza--
azu--
b--
ba--
bab--
baba--
bacca--
bach--
back--
bad--
bag--
bah--
bai--
bak--
bal--
ball--
bam--
ban--
bar--
bas--
bat--
bata--
bau--
bay--
bb--
bc--
be--
bea--
beha--
behavi--
bel--
ben--
ber--
berk--
bern--
bess--
bet--
bey--
bez--
bi--
bia--
bibli--
bie--
big--
bil--
bin--
bio--
bir--
bit--
biz--
bla--
black--
ble--
bli--
blig--
blo--
blue--
bo--
bob--
bohe--
bok--
bol--
bon--
boo--
book--
bor--
bot--
bou--
bour--
bouti--
bow--
boy--
br--
bre--
bren--
bres--
bris--
bro--
brow--
brun--
bry--
bs--
bu--
bud--
budd--
buil--
bull--
bur--
bus--
bush--
but--
by--
byza--
c--
ca--
cabr--
cait--
cal--
can--
cap--
car--
casu--
cat--
cc--
ce--
cer--
ch--
cha--
che--
chi--
chin--
cho--
choreog--
chrom--
chry--
chu--
ci--
cit--
city--
cl--
clai--
clari--
cle--
clo--
cly--
cn--
co--
cock--
col--
com--
compl--
con--
consp--
consu--
consult--
cont--
cook--
coor--
cop--
cor--
cord--
correspo--
cott--
cou--
cour--
cow--
cp--
cra--
cre--
cri--
crim--
criti--
cro--
cru--
cs--
ct--
cu--
cum--
cur--
cust--
cy--
d--
da--
dad--
dag--
dah--
dai--
dal--
dam--
dan--
dar--
daw--
day--
daz--
db--
dc--
de--
dec--
dedi--
dee--
def--
del--
deliv--
dem--
den--
depen--
der--
des--
det--
dha--
di--
dia--
diff--
dig--
dill--
din--
diph--
dis--
div--
dj--
djaza--
dm--
do--
doc--
dog--
dok--
dom--
don--
dor--
dou--
dow--
dr--
du--
dum--
dy--
dzi--
e--
ea--
ear--
east--
eb--
ebe--
ebi--
ebu--
ec--
eche--
eco--
ed--
ede--
edi--
edo--
edu--
ee--
ef--
efu--
eg--
ege--
eh--
ehi--
ein--
eje--
eji--
ek--
eke--
ekpe--
el--
ele--
elect--
eli--
else--
em--
emb--
eme--
emepe--
emi--
emoti--
empl--
en--
end--
ene--
eng--
eni--
entra--
enwe--
ep--
eq--
equ--
equato--
equi--
er--
ere--
eri--
es--
ese--
esi--
esper--
est--
et--
ete--
eth--
ethno--
ethnog--
eti--
eto--
ety--
eu--
euro--
evalu--
evange--
ewe--
ewu--
ex--
exis--
expat--
expl--
eye--
eyi--
ez--
eze--
ezi--
ezini--
ezo--
ezz--
f--
fa--
fab--
faci--
fad--
fai--
fair--
fal--
famo--
fan--
far--
fat--
fay--
fc--
fe--
fek--
fel--
fer--
ferti--
fey--
fi--
fig--
figur--
fil--
film--
fin--
fire--
fl--
fla--
flu--
fly--
fo--
folk--
fon--
foot--
for--
foren--
foto--
fr--
fra--
fre--
fred--
free--
fresh--
fri--
ft--
fu--
ful--
fun--
fund--
fur--
fy--
g--
ga--
gad--
gal--
gam--
gan--
gar--
gas--
gat--
gathe--
gaz--
gba--
gbe--
gbo--
gbu--
ge--
gen--
geo--
ger--
get--
gh--
gha--
gho--
gi--
gil--
gir--
girl--
gl--
glo--
gly--
go--
god--
gold--
gonz--
good--
gor--
got--
gov--
gq--
gra--
grand--
grass--
gre--
green--
gri--
gro--
gru--
gu--
gua--
gue--
guil--
gum--
gun--
gur--
gwa--
gwu--
gy--
h--
ha--
hack--
had--
hag--
hai--
hal--
hall--
ham--
hamb--
han--
happe--
har--
harb--
hard--
hart--
has--
hat--
haw--
hay--
haz--
he--
head--
heart--
hel--
hen--
her--
het--
hey--
hi--
hig--
high--
hil--
him--
hip--
his--
histo--
hit--
hlo--
hlu--
ho--
hob--
hod--
hol--
holl--
holo--
home--
hon--
hood--
hop--
hor--
hot--
hou--
how--
hu--
hub--
huff--
hur--
hus--
hutc--
hy--
hybr--
hygi--
hyper--
hyu--
i--
iba--
ibe--
ibi--
ibu--
ic--
id--
ida--
ide--
ido--
idu--
ie--
if--
ife--
ig--
iga--
igbin--
igbo--
igu--
ih--
ihe--
ihu--
ii--
ije--
ik--
ike--
iko--
iku--
ikwu--
il--
ile--
illu--
illust--
im--
ima--
ime--
imi--
impleme--
in--
ina--
inc--
indi--
infe--
info--
ink--
inno--
ino--
insp--
int--
inter--
inva--
inve--
io--
ip--
ir--
ire--
iri--
iro--
is--
isa--
ise--
isi--
iso--
isti--
isu--
it--
iti--
itu--
iv--
ivo--
iwe--
iwu--
iya--
iz--
izo--
izu--
j--
ja--
jade--
jag--
jam--
jan--
jar--
jay--
je--
jea--
jell--
ji--
jim--
jin--
jo--
joa--
job--
joc--
joe--
john--
jos--
jou--
ju--
judg--
juve--
k--
ka--
kaa--
kab--
kaba--
kah--
kai--
kal--
kan--
kar--
kat--
kay--
ke--
kee--
ken--
ker--
kg--
kh--
kha--
ki--
kia--
kick--
kid--
kim--
kin--
kir--
kirs--
kit--
kla--
kle--
klo--
ko--
koh--
kol--
kom--
kon--
kor--
kot--
kou--
koura--
kp--
kpa--
kpe--
kpo--
kpu--
kra--
kre--
kri--
ks--
ku--
kunst--
kur--
kurd--
kvi--
kw--
kwa--
kwe--
kwu--
ky--
l--
la--
laa--
lab--
labi--
lac--
lady--
lah--
lam--
lan--
land--
lang--
lar--
las--
lau--
law--
lay--
ld--
le--
led--
lee--
lega--
leh--
lei--
lek--
lem--
leo--
les--
let--
lewan--
lexi--
ley--
li--
life--
lim--
lin--
lit--
litho--
ll--
lm--
lo--
long--
lot--
lou--
love--
low--
lu--
luci--
lung--
ly--
lyn--
m--
ma--
maa--
mac--
mach--
mad--
mag--
magh--
mah--
mai--
main--
maj--
mak--
mal--
man--
mani--
manu--
map--
maq--
mar--
mary--
mas--
mash--
master--
mat--
mate--
math--
matri--
max--
may--
maz--
mb--
mba--
mbe--
mbi--
mbo--
mbu--
mc--
mccor--
mcfar--
md--
me--
mec--
med--
meg--
mega--
meh--
mek--
mel--
memo--
men--
mer--
mes--
met--
meta--
mexi--
mez--
mfon--
mg--
mgba--
mh--
mi--
mic--
micro--
mid--
mie--
mil--
milit--
mill--
min--
mini--
mir--
mire--
misc--
mit--
miz--
mkpa--
mm--
mma--
mn--
mo--
mokg--
mom--
mon--
monol--
monte--
moon--
mor--
more--
mots--
mou--
mour--
mous--
mp--
mr--
ms--
mt--
mu--
mul--
multi--
mulu--
mur--
mve--
mvu--
mw--
mwe--
my--
myste--
mza--
n--
na--
nah--
nai--
naj--
naka--
nal--
nam--
nan--
nap--
nar--
nas--
nat--
nav--
naw--
naz--
nb--
nc--
nche--
nd--
nda--
nde--
ndi--
ndo--
ndu--
ne--
ned--
nel--
neo--
ner--
net--
new--
news--
ng--
nga--
ngo--
ngu--
nh--
ni--
nia--
nie--
nig--
nik--
nin--
nine--
nit--
nj--
nk--
nka--
nke--
nko--
nku--
nle--
nm--
nn--
nna--
nne--
nno--
no--
nok--
nom--
non--
nor--
nos--
not--
nou--
nov--
now--
nr--
nsi--
nso--
nsu--
nt--
nta--
nto--
ntu--
nu--
nur--
nut--
nw--
nwa--
nwabu--
nwe--
nweta--
nwu--
ny--
nya--
nye--
nyi--
nz--
nze--
o--
oa--
ob--
oba--
obe--
obi--
obo--
obu--
oc--
od--
ode--
odi--
odo--
odu--
of--
off--
og--
oga--
oge--
ogo--
ogu--
ogun--
oh--
oha--
oje--
oji--
oju--
ojul--
ok--
oka--
oke--
oki--
oko--
oku--
okwe--
okwu--
ol--
ola--
old--
olden--
olo--
oloru--
olu--
oluwa--
om--
oma--
ome--
omi--
omo--
omu--
on--
ona--
one--
oni--
ono--
onu--
onwe--
onwu--
onye--
oo--
oost--
op--
oppos--
or--
ora--
ore--
ori--
orph--
orthog--
oru--
os--
osa--
osho--
osi--
oso--
ost--
oster--
osu--
ot--
ota--
oth--
oti--
otu--
ou--
out--
over--
owo--
oxi--
oye--
oyi--
oz--
ozo--
p--
pa--
pac--
palan--
pan--
par--
para--
park--
pas--
pat--
path--
pay--
pe--
peace--
pedia--
peint--
pen--
pente--
per--
peri--
pet--
pf--
ph--
phar--
phe--
phi--
photo--
phu--
phy--
pi--
pig--
pin--
pix--
pl--
play--
ply--
pm--
po--
pol--
poly--
pont--
pop--
por--
pos--
post--
pot--
pow--
pr--
pract--
prae--
pre--
preg--
pri--
print--
pro--
prove--
provi--
ps--
psy--
psycho--
pu--
pur--
put--
pyth--
q--
qu--
quad--
quan--
que--
qui--
quot--
qur--
r--
ra--
rad--
rag--
rah--
rai--
raj--
ram--
rama--
rap--
ras--
ratt--
raw--
ray--
rc--
re--
rece--
recl--
recog--
red--
redee--
ref--
reg--
regi--
rein--
reli--
repub--
res--
resi--
ret--
rev--
revel--
rha--
rhi--
rhy--
ri--
rie--
rig--
ro--
rob--
roc--
rock--
rod--
ros--
rose--
roth--
rou--
round--
row--
rox--
rs--
ru--
rug--
rumu--
run--
ry--
s--
sa--
sab--
sac--
sad--
saf--
sah--
sal--
sam--
san--
sar--
sat--
savi--
saw--
say--
sb--
sc--
scar--
sch--
sche--
schi--
scho--
schu--
scor--
screen--
se--
sea--
sec--
sedi--
see--
seg--
semi--
sen--
sep--
ser--
set--
sex--
sey--
sg--
sh--
sha--
shatt--
she--
sher--
shi--
shin--
sho--
shu--
shy--
si--
side--
sie--
sil--
simp--
simu--
sin--
sir--
sis--
six--
sk--
ske--
skol--
sky--
sl--
slo--
smo--
smug--
sni--
sny--
so--
soc--
sol--
some--
son--
sor--
sou--
south--
sow--
soy--
sp--
spar--
spec--
spra--
squ--
sr--
ss--
st--
sta--
stal--
stan--
star--
ste--
sti--
stir--
sto--
story--
stra--
stre--
stru--
stu--
sty--
su--
sub--
sud--
suf--
suff--
suic--
sun--
super--
supp--
sur--
sv--
sw--
sy--
syl--
syll--
symp--
synthe--
t--
ta--
tag--
tai--
tal--
tam--
tan--
tape--
tar--
tat--
tau--
taw--
tay--
tb--
tc--
te--
tea--
tech--
tek--
tel--
tele--
temi--
ten--
ter--
territo--
tex--
text--
th--
tha--
the--
theo--
thi--
thor--
thur--
ti--
tig--
tim--
time--
tin--
tir--
to--
tolera--
tom--
ton--
too--
top--
tor--
tort--
tou--
town--
tra--
trans--
tre--
tri--
tro--
trot--
tru--
ts--
tsha--
tshi--
tt--
tu--
tum--
tur--
turk--
tv--
twel--
ty--
u--
uba--
uc--
ude--
udo--
ug--
ugo--
ui--
uk--
uka--
ul--
ult--
ultra--
um--
ume--
umu--
un--
una--
unc--
und--
under--
unn--
up--
ur--
uru--
us--
use--
usu--
uti--
uto--
utt--
uwa--
uzo--
v--
va--
val--
valle--
van--
var--
vari--
ve--
vent--
ver--
verti--
vi--
vic--
vigil--
vir--
visc--
visibi--
vitt--
vo--
voca--
vol--
volun--
voor--
vos--
vr--
vu--
vy--
w--
wa--
wah--
wai--
wal--
wan--
war--
was--
water--
we--
web--
wei--
wen--
wer--
west--
wet--
whis--
whit--
white--
who--
wi--
wiki--
wil--
wild--
win--
wind--
wo--
wol--
wood--
wool--
world--
wu--
wy--
x--
xenoph--
xi--
xia--
xu--
xx--
xxx--
y--
ya--
yam--
yan--
yar--
yaw--
ye--
year--
yen--
yes--
yi--
yo--
you--
yu--
z--
za--
zar--
zaw--
zay--
ze--
zh--
zhu--
zi--
zimmer--
zo--
zoo--
zu--
zwe--
ŋ--
ǝ--
ə--
ɛ--
ɡ--
ا--
ال--
الس--
الع--
ب--
ح--
ر--
س--
ش--
ع--
ل--
م--
مح--
و--
ي--
--0
--1
--17
--2
--20
--21
--22
--3
--38
--4
--5
--6
--7
--8
--9
--a
--aa
--aal
--ab
--able
--ac
--ach
--ack
--acy
--ad
--ade
--ae
--af
--ag
--age
--agh
--agu
--ah
--ai
--ain
--air
--aj
--ak
--aka
--al
--ala
--ality
--ally
--aly
--am
--ama
--ame
--amo
--ams
--an
--ana
--ance
--ances
--and
--ane
--aney
--ang
--anga
--anguage
--ani
--ano
--ans
--ant
--ao
--ap
--aph
--ar
--ara
--ard
--are
--ari
--aries
--ars
--art
--ary
--as
--ase
--at
--ate
--ated
--ath
--ati
--atic
--ation
--ations
--ats
--aty
--au
--auer
--aux
--av
--aw
--awy
--ax
--ay
--az
--b
--ba
--bach
--back
--bah
--bane
--bank
--be
--beat
--bee
--beghi
--ber
--berg
--bes
--bi
--bia
--biso
--ble
--bo
--boe
--bol
--bolic
--book
--bor
--bou
--box
--boy
--bra
--brow
--bs
--bt
--bu
--bule
--bulu
--burg
--bury
--by
--c
--ca
--cal
--cco
--ce
--ceae
--ced
--cela
--ces
--ch
--cha
--chara
--che
--chi
--cho
--cht
--ci
--cia
--cing
--cio
--ck
--cker
--cks
--co
--com
--cott
--cre
--croft
--cs
--ct
--ction
--ctions
--cts
--cu
--cup
--cus
--cy
--d
--da
--dah
--dale
--day
--dc
--dd
--de
--ded
--deji
--der
--des
--dez
--dh
--di
--dian
--diji
--dis
--dium
--diwe
--dja
--dle
--do
--dog
--dom
--dor
--dore
--dou
--doyin
--dra
--ds
--dt
--du
--duct
--dun
--dwa
--dy
--dza
--dzi
--e
--ea
--eal
--eals
--ean
--eau
--eb
--ech
--eck
--ect
--ects
--ed
--ee
--eed
--eel
--een
--ees
--ef
--eh
--ei
--ein
--ek
--eke
--el
--ela
--eld
--ele
--ell
--elli
--ello
--elo
--els
--elu
--ely
--em
--eme
--en
--ena
--ence
--ene
--eng
--enne
--ennes
--ens
--ensive
--ent
--eo
--eon
--ep
--er
--ere
--erg
--eri
--ern
--ers
--erson
--ert
--ery
--es
--ese
--esh
--ess
--est
--et
--ete
--eth
--ets
--ett
--etta
--ette
--eur
--ew
--ewa
--ex
--ey
--eye
--ez
--eze
--f
--fa
--face
--fe
--ff
--fi
--fia
--fie
--fied
--field
--fier
--fo
--ford
--fs
--ft
--fu
--ful
--fusi
--fy
--g
--ga
--gai
--gan
--gar
--gate
--gation
--gau
--gba
--gbe
--gbo
--gbu
--ge
--ged
--gel
--gen
--ger
--ges
--gg
--gh
--ghe
--ghi
--gho
--ght
--gi
--gia
--gie
--gin
--ging
--gio
--gious
--gisa
--gist
--gists
--gle
--gn
--gna
--go
--gon
--goro
--graf
--graph
--graphy
--gs
--gsu
--gton
--gu
--gui
--guo
--gwe
--gwu
--gy
--h
--ha
--haa
--hai
--ham
--han
--har
--hari
--he
--head
--hed
--heim
--hem
--her
--hes
--hi
--hia
--hic
--hie
--hin
--hip
--hiri
--hl
--hla
--hm
--hn
--ho
--hof
--hol
--hood
--hop
--hot
--hr
--hra
--hs
--ht
--hu
--hua
--hun
--huo
--hurst
--hy
--i
--ia
--iah
--ial
--ian
--ib
--ible
--ic
--ica
--ical
--ich
--ick
--ico
--ics
--id
--ide
--ie
--ied
--ief
--iek
--iel
--ien
--ier
--iers
--ies
--iest
--if
--ig
--ight
--igi
--ii
--ik
--ika
--ike
--iki
--iko
--il
--ile
--ill
--illa
--ille
--ils
--ily
--im
--in
--ina
--inal
--ination
--inda
--ine
--ines
--ing
--ings
--ington
--ini
--ino
--ins
--inson
--io
--ion
--ional
--iong
--ions
--ip
--iq
--ique
--ir
--ira
--ire
--iri
--is
--isation
--ise
--ised
--ish
--isi
--ism
--ist
--istic
--ists
--it
--ita
--ite
--ith
--ities
--ity
--itz
--iu
--ium
--ius
--ive
--iver
--ivity
--ix
--iya
--iye
--iz
--ization
--ize
--ized
--j
--ja
--je
--jet
--jevo
--ji
--jio
--jo
--ju
--k
--ka
--kar
--kari
--kat
--ke
--ked
--kel
--ker
--kers
--ket
--kh
--ki
--kie
--kin
--kir
--kle
--ko
--kon
--kos
--kota
--koya
--kpo
--kraft
--ks
--ku
--kun
--kur
--kwa
--kwara
--kwe
--kwo
--kwu
--kwuo
--ky
--l
--la
--lade
--lah
--laka
--land
--lar
--lat
--law
--lberg
--lc
--ld
--lde
--ldo
--le
--led
--leh
--lehem
--lem
--len
--lene
--ler
--leri
--lers
--les
--less
--let
--lewa
--ley
--lf
--li
--lia
--lic
--life
--lin
--line
--ling
--lio
--lis
--lism
--list
--lity
--live
--lk
--ll
--lla
--llah
--lle
--lles
--lli
--llo
--lly
--lm
--lman
--lo
--log
--logist
--logy
--lon
--loo
--lope
--lor
--lore
--lot
--lowo
--ls
--lt
--lu
--lude
--lum
--lus
--lwa
--ly
--lyn
--lz
--m
--ma
--mah
--mam
--man
--mate
--mates
--max
--mba
--mbe
--mbi
--mbu
--me
--med
--men
--ment
--ments
--mer
--mes
--mey
--mi
--mic
--mis
--mist
--mm
--mma
--mo
--mon
--more
--mosu
--mou
--mp
--mpa
--ms
--mu
--mus
--my
--n
--na
--nah
--nal
--nam
--nar
--nard
--nary
--nat
--nberg
--nbo
--nc
--nce
--nci
--ncy
--nd
--nda
--nde
--ndi
--ndo
--ndu
--ne
--ned
--neke
--nen
--ner
--ners
--nes
--ness
--net
--neur
--news
--ney
--ng
--nga
--nge
--nger
--ngi
--ngo
--ngu
--ni
--nia
--nial
--nian
--nic
--nie
--ning
--nis
--nism
--niyi
--nja
--nk
--nke
--nn
--nna
--nne
--nnen
--nnes
--nni
--no
--nran
--ns
--nsi
--nt
--nta
--nte
--nted
--ntina
--nts
--nu
--nuga
--nus
--nwa
--nwe
--ny
--nya
--nye
--nyi
--nyo
--nyu
--nza
--nzi
--o
--oa
--ob
--ock
--od
--ody
--oe
--of
--off
--og
--ogy
--oh
--oi
--oid
--oire
--ok
--oke
--okwu
--ol
--ola
--oli
--olo
--ology
--om
--oma
--ombe
--on
--ona
--onal
--one
--ong
--ongo
--ons
--oo
--ood
--ool
--oos
--op
--ope
--or
--ord
--ore
--orn
--oro
--ors
--ort
--ory
--os
--osa
--ot
--ott
--ou
--oua
--oui
--oum
--oun
--ous
--out
--ouw
--ov
--ova
--ow
--owed
--oy
--ozi
--p
--pa
--pace
--page
--pal
--pe
--pect
--ped
--per
--pes
--pet
--ph
--pha
--phie
--phies
--phobia
--phy
--pi
--ping
--piro
--ple
--po
--port
--post
--pp
--ps
--pse
--pt
--pu
--pus
--py
--q
--qa
--qi
--qua
--que
--ques
--r
--ra
--racy
--rah
--ral
--ran
--rany
--rat
--rate
--rated
--rator
--raz
--rch
--rchy
--rd
--rda
--rde
--rds
--re
--reat
--red
--rek
--rel
--rella
--ren
--res
--ress
--rf
--rg
--rge
--ri
--ria
--rian
--ribe
--ric
--rie
--ries
--rik
--rika
--rin
--rine
--ris
--rism
--rit
--rita
--rk
--rm
--rn
--ro
--rol
--rou
--rp
--rr
--rra
--rre
--rry
--rs
--rson
--rst
--rt
--rta
--rte
--rten
--rth
--rton
--ru
--rum
--rus
--ry
--rya
--ryl
--s
--sa
--sberg
--sburg
--sbury
--scape
--sch
--sche
--sco
--scope
--scu
--sd
--sdorp
--se
--sed
--sel
--sen
--ses
--sey
--sh
--sha
--shan
--she
--shi
--ship
--shire
--si
--sia
--side
--sie
--sike
--sion
--sis
--sity
--sive
--sk
--ska
--ski
--sley
--sm
--sman
--sna
--so
--soji
--som
--son
--ss
--ssa
--sse
--ssi
--sson
--st
--sta
--ste
--ster
--ston
--stre
--stry
--sts
--su
--suma
--sus
--sville
--swa
--sy
--t
--ta
--tah
--tal
--tan
--tar
--tara
--tas
--tation
--tch
--te
--ted
--ten
--ter
--ters
--tery
--tes
--teur
--tey
--th
--tha
--thi
--thu
--thy
--ti
--tia
--tic
--tics
--ties
--tik
--til
--time
--tin
--ting
--tion
--tions
--tis
--tive
--tle
--tner
--to
--tokunbo
--ton
--tone
--tor
--tors
--tory
--tos
--tou
--tov
--tow
--town
--toye
--tra
--tro
--truction
--trup
--try
--ts
--tse
--tsi
--tso
--tt
--tta
--tte
--ttes
--tti
--tto
--tu
--ture
--tus
--tute
--tv
--ty
--tz
--u
--ua
--uan
--ub
--uch
--ud
--ue
--uer
--ues
--uf
--ufu
--uga
--uge
--ugh
--ugo
--ui
--uil
--uit
--uk
--uke
--uki
--ul
--ula
--ular
--ule
--ult
--ulu
--um
--ume
--un
--ung
--uni
--uo
--up
--uq
--ur
--ura
--urai
--ural
--ure
--ures
--urg
--uri
--urs
--uru
--ury
--us
--uss
--ut
--uta
--ute
--uti
--ution
--uts
--uw
--uwa
--ux
--uya
--uz
--v
--va
--ve
--ved
--vel
--ven
--ves
--vi
--vian
--view
--ville
--vin
--ving
--vo
--vre
--vu
--vvy
--vy
--w
--wa
--wak
--war
--way
--we
--web
--well
--wer
--wi
--wick
--wig
--wo
--wokwa
--woman
--wood
--work
--worth
--ws
--wu
--wumi
--wunmi
--wy
--x
--xes
--xi
--xy
--y
--ya
--yah
--yan
--yard
--yat
--yd
--ye
--yer
--yere
--yi
--yin
--yiwa
--yl
--ym
--yn
--yo
--yon
--yr
--yra
--ys
--yu
--yya
--z
--za
--zani
--zat
--zation
--ze
--zed
--zel
--zen
--zer
--zi
--zia
--zie
--zin
--zing
--zo
--zu
--zy
--zz
--zzy
--ŋ
--ɔ
--ə
--ɛ
--ɪ
--а
--и
--ا
--ب
--ة
--ت
--د
--ر
--س
--ف
--ل
--م
--ن
--ى
--ي
--ية
--ين
