!
"
#
##0
##1
##10
##11
##12
##13
##14
##15
##16
##17
##18
##19
##2
##20
##21
##22
##23
##24
##25
##26
##27
##28
##29
##3
##30
##31
##32
##33
##34
##35
##36
##37
##38
##39
##4
##40
##41
##42
##43
##44
##45
##46
##47
##48
##49
##5
##50
##51
##52
##53
##54
##55
##56
##57
##58
##59
##6
##60
##61
##62
##63
##64
##65
##66
##67
##68
##69
##7
##70
##71
##72
##73
##74
##75
##76
##77
##78
##79
##8
##80
##81
##82
##83
##84
##85
##86
##87
##88
##89
##9
##90
##91
##92
##93
##94
##95
##96
##97
##98
##99
$
%
&
'
(
)
*
+
,
-
.
/
0
00
000
0018
01
02
02537
03
04
05
0531
06
066
07
08
09
1
10
100
1000
101
1016
104
105
106
108
1080
11
112
113
12
120
1200
123
125
13
132
133
134
139
14
145
146
147
148
15
150
1500
15200
153
157
1573
16
164
165
17
170
173
17399
1794
18
180
1800
181
1818
1820
1827
1828
1830
1831
1841
1845
1852
1854
1855
1860
1864
1867
1869
1870
1871
1873
1875
1877
1880
1881
1882
1884
1885
1888
1889
1890
1892
1893
1895
1897
1898
1899
19
1900
1901
1902
1903
1904
1905
1906
191
1910
1911
1912
1913
1915
1916
1918
192
1920
1921
1922
1923
1924
1925
1926
1928
1929
1930
19302022
1931
1932
1933
1934
1936
1937
1938
1939
1940
1941
1942
1943
1944
1945
1946
1947
1948
1949
1950
1951
1952
1953
1954
1955
1956
1957
1958
1959
1960
1961
1962
1963
1964
1965
1966
1967
1968
1969
1970
1971
1972
1973
1974
1975
1976
1977
1978
1979
1980
1981
1982
1983
1984
1985
1986
1987
1988
1989
1990
1991
1992
1993
1994
1995
1996
1997
1998
1999
2
20
200
2000
2001
2002
2003
2004
2005
2006
2007
2008
200803200336
2009
2010
2011
2012
20120117
2013
2014
2015
2016
2017
2018
2019
2020
2021
2022
2024
2026
2030
2034
204
206
207
208
21
210
214
22
2201
225
226
23
24
240
2484
25
250
2500
251
26
260
262
264
27
28
280
284
289
29
298
3
30
300
3000
307
31
311
313
32
320
33
330
333
34
347
35
350
355
36
360
37
38
38000
386
39
392
396
4
40
400
4000
401
41
415
42
420
426
43
431
44
440
45
450
46
469
47
48
480
49
5
50
500
507
51
5117
52
53
533
54
544
55
56
57
571
58
586
59
591
6
60
600
607
61
62
63
64
65
66
67
670
679
68
697
698
7
70
700
72
73
74
741
744
75
7500
76
77
7864
788
79
8
80
800
807
809
81
8108
8158
82
83
84
85
86
87
88
89
9
90
900
9000
90804
91
92
93
94
943
95
96
97
972
978
9780810854673
98
99
:
;
=
>
?
@
\
^
_
a
aa
ab
aba
ababa
abang
abb
abc
abdul
abednico
abejar
abela
abelana
abelanang
abelelwa
abelwa
abelwang
aberdeen
abet
abetse
abetswe
abidine
abilweng
abiwa
abo
abortion
about
absa
abu
ac
academic
accepted
access
accessed
accident
accidents
accountancy
accountants
accounting
accreditation
acid
acquired
acquisition
act
acting
action
activists
activities
ad
addis
address
adima
adimilwe
adimilweng
adina
administration
administrative
adradas
adult
advanced
advisory
ae
aeronautics
afa
afc
afericka
aferika
affair
affairs
afghanistan
aforika
africa
african
afrika
afrikaans
afro
after
afton
aga
against
agang
age
agela
agelwa
agency
ageng
agente
ages
agetswe
agetsweng
aghlabid
agile
agileng
agilwe
agilweng
agiwa
agiwang
agiwe
agriculture
agwa
ahead
ahmed
ai
aid
aids
air
aircraft
airdisaster
airlines
airport
airways
aitch
akangwa
akanngwa
akantsweng
akanya
akanye
akanyeditswe
akanyediwa
akanyetsa
akareditse
akareditswe
akarediwa
akarediwe
akaretsa
akaretsang
akaretse
akaretswa
akeretsa
akgela
akgola
akgoletse
akgolwa
akgotse
akhademiki
akola
akole
al
ala
alafa
alafilwe
alafiwa
alan
albamo
albert
ale
alebamo
alebamong
alex
alexander
alexandra
alexandria
alfred
algeria
algiers
ali
alive
aliwal
all
allafrica
allah
alliance
allied
almohad
aloga
alogileng
alphabetical
also
alt
alumni
am
ama
amafest
amana
amanang
amane
amang
amangwa
amangwe
amantle
amapiano
amaru
amega
amegang
amegileng
amendment
amereka
america
american
amerika
amile
amileng
amilwe
amilweng
amiwa
amnesty
amoga
amogela
amogelang
amogele
amogelesega
amogelwa
amogetse
amogetseng
amogetswe
amogetsweng
among
amos
amusang
an
ana
analysis
anama
aname
anamela
anameng
anamisa
anc
ancestors
ancient
and
anderson
andrew
andy
ane
angela
angliss
anglo
angola
ann
anna
annals
anne
anniversary
annual
ano
anostraca
anthony
anthropology
anti
antiquity
ao
apara
aparang
aparateiti
apare
apareteiti
apartheid
aparwa
aparwang
apaya
ape
apeilwe
apeilweng
apeiwa
apere
aperwe
apesitse
apesitseng
apesitswe
apesiwa
apewa
apewang
apole
appeal
appointed
appointments
appoints
approaches
april
arab
araba
arabea
arabela
arabia
aranos
archaeological
archaeology
archibald
architects
archive
archived
archives
are
area
areas
argentina
argentine
ark
arm
armed
arms
armstrong
army
arogantswe
aroganya
arologana
art
arthur
article
articles
arts
arup
as
asa
asean
asi
asia
asian
asiatic
askies
asn
asp
assembly
assessment
asset
assistance
assistant
assistants
associated
association
at
ate
aterese
athaliah
athens
athletics
atlantic
atlega
atlege
atlegile
atlegileng
atlholwa
atlolosa
atlolosiwa
atm
atolosa
atr
attainment
atteridgeville
attitudes
attractions
au
augrabies
august
aus
australia
australian
austria
austriae
authorities
authority
automotive
autonomy
aviation
avro
award
awards
axis
azteca
b
ba
baa
baabelani
baaforika
baagedi
baagi
baaging
baakangwa
baakanya
baakanyang
baakanyediwa
baakanyetsa
baamogedi
baana
baarabia
baba
babalela
babalesegile
babalesegileng
babaletsweng
babangwe
babedi
babega
babegadikgang
babelaelwa
babereki
babini
babirwa
babotlana
babueledi
babui
babusi
bachelor
back
badimo
badiragatsi
badiredi
badirela
badirelapuso
badiri
badirisi
badisa
badudi
badumedi
bae
baebele
baebeleng
baemedi
baeng
baesekopo
baesekopong
baeteledi
baeteledipele
baeti
bafaladi
bafenyi
bafokeng
bafora
bagaka
bagodi
bagogi
bagolo
bagolong
bagolwane
bagwebi
bagwebing
baherero
bahumagadi
bahumanegi
bahumi
bahurutshe
baikopedi
baikwadisi
baines
baipei
baipidi
baithaopi
baithute
baithuti
baithuto
baitsaanape
baitsanape
bajaki
bajanala
baji
bajuta
baka
bakaa
bakalaka
bakalanga
bakang
bakapelo
bakatisi
bake
bakeng
bakeresete
bakgalagadi
bakgarakgatshegi
bakgatla
bakgweetsi
bakhurutshe
bakile
bakileng
bakilwe
bakilweng
bakiwa
bakiwang
bakubung
bakwa
bakwadi
bakwalammino
bakwaledi
bakwang
bakwena
bala
balaodi
balatedi
bale
balebeledi
balekane
balelwa
balemi
balemibarui
balete
ballarat
ballers
balliol
baloi
baloyi
balwa
balwela
balwets
balwetse
balwetsi
bam
bamangwato
bambukushu
bammala
bamoseleme
ban
bana
banana
bananeng
bancabc
band
bands
bane
baneng
bang
bangata
bangladesh
bangwaketse
bangwaketsi
bangwato
bangwe
banika
bank
banka
bankeng
banks
banna
banneng
banni
banning
bannye
bantsho
bantsi
bantu
bantustan
bantustans
banu
banyalani
banyana
banyatsi
bao
baobamedi
baokamedi
baoki
baopedi
bapa
bapagami
bapala
bapalame
bapalami
bapatsa
bapedi
baphalane
baphaleng
bapile
bapileng
bapisa
bapisiwa
bar
bararo
barata
baratani
barataro
barati
barbara
barcelona
barclays
bardo
bare
bareetsi
bareki
barkly
baro
barokologadi
barolong
baroma
barongwa
barotloetsi
barotse
barotsi
barratlou
barui
barulaganyi
barutabana
baruti
barutisi
barutising
barutwana
barutwaneng
barwa
barwatlhapi
bas
basadi
basading
basali
basarwa
basasdi
base
based
basetsana
basha
bashona
basic
basimane
basin
basotho
basupi
basweu
batabogi
batalaote
bataung
batawana
batebele
bathami
bathapiwa
batho
bathoen
bathoeng
bathong
bathusi
batjho
batla
batlabogi
batlang
batlatsa
batle
batleng
batlhabani
batlhako
batlhami
batlhapetsi
batlhaping
batlharo
batlhatlheledi
batlhoki
batlhokomedi
batlhophi
batlhophisi
batlile
batlisisa
batliwa
batlo
batlokwa
batlotlegi
batlwa
batona
bats
batsadi
batsading
batsamai
batsamaisa
batsamaisi
batsaya
batsena
batsenelela
batshabi
batshameka
batshameki
batshamiki
batshegetsi
batsho
batshu
batshwara
batsomi
batsumi
batswa
batswadi
batswakwa
batswana
batswaneng
batswapong
battle
baxhosa
bay
baya
bayang
bayei
bayeyi
bazaar
bazulu
bbc
bc
bce
bcl
bcp
bdf
bdp
be
bea
beach
beaufort
became
bechuanaland
become
bedi
bediwa
bee
beela
beeletsa
beelwa
been
beers
bega
begela
begwa
beibele
beibeleng
beijing
beile
beilwe
beilweng
being
beira
beitbridge
beiwa
beji
beke
bekeng
bela
belaela
belaelwa
belang
belega
belegwa
belegweng
belgium
bell
bellville
below
bemobile
ben
bendigo
benefitile
beng
benin
benoni
beolwa
bera
berber
bere
bereka
berekang
bereke
berekela
berekelang
berekile
berekileng
berekisana
berg
berk
berlin
bese
bessie
best
bethele
betla
betlilweng
betliwa
betlwa
betsho
between
bevanger
bewa
bewang
bey
beys
bhisho
bi
bid
biditswe
biditsweng
bidiwa
bidiwang
bidiwe
bidvest
big
bile
bilediwa
bileng
bill
billboard
billion
bin
bina
biography
biological
biology
bioloji
bip
birkenhead
births
bishopo
bitsa
bitsang
bitswa
bitswang
bjo
black
blade
blaq
blatter
blazer
block
bloemfontein
bloemhof
blog
blogspot
blue
blyvooruitzicht
bmc
bmd
bnf
bnsc
bo
boa
boagedi
boagelo
boaka
boammaaruri
boammaruri
board
bob
bobedi
bobeding
bobeli
bobirwa
bobonong
bocra
bodedi
bodibeng
bodikela
bodikologo
bodilo
bodiragatsi
bodiredi
bodireding
bodirelo
bodirelong
bodits
boditshabatshaba
bodulasetilo
bodulo
bodumedi
bodutu
body
boe
boela
boele
boeletsa
boelwa
boemedi
boemelo
boemo
boemong
boene
boeng
boengenere
boenginere
boenjeneere
boenjinere
boer
boeteledipele
boeteledipeleng
boetse
bofefo
bofelelo
bofelelong
bofelo
bofelong
bofera
boferabobedi
boferabongwe
bofitlha
bogadi
bogakolodi
bogale
bogammana
boganana
bogare
bogareng
bogaufing
bogela
bogisa
bogobe
bogodi
bogodimo
bogodu
bogogi
bogoging
bogogobo
bogole
bogolo
bogologo
bogologolo
bogologolong
bogolojang
bogolwane
bogompienong
bogosi
bogosing
bogotlhe
bogwera
bohibidu
bohlokoa
bohumanegi
boifa
boikanyego
boikanyo
boikarabelo
boiketlo
boikhutso
boikuelo
boikwadiso
boile
boimana
boinjinere
boipelego
boipelo
boiphemelo
boiphetso
boipiletso
boipuso
boiselamo
boitapoloso
boitekanelo
boithaopo
boithutelo
boitsaanape
boitseanape
boitseme
boitshegang
boitshepho
boitshepo
boitsholo
boitshwaro
boitumelo
bojale
bojalwa
bojanala
bojang
bojotlhe
boka
bokaa
bokamoso
bokao
bokeresete
bokete
bokgabane
bokgakala
bokgala
bokgarebe
bokgola
bokgoni
bokhutlo
bokhutlong
bokhutshwane
boko
bokoa
bokolone
bokone
bokonebophirima
bokonebotlhaba
bokoneng
bokoni
bokopanelo
bokopano
bokopanong
bokspits
bokunutu
bokwadi
bokwaledi
bola
bolailwe
bolailweng
bolawa
bolaya
boleele
bolela
bolelang
bolele
bolelela
bolelele
bolelelwa
boleletse
boleletswe
bolelwa
bolelwang
boleng
bolengteng
boleo
bolesome
bolesomerobongwe
boleta
boletse
boletseng
bolo
boloi
boloka
boloko
bolokwa
bolola
bolong
bolotloa
bolwetse
bolwetsi
bommampodi
bomme
bomo
bon
bona
bonako
bonala
bonalang
bonale
bonaleng
bonamagadi
bonang
bonatla
bone
bonela
boneng
bong
bongaka
bongakeng
bongo
bongola
bongwana
bongwaneng
bongwe
bongwefela
boniface
bonna
bonne
bonneteng
bonno
bonnyane
bonnye
bonnyennyane
bonokopila
bonolo
bonosi
bontle
bontleng
bontlha
bontlhabongwe
bontlhangwe
bontlhanngwe
bonts
bontsha
bontshang
bontshe
bontshi
bontshitse
bontsi
bontsing
bonwa
bonwang
bonwapitse
bonwe
bonweenwee
bonweng
bonwtsweng
bonya
boo
book
bookamedi
booki
books
boopedi
boora
boost
bootswa
bopa
bopalamente
bopang
bope
bopegile
bopelotelele
bopelotlhomogi
bophara
bophelo
bophirima
bophirimatsatsi
bophokoje
bophuthatswana
bopi
boporesidente
boraditerekere
borai
borale
boramabole
boranyane
boraro
borarong
borataro
boratato
borathana
bordeaux
border
boreaitse
boremelelo
boripana
boritane
born
boroa
boroba
borobabobedi
borobabongwe
borobalo
borobedi
borobobedi
borogo
borokgwe
boroko
borolong
borongwa
boroso
borotho
borre
borukhutlhi
borukuthi
borukutlhi
borutabana
borutelo
borwa
borwabophirima
borwabophirimsa
borwabotlhaba
borweng
bosa
bosadi
boseja
bosets
bosetshaba
bosheng
bosigo
bosole
bosula
bosupa
bosupi
bosutswe
boswa
bosweu
botaki
botala
botautona
botegeniki
botekiniki
boteng
boteti
bothaba
bothano
bothapiwa
bothata
bothibelelo
bothitho
botho
bothokwa
botlaki
botlalo
botlana
botlha
botlhaba
botlhabatsatsi
botlhale
botlhano
botlhapatlou
botlhaswa
botlhe
botlhoko
botlhokwa
botlhokwatlhokwa
botlhophi
botlhophiwa
botlogile
botoka
botona
bots
botsa
botsadi
botsala
botsalano
botsalo
botsamaisi
botselo
botseno
botshabelo
botshamekelo
botshegetsi
botshelo
botshelong
botsipa
botsoba
botsogo
botsolotswa
botswana
botswanago
botswanan
botswanapost
botswerere
botswna
bou
bouazizi
bouden
boupi
bourguiba
boutsana
bowa
box
boyone
bpc
bpp
bracke
brainard
brak
branch
brand
brands
brasil
bray
brazil
breka
bremer
brendan
brendonck
brian
bribes
bridge
brief
brigade
bright
brisbane
britain
britannica
brithani
british
brits
brokers
bronfenbrenner
brothers
brown
bruce
bryan
bsa
bsb
btc
bua
buang
bubi
budget
bue
buelela
building
buile
builwe
buisa
buisana
buisane
buisanya
buisiwa
buiwa
buiwang
buka
bukana
bula
bulawayo
bulega
bulegileng
bulelwa
bulgaria
bull
bulletin
bulwa
bureau
burgersdorp
burnham
burning
burrow
buruboko
busa
busang
busediwa
busediwe
busetsa
bushman
busi
business
busiswa
busitseng
busiwa
buswa
but
butale
butse
butswa
butswe
butsweng
buwa
bw
bwp
by
c
ca
caab
cab
cabinet
caf
caid
caine
caiphs
caiphus
cairo
cake
california
called
calls
cambridge
camerapix
cameroon
camp
campaign
campbell
campus
can
canada
canadian
canberra
cancer
candidate
cannot
cap
cape
capital
capricorn
caprivi
captain
carats
carbon
care
career
careers
carlin
carrier
carrot
carthage
case
casino
cat
category
causa
cavmont
cd
cecil
ceda
cee
celebrates
cellphones
cena
census
centenario
center
central
centre
century
ceo
certificate
cessna
cfm
cgi
chaina
chairmanship
chaka
chakalisa
challenge
challenges
champagne
champions
championship
championships
chanal
chancellor
changate
change
chapman
characteristics
charity
charles
charlie
charma
chartered
chebanne
chemical
chemistry
chevening
chi
chibuku
chichi
chief
chiefs
chiepe
child
children
chile
chilume
china
chinese
chippa
chippindale
chloride
chobe
choppies
chotlho
chris
christian
christiana
christopher
chromosome
chromosomes
chronicle
chronology
chuck
church
cia
cid
cih
circle
ciskei
cit
citation
cities
citizen
citizenship
city
civil
cjss
class
classical
classified
climate
club
clubofmozambique
cm
cne
cnn
co
coast
cobar
coca
code
coffee
cola
college
colleges
colloquially
colombia
colombiae
colony
coloured
coloureds
columbia
column
com
combustion
comedy
comfort
commander
commerce
commercial
commission
commissioner
committee
committees
common
commonly
commons
commonwealth
communication
communications
communities
community
companies
company
competition
comprehensive
compulsory
concacaf
concepcio
conditions
confederation
conference
conflicts
congo
congress
conmebol
connor
conservation
constitution
constitutional
construction
content
context
continental
continente
control
convention
cooperation
copper
corn
cornish
corporate
corporation
correspondent
corridor
cosafa
cosana
cotton
could
council
countries
country
countryballs
county
course
courses
court
covid
crash
creation
creative
creator
credentials
crescent
cricket
crilly
crime
criminal
cross
crowned
cs
cuba
cuckoo
cue
cultural
culture
cup
cups
curitiba
current
curriculum
customs
cycle
cynthia
d
da
daegonale
dagwi
daily
dailynews
dakar
dale
dam
dambe
damtshaa
dance
daniel
darwin
data
database
date
datshe
daveyton
david
day
dbe
dc
de
dead
dean
death
debswana
december
decision
declaration
defence
degree
degrees
dekar
del
delta
democracy
democratic
dempsey
denbow
department
deportivo
depth
deputy
der
derby
derek
deritz
des
description
desert
design
destination
destroys
details
detective
developed
developing
development
dhet
di
diabe
diabo
diagram
dialebamo
dialogane
dialogue
diamanang
diamond
diamusi
diana
diane
diaparo
diaspora
diatla
diatleng
dibanka
dibatana
dibeke
dibeng
dibese
dibete
dibetsa
dibilione
dibine
dibokwana
dibotara
dibouto
dibui
dibuka
dibukeng
dice
dichaba
dichabachaba
dictionary
did
didiba
didika
didikadike
didiko
didimala
didirisiwa
didiriswa
didolara
die
diekere
diela
diele
diema
diemo
diemong
dies
dietsele
difatlhi
dife
difeshene
difference
different
difikantswe
difilimi
difiliming
difiolo
difitileng
difofane
difofaneng
diga
digarata
digase
digela
digolwane
digree
diguruntu
digwere
dihomounu
dihotele
dihuku
dihutshane
diinstitushene
dijalo
dijo
dijong
dijuri
dijwalo
dika
dikadike
dikaelo
dikaganyeditseng
dikaganyeditswe
dikaganyeditsweng
dikagenyeditswe
dikago
dikagong
dikai
dikakanyo
dikakgelo
dikalogo
dikamano
dikampa
dikanoko
dikao
dikarabo
dikarata
dikaro
dikarolo
dikarolong
dikarolwana
dikatisokwadiso
dikatso
dikeledi
dikeletso
dikepe
dikereke
dikerii
dikete
diketekete
dikgaba
dikgafela
dikgaisano
dikgaisanong
dikgaisanyo
dikgaisanyong
dikgakgamatso
dikgakololo
dikgang
dikgannyeng
dikganyeng
dikgaolo
dikgaolong
dikgaolwana
dikgaolwaneng
dikgatako
dikgatiso
dikgatlhego
dikgatlhong
dikgato
dikgele
dikgetho
dikgetsi
dikgobalo
dikgobe
dikgoberego
dikgogakgogano
dikgoge
dikgoka
dikgokong
dikgolagano
dikgolo
dikgolwane
dikgomo
dikgong
dikgopi
dikgopolelo
dikgoreletsi
dikgoro
dikgosana
dikgosi
dikgothang
dikgotla
dikgotlana
dikgotlhang
dikgwa
dikgwebo
dikgwebong
dikgwedi
dikgweding
dikgwetlho
dikhansele
dikharikhulumo
dikhilometara
dikhilometareng
dikhilomethara
dikhilomitara
dikhilomithara
dikholetshe
dikholetsheng
dikhompiutara
dikhomputara
dikhuduego
dikhutsana
dikhutshwane
dikhwaere
dikhwalifikheishene
dikilometara
dikilomethara
dikilomitara
dikirii
dikitso
dikobo
dikokelo
dikokelong
dikokelwana
dikoko
dikokoano
dikokomane
dikole
dikoleng
dikolo
dikolobe
dikologa
dikoloi
dikolong
dikoloto
dikomiti
dikompone
dikomponi
dikonteraka
dikontinente
dikopano
dikopo
dikopong
dikoporase
dikota
dikotla
dikotsi
dikubu
dikukama
dikuta
dikwadiso
dikwalo
dikwalong
dikwalwa
dikwena
dilalome
dilatelang
dile
dilekanyo
dilelo
diletso
diletswa
dilo
dilong
dilwana
dimajwe
dimanejara
dimasepala
dimatla
dimawe
dimela
dimeleng
dimetara
dimethara
dimilimitara
dimilione
dimishinari
dimithara
dimo
dimpho
dimpong
dina
dinaga
dinagamagae
dinageng
dinaka
dinako
dinakong
dinaledi
dinama
dinao
dinare
dinawa
dine
dineo
dinepe
dingaka
dingalo
dingongorego
dingwaga
dingwageng
dingwao
dingwe
dingwee
dinku
dinne
dinno
dinnye
dino
dinoka
dinokeng
dinokwe
dinonyane
dintle
dintlha
dintlo
dintlwa
dintsa
dintshi
dintsho
dintsi
dintwa
dinyakisiso
diofisi
diofising
diolimpiki
diolimpiking
diopedi
diopelanosi
dioura
dipaakanyo
dipadi
dipagamo
dipaka
dipalamo
dipalangwa
dipalo
dipalong
dipalopalo
dipampiri
dipampitshana
dipapiso
dipasa
dipatela
dipatlisiso
dipe
dipeeletso
dipego
dipelaelo
dipelo
dipeo
diperesente
dipesente
diph
diphaepe
diphaephe
diphala
diphalane
dipharologano
dipharologanyo
diphate
diphathi
diphatlha
diphatlhatiro
diphatsa
diphatseng
diphefo
diphetogo
diphiri
dipholo
diphologo
diphologolo
diphologolong
diphoofolo
diphorobentshe
diphoso
diphrofesara
diphrofesera
diphuthego
diphuthegong
dipina
dipitsa
dipitse
dipitso
diploma
dipoa
dipodi
dipoelo
dipolaano
dipolao
dipolaseng
dipolelo
dipolokelo
dipoloma
dipolotiki
dipolotiking
dipompo
dipone
dipopego
diporo
diporofense
diporofinsi
diporojeke
dipotlana
dipotso
diprobentsheng
diprofense
dipsy
dipudi
dipuisano
dipuisanong
dipuisanyo
dipula
dipuo
dipuong
dipuso
dir
dira
dirafala
diragadiwa
diragadiwang
diragadiwe
diragala
diragalang
diragale
diragatsa
diragatse
diragatswa
diragetse
diragetseng
dirang
dire
directive
director
directory
direkoto
direla
direlang
direle
direlwa
direlwe
direlweng
direng
diretse
diretswe
diri
dirile
dirileng
dirilwe
dirilweng
dirisa
dirisana
dirisang
dirisanya
dirisanye
dirise
dirisediwa
dirisediwang
diriseng
dirisetsa
dirisetswa
dirisetswang
dirisitse
dirisitsweng
dirisiwa
dirisiwang
dirisiwe
diriswa
diritibatsi
diriwa
diriwang
diriwe
diruiwa
dirukutlhi
dirutiwa
dirutwa
dirwa
dirwang
dirwe
dirweng
disa
disenthara
disete
disha
dishang
dishere
disikalala
distene
distribution
district
districts
disystemo
ditaelo
ditala
ditalama
ditaola
ditapole
ditatofatso
ditau
ditebego
diteemane
ditekeletso
diteko
ditema
diteme
ditena
diteng
diterekere
diterelo
diterena
diteseletso
dithaba
dithabeng
dithabololo
dithaeletsanyo
dithakeng
dithalo
dithapi
dithare
dithata
dithekhinikhono
ditheong
ditherisano
ditho
ditholo
ditholtloetso
dithomo
dithopha
dithopho
dithotho
dithotloetso
dithoto
dithubaruba
dithulaganyo
dithulaganyong
dithunya
dithuso
dithutego
dithutiso
dithutlwa
dithuto
dithutong
dithwathwa
ditikologo
ditilo
ditilong
ditiragalo
ditirelo
ditirelong
ditiro
ditirong
ditlamelo
ditlamorago
ditlankana
ditlatlana
ditlhaba
ditlhabi
ditlhabolo
ditlhabologo
ditlhabololo
ditlhabololong
ditlhaeletsano
ditlhaeletsanyo
ditlhaka
ditlhaketlhake
ditlhako
ditlhaloso
ditlhamelo
ditlhapi
ditlharapa
ditlhare
ditlhaselo
ditlhatlhobo
ditlhatsana
ditlhatshana
ditlhogo
ditlhogong
ditlhokego
ditlhoko
ditlhong
ditlhopa
ditlhopha
ditlhophana
ditlhopheng
ditlhopho
ditlhophong
ditlhopo
ditlhotlhomiso
ditlhotlhwa
ditlhwatlhwa
ditlilo
ditlogolo
ditlotla
ditlou
ditogamaano
ditogamano
ditokelo
ditokololo
ditona
ditonki
ditoro
ditoropo
ditoropokgolo
ditoropong
dits
ditsa
ditsala
ditsamaiso
ditsatholego
ditsatlholego
ditsebe
ditsela
ditselana
ditseleng
ditsetlana
ditsha
ditshaba
ditshedi
ditshekatsheko
ditsheko
ditshenyegelo
ditshenyo
ditshidi
ditshiding
ditshidinyana
ditshika
ditshimo
ditshingwana
ditshipi
ditsholo
ditsholofetso
ditshono
ditshukudu
ditshupetso
ditshupetsong
ditshupiso
ditshupo
ditshwaelo
ditshwaiso
ditshwanelo
ditshwantsho
ditshwetso
ditso
ditsompelo
ditsong
ditswa
ditswammung
dituelel
dituelelo
dituelelong
dituelo
ditumalano
ditumediso
ditumelo
diunibesithi
diversity
divided
division
diwelang
diyalemoya
diyunibesithi
diyunibesithing
diyuniti
dj
dlamini
dm
dn
dna
do
dobe
doctor
doctorate
doctorates
does
doi
dolara
domboshaba
domestic
dominate
domkrag
don
donald
dong
doom
dormant
dorper
dorsal
double
douglas
dovedale
dow
dq
dr
draaihoek
dragon
drainage
drake
drakensberg
drama
dream
driefontein
drum
dstv
du
dube
duchen
duedisi
duela
duelang
duele
duelela
duelele
duelelwa
duelelwang
duelwa
duelwang
duiker
duke
dukwi
dula
dulang
dule
duleng
duma
dumalana
dumalane
dumalanweng
dumedisa
dumela
dumelane
dumelang
dumele
dumelela
dumeletswe
dumelwa
dumelwang
dumetse
duncan
dupa
dupang
durban
during
dutch
dutse
dutseng
dynamos
dzoroga
e
ea
early
earth
east
eastern
ebile
ebileng
ebo
ebola
ebong
ebro
ecco
ecological
ecologies
ecology
economic
economics
economist
economy
ecuador
ed
edition
eds
edu
education
educational
edward
edwin
ee
efe
eff
effect
egepeta
egepeto
egg
egypt
ehali
eisa
eisenhart
eka
ekangala
el
ela
elang
elda
ele
election
elections
electrical
electricity
electronic
elela
elelang
elelela
eleng
eletsa
eletsang
elizabeth
elundini
em
ema
emails
emang
embassy
eme
emela
emelana
emelela
emelwa
emeng
emengwe
emetse
emetseng
emetswe
emisa
emise
emisetsa
emisetswa
emisiwa
emisiwe
emiswa
emma
empa
emperor
empire
employment
empowerment
en
ena
encyclopedia
encyclopædia
end
ene
eneng
energy
eng
engelane
engelanee
engenase
engineering
engineers
england
english
engwe
ennahda
enngwe
eno
enoch
entenete
enterprise
enterprises
entertainment
entry
environment
environmental
eo
ep
epa
epang
epe
epelwa
epilweng
epistemology
epiwa
epiwang
equal
equality
equilateral
ere
eric
erile
erythrina
es
ese
eseng
esi
essebsi
established
establishments
estadio
et
eta
etela
etelang
etele
etelela
etelelwa
eteletse
eteletseng
eteletsepele
eteletswe
etelwa
etetse
etetswe
ethimola
ethiopia
ethnic
ethnologue
etla
etletse
etsa
etse
etsegeng
etsha
etsisang
etsiwe
etswa
eu
europa
europe
european
evangelical
eventually
ex
example
exco
executive
exemptilwe
experience
experiment
extended
extension
external
extraordinary
f
fa
face
facebook
faces
factbook
factors
faela
faga
fagare
fago
fakhalthing
fakhalting
fall
falls
falola
false
fame
family
fang
fao
fapaneng
faphegileng
fapologileng
far
farmers
farming
farolaganeng
farologana
farologanang
farologane
farologaneng
farologanngwa
farologantshwa
farologanya
farologanyang
farologanyeng
fashion
fatase
fatimid
fatshe
fatsheng
fax
fbi
fc
fe
features
february
federal
federation
fedile
fedisa
fedisiwe
feditse
feditseng
feditswe
fediwa
fee
feela
fees
fefosa
fela
fele
felela
felelang
felele
feleletsa
feleletse
felelwa
feleng
feletse
feletseng
felix
fellow
felo
felwe
female
femela
femininity
fengwa
fenngwa
fentse
fentseng
fenya
fera
ferabobedi
ferabongwe
ferang
ferikgong
fertile
fertilisation
fertility
fertilization
feshene
festival
festus
fet
feta
fetac
fetang
fete
fetela
feteletseng
feteng
fetile
fetileng
fetisa
fetisetsa
fetisisa
fetla
fetlang
fetlha
fetloga
fetoga
fetogela
fetogele
fetogetswe
fetogile
fetola
fetolela
fetolwa
fetolwe
fetotse
fetotseng
fetsa
fetswa
fetus
fi
field
fifa
fifing
fifth
fight
fighters
fihla
file
filimi
film
films
filwe
filweng
final
finance
financial
financing
fine
finkel
finland
fire
fires
firestone
firikgong
firisiwa
first
fisa
fish
fitha
fithela
fithelela
fithelwa
fithelwang
fitileng
fitlha
fitlhe
fitlhela
fitlhele
fitlhelela
fitlhelelang
fitlheletseng
fitlhelwa
fitlhelwang
fitlhetse
fitlhetsweng
fitlhile
fitlileng
fitzpatrick
five
fiwa
fiwang
fiwe
flamengo
flash
fleet
fletcher
floodplain
flora
florida
flour
flow
flower
flying
fm
fmann
fnb
fo
fofa
fofela
fofisa
fokker
fokoditswe
fokotsa
fokotsang
fokotsega
fokotsege
fokotsegile
fola
folaga
fologa
fologelela
foo
food
football
footballers
footprint
footprints
footscray
footsteps
for
fora
foraditlhopho
forae
force
forced
foreistata
forest
form
former
forms
fort
forum
found
foundation
founder
four
fpk
frameless
framework
franc
france
frances
francis
francisco
francistown
franco
frank
franklin
fraser
fred
frederick
free
freedom
french
frere
friend
from
front
ft
fuduga
fudugela
fudugele
fudugetseng
fudusa
fudusediwa
fudusiwa
fuel
fula
full
fumanang
fumane
fund
funding
furry
further
future
fx
g
ga
gaabo
gabaipone
gabane
gabedi
gaberones
gabo
gaborone
gachibana
gae
gaetuli
gagabo
gagamadiwa
gagamatsa
gagametseng
gago
gagoangwe
gagolo
gagwe
gaisa
gaisana
gaisanang
gaisang
gaisitseng
gakatsa
gakgamala
gakgamatsang
gakologelwa
gakolola
gakololwa
gakolotse
gakolotswe
gal
galalela
galaletsa
galase
gale
galo
gama
game
games
gammogo
gana
ganana
gane
ganediwe
ganetsa
ganetsanya
gangwe
ganne
ganong
gantsi
ganyesa
gaofi
gaolesiela
gaone
gaositwe
gaotshwane
gap
gapa
gape
gapeletsega
gapeletswa
gapile
gapiwa
gararo
garataro
gare
gareng
gary
gas
gasa
gase
gasebalwe
gaseitsiwe
gaseng
gasiwa
gatela
gatelela
gateletse
gates
gatisa
gatisitswe
gatisitsweng
gatisiwa
gatwe
gaufi
gauta
gauteng
gautshwane
gay
gays
gazette
gbe
gbv
gdp
ge
ged
gela
gemsbok
gen
gender
general
generatara
genetic
genital
geoarchaeology
geographers
geography
geomorphology
george
gerika
german
germany
germiston
get
gets
ghana
ghansi
ghanzi
gianni
gibson
gicc
gideon
giles
gilson
gippsland
giraffe
girl
girls
given
giyani
gje
gka
gladys
gland
global
glody
go
goa
goalkeeper
goba
gobabis
gobala
gobapa
gobojango
gobonyeone
god
godile
godileng
godimo
godimodimo
godisa
godisang
godisitsweng
godisiwa
goga
gogang
gogelang
gogelwa
goitsemang
gokela
gokelela
gokelwa
gola
golagangwa
golaganya
golaganye
golang
gold
golden
gole
golela
golelang
goletse
goletseng
golo
golola
gololesegile
gololwa
golomente
golwane
gomagomediwa
gomolemo
gompieno
gompienong
gona
gondwe
gone
goneng
gongwe
gonna
gonne
gontse
gontsi
goo
good
goodwill
google
gope
gopiwa
gopiwe
gor
gordhan
gordon
gore
gorewang
goroga
gorogelang
gorogile
goromente
goshwe
gospel
gotlhe
gotlhegotlhe
gotlhelele
gotlhola
gotsa
gotswa
gotsweng
gotwe
gouta
gov
government
governments
governor
governors
goya
gqabi
gr
graaff
grade
graduate
grahamstown
grammar
grand
grant
gravity
gray
great
greater
greece
green
greens
greenwood
grey
groenwald
grounds
group
groups
guardian
gudigwa
guide
guinea
guma
gumare
gunners
guttery
guy
gw
gwa
gweba
gwekachumo
gweta
gwetlha
gwetlhile
gynecology
h
ha
haba
habats
habeng
habib
had
hae
hafs
hafsid
hale
hall
halle
ham
hambukushu
hamburg
hamilton
hammanskraal
hampers
hanahai
hand
handbook
hangata
hannibal
hanover
haphegileng
happened
har
harare
harding
harriet
harrison
harry
hartebeesfontein
harvard
has
hatching
have
hayes
hcards
he
head
health
healthy
heard
heidelberg
heidi
hela
helgren
help
hema
hemis
hemiwang
heng
henry
her
herang
hercules
here
herero
heritage
hermans
hermione
herschel
hfpa
hi
hibidu
high
higher
highway
hilal
hill
hills
hilton
hindu
hira
hirikgong
hirisa
his
hisitori
hisitoring
histori
historian
historical
history
hiv
hl
hlahile
hlahileng
hlahisa
hlakubele
ho
hodges
hoedspruit
hogan
hoi
holdings
hollywood
home
homepage
homophobia
homosexuality
hon
honneur
hono
honor
honorary
honoris
honors
honour
honours
hope
hopes
hopkins
hore
hosana
hospital
hospitality
host
hosting
hotel
hotele
house
housing
how
however
hqrs
htm
html
http
https
hub
hube
huduga
hudugela
hudusetswa
hudusiwa
hugh
hukuntsi
hula
hulsmans
human
humanegileng
humanitarian
humileng
hungary
hunhukwe
hunter
huru
husband
hwa
hydrobiologia
hydrogen
i
iaaf
ian
ibn
ibrahim
icc
icing
ict
id
identity
ies
if
ifa
ifp
ii
iii
ikaegile
ikaegileng
ikaelela
ikaelelang
ikaeletse
ikaeletseng
ikaeletswe
ikaga
ikagela
ikagile
ikalanga
ikanisiwa
ikantse
ikanyega
ikanyegang
ikanyege
ikaya
ikemela
ikemelo
ikemetse
ikemetseng
ikemiseditse
iketla
iketlang
iketlileng
ikgapela
ikgaphe
ikgatlha
ikgogela
ikgogetse
ikgolagantse
ikgolaganya
ikgonang
ikgopoleng
ikitsha
ikopanya
ikopanye
ikopela
ikopelo
ikuela
ikuelo
ikuetse
ikutlwa
ikwadisa
ikwadiseditseng
ikwadisetsa
ikwadiso
ila
ile
ileng
illegal
image
imile
impact
impala
impalila
imperial
implementation
implications
impression
imwaru
in
inaakantse
inaakanya
inaakanye
inalegolo
inc
incentives
incidents
including
independence
independent
index
india
indian
indiana
indians
indigenous
individual
individuals
indonesia
indoor
industrial
industry
ineela
infantino
info
informant
information
inn
inner
innocent
instithushene
institushene
institute
institutes
institution
institutional
institutions
insurance
int
integrated
intelligence
international
internet
intersex
interview
inthanete
into
intsha
investigation
investment
involving
iol
ipaakanyetsa
ipaakanyetse
ipapatso
ipatlela
ipaya
ipeela
ipela
ipelafatsa
ipelegeng
ipelela
ipelelo
ipelelwa
iphemela
iphetotseng
iphitlhela
iphotlhere
ipitsa
ipitsang
ipolaya
ipolela
ipone
ipopa
ipotsa
ipulela
ipusa
ipusang
iran
ireland
irene
irileng
irin
iron
is
isa
isaac
isago
isagong
isang
isbn
ise
iseng
isiwa
islam
island
iso
isong
ispaad
israel
issn
issue
issues
it
italy
italye
itebagantse
itebagantseng
itebaganya
iteisana
itekanela
itekanetse
itekanetseng
itemid
itemogela
itemogetse
ithaopa
ithaya
ithola
ithulaganya
ithuta
ithutang
ithute
ithutela
ithutelo
ithutetse
ithuthuntsho
ithutileng
ithutuntsha
itibaganya
itirela
itiretsweng
itlama
itlamile
itlhaganelela
itlhagisa
itlhamela
itlhokomolosa
itlhophela
itlosa
itloso
its
itsa
itsagaleng
itsane
itse
itseelwa
itsega
itsegala
itsege
itsegeng
itself
itseng
itsese
itsewe
itseweng
itshetlegile
itshetsa
itshetso
itshidila
itshireletsa
itshireletso
itsholela
itsholelo
itsholelong
itshunya
itshupa
itshupe
itshupeleng
itshupile
itshwara
itshwarelela
itsise
itsisiwe
itsiwe
itsiweng
itumedisa
itumedisang
itumediseng
itumedisiwa
itumedisiwe
itumela
itumele
itumelela
itumeletse
iucn
iv
ivf
iwa
j
ja
jaaka
jaalo
jaan
jaana
jaang
jaanong
jack
jacob
jacobs
jacobus
jaka
jake
jalo
james
jamestown
jan
jane
janeiro
janet
jang
january
jao
japan
japane
japanese
jay
jazz
jazziq
jbaugh
je
jean
jeff
jehofa
jela
jele
jennifer
jeremane
jesa
jesang
jese
jesiwa
jeso
jet
jewa
jewang
jewe
jhwa
jj
jo
joalo
job
jobetina
joe
johane
johannes
johannesburg
john
johns
johnson
jona
jonathan
jone
jones
joni
joo
jordan
jorowe
joseph
jotlhe
journal
journals
journey
joy
joyce
jpg
jr
jstor
judge
july
june
jungle
junior
juries
jury
justice
justin
justinian
jwa
jwalo
jwaneng
k
ka
kabakangwe
kabakanya
kabakanyo
kabelano
kabelanong
kabelo
kabinete
kably
kabo
kaboditsha
kabompo
kabza
kadimo
kae
kaelo
kaelwa
kafa
kaga
kagiso
kago
kagong
kai
kaile
kairouan
kais
kaiwa
kaiwang
kajeno
kakana
kakanyetso
kakanyo
kakaretso
kake
kakeng
kala
kalafi
kalahari
kalamare
kalanga
kalo
kalokalo
kaloso
kamano
kamogelo
kamora
kamore
kamoso
kampa
kampo
kana
kanakana
kanamiso
kanamo
kanang
kandalangoti
kanelwa
kang
kankere
kanna
kanoko
kansele
kanye
kapa
kapari
kapoko
kapotene
kapudan
karabo
karata
kare
karo
karolo
karolong
karolwana
karoo
kasane
kasenzangakhona
kat
katara
kate
katisa
katisitsweng
katiso
katlego
katlehong
katlholo
katoloso
kaunda
kaya
kayang
kazungula
ke
kea
kedikilwe
kehitile
kei
keitseng
keletso
kelle
kelly
kelo
kelotlhoko
kemedi
kemmy
kemo
kemonokeng
kempton
kenewendo
kenneth
kenya
kerebotswe
kereke
kerekeng
kerese
keresemose
keresete
kes
kesenkile
kesupile
kete
keteka
ketekwa
ketumile
kg
kgabaganya
kgabaganyang
kgabaganyetsang
kgabaganyo
kgabagare
kgabisa
kgabisiwe
kgabo
kgafela
kgafetsa
kgaisano
kgaisanong
kgaisanyo
kgaisanyong
kgaitsadie
kgakala
kgakololo
kgala
kgalagadi
kgale
kgalwa
kgama
kgamane
kgamelo
kganela
kganelwa
kganetsano
kganetse
kganetso
kgang
kgangkgolo
kgannyeng
kgaoga
kgaogana
kgaogane
kgaoganeng
kgaogangwa
kgaogangwe
kgaoganngwa
kgaoganngwe
kgaogano
kgaogantswe
kgaoganya
kgaoganyang
kgaogo
kgaola
kgaolang
kgaolo
kgaolong
kgaolwana
kgaolwaneng
kgapa
kgapeletso
kgapetsa
kgapetsakgapetsa
kgaphetsweng
kgarejwana
kgari
kgaruru
kgaso
kgatelelo
kgatelelong
kgathalesege
kgathanong
kgathi
kgatisetso
kgatiso
kgatleng
kgatlha
kgatlhang
kgatlhanong
kgatlhegela
kgatlhegele
kgatlhego
kgatlhegong
kgatlhile
kgatlhisa
kgatlhisang
kgatlhwa
kgatlo
kgato
kgaufi
kgele
kgetha
kgethegileng
kgethile
kgetho
kgethololo
kgetla
kgetlhegileng
kgetsi
kgobiwa
kgobokanya
kgobokanyo
kgobotlo
kgodiso
kgogakgogano
kgogo
kgogomelo
kgokelo
kgokgontsho
kgolagano
kgolaganyo
kgolegelo
kgolegelong
kgolo
kgologolo
kgoloko
kgolokwe
kgololesego
kgolong
kgolwane
kgomo
kgomong
kgona
kgonagala
kgonagalang
kgonagale
kgonagalo
kgonagetse
kgonang
kgone
kgonega
kgonegang
kgonege
kgonego
kgoneng
kgonne
kgonneng
kgonwa
kgoparara
kgorelediwa
kgoreletsa
kgoro
kgosana
kgosi
kgosigadi
kgosikgolo
kgosing
kgositau
kgotetso
kgothaditse
kgothaditswe
kgothatsa
kgothetso
kgothing
kgotla
kgotlakgolo
kgotlana
kgotlatshekelo
kgotlatshekelong
kgotleng
kgotlhang
kgotlho
kgots
kgotsa
kgotso
kgotsofatsa
kgwa
kgwe
kgwebo
kgwebong
kgwedi
kgweding
kgweetsa
kgwela
kgwele
kgweleng
kgwetlho
khadi
khama
khamphase
khansele
khanseleng
kharikhulamo
khayamnandi
khethoa
khiro
khisa
khoi
khoisan
kholetshe
kholoni
kholoning
khomputara
khorona
khudu
khudugo
khudumelapye
khuduthamaga
khuduthamageng
khudutlhamaga
khudutlhamageng
khuetso
khuis
khumanego
khumo
khutliso
khutlola
khutsafalo
khutse
khutshwane
khutswafatso
khutswe
khwae
khwaere
khwalifayang
kiddle
kile
kileng
killings
kilometres
kimberley
kimberlite
king
kingdom
kings
kitla
kitlaaneng
kitlaneng
kitsiso
kitso
kjetil
klaas
klasiki
klerk
klerkdrop
klerksdorp
kloof
km
knife
know
knowbotswana
knowledge
ko
koafatsa
koba
kobamelo
kobiwa
kobo
kokelo
kokelong
kokelwana
kokelwaneng
koketsego
koketso
koko
kokoana
kokoano
kokoanong
kokoanya
kokonela
kokonetse
kokorwe
kokotsha
kokwana
kol
kolanyane
kolobe
kolobeng
koloi
kolokotisetse
koloni
koma
kombi
komelelo
komiti
komiting
komoti
kompone
komponeng
komponi
kong
konokono
konteraka
kontinente
kontinenteng
kontle
koo
kopa
kopana
kopanang
kopane
kopanela
kopanelang
kopaneleng
kopanelo
kopaneng
kopanetse
kopanetseng
kopanetswe
kopanetsweng
kopangwa
kopanngwa
kopano
kopantswe
kopantsweng
kopanya
kopanyang
kopela
kopi
kopile
kopileng
kopilwe
kopo
koporase
koporasi
kopore
koranta
koranteng
korea
korone
koti
kotlase
kotlhao
kotoisi
kotolaname
kotsa
kotsi
kotsing
kraaifontein
kruger
krugersdorp
kua
kuane
kubela
kubu
kubung
kudu
kudumatse
kuku
kulenyane
kumakwane
kuruman
kutlobotlhoko
kutlwano
kutlwelobotlhoko
kutlwisisano
kutlwisisanyo
kuwait
kwa
kwadile
kwadileng
kwadilwe
kwadilweng
kwadisa
kwadisitswe
kwadisitsweng
kwadisiwa
kwaito
kwala
kwalela
kwalwa
kwalwe
kwantle
kwapa
kwasa
kwazulu
kwelagobe
kwelo
kwelotlase
kwelotsaseng
kwena
kweneng
kwesta
kyoto
l
la
labobedi
laboraro
laboratory
labotlhano
labour
laden
ladies
lady
ladysmith
laela
laetswe
lagos
laiwa
laka
lake
lala
lalediwa
land
language
languages
lanka
lantlha
laola
laolang
laolesega
laolesegang
laolwa
laolwang
lapeng
las
last
lat
late
latedisa
latela
latelana
latelang
latelelana
latelelwa
lateleng
latella
latelwa
later
latin
latitude
latlelang
latlha
latlhega
latlhegelwa
latlhegetswe
latlhegile
latlhela
latlhelang
latotse
launched
law
laws
lcd
lcm
le
leader
leaders
leadership
league
leano
learn
learners
learning
leaves
leba
lebagana
lebagane
lebaganeng
lebaganye
lebaka
lebakeng
lebala
lebale
lebaleng
lebaneng
lebanyeng
lebega
lebegang
lebela
lebele
lebelebele
lebelela
lebelelwa
lebeletse
lebeletswe
lebelo
lebelong
lebenkele
lebentlele
lebese
lebile
lebilwe
lebisa
lebitso
lebo
leboa
leboga
lebogang
lebogela
lebogetse
lebonaamang
lebopo
lebosega
lebowa
lecha
ledi
lee
leele
leemo
leeto
lefa
lefapha
lefapheng
lefase
lefathse
lefats
lefatse
lefatshe
lefatsheng
lefatshing
lefe
lefela
lefelo
lefelong
lefoko
lefokong
left
lefufa
legabibo
legae
legaeng
legal
legale
legano
legare
legareng
legatlong
legato
legatong
legend
legislation
lego
legodimo
legolo
legong
leha
lehalahala
lehatshe
lehelo
lehuma
lehumeng
lehututu
leila
leina
leineng
leitho
leitlho
lejweleputswa
leka
lekadiba
lekadibeng
lekala
lekalana
lekalaneng
lekalekana
lekalekanya
lekaleng
lekana
lekanang
lekane
lekaneng
lekanyeditsweng
lekanyeng
lekatane
leke
lekeishene
lekeisheneng
lekelekanngwang
lekelela
lekga
lekgamu
lekganyane
lekgarapana
lekgetho
lekgetlo
lekgolo
lekgolokgolo
lekgolong
lekgotla
lekgotlana
lekgotlatoropo
lekgotleng
lekhotla
lekhutshwane
lekile
lekilwe
lekodisa
lekodisiwa
lekoko
lekola
lekopanye
lekwalo
lela
lelapa
lelapeng
lele
lelekwa
leleme
leletsa
leloko
lelwapa
lema
lemang
leme
lemela
lemelang
lemile
lemiwa
lemiwang
lemmenyana
lemoga
lemoge
lemogile
lemogilwe
lemogiwa
lemogwa
lemorago
lemotsha
lena
lenaane
lenaaneng
lenaka
lenaneo
lenaneong
lenao
lene
leng
lengolo
lengwa
lengwang
lengwe
lengwefela
lennye
leno
lentle
lentsi
lentsoe
lentswe
lentsweletau
lenyalo
lenyalong
lenyeletse
lenyora
lenyoreng
leo
leokwane
leon
leona
leoto
lepashe
lephata
lephataa
lephateng
lephutshe
lephutshi
lepokole
lepolotiki
lerala
lerapo
lerato
leroborobo
lerotse
lerui
leruo
leruri
lesaka
lesapong
lesbians
lesea
lesedi
lesego
lesha
leshope
lesiela
lesika
lesilo
leso
lesogana
lesokwane
lesole
lesome
lesomeng
lesomo
lesotho
less
leswafatsa
leswe
let
letaba
letamo
letamong
letangwana
letela
letelela
letelelwa
letelelwe
lethakore
letheka
letile
letla
letlalo
letlang
letlapa
letle
letlelela
letleleleng
letlelelwa
letlelelwang
letlelelwe
letlelesega
letleletswe
letleletsweng
letlhafula
letlhakane
letlhakeng
letlhakoreng
letlheka
letlhogonolo
letlhoko
letlole
letlotla
letlotlo
letona
lets
letsa
letsalo
letsatsi
letsatsing
letse
letsema
letseno
letsha
letshego
letshegong
letshoba
letsholathebe
letsholo
letshololo
letsholong
letshoroma
letshwao
letsibogo
letsile
letso
letsogo
letsomane
letsomo
letsomong
letsopa
letswai
letta
letter
leuba
leungo
level
levels
lewa
lewatle
lewatleng
lewis
lexuriserv
lgbt
lgbti
li
library
libya
licensed
lichelete
lichtenburg
life
lifeline
lifelong
lifestyle
lijo
like
liking
lilemo
lime
limid
limited
limkokwing
limpopo
linaheng
linchwe
linda
line
linegrey
ling
link
links
linyati
lipuisano
lisbon
list
literacy
literature
lithara
little
litunga
live
livelihood
lives
living
livingstone
lizet
ll
lo
loago
loapi
loaping
loaro
lobaka
lobakeng
lobala
lobatse
lobby
lobelo
lobelong
lobopo
lobopong
local
localities
location
lock
lodge
lodges
loeto
log
loga
logelwa
logo
logong
logwa
lokgwabe
lokwalo
lokwalong
lolamang
loleele
loleme
lolwapa
lomagana
lomaganya
lona
londa
london
lone
lonely
long
longwa
lontone
lonyalo
loo
looks
lookwane
lopa
lopile
lopilweng
lopiwa
lopiwang
lora
lorato
lore
loren
loruo
losaka
loselo
losika
losikeng
loso
lost
lotlege
lotlhaka
lotlhe
lotlhokwa
lotshing
lotshitshi
lotshitshing
lotso
louis
love
low
lowe
lozi
lt
ltd
lu
luc
lucas
lucky
luis
luke
lula
lunga
lusaka
luxembourg
lwa
lwala
lwantsha
lwantshana
lwantshang
lwantsheng
lwapeng
lwela
lwelang
lwetse
lwetsi
lynette
lysistemon
m
ma
maaforika
maaforikanere
maaka
maano
maarabia
maashia
maatla
mabaka
mabakeng
mabala
mabalane
mabaleng
mabapi
mabedi
mabeelo
mabele
mabelo
mabelong
mabenkele
mabentlele
mabiletsa
maboane
mabogo
maboko
mabokong
mabole
mabolokelo
mabolokelong
maboni
mabopane
maburu
machaneng
macheng
machine
mackenzie
maclear
macmillian
madagascar
made
madi
madiba
madie
madikwe
madila
mading
madirelo
madirelong
madjozi
madlisa
madulo
maduo
mae
maele
maemelo
maemelong
maemo
maemomg
maemong
maeto
mafapha
mafapheng
mafaratlhatlha
mafatlha
mafatse
mafatshe
mafatshefatshe
mafatsheng
mafeking
mafelo
mafelong
mafetho
mafikeng
mafoko
mafura
magadi
magae
magaeng
magala
magaleng
magaliesberg
magaliesburg
magang
maganwa
magapu
magare
magareng
magatwe
magazine
maghreb
magic
magnificent
magodu
magogwe
magolegwa
magoletsa
magolo
magologolo
magolwane
magong
magosi
magwera
mahala
mahalapye
mahatshe
mahatshehatshe
mahelo
mahikeng
mahlentle
maikaelelo
maikarabelo
maikemisetso
maikuelo
maikutlo
maikutlong
mail
main
maina
maindia
maintia
maislam
maiteko
maitekong
maitemogelo
maitengwe
maitiso
maitisong
maitlamo
maitlhomo
maitseboeng
maitseo
maitsholo
maitshwarelo
maize
majalwa
maje
majoje
major
majwalwa
majwana
majwe
makabelo
makadiba
makala
makalamabedi
makalana
makalaneng
makapan
makapanstad
makaranelo
make
makgabisa
makgadikgadi
makgamu
makgaolakgang
makgaolakganyeng
makgarebe
makgato
makgetho
makgetlho
makgoa
makgobokgobo
makgobokgobong
makgolela
makgolo
makgolokgolo
makgotla
makgotleng
makgowa
makgwafo
makhado
makhanselara
makhutshwane
making
makoko
makopanelong
makopong
makoro
makwala
makwalo
makwati
makwinja
mala
malao
malapa
malapeng
malatsana
malatsi
malatsing
malatswai
malawi
malaysia
male
maleba
malebana
malebela
malebo
malebogo
maleele
malema
maleme
maleng
malepa
maleshe
malesu
mall
maloba
malobeng
maloko
malolwane
malome
malope
maltahohe
malwa
malwapa
malwapeng
malwelwe
malwetse
malwetsi
mamelodi
mameong
man
manaane
manaena
management
manager
managers
managing
mananeo
mananeong
mandebele
mandela
mandunyane
mane
manejara
mang
mangau
mangmang
mangope
mangwe
maniki
manja
mankgatau
manno
mannong
mannye
manobonobo
manoko
manontlhotlho
mantle
mantlo
mantlwana
mantshwabisi
mantsi
mantswe
mantsweng
many
manyalo
manyana
manyau
manzini
maoto
maotwana
map
mapalamente
maphata
maphateng
maphelo
maphorisa
maphothophotho
maphothophothong
mapodise
mapodisi
mapolotiki
mapping
maps
mapuche
mapungubwe
maputo
mar
maraba
marabasetata
marabastad
maracana
marakanelo
marakanelong
maralaleng
maranayane
marang
maranyane
maranyaneng
marapo
marapong
marara
mararo
marataro
marathon
march
marekisetso
marekisetsong
mareko
mareo
margaret
maria
marico
mariental
mariga
marina
marital
maritime
mark
marketing
marobela
maroko
maronthotho
marope
marriage
marshland
martin
maru
maruding
maruleng
marumo
maruping
marutwa
mary
marzouki
mas
masa
masaitseweng
masaka
masalela
mascom
masea
masego
masekela
maseko
masepala
maseru
masetlela
masha
mashetla
masheto
mashi
masi
masiela
masigo
masika
masimo
masimolole
masimong
masire
masisi
maso
masole
masoleng
masome
masomemararo
massachusetts
master
masters
masunga
masupa
masupatsela
maswa
maswabi
maswe
maswereswetlhane
masweu
matabeleland
matamo
matangwana
matatiele
matebele
matekoni
mater
maternal
materspei
mathagathaga
mathano
mathata
mathateng
mathathane
mathe
matheka
mathematics
mathomo
mathosa
matimela
matla
matlakala
matlalo
matlapa
matlapana
matlapeng
matlhabaphiri
matlhagatlhaga
matlhakore
matlhakoreng
matlhaku
matlhale
matlhano
matlhare
matlhatso
matlho
matlhoa
matlhoko
matlhotlhapelo
matlo
matlole
matlong
matlotla
matlotlo
matlotse
matlung
matlwana
matona
matota
matric
matrix
matsalo
matsapa
matsatsi
matsela
matseno
matsetseleko
matsha
matshameko
matshego
matsheka
matshelo
matshelong
matshosetsi
matshwao
matshwenyego
matshwenyegong
matsi
matsieng
matsiloje
matsogo
matsopa
matswela
matswele
matswere
matter
matthew
matute
maubelo
maun
maunatlala
maungo
mauritius
mawa
mawatleng
max
maxwell
may
mayana
mayonnaise
mazile
mazimbabwe
mbeki
mbombela
mbulu
mc
mccall
mcintyre
me
meago
meamuso
meaning
measures
meat
mebala
mebaraka
mebarakeng
mebedi
mebele
mebereko
mebila
mebileng
mebuso
medi
media
medical
medicine
medie
medimo
mediro
mediterranean
medium
meepo
meepong
meester
meet
meeting
mefuta
mefutafuta
mefutla
megala
megaleng
megalithic
megokgo
megolo
megologolo
megopo
megopolo
megote
mehuta
mekga
mekgatlho
mekgatlo
mekgatsha
mekgatsheng
mekgwa
mekoro
mekwalo
mela
melaetsa
melao
melapo
melato
melawana
melbourne
melelo
melelwane
melemo
meletlo
meletlong
melissa
member
members
memorial
men
menagane
menarche
mene
mengwaga
mengwageng
mengwe
menngwe
mennweng
meno
menola
menontshane
menstruation
mentheina
mentsi
menwana
mephato
merabe
merafe
merafeng
merafhe
merafong
merahe
meraka
merakeng
meraro
merataro
merero
mererong
meretlwa
merogo
meropa
merriam
merwalela
mesasana
mesele
mesepele
mesha
mesifa
mesima
metako
metal
metale
metallurgical
metara
methale
metheo
methods
metlae
metlha
metlhaba
metlhala
metlhale
metlhano
metlheng
metlobo
metona
metres
metropolitan
metsana
metsaneng
metse
metseng
metshameko
metshamekong
metsi
metsimotlhabe
metsing
metso
metsotso
metsotswana
metswako
metswedi
metsweding
metuka
mewa
mexico
mgadla
mhama
mhameng
mhlongo
mi
michael
michaels
microgravity
mid
middelburg
middle
middlepits
midnight
miga
mike
miles
milione
military
miller
million
milnerton
min
mine
mines
minh
mining
minisetara
minister
ministers
ministries
ministry
mino
miranda
misgund
miss
mission
missionary
mithara
mitochondrial
mixed
mk
mma
mmaagwe
mmabatho
mmabontle
mmadi
mmadikola
mmadikole
mmadikolo
mmadikolong
mmadinare
mmagwe
mmakaseterata
mmala
mmalwa
mmamane
mmamarutle
mmamosadinyana
mmampodi
mmampudi
mmanaana
mmangwato
mmaphashalala
mmaraka
mmasekgoa
mmasenono
mmasepala
mmaserame
mmashoro
mmatlisisi
mmatoropo
mmatshumo
mme
mmedi
mmegi
mmele
mmeleng
mmepe
mmereki
mmereko
mmidi
mmidibidi
mmila
mmino
mminong
mmogo
mmoki
mmolelela
mmopane
mmopi
mmopo
mmotlana
mmu
mmueledi
mmueledimogolo
mmui
mmung
mmusi
mmusimogolo
mmuso
mmusomogolo
mmusomogolong
mmusong
mmutla
mmutlane
mo
moa
moabi
moagi
moago
moala
moalosi
moamerika
moamogedi
moanelwa
moaparo
moatlhodi
moatshe
mobile
mochoboroane
mochudi
model
models
modern
modi
modietswane
modified
modikwa
modimo
modimogadi
modimolle
modimong
modipane
modiragatsi
modiredi
modiri
modiro
modisa
modisapodi
modise
modjadjiskloof
modula
modulasetilo
modumo
moemedi
moench
moeng
moepo
moepong
moesi
moetapele
moeteledi
moeteledipele
moeti
mofenyi
mofuta
mogae
mogaka
mogakolodi
mogala
moganetsi
mogapi
mogare
mogatla
mogerika
mogo
mogodi
mogoditshane
mogogi
mogojwa
mogokgo
mogolo
mogologolo
mogolowe
mogolwane
mogome
mogonono
mogonye
mogopa
mogopo
mogopolo
mogorosi
mogote
mogwanto
mogwantong
mogwe
mogwebi
mohama
mohamed
mohameng
mohammed
mohumagadi
mohuta
moikopedi
moilwa
moimana
moithuti
moitoi
moitsanape
moitseanape
moitshepi
moiyabana
moja
moka
mokaedi
mokaila
mokalake
mokaleng
mokapelo
mokatisi
mokawana
mokete
mokgabo
mokgalo
mokgatho
mokgatlho
mokgatlhong
mokgatlo
mokgats
mokgatsha
mokgele
mokgenene
mokgethi
mokgoro
mokgwa
mokgware
mokgweetsi
mokhanselara
mokhatlo
moko
mokolodi
mokoro
mokoti
mokwadi
mokwaledi
mokwalo
mokwalonyana
mokwatla
mokwena
mola
molaetsa
molalatau
molao
molaodi
molaola
molaomotheo
molaong
molaotheo
molapo
molapong
molapowabojang
molato
molawana
mole
molebatsi
moleele
molefe
molefhe
molefi
molekane
molelekwa
molelo
molelong
molelwane
molelwaneng
molema
molemane
molemi
molemisi
molemo
moleng
molepolole
moleta
moletlo
moletlong
molodi
moloi
molokomme
mololwane
mololwaneng
molomo
molonda
molopo
molora
molwela
molwetse
molwetsi
molyneux
momone
mompati
monaco
monageng
monamagadi
monana
monarch
monate
moncef
mondial
monetary
mong
mongwato
mongwe
mongwefela
monica
monitor
monkeypox
monna
monnamogolo
monnawe
monni
monnye
mono
monong
monongwaga
monster
monte
montevideo
montle
montreal
montshiwa
montsho
montsi
monument
monuments
monwana
monyo
moo
mookamedi
mookamela
mookane
mooketsi
mooki
moon
moonchild
moono
moopedi
moopelo
mopakwana
mopalamente
mopani
mophane
mophato
mophrofesara
mopipi
mopitlo
mopitlwe
mopolotiki
moporesidente
moporofita
mopotlana
mopresidente
morafe
morafeng
morafhe
morago
moragonya
moragonyana
morahe
moraka
morakeng
moralane
morama
moranang
moraro
more
moreau
moreetsi
moreki
morekisi
moremi
moremogolo
morena
moreomabele
moreri
moretele
morgan
moriri
moriti
morocco
morogo
moroka
morokotso
morong
morongwa
mororo
mortality
morton
morui
morula
morulaganyi
morule
moruo
morupi
morupule
morutabana
moruti
morutisi
morutwana
morwa
morwadia
morwadie
morwalela
morwarraagwe
mos
mosadi
mosadinyana
moscow
moseja
mosekisi
mosele
mosepedi
mosepele
mosepeleng
mosese
mosetlha
mosetsana
mosetse
mosha
moshate
moshaweng
moshoeshoe
moshupa
mosi
mosielele
mosimane
mosimanyana
mosimolodi
mosing
moso
mosokela
mosola
mosolotshane
mosong
mosothoane
mosque
most
mosu
mosupologo
moswa
moswagadi
moswang
moswete
mosweu
moswi
motabogi
motaki
motala
moteledipele
mothagane
mothale
motheo
mother
motho
mothong
mothusa
mothusi
motion
motlabogi
motlakase
motlana
motlatsa
motlatsamoporesidente
motlha
motlhaba
motlhabaneng
motlhakola
motlhakolane
motlhala
motlhale
motlhami
motlhasedi
motlhatlhami
motlhatlheledi
motlhatlhelela
motlhatlhojwa
motlheng
motlho
motlhofo
motlhokomedi
motlholagadi
motlhware
motlobo
motlogelwa
motlotlegi
motloutse
motogo
motona
motowane
mots
motsadi
motsamai
motsamaisa
motsamaisi
motsamao
motsana
motsaneng
motse
motsemogolo
motsemogolong
motsenekatse
motseng
motsepe
motsesetoropo
motsete
motsetsi
motshameka
motshamekagare
motshameki
motshameko
motshamekong
motshamiki
motsheganong
motshegare
motshegetsi
motshikenyego
motshikinyego
motshine
motshwaedi
motshwara
motshwarakgole
motshwareledi
motshwarelela
motshwari
motsing
motso
motsoko
motsomi
motsotso
motsotsong
motsumi
motswako
motswaledi
motswana
motswedi
motsweding
motto
motuka
motukeng
mount
mouth
mouwane
move
movement
mowa
mowana
moya
moyo
mozambique
mpa
mpherefere
mpho
mpolelela
mpule
mpumalanga
mpura
mr
ms
mthatha
muckleneuk
mudongo
muffin
mugabe
muhammad
multiple
mummy
municipality
muriel
murphy
museum
museums
mushrooms
music
musica
musical
muslim
must
mutilation
muzila
mw
mwamba
my
mzamomhle
mzansi
mzilikazi
n
na
naa
nae
nag
naga
nagakgolo
nageng
nairobi
najla
naka
nako
nakong
nakwana
nalane
nale
naledi
naleng
nama
namagadi
namane
name
nametsang
namibia
namibian
namile
nammic
namola
namune
nang
nankola
nao
naomi
nasa
nasha
nata
natal
natala
natale
natifisa
nation
national
nations
native
natla
natso
natural
nature
naya
nayo
ncaang
nchindo
nchu
ncver
nd
ne
need
needed
neela
neelana
neelang
neelano
neele
neelela
neelwa
neelwe
neetswe
neg
nekele
neleng
nelson
nelspruit
nelwa
neng
neo
nesa
net
netball
netefaditswe
netefadiwa
netefatsa
netefatso
netherlands
network
neutral
never
new
newa
newcastle
newport
news
next
ng
ngadile
ngaka
ngakeng
ngalo
ngami
ngamiland
ngangisano
ngarange
ngele
ngo
ngogola
ngoka
ngokang
ngoma
ngongorega
ngongoregela
ngongoregetse
ngongoregile
ngongorego
ngope
nguni
ngwaga
ngwagakgolo
ngwagamonument
ngwagaschool
ngwageng
ngwaketse
ngwana
ngwanaatsele
ngwanatsele
ngwao
ngwaong
ngwatle
ngwe
ngwefela
ngwga
nha
nhabe
nick
nickel
nico
nicolas
nid
niger
nigeria
nikele
nile
nin
nka
nkadimeng
nkala
nkange
nkgekgetho
nko
nkong
nku
nkwe
nls
nna
nnang
nne
nnele
nneng
nnete
nnetefatsa
nngwe
nnile
nnileng
nniwa
nno
nnotagi
nnyane
nnye
no
nobel
noga
noka
nokaneng
nokeng
nomoro
non
nonofileng
nonofo
nonotsha
nordic
norlin
norman
norr
north
northern
norway
norwegian
nosa
nosang
nosetsa
nosetsang
nosetso
nosi
nositse
nosiwa
nossob
not
notes
nottingham
notwane
november
nowa
nowang
nozizwe
np
nsc
nsw
nswazwi
ntata
ntate
ntateng
nte
ntebogang
nteletsa
ntesa
ntha
nthateng
nthato
ntheng
ntle
ntleng
ntlha
ntlheng
ntlhopheng
ntlo
ntlokgolo
ntlong
ntlwana
nts
ntsa
ntse
ntseng
ntsha
ntshafadiwa
ntshafatsa
ntshang
ntshe
ntshetse
ntshi
ntshitse
ntshitseng
ntshitswe
ntshitsweng
ntshiwa
ntshiwang
ntshiwe
ntsho
ntshole
ntshwa
ntsi
ntsifetse
ntswa
ntsweng
ntwa
ntweng
ntwetwe
number
numidia
nwa
nwe
nwetwe
nxai
nxamasere
nyala
nyalana
nyalang
nyalo
nyalong
nyalwa
nyalwang
nyana
nyane
nyatsana
nyelela
nyeletsa
nyeletse
nyenyane
nyetse
nyetswe
nyetsweng
nzo
o
oa
oarabile
obamela
obe
obituary
obstetrics
occupation
ocean
oceania
oclc
october
od
odi
odirile
oecd
of
ofc
ofe
office
officer
official
officialike
ofisi
ofising
ofisiri
often
oil
oka
okacom
okahandja
okamela
okametse
okametseng
okametswe
okametsweng
okavango
okay
okeditse
okeditswe
okediwa
okediwe
okeletsa
oketsa
oketsang
oketse
oketsega
oketsegile
old
ole
olebile
oli
oliver
olo
olympic
olympics
omaheke
omang
omaweneno
omelediwa
omelela
omeletse
omeletseng
omileng
omphemetse
on
ona
onalenna
one
onepage
online
only
ono
ontse
oo
oocytes
oodi
op
opa
ope
opedi
opela
open
operation
operational
operations
opinion
opportunities
option
or
orange
orapa
orchestra
order
org
organisation
organization
organizations
organized
organs
orient
orientation
original
orkney
osama
osasco
otele
other
otla
otlhe
otse
otsogile
ottawa
ottoman
our
oura
outcomes
over
oversight
oviston
owen
oxford
oxidation
oxygen
p
pa
paakanyo
pac
paco
pagama
page
pageant
pages
paintings
paje
paka
pakeng
pakistan
palama
palame
palamente
palamenteng
palapye
pale
paleche
palelwa
palesa
palm
palo
palobatho
paloboka
palogare
palogotlhe
palong
palonyana
palotlalo
pampiri
pampiring
pan
panana
pandamatenga
panel
pans
papadi
papadisanyong
papamatsa
paper
papo
papua
paraguay
parastatal
parent
paris
parish
park
parliament
parsons
part
particles
party
pasa
pasha
passenger
passengers
passport
past
patel
pateleditse
patelediwa
pateletsa
pathi
patika
patikiwa
patlisiso
patlo
patrick
patriot
patrol
pattern
paul
pauline
payroll
pdf
pe
peace
peanuts
pedi
pedro
peeletso
pega
pegang
pego
pela
pelaelo
pele
pelegi
pelego
peleng
pelepele
peleta
pelo
pelokgale
pelong
pelotelele
peneneng
pension
pentose
peo
people
per
percent
pereko
peresente
period
permanent
persente
perseverance
person
personal
perspective
peru
petelelo
peter
petlo
pew
pg
ph
phadisanya
phadisanyo
phaephe
phahameng
phaka
phakalane
phala
phalaborwa
phalane
phalapye
phalatswe
phaleche
phaletshe
phallocryptus
phandu
phane
phaphosing
pharologano
pharologanyo
phase
phases
phate
phatha
phathi
phatise
phatlakanya
phatlalatsa
phatlalatso
phatlha
phatlhalatsa
phatlhalatse
phatlhalatso
phato
phatsima
phatsimo
phatswe
phatwe
phefo
phefong
phela
phelefu
phelelong
pheletso
phenyo
phepa
phepafatsa
phepheng
pherekhong
phetelela
pheteletso
phetlogo
pheto
phetogo
phetolo
phetso
phetsogang
phihadu
phikwe
phil
phili
philip
phillip
philosophy
phimolo
phimolwa
phiri
phirima
phiriso
phitlhelelo
phitlho
pho
phodiso
phogwana
phoko
phokojwe
phokoletso
pholo
pholodisa
pholodiso
phologolo
phoraebete
phoraemari
phoromphotlha
phoso
photo
php
phudugo
phuduhudu
phukwi
phunyeletse
phutha
phuthadikobo
phuthego
phuthegong
phuthologo
phuthwa
phutlhego
physical
physics
piaget
piano
pietermaritzburg
pikati
pilane
pilato
pilot
pina
pineng
pioneer
pipamolomo
pirates
pitlaganeng
pitoria
pitse
pitseng
pitso
place
places
plan
planet
planetary
planning
plants
platinum
player
players
plaza
plumtree
plural
plus
png
podi
poeletso
poelo
poetry
pogiso
poifo
point
poko
poland
polandball
polao
polaseng
polelo
polelong
police
policy
political
politics
poloka
polokelo
polokwane
polotiki
polotiking
polytechnic
ponagadi
ponagalo
ponatshego
ponelopele
pontsheng
pontsho
poo
pop
popa
popego
popotla
populated
population
poraebete
poresidente
porofense
porofenseng
porofinsi
port
portal
porter
portugal
poso
post
potana
potchefstroom
potential
potlako
potlana
potso
potsolosong
potsolotsong
potter
poultry
powell
power
pp
pr
practices
pravin
pre
precious
pregnancy
premier
premiership
present
president
presidential
press
pretoria
prevention
primary
prince
princess
princeton
principal
principle
print
prison
private
privatisation
prize
proceedings
process
processes
production
prof
profense
profenseng
professional
professionalism
professor
profile
programme
project
promoting
proportions
prostitution
protea
protecting
protection
protectorate
province
psychology
pty
puberty
public
publication
published
publishers
publishing
puisano
puisanong
puiso
pula
pule
punic
puo
puong
pupils
purapura
pusetso
puso
pusong
px
pyramids
q
qaeda
qatar
qualifications
quality
quartet
queen
queensland
queer
questions
quett
quintille
r
ra
rabie
race
radiation
radio
radisele
raese
ragabane
railway
railways
railwaysafrica
rain
rakgadi
rakops
ralala
ramaphosa
ramatlabama
ramatlhabama
ramatlhakwane
rammidi
ramokgwebana
ramoroka
ramotswa
ramotswe
ramsay
ramsden
ranaka
rand
rankuwa
ranolwa
rap
rape
rapela
rapelela
raphane
rarabolola
rarabololwa
raro
rasesa
rata
ratana
ratanang
ratang
rate
rategang
rateng
ratewang
rathedi
ratiwa
ratiwang
ratsei
ray
raya
rayang
raymond
rcd
rd
re
reagan
real
rebecca
receives
reception
reclisa
record
records
red
reece
reeletswe
reeletsweng
reetsa
reference
reformed
region
regional
regions
registration
regulashene
regulatory
rehabilitation
reinet
reis
reka
rekang
rekela
rekelwa
rekisa
rekisang
rekise
rekisetsa
rekisetsang
rekisiwa
rekisiwang
rekisiwe
rekiwa
rekorto
rekoto
rekwa
related
relations
relay
release
religious
remeletse
remote
rendered
reng
rensburg
repaboliki
rephaboliki
rephoto
report
reporter
repository
representation
reproduction
reproductive
republic
required
rera
rerisa
res
research
reserve
resort
resource
resources
results
retelelwa
retrieved
reuters
rev
review
reye
rhino
rhodes
rhodesia
rialo
riana
rich
richard
richards
richmond
rick
riddoch
riebeek
right
rights
rile
rileng
rio
rise
rising
river
road
rob
roba
robabobedi
robabongwe
robala
robben
robedi
robega
robert
roberts
robertson
robetse
robobedi
robong
robongwe
robotman
rock
rocks
rogwa
roka
rola
role
rolela
roll
rollers
roma
roman
romania
romela
romelwa
rometse
romilwe
rona
ronald
rongwa
rorang
rossiter
rotlhe
rotloeditse
rotloediwa
rotloediwang
rotloetsa
rotloetsang
rotloetse
rotloetswang
roughly
roulo
routledge
roy
royal
rra
rraagwe
rragwe
rrangwane
rrasenkaka
rre
rsssf
rua
rudisha
rue
ruela
ruilwe
ruins
rulaganngwa
rulagantse
rulagantseng
rulagantswe
rulagantsweng
rulaganya
rulaganyeditswe
ruletsweng
ruling
rumble
rumsby
runya
runyang
rupa
ruri
rurifatsa
russia
russian
rustenburg
ruta
rutang
rutega
rutegileng
rutela
rutelwang
ruteng
ruth
rutile
rutiwa
rutiwe
rutuntsha
rutwa
rwala
rwalang
rwale
rwanda
rwele
rwesiwa
s
sa
sabie
sadc
safari
safety
sahara
saharan
sahistory
saied
saint
sala
salajwe
salang
sale
saleng
saleshando
saletse
salwa
samantha
same
sample
samuel
san
sand
sandy
sanelly
sanji
santiago
santos
santse
santseng
sanyane
sarkozy
sasa
sasankega
satau
satirical
saudi
savings
savuti
saw
sbl
scarecrow
schiebinger
scholarship
school
schooling
schoolplaats
schools
science
sciences
scientific
scorpion
scotland
scott
scottish
scout
scouts
se
sea
seabe
seabo
seaforikanere
seaforikantshe
sealogane
sean
seane
seaparo
searabia
search
season
seatla
seattle
sebaga
sebaka
sebakeng
sebantu
sebapali
sebastian
sebe
sebele
sebelisa
sebete
sebetsa
sebini
sebirwa
sebogodi
seboko
seboni
sebopego
sebotlana
sebui
seburu
secao
sechaba
sechabeng
sechele
second
secondary
seconds
secretary
sectionnews
sector
security
sediba
sedibeng
sediegeng
sedika
sedikadike
sedikeng
sediko
sedikong
sedimonthole
sedirisiwa
sediriswa
sedumedi
see
seegelwa
seele
seelo
seema
seemo
seemong
seen
seeng
seepapitso
seetebosigo
seetsele
sefaapano
sefane
sefapano
sefatlhego
sefhare
sefikantswe
sefofane
sefora
segaba
segabona
segajaja
segokgo
segole
segolo
segolobogolo
segologolo
segolothata
segolwane
segomotsi
segompieno
segongwana
segopotso
segosi
segotsi
segwapa
sehlopha
sehurutshe
seipagare
seipato
seipone
seisemane
seisimane
sejana
sejaro
sejeremane
sejo
seka
sekae
sekai
sekaka
sekakeng
sekalaka
sekano
sekao
sekaseka
sekasekile
seke
sekela
sekeng
sekeresete
sekete
seketekete
sekgala
sekgalagadi
sekgale
sekgantshwane
sekgele
sekgeleng
sekgoa
sekgoga
sekgolo
sekgoma
sekgopi
sekgowa
sekgoweng
sekgwa
sekgweng
sekhontari
sekole
sekoleng
sekolo
sekolong
sekoloto
sekoma
sekondari
sekonotere
sekontari
sekontere
sekopelo
sekorea
sekwa
sekwakwa
sekwasekwa
selatine
selawe
sele
selebi
seleele
selefa
selefera
selegae
selekane
selekano
selekanye
selekanyo
selekanyong
selelo
selemo
selepe
selibe
selo
selolwane
semelo
semi
seminar
semitwe
semmuso
semolale
semolao
semorafe
semowane
semoya
sena
senang
send
sene
senegal
senepe
senete
seng
sengwato
sengwe
senior
senka
senna
sennela
sennelaruri
senngwa
senno
sennye
seno
senola
senqu
sense
senthara
senthwuari
sentle
sentlentle
sentse
sentshwari
sentshwuari
sentsweng
senya
senyaka
senyang
senyega
senyegile
senyesemane
senyetsa
seo
seopedi
sepako
sepalamo
sepatela
sepateleng
sepatlela
sepe
sepedi
sephatlho
sephatlo
sephato
sephiri
sephiring
sepodise
sepodisi
sepolotiki
sepolotiking
seporo
sepotlana
sepp
september
serame
serapa
sere
seretse
series
seripagare
seriti
serobe
seromamowa
seromamoweng
serondela
seronga
seropo
serowe
seru
serule
serutwa
service
services
serwalo
serwe
ses
sesa
sesadi
sesana
sesarwa
sese
seseng
sesha
seshona
sesigo
sesinyi
sesole
sesoleng
sesotho
sesupa
sesupo
seswaa
seswati
setadiamo
setampa
setapa
setebele
setegeniki
seteishene
setho
sethopha
sethosa
sethunya
setilo
setilong
setlalekgosi
setlankana
setlha
setlhabelo
setlhaketlhake
setlhako
setlhare
setlhareng
setlheng
setlhogo
setlhopa
setlhopeng
setlhopha
setlhophana
setlhopheng
setlogolo
setlwaedi
setona
setonna
setopoti
setoropo
setoropong
sets
setse
setseng
setsha
setshaba
setshabeng
setshedi
setshidi
setshwantsho
setshwantshong
setso
setsong
setsonga
setswana
setswaneng
settler
setulo
setulong
seventh
several
sex
sexhosa
sexual
seyo
sezulu
sha
shackleton
shaka
shakawe
shakur
shanghai
shaped
sharia
shashe
shashi
shaw
she
shearwater
sheet
sheila
sheillah
shekgalagari
sheridan
shift
sho
shocking
shoes
shona
shop
shopping
shorobe
short
shoshong
showcase
showing
sia
siama
siamang
siame
siamela
siameng
siametse
siametseng
siametswe
siana
sicily
side
sidilweng
siela
siele
sign
siiwa
sika
sikana
sila
sillery
simolla
simolodisa
simolodisitswe
simolodisitsweng
simolodisiwa
simologa
simologile
simologileng
simolola
simololang
simolole
simololeng
simololwa
simolong
simolotse
simolotseng
simolotswe
simolotsweng
simon
since
sinenjongo
singapore
single
sione
sir
sireleditse
sireleditseng
sireleditsweng
sirelediwa
sireletsa
sireletsang
sireletsege
sireletsegile
siska
sisulu
site
sites
sizwe
skelemani
skills
skillstech
skm
skukuza
sky
slip
slovo
small
smith
smuts
soccer
soccerway
social
socialist
society
sociologist
sodium
sofie
software
sojwe
sokola
sole
solegela
solegelang
solofeditse
solofela
solofelwa
solofetsa
solofetse
solofetswe
solutions
somalia
somarela
somarelang
somarelwa
some
sona
sone
song
sontonga
soot
sorcery
sorghum
soria
soshanguve
sotho
soul
source
south
southafrica
southern
southwestern
soviet
sowa
sowetan
soweto
space
spain
spar
speaker
speaking
speaks
spears
special
specialist
specific
speech
spei
spinosa
sport
sports
spring
springer
square
sri
st
stadium
stadt
staff
stage
stanbic
standard
stanford
stanley
star
starring
stars
start
state
statement
statements
states
station
statistical
statistics
status
steam
steel
stephen
steppe
sterilization
sterkspruit
steve
steven
stevenson
steynsburg
stilfontein
still
stirling
stockholm
stone
stoning
stop
stores
stories
story
strategy
street
structures
struizendam
student
students
studies
studio
study
style
sua
sub
successful
such
sudan
suffrage
suga
sugwa
suicide
sukiri
sule
suleng
summer
sun
sunday
sundowns
supa
supagala
supang
supe
supega
supegang
supegetsa
superintendent
supile
supileng
supilwe
supilweng
suping
supiwa
supo
supply
support
sure
survey
survival
survivalinternational
susanne
sustainable
sutlisiwa
svg
swa
swabisa
swaneng
swaziland
sweden
sweep
swela
swinburne
switzerland
switzerlande
sydney
sylvia
symbol
syndrome
system
systems
t
tabengwa
tabitha
table
tablesb
taboga
tabogileng
taelo
tafe
tafes
tafic
takiwa
tala
talent
tamati
tamo
tang
tanit
tanka
tanzania
taolo
taolong
tase
task
tasmania
tatediso
tatelano
tati
tatlhegelo
tatso
tau
taung
tautona
tawana
taylor
te
teacher
teachers
teaching
team
teams
tebang
tebego
tebelelo
tebelopele
tebogo
technical
technician
technology
tee
teemane
tekano
tekanyetso
tekanyo
tekatekano
tekeletso
teko
telecommunications
telegraph
telele
tell
tema
temana
teme
temo
temong
temothuo
temothuong
tempele
temple
ten
teng
tengnyana
tenure
tenured
tepo
terata
terekere
terena
term
termination
teropo
territory
tertiary
teseletso
test
teta
tetla
tetseng
tewa
texas
text
texts
tfr
th
tha
thaba
thabana
thabeng
thabo
thabologileng
thabololo
thadiso
thaga
thailand
thailwe
thaiwa
thaka
thakadu
thakanyo
thakathakane
thakathakanyo
thakole
thalo
thaloso
thamaga
thamalakane
thamilwe
than
thandiswa
thanolo
thapa
thapelo
thapi
thapilwe
thapilweng
thapiwa
tharabololo
thari
tharo
that
thata
thatafatsa
thataro
thatathata
thato
thaya
the
theatre
thebe
theilwe
their
theishari
thekisetso
thekiso
theko
thelebishene
thelelo
themba
then
thendara
theo
theories
theory
there
these
thevoicebw
thiba
thibela
thibelang
thibelela
thibeletse
thibeletseng
thibelo
thibelwa
thibetsweng
things
thipa
third
this
thobalano
thobega
thobo
thogo
thohoyandou
thoka
thokafala
thokafetse
thokegang
thokgamo
thoko
thokomelo
thokwane
thola
thole
tholegang
tholego
tholo
thomas
thomo
thopilweng
thornhill
thoromo
thothetsang
thotloetso
thotoetso
three
through
thrown
thuba
thubega
thugiwa
thula
thulaganyo
thulaganyong
thulana
thuli
thumb
thumbnail
thuo
thuong
thupana
thupiso
thusa
thusana
thusang
thuse
thusega
thusitse
thusiwa
thusiwang
thusiwe
thuso
thuswa
thutamatlhale
thutego
thutelo
thuthafatsa
thutlwa
thuto
thutoetsile
thutokgolo
thutong
thutuntsho
thwathwa
thwi
tibone
tidima
tiego
ties
tiger
tiileng
tiisa
tiisiwa
tikologo
tikologon
tikologong
tila
till
tima
timang
time
timela
timeline
times
timeslive
timetseng
timiwa
ting
tipi
tipo
tiragalo
tiragalong
tiragatso
tirelo
tirelong
tirisano
tirisanommogo
tirisanyo
tiriso
tirisong
tiro
tirong
tisa
titanic
tla
tlaa
tlaabo
tlaboga
tlabogile
tlabong
tladi
tladistad
tladitse
tlakilweng
tlala
tlalang
tlalatlala
tlaleletsa
tlama
tlamela
tlamelo
tlamileng
tlang
tlase
tlasenyana
tlasetlase
tlatlana
tlatsa
tlatso
tle
tlelaemete
tlelwa
tletse
tletseng
tlhaba
tlhabela
tlhabilwe
tlhabisa
tlhabolo
tlhabologa
tlhabologang
tlhabologe
tlhabologileng
tlhabologo
tlhabolola
tlhabolole
tlhabololeng
tlhabololo
tlhabololwa
tlhabololwang
tlhabolotsweng
tlhaela
tlhaelang
tlhaelelwa
tlhaeletsana
tlhaeletsanyo
tlhaelo
tlhaga
tlhagelela
tlhagelelang
tlhageletse
tlhagisa
tlhagisitse
tlhagisitsweng
tlhagiso
tlhago
tlhagoga
tlhagola
tlhahiso
tlhajwa
tlhakana
tlhakane
tlhakanela
tlhakanelo
tlhakanya
tlhakatlhakano
tlhakatlhakanyo
tlhako
tlhakole
tlhaloganngwa
tlhaloganya
tlhaloganye
tlhaloganyo
tlhalosa
tlhalosang
tlhaloseditse
tlhalosetsa
tlhalositse
tlhalositseng
tlhalosiwa
tlhaloso
tlhaloswa
tlhama
tlhamalalelang
tlhamalalo
tlhamaletseng
tlhamilwe
tlhamilweng
tlhamiwa
tlhangwa
tlhankane
tlhano
tlhaolele
tlhapa
tlhapadima
tlhapang
tlhapi
tlhapile
tlhapilweng
tlhapiwa
tlharo
tlhasela
tlhaselo
tlhaselwa
tlhasetse
tlhatlhama
tlhatlhamiwa
tlhatlhelela
tlhatlhobiwa
tlhatlhoga
tlhatlhogile
tlhatloga
tlhatlosiwa
tlhatloso
tlhatswa
tlhatswiwang
tlhe
tlho
tlhoafalela
tlhoafalo
tlhoala
tlhodileng
tlhoga
tlhogang
tlhogo
tlhogong
tlhoka
tlhokafala
tlhokafalang
tlhokafale
tlhokafaleng
tlhokafetse
tlhokagala
tlhokagale
tlhokana
tlhokanang
tlhokang
tlhoke
tlhokega
tlhokegang
tlhokege
tlhokego
tlhokgamo
tlhokile
tlhokileng
tlhoko
tlhokomela
tlhokomelang
tlhokomele
tlhokomeleng
tlhokomelo
tlhokomelong
tlhokomelwang
tlhokometse
tlhokometseng
tlhokwa
tlhokwang
tlhola
tlholang
tlhole
tlholega
tlholegang
tlholegile
tlholegileng
tlholego
tlholeng
tlholo
tlholositswe
tlholwa
tlhoma
tlhomaganeng
tlhomameng
tlhomamisa
tlhomamisitswe
tlhomamisitsweng
tlhomamisiwa
tlhomamo
tlhome
tlhomela
tlhomile
tlhomilwe
tlhomilweng
tlhomiwa
tlhomo
tlhompha
tlhongwa
tlhopa
tlhopha
tlhophang
tlhophe
tlhopheng
tlhophile
tlhophilwe
tlhophilweng
tlhophiwa
tlhophiwe
tlhopho
tlhophollo
tlhopiwa
tlhotlheleditse
tlhotlhelediwa
tlhotlheletsa
tlhotlheletso
tlhotlholetswa
tlhotlhomisa
tlhotse
tlhotswe
tlhpho
tlhwaafalo
tlhwaafetseng
tlhware
tlhwatlhwa
tlile
tlileng
tlisa
tlisang
tlise
tlisetsa
tlisitse
tlisitseng
tlisiwa
tlo
tloga
tlogela
tlogelang
tlogele
tlogeletse
tlogelwa
tlogelwe
tlogetse
tlogetseng
tloha
tlokafatsa
tlokweng
tlola
tlolela
tlosa
tlosolosiwa
tloswa
tlotla
tlotlegang
tlotlegileng
tlotliwa
tlotlo
tlotlomadiwa
tlou
tlung
tlwaelang
tlwaelegile
tlwaelegileng
tlwaelesega
tlwaelesegang
tlwaelesegile
tlwaelesegileng
tlwaelo
tlwelesegileng
tn
to
tobane
togamaano
togo
toit
tokafadiwa
tokafala
tokafatsa
tokafatso
tokelo
tokologo
tokyo
tolamo
tom
tomokoraga
tona
tonakgolo
tonanyana
tongue
tonna
tonota
too
took
top
topisi
tora
toreng
toromoja
toronkong
toronto
toropo
toropokgolo
toropong
tota
total
totatota
toteng
toto
totobatsa
tourism
tournament
towards
town
towns
township
toyota
tpc
trabelsi
track
trade
traditional
trafficking
training
trang
trans
transefala
transfermarkt
transfrontier
transgender
transkei
translations
transport
transvaal
travel
treatment
treaty
tree
tresor
trevor
trials
tribal
tripoli
tripolitania
trondheim
true
trust
ts
tsa
tsaa
tsabong
tsaga
tsala
tsalanang
tsalo
tsalwa
tsamae
tsamaela
tsamaelana
tsamaelanang
tsamaelang
tsamai
tsamaile
tsamaisa
tsamaisana
tsamaisane
tsamaisang
tsamaisiwa
tsamaiso
tsamaisong
tsamao
tsamaya
tsamayang
tsamaye
tsamma
tsao
tsaone
tsapa
tsatlholego
tsatsi
tsau
tsaya
tsayang
tse
tsea
tsebe
tsebeng
tsebo
tsedi
tsee
tseela
tseelwa
tsela
tsele
tseleng
tsena
tsenang
tsene
tsenela
tsenelela
tsenelele
tseneletse
tseneletseng
tsengwa
tsenngwa
tsenngwang
tsenngwe
tseno
tsentse
tsentswe
tsentsweng
tsenwa
tsenwe
tsenya
tsenyang
tsenye
tsenyeng
tsenyo
tseo
tsepameng
tsere
tsereng
tserwe
tserweng
tsetse
tsetsebjwe
tsetswe
tsewa
tsewang
tsewe
tseyang
tseye
tseyeng
tshaba
tshabelelwa
tshabisa
tshabong
tshameka
tshamekang
tshamekela
tshamekelang
tshamekelwang
tshameketse
tshamekile
tshamekiwa
tshamekiwang
tshamikiwa
tshane
tshedimosetso
tshegang
tshegeditse
tshegeditseng
tshegetsa
tshegetsang
tshegetso
tshekatsheko
tshekedi
tshekelo
tshekelong
tshekiso
tsheko
tshekong
tshela
tshelang
tshelegela
tshelela
tshelwa
tshelwang
tshenyegelo
tshenyego
tshenyetso
tshenyo
tshepho
tshepo
tshetswe
tshiamelo
tshiamo
tshidisano
tshilo
tshilwana
tshimo
tshimolodiso
tshimolodisong
tshimologo
tshimologong
tshimololo
tshimololong
tshimong
tshingwana
tshipe
tshipi
tshireletsego
tshireletso
tshobokano
tshoboko
tshoetso
tshoganetso
tshoganyetso
tshokologong
tshola
tsholelwa
tsholetsa
tsholetsega
tsholetswe
tsholetsweng
tsholo
tsholofelo
tshologela
tsholola
tshololo
tsholwa
tsholwang
tshomarelo
tshono
tshosa
tshosediwa
tshosetsa
tshosologo
tshosolosa
tshotse
tshotswe
tshotsweng
tshuba
tshubilweng
tshubiwa
tshubuilweng
tshukudu
tshupa
tshupanako
tshupo
tshwaeditsweng
tshwaetsegileng
tshwaetso
tshwaetswa
tshwaiso
tshwaiwa
tshwana
tshwanang
tshwane
tshwanela
tshwanelo
tshwanelwa
tshwaneng
tshwanetse
tshwanetseng
tshwanetswe
tshwanetsweng
tshwantsha
tshwantshangwa
tshwantshanngwa
tshwantshanya
tshwantshitswe
tshwantshiwa
tshwantshiwing
tshwara
tshwaragane
tshwaraganela
tshwaraganelwa
tshwaraganeng
tshwaraganetse
tshwaraganngwa
tshwaragano
tshwaraganyang
tshwaraganyo
tshwarang
tshware
tshwarelela
tshwareletse
tshwarelwa
tshwaretswe
tshwarwa
tshwarwang
tshwarwe
tshwarwelwa
tshwenngwa
tshwentswe
tshwenya
tshwenyang
tshwenyega
tshwenyegile
tshwenyo
tshwere
tshwereng
tshwerwe
tshwetso
tsia
tsiboga
tsibogela
tsibosa
tsiboso
tsididi
tsie
tsietso
tsile
tsileng
tsisa
tsise
tsisitse
tsoang
tsodilo
tsoga
tsogang
tsoge
tsokatshaa
tsolamosese
tsoma
tsona
tsone
tsoo
tsoopedi
tsosa
tsosolosa
tsotlhe
tsumkwe
tsutsube
tswa
tswala
tswalela
tswalelwa
tswalwa
tswana
tswanetse
tswang
tswapong
tswara
tswe
tswela
tswelang
tswele
tsweledisa
tswelela
tswelelang
tswelele
tswelelela
tswelelo
tswelelopele
tsweletsa
tsweletse
tsweletseng
tsweletso
tswelopele
tsweng
tswetse
tswetso
tswetsopele
tswetswe
tswewa
tswii
tu
tubu
tuelelo
tuelo
tuesday
tuka
tukang
tuli
tulo
tuma
tumalano
tumedi
tumelano
tumelelano
tumelo
tumelong
tumile
tumileng
tunis
tunisia
tupac
ture
turkey
tutume
tv
tvtc
twaelesegileng
twantsho
twe
tweng
twitter
two
tygerburger
type
tzaneen
u
ub
udc
uefa
uganda
ugie
uk
ukraine
ukwi
umaka
umbrella
umgungundlovu
umkhonto
un
unabridged
under
unesco
uniao
unibesithi
unibesithing
unibesiting
unicef
union
unions
unisa
unit
united
units
unity
universe
universities
university
unleashing
unreviewed
unsourced
up
updated
upright
uprising
uqba
ur
uranium
urban
uri
uruguay
us
usa
use
used
using
utilities
utlwa
utlwala
utlwalang
utlwana
utlwane
utlwe
utlwisa
utlwisiwa
utm
utswa
utswiwa
uzbekistan
v
vaal
vagina
valley
value
van
vdc
vee
vegas
vegetable
vegetables
venda
venezuela
vengeance
venson
venterstad
venus
vereeniging
veronica
vet
vi
via
vice
vichy
vicki
victims
victor
victoria
victorian
victory
video
vietnam
view
village
villages
vin
vincent
violence
virgin
visa
vision
visit
vister
vitro
vocational
voice
vol
volume
vom
von
votes
vryburg
w
wa
wales
walk
walker
walter
walvis
want
wants
war
ward
wareus
warner
warning
wars
was
washington
water
waterberg
waterval
watson
way
wayback
we
web
websiayiti
website
websites
webster
wediwa
week
weekend
weekendpost
weeks
wela
welang
wele
well
wena
werda
west
western
westwood
wet
wetsa
wetse
wetswe
whale
what
when
which
while
whistleblower
white
who
whose
why
wi
wide
wife
wiki
wikidata
wikimedia
wikipedia
wild
wildlife
will
william
williams
windhoek
winners
wins
wisa
witch
witchcraft
with
within
without
wits
witwatersrand
wizkid
wky
wo
wodonga
woman
women
woodard
woodlands
worcester
word
wordpress
work
workers
working
works
world
worldcat
worse
would
wright
writers
writing
wt
wuc
wuhan
www
x
xade
xanagas
xau
xhosa
xhumo
xhumu
xi
xml
xuma
y
ya
yaa
yabo
yang
yare
ye
year
years
yemen
yeo
yo
yokohama
yona
yone
yoo
york
yotlhe
you
young
youngman
your
yourbotswana
youth
yugoslavia
yugoslaviae
yunibesithi
yunibesithing
yuropa
z
za
zabalaza
zambesi
zambezi
zambia
zealand
zebras
zero
zeus
zimbabwe
zimbabwego
zine
zirid
zone
zoroga
zu
zuckerman
zulu
zuma
zutswa
{
|
}
~

§
«
®
°
²
´
·
»
×
łobez
ʹ
ˈ
ː
̀
́
̂
̃
̄
̈
̊
̌
̑
̧
α
с
،
و
ٔ
‎
–
—
‘
’
“
”
†
‡
•
…
↔
↷
−
③
④
⑦
⺀
⺄
⺆
⺈
⺊
⺌
⺕
⺝
⺸
⺼
⿰
⿱
⿲
⿳
⿴
⿵
⿶
⿷
⿸
⿹
⿺
⿻
〢
コ
ユ
㇁
㇂
㇄
㇇
㇈
㇉
㇓
㐁
㐄
㐅
㐌
㐫
㐬
㐭
㐮
㐱
㑒
㒵
㒸
㒼
㓁
㓞
㔾
㕛
㕣
㖾
㘝
㚅
㚇
㚔
㚘
㝉
㝡
㝴
㝵
㞋
㞢
㞷
㠩
㠭
㠯
㡀
㡭
㡿
㢲
㢴
㣇
㣺
㥯
㪅
㫄
㫐
㫒
㫺
㬅
㬎
㬥
㬰
㲋
㳄
㷠
㸒
㸚
㸦
㼌
㼲
㽞
㿟
䀠
䂞
䍃
䏍
䒑
䖍
䖒
䖝
䖵
䙴
䚻
䜌
䝿
䡛
䧹
䪞
一
丁
丂
七
丄
丅
丆
万
丈
三
上
下
丌
不
与
丏
丐
丑
专
且
丕
世
丘
丙
业
东
丞
丢
丣
两
严
並
丨
丩
个
丫
丬
中
丮
丰
丱
串
丵
丶
丷
丸
丹
为
主
丽
丿
乀
乂
乃
久
乆
乇
么
义
之
乌
乍
乎
乏
乐
乑
乔
乖
乗
乘
乙
乚
乛
乜
九
乞
也
习
乡
乳
乾
亀
亅
了
亇
予
争
事
二
亍
于
亏
亐
云
互
亓
五
井
亘
亚
亜
亞
亟
亠
亡
亢
交
亥
亦
产
亨
亩
享
京
亭
亮
亯
亰
亲
亳
亶
亷
人
亻
亼
亾
仁
今
介
仌
从
仐
仑
仒
仓
仕
他
付
仝
代
令
以
任
企
伊
伏
伐
休
会
伯
但
位
何
佘
余
作
佥
使
來
侈
侌
侖
侯
侵
便
保
俞
信
修
倉
倍
候
倠
備
僉
僕
儿
兀
允
兂
元
兄
充
兆
兇
先
光
兊
克
兌
免
兑
兒
兓
兔
党
兜
兟
入
全
兩
兪
八
公
六
兮
兰
共
关
兵
其
具
典
兹
兼
冀
冂
冃
冄
内
冈
冉
冊
冋
册
再
冎
冏
冐
冒
冓
冖
冗
冘
军
农
冝
冡
冥
冫
冬
冷
几
凡
凢
凵
凶
凷
凸
凹
出
函
凾
刀
刁
刂
刃
刄
刅
分
切
刍
刑
刕
刖
列
刘
则
初
別
利
别
到
制
刺
則
削
剌
前
剡
剽
劉
力
功
加
劦
助
劫
劳
劵
勃
勇
勉
勒
動
務
勞
勤
勹
勺
勻
勾
勿
匀
匂
包
匆
匈
匊
匋
匍
匕
化
北
匚
匝
匡
匪
匱
匸
匹
区
医
匽
匿
區
十
卂
千
卄
卅
卆
升
午
卉
半
卌
华
卑
卒
卓
单
卖
南
卜
卝
卞
占
卡
卢
卣
卤
卦
卩
卪
卬
卯
印
危
即
却
卵
卷
卸
卻
厂
厃
厄
历
厈
厉
厌
厓
厘
厚
原
厤
厥
厨
厭
厲
厶
厷
厸
去
厼
厽
叀
参
參
叅
又
叉
及
友
双
反
叐
发
叒
叔
叕
取
受
叚
叜
叟
口
古
句
另
叩
只
召
可
台
叱
史
右
叵
号
司
叹
吂
各
吅
合
吉
吊
吋
同
名
后
吏
向
吕
君
吝
吞
否
含
启
吳
吴
吹
吾
呂
呆
呈
告
员
呙
周
命
咅
和
咎
咠
咢
咨
咸
咼
哀
品
哉
員
哥
哲
唐
商
啇
問
啚
啬
啻
善
喜
喬
單
喿
嗇
噩
嚴
囊
囗
囘
囙
囚
四
回
囟
因
囧
囬
困
囱
囷
固
国
圂
圅
國
圍
圓
土
圡
圣
圥
在
圭
地
圶
圼
坐
坒
坚
坴
垂
垔
垚
埀
埋
埶
執
基
堂
堅
堆
堇
堯
塞
墨
壘
士
壬
壯
声
壳
壴
壹
壺
壽
夂
处
夅
夆
备
夊
夋
夌
复
夏
夒
夕
外
夗
夘
多
夜
夢
大
夨
天
太
夫
夬
夭
央
失
夲
头
夷
夸
夹
夻
夾
奂
奄
奇
奈
奉
奎
奏
奐
契
奓
奔
奚
奞
奠
奢
奥
奭
女
奴
奻
好
如
妄
妙
妟
妥
妻
妾
姑
委
姜
威
娄
婁
婴
嬰
嬴
子
孑
孔
孕
孖
字
存
孚
孛
孝
孟
季
孤
学
孫
孱
學
宀
宁
宂
它
宅
宇
守
安
宋
完
宏
宓
宗
官
定
宛
宜
宝
客
宣
室
宮
宰
害
家
容
宾
宿
寄
寅
密
富
寒
察
寧
審
寫
寬
寮
寸
对
寺
寻
寽
対
寿
封
尃
射
将
將
專
尉
尊
尋
尌
對
小
少
尒
尓
尔
尖
尗
尚
尞
尢
尣
尤
尧
尨
尭
就
尸
尹
尺
尻
尼
尽
尾
尿
局
居
屈
屋
屎
屏
屑
展
屖
屚
属
屠
屡
屬
屮
屯
屰
山
屵
屾
岁
岂
岑
岡
岩
岳
岸
峯
島
崇
崑
崔
崖
崙
崩
嵬
嶲
巂
巛
川
州
巟
巠
巢
巤
工
左
巧
巨
巩
巫
差
己
已
巳
巴
巷
巸
巽
巾
巿
帀
市
布
希
帚
帛
帝
带
師
席
帶
常
干
平
年
幵
并
幷
幸
幺
幻
幼
幽
幾
广
広
庄
床
底
店
庚
府
度
庫
庭
庶
康
庸
廉
廌
廛
廣
廩
廴
延
廷
建
廾
廿
开
弁
弃
弄
弇
弋
式
弓
弔
引
弗
弘
弜
弟
弥
弦
弱
張
強
强
彊
彌
彎
彐
彑
当
彔
录
彖
彗
彡
形
彥
彦
彧
彭
彳
役
彼
往
待
律
徒
得
徙
從
復
微
徵
心
忄
必
忌
忍
志
忝
忠
忩
快
念
忽
忿
思
怠
急
怱
恆
恒
恩
恭
息
悉
患
悤
悲
悶
惠
惡
惢
愁
愈
意
愛
感
慈
慧
慮
憂
憲
應
戀
戈
戉
戊
戋
戌
戍
戎
成
我
戒
戔
或
戚
戠
戢
截
戲
戶
户
戸
戹
戼
戾
房
所
扁
扇
手
扌
才
打
托
执
承
折
拉
拜
拿
掌
推
提
摩
支
攴
攵
收
攸
改
放
政
敄
敏
敕
敖
敗
敝
敞
敢
散
敦
敫
敬
数
敷
數
斂
文
斉
斊
斗
斤
斥
斩
斬
斯
新
方
於
施
斿
旁
旋
族
无
旡
既
旣
日
旦
旧
旨
早
旬
旱
旲
时
旾
昆
昇
昌
昍
明
昏
易
昔
昗
昜
星
春
昬
是
昱
昴
昷
時
晃
晋
晏
普
景
晶
智
暑
暴
曇
曩
曰
曲
曳
更
曷
書
曹
曼
曾
替
最
朁
會
月
有
朋
服
朔
朕
朗
望
朝
木
朩
未
末
本
札
朮
术
朱
朵
朶
朿
杀
李
杏
杜
束
条
来
東
杲
杳
松
析
林
枚
果
枝
枲
枼
某
柔
查
柬
柰
柴
栗
桀
桑
桼
梁
條
梟
梨
棘
棠
棥
森
楚
業
楽
榮
樂
樊
欠
次
欣
欮
欲
欶
欽
款
歆
歇
歛
止
正
此
步
武
歨
歪
歮
歯
歰
歲
歴
歷
歸
歹
歺
死
殳
段
殷
殸
殹
殺
殻
殿
毋
毌
母
每
毒
比
毕
毚
毛
毳
氏
氐
民
气
氣
水
氵
氶
氷
永
氺
氾
求
汝
汞
江
沃
沓
沙
沝
泉
法
波
泣
泥
泰
洛
洪
活
派
流
浦
浪
浮
淡
淮
清
渚
渠
湯
滿
漸
瀬
火
灬
灭
灰
灵
灷
炅
炎
炏
炗
炙
炭
為
烈
烏
烝
焉
無
焦
焱
然
煞
熊
熏
燕
營
燮
爪
爫
爭
爯
爰
爱
爲
爵
父
爻
爽
爾
爿
片
牙
牚
牛
牜
牟
牢
牧
牪
牽
犀
犬
犭
犮
狂
狄
狊
独
狺
猋
猒
猪
献
獻
玄
率
玉
王
玟
玨
珎
班
琴
瑟
瑩
瓜
瓦
甘
甚
生
産
用
甫
甬
田
由
甲
申
电
甶
男
甸
甹
画
甾
畀
界
畏
畐
留
畜
畟
畢
畧
畨
番
畫
異
畱
當
畺
畾
疊
疋
疌
疑
疒
疾
癶
癸
癹
登
發
白
百
皀
皃
的
皆
皇
皋
皐
皕
皮
皷
皿
盃
盆
盇
盈
益
盍
盎
监
盒
盖
盛
盡
監
盤
盧
目
直
相
盾
省
眇
眉
看
眔
眞
真
眷
眼
眾
着
睘
睪
睿
瞏
瞢
瞿
矍
矛
矞
矢
矣
知
矦
短
石
破
碎
磊
磨
示
礻
礼
祟
票
祭
禀
禁
禸
禹
禺
离
禽
禾
禿
秀
秃
秉
秋
科
秝
秦
移
稟
穀
穌
穴
究
穹
空
穿
突
窄
窒
立
竒
竜
竝
竟
章
童
竹
笑
笠
筆
等
答
箕
算
箴
節
篤
篭
米
粉
粛
粟
粤
粦
粱
粲
糞
糸
糹
系
約
納
素
索
紫
累
細
絜
絫
絲
維
綿
縣
繇
纍
纟
缶
网
罒
罔
罕
罗
罙
罡
罢
罪
署
罷
羅
羊
羌
羍
美
羔
羕
羗
羞
羡
羣
群
義
羲
羸
羽
翁
翏
習
翕
翟
翠
翼
老
耂
考
者
耆
而
耎
耑
耒
耳
耴
耶
耷
聂
聊
聖
聚
聶
聿
肀
肃
肅
肉
肖
肙
肥
肩
肯
育
肴
胃
背
胡
胥
能
脊
脩
膚
臣
臤
臧
自
臬
臭
臯
臱
至
致
臺
臼
臽
臾
臿
舀
舂
舄
與
興
舉
舌
舍
舛
舜
舞
舟
般
艮
良
色
艸
艹
艾
芒
芔
芬
芮
花
芳
芺
芻
苔
苗
苟
若
苦
英
茶
茸
荅
草
荒
荣
荼
莆
莧
莫
莽
菆
菊
菐
華
萬
落
葉
著
葛
董
葵
蒙
蒦
蒼
蓋
蓬
蓺
蔑
蔡
蕉
蕭
薄
薛
薦
薰
藍
藏
藥
蘭
虍
虎
虐
虒
虔
處
虖
虗
虘
虚
虛
虜
虞
虫
虽
蚤
蚩
蜀
蜜
蟲
蠡
血
行
衍
衛
衣
衤
表
衮
衰
袁
袞
褭
褱
襄
襾
西
覀
要
覃
見
規
覓
覧
親
覽
见
角
解
言
訁
訇
計
詹
誩
諸
讠
谷
豆
豈
豊
豐
豕
豖
豙
象
豦
豩
豪
豸
貇
貝
貞
貟
負
貢
貧
貪
貫
責
貳
貴
買
費
賁
資
賈
賏
賓
賔
賛
賞
賢
賣
質
賴
贊
贝
贡
责
贯
贲
贵
赖
赞
赤
赦
走
越
足
路
蹇
身
躬
車
軍
軎
軟
輦
车
辛
辜
辟
辥
辰
辱
農
辵
辶
边
达
过
近
连
迷
追
退
送
逆
逐
通
速
造
逢
連
逮
進
遀
遂
過
道
達
遣
適
遷
遺
邊
邑
邕
那
邦
邪
郎
部
郭
都
鄉
酉
酋
配
酓
釆
采
里
重
野
量
金
釒
錢
钅
長
镸
长
門
閃
閉
開
閏
閑
閒
間
閔
閵
閻
闌
门
间
闷
阑
阜
阝
阿
降
陳
隆
隊
隋
隡
隨
隱
隶
隹
隺
隻
隼
隽
难
雀
雁
集
雈
雋
雍
雐
雔
雙
雚
雜
雝
離
難
雨
雩
雪
雲
零
雷
需
霍
霜
霝
霞
霸
靈
靑
青
非
靡
面
靣
革
韋
韦
韭
韯
韱
音
頁
頃
項
須
頗
頡
頻
顛
页
風
风
飛
飞
食
飠
養
饣
首
香
馬
馮
駦
马
骨
高
髟
鬥
鬯
鬲
鬼
魚
魯
鮮
鱼
鲁
鳥
鳳
鸟
鹵
鹿
麃
麗
麥
麦
麻
黃
黄
黍
黎
黑
黒
黨
黹
黽
黾
鼎
鼓
鼠
鼻
齊
齋
齐
齒
齿
龍
龙
龜
龟
龠
龰
龱
龴
龵
龶
龷
龸
龹
者
艹
？
￼
𠀁
𠀃
𠀆
𠀉
𠀎
𠀐
𠁁
𠁣
𠂆
𠂇
𠂈
𠂉
𠂊
𠂋
𠂎
𠂒
𠂔
𠂛
𠂡
𠂢
𠂤
𠂬
𠂭
𠂹
𠃊
𠃋
𠃌
𠃍
𠃎
𠃑
𠃓
𠃔
𠃜
𠄌
𠄎
𠄠
𠄢
𠆢
𠆥
𠇍
𠈌
𠌵
𠓜
𠔉
𠔥
𠔼
𠔽
𠔿
𠕀
𠕁
𠕋
𠘧
𠘨
𠙻
𠙼
𠚏
𠚒
𠚤
𠚪
𠣏
𠤎
𠤕
𠥓
𠦄
𠦑
𠦝
𠧒
𠧗
𠧪
𠩺
𠪚
𠫓
𠫔
𠫤
𠬛
𠬝
𠬞
𠬢
𠬤
𠬶
𠮛
𠮦
𠮷
𠯑
𠱠
𠳮
𠷎
𡈼
𡉀
𡉵
𡌥
𡍮
𡏳
𡕒
𡕩
𡕰
𡖅
𡗗
𡗜
𡘆
𡘤
𡧱
𡨄
𡩧
𡬠
𡭽
𡰣
𡰥
𡰪
𡰯
𡰱
𡷈
𡸁
𡿨
𡿩
𡿪
𡿺
𢀖
𢀛
𢀩
𢁙
𢆉
𢆰
𢆶
𢇁
𢇇
𢉖
𢌬
𢌿
𢏚
𢑑
𢑚
𢖻
𢙣
𢛳
𢦏
𢦒
𢧵
𢼄
𢾕
𣁋
𣄼
𣅀
𣅽
𣍘
𣎳
𣎵
𣏋
𣏼
𣗥
𣥂
𣥖
𣦵
𣦼
𣧄
𣪊
𣪠
𣬉
𣳾
𣶒
𤇾
𤊽
𤐫
𤓰
𤔔
𤕨
𤣩
𤰇
𤰔
𤰞
𤴓
𤴔
𤽄
𥁑
𥁕
𥃦
𥃩
𥃭
𥇡
𥑟
𥘅
𥘈
𥝢
𥫗
𥱡
𦈢
𦉪
𦉬
𦉼
𦍌
𦍒
𦎧
𦐇
𦓔
𦔮
𦘒
𦙃
𦚏
𦣝
𦣞
𦣻
𦥑
𦥔
𦥯
𦨉
𦭝
𦰩
𧆞
𧈧
𧘇
𧰨
𧴪
𧴮
𧵩
𧾷
𨸏
𨾴
𩙿
𩠐
𩫏
𩵋
𪉷
𪜀
𪟽
𪠲
𪩲
𫇦
𫔭
𫜸
𫝀
𫠣
𫠩
𫢉
𫥞
𫩏
𫩠
𫪡
𫲽
𫶧
𬀷
𬐘
𬗌
𬙙
𬛸
𬜯
𬟩
𬯁
𬴘
𬺻
𬼉
𬼖
𭀰
𭁈
𭁨
𭅰
𭑈
𭕄
𭗼
𭤨
𭥫
𭻾
𮅕
𮊿
𮍌
𮍏
𮓗
𮥼
𮧮
廾
𰀁
𰀄
𰀈
𰀉
𰀕
𰀠
𰀡
𰀢
𰀪
𰁜
𰃮
𰆊
𰆘
𰋙
𰕎
𰢴
𰧭
𰯲
00--
01--
03--
04--
08--
10--
11--
12--
13--
14--
15--
16--
17--
18--
19--
20--
21--
22--
24--
25--
29--
30--
39--
41--
46--
47--
50--
51--
53--
6--
60--
7--
73--
74--
99--
a--
ab--
abi--
ac--
acc--
acco--
ad--
adel--
adi--
af--
african--
age--
agree--
ai--
air--
aka--
akg--
akgole--
akh--
ako--
al--
ala--
alde--
ali--
am--
ama--
amo--
amogil--
amohe--
an--
ana--
anamis--
ani--
ape--
app--
appli--
ar--
arau--
argu--
aroga--
as--
ash--
at--
atam--
atla--
atlolo--
ats--
au--
aut--
av--
b--
ba--
baa--
baaka--
badi--
bae--
bago--
bak--
bakol--
bal--
bam--
ban--
bana--
bapa--
bapor--
bar--
bat--
batl--
batlha--
batt--
be--
bechu--
bee--
beg--
bel--
ber--
bes--
bete--
bi--
bib--
bid--
bile--
bo--
boa--
bobo--
boe--
boga--
boi--
boit--
boite--
boiti--
bok--
bokoni--
bolo--
bon--
bone--
boo--
bop--
boph--
bopolo--
bor--
bora--
boro--
borra--
boru--
bos--
bosi--
bot--
bots--
botshwa--
botswana--
br--
bre--
brit--
bu--
budu--
buil--
bule--
bun--
bur--
buse--
bw--
by--
c--
ca--
car--
cb--
celeb--
cha--
che--
chi--
ci--
cla--
cli--
clo--
clu--
co--
com--
comp--
con--
conc--
cond--
conf--
const--
consu--
cont--
conver--
coo--
coor--
cr--
cra--
criti--
cu--
cur--
cus--
d--
da--
dar--
de--
dec--
defe--
defi--
del--
den--
des--
di--
dibo--
did--
die--
difa--
dig--
dik--
dika--
dikg--
dikgo--
diki--
diko--
dile--
dim--
dime--
din--
dip--
dipa--
dipha--
dipo--
dir--
dis--
disi--
dist--
dit--
dite--
ditha--
ditl--
ditlha--
dito--
dits--
diuni--
do--
dr--
dri--
du--
dyna--
e--
ea--
ed--
ee--
eke--
el--
ele--
eli--
em--
eme--
emer--
emp--
en--
enc--
ent--
entre--
eo--
ep--
epi--
es--
et--
ethi--
ets--
eu--
ev--
ex--
exc--
exp--
ext--
f--
fa--
fac--
fair--
fapo--
far--
fe--
fedi--
fedis--
fen--
fet--
fete--
fetli--
fetlo--
fi--
fihl--
fitl--
fla--
flu--
fo--
foko--
folo--
for--
fr--
fra--
fried--
fru--
fu--
fudu--
furn--
g--
ga--
gadi--
gagama--
gais--
gaka--
galale--
gao--
gape--
gar--
gate--
gatis--
ge--
gen--
geo--
ger--
gi--
go--
god--
gold--
golo--
gon--
goo--
gou--
gr--
gro--
gu--
gwe--
gwetl--
h--
ha--
hafa--
halo--
ham--
han--
har--
he--
her--
hi--
hierar--
hir--
hiril--
hl--
hla--
hlo--
ho--
hol--
hope--
horiz--
horo--
horti--
hr--
hu--
hudu--
hus--
hutsafa--
i--
id--
ik--
ika--
ikan--
ikara--
ike--
ikga--
ikgaga--
ikgat--
ikgo--
iko--
il--
ile--
im--
ime--
in--
incre--
inf--
influ--
inst--
int--
inter--
inv--
ip--
ipa--
ipe--
iph--
iphitl--
ipola--
ire--
is--
ise--
it--
ita--
ite--
itemo--
ith--
ithe--
itho--
ithut--
ithuth--
iti--
itibaga--
itire--
itl--
itlha--
itlho--
ito--
its--
itsa--
itshe--
itsho--
itu--
j--
ja--
jalo--
je--
jo--
ju--
juli--
jwa--
k--
ka--
kam--
kamo--
kara--
kat--
ke--
keba--
key--
kg--
kga--
kgaba--
kgabis--
kgakg--
kgao--
kgape--
kgaph--
kgat--
kgatl--
kgatlhege--
kget--
kgo--
kgobo--
kgon--
kgop--
kgor--
kgotlha--
kgotlhad--
kh--
kha--
khak--
kham--
khanse--
khe--
kho--
khu--
ki--
kik--
kilo--
ko--
kol--
kolo--
koma--
konose--
kopa--
kor--
kra--
ku--
kwa--
kwadi--
l--
la--
lat--
late--
latlhe--
lau--
le--
lea--
lebaga--
lebis--
lec--
lefis--
lega--
legis--
lego--
lek--
leka--
lekanye--
leke--
len--
leph--
les--
lesa--
lesome--
let--
letlha--
lets--
li--
lic--
lit--
lo--
lok--
loke--
lu--
lwa--
ly--
m--
ma--
mab--
mabo--
mabu--
mac--
macro--
madi--
mafelo--
mafo--
mafu--
mag--
maga--
mago--
mahl--
mai--
mak--
maka--
makg--
makgo--
makha--
mal--
malo--
mam--
man--
mao--
map--
mapha--
mar--
mas--
mat--
matl--
matlha--
mats--
matsa--
maz--
mc--
me--
mefu--
mel--
men--
mer--
merc--
mes--
meso--
met--
meth--
metse--
mi--
mid--
mil--
mili--
mma--
mme--
mmi--
mmo--
mmu--
mo--
moc--
modi--
mof--
mofu--
mogo--
moja--
mok--
mokwala--
mola--
mole--
molo--
mon--
mor--
mora--
mori--
moro--
mos--
mosire--
motla--
mots--
motse--
mp--
mpampe--
mpe--
mphiph--
mpole--
mu--
muk--
mult--
mur--
my--
n--
na--
naga--
nako--
nate--
nc--
nco--
nd--
nde--
ne--
netefa--
news--
ng--
ngo--
ngwa--
ni--
nna--
no--
non--
nopo--
nor--
nshi--
nt--
nte--
ntlafa--
ntu--
nu--
nur--
nya--
nye--
o--
oa--
of--
omis--
on--
oo--
op--
ope--
or--
os--
ost--
otlha--
ov--
over--
oy--
p--
pa--
palo--
papa--
para--
pas--
pat--
pataga--
pe--
pelo--
pen--
per--
pet--
petr--
ph--
pha--
phara--
phat--
phe--
phed--
pho--
phu--
phuk--
phuthe--
physi--
pi--
pil--
pit--
plot--
po--
poac--
pon--
por--
poro--
pot--
pr--
pre--
pri--
pro--
pros--
provi--
pu--
q--
qu--
r--
ra--
rac--
ramo--
ran--
rat--
re--
reai--
rec--
recogn--
recru--
reed--
refe--
refu--
regu--
reke--
rekis--
rer--
ri--
rid--
rit--
riti--
ro--
rob--
rome--
rontshi--
ros--
row--
rra--
ru--
rulaganye--
rum--
rute--
rutu--
ry--
s--
sa--
san--
sar--
sc--
sche--
scho--
scient--
scr--
se--
sea--
sec--
see--
sego--
sek--
seka--
sel--
sele--
sem--
sen--
sena--
sens--
senye--
sep--
ser--
sera--
seri--
ses--
set--
sete--
setla--
sets--
sh--
sha--
shang--
she--
shi--
si--
sid--
sie--
siel--
sig--
simo--
sir--
sirele--
sis--
situ--
siya--
sk--
so--
solo--
somar--
some--
sp--
spe--
ss--
st--
ste--
stri--
strugg--
su--
suk--
sun--
sup--
super--
sur--
swe--
sy--
t--
ta--
tabo--
tabog--
tafo--
tan--
tap--
tat--
te--
techni--
tele--
tem--
ten--
tera--
th--
tha--
the--
thi--
thibe--
tho--
thop--
thu--
thub--
thun--
thut--
ti--
time--
tir--
tit--
tl--
tla--
tle--
tlha--
tlhabe--
tlhae--
tlhag--
tlhage--
tlhaka--
tlham--
tlhao--
tlhas--
tlhatl--
tlho--
tlhoafa--
tlo--
tlos--
tlwa--
to--
tom--
tr--
tra--
trans--
tre--
tri--
trin--
tro--
tropi--
ts--
tsa--
tse--
tsh--
tsha--
tshe--
tshep--
tsheph--
tshi--
tshik--
tsho--
tshos--
tshw--
tshwa--
tshwaed--
tsi--
tsibo--
tsiboge--
tsis--
tso--
tsoe--
tsos--
tsu--
tsw--
tswa--
tswaka--
tu--
tur--
ty--
u--
uc--
uma--
umakil--
umi--
un--
up--
uti--
utlwi--
v--
vac--
ve--
ven--
ver--
vi--
vil--
vir--
vis--
vo--
w--
wa--
wal--
wam--
we--
wel--
wes--
wi--
wil--
wit--
wo--
wol--
world--
wr--
wu--
x--
xa--
xi--
y--
ya--
ye--
yo--
yokh--
z--
ze--
zes--
zi--
--0
--1
--2
--3
--4
--5
--6
--69
--7
--71
--78
--8
--9
--a
--ad
--adi
--ae
--af
--ago
--agwe
--ah
--ai
--ak
--aka
--ako
--aks
--al
--ala
--als
--am
--amo
--an
--ana
--anape
--ane
--ang
--ans
--ant
--ants
--ap
--apa
--ar
--ara
--ary
--as
--at
--ata
--ate
--ati
--ation
--ations
--ave
--ay
--b
--ba
--bab
--bagolo
--balo
--bana
--bank
--be
--bes
--bi
--bility
--bisa
--biso
--biwe
--ble
--bo
--bu
--buo
--burg
--burgh
--by
--bye
--c
--ca
--cal
--ce
--ch
--chen
--cht
--cing
--ck
--ct
--cted
--ction
--ctions
--cts
--cy
--d
--da
--dal
--de
--dge
--di
--ding
--disa
--dise
--diso
--diswa
--ditse
--ditswe
--ditsweng
--diwa
--diwang
--diwe
--do
--ds
--du
--dy
--e
--ea
--ed
--edi
--ee
--ega
--ege
--ego
--ei
--ek
--eke
--el
--ela
--ele
--elo
--elong
--elwa
--elwe
--emiki
--en
--eng
--ent
--ente
--eo
--er
--era
--ern
--ers
--erson
--es
--esa
--esega
--esele
--est
--et
--ete
--eteke
--etsi
--etso
--etswe
--ey
--eya
--f
--fa
--fala
--falela
--fatsa
--fatsang
--fatse
--fatso
--fe
--fela
--fetse
--ff
--fi
--fontein
--fort
--fu
--g
--ga
--gadi
--gae
--gala
--gana
--ganang
--gang
--gangwa
--ganngwa
--gano
--gantse
--gantswe
--ganya
--ganye
--ganyo
--gari
--gate
--ge
--gela
--gele
--gelo
--geng
--ger
--gh
--ght
--gi
--gical
--gie
--gile
--gileng
--gilwe
--gle
--go
--gs
--gton
--gu
--gwe
--gy
--h
--ha
--hakanyo
--han
--hana
--hang
--he
--hego
--hele
--hene
--het
--hi
--hing
--hitshi
--hiwa
--ho
--hodi
--hoek
--hoko
--http
--https
--hu
--huari
--hupo
--huti
--hwanetse
--i
--ia
--ial
--ials
--iamo
--iba
--ic
--ical
--ice
--ics
--id
--ide
--ididi
--ie
--ied
--ier
--iers
--ies
--ige
--ight
--ika
--iki
--il
--ile
--ilo
--ilwe
--im
--ima
--in
--ina
--ine
--ing
--ings
--ini
--io
--ion
--ions
--ious
--ir
--irs
--is
--ised
--ish
--ishane
--ishene
--ism
--ist
--ists
--it
--ito
--ity
--ium
--ive
--ivist
--iwa
--iwe
--ization
--ized
--j
--ja
--je
--ji
--jwa
--k
--ka
--kal
--kane
--kanya
--kanyo
--kau
--ke
--kela
--keng
--kga
--kgolo
--kgong
--ki
--kilweng
--kisa
--kisi
--ko
--ks
--ku
--kwa
--kwane
--kwe
--l
--la
--lala
--lana
--lane
--lang
--lano
--latswa
--ld
--le
--lela
--lele
--lelo
--lelwa
--lelwe
--leng
--ler
--les
--lesege
--letswe
--ley
--lf
--lha
--lhe
--lho
--li
--lia
--lila
--lity
--lk
--ll
--lla
--lle
--llo
--lm
--lng
--lo
--loa
--logy
--loji
--lola
--lolo
--long
--lor
--losa
--ls
--lwa
--lwang
--lwe
--lweng
--ly
--m
--ma
--mana
--matsa
--mb
--mba
--mbi
--me
--mela
--melo
--meng
--metsa
--mi
--misa
--miso
--mmogo
--mo
--mogolo
--molola
--mon
--mp
--mpe
--mpi
--ms
--mu
--my
--n
--na
--nale
--nang
--nce
--nces
--nd
--nda
--nds
--ne
--nelo
--neng
--ner
--ness
--ney
--ng
--nga
--ngwa
--ngwe
--ni
--nia
--nic
--nie
--nikia
--nka
--nki
--nn
--nne
--nngwa
--no
--nong
--ns
--nse
--nsi
--nt
--nta
--nte
--nti
--nto
--nts
--ntsha
--ntsho
--ntswe
--nty
--nuel
--nwa
--nwe
--ny
--nya
--nyana
--nyane
--nye
--nyediwa
--nyeng
--nyetsa
--nyi
--nyo
--nyong
--o
--oa
--oba
--oc
--od
--odi
--oe
--oes
--ofa
--ofatsa
--oga
--oge
--ogo
--ogy
--oko
--ol
--ola
--oli
--ologa
--omo
--on
--one
--ong
--ons
--op
--or
--oro
--orp
--ors
--os
--osa
--osi
--ota
--ote
--othi
--oti
--otlha
--oto
--ow
--p
--pa
--pana
--pane
--pe
--pedi
--pele
--peng
--pha
--pi
--pilwe
--pisa
--po
--polis
--pong
--ps
--pu
--q
--qa
--r
--ra
--raga
--rakeng
--ral
--rale
--rd
--re
--rela
--reng
--ri
--ria
--rie
--ries
--rik
--ring
--rm
--rn
--ro
--roki
--ron
--room
--ross
--rp
--rry
--rs
--rsdal
--rset
--rt
--rth
--rton
--rty
--ru
--rville
--rwa
--ry
--s
--sa
--sana
--sane
--sanyi
--sanyo
--sc
--sdorp
--se
--sega
--sege
--segile
--sele
--sen
--seng
--sh
--shire
--si
--sia
--sine
--sing
--sion
--sions
--siti
--sitse
--sitswe
--sive
--siwa
--siwe
--so
--soa
--son
--sor
--spruit
--ss
--ssa
--st
--stad
--ster
--sti
--stown
--su
--swa
--swe
--sweng
--t
--ta
--tagi
--taki
--tara
--tata
--tch
--te
--ted
--teng
--ter
--tes
--th
--tha
--thi
--tho
--ti
--tic
--tine
--tini
--tion
--tla
--tlela
--tleng
--tlha
--tlhi
--tli
--tlo
--to
--ton
--tong
--tor
--town
--tro
--try
--ts
--tsa
--tsana
--tsang
--tse
--tsega
--tsego
--tsela
--tseng
--tsha
--tshana
--tshe
--tshi
--tsho
--tsi
--tso
--tswa
--tswe
--tsweng
--tt
--tte
--tty
--tu
--twa
--twane
--ty
--u
--ua
--ual
--uc
--ud
--ue
--ught
--uit
--uka
--ular
--ulo
--um
--umo
--ung
--uni
--unt
--unu
--ure
--ures
--us
--usi
--ust
--ut
--uta
--ux
--v
--va
--ve
--ved
--ven
--ver
--vers
--very
--vier
--ville
--vo
--w
--wa
--walo
--wana
--wane
--wang
--we
--weng
--wi
--wide
--widi
--ws
--x
--y
--ya
--yan
--yana
--yane
--ye
--yi
--ying
--yo
--ys
--yy
--z
--za
--ze
--zed
--zi
--zo
