!
"
#
##0
##1
##10
##11
##12
##13
##14
##15
##16
##17
##18
##19
##2
##20
##21
##22
##23
##24
##25
##26
##27
##28
##29
##3
##30
##31
##32
##33
##34
##35
##36
##37
##38
##39
##4
##40
##41
##42
##43
##44
##45
##46
##47
##48
##49
##5
##50
##51
##52
##53
##54
##55
##56
##57
##58
##59
##6
##60
##61
##62
##63
##64
##65
##66
##67
##68
##69
##7
##70
##71
##72
##73
##74
##75
##76
##77
##78
##79
##8
##80
##81
##82
##83
##84
##85
##86
##87
##88
##89
##9
##90
##91
##92
##93
##94
##95
##96
##97
##98
##99
$
%
&
'
(
)
*
+
,
-
.
/
0
00
000
0000000304159
0000000402720
001
002
008
01
014
02
021
028
03
033
04
042
05
051
056
06
063
066
07
076
08
083
084
09
090
091
093
1
10
100
1000
101
102
103
1039
104
105
106
107
108
1088
109
1092
11
110
1102
111
112
113
114
115
116
117
118
119
12
120
1200
1208
121
1218
122
123
124
125
126
127
128
129
13
130
1300
131
132
133
134
135
136
137
138
139
14
140
141
142
143
144
145
146
147
148
149
1492
1493
1499
15
150
1500
1504
151
1511
1513
1515
152
1526
153
154
155
1551
156
1564
1568
157
158
1580
1582
1583
1584
1585
1588
159
1590
1591
1592
1593
1594
1595
1599
16
160
1600
1601
1602
1603
1605
1606
1607
1609
161
1610
1611
1612
1614
1616
1619
162
1620
1621
1623
1624
1625
1626
1627
163
1630
1631
1633
1634
1635
1636
1637
1638
1639
164
1640
1642
1643
1645
1648
1649
165
1650
1654
166
1660
1661
1664
1665
1667
167
1670
1672
1674
1675
1676
1679
168
1680
1681
1683
169
17
170
1700
1701
1703
1707
171
1710
1719
172
1721
1723
1724
1725
1727
1728
1729
173
1730
1732
174
1740
1741
1747
1748
1749
175
1750
1753
176
1760
1761
1762
1763
1768
177
1770
1771
1772
1774
1775
1776
1777
178
1780
1781
1782
1783
1787
1788
1789
179
1790
1791
1792
1793
1794
1795
1796
1797
1798
1799
18
180
1800
1801
1802
1803
1804
1805
1806
1807
1808
1809
181
1810
1811
1812
1813
1814
1815
1816
1817
1818
1819
182
1820
1821
1822
1823
1824
1825
1826
1827
1828
1829
183
1830
1831
1833
1834
1835
1836
1837
1838
1839
184
1840
1842
1843
1844
1845
1847
1848
1849
185
1850
1852
1853
1854
1855
1856
1857
1858
1859
186
1860
1861
1862
1863
1864
1865
1866
1867
1868
1869
187
1870
1871
1872
1873
1874
1875
1876
1877
1878
1879
188
1880
1881
1882
1883
1884
1885
1886
1887
1888
1889
189
1890
1891
1892
1893
1894
1895
1896
1897
1898
1899
19
190
1900
1901
1902
1903
1904
1905
1906
1907
1908
1909
191
1910
1911
1912
1913
1914
1915
1916
1917
1918
1919
192
1920
1921
1922
1923
1924
1925
1926
1927
1928
1929
193
1930
1931
1932
1933
1934
1935
1936
1937
1938
1939
194
1940
1941
1942
1943
1944
1945
1946
1947
1948
1949
195
1950
1951
1952
1953
1954
1955
1956
1957
1958
1959
196
1960
1961
1962
1963
1964
1965
1966
1967
1968
1969
197
1970
1971
1972
1973
1974
1975
1976
1977
1978
1979
198
1980
1981
1982
1983
1984
1985
1986
1987
1988
1989
199
1990
1991
1992
1993
1994
1995
1996
1997
1998
1999
2
20
200
2000
2001
2002
2003
2004
2005
2006
2007
2008
2009
201
2010
2011
2012
2013
20130216150330
20131202222436
20131202225607
20131203054541
2014
2015
2016
20160305081218
2017
2018
2019
202
2020
2021
2022
2023
2024
2025
2026
2028
203
204
205
2050
206
207
208
209
21
210
211
212
213
214
215
216
217
218
219
22
220
221
222
223
224
225
226
227
228
229
23
230
231
232
233
234
235
236
237
238
239
24
240
241
242
243
244
245
246
247
248
249
25
250
2500
251
251220491696
252
253
254
255
256
257
258
259
26
260
261
262
263
264
265
266
266331
267
268
269
27
270
271
272
273
274
275
276
277
278
279
28
280
281
282
283
28300
284
285
286
287
288
289
29
290
291
292
293
294
295
296
297
298
299
3
30
300
3000
301
302
303
304
305
306
308
309
31
310
312
313
314
315
316
318
319
32
320
321
322
323
324
325
326
327
328
329
33
330
3300
331
332
333
334
335
336
337
338
339
34
340
341
342
343
344
345
346
347
348
349
35
350
351
352
353
354
355
356
357
35779441
358
359
36
360
361
362
363
364
365
366
367
37
370
375
38
380
381
383
384
387
388
39
390
394
395
396
4
40
400
4000
401
403
404
405
41
410
414
415
419
42
420
4217
425
426
43
430
431
432
44
440
444
446
448
45
450
451
452
453
46
461
469
47
472
474
478
48
480
484
486
487
488
489
49
5
50
500
5000
502
503
504
509
51
510
516
52
522
525
527
529
53
530
535
538
54
540
545
55
552
557
56
560
562806364
565
568
569
57
571
58
580
581
582
586
587
588
589
59
594
595
597
598
599
6
60
600
605
61
610
615
618
62
620
625
628
63
630
634
64
640
641
645
65
650
651
65900
66
660
661
664
665
67
676
68
69
690
691
7
70
700
7000
71
715
717
72
720
727
73
74
75
750
754
76
760
765
77
778
78
780
781201838
79
790
792
798
8
80
800
807
81
810
812
814
815
82
83
830
834
84
840
844
846
849
85
852
85431
855
86
8601
865
87
870
879
88
880
889
89
892
895
899
9
90
900
903
905
908
91
910
912
92
920
920888
921
925
926
93
930
935
937
94
944
95
950
953
96
961
962
965
969
97
976
978
98
981
984
99
993
998
99904
:
;
<
=
>
?
@
^
_
`
a
aa
aan
aantal
aanvaarde
aarde
aardrijkskunde
aaron
aart
ab
ababa
abandona
abao
abase
abath
abba
abbey
abc
abcs
abdel
abdica
abdikashon
abdominal
abdul
abel
abilidad
abilidat
abimelek
abismo
able
abo
abogado
aboli
abolisa
abolishon
abolition
abominashon
abordo
aboriginal
abou
about
above
abraham
abrahamiko
abram
abreu
abrevia
abreviacion
abreviashon
absensia
absoluto
absorba
abstracto
abstrakto
abu
abuela
abuelo
abuja
abunda
abundansia
abundante
abundantemente
abuso
abuzu
abvo
aca
academia
academico
academie
academy
acapulco
acaso
acceptatie
accesibel
acceso
accidente
accion
ace
aceh
acepta
aceptacio
acerca
acercamento
acomoda
acompan
acopla
acquired
acre
act
action
activa
active
actividad
actividadnan
actividat
activista
activo
actiz
acto
actonan
actor
actornan
actris
actriz
actua
actuacion
actual
actualidad
actualmente
actuamento
acudi
acuerdo
aculeata
acusa
ad
ada
adam
adapta
adaptacion
adaptashon
addis
address
ade
adecua
adekua
adelante
adelanto
adema
ademas
aden
adhetivo
adi
adiccion
adicional
adicionalmente
adikshon
adishon
adishonal
adkiri
adma
administra
administracion
administrado
administrashon
administration
administrativo
admiraal
admiti
adn
ado
adolescente
adolf
adopta
ador
adora
adorashon
adre
adressen
adriaan
adriana
adriano
adriatiko
adrienne
adsl
aduana
adulamita
adulto
adventista
adverbio
adverti
advice
advies
ae
aedes
aegypti
aere
aereo
aerial
aeroli
aerolin
aerolinea
aerolineanan
aerono
aeropuerto
aeropuertonan
af
afar
afc
afecta
afekta
afganista
afganistan
afi
afilia
afiliashon
afirma
afkondigingsblad
afl
aflikshon
afo
africa
african
africano
afrika
afrikaans
afrikano
afrikanonan
afro
afroasia
afromerikano
after
ag
again
against
agan
age
agency
agenda
agensia
agensianan
agente
agentenan
agitashon
agrada
agradabel
agrega
agregando
agregashon
agricultura
agrikultor
agrikultura
agrikultural
agrupashon
agudo
aguila
agus
ah
ahata
ahinda
aholibama
ahora
ahusta
ai
aid
aids
aigle
ain
ainda
air
airbangkok
aire
aires
airlines
airport
airu
airways
aise
aix
aja
ajax
akade
akademia
akademiko
akan
akapara
akbor
aki
akinan
akkoord
aklama
akomoda
akompan
akontesimentu
akopla
akort
akountent
akountentnan
akse
aksepta
aksesibel
aksesibilidat
akseso
akshon
akshonista
akshonistanan
akshonnan
aksidente
akta
aktitut
aktivamente
aktividat
aktividatnan
aktivista
aktivo
akto
aktonan
aktor
aktris
aktua
aktual
aktualisa
aktualmente
aktuashon
akua
akuario
akuatiko
akuedukto
akueduktonan
akuerdo
akuerdonan
akumula
akusa
al
ala
alaba
alabama
alabansa
alabes
alain
alan
alarm
alaska
alaves
alba
albanes
albanese
albania
albany
albert
alberta
alberto
albertus
albies
album
albumler
albumnan
albums
alcansa
alcanza
alcohol
alegra
alegre
alegria
alejandro
aleksandr
alema
aleman
alemana
alemania
alemannan
alerta
alessandria
aleu
alex
alexander
alexandra
alexandria
alexia
alfabe
alfabet
alfabeto
alfonso
alfred
algemeen
algemene
algeria
alghero
algiers
algo
algu
algun
ali
aliado
aliadonan
aliansa
alicia
alida
alien
align
alimentashon
alimento
alinea
alivia
alkalde
alkansa
alkansando
alkanse
alki
all
alla
allah
alle
alleen
allen
alles
alliadonan
alliance
allyson
alm
alma
almacita
almasen
almasola
almirante
alnan
alo
aloe
alofs
aloha
aloin
alomenos
alonso
alpen
alpenan
alphabet
alpino
alrededor
als
alsa
also
alt
altagracia
altar
altera
alternativa
alternativo
altez
alto
altri
altu
altura
alumno
alumnonan
alvarez
alvin
alzheimer
am
ama
amabel
amado
amador
amalek
amalia
aman
amanda
amandamentu
amandel
amargo
amargura
amateur
amatu
amazon
amazonas
amazoniko
ambiental
ambiente
ambishon
ambos
ambtenaar
ame
amentu
america
american
americano
americans
americas
amerigo
amerika
amerikaanse
amerikanan
amerikano
ami
amienda
amiens
amiga
amigo
amigoe
amigonan
amigu
amigunan
amistad
amistat
amont
amor
amoreo
amoreonan
amour
ampeg
amplia
ampliamente
amplio
amrafel
amsberg
amstel
amsterdam
an
ana
anak
analisa
analista
analitico
analyserende
analysis
anan
anansi
anatolia
anchorage
anco
ancona
anconi
ancra
and
andalucia
andando
ander
andere
anders
andes
andin
ando
andorra
andre
andrea
andrelton
andres
andrew
andrews
android
andruw
anegada
aneksa
aneksashon
aner
anfitrion
ange
angel
angela
angeles
angelica
angelnan
angelo
angels
anglo
anglofo
angochi
angola
anguilla
angustia
anhela
ani
anima
animado
animal
animalnan
anink
anita
aniversario
anja
anjer
ankara
anke
ankra
ann
anna
anne
annette
ano
anochi
anochinan
anonan
anos
anota
another
ansa
ansano
anselmus
ansestro
ansestronan
ansianonan
anta
antalogia
antan
antananarivo
antartica
antemano
antena
antepasadonan
anterior
anteriormente
antes
anthology
anthony
anti
antia
antianan
antiano
antianonan
antias
antigua
antiguedat
antiguo
antik
antikua
antilla
antillen
antillenhuis
antilles
antilliaans
antilliaanse
antilliana
antiyano
antiyas
anto
antofagasta
antoine
antologia
anton
antonette
antoni
antonia
antonieta
antonio
antorcha
antriol
antropo
antropolo
antropologia
antwerpen
anual
anualmente
anula
anuncia
anuncio
anunsia
anunsio
anunsionan
anv
any
anza
ao
aoe
aos
aosche
aose
apa
aparato
aparatonan
aparece
aparensia
aparenta
aparese
apariensia
aparishon
apart
aparta
apartament
apartamento
aparte
apartheid
apela
apelashon
apellido
apelsina
apenas
aperta
apertura
apesar
aplica
aplicabel
aplicacion
aplika
aplikabel
aplikashon
apo
apodo
apolinario
aporta
aporte
aposto
apostrof
apoya
apoyo
app
appel
appia
apple
apre
aprecia
aprecio
aprel
apresia
apresio
april
aproba
aprobacion
aprobashon
aproksima
aproksimadamente
apropia
aproximadamente
apstene
apstrakto
apulia
apunta
aqua
aquarium
aquino
ar
arab
arabe
arabia
arabico
arabir
aragon
aram
arameo
aran
ararat
arashi
arawak
arba
arbeiders
arbitrario
archaea
archiefleeuwardercourant
archipie
archipielago
architektura
archive
archivo
ardara
are
area
areanan
aregla
areglista
areglo
arei
arena
arend
arends
arendsstraat
areski
aresta
arevic
arfaksad
argentina
argentino
argento
argon
argumenta
argumento
argumentonan
ari
ariadne
ariane
arias
ariba
arido
arie
arikok
arin
ariok
arion
aristo
aristote
aristrokasia
arizona
arka
arkada
arkansas
arkefly
arkeo
arkeolo
arkeologia
arkeologico
arkeologiko
arkeologonan
arkitectura
arkitectural
arkitekto
arkitektura
arktiko
arles
arma
armada
armanan
armando
armbantnan
armenia
armenio
armstrong
army
arne
arnhem
arnold
aros
around
arowak
arpa
arpetan
arqueologico
arrindell
ars
arsenal
art
arte
artefakto
artefaktonan
artenan
artesania
artesanonan
arthur
arti
article
articulo
artificial
artifishal
artifisial
artikel
artiko
artikula
artikulo
artikulonan
artist
artista
artistanan
artistico
artistiko
arts
arturo
aruaka
aruba
arubaans
arubaanse
arubahuis
aruban
arubanita
arubano
arubiano
arumede
as
asamblea
ascension
ascetismo
aselera
asenat
asepta
aseptabel
aseptashon
aser
aserca
aserka
asesibel
asesina
asesinato
asesino
ashanti
ashley
asia
asiana
asiento
asientonan
asigna
asin
asina
asinaki
asiria
asistencia
asistensia
asistente
asisti
asjes
asjoe
askhabad
asmara
asocia
asociacion
asombra
asosashon
asosia
asosiashon
aspectonan
aspekto
aspektonan
asporaat
aspx
assad
assasinashon
assemblidat
association
asta
astana
asti
astrologia
astrono
astronomia
astronomy
asturiano
asumi
asuncio
asunto
asuntonan
asuntu
asuntunan
at
ata
atad
atak
ataka
atake
atakenan
ataniro
atardi
atatu
atei
ateismo
atelier
atempto
atenas
atencion
atende
atendente
atenshon
aterisa
aterisahe
aterisando
athetivo
athletic
athletics
atjeh
atkeri
atkiri
atla
atlanta
atlantic
atlantico
atlantiko
atlas
atle
atleta
atletanan
atletismo
atministra
atministrashon
atministrativo
atmira
atmishon
atmiti
atmo
atmosfe
atmosfer
atmosfera
ato
atol
atomiko
atp
atraccionnan
atrae
atrakshon
atrakshonnan
atraktivo
atras
atraves
atribui
atrobe
attack
atverbio
atverbionan
au
auditorio
auf
august
augusta
augustus
aulo
aumenta
aumentando
aumento
aun
aunke
aus
austin
australia
australiano
austria
austriako
authority
auto
autodeterminacion
automaticamente
autonomia
autonomo
autopista
autopsia
autor
autoridad
autoridadnan
autoridat
autorisa
autorisacion
autornan
av
ava
avalon
avance
avansa
avansenan
avantia
avb
avellino
avenida
averahe
aves
avianca
aviashon
aviation
avion
avionnan
avisa
aviso
aviv
avondklok
avontuur
avp
aw
awa
awanan
award
awards
awaseru
away
awe
awemainta
awendia
awg
awo
awoki
awor
aworaki
axioma
axis
ay
aya
ayanan
ayera
ayi
ayisyen
ayman
aymara
ayo
ayrton
ayudo
az
azerbaijan
azerbeidjan
aziatiko
aznavour
azteka
b
ba
baal
baas
bab
babel
baby
babylon
bachata
bachelor
back
bacteria
bacuna
bad
bade
baden
bagamundo
bagdad
baha
bahada
bahamas
bahamento
bahamentu
bahi
bahia
baho
bahrein
bai
baia
baila
bailabel
bailado
bailando
bailarin
bailarina
baile
bais
baiskel
bajans
baka
bakanan
baki
bakinan
bakker
bakoba
bakteria
bakuna
bal
bala
balada
balans
balansa
balashi
bale
balentien
bali
balia
balin
balioso
balkan
balkenende
ball
ballet
ballin
ballista
ballpark
ballroom
balm
balor
balora
balorashon
balsem
balsema
baltiko
baltimore
balto
baluarte
bam
bamako
bamba
bamboo
ban
banari
banchi
banchinan
banco
band
banda
bandabou
bandanan
bandar
bandariba
bandera
bandi
bandona
bang
bangkok
bangladesh
bank
bankario
bankarota
bankero
banko
bankonan
bankrut
bano
bantamweight
bantu
banyo
bao
bapor
bar
bara
barack
baranan
baranca
barancanan
baranka
barankanan
barata
barbadensis
barbadiano
barbados
barbara
barbary
barber
barbero
barbuda
barbule
barcadera
barcelona
barco
baren
barera
bari
bariju
barika
bario
barionan
barka
barker
barko
barku
barkunan
barn
baron
barquisimeto
barracudas
barranquilla
barrett
barriga
bars
bas
basa
base
baseball
based
baselmans
basemat
basha
bashar
bashi
basi
basic
basico
basikamente
basiko
basile
basilika
basin
basinan
basino
basis
basista
basketball
basketbo
basora
basquiat
basse
basta
bastante
basura
bata
batalla
bataya
bate
bateria
batholithikonan
bati
batin
batisa
batise
batrei
battle
bautisa
bauxite
bavaria
bavariano
bay
bayendo
bayern
bayt
bbc
bboy
bc
bccher
bce
be
beach
beast
beatles
beatrix
beaujon
beautiful
bebe
bebida
beca
bed
bedey
bee
beek
beekenburg
beeknan
beeld
beeldende
beeldvorming
been
beer
beerseba
begawan
beginning
begint
behes
behilia
behind
bei
beibel
beijing
beirut
beisbo
beisbol
beisbolista
bejing
bek
beka
bekvalac
bel
bela
belafonte
belarus
belasting
belastingdienst
belga
belgica
belgie
belgien
belgika
belgrado
belize
belkacem
belle
bello
belmopan
belnem
belo
beltran
ben
bencho
bend
bende
bendedo
bendemi
bendi
bendicion
bendishon
bendishona
bendishonnan
beneficio
benefisio
bengal
bengali
benidero
benin
benito
benjamin
bennan
bennett
benny
benta
bentaha
bentana
bentanan
bentananan
benton
beograd
berber
berchidda
berdad
berdaderamente
berdadero
berdat
berde
berdura
berg
bergen
berguensa
berguenza
beria
bering
berkeley
berklee
berlin
berm
bermuda
bernadina
bernard
bernardo
bernhard
berri
berry
bert
bes
besaril
bescherming
beschrijvende
besindario
bessie
bessude
best
bestanddeelnr
beste
bestia
bestianan
bestuur
bestuurlijk
bestuurscollege
betekenis
beth
betico
beton
betrian
better
betty
beurs
beusekom
bevo
bevolkingsgegevens
beyesa
beyince
beyonce
beyond
bezemklas
bezig
bh
bha
bhi
bhutan
bi
bia
biaha
biahe
biahenan
bianca
biba
bibando
bibante
bibida
bibienda
bibliobus
bibliografia
biblioteca
bibliotecarionan
biblioteka
bibliotekanan
bibliotekario
bibliotheek
bibo
bibu
bicentini
bida
biden
bie
biehes
bieloruso
bien
bienal
bienes
bienestar
biennan
biento
bientu
biesterfeld
bieu
bieunan
bieuw
big
biggest
bij
bijna
bijzondere
bik
bikamaral
bikker
bil
bilha
bilingual
bilingualism
bilingualismo
bilingwe
bill
billbergii
billboard
billeta
bills
billy
bin
bina
bing
bini
binida
binimento
binnen
binnenhof
binnenlandse
binomio
bint
binti
bintidos
bintinuebe
bintitres
bintiun
bio
biobi
biodiversidad
biodiversidat
biodiversity
biografi
biografia
biography
biolo
biologia
biologico
biologie
biologiko
bion
biosfera
biotiko
bira
birando
bird
birgen
birma
birmingham
bis
bisa
bisabo
bisami
bisando
bische
bisendario
bishe
bishita
bishitante
bishitantenan
bishop
bisin
bisindario
bismarck
bispo
bispu
bissau
bista
bisti
bisto
biuda
biyete
biyon
blachi
blachinan
black
blackberry
blacklabel
blacklivesmatter
blackstone
bladeren
blanco
blank
blanko
blanku
blas
blauw
bleki
blica
blick
blika
bliko
blinde
blinder
blm
blo
block
bloem
bloemhof
blog
bloki
blond
blossom
blou
blu
blue
blues
bluesband
bmx
bna
bnei
bnk
bo
board
boasman
boat
bob
bobby
bobo
boca
boda
bodied
body
boeing
boek
boekhandel
boekhoudt
boeli
boer
boes
boete
bofon
bog
boga
bogaerts
bogota
bohi
boi
boka
bokanan
bola
bolan
bolbe
bolero
boletin
boli
bolivar
bolivariana
bolivia
boliviano
bolo
bologna
bolsa
bolsonaro
boluntarionan
bom
bomba
bombardeo
bombero
bon
bonaire
bonaireaans
bonbini
bonchi
bond
bondia
bondnan
bone
boneiro
boneiru
boneriano
bonerianonan
bonevacia
boney
bonnanaro
bono
bonorva
boog
booi
book
books
boom
boon
bora
borchi
bordeaux
border
bordo
boris
born
borne
borutta
bos
bosch
boskaljon
bosna
bosnia
boso
bosonan
boston
botanical
boten
boter
botica
boticario
botique
boto
boton
botr
botswana
bottelier
bottom
bou
boulevard
bouterse
boutique
bovenbouw
bowie
bowling
box
boxing
boy
boys
braam
brabant
brak
brandaris
brando
bras
brasa
brasanan
brasi
brasil
brasilen
brasilero
braun
braunau
braves
brazil
brazzaville
breathe
breda
bregenz
brel
bremen
brenneker
bretan
bretania
breu
breve
brevemente
brian
briathar
bridge
bridgetown
brief
briefing
brieven
brievengat
brigitha
brigitte
brika
brinda
bringa
bringamentu
bringamosa
bringando
brion
brionplein
brita
britania
britanico
britaniko
britannia
britannica
british
britney
britten
briyante
briyechi
bro
broadcasting
broadway
broei
broek
broertje
broken
brokke
bron
brons
bronx
brooklyn
brota
brote
brother
brouwer
brouwerij
brouwn
brown
browser
bru
brua
bruce
bruela
brug
brugnan
bruha
brui
brunei
brunswijk
brusela
bruto
brutu
bryan
brydan
bu
bubali
bubaliplas
buchi
buckley
bud
buda
budapest
buddy
budim
budismo
budista
bue
buelo
buelonan
bueltanan
buena
buenos
buey
bufete
bujumbura
buki
bukinan
bula
bulado
bulando
bulevar
bulgaria
bullenbaai
bum
bundel
bundesla
bundesland
bunita
bunitesa
buon
burache
buracheria
buraco
buraku
burakunan
bureau
burgemeester
burgenland
burgos
buriku
burikunan
burkina
burn
burro
burundi
bus
busan
busca
buscando
bush
bushiri
business
buska
buskamentu
buskando
buskeda
busto
but
buta
bute
butterfly
button
butushi
buurt
buy
bvb
by
c
ca
cab
caba
cabai
caballero
cabamento
cabay
cabayero
cabes
cabesante
cabo
cac
cache
cacho
cacique
cada
cadena
cadushi
caesalpinia
cafe
cafeina
caft
cagliari
cah
caha
cahi
cahiers
cai
caicos
caida
caiena
caiquetio
cairo
calabria
calangianus
caldera
cale
calendario
cali
calidad
california
calister
calixto
call
calle
called
calling
calmes
calor
calvin
calypso
cam
cama
camacuri
camara
camber
cambi
cambia
cambio
cambionan
cambodja
cambrian
cambridge
camejo
camelia
camera
caminata
caminda
camisa
campamentunan
campan
campania
campbell
campeon
campeonato
campo
campus
can
cana
canada
canal
canalnan
canashito
cancela
cancer
cancha
cancio
cancion
cancionnan
candela
candelaria
candidat
candidata
candidato
canisius
canon
cant
canta
cantamento
cantando
cantante
cantica
cantidad
cantidat
canto
canton
cantonan
cao
cap
capa
capacidad
capacita
capita
capital
capitan
capitulo
cappuccino
capricorne
capriles
capsulanan
capta
captain
captura
caquetio
caquetionan
cara
caracara
caracas
caracasbaai
caracter
caracteristica
caracteristicanan
carai
caraibische
carbon
care
careda
carel
carera
carey
carga
cargamento
cargeghe
cargill
cargo
cargolux
cargonan
caribbean
caribe
caribense
caribiana
caribisch
caribische
caricom
carin
carl
carlo
carlos
carmabi
carmen
carnaval
carnavalesco
carni
caro
carol
carolina
carpenters
carpinte
carpinteria
carta
cartagena
cartago
cartanan
carter
cartera
cartero
cartografo
cas
casa
casamento
case
cases
cash
cashero
casi
casibari
casimiri
casino
casnan
caso
casonan
cast
casta
castellano
castelle
castigo
castilia
castilla
castillo
castro
catalan
catalina
catalogo
catanzaro
catar
catashi
catch
catecismo
categoria
category
catharina
cathay
cathedral
catherine
catholic
catid
cato
catolico
catuna
caucasus
causa
cave
cay
caya
cayanan
cayenne
cayente
cayman
cba
cbcs
cbs
cc
cd
cda
cdc
cds
cdu
ce
cecilia
ced
ceda
cedric
cedula
cefet
celebr
celebra
celebracion
celebrando
celebrity
celestino
celia
celsius
celso
cen
censo
census
cent
centenares
center
centers
centraal
centrair
central
centrale
centre
centro
centroamericano
centrum
century
ceo
cera
ceramento
ceramica
ceramico
cerca
cercania
ceremonia
ceremonial
cereus
certamen
certificacion
cesar
cft
cfu
cfw
cgi
ch
cha
chabaya
chacao
chad
chadiko
chadwick
chain
chair
chakuto
challenge
chamberlain
chamorro
champions
championship
championships
chance
change
channel
chano
chansa
chanson
chapi
chaplin
charetti
charity
charla
charlanan
charles
charleston
charlie
charlotte
charrie
chart
charter
charts
chase
chaunice
chave
chaves
chavez
chavi
chavo
che
check
checo
checoslovakia
cheek
chef
chen
chens
cherche
cheriway
chespirito
cheung
chi
chiara
chiboney
chicago
chick
chico
chiesa
chiki
chikito
chikitu
chikitunan
chikungunya
child
children
chile
chileno
chili
chilindrina
chiloe
chin
china
chines
chinesnan
chippie
chipre
chittagong
chloroplastnan
cho
chobolobo
chocarreros
choller
chong
chris
christian
christina
christmas
christopher
chronicle
chrysantha
chrysanthus
chu
chubatu
chumbu
chuquisaca
churandy
church
churchill
chusma
ci
cia
ciclismo
ciclista
ciclo
cid
cie
cielo
cien
ciencia
cientifico
cierto
cifra
cifranan
cijntje
cilinder
cilindernan
cincinnati
cinco
cindy
cine
cineasta
cinelandia
cinema
cinemark
cinematografia
cines
cinex
cio
cion
circulacion
circulo
cirlot
ciro
cita
cite
citer
cites
cities
city
cityrecords
ciudad
ciudadano
ciudadanonan
civil
civiles
civilisacion
civilisado
ckv
cl
cla
clannad
clapton
clara
clarinet
claro
clase
clasico
clasifica
clasificacion
classic
classificatie
classification
claude
claudius
claus
clausura
clemencia
cleopatra
cleotilde
cliente
clima
clinica
clinico
clinton
clip
clock
close
closes
clovis
club
clube
clubnan
clyde
cm
cmb
cmc
cnn
co
coa
coach
coalicion
coalitie
coast
coastal
coba
cobar
coca
cocabladeren
cocai
cocaina
cocari
coco
cocolishi
code
codigo
codrongianos
coffee
coffie
cohen
coho
coi
coke
cola
colastica
cole
colebra
coleccion
colectivo
colega
colegio
coleman
colga
coll
collectie
collection
college
collins
colo
colombia
colombiano
colombo
colon
colonia
colonial
colonianan
colonisacion
colonisado
colonizacion
colony
color
colorado
colornan
columbia
columbus
com
coma
combati
combersa
combersacion
combina
combinacion
combo
come
comedia
comediante
comendador
comenta
comentario
comercial
comercialmente
comerciante
comercio
comete
comienso
comisario
comision
comisionnan
comite
commandeur
comme
comment
comments
commewijne
commissie
commission
committee
common
commons
commonscat
commonwealth
communicacion
communication
community
como
comores
compa
compacto
compagnie
compan
companashi
compania
companianan
company
compara
comparti
compartimento
compas
competencia
competencianan
competente
competi
compila
compilacion
compilation
compleho
complejidad
complejos
completa
completamente
completo
complicacion
compone
componi
comportacion
comportamento
composicion
composicionnan
composita
compositor
compra
comprende
compromete
compronde
compuesto
computer
comun
comune
comunica
comunicacion
comunidad
comunidadnan
comunista
con
concacaf
concentracion
concepcio
concepcion
concept
concepto
concerni
concert
conciente
concierto
conciertonan
concludes
conclusion
concordia
concreto
concurso
condecora
condecoracion
condicion
condicionnan
conduci
conducto
conecta
conexion
confederacion
confederation
conferencia
confesa
confiansa
confirma
confirmed
conflict
conflicto
conforme
congo
congreso
conhuntamente
conhunto
conkista
conmemora
connecticut
conoce
conocemento
conoci
conocido
conocimento
conosi
conscientisa
consecha
consecuencia
consecuentemente
consecutivo
conseha
consehero
conseho
consensus
conserva
conservacion
conservation
considera
considerabel
considerando
consisti
consistiendo
consonante
consonantenan
constancia
constantemente
constata
constelacion
constitucion
constitucional
constitui
constitution
construccion
constructor
constructora
construi
construyendo
consulado
consular
consulta
consultativo
consulytic
consument
consumi
conta
contact
contacto
contagia
contagio
container
contamento
contemporary
contene
contenido
content
contento
contesta
contexto
continental
continente
continua
continuamente
continues
continuidad
continuo
contra
contraccion
contract
contracto
contrario
contrata
contratiempo
contribucion
contribui
control
controla
controlador
controle
controversia
controversy
contruccion
convenci
convenio
convention
converted
converti
convertie
cook
cooke
cool
coomans
cooper
cooperacion
coordinacion
coordinador
copa
copia
coppename
copper
cora
coral
coram
corant
corantnan
corazon
cord
corda
cordillera
cordoba
core
coreccion
corectamente
corecto
corector
coredo
coredonan
coreograf
coreografo
coriaria
coriente
corinthians
coriolis
corne
cornelio
cornelis
cornell
cornet
coro
coromoto
corona
coronabesmettingen
coronacion
coronacrisis
coronavirus
corporation
corre
correa
corsen
corsica
corsiko
corsou
corsouw
corsow
corta
cortamento
corte
cortenan
cortico
corticu
cortina
corto
cory
cos
cosa
cosas
cosecha
cosenza
cosmetica
cosmetico
cossoine
costa
costal
costalago
costanan
costariken
cotton
council
countries
country
county
coup
couplet
courant
court
courtney
cov
covid
coy
cpa
cperuvianus
cpim
cps
cr
crash
crates
crazy
crea
creacion
creale
cream
creatividad
creativo
crece
crecemento
crema
cremanan
creole
creoles
cria
crimen
criminal
crioyo
crisis
cristal
cristian
cristianismo
cristiano
cristina
cristo
cristobal
critica
critico
crksv
crkva
croes
croix
cronico
croon
crossroads
crow
crusamento
crush
crust
cruyff
cruz
crystal
csc
csm
cst
ct
cu
cua
cuadra
cuadro
cual
cuales
cualke
cualkier
cuando
cuanto
cuarenta
cuarentena
cuarentishete
cuarta
cuarto
cuater
cuatro
cuba
cubano
cubri
cuchiu
cue
cuebanan
cuenta
cuentanan
cuero
cuerpo
cuestion
cuida
cuidad
cuido
culminacion
cultiva
cultivacion
cultura
cultural
cultureel
culturele
cultuur
cultuurfonds
cumbustibel
cuminda
cuminsa
cuminsamento
cuminsando
cuminza
cumplean
cumpli
cumpr
cumpra
cune
cunha
cunsa
cunucu
cup
cupid
cura
curac
curacao
curacaosche
curacaose
curason
curazao
curazon
curfew
curie
curiel
curiosidad
curises
curitiba
curom
curpa
curriculum
curso
cursonan
curt
cusano
cushina
cushna
custumber
cuzco
cvb
cw
cynthia
czechia
d
da
daaibooi
daal
daarin
dacca
dachau
dado
dag
dagblad
dagboekbladen
dagen
dahmer
daily
daimari
daisy
dak
dakar
daknan
dakota
dal
dale
dallas
dalmata
dam
dama
damas
damasco
damasko
damberg
dame
damon
damp
dan
danang
dance
dande
dandehttps
dane
danes
dangerously
dangui
danie
daniel
daniela
dankbaarheid
danki
danny
dans
dansa
danza
dao
dap
dar
dark
darkness
das
dash
dashboard
dat
data
database
date
dato
datonan
datu
dave
davelaar
david
davies
davis
day
daylight
days
dayton
daß
db
ddd
de
dead
deal
dean
death
deaths
debate
debati
debe
debenan
deber
debi
debidamente
debido
debil
debolbe
deboto
debrot
debrotprijs
debut
debuta
decada
decade
decanonan
december
decente
decentralisacion
decimo
decision
deck
declara
declaracion
deco
decolonisacion
decora
decoracion
decorativo
decreta
decreto
dedan
dede
dedica
dedika
dedikando
deel
deen
deeper
deepsound
defend
defende
defeni
defensa
defensivo
defensor
deficiency
defini
definicion
definishon
definition
definitivamente
definitivo
deforma
deformashon
deformashonal
defunto
defuntu
degel
degrada
degree
dei
deja
dekada
dekadanan
dekadensia
dekker
dekkers
deklama
deklamado
deklara
deklarashon
dekolonisashon
dekora
dekorashon
dekreta
dekreto
del
delantero
delaster
delaware
delegacion
delegashon
delft
delhi
deliberadamente
delikado
delinkuente
delisia
delito
delivery
dell
della
delle
delpher
delta
deluxe
dem
demanda
demasiado
demerara
demo
democracia
democratic
democratico
democrats
demografia
demokra
demokrasia
demokrasianan
demokrat
demokratikamente
demokratiko
demonstra
demonstrashon
demostra
demostrashon
dempelmento
den
dengue
denis
denise
dennis
denomina
denominashon
denominashonnan
denota
densidat
denso
denter
dentro
denunsia
denzel
departamento
departamentu
department
dependances
depende
dependensia
dependensianan
dependiendo
dependiente
depo
deporta
deporte
deportenan
deportista
deportistanan
deportivo
deposita
depositashon
deposito
depositonan
depreshon
depresia
depresiashon
depues
der
dera
derami
derechi
derechinan
derecho
derechonan
derek
deriva
derivacion
derota
derotando
des
desakue
desampara
desaroya
desaroyo
desaroyonan
desarrollados
desaster
desastre
desayora
descanse
desconfiansa
desconoci
describe
describi
descripcion
descubri
descubrimiento
descubrimientos
desde
dese
desea
deseabel
desember
desemboka
desende
desendensia
desendiente
desendientenan
desenkadena
deseo
deseonan
desfavorabel
desfile
deshasi
desi
desierto
designa
designashon
designator
desima
desintegra
desir
desire
desiree
desishon
desishonnan
deskanso
deskarga
deskonosi
deskribi
deskripshon
deskubri
deskubrimentu
deskuento
desmantela
desmantelashon
desolato
desolve
desonra
desorden
desparse
despedi
despedida
despeha
desplega
despresia
despue
despued
despues
dessert
destaca
destaka
destila
destina
destinashon
destino
destiny
destruccion
destrui
destruie
destrukshon
destruktivo
details
detay
detaya
detaye
detekta
detencion
detene
deteni
detenido
detenshon
determina
detroit
deutsch
deutschland
devastashon
devela
development
developments
devenite
devi
devor
dewahl
deze
dhabi
dhaka
dharma
di
dia
diabe
diabierna
diadomingo
diadumingu
diagnostika
diahuebs
dialecto
dialectonan
dialekto
dialektonan
dialogo
dialuna
diamars
diameter
diana
dianan
diaranson
diarea
diaria
diariamente
diario
diasabra
diaspora
diaz
dibershon
dibuho
diccionario
dicho
dicidi
dick
dicta
dictionary
did
didi
die
died
diego
diekmann
diemen
dienst
diepte
dies
diescinco
diesdos
dieseis
diesel
dieses
dieshete
diesinku
dieskuater
diesnuebe
diesocho
diesseis
diesshete
diessinku
diestres
diesun
dieta
diferencia
diferensha
diferensia
diferensianan
diferente
different
difi
dificil
dificultad
difikultat
difini
difisil
difunto
difuntu
digital
digna
dignidat
digno
digo
digonan
digrafo
dijk
dijkhoff
dijknan
dikamente
diki
diko
dikon
diktado
diktador
diktadura
diktaduranan
diktatorionan
dil
dilanti
diluvio
dimenshon
dina
dinamarca
dinamarka
dinamico
dinastia
dindial
dino
dinosaur
dio
dios
diosnan
diploma
diplomatico
diplomatiko
diptongo
diputado
diputadonan
dire
direccion
direct
directamente
directiva
directo
director
direkshon
direktamente
direktiva
direkto
direktor
direktornan
dirigente
dirigi
dirks
dirksz
dirti
disambiguation
disan
disc
disciplina
disco
discografia
discontinua
discriminatie
discurso
discusion
discuti
disease
disen
disernimentu
disertacion
disertashon
disfrasa
disfruta
disidente
disidi
disiplina
disk
diskero
disko
diskografi
diskografia
diskonan
diskribi
diskriminashon
diskubri
diskulpa
diskurso
diskushon
diskushonnan
diskuti
disney
disolbe
disolucion
disolushon
disolve
disolvi
dison
disparce
disparse
dispone
disponibel
disposicion
disposishon
dispuesto
disputa
disputo
distancia
distancing
distansha
distanshamentu
distanshanan
distansia
distincion
distingi
distingui
distinkshon
distinkto
distinshon
distinto
distribui
distribuidor
distribuimento
distribushon
distribution
district
districto
districtonan
distrikto
distriktonan
distrito
distritonan
distrui
disturbio
disturbionan
dit
dith
dito
diva
divers
diversidat
diversifika
diverso
divi
dividendo
dividi
dividibel
dividivi
divino
divirgu
divisa
divishon
divishonan
divishonnan
divisio
division
divisiones
divorcia
divorsia
diwan
dj
dja
djabie
djabierna
djabierne
djaca
djadomingu
djadumingu
djafo
djahuebs
djaka
djaluna
djamars
djamena
djarason
djasabra
djaserka
djawe
djaweps
djcatalog
dje
djei
djente
djentenan
djes
djey
djibouti
djis
djo
djoin
djokovic
dm
dna
dnm
do
dobel
dobla
doble
docente
doctor
doctorado
doctorandus
doctrina
documentario
documento
documentonan
dodd
dodgers
dodoma
doen
dog
dogaaji
doha
doi
dok
dokter
doktorado
doktrina
dokumenta
dokumental
dokumentalista
dokumentario
dokumentashon
dokumento
dokumentonan
dokumentu
dolfijn
dolfijnfm
dollar
dolo
dolonan
dolor
dom
domacasse
dome
domestico
domestiko
domi
domina
dominante
dominee
domingo
domingu
dominguito
dominica
dominicana
dominicano
dominikana
dominikano
dominio
dominion
dominique
domino
domodedovo
don
donacion
donada
donald
donante
donashon
donderdag
dong
donnell
door
doorman
doornen
doors
doping
dor
doran
dordrecht
doria
dorna
dorothy
dorpnan
dos
dosente
dosis
dosnan
dotan
dotinga
dou
doublestone
douglas
dow
down
dp
dr
dra
drabek
drag
dragqueen
drai
drake
drama
dramatico
dramatisa
dramaturgo
drastico
drastikamente
drayer
dre
dream
dreams
drecha
drechi
drei
dremp
dren
drenta
drew
drey
drie
drif
drill
drive
droga
droom
drov
drs
dru
druk
drumi
drums
du
dual
duana
dubai
dubbelspel
dublin
duda
duel
duets
duinkerk
duits
duke
duma
dumfries
dumping
dun
duna
dunabo
dunado
dunamento
dunamentu
dunami
dunando
dundun
dunham
duo
duque
dur
dura
duracion
duradero
durante
durashon
duro
duru
dus
dushi
dusjanbe
dust
dutch
duvalier
dvd
dvg
dwal
dyke
dz
dztwo
e
eagle
earl
early
earth
earubianonews
east
eastern
ebay
ebola
ebrahim
ec
echa
echo
echonan
eclips
ecologico
economia
economic
economico
economics
economie
economiko
economische
ecser
ecuador
ecury
ed
edad
edat
eddie
eddy
ede
edgar
edgard
edicion
edicionnan
edificio
edifisio
edifisionan
edinburgh
edishon
edison
edit
edita
edition
editor
editorial
editornan
edits
edjean
edo
edomitanan
eds
edsilia
edu
eduard
eduardo
educac
educacion
educador
education
eduka
edukado
edukador
edukashon
edukativo
edward
edwin
ee
een
eerste
eerstekamer
eesaun
efe
efectivo
efecto
efectonan
efectua
efektivamente
efektivo
efekto
efektonan
efeso
efikas
efisiensia
efisiente
efpt
efrai
efrain
efrata
efron
egbert
egipcio
egipsio
egipsionan
egipto
ego
eh
ehe
ehecucion
ehecuta
ehecutivo
ehekushon
ehekuta
ehekutivo
ehempel
ehemplar
ehemplarnan
ehemplo
eherce
ehercito
eherse
ehersito
ei
eigen
eik
eiland
eilanden
eilandenregeling
eilandgebied
eilandsraad
ein
einan
eindhoven
einstein
eiri
eis
eisden
eisenstadt
eithne
ej
ejus
ek
ekipa
ekipo
ekiponan
ekivalente
ekolo
ekologia
ekono
ekonomia
ekonomianan
ekonomicamente
ekonomikamente
ekonomiko
ekonomista
ekosistema
eks
eksaktamente
eksakto
eksamen
ekselensia
ekselente
eksepshon
eksepshonal
eksepshonnan
eksepto
ekshibi
ekshibishon
ekshibishonnan
eksigensia
eksigi
eksistensha
eksistensia
eksistente
eksisti
eksito
eksitoso
ekskavashon
eksklui
eksklusivo
ekspande
ekspanshon
ekspedishon
eksperensia
eksperimenta
eksperto
ekspertonan
eksplora
eksplorado
eksploshon
eksplosivo
eksplota
eksplotashon
ekspone
eksponi
eksporta
eksportashon
eksposishon
eksposishonnan
ekspresa
ekspreshon
ekspreshonista
ekspreshonnan
ekspulsa
ekstende
ekstenshon
ekstensivo
ekstenso
eksterior
eksterno
ekstinshon
ekstinto
ekstra
ekstraklasa
ekstrakshon
ekstranhero
ekstremo
ekuador
ekuator
el
ela
elabora
elam
elasar
ele
elea
eleccion
eleccionnan
electoral
electricidad
electrico
electro
electronic
electronico
elegi
elekshon
elekshonan
elekshonnan
elekson
elekta
elektoral
elektriko
elektro
elektronnan
elementary
elemento
elementonan
elena
eleutheria
eleva
elevando
elevashon
elhage
elia
elias
elifaz
eligi
eligio
elimina
eliminashon
eliminatorio
elis
elisa
elisabeth
elishon
elite
elizabeth
elkaar
elke
ellen
elliott
ellis
elmar
elogia
elon
elsevier
elvis
elysium
em
eman
emancipatie
emancipation
emansipa
emansipashon
embahada
embahador
embaraso
embarca
embargo
emblema
emerenciana
emergencia
emergency
emergensia
emigra
emigracion
emigrante
emigrashon
emiliano
emilio
emily
emina
emiratonan
emirto
emishon
emisora
emiti
emma
emmabrug
emmanuel
emmastad
emocion
empata
empen
emperador
emperadornan
emperio
emperor
empi
empire
emplea
empleado
empleadonan
empleo
empowerment
empresa
empresanan
empresarial
empresario
empresarionan
empuha
en
ena
enaim
enan
enbes
enbolbi
encabesa
encarga
encargo
encarta
encera
encontra
encuanto
encuentro
encyclopedia
encyclopedie
encyclopædia
end
ende
endemico
ending
endra
endy
enemigu
enemigunan
enemistad
energia
energiebedrijf
energy
enfasis
enfatisa
enfermedad
enfermedat
enfermeria
enfermero
enfoka
enfoke
enfoque
enforsa
enfrenta
enfrente
engan
engels
engine
england
english
engrandese
enith
enkabesa
enkambio
enkanta
enkarga
enkargo
enkhuizen
enkontra
enkuanto
enkuentro
enkurasha
enlace
ennia
enok
enorme
enos
enrique
ensayo
ensen
ensera
ensiklopedia
ensiklopedianan
entama
entertainer
entertainment
entidad
entidat
entidatnan
entiero
entonces
entrada
entradanan
entrante
entre
entrega
entrenado
entrenador
entrepreneurship
entretantu
entretenementu
entretenimento
entrevista
entusiasma
envia
environment
environmental
envisage
envolvi
envolvimento
enya
enzo
eoc
ep
epb
epi
epidemia
epidemio
epidemiologia
episentro
episode
episodio
epistemolo
epoca
equator
equipo
equivalente
er
era
erashon
erashonnan
erasmo
erasmus
erdem
ered
eredero
erensia
ergilio
eric
erik
eriksson
eritrea
erna
ernesto
ernst
ero
eronan
eroneamente
eror
erosi
error
erupshon
es
esa
esaki
esakinan
esas
esau
esaus
esaya
escala
escalacion
escalera
esce
escena
escenario
esclavitud
esclavo
escobar
escolar
escrito
escritor
escritora
escudo
escultura
ese
esei
eseinan
esena
esenario
esenarista
esencial
esensia
esensial
esey
esfera
esfuerso
esfuerzo
esfuerzonan
esgrima
eskala
eskd
esklabonan
esklabu
esklabunan
esklavo
esklavonan
eskol
eskolar
eskoses
eskosia
eskrito
eskritor
eskritora
eskudo
eskultor
eskultura
esmil
esnan
eso
esote
esou
espacial
espacio
espan
esparta
espasial
espasio
especial
especialmente
especie
espera
esperanto
espesia
espesialmente
espesie
espesienan
espi
esposa
esposanan
esposo
espresso
essays
essequibo
est
esta
estabiliza
establece
estableci
establecimento
establecimentonan
establese
establesementu
establesi
establesimentu
establesimentunan
establisa
establisimentu
estadi
estadista
estado
estadonan
estados
estadounidense
estatal
estatua
estatuto
este
estelar
estetica
estetico
esther
estilo
estima
estonia
estrecho
estrella
estrellas
estrena
estriktamente
estrikto
estudiantes
estudio
estudionan
esun
esunan
esunnan
eswatini
et
etait
etapa
etc
ete
eternidat
eterno
ethel
ethnologue
etimolo
etimologia
etimologico
etiopia
etnico
etniko
etno
etnolo
etnomusiko
etnomusikologia
ets
etty
etu
eu
eufrates
euge
eugene
eukaryotnan
eurasia
euro
eurolang
europa
europe
european
europees
europeo
europeonan
eurosong
eurovision
euson
eustatius
eva
evakua
evalua
evaluando
evangelio
evangelionan
evangelisashon
evapora
evelyn
even
evento
eventonan
events
eventual
eventualmente
everon
evertsz
every
everyone
everytime
evic
evidence
evidencia
evidensia
evil
evita
evo
evolua
evolucion
evolushon
evolushona
ex
exactamente
exacto
examenklas
excede
excelencia
excepcion
excepto
exclusivamente
exclusivo
excluyendo
exepcion
exhale
exhibi
exhibicion
exigi
exila
existencia
existente
existi
exito
exitoso
exklusivo
expande
expanshon
expansion
expeditionis
experencia
experience
experiences
experiencia
experimenta
experimental
experto
expidishon
exploita
explora
exploracion
explorador
explorer
exploring
explosion
explosivo
explosivos
explota
explotashon
expo
exponentenan
exponi
exporta
exportacion
exportashon
exposicion
exposishon
exposishonnan
expres
expresa
expresion
express
extende
extended
extension
extenso
exterior
externo
extincion
extorsion
extra
extracto
extraordinario
extremo
ey
eye
eyed
eyes
eynan
ez
ezer
f
fa
fabor
faborabel
fabrica
fabrika
fabula
face
facebook
fachada
facil
facilidad
facilidadnan
facilita
fact
facto
factory
facts
facultad
facultadnan
fada
faha
fair
fajardo
fakansi
faktor
faktornan
fakultat
falcon
falklands
falling
falls
falmer
falsedat
falsu
falta
fam
fama
fame
famia
famianan
familia
familiar
familie
familytreemaker
famoso
fan
fangumentu
fanta
fantasia
farah
farandula
farandulero
farao
farc
fares
farian
faries
farm
faro
farrell
fase
fashion
fasil
fasilidat
fasilidatnan
fasilita
fasilmente
fasismo
fasista
faso
fast
fatal
fatima
fats
fauna
favorabel
favorito
faya
fayece
fayecemento
fayecido
fayecimento
fayecimiento
fayese
fayesementu
fayesimentu
fayit
fayo
fayonan
fbi
fc
fe
fear
fears
feat
febru
februari
february
fecha
fecture
federacion
federal
federashon
federashonnan
federatie
federation
federativa
federativo
federico
federline
fedex
feest
feita
fel
felicidad
felipe
felis
felisidat
felix
feliz
fem
female
femenino
femes
feminista
feno
fenomeno
fer
ferdinand
ferezeonan
ferguson
feria
fermina
ferna
fernandez
fernando
fero
ferrari
ferry
fertil
fertilidat
fertilisashon
fest
festival
festivalnan
festivo
fetura
feyenoord
feyerabend
ffb
ffk
fi
fia
fianaise
fiansa
ficcion
fico
fidel
fiel
field
fieldat
fierce
fiesta
fiestanan
fifa
fifth
figaroa
figo
figueres
figura
figuranan
fiha
fiho
fiji
fijo
fikamente
fiko
fikol
fikonan
fiktisio
fil
file
filia
filial
filipinas
filipino
filisteonan
filius
film
filma
filmashon
filo
filomena
filoso
filosofi
filosofia
filosofo
fin
final
finalisa
finalisando
finalista
finalmente
financia
financial
financiamento
financieel
financiero
finansa
finansia
finansiamentu
finansiero
finanza
finanzas
fine
fingal
fini
finlandia
finnair
fio
fiorella
fire
firma
firmamentu
firme
first
fiscal
fishi
fisica
fisico
fisiko
fisiologia
fisit
fiskal
fisko
fit
five
fl
flag
flaku
flam
flambeu
flamboyant
flamengo
flamingo
flamingosi
flanel
flash
flat
flaws
fle
flecha
fleischer
flickr
flip
floor
flor
flora
florence
florenza
flores
florese
floria
florida
florin
florinas
florinda
flornan
flota
flotante
floyd
flpd
flu
fluho
fluminense
flydivi
flyer
fm
fo
focus
foetida
fofoti
foggia
fogon
foi
fol
folek
folklo
folklor
folklorico
folkloriko
fomenta
fondo
fondonan
fonds
fondu
fone
fonolo
fonologia
fonologico
fontaine
fonte
fontein
food
foor
football
footnotenolairzik
footnotepopper
for
foral
forbes
force
forcetoc
ford
forma
formacion
formador
formal
formalmente
formanan
formando
formashon
formeel
formula
formulario
fornikashon
forno
forsa
forsanan
fort
fortalese
fortaleza
forti
fortifica
fortificacion
fortifika
fortifikashon
fortuna
fortuyn
fosfat
foster
foto
fotograaf
fotografia
fotovoltaico
found
foundation
foundationhttps
four
fout
foxnews
fpi
fr
fracasa
fraccion
fracking
frager
fragmenten
frakshon
fraktura
framed
frameless
fran
franc
franca
france
francees
frances
francesco
francia
francis
francisca
francisco
franco
francois
francombat
frank
franken
frankenberg
frankfurt
franklin
frans
franse
franses
fransesnan
fransia
fransisco
franz
frase
frasenan
frater
fraude
fre
fred
freddie
frederik
fredis
free
freedom
freestyle
freewinds
freistaat
frekuensha
frekuenshanan
frekuensia
frekuente
frekuentemente
frekwensia
frena
french
frente
fresco
fresku
freude
freund
fria
frialdat
friday
frido
friends
fries
friesland
frika
frikshon
frishide
frits
friu
from
front
frontera
fronteranan
froude
frui
fruit
frukti
frumencio
fruta
frutanan
fsp
ft
ftali
ftbo
ftbolista
fu
fue
fuel
fuente
fuentenan
fuera
fuerte
fuertemente
fugitivo
fuku
fukuoka
ful
fula
full
funchi
funcion
funciona
funcionario
funda
fundacio
fundacion
fundado
fundadonan
fundador
fundamental
fundamentalmente
fundamentu
fundashon
fundatie
fundeshi
fundeshinan
fungi
funk
funkshon
funkshona
funshon
funshona
funshonal
funshonamentu
funshonando
funshonnan
funsion
furia
further
fusila
futbo
futbol
futbolaruba
futbolista
future
futuro
g
ga
gab
gabamentu
gabinete
gabinetenan
gabon
gabriel
gac
gad
gaga
gai
gakuen
galaad
galaksia
galante
galego
galeria
galia
galicia
galilea
galileo
galin
gallery
gallura
galo
gamal
gambia
game
games
gan
gana
ganado
ganador
ganadornan
ganando
gananshi
ganashi
gandhi
gang
ganso
gara
garantia
garantisa
garashi
garci
garcia
gard
garden
gardens
garganta
garick
gario
garmers
garoshi
garoshinan
garoti
garrick
garros
garuda
garun
gary
gas
gasnan
gasolin
gasta
gastamentu
gasto
gaston
gastonan
gastu
gatam
gate
gates
gauguin
gaulle
gautama
gay
gayle
gaza
gazeta
gdan
gdp
ge
gebied
gebieden
gebiedsdeel
gedichten
gee
geel
geen
geerdink
gehandicapten
gekozen
gel
gem
gemeente
gen
gena
gender
gene
genealo
genealogy
genera
generaal
generacion
general
generalamente
generalisacion
generalmente
generashon
generashonnan
generation
generico
genero
genetiko
gennan
geno
genootschap
genova
gentalha
geo
geoctroyeerde
geofi
geogra
geografia
geografiko
geographical
geolo
geologi
geologia
geologiko
geometrico
george
georges
georgetown
georgia
georgiano
gera
gerais
gerald
gerar
gerard
gerardina
gerensia
gergeseo
germa
german
germaniko
germano
germanotta
gerrie
gerrit
gerstenbluth
gerundio
geschiedenis
gesto
get
geteste
getroffen
getting
geval
geven
gevolmachtigde
gewoon
gezaghebber
gezicht
gezondheid
ghana
gia
giants
gibbs
gibi
gibson
gica
gicamente
gico
giel
gif
gigante
gikamente
giko
gilbert
gilberto
gilmar
gimen
gimnasia
gina
gio
giovanni
gira
girardot
girigori
girigorie
girigorio
girl
girls
giro
giselle
gitana
giuseppe
giusti
giza
gje
gladiadornan
gladiator
gladius
gladys
glanville
glas
glasgow
glasial
glasiar
glasiashon
glasnan
glenbert
glenda
glenn
glesjernan
gleva
global
globalization
globe
globo
gloria
gloukoma
gmt
gna
go
goberna
gobernacion
gobernado
gobernador
gobernadornan
gobernamental
gobernante
gobernantenan
gobernashon
gobie
gobierno
gobiernonan
gobiernu
gobiernunan
godal
goddard
godett
godfried
godsdienst
goed
goede
goedgedrag
gogh
goi
going
gol
gold
golda
golden
golf
golfo
golpe
gomer
gomez
gomora
gondishapur
gone
gonzalez
good
google
gora
goranan
gorda
gordo
gordon
gordost
gorsira
gosa
gosen
goso
gospel
gospodine
gossip
gota
gotanan
gotico
goto
gott
goud
gouda
gouden
gouverneur
gouverneurs
gov
government
gp
gra
graba
grabacion
grabashon
grace
gradisi
grado
gradu
gradua
gradual
gradualmente
gradus
graf
graffiti
grafico
grafo
gram
grama
gramatica
gramatical
gramatika
gramatikal
grammy
gran
granada
grand
grande
grandemente
grandesa
grandi
grandinan
grandioso
grandu
grandura
grant
grasia
gratis
grave
gravedat
grawatashi
gray
graz
gre
great
greatest
grecia
green
greenwich
gregoriano
gregorio
gregory
gremio
grenada
grenadines
grens
grensnan
grenzen
gres
gresia
griego
griegonan
griep
griffel
griffier
griffith
grip
griptape
gris
grisha
grita
grito
gritu
groenlandes
groenlandia
grolsch
grondwet
groningen
groot
grootkruis
grootofficier
gross
grosse
grote
ground
group
growell
grupo
gruponan
gt
gtb
gtc
gts
gu
gua
guadeloupe
guadirikiri
guam
guangzhou
guarani
guardia
guardian
guatemala
guayaquil
gubernamental
gue
guene
gueni
guera
gueranan
gueria
guerilla
guerra
guest
guetta
guia
guiami
guiana
guide
guidelines
guilders
guillermo
guillfred
guinea
guinness
guionista
guitara
guitarra
gumbs
gunz
gusta
gustave
gustavo
guten
gutierrez
guy
guyana
gweedore
gym
gymnasium
gz
h
ha
haag
haar
haarlem
hab
habaai
habana
haber
habilidad
habilidat
habita
habitante
habitantenan
habitashon
habitashonan
habitat
habitualmente
habla
habon
habraka
habri
habrimentu
hace
hacha
haci
hacia
hacie
hacienda
haciendo
hadad
hadar
haf
hagar
haha
hai
haiku
haile
haimito
haiti
haitiano
hal
hala
halanan
halando
haley
half
hall
halloween
halo
halsa
halti
halto
haltu
haltura
hamaikino
hamas
hamber
hamburg
hamilton
hamlet
hammersmith
hamnet
hamor
hampstead
han
hanan
hancho
hanchu
hanchura
hand
handbook
handel
handelsblad
handelskade
handle
handroanthus
hanja
hank
hanny
hanoi
hanok
hans
hanya
hapon
hapones
happened
happy
haran
harare
harav
harbor
harbour
hard
hardin
hardware
hari
harin
haring
harmonia
harold
harpo
harris
harrison
harry
hart
harvard
harvey
has
hasa
haseth
hash
hasi
hasibo
hasie
hasiele
hasiendo
hasimi
hassan
hasta
hat
hathaway
hato
hausa
havana
have
haven
havila
haviser
havo
hawai
hawaii
hawk
hay
haya
hayando
hazan
hazel
haß
hbo
hbs
hdi
he
headlining
health
hearst
heart
heat
heathrow
heaven
heb
hebben
hebe
heber
hebreo
hebreonan
hebro
hecho
hechu
hectar
hectare
hector
hedwiges
heeft
heer
heerlen
hefe
hefenan
heijes
hein
hektare
hel
held
helder
hele
helena
helens
helft
helicopter
helikopter
helioce
heliodoro
helium
hell
hellas
helmin
help
helsinki
hemisferio
hemisfero
hen
hende
hendel
hendenan
hendrik
hendrikplein
hendrikschool
henk
henny
henri
henrique
henriquez
henry
hensley
henter
henteramente
hep
hepatitis
hera
herald
herbe
herbert
hercegovina
here
hereda
heredero
hereditario
herencia
herensia
herfst
herida
heridanan
herido
heritage
herman
hermana
herment
hermentnan
herna
heroe
heroenan
herrera
heru
herusalem
hervorming
herzegovina
herzogovina
hessen
hesucristo
hesukristu
hesus
het
heteo
heuvel
heveo
hey
heyer
heyliger
hezron
hh
hi
hib
hiba
hibado
hibando
hichtum
hidrata
hidro
hidrogeno
hierbij
higelin
high
higiena
higra
hikma
hilaire
hilchi
hildward
hill
hilo
hilton
hilu
hilversum
himalaya
himno
hinca
hincapie
hindenburg
hinderwetvergunning
hindu
hinduismo
hinka
hinter
hip
hipo
hira
hiroshima
hirsch
his
hisa
hisado
hisamentu
hispa
hispan
hispania
hispaniola
histo
historia
historiadiaruba
historiado
historiadonan
historical
historicamente
historico
historie
historikamente
historiko
historische
history
hit
hitler
hitnan
hitova
hitovi
hits
hl
ho
hoa
hobby
hoben
hobennan
hoe
hoek
hoetink
hoevertsz
hoezo
hoga
hogar
hoge
hogeschool
hoh
hoi
hold
hole
holiday
holland
hollande
hollandia
holler
hollers
holloway
hollywood
holmes
holo
holoceno
holstein
holy
homber
home
homenahe
homes
homo
homoseksualidat
homosexual
hon
honderd
honderdveertig
hondius
hondt
honduras
hong
hongaria
honolulu
honor
honorario
honra
hoofdkantoor
hoofdklasse
hoogerwerf
hooi
hooiberg
hooke
hooker
hoorn
hop
hope
hopi
hopkins
hoppa
horacio
horcan
hordan
hordania
horea
horeonan
horizon
horizontal
horizonte
horka
horkan
horta
hortence
hose
hospeda
hospital
hospitalidad
hospitalisa
hospitality
hospitalnan
host
hostess
hostilidat
hostilius
hot
hotel
hotelero
hotelnan
hotspot
house
housing
housten
houston
how
howell
hoyer
hradschin
htc
htm
htmhttps
html
htmlhttp
htmlhttps
http
https
hu
huan
huasteca
hub
hubble
hubei
hubenil
hubentud
hubentut
hubert
hubileo
hudaico
hudaismo
hudicial
hudishibana
hudisial
hudiu
hudiunan
hudson
hue
hues
huez
huffelen
hugo
hui
huis
huize
huizen
huki
hulanda
hulandes
hulandesnan
hulde
huma
human
humana
humanidat
humaniora
humanista
humanitario
humano
humanonan
humboldt
humildad
humilde
humo
humor
hun
hundi
hundu
hunga
hungado
hungador
hungando
hungria
hunta
hunto
huntu
hur
hura
hurado
huramenta
huramentashon
huramentu
hurami
huri
huridiccion
huridico
hurisprudencia
hurista
hurley
hurra
hurricane
husa
husam
huse
husga
hussein
husticia
hustifika
hustisia
hustu
huur
huy
huza
huzga
huzo
i
ia
iata
ibb
ibel
iberiko
ibero
iberoamericana
ibn
iconografi
icons
icu
icuc
id
idaho
ide
idea
ideal
ideanan
identidad
identidat
identifica
identificatieplicht
identifier
identifika
identifikashon
identiteit
identity
ideologia
idiologianan
idioma
idiomanan
ido
iduwe
if
ig
iglesia
igual
iguala
igualdad
igualdat
igualmente
iguana
ihn
ii
iii
ijs
ik
ikmentu
ikoniko
il
ilegal
illes
illinois
illuminated
illuminati
ilo
ilumina
iluminacion
iluminashon
ilushon
ilustra
ilustrado
ilustrador
ilustrashon
im
ima
image
imagen
imagennan
images
imagina
imaginacion
imaginario
imaginashon
imagine
imdb
imediatamente
imelda
imf
imigra
imigrante
imigrantenan
imigrashon
imita
immaculata
immigrantenan
immigrashon
immortalis
immune
imo
impacto
impakto
impeacha
imperia
imperial
imperialismo
imperio
imperionan
implementa
implementacion
impone
imponi
importa
importado
importancia
importansha
importansia
important
importante
importashon
imposibel
imposishon
imprenta
impreshona
impreshonante
impresion
impresiona
impresionante
impression
imprimi
impuesto
impulso
imunidat
in
ina
inactivo
inaktivo
inaugura
inauguracion
inbestiga
inbestigado
inbestigashon
inc
inca
incheon
include
included
inclui
incluso
incluyendo
incompetente
incorecto
incorpora
incorporacion
increases
indefini
independence
independencia
independensia
independent
independiensia
independiente
independientemente
independisa
index
indexering
indi
india
indian
indiana
indians
indias
indica
indicacion
indie
indies
indigeno
indika
indikashon
indiko
indio
indira
indirekto
indische
individual
individuo
indjan
indjanan
indjannan
indju
indo
indochina
indones
indonesia
indonesian
industra
industria
industrial
industrialisashon
industrianan
industrie
ine
inerto
inespera
inesperadamente
infancia
infanteri
infantil
infeccion
infecta
infekshon
infekshonnan
infekta
inferior
infinito
inflamabel
inflashonario
influencia
influencial
influensha
influensia
influential
influenza
influyente
info
infomacion
informa
informacio
informacion
informador
informalmente
informashon
informatica
information
informativo
informe
infrastructura
infrastruktura
infrastuktura
ingenieria
ingeniero
ingeniosidat
ingenouso
ingestacion
inglatera
inglaterra
ingles
inglesnan
ingrediente
ingredientenan
ingreso
inhabitante
inheemse
inhumano
inhustisia
inicia
iniciado
inicialmente
iniciativa
inicio
inig
inikidat
inishal
inisia
inisial
inisialmente
inisiativa
inisio
initiativa
inka
inkanan
inklui
inkluiendo
inkluso
inkluyendo
inkompleto
inkonkluso
inkorekto
inkorpora
inlui
inmediatamente
inmediato
inmenso
inmo
inmunidat
inn
innovacion
innovatie
innsbruck
inobo
inosente
inougura
inougurashon
inova
inovacion
inovado
inovashon
inovativo
insecto
insekto
insel
insertidumbre
insidente
insirkumsida
insisti
inskribi
inspekshon
inspir
inspira
inspiracion
inspirashon
inspired
instabilidat
instala
instalacion
instalashon
instalashonnan
instancia
instancianan
instansia
instante
institucion
institui
institushon
institushonnan
institut
institute
instituto
institutonan
instituut
instruccion
instrukshon
instrukshonnan
instrume
instrumental
instrumento
instrumentonan
instruments
insular
insulina
inte
integra
integracion
integral
integrando
integrante
integrashon
integrative
integridad
integridat
integriteit
intelektual
inteligensia
inteligente
intellectueel
intelligence
intencion
intencionalmente
intenshon
intenshonalmente
intensive
intensivo
intenso
intento
inter
interaccion
interakshon
interaktua
intercontinental
interdisciplinario
interes
interesa
interesante
interesnan
interface
interim
interimregeling
interino
interinsular
interior
interkambia
interkambio
interlingua
interlingue
intermedio
interna
internacional
internacionalista
internacionalmente
internal
internamente
internashonal
internashonalista
internashonalmente
international
internationale
interne
internet
interno
interogashon
interompe
interpol
interpret
interpreta
interpretacion
interpretashon
interpretashonan
interscope
intervenshon
interview
intimidashon
into
intransitivo
introduccion
introduci
introduction
introdukshon
introdusi
introusonan
intwine
inuit
inuktitut
inusual
invadi
invashon
invasion
invencion
invenshon
inventa
inventarisa
invento
inventor
invershon
invershonnan
inverti
investiga
investigacion
investigado
investigadornan
investigashon
invierno
invita
invitado
invoka
involukra
involvi
inzake
io
ioc
ion
ios
iowa
ip
ipa
ipad
iphone
ipko
ipod
iprage
ir
irad
irak
iran
irani
irausquin
ire
iregular
iregularidat
irene
irigashon
irlanda
irlandes
irma
irreemplazable
irreplaceable
is
isa
isaac
isaak
isabel
isabelle
isakar
isbn
isenia
isernia
ishantely
isidora
isings
iskierdista
isla
islam
islamabad
islamico
islamiko
islamita
islanan
island
islander
islandes
islandia
islands
islariba
ismael
ismaelitanan
iso
isola
isolacion
isolashon
isotopo
israel
israeli
isso
issues
ist
istanbul
istat
isti
istmo
isu
it
ita
italia
italian
italiano
italiko
italo
italy
itcz
item
itemid
itm
itost
its
ittireddu
ittiri
itunes
itwe
itwest
iv
iva
ivan
ivoire
ix
izaline
izdanja
izzy
j
ja
jaar
jaargang
jaburibari
jac
jacinta
jack
jackson
jacob
jacobo
jacobs
jacques
jae
jafet
jago
jah
jahovi
jahovic
jaime
jaimito
jair
jakarta
jako
jalam
jama
jamaica
jamanota
james
jamestown
jamie
jamison
jan
janchi
jandi
jandino
jane
janeiro
janga
janiro
jansen
janssen
januari
japan
japon
jardin
jared
jarrah
jate
java
javan
javier
javnog
jawaharlal
jawed
jay
jays
jazz
jc
je
jean
jeanedy
jeanne
jebuseo
jefferson
jeffrey
jega
jelena
jemyma
jen
jenner
jennifer
jenson
jeon
jeroen
jersey
jerusalem
jespersen
jesurun
jesus
jetblue
jetstar
jeu
jeugd
jeugdliteratuur
jewel
jhomar
jim
jimmy
jingle
jirafales
jo
joa
joanne
joannes
joaquin
job
jobab
jobs
joceline
jockey
jodocus
joe
johan
johanna
johannes
john
johnny
johnson
join
joksan
joktan
jonathan
jonckheer
jones
jong
jonge
jongen
jongh
joplin
joran
jordan
jorge
jos
jose
josefa
joseph
joshua
jossy
jost
josue
jou
joubert
journal
journey
joyce
jozef
jozefschool
jpeg
jpg
jr
jstor
ju
jua
juan
juana
juancho
juba
juda
judeska
judith
judoka
juegos
juf
juice
juju
jules
juli
julia
julian
juliana
julianabrug
juliano
julie
julien
juliet
julieta
julio
julius
july
jump
jumpin
june
juneteenth
jungslager
juni
junior
juniors
junta
jupiter
jurickson
jurisprudence
jurrjens
just
justice
justicia
justin
justiniano
justisia
justitie
juventud
juventus
juwana
k
ka
kaba
kabai
kabainan
kabamentu
kabando
kabare
kabayero
kabei
kabel
kabes
kabesante
kabine
kabinet
kabinete
kabo
kabritu
kabritunan
kabu
kabul
kabuya
kacho
kachu
kada
kadanan
kadena
kades
kadushi
kaha
kai
kaida
kaiman
kain
kaina
kairo
kajente
kala
kalamidat
kaldeonan
kale
kalendario
kalf
kalidat
kalifar
kalifika
kalipso
kalki
kalkula
kalkulashon
kalkulo
kalor
kam
kama
kamala
kamara
kamber
kambernan
kambia
kambiando
kambio
kambionan
kamel
kamelnan
kamer
kamerun
kaminda
kamindanan
kamp
kampala
kampamentu
kampamentunan
kampan
kampeon
kampeonato
kampeonatonan
kampeonnan
kampioen
kampion
kampionato
kampo
kampus
kan
kana
kanaan
kanades
kanal
kanalnan
kanando
kananeo
kananeonan
kanaria
kancha
kandela
kandelar
kandidaat
kandidat
kandidato
kandidatonan
kano
kansa
kansai
kansas
kansela
kanselashon
kanser
kansier
kansio
kansion
kansionnan
kant
kanta
kantamentu
kantando
kantante
kantantenan
kantautora
kantidat
kantika
kantikanan
kanto
kantor
kantornan
kantoutor
kantu
kaohsiung
kaotiko
kap
kapa
kapanan
kapas
kapasidat
kapasita
kape
kapel
kapita
kapital
kapitalismo
kapitalista
kapitan
kapitulashon
kapitulo
kapricho
kaptura
kara
karachi
karakter
karakteri
karakterisa
karakteristika
karakteristiko
karantena
karate
karateka
karbon
kardashian
kardashians
kardinal
kareda
karel
karera
karga
kargado
kargamentu
karganan
kargo
kargu
karibe
kariben
karibense
karim
karin
kario
karizma
karl
karleusa
karma
karnaval
karne
karni
karpata
karpinte
karta
kartanan
kartera
kartografo
karu
kas
kasa
kasamentu
kasi
kasnan
kaso
kasonan
kaspiko
kassav
kasteel
kastigu
kasuela
kata
katalunia
katapult
katedral
katedrala
kategoria
kategorianan
katekismo
kathedraal
kathedral
katherine
kathmandu
katholiek
katholieke
katibu
katibunan
katidat
katmandu
kato
katoliko
katolisismo
katowice
katuna
kaukasus
kausa
kaya
kayanan
kayente
kazachs
kazachstan
kazako
kazakstan
kazerne
kazik
kc
kcv
ke
keda
kedando
kedorlaomer
keeping
keer
kees
keha
keho
keintura
keiro
keiru
keith
keizer
kelkboom
kelly
kemadura
kemal
kemen
ken
kenaz
kende
kendenan
kenepa
kenia
kenley
kennedy
kens
kentucky
kepler
keppard
kere
kerementu
kerk
kerki
kerseborn
ketel
ketikoti
keto
ketu
ketura
keulen
keuze
kevin
keyboard
keys
kg
khloe
khmer
ki
kia
kibbelaar
kibra
kibrahacha
kickboxer
kico
kid
kido
kiebro
kier
kiere
kiermen
kies
kiesreglement
kiev
kigali
kiko
kikongo
kilo
kilogram
kilometer
kilometro
kim
kima
kimamento
kimica
kimico
kimiko
kimse
kinan
kind
king
kingdom
kings
kingsale
kingston
kinshasa
kinsler
kiosko
kiper
kirche
kirguistan
kiriat
kiribati
kirindongo
kisas
kiss
kit
kita
kitamentu
kitando
kitara
kitarista
kitlv
kitts
kitty
kizzy
kla
klaar
klaas
klagenfurt
klaim
klamor
klank
klapchi
klaramente
klarifika
klarine
klarinet
klaro
klas
klase
klasifika
klasifikashon
klasiko
klasnan
klassieke
klave
kleenex
klei
klein
klenku
kleo
klero
kleuter
kleuterschool
kliente
klientenan
klima
klimanan
klimatiko
klinkers
klip
klm
klub
kluivert
klup
klupnan
km
knecht
knesset
knez
knika
knikanan
kniko
knip
knipscheer
knipselkrant
know
knowles
ko
koalishon
koba
kobra
kobransa
kock
kodifikashon
kodigo
kodo
koeiman
koffie
kofi
kofundado
koh
kohe
koherensia
kohete
koko
koku
kola
kolaborado
kolaborashon
kolaborativo
kolapsa
kolebra
kolega
kolegio
kolekshon
kolekshona
kolekshonista
kolekshonnan
kolekta
kolektivo
kolo
kologa
kolombiano
kolonia
kolonial
koloniale
kolonialismo
kolonialista
kolonialistanan
kolonianan
kolonisa
kolonisado
kolonisashon
kolonistanan
kolor
kolorido
kolumina
kolumnista
komandante
komandantenan
komanditario
komando
komandu
kombati
kombe
kombeni
kombersa
kombina
kombinashon
kome
komedia
komediante
komendador
komentario
komershante
komershantenan
komersial
komersiante
komersiantenan
komersio
komestibel
kometa
komete
komi
komienso
komisario
komisarionan
komishon
komishonnan
komite
kommando
komo
komodidat
komores
kompa
kompakto
kompan
kompani
kompania
kompanianan
kompara
komparabel
komparashon
komparti
kompensashon
kompetensia
kompetensianan
kompeti
kompetitivo
kompila
kompilashon
kompiuter
kompleho
kompleta
kompletamente
kompleto
kompletu
komplika
komplikashon
komplikashonnan
kompone
komponente
komponentenan
komportashon
komposishon
komposishonnan
komposita
kompositor
kompositora
kompositornan
kompra
komprende
komprenshon
komprimi
komprobante
komproe
kompromiso
kompronde
komt
komu
komun
komunidat
komunidatnan
komunika
komunikashon
komunikashonnan
komunista
komunitario
komunmente
kon
kondekora
kondekorashon
kondena
kondensa
kondishon
kondishonal
kondishonnan
kondukta
kondusi
konekshon
konekshonnan
konekta
konfedera
konfederadonan
konfederashon
konferensha
konferensia
konfia
konfiabel
konfiabilidat
konfiansa
konfirma
konflikto
konfliktonan
konforme
konfronta
konfundi
kong
kongo
kongoles
kongregashon
kongreso
konhunto
koning
koningin
koningskinderen
koninklijk
koninklijke
koninkrijk
koninkrijksdag
koninkrijksrelaties
konkista
konkistado
konklui
konklushon
konkretisa
konkreto
konkubina
konkurso
konmemora
konmemorashon
konmemorativo
kono
konos
konose
konosedo
konosemento
konosementu
konosi
konosido
konosiendo
konosimentu
konsede
konseha
konsehal
konsehero
konseho
konsekuensia
konsekuentemente
konsekutivo
konsenshi
konsenti
konsentra
konsentrahson
konsentrashon
konsepto
konseptonan
konserni
konserva
konservado
konservativo
konservatorio
konseshon
konsidera
konsiderabel
konsiderablemente
konsiderando
konsiensia
konsiente
konsientisado
konsientisashon
konsierto
konsiertonan
konsisti
konsistiendo
konsola
konsolida
konsonante
konsonantenan
konstante
konstantemente
konstata
konstelashon
konstesta
konstitui
konstitusho
konstitushon
konstitushonal
konstitushonalmente
konstituyente
konstrui
konstrukshon
konstruktivo
konsul
konsulta
konsultativo
konsultivo
konsumido
konsumo
kont
konta
kontabel
kontabilidat
kontado
kontagio
kontagioso
kontainer
kontakto
kontamentu
kontami
kontamina
konteksto
kontempora
kontene
kontenido
konteniendo
kontentu
konteo
kontest
kontesta
kontinental
kontinente
kontinentenan
kontinua
kontinuamente
kontinuando
kontinuashon
kontinuidat
kontinuo
kontinuoso
kontr
kontra
kontrabanda
kontradishon
kontrakshon
kontrakt
kontrakto
kontrali
kontrario
kontrasta
kontrat
kontrata
kontratista
kontratistanan
kontrato
kontribui
kontribushon
kontro
kontrol
kontrola
kontroversial
konvenshon
konvenshonal
konvergensia
konvershon
konverti
konvertiendo
konvirgi
konvivensia
konvoi
kony
koolman
koopera
kooperashon
koordina
kopa
kopenhagen
koper
koperashon
koperativa
kopero
koperonan
kopia
kor
kora
koraal
koral
korant
korda
kordon
kore
korea
korean
koreano
koredo
koredor
korekto
koresponde
korespondiente
koriendo
koriente
korienten
korientenan
korista
koro
korobates
korona
koronashon
korsou
korsow
kort
korta
kortamentu
korte
kortiko
kortiku
korto
korumpi
korupshon
kos
kose
kosecha
kosedo
kosmo
kosnan
kosovo
kosta
kostal
kostanan
kosto
kostonan
kou
kourtney
kousa
kousando
kousativo
kouwe
kova
kovac
koyari
kozakken
kraantje
krabbe
krakatau
krakatou
krako
kralendijk
kranten
krantenarchief
krater
kre
krea
kreado
kreador
kreando
kreashon
kreate
kreativo
kredibilidat
kreensia
kreensianan
kreise
kreit
krese
kresementu
kresiendo
kresiente
kreyente
kreyo
kri
kria
kriado
krianan
kriegsmarine
krijgt
krimea
krimen
kriminal
kriminalidat
krioyo
kris
krisis
kristal
kristalisa
kristian
kristianismo
kristiannan
kristo
kristu
kriteria
kriterio
kriterionan
kritika
kriyoyo
kro
kroata
kroatia
kroon
kross
krudo
kruis
krus
krusa
krusada
krusando
krusero
krusial
krusifikashon
ks
ksamen
ksdo
kseo
ksiko
ksimo
ksisti
ksito
kstra
kt
ktar
ktd
kter
kternan
ktika
ktikamente
ktiko
ktima
kto
ktober
ktor
ktriko
ku
kua
kuadra
kuadrado
kuadrat
kuadro
kual
kuala
kualifika
kualifikashon
kualke
kualkier
kualnan
kuando
kuandu
kuantifikashon
kuantu
kuarent
kuarenta
kuarteto
kuarto
kuater
kubano
kubri
kubriendo
kuchara
kuchu
kudawecha
kue
kueba
kuebanan
kuenta
kuentanan
kuerpo
kueru
kuerunan
kuestion
kuhn
kuhr
kuida
kuido
kuidou
kuiperi
kujalleq
kula
kulmina
kulo
kulonan
kulpa
kulpabel
kult
kultiva
kulto
kultonan
kultura
kultural
kulturanan
kuminda
kuminsa
kuminsamentu
kuminsando
kumisa
kumpli
kumplimentu
kumpra
kumpramentu
kun
kune
kunnen
kunst
kunstzinnige
kunukero
kunukeronan
kunuku
kunukunan
kura
kurasolen
kurason
kurator
kuri
kuro
kurpa
kurpanan
kurso
kursonan
kus
kushina
kustumber
kustumbernan
kuwait
kvariigro
kvk
kvp
kwartier
kwater
kwik
kyiv
kyle
kınay
l
la
laar
laat
laatste
laba
laban
label
labor
labora
laboral
laboratorio
labour
labra
laccolithsonan
lachen
lacle
laden
ladies
ladino
lady
laft
lag
laga
lagabo
lagami
lagando
lage
lager
lagnan
lago
lagoen
lagonan
lagos
lagu
lagun
laguna
lagunillas
lahai
lai
laika
laiko
laira
lait
lake
lalla
lama
laman
lamanan
lamannan
lamar
lambayeque
lamchi
lamchinan
lamek
lampe
lamu
lana
land
landa
landado
landamento
landamentu
landen
landhuis
landia
landraden
landsbesluit
landsradio
landsradiodienst
landsverordening
lang
lange
langs
language
lanka
lannoy
lansa
lansamento
lansamentu
lant
lanta
lantamento
lantamentu
lantando
lante
lanthu
laos
lapso
laptop
lara
laraha
largo
largu
largura
larkspur
larmonie
las
laser
laso
lasonan
lasso
last
lastra
lastu
lat
laten
latex
latin
latina
latino
latinoame
latinoamerikano
latitut
latour
lauffer
laura
laurens
laurie
lava
lavrov
law
lawrence
laws
lawson
lazio
lbu
lbum
lda
ldu
le
lea
lead
leader
leaf
league
leandro
lease
lebacs
lebre
lech
lechi
lee
leeds
leendert
leeszaal
leeuwarder
leeuwen
leeuwenhoek
left
legal
legalisa
legalisacion
legalmente
legendario
leger
legioen
legion
legionar
legislacion
legislado
legislashon
legislativo
legislatura
lei
leiden
leinan
leipzig
leito
leksikal
leland
lele
lema
lenga
lenganan
lenguahe
lenin
lening
lenk
lennon
lenny
lente
lenz
leo
leon
leonardo
leone
leones
leonora
leontiev
ler
les
lesa
lesamento
leshon
leshona
lesnan
lesotho
let
leta
letnji
letonia
letra
letranan
letter
letteren
letterlijk
letters
leu
leve
leven
levi
levy
lewis
ley
leyenda
leynan
lezen
lf
lfabe
lga
lgaro
lgika
lgistanan
lgo
lguista
li
lia
liar
libanes
libano
liber
libera
liberacion
liberal
liberashon
liberation
liberia
libertad
libertador
libertat
liberty
libia
libidibia
libo
libra
library
libremente
libreria
lica
lichaam
lichamelijke
lico
lid
lide
lider
lidera
liderazgo
lidernan
lido
lidotel
liechtenstein
liemarvin
life
liga
liganan
light
lighthouse
liguria
lihe
like
likido
liko
liku
lil
lila
liliana
lily
lim
lima
limburg
limita
limitacion
limite
limited
limitenan
limo
limonada
limpi
limpia
limpiesa
lin
lincoln
linda
line
linea
linegrey
lines
lingu
lingua
linguista
linguistica
linguistico
lingwi
lingwista
lingwistanan
lingwistiko
link
linknan
links
lino
linz
lio
lionel
lip
lippe
liqueur
liquides
lis
lisabeth
lisboa
lisensia
lisensiatura
lisis
list
lista
listanan
listen
lit
lite
liter
literalmente
literario
literatura
literatuur
lithifika
lithium
lithosfer
litnan
little
lituania
lituano
live
liverpool
lives
livorno
liz
liza
lizanne
ljubljana
ll
llate
ller
lloyd
llws
lm
lnan
lo
loaiza
lobo
local
localidadnan
localisa
localizacio
localmente
location
lockdown
loco
locual
locutor
lodewijk
lodewijks
lodo
lodz
logica
logico
logistico
logo
logonan
logos
logra
logrando
logro
logronan
lokal
lokalisa
lokalisashon
lokashon
lokashonan
loke
loko
lokual
lomba
lombardia
lombardo
lonc
london
londra
londres
lonely
long
longaniza
longitud
loonstra
loopt
loos
lope
lopez
lora
lord
los
losa
lost
lot
lotan
lote
lotto
lou
louis
louisa
louise
louisiana
lourdes
louvain
love
lower
lowrise
loyal
lp
lra
lt
lta
ltimo
ltiple
ltnan
ltu
lu
luanda
lubida
lublin
luc
lucas
lucha
luchado
luchador
luchanan
luchando
luchtvaart
lucia
luciano
lucie
lucien
lucila
lucille
lucina
lucio
lucy
ludwig
luega
lufthansa
luga
luganan
lugar
lugarnan
luho
luhoso
luhuso
lui
luigi
luis
luiz
lukas
lukashenko
lukrativo
lula
lumpur
luna
lunanan
luois
lus
lusaka
lusi
lusnan
lusso
luther
luxembourg
luxemburg
luxemburges
luxor
luz
lviv
lyceum
lydia
lyndon
lynn
m
ma
maand
maandag
maar
maart
maarten
maas
maatschappij
maatschappijleer
mac
macaco
macau
macedonia
machado
machu
mack
macos
macron
macuarima
madagascar
madame
made
madeleine
madian
madiki
madonna
madre
madrid
madruga
maduro
mae
maestra
maestria
maestro
maestronan
mag
magali
magazin
magazine
magdalena
maghreb
magia
magic
magie
magma
magmatiko
magnesium
magnetico
magnitut
magno
mago
magonan
maha
mahalaleel
mahestuoso
mahos
mai
mail
main
maine
mainmenu
mainshi
mainta
maishi
major
makaku
makamba
make
makpela
maksimo
makutu
mal
mala
malasia
malawi
malayo
malaysia
malbado
maldat
maldishon
maldishona
maldivas
male
malesa
malesanan
malgrat
mali
malibu
malkontentu
mall
malmok
malo
malpensa
malta
maltrato
malu
malvina
mama
mamanan
mambo
mami
mamie
mamifero
mamre
man
management
manager
managua
manase
manaus
mancha
manchester
mancomunidad
mand
manda
mandabo
mandalay
mandamentu
mandami
mandarin
mandatario
mandato
mandela
mando
mandra
mane
maneha
maneho
manera
manga
mangasina
mangel
manglo
mango
mangusa
manhattan
manifesta
manifestacion
manifestantenan
manifestashon
manifesto
manifiesto
manila
manise
manitoba
mankomunidat
mannan
mannoia
mano
mansell
mansur
mantel
mantencion
mantene
manteni
manteniendo
mantenshon
manual
manuel
manuscrito
many
map
mapa
mapanan
maplandia
maple
maputo
mar
mara
maracaibo
maraka
marc
marca
marcas
marcel
march
marcha
marchena
marcial
marcio
marco
marcos
marduga
maremoto
marfil
marga
margaret
margaretha
margarita
margen
margriet
mari
maria
mariachi
mariana
mariaschool
maribomba
marie
marigot
marimba
marin
marina
marine
marinekazerne
marinero
marinier
marinierskazerne
marino
mario
marisol
maristella
maritimo
maritza
mark
marka
marker
market
markt
markus
marley
marlies
marlin
marlon
marmer
maroko
marquand
mars
marseille
marshall
marshe
marsial
mart
marta
marten
martha
marti
martin
martina
martinez
martinique
martinus
martis
marugg
mary
maryland
mas
masa
masacre
masahiro
masal
mascaruba
mascom
masculino
masha
mashin
masivo
maskarada
maske
maskot
maskulino
masnoticia
masomenos
mason
massa
massachusetts
massara
master
masters
mat
mata
matami
matanan
matando
matansa
matema
matematica
mateo
materia
material
materialnan
materianan
maternidat
materno
matheeuws
mathew
matrimonial
matrimonio
matris
matter
matthew
matusalen
matutino
mau
mauer
mauretania
maurice
mauricio
mauricius
mauritania
maurits
mavo
max
maximalmente
maximiliano
maximo
may
mayflower
mayo
mayor
mayordomo
mayori
mayoria
mayoritario
mayornan
mayra
maywood
maz
mazon
mazurek
mazurka
mbar
mbe
mber
mbernan
mbersa
mbito
mbo
mbolo
mbolos
mbos
mc
mcb
mccartney
mccoubrey
mclaurin
md
me
mean
meaning
measures
mecklenburg
med
medal
medaya
medayista
medelli
medellin
medemblik
media
mediano
mediante
medicacion
medical
medicamento
medicina
medicinal
medicine
medico
medida
medidanan
medieval
mediko
medina
medio
medionan
medisina
meditera
mediteranio
mediterranean
mee
meer
meester
megapier
mehikano
mehora
mehorashon
mehuyael
mei
meimei
meir
meka
mekka
melbourne
melfor
melilla
melinda
melissa
melocactus
melodia
melodianan
melody
meloni
membrano
memey
memoria
memory
memphis
men
menasa
menciona
mendes
mene
menera
mengua
meno
menonan
menor
menos
mens
mensahe
mensaheronan
mensen
menshon
menshona
mensual
menta
mental
mentalidat
mente
mentu
menudo
mep
mer
meramente
merca
mercado
mercancia
mercator
mercera
mercury
merdia
merece
merengue
merese
mericano
mericanonan
meridian
merikano
merikanonan
merito
meritorio
merka
merkadeo
merkado
merkano
merkansia
merkel
merle
merlin
merly
meros
merryweather
mes
mesa
mesarondo
mescla
mescos
meskla
meskos
mesopotamia
mesora
messias
meste
mester
mestizo
mestizonan
mesun
met
meta
metabolismo
metal
metalnan
metamorfosa
metanan
meteorolo
meteorologia
meter
methodist
metodista
metodo
metodologia
metro
metrologia
metropolitano
metusael
meu
meulenhoff
meulens
mexicano
mexico
mey
meymey
mez
mfk
mg
mgr
mi
mia
miami
mica
michael
micheal
michel
michelangelo
michelena
michelle
michiel
michigan
microsoft
middelbaar
middle
midi
midimentu
mie
miedo
miedu
miembresia
miembro
miembronan
mientras
mientrastanto
mientrastantu
miep
mighty
migra
migrante
migrashon
miguel
miho
mihor
mij
mijn
mika
mikamente
mike
mikel
mikhail
miko
mikro
mikronesia
mikroorganismo
mikroskop
miksto
mil
milager
milan
milano
mile
milenio
miles
mileueffectrapportage
milieu
miligram
milita
militante
militar
militarnan
military
milk
milka
miller
millerson
million
milliyet
milly
milnan
milon
milton
milwaukee
mimi
min
mina
minanan
minas
mine
minecraft
mineral
mineralnan
ming
minh
mini
miniatura
minimal
minimo
minister
ministerial
ministerie
ministerio
ministerionan
ministernan
ministers
ministro
ministronan
minkisi
minnesota
minniti
minor
minoria
minoridat
minoritario
minsk
minu
minut
minuut
mio
mion
miones
mir
mira
mirada
miranan
miranda
mirando
mirna
mirra
mirto
misa
misanan
miseria
miseriko
misha
mishi
mishon
mishonario
misil
misilnan
mision
misionario
miss
mississippi
missouri
misterio
misterionan
mit
mita
mitar
mitchell
mito
mitochondria
mitologia
mix
mixes
mixtape
miya
miyon
miyones
miza
mizraim
mlb
mm
mnan
mo
moab
mobil
mobilisa
moche
mocion
moda
mode
model
modela
modelo
modelonan
modena
modera
modernisa
moderno
modernu
modifika
modo
modula
moeras
moet
mogen
mogu
mohamed
mohammed
mohawk
moi
moises
moje
moko
mol
molda
moldavia
moleku
molekular
molester
moli
molina
molinanan
molise
momento
momentu
momentunan
momo
mon
monaco
monarca
monarka
monarkia
monarkianan
mondi
mondinan
moneda
monedanan
monetario
money
mongoles
mongolia
mongui
monica
monique
monitoria
monkey
mono
monopolio
monotei
monoteismo
monroe
monsieur
monster
mont
montamentoe
montamentu
montan
montana
montante
monte
montecristi
monteleone
montenegro
montevide
monti
monton
montre
montreal
montserrat
monument
monumental
monumento
monumentonan
monumentu
monza
moral
morales
morde
more
mores
morgen
mork
mormon
morne
morning
morocho
morris
morrison
mort
mortal
morto
mortonan
mosa
mosaico
mosaiko
mosaikonan
moscow
moses
moshon
moske
moskee
moskou
mosku
moslim
most
motibo
motibonan
motibu
motibunan
motivashon
motivo
motivonan
moto
motor
mottley
motto
moulay
mount
mountain
mountains
mountiansnan
move
movecion
movement
movemento
movementu
movementunan
moveshon
movibel
moviendo
movimento
movimiento
mozambique
mozarabe
mp
mpa
mpb
mpel
mpelnan
mper
mpico
mpiko
mpiuter
mpo
mr
ms
mtenar
mu
muay
muaythai
mubarak
mucha
muchanan
mucho
muchu
muda
mueang
muestra
mughal
muha
muhe
muhenan
muher
mula
muller
mulo
multa
multi
multideportivo
multidisiplinario
multifunshonal
multikultural
multilingual
multilingualismo
multimedia
multimediarec
multinashonal
multipartidista
multiple
multiplika
multiselular
multitut
mundano
mundial
mundialmente
mundo
mundu
munich
municipal
municipalidad
municipalities
municipio
municipionan
munisipal
munisipio
munisipionan
muntbiljet
mural
muralista
muraya
murayanan
muri
muros
muscat
museo
museonan
museum
musi
music
musica
musical
musico
musiconan
musik
musika
musikal
musikante
musikantenan
musiko
musikonan
muskita
mussolini
mustafa
mustang
mustr
mustra
mustrabo
musulma
mutual
mutuo
muurschildering
muyale
muzic
muziek
muzik
mw
mx
my
myanmar
myra
myself
n
na
naam
naar
naars
nabaha
nabega
nabegashon
nace
nacemento
nach
naci
nacimento
nacimiento
nacion
nacional
nacionales
nacionalidad
naciones
nacionnan
nada
nadam
naf
nagasaki
nagoya
nahat
nahuatl
nai
nairobi
naked
nakor
name
named
namibia
namora
namur
nan
nana
nancho
nancy
nanishi
nanning
nano
nanse
nansementu
nantes
nanzi
napoleano
napoleon
napoli
napolitano
narita
nas
nasa
nase
nasementu
nashon
nashonal
nashonalidat
nashonalismo
nashonan
nashonnan
nasi
nassau
nasser
natal
natalee
natalisio
natas
natasha
nation
nationaal
national
nationale
nationalidat
nations
native
nativo
nativonan
nato
natura
natural
naturalesa
naturalis
naturalisa
naturalista
naturalmente
nature
natuur
natuurbeschermingsverordening
natuurkunde
natuurwetenschappen
naughty
nauru
nauticae
nautiko
naval
navb
nave
navenan
navu
navy
nazaret
nazca
nazi
naƒ
nchen
ncipe
ncov
nd
ndabou
ndariba
nde
nder
nderstant
ndez
ndise
ndole
ndu
ndum
ne
nea
neamente
nebaiot
nebraska
nec
necesario
necesidad
nechi
nederduits
nederfrankisch
nederland
nederlanden
nederlands
nederlandse
nedersaksisch
nedostajes
need
negacion
negativ
negativo
nege
negerin
neglisha
negociacion
negosashon
negosha
negoshante
negoshi
negoshinan
negosiante
negra
nehru
neil
neishi
nek
nel
nelson
nem
neme
nemilo
nenga
nengami
neo
neon
nepal
nero
nervio
nervioso
nes
nesesario
nesesidat
nesesidatnan
nesis
net
netamente
netanyahu
netherlands
netwerk
network
neucha
neutral
neutronnan
nevada
nevado
neverland
nevis
new
newark
news
newton
next
nfasis
ng
ngaro
ngulo
nh
nha
nhat
nhon
ni
nia
nicaragua
nicasio
niccolo
nice
nicht
nickelson
nico
nicola
nicolaas
nicolai
nicolas
nicolaus
nicole
nicosia
nides
nie
niederlande
niedero
niedersachsen
nielsen
nienke
niet
nieta
nietanan
nieto
niets
nietu
nietunan
nieuw
nieuwe
nieuwpoort
nieuws
nieves
niew
niewindt
nifica
nificacion
nifika
nifikando
nifikashon
nifo
nigel
niger
nigeria
night
nightclub
nightclubs
nightingale
nije
nijmegen
nika
nikamente
nikiboko
niko
nilda
nilo
nimo
nimro
nin
nina
nindo
ningun
nino
nio
nippon
nir
nis
nita
nito
nitro
nitz
niun
nive
nivel
nivelnan
nivra
nixon
nko
nkulo
nl
nnan
no
nobel
nobent
nobenta
nobentipiku
noble
noblesa
nobo
nochi
nodi
nodo
noe
noeditsection
noel
noemi
noir
nok
noka
noma
nomber
nombernan
nombr
nombra
nombramento
nombramentu
nome
nomina
nominacion
nominado
nominashon
nominativo
nomo
non
nooit
noord
noort
noot
nora
nord
nordfrankreich
nordico
nordiko
nordrhein
norfolk
noris
norma
normal
normalmente
norman
normanan
normandia
nort
norte
norteame
norteste
north
northern
nortost
nortwest
noruega
noruego
norwegen
nos
noshon
noster
nostre
not
nota
notabel
notabelmente
notanan
notario
notashon
note
notes
noticia
noticiacla
noticiero
notifica
notisia
notisianan
notre
nottingham
nouel
noufraga
nous
nov
nova
nove
novel
novela
november
novial
novo
novosibirsk
novosti
now
noza
np
nr
nrc
ns
nsiko
nsula
nt
nte
ntegro
nteinan
nteinnan
ntes
ntesis
ntiko
ntimeter
ntimo
ntnan
nto
ntoma
ntomanan
ntr
ntrakt
ntras
ntrica
ntro
ntrol
nu
nubia
nubian
nubianan
nuclear
nucleo
nuebe
nuera
nueva
nughedu
nuklear
nukleo
nulvi
numa
number
numbernan
numeral
numero
numeroso
nummer
nunavut
nunca
nunka
nuoro
nursultan
nutriente
nutrishon
nuuk
nv
nydia
o
oa
oaci
oakland
ob
obama
obedese
obelisko
oberva
obhetivo
obheto
obhetonan
obispado
obispo
obispu
objectivonan
objetivo
oblast
obliga
obligashonnan
obligatorio
obra
obranan
obreril
obrero
obreronan
observa
observacion
observado
observadonan
observashonnan
obstakulo
obtene
obteniendo
obvio
ocacion
ocasion
occidental
occitano
ocean
oceaniko
oceano
oceanografia
oceanonan
och
ochenta
ocho
oclc
octavo
october
ocupa
ocupacion
oda
ode
odesur
odi
odia
odio
odocoileus
odor
oduber
oeste
oezbekistan
of
ofensa
ofensivo
ofer
oferta
off
office
official
officie
officier
offisina
offringa
offset
offshore
oficial
oficialisa
oficialmente
oficina
ofishal
ofishi
ofisial
ofisialmente
ofisialnan
ofisina
ofisinanan
ofrece
ofrenda
ofres
ofrese
ogenia
ogg
oh
ohala
ohio
ohochi
ohochinan
ohrid
oil
ois
ojeda
ok
okashon
okashona
okashonalmente
okashonnan
oklahoma
oksi
oksidental
oksidente
oksigeno
oktober
okupa
okupando
okupashon
okuri
ol
ola
olanan
olb
olbia
old
oleander
oleifi
olga
olha
oli
olifanti
olimpiada
olimpico
olimpiko
olive
oliver
olivier
oloshi
oloshinan
olympedia
olympic
olympico
olympisch
om
oman
omar
omes
omikron
omni
omo
ompi
omroep
on
ona
onan
onann
onder
onderbouw
onderhorigheden
onderwijs
one
onesto
ongeveer
onima
online
only
ono
ons
ontario
ontvanger
ontwerp
ontwikkeling
onu
ooit
ook
oops
oorzaak
oost
oosterhout
oostindie
oostindische
op
opa
opcion
open
openbaar
openbare
openen
opera
operacion
operado
operador
operando
operashon
operashonal
operations
operativo
ophetivo
opheto
ophetonan
opi
opinion
opole
oponente
oportunidad
oportunidat
oposicion
oposishon
oppenheim
oppresa
oppresiva
oprah
opreshon
opserva
opservado
opservashon
opshon
opstand
opstante
opta
optene
optico
optimalmente
option
opvoeding
or
ora
oral
oralmente
oran
oranan
orange
oranje
oranjestad
orario
orashon
orbital
orchestra
orchila
orden
ordena
ordenansa
ordenansanan
ordo
ore
orea
oregon
orei
org
orgaan
organelnan
organik
organisa
organisacion
organisacionnan
organisado
organisador
organisashon
organisashonan
organisashonnan
organisation
organismo
organismonan
organizacio
organization
organo
organonan
orgel
orguyo
orguyoso
ori
oria
oriental
orientashon
oriente
origen
origin
origina
original
originalmente
orioles
orita
orka
orkaan
orkan
orkannan
orkesta
orkestra
orlando
orleans
orman
ornament
ornan
ornelio
ornementashon
oro
oropa
oropeano
oropeo
oropeonan
ortega
ortodokso
ortogra
ortografia
ortografico
orville
ory
os
osaka
osama
osasco
oscar
oschiri
ose
osea
osean
oseania
oseaniko
oseano
oseatiko
osepa
osilo
oskar
oslo
osmanlı
osmi
oso
ossi
ost
ostrog
ota
other
oti
otis
otmar
otomano
otorga
otra
otro
otrobanda
otronan
ottawa
otto
ouagadougou
oud
oude
oudezijds
oudio
ouditoria
ougu
ougustus
ouksiliar
oumenta
oumento
ounke
our
ousente
oustria
out
oute
outentisidat
outo
outoma
outonomia
outonomo
outor
outoridat
outoridatnan
outorisa
outornan
outrageous
over
overal
overeenkomst
overheid
overlap
overleden
overprotected
overval
overzee
ovi
own
oxford
oxigeno
oy
ozieri
ozon
ozzie
p
pa
paardenbaai
pabao
pablo
pabou
pac
pace
pacheco
pacific
pacifico
pacto
padan
paden
pader
padre
padria
padu
padua
pafo
pafor
pag
paga
pagado
pagano
page
pages
pagina
pago
pagonan
pai
paintball
pais
paisahe
paisnan
pakete
paketenan
pakiko
pakistan
pakto
pakus
pal
palabra
palabranan
palabrua
palacio
palau
palazzo
paleis
palermo
palestina
palestino
palm
palma
palmeiras
palo
palomba
palombanan
palu
palunan
pan
panadero
panaderonan
panama
panamericano
panamerikano
pancho
pandemia
pandemic
pannan
pano
panorama
panoramiko
panoramio
panort
pantaya
panteismo
pantera
pantone
paolo
pap
papa
papel
paper
papia
papiado
papiadonan
papiamentista
papiamento
papiaments
papiamentu
papilon
papito
pappie
papua
papyrus
par
para
parada
paradanan
parade
paradera
paradero
paradise
paradisefm
paraguai
paraguana
paraguay
paralel
paralimpico
paramaribo
paramore
paran
parana
paranan
parce
parcial
parece
pareha
parera
parese
paresi
paresido
pareu
parha
parhanan
pari
pariba
paricuti
paris
parish
paristech
park
parke
parkenan
parker
parlamentario
parlamento
parlamentonan
parlatores
parlement
parme
parmenides
paro
parokia
parool
parque
parra
parse
parsialmente
part
parte
partera
parti
particion
participa
participacion
participando
participante
participantenan
particular
particularmente
partido
partidonan
partiendo
parties
partij
partikulanan
partikular
partikularmente
partinan
partio
partisipa
partisipante
partisipantenan
partisipashon
partisipio
partner
partnernan
parto
party
pas
pasa
pasado
pasahe
pasahero
pasaheronan
pasaje
pasando
pasashi
pasat
pasco
pasea
pasenshi
pashe
pashent
pasi
pasifeko
pasifiko
pasion
pasivo
paskel
pasku
paso
pasobra
pasombra
pasonan
pass
passage
passen
passiflora
passim
past
pastoor
pastor
pastoria
pasu
pasuit
patent
pater
path
patio
patras
patria
patrick
patrimonio
patriotic
patriotico
patriotiko
patrisionan
patron
patronchi
patronisado
pattada
patu
paul
paula
pauletta
paulina
paulo
pauls
paulus
paviljoen
paz
pazuid
pc
pdb
pdf
pdr
pdvsa
pe
peace
pearl
peas
peaton
pechtold
pechu
pedagogico
pedro
pega
peirce
peka
pekelmeer
peking
pekuliar
pela
pele
peleg
peli
pelicula
peliculanan
peliger
peligernan
peligroso
pelikula
pelikulanan
pelle
pelotero
peloteronan
pelukeria
pen
pena
penal
pendiente
penetra
penh
peni
peninsula
pennsylvania
pensa
pensamento
pensamentu
pensando
penshon
pension
penso
pentagon
penteko
penu
people
pepe
pepsi
per
percibi
percura
percusion
percy
perde
perdi
perdida
peregrinashon
pereira
pereke
perese
perez
perfect
perfekto
performance
perio
period
periodikamente
periodismo
periodista
periodo
periodonan
perlman
permanece
permanente
permanese
permiso
permit
permiti
permitie
permitiendo
pero
pers
persa
persekushon
persentahe
persia
persigui
persipitashon
persistente
persisti
perso
persona
personahe
personahenan
personal
personalia
personalidat
personalmente
personanan
perspectiva
perspectives
perspektiva
persson
pertenece
pertenese
peru
peruano
perucho
perugia
pesar
pesca
pesei
peska
peso
pete
peter
peters
petersburg
peterson
peticion
peticionnan
petishon
petro
petrocchi
petroleo
petrolero
petroleum
petroli
petrolio
petronia
petrus
pez
pfalz
pfizer
pfp
pgp
ph
philadelphia
philip
philippe
philippine
philips
philipsburg
phillips
philly
philosophy
phnom
phone
phong
photo
photos
php
phu
physis
pi
pia
pianan
pianista
piano
piar
piazza
pib
pic
picher
pickup
picture
picuda
pida
pidanan
pidgin
pidi
pidiendo
pidimi
pido
piece
piedat
piedra
piedranan
piedras
piemonte
piemontes
pier
piercing
pieri
pierre
piesa
piesanan
piet
pieter
pietermaai
pieters
pietersz
pik
pika
piki
piko
pikonan
pila
pilar
pilato
pilatos
pilatus
pile
pilium
piloto
pilotonan
pim
pin
pinda
pinedo
pingpong
pininfarina
pint
pinta
pintamento
pintamentu
pintando
pinto
pintor
pintura
pinturanan
pio
pionero
pioneronan
pipa
pipita
piramit
pirata
piratanan
pisa
pisas
pisca
piscado
piscina
pisina
piska
piskamentu
piso
pista
pitcher
pius
pl
pla
plaate
placa
place
placer
plachi
plachinan
placido
plaga
plaisir
plaka
plakat
plama
plamamentu
plan
planeta
planetanan
plania
planifikashon
plankinan
planning
plano
planonan
plant
planta
plantacion
plantage
plantamentu
plantashi
plantashinan
plantashon
plas
plasa
plaser
plasma
plaso
plasterk
plastic
plastiko
plat
plata
plataforma
plate
plateau
platinum
plato
platon
platonan
plattdu
play
playa
playanan
played
player
players
playing
playoff
plaza
ple
please
pleb
plebeyo
plebeyonan
pleiku
pleister
pleita
pleitu
pleitunan
plena
plenario
plenchi
plenipotenciario
plenipotensiario
pleno
plesman
plika
pliny
ploaghe
plu
plug
plugmentu
pluma
plural
plus
plymouth
pm
png
pnp
po
pober
pobernan
pobla
poblacion
poblashon
poblashonnan
pobresa
pochi
poco
pocopoco
poder
podernan
poderoso
podgorica
podio
podise
poe
poelje
poelnan
poema
poemanan
poems
poesi
poesia
poesianan
poeta
poets
poika
point
pois
poka
poker
poko
pokopoko
pol
pola
polaco
polako
polar
poli
police
policial
poliglo
polis
polisia
polisial
polisianan
polisnan
politeismo
politica
political
politico
politiconan
politics
politie
politiek
politieke
politika
politikamente
politiko
politikonan
poll
polo
polonia
polska
polydor
polytechnique
pomerania
pomp
pompei
pompilius
pompstation
pon
ponce
pone
ponebo
ponementu
poni
poniendo
ponson
pont
pontificia
pontjesbrug
pontnan
ponton
pool
pop
popular
popularidad
popularidat
popularisa
popularmente
populashon
population
por
porciento
porco
pordona
porfin
porko
porn
pornografico
porsentahe
porshento
porshon
porshonnan
port
porta
portada
portal
portanan
portero
porto
portofino
portrait
portre
portuario
portugal
portugue
portugues
portuguesnan
pos
posada
posee
posesa
poseshon
poseshonnan
posesivo
posibel
posibelmente
posibilidad
posibilidat
posiblemente
posiblidat
posicion
posishon
posishona
positie
positief
positive
positivo
posle
posnan
pospone
possible
post
postal
posteriormente
postula
pot
potasio
pote
potencia
potencial
potencialmente
potenshal
potensia
potensial
potenza
potifar
potifera
potre
potret
pourier
power
poznan
poznatih
pp
ppa
ppn
ppt
pr
pra
practica
practicamente
practicando
practico
prag
praga
praktika
praktikamente
praktikanan
praktikante
praktikantenan
prato
pre
precaucion
precies
predesesor
predica
predikashi
predominante
predominantemente
predrasude
prefektura
prefera
prefere
preferencia
preferencial
preferensia
preferi
prefiho
pregunta
preguntanan
prehistoria
preis
preisnan
preliminar
premia
premier
premio
premionan
prenchi
prenda
prens
prensa
preokup
preokupa
preokupashon
prepar
prepara
preparacion
preparando
preparashon
preparatorio
preparing
preposicion
preposishon
prepusio
prerogative
prescirbi
presencia
presensia
present
presenta
presentacion
presentacionnan
presentado
presentador
presentashon
presentashonnan
presente
preserva
preservashon
preshon
presidencia
presidenshal
presidensia
presidensial
president
presidente
presidentenan
presidential
presidi
presies
presion
presis
presishon
preskribi
presley
press
presta
prestacion
prestamista
prestamistanan
prestashon
prestatario
prestigioso
preston
presupuesto
pret
pretende
pretty
pretu
preveni
prevenshon
prevention
preventivo
previamente
previo
prezonan
pri
pric
prijs
priki
prikichi
prima
primariamente
primario
prime
primer
primera
primeramente
primi
priminti
primitivo
primo
primoge
primoitura
primordial
primordialmente
prince
princes
princesa
princess
princeton
principal
principalmente
principe
principio
principionan
prins
prinses
prinsesa
prinsipal
prinsipalmente
prinsipe
prinsipio
prinsipionan
prisco
prisma
prison
prisonero
prisoneronan
priva
prix
prize
prizo
prizon
pro
proba
probabelmente
probablemente
probecho
problema
problemanan
procedencia
procedente
procedura
procedures
proces
procesa
proceso
proclama
procopio
proctor
prodaji
produccion
produced
producer
produci
product
production
productions
producto
productonan
productor
products
produkcija
produkshon
produkshonnan
produktividat
produktivo
produkto
produktonan
produktor
produktornan
produser
produsi
produsiendo
prof
profar
profeshon
profeshonal
profeshonalnan
profeshonnan
profesion
profesional
profesor
profesornan
professional
professor
profeta
profetanan
profil
profile
profilnan
profundamente
profundidat
profundisa
profundo
programa
programanan
programashon
progresa
progresista
progresivo
progreso
progress
progressive
prohibi
prohibiendo
prohibishon
proi
proje
project
proklama
proklamando
proklamashon
proktekshon
prokurador
prolonga
prolongacion
prome
promedio
promer
promesa
promete
prominente
promised
promisianan
promocion
promoshon
promotor
promove
promovendus
promovi
promulga
pronomber
pronostika
pronostikado
pronto
pronuncacion
pronuncia
pronunciacion
pronunsia
pronunsiashon
propaga
propaganda
propiedad
propiedat
propiedatnan
propietario
propio
propo
propone
proponi
proporshon
proporshonal
proposicion
proposishon
proposito
proprio
propuesta
propulshon
prosa
prosedente
prosedura
prosesa
prosesamentu
proseso
prosesonan
prospekto
prospera
prosperidat
prospero
prostat
prostitucion
prostitushon
prostituta
prosto
protagonista
proteccion
proteha
protehe
protehi
protekshon
protekta
protest
protesta
protestanan
protestant
protestantismo
protestantnan
proto
protocol
protolenga
protonnan
prototipo
provee
provenc
provence
provensia
proverbio
proverbionan
provinces
provincia
provinsia
provinsial
provinsianan
provishon
provision
provoka
proximo
proyectielen
proyecto
proyectonan
proyekto
proyektonan
prueba
prusia
prusiano
ps
psait
pseud
pseudo
pseudociencia
pseudonimo
psicologo
psoriasis
psuv
pt
pte
pter
ptico
ptiko
ptimo
ptolomeo
ptu
pu
public
publica
publicacion
publicamente
publico
publika
publikamente
publikashon
publikashonnan
publiko
publique
published
publisher
publishers
publishing
publisitario
pudong
pueblo
pueblonan
puente
puerto
pues
puesto
puestonan
puff
pugio
pulmon
pulmonia
pulo
punda
punt
punta
puntanan
puntarenas
punto
puntonan
puntr
puntra
puppy
pura
purba
purbando
purifika
puro
puru
push
pusha
pushamentu
pushi
put
putin
putrajaya
pvda
pwa
pwaworldtour
pwfc
px
pyongyang
pyotr
q
qaeda
qantas
qatar
quale
quartier
quast
que
quebec
quechua
queda
queen
queens
query
questions
qui
quico
quincy
quinta
quita
quito
quo
quoc
r
ra
raad
raama
rabat
rabbit
rabe
rabia
rabiamentu
rabu
race
rach
rachid
racing
racism
racismo
racontas
radhames
radial
radiashon
radije
radikal
radio
radiodifushon
radioemisora
radionovela
radonski
radulphus
rafael
rafina
rafinaderia
rag
rags
ragtime
rail
rails
railsnan
rainbow
rais
raisi
raisnan
raiz
raket
raketnan
raleigh
ralph
rama
ramanan
ramo
ramon
ranch
rancho
rand
randal
randall
randia
randolf
rangers
rango
ranh
ranije
ranka
ranking
rant
rap
rapidamente
rapido
raport
raporta
rapper
rapport
raquel
rard
ras
rasa
rasial
rasismo
rasmijn
rason
rasonan
rastafari
rata
ratifica
ratificacion
ratifika
raton
ratu
rau
raul
rawls
ray
raymond
rayo
rayonan
raz
raza
rbi
rbita
rca
rce
rctv
rd
rda
rdadero
rdat
rde
rden
rdi
rdia
rdida
rdo
rdoba
rdu
re
rea
reaal
reaccion
reagan
reakshon
reakshona
reaktivo
real
realidad
realidat
realisa
realisashon
realismo
reality
realmente
realms
reanan
reap
reapertura
rebecca
rebeka
rebekka
rebelde
rebeldenan
rebeldia
rebelion
rebellion
rebiba
rec
recauda
recepcion
rechasa
rechaso
recherche
recht
rechts
recibi
recien
recife
reckless
recomendacion
reconcentrados
reconoce
reconocemento
reconoci
reconocibel
reconocimento
reconocimiento
reconstruccion
recopilacion
record
recorda
recording
recordings
recordino
records
recorido
recreacion
recreativo
rector
recuerdo
recuerdonan
recupera
recuperacion
recurso
recursonan
red
redacta
redakshon
redaktor
redfield
redmond
reds
reduci
redukshon
redusi
reemplasa
reemplasando
ref
refeneria
refere
reference
referencia
referendum
referensia
referensianan
referer
referi
referiendo
refina
refineria
refinerianan
refleha
reflekta
reflexion
refnan
reforma
reformacion
reformanan
reformashon
reformation
reformula
reforsa
refran
refugiado
refugio
refunjol
regalo
regarda
regel
regeling
regels
regering
reggae
reggie
regia
regimen
regimonan
reginald
regio
region
regional
regionan
regionnan
register
registra
registrashon
registro
registronan
regla
reglamentashon
reglamento
reglamentu
reglanan
regno
regresa
regreso
regula
regulacion
regular
regularmente
rehabilitacion
rehabilitashon
rehobot
rei
reich
reichskommissariat
reina
reinado
reinan
reinders
reino
reinonan
rekeri
rekisito
rekisitonan
rekluta
reko
rekobra
rekohe
rekomenda
rekomendashon
rekomendashonnan
rekompensa
rekonkista
rekonos
rekonose
rekonosementu
rekonosi
rekonosiendo
rekonosimentu
rekonstrui
rekonstrukshon
rekord
rekorda
rekorido
rekouda
rekreashon
rekreativo
rekupera
rekuperashon
rekurso
rekursonan
rekwest
relacion
relaciona
relacionnan
relashon
relashona
relashonan
relashonnan
relata
related
relativamente
relativo
relato
relatonan
relax
relay
released
relevante
relief
religion
religionnan
religions
religioso
relo
remarcabel
remarkabel
remarke
rembog
remedi
remitido
remix
remixes
remo
removiendo
remplasa
remplasando
renaissance
renchi
rende
rene
renkor
rennox
reno
renoba
renobable
renobacion
renombra
renombre
renuncia
reo
reorganisa
repandus
reparashon
reparti
reparticion
repartimento
repartishon
repatria
repchi
repertorio
repobla
report
reporta
reportahe
reportahenan
reportero
reporteronan
representa
representacion
representado
representando
representante
representantenan
representashon
representativo
represhon
reprimi
reprodukshon
reprodusi
repu
republic
republica
republiek
republika
republikanan
republikano
reputacion
reputashon
required
res
resalta
resamentu
rescate
research
reseptor
reserva
reservanan
reserve
reseshon
reseta
residencia
residencial
residensia
residensial
residente
residentenan
residual
resien
resiente
resientemente
resipiente
resistencia
resistensia
resistente
resisti
reskata
reskate
reskoek
resolushon
resolve
resort
resorta
resortando
resource
resources
respaldo
respectivamente
respectivo
respektivamente
respektivo
respet
respeta
respiratorio
responde
respondi
responsabel
responsabilidad
responsabilidat
responsabilidatnan
response
resta
restablese
restante
restauracion
restaurant
restaurante
restaurantnan
restikcionan
resto
restonan
restora
restorant
restoura
restriccion
restrikshon
restringi
restructura
restruktura
restu
restunan
resu
resulta
resultado
resultadonan
resultando
results
resultsidentifier
resumen
resurekshon
ret
retene
retira
retiro
retnan
reto
retrasa
retraso
retrieved
return
reu
reuel
reuni
reunion
reunionan
reunionnan
reuters
revela
reverensia
review
revilla
revisa
revishon
revista
revistanan
reviva
revival
revolucion
revolucionario
revolushon
revolushonario
revolutionario
rey
reyes
reykjavi
reynan
rez
rf
rgano
rgiko
rguensa
rhead
rheinland
rhijn
rhoda
rhode
rhuggenaath
rhyme
rhythm
ri
ria
riad
rib
riba
ric
rica
ricardo
ricas
ricci
richard
richards
richardson
richi
richie
richter
ricibi
ricky
rico
rida
ridder
ridderplaat
ridderstap
ride
rides
rie
riesgo
rif
riga
rigaud
right
rights
rignald
rigoroso
rijksministerraad
rijksmuseum
rijksoverheid
rijn
rijna
rika
rikamente
rikano
rikesa
riko
riku
rima
rin
rina
rincon
rinconero
ring
rio
riool
rios
riot
ripara
ripiti
ris
risibi
rita
ritmico
ritmiko
ritmo
ritmonan
rito
ritonan
ritual
ritus
riu
riunan
rival
rivat
river
rivie
rivm
rj
rk
rkel
rki
rkura
rm
rme
rment
rmino
rmit
rmiti
rmitie
rmr
rms
rmula
rna
rnada
rnam
rnamen
rnan
rne
rno
rnu
rnunan
ro
roa
road
roadmarch
roba
robert
robertico
roberto
robes
robesou
robez
robin
robinhood
robinson
robot
rocco
rock
rocky
roda
rodger
rodolfo
rodriguez
roe
roel
roep
roger
rogers
roi
roinan
rojer
rol
roland
roll
rolling
rolnan
roly
roma
roman
romana
romance
romanche
romani
romania
romaniko
romano
romanonan
romanov
romanticismo
rombley
romeno
romeo
romulo
ron
ronal
ronald
ronaldinho
ronaldo
ronchi
rond
ronde
rondo
rondona
rondu
ronnie
ront
roo
rooi
rooinan
rooms
roosendaal
roosevelt
rooster
rooy
roques
ros
rosa
rosalia
rosario
rose
rosea
roseau
rosenstand
rosie
rospondi
ross
rossa
rossonoemi
roster
rotashon
rotativo
rotterdam
rou
roue
rouge
round
rowland
rowley
roxy
roy
royal
royalfamily
rozendal
rp
rpc
rpi
rprete
rquez
rs
rsa
rsigui
rsiguie
rsio
rsito
rsitonan
rsou
rsssf
rt
rta
rtc
rte
rti
rtika
rtiko
rtiku
rto
rts
rttemberg
ru
ruanda
ruba
ruben
rubiano
ruby
rudia
rudianan
rudolf
rudolph
rudy
rue
rufo
rufus
rui
ruinanan
ruiz
ruman
rumannan
rumano
rumbo
rumshop
run
runner
rupaul
rural
rus
rush
rusia
rusiano
rusland
ruso
russia
rust
ruta
rutanan
rutas
rutgers
ruth
ruthmilda
rutte
ruud
ruyter
rverwaltung
rvio
rwanda
ryan
s
sa
saba
sabana
sabaneta
sabi
sabiduria
sabina
sabionan
sabor
sabotage
sabroso
sac
saca
sacha
sachsen
saco
sacramento
sacred
sacrifice
safe
sagrado
sahara
said
saigon
saint
sainte
saints
sais
saja
sajas
sak
saka
sakamentu
sakami
sakeo
sakha
sakia
saksofon
saku
sakudi
sakunan
sala
salaam
salamanca
salanan
salarial
salario
salas
salba
salbahe
salbashon
sale
saleh
sali
salida
saliendo
salin
salinidat
salle
salo
salomo
salomon
salon
salsa
salt
salta
salu
salubridad
salubridat
salud
saluda
saludo
salvador
salvaguardia
salvo
salzburg
sam
sama
samba
sambil
sambo
sambumbu
sambuya
sambuyamentu
samen
samenscholing
samla
sammy
samoa
samoano
samuel
san
sanashon
sanchez
sanctuario
sanctuary
sandal
sander
sandra
sandwich
sanger
sangura
sano
sanskrit
santa
santana
santeria
santiago
santisimo
santo
santokhi
santos
santu
santuario
santunan
sao
sapate
sapatu
sar
sara
sarah
sarai
sarajevo
sarantonio
saratov
saravah
sardegna
sardegno
sardo
sars
sas
saserdote
saserdotenan
sasha
saskatchewan
sassari
sate
satelite
satelitnan
satellite
satisface
satisfaktorio
satisfecho
saturday
saudi
saudita
saul
savaneta
save
saving
savings
savona
savonet
say
saya
sc
scadta
scala
scandal
scapa
scar
schaduw
schakel
scharbaai
schatje
scheepvaart
scheikunde
schelpstraat
schenkman
scherpenheuvel
schiphol
schleswig
scho
school
schools
schoop
schotte
schottegat
schouten
schreuders
schrijven
schrikkeljaar
schwengle
science
sciences
sciencia
scirbi
scoge
scogi
scohe
scol
scolastica
scolnan
sconde
scondi
score
scorpio
scott
screen
screening
scritura
scucha
scur
sdk
se
sea
sean
search
season
seasonal
seattle
seba
sebastian
seca
seccion
seco
second
secret
secretaria
secretario
secreto
sector
secular
secundario
sed
sedalia
sede
sedimentario
sedimento
see
sefardi
sefari
segmento
segregashon
segu
seguidamente
segun
segunda
segundo
seguridad
seguridat
seguro
sei
sein
seine
seir
seis
seka
seko
sekonde
sekretario
sekreto
seks
sekshon
sekso
seksual
seksualidat
sektor
seku
sekuensia
sekuestra
sekular
sekundario
sekura
sel
sela
selassie
selebr
selebra
selebrashon
selebrashonnan
seleccion
seleccionnan
selecta
selected
selekshon
selekshonnan
selekta
selena
self
selling
selular
selva
selvanan
selwyn
semanal
sembra
seme
semehansa
semehante
semeleer
semerel
semi
semita
semper
sen
senado
senador
senario
senato
senator
senchi
send
sende
senegal
senior
senjor
senk
senkama
senna
sennori
sensacion
sensia
sensio
senso
sentato
sentebibu
sentena
sentencia
sentensia
sentido
sentimento
sentral
sentralisa
sentro
sentroamerikano
sentronan
seol
seoul
separa
separabel
separacion
separashon
sepb
sepera
septe
september
ser
sera
seramentu
serami
seramiko
serbes
serbia
serca
sercha
seremonia
serena
sergio
seri
seriamente
serie
series
serio
serka
serkania
sermersooq
sernan
sero
seroe
seronan
sertifika
sertifikado
sertifikashon
seru
serug
serunan
server
servia
service
services
servicio
servicionan
servio
servisa
servisio
servisionan
sesenta
sesis
session
set
setar
setel
setent
setenta
seu
seven
severing
severo
sevinger
sex
sexologia
sexualidad
seya
seyhan
seyhanmuzik
seyo
sf
sfera
sgt
sh
shabat
shach
shairon
shakespeare
shampoo
shanayah
shanghai
shap
sharlon
shawn
sheet
sheikh
shell
shelo
shelter
shelu
shelunan
shen
shent
shento
shenzhen
sherman
shete
shi
shift
shiita
shinishi
ship
shit
sho
shoco
shon
shonnan
shop
shopping
short
shortstop
shoshori
show
showdown
shownan
shrimp
shua
shul
shur
si
sia
sic
sica
sich
siciliano
sickman
sicologia
sida
siddartha
siddhartha
side
sidim
sidney
sido
sidon
sie
siegu
sieguedat
siem
siempre
siena
siencia
siendo
siensia
sienti
sientifico
sientifiko
sientifikonan
sierra
sierto
siervo
siervonan
siete
sifra
sifranan
sigi
sigiendo
siglo
siglonan
significa
significacion
significante
signifikante
signo
signonan
siguente
sigui
siguidamente
siguidonan
siguiendo
siguiente
siguimi
sigun
sigur
sigura
siguramente
siguransa
siguridad
siguridat
sika
sikal
sikem
siklista
siklo
siko
sikonan
sil
silaba
silensio
silensioso
silesia
siligo
silika
silinder
silmente
silo
silonan
silva
silvanie
silver
silveria
sim
sima
simadan
siman
simbolisa
simbolismo
simboliza
simbolo
simbolonan
simeon
simia
similar
simmons
simo
simon
simpel
simplemente
simplesa
simpson
simultaneamente
sin
sinai
sinar
since
sincronisa
sindicato
sindikal
sindikalismo
sindikalista
sindikato
sindikatonan
sinds
sine
sineasta
sinematografia
sinembargo
sinfonia
singapore
singapura
singer
single
singlenan
singles
sings
singular
sinko
sinku
sinkuenta
sino
sinonimo
sint
sinta
sinterklaas
sintetisa
sinti
sintimentu
sintoma
sintomanan
sion
siprage
sir
sirbi
sirbibo
sirbido
sirbiendo
sirbimi
sirbishi
siri
siria
siriliko
sirio
sirionan
sirius
sirkula
sirkulashon
sirkulo
sirkumsida
sirkumstansianan
siruhano
sis
sisilia
sistema
sistemanan
sister
sisti
sit
sita
site
sitemap
sithoc
sitio
sitionan
sito
sitonan
situa
situacion
situashon
situashonnan
siudad
siudadania
siudadano
siudadanonan
siudadnan
siudat
siudatnan
sivil
sivilashon
sivilisa
sivilisashon
sivilisashonan
siya
sk
ska
skala
skandinavia
skapa
skarlata
skarnir
skars
skateboard
ske
skeda
skelet
skema
sker
skerrit
ski
skibi
skibimentu
skinanan
skirbi
skirbido
skirbimento
skirbimentu
sklabisa
sklabitud
sklabitut
sklama
skohe
skohi
skol
skolnan
skonde
skondi
skopje
skor
skos
skouder
skoutismo
skritura
skrituranan
sks
sku
skuch
skucha
skuchami
skulo
skulonan
skulpi
skultor
skultura
skur
skuridat
sky
skylar
skyline
sla
slag
slagbaai
slalom
slam
slave
slaven
slavernij
slavernijverleden
slavery
slaves
slaviko
slechte
sleep
slem
sling
slogan
sloot
slotverklaring
slovakia
slovenia
sloveno
slugger
sluis
smaak
smak
smal
smallpox
smartphone
smelt
smit
smith
smo
smoa
snan
sneek
sneeuw
sneijder
sneu
snip
sno
snoa
snorkel
so
sobal
soberania
soberano
sobra
sobre
sobrebibi
sobrenatural
sobresali
sobresaliente
sobrevivi
soca
soccer
social
socialista
sociedad
sociedat
society
socio
sodo
sodoma
soestdijk
soeurnan
sofia
sofo
sofonan
softball
software
sohn
sol
solamente
solar
solas
solda
soldat
soldatnan
solicitud
solidaridad
solido
solisita
solista
solo
solomon
solucion
solushon
solushona
somali
somalia
sombra
sombre
somerville
somete
someti
sometimes
son
soneto
sonetonan
song
songwriter
sonia
sonido
sons
soporta
sorano
sorbonne
soria
sorprende
sorprendi
sorpresa
sorry
sorso
sort
sorto
sortonan
soru
sosede
sosega
soshal
sosial
sosialista
sosialmente
sosiedat
sosiedatnan
sosiegu
sosio
sosode
sospecha
sospechoso
sosten
sostene
sostenibel
soto
sou
souax
souchon
soul
sound
source
sous
south
southampton
southern
souvenir
souvenirs
sovie
sovietica
sovietico
sovietika
sovietiko
sox
soy
sp
spa
spaans
spaanse
space
spada
spain
span
spanish
spanta
spar
spatha
spe
spears
specht
special
specialidad
specialisa
specialisacion
specialmente
species
specifica
specifico
spectrum
specula
speculacion
spedes
spekulashon
spel
spelen
spencer
sper
spera
speransa
speserei
speshal
speshalisa
speshalmente
spesi
spesial
spesialisa
spesialista
spesialmente
spesifika
spesifikamente
spesifiko
spezia
spfc
spider
spie
spielberg
spil
spion
spiral
spirito
spiritu
spiritual
spital
splica
splicacion
splika
splikashon
split
spo
spoken
sport
sporting
sports
spreads
spreekt
spreit
sprock
sprockel
spuis
sputnik
square
sr
sra
sranan
sranantongo
sri
srpska
ss
ssc
ssn
sss
st
sta
staal
staatkundige
staatsraad
staatsregeling
staatsreglement
stabil
stabilidat
stabilisa
stable
stablese
stacion
staciona
stad
stadhuis
stadion
stadnan
staf
stage
stakeholder
stal
stalin
stalingrad
stam
stampia
stan
stand
standaard
standaart
standard
standardisa
standart
standartnan
stanford
stanley
stanovich
stapt
star
stars
start
starting
stashon
stashona
stashonnan
staszewski
stat
state
statement
staten
statenlid
statenvoorzitter
states
statia
statie
station
statistics
statistiek
statistik
statius
statnan
status
statuto
statutonan
statuut
statuutdag
ste
stedelijk
stefanelli
stefani
stem
stemmen
sten
step
stepan
stephany
stephen
ster
steril
sterki
sternenzelt
sterreich
steve
steven
stevens
stica
stichting
stico
sticos
sticusa
stijl
stika
stikamente
stikanan
stiko
stilte
stim
stima
stimula
stimulante
stinapa
stipula
stiwa
sto
stoba
stockholm
stof
stoma
stone
stoof
stoomboot
stop
store
storia
storianan
stories
storm
story
straat
straategisch
stradale
straf
stran
stranhero
strate
strategia
straten
stratford
strauss
stre
strea
streanan
street
streng
strepi
strepia
stress
stret
striktamente
stroba
strofe
stroke
stroomzigt
structura
struggle
struktura
struktural
strukturanan
stu
students
studia
studiando
studiante
studiantenan
studie
studies
studio
studionan
studios
stuyvesant
stvar
style
su
sua
suak
suarez
suave
suavisa
sub
subcampeon
subdividi
subdivishon
subgrupo
subi
subida
subkontinente
subrino
subsidio
substitui
subt
sucesor
such
sucu
sudan
sue
suecia
suegro
sueko
suela
suerte
suesia
suez
suffisant
suficiente
sufisiente
sufri
sufriendo
sufrimentu
sugeri
suheto
sui
suicide
suicidio
suidad
suidat
suidatnan
suisa
suisidio
suiso
suit
suitost
suitwest
sukot
suksedor
suku
sul
sulla
suma
sumamente
sumatra
suministra
suministro
summer
sumo
sumpin
sumter
sun
sunak
sunch
sunchi
sung
sunu
suomi
sup
supe
super
superfast
superficie
superfishi
superfisie
superfisio
superior
superkontinente
supermercado
supermerkado
supermerkadonan
supermodel
supernatural
supervisa
supervishon
supervision
supervolkan
supkampeon
supla
suplement
supmarino
supone
supporta
supremo
supreshon
supsidiario
supstansial
supti
suptropikal
supuestamente
supuesto
sur
surame
suramericano
suramerikano
surf
surgi
surgimentu
surinam
suriname
surnam
surnamen
surpasa
surrealistische
survey
survivor
susan
susanna
susanne
suseso
susesonan
susesor
sushi
suspende
suspendi
suspenshon
sussex
sustantivo
sustitucio
suvarnabhumi
suzanne
suzy
sv
svet
svg
swahili
swak
swaziland
sweet
swing
switch
swot
swp
sydney
symbols
syndrome
syracause
system
systema
systems
t
ta
taal
tabat
tabata
tabatatin
tabatin
tabe
tabebuia
tabla
table
tac
tacopina
taekwondo
tafelberg
tahith
tai
taifoen
tailandia
taino
taipei
taiwan
tajikistan
tajikistano
take
taki
takinan
taksonomia
taktika
tal
talbes
talcahuano
tale
talen
talent
talento
talentoso
taliban
talisman
talismannan
talk
talkshow
tallinn
taman
tamar
tambe
tambo
tambu
tampoco
tampoko
tan
tanaka
tanbe
tanda
tanganyika
tango
tankero
tanki
tankinan
tanten
tanto
tantu
tanzania
taoyuan
tapa
tapaboka
tapushi
tapushinan
taranto
tarda
tare
tarea
tareanan
taric
tarifa
tarifanan
tarnovo
tarquino
taryn
tashkent
tasmania
tat
tata
tatanan
tati
tavia
tawata
tawatin
tayer
taylor
tb
tbilisi
tbol
tds
te
team
teamnan
teams
teater
teatral
teatro
teatronan
techniek
technische
technologies
tecnica
tecnico
tecnologia
ted
tee
teen
tegen
teheran
tei
teknika
tekniko
teknolo
teknologia
teknologiko
teksas
teksto
tekstonan
tekto
tektoniko
tel
tela
tele
telearuba
telecommunication
telecomunicacion
telecurac
telecuracao
telefo
telefon
telefoondienst
telegraaf
telegraafdienst
telegraph
telekomunikashon
telelease
telenovela
teleolo
teles
telescop
televisa
televishon
televisie
televisio
television
tem
tema
teman
temanan
tembla
temblamentu
temblor
teme
temor
tempel
tempera
temperatura
tempestat
tempio
templo
tempo
temponan
temporada
temporadanan
temporal
temporalmente
temporariamente
tempran
tempu
tempunan
ten
tende
tendemi
tene
teni
teniendo
tenista
tennessee
tennis
tenshon
tenshonnan
tension
teo
teolo
teori
teoria
teorianan
ter
tera
teracota
teranan
terapia
terasa
tercera
teremoto
terenan
tereno
terenonan
teresa
terestral
terestre
tergu
teritoria
teritorial
teritorio
teritorionan
termiko
termina
terminal
termino
terminologia
terminonan
ternan
terni
teror
terorismo
terorista
terra
terre
terremoto
territories
territorio
territorionan
terser
tersera
tersio
terwijl
tesis
tesorero
tesoro
test
testament
testigo
testigu
testigua
testigunan
testimonio
tests
tevreden
texarkana
texas
text
textbook
texto
teza
th
tha
thai
thailand
thalia
than
that
thatcher
the
theater
theaterencyclopedie
theatre
their
then
theo
theodore
there
thessaly
they
thiel
thing
third
this
tho
thode
thomas
thompson
three
thumb
thumbnail
thuot
thurman
ti
tiahuanaco
tiara
tiber
tica
tico
tidal
tides
tidio
tiempo
tien
tienda
tiera
tiger
tijd
tijdelijk
tijden
tika
tikamente
tiki
tiko
tikonan
til
tilburg
till
tillano
tim
time
times
timna
timnan
timnat
timo
timor
tin
tina
tinku
tinoco
tinu
tio
tip
tipicamente
tipico
tipikamente
tipiko
tipo
tiponan
tir
tira
tirado
tiramentu
tirana
tiro
tirol
tiroteo
tiru
tirzo
tis
titan
titanic
title
tito
titula
titulando
titulo
titulonan
tjin
tjon
tk
tlehe
tm
tmf
tmiko
tnan
tniko
to
toba
tobago
tobolsk
toca
tocante
toch
tochłowice
today
todd
todo
todonan
todopoderoso
toekomstconferentie
toelichting
toerist
toezicht
togo
toka
tokado
tokadonan
tokamentu
tokante
toke
tokio
tokyo
tolera
tolo
tom
toma
tome
tommy
tomo
ton
tonga
toni
tono
tononan
tony
too
top
topa
topical
topicalmente
topico
topiko
topografia
toponiemen
toppenberg
toque
tor
torah
toren
toribio
tormenta
torneo
torneonan
torno
tornu
toro
toronto
torpedia
torralba
torres
torsten
torto
tortola
tortue
tortuga
tortuosa
tortura
tosamentu
toscana
tot
total
totalidat
totalisando
totalmente
totius
tou
touboot
touch
tounan
tour
tourism
tournier
tours
towards
tower
town
toxic
toxicidad
toxico
toya
tpark
tr
tra
trabao
trabaonan
trabou
trabounan
tracy
trade
tradicion
tradicional
tradishon
tradishonal
tradishonalmente
tradishonnan
traduccion
traduci
traductor
tradukshon
traduktor
tradusi
trafalgar
trafico
trafikashon
trafiko
traga
tragedia
tragico
trah
traha
trahado
trahadonan
trahador
trahadornan
trahamento
trahamentu
trahando
trail
train
trainer
training
tram
trampa
trang
trankil
trankilidat
trans
transaero
transalouca
transame
transatla
transcurso
transferencia
transferi
transforma
transgreshon
transicion
transishon
transition
translata
transmishon
transmisibel
transmision
transmiti
transparente
transport
transporta
transportacion
transportashon
transporte
transvaal
trapi
trapinan
trappers
tras
traslada
traspasa
traspaso
trat
trata
tratado
tratadonan
tratamento
tratamentu
tratami
trato
tratu
travel
trayectoria
trayektoria
tre
trece
treci
tree
trein
treinen
treiner
tremendo
trempan
trenidat
tres
trese
tresebo
tresnan
tresshen
tret
treuren
tri
tribi
tribon
tribu
tribunal
tribunan
tribute
tributo
trigo
triko
trimester
trinidad
trinitario
trint
trinta
trintidos
trio
triple
triptongo
tripulante
tripulantenan
tristan
tristesa
tristo
tristu
triunfa
tro
trofeo
trombo
tromp
trompe
trompet
trompetista
tronkon
trono
tropanan
tropical
tropikal
tropisch
troubadour
trouble
trouw
tru
truck
trucks
trudeau
trujillo
truman
trump
trupa
trupanan
trupial
trust
truth
ts
tsar
tsch
tsunami
ttnetmuzik
tu
tua
tubal
tubo
tuel
tui
tula
tulo
tulonan
tum
tuma
tumando
tumba
tumbanan
tumi
tuminan
tumor
tun
tunesia
tur
turbina
turbulente
turi
turin
turismo
turista
turistico
turistiko
turkce
turkia
turkimenistan
turkmenistan
turko
turks
turm
turno
turtle
tutta
tuvalu
tuy
tv
tvoja
twee
tweede
tweedekamer
twente
twentieth
twin
twins
twistin
twitter
twitty
two
typhoon
tyrone
tyto
u
ua
uandes
ub
ubica
ubika
ucsc
ud
ue
uefa
uemg
uetersen
ufmg
uganda
uit
uitgeverij
uk
ukr
ukrania
ukraniano
ulan
ulandes
ultima
ultimo
ultra
ultramar
ulyanovsk
um
umbria
un
una
unabes
unanimamente
und
unda
under
underground
une
unesco
ungi
uni
unico
unidad
unidat
unidos
unie
unifika
uniforme
unikamente
unikameral
uniko
union
unionnan
unit
united
universal
universe
universidad
universidade
universidat
universidatnan
universitario
universiteit
university
universo
uno
unoca
uns
unser
unspoken
unterhaltung
until
unu
uoc
up
upb
update
updates
upg
upgrade
upload
upright
ups
ur
ural
urataka
urbanisashon
urbano
urbina
urgensia
urina
urirama
url
ursell
uruguay
urun
urunno
us
usa
usando
usd
use
users
uso
usp
uss
usual
usualmente
usuario
usuarionan
utah
utc
utika
utilidat
utilisa
utilities
utrecht
uts
uu
uxoris
uy
uz
uza
uzado
uzalud
uzando
uzbekistan
uzo
v
va
vaas
vacacion
vacuna
vacunacion
vader
vaderpiet
vaimon
vak
vakante
vakantieland
valde
valdes
valdivia
vale
valei
valencia
valentia
valentin
valentina
valeriano
valery
valladolid
valle
vallenato
valley
valor
valparai
value
van
vanaf
vancrevel
vandaag
vanessa
vanguard
vanilla
vannier
vanuatu
vapor
vaporashon
var
vargas
varia
variabel
variacion
variant
variante
variantenan
variashon
variashonan
variashonnan
variedad
variedat
vario
varios
various
varsovia
vas
vaststelling
vaticano
vatikano
vaye
ve
vecindad
vecindario
veen
veeris
vegas
vegetashon
vehi
vehiculo
vehikulo
veintiun
veld
veliko
velo
velocidad
velosidat
velt
vena
vence
venerashon
venesolano
veneto
venezia
venezolano
venezuela
vengansa
vense
venus
vera
verano
verbania
verbo
verde
verdi
verdienste
veredikto
vereenigde
verenigde
vereniging
verf
verhalen
verifika
verkiezingen
verkiezingsuitslag
verleden
vermeld
vermont
vernieuwing
verona
veronica
versailles
vershon
vershonnan
version
versionnan
verso
verstandelijk
vertical
vertikal
verveer
verzameld
verzamelde
verzet
vesindario
vespo
vespucci
vesta
vestas
vesti
vesuvius
veterano
vez
vi
via
vibo
vice
vicente
vicenza
vicepremier
vicepresidente
victima
victimanan
victor
victoria
victorioso
victory
vicun
vida
video
videoclip
videotape
vidio
vidria
viejo
viena
vienes
vientiane
vier
vieren
vierkant
vietjet
vietnam
vietnamita
view
vigente
vigila
vigilante
vigor
vii
viii
vikariato
vikario
viktima
viktimanan
viktoria
viktorioso
vil
vila
villa
villagra
villanova
ville
vilnius
vincent
vinci
vincula
vinh
viola
violacion
violashon
violence
violencia
violensia
violento
violeta
violin
virgen
virgin
virginia
virginianus
virginie
virologia
virtual
virtualmente
virus
virusnan
vis
visa
visage
vise
visepremier
visepresidente
vishon
vishonnan
visibel
vision
visitaruba
vista
visual
vita
vital
viterbo
vitesse
vito
viuda
viva
vivienno
vlaanderen
vladimir
vlag
vliegveld
vliet
vo
voc
vocabulario
vocal
vocalnan
voce
voetbal
voetbalbond
voges
vogue
voice
voivodat
voivodatnan
voivodship
vokabulario
vokal
vokalnan
vol
vola
vole
volg
volga
volgens
volk
volka
volkan
volkaniko
volkannan
volksgezondheid
volkskrant
volkskunde
volkslied
volkspartij
volle
volleyball
volleybol
voltaire
volu
volume
volumen
voluntario
voluntarionan
vom
von
vondelpark
voor
voorburgwal
vor
vorarlberg
vorming
vorpommern
vos
vota
votacion
votado
votegetter
voto
votonan
voz
vrede
vries
vrieswijk
vrijdag
vrije
vrijheid
vrolijk
vrouw
vrouwen
vs
vu
vudu
vuelo
vulgar
vulgaris
vurnon
vuurtoren
vvd
vwo
w
waal
waalsdorpervlakte
waar
wabi
wacht
waf
wagenaar
wageningen
wajcberg
wak
walbeeck
walburg
wales
walk
wall
walletjes
wallonia
wallonie
walonia
wals
walt
walter
wan
wanna
want
wanta
wanted
wapa
wapen
wapu
war
warawara
warda
wardado
wardami
ware
warsaw
warwaru
was
washington
wat
watapana
watch
water
waterpolo
watty
wave
wawoe
way
waya
wazo
wbc
we
web
website
webtape
webu
weekend
weekes
weekly
weer
weg
wega
weganan
weib
weibes
weimar
wein
wel
wela
welcome
welga
welo
welt
wem
wendell
wendru
wepsait
wepsite
wer
werden
were
wereld
wereldculturen
werk
werkers
werkgroep
werkgroepcaraibischeletteren
werleman
werner
wernet
wescar
wesley
west
western
westfalen
westindische
westminster
westpunt
wesu
wesunan
wet
wethouder
wetsontwerp
wever
weyler
what
when
which
white
whiteman
who
why
wia
wic
width
wie
wiel
wielkopolska
wiels
wien
wij
wijdenbosch
wiki
wikibooks
wikicommons
wikidata
wikimedia
wikinews
wikipedia
wil
wilbur
wild
wiley
wilhelm
wilhelmina
wilhelminastraat
wilhelmus
will
willem
willems
willemstad
willemstoren
william
williams
willy
wilnan
wilson
wim
wind
windhoek
windows
windpark
windsor
windsurf
windsurfer
windsurfing
windt
windward
winfrey
wings
winkel
winklaar
winkler
winners
winston
wint
winter
wipm
wir
wireless
wiri
wisconsin
wisdom
wiskunde
wit
with
without
witte
wittgenstein
wladimir
wo
wojewo
wolbes
wolf
wolga
womack
woman
women
wonderful
woods
worcester
word
worde
worden
wordo
wordt
wordu
wordy
work
works
workshop
world
worldcat
wout
wowo
wowonan
wright
wriothesley
writers
writing
wrocław
wrong
wst
wstyd
wto
wu
wuhan
www
wycliffe
wyoming
x
xander
xavier
xd
xi
xii
xiii
xima
ximo
xiomara
xion
xiv
xix
xm
xv
xvi
xvii
xviii
xx
xxiii
xxxx
y
ya
yabi
yag
yaga
yagdo
yahoo
yakıs
yale
yalta
yalurs
yam
yama
yamada
yame
yamoussoukro
yankees
yanu
yanuari
yaounde
yardinan
yarzagaray
yavuz
yaya
ye
year
years
yeesus
yeg
yega
yegada
yegando
yehova
yellow
yemen
yen
yena
yerba
yerevan
yerli
yernonan
yesterday
yet
yewa
yiu
yiunan
yo
yobe
yobida
yok
yolanda
yong
yor
yora
york
yoruba
you
young
your
youth
youtube
yu
yuana
yubi
yud
yuda
yudado
yudando
yudansa
yugoslavia
yui
yuli
yunan
yung
yuni
yurendell
z
za
zaboravi
zabulon
zagreb
zaken
zal
zalm
zambia
zanderij
zanjo
zanzibar
zara
zawahiri
ze
zeboim
zeeland
zeelandia
zefo
zeg
zel
zelandia
zena
zera
zeta
zeven
zibeon
zich
zie
ziet
zijn
zik
zika
zila
zilpa
zilveren
zim
zimbabwe
zimmerman
zion
zita
zj
zmaj
zna
zoar
zohar
zomer
zona
zonanan
zondag
zonder
zone
zonido
zonidonan
zonidu
zorg
zorreguieta
zouk
zoutpannen
zr
zu
zuid
zuidoost
zuidwest
zuit
zulia
zulu
zum
zumbi
zuster
zutphen
zuylen
zwaar
zwart
zwarte
zwolle
{
|
}
~
¡
¢
§
¨
ª
«
°
±
²
³
·
º
»
½
¿
×
đo
ɐ
ɑ
ə
ʰ
ʲ
ʻ
ʾ
ʿ
ˈ
ˌ
ː
̀
́
̂
̃
̄
̆
̇
̈
̉
̊
̋
̌
̓
̔
̛
̣
̦
̧
̨
͂
͡
α
β
γ
γος
γυναικος
δ
ε
η
ησαυ
ι
και
λο
ν
ο
ς
σου
της
του
υ
υιος
ω
а
алекса
александр
ая
б
в
г
д
е
ж
з
и
ии
к
л
м
н
о
п
пе
р
романов
с
т
тр
у
ф
х
ц
ч
ш
щ
ъ
ы
ыи
ь
э
ю
я
яя
ѡ
ַ
ָ
ּ
ׁ
ב
בית
ש
ת
ا
الا
ب
بن
ة
ت
د
ر
س
ع
ل
ه
و
ي
َ
ُ
ِ
ّ
ْ
ٔ
ٕ
ی
ं
क
ड
द
ध
ब
म
ा
ौ
्
ম
র
া
্
ખ
ર
સ
ા
ો
્
க
ப
ம
ழ
ா
ு
ெ
்
ක
ා
ෙ
င
စ
ည
တ
ထ
န
ပ
မ
ာ
ိ
ု
ေ
ံ
္
်
ြ
​
‌
‎
–
—
‘
’
“
”
„
†
•
…
′
″
₥
€
→
↔
↷
−
③
④
⑦
☆
☉
⺀
⺄
⺆
⺈
⺊
⺌
⺕
⺝
⺸
⺼
⿰
⿱
⿲
⿳
⿴
⿵
⿶
⿷
⿸
⿹
⿺
⿻
、
。
「
」
『
』
〢
゙
゚
ィ
イ
ェ
ク
コ
ス
ソ
タ
ツ
テ
ト
ナ
ノ
ハ
ヒ
フ
ホ
マ
モ
ュ
ユ
ラ
リ
ル
ロ
ワ
ン
ー
㇁
㇂
㇄
㇇
㇈
㇉
㇓
㐁
㐄
㐅
㐌
㐫
㐬
㐭
㐮
㐱
㑒
㒵
㒸
㒼
㓁
㓞
㔾
㕛
㕣
㖾
㘝
㚅
㚇
㚔
㚘
㝉
㝡
㝴
㝵
㞋
㞢
㞷
㠩
㠭
㠯
㡀
㡭
㡿
㢲
㢴
㣇
㣺
㥯
㪅
㫄
㫐
㫒
㫺
㬅
㬎
㬥
㬰
㲋
㳄
㷠
㸒
㸚
㸦
㼌
㼲
㽞
㿟
䀠
䂞
䍃
䏍
䒑
䖍
䖒
䖝
䖵
䙴
䚻
䜌
䝿
䡛
䧹
䪞
一
丁
丂
七
丄
丅
丆
万
丈
三
上
下
丌
不
与
丏
丐
丑
专
且
丕
世
丘
丙
业
东
丞
丢
丣
两
严
並
丨
丩
个
丫
丬
中
丮
丰
丱
串
丵
丶
丷
丸
丹
为
主
丽
丿
乀
乂
乃
久
乆
乇
么
义
之
乌
乍
乎
乏
乐
乑
乔
乖
乗
乘
乙
乚
乛
乜
九
乞
也
习
乡
乳
乾
亀
亅
了
亇
予
争
事
二
亍
于
亏
亐
云
互
亓
五
井
亘
亚
亜
亞
亟
亠
亡
亢
交
亥
亦
产
亨
亩
享
京
亭
亮
亯
亰
亲
亳
亶
亷
人
亻
亼
亾
仁
今
介
仌
从
仐
仑
仒
仓
仕
他
付
仝
代
令
以
任
企
伊
伏
伐
休
会
伯
但
位
佐
何
佘
余
作
佥
使
來
侈
侌
侖
侯
侵
便
保
俞
信
修
倉
倍
候
倠
備
僉
僕
儿
兀
允
兂
元
兄
充
兆
兇
先
光
兊
克
兌
免
兑
兒
兓
兔
党
兜
兟
入
全
兩
兪
八
公
六
兮
兰
共
关
兵
其
具
典
兹
兼
冀
冂
冃
冄
内
冈
冉
冊
冋
册
再
冎
冏
冐
冒
冓
冖
冗
冘
军
农
冝
冡
冥
冫
冬
冷
几
凡
凢
凵
凶
凷
凸
凹
出
函
凾
刀
刁
刂
刃
刄
刅
分
切
刍
刑
刕
刖
列
刘
则
初
別
利
别
到
制
刺
則
削
剌
前
剡
剽
劉
力
功
加
劦
助
劫
劳
劵
勃
勇
勉
勒
動
務
勞
勤
勹
勺
勻
勾
勿
匀
匂
包
匆
匈
匊
匋
匍
匕
化
北
匚
匝
匡
匪
匱
匸
匹
区
医
匽
匿
區
十
卂
千
卄
卅
卆
升
午
卉
半
卌
华
卑
卒
卓
单
卖
南
卜
卝
卞
占
卡
卢
卣
卤
卦
卩
卪
卬
卯
印
危
即
却
卵
卷
卸
卻
厂
厃
厄
历
厈
厉
厌
厓
厘
厚
原
厤
厥
厨
厭
厲
厶
厷
厸
去
厼
厽
叀
参
參
叅
又
叉
及
友
双
反
叐
发
叒
叔
叕
取
受
叚
叜
叟
口
古
句
另
叩
只
召
可
台
叱
史
右
叵
号
司
叹
吂
各
吅
合
吉
吊
吋
同
名
后
吏
向
吕
君
吝
吞
否
含
启
吳
吴
吹
吾
呂
呆
呈
告
员
呙
周
命
咅
和
咎
咠
咢
咨
咲
咸
咼
哀
品
哉
員
哥
哲
唐
商
啇
問
啚
啬
啻
善
喜
喬
單
喿
嗇
噩
嚴
囊
囗
囘
囙
囚
四
回
囟
因
団
囧
囬
困
囱
囷
固
国
圂
圅
國
圍
園
圓
土
圡
圣
圥
在
圭
地
圶
圼
坐
坒
坚
坴
垂
垔
垚
埀
埋
埶
執
基
堂
堅
堆
堇
堯
塞
墨
壘
士
壬
壯
声
壳
壴
壹
壺
壽
夂
处
夅
夆
备
夊
夋
夌
复
夏
夒
夕
外
夗
夘
多
夜
夢
大
夨
天
太
夫
夬
夭
央
失
夲
头
夷
夸
夹
夻
夾
奂
奄
奇
奈
奉
奎
奏
奐
契
奓
奔
奚
奞
奠
奢
奥
奭
女
奴
奻
好
如
妄
妙
妟
妥
妻
妾
姑
委
姜
威
娄
婁
婴
嬰
嬴
子
孑
孔
孕
孖
字
存
孚
孛
孝
孟
季
孤
学
孫
孱
學
宀
宁
宂
它
宅
宇
守
安
宋
完
宏
宓
宗
官
宙
定
宛
宜
宝
実
客
宣
室
宮
宰
害
家
容
宾
宿
寄
寅
密
富
寒
察
寧
審
寫
寬
寮
寸
对
寺
寻
寽
対
寿
封
尃
射
将
將
專
尉
尊
尋
尌
對
小
少
尒
尓
尔
尖
尗
尚
尞
尢
尣
尤
尧
尨
尭
就
尸
尹
尺
尻
尼
尽
尾
尿
局
居
屈
屋
屎
屏
屑
展
屖
屚
属
屠
屡
屬
屮
屯
屰
山
屵
屾
岁
岂
岑
岡
岩
岳
岸
峯
島
崇
崑
崔
崖
崙
崩
嵬
嶲
巂
巛
川
州
巟
巠
巢
巤
工
左
巧
巨
巩
巫
差
己
已
巳
巴
巷
巸
巽
巾
巿
帀
市
布
希
帚
帛
帝
带
師
席
帶
常
干
平
年
幵
并
幷
幸
幺
幻
幼
幽
幾
广
広
庄
床
底
店
庚
府
度
庫
庭
庶
康
庸
廉
廌
廛
廣
廩
廴
延
廷
建
廾
廿
开
弁
弃
弄
弇
弋
式
弓
弔
引
弗
弘
弜
弟
弥
弦
弱
張
強
强
彊
彌
彎
彐
彑
当
彔
录
彖
彗
彡
形
彥
彦
彧
彭
彳
役
彼
往
待
律
徒
得
徙
從
復
微
徵
德
心
忄
必
忌
忍
志
忝
忠
忩
快
念
忽
忿
思
怠
急
性
怱
恆
恒
恩
恭
息
悉
患
悤
悲
悶
惠
惡
惢
愁
愈
意
愛
感
慈
慧
慮
憂
憲
應
戀
戈
戉
戊
戋
戌
戍
戎
成
我
戒
戔
或
戚
戠
戢
截
戲
戶
户
戸
戹
戼
戾
房
所
扁
扇
手
扌
才
打
托
执
承
折
拉
拜
拿
掌
推
提
摩
撮
支
攴
攵
收
攸
改
放
政
敄
敏
敕
敖
敗
教
敝
敞
敢
散
敦
敫
敬
数
敷
數
斂
文
斉
斊
斗
斤
斥
斩
斬
斯
新
方
於
施
斿
旁
旋
族
无
旡
既
旣
日
旦
旧
旨
早
旬
旱
旲
时
旾
昆
昇
昌
昍
明
昏
易
昔
昗
昜
星
春
昬
是
昱
昴
昷
時
晃
晋
晏
普
景
晶
智
暑
暴
曇
曩
曰
曲
曳
更
曷
書
曹
曼
曾
替
最
朁
會
月
有
朋
服
朔
朕
朗
望
朝
木
朩
未
末
本
札
朮
术
朱
朵
朶
朿
杀
杏
杜
束
条
来
東
杲
杳
松
析
林
枚
果
枝
枲
枼
某
柔
查
柬
柰
柴
栗
桀
桑
桼
梁
條
梟
梨
棘
棠
棥
森
楚
業
楽
榮
樂
樊
欠
次
欣
欮
欲
欶
欽
款
歆
歇
歛
止
正
此
步
武
歨
歪
歮
歯
歰
歲
歴
歷
歸
歹
歺
死
殳
段
殷
殸
殹
殺
殻
殿
毋
毌
母
每
毒
比
毕
毚
毛
毳
氏
氐
民
气
氣
水
氵
氶
氷
永
氺
氾
求
汉
汝
汞
江
沃
沓
沙
沝
泉
法
波
泣
泥
泰
洛
洪
活
派
流
浦
浩
浪
浮
淡
淮
清
渚
渠
湯
滿
漢
漸
瀬
火
灬
灭
灰
灵
灷
炅
炎
炏
炗
炙
炭
為
烈
烏
烝
焉
無
焦
焱
然
煞
熊
熏
燕
營
燮
爪
爫
爭
爯
爰
爱
爲
爵
父
爻
爽
爾
爿
片
牙
牚
牛
牜
牟
牢
牧
牪
特
牽
犀
犬
犭
犮
狂
狄
狊
独
狺
猋
猒
猪
献
獻
玄
率
玉
王
玟
玨
珎
班
琴
瑟
瑩
瓜
瓦
甘
甚
生
産
用
甫
甬
田
由
甲
申
电
甶
男
甸
甹
画
甾
畀
界
畏
畐
留
畜
畟
畢
畧
畨
番
畫
異
畱
當
畺
畾
疊
疋
疌
疑
疒
疾
癶
癸
癹
登
發
白
百
皀
皃
的
皆
皇
皋
皐
皕
皮
皷
皿
盃
盆
盇
盈
益
盍
盎
监
盒
盖
盛
盡
監
盤
盧
目
直
相
盾
省
眇
眉
看
眔
眞
真
眷
眼
眾
着
睘
睪
睿
瞏
瞢
瞿
矍
矛
矞
矢
矣
知
矦
短
石
破
碎
磊
磨
示
礻
礼
神
祟
票
祭
禀
禁
禸
禹
禺
离
禽
禾
禿
秀
秃
秉
秋
科
秝
秦
移
稟
穀
穌
穴
究
穹
空
穿
突
窄
窒
立
竒
竜
竝
竟
章
童
竹
笑
笠
筆
等
答
箕
算
箴
節
篤
篭
米
粉
粛
粟
粤
粦
粲
糞
糸
糹
系
約
納
紗
素
索
紫
累
細
絜
絫
絲
維
綿
縣
繇
纍
纟
缶
网
罒
罔
罕
罗
罙
罡
罢
罪
署
罷
羅
羊
羌
羍
美
羔
羕
羗
羞
羡
羣
群
義
羲
羸
羽
翁
翏
習
翕
翟
翠
翼
老
耂
考
者
耆
而
耎
耑
耒
耳
耴
耶
耷
聂
聊
聖
聚
聶
聿
肀
肃
肅
肉
肖
肙
肥
肩
肯
育
肴
胃
背
胡
胥
能
脊
脩
膚
臣
臤
臧
自
臬
臭
臯
臱
至
致
臺
臼
臽
臾
臿
舀
舂
舄
與
興
舉
舌
舍
舛
舜
舞
舟
般
船
艮
良
色
艸
艹
艾
芒
芔
芬
芮
花
芳
芺
芻
苔
苗
苟
若
苦
英
茶
茸
荅
草
荒
荣
荼
莆
莧
莫
莽
菆
菊
菐
華
萬
落
葉
著
葛
董
葵
蒙
蒦
蒼
蓋
蓬
蓺
蔑
蔡
蕉
蕭
薄
薛
薦
薰
藍
藏
藤
藥
蘭
虍
虎
虐
虒
虔
處
虖
虗
虘
虚
虛
虜
虞
虫
虽
蚤
蚩
蜀
蜜
蟲
蠡
血
行
衍
衛
衣
衤
表
衮
衰
袁
袞
褭
褱
襄
襾
西
覀
要
覃
見
規
覓
覧
親
覽
见
角
解
言
訁
訇
計
詹
語
誩
諸
讠
语
谷
豆
豈
豊
豐
豕
豖
豙
象
豦
豩
豪
豸
貇
貝
貞
貟
負
貢
貧
貪
貫
責
貳
貴
買
費
賁
資
賈
賏
賓
賔
賛
賞
賢
賣
質
賴
贊
贝
贡
责
贯
贲
贵
赖
赞
赤
赦
走
越
足
路
蹇
身
躬
車
軍
軎
軟
輦
车
辛
辜
辟
辥
辰
辱
農
辵
辶
边
达
过
近
连
迷
追
退
送
逆
逐
通
速
造
逢
連
逮
進
遀
遂
過
道
達
遣
適
遷
遺
邊
邑
邕
那
邦
邪
郎
部
郭
都
鄉
酉
酋
配
酓
釆
采
里
重
野
量
金
釒
錢
钅
長
镸
长
門
閃
閉
開
閏
閑
閒
間
閔
閵
閻
闌
门
间
闷
阑
阜
阝
阿
降
院
陳
隆
隊
隋
隡
隨
隱
隶
隹
隺
隻
隼
隽
难
雀
雁
集
雈
雋
雍
雐
雔
雙
雚
雜
雝
離
難
雨
雩
雪
雲
零
雷
需
霍
霜
霝
霞
霸
靈
靑
青
非
靡
面
靣
革
韋
韦
韭
韯
韱
音
頁
頃
項
須
頗
頡
頻
顛
页
風
风
飛
飞
食
飠
養
饣
首
香
馬
馮
駦
马
骨
高
髟
鬥
鬯
鬲
鬼
魚
魯
鮮
鱼
鲁
鳥
鳳
鸟
鹵
鹿
麃
麗
麥
麦
麻
黃
黄
黍
黎
黑
黒
黨
黹
黽
黾
鼎
鼓
鼠
鼻
齊
齋
齐
齒
齿
龍
龙
龜
龟
龠
龰
龱
龴
龵
龶
龷
龸
龹


者
艹
？
🜨
𠀁
𠀃
𠀆
𠀉
𠀎
𠀐
𠁁
𠁣
𠂆
𠂇
𠂈
𠂉
𠂊
𠂋
𠂎
𠂒
𠂔
𠂛
𠂡
𠂢
𠂤
𠂬
𠂭
𠂹
𠃊
𠃋
𠃌
𠃍
𠃎
𠃑
𠃓
𠃔
𠃜
𠄌
𠄎
𠄠
𠄢
𠆢
𠆥
𠇍
𠈌
𠌵
𠓜
𠔉
𠔥
𠔼
𠔽
𠔿
𠕀
𠕁
𠕋
𠘧
𠘨
𠙻
𠙼
𠚏
𠚒
𠚤
𠚪
𠣏
𠤎
𠤕
𠥓
𠦄
𠦑
𠦝
𠧒
𠧗
𠧪
𠩺
𠪚
𠫓
𠫔
𠫤
𠬛
𠬝
𠬞
𠬢
𠬤
𠬶
𠮛
𠮦
𠮷
𠯑
𠱠
𠳮
𠷎
𡈼
𡉀
𡉵
𡌥
𡍮
𡏳
𡕒
𡕩
𡕰
𡖅
𡗗
𡗜
𡘆
𡘤
𡧱
𡨄
𡩧
𡬠
𡭽
𡰣
𡰥
𡰪
𡰯
𡰱
𡷈
𡸁
𡿨
𡿩
𡿪
𡿺
𢀖
𢀛
𢀩
𢁙
𢆉
𢆰
𢆶
𢇁
𢇇
𢉖
𢌬
𢌿
𢏚
𢑑
𢑚
𢖻
𢙣
𢛳
𢦏
𢦒
𢧵
𢼄
𢾕
𣁋
𣄼
𣅀
𣅽
𣍘
𣎳
𣎵
𣏋
𣏼
𣗥
𣥂
𣥖
𣦵
𣦼
𣧄
𣪊
𣪠
𣬉
𣳾
𣶒
𤇾
𤊽
𤐫
𤓰
𤔔
𤕨
𤣩
𤰇
𤰔
𤰞
𤴓
𤴔
𤽄
𥁑
𥁕
𥃦
𥃩
𥃭
𥇡
𥑟
𥘅
𥘈
𥝢
𥫗
𥱡
𦈢
𦉪
𦉬
𦉼
𦍌
𦍒
𦎧
𦐇
𦓔
𦔮
𦘒
𦙃
𦚏
𦣝
𦣞
𦣻
𦥑
𦥔
𦥯
𦨉
𦭝
𦰩
𧆞
𧈧
𧘇
𧰨
𧴪
𧴮
𧵩
𧾷
𨸏
𨾴
𩙿
𩠐
𩫏
𩵋
𪉷
𪜀
𪟽
𪠲
𪩲
𫇦
𫔭
𫜸
𫝀
𫠣
𫠩
𫢉
𫥞
𫩏
𫩠
𫪡
𫲽
𫶧
𬀷
𬐘
𬗌
𬙙
𬛸
𬜯
𬟩
𬯁
𬴘
𬺻
𬼉
𬼖
𭀰
𭁈
𭁨
𭅰
𭑈
𭕄
𭗼
𭤨
𭥫
𭻾
𮅕
𮊿
𮍌
𮍏
𮓗
𮥼
𮧮
廾
𰀁
𰀄
𰀈
𰀉
𰀕
𰀠
𰀡
𰀢
𰀪
𰁜
𰃮
𰆊
𰆘
𰋙
𰕎
𰢴
𰧭
𰯲
00--
01--
0106--
03--
06--
2013120300--
31--
37--
41--
47--
51--
57--
60--
73--
74--
75--
77--
80--
87--
88--
93--
a--
aa--
ab--
abo--
ac--
aca--
acc--
accor--
accoun--
ach--
achieve--
acu--
acua--
ad--
ade--
adi--
adivi--
ado--
adve--
ady--
ae--
aero--
aeroe--
aeros--
af--
afro--
afsc--
afschaf--
ag--
agra--
agu--
ah--
ai--
air--
ak--
aki--
ako--
aks--
akt--
aktiv--
aku--
al--
ala--
ale--
aleks--
ali--
alm--
alt--
am--
ama--
ame--
an--
ana--
anar--
and--
ani--
ante--
antho--
anthro--
anti--
ao--
apa--
apo--
app--
aps--
ar--
arca--
archi--
arkipi--
arm--
art--
arte--
aruba--
as--
asegu--
asia--
asom--
aspi--
at--
ata--
ato--
au--
aus--
auto--
av--
aven--
avia--
awa--
ay--
az--
b--
ba--
back--
bai--
bak--
bal--
ban--
bank--
bapt--
bar--
bas--
bat--
be--
beau--
bed--
bedrijf--
beg--
bek--
bel--
ben--
bery--
bes--
bez--
bi--
bib--
biblio--
bie--
bij--
bil--
bio--
bis--
bit--
blan--
bo--
bol--
bon--
bos--
bou--
bow--
bra--
brad--
bre--
bri--
bru--
bu--
bud--
buf--
bul--
bun--
bunde--
bur--
by--
c--
ca--
cab--
cai--
cal--
cam--
can--
car--
carib--
carme--
cas--
casa--
cate--
cau--
ce--
cer--
ch--
cha--
che--
chi--
cho--
ci--
cir--
circunstan--
cl--
cla--
clem--
co--
coa--
cob--
cola--
com--
come--
con--
confe--
confi--
conse--
conver--
cos--
cou--
cr--
creci--
cro--
cru--
ct--
cu--
cua--
cultu--
cum--
cur--
d--
da--
dal--
dam--
dan--
dange--
de--
deci--
defi--
dei--
del--
dem--
demo--
den--
des--
descen--
deug--
dev--
devas--
dha--
di--
dia--
dich--
did--
die--
dies--
difi--
digi--
dio--
dioks--
dis--
dispar--
dist--
dix--
dj--
dja--
dji--
dm--
do--
docu--
dok--
dol--
dome--
don--
dor--
dr--
ds--
du--
dub--
duo--
dy--
dyna--
dz--
dzi--
e--
ec--
ed--
edi--
ee--
een--
eeuw--
ef--
effe--
ege--
ei--
eis--
eks--
ekso--
el--
ele--
elect--
elekt--
eli--
em--
emb--
emer--
emir--
emo--
en--
ep--
equi--
er--
ero--
es--
esca--
escan--
espe--
est--
et--
eu--
euro--
evang--
eve--
ewig--
ex--
exce--
expe--
experen--
ez--
f--
fa--
fabu--
fal--
fan--
far--
faye--
fe--
fel--
fer--
fi--
figu--
fil--
filip--
film--
fin--
fit--
fl--
flexi--
fly--
fo--
for--
foto--
fr--
fra--
frag--
fre--
fred--
fri--
fro--
fu--
ful--
g--
ga--
gab--
gala--
gall--
gar--
gas--
ge--
geh--
gel--
gem--
gen--
geo--
gi--
gil--
gim--
gio--
gior--
gita--
gla--
go--
god--
gol--
gon--
gra--
gri--
grid--
gro--
groe--
groß--
gu--
gua--
guer--
guita--
gut--
h--
ha--
hamm--
han--
har--
hard--
harm--
has--
hay--
he--
hei--
heil--
hel--
hemo--
hen--
her--
hers--
hi--
hidro--
hila--
ho--
hon--
hoog--
hora--
hu--
hun--
hy--
i--
id--
ido--
if--
ig--
ik--
il--
ili--
im--
impro--
in--
inc--
incre--
inde--
ine--
inge--
inkre--
innova--
inocen--
inol--
inst--
instru--
insur--
inter--
ip--
ir--
ire--
irita--
is--
ist--
it--
iv--
iz--
j--
ja--
jac--
jah--
jan--
je--
jin--
jo--
ju--
jut--
k--
ka--
kab--
kai--
kal--
kalash--
kap--
kapit--
kas--
ke--
ken--
kera--
kg--
kha--
ki--
kin--
klo--
ko--
kom--
komm--
kommuni--
komp--
komple--
kompo--
kon--
konfe--
konvi--
kor--
kos--
kou--
kre--
kri--
kro--
ks--
kt--
ku--
kua--
kum--
kus--
kuy--
kw--
kwe--
ky--
kyo--
l--
la--
laba--
lan--
land--
lands--
lar--
las--
lat--
lax--
le--
lea--
lee--
leg--
legit--
legu--
lei--
lely--
les--
let--
lexi--
li--
lie--
lij--
lin--
linfa--
lit--
ll--
lo--
lokal--
love--
lt--
lu--
luc--
lum--
ly--
m--
ma--
maa--
mac--
macra--
mag--
mahe--
mai--
makro--
mal--
man--
mante--
mar--
mas--
mat--
mathe--
max--
may--
mc--
mcm--
md--
me--
med--
medi--
medio--
mee--
meer--
meh--
mei--
mel--
mela--
men--
mer--
merce--
mes--
met--
mete--
mi--
mib--
micr--
mid--
mikro--
mil--
mini--
mit--
mm--
mo--
mol--
mon--
mont--
mor--
movi--
mp--
mu--
multi--
mur--
mus--
my--
n--
na--
nau--
nd--
ne--
neder--
neer--
neg--
neo--
neu--
ng--
ni--
nia--
nie--
nig--
nij--
nin--
nis--
no--
nood--
nor--
not--
nou--
ns--
nt--
nu--
o--
oa--
ob--
obje--
of--
oh--
ok--
ol--
om--
omni--
omo--
on--
onder--
one--
op--
optim--
or--
orbi--
org--
organ--
ori--
orien--
oro--
ortho--
os--
ot--
ous--
out--
over--
ox--
p--
pa--
pai--
pal--
pan--
par--
para--
parti--
pas--
pat--
patri--
pay--
pe--
pen--
per--
perfeks--
ph--
phil--
pi--
pic--
pil--
pilg--
pin--
pirami--
pl--
ple--
plu--
po--
pod--
poli--
polyg--
pon--
pop--
popu--
por--
pos--
posi--
post--
pot--
pr--
pra--
prakti--
pre--
pri--
pro--
prokaryo--
promo--
pronos--
provi--
psy--
psycho--
pu--
pub--
pueb--
put--
q--
qua--
que--
qui--
quo--
r--
ra--
radio--
ramp--
rap--
ras--
ratz--
ray--
re--
rea--
rec--
reces--
red--
reem--
ref--
reformi--
reg--
rei--
rekt--
reli--
remp--
rept--
res--
resolu--
ret--
reve--
ri--
rib--
rich--
rif--
rijks--
river--
rk--
rm--
ro--
rob--
rou--
row--
rt--
ru--
rub--
rui--
ruj--
rus--
s--
sa--
saar--
sab--
saba--
sac--
sak--
sal--
salp--
sam--
san--
sand--
sar--
sas--
satis--
sax--
sc--
sch--
sci--
scien--
scienti--
scri--
sculp--
se--
see--
sekreta--
sel--
sen--
sensa--
ser--
sey--
sh--
shah--
shel--
sher--
shi--
si--
sibe--
sig--
sim--
sin--
sk--
skand--
skla--
sko--
slo--
sna--
snij--
so--
sob--
sobe--
sobre--
soco--
sofi--
sol--
solu--
son--
sp--
spa--
spe--
spo--
spu--
sr--
st--
sta--
stalen--
stat--
ste--
sto--
strato--
stu--
su--
sua--
sub--
subsc--
subsi--
suks--
sul--
sun--
sup--
super--
supor--
sur--
suse--
sv--
sw--
swe--
swim--
sy--
syk--
sympa--
syn--
syna--
t--
ta--
taks--
tan--
tar--
te--
tec--
tei--
tele--
tem--
ten--
teo--
ter--
teres--
th--
tha--
the--
thi--
thu--
ti--
tim--
to--
tom--
top--
tor--
tou--
tra--
trai--
trais--
trans--
traye--
tre--
tri--
trin--
tro--
ts--
tu--
tul--
tur--
tw--
ty--
typi--
u--
ub--
uf--
uit--
ukr--
ul--
um--
un--
uni--
univers--
up--
ur--
usa--
ux--
v--
va--
vak--
vakas--
van--
var--
ve--
ver--
vera--
verd--
verk--
vers--
versge--
verte--
vi--
via--
vib--
vice--
vig--
vis--
vise--
vla--
vo--
voor--
vooruit--
vor--
vu--
vul--
w--
wag--
wai--
wak--
wal--
wald--
war--
water--
we--
web--
wei--
wel--
wereld--
werk--
wes--
west--
wet--
wie--
wik--
wiki--
wil--
win--
wis--
wo--
work--
wu--
x--
xi--
xx--
y--
ya--
ye--
yid--
yo--
yu--
z--
za--
zaf--
ze--
zin--
zit--
zj--
zo--
zu--
zwem--
ł--
α--
δ--
κυρι--
υι--
φ--
в--
д--
е--
и--
кири--
м--
н--
р--
со--
دو--
س--
--0
--00
--1
--10
--2
--3
--4
--5
--6
--67
--7
--75
--8
--9
--a
--aal
--aar
--aat
--abel
--acht
--acion
--ack
--ad
--ada
--ado
--af
--age
--ah
--ai
--air
--ak
--aker
--al
--ald
--am
--amente
--amento
--an
--ana
--anan
--ane
--ania
--ano
--ans
--anse
--ant
--ante
--ap
--ar
--ard
--aria
--ario
--aris
--ary
--as
--ashon
--at
--ate
--aten
--ation
--ats
--au
--aw
--ay
--b
--ba
--bal
--bana
--bas
--be
--bel
--ber
--bers
--bi
--bio
--blad
--ble
--bo
--bond
--br
--bra
--brug
--bs
--bu
--burg
--by
--c
--ca
--cacion
--cal
--can
--car
--ce
--ces
--ch
--cha
--che
--chi
--cht
--ci
--cia
--cial
--cing
--cio
--cion
--cionnan
--ck
--cle
--co
--com
--cs
--ct
--cta
--ctividad
--cto
--cts
--cu
--cy
--d
--da
--dad
--dae
--dag
--dam
--damente
--dan
--danan
--das
--dat
--ddy
--de
--den
--dening
--der
--des
--di
--dia
--dico
--ding
--disi
--do
--doctrine
--donan
--dor
--dos
--dro
--ds
--dt
--dy
--e
--ea
--eau
--eb
--ed
--ee
--ef
--eg
--ei
--ein
--eit
--ek
--eki
--el
--eld
--ele
--elijk
--elijke
--ella
--elli
--els
--em
--ema
--emento
--en
--enan
--ence
--end
--endo
--eno
--ens
--ensha
--ent
--enta
--ente
--ento
--entu
--eo
--eon
--ep
--er
--era
--ere
--eria
--erlijke
--ero
--ers
--ert
--eru
--es
--ese
--esko
--et
--eta
--ette
--etti
--ev
--eve
--ever
--ex
--exto
--ey
--ez
--eza
--ezeo
--f
--fa
--fang
--fare
--fen
--fer
--ff
--fi
--fied
--fika
--fische
--fo
--fort
--fs
--g
--ga
--gd
--ge
--gen
--ger
--gers
--ght
--gi
--gia
--giko
--ging
--gn
--gner
--gno
--go
--gon
--gonan
--gra
--gs
--gt
--gton
--gu
--gular
--gy
--h
--ha
--ham
--he
--heid
--hi
--hin
--hine
--hing
--hn
--ho
--hol
--hon
--hr
--hs
--ht
--http
--https
--i
--ia
--ial
--ian
--iana
--iano
--ias
--ic
--ica
--ice
--ich
--ici
--ick
--ico
--ics
--id
--ida
--idad
--idat
--idatnan
--ie
--ief
--iek
--iel
--ien
--iendo
--ier
--ies
--iet
--ifica
--ificacion
--ifika
--ig
--iga
--ight
--igo
--ii
--ij
--ijk
--ijke
--ijn
--ijt
--ik
--ika
--iko
--il
--ila
--illa
--ille
--illo
--im
--imento
--imentu
--in
--ina
--ind
--ine
--ing
--ingen
--ings
--ini
--ino
--ins
--io
--ion
--ional
--ions
--ipe
--ir
--ira
--ire
--is
--isa
--isacion
--isashon
--isation
--ische
--isen
--isio
--ism
--ismo
--ist
--ista
--istanan
--istico
--istiko
--it
--ita
--itanan
--itario
--ite
--itis
--itivo
--ito
--itu
--ituda
--itude
--ity
--ium
--ius
--iv
--ividat
--ivo
--ix
--iza
--ization
--j
--ja
--je
--jf
--ji
--jn
--jo
--js
--k
--ka
--kas
--ke
--kel
--ken
--ker
--kes
--ki
--kie
--kin
--kina
--kkel
--klip
--kmentu
--ko
--kra
--ks
--kshon
--ksi
--kt
--ktividat
--ktua
--ku
--ky
--l
--la
--lan
--land
--lay
--lba
--ld
--ldo
--le
--lects
--len
--ley
--lho
--li
--lidat
--lie
--lijk
--lijn
--lika
--lin
--ling
--lismo
--lius
--ll
--lla
--llar
--llas
--lles
--lli
--lling
--lmente
--lo
--logia
--logie
--logy
--lomeus
--lon
--loo
--ls
--lung
--ly
--m
--ma
--maal
--mado
--man
--mar
--mark
--me
--mel
--men
--ment
--mente
--mento
--mentu
--mer
--mero
--mi
--mic
--miento
--mientu
--mim
--misio
--mista
--mm
--mmer
--mo
--mpi
--ms
--mu
--mus
--n
--na
--nado
--nal
--nan
--nas
--nc
--nce
--nces
--nchi
--ncia
--ncy
--nd
--nda
--ndante
--nde
--ndes
--ndi
--ndo
--ne
--ned
--nen
--nente
--neo
--ner
--nes
--ney
--ng
--ni
--nia
--nica
--nie
--niko
--nimbus
--nin
--nismo
--nista
--nite
--nity
--nk
--nn
--nna
--nnan
--nne
--nny
--no
--nonan
--ns
--nsa
--nse
--nser
--nsha
--nsi
--nsia
--nsianan
--nsio
--nsor
--nt
--nta
--nte
--ntenan
--nti
--ntie
--ntje
--nto
--nts
--ntu
--nu
--nus
--ny
--nza
--o
--oa
--oc
--od
--oe
--oen
--og
--ogi
--oi
--ok
--ol
--ologi
--ologia
--om
--on
--onan
--ong
--oni
--onia
--oon
--op
--or
--os
--oso
--ot
--ou
--ous
--ov
--ovich
--ow
--oy
--oz
--p
--pa
--pe
--ped
--pektivo
--pel
--phic
--phy
--pi
--pia
--pio
--po
--ps
--pt
--pto
--q
--qi
--que
--r
--ra
--raad
--rada
--ral
--ram
--rb
--rc
--rcisio
--rd
--re
--red
--rein
--ren
--rer
--rero
--res
--rg
--ri
--ria
--rij
--rin
--rio
--rionan
--rista
--rly
--rma
--rn
--rnan
--rny
--ro
--ron
--ror
--row
--rr
--rra
--rro
--rry
--rs
--rse
--rt
--rte
--rtje
--ru
--rum
--ry
--ryl
--rzo
--s
--sa
--sando
--sant
--sberg
--sch
--schap
--se
--seis
--sen
--sh
--sha
--shi
--ship
--sho
--shock
--shon
--shonan
--shonnan
--si
--sia
--sial
--sianan
--side
--sio
--sivo
--sje
--sko
--sma
--smo
--so
--son
--soso
--srecht
--ss
--ssa
--sse
--ssen
--st
--sta
--star
--ste
--stituto
--straat
--stro
--su
--sverbod
--sy
--sz
--t
--ta
--tanan
--tar
--tas
--tat
--te
--tect
--ted
--telijk
--ten
--tene
--teo
--tes
--tg
--th
--thumb
--ti
--tia
--tic
--tico
--tie
--ties
--tik
--tiko
--tion
--tions
--tis
--tisa
--tivamente
--tive
--tivo
--tje
--to
--tok
--ton
--tonan
--tor
--toria
--torio
--torium
--tors
--tos
--tov
--tr
--ts
--tt
--tta
--tte
--tu
--tud
--tum
--tura
--tus
--ty
--tz
--u
--ua
--ual
--ud
--ue
--uel
--ues
--ui
--uk
--ul
--ula
--uld
--ulo
--ult
--um
--uma
--un
--up
--ur
--ura
--ure
--urs
--us
--ushon
--usz
--ut
--uta
--uto
--uw
--ux
--uya
--uz
--v
--va
--val
--ve
--ved
--ven
--ventura
--ver
--vers
--ves
--vi
--vich
--vie
--vin
--vna
--vo
--vy
--w
--wa
--way
--we
--week
--weg
--well
--werk
--wi
--wijk
--wing
--ws
--wy
--x
--xa
--xo
--y
--ya
--yard
--ye
--yendo
--yer
--yo
--yon
--yt
--z
--za
--zar
--ze
--zen
--zi
--zia
--zitter
--zo
--zon
--ła
--α
--ε
--η
--ι
--ν
--ς
--υ
--а
--вич
--з
--ич
--ов
--р
--я
--ة
--د
--رية
--ع
--ي
