!
"
#
##0
##1
##10
##11
##12
##13
##14
##15
##16
##17
##18
##19
##2
##20
##21
##22
##23
##24
##25
##26
##27
##28
##29
##3
##30
##31
##32
##33
##34
##35
##36
##37
##38
##39
##4
##40
##41
##42
##43
##44
##45
##46
##47
##48
##49
##5
##50
##51
##52
##53
##54
##55
##56
##57
##58
##59
##6
##60
##61
##62
##63
##64
##65
##66
##67
##68
##69
##7
##70
##71
##72
##73
##74
##75
##76
##77
##78
##79
##8
##80
##81
##82
##83
##84
##85
##86
##87
##88
##89
##9
##90
##91
##92
##93
##94
##95
##96
##97
##98
##99
$
%
&
'
(
)
*
+
,
-
.
/
0
00
000
001
003
005
01
018
02
02141
023
024
025
03
033
034
04
05
06
07
0721
08
081
09
1
10
100
1000
102
103
104
105
106
107
108
109
11
110
111
112
114
117
12
120
1200
121
123
125
126
127
1291
13
130
1300
132
133
1352
136
137
1380
14
140
1400
1420
143
1435
1450
1460
1465
1473
1481
1482
1483
1484
1489
15
150
1500
1501
151
1513
1519
152
1520
1531
1543
1545
155
156
1561
1564
1566
1568
1575
1577
1587
1588
1599
16
160
1600
1606
1614
1615
1617
162
1622
1624
1625
1626
1631
1633
1636
164
1642
1644
1660
1661
1665
1669
167
1671
1673
1674
1680
1685
169
1694
1695
17
170
1707
171
1718
173
174
1743
1753
1758
176
1760
1762
177
1775
1778
1785
1788
18
180
1800
1803
1809
181
1811
1815
1816
1818
1819
1823
1828
1830
1831
1832
1833
1835
1836
184
1840
1841
1844
1849
1850
1852
1853
1854
1857
1858
1860
1861
1864
1865
1867
1868
1869
1870
1871
1873
1874
1875
1876
1877
1878
188
1880
1881
1882
1883
1884
1885
1886
1887
1888
1889
189
1890
1891
1892
1893
1894
1895
1896
1897
1898
1899
19
190
1900
1901
1902
1903
1904
1905
1906
1907
1908
1909
1910
1911
1912
1913
1914
1915
1916
1917
1918
1919
1920
1921
1922
1923
1924
1925
1926
1927
1928
1929
1930
1931
19312
1932
1933
1934
1935
1936
1937
1938
1939
1940
1941
1942
1943
1944
1945
1946
1947
1948
1949
195
1950
1951
1952
1953
1954
1955
1956
1957
1958
1959
1960
1961
1962
1963
1964
1965
1966
1967
1968
1969
197
1970
1971
1972
1973
1974
1975
1976
1977
1978
1979
1980
1981
1982
1983
1984
1985
1986
1987
1988
1989
1990
1991
1992
1993
1994
1995
1996
1997
1998
1999
2
20
200
2000
2001
2002
2003
2004
2005
2006
2007
2008
2009
201
2010
2011
2012
2013
2014
2015
2016
2017
2018
2019
2020
2021
2022
203
204
209
21
210
211
212
213
214
215
216
218
22
220
222
224
225
226
227
228
23
230
232
233
234
235
238
239
24
240
241
242
243
244
245
246
248
249
25
250
252
253
255
256
26
260
261
262
264
265
268
269
27
270
271
273
277
28
280
282
2845864949
29
290
291
292
293
294
295
296
297
298
299
3
30
300
3000
301
303
3080
31
310
311
313
3166
318
32
320
322
329
33
331
34
344
345
346
35
350
352
355
356
36
360
364
365
366
37
371
373
374
3746
375
378
38
380
382
383
384
386
39
395
4
40
400
404
405
409
41
412
42
420
421
429
43
438
44
440
447
45
450
46
47
48
49
494
496
5
50
500
509
51
510
514
52
520
521
527
53
538
54
546
55
5534
56
565
5688008
569
57
570
5788378
58
59
592
594
599
6
60
600
602
61
62
63
64
65
653
66
67
670
671
672
674
68
682
684
685
7
70
700
71
715
7234
73
74
7414
75
750
756
76
77
776
787
789
79
8
80
800
8018
803
8050
81
82
8274
83
8331
84
842
84586
85
858
86
87
87764
879
88
88353
884
889
89
9
90
900
901787
91
912469
92
92285
93
930
930369
930999
934
94
944700072
95
9501083
96
9606
964
97
971
973
978
979
98
99
995
9966
9973
999
999516496
:
;
<
=
>
?
@
\
^
_
`
a
aa
aabach
aapravasi
aar
aba
abakisaki
abako
abala
abalaka
abalamu
abanda
abandaki
abandi
abandisi
abandonne
abania
abarambwa
abba
abbas
abc
abd
abdallah
abdourazak
abdul
abe
abeba
abel
abela
abeokuta
abeti
abi
abidjan
abigael
abika
abimi
abimisaki
able
ablono
abo
abobo
abomaka
abomaki
abomama
abomey
abord
abota
abotama
abotamaka
abotamaki
abotami
aboti
about
above
abovestyle
aboyi
abraham
abrahama
abrdc
abroad
absence
absences
abstention
abu
abuja
abɔ
abɛ
abɛlɛ
ac
acacus
acade
academia
academy
accent
accents
accident
accolades
accompagne
accompagnero
accord
according
accords
accra
accusatif
accused
ace
acertains
achille
acide
act
acte
actes
acteur
actifs
action
actionnaire
actionnaires
actions
activate
active
activite
actrice
actualite
actuel
actuelle
actuellement
actuelles
ad
adam
adaptation
adapte
add
adding
additional
adelf
aden
adern
adiataki
adidas
adiminisatele
adindoli
adinkra
adjani
adjectifs
administrateur
administration
administrative
adn
adolphe
adora
adorables
adorada
adoration
adou
adoula
adresse
adresses
adult
adverbe
adɛlɛ
ae
aef
aequatoria
aeso
af
afa
afabe
afabɛ
afande
afdl
affaire
affaires
affecte
affichage
affiche
afficher
affirmation
affirmative
affirme
affixes
affluents
afganista
afili
afonso
afri
africa
africain
africaine
africaines
africains
africamuseum
african
africana
africanos
africanum
africell
africultures
afrika
afrikansi
afrikasudi
afrique
afriques
afrisson
afro
after
afu
agadez
against
agcd
agence
agences
agents
agglutinante
agglutiner
agir
agissant
agit
agnam
agne
agnes
agricole
agriculture
agrifor
agronome
aguila
ah
ahidjo
ahmadou
ahmed
ahnt
ai
aide
aile
ailleurs
aime
aimelia
aimer
ainsi
air
aire
aires
airlines
airness
airport
airways
ais
aise
ait
aix
ajjer
ajout
ajoute
ajouter
aka
akamata
akamba
akanga
akangi
akanisaki
akawa
ake
akela
akelaki
akeli
akendaki
akendeki
aketi
akeyi
aki
akimi
ako
akoba
akobanda
akobelela
akobima
akobisaki
akobwaka
akoka
akokaki
akoki
akokisi
akoko
akokɔtɔ
akolanda
akoli
akoluka
akoma
akomaka
akomaki
akome
akomela
akomi
akon
akopɛ
akosa
akosala
akosanaka
akoti
akotikala
akotɔ
akouala
akoyekola
akozala
akozonga
akozongisa
aksum
aku
akufa
akufaka
akufaki
akufi
akuli
akutanaka
akɔ
akɛsɛ
al
ala
alade
alain
alakisaki
alanda
alandaki
alandi
alaska
alassane
alati
alba
albania
albert
albertville
albi
albin
albino
albinos
album
alcapone
alcool
alcoolisme
aldabra
ale
alema
alerte
alex
alexandre
alexis
alfred
alge
alger
ali
aliaka
alias
aliases
alie
align
alima
alimentation
alimentos
alimɛ
alinga
alingaka
alingaki
alingi
alioune
alisation
alise
alite
alje
aljeria
all
alla
allafrica
allah
alle
alleluia
allemagne
allemand
allen
aller
allergie
allergies
allergique
alliance
alligator
allow
allows
alma
alo
aloba
alobaka
alobaki
alobeli
alobi
alois
alongola
alongoli
alongwaki
alongwe
alongwi
alors
aloube
alpes
alphabet
alphonse
alpi
als
alsace
also
alsta
alt
alta
altair
altdorf
alternative
although
alto
alube
alubɛ
aluki
alur
alvaro
alve
am
ama
amada
amadou
amani
amaranthus
amaso
amazon
amazoni
amba
ambassade
ambigu
ambique
ambohimanga
ambulance
ame
amela
ameli
amelika
amemamaki
amen
ameri
america
american
americana
americans
amerika
amerique
amfreville
ami
amin
amina
amini
amipesi
amisi
amoni
amor
amore
amos
amour
amoxicilline
amphimas
amsterdam
amy
an
analyse
analysis
anana
anany
anaphylaxie
anar
anarofe
anatomie
ance
ances
ancien
ancienne
anciens
and
anda
anderlecht
anders
andora
andre
andy
ane
ang
ange
angegeben
angeles
angers
anges
anglais
anglaise
angle
ango
angola
angolense
angulu
anicet
animal
animale
animateur
animateurs
animation
animaux
anime
anjelu
ann
anna
annales
anne
annexe
anniversaire
annonce
annuel
anoalite
anorexie
another
ans
anselme
ansorgii
ant
anta
antarctica
antartika
ante
antei
anthologie
anthony
anti
antibiotics
antibiotique
antibiotiques
anticorps
antidote
antiochia
antiquite
antivirus
antiya
antoine
antoinette
antonio
antonov
anuarite
anvers
any
anzor
ao
aos
aou
apart
ape
apelaki
aperc
apesa
apesaki
apesi
api
apiss
apo
apolinia
aponaki
aponamaki
aponami
aponi
apostolat
apostolo
app
apparente
appear
appears
appel
appele
appenzell
apple
applies
applique
appliquer
apport
apprendre
apprentissage
approaches
approche
approfondies
appuyer
apre
apri
april
aprili
apumbwi
apɔ
apɛ
apɛsi
apɛsɛ
aquin
aquitaine
ar
arabe
arabia
arbre
arbres
archaea
arche
archidioce
archidiocese
architectural
architecture
archive
archives
arcs
ardent
ardini
are
area
argent
argentina
arguin
armand
armas
arme
armeni
arms
army
arona
arre
arrie
arrondie
arrondissement
arrondissements
arsenal
arsom
art
arte
arthritis
arthur
arti
article
articles
articulation
articulations
artikle
artist
artiste
artistes
artistique
artistiques
arts
aru
aruba
aruwimi
as
asa
asakolaki
asala
asalaka
asalaki
asalela
asali
asalisi
asangisi
asbl
ascension
asch
ascq
aseke
asengeli
asengi
ashanti
ashantis
ashem
asi
asia
asiazui
asie
asila
asilaki
asili
asilisaki
asimbi
askia
aso
asombaki
asp
aspirine
assainissement
assassinat
assemble
assembly
assigned
assistance
association
associe
assurer
ast
aste
asticieuse
astrazeneca
asu
asɛ
at
ata
atako
atalaku
atanga
atangaka
atatuerk
ate
athe
athle
ati
atibakwa
atie
atika
atikaki
atikalaki
atikali
atikele
atindeli
atindi
ation
atlanta
atlanti
atlantic
atlantique
ato
atome
atomi
atsinanana
attache
attaque
atteler
attentat
attention
attitude
attribute
au
aube
aubert
auch
aucun
aucune
audio
audiovisuel
auf
auflage
augu
august
auguste
augustin
aujourd
aumo
aurora
aus
ausgabe
aushi
aussi
australia
australie
auteur
auti
autobiography
autohide
autohideable
autoitalic
automatically
automobiles
autorite
autour
autre
autres
aux
av
ava
available
avait
avandi
avant
avante
avc
ave
avec
avenir
aventure
aventures
avenue
avertissement
aviation
avignon
avion
avo
avoir
avoka
avril
awa
awadi
award
awards
awasa
awash
awei
awilo
awuti
aya
ayaki
ayambi
ayant
aydemir
aye
ayebana
ayebani
ayebisi
ayei
ayekoli
ayembaka
ayia
ayo
az
aza
azala
azalaka
azalaki
azali
azalki
azande
azerbai
azi
azia
azithromycine
aziz
aziza
azo
azolia
azolya
azongaki
azongela
azores
azoyema
azua
azuaki
azui
azur
azwa
azwaka
azwaki
azwami
azwi
azɛrbayza
b
ba
baaba
baalur
baatome
bab
baba
babale
babali
babanda
babandaka
babandaki
babandi
babandisaki
babandisi
babandoa
babango
babantu
babateli
babe
babembi
babengaka
babengi
babetaki
babeti
babi
babika
babikaka
babilone
babima
babo
babobangi
babola
babomi
baboti
baboya
babu
babundi
babuni
babwaka
baby
babɔ
babɛ
babɛti
bac
bacillus
back
background
bacte
bad
bade
badollar
bae
baenga
baesalelaka
bafa
bafacteur
bafandaka
bafandi
bafata
baferme
bafungoli
bafutelaka
bagalatia
bago
bahati
bai
baindo
baka
bakaboli
bakala
bakambi
bakangaka
bakangisi
bakani
bakanisaka
bakanja
bakanton
bakatekisi
bakati
bakatolike
bake
bakei
bakela
bakeli
bakende
bakendeke
bakendeki
bakengeli
bakesenami
bakeseni
baki
bakilomɛtɛlɛ
bakimi
bakisa
bakli
baklisto
bako
bakobakisa
bakobe
bakobela
bakobɛtɛ
bakoka
bakokaki
bakoki
bakoko
bakokutanaka
bakolakisa
bakolinti
bakolo
bakolobaka
bakoma
bakomaka
bakomami
bakomi
bakomine
bakomini
bakomisa
bakompanyi
bakondzi
bakongo
bakongos
bakoni
bakonzi
bakopesa
bakopɛ
bakosa
bakosala
bakosalela
bakosalisaka
bakosanganaka
bakosangisa
bakosenga
bakotalaka
bakoteyaka
bakotiya
bakotonga
bakotuna
bakoye
bakozala
bakri
bakristu
baku
bakuba
bakufa
bakufaka
bakufaki
bakufi
bakumi
bakundolaki
bakɔ
bakɛ
bala
balaba
balabala
balakisaka
balakisi
balandi
bale
baleinie
balela
bali
balia
balibina
balinga
balingaka
balingaki
balingi
baliyaka
balkanisation
ball
ballet
balo
baloba
balobaka
balobaki
balobala
balobi
balobo
balonga
balongaki
balongoli
baltimore
balu
baluba
balubakat
baluka
balunda
bamama
bamamɛ
bamanisa
bamba
bambara
bambenga
bambi
bambo
bamboka
bambula
bameka
bamekaka
bameki
bamelaka
bamesani
bami
bamillion
baminisele
bamipesi
bamisi
bamisioni
bamizilma
bamo
bamobo
bampadi
bamumpɛ
bamuzilimani
bamɔ
bana
banaki
banamongo
banamuhere
banana
banc
band
banda
bandako
bandaku
bandal
bandalu
bandeau
bandeira
bandeke
bandeko
bandi
bandiagara
bandima
bandimaki
bandimela
bandimi
bandoki
bandoma
bandundu
bandɛkɛ
banei
banga
bangala
banganga
bangi
bango
bangomba
bangu
bangubangu
bangui
banguna
bangɔmbɛ
bangɔndɔ
bani
baninga
bank
bankombo
bankumu
bankɔ
banner
banque
bansinga
banso
bansɔ
banto
bantoma
bantous
bantu
banyama
banyango
banza
banze
banzela
banzembo
banzete
banzio
banzo
banɔ
bao
baoule
baoyo
bapanzi
bapaya
bapende
bapesa
bapesaka
bapesaki
bapesi
baponaki
baponami
baponi
baposo
baproton
baptist
baptiste
bapuwa
bapɔ
bapɔlisi
bapɔna
bapɔni
bapɛ
bapɛsɛ
bar
barabi
barack
baraper
barbara
barcelona
barcelone
barebɛl
barge
barges
bari
barkal
barking
barly
baro
baroma
baron
barrage
barranquilla
barre
barumbu
baruti
bas
basa
basala
basalaka
basalaki
basaleka
basalela
basalelaka
basalelaki
basaleli
basali
basalisa
basambelaka
basambisi
basanaka
basangani
basango
basani
basankusu
basanza
basapoli
base
basel
basengaka
basengeli
basenzi
bashi
basho
basi
basic
basila
basilaka
basili
basilica
basiliki
basilisi
baskin
baslamer
basoda
basoko
basoso
bass
bassam
basse
bassins
bassiste
basu
basusu
basɔ
basɔda
basɛ
basɛndika
bat
bata
bataille
batalaku
batamboli
batata
batatas
batatoli
bate
bateritware
batesaloniki
bati
batia
batisimo
batiya
batiyaka
bato
batoli
batterie
batu
batulikisa
batungisamaka
batungisami
batyamaka
batɛ
bau
baudouin
bauler
bauti
bava
bavandaka
bavandi
bavili
bavua
bawei
bay
baya
bayaka
bayaki
bayanda
bayangeli
baye
bayeba
bayebani
bayebi
bayebisami
bayei
bayekoli
bayeli
bayembi
bayi
bayike
bayokanaki
bayombe
bayu
bayuda
baz
baza
bazala
bazalaka
bazalaki
bazali
bazande
bazangi
bazar
bazo
bazoki
bazua
bazuaka
bazuaki
bazui
bazwa
bazwaka
bazwaki
bazwamaka
bazwami
bazwi
bbc
bc
bcbg
bcc
bcg
bck
bcz
bd
be
bear
beau
beaucoup
beauffort
beaumaris
beaute
beauvais
beaux
bebe
bec
became
because
beck
beckinsale
bed
bedel
bedford
been
before
begrippen
bei
beiji
beijing
being
beki
bel
bela
bele
beleji
beleo
belezi
beleziki
belfond
belge
belges
belgian
belgica
belgique
belgium
belgrad
belgrade
beli
belin
belize
belji
beljika
belkhodja
belle
belles
bellings
bellion
bellions
below
belvedere
bemaraha
bemba
bembe
ben
bend
bende
bendela
benedict
benetice
benga
bengaka
bengali
benguela
beni
beniko
benin
benjamin
benoi
benoit
benot
benutzer
benwa
benz
benziger
benzodiaze
ber
bercy
berga
bergtundra
berka
berlin
berliner
bermuda
bern
bernard
bernardin
bernhard
bernhardt
bernina
bes
besoin
best
bestine
betela
beteleme
betet
beti
beto
betterave
between
bey
beyond
bg
bi
bia
biambe
bibale
bibandaka
bibe
bibende
biberon
bibili
bibilia
bibiliya
bibita
bible
bibli
biblia
biblio
bibliographie
bibliothe
biblya
bibuki
bibuneli
bibwɛ
bibɔtu
bic
bichir
bidens
bief
bielefeld
bielorusia
bien
bienheureux
biens
bienvenu
bifelo
bifu
big
bigumba
bije
bika
bikakoli
bike
bikeko
bikela
bikelamu
bikisa
biko
bikoki
bikolo
bikomisami
bikoro
bikou
bikutsi
bikɔ
bikɔlɔ
bikɛ
bila
bilaka
bilakeli
bilako
bilamba
bilanga
bilbao
bild
bile
bilei
bileko
bilembo
bilenge
bileyi
bili
bilili
bilinga
bilingue
bill
bilo
bilobeli
biloko
bilombe
bilombi
bilubu
bilɔ
bilɛngɛ
bima
bime
bimi
bimonanaka
bimonani
bina
binama
bing
bingu
bingumba
bino
binomial
binomio
binso
binsɔ
binza
biographical
biographie
biographien
biographique
biography
biologie
bipa
bipai
bipayi
bipoli
bira
birago
birdman
biro
birth
bis
bisa
bisaka
bisama
bisambo
bisanga
bisapo
bisau
bise
bisengeli
bishikwabo
bisi
bisika
biso
bissau
bisu
bisukiro
bisusu
bita
bitabe
bitaboro
bite
biteni
biteyelo
biti
bits
bitu
bituka
bituluku
bitumba
bitɔɛlɛ
biya
biyamba
biye
biyebani
biyi
biza
bizala
bizalaka
bizalaki
bizalela
bizaleli
bizali
bizima
bktf
bl
black
blaise
blanc
blanchard
blanchart
blanche
blancs
blank
ble
bleu
blica
blog
blogi
blogspot
blogueur
blok
blond
blonde
bloque
blua
blue
blut
bn
bnb
bo
boa
boahen
boakisi
bob
boba
bobakisi
bobali
bobalusi
bobandi
bobandisi
bobange
bobangi
bobateli
bobe
bobebi
bobele
bobeti
bobi
bobimi
bobimisi
bobo
bobokoli
bobola
bobomi
bobongisi
bobongo
bobongoli
boboongo
boboti
boboto
bobu
bobungi
bobungisi
bobɔ
bobɔngisi
bobɔngɔ
bobɛ
bocholter
bode
body
bodyclass
bodystyle
boe
boeck
boeing
boende
bogota
bogus
bohumbu
boi
bois
boite
boka
bokaboli
bokabwani
bokambemi
bokambi
bokangami
bokange
bokangemi
bokangi
bokangikangi
bokangisi
bokanisi
bokasi
bokassa
bokati
bokauki
boke
bokebi
bokei
bokeleli
bokeli
bokengi
bokeseni
bokiti
bokli
boko
bokobandela
bokokani
bokoki
bokoko
bokoli
bokolisi
bokolo
bokolongono
bokomi
bokomisi
bokongama
bokongo
bokono
bokonzi
bokosangisaka
bokoti
bokri
bokristo
boku
bokulaka
bokulutu
bokumbi
bokundoli
bokungu
bokuse
bokutani
bokwe
bokwi
bokɔ
bokɔnɔ
bokɛ
bokɛsɛni
bokɛsɛnisi
bola
bolai
bolakisi
bolamba
bolamu
bolanda
bolandaka
bolandi
bolasie
bold
bole
bolei
bolembu
bolendisi
bolengeli
boli
bolia
bolimbisi
bolingani
bolingi
bolingo
bolivia
bolo
bolobi
bolobo
boloko
bololo
bolongoli
bolu
boluki
bolya
bolɛmbu
boma
bomati
bomba
bombama
bombo
bome
bomei
bomeki
bomeli
bomelisi
bomemi
bomengo
bomi
bomilakisi
bommars
bomoi
bomoko
bomongo
bomoni
bomoto
bomoyi
bompema
bomwa
bomwana
bomɔ
bomɔi
bomɛmi
bon
bona
bonane
bond
bondala
bondeko
bondimi
bondo
bondɔbɔ
bondɔki
bone
bonene
bonganga
bongo
bongwana
bongɔndɔ
boni
boniface
boninga
boningani
bonjour
bonka
bonkita
bonko
bonkolongono
bonku
bonkɔ
bonkɔkɔ
bonne
bonneuil
bono
bonobo
bonsomi
bonsɔ
bontinck
bonyama
bonza
bonzambe
bonze
bonzoto
bonɛ
book
books
bopanzani
bopanzi
bope
bopemi
bopesamaka
bopesi
bopete
bopumbwi
bopɔnami
bopɔni
bopɔnɔmi
bopɛ
bora
borah
bord
bordeaux
border
bordered
bordure
bordures
borgloon
born
borneo
borni
bosa
bosakoli
bosaleli
bosali
bosalisani
bosalisi
bosambisi
bosangani
bosanganisi
bosangeli
bosangisi
bosco
bose
bosembo
bosenga
bosi
bosilisi
bosimbi
bosnia
boso
bosoliongo
bosombi
bosopi
bosoto
boston
bosu
bosungi
bosɔ
bosɔmɛ
bosɔtɔ
bosɛ
bosɛngɛ
bot
bota
botali
botamboli
botambwisi
botangi
botanical
botanique
botaniques
bote
boteki
boteyi
both
boti
botimoli
botindi
boto
botomboki
botomboli
botongi
botosi
botswana
bottom
botu
botulisme
botɔmbɔki
botɛ
bou
bouboule
bouge
bouger
boulenger
boumeli
bourgmestre
bovis
bowane
bowe
box
boya
boyambi
boyangeli
boye
boyebi
boyei
boyekoli
boyi
boyibanda
boyike
boyo
boyokani
boyoma
boyu
boyɔ
boza
bozaleli
bozali
bozalizali
bozamba
bozangi
bozi
boziana
boziki
bozindo
bozinga
bozito
bozoba
bozongisi
bozui
bozwami
bozwi
br
brabant
brac
braeckman
brain
bral
brale
branham
brasil
bration
bratislava
braza
brazil
brazilian
brazza
brazzaville
bre
break
bref
bres
brest
bretagne
breu
bridge
brien
brigade
bristol
brita
britain
britanique
britannique
british
broadway
broche
bronze
brooklyn
bru
bruk
brun
bruney
bruno
brussel
brute
bruxelles
bs
bu
bua
buanga
buda
budapest
budget
budja
budu
buenos
buffalo
buganda
bugume
building
built
bujumbura
buk
buka
bukama
bukasa
bukavu
buke
bukima
buku
bula
bulamatari
bulambemba
bulange
bulawayo
bulayumi
bule
bulembi
bulevale
bulgaria
bulimie
bull
bulle
bulletin
bullinger
bulo
buloba
bulona
bumba
bumpy
bundu
bunia
bunya
bureau
burkina
burundi
bus
bush
bushiri
bushnell
business
businga
but
buta
bute
butembo
buts
butu
butuka
buye
buzali
bw
bwa
bwaka
bwakaka
bwali
bwanga
bwango
bwania
bwanya
bwe
bwenza
bwindi
by
bya
byango
bym
byoti
byron
bœck
bɔ
bɔlɔ
bɔmɔi
bɔngɔ
bɛ
bɛljika
bɛndɛ
bɛtɛlɛmɛ
c
ca
cabinda
cabral
cacert
cadillac
cadre
caen
cafe
cahier
cahiers
caicos
cain
caire
cairn
cairo
calc
cali
california
call
calle
callugi
calmann
calmette
calories
caludji
camargo
cambodge
cambridge
cameroun
camile
camille
camp
campagne
campos
campus
can
canada
canal
cancer
candace
canique
canis
cannes
cantique
caoutchouc
cap
capable
cape
capital
capitale
capone
caption
captionstyle
caqueta
car
caracte
carai
carbone
cardiaque
cardinal
carences
carie
carl
carlito
carlo
carlyto
carnaval
carnets
carol
carolus
carre
carrie
carte
cartement
cartes
carthage
cas
casbah
case
cases
caskey
casques
castle
castor
cata
catalogue
cataractes
cataracts
catch
cate
categori
categoria
categorie
category
cathe
cathedral
catherine
catholique
catholiques
cattrall
cauca
cause
cavale
cc
ccci
cd
cdc
ce
ceb
cec
ceci
cedaf
cee
ceeba
cefaki
cei
cela
celeo
cell
celles
cellpadding
cells
cellspacing
cellulaire
cellule
celluloid
celta
celtel
celui
cembre
cena
cendres
cent
center
centime
centimes
central
centrale
centralisation
centre
centripe
centro
century
ception
cercle
cerea
cerf
certaines
certains
certificat
cerveau
ces
cesse
cet
cette
cfc
cfk
cfl
cfm
cfmk
cfu
ch
cha
chacun
chai
chaine
chaire
chairman
chaise
chaka
chal
chaleur
chaltin
chambe
chambre
chambres
champ
champion
champions
chance
chang
change
changed
changement
chanson
chansons
chant
chantal
chante
chantent
chanter
chanteur
chanteurs
chanteuse
chantier
chants
chaos
chaplin
chaque
charge
charger
charisme
charite
charlemagne
charles
charlesville
charlie
charlotte
charly
charme
charpentier
charte
chartsinfrance
chassent
che
chef
chefferie
chefs
cheikh
chelle
chemin
chemins
chercheur
cherchez
ches
cheval
chevalier
chevet
chevrolet
chez
chf
chfr
chfv
chi
chicago
chien
chiffre
chikito
child
children
chime
chimie
chimique
chimpanzee
china
chine
chinese
chinois
chirac
chirures
chloroquine
cho
choc
choix
chongoni
chorus
chouchou
chre
christ
christian
christiane
christianisme
christmas
christophe
chronic
chronique
chroniqueur
chronologie
chrysichthys
chua
church
chutes
ci
cia
cial
ciale
cialise
cicm
cidade
cidr
cie
ciel
cieux
cifie
cifique
cilt
ciluba
cine
cinquante
ciproque
circonstances
circulation
cis
cishugi
cision
cisse
cissoko
cit
citas
citation
cite
cites
citoyen
citrus
cits
city
civil
civile
civilisation
civilisations
civitas
ck
cl
clair
claire
claquer
claration
clark
claro
class
classe
classes
classics
classification
classique
classiques
clate
claude
claudia
clavier
cle
clear
clemens
cles
climat
clinique
clinton
clip
clips
clostridium
clot
club
cm
cngkprov
co
coast
coat
cobar
cobelco
coca
coco
code
codes
coeur
col
cola
colden
cole
colette
colin
coll
collaboration
collapse
colle
collectif
collection
collections
collective
collectivite
college
coller
collez
colloque
colombia
colonel
colonial
coloniale
coloniales
colonialism
coloniaux
colonie
colonisation
colonne
colonnes
colony
color
colorectal
colors
coloured
coltan
com
comazar
combat
combats
combinaison
combinant
combinations
combo
combretaceae
come
comestibles
comite
comme
commence
commencent
comment
commerce
commercial
commerciale
commission
committee
common
commons
commonwealth
commotion
commun
communautaire
communaute
commune
communication
communications
communique
communiste
como
comoe
compagnie
compagnies
company
compe
compense
comple
complet
complete
completely
complets
complex
complexe
complication
composant
compose
compositeur
composition
comprendre
compte
computer
comte
comunidades
con
conakat
concepcio
concept
concert
concession
concessionnaire
concordia
concours
concurrence
condition
conditional
conditions
conducteur
conductivite
confe
confie
configuratione
confirmation
confirme
confirmer
conflit
conflits
confre
confusion
congas
conge
congicus
congo
congolais
congolaise
congolaises
congolese
congolie
congonline
congopage
congre
congregatio
congress
coninck
connai
connaissance
connaissant
connexe
connexes
connexion
connie
connu
conomie
conomique
conomiques
conrad
consacre
conscience
conse
conseil
conseille
conservation
conservatoire
conside
consider
consonne
consonnes
constitution
constitutionnelle
construction
construindo
consulte
contact
containing
contamine
conte
contemporain
contemporaine
contemporary
contenant
content
contentieux
contents
contenu
contes
context
contiguous
continent
contra
contraception
contrat
contre
contribuer
contribute
contribution
contributions
contro
control
convention
conventions
conversion
convert
coope
coord
coordonne
copa
copain
copier
copirep
copyright
coquery
coquilhatville
cor
corbisieri
corbusier
cordis
core
coreca
coro
corporation
corps
corre
correspondance
correspondant
corresponding
corruption
cossais
cosse
costalago
costermansville
costi
cote
cotonco
cou
could
couleur
couleurs
countries
country
coup
coups
cour
couramment
courant
courrier
cours
cousins
couverte
couvertes
couvrir
covered
covid
cp
crash
cre
cream
create
creates
creation
cret
cri
cride
crime
crire
crise
crisp
crit
crite
critique
critiques
criture
crivain
crivains
crkve
crochets
crocodiles
crocodylus
croisement
croix
crop
cropped
croquis
crosby
cross
crp
cruaute
cruelle
crystal
cs
csk
css
cuanza
cuba
cubique
cuivre
cultura
cultural
culture
culturecongo
culturel
culturelle
culturelles
culturels
cultures
cupe
cur
curite
curitiba
curtis
cus
cuvette
cvz
cy
cycle
cynthia
cyre
cyrille
cœur
d
da
dabany
dacia
dacryodes
daction
dada
dag
dagbo
dagenham
daget
dagogique
daher
daille
daisy
dakar
dale
dallas
damas
dame
damne
damɛ
dan
danemark
danger
dangu
danie
daniel
dans
danse
danseurs
danyele
dar
dard
darren
das
data
database
date
dates
dauphin
dave
david
davis
day
de
death
debaba
debout
dec
decaux
december
decine
deezer
defao
default
defaults
define
defined
defoe
degre
deh
dei
deja
dekempeneer
del
dela
delhi
della
delta
deluxe
dem
demain
demande
demander
demba
demeure
demie
demingongo
democracy
democratic
democratie
democratique
demokrasi
demokrate
demokrati
demokratiki
den
dene
dengue
denied
denis
denn
dennis
denoe
dent
dentaire
dente
denver
deny
departamento
department
depends
deplick
depression
depuis
der
dernie
dernier
derniers
derrie
derval
des
descle
description
desde
desembe
desire
dessa
dessin
dessine
dessins
dessous
dessus
deste
destin
destine
detail
details
detecting
dette
deutsch
deutsche
deutschkenntnisse
deux
devan
devant
develope
developing
development
devenir
deviendra
devient
devise
devraient
dewarichet
dey
dhabi
di
dia
diabe
diagnostic
diaka
dialecte
dialium
diallo
diama
diamant
diamba
diambu
diamond
dianda
diane
diantantu
dias
diaspaul
diate
diaye
dibaya
dibumba
dicales
dich
dick
dictionary
dictionnaire
didier
die
died
diego
diels
dien
diese
diesel
dieser
dietrich
dieu
dieudonne
dieumerci
diffe
different
difficult
difficulte
digit
digital
digitalcongo
digne
dignite
dijon
dika
dili
dilolo
dimanche
din
dindo
dindon
dinosaur
dio
dioce
diocesi
diome
diop
dipanda
diplo
diplomatique
diplomatiques
dir
dire
direct
directe
directeur
direction
dirige
dirs
disable
disasi
discographie
discogs
discontinued
discours
discovery
discussion
disease
diski
disorder
display
displayed
disponible
disponibles
disque
dissertation
distance
distichodus
distribution
district
districts
dit
dite
diterane
dition
ditions
ditu
divers
diversite
divin
divise
division
divuma
dix
dj
dja
djambala
djan
djanana
dje
djemba
djembe
djemila
djenne
dji
djibuti
djikapela
djili
djino
djiri
djo
djodjo
djolina
djoudj
djuna
djungu
dl
dm
dms
do
dobok
dobson
doc
docteur
doctorat
documentaire
documentation
documents
dodo
doesn
dog
dogon
doit
dokotolo
doktolo
dola
dolin
dollars
dolo
dolomiti
dom
domaine
domaines
domaniale
dome
domination
dominer
domingo
dominguez
dominicains
dominique
domus
don
donc
dondo
done
dong
dongala
donne
donnera
dont
dorment
dos
dose
dossier
dosta
dou
douala
douard
double
doudou
dougga
douleurs
dour
doux
down
doyenne
dp
dq
dr
drakensberg
drale
drame
drapeau
drawings
dreierwalder
dresde
dric
droit
droite
droits
drum
drums
dt
du
duala
duard
dub
dube
dubois
ducati
ducation
duckduckgo
duculot
duguneh
dumi
duo
dure
during
duro
dutch
duvalle
dvd
dynamiques
dyosɛ
dz
dzando
dzemi
dzewatama
dzokanga
dzomi
dɔ
dɔngɔ
dɛ
dɛsɛ
e
each
early
east
easy
eau
eaux
eb
eba
ebakisaka
ebakiseli
ebalabala
ebale
ebamba
ebanda
ebandaka
ebandaki
ebande
ebandela
ebandelaka
ebandeli
ebandelo
ebandi
ebandisamaki
ebatelaka
ebatelami
ebe
ebele
ebembe
ebende
ebengami
ebengeli
ebengi
ebetaki
ebi
ebiangami
ebima
ebimaka
ebimaki
ebime
ebimelaka
ebimi
ebimisaka
ebimisaki
ebimisami
ebinamaka
ebine
ebo
ebobo
ebodja
eboka
ebola
ebolo
ebomaka
ebombamelo
ebombami
ebombelo
ebomi
ebonga
ebongi
ebongisami
ebongo
ebongolaka
ebotami
ebre
ebu
ebwɛ
ebɔ
ebɔngi
ebɛ
ebɛbu
ebɛbɛlɛ
ebɛkɛ
ebɛlɔ
ecartement
eccle
ecg
echos
ecole
ed
eddy
edema
edgar
edge
edilivre
edirne
edisioni
edit
edite
edited
edith
edition
editions
edmund
edouard
edu
education
edulis
edward
ee
eek
eenige
efa
efandeli
efandelo
efelo
effect
effectifs
effective
effects
effet
effets
efficacite
effort
efu
efungwami
eglise
eh
ehret
eic
eifel
ein
eine
einem
einer
einsiedeln
ejali
ejipte
eka
ekabola
ekabolamaka
ekabolami
ekaboli
ekabuani
ekabwa
ekabwani
ekakoli
ekambami
ekambi
ekambo
ekanga
ekangama
ekangami
ekange
ekangi
ekangisi
ekaniselo
ekatamaki
ekateli
ekauki
eke
ekeke
ekeko
ekela
ekelama
ekelamaka
ekelamaki
ekelami
ekele
ekembe
ekendeki
ekesa
ekeseni
ekesenisi
ekeyi
eki
ekita
ekitaka
ekitisaka
ekle
eklesia
eklesya
eklezya
eko
ekobanda
ekobi
ekobima
ekobo
ekoka
ekokaka
ekokaki
ekokana
ekokani
ekokende
ekoki
ekokisi
ekoko
ekokoma
ekokota
ekokɛ
ekola
ekolaka
ekolakisa
ekolanda
ekoleka
ekolo
ekoma
ekomaka
ekomaki
ekomama
ekomamaki
ekomami
ekome
ekomelaka
ekomeli
ekomi
ekomɔ
ekongongo
ekono
ekonomi
ekontaminer
ekopekisa
ekopesa
ekopɔla
ekopɛ
ekopɛsɛ
ekosa
ekosala
ekosalaka
ekosalama
ekosalema
ekosalisa
ekosengela
ekosengele
ekosi
ekosila
ekota
ekotaka
ekoti
ekotika
ekotisaki
ekotisi
ekoya
ekozala
eku
ekufa
ekulu
ekumbi
ekumisi
ekutanaki
ekwate
ekwatolia
ekwatorial
ekwe
ekweyisamaki
ekɔ
ekɔlɔ
ekɔtisamaki
ekɔtɔ
ekɛ
ekɛndɛ
ekɛsɛ
ekɛsɛni
el
ela
elai
elaka
elaki
elakisaka
elakisi
elamba
elambami
elambe
elambo
elamu
elandaka
elandaki
elandanaka
elandani
elande
elandi
elanga
elastica
ele
election
elections
eleison
eleka
elekaka
eleki
eleko
eleli
elembisaki
elembo
elenga
elenge
elengelami
elengenami
elengi
elengo
elephant
elephants
elephas
eleyson
eli
eliba
elikia
elikya
elikɔptɛ
elili
elilingi
elimo
elingaka
elingaki
elingi
elisabethville
elitre
eliyu
elizabeth
elle
elles
elo
eloba
elobaka
elobaki
elobamaka
elobami
elobeli
elobi
eloko
eloli
elombe
elonga
elongi
elongo
elongobani
elu
elvezia
ely
elɔ
elɔngɔ
elɛngi
elɛngɛ
em
emataka
emati
embala
embe
embedding
embembe
embl
eme
emekeli
emekisele
emela
emelami
emema
ememaka
ememaki
emeneya
emergence
emergency
emery
emeseni
emfren
emi
emile
emisɔ
emmanuel
emona
emonanaka
emonanaki
emonaneli
emonani
emoni
emoniseli
emonisi
emoto
empire
employe
empreintes
empty
emty
emɔ
emɛme
en
ena
enaf
enama
enchainer
enclyclope
encore
encyclope
end
endimami
enene
energie
enfance
enfant
enfants
enfin
eng
engbo
engbunduka
engebene
engelsberg
engelsbergs
engler
english
engombi
engu
engumba
engɛ
enjeux
enne
ennedi
enregistrement
enseignement
enseigner
ensemble
ensengeli
entandrophragma
ente
entend
entete
entie
entre
entrepreneur
entreprise
entreprises
entretien
enugu
enver
environnement
environnent
environs
envol
enzyklopa
enɛ
enɛnɛ
eo
ep
epa
epai
epalanganaki
epanzanaka
epanzani
epati
epayi
epe
epekiseli
epela
epelelo
epesaka
epesaki
epesama
epesamaka
epesamaki
epesameli
epesami
epesi
epi
epidemie
epinya
episkopi
episkopo
eponaki
eponamaki
eposa
epu
epumbwaka
epusi
epɛ
epɛpɛ
epɛsi
equateur
er
erazi
ergo
eric
erick
erik
erlandaise
ernest
ero
eropa
erzegovina
es
esa
esakweli
esala
esalaka
esalaki
esalama
esalamaka
esalamaki
esalami
esale
esalelaka
esalelamaka
esaleli
esalema
esalemaka
esalemaki
esalemi
esali
esalisaka
esambaka
esanele
esanga
esangani
esangi
esangisi
esantu
esclavage
esculenta
ese
esembolami
esembwama
esengaka
esengaki
esengami
esenge
esengelaka
esengelaki
esengeleki
esengeli
esengi
esengo
esi
esika
esila
esilaka
esilaki
esili
esimbaka
esita
eso
esobe
esode
esombaki
espace
espagne
espagnol
espan
espania
espe
esperanc
esperance
esperanto
espoir
esposito
esprit
essai
essais
essaouira
est
esta
este
esthe
esther
estonia
esu
esukaka
esuku
esulu
esungaka
esungami
esusu
eswaka
eswatini
esɛ
esɛngaki
esɛngɔ
esɛngɛ
et
eta
etabe
etablissement
etage
etali
etalisi
etambolaka
etamboli
etanda
etando
etangami
etangemi
etangi
etat
etataouni
etats
etazini
etc
ete
eteka
etekamaka
etelema
etelemana
eteli
eteni
etern
eternel
eterno
eteyelo
ethnographie
ethnologue
eti
etiami
etienne
etika
etikala
etikela
etiki
etindaki
etiopi
etiyami
eto
etoa
etoko
etongama
etongamaka
etongamaki
etongameli
etongami
etongelelo
etongolo
etsiselaka
ettabaa
etu
etude
etudes
etuka
etumangele
etumba
etumbu
etungisaka
etuta
etuti
etyamaka
etymology
etɔɛlɛ
etɛ
eu
euge
eumelaka
eumelaki
eure
euro
europa
europe
european
euti
eux
eva
evandaka
evanjile
evariste
eve
even
every
evey
evidence
evimbi
evket
evo
evoloko
evolution
ewa
ewo
ewu
ewumeli
ewuta
ewutaka
ewutaki
ewute
ewuti
ex
exagonal
examen
example
examples
exce
excel
excellence
exception
exclamative
exclame
exclarrogative
exclure
exclusif
exclusivement
exemo
exemplaires
exemple
exemples
exercice
exil
exist
existing
exitcongomuseum
exotic
expansion
expe
expedition
explication
exploitant
exploitation
exploitations
exploite
exploiter
explorateurs
exploration
explorer
exposer
express
expression
exprime
externe
externes
extinct
extra
extrait
extraits
extraordinaire
eya
eyaka
eyaki
eyamba
eyano
eye
eyebana
eyebanaki
eyebani
eyenga
eyi
eyo
eyokani
eyɔ
eza
ezal
ezala
ezalaka
ezalaki
ezalela
ezaleli
ezali
ezanga
ezangi
ezaya
ezelelo
ezi
ezika
ezipeli
ezipito
ezo
ezongaka
ezongaki
ezua
ezwa
ezwaka
ezwaki
ezwama
ezwamaka
ezwamaki
ezwami
ezwi
f
fa
fables
fabregas
fabrice
fac
face
facebook
facilement
fact
facteur
facteurs
facultatif
facultative
faculte
fai
fail
faillance
failure
faire
faisant
fait
faith
faits
faka
fakoly
fala
falaise
falama
falanse
falansia
falaswa
falaze
fali
fall
fally
false
famasi
fame
fami
familier
famille
family
famous
fannattik
fantastikoh
fanto
fao
far
fara
faraon
farasa
fasilides
faso
father
fatou
faune
faunes
faustin
faut
faux
fayard
faydee
fayulu
fc
fe
feat
featuring
february
febuari
febwa
fedelali
feeding
feel
feira
fela
felly
felt
femi
femme
femmes
fene
fense
fer
fera
ferdinand
ferm
ferme
fern
fernand
fernando
ferrari
ferre
ferroviaire
ferroviaires
fertilite
fertilization
festival
feu
feuille
feuilles
feux
fever
fi
fibrillation
fibrose
ficarre
fices
fiche
fichier
fiction
fidel
fie
field
fields
fier
fievre
fifa
fifi
figaro
fight
figi
figure
figures
filandu
file
filemon
filet
filho
filhos
fili
filiale
filiales
filigo
filime
fille
filled
filles
film
filme
films
fils
fin
final
finale
finance
financement
finances
financie
financier
find
fini
finie
finilanda
finissent
finitivement
fiorella
fire
firefox
firenze
firmament
first
fish
fishbase
fisol
fiston
fitz
fix
fixe
fixer
fixes
fizi
fla
flag
flags
flam
flammarion
flamme
flammes
flash
flavour
fle
fleurs
fleuve
flexibility
flexions
flight
float
flokkur
flora
flore
florence
flores
floribert
florida
floris
floristique
flowering
flu
fluidement
fluviales
fluvials
fluviaux
fm
fo
foi
foie
fois
folio
folk
followed
following
fololo
foncie
fonction
fonctionnement
fondateur
fondation
fonde
fondements
fonds
font
fontaine
food
foot
footballeur
for
forc
force
forces
ford
fore
fored
forest
forestie
format
formation
formatted
forme
former
formerly
formes
formule
fort
forte
fortune
forum
fossiles
foto
fou
foundation
fr
fracture
fragments
franc
france
francesco
franceville
franche
franchise
francis
francisco
franciscus
franck
franco
francophone
francophones
francophonie
frank
frankie
franklin
franqui
franse
fransia
frantz
franz
frappe
fre
free
freebsd
freedom
french
friburg
frida
frigo
from
fromme
front
frontie
fruits
ft
fu
fufu
fugie
fula
fulbert
full
fulu
fun
fundu
fungola
funtumia
fusion
fut
futur
future
futuro
fwa
fwamba
fwengi
fɔlɔ
fɔtɔ
fɛ
fɛlɛ
g
ga
gabon
gabriel
gabɔ
gae
gael
gained
gaitana
gal
gala
galasi
galement
galerie
galile
galileo
gallery
galliano
gallimard
gallo
gambi
gambia
gambie
gamma
gammelga
gandhi
gap
garajonay
garamba
garc
garcia
garde
garden
gare
gares
garoua
garvey
gaston
gates
gateway
gatifs
gation
gative
gativite
gauche
gaulle
gaz
gazelle
gb
gbadolite
gbagba
gbagbo
gbanda
ge
gebel
gebruikelijke
gecamines
gecko
gecoco
gegants
gelsjo
gemena
gende
gene
general
generated
generation
genetic
geneve
genie
genre
gens
gente
gentil
geoffroy
geographic
geographical
george
georges
geraci
gerald
geralmente
gerard
gerer
germaine
germany
geste
gestion
get
gewinner
ghadame
ghana
ghat
ghenda
gibbons
gibt
gide
gien
gif
gigolo
gijzegem
gilbert
gili
gilles
gim
gims
gine
gion
gional
gions
giorgio
giovanni
gique
girl
giroud
gisd
given
gizenga
gje
gl
glace
glacier
glande
glarus
gle
glenatbd
gles
glise
glises
glo
global
globule
globules
globuline
glonass
glopro
gloria
gnathonemus
gne
gnu
go
goal
gocier
gofile
goga
gola
gold
golden
golf
golfe
gologota
golwa
goly
goma
gombe
gombo
gongo
good
google
gore
gorge
gorie
gories
gorilla
gorille
gorilles
goro
gospel
gosse
got
goti
gott
goubald
gouffre
gounda
gout
gouvernement
gouvernements
gouverneur
gouverneurs
gov
government
gp
gps
gra
grace
gradur
grafite
gral
grale
grammaire
grammar
grammatical
grammaticale
grammaticales
grammaticaux
granada
grand
grande
grandes
grandit
grands
grandslacs
grapefruit
grasset
gration
grauen
grave
gray
gre
great
greatest
grecs
green
gregɔr
grenada
grenoble
grer
gres
gresi
griot
grippe
gris
grischun
gritide
gritude
gro
groenlandi
grosse
group
groupe
groupement
groupements
groupes
große
grupema
grupo
grupos
gsm
gsw
gu
gua
guadalajara
gualtisi
guangdong
guangzhou
guard
guardini
gue
guegue
guerre
guesso
guez
guide
guidebook
guillaume
guin
guine
guinea
guita
guitare
guitares
guli
gulie
guo
guthrie
guti
guvenema
guvɛnɛma
guvɛrnema
guy
guyane
guyguy
gv
gwadelupe
gwatemala
gyptien
h
ha
hab
habyarimana
had
haddou
haiku
haile
haiti
halfaouine
hall
hallain
hamilton
hammad
hammarskjo
handout
hanlon
harar
harmattan
harper
harry
harvard
has
hat
hatier
haut
haute
hauteur
hauts
have
having
havre
hbo
he
head
header
headers
heads
health
heart
hebdomadaire
hebe
hehren
heiligen
helene
hello
help
helpful
helsinki
hendrix
henji
henri
henricus
henrique
henry
hepatite
hepatitis
her
herausgegeben
herbert
here
heritage
herman
hermann
hero
herpes
herrn
het
heure
heures
heureusement
heuvelmans
hewa
hewn
hi
hibiscus
hidden
hiding
higher
hilaire
hilgendorf
hill
hills
himalaya
hino
hip
hippolyte
his
histo
histoire
historia
historic
historiens
historique
historiques
history
hitachi
hits
hiver
hl
hmc
hn
ho
hochegger
hochschild
hoi
holanda
holding
holiday
hollandais
hollande
hollywood
holocauste
home
homem
homens
hominide
hommage
homme
hommes
hommme
homo
honduras
hong
honneur
honorary
honore
hoover
hop
hopkins
horizontales
hors
hot
hotel
house
how
hr
hrana
hrsg
hsb
htm
html
htmlhttps
http
https
hu
hue
hugo
hugon
hui
huit
huldrych
huma
humaine
humaines
humains
human
humanite
humble
humides
hunspell
hussein
huum
hydrocynus
hyenas
hypertension
hypotension
i
ia
iad
ibaka
ibale
ibandi
ibm
ibn
ibra
ibuba
ic
ice
ich
ichkeul
ico
id
ide
idea
ideally
idem
identifiant
identity
idi
idiofa
idioma
idolatrada
idrojɛ
ier
if
ignace
ignored
ii
iii
ike
ikobo
ikoki
ikyaushi
ikɛ
il
ile
ilebo
ilingi
illoo
illustration
illustrations
illustre
ilongo
iloo
ils
ilunga
im
image
images
imagestyle
imbie
imbwa
immaculati
imme
immigre
immune
immunise
immunite
immuno
immunode
imortal
impact
impala
impe
imperialismo
impfondo
implantation
importe
imposer
impossible
impr
impression
impressions
imprimerie
imumba
in
ina
inaccessible
inalco
inauguracion
inca
included
includes
including
inconnu
incrementparams
inde
independance
independe
independence
index
indi
india
indian
indiana
indien
indique
indiquer
indonesia
indonesian
indonezi
indubill
industrie
industriel
industrielle
industriels
industry
inei
inexplore
infecte
infection
infections
infernale
infinitif
infinity
infirme
inflammation
influence
influenceur
influenza
info
infobox
infoboxes
information
informations
informatique
infos
inga
inganos
ingas
inge
ingeta
ingetele
ingɔnza
ingɛlandi
ingɛlɛ
inhabitants
initiation
initiative
inivelesite
inkisi
inmarsat
inongo
inoubliable
input
inscrit
inse
insect
insectes
inserted
insister
inso
instagram
installation
installations
installer
instance
instant
instar
instead
institut
institute
institutions
instrumentalisation
instrumentiste
insurrection
insɔ
int
inte
integrated
intended
inter
interconnecte
interdit
interface
international
internationale
interne
internet
interneti
interpre
interrogation
interrogative
interrone
intervention
interview
interwiki
intitule
into
intonation
intore
introduction
invariables
invention
invokation
inɛ
inɛnɛ
io
ioannes
iode
iom
ionisation
ip
ipc
ipn
ipomoea
iprage
ipsum
ipupa
ipv
irak
iran
irebu
irlande
irlandi
is
isa
isaac
isabelle
isangi
isato
isbn
ische
isdr
isengeli
ishango
isi
isidore
isifi
isimangaliso
isiro
isizulu
isla
islam
islama
islamic
islamu
island
islandi
ismae
ismail
iso
isolante
isole
isotope
isotopes
isp
israel
israelite
issn
issue
ist
istanbul
istware
isu
isusu
iswe
it
ita
itali
italia
italian
italiano
italic
italien
italique
italya
ite
item
items
iti
itimbiri
itipo
itis
its
itunes
ituri
iu
iucn
iutaki
iv
ivan
ivoire
ix
ixquick
iye
iyeki
iyi
iza
izala
izalaka
izali
j
ja
jabbar
jackson
jacob
jacquemin
jacques
jadi
jadida
jadotville
jaguar
jah
jahia
jahres
jakarta
jake
jamai
jamaike
jamais
james
jan
janssens
januar
january
janvier
japan
japon
japonais
japone
jardin
jardins
jasmin
jaune
jazz
jazzman
jb
jdt
je
jean
jeannette
jeannine
jem
jennifer
jersey
jessica
jessy
jesus
jeudi
jeune
jeuneafrique
jeunes
jeunesse
jeux
ji
jill
jimi
jimmy
jitrois
jo
joa
joachim
joal
joannes
jobs
joe
joel
johannesburg
john
johnny
johns
johnston
joker
joly
jometri
jon
jonas
jonathan
jose
josefu
joseph
josephus
josky
jospin
joueuse
jour
journal
journaliste
journaux
journey
jours
jouvence
joyce
joyeux
jp
jpg
jps
jr
js
juan
judai
judaism
jude
judo
judoka
jugement
juif
juillet
juin
jules
juliana
juliane
julien
july
june
juni
jupiler
jupite
jusqu
just
juste
justice
justin
justine
juxtaposition
jyografi
jødedom
k
ka
kabalo
kabambare
kabange
kabasele
kabaydi
kabila
kabinda
kabondo
kabongo
kaboni
kabose
kabu
kabuka
kabulo
kabund
kabuya
kabwana
kadima
kadogo
kagame
kahamu
kahikara
kahlo
kahuzi
kaina
kairo
kairouan
kaka
kakenge
kakol
kakubi
kakudji
kala
kalaka
kalakala
kalala
kalambay
kalamu
kalayi
kale
kalemie
kalifoni
kalifornia
kalina
kalitie
kalle
kallina
kalo
kalonji
kaluila
kalundu
kalvin
kama
kamaka
kamanda
kamanyola
kamara
kamata
kamba
kambale
kamboji
kambove
kambulu
kambundji
kamembo
kamerun
kamina
kaminyɔ
kamitatu
kampala
kamponde
kamua
kamvira
kamwani
kana
kanada
kanako
kanam
kananga
kanda
kande
kandi
kandida
kando
kanelo
kanga
kangaseke
kangisa
kani
kaniama
kanisa
kanku
kann
kansi
kanti
kantite
kanton
kanunk
kanza
kaola
kapaya
kapita
kapitalismɛ
kapoti
kaputu
karah
karaha
karate
karl
karnaval
karta
karte
karthala
kasa
kasablanka
kasaflo
kasai
kasanje
kasanji
kasavubu
kasenyi
kaseya
kashamura
kashmiri
kasi
kasonga
kasongo
kastɔro
kasubi
kasɛ
kata
katako
katalas
katanga
katangaise
kate
katechismus
katego
kategooria
kategori
kategoria
kategorie
kategorija
kategorio
kateqoriya
katholischen
kati
katika
katikati
katoka
katoli
katolike
katongo
katu
katumbi
kaukau
kaumitu
kawata
kayas
kayembe
kazadi
kazamba
kdl
ke
keep
keim
keine
keita
kela
kelasi
kelvin
kemal
kemet
ken
kende
kene
kenge
kengo
kenia
kenji
kennedy
kenneth
kenya
kerkouane
kero
kester
kestergat
kevin
keyi
kg
kh
khami
khawatir
ki
kia
kiaku
kiamangwana
kiambukuta
kiamvu
kibangu
kibassa
kibens
kibinda
kibomwasi
kie
kiese
kif
kifwafwa
kigali
kigoma
kikongo
kikuku
kikwit
kikɔ
kila
kilembe
kili
kiliba
kilimandjaro
kilimanjaro
kilo
kiloga
kiluba
kilumbu
kilwa
kim
kimba
kimbangu
kimbanguisme
kimbanse
kimbembe
kimbombo
kimbunda
kimia
kimina
kimobali
kimokonzi
kimwenza
kin
kina
kind
kinda
kindle
kindoki
kindu
king
kingasani
kingdom
kingo
kingotolo
kings
kingudingudi
kingwana
kini
kinkaka
kinkala
kinkela
kino
kinsa
kinsasa
kinse
kinsha
kinshasa
kinta
kintambo
kintsiona
kintu
kinyarwanda
kipe
kipenda
kipushi
kirche
kirundi
kisa
kisaka
kisanga
kisangani
kisantu
kisasa
kise
kisha
kisi
kisimo
kisiwani
kiss
kiswahi
kiswahili
kitab
kitawala
kitendi
kitete
kiti
kitisa
kitoko
kitu
kitubu
kitɔ
kivu
kiwanzenza
kizito
kizubanata
kizunguzungu
kj
klavue
kleine
klementina
kli
klisto
km
kmc
kn
know
ko
koba
kobakisa
kobalt
kobaluka
kobalusa
kobamba
kobanda
kobanga
kobatela
kobaye
kobe
kobeba
kobebisa
kobela
kobenda
kobenga
kobeta
kobi
kobika
kobikisa
kobikisama
kobima
kobimela
kobimisa
kobo
kobokola
koboma
kobomba
kobongisa
kobongola
kobongwana
kobota
kobotama
koboya
kobu
kobuka
kobunda
kobundisa
kobungisa
kobɔ
kobɔngisa
kobɛ
kobɛlɛ
kobɛtɛ
koconfirmer
kodia
kofa
kofanda
koffi
kofinga
kofu
kofungwama
koganga
koka
kokabola
kokabolama
kokamba
kokamwa
kokanga
kokangama
kokangisa
kokanisa
kokata
kokauka
koke
kokela
kokende
kokesana
kokesena
koki
kokima
kokita
kokitisa
koko
kokoba
kokoka
kokokana
kokokisa
kokola
kokolisa
kokolo
kokoma
kokomela
kokomisa
kokosola
kokota
kokoti
kokotisa
koku
kokufa
kokundola
kokunza
kokutana
kokutisa
kokwe
kokɔ
kokɛ
kokɛndɛ
kola
kolakisa
kolakisaka
kolala
kolamba
kolanda
kolandaka
kolandana
kolandela
kole
koleka
kolekisa
kolela
kolelas
kolendisa
kolengele
koli
kolia
kolinga
koliya
kolo
koloba
kolobaka
kolobama
kolobela
kolombi
kolonga
kolongola
kolongua
kolongwa
koloni
kolonia
kolosoy
koltan
koluka
koluta
kolwezi
kolya
kolɛmbisa
koma
komata
komatisa
komba
kombe
kombo
komeka
komekameka
komela
komelama
komelisa
komema
komi
komiba
komibatela
komine
komini
komipesa
komisyo
komitatɛ
komitungisa
komiyoka
komo
komona
komonana
komonisa
komori
kompani
kompanyi
kompi
komuniki
komɔ
komɔnɔ
komɛlɛ
komɛma
komɛmɛ
konakry
konde
kondima
kondimana
kondimisa
konetola
kong
kongo
kongolo
koningana
koningisa
konono
konso
kontina
konyi
konyokola
konyɔ
kopambola
kopangana
kopanza
kopanzana
kopasola
kope
kopekisa
kopema
kopemisa
kopesa
kopesama
kopesela
kopi
kopo
kopola
kopona
kopu
kopumbwa
kopɔlɔ
kopɔna
kopɛ
kopɛsɛ
kora
kore
korentien
korneye
kos
kosa
kosade
kosakana
kosakola
kosala
kosalama
kosalela
kosalelama
kosalema
kosalisa
kosalisama
kosambela
kosana
kosangana
kosanganisa
kosangisa
kosanza
kose
kosenga
kosengela
kosepela
kosepelisa
kosi
kosiba
kosila
kosilika
kosilisa
kosimba
koso
kosokola
kosolola
kosomba
kosopa
kososola
kosovo
kosta
kosu
kosua
kosuama
kosuba
kosukisa
kosukola
kosunga
kosungama
kosɛ
kota
kotala
kotalela
kotalisa
kotambola
kotambusa
kotambwisa
kotanga
kotangisa
kotava
kotazo
kotdivuar
kote
koteka
kotekama
kotekateka
kotekela
kotela
kotelemela
koteya
koti
kotia
kotiama
kotika
kotikala
kotiya
koto
kotoka
kotondisa
kotonga
kotongisa
kotraiter
kotuba
kotuna
kotungisa
kotungisama
kotya
kotɛ
kotɛka
kou
koumba
koumela
kouta
kova
kovanda
kovi
kovimba
kowumela
kowuta
koya
koyaka
koyamba
koyangela
koye
koyeba
koyebana
koyebisa
koyekola
koyemba
koyi
koyo
koyoka
koyokisa
koza
kozala
kozanga
kozela
kozi
kozo
kozoka
kozonga
kozongela
kozongisa
kozua
kozuama
kozuwa
kozuwama
kozwa
kozwama
kp
kpɔ
kri
krie
kristadelfe
kristin
kristo
kristofers
kristu
kroasia
kt
ktron
ku
kua
kuba
kufaki
kuilu
kule
kulumba
kumisa
kumu
kuna
kunda
kundu
kuruse
kusangila
kutala
kuti
kutu
kuva
kuvilakana
kuzua
kwa
kwame
kwanga
kwango
kwar
kwasa
kwelo
kwempa
kwilu
kwivre
kwɛlɔ
kya
kyamundu
kɔ
kɔli
kɔlɔkɔ
kɔntɛnɛ
kɔsu
kɛ
kɛkɛ
kɛlɛlɔ
kɛndɛ
l
la
label
labelstyle
labo
laboratoire
labou
lac
lacey
lacoste
lacs
lacustres
lada
ladi
laffon
laffont
lagos
laguna
lahore
lai
laka
lake
laki
lakisa
lala
lam
lama
lamaka
lamata
lambert
lame
lami
lamu
lana
land
landa
landana
landscape
landu
landwasser
landwasserviadukt
lang
langa
langage
langages
langi
lango
language
langue
languedoc
langues
lani
lanka
lannoy
laos
lapicque
lapika
laquelle
larcier
larger
largeur
largillet
larmes
larousse
lars
las
lasi
lassa
lassy
last
lata
later
lati
latifs
latin
latina
latine
lation
latrine
latrines
latɛ
laure
laurent
laurisylve
lausanne
layout
lazariste
lazaristes
lb
ld
le
leader
leaders
least
lebou
lec
lecteur
lection
lections
lectrique
lectriques
lectron
lectrone
lectronique
lecture
led
lee
left
leipzig
leka
leki
lekilosi
leksey
lekumu
lela
lelaka
lele
leli
lelo
lema
lemaka
lemba
lemi
lemmens
lenge
leone
leonhard
leopold
leopoldville
lepa
leptis
lequel
lequipe
lerin
leroy
les
lesa
lesia
lesquels
lessines
leste
lestin
lestine
lesula
let
leta
letac
letele
letiok
letoni
lettre
lettres
leu
leur
leurs
leuven
leuvensesteenweg
levage
level
levering
levy
lewis
lexe
lexicale
lexique
lexiques
ley
li
lia
liaison
liale
lialemani
lialemaniki
liango
liarabi
liarabu
lias
liason
liba
libaku
libala
libale
liban
libanda
libandeli
libanga
libanki
libata
libateli
libatisi
libatiso
libaya
libbrecht
libe
libela
libele
libende
libengami
libenge
liberdade
liberia
liberta
libertac
liberte
libi
libiki
libo
liboka
liboke
liboko
liboma
libondanse
libongo
libongoli
libor
liboso
libota
liboulou
librairie
library
libre
libres
libreville
libu
libulu
libumu
libundu
libunga
libwa
libwe
libya
libɔ
libɔlɔ
libɛ
libɛki
libɛkɛ
libɛngɛ
licence
license
licopte
lidjo
lidusu
lidɛ
lie
liechtenstein
lien
liens
liestale
lieu
lieutenant
lifalama
lifalanse
life
lifofe
lifoko
lifrisi
lifu
lifulian
liga
light
ligne
lignes
ligomba
ligreki
ligresi
ligue
ligɔ
lika
likabo
likala
likalakonki
likalo
likama
likambo
likanisi
likanza
likasi
likata
likati
likaya
like
likelelo
likembe
liki
likindo
likindu
likinga
likita
likitana
likitani
liko
likoki
likokolo
likolo
likombi
likombo
likonga
likonza
likonzi
likopɛ
likosambelaka
likroasi
liku
likula
likutu
likwala
likwanga
likwe
likɔ
likɛ
lila
liladin
lilandi
lili
lilingi
lilita
lille
liloba
lim
lima
limbaya
limbe
limbwa
limbɛ
lime
limelo
limete
limit
limitation
limitations
limite
limited
limites
limpinga
limpu
limɛli
limɛmya
lin
lina
lincoln
linda
lindanda
lindi
lindy
lindɔngɛ
line
linegrey
linene
lines
linete
linga
lingala
lingalistiki
lingelesi
lingi
lingisi
lingo
lingomba
linguistique
lingwala
lingɔngɔ
lingɛlɛ
lingɛlɛsa
lingɛlɛsi
linini
link
links
linnaeus
linne
lino
linono
linterlingue
linus
linux
linyo
linza
linzenga
linɛ
linɛnɛ
lioko
lioration
liorer
lipa
lipalatani
lipanda
lipapu
lipaso
lipata
lipatɛ
lipaya
lipe
lipeka
lipo
lipopo
lipordo
lipu
lipua
lipulutugɛ
liputrugɛ
lipɔlɔ
lique
lire
liromanch
liromansh
lirumani
lisa
lisabethville
lisaka
lisakoli
lisala
lisalisi
lisanga
lisangana
lisangisi
lisano
lisanɔ
lisapo
lisasala
lise
liseli
lisengeli
lisengi
lisensia
liserbi
lisi
lisila
lisinwa
lisipelanto
lisitwale
liso
lisolisi
lisolo
lisololi
lispanyoli
lissouba
list
liste
listedespages
listɛ
lisu
lisungi
lisusu
liswe
lisɛkisi
lita
litali
litaliano
litanga
lite
liti
lito
litomba
litoti
litte
little
litu
litumu
litungu
litwani
litɔlu
litɛ
liu
liukrani
liungri
live
livecode
liver
living
livingstone
livre
livret
liwa
liwanga
lix
liya
liyanzi
liye
liyi
liyuda
lizala
lizalaka
lizalaki
lizali
lizapɔ
lizi
liziba
lizwa
lizɛ
ljika
ljusdal
lkd
lle
lloyd
ln
lo
loa
loambo
loango
lob
loba
lobango
lobela
lobele
lobi
lobiko
lobino
lobo
loboko
lobwa
lobwaku
lobɔ
local
localisation
location
locomotive
locomotives
locuteur
lodies
lodja
lofalanse
logiciel
logiciels
logo
loi
lointaines
lois
loka
lokalo
lokangi
lokasa
loke
loki
lokima
lokiss
lokito
loko
lokoka
lokola
lokole
lokolo
lokombe
lokondo
lokota
loku
lokua
lokuli
lokumu
lokuta
lokwa
lol
lola
lolaka
lolanga
lole
lolendo
lolenge
lomami
lomba
lombango
lombu
lomeka
lomeko
lomela
lomena
lomi
lomoto
lomposo
london
londoni
londres
lonene
long
longo
longola
longomba
longondo
longtemps
longue
lonka
lontomba
lonɛ
loombo
lopa
lope
lopes
lopez
lopita
lopital
lopitalo
lopori
loposo
lopɔsi
lord
lordes
lorem
lorope
lorraine
lors
lorsqu
lorsque
los
losa
losako
losambo
lose
losu
lotango
loti
lotili
lotiliki
loto
lotoko
lotomo
lotɛ
lou
loubath
louis
louise
loup
lourdes
lourenc
louro
loutard
louvain
lovanium
love
loverman
lovi
lovodi
low
lowi
loxodonta
loya
loye
loyebani
loyembo
loyenge
lozali
lp
lt
ltd
lu
lua
lualaba
luambo
luanda
luando
luapula
luay
luba
lubadi
lubamba
lubomo
lubudi
lubumbashi
lubuntu
luc
luce
luciana
lucie
ludo
luebo
lufira
lufungula
lui
luizi
luka
lukaku
lukala
lukemi
lukeni
luki
lukolela
lukonga
luksamburg
lukula
lukumuena
lulilaka
lulua
luluabourg
luluabours
lumana
lumene
lumenga
lumie
lumino
lumumba
luna
lunda
lundi
lundungu
lune
lungundu
luokka
luozi
lupus
lusaka
lusamba
lusambo
luta
lutar
lutete
luther
lutte
lutumba
lututu
luunda
luvua
luxembourg
luye
luz
luzali
luzia
luzingu
luzɛ
lv
lwa
lwanda
lwangi
ly
lya
lyango
lyce
lydie
lyoko
lyon
lyublyana
lyɔ
lɔ
lɔtɔ
lɛ
lɛjika
lɛki
lɛkɛ
lɛlɔ
lɛsi
m
ma
maal
maba
mabale
mabanckou
mabandela
mabandi
mabanga
mabaya
mabe
mabele
mabende
mabene
mabengi
mabi
mabiala
mabiki
mabila
mabilaka
mabimaka
mabina
mabo
maboke
maboko
mabongisi
mabongo
mabongoli
mabota
mabu
mabunda
mabuzwa
mabɔ
mabɔkɔ
mabɛ
mac
macaire
macdonald
macintosh
mad
mada
madagascar
madame
made
madeira
madeleine
madesu
madi
madiata
madibou
madihano
madilu
madingu
mado
madoka
madrid
madusu
madɛ
maendeleo
maestre
mafia
mafu
mafulu
mafuta
magan
magazi
magazine
magie
magna
mahamba
mahatma
mahimba
mahomet
mai
maika
main
mains
maintenance
maintenant
mainz
maire
mais
maison
maisons
maitre
majeste
majithia
major
majoritaire
majorite
majority
maka
makaba
makabo
makala
makalekale
makama
makambo
makanda
makanisi
makanza
makapo
makasa
makasi
makau
makaya
make
makedonya
makei
makelele
makelelo
maki
makiadi
makiesse
makila
making
makita
makitana
mako
makoki
makoko
makola
makolini
makolo
makoma
makomami
makomi
makono
makonza
makonzi
makopesama
makota
makotelema
makoua
maku
makumbi
makumisi
makusa
makwanza
makwe
makɔ
makɔnɔ
makɛ
makɛlɛ
mal
mala
malabo
maladi
maladie
maladies
malaga
malai
malaki
malakisi
malako
malamu
malandi
malapterurus
malaria
malariya
malasi
malawi
malayalam
malcolm
male
malebo
maleki
malela
malele
malembe
malesi
malewa
malgre
malherb
mali
maliba
malili
malinga
mall
malnutrition
maloba
malobami
maloki
malonda
malonga
maloti
malta
malu
maluku
maluti
malɔki
malɛ
mama
mamadou
maman
mambe
mambi
mambika
mambo
mamboleo
mambou
mamelo
mammals
mampinga
mampu
mampuya
mamu
mamy
mamɛ
man
mana
manchester
manchot
manda
mandala
mandanda
mande
mandela
mandembo
mandessi
mandjumba
mando
mandombe
mandundila
mane
manene
maneno
maneti
manfred
mangangu
mangbetu
mangifera
mango
mangobo
mangomba
mangusita
mangwana
mangwele
mani
maniata
manie
maniema
manikongo
manis
manka
mankasa
manneken
manning
mannoia
manoir
manovo
manso
mansɔ
mantique
manuaku
manuel
many
manyɔ
manza
manɛ
map
mapa
mapapu
mapasa
mapata
mape
mapeka
mapeko
mapinga
mapinzo
maponami
maponomi
maps
mapu
mapɔlɔ
mapɔni
mapɔnɔmi
mapɛkɛ
mar
mara
marabi
marable
maradona
marakudja
marc
marcel
march
marchal
marchandises
marchar
marche
marco
marconi
marcus
mare
margin
mari
maria
mariae
mariage
mariale
mariam
marie
marien
marillac
marine
maringa
marino
mario
maritime
mark
marko
marle
marlene
marley
marmite
marne
maroc
marok
maron
marque
marquis
marrakech
mars
marseille
marshall
marsi
martental
martha
marthe
marti
martial
martin
martinike
martins
martyr
martyrs
martyru
mary
marɔkɛ
mas
masa
masalamaka
masamba
masampu
masanga
masano
masapo
masapolisano
mascot
masculin
masebamba
masedoni
masela
masengeli
masengi
masese
masi
masikini
masili
masina
masini
masiya
masolo
mason
masque
masques
mass
massachusetts
massamba
massela
massique
master
masters
masu
masuba
masumu
masusu
masuwa
masɛ
masɛngɛ
mat
mata
matabisi
matadi
mataka
matako
matali
matanga
matangila
matari
matata
matayo
match
mate
matematiki
maternelle
matete
mateya
mathieu
mati
matie
matilda
matin
matique
matiques
matisse
matiti
mato
matobo
matoi
matomba
matondo
matoyi
matsuo
matufueni
matumu
matungu
matɔ
matɛmbɛlɛ
mau
maul
maure
mauriac
maurice
mauritania
mauti
mavinga
mavka
mavuba
mawa
mawampanga
max
maxi
maximum
maximus
may
maya
mayanzi
maye
mayebisi
mayele
mayi
mayimona
mayombe
mayoyo
mays
mayumbe
mayɛ
maza
mazala
mazalaka
mazali
mazembe
mazi
mazita
mazobo
mazunga
mb
mba
mbaka
mbaki
mbala
mbalaka
mbalax
mbama
mbamaka
mbamba
mbana
mbanaka
mbandaka
mbandza
mbango
mbangu
mbano
mbanza
mbata
mbau
mbaya
mbayi
mbe
mbeba
mbela
mbelaka
mbele
mbeli
mbelo
mbemba
mbembe
mbenga
mbengi
mbeo
mbeto
mbeya
mbi
mbia
mbielu
mbila
mbiliki
mbilinga
mbinga
mbisa
mbisaka
mbisi
mbiye
mbo
mboka
mbokamosika
mbokani
mbola
mbolaka
mbole
mboli
mbomba
mbombo
mbonda
mbonge
mbongo
mbongwana
mbonzi
mboso
mbota
mbotama
mbote
mbouity
mboyo
mbu
mbua
mbudi
mbuisi
mbuji
mbula
mbulamata
mbulamatadi
mbulamatali
mbulamatari
mbulu
mbuma
mbumba
mbuta
mbuti
mbuyi
mbuyu
mbuyulu
mbuza
mbwa
mbwaku
mbwana
mbwankiem
mbwe
mbwi
mbwisa
mbwisi
mbɔ
mbɛ
mbɛbu
mbɛli
mbɛmbe
mccdi
mcclurg
mcddi
mck
me
mea
media
mediawiki
mediawikis
medical
medicina
medicinais
medicine
medina
mediterane
mee
meeting
mei
meilleur
meilleure
meinen
mekne
mekule
mela
melchaa
meli
melodia
melu
mema
membre
membres
memo
memoriam
memory
mena
menace
menama
mende
mene
menga
mengistu
meni
meningite
meningitis
mensuelle
ment
mentaire
mental
mentale
mento
menton
ments
menɔ
mercedes
merci
mercredi
mery
mes
message
messageries
messianiques
messianisme
mesure
met
meta
metal
metele
meteyo
metro
mets
mettre
metz
meuilleur
meurtre
mexico
mexiko
mezopotamie
mf
mfu
mfumi
mfumu
mg
mgr
mi
mia
miami
miango
miba
mibale
mibali
mibandaki
mibange
mibe
mibeko
mibembo
mibi
mibu
mibundi
michael
miche
michel
michtom
micro
microformat
microformats
microscope
microsoft
middle
midi
mie
mies
mieux
mignon
migraine
migration
miguel
mijikenda
mika
mikaka
mikakatano
mikanda
mikano
mike
mikende
mikili
miko
mikoki
mikolo
mikombe
mikondo
mikonzi
mikosalemaka
miku
mikuwa
mikɔlɔ
mikɛ
mil
mila
milai
milan
milangi
milayi
mile
mileli
milelisi
miles
milho
mili
milieu
milieux
miliki
milimo
milio
milioni
militaire
miliyɔ
mill
mille
millettia
milliard
milliards
million
millioni
millions
milo
milona
milongo
milu
milulu
mimba
mimbo
mimbongo
mimbu
mimekano
mimesano
mimeseno
mimpanzi
min
minaire
mindele
mindondo
mindu
minduki
mindule
mindɛ
mine
minei
minene
minerais
mines
minga
minganga
mingayi
mingi
mingimingi
mingo
mingɔlu
minh
mini
minie
minimal
minimale
minin
mining
minisele
ministe
minister
ministre
ministres
ministɛlɛ
minkanda
minneapolis
mino
minoko
minsai
minsisa
minso
mintu
mintunga
minu
minuit
minutes
minuti
minyo
minyoko
minyɔ
minzoto
minzɔ
minɔkɔ
minɛ
mipanzi
mipiko
mique
miquelon
miraculeuse
mirage
mirages
miroir
mis
misa
misaka
misala
misalisi
misamu
misapi
misato
misatu
mise
miselenga
misi
misili
misinine
misions
miso
misolo
misphe
miss
missiles
mission
missionaires
missionary
missioni
missionnaire
missolonghi
missouri
misu
misuni
misunyi
misusu
misyo
misɔpɔ
mit
mita
mitali
mitange
mitango
mitano
mite
miti
mitindo
mito
mits
mitshopo
mitsopo
mitsubishi
mitu
mituka
mituna
mitungisi
mituya
mivoie
mixtape
mixte
miya
miye
miyi
miyike
miyindo
miyoyo
mizali
mize
mizi
miziki
mizisa
mizulmani
mk
ml
mm
mme
mn
mnc
mo
moanda
moba
mobali
mobandi
mobandisi
mobando
mobange
mobate
mobateli
mobatisi
mobe
mobeko
mobembo
mobesu
mobeti
mobi
mobikisi
mobil
mobile
mobilette
mobimba
mobimbi
mobimisi
mobini
mobo
moboti
mobu
mobulu
mobundi
mobutu
mobɔ
mobɛ
moc
mocratie
mocratique
mocratiques
mode
modelo
modern
moderne
modernes
modification
modifier
modogo
module
moelle
moero
mofali
mofu
mofude
mofulele
mographie
mohamed
mohandas
mohombi
mohs
moi
moignage
moindo
moins
moipolitik
moire
moires
mois
moise
moitie
moka
mokaba
mokabi
mokali
mokambi
mokanda
mokango
mokano
mokapo
moke
mokele
mokelembembe
mokeli
mokenge
mokengeli
mokesa
moki
mokili
mokitaki
mokitani
moko
mokobe
mokokani
mokokano
mokoki
mokolo
mokomi
mokongo
mokoni
mokonji
mokono
mokonza
mokonzi
mokosa
mokri
mokristo
moku
mokumba
mokumbi
mokuse
mokwɛtɛ
mokɔ
mokɔlɔ
mokɔndɔ
mokɔngɔ
mokɛ
mokɛle
mol
mola
molai
molakisi
molangi
molangwa
molayi
mole
molegbe
moleka
moleki
moleli
molende
moleso
moli
moliba
molili
molimo
molisi
molo
molobe
molobeli
molobi
molokai
molomoni
molongani
molongo
moloto
molu
moluka
moluki
molunge
molɔ
molɔngɔ
momba
mombele
mombeye
mombo
mombongo
momboto
momboyo
mombɔ
momekano
moment
momesano
mompiko
mompɛpɛ
momɛkaniki
mon
mona
monaco
monama
monasitɛ
monastery
monde
mondele
mondes
mondial
mondiale
mondimi
mondimo
mondo
mondonga
mondu
mondɛ
mone
monene
monga
mongaba
mongala
monganga
mongelu
mongema
mongita
mongo
mongoli
mongongo
moni
monie
moninga
moningi
monka
monkanda
monkoma
monkɔ
monkɔkɔ
monographie
monoko
monopole
monsa
monsai
monsieur
monsisa
mont
montagne
montagnes
montana
montango
monte
montenegro
montent
monter
month
months
montoki
montpellier
montre
monts
montuka
montunga
montɔ
monuc
monument
monuments
monya
monyɔ
monyɔlɔ
monyɛlɛ
monze
monzo
monzɔ
monɔ
monɔkɔ
monɛ
monɛnɛ
moor
moore
mopakoli
mopanzi
mopaya
mope
mopepe
mopiko
moponami
mopu
mopɛpɛ
moral
morales
more
morel
morisi
moritani
mormyrops
morne
morphe
morragique
morris
mort
morte
mortel
morton
morts
mosa
mosakoli
mosala
mosaleli
mosali
mosango
mosani
mosanoli
mosanto
mosantu
mosapi
mosapoli
moschee
mose
moseka
mosi
mosika
mosilaki
mosisa
moske
mosku
moso
mosolo
mosomba
mosopa
mosque
most
mosu
mosuni
mosusu
mosɔ
mosɔlɔ
mosɔpɔ
mot
mota
motali
motane
motango
mote
motema
moteyi
moti
motindo
moto
motoba
motongi
motors
mots
motu
motuka
motuna
motuya
motɛ
mou
moulin
moungali
mounk
mountains
moupondo
moussa
moustafa
moutouari
mouvement
mouvements
mova
moved
movement
movie
movin
mowe
moya
moyambi
moyangeli
moyanoli
moyascko
moye
moyen
moyenne
moyens
moyi
moyibi
moyindo
moyo
moyogo
moyokano
moyɛlimbini
moyɛmi
moza
mozala
mozali
mozambi
mozambique
mozilo
mozindo
mozwi
mp
mpa
mpadi
mpaka
mpako
mpalata
mpalu
mpamba
mpangu
mpanzi
mpanzu
mpasa
mpasi
mpata
mpate
mpe
mpela
mpema
mpene
mpenza
mpete
mpetwa
mpeza
mpi
mpiana
mpiko
mpio
mpiodi
mpla
mpo
mpolo
mpon
mpona
mposa
mpose
mposo
mpota
mpote
mpoto
mpoya
mpoyo
mpr
mpu
mpunga
mputu
mputulu
mpwe
mpɔ
mpɔndu
mpɛ
mpɛmbɛ
mpɛpɔ
mr
ms
mt
mu
mua
muana
mubiala
mudimbe
mujinga
muke
mukena
mukendi
mukinza
muko
mukoko
mukolo
muku
mukumayi
mukwege
mula
mulamba
mulele
mulheres
mulongo
mulongwe
mulopwe
multihoming
multiple
multo
mulumba
mumpɛ
munan
mundele
mundeze
mundibu
mundo
munduki
mundɛ
munene
munga
munganga
mungbere
mungongo
mungul
mungwa
mur
mus
musa
musaki
musala
musangudi
muse
musefu
muselekete
museum
mushie
music
musica
musicale
musicien
musiciens
musique
musiques
mustafa
mustang
mususu
mutakatif
muthsathsa
mutombo
mutos
mutu
mutuashi
mutuka
muye
muzali
muzito
mv
mvemba
mvu
mvumu
mvuzi
mw
mwa
mwamba
mwambe
mwambi
mwambo
mwana
mwanandeke
mwanda
mwango
mwanyini
mwanza
mwanzɛ
mwasi
mwe
mweka
mwene
mwenze
mwepu
mwete
mwi
mwinda
mwisi
my
mya
myanmar
myawe
mycobacterium
myete
myocarde
myriades
myspace
myste
mythe
mythes
mythiques
myɔ
mɔ
mɔki
mɔkɔ
mɔkɔlɔ
mɔkɛ
mɔnɛ
mɔpɛpɛ
mɔsɔpi
mɛ
mɛlɛ
mɛtɛlɛ
n
na
naba
nabango
nabungisi
nac
nacional
naeno
nai
naino
nains
nairobi
naissance
naka
nakanisi
nakasi
nakati
nakende
nakendeki
nakoma
nakuru
nal
nalingi
nama
name
names
namibia
namibie
nana
nancy
nande
nandimi
nang
nanga
nango
nani
naniveau
nanp
nans
nantes
nanu
narin
nario
nart
nasima
nat
natal
natalia
nateur
nathalie
nation
national
nationale
nationales
nationalisation
nationalite
nationaux
nations
native
natural
nature
naturel
naturelle
naturelles
natureza
nause
nauwelaerts
naval
navigable
navigation
nayango
naye
nayeba
nayo
nazaleti
nazali
nazhirea
nazo
nazoyemba
nazoyoka
nazua
ncbi
nchen
ncia
ncipe
ncula
nd
nda
ndaka
ndakisa
ndako
ndaku
ndala
ndamba
ndambo
ndambu
ndami
ndamu
ndanga
ndaye
ndaywel
nde
ndeke
ndeki
ndeko
ndela
ndele
ndeli
ndelo
ndembo
ndenge
ndesha
ndi
ndika
ndima
ndimbo
ndimbola
ndimi
ndinga
ndingisa
ndisa
ndische
ndji
ndjili
ndo
ndoba
ndoki
ndolo
ndombasi
ndombe
ndombolo
ndongo
nds
ndu
nduka
ndunda
ndzando
ndɔ
ndɔki
ndɔkɔ
ndɔmbɔlɔ
ndɔngɛ
ndɛ
ndɛkɛ
ndɛlɛ
ndɛmbi
ne
near
necotrans
need
needed
neger
negro
nei
neige
neil
neither
neje
neli
nelson
nem
nemann
nendaka
nengapeta
neno
neptune
ner
nergie
nergiede
nes
nestor
net
neti
network
neucha
neue
neuilly
neuve
never
nevers
new
news
next
ney
ng
nga
ngaba
ngabama
ngafu
ngai
ngaka
ngala
ngalamulume
ngalie
ngaliema
ngama
ngamaka
ngamba
ngambo
ngami
ngamika
ngana
nganda
ngando
ngandu
nganga
ngani
nganza
nganzi
ngawisi
ngayibata
ngb
ngba
ngbaa
ngbagba
ngbaka
ngbanda
ngboko
ngbolua
ngbɛlɛ
nge
ngela
ngelaka
ngele
ngeli
ngemba
ngenge
ngi
ngiama
ngiri
ngisa
ngisi
ngo
ngoami
ngobila
ngola
ngolaka
ngolamaka
ngoli
ngolisi
ngolo
ngolu
ngoma
ngomba
ngombe
ngonda
ngondo
ngonga
ngongo
ngorongoro
ngouabi
ngoy
ngoyi
ngu
ngua
nguba
ngubu
nguesso
ngulu
ngulupa
nguma
ngunda
ngungi
ngungu
ngupu
nguya
ngwa
ngwaa
ngwami
ngwana
ngwanaka
ngwani
ngwele
ngwi
ngwisa
ngwisaka
ngwɛlɛ
ngɔ
ngɔlɔ
ngɔmbɛ
ngɔmɔ
ngɔndɔ
ngɛ
ngɛli
ngɛlɛ
ngɛmbo
ngɛngɛ
nha
nhas
ni
niama
niamey
niangara
niari
nice
nicholas
nicht
nicola
nicolas
nicole
nicolson
nie
nier
nieur
niger
nigeria
nih
nikalagwa
nike
nil
niloticus
nimba
nimeri
nimes
nimi
nin
ningite
nini
nintendo
niongo
nionso
nioso
nique
nira
nirogongo
nisi
nitoni
niveau
niveaux
nivelo
nixon
nizer
nizeria
njembo
njo
nk
nka
nkama
nkamba
nkanda
nkanga
nkasa
nkasi
nke
nkembo
nki
nkinga
nkisi
nkita
nko
nkoa
nkokoso
nkole
nkoli
nkolo
nkoma
nkombe
nkombo
nkongolo
nkonzo
nkota
nkotemesi
nkoti
nkoto
nkoyi
nkrumah
nku
nkulu
nkumu
nkunda
nkundo
nkunza
nkusu
nkuwu
nkwokoso
nkɔ
nkɔi
nkɔli
nkɛ
nl
nlandu
nlm
nn
no
noblesse
nocide
nocturne
node
noe
noeditsection
noele
noemi
nogent
noir
noire
noires
noirs
noki
nola
nole
nom
nombre
nome
nominatif
nomination
nominations
nomine
nominis
nomme
noms
non
none
nongo
nor
norbert
nord
nordi
normal
normalement
norman
normandi
norme
norte
north
northeast
northeastern
northern
norve
norvej
nos
nossa
nossas
nosso
nossos
not
notamment
note
notes
nothing
notice
notion
notions
notoc
notre
nottola
noureddine
nous
nouveau
nouveaux
nouvel
nouvelle
nouvelles
nova
nove
november
novembre
novena
noviciat
novo
novɛ
novɛmbɛ
now
noy
nr
ns
nsa
nsambela
nsambo
nsanga
nsango
nsanza
nsasa
nse
nselele
nsemi
nseya
nsi
nsima
nsimba
nsinga
nsiona
nso
nsoka
nsolo
nsombo
nsomi
nsu
nsuka
nsuni
nsɔ
nsɔngɔ
nsɛ
nsɛlɛ
nt
nta
ntaba
ntaka
ntalo
ntamba
ntango
ntangu
nte
ntei
ntembe
nther
nti
ntina
ntinu
nto
ntoki
ntoma
ntonga
ntonki
ntotila
ntoto
ntu
ntuku
ntumba
ntɔ
nu
nuages
nubian
nueva
nuit
nuits
nulle
number
numbered
numbering
numbers
numbi
nume
nunavut
nungu
nuo
nus
nuse
nutempo
nutritif
nutritifs
nv
nwali
ny
nya
nyalendo
nyama
nyamabo
nyamankɛ
nyame
nyami
nyamunyobo
nyango
nyangu
nyau
nyboma
nyei
nyemba
nyiragongo
nyirenda
nymphe
nyo
nyoka
nyongo
nyonso
nyoso
nyunzu
nyɔ
nyɛ
nz
nza
nzadi
nzala
nzale
nzambe
nzambi
nzanga
nzanza
nzatu
nzau
nze
nzebi
nzela
nzembo
nzenza
nzenze
nzete
nzi
nziem
nzihure
nzila
nzinda
nzinga
nzinzi
nzo
nzoi
nzoka
nzoto
nzotu
nzu
nzulama
nzulu
nzungu
nzuzi
nzɔ
nzɔku
nzɔmbɔ
nzɛnzɛ
nɔ
nɔki
nɔnɔ
nɔnɔkɔ
nɔrdi
nɛ
o
oasis
obama
obazeyi
obe
obenga
obesite
objectif
objet
obligations
obligatoire
obligatoirement
oblige
oblique
obo
obstructive
obtenir
obtient
oc
occasion
occidental
occupation
occurences
oce
ocean
oclip
ocs
oct
october
octobre
oddo
oder
odette
odia
odile
odinatɛ
odio
odysse
oecumenique
oem
oeuvre
of
ofanare
ofele
off
office
official
officiel
officielle
ognor
ographie
ographique
ogusiti
oh
oif
oil
ois
oise
ok
okangi
okapi
okati
okavango
okito
okoki
okoku
okokufa
okokuta
okoma
okosha
okoyoka
okozela
okozonga
oksana
oksijɛ
oktube
ol
ola
olaire
olanda
olande
old
ole
olibanda
olimpi
olingi
olive
olivier
olma
olodinatele
ologie
ologique
olombe
olomide
olongi
oluka
olympiques
omaha
omar
omasombo
ombale
omo
omobu
omona
omonga
oms
omɔ
on
ona
onard
onatra
ondimba
one
onepage
oni
onie
online
only
ons
ont
ontario
onte
onu
onze
opard
opards
ope
opel
open
openoffice
opera
ophas
ophile
opold
opoldville
opozision
opposition
optional
optionnel
optionnels
or
orales
orange
orchestre
orchestres
order
ordinaire
ordinateur
ordinateurs
ordinatɛrɛ
ordonnance
ordre
oregon
oreiro
org
organisation
organization
orie
oriental
orientale
orientales
original
originally
origine
origines
orique
oro
orologie
orozco
orphan
orphelin
ors
ortaasya
orthodoxe
orthographe
os
osaka
oseani
osengeli
oshogbo
osili
osima
osseuse
ost
ostrali
osun
osv
other
others
oti
otraco
otrish
otrishi
ottawa
otu
otɛsi
ou
oualata
oublie
oubliez
oue
ouest
oui
ouichka
ounianga
our
ouragan
ours
out
outbreak
outil
outils
outras
ouverte
ouverture
ouvrage
over
ovimbundu
owando
owl
oxford
oxydation
oxyde
oxyge
oy
oya
oyeba
oyebi
oyebisa
oyo
oza
ozala
ozalaki
ozali
ozcfl
ozo
ozrt
ozua
ozuaki
ozui
ozwi
p
pa
pablo
padding
padmore
page
pages
pagesclaires
pai
pain
pair
paisseur
paix
paka
pakala
pakapa
pake
pakista
pala
palace
palais
palaki
palala
palata
palato
palema
palesiti
palestina
pallars
palmas
palme
palmyre
paluku
pamba
pame
pan
panama
pancre
pandemia
pandemie
pandunia
pangolin
panorama
panoramio
pantekote
panzi
papa
papaute
paperback
pappenheim
papwa
papy
paquets
par
para
parables
parace
paracetamol
paralympiques
param
parame
parameter
parameters
params
parasite
parasites
paration
paratyphique
paratyphoi
parc
parcs
pare
parent
parentesco
parents
parfait
parfois
pari
paris
park
parke
parker
parks
parle
parlement
parlent
parler
parlons
paroisse
paroles
parotide
part
partage
partement
parti
participation
participative
participe
particule
partie
parties
partir
partition
partout
parts
parus
pas
pascal
pascaline
pasha
pasi
pasifi
passa
passado
passage
passagers
passe
passer
passing
pasteur
pasteurs
pata
pathe
pathy
patience
patient
patou
patrice
patrick
patrie
patrimoine
patrimwane
patrol
patron
patrouille
pattern
patu
patum
paul
paula
paulines
pauling
paulis
paulo
paulus
pause
pauvrete
pavement
payi
payipayi
payot
pays
paysage
paz
pc
pd
pdf
pe
peace
peau
peck
pecon
pedone
pedro
peinture
peintures
peka
pel
pela
pele
pelezida
peli
pelican
pelle
pellegr
pellegrin
pelmatochromis
pelo
peluche
pema
pembe
pembeni
pend
pendance
pendant
pendante
pende
pendemie
pendre
pene
penepene
penguin
penielle
penisili
pense
pentagone
pentandra
penthe
penza
people
pepe
pepele
pepsi
per
perdre
perdu
perform
performance
permet
permettant
permettre
perpignan
perrin
perse
persea
person
personal
personalise
personnalite
personne
personnel
personnels
perspectives
peru
pesa
pesaka
pesami
pesi
pete
petelo
peter
peters
petit
petite
petites
petits
peto
petrus
petwa
peu
peuple
peuples
peut
peuvent
pg
pgp
phan
phane
phant
phants
pharmacie
phaseolus
phe
philadelphia
philippe
philippines
phillis
philosophie
phoenicurus
phone
phoneme
phones
photo
photographie
photos
php
phrase
phrases
phyloge
physique
pi
piano
piazza
pic
pica
picasso
picky
pictural
pide
pidemie
pie
pied
pieds
piere
pierre
pierrette
pierrot
pieux
pika
pile
pili
pilipi
pilipili
pillage
pilote
piloti
pine
pinɛ
piololo
piptadenia
piptadeniastrum
pis
pissa
pital
pitbull
pius
pizza
pl
place
placer
plaine
plains
plan
plane
planification
plant
planta
plantarum
plantas
plantations
plante
plantes
plantilla
plants
planɛ
plaque
plastiques
plateau
plateaux
plateforme
platnumz
plaza
ple
please
pleasure
plein
plens
plug
plumes
plus
plusieurs
pluto
pm
pnd
pneumonia
pneumonie
png
pnp
pnud
po
poche
pocket
poe
poesie
poids
point
pointe
points
poison
poke
poku
pole
polele
poli
police
polio
politi
political
politiki
politique
politiques
poll
polli
pollution
polo
pologalame
pologne
polonais
poloni
polygamie
polyme
polypterus
pomba
pona
pondre
pondu
pongi
pont
ponthierville
ponts
pool
popi
popol
popolipo
popolkayembe
populaire
popular
population
populations
poque
por
porc
porciu
port
portail
portant
porte
portefeuille
portes
portland
porto
ports
portuaire
portugais
portugal
posa
pose
positif
position
positions
positionskarte
positive
poso
posse
possibilite
possible
possiblement
post
postcolonial
poste
postempo
postes
posthume
pota
potato
pote
potentiel
potiez
poto
potopo
poumon
pour
pourcentage
pouvez
pouvoir
povas
povo
povos
power
powers
pp
pprd
pr
pra
pratique
pravesi
pre
prece
predefinic
predio
pregnant
prehistoric
preises
premie
premier
premiere
premiers
preo
pres
presbyterian
present
presente
president
presidents
presque
press
presse
presses
pressif
pression
pretempo
pretoria
preuve
preuves
prevenir
prevention
prezida
pri
pria
prie
primaire
primary
primates
prime
primus
prince
princesse
principale
principales
principalmente
principaux
principe
printemps
prison
prive
prix
pro
proble
proce
process
processeur
proches
procure
product
production
productions
produire
produit
produits
profe
professeur
profession
professionnel
professionnelle
professionnels
profete
profile
profiter
programme
programming
progre
progresso
project
projet
projets
promesse
pronom
prononcer
prononciation
propagande
prophe
propos
propose
proposer
proposition
propre
proprie
prorata
prosodique
prospe
prosta
prostate
prota
prote
protection
proteine
protokɔlɛ
proton
provence
proverbes
province
provinces
provinsi
prudhomme
psa
psalm
pseudonyme
psmets
psv
psychologie
psychosis
pt
pu
publibook
public
publication
publications
publicite
publics
publie
publique
publishers
publishing
puerperal
puerto
puis
puise
puissance
puissant
pulitzer
pulmonaire
pulmonary
pulo
pulu
pulupulu
pulutugal
pulutugɛ
puma
pupille
puscule
pusu
pusupu
put
pute
putumayo
pwantenwa
px
pygme
pyramide
pyramids
pyre
pɔ
pɔli
pɔlɔvɛ
pɔpi
pɔtɔpɔ
pɛ
pɛmbɛ
pɛns
pɛnɛ
pɛnɛpɛnɛ
pɛtɛ
q
qadi
qazaq
qu
qualite
quand
quando
quartier
quartiers
quateur
quatoriale
quatre
quatro
que
quel
quelqu
quelque
quelques
quels
quem
quence
quentin
ques
question
questions
queue
qui
quipe
quito
quitte
quittera
quotidien
quotidienne
r
ra
rabat
race
rachel
racine
racines
racontas
radical
radicaux
radio
radiookapi
rafael
raffaello
raga
rage
rail
rails
railway
raios
raire
raires
rais
raison
ral
rale
ralement
ramakrishna
rance
rang
ranges
rant
raoul
rap
raphae
raphael
rapide
rapie
rapport
rapports
rard
rare
rasta
rat
ration
rature
raturede
ratures
ratzinger
raux
ray
raymond
rayon
rcio
rcr
rd
rdc
rden
re
reaction
read
reads
reafor
reagan
real
reas
rebel
rebelle
rebelles
recently
recherche
recherches
recommande
recommander
recommende
reconstruction
record
recordings
records
recteur
recueil
recursive
red
redirect
redmond
redo
ref
reference
refuge
refuse
regards
reggae
regia
region
registre
regroupement
regusters
rein
reine
reise
reisende
rejoindre
reki
relac
relatif
relation
relations
relier
religieuse
religieuses
religieux
religion
religions
relijio
relijion
remarque
rembrandt
rement
remise
remix
remove
remplace
remplacer
remplissant
remporte
renaudot
renault
rence
rences
rencontre
rencontrent
rencontrer
rend
rendered
rendre
rendu
rene
reni
rennes
renseigne
rent
rentes
rents
renumber
repe
report
repre
reprendre
repu
repubiliki
republi
republic
republik
republiki
republique
required
rer
res
rescence
reserve
reserved
resistance
resource
respectivement
ressentira
ressource
ressources
ressurgir
reste
resultat
retirada
retour
retrieved
retrouve
return
returns
reviens
revient
review
revoluc
revolution
revue
revues
reyo
reyya
rezo
rfc
rfi
rgene
rhe
rhein
rheumatoid
rho
rhode
ri
ria
rias
ric
rica
ricaines
rich
richard
richmond
richtersveld
ricky
rico
ricoco
ride
rie
riel
rielle
riels
rien
rience
riennes
ries
rieur
rieure
rieures
rifal
riffi
right
rights
rika
rike
rimaire
rin
ring
rio
rios
rippe
rique
riques
rire
risch
risk
risque
risques
ristiques
ritable
ritage
rite
rites
ritier
riva
rivas
river
rives
rivie
rm
rn
rna
ro
robben
robbins
robert
roberto
robinio
roca
rochefort
rochereau
rock
rockonolo
rode
roe
roeselare
roga
roger
rogerio
roho
roi
rois
roise
roland
role
roma
roman
romance
romani
romano
rome
romelu
ronald
rond
ronde
ronney
roosevelt
ros
rosa
rosaire
rosario
rose
rosenberg
roubaix
rouen
rouge
rouges
roule
roulement
round
roussillon
route
routes
routier
routiers
rover
row
rows
roy
royal
royale
royaume
roze
rsi
rtbf
rtnc
ru
rubber
rubens
rubi
rue
ruine
ruines
ruje
rule
rulers
rumania
rumantsch
rumba
rummad
rump
rupestre
rusi
russe
russie
russo
ruzizi
rwanda
rwenzori
ry
rythme
rythmes
rythmique
rɔ
rɛ
s
sa
sabakinu
sabar
sabdariffa
sable
sabratha
sabu
sabuni
sacre
safety
sagir
sahara
saheb
sai
saint
sainte
saire
saison
saka
sakania
sakata
saki
sakila
sakoko
sakombi
sakosa
sakramɛ
sala
salaka
salaki
salama
sale
salela
salif
salisbury
salle
salmo
salmonelle
salon
salonga
salongo
saloum
salti
salut
salvador
salve
sam
sama
samaka
samba
sambo
sambuza
same
samedi
samuel
samurai
san
sana
sanction
sanctuaire
sandra
sandu
sang
sanga
sangana
sangha
sangi
sango
sankara
sankuru
sans
santa
sante
santo
santrafri
santrafrika
santu
sanza
sao
saolona
sapa
sapiens
sar
sarah
sarbati
sarcelles
sarl
sartin
sassou
sat
sata
satana
satellite
satellites
sato
satune
satɛliti
saudi
sauf
saurer
saute
sauvage
sauvages
sauve
sauvegarde
savimbi
savoir
savon
savorgnan
saxi
saye
sbb
sbrdc
scania
scanner
sce
scenario
scha
schaler
sche
scheut
schildkrout
schillebeeckx
schilthuis
schloss
scholar
school
schouenberg
schwa
schweinfurth
schweiz
schweizer
schweizerpsalm
schwyz
science
sciences
scopoli
scott
scram
screen
script
se
sea
seal
search
seau
seaux
seben
sebene
second
secondaire
secondaires
secondes
secours
secre
secret
secrets
secteur
section
sedjoka
see
seele
sef
seghers
segovia
seguin
seigneur
sein
seine
seio
seiten
seja
seka
seke
sekele
seko
selbst
sele
selected
selemba
selesao
selon
semaine
semi
semien
sence
send
sene
senegal
senegale
senegalus
senemongaba
senga
sengeli
senghor
seni
senisi
sens
sensible
sent
senta
sentation
sente
senter
sepela
sept
september
septembere
septembre
septentrional
sera
serba
serbia
serengeti
serge
serie
series
serpent
serratus
sert
serve
serves
service
services
servir
ses
sese
session
set
setembe
seti
setifika
setɛ
seuil
seul
seule
seulement
several
seville
sex
sexualite
seyshel
sfe
sh
sha
shaba
shabab
shaffhus
shaggy
shakira
shangai
shanghai
shareti
sharp
sharufa
she
sheet
sheferi
sheffield
shekia
sheppard
shi
shift
shili
shimi
shina
shnɛ
shokola
shona
short
should
show
showitis
shown
shvits
si
sia
siale
siberi
sibiti
sich
sida
sidafri
side
sident
sidentielle
sidi
sie
siegel
siekle
sierra
siev
signaki
signature
signe
signee
signer
signor
sik
sika
sikawa
siki
sikisiki
siko
sikoyo
sikre
sikɔ
sil
sili
silikɔ
silure
silver
sima
simaro
simba
simien
similar
simo
simon
simoni
simple
simplement
sinai
since
sinchi
sinda
sindema
sindika
singa
singapur
singe
singes
singh
single
singles
singɛl
sinus
sinusite
sipre
sir
sire
siri
sirie
sise
sistɛ
sita
site
sites
situation
situe
sitɛ
six
sizarail
size
sk
ska
skin
skyrock
skɔ
sl
slam
slattery
slave
slovakia
slovenia
small
sme
smith
sncc
sncz
snv
so
sobre
social
sociale
sociales
socialiste
sociaux
socie
society
socio
sociologie
soda
sodabi
soeur
soeurs
soft
software
sohiza
soi
soin
soins
soir
soit
soki
soko
sokola
sol
sola
solaire
solda
soldate
soleil
solennite
solid
soliste
solitudes
solo
solola
solothurn
soloturn
solution
solvant
somalia
somaliland
somba
some
sometimes
sommaire
somme
sommes
somo
son
sondji
songa
songe
songes
songolo
songololo
songs
sonho
sonima
soninke
sonne
sonodisc
sons
sont
sony
soo
sop
sophia
sophianet
sophie
sor
soraya
sorbonne
sorcellerie
sorcier
sormais
sorte
sorti
sortie
sosialisimɛ
soso
sotranscongo
souci
souk
soul
souleymane
souls
sound
soundtrack
source
sources
sourdou
sous
sousse
south
souther
soutien
souvenirs
souverain
souverainete
souzi
soyi
soyo
soyons
sp
spaak
spaced
spaces
spangled
spe
speaks
special
species
specified
spectacle
speller
sphinx
spiert
spirit
spirituelle
sport
sports
sq
square
squelette
sr
sri
sso
ssp
ssɛnɛ
st
stable
stables
stadium
stadt
stan
standard
stanford
stanley
stanleyville
star
stars
start
startpage
state
statement
states
static
station
stations
status
statut
ste
stefania
stefaniya
steindachner
stelle
stephen
sterling
stern
steve
stgivars
sti
stica
still
sto
stock
stockholm
stone
stories
story
str
strange
strasburg
strate
street
streets
strength
stress
string
strong
structure
structurecristalline
structures
struggle
sts
stu
studies
studio
study
stuyvesant
styl
style
styling
stɔlɔ
stɛ
su
sub
subbox
subboxes
subheader
sublime
subtemplates
subtype
succe
such
sucrerie
sucrie
sud
sudan
sudani
sudbury
sudi
sue
suffit
suffixes
suicide
suis
suisse
suit
suite
suivant
suivantes
suivants
suivi
suivis
sujet
suka
sukali
suku
sukur
suleyman
sulla
sultat
sultats
sume
summer
sun
sunda
supe
super
superba
superstar
supple
supplements
supplied
support
supporting
sur
surface
suriname
surnom
surprise
surrection
surtout
survie
survivors
sus
susan
sustainable
suzuki
sv
svarabhaktique
svg
svizzer
svizzero
svo
swahili
swe
sweet
swisi
switchblade
switzerland
syllabe
syllart
sylvain
sylvie
symbole
symboles
symbolique
symphonie
symphonique
symptomes
symptoms
syndicats
syndrome
synodontis
synonymes
syntax
syntaxe
synthe
syste
system
sywor
szafranski
sztemon
sœur
sɔ
sɛ
sɛktɛrɛ
sɛkɛ
sɛmi
sɛmɛ
sɛmɛkɛ
sɛtɛ
t
ta
table
tableau
tableaux
tabu
tabula
tache
tadrart
taekwondo
tai
taient
tail
taille
taire
tait
taiwan
taka
take
taksi
tal
tala
tales
tali
tallinn
talo
tam
tama
tamaka
tambe
tambo
tami
tamol
tampa
tampere
tan
tana
tanaka
tanaki
tang
tanga
tanganika
tanganyika
tango
tani
tano
tansi
tant
tanzania
taranis
tard
tas
task
tassili
tastase
tat
tata
tati
tats
tattoo
taty
taupe
taux
tawh
taxi
taxobox
taxon
taxonomic
taxonomy
taxons
tb
tchad
tchebwa
tchicaya
tcokolate
tcp
te
tea
teau
teaux
technique
techniques
techno
technologie
technologies
technology
teddy
tee
teide
teil
teint
tel
tela
telama
tele
telecom
telecommunications
telephone
television
teli
tels
tem
tempe
temperature
templat
template
templatedata
templates
temple
temporal
temps
ten
tendresse
teni
tenke
tennis
tension
tentative
teofil
ter
teritware
terme
termes
terminaison
terminaisons
terminalia
terminant
terminants
termine
terminologie
terminus
terms
ternel
terra
terrain
terre
territoire
territoires
territoriale
territories
terro
tervuren
tes
tesalonisien
test
testament
teste
tests
tet
tetanɔ
teu
teugelsi
teus
texas
text
texte
textes
textuelle
teyatre
tfe
th
thai
than
thanh
that
the
theatre
thebes
their
them
then
theo
theodore
theophile
there
thermique
these
they
thierry
thing
this
thnies
thode
thomas
thomson
three
thumb
thumbnail
thys
thysville
ti
tia
tibe
tica
tie
tien
tienne
tiens
tiers
tigre
tii
tika
tiken
till
time
timent
timents
times
timgad
timor
timote
tina
tinda
tino
tinyi
tipasa
tique
tiques
tire
tisa
tisaka
tiseur
tisi
tisseurs
titanic
titina
title
titled
titles
titre
titres
titule
tiu
tiya
tlc
to
tobago
tobner
together
togg
togo
toi
toile
toiles
toilette
toilettes
tokende
toko
tokokende
tokoki
tokokoma
tokole
tokoma
tokomi
tokoyambaka
tokyo
toleka
tolekisaka
toli
tolingi
tolingo
tolo
toloba
tom
toma
tomba
tombe
tomber
tombola
tombolaki
tombouctou
tome
tomes
tomo
tomographie
ton
tona
tondimi
tonga
tonique
tonnement
tonton
tonya
top
topographie
topographique
torino
torique
toro
torture
torvalds
tosala
tosalaka
tosaleli
tosangisa
tosh
total
totala
totale
totalise
toto
touan
toujours
toulouse
tour
toure
touris
tourisme
tourne
tours
tous
tout
toutes
toward
towards
tower
town
toxine
toye
toyebi
toyota
tozalaki
tozali
tp
tr
tra
trabalho
traces
trachome
track
trad
trade
tradition
traditionnel
traditionnelle
traditionnels
traditions
traduction
traduire
traduisent
traduit
traduits
train
trainer
trains
traite
traitement
traitements
tramway
tranche
trang
trange
tranger
trans
transfe
transition
translate
translated
translation
transmis
transmission
transport
transports
transurb
trapking
traumatisme
travail
travaille
travaux
travers
traverse
traverses
tre
trente
tres
tresor
tresse
tria
trial
triangle
tribaliques
tribinale
tribute
trick
tricolor
tricolore
trilogie
trim
trinational
trio
triomphe
triumph
trois
troite
trole
tronc
troops
trop
tropical
tropicale
trottoir
trou
trouble
trouver
true
trypanosomiase
ts
tsadi
tsar
tsasa
tschiel
tshadi
tshaku
tshala
tshalufu
tshamala
tshela
tshibaka
tshibal
tshibamba
tshibangu
tshiela
tshikaji
tshikapa
tshikedi
tshikile
tshikula
tshiloango
tshiluba
tshimanga
tshimbulu
tshintu
tshiobo
tshipasa
tshisekedi
tshisungu
tsho
tshombe
tshonda
tshopo
tshuapa
tsingy
tsn
tsodilo
tsu
tsug
tt
tter
tu
tuberculosis
tude
tudes
tudiant
tue
tuka
tuku
tukutuku
tulu
tumba
tumeur
tundra
tunis
tunisia
tuo
turc
turcs
turin
turismɛ
turkana
turkevich
turkewich
turki
turkisi
turkiya
turks
turkyia
turn
turquie
tutatis
tutpussent
tutti
tutu
tv
tw
twitter
two
twyfelfontein
tyfus
type
typhoi
typhoide
typhus
tɔ
tɔli
tɔlɔ
tɛ
tɛkni
tɛkutɛku
tɛkɛ
tɛli
tɛlɛ
tɛmpɛlɔ
u
ubangi
ubangui
ubundu
ubuntu
udps
ue
uele
ufrate
uganda
uicn
uk
uka
ukraine
ukrainka
ul
ulanusi
ulb
ulrich
ultimatum
ulugwai
um
uma
umen
un
unassigned
unaza
und
undefined
under
une
unep
unesco
ungri
uni
unia
unibat
unies
unilu
union
unique
unis
unita
unite
united
univers
universal
universe
universel
universelle
universitaire
universitaires
universite
university
universrumba
universrumbacongolaise
unknown
unpublished
uns
untapped
until
untranslatable
up
upc
update
uppermost
uppsala
upright
ur
ura
urbain
urban
urbanisme
urgence
uri
url
us
usa
usage
usd
use
used
user
users
using
usually
usuelles
ut
uta
utc
utilisant
utilisateur
utilisateurs
utilisation
utilise
utiliser
utilisez
uto
uzanto
uzima
v
va
vaccin
vaccination
vaccine
vague
vaillant
vainqueurs
val
vale
valenciennes
valentin
valeur
valeurs
valle
vallenato
valley
valls
value
vamos
van
vanda
vanga
vange
vangile
vangu
vanish
vanthmesche
vapeur
vaporisation
var
variante
variations
varicelle
varie
various
variste
vasculaire
vaste
vaterland
vaticani
vatika
vatikani
vatiri
vcard
ve
ved
vedettes
veil
veille
velha
vells
velo
veloppe
veloppement
veloppent
vendredi
vendus
venezwela
ventriculaire
vents
verbe
verbes
verbist
verbum
verde
verdun
verhaegen
verkis
verlag
verre
vers
version
versions
vert
vertical
vertigo
verwendung
very
ves
veto
veve
vhs
vi
via
viagra
vice
vicente
vicicongo
vicinaux
vicky
victoire
victor
victoria
vida
vidal
vide
video
vido
vidrovitch
vie
vient
vierge
vies
vietnami
vieux
view
vif
vignette
vih
vii
viii
vila
vile
village
villages
ville
villeneuve
villes
vilu
vincent
vincentienne
vinciguerra
vingt
viola
violence
violente
violon
viral
virginia
viridis
virilo
virunga
virus
vision
vista
vita
vital
vitamine
viter
vitesse
vito
vitro
viva
vivaldi
vivante
vivi
vivre
viɛnɛ
vo
voa
vocabulaire
vocabulary
vocal
voice
voici
voie
voies
voile
voir
voise
voit
voiture
voix
vol
volcan
volcano
volontaire
volta
volubilis
volume
volumes
volution
volzinnen
vom
von
vont
voor
vora
vorlage
vortaro
vos
vote
votre
vous
voy
voyage
voyages
voyageur
voyageurs
voyance
voyelle
voz
vrahovice
vrai
vraiment
vre
vredefort
vres
vrier
vu
vubu
vue
vulgaris
vunda
vœux
vɔ
w
wa
waals
wabeladio
waga
wageningen
wahl
wait
waka
wake
waku
walelo
wali
walk
walker
walking
wamba
wana
wandu
wangata
wangila
wango
want
wapi
war
warhol
warid
warma
was
washington
wasn
wastiau
watanabe
watch
watsa
wattpad
wave
wavre
wawa
way
wayo
ways
we
web
website
weeks
weeksii
weerijs
weezya
weg
weidenfeld
welt
wemba
wende
wendo
wenge
wenze
were
weregemere
werrason
wesita
west
whale
what
whatsoever
wheatley
when
where
which
while
white
who
whole
whose
why
wide
widmer
width
wien
wiesentundra
wiki
wikidata
wikimapia
wikimedia
wikipe
wikipedia
wikipediens
wikiproject
wikiquote
wikitravel
wikivoyage
wilde
wilkerson
will
willame
william
williams
willy
wilson
win
windhoek
windows
winners
winter
wird
wisiki
witchcraft
with
within
without
witte
wittebols
wmv
wo
wok
wolo
wolof
woman
won
wood
woodard
woodrow
woordenlijst
word
wordmark
wordpress
work
working
world
worldcat
wort
would
wp
wrap
wright
writers
wunda
wuta
wuto
www
wɔ
wɛ
wɛbɛ
wɛlɛ
wɛnzɛ
wɛsti
x
xavier
xbox
xi
xii
xiii
xiv
xix
xp
xv
xve
xvi
xviiie
xx
xxe
xxi
xxiii
xxx
y
ya
yaba
yabo
yabu
yacovalence
yage
yah
yahoo
yahu
yaka
yako
yamaha
yamaka
yamba
yambi
yambo
yamibale
yangambi
yango
yanke
yannick
yanuari
yanwa
yaounde
yapan
yasiris
yatim
yawe
yaya
ye
year
years
yebani
yebisa
yehova
yele
yellow
yelo
yemen
yemi
yemo
yerusale
yerusalemi
yeruzalem
yes
yesu
yeux
yezu
yi
yiba
yisaya
yo
yoakima
yoane
yobo
yogo
yoka
yoke
yoko
yolaka
yondi
york
yoruba
yosefu
you
youlou
your
youssef
youssou
youtube
yoze
yozefu
yu
yuda
yudasi
yue
yuli
yulia
yulu
yumbi
yuni
yura
yves
yy
yɔ
z
za
zab
zabat
zabolo
zacharie
zahl
zai
zaiko
zaila
zaire
zairois
zakarya
zala
zalaki
zali
zamba
zambi
zambia
zambie
zandameli
zando
zangui
zangul
zanzibar
zapo
zapɔ
zardɛ
ze
zea
zeichen
zeke
zela
zeland
zelembo
zelo
zemi
zh
zi
zia
zigida
zimbabwe
zinga
ziya
ziyad
zo
zoba
zole
zolo
zolona
zolozi
zomi
zomɛtɛli
zona
zone
zonga
zongo
zoo
zoologie
zu
zug
zulu
zuluna
zulunalo
zur
zurich
zuwa
zuwama
zuwamaka
zuwamaki
zuwami
zuwi
zwaki
zwingli
zya
zɔlɔ
zɛ
{
|
}
~
£
§
©
ª
«
­
°
±
²
³
´
¶
·
º
»
¼
½
×
æ
ł
œuvre
œuvres
ɐ
ɔ
ɔkɔtɔ
ɔkɔtɔbɛ
ə
ɛ
ɛlɛ
ɛngɛ
ɛntɛrnɛ
ɛsti
ɛɛ
ɣ
ɴ
ʃ
ʒ
ʻ
ʼ
ʿ
ˈ
ˌ
ː
˚
̀
́
̂
̃
̄
̆
̇
̈
̉
̊
̋
̌
̍
̓
̔
̛
̞
̣
̤
̦
̧
̨
̩
̯
̸
͂
͡
α
β
ε
η
κατηγορι
ο
ς
а
алла
б
в
и
категори
категория
категорија
категорія
катэгорыя
кении
кеніі
н
о
у
х
шаблон
ы
ְ
ִ
ַ
ָ
ּ
ׁ
י
ל
ם
קטגוריה
ש
תבנית
ا
الگو
بن
تصنيف
زمرہ
س
سانچہ
ش
قالب
مسجد
ُ
ٔ
ٕ
ँ
क
ग
च
ण
थ
न
प
भ
य
र
ल
श
स
ा
ि
ी
े
ो
्
।
জ
ঞ
ট
ত
দ
ন
ব
ভ
য
র
ল
ষ
স
হ
়
া
ি
ী
ে
্
ખ
ર
સ
ા
ો
્
ட
த
ந
ப
ய
ர
ல
வ
ா
ி
ு
ூ
்
ം
ක
ථ
ප
ය
ල
ස
්
ා
ැ
ි
ก
น
บ
ผ
ส
หมวดหม
ั
ึ
ุ
ู
่
้
ལ
ོ
ྟ
კატეგორია
분류
ᵉ
​
‌
‎
‏
‑
–
—
‘
’
“
”
„
†
•
…
′
″
€
→
↓
↔
↷
③
④
⑦
█
☉
☾
♀
♂
♄
♠
♥
✓
➜
⺀
⺄
⺆
⺈
⺊
⺌
⺕
⺝
⺸
⺼
⿰
⿱
⿲
⿳
⿴
⿵
⿶
⿷
⿸
⿹
⿺
⿻
。
〢
い
こ
し
す
て
と
の
は
ま
を
゙
゚
ア
ケ
コ
ソ
タ
ニ
ハ
フ
ホ
マ
モ
ヤ
ユ
ラ
ン
ー
㇁
㇂
㇄
㇇
㇈
㇉
㇓
㐁
㐄
㐅
㐌
㐫
㐬
㐭
㐮
㐱
㑒
㒵
㒸
㒼
㓁
㓞
㔾
㕛
㕣
㖾
㘝
㚅
㚇
㚔
㚘
㝉
㝡
㝴
㝵
㞋
㞢
㞷
㠩
㠭
㠯
㡀
㡭
㡿
㢲
㢴
㣇
㣺
㥯
㪅
㫄
㫐
㫒
㫺
㬅
㬎
㬥
㬰
㲋
㳄
㷠
㸒
㸚
㸦
㼌
㼲
㽞
㿟
䀠
䂞
䍃
䏍
䒑
䖍
䖒
䖝
䖵
䙴
䚻
䜌
䝿
䡛
䧹
䪞
一
丁
丂
七
丄
丅
丆
万
丈
三
上
下
丌
不
与
丏
丐
丑
专
且
丕
世
丘
丙
业
东
丞
丢
丣
两
严
並
丨
丩
个
丫
丬
中
丮
丰
丱
串
丵
丶
丷
丸
丹
为
主
丽
丿
乀
乂
乃
久
乆
乇
么
义
之
乌
乍
乎
乏
乐
乑
乔
乖
乗
乘
乙
乚
乛
乜
九
乞
也
习
乡
乳
乾
亀
亅
了
亇
予
争
事
二
亍
于
亏
亐
云
互
亓
五
井
亘
亚
亜
亞
亟
亠
亡
亢
交
亥
亦
产
亨
亩
享
京
亭
亮
亯
亰
亲
亳
亶
亷
人
亻
亼
亾
仁
今
介
仌
从
仐
仑
仒
仓
仕
他
付
仝
代
令
以
任
企
伊
伏
伐
休
会
伯
但
位
何
佘
余
作
佥
使
來
侈
侌
侖
侯
侵
便
保
俞
信
修
倉
倍
候
倠
備
僉
僕
儿
兀
允
兂
元
兄
充
兆
兇
先
光
兊
克
兌
免
兑
兒
兓
兔
党
兜
兟
入
全
兩
兪
八
公
六
兮
兰
共
关
兵
其
具
典
兹
兼
冀
冂
冃
冄
内
冈
冉
冊
冋
册
再
冎
冏
冐
冒
冓
冖
冗
冘
军
农
冝
冡
冥
冫
冬
冷
几
凡
凢
凵
凶
凷
凸
凹
出
函
凾
刀
刁
刂
刃
刄
刅
分
切
刍
刑
刕
刖
列
刘
则
初
別
利
别
到
制
刺
則
削
剌
前
剡
剽
劉
力
功
加
劦
助
劫
劳
劵
勃
勇
勉
勒
動
務
勞
勤
勹
勺
勻
勾
勿
匀
匂
包
匆
匈
匊
匋
匍
匕
化
北
匚
匝
匡
匪
匱
匸
匹
区
医
匽
匿
區
十
卂
千
卄
卅
卆
升
午
卉
半
卌
华
卑
卒
卓
单
卖
南
卜
卝
卞
占
卡
卢
卣
卤
卦
卩
卪
卬
卯
印
危
即
却
卵
卷
卸
卻
厂
厃
厄
历
厈
厉
厌
厓
厘
厚
原
厤
厥
厨
厭
厲
厶
厷
厸
去
厼
厽
叀
参
參
叅
又
叉
及
友
双
反
叐
发
叒
叔
叕
取
受
叚
叜
叟
口
古
句
另
叩
只
召
可
台
叱
史
右
叵
号
司
叹
吂
各
吅
合
吉
吊
吋
同
名
后
吏
向
吕
君
吝
吞
否
含
启
吳
吴
吹
吾
呂
呆
呈
告
员
呙
周
命
咅
和
咎
咠
咢
咨
咸
咼
哀
品
哉
員
哥
哲
唐
商
啇
問
啚
啬
啻
善
喜
喬
單
喿
嗇
嘢
噩
嚴
囊
囗
囘
囙
囚
四
回
囟
因
囧
囬
困
囱
囷
固
国
圂
圅
國
圍
圓
土
圡
圣
圥
在
圭
地
圶
圼
坐
坒
坚
坴
垂
垔
垚
埀
埋
城
埶
執
基
堂
堅
堆
堇
堯
塞
墨
壘
士
壬
壯
声
壳
壴
壹
壺
壽
夂
处
夅
夆
备
夊
夋
夌
复
夏
夒
夕
外
夗
夘
多
夜
夢
大
夨
天
太
夫
夬
夭
央
失
夲
头
夷
夸
夹
夻
夾
奂
奄
奇
奈
奉
奎
奏
奐
契
奓
奔
奚
奞
奠
奢
奥
奭
女
奴
奻
好
如
妄
妙
妟
妥
妻
妾
姑
委
姜
威
娄
婁
婴
嬰
嬴
子
孑
孔
孕
孖
字
存
孚
孛
孝
孟
季
孤
学
孫
孱
學
宀
宁
宂
它
宅
宇
守
安
宋
完
宏
宓
宗
官
定
宛
宜
宝
客
宣
室
宮
宰
害
家
容
宾
宿
寄
寅
密
富
寒
察
寧
審
寫
寬
寮
寸
对
寺
寻
寽
対
寿
封
尃
射
将
將
專
尉
尊
尋
尌
對
小
少
尒
尓
尔
尖
尗
尚
尞
尢
尣
尤
尧
尨
尭
就
尸
尹
尺
尻
尼
尽
尾
尿
局
居
屈
屋
屎
屏
屑
展
屖
屚
属
屠
屡
屬
屮
屯
屰
山
屵
屾
岁
岂
岑
岡
岩
岳
岸
峯
島
崇
崑
崔
崖
崙
崩
嵬
嶲
巂
巛
川
州
巟
巠
巢
巤
工
左
巧
巨
巩
巫
差
己
已
巳
巴
巷
巸
巽
巾
巿
帀
市
布
希
帚
帛
帝
带
師
席
帶
常
干
平
年
幵
并
幷
幸
幺
幻
幼
幽
幾
广
広
庄
床
底
店
庚
府
度
庫
庭
庶
康
庸
廉
廌
廛
廣
廩
廴
延
廷
建
廾
廿
开
弁
弃
弄
弇
弋
式
弓
弔
引
弗
弘
弜
弟
弥
弦
弱
張
強
强
彊
彌
彎
彐
彑
当
彔
录
彖
彗
彡
形
彥
彦
彧
彭
彳
役
彼
往
待
律
徒
得
徙
從
復
微
徵
心
忄
必
忌
忍
志
忝
忠
忩
快
念
忽
忿
思
怠
急
怱
总
恆
恒
恩
恭
息
悉
患
悤
悲
悶
惠
惡
惢
愁
愈
意
愛
感
慈
慧
慮
憂
憲
應
戀
戈
戉
戊
戋
戌
戍
戎
成
我
戒
戔
或
戚
戠
戢
截
戲
戶
户
戹
戼
戾
房
所
扁
扇
手
扌
才
打
托
执
承
折
报
拉
拜
拿
据
掌
推
提
摩
支
攴
攵
收
攸
改
放
政
敄
敏
敕
敖
敗
教
敝
敞
敢
散
敦
敫
敬
数
敷
數
斂
文
斉
斊
斗
斤
斥
斩
斬
斯
新
方
於
施
斿
旁
旋
族
旗
无
旡
既
旣
日
旦
旧
旨
早
旬
旱
旲
时
旾
昆
昇
昌
昍
明
昏
易
昔
昗
昜
星
春
昬
是
昱
昴
昷
時
晃
晋
晏
普
景
晶
智
暑
暴
曇
曩
曰
曲
曳
更
曷
書
曹
曼
曾
替
最
朁
會
月
有
朋
服
朔
朕
朗
望
朝
木
朩
未
末
本
札
朮
术
朱
朵
朶
朿
杀
杏
杜
束
条
来
東
杲
杳
松
析
林
枚
果
枝
枲
枼
某
柔
查
柬
柰
柴
栗
桀
桑
桼
梁
條
梟
梨
棘
棠
棥
森
楚
業
楽
榮
樂
樊
欠
次
欣
欮
欲
欶
欽
款
歆
歇
歛
止
正
此
步
武
歨
歪
歮
歯
歰
歲
歴
歷
歸
歹
歺
死
殳
段
殷
殸
殹
殺
殻
殿
毋
毌
母
每
毒
比
毕
毚
毛
毳
氏
氐
民
气
氣
水
氵
氶
氷
永
氺
氾
求
汝
汞
江
沃
沓
沙
沝
泉
法
波
泣
泥
泰
洛
洪
活
派
流
浦
浪
浮
淡
淮
清
渚
渠
湯
滿
漸
火
灬
灭
灰
灵
灷
炅
炎
炏
炗
炙
炭
為
烈
烏
烝
焉
無
焦
焱
然
煞
熊
熏
燕
營
燮
爪
爫
爭
爯
爰
爱
爲
爵
父
爻
爽
爾
爿
片
牙
牚
牛
牜
牟
牢
牧
牪
牽
犀
犬
犭
犮
犹
狂
狄
狊
独
狺
猋
猒
猪
献
獻
玄
率
玉
王
玟
玨
珎
班
琴
瑟
瑩
瓜
瓦
甘
甚
生
産
用
甫
甬
田
由
甲
申
电
甶
男
甸
甹
画
甾
畀
界
畏
畐
留
畜
畟
畢
畧
畨
番
畫
異
畱
當
畺
畾
疊
疋
疌
疑
疒
疾
癶
癸
癹
登
發
白
百
皀
皃
的
皆
皇
皋
皐
皕
皮
皷
皿
盃
盆
盇
盈
益
盍
盎
监
盒
盖
盛
盡
監
盤
盧
目
直
相
盾
省
眇
眉
看
眔
眞
真
眷
眼
眾
着
睘
睪
睿
瞏
瞢
瞿
矍
矛
矞
矢
矣
知
矦
短
石
破
碎
磊
磨
示
礻
礼
祟
票
祭
禀
禁
禸
禹
禺
离
禽
禾
禿
秀
秃
秉
秋
科
秝
秦
移
稟
穀
穌
穴
究
穹
空
穿
突
窄
窒
立
竒
竜
竝
竟
章
童
竹
笑
笠
第
筆
等
答
箕
算
箴
節
篤
篭
米
粉
粛
粟
粤
粦
粲
糞
糸
糹
系
約
納
素
索
紫
累
細
絜
絫
絲
經
維
綿
縣
繇
纍
纟
统
缶
网
罒
罔
罕
罗
罙
罡
罢
罪
署
罷
羅
羊
羌
羍
美
羔
羕
羗
羞
羡
羣
群
義
羲
羸
羽
翁
翏
習
翕
翟
翠
翼
老
耂
考
者
耆
而
耎
耑
耒
耳
耴
耶
耷
聂
聊
聖
聚
聶
聿
肀
肃
肅
肉
肖
肙
肥
肩
肯
育
肴
胃
背
胡
胥
能
脊
脩
膚
臣
臤
臧
自
臬
臭
臯
臱
至
致
臺
臼
臽
臾
臿
舀
舂
舄
與
興
舉
舌
舍
舛
舜
舞
舟
般
艮
良
色
艸
艹
艾
芒
芔
芬
芮
花
芳
芺
芻
苔
苗
苟
若
苦
英
茶
茸
荅
草
荒
荣
荼
莆
莧
莫
莽
菆
菊
菐
華
萬
落
葉
著
葛
董
葵
蒙
蒦
蒼
蓋
蓬
蓺
蔑
蔡
蕉
蕭
薄
薛
薦
薰
藍
藏
藥
蘭
虍
虎
虐
虒
虔
處
虖
虗
虘
虚
虛
虜
虞
虫
虽
蚤
蚩
蜀
蜜
蟲
蠡
血
行
衍
衛
衣
衤
表
衮
衰
袁
袞
褭
褱
襄
襾
西
覀
要
覃
見
規
覓
覧
親
覽
见
觉
角
解
言
訁
訇
計
詹
語
誩
諸
讠
谷
豆
豈
豊
豐
豕
豖
豙
象
豦
豩
豪
豸
貇
貝
貞
貟
負
貢
貧
貪
貫
責
貳
貴
買
費
賁
資
賈
賏
賓
賔
賛
賞
賢
賣
質
賴
贊
贝
贡
责
贯
贲
贵
赖
赞
赤
赦
走
越
足
路
蹇
身
躬
車
軍
軎
軟
輦
车
辛
辜
辟
辥
辰
辱
農
辵
辶
边
达
过
近
连
迷
追
退
送
逆
逐
通
速
造
逢
連
逮
進
遀
遂
過
道
達
遣
適
遷
遺
邊
邑
邕
那
邦
邪
郎
部
郭
都
鄉
酉
酋
配
酒
酓
釆
采
里
重
野
量
金
釒
錢
钅
長
镸
长
門
閃
閉
開
閏
閑
閒
間
閔
閵
閻
闌
门
间
闷
阑
阜
阝
阿
降
陳
隆
隊
隋
隡
隨
隱
隶
隹
隺
隻
隼
隽
难
雀
雁
集
雈
雋
雍
雐
雔
雙
雚
雜
雝
離
難
雨
雩
雪
雲
零
雷
需
霍
霜
霝
霞
霸
靈
靑
青
非
靡
面
靣
革
韋
韦
韭
韯
韱
音
頁
頃
項
須
頗
頡
頻
顛
页
風
风
飛
飞
食
飠
養
饣
首
香
馬
馮
駦
马
骨
高
髟
鬥
鬯
鬲
鬼
魚
魯
鮮
鱼
鲁
鳥
鳳
鸟
鹵
鹿
麃
麗
麥
麦
麻
黃
黄
黍
黎
黑
黒
黨
黹
黽
黾
鼎
鼓
鼠
鼻
齊
齋
齐
齒
齿
龍
龙
龜
龟
龠
龰
龱
龴
龵
龶
龷
龸
龹
者
艹
（
）
？
￼
𐌰
𐌳
𐌴
𐌷
𐌹
𐌺
𐌻
𐌽
𐌾
𐍃
𐍆
𐍉
🇨
🇩
👍
🜨
𠀁
𠀃
𠀆
𠀉
𠀎
𠀐
𠁁
𠁣
𠂆
𠂇
𠂈
𠂉
𠂊
𠂋
𠂎
𠂒
𠂔
𠂛
𠂡
𠂢
𠂤
𠂬
𠂭
𠂹
𠃊
𠃋
𠃌
𠃍
𠃎
𠃑
𠃓
𠃔
𠃜
𠄌
𠄎
𠄠
𠄢
𠆢
𠆥
𠇍
𠈌
𠌵
𠓜
𠔉
𠔥
𠔼
𠔽
𠔿
𠕀
𠕁
𠕋
𠘧
𠘨
𠙻
𠙼
𠚏
𠚒
𠚤
𠚪
𠣏
𠤎
𠤕
𠥓
𠦄
𠦑
𠦝
𠧒
𠧗
𠧪
𠩺
𠪚
𠫓
𠫔
𠫤
𠬛
𠬝
𠬞
𠬢
𠬤
𠬶
𠮛
𠮦
𠮷
𠯑
𠱠
𠳮
𠷎
𡈼
𡉀
𡉵
𡌥
𡍮
𡏳
𡕒
𡕩
𡕰
𡖅
𡗗
𡗜
𡘆
𡘤
𡧱
𡨄
𡩧
𡬠
𡭽
𡰣
𡰥
𡰪
𡰯
𡰱
𡷈
𡸁
𡿨
𡿩
𡿪
𡿺
𢀖
𢀛
𢀩
𢁙
𢆉
𢆰
𢆶
𢇁
𢇇
𢉖
𢌬
𢌿
𢏚
𢑑
𢑚
𢖻
𢙣
𢛳
𢦏
𢦒
𢧵
𢼄
𢾕
𣁋
𣄼
𣅀
𣅽
𣍘
𣎳
𣎵
𣏋
𣏼
𣗥
𣥂
𣥖
𣦵
𣦼
𣧄
𣪊
𣪠
𣬉
𣳾
𣶒
𤇾
𤊽
𤐫
𤓰
𤔔
𤕨
𤣩
𤰇
𤰔
𤰞
𤴓
𤴔
𤽄
𥁑
𥁕
𥃦
𥃩
𥃭
𥇡
𥑟
𥘅
𥘈
𥝢
𥫗
𥱡
𦈢
𦉪
𦉬
𦉼
𦍌
𦍒
𦎧
𦐇
𦓔
𦔮
𦘒
𦙃
𦚏
𦣝
𦣞
𦣻
𦥑
𦥔
𦥯
𦨉
𦭝
𦰩
𧆞
𧈧
𧘇
𧰨
𧴪
𧴮
𧵩
𧾷
𨸏
𨾴
𩙿
𩠐
𩫏
𩵋
𪉷
𪜀
𪟽
𪠲
𪩲
𫇦
𫔭
𫜸
𫝀
𫠣
𫠩
𫢉
𫥞
𫩏
𫩠
𫪡
𫲽
𫶧
𬀷
𬐘
𬗌
𬙙
𬛸
𬜯
𬟩
𬯁
𬴘
𬺻
𬼉
𬼖
𭀰
𭁈
𭁨
𭅰
𭑈
𭕄
𭗼
𭤨
𭥫
𭻾
𮅕
𮊿
𮍌
𮍏
𮓗
𮥼
𮧮
廾
𰀁
𰀄
𰀈
𰀉
𰀕
𰀠
𰀡
𰀢
𰀪
𰁜
𰃮
𰆊
𰆘
𰋙
𰕎
𰢴
𰧭
𰯲
00--
01--
03--
04--
05--
06--
07--
08--
08007--
083070--
09--
10--
102--
11--
12--
13--
14--
15--
16--
17--
18--
2070--
23--
25--
27--
28--
30--
32--
33--
35--
41--
44--
46--
47--
48--
51--
57--
58--
6--
65--
66--
68--
7--
70--
71--
73--
74--
76--
82--
83--
84--
85--
86--
87--
88--
89--
90--
91--
92--
93--
95--
a--
aa--
aba--
abe--
abi--
abo--
abs--
abu--
ac--
activ--
ad--
add--
ado--
ae--
af--
afa--
afu--
ag--
ago--
ah--
ai--
ak--
aka--
ake--
aki--
ako--
aku--
akunda--
al--
ala--
alco--
ale--
ali--
alo--
alp--
am--
ama--
ambr--
ami--
amo--
amɔ--
an--
and--
andim--
ang--
ani--
ant--
anti--
anxi--
apa--
ape--
apo--
app--
appro--
approxi--
ar--
archi--
arno--
aro--
arti--
as--
asa--
asha--
asi--
aso--
assi--
asso--
at--
ata--
atala--
atato--
ate--
ati--
ato--
au--
auber--
auto--
automa--
autono--
av--
ax--
ay--
aya--
aye--
ayi--
az--
aza--
azo--
b--
ba--
baba--
babe--
babi--
babo--
babu--
bad--
bae--
bagu--
baha--
bai--
bak--
baka--
baki--
bako--
bal--
bala--
bale--
bali--
balo--
baman--
bami--
bamo--
bamɛ--
bapa--
bape--
bar--
bas--
basa--
base--
basol--
basu--
bat--
bata--
bate--
bati--
bato--
batu--
batɔ--
bau--
baya--
baye--
be--
begin--
bel--
below--
ben--
ber--
bha--
bi--
bibimi--
biko--
biku--
bilongo--
bini--
bio--
bis--
bisa--
bise--
bisi--
bium--
biz--
bl--
bo--
boba--
bobu--
boka--
boko--
bol--
bola--
bolo--
bolɛ--
bomi--
bon--
bong--
bor--
bos--
bosa--
boso--
bota--
boto--
bou--
boule--
boy--
boza--
br--
bran--
bras--
bre--
bril--
brow--
bru--
bu--
bula--
bulu--
but--
by--
bɛ--
c--
ca--
cal--
cami--
can--
candi--
cap--
car--
cas--
cau--
ce--
cer--
cerc--
ces--
ch--
cha--
chama--
char--
che--
cher--
chi--
chlo--
cho--
chro--
chry--
ci--
cir--
cl--
cle--
cli--
co--
code--
cof--
cog--
col--
colo--
com--
comer--
compi--
con--
congo--
conheci--
consomm--
consu--
contami--
cor--
cos--
cove--
cre--
cri--
crist--
cro--
croco--
cru--
cu--
cul--
cur--
cut--
cy--
d--
da--
dan--
de--
dec--
del--
democ--
den--
der--
des--
di--
dia--
dic--
dica--
din--
dio--
diph--
dis--
disci--
disp--
dispos--
disti--
dja--
dje--
dm--
do--
doc--
dol--
dominic--
dou--
dr--
dra--
dro--
du--
dur--
dy--
dyna--
dz--
e--
eb--
eba--
ebe--
ebi--
ebo--
ebu--
ed--
ee--
efa--
efe--
efu--
egb--
egu--
egy--
egypt--
eh--
ei--
eje--
eji--
eka--
eke--
eki--
eko--
ekosa--
eku--
ekundo--
el--
ela--
ele--
eli--
elu--
elɛ--
em--
emi--
emɛ--
en--
endim--
endli--
endoc--
eng--
ensei--
enseig--
eo--
ep--
epa--
epe--
epi--
epu--
epɔ--
epɛ--
equ--
er--
es--
esa--
escl--
ese--
esi--
eso--
espe--
essenti--
est--
et--
eta--
ete--
ethn--
eti--
eto--
etu--
etɔ--
eu--
eva--
ex--
exec--
experi--
explo--
extra--
eya--
eye--
eze--
ezo--
f--
fa--
fai--
fal--
far--
favo--
fe--
fer--
fi--
fla--
flam--
fle--
flo--
flu--
fly--
fo--
fol--
foot--
for--
fos--
fr--
fre--
fri--
fu--
ful--
fɛ--
g--
ga--
gal--
gar--
gaut--
gb--
ge--
geni--
geo--
georg--
ger--
germ--
ges--
get--
gha--
gho--
gi--
gia--
giga--
gil--
giu--
gl--
glau--
gle--
glo--
gly--
go--
gouve--
gra--
gre--
gri--
gro--
gru--
gu--
gul--
h--
ha--
hab--
har--
hard--
harm--
has--
he--
hell--
helmin--
her--
hes--
hi--
his--
ho--
hol--
home--
hosp--
hr--
hu--
hy--
hydr--
hyper--
hypo--
i--
ibe--
ic--
ice--
id--
ide--
if--
ika--
ike--
il--
im--
imme--
immuni--
in--
inaugu--
inflam--
inst--
instau--
instr--
inter--
inve--
ip--
ir--
ire--
is--
isa--
iso--
it--
iv--
j--
ja--
je--
jean--
ji--
jo--
joha--
jou--
ju--
judi--
jul--
jun--
k--
ka--
kany--
kar--
kara--
kas--
kasa--
kat--
kata--
ke--
ker--
kh--
ki--
kia--
kibu--
kim--
kin--
kir--
kiri--
kivu--
kla--
kle--
kn--
ko--
koba--
kobe--
kobi--
kobo--
kofu--
koka--
koko--
koku--
kola--
kole--
koli--
koma--
kome--
komi--
komo--
komu--
konin--
kons--
kosa--
kose--
kosi--
kota--
kote--
koti--
koto--
kou--
koya--
koza--
kra--
kro--
ku--
kul--
kur--
kwa--
kwe--
kyo--
kɔ--
l--
la--
lac--
land--
lang--
lar--
le--
lecto--
leg--
lende--
les--
let--
levan--
levi--
li--
lia--
libe--
lie--
like--
liko--
lila--
lim--
lime--
lin--
linge--
lingu--
lip--
lis--
lisa--
lislo--
liv--
liyɛ--
lo--
lof--
log--
lou--
lu--
lua--
lui--
luyi--
ly--
lɔ--
lɛ--
m--
ma--
maba--
mac--
mag--
maka--
mako--
mal--
male--
mame--
man--
mangb--
manus--
mar--
mas--
masa--
mat--
mate--
matum--
maz--
mb--
mba--
mbi--
mbo--
mbu--
mbɔ--
me--
mel--
mer--
mes--
met--
mexi--
mf--
mi--
mia--
miba--
miko--
milo--
min--
mira--
mis--
mise--
mita--
ml--
mn--
mo--
mobo--
moc--
moko--
mola--
mome--
mon--
mor--
mora--
morp--
mos--
mose--
mosɛ--
mou--
moye--
mpa--
mpi--
mpu--
msi--
mu--
mua--
mus--
muzu--
mv--
mvi--
mw--
mwa--
mwi--
my--
mɔ--
mɛ--
n--
na--
nal--
nar--
navi--
naza--
nazi--
nd--
nda--
ndi--
ndo--
ne--
nehe--
nel--
new--
ng--
nga--
ngb--
nge--
ngi--
ngo--
ngwa--
ni--
nije--
nis--
nka--
nko--
nku--
nkwa--
nl--
no--
non--
nor--
nos--
not--
ns--
nsa--
nsu--
nt--
nto--
nu--
nur--
ny--
nya--
nyɔ--
nza--
nze--
nzo--
o--
ob--
obe--
oc--
occur--
odo--
of--
offic--
og--
ogo--
ok--
okan--
okend--
oko--
ol--
ole--
olo--
olon--
on--
open--
opt--
or--
ori--
orig--
orth--
os--
otto--
ou--
out--
ouv--
ow--
ozo--
p--
pa--
pac--
pal--
pan--
par--
parc--
parlamenta--
pas--
patr--
pau--
pe--
pen--
per--
pha--
phi--
pho--
physi--
phyto--
pi--
pic--
pie--
pil--
piro--
pis--
pl--
plat--
ply--
pn--
po--
poly--
popu--
por--
port--
pos--
pou--
pour--
pre--
prezi--
pri--
pro--
prote--
proto--
provi--
psy--
ptero--
pu--
pur--
pɔ--
pɛ--
q--
qu--
qui--
r--
ra--
rag--
ray--
re--
recru--
red--
reg--
reh--
relig--
repre--
rept--
res--
respi--
revi--
ri--
rig--
riodi--
rm--
ro--
rol--
ros--
ru--
rue--
rus--
s--
sa--
sac--
sam--
san--
sar--
sau--
sc--
sca--
scan--
sch--
schuppe--
scie--
scle--
scul--
se--
sef--
segu--
sens--
ser--
set--
sexu--
sh--
sha--
she--
si--
sibu--
sie--
sig--
sil--
sko--
sky--
sl--
slav--
slove--
so--
sobr--
sol--
son--
sor--
sou--
souf--
sout--
sp--
spe--
st--
star--
ste--
sti--
sto--
str--
stu--
su--
sub--
suf--
supp--
sur--
sv--
sy--
sylv--
symp--
synago--
sɔ--
sɛ--
t--
ta--
tablis--
tan--
tar--
tay--
tchi--
te--
tem--
ten--
ter--
th--
thai--
the--
thi--
tho--
thodi--
thy--
ti--
tis--
tni--
to--
tobimi--
toko--
tom--
ton--
top--
tou--
tr--
tra--
trans--
tre--
tri--
trin--
tro--
ts--
tsha--
tshi--
tshu--
tt--
tu--
tur--
tɔ--
u--
ue--
uk--
ul--
uma--
un--
uni--
up--
ur--
us--
ut--
util--
v--
va--
vais--
val--
van--
ve--
ven--
venezu--
ver--
veu--
vi--
vil--
vir--
visi--
vo--
vol--
vu--
w--
wa--
wal--
war--
wasser--
way--
we--
web--
wil--
wir--
wis--
wo--
won--
world--
wri--
x--
y--
ya--
ye--
yi--
yo--
yu--
z--
za--
zab--
zai--
ze--
zi--
zo--
zu--
zwe--
đ--
ɛ--
π--
τ--
б--
в--
д--
лог--
н--
п--
хра--
эт--
--0
--00
--05
--1
--2
--27
--3
--35
--4
--5
--6
--67
--69
--7
--71
--72
--8
--9
--92
--96
--98
--996
--a
--aa
--ab
--ac
--ach
--acio
--aco
--ad
--adi
--ado
--ae
--age
--ai
--aia
--aire
--aires
--ais
--aise
--aj
--ak
--aka
--aki
--al
--ala
--ale
--am
--ama
--amaka
--ami
--an
--ana
--ane
--ani
--ania
--anie
--ano
--ans
--ant
--anus
--ao
--ap
--apa
--ar
--ara
--ard
--ari
--ary
--as
--at
--ation
--atus
--au
--aux
--awa
--b
--ba
--bama
--bb
--be
--bes
--bi
--ble
--blir
--bo
--bs
--bu
--burg
--bwani
--bɛ
--c
--ca
--cal
--cat
--cation
--ce
--cer
--ces
--ch
--chrift
--cht
--ci
--cier
--cio
--ck
--co
--cs
--ct
--cta
--ction
--ctus
--cum
--cus
--d
--da
--dade
--daka
--das
--de
--des
--di
--dia
--dila
--dima
--dio
--dis
--dja
--do
--dor
--dos
--dra
--dre
--ds
--du
--dy
--dɛ
--e
--ea
--ed
--ef
--eiro
--ek
--el
--ela
--els
--em
--ema
--ement
--en
--ence
--ene
--ens
--ensis
--ent
--ents
--er
--ere
--eri
--ern
--erre
--ers
--es
--ese
--et
--ets
--eur
--eurs
--eus
--euse
--ey
--ez
--f
--fa
--fe
--ffe
--fi
--fic
--fication
--fie
--fo
--fried
--fs
--ft
--fu
--fɔ
--g
--ga
--gana
--ge
--gel
--gen
--ger
--ges
--gh
--ghe
--ght
--gi
--gie
--gio
--gir
--go
--gs
--gt
--gu
--gwa
--gwe
--gy
--gɔ
--h
--ha
--ham
--han
--hard
--he
--hed
--hem
--heur
--hi
--him
--hn
--ho
--hs
--ht
--http
--https
--hu
--i
--ia
--ial
--iane
--ias
--ic
--ica
--ick
--ics
--id
--ida
--ido
--ids
--ie
--ien
--ienne
--ier
--ies
--if
--ife
--ige
--ight
--ign
--igo
--igt
--ii
--ik
--ika
--iki
--il
--ili
--illon
--im
--ima
--imbo
--ime
--imi
--in
--ine
--ines
--ing
--ings
--ini
--io
--ion
--iou
--ip
--ipinnis
--ique
--ir
--ira
--ire
--ires
--iri
--iro
--is
--isation
--ise
--ish
--ism
--isme
--iste
--it
--ita
--ite
--itude
--ity
--ius
--ive
--ivity
--ix
--iya
--j
--ja
--je
--ji
--jo
--ju
--k
--ka
--kaki
--kami
--ke
--keli
--ker
--kes
--kh
--ki
--kisa
--ko
--kola
--ks
--kt
--ku
--kuta
--kwisa
--ky
--kɔ
--kɛ
--l
--la
--laka
--laki
--lama
--lamaki
--lami
--land
--lar
--lc
--ld
--le
--lema
--len
--ler
--les
--lez
--lf
--lgie
--lha
--li
--lia
--lic
--lin
--lis
--lisa
--lk
--ll
--lla
--lle
--llo
--llon
--lm
--ln
--lo
--logie
--logy
--lon
--lonia
--lor
--lot
--ls
--lt
--lu
--lus
--ly
--lɔ
--lɛ
--m
--ma
--mak
--maka
--maki
--mami
--man
--map
--mba
--mbami
--mbani
--mbe
--mbi
--mbo
--mbu
--me
--men
--ment
--mer
--mi
--mis
--mo
--mos
--ms
--mu
--muka
--mwisa
--mɔ
--mɛ
--n
--na
--nae
--nage
--naire
--naires
--naki
--nami
--nard
--nas
--nat
--naya
--nc
--nce
--nd
--nda
--ndaki
--ndani
--nde
--ndi
--ndisi
--ndo
--ndre
--ndu
--ndzi
--ndɛ
--ne
--neau
--ned
--nel
--ner
--nes
--net
--neur
--ng
--nga
--ngaki
--nge
--ngemi
--ngi
--ngo
--ngu
--ngubwe
--nh
--nhof
--ni
--nia
--nica
--nie
--nir
--nisa
--nischer
--nistes
--nji
--nk
--nki
--nn
--nna
--nne
--no
--noli
--nos
--ns
--nsis
--nso
--nt
--ntation
--nte
--ntes
--ntir
--nto
--nts
--ntu
--nu
--nung
--nwa
--ny
--nyi
--nza
--nze
--nzi
--nɔ
--nɔkɔ
--nɔmi
--nɛ
--o
--oa
--oba
--og
--ogical
--ogie
--oi
--oie
--ois
--oit
--oka
--oke
--oki
--oko
--ola
--ole
--oli
--olo
--ology
--ome
--on
--onge
--ongo
--ono
--ons
--op
--opi
--or
--ores
--orial
--os
--ose
--ot
--otho
--otte
--ou
--ous
--oux
--ov
--ovo
--ow
--oz
--ozi
--p
--pa
--pani
--pe
--phy
--pi
--pien
--plo
--po
--ppe
--ps
--pt
--ption
--pu
--pus
--pɛ
--pɛsi
--pɛsɛ
--q
--que
--qui
--r
--ra
--ram
--ras
--rc
--rd
--re
--res
--rest
--rette
--rg
--rge
--ri
--ria
--rie
--rii
--ristes
--rix
--rk
--rn
--rne
--rno
--ro
--ron
--rons
--ront
--rra
--rs
--rt
--rts
--ru
--rus
--rve
--ry
--s
--sa
--saka
--saki
--sama
--samaki
--sami
--se
--sela
--seli
--selo
--ser
--ses
--sh
--shi
--si
--sia
--sing
--sion
--sis
--sive
--sk
--ske
--sko
--sme
--smo
--so
--soli
--son
--sopa
--ss
--ssa
--sse
--ssen
--sser
--sseur
--ssion
--st
--sta
--stad
--stants
--ste
--sto
--stoma
--strasse
--su
--sule
--sult
--swi
--sy
--sɔ
--sɛ
--sɛni
--sɛnɛ
--t
--ta
--tage
--taki
--tal
--tan
--tar
--te
--ted
--tel
--ter
--tes
--teur
--th
--the
--ti
--tic
--ties
--tif
--tin
--ting
--tings
--tini
--tinue
--tion
--tis
--tisa
--tive
--to
--tola
--ton
--tor
--tors
--tra
--tro
--ts
--tta
--tte
--ttes
--tu
--ture
--tus
--ty
--tyle
--tz
--tɔ
--tɛ
--u
--ual
--ubu
--ud
--ude
--ue
--uer
--ues
--ugh
--ui
--uil
--uit
--uka
--ula
--ulatus
--ule
--ulu
--um
--umba
--ur
--ure
--urs
--us
--use
--ut
--ute
--ux
--uy
--v
--va
--vant
--ve
--vent
--ver
--vez
--vi
--ville
--vo
--vus
--w
--wa
--wagen
--we
--wi
--wn
--wo
--wu
--x
--xication
--xine
--y
--ya
--yaki
--ye
--yer
--yi
--yn
--yo
--ys
--yu
--yɔ
--z
--za
--zaka
--zam
--ze
--zer
--zi
--zk
--zo
--zu
--zwa
--zwi
--zzo
--ɔ
--ɔki
--ɔlɔ
--ɛ
--ɛsi
--ʊ
--ι
--ν
--υ
--а
--е
--и
--к
--м
--н
--на
--о
--ть
--че
--я
--ם
