!
"
#
##0
##1
##10
##11
##12
##13
##14
##15
##16
##17
##18
##19
##2
##20
##21
##22
##23
##24
##25
##26
##27
##28
##29
##3
##30
##31
##32
##33
##34
##35
##36
##37
##38
##39
##4
##40
##41
##42
##43
##44
##45
##46
##47
##48
##49
##5
##50
##51
##52
##53
##54
##55
##56
##57
##58
##59
##6
##60
##61
##62
##63
##64
##65
##66
##67
##68
##69
##7
##70
##71
##72
##73
##74
##75
##76
##77
##78
##79
##8
##80
##81
##82
##83
##84
##85
##86
##87
##88
##89
##9
##90
##91
##92
##93
##94
##95
##96
##97
##98
##99
$
%
&
'
(
)
*
+
,
-
.
/
0
000
001
002
003
005
007
009
01
011
012
02
020
024
03
030
035
038
04
05
052
058
06
060
07
070
074
08
09
090
092
097
1
10
100
1000
10000
101
102
103
104
105
106
1066
107
108
1087
109
11
110
1100
111
112
1122
113
114
1147
1152
1153
116
1169
117
1174
118
1187
119
1190
1193
12
120
1200
121
122
1228
1241
125
1250
126
1260
127
129
1291
13
130
1300
131
132
133
134
1340
1346
135
1350
1369
137
14
140
1400
1405
1430
144
145
1453
1469
147
1483
149
1491
1492
15
150
1500
1506
1509
1517
1520
1521
1524
153
1534
1536
1539
154
1542
1546
1547
1555
1556
1561
1562
1563
1564
158
1580
1582
1588
1594
1596
16
160
1600
1605
1607
1609
1610
1612
1613
1616
1622
1626
1631
1636
1638
1642
1643
1644
1650
1651
1654
1657
166
1662
1666
1669
1672
1676
1682
1683
1685
1687
1694
1696
17
1701
1705
1707
1708
1709
1715
1716
1723
1725
1726
1727
1728
173
1740
1743
1749
175
1750
1751
1756
1757
1759
176
1763
1764
1765
1766
1767
1768
1769
177
1770
1771
1772
1773
1774
1775
1776
1777
1778
1779
178
1780
1781
1782
1783
1785
1786
1787
1788
1789
1790
1791
1792
1793
1794
1795
1797
1798
1799
18
180
1800
1801
1802
1803
1804
1805
1806
1807
1808
1809
181
1810
1811
1812
1813
1814
1815
1816
1817
1818
1819
1820
1821
1822
1823
1824
1825
1826
1827
1828
1829
183
1830
1831
1832
1833
1834
1835
1836
1837
1838
1839
1840
1841
1842
1843
1844
1845
1846
1847
1848
1849
185
1850
1851
1852
1853
1854
1855
1856
1857
1858
1859
186
1860
1861
1862
1863
1864
1865
1866
1867
1868
1869
1870
1871
1872
1873
1874
1875
1876
1877
1878
1879
188
1880
1881
1882
1883
1884
1885
1886
1887
1888
1889
1890
1891
1892
1893
1894
1895
1896
1897
1898
1899
19
190
1900
1901
1902
1903
1904
1905
1906
1907
1908
1909
1910
1911
1912
1913
1914
1915
1916
1917
1918
1919
192
1920
1921
1922
1923
1924
1925
1926
1927
1928
1929
193
1930
1931
1932
1933
1934
1935
1936
1937
1938
1939
1940
1941
1942
1943
1944
1945
1946
1947
1948
1949
195
1950
1951
1952
1953
1954
1955
1956
1957
1958
1959
196
1960
1961
1962
1963
1964
1965
1966
1967
1968
1969
1970
1971
1972
1973
1974
1975
1976
1977
1978
1979
1980
1981
1982
1983
1984
1985
1986
1987
1988
1989
199
1990
1991
1992
1993
1994
1995
1996
1997
1998
1999
2
20
200
2000
200000
2001
2002
2003
2004
2005
2006
2007
2008
2009
201
2010
2011
2012
2013
2014
2015
2016
2017
2018
2019
202
2020
2021
2050
206
207
208
209
21
210
212
214
216
219
22
220
221
225
23
231
236
237
238
239
24
241
242
243
244
247
248
249
25
250
2500
253
255
256
259
26
260
2600
263
264
266
267
269
27
270
273
275
279
28
280
283
284
285
287
288
289
29
293
294
295
3
30
300
3000
30000
303
304
305
31
32
320
328
33
330
332
336
338
339
34
347
35
350
3500
36
360
364
365
366
37
371
373
375
376
377
378
38
380
381
384
385
39
392
395
399
4
40
400
4000
41
410
414
415
419
42
420
423
43
431
436
44
447
45
450
456
459
46
461
468
47
475
479
48
486
49
490
495
499
5
50
500
5000
51
518
52
520
525
527
529
53
537
54
540
541
546
547
55
550
56
560
565
568
57
58
580
581
582
59
590
597
6
60
600
6000
605
606
61
610
62
625
63
632
637
64
640
65
650
66
67
673
677
68
680
686
69
696
7
70
700
705
706
707
71
72
724
73
74
741
742
749
75
750
76
760
77
770
78
780
787
79
8
80
800
8000
802
808
809
81
810
82
828
83
837
838
839
84
840
843
845
849
85
850
851
852
853
859
86
87
870
877
879
88
888
89
9
90
900
9000
907
91
918
92
923
925
927
93
939
94
940
941
945
947
95
950
96
960
962
963
965
968
97
976
978
979
98
980
987
989
99
996
998
:
;
<
=
?
@
\
^
_
`
a
aa
aakpaɣ
aakɛ
aakɛna
aalaba
aan
aarabʋ
aaron
aasii
aatee
aatisiɣ
aatɛma
aawɛ
aawɛna
aayɩ
aazii
ab
aba
abaa
abala
abalaa
abalaajo
abalɩ
abalɩmasɩ
abalɩmayaɣ
abalɩn
abalɩpɩɣa
abalɩtʊ
abalɩtʋ
abalʊ
abalʋ
abasidi
abat
abbas
abbaye
abbe
abd
abdel
abdelaziz
abdelmalek
abdou
abdul
abdullah
abe
abeba
abeja
abeti
abi
abiijaŋ
abila
abiɖe
abomey
abou
abraham
abrɩham
abu
abuu
abuuja
abɩ
abɩɩjaŋ
ac
aca
academy
acakɩ
acana
acaza
acaɣ
acce
accident
acct
achebe
achille
action
acɔ
acɔŋna
acɛya
acɛɣɛ
acɩya
ad
ada
adam
adamastos
ade
ader
adichie
adisi
adolf
adolph
adolphe
adɔtɔ
ae
aerial
afa
afanaa
afelaa
afema
afganistani
afo
afolom
africa
africain
africaine
african
afrika
afriki
afrikihadɛ
afrikos
afrique
afro
afropop
afrɩka
afshe
afɛyɩ
afɛyɩna
afɩganɩstaanɩ
afɩya
afʊwanɩ
ag
agandɛ
agatha
agaŋgala
agbaba
agbama
agbapa
agbeela
agbeelaa
agbela
agbelaa
agbele
agbelenaa
agbeɣla
ageeta
ageetaa
agoza
agɔlɔma
agɔlɔmaa
agɔlɩma
agɔma
aha
ahaɣ
ahela
ahelesa
ahimsa
ahmed
ahu
ahura
ahuwa
ahɔya
ahɛkʊ
ahʊna
ahʋna
ai
aimant
aime
air
aire
aires
airport
ais
aise
ajama
ajana
ajaɖɛ
ajɔla
ajɔɔ
ajɔɔla
ajɛya
ajɛyaa
ajɛyɛ
ajɛyɛɛ
ajɛɛ
aka
akademii
akalɩŋ
akalʊʊ
akaŋgaa
akaŋgaanaa
akbar
akele
akira
akitinidiya
akofa
akon
akoussah
akpaba
akpadɩyaa
akpadɩyʊ
akpadɩyʋ
akpagba
akpakɩɣ
akpalasɩɣ
akpalasʊʊ
akpama
akpaɣ
akpema
akpendu
akpenu
akpeɣla
akpo
akpɛnda
akpɛndaa
akpɛndɩ
akra
akropɔɔlɩ
aku
akueson
akɔma
akɔnta
akɔŋna
akɛ
akɛna
akɩ
akɩla
akɩlɩ
akɩlɩna
akɩlɩɣ
akɩra
akɩtɩnɩdɩ
akɩtɩnɩyɔm
akʊ
akʋʋ
al
ala
alaa
alaafiya
alaafɩya
alaba
alabama
alabamaa
alabʊ
aladdin
alafiya
alafɩya
alakɩ
alakɩna
alamɩyɛ
alan
alaska
alaskaa
alba
albert
albrecht
ale
aleba
aleewaa
aleeya
alewa
alexander
alexandra
alexandre
alexandria
alexandrie
alexei
alexis
aleɣya
alfonso
alfred
alger
ali
alighieri
aliki
alimiiniyɔɔm
alioune
alite
aliwaatʊ
alizee
alizeeri
alizeerii
alizerii
all
alla
allah
allegro
allen
alliance
allison
almamy
almanach
aloma
alpe
alpha
alphabet
alphonse
alsace
alt
altai
alto
alzeerii
alɛ
alɛkɩsandrii
alɛɛ
alɩ
alɩfa
alɩkɔɔlɩ
alɩmɩnɩyɔm
alɩmɩyɛ
alɩna
alɩpɩ
alɩpʊ
alɩpʊwaa
alɩwaaatʊ
alɩwaatʊ
alɩwaatʊʊ
alɩwaatʋ
alɩwaayʊʊ
alɩwatʊ
alɩwwatʊ
alɩzerii
alɩzɩ
alɩzɩɣ
alɩɣ
alɩɣna
alɩɩ
alɩʊ
alʊ
alʊlʊʊ
alʊwaatʊ
alʊwatʊ
alʊʊ
alʋlʋʋ
alʋʋ
am
ama
amadeus
amala
amanɩ
amasʋʋ
amaury
amazon
amazonii
amaɣna
ambroise
ame
america
american
amerika
ameriki
amesbury
ametisiti
amharikii
amini
ammad
amn
amoniyaki
amoniyakɩ
amour
ampiiri
ampiri
amsa
amsaa
amstɛrɩdam
amsɩ
amsʊ
amsʊʊ
amsʋʋ
amtʊ
amtʊʊ
amtʋ
amundsen
amɔnɩyakɩ
amɛrɩsɩyɔm
amɛɛ
amɩyɛ
amʊ
amʊna
amʊza
amʊzɛ
amʊʊza
amʊʊzɛ
amʋʋza
an
ana
anaa
anaalɛ
anasaayɩ
anasaayɩnaa
anasaayɩwaa
anasayɩ
anasayɩnaa
anatomy
anaɣ
anaɣam
anaɣm
anc
ancien
and
anders
anderson
andes
andorra
andre
andreas
andrei
andrej
andrew
android
andy
andɛɛzɩ
ane
ang
angba
ange
angel
angela
angeles
angelico
angilisi
angkor
angleterre
angletɛrɩ
anglisi
anglo
anglɩtɛɛrɩ
anie
animated
animation
anisi
anjaʊ
anjaʊna
anjaʊnaa
anjaʋ
anjaʋnaa
anjɛɛlɩ
anna
annan
anne
ano
anode
anonymous
ans
ansaayɩ
ansaayɩnaa
ansayɩ
antananarivo
antarctica
antaritiki
antarɩkɩtiki
antarɩtiki
anti
antiquite
antiyi
antoine
anton
antoni
antonio
antɩmʊwanɩ
anu
anwa
anzelɛsɩ
anzɩ
anɛ
anɛyɔ
anɩ
anɩhɔ
anɩna
anɩza
anɩɣ
aoste
apartheid
apaɣlɩ
ape
apisi
apollo
apostolo
apostolowaa
apple
apre
april
apɩsɩ
apɩzɩ
apɩzɩɣ
apɩzʊ
apʊwa
aquin
aquinas
ar
araabii
araabɩ
araabʊ
araabʋ
arabe
arabi
arabia
arabii
arabɩ
arabɩɩ
arabʋ
aradiyo
arafat
aragon
arba
arbois
arc
archangel
archery
archime
archipel
arden
are
ari
ariizonaa
arikitiki
aristote
arizantiini
arizantini
arizona
arjan
arkansas
arkanzaa
arkitiki
arm
armbruster
arme
armenii
arms
armstrong
arn
arnold
arouet
arrhenius
art
arthur
artist
arzantiini
arzantiinii
arzantini
arɩkɔŋ
arɩsɛnɩkɩ
arɩzantini
arɩzaɣ
as
asa
aseela
aseeɖe
aseɣla
aseɣɖe
asia
asiizi
asiyee
assemble
assembly
assise
astatɩ
astroyiidi
asuluma
aswany
asɛyɩŋ
asɛyʊ
asɛyʊʊ
asɩ
asɩba
asɩbɩna
asɩmara
asɩna
asɩɣ
asɩɩ
asʊ
asʊʊ
asʋ
at
ata
ataa
atakpaama
atalɩ
atalɩɣ
atalʊ
atamsɩna
atasɩ
ataŋ
athe
athle
atiki
atilantiki
atlanta
atlantiki
atlantikii
atlantique
atoom
atta
attikii
atuu
atɔkɩ
atɔsɔɔlɩ
atɛ
atɛkɛ
atɛma
atɛnɩ
atɛya
atɛɛnɩ
atɩlantiki
atɩlɛtɩsɩm
atɩma
atɩŋ
atɩŋa
atɩŋga
atɩŋgʊ
atɩŋna
atɩŋɩ
atʊ
atʋ
au
audrey
auer
august
augusta
auguste
augustin
augustine
augusto
aung
aurora
austen
australia
autriche
auvergne
aux
auxiliary
av
avema
avena
avestique
avicenne
avila
aviv
awalɩ
awayi
awayii
awayɩ
awazɩ
awiihɛɛ
awiya
awiyaa
awuusa
awɛ
awɛkʊ
awɛna
awɛnɩ
awɛɛ
awɛɛna
awɛʊ
awɩlɩ
awɩlɩɣ
awɩyaa
axe
axel
ay
aya
ayaa
ayaba
ayakɩ
ayaɣ
ayeba
ayebina
ayilandi
ayimara
ayɔɔdɩɣ
ayɔɔdʊʊ
ayɩnstayɩnɩyɔm
az
azaɣ
azaɣna
azi
azii
azuluma
azuuma
azɔɔtɩ
azɛrbayɩjanɩ
azɛyɩŋ
azɛyʊ
azɛyʋʋ
azɛʊ
azɩ
azɩn
azɩna
azɩtɛkɩ
azɩtʊ
azɩtʋ
azɩwanɩ
azɩyaa
azɩyʊ
azɩŋ
azɩɣ
azʊma
azʊʊ
azʊʊma
azʋʋ
aŋ
aŋga
aŋganda
aŋgaɣ
aŋgba
aŋgbaa
aŋgbɛ
aŋgiletɛɛrɩ
aŋgilisi
aŋgilitɛɛrɩ
aŋgletɛɛrɩ
aŋglɩkan
aŋglɩtɛɛrɩ
aŋgolaa
aŋgoola
aŋgoolaa
aŋgɩlɩtɛɛrɩ
aŋjaʊ
aŋjaʊnaa
aŋkor
aŋwanaa
aŋŋwanaa
aɖakasɩ
aɖakaɣ
aɖam
aɖama
aɖanɩ
aɖaŋnaa
aɖaɖa
aɖaɖana
aɖaɣ
aɖɔ
aɖɔnɖɔlɛɛ
aɖɔŋ
aɖɔɔ
aɖɩŋ
aɖʊ
aɖʋ
aɖʋʋ
aɣ
aɣna
aɣzɩɣ
aɣʊ
aɣʋ
b
ba
baaba
baalɛɛnɩ
baasɛɛ
babbage
babylone
bach
back
bacon
bad
badara
bagdad
baha
bai
balard
balla
ballon
balssa
baltimore
balzac
bamako
bambino
ban
banda
bang
bangkok
bank
baptiste
baptɩstɩ
bar
bara
barack
barberousse
barry
bartholdi
barto
baru
bas
base
basha
basho
basile
basque
bastien
bavie
bay
bayeu
bayɩkalɩ
bazaine
be
beach
beatlemania
beatles
beau
beaumont
bec
beccaria
bed
bee
beer
beethoven
beijing
bel
belfort
belize
bell
bella
bellow
belvedere
bembeya
ben
bengale
benito
benjamin
beno
benoi
benoit
bentham
ber
bergman
bergoglio
berkeley
berkelium
berlin
bernard
bernardo
bernhard
bernhardt
bernheim
bernoulli
bertrand
berze
berzelius
bes
besanc
bet
beyle
beynaud
bh
bha
bharati
bhu
bi
bible
biez
big
bigollo
biko
bilbao
bild
bill
billy
bing
biresiili
biritaanikimba
bismarck
bismark
biye
bizet
bk
bl
black
blaise
blanc
blank
ble
bleuler
blind
blondy
blu
blue
blues
bluzɩ
bo
boat
bob
boers
bohe
bohr
bois
boisbaudran
bolchevik
boli
bolivar
bollywood
bon
bonaparte
boni
bonn
book
booker
borges
bosnie
bottin
bottle
boubacar
bouge
boukhara
bourbon
bourgogne
boutros
bowɛɛrɩsɩ
boy
boyle
br
brahmapoutre
brahms
brandt
brant
branwell
bras
brassens
brazil
bre
breda
bretagne
brevet
brian
bridge
bristol
britaniiki
britaniki
britannique
britten
bronte
bronze
brown
bruce
bruno
brunswick
bruxelles
bu
bucarest
buckingham
budapest
buenos
bug
building
bulgarian
bundesarchiv
bundibugyo
bunsen
burckhardt
burj
burton
bush
butaŋ
buuda
buudiyism
buvo
by
byron
byzantin
bɔrɩ
bɔrɩyɔm
bɛrɩlɩyɔm
bɛɛrɩbɛɛrɩ
bɩ
bʊ
bʋ
c
ca
caa
caaa
caacibeɣa
caadɩ
caafela
caajaasɩ
caajasɩ
caama
caanaa
caanaʊ
caanaʋ
caaɣ
caaɣʊ
caaʊ
cabɩ
caca
cacanaa
caen
cahʊʊ
caire
caius
caja
cakɩ
cakɩna
cala
calais
cale
california
californie
calotte
calɩ
calɩgonzi
calɩm
calɩna
calɩɣna
calʊʊ
cam
camara
camayiki
cambridge
camellia
cameroun
camille
camp
campus
camus
camɖɩyɛ
camɩyɛ
canaa
canaan
canal
canasɩ
canatʊ
canaɣ
canaʊ
canaʋ
cancer
canique
cannes
canon
canta
canton
cantor
canyon
canɖaŋ
canɖaʊ
canɩɩ
cap
cape
capet
capitol
car
caracas
card
carica
carl
carme
carmel
carmen
caroline
carte
cartier
castille
castle
cat
cataratas
cate
category
cathe
cathedral
catherine
cathode
catholic
catholika
catʊʊ
cazʊ
cazʊʊ
caŋ
caŋga
caŋgayɩ
caɖasɩ
caɖɩyɛ
caɣ
caɣa
caɣdam
caɣna
caɣya
caɣyaa
caɣyɛ
caɣyʊ
caɣyʋ
caɣʊ
caɣʊʊ
caɣʋ
caɣʋʋ
caʊʊ
caʊʊʊ
caʋʋ
cd
ce
cecewiye
cedeao
cedh
cee
ceeka
cejewa
cejewaa
cejewaɣ
cejewiye
cemeŋje
cemiŋ
cenje
cenji
center
central
centrale
centre
century
cervantes
ces
ceu
ceviye
ceylan
ceyuu
cf
cfa
ch
cha
chal
cham
chamber
champ
champaran
champlain
champollion
chanson
chaplin
charbon
charcot
charif
charlemagne
charles
charlie
charlotte
chaucer
che
cheikh
chemin
cheve
chez
chicago
chimamanda
chimie
chimique
china
chine
chinua
chiraz
chongqing
chopin
chris
christian
christie
christina
christmas
christoph
christophe
christopher
chrɩstʊ
chrɩtʊ
chuck
church
churchill
ci
cibuuti
cice
cicero
ciel
cienu
ciidiɣ
ciidu
ciiduu
ciini
cija
cikpelaɣ
cikpelu
cikpeluu
cikpem
cikpema
cikpena
cikpene
cikpesi
cikpetu
cikpetʊ
cikpeŋ
cikpeɖe
cile
cimɩŋ
cine
circa
cisse
citaɖi
citrus
city
civilisation
ciyam
ciŋga
ciŋgaayi
ciŋgili
ciŋgilinaa
ciŋili
ciɣduu
claire
clairvaux
clamp
clara
clarissa
claude
cle
clemens
clermont
cleve
clock
close
closeup
clou
clouds
clous
cm
cn
co
coast
coat
cobourg
code
coka
cokodonaa
col
cole
colle
college
colomb
colombe
color
colorado
colosseum
coluu
com
combustible
come
commission
common
commonwealth
company
compaore
comte
conakry
concert
concerto
conde
confucius
congo
congre
connecticut
consonne
constantin
constantinople
constitution
construction
controverse
cook
copenhague
copernic
corbusier
corneille
cornelia
cornwall
corps
corte
cosi
costa
cosuu
cotonou
coulibaly
coup
coupe
court
cover
coɣ
cr
cracovie
crimson
critique
croix
cromwell
crookes
crop
cropped
crosby
cross
crystals
cu
cukaŋ
cukudu
culture
cunaami
cup
curie
curry
cyrus
cɔ
cɔcɩ
cɔjɔ
cɔjɔnaa
cɔjɔtʊ
cɔka
cɔkɔyɛ
cɔlɔ
cɔlɩ
cɔlɩtʊ
cɔlɩyaa
cɔlɩyɛ
cɔlɩɩ
cɔlɩɩɩ
cɔlʊʊ
cɔlʋʋ
cɔm
cɔna
cɔnaa
cɔnayaa
cɔnayʊ
cɔnaʊ
cɔnaʋ
cɔnɛyʊ
cɔnɩna
cɔnɩyaa
cɔnɩyʊ
cɔnɩyʋ
cɔtʊʊ
cɔyɛ
cɔyʊ
cɔzɔ
cɔzɔnaa
cɔŋaɣna
cɔŋgaɣna
cɔŋna
cɔŋnana
cɔŋnanɩ
cɔŋnɩna
cɔɔ
cɔɔcɩ
cɔɔcɩnaa
cɔɔlɩyɛ
cɔɔlɩɩ
cɔɔlʋʋ
cɔɔɔ
cɔɔʊ
cɔʊ
cɔʊna
cɔʊʊ
cɔʋ
cɔʋna
cɔʋʋ
cɛ
cɛba
cɛbɩyasɩ
cɛbɩyaɣ
cɛcɛsɩ
cɛcɛyaɣ
cɛja
cɛjɛ
cɛjɛsɩ
cɛjɛyaɣ
cɛjɛyɛ
cɛkasɩ
cɛkasɩtɔʊ
cɛkaɣ
cɛkɩ
cɛlɛ
cɛlɩ
cɛlɩna
cɛlɩɣ
cɛlʊʊ
cɛlʋʋ
cɛnzɩ
cɛtɩm
cɛyaa
cɛyɩ
cɛyɩtʊ
cɛyɩtʋ
cɛyʊ
cɛyʊʊ
cɛza
cɛzɩ
cɛzɩɣ
cɛzʊ
cɛzʊʊ
cɛŋa
cɛŋga
cɛŋgbɛ
cɛɛcɛ
cɛɛcɛnaa
cɛɛcɛɛnaa
cɛɛkɩ
cɩcɩka
cɩkaɣ
cɩkpaŋ
cɩkpeluu
cɩkpelʊʊ
cɩkpema
cɩkpena
cɩkpesɩ
cɩkpetʊ
cɩkpeŋ
cɩkpɛndɩɣ
cɩkpɛndʊ
cɩkpɛndʊʊ
cɩla
cɩmɩŋ
cɩmʊ
cɩmʊʊ
cɩmʋʋ
cɩna
cɩnjɩŋnɔɔ
cɩnɛ
cɩyɩm
cɩyɩɣ
cɩŋ
cɩŋcɩŋ
cɩŋga
cɩŋgili
cɩŋgɩlɩm
cɩɖɩ
cɩɖɩcɩɖɩ
cɩɩɩ
cʊcʊɖɛ
cʊlʊ
cʊndʊlʊm
cʊnʊʊ
cʊŋ
cʊŋŋ
cʊʊ
cʋlʋ
cʋʋ
d
da
daa
daaniibi
dabi
dada
daily
daimler
dajaa
dakar
dakota
dal
dalai
dali
dalits
dalton
dam
dame
dan
dance
danemark
daniel
dans
dante
danube
danɩmarkɩ
daphne
darmstadt
darwin
das
david
davis
davy
day
daz
dc
de
dean
dearborn
death
debre
debussy
december
dedekind
degli
del
delhi
dembele
demokrasii
demonstration
deng
denis
denkmal
dennis
denver
der
des
descartes
desert
desmond
detail
di
dia
diabate
diamant
diamond
dibango
dical
dicis
dickens
dictature
didier
didyme
die
diego
diem
dies
dietrich
dieu
dih
dijon
din
dioge
diouf
diplomasii
disney
dith
dix
dj
djaghatai
dje
djeli
djo
dmitri
dn
do
dole
dollar
dollars
dom
dome
dominique
don
donald
donne
doo
dooo
dostoi
douala
douard
doubna
dour
down
downtown
doŋ
dr
drake
drale
dream
dreux
drogba
droit
droits
droukdel
ds
dsc
du
dubai
dublin
duc
dumont
durante
dusty
dvd
dvor
dylan
dysentery
dzi
dɔm
dɩ
dɩhɩdrɔzɛnɩ
dɩyɔkɩsɩzɛnɩ
dʊ
dʊbɩnɩyɔm
dʋ
e
earth
east
eau
ebiree
ebola
ebree
ed
edeko
edimbourg
edirne
edison
edit
edo
edouard
eduye
edward
edwin
eeboolaa
eeciidiɣ
eekɔɔsɩ
eeleɖiɣ
eelɛkɩtroniiki
eeroo
eerɔpu
eerɔpɩ
eerɔpʊ
eerɔpʋ
eerɔɔpʊ
eerɔɔpʋ
eetisiɣ
eewoki
eeyeba
eeɖou
efebiya
efebu
efebutu
efeletu
efemiye
efeo
egbele
egbelenaa
egbena
egeetiye
egetiye
egg
egipiti
egwu
egypti
eheyi
ehiu
ehiɣ
ehuu
ehuuzi
ehuyuu
eiffel
einstein
ejaɖɛ
eka
ekeberg
ekeresimesi
ekisi
ekiza
ekizi
ekizu
ekosi
ekpe
ekpele
ekpena
ekpeɣle
ekpeɣli
ekuli
ekuluu
ekuwatɛrɩ
ekuwatɛɛrɩ
ekwatoriyaaalɩ
ekɔsi
ekɔsɩ
ekɔɔsɩ
el
elebu
electric
electron
eleeu
elesi
elias
eliot
elisabeth
eliyɔsɩfɛɛrɩ
elizabeth
elle
ellen
elu
eluba
eluki
elvis
em
eme
emeroodi
emil
emile
emily
emiraatɩ
emma
emmanuel
emmanuelle
empire
empiri
empɩrɩ
ems
en
eneɣa
english
englisɩɩ
englɩsɩɩ
enrico
ens
entente
entrance
episikopu
episikɔpʊ
episkɔpʊ
epistemolozii
eposi
equateur
er
ere
eric
erickson
eriitree
eris
ernest
ernesto
ernst
eroo
erwin
erɔpɩ
erɔpɩyɔm
erɔpʊ
es
eschyle
ese
eserese
eseɣ
eseɣti
esidi
esiki
esmark
essozimna
est
esu
esusa
esusi
esusuu
esuu
esɩperantɔ
et
etaazuni
etaazunii
etaazuuni
etaazuunii
etanɔɔlɩ
etats
etazuni
etazunii
etazuunii
ete
etee
eteleɖi
eteu
eteyele
eteɣ
eteɣu
ethiopia
etienne
etii
etiiki
etiki
etili
etilitu
etisaa
etisi
etiyi
etiyina
etiyoopii
etiyopii
etukina
etuu
etɛŋ
eu
euclide
euge
eugen
euler
euro
europe
european
eustache
ev
evebitu
evebiya
evebiyaa
evebu
evebupɩɣa
evebutu
evemiye
everest
evitch
evna
evski
ewelesi
ewilaa
ewoba
ewobina
ewoki
ewokina
ewolo
ewona
ewu
ewuu
existence
explosion
externes
eyaa
eyade
eyadema
eyeba
eyebina
eyeke
eyeki
eyekina
eyele
eyo
eyoli
eyʊ
eziyɔmɩ
ezɩ
eŋgilisi
eŋglɩsɩ
eɖeke
eɖiya
eɖiyaɣ
eɖiyi
eɖiyiɣ
eɖiyu
eɖo
eɖoo
f
fa
faaa
faaɖɩ
face
facebook
fada
fadanaa
fagoto
fako
fakoly
falaa
falaŋga
fall
falls
fally
falʊʊ
fame
famoudou
fanatɩyɔm
farafina
farm
farsoovii
faso
fasoo
fata
fatiikaŋ
faure
fayɩɩ
fayɩɩɩ
faɖam
fe
february
federasiyɔɔ
feeniisi
feeniisɩ
feeniizi
fefekiŋ
fefeku
felendu
felix
fema
female
femmes
fena
fenasi
fenasɩ
fenaɣ
fenaɣkɩyakʊ
fenezuyeelaa
feniisɩ
fer
ferdinand
fernand
ferrand
ferre
festival
fetenum
feteɖaɣ
feveku
fevekʊ
fevere
feveɖe
feziŋ
feziɣ
feznaɣ
fezu
fezuu
fezuuna
fezɩŋ
feŋ
feŋguu
feŋuu
feɖe
fi
fibonacci
fichier
fideyonaa
fideyoo
field
figera
fiidiviu
fiii
fikitoriya
file
filim
filimi
filimwaa
filipini
film
filon
filoosɔɔfʊ
filosofii
filosɔɔfʋ
filozofii
filozɔfʊ
filozɔɔfʋ
finant
fine
fiodor
fiodorovitch
fire
first
firziinii
fishing
fitamini
fitenum
fiyatiki
fiyoolɔnsɛɛlɩ
fiyoolɔɔ
fiyoolɔɣ
fiyɛɛnɩ
fiziiki
fl
flag
flandɩ
flaubert
flerov
flickr
flnr
florence
floriidii
florɛnsɩ
flow
flower
flɛrɔvɩyɔm
fmi
folk
folle
fon
foniksii
fontaine
for
forbidden
force
ford
forest
fortress
foto
fotonaa
foucauld
fox
foɖo
fpr
fr
fra
frameless
franc
france
francesco
francfort
franche
francis
francisco
franco
francophonie
frank
fransi
fransɩ
fransɩdʋ
fransɩyɔm
fransɩɩ
franz
fre
fred
frederic
frederick
frederik
fredrik
free
freiberg
freud
friedman
friedrich
fritawnɩ
fritz
from
front
frost
fru
fu
fukushima
fulani
full
funk
fur
fusi
fuwa
fɔlɩka
fɔsɩfɔrɩ
fɔŋ
fɔɔfɔɔ
fɔɔfɔɔna
fɔɔfɔɔnaa
fɔɔrɛɛ
fɛbɩtʊ
fɛlɛ
fɛrmɔɔnɩɩ
fɛrmɩyɔm
fɛtɩɣ
fɛtʋʋ
fɛyi
fɛyɛ
fɛyɩ
fɛyɩna
fɛyɩɣ
fɛyʋʋ
fɛɖaa
fɛɖʊ
fɛɖʋ
fɛɛlandɩ
fɛɛrɩ
fɛɛŋ
fɛɛɛ
fɛɛʊ
fɛɛʋ
fɛʊʊ
fɩlandɩnaa
fɩnfɩnaa
fɩnɩnɩ
fɩtɩyɩm
fɩya
fɩyɛtɩnaam
fɩyɛtɩnam
fɩyɛtɩnamɩyɛ
fɩyɛɛnɩ
fɩyɩm
fɩŋ
fɩŋfɩŋ
fɩŋŋ
fɩɣa
fɩɩɩ
fʊlʊyɔrɩ
fʊwa
g
ga
gabriel
gabriɛlɩ
gadolin
gadolinite
galile
galissard
gall
galles
galuzzi
gama
gan
gandhi
garci
gard
garden
gare
gary
gate
gauche
gaudi
gaule
gaulle
gauss
gauß
gay
gaz
gb
gbe
gbimm
gc
ge
gemayel
gene
general
genghis
gengis
geoffrey
georg
george
georges
georgie
germain
german
gesellschaft
geyer
ghana
ghiorso
ghost
gi
gibraltar
gif
gilbert
gilchrist
gime
ginger
gion
giovanni
girard
giuseppe
gizeh
gje
glacier
glass
glenn
glider
glise
gnassingbe
gne
go
gobi
gobind
goethe
gogh
goire
gola
gold
golden
goma
goobi
google
gorbatchev
gordon
gorges
gorie
gorki
gos
gotha
gottfried
gottlieb
goya
gr
grace
gracia
graham
grain
granary
grand
grande
granth
grantham
gravitation
gray
gre
great
greece
greek
green
greg
gregory
groddeck
group
grunitzky
grɛkɩ
gsi
gu
guadeloupe
guard
gue
gueorgui
guggenheim
guido
guillaume
guine
guinea
guise
gulf
gupta
guru
gustaf
gustav
gustave
gutenberg
guy
guzma
gyasi
gʊ
gʋ
h
ha
haal
haayɩ
haba
habsbourg
habɛ
habɛɛ
habɩyɛ
hada
haduu
hadɛ
hadɛkiŋ
hadɛtʋ
haendel
hafez
hafiz
hafɩnɩyɔm
hagia
hahn
hai
hakiŋ
hakuu
hakɩ
hala
halaa
hale
hali
hall
hallyday
halɩ
halɩbiya
halɩbʊwa
halɩkpaɣyɛ
halɩmasɩ
halɩmayaɣ
halɩn
halɩpiya
halɩpiyaa
halɩpɩɣa
halɩtʊ
halɩtʋ
halɩtʋnɛaabalɩtʋkɩmaŋtɔm
halɩtʋnɛabalɩtʋkɩmaŋtɔm
halʊ
halʊpɩɣa
halʊʊ
halʋ
ham
hama
hambourg
hampshire
hamsirii
hamɩŋ
hamʊ
hamʊʊ
han
hana
handala
hani
hannah
hanover
hans
hanzin
haoussa
hara
haram
harare
hardy
harry
harvard
harvey
hassan
hasɩ
hasɩyaɖɛ
hasɩyɔm
hatchett
hatʊ
hatʊʊ
hatʋ
have
haven
hawai
hawaii
hawayi
hawiye
hawking
haydn
haye
hayi
hayim
hayu
hayuu
hayɩ
hayɩm
hayɩsʊ
hayɩsʊʊ
hayɩsʋʋ
hayʊ
hayʊʊ
hayʋ
hayʋʋ
hazɩɣ
haŋ
haɖa
haɖaa
haɖaʊ
haɖaʋ
haɖɛ
haɖʊ
haɖʋ
haɣ
haɣna
haʊ
haʊʊ
haʋ
he
head
headquarters
heads
heard
heart
hebra
heelim
heidegger
heidelberg
heinrich
hele
helim
helimaɣ
helu
heluhelu
hem
hendrix
hendu
henduu
henri
henriette
henry
hepburn
herbert
heribert
hermann
herna
herschel
heu
heyi
heyina
heyinau
heyitu
heyiyu
heyu
heyuu
heŋ
heɣlim
heɣlimaɣ
heɣye
hg
hidrɔzɛnɩ
hikasi
hila
hilaɣ
hilbert
hilimiye
hiliɣ
hill
hiluu
himalaya
hindi
hipokɔndrɩ
hippolyte
hippone
hirohito
his
histoire
hitchcock
hitler
hiu
hiuwaa
hiŋ
hiɖɛ
hiɣ
hiɣu
hiʊ
ho
hodo
hofburg
hohenzollern
hoka
hokasi
hokazi
hokusai
hola
holaa
holiday
hollande
hollywood
holu
holuu
home
homme
hommes
homo
hongrie
hongrois
honolulu
honore
hoo
hoobuwa
hoohoo
hooo
hoover
hordeum
horseshoe
hosaɣ
hosi
hospital
hosuu
hoti
hou
houon
house
howe
hoye
hoɖe
hrsg
http
hu
huang
hubei
huffam
hugo
hugues
hukuu
hula
hulasɩ
hulaɣ
huluu
human
humphry
hunt
hus
hussein
hutu
hutuwaa
huu
huutu
huutusi
huuu
huuye
huuzi
huuzina
huvelin
huwa
huwaa
huye
huygens
huyiŋ
huyu
huyuu
huyuŋ
huzuu
huŋ
huɖe
huɖuu
hyde
hydraulique
hydroge
hypsignathus
hz
hɔ
hɔkʊʊ
hɔkʋʋ
hɔlaɣ
hɔlɩmɩyɔm
hɔlɩŋ
hɔlʊ
hɔlʊʊ
hɔlʋʋ
hɔm
hɔma
hɔmm
hɔmtʊ
hɔmtʋ
hɔmɩyɛ
hɔsɩ
hɔyɛ
hɔyɩ
hɔzɩŋ
hɔzʊʊ
hɔzʋʋ
hɔŋ
hɔŋgiri
hɔŋgirii
hɔŋgrii
hɔŋirii
hɔŋkɔŋ
hɔŋna
hɔɔ
hɔɔlasɩ
hɔɔlaɣ
hɔɔlɩ
hɔɔlɩŋ
hɔɔlɩɣ
hɔɔlɩɣʊ
hɔɔlʊ
hɔɔlʊʊ
hɔɔlʋ
hɔɔlʋʋ
hɔɔyɛ
hɔɔʊʊ
hɔʊ
hɔʋ
hɔʋʋ
hɛ
hɛbra
hɛkɩŋ
hɛkʊ
hɛkʊʊ
hɛkʋ
hɛkʋdaa
hɛkʋʋ
hɛlɩyɔm
hɛmmm
hɛn
hɛnzɩ
hɛtʊ
hɛtʋ
hɛyɛ
hɛyɩ
hɛyʊ
hɛyʊʊ
hɛzɩyɛ
hɛzɩɣ
hɛzʊʊ
hɛzʋʋ
hɛŋa
hɛŋga
hɛɖʊ
hɛɖʊʊ
hɛɛ
hɛɛnzɩ
hɛɛɛ
hɛɛʊ
hɛʋ
hɩdrɔzɛnɩ
hɩdɛ
hɩla
hɩlaa
hɩlaɣ
hɩlɩm
hɩlɩmaɣ
hɩlɩmɩyɛ
hɩlɩŋ
hɩm
hɩnɛ
hɩpɔpʊ
hɩsɩ
hɩŋ
hɩɖɛ
hɩɣ
hɩʊ
hʊ
hʊlɩyʊ
hʊlʊ
hʊlʊmaa
hʊlʊmɩŋ
hʊlʊʊ
hʊndʊ
hʊndʊʊ
hʊnʊm
hʊtʊ
hʊwa
hʊya
hʊyaa
hʊyʊ
hʊyʊʊ
hʊzɔŋ
hʊzɩŋ
hʊzʊŋ
hʊzʊʊ
hʊŋ
hʊɖʊbanaa
hʊʊ
hʋlʋtʋ
hʋlʋyʋ
hʋlʋʋ
hʋndʋ
hʋnʋm
hʋnʋʋ
hʋyɩŋ
hʋyʋ
hʋyʋʋ
hʋzɩŋ
hʋzʋŋ
hʋzʋʋ
hʋʋ
i
ia
iai
ibadan
ibn
ibrahim
ibrahima
ice
iche
icon
idaho
idahoo
idris
idrozɛɛnɩ
ie
iem
ier
igbo
ignace
igor
iguac
iguwazu
ihe
ihosiye
ii
iii
iiranisi
iiraŋ
iizilaam
iizilam
ike
ikuluu
il
ilemiye
ilia
illinois
ilnuwaa
im
image
imam
ime
img
impero
in
inc
inde
india
indian
indivi
indiyaanaa
indo
indus
industrie
industrielle
indɩ
ines
ingemar
ingmar
inn
inside
institute
inte
interior
international
internationale
into
io
iode
ionien
iowa
ipupa
ir
irak
irakɩ
iran
iranɩ
iraŋ
irilandɩ
irlande
irlandi
irlandɩ
iron
irɩlandɩ
is
isa
isaac
isaak
isabelle
isbn
isidore
isilandɩ
isitambuli
isitanbuli
island
islandii
islandɩ
ismae
israeli
isrɛɛlɩ
issa
istanbul
it
itaali
itaalii
itali
italia
italii
ite
itie
iupac
iv
ivan
ivoire
ivʋwarɩ
ix
iyowa
iyɔɔ
iyɛ
izilaam
izirɛɛlɩ
izrɛɛlɩ
iŋgilisi
iŋglɩsɩ
iŋgʊ
j
ja
jaapɔɔnɩ
jabr
jack
jackson
jacob
jacque
jacques
jah
jakarita
jalɔŋ
jamai
jamaica
jamayiki
james
jan
jane
janet
japhet
japonais
japɔŋ
jas
jazz
jaɖɛ
jb
jdanov
je
jean
jeanne
jeff
jefferson
jeneva
jenny
jeremy
jerry
jersey
jerusalem
jeruzalɛm
ji
jiang
jim
jimi
jimmy
jinr
jintao
jo
joa
joachim
joaillerie
joan
joe
johan
johann
johanna
johannes
johanɛsɩ
john
johnny
johns
johnson
jones
jong
jordan
jorge
jose
joseph
journaux
joyce
jpeg
jpg
jr
ju
juan
judith
jules
julian
julie
juliet
julius
july
june
jung
jupiter
jurchen
justice
justinien
jɛrsii
k
ka
kaa
kaaba
kaabɔnɩ
kaabɔŋ
kaabɔɔ
kaabʊ
kaabʊnaa
kaacaɣ
kaahɛzaɣ
kaaka
kaakpa
kaakpaɣ
kaakpɛnda
kaakɛ
kaakɛna
kaakɛŋna
kaakɛʊ
kaakɩla
kaakɩlɩ
kaakɩlɩna
kaalaba
kaalakɩsii
kaalɛna
kaalɛyɩtʊ
kaalɛyɩtʋ
kaalɛɣna
kaalɩna
kaalɩwa
kaalɩza
kaama
kaamana
kaan
kaana
kaanaɣ
kaapɔza
kaapɩ
kaaree
kaartum
kaarɔɔtɩ
kaarɔɔtɩnaa
kaasɔɔla
kaasɩma
kaatalɩ
kaatɛma
kaatɛŋ
kaatɩlɩtʊ
kaatɩna
kaatʊla
kaawoba
kaawɛ
kaawɛna
kaawɛɛ
kaawɩla
kaaya
kaayɔɔda
kaayɔɔdaɣ
kaazɩ
kaaŋ
kaaɖɔ
kaaɖɔɔ
kaaɖɔɔtɩ
kaaɖʊ
kaaɣ
kaaʊ
kaaʋ
kabasɩ
kabaɣ
kabiye
kabul
kabuli
kabɩyɛ
kaca
kacalaɣ
kacalɣ
kacaɣ
kacha
kachasi
kacʊka
kad
kadadayaɣ
kadanzɩ
kadasɩ
kadatayaɣ
kadaŋga
kadaɣ
kadeŋa
kadhafi
kadɩmɩyɔm
kadɩnaɣ
kafka
kafuu
kafɩnta
kagbaanzɩ
kagbanzɩ
kaha
kahaɣ
kahʊyaɣ
kajala
kajalaŋa
kajalaɣ
kajataɣ
kajʊka
kaka
kakaa
kakasɩɩ
kakaɣ
kakpa
kakpaanzɩ
kakpacayaɣ
kakpacayaɣna
kakpanzɩ
kakpaɣ
kakɛ
kakɩ
kakɩla
kakɩlɩ
kakɩlɩna
kakɩlɩɣ
kakʊyɩ
kakʊyʊʊ
kala
kalaaʊ
kalaba
kalahari
kalaharii
kalakaɣ
kalakɩ
kalaɣ
kaliforni
kalifɔrnii
kaliifɔrnii
kalikuta
kalle
kallenbach
kalɛ
kalɩ
kalɩfɔrnii
kalɩfɔrnɩyɔm
kalɩhʊndʊ
kalɩhʋndʋ
kalɩhʋnʋŋ
kalɩkɔdaɣ
kalɩkɛɛɖɩ
kalɩmʊlaɣ
kalɩna
kalɩsɩyɔm
kalɩtʊ
kalɩyasɩ
kalɩyaɣ
kalɩyɔm
kalɩzasɩ
kalɩzaɣ
kalɩɣ
kalɩɣna
kalɩɩ
kalɩʊ
kalʊ
kalʊʊ
kalʋ
kalʋʋ
kam
kama
kamasɩ
kamau
kamayʊ
kamaŋaɣ
kamaŋgaɣ
kamaɣ
kamaɣfɛyɩ
kambarage
kambii
kambɔjɩ
kame
kameruni
kami
kampaa
kampala
kamɩyɛ
kamɩŋ
kamʊ
kamʊʊ
kamʋna
kamʋʋ
kan
kana
kanaa
kanaada
kanada
kanadaa
kanahaŋ
kanahaʊ
kanaɣ
kancɩnaa
kandayʊ
kandayʊʊ
kandayʋʋ
kandɛyʋ
kandɩ
kandɩyaa
kandɩyʊ
kandɩyʊʊ
kandɩyʋ
kandɩyʋʋ
kandʊ
kandʊʊ
kandʋʋ
kangshung
kano
kansas
kant
kante
kantɔnɛɛ
kantɔŋ
kantɔɔ
kantɛ
kanzasii
kanzɩ
kanɖʋ
kanɖʋnaa
kanɛ
kanɛyɔ
kap
kapaɣlɩ
kapaɣzɩ
kapitaalism
kapɩsɩ
kapɩzɩɣ
kapɩzʊ
kapɩɣa
kapʊvɛɛrɩ
kara
karasii
karasɩm
karayibi
karayiibi
karayiibɩ
karazɩm
karen
kari
karl
karmɛlɩ
karolina
karɔtɩ
karɩbɔnɩ
karɩbɔɔnɩ
karɩka
kas
kasablanka
kasandʊ
kasandʋ
kasɩma
kasɩpɩyɛnɩ
kasʊ
kasʊʊ
kata
katakɩlɩ
katalɩ
katatalɩ
kataŋa
kataŋga
kataɣ
katoliiki
katolika
katoliki
katsushika
katɔlɩnɩtɩ
katɔlɩnɩyɔm
katɛma
katɩ
katɩlɩ
katɩlɩɣ
katɩŋgʊ
katɩŋna
katɩŋɩɣna
katɩɣ
katʊ
katʊʊ
katʋʋza
katʋʋzɩ
kawadaɣ
kawalɩ
kawɩlasɩ
kawɩlaɣ
kawɩlɩ
kawɩlɩɣ
kawɩlʊ
kayaɣ
kayes
kayɩ
kayɩmasɩ
kazablanka
kazakhstan
kazakisitanɩ
kazakistanɩ
kazandʊ
kazandʊʊ
kazandʋ
kazayaɣ
kazɩŋga
kazʊwa
kazʋwa
kaŋ
kaŋga
kaŋgalafu
kaŋgalafunaa
kaŋgalafʊ
kaŋgbɩka
kaŋgbɩsɩ
kaŋkaŋ
kaŋwa
kaɖa
kaɖalakɩŋ
kaɖasɩm
kaɖazɩm
kaɖaɖa
kaɖaɣ
kaɖɛ
kaɖɩbɔnɩ
kaɖɩka
kaɖɩna
kaɖɩnayʊ
kaɖɩnaʊ
kaɖɩsɩ
kaɖɩɣ
kaɖʊ
kaɖʊʊ
kaɖʋ
kaɖʋwa
kaɣ
kaɣlaa
kaɣlaɣ
kaɣna
kaɣyʋ
kaɣʋ
kaʊ
kaʊʊ
kaʋ
kbo
kbp
ke
kedenga
kedenzi
kedeŋ
kedeŋa
kedeŋga
kedeɣzaɣ
kediizasi
kediizasɩ
kediizaɣ
kedizasi
kedizasɩ
kedizaɣ
keebɛkɩ
keeke
keekee
keele
keelee
keem
keesi
keeɣa
keeɣsi
kegbelaɣ
kei
keita
kejeɣa
kekelekelasɩ
kekelikelasi
kekpeŋ
kela
kelaa
kelaɣ
kele
kelekele
kelema
kelima
kelimiye
keliŋ
kem
kemeɣa
keniya
kenji
kenkeŋ
kennedy
kenneth
kent
kentucky
kesi
ketenzi
keteŋa
keteŋga
ketiizasi
ketiizasɩ
ketiizaɣ
ketiki
ketizaɣ
ketu
keveŋaɣ
keveŋga
kewiisi
kewiitu
kewitu
kewiya
kewiyaɣ
kewiyisi
kewiyitu
kewiyitʊ
kewɩyaɣ
keyebina
keyeki
keyekina
keynes
keziye
keŋ
keŋkeŋ
keɖe
keɖeke
keɖewa
keɖeya
keɖeyaɣ
keɖeɣa
keɖeɣya
keɣa
keɣkeɣ
keɣlee
keɣsi
keɣsɩ
keɣye
kg
kha
khalifa
khalil
khan
khe
kheda
khmer
khuwa
khwarizmi
ki
kiciɣdiŋ
kidemiŋ
kideŋ
kidiiliŋ
kidjo
kifidim
kigaalii
kigalʊʊ
kigbɛndʊʊ
kigiluu
kigiŋ
kiheyinasi
kiheyitu
kiine
kiinee
kila
kileɖi
kiliba
kilimanjaro
kilimuu
kiliuzonuu
kiliŋgili
kilo
kilomɛta
kilomɛtana
kilomɛtanaa
kilomɛtɛnaa
kilomɛtɛwaa
kilonaa
kim
kimeɣa
kimono
kin
kinaŋ
kinee
king
kini
kinsasa
kiposina
kisaŋginii
kiseɣ
kisidim
kisiwahilii
kita
kitaari
kitetetu
kitibiŋ
kitibuu
kitiiliŋ
kitiyinasi
kitiyinaɣ
kivu
kiwi
kiwilaɣ
kiwiwaɣ
kiwolo
kiya
kiyakʊ
kiyeba
kiyeke
kiyeki
kiyekina
kiyele
kiza
kizaa
kizi
kizina
kizitu
kiziɣ
kiŋ
kiɖe
kiɖedeu
kiɖeke
kiɖeɖem
kiɖeɖema
kiɖeɖena
kiɖeɖesi
kiɖeɖetu
kiɖeɖeu
kiɖeɖeye
kiɖeɖeɣ
kiɖeɖeɣa
kiɖeɖeʊ
kiɖi
kiɖikiɖi
kiɣ
klaproth
klaus
klejojos
klerk
klokɛnspili
klɔrɩ
km
kniephof
ko
kobalti
kobaltɩ
kobo
koboyaɣ
kobuka
koch
kodiye
kodjo
koffi
kofi
koine
kolaa
kolasɩ
kolaɣ
koliisee
kolokaɣ
kolokolo
kolombi
kolombii
kolonzi
kolonzɩ
kolonɛɛlɩ
koloraadoo
koloradoo
koloŋa
koloŋga
koloŋgolo
kolumpaɣ
komiinism
komiinizim
komiitɛrn
komina
kominanaa
kominform
komɔŋwɛltɩ
kon
konakrii
konare
konate
kondigo
kondoloko
kondolokona
kondolokonaa
kone
kong
kongfuzi
kontrebasɩ
koobiya
koobiɖe
koobu
kooka
kookasi
kookasɩ
koonim
koorayi
kooraŋ
kooraɣ
koore
kooree
kooreyɛ
koosi
kootidiivʊwarɩ
kootidiivʋwarɩ
koou
koowa
koowu
kooyu
koozasɩ
koozaɣ
koposina
kopɛnhaagɩ
kora
koree
korindɔɔ
korogo
koronaalɩ
koti
kotidiivuwari
kotidivuwari
kotidivuwarɩ
kotokoli
kotonu
kotonzi
kotuu
kou
kouu
kouyate
kowei
kowolo
kowɛtɩ
koyindinaa
koyindu
koyindɩnaa
koyondina
kozaɣ
kozonzi
kozoŋa
koŋ
koŋgo
koŋgolɛzɩ
koŋgoo
koŋo
kp
kpa
kpaa
kpaaa
kpaagba
kpaagbaa
kpaaja
kpaakpa
kpaakpaa
kpaakpɛyɛ
kpaala
kpaamɩŋ
kpaaŋ
kpabɩtʋ
kpacaa
kpacanaa
kpacayaɣ
kpacayaɣna
kpacayɩɣ
kpacayʊ
kpacayʊʊ
kpacaʊ
kpada
kpagba
kpagbaa
kpagbasɩ
kpaka
kpakaɣ
kpakpa
kpakpakɩŋ
kpakpakʊ
kpakpalikiyasi
kpakpando
kpakpasɩ
kpakpayaɣ
kpakɩɣ
kpakɩɣna
kpakʊ
kpakʊʊ
kpakʋ
kpalaaʋ
kpalabanaa
kpalahusi
kpalahuwa
kpalahʊwa
kpalɩbanaa
kpalɩma
kpalɩtʊ
kpam
kpamla
kpamɩŋ
kpana
kpandɩ
kpanjaɣ
kpanɛ
kpasɩ
kpata
kpataa
kpataayala
kpawa
kpayaa
kpayaɣ
kpayi
kpayɩ
kpayɩkpayɩ
kpayɩsɩ
kpazʊʊ
kpaŋ
kpaŋaɣ
kpaŋgbamɩŋ
kpaŋgbamʊʊ
kpaŋnaŋ
kpaŋnɔ
kpaŋnʊ
kpaŋŋ
kpaɖa
kpaɖaŋ
kpaɖɩŋ
kpaɖɩɣ
kpaɖʊ
kpaɖʊʊ
kpaɖʋ
kpaɖʋʋ
kpaɣ
kpaɣa
kpaɣdʊ
kpaɣla
kpaɣna
kpaɣnɛ
kpaɣnɩ
kpaɣtʋ
kpaɣɖɩŋ
kpaɣɖʊ
kpaɣʊ
kpaɣʊʊ
kpaɣʋ
kpaɩ
kpaʊ
kpaʊʊ
kpaʋ
kpede
kpeekp
kpeekpe
kpeekpee
kpeetaɣ
kpegbeka
kpekpe
kpekpeka
kpelasi
kpelasɩ
kpelaɣ
kpelesi
kpeliŋ
kpeluu
kpem
kpema
kpemtɔyaɣ
kpena
kpentɔɔyasɩ
kpentɔɔyaɣ
kpeyi
kpeyuu
kpeziwilaɣ
kpeziwɩlaɣ
kpezuu
kpeŋ
kpeŋgbeluu
kpeŋgbena
kpeŋgbene
kpeŋna
kpeɖe
kpeɖem
kpeɣ
kpeɣa
kpeɣla
kpeɣlaɣ
kpeɣli
kpeɣluu
kpeɣu
kpeɣʊʊ
kpilaa
kpiluu
kpim
kpizim
kpiɖi
kpokpo
kpokpona
kpokponaa
kpolo
kpomuu
kpooluu
kpootu
kpotoku
kpou
kpoyi
kpoŋ
kpoŋgbolo
kpoŋgbolonaa
kpoŋkpolo
kpoŋkpolonaa
kpɔnɔ
kpɔŋ
kpɛ
kpɛdɛ
kpɛdɛyɛ
kpɛdɛɛ
kpɛdɩsʋʋ
kpɛdɩŋ
kpɛli
kpɛlɛ
kpɛlɛka
kpɛlɛkɩ
kpɛlɛkɩtʊ
kpɛlɛkɩtʋ
kpɛlɛkɩya
kpɛlɛkɩyaa
kpɛlɛkɩyʊ
kpɛlɛkɩyʋ
kpɛlɛkɩɣ
kpɛlɛkʊ
kpɛlɛkʊtʊ
kpɛlɛkʊʊ
kpɛlɛkʋʋ
kpɛlɩ
kpɛlɩkpɛlɛkʋʋ
kpɛlɩkpɛlɩ
kpɛlɩkɩtʋ
kpɛlɩkʊʊ
kpɛm
kpɛnda
kpɛndaa
kpɛndɛ
kpɛndɛɛɖɛ
kpɛndɩ
kpɛndɩna
kpɛndɩtʊ
kpɛndɩɣ
kpɛndɩɣna
kpɛndʊ
kpɛndʊna
kpɛndʊʊ
kpɛndʋ
kpɛndʋʋ
kpɛnzʊʊ
kpɛtʊ
kpɛyaɣ
kpɛyɛ
kpɛyɛɛ
kpɛzɛlɛɛ
kpɛzɩyɛ
kpɛŋgbɛka
kpɛŋgbɛsɩ
kpɛŋgbɛzɛmɩtʊ
kpɛŋgbɛɛsɩ
kpɛɖɛ
kpɛɖɛɛ
kpɛɛ
kpɛɛnzʊʊ
kpɛɛzɩŋ
kpɛɛɛ
kpɛɣlɛ
kpɛɣɛ
kpɛʊ
kpɩna
kpɩnaa
kpɩnandʊ
kpɩnandʋ
kpɩndʊʊ
kpɩnɛ
kpɩtaŋ
kpɩtaʊ
kpɩtaʋ
kpɩtɩna
kpɩtɩnaʊ
kpɩyɩŋ
kpɩyʊ
kpɩyʊʊ
kpɩzɩŋ
kpɩɖɩ
kpʊzɩyɛɛ
kpʊzʊyɛɛ
kr
krandɩ
kravitasiyɔɔ
krishna
kristu
kristʊ
kristʋ
krowasii
krowelandɩ
krypton
krɛkɩ
krɛsɩ
krɛɛkɩ
krɛɛsɩ
krɩpɩtɔnɩ
krɩstiyaniism
krɩstiyaniizism
krɩstʊ
krɩstʋ
ks
ku
kuba
kubilai
kubuka
kubusi
kudiyiŋ
kudokiŋ
kudoku
kudokuŋ
kuduyiŋ
kuduyu
kuduyuu
kuduyuŋ
kujomiŋ
kujomuu
kujomɩŋ
kujuka
kulaa
kulina
kuliye
kulu
kuluba
kulubi
kulubu
kulubutu
kuludasi
kulukulu
kuluu
kuluŋgulu
kuluŋkulu
kuma
kumoɖe
kupedekale
kurde
kurom
kurosawa
kususutu
kutokiŋ
kutokoli
kutoku
kutoliŋ
kutukiŋ
kuu
kuuba
kuubaa
kuubo
kuviri
kuwarɩtɩsɩ
kuwarɩtɩsɩzɩ
kuwatemala
kuwiviri
kuwiviɖi
kuwivri
kuyu
kuyɩmɩŋ
kuzusutu
kuŋgulum
kuɖoŋgutu
kuɖum
kwa
kwame
kwivri
kyi
kɔ
kɔcɔlɔ
kɔcɔŋna
kɔcɔŋnana
kɔdɔŋ
kɔfɩ
kɔkɔ
kɔkɔɔ
kɔkɔɖɛ
kɔlaɣ
kɔlɔmɩŋ
kɔlɛzɩ
kɔlɛɛzɩ
kɔm
kɔma
kɔmandaŋ
kɔmtʊ
kɔn
kɔna
kɔnaɣ
kɔnaʊ
kɔnaʋ
kɔndɔ
kɔndɔlɩkʋ
kɔndɔtʊ
kɔngoo
kɔntrofɛɛrɩsɩ
kɔntrɩbasɩ
kɔnɛ
kɔnɛtɩkuti
kɔnɩyaa
kɔpɛrɩnɩsɩyɔm
kɔsɔɔla
kɔsɔɔlaa
kɔsɔɔlɩ
kɔtɔbʋʋ
kɔtɩɩ
kɔtɩɩɩ
kɔyɔ
kɔyɔɔ
kɔyɔɔdaa
kɔyɔɔdʊʊ
kɔyɔɔdʋʋ
kɔyɛ
kɔzɔ
kɔzɔɖɔ
kɔzɔɖɔnaa
kɔzɩ
kɔzɩkɔzɩ
kɔŋ
kɔŋgo
kɔŋgoo
kɔŋgɔ
kɔŋkɔmbrɩ
kɔŋna
kɔŋnana
kɔŋŋgɔ
kɔɔ
kɔɔka
kɔɔkasɩ
kɔɔna
kɔɔnaa
kɔɔnaɣ
kɔɔnɔɔ
kɔɔrɩ
kɔɖɔ
kɔɖɔka
kɔɖɩɩɩ
kɔʊ
kɛ
kɛcɛlɛnzɩ
kɛcɛlɛŋga
kɛdaɣ
kɛdɛnzɩ
kɛdɛzaɣ
kɛdɛŋga
kɛdɛɖaɣ
kɛdɛɛka
kɛdɛɛkasɩ
kɛdɩna
kɛdɩnaʊ
kɛdɩtʊ
kɛdɩya
kɛdɩyaa
kɛdɩyʊ
kɛdɩɣ
kɛdʊʊ
kɛfɛyɩ
kɛfɛyɩna
kɛgbɛdasɩ
kɛgbɛdɛsaɣ
kɛgbɛdɛsɩ
kɛgbɛyaɣ
kɛjɛkasɩ
kɛkpɛdasɩ
kɛkpɛdɛsaɣ
kɛkpɛdɩsɩ
kɛkpɛlɛkɩɣ
kɛkpɛndɩ
kɛkpɛndɩɣ
kɛkpɛndʊʊ
kɛkpɛtɛsaɣ
kɛkpɛyaɣ
kɛkpɛyɩsɩ
kɛkɛ
kɛkɛdɩna
kɛkɛna
kɛkɛŋna
kɛlɛ
kɛlɛm
kɛlɛmkɛlɛmnaa
kɛlɛmna
kɛlɛmnaa
kɛlɛmwaa
kɛlɛmɩŋ
kɛlɛʊ
kɛlɛʋ
kɛna
kɛnaa
kɛntukii
kɛntuukii
kɛnɛ
kɛnɩna
kɛteŋa
kɛtɛ
kɛtɛka
kɛtɛma
kɛtɛyɩ
kɛtɛzɩɣ
kɛtɛzʊʊ
kɛtɛŋ
kɛtɛɖaɣ
kɛtɛɛka
kɛtɩdʊ
kɛtɩna
kɛtɩtʊ
kɛtʊ
kɛtʊʊ
kɛwa
kɛwɛ
kɛwɛna
kɛwɛɛ
kɛwɛɛna
kɛzaɣ
kɛzɛyaɣ
kɛzɛɣa
kɛŋgɛ
kɛŋna
kɛŋnɩ
kɛɖɛnɛ
kɛɖɛɖaɣ
kɛɛkɛ
kɛɛkɛɛ
kɛɛmasɩ
kɛɛrɩ
kɛɛŋna
kɛɣ
kɛɣna
kɛʊ
kɛʋ
kɩ
kɩbam
kɩbama
kɩbana
kɩbandʊ
kɩbandʋ
kɩbanzɩ
kɩbanɖɛ
kɩbanʊ
kɩbaŋ
kɩbaŋga
kɩbaŋʊ
kɩbɩjaazɩ
kɩbɩm
kɩbɩma
kɩbɩna
kɩbɩnaɣ
kɩbɩndʊ
kɩbɩndʊʊ
kɩbɩnjaazɩ
kɩbɩnzɩ
kɩbɩnɖɛ
kɩbɩnɩɣ
kɩbɩnɩʊ
kɩbɩnʊ
kɩbɩnʊʊ
kɩbɩnʋ
kɩbɩnʋʋ
kɩbɩŋ
kɩbɩŋjaazɩ
kɩcakɩ
kɩcaɣ
kɩcɔlɔ
kɩcɔŋna
kɩcɔʋ
kɩcɛ
kɩcɛbɛyʊ
kɩcɛyʊ
kɩcɛyʊʊ
kɩcɩkpɩŋ
kɩdɛkɛdaa
kɩdɛkɛdasɩ
kɩdɛkɛdɩm
kɩdɛkɛdɩŋ
kɩdɩ
kɩfala
kɩfalaɣ
kɩfalɩm
kɩfalʊ
kɩfalʊʊ
kɩfalʋ
kɩfalʋʋ
kɩfam
kɩfama
kɩfana
kɩfasɩ
kɩfatʊ
kɩfatʋ
kɩfaŋ
kɩfaɖɛ
kɩfɛyɩ
kɩfɛyɩna
kɩgalʊ
kɩgalʊʊ
kɩgaŋ
kɩgaʊ
kɩgbaanzɩ
kɩgbalaŋ
kɩgbanzɩ
kɩgbɛndʊʊ
kɩgbɩtɩnaʋ
kɩha
kɩhayʊ
kɩhayʊʊ
kɩhaɣ
kɩhɔŋ
kɩhɛyɩŋ
kɩhɛyɩɣ
kɩhɛyʊ
kɩhɛyʊʊ
kɩhʊhʊtʊ
kɩhʋlʋʋ
kɩjaʊ
kɩjaʋ
kɩjɛbɛyʊ
kɩjɛkʋ
kɩjɛkʋjɛbʋ
kɩjɛyɩɣ
kɩjɛyʊ
kɩjɛyʊʊ
kɩjɛyʋ
kɩjɛyʋʋ
kɩkala
kɩkalasɩ
kɩkalaɣ
kɩkalɩsɩ
kɩkalʊ
kɩkalʊʊ
kɩkalʋʋ
kɩkam
kɩkaɣ
kɩkaɣyɛ
kɩkpa
kɩkpakɩɣ
kɩkpalaŋ
kɩkpaɖaa
kɩkpaɖɩŋ
kɩkpaɖʊ
kɩkpaɖʊʊ
kɩkpaɖʋ
kɩkpaɣ
kɩkpaɣm
kɩkpaɣna
kɩkpaɣtʊ
kɩkpɛda
kɩkpɛdaa
kɩkpɛdasɩ
kɩkpɛdaɣ
kɩkpɛdɩm
kɩkpɛdɩŋ
kɩkpɛdɩɣ
kɩkpɛdʊ
kɩkpɛdʊʊ
kɩkpɛdʋ
kɩkpɛdʋʋ
kɩkpɛlɛkɩɣ
kɩkpɛndasɩ
kɩkpɛndaɣ
kɩkpɛndɩ
kɩkpɛndɩyɛ
kɩkpɛndɩɣ
kɩkpɛndʊ
kɩkpɛndʊɣ
kɩkpɛndʊʊ
kɩkpɛndʋ
kɩkpɛndʋʋ
kɩkpɛɛda
kɩkpɛɛdaa
kɩkpɩndasɩ
kɩkɔma
kɩkɔɔ
kɩkɛ
kɩkɛna
kɩkɛtɩtʊ
kɩkɩla
kɩkɩlɩ
kɩkɩlɩm
kɩkɩlɩna
kɩkɩlɩyɛ
kɩkɩlɩŋ
kɩkɩlɩɣ
kɩkɩlʊ
kɩkɩlʊʊ
kɩla
kɩlaa
kɩlaba
kɩlabɩm
kɩlabɩnaʋ
kɩlabʊ
kɩlakɩ
kɩlana
kɩlaŋ
kɩlaɣ
kɩlaɣna
kɩlaʊ
kɩlaʋ
kɩlomɛtanaa
kɩlɔrɩ
kɩlɛlʊʊ
kɩlɛlʋʋ
kɩlɛmɩŋ
kɩlɛmʊ
kɩlɛmʊʊ
kɩlɛmʋʋ
kɩlɛzɩɣ
kɩlɛzʊʊ
kɩlɛɛzʋʋ
kɩlɛɣzɩ
kɩlɩ
kɩlɩm
kɩlɩna
kɩlɩnɛ
kɩlɩwa
kɩlɩyaa
kɩlɩzɩ
kɩlɩzɩm
kɩlɩzɩtʊ
kɩlɩzɩɣ
kɩlɩzʊ
kɩlɩzʊʊ
kɩlɩzʋʋ
kɩlɩŋ
kɩlɩɣ
kɩlɩɣna
kɩlɩɩ
kɩlɩʊ
kɩlɩʋ
kɩlʊlʊʊ
kɩlʊʊ
kɩma
kɩmabɩnaʋ
kɩmabʋ
kɩmabʋʋ
kɩmalasɩ
kɩmamanaʋ
kɩmamasɩ
kɩmamatʊ
kɩmamatʋ
kɩmamaɣ
kɩmatʋ
kɩmaŋ
kɩmaɣmaɣ
kɩmaɣna
kɩmaɣnasɩ
kɩmaɣnatʊ
kɩmaɣnaʊ
kɩmaɣzɩ
kɩmaɣzɩnaʊ
kɩmaɣzɩnaʋ
kɩmaɣzʊʊ
kɩmɩyɛ
kɩmɩzɩŋ
kɩmɩzɩɣ
kɩmɩzʋʋ
kɩmʊ
kɩn
kɩna
kɩnamɩyɛ
kɩnandʊ
kɩnatɩnaa
kɩnatʊ
kɩnatʋ
kɩnaɣ
kɩnaʊ
kɩnaʋ
kɩnsasa
kɩnɛ
kɩnɩyaa
kɩnɩɣ
kɩnɩʊ
kɩpam
kɩpama
kɩpandʊ
kɩpanzɩ
kɩpanɖɛ
kɩpanʊ
kɩpaza
kɩpaŋga
kɩpaŋgʊ
kɩpaɣla
kɩpaɣlaa
kɩpaɣlɩ
kɩpaɣlʊ
kɩpaɣlʋ
kɩpaɣza
kɩpaɣzɩ
kɩpaɣzɩɣ
kɩpɩma
kɩpɩndʊ
kɩpɩnzɩ
kɩpɩnɖɛ
kɩpɩnʊ
kɩpɩnʊʊ
kɩpɩsa
kɩpɩsɩ
kɩpɩsɩɣ
kɩpɩsʋʋ
kɩpɩzɩ
kɩpɩzɩɣ
kɩpɩzʊ
kɩpɩzʊʊ
kɩpɩŋ
kɩrɩstʋ
kɩsa
kɩsɔɔla
kɩsɛ
kɩsɛm
kɩsɛma
kɩsɛmaa
kɩsɛmaɣ
kɩsɛmɩm
kɩsɛmɩŋ
kɩsɛmʊʊ
kɩsɛsɛna
kɩsɛsɛyɛ
kɩsɛɛmaɣ
kɩsɛɛmɩm
kɩsɛɛmɩŋ
kɩsɛɛmʊ
kɩsɛɛmʊʊ
kɩsɛɛmʋʋ
kɩsɩ
kɩsɩbʋʋ
kɩsɩna
kɩsɩŋaɣ
kɩsɩŋna
kɩsɩɣna
kɩsɩɩna
kɩsʊʊ
kɩta
kɩtaa
kɩtakɩlɩ
kɩtakɩnaʊ
kɩtalɩ
kɩtamsɩnaʋ
kɩtasɩ
kɩtatalɩ
kɩtatasɩ
kɩtaɣna
kɩtɔsɩ
kɩtɔɔm
kɩtɛ
kɩtɛkɛ
kɩtɛma
kɩtɛyɩ
kɩtɛzaa
kɩtɛzaɣ
kɩtɛzɩ
kɩtɛzɩŋ
kɩtɛzɩɣ
kɩtɛzʊ
kɩtɛzʊʊ
kɩtɛzʋʋ
kɩtɩ
kɩtɩlɩ
kɩtɩlɩŋ
kɩtɩna
kɩtɩŋga
kɩtɩŋna
kɩtɩŋɩɣna
kɩvatʋ
kɩwa
kɩwalɩ
kɩwalʋʋ
kɩwayɩ
kɩwazaɣ
kɩwazɩtʋ
kɩwɛ
kɩwɛna
kɩwɛtʊ
kɩwɛɛ
kɩwɛɛkɩm
kɩwɛɛna
kɩwɛʊ
kɩwɛʋ
kɩwɩlɩ
kɩwɩlɩɣ
kɩwɩsɩ
kɩwɩɣ
kɩwɩʊ
kɩya
kɩyaakɩŋ
kɩyaakʊ
kɩyaakʊʊ
kɩyakɩŋ
kɩyakʊ
kɩyakʋ
kɩyaɖɛ
kɩyeke
kɩyɔ
kɩyɔɔ
kɩyɔɔdʊʊ
kɩyɛlɩ
kɩyɛna
kɩyɛɛna
kɩyʋsɩnɩyaa
kɩyʋsʋnaʋ
kɩzɩkʊ
kɩzɩna
kɩŋ
kɩɖalakɩŋ
kɩɖalʊʊ
kɩɖam
kɩɖazɩ
kɩɖaŋ
kɩɖaɣla
kɩɖaɣlʊʊ
kɩɖaɣnɩ
kɩɖaʊ
kɩɖaʋ
kɩɖe
kɩɖeɖea
kɩɖeɖeu
kɩɖɔʊ
kɩɖɛ
kɩɖɛzaa
kɩɖɛzaɣ
kɩɖɛzɩtʊ
kɩɖɛzɩŋ
kɩɖɛzɩɣ
kɩɖɛzʊʊ
kɩɖɛɖɛʊ
kɩɖɛɛ
kɩɖɛɛna
kɩɖɛʊ
kɩɖɩnaʊ
kɩɖɩsɩtʋ
kɩɖɩɣyʋ
kɩɖɩɩna
kɩɩkɛ
kɩɩkɛna
kɩɩkɩla
kɩɩlakɩ
kɩɩn
kɩɩnɩnaʊ
kɩɩsɔʊ
kɩɩtalʊʊ
kɩɩwɛ
kɩɩwɛna
kɩɩwɛɛ
kɩɩwɛɛkʊʊ
kɩɩwɛʊ
kɩɩɖɔʊ
kʊ
kʊdɔmɩŋ
kʊdɔndɩna
kʊdɔndɩnaa
kʊdɔndʊ
kʊdɔntɩnaa
kʊdɔntʊ
kʊdɔŋ
kʊdʊyɩŋ
kʊdʊyʊ
kʊhʊlʊm
kʊhʊlʊmaa
kʊhʊlʊmaɣ
kʊhʊlʊmɩm
kʊhʊlʊmɩŋ
kʊhʊlʊmʊ
kʊhʊlʊmʊm
kʊhʊlʊmʊʊ
kʊjɔmɩŋ
kʊjɔŋ
kʊjɔʊ
kʊkʊ
kʊkʊyɩmɩŋ
kʊkʊyʊmɩŋ
kʊkʊʊ
kʊlɔɔyʊ
kʊlʊ
kʊlʊlʊ
kʊlʊlʊʊ
kʊlʊm
kʊlʊma
kʊlʊmaa
kʊlʊmasɩ
kʊlʊmɩŋ
kʊlʊmʊ
kʊlʊmʊm
kʊlʊmʊʊ
kʊlʊŋgʊlʊ
kʊm
kʊmʊʊ
kʊn
kʊna
kʊnɔŋ
kʊnɛ
kʊnʊmɩŋ
kʊnʊŋ
kʊrɩyɔm
kʊsʊʊ
kʊtɔmɩŋ
kʊtɔŋ
kʊtɔɔtʊ
kʊtɔɔʊ
kʊtʊ
kʊwɛ
kʊwɛkɩm
kʊya
kʊyaa
kʊyɔ
kʊyɔɔ
kʊyɩ
kʊyɩmɩŋ
kʊyɩnaʊ
kʊyʊ
kʊyʊm
kʊyʊma
kʊyʊmaɣ
kʊyʊmdɩyɛ
kʊyʊmtʊ
kʊyʊmɖɩyɛ
kʊyʊmɩŋ
kʊyʊmʊ
kʊyʊmʊm
kʊyʊmʊʊ
kʊyʊʊ
kʊzɔɔtʊ
kʊzʊʊ
kʊŋgʊlʊm
kʊɖumaɣ
kʊɖɔmɩŋ
kʊɖɔŋ
kʊɖʊ
kʊɖʊm
kʊɖʊma
kʊɖʊmaa
kʊɖʊmaɣ
kʊɖʊmbʊ
kʊɖʊmtʊ
kʊɖʊmɖɩyɛ
kʊɖʊmɩm
kʊɖʊmʊ
kʊɖʊmʊm
kʊɖʊmʊʊ
kʊɖʊʊ
kʊʊ
kʋ
kʋcɔna
kʋcɔʋ
kʋdɔmɩŋ
kʋdɔŋ
kʋdʋmɩŋ
kʋhʋlʋm
kʋhʋlʋmaa
kʋhʋʋ
kʋjɔŋ
kʋjɔʋ
kʋkʋ
kʋkʋyɩmɩŋ
kʋkʋyʋʋ
kʋlɔmɩŋ
kʋlɔʋ
kʋlʋlɩyɛ
kʋlʋlʋ
kʋm
kʋn
kʋnɛ
kʋnɛyɔ
kʋnʋmɩŋ
kʋnʋŋ
kʋsʋʋ
kʋtɔkɩ
kʋtɔɔm
kʋwɛ
kʋyɔ
kʋyɩ
kʋyʋ
kʋyʋʋ
kʋŋgʋ
kʋɖɔŋ
kʋɖʋ
kʋɖʋm
kʋɖʋma
kʋɖʋmaɣ
kʋɖʋmbʋ
kʋɖʋmtʋ
kʋɖʋmɖɛ
kʋɖʋmɖɩyɛ
kʋɖʋmʋ
kʋɖʋmʋm
kʋɖʋmʋʋ
kʋɖʋzʋʋ
kʋʋ
kʋʋna
l
la
laadiriki
laadriki
laala
laatiriki
laatriki
laatɛɛ
laba
labana
laboratory
labɩ
labɩna
labɩnaʊ
labɩnaʋ
labɩtʊ
labʊ
labʊnaʊ
labʊʊ
labʋ
labʋʋ
lac
lacan
ladibe
ladibiye
ladiɖiki
lady
ladɩyɛ
lai
laika
laiton
lakasɩ
lakayaɣ
lakaɣ
lakaɣna
lake
lakshmi
lakɩ
lakɩna
lakɩtee
lakɩŋ
lakʊ
lakʊʊ
lakʋ
lala
lalaa
lama
lamarck
lambu
lambuu
lancen
landamm
landammm
lang
langa
language
languages
langue
lanhɛzɩyɛ
lantanɩ
lantanɩdɩ
lao
laplace
large
largeur
larry
lars
las
lassie
latin
latini
latriki
latɛnɩ
latɛŋ
laure
laurent
lauva
lauvas
lauvu
lavoisier
law
lawrence
laws
lawɔsɩ
layaa
laye
layɩ
layʊ
layʋ
laŋ
laŋga
laŋgbɛzɩyɛ
laŋgɩyɛ
laŋhɛzɩyɛ
laŋhɩzɩyɛ
laŋhʋlʋmɩyɛ
laŋɩyɛ
laɖa
laɖaa
laɖɩyɛ
laɖʊ
laɖʋ
laɣsɩ
laʊ
laʋ
le
leaf
leba
lecoq
lections
lectrique
lectromagne
lectrons
lee
leeds
leeleŋ
leemiŋ
leemu
leemuu
leemɩŋ
lefe
left
legu
legɔsɩ
leibniz
leipzig
leki
lelemiŋ
lelemɩnaɣ
leleŋ
lelu
lenin
lenine
lennon
leo
leonard
leonardo
leonhard
leopold
leprosy
les
lesi
lesuu
lewis
ley
leyɔɔnɩ
lezoto
leɖa
leɖuu
leɣa
li
libani
libaŋ
liberiya
liberte
library
libreeviili
librevili
libreville
lida
lidau
lidaʊ
lidaʋ
lie
liechtenstein
liela
liens
life
ligue
liibaŋ
liiberiya
liibii
liidiya
liidiye
liivri
liiyɔɔ
likaŋ
likiyuu
lila
lilaa
lille
lim
lima
limsuu
limuu
lincoln
line
lingua
linne
lion
liosphe
lique
lisabeth
lisbooni
lise
lisieux
lisitɛnsɩtayɩnɩ
liszt
lita
litanaa
litoozo
litozo
little
lituyanii
liu
liusɔɔlɩm
live
livermore
livingstone
liviri
livre
lix
liŋ
liŋgala
liŋgu
liŋguu
liɖe
lloyd
lo
loc
local
location
locator
logo
logos
lokole
loluu
loma
lome
lona
lonaa
london
londre
londres
londrɩ
lone
longo
longomba
longueur
loniye
looɖo
lord
lorraine
los
losuu
lotu
loue
louis
louise
louvre
lovitch
lowell
lower
loyaɣ
loyisi
loyola
loyuu
loza
loŋ
loɖo
lr
lu
luambo
luanzo
luba
lubi
lubina
lubitsch
lubitu
lubiyaa
lubu
lubutu
lubɛ
lubʊ
luca
lucas
lucien
lucio
ludwig
lugizamburi
lui
luigi
luis
lukas
lukizambuuri
lumie
lumumba
lune
lusaka
lussac
lute
luther
lutozo
luutozo
luuzuu
luwandaa
luwiiziyaana
luxembourg
luzakaa
luzakaaa
luŋuu
luɖa
luɖaa
luɖu
lv
lyce
lyon
lɔ
lɔbɔɔ
lɔbɔɔɔ
lɔkɔnaa
lɔnda
lɔndaa
lɔndrɩ
lɔnsɩnɖɛ
lɔnsɩɖaa
lɔnsɩɖɛ
lɔntasɩyʊ
lɔnzɩnɖɛ
lɔnzɩɖɛ
lɔsɩ
lɔŋ
lɔŋlɔŋ
lɔŋsɩnɖaa
lɔŋsɩnɖɛ
lɔŋsɩŋɖɛ
lɔŋwɩlʋʋ
lɔɔ
lɔɔyasɩ
lɔɔyaɣ
lɔɔŋ
lɔɔɔ
lɔɔɖa
lɔɔɖaa
lɔɔɖɩyɛ
lɔɔʊ
lɔʊ
lɔʋ
lɛ
lɛbɛ
lɛdɩmɛlɛdɩ
lɛfɩɩɩ
lɛkʋ
lɛlaa
lɛlaɣ
lɛlɛ
lɛlɛyɔ
lɛlɛɛ
lɛlɛɛyɔ
lɛlʊ
lɛlʋ
lɛlʋʋ
lɛna
lɛsɩ
lɛtonii
lɛzɩna
lɛzɩtʊ
lɛzɩŋ
lɛzʊʊ
lɛŋ
lɛɛba
lɛɛbʊ
lɛɛbʋ
lɛɛka
lɛɛkʊ
lɛɛkʋ
lɛɛla
lɛɛlaa
lɛɛlɛ
lɛɛlɛyɔ
lɛɛlɛɛ
lɛɛlɛɛyɔ
lɛɛlʊ
lɛɛna
lɛɛnaa
lɛɛsɩ
lɛɛtɔŋ
lɛɛtɔɔ
lɛɛtʊ
lɛɛtʋ
lɛɛza
lɛɛzɩ
lɛɛzɩna
lɛɛzɩtʊ
lɛɛzɩyaa
lɛɛzɩyʊ
lɛɛzɩɣ
lɛɛzʊ
lɛɛzʊʊ
lɛɛzʋʋ
lɛɛŋ
lɛɛɖɛ
lɛɣ
lɛɣla
lɛɣlɛ
lɛɣna
lɛɣtʊ
lɛɣtʋ
lɛɣza
lɛɣzɩ
lɛɣzɩna
lɛɣzɩtʊ
lɛɣzɩtʋ
lɛɣzɩɣ
lɛɣzɩʊ
lɛɣzʊʊ
lɛɣzʋʋ
lɩ
lɩban
lɩkpaɣzasɩ
lɩm
lɩmaaza
lɩmaazɩyɛ
lɩmaza
lɩmazaɣ
lɩmazɩyɛ
lɩmaɣza
lɩmaɣzaɣ
lɩmaɣzɛ
lɩmaɣzɩyɛ
lɩmfala
lɩmfalɩyɛ
lɩmwada
lɩmɖʊyʊ
lɩmɩyɛ
lɩna
lɩnaa
lɩngamʊʊ
lɩnɛ
lɩnɩ
lɩtɩyɔm
lɩwa
lɩwaɣ
lɩyʊʊ
lɩza
lɩzaa
lɩzana
lɩzɩ
lɩzɩna
lɩzɩtʊ
lɩzɩtʋ
lɩzɩya
lɩzɩyaa
lɩzɩyʊ
lɩzɩyʊʊ
lɩzɩyʋ
lɩzɩɣ
lɩzɩɣna
lɩzɩʊ
lɩzɩʋ
lɩzʊ
lɩzʊʊ
lɩzʋʋ
lɩŋ
lɩŋamɩŋ
lɩŋamʊʊ
lɩŋamʋʋ
lɩŋgamɩŋ
lɩŋgamʊ
lɩŋgamʊʊ
lɩŋgamʋʋ
lɩŋguu
lɩŋŋŋ
lɩɣ
lɩɣna
lɩɣʊ
lɩɣʋna
lɩɩ
lɩɩna
lɩɩɩ
lɩʊ
lɩʊna
lɩʊʊ
lɩʋ
lʊba
lʊbɛ
lʊbɩnaʊ
lʊbɩyɛ
lʊbʊ
lʊkɩ
lʊkɩna
lʊla
lʊlɩ
lʊlɩna
lʊlʊ
lʊlʊʊ
lʊtɛsɩyɔm
lʊtʊ
lʊya
lʊyʊ
lʊŋgɩyɛ
lʊŋʊyɛ
lʊɖaa
lʊɖɛ
lʊɖʊ
lʊʊ
lʊʊʊ
lʋba
lʋbɛ
lʋbɩna
lʋbɩyɛ
lʋbʋ
lʋkɩ
lʋkɩna
lʋlʋkʋ
lʋlʋʋ
lʋyaa
lʋŋʋyɛ
lʋŋʋʋ
lʋɖɛ
lʋɖʋ
lʋʋ
m
ma
maa
maacɔ
maadiriidi
maal
maalii
maalika
maalikanaa
maaliki
maalisi
maalɛɣzɩɣ
maamaɣ
maarɔkɩ
maarɩsɩ
maaseedʋwanɩ
maatɛŋ
maaɖɩ
maba
mabɩ
mabɩtʊ
mabɩtʋ
mabʊ
mabʋ
mabʋʋ
machel
machine
macron
madagasɩkarɩ
madakasɩkarɩ
madeleine
madilu
madjigue
maganɛzɩ
magazine
magellan
magne
magnes
magnesia
magnesium
magnus
maha
mahal
mahatma
mahdi
mahfouz
mahler
mahomet
mai
main
maine
maison
majid
maka
makaɣ
makaʊ
makiadi
makonnen
makɩ
makɩna
makɩyɛ
makɩɣna
makʋna
mala
malaba
malawii
maldivii
malebo
malii
malik
malika
malthus
malɛɛzii
malɛɛzɩ
malɩ
malɩfa
malɩfana
malɩfanaa
malɩfɔnaa
malɩtɩ
malɩŋ
malɩɩ
malʊ
malʊʊ
malʋʋ
mamacɩɣla
mamacɩɣɖɛ
mamatʊsɩ
mamaɣ
mamʊ
man
mana
mancaɣ
mandarɛɛ
mandchou
mandchoue
mandchous
mandela
mandɩ
manga
mango
mani
mansour
mansɩ
mansɩma
mantɩ
manu
manual
manuel
manzʊmalɩ
manzʊmalɩɩ
manɩɩ
mao
map
maputo
mar
marc
marcel
march
marche
marco
mare
margaret
marguerite
mari
maria
mariage
mariam
marie
marignac
marilandɩ
marilyn
marin
marine
mario
mark
markala
market
marlborough
marlene
marley
marmara
marmontel
mars
marshall
marthe
martin
marx
mary
marɔkɩ
maser
masikini
masjid
mason
mass
massachusetts
mastabaswaa
masɩ
masɩma
matematiki
mathe
mathieu
matiques
matisse
matsuo
matɛŋ
matɩna
matʊ
matʋ
maurice
mawa
mawakɩ
max
maxima
maximilien
may
maya
mayaa
mayaɣ
maynard
mayor
mayɩnɛrɩyɔm
mayʊ
mayʋ
mazaɣ
mazda
mazul
mazɩm
mazɩnaʊ
mazɩtʊ
mazɩtʋ
mazɩyʊ
mazʊʊ
maŋgʊ
maŋgʊʊ
maɖa
maɖaa
maɖʊ
maɖʋ
maɣ
maɣmaɣ
maɣna
maɣza
maɣzaa
maɣzɩ
maɣzɩm
maɣzɩtʊ
maɣzɩtʋ
maɣzɩya
maɣzɩyɛ
maɣzɩyʊ
maɣzɩyʋ
maɣzɩɣ
maɣzʊ
maɣzʊʊ
maɣzʋʋ
maʊ
maʊʊ
maʋ
maʋʋ
mb
mba
mbaa
mbalax
mbeki
mbilim
mbu
mbɩ
mbɩyɔ
mbʊ
mbʊlɛ
mbʊyɔ
mbʊʊ
mbʋ
mbʋyɔ
mbʋʋ
md
mdou
me
mead
medi
medical
mediiteranee
medina
mediteraanee
mediteranee
mediteraniya
meditɛɛranee
meenii
meetalɩ
meeting
meiji
meitner
mejii
mekaniki
melbourne
melon
memorial
men
mendelei
mendoza
ment
menɖeke
mer
mere
merkel
merton
mesmer
mesopotami
metafiiziki
metal
metalɩ
metz
mexico
mezopotami
mg
mi
michael
michel
michele
michelet
michigan
mickey
middle
mie
miguel
miidii
miiliiyɔɔ
miiliyaarɩ
miiliyaaɖɩ
miiliyarɩ
miiliyɔɔ
miiliyɔɔwaa
miiziki
mikayɛlɩ
mikaɛlɩ
mike
mikhai
milan
mile
miles
miliiyɔɔ
miliyaarɩ
miliyaaɖɩnaa
miliyaɖi
miliyɔnaa
miliyɔɔ
miliyɔɔna
miliyɔɔnaa
miliyɔɔwaa
mill
millau
miller
millet
miloyɔɔnaa
milton
mimar
mindanaʊ
mine
minesootaa
ming
mini
minisi
minisiriwaa
minisiwaa
minisiɖi
minisri
ministri
ministrɩ
minnesota
minor
minziiki
minziki
mirabeau
miriam
misisipii
mississipi
mississippi
missouri
misurii
misuuri
misuurii
mit
mitra
mitterrand
mizigaanii
miziiki
miziki
mizoguchi
miŋ
mm
mn
mo
moctar
mod
mode
modern
moghol
mohamed
mohamet
mohammad
mohammed
mohandas
moise
molie
mologie
molto
moments
momolokiŋ
momoɖe
mon
mona
monakoo
monazite
monde
mondola
monet
mongol
mongoli
mongolia
mono
monroe
monrovia
monstrosus
mont
montage
montana
montanaa
montenegro
montmartre
monument
monɖozaa
moon
mooraalɩ
moore
mooti
mootinaa
mootɛɛɖɩ
moozambiki
moree
mori
moriah
moriitaanii
moritaanii
moritz
morning
morris
mort
mory
mosander
moscou
moser
moshe
moshoeshoe
mosque
mostafa
moti
mouammar
moumie
mount
mountain
moussa
movement
movie
moyen
mozambiki
mozart
moze
moŋgoli
moŋgolii
moŋgooli
mpiana
mpilim
mt
mtrushmore
mu
mugabe
muh
muhammad
mukuuliŋ
mulum
mumbai
mumbayɩ
munich
mununu
muqa
mur
murphy
muse
museum
music
musica
mussolini
mustang
mutharika
muttalib
muzulee
my
mɔ
mɔlɩbɩdɛnɩ
mɔlɩdaavii
mɔntanaa
mɔnɔ
mɔsɩku
mɔsɩkʊʊ
mɔsɩkʋʋ
mɔyɔɔ
mɔŋ
mɔɔ
mɔɔyɛ
mɔɔŋ
mɔɔʊ
mɔʊ
mɔʋ
mɛ
mɛfɛyɩ
mɛkisiiki
mɛkisiikoo
mɛkisiki
mɛksikii
mɛkɩsiiki
mɛkɩsiki
mɛkɩsɩkɩ
mɛkɩziki
mɛlɛ
mɛlɛna
mɛlɛnaa
mɛlʊʊ
mɛndɛlɛvɩyɔm
mɛnfɛyɩ
mɛrɩkɩrɩ
mɛsaɣ
mɛta
mɛtana
mɛtanaa
mɛtɛ
mɛtɛnaa
mɛtɛwaa
mɛtɩnaa
mɛvɛyɩ
mɛwɛ
mɛŋfɛyɩ
mɛɛrkiiri
mɛɛrɩkiiri
mɛɛsaɣ
mɩ
mɩla
mɩlɩ
mɩlɩm
mɩlʊ
mɩnaɣ
mɩndʊ
mɩndʋ
mɩnjɩ
mɩnzɛma
mɩnɩuʊ
mɩnɩŋ
mɩnɩʊ
mɩnɩʋ
mɩnʊʊ
mɩnʋʋ
mɩsɩ
mɩsɩgʊm
mɩsɩgʋm
mɩsɩkʊm
mɩsɩkʋm
mɩtaɖɛ
mɩza
mɩzasɩ
mɩzaɣ
mɩzɩ
mɩzɩtʋ
mɩzɩɣ
mɩzʋʋ
mɩŋ
mɩŋŋ
mɩɖɛ
mʊ
mʊlʊm
mʊna
mʊnaʊ
mʊndʊsʊʊ
mʊntʊsɩŋ
mʊntʊsʊŋ
mʊntʊsʊʊ
mʊnʊnʊ
mʊsɩ
mʊtʊ
mʊwa
mʊwanɩ
mʊya
mʊyaa
mʊyʊ
mʊyʊʊ
mʊzʊ
mʊzʊŋ
mʊzʊʊ
mʊŋna
mʊɖɛ
mʊʊ
mʊʊna
mʋ
mʋlʋm
mʋndʋsʋʋ
mʋntʋsʋŋ
mʋntʋsʋʋ
mʋsɩ
mʋtʋ
mʋzʋŋ
mʋʋ
mʋʋna
n
na
naa
naabateeyiiyɛ
naadozo
naajeeriya
naakomnaa
naakʊ
naalɛ
naalɩm
naananza
naanaza
naanza
naanzɩ
naanʊwa
naatalʊʊ
naataŋgbala
naatozo
naayɛ
naayɩ
naaza
naaʊ
nabayɛ
nabayɩ
nabokov
nabudozo
nabutozo
nabɛyɛ
nabɛyɩ
nabɩyɛ
nabɩyʊ
nabɩyʋ
nabʊ
nabʊlɛ
nabʊtozo
nabʊyʊ
nabʊyʊʊ
nabʋlɛ
nabʋyʋ
nadozo
nairobi
najeriya
najib
nakayɛ
nakayɩ
nakaŋ
nakpaɖaɣ
nakɛyɛ
nakɛyɩ
nakɩ
nakɩyɛ
nakɩyɩ
nakʊ
nakʊyʊ
nakʊyʊʊ
nakʋ
nakʋyʋ
nalɛ
nalɩm
nama
namibi
namibia
namibii
namɩŋ
nana
nanaaza
nanak
nananza
nanaza
nancii
nancy
nandaka
nandasɩ
nandu
nandʊ
nandʊʊ
nandʋ
nanie
nanomɛtanaa
nantes
nanza
naples
napole
napoleon
naputozo
napʊlɛ
nari
nasa
nasitozo
naso
nasɩ
nasɩdozo
nasɩlɛ
nasɩyɛ
nasɩyʊ
natal
natalɩ
national
nationale
nations
natozo
natutozo
natɩyʊ
natʊ
natʊlɛ
natʊyʊ
natʊyʊʊ
natʋlɛ
natʋyʋ
nav
navarre
navy
nawa
nayaa
nayiiroobii
nayɛ
nayɛɛ
nayɩ
nayʊ
naza
nazarɛɛtɩ
nazɩyaa
nazɩyʊ
nazɩyʋ
nazʊʊ
naŋ
naŋgbaaŋ
naŋgbanzɩ
naŋgbaŋa
naŋgbaŋaɣ
naŋgbaŋgaɣ
naŋgbaŋgʊʊ
naŋgbaŋgʋʋ
naŋgbaŋzɩ
naŋgbaŋʊʊ
naŋgɩŋ
naɖiyɛ
naɖɛyɛ
naɖɩ
naɖɩyɛ
naɣ
naɣʊ
naʊ
naʊʊ
naʋ
naʋʋ
nbɛ
nbʊyʊ
nd
ndaakpeɖe
ndaalɩm
ndaatʊ
ndaatʋ
ndamaa
nddʊ
ndeko
ndel
ndi
ndoma
ndombolo
ndu
ndɔnjɔlɩyɛ
ndɔnjɔɔlɩyɛ
ndɖɩ
ndɛ
ndɩ
ndɩndɩ
ndʊ
ndʊʊ
ndʋ
ndʋʋ
ne
near
nee
neebraskaa
neetrɔɔ
neeyerɩlandɛ
nehru
neil
nelson
nemaa
nemasi
nement
nepaalɩ
nepalɛɛ
neptune
nergie
nes
nesi
nestor
nesɩ
net
netrɔɔ
neu
neuf
neutron
nevaadaa
nevada
nevadaa
neville
new
news
newton
nexe
neze
neŋ
ng
nga
ngbam
ngbɛyɛ
ngozi
ngʊ
nh
nhausen
ni
niamey
niamtougou
nice
nicola
nicolas
nide
nie
niels
niger
nigeria
night
nigsberg
niidiɣ
niidozo
niika
niikaɣ
niile
niili
niitozo
niiye
niizɛrɩ
niizɛɛrɩ
nikaraguwa
nikaɣ
nikolai
nili
nils
nilson
nim
nima
nimasi
nimasɩ
nimaɣ
nimbe
nimiye
nimvela
nimviɖe
nin
nine
ninsule
ninɖiyaa
ninɖiyu
nis
nisi
niu
niwu
niwujɛrsii
niyagara
niye
niyuu
nizɛɛrɩ
njamena
njʊyɛ
nke
nkiri
nkruma
nkrumah
nkʊ
nl
nn
no
noaa
noah
nobel
nobis
noe
noi
nollywood
nominoe
non
nonce
noovoo
nophon
nora
nord
normale
normand
normandii
north
nos
notes
notre
novgorod
novo
noŋgoloŋga
ns
nsdap
nso
nsɩ
nsʊlɩmɩyɛ
ntalɩ
ntaneti
ntɔnjɔɔlɩyɛ
ntɩ
ntʊ
nu
nucle
nuclear
num
number
nuremberg
nursie
nutozo
nuutuu
nuvɛlɩ
nuwa
nuwakicɔɔtɩ
nwere
nyere
nyerere
nywts
nzenberg
nzi
nzɩ
nzɩɩ
nzʊlɩma
nzʊlɩmɩyɛ
nzʊlɩyɛ
nzʊlʊma
nzʊlʊmɩyɛ
nzʋlʋmɩyɛ
nŋgʊ
nɔ
nɔbɛlɩyɔm
nɔmɔŋ
nɔmɔʊ
nɔndɔŋ
nɔndɔʋ
nɔndʊtʊ
nɔnɔ
nɔnɔsɩ
nɔnɔɔ
nɔsɩ
nɔsɩtaa
nɔyɔ
nɔyɔɔdaa
nɔyʊ
nɔyʋ
nɔyʋʋ
nɔzʊʊ
nɔɔ
nɔɔnɔɔ
nɔɔrɩvɛɛzɩ
nɔɔsɩ
nɔɔtaa
nɔɔyɔ
nɔɔyɔɔ
nɔɔyʊ
nɔɔyʋ
nɔɔzʊʊ
nɔɣ
nɔʊ
nɖeke
nɖekenɖeke
nɖi
nɖuu
nɖɛ
nɖɛɛ
nɖɩ
nɖɩɩ
nɖʊ
nɛ
nɛmɛ
nɛndɛtʊ
nɛpayaɣ
nɛptiini
nɛptʊnɩyɔm
nɛyɔ
nɛyɔdɩmɩ
nɛyɔɔ
nɛŋgbɛŋga
nɛɛ
nɛɛlɛ
nɩ
nɩgbaŋgʊʊ
nɩgbaŋʊʊ
nɩkaɣ
nɩkɛlɩ
nɩlɔŋ
nɩm
nɩma
nɩmaŋ
nɩmaŋɖɩɣʋ
nɩmaʋ
nɩmbɛɖɛ
nɩmɩyɛ
nɩna
nɩnaʊ
nɩnaʋ
nɩnza
nɩnɖɛ
nɩnɩ
nɩnɩwa
nɩnɩɣ
nɩnʊwa
nɩnʊʊ
nɩtʊ
nɩwaŋ
nɩwaɣ
nɩyɔbɩyɔm
nɩyɛ
nɩyɩ
nɩzɛɛrɩ
nɩŋ
nɩŋgbaaŋ
nɩŋgbanzɩ
nɩŋgbaŋaɣ
nɩŋgbaŋgʊʊ
nɩŋgbaŋʊʊ
nɩŋgʊ
nɩɣ
nɩɣlɩm
nɩɣna
nɩɣtʊ
nɩɣzɩna
nɩɣʊ
nɩɩ
nɩɩlɛ
nɩɩna
nɩɩnaza
nɩɩnɩwa
nɩɩnʊwa
nɩɩnʋwa
nɩɩyɛ
nɩɩyɩ
nɩʊ
nɩʋ
nʊ
nʊm
nʊmaʊ
nʊmɔ
nʊmɔŋ
nʊmɔʊ
nʊŋ
nʊʊ
nʊʊdʊ
nʋmaŋ
nʋmaʋ
nʋmɔsɔkasɩ
nʋmɔŋ
nʋmɔʋ
nʋmʋʋ
o
obama
oc
occidental
ocde
oce
ocean
octave
of
office
official
og
oge
oh
ohio
ohiyo
oif
oil
ois
oise
oit
ok
oklahoma
oklahomaa
old
ole
olga
oli
olien
olimpiiki
olithique
oliver
olivi
olivier
olofʊ
ologie
olomide
olu
olympio
oman
omar
omc
oms
on
onard
ondes
one
onion
onu
onye
oobuwaa
op
opatre
ope
opened
opening
opep
opera
ophraste
opold
ops
or
orange
ordo
ordre
ore
oreegonii
org
organisation
orgie
orient
original
oriyaŋ
orle
orleans
oromo
orson
orthodoxe
orthographic
oryza
orɩkɛ
os
oscar
oseyaanii
oseyanii
ositiraalii
ositraalazii
ositraali
ositraalii
ositralii
osiyanii
osɩtroazɩyatɩkɩ
otan
oti
otibuwaa
otirisi
otirisii
otomanɩ
otrisi
otru
otto
otu
ou
oud
oulianov
oumar
oural
ours
out
outside
over
ovide
oxford
p
pa
paa
paaa
paaanɩ
paacaɣ
paacɔŋna
paakala
paakalɩ
paakaɣ
paakpakɩɣ
paakpaɣ
paakpɛnda
paakɛ
paakɩlɩ
paalaba
paalakaɣ
paalakɩ
paalaɣ
paale
paalɛɣ
paalɩ
paalɩza
paalɩzɩ
paalɩzʊ
paalʊla
paalʋla
paama
paamakɩ
paamaɣ
paamaɣza
paan
paana
paanaɣ
paanɛ
paanɩ
paapaɣ
paapɩla
paapɩzɩ
paapɩzɩɣ
paapɩzʊ
paapɩɩla
paari
paarii
paasiliki
paasɔ
paasɔɔla
paasɛɛ
paasɛɣ
paasɩ
paasɩma
paasɩŋ
paatasɩɣ
paatisiɣ
paatɔ
paatɔkɩ
paatɔŋ
paatɛma
paawoba
paawona
paawɛ
paawɛna
paawɛɛ
paaya
paayaɣ
paayeki
paayɔɔda
paayɔɔdʊʊ
paaza
paazɩ
paazʊ
paazʊʊ
paaɖooye
paaɖoye
paaɖʊ
paaɖʊʊ
paaɣ
paba
pabaɣ
pablo
paca
pacakɩ
pacala
pacalɩ
pacalɩna
pacalʊʊ
pacatɩ
pacatɩɣ
pacaŋ
pacaɣ
pacaɣa
pacaɣzɩ
pacɩɩ
pada
padaa
pae
pagba
pagbaɣ
page
pagidaadɩ
paha
pahayaa
pahayaɣ
pahayɩ
pahayɩsa
pahayɩɣ
pahayʊ
pahayʊʊ
pahaɣ
pahʊlʊ
pahʊna
pahʊwa
pahʊʊ
pahʊʊna
pahʋ
pahʋlʋʋ
pahʋʋ
pai
painting
paix
pajalɩ
pajaɣ
paka
pakaa
pakala
pakalaa
pakalaɣ
pakali
pakalɩ
pakalɩɣ
pakalɩʊ
pakalʊ
pakalʊʊ
pakama
pakandɩ
pakandɩɣ
pakandʊʊ
pakatɩ
pakatɩɣ
pakaŋ
pakaɖɩ
pakaɖɩna
pakaɖɩɣna
pakaɣ
pakisitaanɩ
pakistan
pakpa
pakpacayʊ
pakpakaɣ
pakpakɩɣ
pakpakʊ
pakpakʊʊ
pakpakʋ
pakpazɩ
pakpazʊ
pakpazʊʊ
pakpaɣ
pakpaɣa
pakpaɣna
pakpɩtɩna
pakɩla
pakɩlaɣ
pakɩlɩ
pakɩlɩna
pakɩlɩɣ
pakɩlɩɣna
pakɩlɩʊ
pakɩlʊ
pakɩlʊna
pakɩlʊʊ
pakɩsɩtanɩ
pakʊ
pakʊma
pakʊmɩ
pakʊna
pakʊsɩ
pakʊwa
pakʊya
pakʊyɩ
pakʊʊ
pakʋ
pakʋma
pakʋyɩ
pakʋyʋʋ
pakʋʋ
pala
palaa
palaba
palabɩ
palabɩna
palace
palacios
paladɩyɔm
palais
palaka
palakanaɣ
palakaɣ
palakaɣna
palakɩ
palakɩna
palakɩnɛ
palakɩɣ
palakʋʋ
palana
palaŋa
palaɣ
pale
palestine
palitiki
paliza
palm
palmo
palula
palɛstiinii
palɛstɩnɩa
palɛsɩtiini
palɩ
palɩka
palɩna
palɩtiki
palɩtɩ
palɩza
palɩzaa
palɩzaɣ
palɩzɩ
palɩzɩna
palɩzɩɣ
palɩzʊ
palɩzʊʊ
palɩɣ
palɩɣna
palɩɩ
palʊ
palʊba
palʊbɩna
palʊkaɣ
palʊkɩ
palʊkɩna
palʊla
palʊlɩ
palʊlʊ
palʊlʊʊ
palʊʊ
palʋ
palʋba
palʋbɩna
palʋkɩ
palʋla
palʋlɩ
palʋlʋ
palʋlʋʋ
palʋʋ
palʋʋna
pam
pama
pamaa
pamaaza
pamaazɩ
pamabɩ
pamabɩna
pamako
pamakoo
pamakɩ
pamakɩna
pamana
pamawa
pamawaɣ
pamaza
pamazɩ
pamazɩna
pamazɩɣ
pamaɣ
pamaɣmaɣ
pamaɣna
pamaɣza
pamaɣzɩ
pamaɣzɩna
pamaɣzɩɣ
pamaɣzʊ
pamaʊ
pamaʋ
pamba
pampelimuusi
pamɩzɩ
pamɩzɩɣ
pamʊ
pamʊʊ
pamʋ
pamʋna
pamʋʋ
pan
pana
panaa
panaalɛ
panama
panana
panaza
panaŋgʊ
panaɣ
panaɣna
pankɩ
panorama
panoramio
pantalaŋ
pantekoti
panthera
pantuu
pantʊ
panzuli
panɛ
panɛyɔ
panɩ
panɩna
panɩnɩ
panɩwaɣ
panɩŋna
panɩɣ
panɩɣna
panɩɩ
panɩɩna
panɩʊ
panɩʊna
paolo
papa
papaa
papaaza
papaazɩ
papaazɩɣ
papama
papamɩ
papasɩ
papasɩɣ
papawaɣ
papaya
papaza
papazɩ
papazɩna
papazɩɣ
papaŋ
papaɣ
papaɣza
papaɣzɩ
papaɣzɩɣ
papaɣzʊ
pape
papuwazii
papɩ
papɩlɩ
papɩsa
papɩsɩ
papɩsɩna
papɩsɩɣ
papɩsʊ
papɩsʊʊ
papɩza
papɩzaa
papɩzaɣ
papɩzɩ
papɩzɩɣ
papɩzɩʊ
papɩzɩʋ
papɩzʊ
papɩzʊʊ
papɩzʋʋ
papɩɩ
par
para
paraamiini
paraguwee
parasti
parii
paris
paritenɔɔ
park
parlament
parliament
parme
part
partenɔ
parthe
parthenon
parti
parɩs
parɩyɔm
parɩɩ
pas
pasa
pasaa
pasaana
pasakɩ
pasakɩna
pasaɣ
pasaɣna
pascal
pasifiiki
pasifiki
pasiifiki
pasitisi
paska
pasteur
pastis
pasɩ
pasɩba
pasɩbɩna
pasɩkɩ
pasɩm
pasɩma
pasɩmna
pasɩmɩ
pasɩna
pasɩtɔr
pasɩtɔɔr
pasɩtɛkɩ
pasɩtɩsɩ
pasɩwaɣ
pasɩŋ
pasɩŋna
pasɩɣ
pasɩɩ
pasɩʊ
pasʊ
pasʊzɩ
pasʊʊ
pasʊʊna
pasʋʋ
pat
pata
pataa
pataala
pataana
pataasɔɔlɩ
pataaɖɩ
pataka
patakaa
patakpaɣ
patakɩ
patakɩlɩ
patala
patalakɩ
patalɩ
patalɩɣ
patalɩʊ
patalʊ
patalʊʊ
patama
patamna
patamsɩ
patamsɩna
patan
patana
patanada
patanaɣ
patapɩzɩ
patapɩzɩda
patapɩzɩɣ
patasa
patasaɣ
patasɩ
patasɩɣ
patasʊ
patatalɩ
patatasɩ
patatɩlɩ
patatɩɩ
patazɩ
pataŋ
pataɣ
paton
patrice
patrick
pats
patɛyɩ
patɩ
patɩla
patɩlaa
patɩlɩ
patɩlɩna
patɩlɩɣ
patɩlɩɣna
patɩlɩʋ
patɩlʊ
patɩna
patɩzɩ
patɩzɩɣ
patɩzʊʊ
patɩŋ
patɩŋa
patɩŋaɣ
patɩŋga
patɩŋgɩ
patɩŋgɩna
patɩŋgʊna
patɩŋgʊʊna
patɩŋgʋna
patɩŋna
patɩŋnaa
patɩŋɛ
patɩŋɩɣ
patɩŋɩɣna
patɩŋʊʊ
patɩɩ
patʊ
patʊla
patʊlɩ
patʊlʊʊ
patʊma
patʊɣʊ
patʊʊ
patʋ
patʋla
patʋlɩ
patʋʋ
paul
paula
paulo
pawa
pawaa
pawaba
pawadɩ
pawala
pawalɩ
pawana
pawayɩ
pawazɩ
pawazɩɣ
pawaɣ
pawule
pawɛ
pawɩla
pawɩlaɣ
pawɩlɩ
pawɩlɩna
pawɩlɩɣ
pawɩlɩɣna
pawɩlɩʊ
pawɩlʊ
pawɩlʊʊ
paya
payaa
payaanaa
payaaɣ
payaaʊ
payakaɣ
payakɩ
payana
payasɩ
payawa
payawaɣ
payayaɣ
payayɩ
payaɖɩ
payaɣ
payaɣa
payaɣaɣ
payaɣe
payaɣna
payaɣtʋ
payaɣʊ
payaɣʋ
payaʊ
payaʋ
payi
paypal
pays
payɑɣ
payɛ
payɣ
payɩ
payʊ
payʋ
paza
pazaa
pazaɣ
paziliki
pazɩ
pazɩma
pazɩna
pazɩtʊ
pazɩtʋ
pazɩyɛ
pazɩyʊ
pazɩyʋ
pazɩɣ
pazɩʊ
pazʊʊ
pazʋʋ
paŋ
paŋgiizi
paŋgɩladɛɛsɩ
paɖa
paɖana
paɖanɩ
paɖanɩɣ
paɖaŋ
paɖaɣna
paɖaɣnɩ
paɖaɣnʊʊ
paɖɛ
paɖɩ
paɖɩkɩ
paɖɩna
paɖɩzɩ
paɖɩzɩɣ
paɖɩɣ
paɖɩɣna
paɖɩɩna
paɖʊ
paɖʊna
paɖʊwaɣ
paɖʊyɩ
paɖʊzɩ
paɖʊʊ
paɖʋ
paɖʋna
paɖʋwa
paɖʋʋ
paɣ
paɣla
paɣlaa
paɣlaka
paɣlɩ
paɣlɩka
paɣlɩɣ
paɣlʊ
paɣlʊʊ
paɣlʋ
paɣlʋʋ
paɣtʊ
paɣtʋ
paɣyɛ
paɣza
paɣzaa
paɣzɩ
paɣzɩna
paɣzɩtʊ
paɣzɩyɛ
paɣzɩɣ
paɣzɩɣna
paɣzʊ
paɣzʊna
paɣzʊʊ
paɣzʊʊna
paʊ
paʋ
pb
pe
peace
pechblende
pedro
pee
peekɛɛ
peenɛɛ
peetiraa
peeye
peeyiba
peeyibaa
peeyii
peeɖaɣ
peeɖe
peeɖiɣa
peeɖɛ
pefezuuna
peheyi
peheyiɣ
pehikiɣ
pehili
pehilina
pehiu
pehiyi
pehiɣ
pehuu
pekisi
pekizi
pekizina
pekiziɣ
pekpeɣ
pekpeɣla
pekpeɣli
pekɩŋ
pele
peli
peliizi
pelu
penim
penɛɛ
people
pepi
pepim
pepima
pepimi
pepiŋ
pepper
per
performing
perron
persan
perse
perspective
perth
peruu
perɩlɛɛ
pese
peseu
pesewa
peseɣ
peseɣti
peseɣtiɣ
peseɣu
pesida
pesidi
pesidina
pesidiɣ
pesidu
pesiki
pete
petee
petehiɣ
peter
peters
petersburg
peteu
peteɣ
peteɣu
petii
petiki
petisaa
petisi
petisiɣ
petiyina
petizi
petiŋ
petra
petro
petromax
petty
petɛrɩsɩbuuri
pewezuu
pewila
pewili
pewiliɣ
peyeba
peyebi
peyebina
peyebinam
peyeki
peyekina
peyele
peyiba
peyibaa
peɖe
peɖeke
peɖiyiɣ
peɣɖe
ph
phe
phil
philip
philippe
philosophe
philosophie
photo
php
physique
pi
piaf
piaget
piano
pib
picasso
piciidiɣ
picture
pide
pie
pierre
pietro
pifezuu
piileɖiɣ
piilidiŋ
piiri
piisi
piisoo
pikolo
pikpe
pikpeŋ
pikpili
pila
pile
pilee
pileɖa
pileɖi
pileɖiɣ
pilim
pilima
pilimiye
pilinzi
pilinzɩ
piliŋ
piliŋa
piliŋga
pilŋa
pim
pinaɣ
pindimm
pinyin
pinzɩ
piotr
piposina
pirazaaviili
pireeziili
pireezili
piresiili
pireziili
pirezili
pirimaanɩ
pirimanii
piritaaniki
piritaniiki
piritaniki
pirmaanii
pisawo
pise
piseɣti
piste
piteleɖi
pitihiɣ
pitii
pitiki
piwolo
piwuu
piya
piyaa
piyaanoo
piyano
piyanoo
piyasi
piyasɩ
piyaɣ
piye
piyeba
piyebina
piyee
piyeke
piyeki
piyekina
piyel
piyele
piyelorusi
piyiiduu
piyisi
piyiŋ
piyuu
pizaɖeɣmaɣ
piŋ
piɖe
piɖeke
piɖena
piɣa
piɣisi
place
plan
planck
plane
planɛɛtɩ
plaque
plastic
plateaux
platon
platɩnɩ
plaza
pliitɔɔ
pline
plus
pluto
plutɔɔ
plɔŋ
plʊtɔnɩyɔm
plʊtɔɔ
pm
png
po
poche
pocosuu
poe
poetry
pog
pogotaa
pohosu
pohuti
pohuu
pohuyi
pohuyuu
poincare
pokoyi
pokoyu
pokuli
pokuu
polaire
poland
pole
poli
polinda
polindaa
politiiki
politika
politiki
politique
polivi
polivii
poliŋ
polo
pologne
polon
polonɛɛ
polu
poluba
polubi
polubina
polubu
polukaɣ
polukaɣna
poluki
polukina
polɔn
polɔɔn
polɩŋ
pom
pombe
pombo
pompe
pomuluu
pondone
pont
pontin
ponuuti
ponuutuu
pool
poolo
pop
pope
poposina
populaire
popuu
poquelin
porsche
port
portland
porto
portrait
portugal
poru
posina
posinau
posinaʊ
posner
postal
posu
posusa
posusaɣ
posusi
posusuu
posuu
posuwaɣ
potansɩyɛɛlɩ
potasɩyɔm
potolu
potowona
potukuna
potuu
pouchkine
poudre
pour
poutine
pouvoir
powoba
powokaɣna
powoki
powokina
powolo
powona
poyo
poyou
poyouna
poyowaɣ
poɖe
poɖoŋ
poɖuu
pp
ppw
pr
praagɩ
pradesh
prague
prasɛyɔdɩmɩ
pre
predator
preeziili
prend
preparing
president
presley
press
pret
pretaan
pretooriyaa
prey
priestley
priitaaniki
prince
pritaniiki
pritaniki
prix
project
prokofiev
protestant
proton
protɔɔ
protɛsɩtaŋ
proust
province
prukisɛɛlɩ
pruksɛɛlɩ
prusi
prusse
prɔnzɩ
prɔsɩ
prɔtakɩtɩnɩyɔm
psukhe
psychologie
pt
ptole
pu
publique
puccini
puda
pudaa
pudapɛsɩtɩ
puhuu
puhuuna
puhuzi
pukuli
pulgari
puligari
purcell
purkina
purom
purple
purundi
purɔndii
putooye
putukina
putuu
putuula
putuuɖe
puu
puwaroo
puwayɩ
puwiye
puwokina
puwolo
puyenezɛrɩ
puzumbura
pwaavrɔɔ
pwaavrɔɔnaa
px
pya
pythagore
pɑlɩzɩ
pɔ
pɔbɔla
pɔbɔɖɛ
pɔcɔ
pɔcɔlɔ
pɔcɔlɩ
pɔcɔlʋʋ
pɔcɔna
pɔcɔnaa
pɔcɔtʊʊna
pɔcɔzɩ
pɔcɔŋna
pɔcɔŋnaʊ
pɔcɔɔ
pɔcɔɔlʋʋ
pɔcɔʊ
pɔcɔʋ
pɔcɩwaanaa
pɔdɔɖɔɔ
pɔhɔ
pɔhɔkɩ
pɔhɔmɩ
pɔhɔŋ
pɔhɔŋʊʊ
pɔhɔɔ
pɔhɔɔʋ
pɔkɔma
pɔkɔna
pɔkɔŋ
pɔkɔŋna
pɔkɔɔ
pɔlɔ
pɔlɔn
pɔlɔndɔɔɔ
pɔlɔnɩyɔm
pɔlɔwaɣ
pɔlɔɔn
pɔlɔʊ
pɔlɔʋ
pɔlɩsɩmuurɩ
pɔlɩɩɩ
pɔm
pɔmna
pɔmpɩnaa
pɔn
pɔnɔɔ
pɔpɔla
pɔpɔtʊ
pɔpɔzʊʊ
pɔritigaalɩ
pɔrtigaalɩ
pɔrtigalɩ
pɔrtɩɩgɛ
pɔrɩtigaalɩ
pɔrɩtigalɩ
pɔrɩtiigaalɩ
pɔrɩtiigalɩ
pɔrɩtɩgalɩ
pɔrɩtɩgɛɛ
pɔrɩtɩkɛ
pɔsɔ
pɔsɔkɩ
pɔsɔza
pɔsɔzɩ
pɔsɔzɩɣ
pɔsɔzʊʊ
pɔsɔŋ
pɔsɔɔla
pɔsɔɔlaa
pɔsɔɔlɩ
pɔsɔɔlʊʊ
pɔsɔʊ
pɔsɩ
pɔtasɩyɔm
pɔtɔ
pɔtɔdɩyɛ
pɔtɔkaɣ
pɔtɔkjɩ
pɔtɔkɩ
pɔtɔm
pɔtɔma
pɔtɔsɔɔlɩ
pɔtɔtɔ
pɔtɔwaɣ
pɔtɔyɩ
pɔtɔyɩtɩ
pɔtɔyɩtʊ
pɔtɔzɩ
pɔtɔzʋʋ
pɔtɔŋ
pɔtɔŋgʋ
pɔtɔŋʊʊ
pɔtɔɔ
pɔtɔɔna
pɔtɔɔzɩ
pɔtɔɔzʋʋ
pɔtɔʊ
pɔtɔʋ
pɔtʊ
pɔyɔ
pɔyɔka
pɔyɔkaɣ
pɔyɔkɩ
pɔyɔkʊʊ
pɔyɔɔ
pɔyɔɔda
pɔyɔɔdaɣ
pɔyɔɔdɩ
pɔyɔɔdɩɣ
pɔyɔɔdɩɣna
pɔyɔɔdʊ
pɔyɔɔdʊʊ
pɔyɔɔdʊʊna
pɔyɔɔdʋʋ
pɔyɩŋ
pɔza
pɔzɩ
pɔzɩtʊ
pɔzɩɣ
pɔzʊ
pɔzʊʊ
pɔzʋʋ
pɔŋ
pɔɔ
pɔɔlɩ
pɔɔnɩ
pɔɔrto
pɔɔrɩ
pɔɔsɩ
pɔɔya
pɔɔyasɩ
pɔɔyaɣ
pɔɔyɩŋ
pɔɔyʊʊ
pɔɔɖɛ
pɔɖɔ
pɔɖɔka
pɔɖɔkɩ
pɔɖɔkʊʊ
pɔɖɔkʋʋ
pɔɖɔna
pɔɖɔnɩ
pɔɖɔŋ
pɔɖɔŋa
pɔɖɔŋna
pɔɖɔɔ
pɔɖɔɔna
pɔɖɔɔnɩ
pɔɖɔʊ
pɔɖɔʋ
pɔɖɛ
pɔɣɔ
pɔʊ
pɔʋ
pɔʋʋ
pɛ
pɛcɛ
pɛcɛla
pɛcɛlɛ
pɛcɛlɛyɩ
pɛcɛlɩ
pɛcɛlɩɣ
pɛcɛsʊ
pɛcɛtɩ
pɛcɛyɩ
pɛdɛ
pɛdɩyaa
pɛdɩyɛ
pɛdɩyʊ
pɛdɩɣ
pɛdʊ
pɛdʊʊ
pɛdʋ
pɛdʋʋ
pɛfɛyɩ
pɛfɛyɩna
pɛhɛ
pɛhɛdɩ
pɛhɛdɩɣ
pɛhɛkʊ
pɛhɛyɩ
pɛhɛyɩna
pɛhɛyɩɣ
pɛhɛyʊ
pɛhɛzɩ
pɛhɛzɩɣ
pɛhɛɛ
pɛhɛɣ
pɛkpɛdɩ
pɛkpɛlɛkɩ
pɛkpɛlɛkʊ
pɛkpɛlɛkʊʊ
pɛkpɛnda
pɛkpɛndaa
pɛkpɛndaɣ
pɛkpɛndɩ
pɛkpɛndɩna
pɛkpɛndɩɣ
pɛkpɛndʊ
pɛkpɛndʊʊ
pɛkpɛndʋʋ
pɛkpɛzʊ
pɛkɛ
pɛkɛdaɣ
pɛkɛdɩ
pɛkɛdɩna
pɛkɛdɩɣ
pɛkɛdʊ
pɛkɛdʊʊ
pɛkɛna
pɛkɛtɩna
pɛkɛtɩɣ
pɛkɛwa
pɛkɛza
pɛkɛzɩ
pɛkɛzɩɣ
pɛkɛɣ
pɛkɛʊ
pɛla
pɛlaa
pɛlaɣ
pɛliziki
pɛlɔ
pɛlɛ
pɛlɛtʊ
pɛlɛza
pɛlɛzɩ
pɛlɛzɩkɩ
pɛlɛzɩɣ
pɛlɛɛ
pɛlɛɛza
pɛlɛɛzɩ
pɛlɛɣ
pɛlɛɣzɩ
pɛlɩ
pɛlɩjɩ
pɛlɩziiki
pɛlɩziki
pɛlɩzɩ
pɛlɩzɩkɩ
pɛmɛlɩ
pɛn
pɛnsilvaanii
pɛnɛ
pɛpɛda
pɛpɛdaɣ
pɛpɛdɩ
pɛpɛdɩɣ
pɛrɩlɛɛ
pɛrɩsanɩ
pɛrɩsɩ
pɛsidi
pɛsɛ
pɛsɛtɩ
pɛsɛɛ
pɛsɛɣ
pɛteravi
pɛtɔŋ
pɛtɛ
pɛtɛkpɛndɩna
pɛtɛkɛ
pɛtɛm
pɛtɛma
pɛtɛyɩ
pɛtɛyɩɣ
pɛtɛza
pɛtɛzɩ
pɛtɛzɩɣ
pɛtɛŋ
pɛtɩlɩhɛm
pɛwɛ
pɛwɛna
pɛwɛnɛ
pɛwɛtʊ
pɛwɛɛ
pɛwɛɛna
pɛwɛʊ
pɛwɛʊna
pɛyɛlɩna
pɛɖɛ
pɛɖɛna
pɛɖɛyɩ
pɛɖɛyɩɣ
pɛɖɛyʊ
pɛɖɛzɩ
pɛɖɛzɩɣ
pɛɖɛɛ
pɛɖɛɛna
pɛɖɛɣ
pɛɖɛʊ
pɛɖɛʊna
pɛɛ
pɛɛrɩlɛɛ
pɛɛrɩsɩ
pɛɛyɛ
pɛɛyɛɛ
pɩ
pɩcakpalɩmɩyɛ
pɩcakɩ
pɩcalɩ
pɩcalɩmɩyɛ
pɩcalʊ
pɩcamɩ
pɩcatʊ
pɩcatʋ
pɩcaŋ
pɩcaɣ
pɩcɔ
pɩcɔlɔ
pɩcɔɔ
pɩcɔʊ
pɩcɛlɛ
pɩcɛlɩna
pɩcɛlɩɣ
pɩcɛyɩ
pɩcɛyʊʊ
pɩcɛzɩ
pɩcɛɖɛ
pɩcɛɛɖɛ
pɩcɛɣɖɛ
pɩcɩka
pɩcɩlɩŋ
pɩcɩsɩ
pɩda
pɩdaa
pɩdɛ
pɩdɛɛ
pɩdɩŋ
pɩdɩɩfɛyɩ
pɩdʊʊ
pɩerre
pɩfalʊʊ
pɩfɛyɩ
pɩfɛyɩna
pɩgbaʋ
pɩha
pɩhayɩ
pɩhaɣ
pɩhaɣna
pɩhɔ
pɩhɛɛ
pɩjatʊ
pɩjatʋ
pɩjɛɖɛ
pɩkaza
pɩkazaa
pɩkazɩ
pɩkazʊ
pɩkaɣ
pɩkpa
pɩkpakʊ
pɩkpana
pɩkpaɖa
pɩkpaɖɩ
pɩkpaɣ
pɩkpaɣna
pɩkpaɣʊ
pɩkpaɣʋ
pɩkpaɣʋna
pɩkpaʊ
pɩkpaʋ
pɩkpeekpe
pɩkpɛdɩna
pɩkpɛnda
pɩkpɛndaa
pɩkpɛndɩ
pɩkpɛndɩna
pɩkpɛndɩnɛ
pɩkpɩnda
pɩkɔ
pɩkɔma
pɩkɔna
pɩkɔzɩna
pɩkɔŋna
pɩkɔɔ
pɩkɛ
pɩkɛdɩna
pɩkɛdʊ
pɩkɛna
pɩkɛnaa
pɩkɛɣ
pɩkɛɣna
pɩkɛʊ
pɩkɩla
pɩkɩlɩ
pɩkɩlɩna
pɩkɩlɩɣ
pɩkɩlʊ
pɩkʊ
pɩla
pɩlaaɣ
pɩlaba
pɩlabɩ
pɩlabʊ
pɩlakaɣ
pɩlakɩ
pɩlaŋ
pɩlaʊ
pɩlaʋ
pɩlɔmbɩ
pɩlɔŋ
pɩlɛzʊʊ
pɩlɛɣzɩ
pɩlɛɣzɩɣ
pɩlɛɣzʊʊ
pɩlɩ
pɩlɩna
pɩlɩnɛ
pɩlɩtʊ
pɩlɩwa
pɩlɩyɛ
pɩlɩzɩ
pɩlɩŋ
pɩlɩŋga
pɩlɩɣ
pɩlɩɣna
pɩlɩɩ
pɩlɩɩna
pɩlɩɩnɩ
pɩlɩʊ
pɩlɩʋ
pɩlʊ
pɩlʊʊ
pɩlʋʋ
pɩma
pɩmakɩ
pɩmakɩna
pɩmakɩɣna
pɩmakʊɣna
pɩmalɩna
pɩmana
pɩmaɣ
pɩmaɣna
pɩmaɣza
pɩmʊna
pɩn
pɩna
pɩnaɣ
pɩndʊ
pɩndʋ
pɩnsɩ
pɩnzɩ
pɩnzɩmɩnaɣ
pɩnzɩɣ
pɩnɑɣ
pɩnɛ
pɩnɩ
pɩnɩɣ
pɩnɩʊ
pɩnʊʊ
pɩpaazɩna
pɩpazɩ
pɩpazɩna
pɩpaɣlʊ
pɩpaɣzɩ
pɩpaɣzɩna
pɩpɔza
pɩpɔzɩ
pɩpɔzɩɣ
pɩpɔzʊ
pɩpɔzʊʊ
pɩpɔzʋʋ
pɩpɩsa
pɩpɩsɩ
pɩpɩsɩɣ
pɩpɩsʊ
pɩpɩsʊʊ
pɩpɩzɩ
pɩpɩzɩɣ
pɩpɩzʊ
pɩpɩzʊʊ
pɩpɩɩ
pɩrazaviili
pɩsa
pɩsaa
pɩsamɩ
pɩsatʊ
pɩsatʋ
pɩsaŋ
pɩsaɣ
pɩsaʊ
pɩsaʋ
pɩsɔzɩ
pɩsɩ
pɩsɩmʊtɩ
pɩsɩna
pɩsɩnaʊ
pɩsɩnɩ
pɩsɩŋa
pɩsɩŋna
pɩsɩɣ
pɩsɩɣna
pɩsɩɩna
pɩsɩɩnɩ
pɩsɩʊ
pɩsɩʋ
pɩsʊ
pɩsʊʊ
pɩsʋʋ
pɩta
pɩtaa
pɩtaakɛ
pɩtaatasɩ
pɩtacaɣ
pɩtaha
pɩtakazɩ
pɩtakɩlɩ
pɩtala
pɩtalaɣ
pɩtalɩ
pɩtalɩna
pɩtalɩɣ
pɩtalʊ
pɩtalʊʊ
pɩtamna
pɩtamsʋʋ
pɩtamʊna
pɩtasɩ
pɩtasɩna
pɩtasɩɩna
pɩtatalɩ
pɩtatasɩ
pɩtatɩɩ
pɩtaŋ
pɩtɔpɔzɩ
pɩtɔʊ
pɩtɛ
pɩtɛkɛ
pɩtɛma
pɩtɛmna
pɩtɛyɩ
pɩtɛzɩ
pɩtɛzɩna
pɩtɛŋ
pɩtɛɛ
pɩtɩ
pɩtɩfɛyɩ
pɩtɩna
pɩtɩnŋa
pɩtɩnɩ
pɩtɩŋ
pɩtɩŋa
pɩtɩŋaa
pɩtɩŋga
pɩtɩŋgɛ
pɩtɩŋgɩna
pɩtɩŋgʊna
pɩtɩŋna
pɩtɩŋnaa
pɩtɩŋnɛ
pɩtɩŋɛ
pɩtɩŋɩna
pɩtɩŋɩɣ
pɩtɩŋɩɣna
pɩtɩɩfɛyɩ
pɩvɛyɩ
pɩwadɩ
pɩwalɩ
pɩwasɩ
pɩwasɩɣ
pɩwayɩ
pɩwazɩ
pɩwazɩɣ
pɩwɛ
pɩwɛna
pɩwɛɛ
pɩwɛʊ
pɩwɩ
pɩwɩla
pɩwɩlɩ
pɩwɩlɩna
pɩwɩlɩɣ
pɩwɩlɩʊ
pɩwɩlʊ
pɩwɩlʊʊ
pɩwɩɣ
pɩya
pɩyaa
pɩyalaa
pɩyalʊ
pɩyalʋ
pɩyaŋ
pɩyaɣ
pɩyaʊ
pɩyele
pɩyɔ
pɩyɔɔ
pɩyɛ
pɩyɛɛrɩ
pɩyɩyaa
pɩyʊ
pɩyʊʊ
pɩyʋ
pɩyʋʋ
pɩza
pɩzaa
pɩzantɛ
pɩzatʊ
pɩzatʋ
pɩzaŋ
pɩzaɣ
pɩzɩ
pɩzɩna
pɩzɩnaa
pɩzɩtʊ
pɩzɩtʋ
pɩzɩɣ
pɩzɩɣna
pɩzɩʊ
pɩzɩʋna
pɩzʊ
pɩzʊʊ
pɩzʋʋ
pɩŋ
pɩŋŋ
pɩŋŋŋ
pɩɖaanɩ
pɩɖalɩ
pɩɖaŋ
pɩɖaɣnɩ
pɩɖɔŋ
pɩɖɔɔ
pɩɖɛ
pɩɖɛna
pɩɖɛwa
pɩɖɛɛ
pɩɖɛɛna
pɩɖɛɣna
pɩɖɛʊ
pɩɖɛʊna
pɩɖɩkɩ
pɩɖɩna
pɩɣa
pɩɣyɩyaa
pɩɣʊ
pɩɩcakɩ
pɩɩhaɣ
pɩɩkaɣ
pɩɩkɔɔ
pɩɩkɛ
pɩɩkɛna
pɩɩkɩlɩ
pɩɩla
pɩɩlaba
pɩɩlakɩ
pɩɩlɩna
pɩɩnaɣ
pɩɩpɔza
pɩɩpɔzaa
pɩɩpɩzɩɣ
pɩɩsaŋ
pɩɩtalɩɣ
pɩɩwɛ
pɩɩwɛɛ
pɩɩwɛʊ
pɩɩɖɔŋ
pɩʊ
pʊ
pʊbʊ
pʊcɔ
pʊcɔlɔ
pʊcɔʊ
pʊdɔdɩyɛ
pʊdʊ
pʊdʊnaa
pʊhɔŋ
pʊhʊlʊma
pʊkɔma
pʊkɔna
pʊkɔŋ
pʊkɔŋna
pʊkɔɔ
pʊkʊ
pʊkʊyɩ
pʊkʊʊ
pʊlɔŋ
pʊlɔɔ
pʊlʊkɩna
pʊmʊna
pʊmʊnaa
pʊmʊʊ
pʊn
pʊnɔmɔʊ
pʊnɛ
pʊpɔza
pʊpɔzʊ
pʊpɔzʊʊ
pʊpʊ
pʊrɔnzɩ
pʊsɔzɩ
pʊsɔzɩna
pʊsʊʊ
pʊtɔbʊ
pʊtɔbʊʊ
pʊtɔcɔlɩ
pʊtɔdɩyɛ
pʊtɔma
pʊtɔpɔzɩ
pʊtɔyɩ
pʊtɔɔbʊʊ
pʊtʊ
pʊtʊna
pʊtʊnaa
pʊwa
pʊwayi
pʊwayɩ
pʊwɛ
pʊwɛna
pʊwɛɛ
pʊwɛʊ
pʊwɩlɩɣ
pʊyɔ
pʊyɔɔ
pʊyʊ
pʊyʊʊ
pʊŋ
pʊɖɔ
pʊɖɔŋ
pʊɖɔɔ
pʊɖʊ
pʊɖʊkʊna
pʊɖʊwa
pʊɣa
pʊʊ
pʊʊlʊʊ
pʊʊŋ
pʋ
pʋbʋ
pʋcɔ
pʋcɔɔ
pʋdɔdɩyɛ
pʋdʋ
pʋdʋnaa
pʋkɔɔ
pʋkʋ
pʋlʋlɩ
pʋmbʋ
pʋmʋna
pʋmʋnaa
pʋn
pʋnɛ
pʋnɛyɔ
pʋnʋ
pʋpɔzʋʋ
pʋpʋ
pʋtɔbʋ
pʋtɔbʋʋ
pʋwayɩ
pʋwɛ
pʋwɛna
pʋwɛɛ
pʋwɛɛna
pʋyɔ
pʋyɔɔ
pʋyʋ
pʋyʋnaa
pʋŋ
pʋɖɔɔ
pʋɖʋzɩna
pʋʋ
q
qatar
qin
qing
qor
qu
quark
quarks
quartz
que
queen
qui
quint
quitindia
quran
r
ra
raabaa
raadiyoo
raadiyoonaa
raasɩ
rabat
rabindranath
rachmaninov
radio
radiodiffusion
radon
radot
radɔŋ
radɩyɔm
rafaeli
rafayeli
raffaello
rainbow
raison
ral
rale
ralfr
ralph
rama
rameau
ramsay
ramse
ranch
range
rap
raphae
raphael
rapport
rard
ras
rateur
rathaus
ration
rattus
rature
ravel
ray
raymond
rb
rd
rdc
re
reactions
reagan
red
redio
rege
regee
reginald
reich
reims
reize
relations
relief
rembrandt
ren
rences
rene
reniss
rennes
renoir
republic
rer
res
research
restored
retouched
revolutionibus
rez
rf
rg
rhe
rhin
ri
rian
ric
ricardo
rice
richard
ridionale
rie
riemann
right
rights
riiyoodee
rijn
riken
rimbaud
rine
ring
rio
rita
rite
river
riyo
rizmi
rn
ro
road
roald
robben
robert
roberts
robin
rochereau
rock
rodeezii
rodin
rodrigues
roger
roi
roland
roll
roma
roman
romanɩ
romanɩɩ
rome
ron
ronald
rood
room
rooma
roosevelt
rose
ross
rouen
rouge
rousseau
royal
royale
royaume
rpt
rquez
ru
rubens
rubii
ruby
rue
rugibi
rumaanii
rumanii
rumba
rupert
ruru
rushmore
rusi
rusia
rusii
ruskin
russe
russell
russi
russia
rusɩɩ
ruth
ruusi
ruusii
ruwandaa
ry
rza
rɔdɩyɔm
rɔkɩ
rɔtɩyɔm
rɔɔm
rɛnɩyɔm
rɛɛ
rɛɛsɩtɔɔnɩ
rɩkɛɛ
rɩkɛɛnaa
rʊbɩdɩyɔm
rʊpɩdɩyɔm
rʊtɛnɩyɔm
rʊtɛrfɔrdɩyɔm
rʋtɛnɩyɔm
s
sa
saa
saamɩla
saamɩɖɛ
saanayiroo
saavedra
saayʊ
sacre
safiiri
sahara
sahib
sahʊditi
sai
saint
sainte
sakaroozɩ
sakaɣ
sake
sakɩsofonɩ
sakɩyɛ
saladin
saladɩ
salaka
salala
salam
salaŋ
salif
salomon
salpe
salsa
salto
salvador
salɩpɛtrɩ
salɩvaadɔɔrɩ
sam
sama
samarɩyɔm
samaɣ
samaɣtʋma
samba
sambii
sambɛzɩ
sambɛɛzɩ
samora
samory
samos
sampan
sample
samtʊ
samtʋ
samuel
samɣ
samɩla
samɩɖɛ
san
sanfransiskoo
sankara
sanou
sanskrit
sansɩkrɩtɩ
santa
santaɖaʊ
santi
santiiyi
santimɛtana
santimɛtanaa
santimɛtɛnaa
santiniketan
santiyago
santrafriki
sanzibarɩ
sanzio
sanzɩ
sao
saoud
saphir
sapiens
sapɔŋ
sar
sara
sarah
sarakawaɣ
sartre
sateliiti
satellite
satirini
sativa
saturn
saturne
satyagraha
satyajit
sava
savanes
savstarpe
savu
saxe
saxon
saya
sayaa
sayiiri
sayiri
sayʊ
sayʋ
saŋ
saŋayɩŋ
saŋgayɩŋ
saɣ
saɣtʋ
saɣyʊ
saɣyʋ
saɣʊ
saɣʋ
saɣʋʋ
saʊ
saʊʊ
saʋ
saʋʋ
sb
sc
scene
schaller
scheele
schelling
schleswig
scho
school
schopenhauer
schubert
schumann
schwerionenforschung
science
sciences
scott
scriabin
scriabine
sculpere
sculpture
sdn
se
sea
seaborg
seattle
sebastian
see
seelandɩ
seerɔɔm
seine
sekou
sel
selasi
self
seller
seluu
sem
sen
seneegaalɩ
senegaalɩ
senegali
senegalɩ
senghor
sentɩmɛta
ser
serengeti
serge
serguei
service
ses
set
seu
sewuli
sewuuli
seya
seydou
seɣ
seɣa
seɣti
seɣtiyaa
seɣtiyaɣ
seɣtuu
sg
sh
sha
shakespeare
shandong
shanghai
shell
shi
shinto
shona
shu
si
siba
siberii
sida
sidaa
sident
sidi
sidinee
sidu
siduu
sie
siemens
sigmund
sign
signature
siidaa
siili
siilii
siimi
siimii
siini
siipitɛɛrɩ
siiri
siirii
siitruwii
siiye
siiŋ
siiɣu
sika
sikaagoo
sikh
sikhs
siki
sikiri
sikiɖi
sikolozii
sil
silicium
silii
silikatɩ
silimaɣ
silisi
silisiyɔɔm
siloovaakii
siloveni
silver
sim
sima
simaɣ
simbaabuwee
simbabwee
simo
simon
simone
sinai
sinan
sinatra
sinema
sinensis
singer
singh
sini
sinii
sinimaɣ
sino
sio
sipɔɔrɩ
sir
sirleaf
sis
sise
sisili
sitatisitiki
site
sites
siu
siukpelasi
siuu
siwolo
siyeeraa
siyeki
siyeraa
size
sizika
siziŋ
siŋ
siŋŋ
siŋŋŋ
siɣ
siɣaa
siɣlɛŋgbɛm
siɣsiɣ
siɣu
siɣuu
siɣye
ska
skandinavii
ski
skinner
sklodowska
skɩyɛ
slave
sm
small
smaragdus
sme
smith
smyth
sn
so
social
socie
society
socrate
sodiyɔm
sofia
sokode
sol
soldiers
soleil
solo
solutre
somboɖe
somtu
son
sona
sonaa
song
sonora
sontsovka
sonzo
sonzoo
soo
sooci
soojaa
soomaali
soowa
sophia
sophie
sophocle
sopotamie
sorbonne
sosa
sotu
sotubɔɔ
souabe
souk
soul
souleymane
source
sous
south
southern
soviyetiki
soyinka
soŋaɣ
soŋga
soŋgaɣ
soɖabi
speakers
spectre
spencer
spielberg
spinoza
spɔɖɛ
square
sri
sriilanka
st
stack
stadium
stained
staline
stanley
starp
state
states
station
statistiques
statue
status
stavropol
stenbrohult
stephen
steti
steve
steven
stevens
stewart
stockholm
stonehenge
strabon
strasbourg
stratford
strauss
stravinski
stravinsky
street
stridon
structure
strɔntɩyɔm
stuart
study
style
stɔkhɔlm
su
sudaanɩ
sudan
suez
sui
suite
sukili
sukilinaa
sukuli
sukulina
sukulinaa
sukuliwɩlʋʋ
sukulɩ
sultats
sulukiŋ
suluku
sulukuŋ
suluu
sumaka
sumasi
sumasɩ
sumaɣ
sumer
summit
sun
sunset
sur
surface
survey
sus
susi
susina
susiyaa
susuu
susɔ
suu
suudaanɩ
suudanɩ
suudaŋ
suuluu
suuna
suuye
suwahilii
suwazilandɩ
suwe
suwiisi
suwisi
suye
suyɛdɩ
suzuu
suŋ
suɛz
sves
svg
swaraj
sydney
sylla
sylvanus
symphony
syracuse
syria
system
sɔ
sɔdɩyɔm
sɔdɩŋ
sɔdʊ
sɔdʊʊ
sɔgɔɖɛyɩ
sɔka
sɔlɩm
sɔndʊ
sɔndʊʊ
sɔnzɩ
sɔnɔ
sɔnɔdaa
sɔsa
sɔsaa
sɔsaɣ
sɔsaɣa
sɔsɔ
sɔsɔa
sɔsɔm
sɔsɔna
sɔsɔnaa
sɔsɔsɩ
sɔsɔtʊ
sɔsɔtʋ
sɔsɔwa
sɔsɔyɛ
sɔsɔŋ
sɔsɔɔ
sɔsɔɖɛ
sɔsɔɣa
sɔsɔʊ
sɔsɔʋ
sɔsʋʋ
sɔtʊ
sɔyɩyʊ
sɔyʊ
sɔzɩ
sɔzɩŋ
sɔzʊʊ
sɔzʋʋ
sɔŋ
sɔŋaɣ
sɔŋgaɣ
sɔŋgɔɔ
sɔŋzɩ
sɔɔ
sɔɔja
sɔɔjana
sɔɔjanaa
sɔɔjatʊ
sɔɔjatʋ
sɔɔjɔnaa
sɔɔjɛtʊ
sɔɔjɛɛtʊ
sɔɔla
sɔɔlaa
sɔɔlɩ
sɔɔlɩm
sɔɔlɩyaa
sɔɔlɩɣ
sɔɔlʊ
sɔɔlʊʊ
sɔɔlʋʋ
sɔɔndʊ
sɔɔndʋ
sɔɔsɔɔ
sɔɔyɛ
sɔʊ
sɔʊʊ
sɔʋ
sɛ
sɛkɩsiizim
sɛlɩnɩyɔm
sɛlɩtɩ
sɛmɩŋ
sɛmʊʊ
sɛmʋʋ
sɛndɛɛlɩ
sɛndʊ
sɛnkɩ
sɛnɔɔ
sɛrbii
sɛrɩyɔm
sɛtʊ
sɛtʊʊ
sɛtʋ
sɛwa
sɛyaa
sɛyɛ
sɛyɩ
sɛyɩnaa
sɛyʊ
sɛzɩyɔm
sɛzʊʊ
sɛŋ
sɛŋgapuuri
sɛŋgɛlɩtʊ
sɛŋkɩ
sɛɛ
sɛɛmɩ
sɛʊ
sɛʊʊ
sɛʋ
sɩ
sɩba
sɩbɔrgɩyɔm
sɩbɩna
sɩbʊ
sɩcaɣ
sɩfɛyɩ
sɩgaa
sɩka
sɩkaanaa
sɩkandɩnafɩ
sɩkandɩnavɩ
sɩkandɩyɔm
sɩkpɛnda
sɩkpɛndɩ
sɩkɛ
sɩkɛna
sɩkɩ
sɩkɩla
sɩkɩlɩ
sɩkɩsmɩ
sɩlaba
sɩlakɩ
sɩlavɩ
sɩlɩna
sɩlɩsɩyɔm
sɩlɩwa
sɩlɩɣ
sɩlɩɣna
sɩm
sɩma
sɩmna
sɩmnaʊ
sɩmtʊ
sɩmtʋ
sɩmɩ
sɩn
sɩna
sɩnayʊ
sɩnaʊ
sɩnaʋ
sɩnda
sɩnuwa
sɩnɖaa
sɩnɖʊ
sɩnɖʋ
sɩnɛ
sɩnɩma
sɩnɩyaa
sɩnɩyʊ
sɩpaanaa
sɩpɔɔrɩ
sɩpɩlɩ
sɩpɩsɩ
sɩpɩzɩ
sɩpɩzɩɣ
sɩrkɔnɩyɔm
sɩrɩkɔnɩyɔm
sɩse
sɩsɩ
sɩtakɩlɩ
sɩtala
sɩtalɩ
sɩtalɩɣ
sɩtɔkɩ
sɩtɛ
sɩtɛma
sɩtɩna
sɩtɩŋga
sɩwaa
sɩwɛ
sɩwɛna
sɩwɛɛ
sɩwɛɛna
sɩwɛʋ
sɩyansɩ
sɩyansɩtʋ
sɩyansɩwaa
sɩyɔlʊʊ
sɩyɔɔdʊʊ
sɩyɩnaa
sɩze
sɩzɩ
sɩŋ
sɩŋgʊ
sɩŋna
sɩŋnana
sɩŋŋ
sɩŋŋŋ
sɩɖaa
sɩɖɔ
sɩɖɔɔ
sɩɖɛ
sɩɖɛwa
sɩɖʊ
sɩɖʋ
sɩɣ
sɩɣa
sɩɣgbelasɩ
sɩɣkpelaɣ
sɩɣlɩyaa
sɩɣlɩyʊ
sɩɣlʋʋ
sɩɣna
sɩɣʊ
sɩɩ
sɩɩna
sɩɩnaa
sɩʊ
sɩʊkpelaɣ
sɩʊkpelesi
sɩʊʊ
sɩʋ
sɩʋkpelaɣ
sʊ
sʊa
sʊfɩrɩ
sʊfʊrɩ
sʊlɩfɩrɩ
sʊlɩfʊrɩ
sʊlʊm
sʊmasɩ
sʊmaɣ
sʊna
sʊnaʊ
sʊndʊ
sʊsa
sʊsaa
sʊsɔ
sʊsɔna
sʊsɔtʊ
sʊsɔʊ
sʊtʊ
sʊtʊyʊ
sʊyɛdɩ
sʊzɔtʊ
sʊzʊʊ
sʊŋga
sʊŋgaɣ
sʊʊ
sʊʊtʊ
sʋ
sʋlʋm
sʋsaa
sʋsaɣ
sʋsɔ
sʋsɔm
sʋsɔna
sʋsɔsɩ
sʋsɔtʋ
sʋsɔyɛ
sʋsɔŋ
sʋsɔʋ
sʋtʋ
sʋyɛdɩ
sʋzʋʋ
sʋʋ
sʋʋtʋ
t
ta
taa
taaa
taabala
taabalaa
taabalɩyɛ
taabalʊ
taabalʋ
taabɩlɩ
taafɛyɩ
taafɛyɩna
taajuraa
taakaa
taakarɩ
taakpaɣ
taakɛ
taakɩlɩ
taalayi
taaleleŋ
taalɛ
taalɩyɔm
taaniibi
taasɔɔlɩ
taataa
taataanaa
taatɩlɩ
taawɛ
taawɛna
taawɛɛ
taayii
taba
tabala
tabalaa
tabalɩyɛ
tabalʊ
tabare
tableimage
tabu
tabɩlɩ
tace
tada
tadasɩ
tadɩyɛ
tafari
tafɛyɩ
tagore
tai
tain
taisho
taiye
tajikistanii
taka
takarɩ
takayaasɩ
takayasɩ
takayaɣ
takayaɣsɩ
takayɛsɩ
takayɩ
takayɩhatʊ
takayɩhatʋ
takayɩhayʊʊ
takayɩhayʋʋ
takayɩsɩ
taken
takota
takotaa
takpaɣ
takɩ
takɩlɩ
takɩm
takɩyʊ
takɩŋ
takɩɣ
takʊ
takʊʊ
takʋʋ
tala
talaa
talɩ
talɩna
talɩɣ
talɩʊ
talɩʋ
talʊ
talʊʊ
talʋʋ
tam
tama
tamasɩ
tamaɣ
tambasɩ
tambaɖɛ
tambaɣ
tamerlan
tamna
tampɔɔ
tamsɩna
tamsɩnaʊ
tamsɩnaʋ
tamsʊʊ
tamtʊ
tana
tanandɛɛ
tanaŋ
tanaʊ
tanaʋ
tandaʋ
tandɩŋ
tandʊʊ
tanemarɩkɩ
tanganyika
tanimarikɩ
tank
tantalɩ
tantamtʊ
tanzaani
tanzaanii
tanzani
tanzanii
tanɩm
tanɩmarkɩ
tanɩmarɩkɩ
tanɩɩ
tao
taoi
tapazɩ
tapaŋgʊ
tapaɣlɩ
taphysique
tapɩzɩ
tara
taragay
tarnovo
tarɛsalam
tarɛsɩ
tas
tasɩ
tasɩmda
tasɩna
tasɩya
tasɩyaa
tasɩyʊ
tasɩɣ
tasɩɩna
tasʊ
tasʊʊ
tasʋʋ
tata
tataa
tatalɩ
tatasɩ
tataɖɛ
tataɣ
tatɩlɩ
tatɩɩ
taux
tawalɩ
tayaa
tayi
tayilandi
tayilandɩ
tayiwanɩ
tayɩ
tayɩlandɩ
tayɩwanɩ
tayʊ
tayʋ
tazɩyaa
tazɩɣ
tazʊʊ
tazʋʋ
taŋ
taŋga
taŋgalam
taŋgayɩ
taɖɩyɛ
taɣ
taɣna
taɣtʊ
taɣʋʋ
taʊ
taʋ
tchai
tchekhov
tchi
te
tea
teaching
teekiree
teeli
teeraŋ
teeth
teevenim
teeyizim
teke
tel
televisiyɔɔ
televiziyɔ
televiziyɔɔ
teliŋ
teluu
teluuri
tem
temokraasii
temokrasii
tempe
temple
tendue
tenesii
tengu
teniisi
tennant
tennessee
tenno
tenzin
teresa
tereziya
teritorija
terrab
terraces
terre
territorial
tersbourg
tes
tesorusi
tetisi
tetʊ
teu
teuu
tewu
teya
teyaa
teyu
teyʊ
teŋgu
teŋgunaa
teŋguu
teŋgʊ
teŋgʊnaa
teŋgʊʊ
teŋu
teŋunaa
teŋʊ
teɖe
tg
th
thai
that
thatcher
the
theatre
theodor
theodore
theresa
thiam
thique
this
thode
thomas
thompson
three
thucydide
thumb
thumbnail
thuringe
ti
tiba
tibe
tibet
tibetɛɛ
tibu
tibɛtii
ticiidiɣ
tidjane
tie
tiek
tienne
ties
tigiɖe
tigre
tii
tiibaa
tiibeti
tiiyaa
tiiye
tiiyoo
tiiyu
tikai
tikaɣ
tiken
tiki
tikila
tikiŋ
tikiɖe
tikrit
tiku
tikuu
tilali
tilima
tilimiye
tilitu
tiliuu
tilu
tiluu
tim
timbaalɩ
timour
timur
tin
tina
tindima
tindime
tindimiye
tinozɔɔrɩ
tinozɔɔrɩnaa
tiposina
tique
tiques
tisa
tisaa
tisi
tisim
tisiɣ
tisme
tisu
tisuu
titan
titiɖe
tiyaa
tiyamaɣ
tiyeba
tiyebina
tiyeki
tiyekina
tiyele
tiyi
tiyina
tiyiyaa
tiyiyu
tiyɔkɩsidi
tiyɔkɩsididekarbɔnɩ
tiŋga
tiɖeke
tiɣye
to
tobi
tobiyasi
toboyuu
todoma
toggle
togo
tokaɣ
tokiyo
toko
tokonaa
tokugawa
tokyo
tolstoi
tolui
tom
toma
tombaugh
tombiye
tomiye
tomna
tomnasi
tomnasɩ
tomnaɣ
toni
toofanwaa
toofɛnɩ
toota
toovenim
toovenum
toovonim
toovonum
topaazɩ
topaz
torah
tormes
tornado
toronto
torun
tos
toscane
toumani
tour
toure
tovenim
tovonum
tower
town
toyi
tozo
tp
tr
tra
trade
trailer
train
traore
trappiste
travers
tre
trie
triipoolii
trinidad
triple
tripoli
troit
troyens
truman
trump
ts
tsar
tseu
tsigane
tsunami
ttingen
tu
tuda
tuduwa
tuli
tuluu
tuniizii
tunis
tunisi
turc
turiki
turikii
turing
turki
turkii
tutsiwaa
tutu
tuu
tuublɛɛ
tuuji
tuurkii
tuutu
tuuye
tuuɖe
tuwa
tuwala
tuzuu
tuŋ
tv
twain
twelve
twitter
tɔ
tɔbɩŋ
tɔbʊ
tɔbʊʊ
tɔbʋ
tɔbʋʋ
tɔcɔɔ
tɔkaɣ
tɔkɩ
tɔla
tɔlaa
tɔlɔma
tɔlɩ
tɔlɩm
tɔlʊm
tɔlʊʊ
tɔlʋʋ
tɔm
tɔma
tɔmbe
tɔmbiye
tɔmhʋyʋ
tɔmloyaɣ
tɔmn
tɔmna
tɔmnasɩ
tɔmnaɣ
tɔmpe
tɔmpee
tɔmpiye
tɔmɩyɛ
tɔmɩŋ
tɔmʊʊ
tɔna
tɔnasɩ
tɔnaɣ
tɔndʊ
tɔnkɩsɩtɛnɩ
tɔnɛ
tɔnɩ
tɔnɩŋ
tɔnʊ
tɔnʊʊ
tɔnʋʋ
tɔrɩyɔm
tɔsɔɔlɩ
tɔsɩ
tɔsɩŋ
tɔsʊ
tɔsʊʊ
tɔsʋ
tɔsʋʋ
tɔtɔyɩ
tɔtʊ
tɔtʋ
tɔya
tɔyaa
tɔyɩ
tɔyɩtʋʋ
tɔyʊ
tɔyʊʊ
tɔyʋʋ
tɔzɩ
tɔzʊʊ
tɔzʋʋ
tɔŋ
tɔŋkɩsɩtɛnɩ
tɔŋna
tɔɔ
tɔɔbʊʊ
tɔɔla
tɔɔlaa
tɔɔlaarɩ
tɔɔlaarɩnaa
tɔɔlʋʋ
tɔɔna
tɔɔnaasɩ
tɔɔnasɩ
tɔɔnaɣ
tɔɔnɩ
tɔɔnɩnaa
tɔɔya
tɔɔyaa
tɔɔyɩŋ
tɔɔyʊʊ
tɔɔyʋ
tɔɔyʋʋ
tɔɔʊ
tɔɔʋ
tɔɖɔɔ
tɔʊ
tɔʊʊ
tɔʋ
tɔʋʋ
tɛ
tɛbɩyɛ
tɛkpɛndɩ
tɛkɛ
tɛkɛna
tɛkɩnɛsɩyɔm
tɛkɩzasɩ
tɛlawɛɛrɩ
tɛlɛm
tɛlɛnzɩ
tɛlɛŋa
tɛlɛŋga
tɛm
tɛma
tɛmm
tɛmna
tɛmtʊ
tɛndɛyɛm
tɛndɛŋa
tɛndɛŋga
tɛnɖɛ
tɛrɩbɩyɔm
tɛsoŋgiye
tɛtaa
tɛtɛ
tɛtɛkpɩna
tɛtɛkpɩnɛ
tɛtɛɛ
tɛtɛɛmɩŋ
tɛtɛɛn
tɛtʊ
tɛtʋ
tɛtʋbiya
tɛtʋbɩɣa
tɛyɛ
tɛyɩ
tɛyɩna
tɛyɩtʊ
tɛyɩtʋ
tɛyɩŋ
tɛyɩɣ
tɛyʊ
tɛyʊʊ
tɛyʋʋ
tɛzɩ
tɛzɩna
tɛzɩyʊ
tɛzɩyʋ
tɛzɩɣ
tɛzɩʊ
tɛzʊʊ
tɛŋ
tɛŋtɛŋga
tɛɛ
tɛɛtʊ
tɛɛʊ
tɛʈʊ
tɛʊ
tɛʋ
tɩ
tɩcaɣ
tɩcɔ
tɩcɔʊ
tɩfɛyɩ
tɩfɛyɩna
tɩgbayɩŋ
tɩgbayʊ
tɩha
tɩhaɣ
tɩhɔŋ
tɩkpa
tɩkpayɩŋ
tɩkpayʋ
tɩkpɛnda
tɩkpɛndaa
tɩkpɛndɩ
tɩkpɛndɩna
tɩkɔna
tɩkɛ
tɩkɛna
tɩkɛŋna
tɩkɩla
tɩkɩlɩ
tɩkɩlɩna
tɩla
tɩlaa
tɩlaba
tɩlakɩ
tɩlakɩna
tɩlasɩ
tɩlɩ
tɩlɩna
tɩlɩta
tɩlɩtʊ
tɩlɩtʋ
tɩlɩwa
tɩlɩya
tɩlɩyaa
tɩlɩyɛ
tɩlɩyʊ
tɩlɩɣ
tɩlɩɩ
tɩlɩʊ
tɩlɩʋ
tɩlʊʊ
tɩlʋʋ
tɩm
tɩma
tɩmaatɩ
tɩmatɩ
tɩmɩŋ
tɩmʊ
tɩmʊʊ
tɩn
tɩna
tɩnaa
tɩnaɣ
tɩnzɩ
tɩnɛ
tɩnɩʊ
tɩnʊʊ
tɩpaɣlʊ
tɩpaɣzɩna
tɩpɩsɩ
tɩpɩsɩna
tɩpɩzɩɣ
tɩrɛzɩyɛɛnɩ
tɩsɩ
tɩsɩna
tɩsɩprɔsɩyɔm
tɩsɩŋna
tɩta
tɩtaa
tɩtakɩlɩ
tɩtala
tɩtalɩ
tɩtalʊʊ
tɩtanɩ
tɩtanɩyɔm
tɩtaŋ
tɩtaɣ
tɩtɛ
tɩtɛkɛ
tɩtɛma
tɩtɛŋ
tɩtɩŋa
tɩtɩŋga
tɩtɩŋgɛ
tɩtɩŋɛ
tɩwaa
tɩwalanzɩ
tɩwalʊʊ
tɩwayɩ
tɩwazaɣ
tɩwɛ
tɩwɛna
tɩwɛɛ
tɩwɛɛna
tɩwɛʊ
tɩwɩlɩ
tɩwɩlɩɣ
tɩwɩlʊ
tɩya
tɩyaa
tɩyamaɣ
tɩyɔ
tɩyɔŋ
tɩyɔɔ
tɩyɔɔdʊʊ
tɩyɔɔwɛʋ
tɩyɛ
tɩyɩ
tɩyɩna
tɩyɩnga
tɩyɩnzɩ
tɩyɩŋga
tɩzʊʊ
tɩŋ
tɩŋa
tɩŋga
tɩŋgaɣyʋ
tɩŋgɛ
tɩŋgɩna
tɩŋgɩnaʊ
tɩŋgɩya
tɩŋgɩɣ
tɩŋgɩɣna
tɩŋgʊ
tɩŋgʊna
tɩŋgʊʊna
tɩŋkɛ
tɩŋna
tɩŋnaa
tɩŋnɛ
tɩŋɛ
tɩŋɩ
tɩŋɩna
tɩŋɩyaa
tɩŋɩɣna
tɩŋʊna
tɩŋʊʊ
tɩɖɔŋ
tɩɖɔɔ
tɩɖɛwa
tɩɖɛɛ
tɩɖʊ
tɩɩ
tɩɩkɛ
tɩɩkɩlɩ
tɩɩlaba
tɩɩnzɩ
tɩɩwɛ
tɩɩwɛɛ
tɩɩŋa
tɩɩŋga
tɩʊ
tɩʋ
tʊ
tʊbʊʊ
tʊkasɩ
tʊkaɣ
tʊlɩ
tʊlɩna
tʊlɩyɔm
tʊlʊ
tʊlʊʊ
tʊm
tʊma
tʊmaa
tʊmlaɖaa
tʊmlaɖʊ
tʊmɩyɛ
tʊnɛ
tʊnɛyɔ
tʊsʊʊ
tʊtʊ
tʊzɩtʊ
tʊzɩyɛ
tʊzʊʊ
tʊŋ
tʊɣʊʊ
tʊʊ
tʊʊtʊsɩ
tʊʊzɩyɛ
tʊʊzʊʊ
tʋ
tʋkaɣ
tʋlɩ
tʋm
tʋma
tʋmlaɖaa
tʋmlaɖʋ
tʋmɩyɛ
tʋndʋ
tʋnɛ
tʋtʋ
tʋŋ
tʋɖʋɖʋ
tʋʋ
tʋʋzʋnaʋ
tʋʋzʋʋ
tʋʋʋ
u
ua
ubaŋgi
ue
uemoa
uganda
ugandaa
uicpa
uk
ukirɛɛnɩ
ukrɛɛnɩ
ukurɛnɩ
um
un
una
und
une
unesco
uni
unicef
unii
union
unis
united
universite
university
up
upper
uppsala
upright
uranisi
uranus
urbain
urbino
urdu
urduu
urisi
urss
uruguwe
us
usa
usayn
used
usgs
ut
utaa
utc
uttar
uzibekistanɩ
v
va
vai
vaira
valbonnais
valentin
valkyries
vallery
valley
van
var
vasco
vassili
vassilievitch
vatican
vauquelin
ve
veda
vegas
vela
velas
veliko
venezuela
venice
venise
vent
venus
verdi
verdun
vernon
vers
versaille
verson
ves
vi
via
vicente
victor
victoria
vie
vieira
viena
vienme
vienne
viens
view
vignette
vih
vii
viii
viktor
vila
village
ville
vin
vincent
vinci
virgile
virginie
virus
visbiez
vishnu
vision
vista
visva
vitis
vivaldi
vivant
vladimir
vladimirovitch
volt
voltaire
volution
vom
von
voodu
vosges
voyager
vp
vre
vs
vue
vulgare
vy
w
wa
waa
waaa
waagasɩ
waasɩ
waaɣ
wabɩna
wabɩtʊ
wad
wadaɣ
wade
wadɩ
wadɩɣ
wadʊ
wagaadugu
wagner
wakɩ
wala
walaa
walanzɩ
walker
wall
walnzɩ
walt
walter
walther
walɩ
walɩtʊ
walɩɣ
walʊ
walʊʊ
walʋ
walʋʋ
wandam
wandamm
war
warhol
was
washington
wassy
wasɩŋtɔŋ
wasɩɣ
wat
water
watermelon
watson
watt
watzelrode
wave
wayi
wayoomɩŋ
wayɩ
waza
wazasɩ
wazaɣ
wazɩ
wazɩɣ
wazʊ
wazʊʊ
wazʋʋ
waɖaa
waɖɛ
waɖʊ
waɖʋ
waɣ
waɣsɩ
waɩ
we
web
weber
wedding
weewe
weewee
weimar
welesuu
wellcome
welles
welsbach
weluu
wemba
wembu
wena
wenaa
wendu
wenge
wenɖi
werrason
wesley
west
westminster
weyi
weyɩ
weziŋ
wezu
wezuu
weŋga
weŋgalaɣ
weŋgalɩyʊ
weŋgu
whatsapp
white
wi
wien
wilaŋ
wilaʋ
wilcox
wild
wilhelm
wili
wilitu
wiliu
wiliŋ
wiliɣ
willem
william
williams
willow
wilson
wilu
wiluu
wilɩyʊ
windɔkɩ
wine
winkler
winston
winter
wisconsin
wisi
wisikii
wiskɔnsɛɛ
wissi
wisɩ
with
witu
wiu
wiyao
wiyau
wiyaʊ
wiyaʋ
wiye
wizuu
wiɖi
wiɖii
wiɖiye
wiɖiyi
wo
woba
wobina
wobinaʋ
wobitu
wobiyaa
wobo
wobu
wobunaʊ
wobuu
wobʊ
wokaɣ
woki
wokina
wole
wolfgang
wollaston
wolo
woman
women
wona
wonaʋ
wondu
wondunaa
wonduu
wondʊ
wondʊʊ
wonu
wonuu
wood
word
work
world
woŋga
woɖa
woɖaa
woɖe
woɖu
wp
wright
wuɖu
wuɖuwuɖu
www
wyclif
wyoming
wɛ
wɛlɛsɩ
wɛna
wɛnaʊ
wɛnaʋ
wɛnɩ
wɛtʊ
wɛtʋ
wɛu
wɛŋna
wɛɖɔyɛ
wɛɖɩɣ
wɛɖʊ
wɛɖʊʊ
wɛɖʋ
wɛɖʋʋ
wɛɛ
wɛɛkɩ
wɛɛkɩtʊ
wɛɛkɩɣ
wɛɛkʊ
wɛɛkʋʋ
wɛɛna
wɛɣ
wɛɣna
wɛɣɛ
wɛʊ
wɛʊna
wɛʊʊ
wɛʋ
wɩla
wɩlaɣ
wɩlɩ
wɩlɩna
wɩlɩtʊ
wɩlɩtʋ
wɩlɩya
wɩlɩyaa
wɩlɩyʊ
wɩlɩyʋ
wɩlɩŋ
wɩlɩɣ
wɩlɩɣna
wɩlɩʊ
wɩlɩʋ
wɩlʊ
wɩlʊʊ
wɩlʋʋ
wɩlʋʋtakayaɣ
wɩlʋʋtindima
wɩlʋʋtindimiye
wɩsɩ
wɩsɩɖɩɖʊyɛ
wɩsɩɖɩɖʋyɛ
wɩsɩɖʋɖʋyɛ
wɩyaʊ
wɩzasɩ
wɩɣ
wɩɩ
x
xavier
xe
xi
xiaoping
xii
xiii
xiv
xix
xv
xvi
xvii
xviii
xx
xxi
y
ya
yaa
yaawe
yaba
yabɩtʊ
yabʊ
yabʋ
yahoo
yakubu
yakɩ
yala
yalaa
yale
yam
yambɔyɩŋ
yamusokro
yana
yang
yangzi
yannick
yasʊʊ
yatʊ
yatʋ
yawaɣ
yawunde
yayaa
yayi
yayʊ
yaŋ
yaɖaa
yaɖɛ
yaɖʊ
yaɖʋ
yaɣ
yaɣna
yaʊ
yaʊʊ
yaʋ
yaʋʋ
ye
yea
yeba
yebina
yebu
yee
yeee
yeesu
yeesuu
yeesʊ
yeke
yeki
yekina
yele
yeli
yellow
yem
yemenii
yendu
yerusalɛm
yeruzalɛm
yes
yesu
yesuu
yi
yiduu
yiiduu
yo
yoga
yogaa
yohanɛsɩ
yohanɛɛsɩ
yoka
yolim
yolum
yoluu
yom
yoma
yomaa
yomiye
yomtu
yongle
york
yotu
you
youlaɖaa
young
youssou
youtube
yowanɛsɩbuuri
yoya
yoyaa
yoyu
yozuu
yoŋ
yoŋkaʋkaɣʋ
ytterbite
ytterby
yttria
yu
yuan
yuda
yudaa
yulee
yuleee
yunnan
yurubawaa
yuu
yuuda
yuudaayism
yuudayism
yuulee
yuuɖa
yuuɖaa
yuŋ
yuɖa
yves
yɔ
yɔbɩ
yɔkɩ
yɔkʊʊ
yɔlɩtʊ
yɔlʊʊ
yɔrdaŋ
yɔrkɩ
yɔrɩkɩ
yɔsɔ
yɔɔ
yɔɔda
yɔɔdaa
yɔɔdasɩ
yɔɔdasɩɩ
yɔɔdaɣ
yɔɔdɔɔ
yɔɔdɔɔsɩ
yɔɔdɔɣ
yɔɔdɩ
yɔɔdɩna
yɔɔdɩnaʊ
yɔɔdɩnaʋ
yɔɔdɩtʊ
yɔɔdɩyaa
yɔɔdɩyʊ
yɔɔdɩɣ
yɔɔdʊ
yɔɔdʊtʊ
yɔɔdʊʊ
yɔɔdʋʋ
yɔɔlɩɩ
yɔɔlʊʊ
yɔɔɔ
yɛ
yɛkɛlɩnayʊ
yɛlɩnaʊ
yɛlɩɣ
yɛlʊʊ
yɛɖɛ
yɛɖɛyɛɖɛ
yɛɛ
yɩ
yʊ
yʊlʊm
yʊlʊma
yʊlʊmaa
yʊlʊnzɩ
yʊrʊba
yʊsaɣ
yʊsɩyʊ
yʊsʊʊ
yʊŋ
yʊʊ
yʊʊʊ
yʋsaɣ
yʋsʋyaa
yʋsʋyʋ
z
zaayiiri
zai
zaiko
zambia
zara
zarathoustra
zarathushtra
ze
zedong
zeenɛɛvɩ
zeneralɩ
zerdest
zhao
zheng
zi
ziido
zimbabwe
zmapp
zn
zoroastre
zoulou
zquez
zu
zum
zurich
zɔɔrdaanii
zɔɔrzii
zɔɔrziyaa
zɛrɩmanɩyɔm
zɛŋkɩ
zɩ
zɩŋkɩ
|
«
°
²
³
´
µ
º
»
×
ð
ŋ
ŋbgɛyɛ
ŋcɔna
ŋcɔnaa
ŋdɩ
ŋdʊ
ŋg
ŋga
ŋgaa
ŋgandɩyɛ
ŋgba
ŋgbam
ŋgbanɛ
ŋgbaŋ
ŋgbaɣ
ŋgbaʊ
ŋgbɛ
ŋgbɛyɛ
ŋgbɛɛ
ŋgbɛɣɛ
ŋgilisi
ŋgɔɔ
ŋgʊ
ŋgʊlɛ
ŋgʊʊ
ŋgʋ
ŋgʋʋ
ŋkalɩɣ
ŋkpa
ŋkpaɣ
ŋkɔɔ
ŋkɛ
ŋkʊ
ŋkʋ
ŋlɩzɩ
ŋma
ŋn
ŋna
ŋnaɣ
ŋngʊ
ŋnɔɔ
ŋnɩɩ
ŋsɩma
ŋsɩɩna
ŋtala
ŋtalɩ
ŋtɔlɩ
ŋvɛɛ
ŋwolo
ŋwɛcɩ
ŋɖɛɛ
ŋɖɩ
ŋɛ
ŋɣʊ
ƒ
ƞ
ƞgbɛyɛ
ɑ
ɔ
ɔcɔŋnana
ɔkɔyɩna
ɔkɩ
ɔkɩsizɛnɩ
ɔkɩsɩdɩ
ɔkɩsɩzɛnɩ
ɔlɩ
ɔlʋʋ
ɔm
ɔmɩŋ
ɔn
ɔna
ɔndɩnaa
ɔndʊ
ɔndʊtʊ
ɔndʋtʋ
ɔntɩnaa
ɔntʊtʊ
ɔrgɩ
ɔrɩgɩ
ɔsɔzɩ
ɔsɔɔlɩ
ɔsɩ
ɔsɩloo
ɔsɩmɩyɔm
ɔsɩtiki
ɔtɔma
ɔtɔŋ
ɔtɩ
ɔtɩna
ɔtɩnaʊ
ɔtʋʋ
ɔwa
ɔyaɣ
ɔyɔɔdaa
ɔyɔɔdʊʊ
ɔyɛ
ɔza
ɔzɩ
ɔzɩna
ɔzʋʋ
ɔŋ
ɔɔ
ɔɔlɩ
ɔɔrɩ
ɔɔrɩdɩnatɛɛrɩ
ɔɔsɩ
ɔɔza
ɔɔzɩ
ɔɔzɩna
ɔɔzʊ
ɔɔzʊʊ
ɔɔzʋʋ
ɔɔzʋʋyɔɔkpaʋnɛtibu
ɔɔɔ
ɔɖɔkɩ
ɔɖɔŋ
ɔʊ
ɔʊʊ
ɔʋ
ɖ
ɖa
ɖaa
ɖaalakɩŋ
ɖaalʊ
ɖaalʊʊ
ɖacaa
ɖagʋʋlɩwa
ɖahʊma
ɖahʋma
ɖajaa
ɖajaacharles
ɖajaanaa
ɖajanaa
ɖakpaɣ
ɖakʊta
ɖakʊtanaa
ɖakʋta
ɖala
ɖalaa
ɖalakɩŋ
ɖalɩ
ɖalɩɣ
ɖalʊ
ɖalʊʊ
ɖalʋ
ɖam
ɖama
ɖamaa
ɖamadaasʋʋnɛlɩʋ
ɖamakɩɩnɩnaʋ
ɖamanɩnaʋ
ɖamanɩnaʋcɔɔlʋʋ
ɖamayɔɔdɩnaʋ
ɖamɩŋ
ɖanasɩ
ɖanaɣ
ɖanɩ
ɖanɩɣ
ɖanʊʊ
ɖasɩ
ɖatʊ
ɖaŋ
ɖaŋgʊ
ɖaŋɩ
ɖaɣ
ɖaɣla
ɖaɣlaa
ɖaɣlakɩŋ
ɖaɣlɩtʋ
ɖaɣlʊʊ
ɖaɣlʋʋ
ɖaɣna
ɖaɣnɩ
ɖaɣnɩɣ
ɖaɣnʊʊ
ɖaɣnʋʋ
ɖaʊ
ɖaʋ
ɖe
ɖeeɖe
ɖeeɣa
ɖei
ɖeke
ɖekɛ
ɖenɖe
ɖeu
ɖeyi
ɖeyiɖeyi
ɖeɖe
ɖeɣa
ɖeʊ
ɖi
ɖihiɣ
ɖihuyiye
ɖikpaɣ
ɖilɩyɛ
ɖinaɣ
ɖinɛ
ɖise
ɖiu
ɖiuu
ɖiuɖiu
ɖiwɛ
ɖiya
ɖiyaɣ
ɖiyaɣna
ɖiyeke
ɖiyeki
ɖiyele
ɖiyiyu
ɖiyiɣ
ɖiyiɣna
ɖiyuu
ɖiziyaa
ɖiziye
ɖiɖeɖe
ɖiɣ
ɖiɣɖiɣ
ɖiɣɖiɣcaɣʋ
ɖo
ɖoho
ɖoli
ɖolu
ɖoluu
ɖom
ɖoma
ɖomaa
ɖomaɣ
ɖomba
ɖombe
ɖombiye
ɖompe
ɖomuu
ɖoo
ɖoonaa
ɖooo
ɖooye
ɖoozi
ɖou
ɖoye
ɖoyo
ɖoza
ɖozi
ɖoziye
ɖozɩ
ɖoŋ
ɖoŋaɣ
ɖoŋgaɣ
ɖoŋgiye
ɖoŋiye
ɖoŋɖoŋ
ɖoɖoo
ɖukuuna
ɖuu
ɖɔ
ɖɔdɔ
ɖɔdɖɔ
ɖɔfɩɩ
ɖɔfɩɩɩ
ɖɔka
ɖɔkɔtɔ
ɖɔkɔtɔnaa
ɖɔkɩ
ɖɔkɩna
ɖɔkɩyaa
ɖɔkɩɣ
ɖɔkʊ
ɖɔkʊʊ
ɖɔkʋʋ
ɖɔm
ɖɔmbɛ
ɖɔmbɩyɛ
ɖɔmpe
ɖɔmpɛɛ
ɖɔmtʊ
ɖɔna
ɖɔnaa
ɖɔnɛ
ɖɔnʊ
ɖɔwa
ɖɔŋ
ɖɔŋa
ɖɔŋna
ɖɔɔ
ɖɔɖɔ
ɖɔɖɔɔ
ɖɔɖɛ
ɖɔɣa
ɖɔʊ
ɖɔʊʊ
ɖɔʋ
ɖɛ
ɖɛfɛyɛ
ɖɛfɛɛ
ɖɛfɛɛɛ
ɖɛna
ɖɛnaʊ
ɖɛnaʋ
ɖɛsɩ
ɖɛtʊ
ɖɛu
ɖɛwa
ɖɛwʊ
ɖɛya
ɖɛyaa
ɖɛyʊ
ɖɛyʋ
ɖɛzɩ
ɖɛzɩtʊ
ɖɛzɩyʊ
ɖɛzɩɣ
ɖɛzʊʊ
ɖɛzʋʋ
ɖɛɛ
ɖɛɛna
ɖɛɣ
ɖɛɣa
ɖɛɣna
ɖɛʊ
ɖɛʊʊ
ɖɛʋ
ɖɩ
ɖɩcakɩ
ɖɩcayɛ
ɖɩcaɣ
ɖɩcaɣyɛ
ɖɩcɔ
ɖɩcɔlɔ
ɖɩcɔna
ɖɩcɔnaɣ
ɖɩcɔŋna
ɖɩcɛlɛ
ɖɩdʊyɛ
ɖɩfalɩyɛ
ɖɩfɛyɩ
ɖɩfɛyɩna
ɖɩha
ɖɩhaɣ
ɖɩhʊyɛ
ɖɩjayɛ
ɖɩjaɣyɛ
ɖɩkandɩ
ɖɩkandɩɣ
ɖɩkaɣ
ɖɩkpa
ɖɩkpaɣ
ɖɩkpaɣna
ɖɩkpɛndɩyɛ
ɖɩkɔna
ɖɩkɛ
ɖɩkɛna
ɖɩkɛŋna
ɖɩkɩla
ɖɩkɩlɩ
ɖɩkɩlɩna
ɖɩkɩlɩɣ
ɖɩkʊyɩ
ɖɩkʋyɩ
ɖɩkʋʋ
ɖɩla
ɖɩlaba
ɖɩlakaɣ
ɖɩlakɩ
ɖɩlaɖɛ
ɖɩlyɛ
ɖɩlɛɣzɩ
ɖɩlɩ
ɖɩlɩna
ɖɩlɩwa
ɖɩlɩyɛ
ɖɩlɩzɩ
ɖɩlɩɣ
ɖɩlɩɣnɩ
ɖɩlɩɩ
ɖɩlʊkɩ
ɖɩlʋ
ɖɩlʋbɩna
ɖɩlʋkɩ
ɖɩm
ɖɩma
ɖɩmayɛ
ɖɩmaɣ
ɖɩmaɣzɩ
ɖɩmaɣzɩyɛ
ɖɩmʊ
ɖɩmʊʊ
ɖɩmʋ
ɖɩn
ɖɩna
ɖɩnayɛ
ɖɩnaɣ
ɖɩnɔɔ
ɖɩnɛ
ɖɩnɛyɔ
ɖɩnɩɣ
ɖɩnɩɩ
ɖɩpazɩ
ɖɩpaɣlɩ
ɖɩpaɣzɩ
ɖɩpaɣzɩyɛ
ɖɩpɔza
ɖɩpɛdɩyɛ
ɖɩpɩsɩ
ɖɩpɩzɩ
ɖɩpɩzɩɣ
ɖɩpɩzʊ
ɖɩpɩzʋʋ
ɖɩsɔɔlaa
ɖɩsɔɔlɩ
ɖɩsɔɔlʊʊ
ɖɩsɩ
ɖɩsɩm
ɖɩsɩma
ɖɩsɩna
ɖɩsɩyɛ
ɖɩsʊ
ɖɩsʊyɛ
ɖɩsʊʊ
ɖɩsʋʋ
ɖɩta
ɖɩtaa
ɖɩtaasɔ
ɖɩtaasɔɔ
ɖɩtalɩ
ɖɩtasɩ
ɖɩtɔ
ɖɩtɔbʊʊ
ɖɩtɔkɩ
ɖɩtɔlɩ
ɖɩtɔzɩ
ɖɩtɔŋ
ɖɩtɔɔ
ɖɩtɔɔlʋʋ
ɖɩtɛ
ɖɩtɛm
ɖɩtɛma
ɖɩtɛnɖɛ
ɖɩtɛyɩ
ɖɩtɩlɩ
ɖɩtɩlɩɣ
ɖɩtɩzɩyɛ
ɖɩwa
ɖɩwaa
ɖɩwalanzɩ
ɖɩwɛ
ɖɩwɛna
ɖɩwɛyɛ
ɖɩwɛɛ
ɖɩwɛɛna
ɖɩwɛʊ
ɖɩwɩlɩyɛ
ɖɩwɩlɩɣ
ɖɩwɩsɩ
ɖɩya
ɖɩyaa
ɖɩyayɛ
ɖɩyaɣ
ɖɩyɔ
ɖɩyɔkɩ
ɖɩyɔɔ
ɖɩyɔɔdɩ
ɖɩyɔɔdʊ
ɖɩyɔɔdʊʊ
ɖɩyɔɔdʋʋ
ɖɩyɛ
ɖɩzɩma
ɖɩzɩtʊ
ɖɩzɩɣ
ɖɩzʊʊ
ɖɩŋɖɩŋ
ɖɩɖaɣnɩ
ɖɩɖuyɛ
ɖɩɖɔ
ɖɩɖɔkɩ
ɖɩɖɔŋ
ɖɩɖɛɣ
ɖɩɖɩ
ɖɩɖɩyɛ
ɖɩɖʊ
ɖɩɖʊyɛ
ɖɩɖʋyɛ
ɖɩɣ
ɖɩɣa
ɖɩɣna
ɖɩɣʋ
ɖɩɩkɛ
ɖɩɩna
ɖɩɩpɩzɩɣ
ɖɩɩsɩŋ
ɖɩɩwɛ
ɖɩɩwɛna
ɖɩɩwɛɛ
ɖʊ
ɖʊm
ɖʊmaa
ɖʊna
ɖʊwa
ɖʊyaa
ɖʊyɛ
ɖʊyʊ
ɖʊzʊʊ
ɖʊɖʊyɛ
ɖʊʊ
ɖʊʊyʊ
ɖʋ
ɖʋm
ɖʋmaa
ɖʋna
ɖʋyʋ
ɖʋzʋʋ
ɖʋɖʋyɛ
ɖʋʋ
ɛ
ɛbɛ
ɛca
ɛcaa
ɛcakaɣ
ɛcakɩ
ɛcala
ɛcalɩ
ɛcalɩna
ɛcam
ɛcaŋ
ɛcaɣ
ɛcaɣa
ɛcɔ
ɛcɔlɔ
ɛcɔlɩ
ɛcɔna
ɛcɔnaa
ɛcɔŋna
ɛcɔɔ
ɛcɔʊ
ɛcɛba
ɛcɛla
ɛcɛlɛ
ɛcɛlɩ
ɛcɛyɩ
ɛcɛyʊ
ɛcɛzɩ
ɛdaawɛɛ
ɛdʊ
ɛfɛyɩ
ɛfɛyɩna
ɛgandɩyɛ
ɛgbadɩna
ɛgbadɩyɛ
ɛgbam
ɛgbamɩyɛ
ɛgbaŋ
ɛgbaɣ
ɛgbaɣdɩnaa
ɛgbaɣdɩyɛ
ɛgbaɣtɩnaa
ɛgbaɣtʊ
ɛgbɔŋ
ɛgbɛyɛ
ɛgɔlɔmɩyɛ
ɛgɔlɩmɩyɛ
ɛgɔm
ɛgʋlaa
ɛha
ɛhayɩ
ɛhaɣ
ɛhɔ
ɛhɔkɩ
ɛhɔzɩ
ɛhɔzɩyɛ
ɛhɔŋ
ɛhɛdɩɣna
ɛhɛyɩ
ɛhɛzɩ
ɛhʊyɛ
ɛhʊʊ
ɛjadɛ
ɛjalʊ
ɛjam
ɛjandʊ
ɛjandʊʊ
ɛjaya
ɛjaɖ
ɛjaɖe
ɛjaɖɛ
ɛjaɖɛcamɩyɛɖɔkʋʋ
ɛjaɖɛnɛɖɩyɔɔn
ɛjaɖɛtʋ
ɛjaɖɩ
ɛjɑɖɛ
ɛjɔʋ
ɛjɖɛ
ɛjɛya
ɛjɛyɛ
ɛjɛɖɛ
ɛjɛɛ
ɛka
ɛkala
ɛkalɩ
ɛkalʋʋ
ɛkandayɩ
ɛkandɩ
ɛkata
ɛkatɩ
ɛkatɩna
ɛkawɛna
ɛkayɩ
ɛkaɖɩ
ɛkaɖɩna
ɛkaɣ
ɛkpa
ɛkpaadʊ
ɛkpakɩɣ
ɛkpazɩ
ɛkpaɣ
ɛkpaɣdɩyɛ
ɛkpaɣna
ɛkpɔŋ
ɛkpɛlaka
ɛkpɛlɛka
ɛkpɛlɛkaɣ
ɛkpɛlɛkɩ
ɛkpɛlɛkʊʊ
ɛkpɛnda
ɛkpɛndɩ
ɛkpɛzɩ
ɛkɔm
ɛkɔma
ɛkɔna
ɛkɔŋ
ɛkɔŋna
ɛkɔɔ
ɛkɛ
ɛkɛdɩ
ɛkɛdɩna
ɛkɛdɩɣ
ɛkɛkɛ
ɛkɛna
ɛkɛnɛ
ɛkɛwɛ
ɛkɛzɩ
ɛkɛŋna
ɛkɛʊ
ɛkɛʊna
ɛkɩla
ɛkɩlɩ
ɛkɩlɩɣ
ɛkɩlʊ
ɛkɩtaarɩnaa
ɛkɩtaarɩwaa
ɛkʊ
ɛkʊyɩ
ɛkʊyʊ
ɛkʊʊ
ɛkʋ
ɛla
ɛlaa
ɛlaba
ɛlabɩ
ɛlabɩna
ɛlabʊ
ɛlakasɩ
ɛlakaɣ
ɛlakɩ
ɛlakɩna
ɛlaɣ
ɛlɔ
ɛlɛ
ɛlɛyɩ
ɛlɛza
ɛlɛzɩ
ɛlɛzʊʊ
ɛlɛɛ
ɛlɛɛzɩ
ɛlɛɣ
ɛlɛɣza
ɛlɛɣzɩ
ɛlɛɣzɩɣ
ɛlɩ
ɛlɩmaɣza
ɛlɩna
ɛlɩnaa
ɛlɩnɛ
ɛlɩwa
ɛlɩza
ɛlɩzɩ
ɛlɩzɩɣ
ɛlɩzʊ
ɛlɩɣ
ɛlɩɩ
ɛlɩɩna
ɛlɩʊ
ɛlʊba
ɛlʊbɩna
ɛlʊbɩnaʊ
ɛlʊbʊ
ɛlʊkaɣ
ɛlʊkɩ
ɛlʊkɩna
ɛlʊkʊna
ɛlʊkʊʊ
ɛlʊla
ɛlʊlɩ
ɛlʊlʊʊ
ɛlʋ
ɛlʋba
ɛlʋbɩna
ɛlʋkaɣ
ɛlʋkɩ
ɛlʋlɩ
ɛma
ɛmaa
ɛmaba
ɛmabɩna
ɛmakaɣ
ɛmakɩ
ɛmakɩna
ɛmalɩna
ɛmana
ɛmaɣ
ɛmaɣmaɣ
ɛmaɣna
ɛmaɣzaɣ
ɛmaɣzɩ
ɛmaɣzɩna
ɛmaɣzɩɣ
ɛmaɣzʊʊ
ɛmɛlɩ
ɛmʊ
ɛmʊna
ɛmʊwa
ɛmʊʊ
ɛmʋ
ɛn
ɛna
ɛnaa
ɛnana
ɛnaɣ
ɛnaɣna
ɛndi
ɛndo
ɛndonezi
ɛndonezii
ɛndusɩ
ɛndɩ
ɛndɩyɔm
ɛngilisi
ɛnglɩsɩ
ɛntɛrnɛtɩ
ɛntɛrɩnɛtɩ
ɛntɛɛrɩnɛtɩ
ɛnɛ
ɛnɛyɔ
ɛnɩ
ɛnɩnɩ
ɛnɩɣ
ɛnɩɩ
ɛnɩɩlɛ
ɛnɩʊ
ɛnʊ
ɛnʊyɔ
ɛnʊʊ
ɛnʋ
ɛnʋʋ
ɛpaa
ɛpaaza
ɛpaazɩ
ɛpaazɩɣ
ɛpasɩ
ɛpaza
ɛpazɩ
ɛpazɩɣ
ɛpaŋ
ɛpaɣ
ɛpaɣlɩ
ɛpaɣza
ɛpaɣzɩ
ɛpaɣzɩna
ɛpɔzaɣ
ɛpɔzɩ
ɛpɛda
ɛpɛdɩ
ɛpɛlɩɣ
ɛpɩcatʊ
ɛpɩsa
ɛpɩsaɣ
ɛpɩsɩ
ɛpɩsɩna
ɛpɩsɩɣ
ɛpɩsʊʊ
ɛpɩza
ɛpɩzaa
ɛpɩzaɣ
ɛpɩzɩ
ɛpɩzɩɣ
ɛpɩzʊ
ɛpɩzʋʋ
ɛrbɩyɔm
ɛrɔpa
ɛrɔpʊ
ɛsa
ɛsakuliye
ɛsaŋ
ɛsaɣ
ɛsipaan
ɛspaan
ɛspan
ɛstetiki
ɛsɔ
ɛsɔda
ɛsɔdaa
ɛsɔdaalɔɔɖɩyɛ
ɛsɔkaaɣ
ɛsɔkaɣ
ɛsɔmɩnʊʊ
ɛsɔmɩnʋʋ
ɛsɔnaa
ɛsɔsɛtʊ
ɛsɔta
ɛsɔtaa
ɛsɔtɔm
ɛsɔza
ɛsɔzɩ
ɛsɔɔla
ɛsɔɔlaa
ɛsɔɔlɩ
ɛsɔɔlʊʊ
ɛsɔɔlʋʋ
ɛsɛ
ɛsɛkuliye
ɛsɛtɩɣ
ɛsɛɛ
ɛsɛʊ
ɛsɩ
ɛsɩba
ɛsɩbɩna
ɛsɩbʊ
ɛsɩkaɣ
ɛsɩkɩ
ɛsɩm
ɛsɩma
ɛsɩmtaa
ɛsɩna
ɛsɩnda
ɛsɩndaa
ɛsɩntaa
ɛsɩpaan
ɛsɩpan
ɛsɩtoonii
ɛsɩtɛɛlɩm
ɛsɩtɛɣlɩm
ɛsɩyɛ
ɛsɩŋ
ɛsɩŋa
ɛsɩŋgʊ
ɛsɩŋna
ɛsɩŋɩɣ
ɛsɩɣ
ɛsɩɣna
ɛsɩɩ
ɛsʊ
ɛsʊna
ɛsʊzɩ
ɛsʊɔ
ɛsʊʊ
ɛsʊʊna
ɛsʋ
ɛsʋʋ
ɛta
ɛtaa
ɛtaafɛyɩ
ɛtaakpa
ɛtaala
ɛtaan
ɛtaapɩsɩnɩ
ɛtaasɔɔlɩ
ɛtaatalɩ
ɛtaatasɩ
ɛtaatɩlɩ
ɛtaatɩɩ
ɛtaawɛ
ɛtaawɛɛ
ɛtaaɖɛɛ
ɛtacaɣ
ɛtafɛyɩna
ɛtakɩ
ɛtakɩlɩ
ɛtala
ɛtalɩ
ɛtalɩɣ
ɛtalɩɩna
ɛtama
ɛtamsɩ
ɛtana
ɛtapɩzɩ
ɛtapɩzɩɣ
ɛtasa
ɛtasɩ
ɛtasɩɣ
ɛtatasɩ
ɛtatɩlɩ
ɛtayɩ
ɛtazɩ
ɛtaŋ
ɛtaɣ
ɛtɔ
ɛtɔkɩ
ɛtɔlɩ
ɛtɔlʊʊ
ɛtɔma
ɛtɔsɔɔlɩ
ɛtɔtɔyɩ
ɛtɔyɩ
ɛtɔzɩ
ɛtɔŋ
ɛtɔɔ
ɛtɔɖɔɔ
ɛtɔʊ
ɛtɔʊʊ
ɛtɛ
ɛtɛkɛ
ɛtɛlɛm
ɛtɛlɛmwaa
ɛtɛm
ɛtɛma
ɛtɛyɩ
ɛtɛza
ɛtɛzɩ
ɛtɛzɩna
ɛtɛŋ
ɛtɛŋna
ɛtɩ
ɛtɩla
ɛtɩlɩ
ɛtɩlɩɣ
ɛtɩna
ɛtɩnɩ
ɛtɩyɛ
ɛtɩyɩ
ɛtɩzɩ
ɛtɩŋ
ɛtɩŋa
ɛtɩŋga
ɛtɩŋna
ɛtɩŋɩ
ɛtɩɩ
ɛtʊ
ɛtʊla
ɛtʊlɩ
ɛtʊma
ɛtʊmɩyɛ
ɛtʊʊzɩ
ɛtʋlɩ
ɛvalaa
ɛvalʋ
ɛwa
ɛwaa
ɛwaba
ɛwabɩ
ɛwadɩyɛ
ɛwakɩ
ɛwala
ɛwalɩ
ɛwasɩɣ
ɛwayɩ
ɛwaza
ɛwazɩ
ɛwaɖɩyɛ
ɛwaɣ
ɛwaɣa
ɛwaɣsɩ
ɛwoba
ɛwɛ
ɛwɛna
ɛwɛnɛ
ɛwɛnɩ
ɛwɛtʊ
ɛwɛɛ
ɛwɛɛkɩ
ɛwɛɛna
ɛwɛɣ
ɛwɛʊ
ɛwɛʋ
ɛwɩlaɣ
ɛwɩlɩ
ɛwɩlɩna
ɛwɩlɩɣ
ɛwɩɩ
ɛya
ɛyaa
ɛyabɩyɛ
ɛyakɩ
ɛyaɣ
ɛyɔ
ɛyɔlɩyɛ
ɛyɔɔ
ɛyɔɔda
ɛyɔɔdaa
ɛyɔɔdaɣ
ɛyɔɔdɩ
ɛyɔɔdɩna
ɛyɔɔdɩɣ
ɛyɔɔdʊ
ɛyɔɔdʊʊ
ɛyɔɔdʋʋ
ɛyɛlɩɣ
ɛyɩ
ɛyɩtʊ
ɛyɩyʊ
ɛyɩŋ
ɛyɩɣ
ɛyʊ
ɛyʊtʊ
ɛyʊyɩ
ɛyʊʊ
ɛyʋ
ɛyʋn
ɛyʋtʋ
ɛyʋʋ
ɛza
ɛzakuliye
ɛzakuuliye
ɛzan
ɛzaɣtʊ
ɛzaɣtʋ
ɛzaɣʊ
ɛzima
ɛzɔkpaa
ɛzɩ
ɛzɩm
ɛzɩma
ɛzɩmaa
ɛzɩmta
ɛzɩmtaa
ɛzɩna
ɛzɩyɔm
ɛzɩyɛ
ɛzɩɩ
ɛzʋnɔ
ɛŋglisi
ɛŋglɩsɩ
ɛɖa
ɛɖanɛ
ɛɖanɩ
ɛɖanɩɣ
ɛɖaŋ
ɛɖaɣna
ɛɖaɣnɩ
ɛɖɔ
ɛɖɔka
ɛɖɔkɩ
ɛɖɔkɩna
ɛɖɔŋ
ɛɖɔɔ
ɛɖɔɔnɩ
ɛɖɛ
ɛɖɛna
ɛɖɛzɩ
ɛɖɛɛ
ɛɖɛɛna
ɛɖɛʊ
ɛɖɛʊna
ɛɖɩzɩ
ɛɖɩzɩɣ
ɛɖɩɣna
ɛɖʊ
ɛɖʊna
ɛɖʊwa
ɛɖʊwaɣ
ɛɖʊzɩ
ɛɖʊʊ
ɛɖʋ
ɛɖʋʋ
ɛɛcaɣ
ɛɛcɛyɩɣ
ɛɛdɩ
ɛɛhaɣ
ɛɛkaɣ
ɛɛkpaɣ
ɛɛkɔɔ
ɛɛkɛ
ɛɛkɛna
ɛɛkɩla
ɛɛkɩlɩɣ
ɛɛlaba
ɛɛladɩɣ
ɛɛlakɩ
ɛɛlazɩɣ
ɛɛlɛɣzɩɣ
ɛɛlɩza
ɛɛlɩzɩ
ɛɛma
ɛɛmaɣ
ɛɛmʊ
ɛɛn
ɛɛna
ɛɛnaɣ
ɛɛnduu
ɛɛnduuyism
ɛɛndɩ
ɛɛnɩɣ
ɛɛnɩʊ
ɛɛpɩzɩ
ɛɛpɩzɩɣ
ɛɛpɩzʊ
ɛɛpʊkɩ
ɛɛsɔɔla
ɛɛsɔɔlaa
ɛɛsɔɔlɩ
ɛɛsɔʊ
ɛɛsɔʋ
ɛɛsɩŋ
ɛɛsʊ
ɛɛsʊʊ
ɛɛtalɩɣ
ɛɛtalʊʊ
ɛɛtasɩɣ
ɛɛtasʊ
ɛɛtazɩɣ
ɛɛtɔkɩ
ɛɛtɛma
ɛɛtɛŋ
ɛɛwɛ
ɛɛwɛna
ɛɛwɛɛ
ɛɛwɛʊ
ɛɛwɩlɩɣ
ɛɛyɔɔdʊʊ
ɛɛɛ
ɟ
ɡ
ɣ
ɣlɩm
ɩ
ɩcɔna
ɩfɛyɩ
ɩha
ɩkpaɣ
ɩkɩɣ
ɩkʊʊ
ɩlɩ
ɩlɩm
ɩlɩna
ɩlɩnzɩɣ
ɩlɩsɩɣ
ɩlɩɣ
ɩm
ɩma
ɩmba
ɩmbusuu
ɩmbʊ
ɩmbʊsaɣ
ɩmbʋ
ɩmpusuu
ɩmɩyɛ
ɩmɩŋ
ɩn
ɩna
ɩnaa
ɩnaɣ
ɩnbʊsasɩ
ɩnbʊsaɣ
ɩndɛ
ɩndʊ
ɩndʋ
ɩnga
ɩnzɩ
ɩnɖɛ
ɩnɖɩ
ɩnɛ
ɩnɩ
ɩnɩna
ɩnɩtʊ
ɩnɩya
ɩnɩyaa
ɩnɩyɛ
ɩnɩyʊ
ɩnɩyʋ
ɩnɩŋ
ɩnɩɣ
ɩnɩɣna
ɩnɩɣʊ
ɩnɩʊ
ɩnɩʋ
ɩnʊ
ɩnʊʊ
ɩnʋ
ɩnʋʋ
ɩpɩzʊ
ɩrɩdɩyɔm
ɩrɩtɩyɔm
ɩsraɛlɩ
ɩtaa
ɩtrɩyɔm
ɩtɔ
ɩtɛrbɩyɔm
ɩtɩna
ɩtɩŋga
ɩtɩɩɩ
ɩtʊ
ɩtʊʊ
ɩtʋ
ɩwɛ
ɩwɛna
ɩwɛɛ
ɩwɛɛna
ɩyɔdɩ
ɩyɔm
ɩyɩŋ
ɩyʊ
ɩyʊʊ
ɩzɩm
ɩzɩyɔm
ɩzʊ
ɩŋ
ɩŋa
ɩŋga
ɩŋgɩm
ɩŋgʊ
ɩŋgʊʊ
ɩŋgʋ
ɩŋɖɛ
ɩŋɩ
ɩŋʊ
ɩŋʋ
ɩɣ
ɩɣla
ɩɣlɩm
ɩɣlɩsɩɣ
ɩɣlɩŋ
ɩɣna
ɩɣtʊ
ɩɣtʊʊ
ɩɣtʋ
ɩɣyɩŋ
ɩɣyʊ
ɩɣyʊʊ
ɩɣyʋ
ɩɣyʋʋ
ɩɣɖɛ
ɩɣʊ
ɩɣʊʊ
ɩɣʋ
ɩɣʋʋ
ɩɩ
ɩɩtʊ
ɩɩyʊ
ɩɩyʊʊ
ɩɩzɩŋ
ɩɩɩ
ɩɩʊ
ɩʊ
ɩʋ
ɲ
ʊ
ʊndaa
ʊndinaa
ʊndɩna
ʊndɩnaa
ʊntaa
ʊntɩnaa
ʊnʊ
ʊranɩyɔm
ʊtʊ
ʊŋ
ʊʊ
ʊʊda
ʊʊdʊ
ʊʊtaa
ʊʊtʊ
ʊʊŋ
ʋ
ʋndɩnaa
ʋŋ
ʋʋ
ʋʋdʋ
ʋʋyabʋ
ʋʋyaɖʋ
ʋʋzɩkɩyɛ
ʎ
ʒ
ʒɩma
ʝ
ʰ
ʲ
ʼ
ʾ
ʿ
ˈ
ˌ
ː
̀
́
̂
̃
̄
̆
̇
̈
̉
̊
̋
̌
̑
̓
̔
̛
̣
̥
̦
̧
̨
̮
̯
͂
͡
ͻ
α
β
δης
ε
ζωροα
η
ι
μ
με
ν
ο
ρ
ς
στρης
τρον
υ
ψυχη
ω
ϑ
в
и
пе
тр
ч
эдирне
ֶ
ַ
ָ
ֹ
ׁ
א
ד
ה
ח
ם
מ
נ
ש
ا
د
ر
ز
ق
محمد
ن
ي
َ
ُ
ّ
ْ
ٓ
ٔ
ः
क
ग
च
ज
ड
ण
द
न
ब
भ
य
र
ल
व
श
ष
ह
ा
ि
ी
ु
ृ
े
ै
ॉ
ो
्
ਖ
ਸ
ਿ
ੱ
க
ங
ண
ம
ய
வ
ஷ
ா
ி
ு
்
ങ
ച
മ
ാ
ി
്
්
ි
ີ
‎
‏
–
—
‘
’
“
”
†
•
…
⁴
₂
→
↔
↷
−
√
③
④
⑦
■
☉
☾
☿
♀
♂
♃
♄
♆
♇
♭
⛢
⯓
⺀
⺄
⺆
⺈
⺊
⺌
⺕
⺝
⺸
⺼
⿰
⿱
⿲
⿳
⿴
⿵
⿶
⿷
⿸
⿹
⿺
⿻
〢
き
の
る
イ
カ
コ
ス
ユ
㇁
㇂
㇄
㇇
㇈
㇉
㇓
㐁
㐄
㐅
㐌
㐫
㐬
㐭
㐮
㐱
㑒
㒵
㒸
㒼
㓁
㓞
㔾
㕛
㕣
㖾
㘝
㚅
㚇
㚔
㚘
㝉
㝡
㝴
㝵
㞋
㞢
㞷
㠩
㠭
㠯
㡀
㡭
㡿
㢲
㢴
㣇
㣺
㥯
㪅
㫄
㫐
㫒
㫺
㬅
㬎
㬥
㬰
㲋
㳄
㷠
㸒
㸚
㸦
㼌
㼲
㽞
㿟
䀠
䂞
䍃
䏍
䒑
䖍
䖒
䖝
䖵
䙴
䚻
䜌
䝿
䡛
䧹
䪞
一
丁
丂
七
丄
丅
丆
万
丈
三
上
下
丌
不
与
丏
丐
丑
专
且
丕
世
丘
丙
业
东
丞
丢
丣
两
严
並
丨
丩
个
丫
丬
中
丮
丰
丱
串
丵
丶
丷
丸
丹
为
主
丽
丿
乀
乂
乃
久
乆
乇
么
义
之
乌
乍
乎
乏
乐
乑
乔
乖
乗
乘
乙
乚
乛
乜
九
乞
也
习
乡
乳
乾
亀
亅
了
亇
予
争
事
二
亍
于
亏
亐
云
互
亓
五
井
亘
亚
亜
亞
亟
亠
亡
亢
交
亥
亦
产
亨
亩
享
京
亭
亮
亯
亰
亲
亳
亶
亷
人
亻
亼
亾
仁
今
介
仌
从
仐
仑
仒
仓
仕
他
付
仝
代
令
以
仲
任
企
伊
伏
伐
休
会
伯
但
位
何
佘
余
作
佥
使
來
侈
侌
侍
侖
侯
侵
便
保
俞
信
修
倉
倍
候
倠
健
備
僉
像
僕
儒
儿
兀
允
兂
元
兄
充
兆
兇
先
光
兊
克
兌
免
兑
兒
兓
兔
党
兜
兟
入
全
兩
兪
八
公
六
兮
兰
共
关
兵
其
具
典
兹
兼
冀
冂
冃
冄
内
冈
冉
冊
冋
册
再
冎
冏
冐
冒
冓
冖
冗
冘
军
农
冝
冡
冥
冫
冬
冷
几
凡
凢
凵
凶
凷
凸
凹
出
函
凾
刀
刁
刂
刃
刄
刅
分
切
刍
刑
刕
刖
列
刘
则
初
別
利
别
到
制
刺
則
削
剌
前
剡
剽
劉
力
功
加
劦
助
劫
劳
劵
勃
勇
勉
勒
動
務
勞
勤
勹
勺
勻
勾
勿
匀
匂
包
匆
匈
匊
匋
匍
匕
化
北
匚
匝
匡
匪
匱
匸
匹
区
医
匽
匿
區
十
卂
千
卄
卅
卆
升
午
卉
半
卌
华
卑
卒
卓
单
卖
南
卜
卝
卞
占
卡
卢
卣
卤
卦
卩
卪
卬
卯
印
危
即
却
卵
卷
卸
卻
厂
厃
厄
历
厈
厉
厌
厓
厘
厚
原
厤
厥
厨
厭
厲
厶
厷
厸
去
厼
厽
叀
参
參
叅
又
叉
及
友
双
反
叐
发
叒
叔
叕
取
受
叚
叜
叟
口
古
句
另
叩
只
召
可
台
叱
史
右
叵
号
司
叹
吂
各
吅
合
吉
吊
吋
同
名
后
吏
向
吕
君
吝
吞
否
含
启
吳
吴
吹
吾
呂
呆
呈
告
员
呙
周
命
咅
和
咎
咠
咢
咨
咸
咼
哀
品
哉
員
哥
哲
唐
商
啇
問
啚
啬
啻
善
喜
喬
單
喿
嗇
噩
嚴
囊
囗
囘
囙
囚
四
回
囟
因
囧
囬
困
囱
囷
固
国
图
圂
圅
國
圍
圓
土
圡
圣
圥
在
圭
地
圶
圼
坐
坒
坚
坴
垂
垔
垚
埀
埋
埶
執
基
堂
堅
堆
堇
堯
塞
墨
壘
士
壬
壯
声
壳
壴
壹
壺
壽
夂
处
夅
夆
备
夊
夋
夌
复
夏
夒
夕
外
夗
夘
多
夜
夢
大
夨
天
太
夫
夬
夭
央
失
夲
头
夷
夸
夹
夻
夾
奂
奄
奇
奈
奉
奎
奏
奐
契
奓
奔
奚
奞
奠
奢
奥
奭
女
奴
奻
好
如
妄
妙
妟
妥
妻
妾
始
姑
委
姜
威
娄
婁
婴
嬰
嬴
子
孑
孔
孕
孖
字
存
孚
孛
孝
孟
季
孤
学
孫
孱
學
宀
宁
宂
它
宅
宇
守
安
宋
完
宏
宓
宗
官
定
宛
宜
宝
客
宣
室
宮
宰
害
家
容
宾
宿
寄
寅
密
富
寒
察
寧
審
寫
寬
寮
寸
对
寺
寻
寽
対
寿
封
尃
射
将
將
專
尉
尊
尋
尌
對
小
少
尒
尓
尔
尖
尗
尚
尞
尢
尣
尤
尧
尨
尭
就
尸
尹
尺
尻
尼
尽
尾
尿
局
居
屈
屋
屎
屏
屑
展
屖
屚
属
屠
屡
屬
屮
屯
屰
山
屵
屾
岁
岂
岑
岡
岩
岳
岸
峯
島
崇
崑
崔
崖
崙
崩
嵬
嶲
巂
巛
川
州
巟
巠
巢
巤
工
左
巧
巨
巩
巫
差
己
已
巳
巴
巷
巸
巽
巾
巿
帀
市
布
希
帚
帛
帝
带
師
席
帶
常
干
平
年
幵
并
幷
幸
幺
幻
幼
幽
幾
广
広
庄
床
底
店
庙
庚
府
度
庫
庭
庶
康
庸
廉
廌
廛
廣
廩
廴
延
廷
建
廾
廿
开
弁
弃
弄
弇
弋
式
弓
弔
引
弗
弘
弜
弟
弥
弦
弱
張
強
强
彊
彌
彎
彐
彑
当
彔
录
彖
彗
彡
形
彥
彦
彧
彭
彳
役
彼
往
待
律
徒
得
徙
從
復
微
徵
德
心
忄
必
忌
忍
志
忝
忠
忩
快
念
忽
忿
思
怠
急
怱
恆
恒
恩
恭
息
悉
患
悤
悲
悶
惠
惡
惢
愁
愈
意
愛
感
慈
慧
慮
憂
憲
應
戀
戈
戉
戊
戋
戌
戍
戎
成
我
戒
戔
或
戚
戠
戢
截
戲
戶
户
戹
戼
戾
房
所
扁
扇
手
扌
才
打
托
执
扬
承
折
拉
拜
拿
捣
掌
推
提
揚
摩
支
攴
攵
收
攸
改
放
政
敄
敏
敕
敖
敗
教
敝
敞
敢
散
敦
敫
敬
数
敷
數
斂
文
斉
斊
斗
斤
斥
斩
斬
斯
新
方
於
施
斿
旁
旋
族
无
旡
既
旣
日
旦
旧
旨
早
旬
旱
旲
时
旾
昆
昇
昌
昍
明
昏
易
昔
昗
昜
星
春
昬
昭
是
昱
昴
昷
時
晃
晋
晏
普
景
晶
智
暑
暴
曇
曩
曰
曲
曳
更
曷
書
曹
曼
曾
替
最
朁
會
月
有
朋
服
朔
朕
朗
望
朝
木
朩
未
末
本
札
朮
术
朱
朵
朶
朿
杀
杏
杜
束
条
来
東
杲
杳
松
析
林
枚
果
枝
枲
枼
某
柔
查
柬
柰
柳
柴
栗
桀
桑
桼
梁
條
梟
梨
棒
棘
棠
棥
森
楚
業
楽
榮
樂
樊
欠
次
欣
欮
欲
欶
欽
款
歆
歇
歛
止
正
此
步
武
歨
歪
歮
歯
歰
歲
歴
歷
歸
歹
歺
死
殳
段
殷
殸
殹
殺
殻
殿
毋
毌
母
每
毒
比
毕
毚
毛
毳
氏
氐
民
气
氣
水
氵
氶
氷
永
氺
氾
求
汝
汞
江
沃
沓
沙
沝
河
治
泉
法
波
泣
泥
泰
洛
洪
活
派
流
浦
浪
浮
淡
淮
清
渚
渠
湯
溝
滿
漆
漢
漸
潟
澤
火
灬
灭
灰
灵
灷
炅
炎
炏
炗
炙
炭
為
烈
烏
烝
焉
無
焦
焱
然
煞
熊
熏
燕
營
燮
爪
爫
爭
爯
爰
爱
爲
爵
父
爻
爽
爾
爿
片
牙
牚
牛
牜
牟
牢
牧
物
牪
牽
犀
犬
犭
犮
狂
狄
狊
独
狺
猋
猒
猪
献
獻
玄
率
玉
王
玟
玨
珎
班
理
琴
瑟
瑩
瓜
瓦
甘
甚
生
産
用
甫
甬
田
由
甲
申
电
甶
男
甸
甹
画
甾
畀
界
畏
畐
留
畜
畟
畢
畧
畨
番
畫
異
畱
當
畺
畾
疊
疋
疌
疑
疒
疾
癶
癸
癹
登
發
白
百
皀
皃
的
皆
皇
皋
皐
皕
皮
皷
皿
盃
盆
盇
盈
益
盍
盎
监
盒
盖
盛
盡
監
盤
盧
目
直
相
盾
省
眇
眉
看
眔
眞
真
眷
眼
眾
着
睘
睪
睿
瞏
瞢
瞿
矍
矛
矞
矢
矣
知
矦
短
石
破
碎
磊
磨
示
礻
礼
神
祟
票
祭
禀
禁
禸
禹
禺
离
禽
禾
禿
秀
秃
秉
秋
科
秝
秦
移
稟
穀
穌
穴
究
穹
空
穿
突
窄
窒
立
竒
竜
竝
竟
章
童
竹
笑
笠
筆
等
答
箕
算
箴
節
篤
篭
米
粉
粛
粟
粤
粦
粲
糞
糸
糹
系
約
紋
納
素
索
紫
累
細
絜
絫
絲
經
維
綿
縣
繇
纍
纟
练
经
缶
网
罒
罔
罕
罗
罙
罡
罢
罪
署
罷
羅
羊
羌
羍
美
羔
羕
羗
羞
羡
羣
群
義
羲
羸
羽
翁
翏
習
翕
翟
翠
翼
老
耂
考
者
耆
而
耎
耑
耒
耳
耴
耶
耷
聂
聊
聖
聚
聶
聿
肀
肃
肅
肉
肖
肙
肥
肩
肯
育
肴
胃
背
胡
胥
能
脊
脩
膚
臣
臤
臧
自
臬
臭
臯
臱
至
致
臺
臼
臽
臾
臿
舀
舂
舄
與
興
舉
舌
舍
舛
舜
舞
舟
般
艮
良
色
艸
艹
艾
芒
芔
芬
芮
花
芳
芺
芻
苔
苗
苟
若
苦
英
茶
茸
荅
草
荒
荣
荼
莆
莧
莫
莽
菆
菊
菐
華
萬
落
葉
著
葛
董
葵
蒙
蒦
蒼
蓋
蓬
蓺
蔑
蔡
蕉
蕭
薄
薛
薦
薰
藍
藏
藥
蘭
虍
虎
虐
虒
虔
處
虖
虗
虘
虚
虛
虜
虞
虫
虽
蚤
蚩
蜀
蜜
蟲
蠡
血
行
衍
衛
衣
衤
表
衮
衰
袁
袞
裕
褭
褱
襄
襾
西
覀
要
覃
見
規
覓
覧
親
覽
见
角
解
言
訁
訇
計
詹
誩
諸
讠
谷
豆
豈
豊
豐
豕
豖
豙
象
豦
豩
豪
豸
貇
貝
貞
貟
負
貢
貧
貪
貫
責
貳
貴
買
費
賁
資
賈
賏
賓
賔
賛
賞
賢
賣
質
賴
贊
贝
贡
责
贯
贲
贵
赖
赞
赤
赦
走
越
足
路
蹇
身
躬
車
軍
軎
軟
輦
车
辛
辜
辟
辥
辰
辱
農
辵
辶
边
达
过
近
连
迷
追
退
送
逆
逐
通
速
造
逢
連
逮
進
遀
遂
過
道
達
遣
適
遷
遺
邊
邑
邕
那
邦
邪
郎
部
郭
都
鄉
酉
酋
配
酒
酓
釆
采
里
重
野
量
金
釒
錢
鏡
钅
铜
铸
锅
長
镸
长
門
閃
閉
開
閏
閑
閒
間
閔
閵
閻
闌
门
间
闷
阑
阜
阝
阿
降
陳
陽
隆
隊
隋
隡
隨
隱
隶
隹
隺
隻
隼
隽
难
雀
雁
集
雈
雋
雍
雐
雔
雙
雚
雜
雝
離
難
雨
雩
雪
雲
零
雷
需
霍
霜
霝
霞
霸
靈
靑
青
非
靡
面
靣
革
韋
韦
韭
韯
韱
音
頁
頃
項
須
頗
頡
頻
顛
页
風
风
飛
飞
食
飠
飾
養
饣
首
香
馬
馮
駦
马
骨
高
髟
鬥
鬯
鬲
鬼
魚
魯
鮮
鱼
鲁
鳥
鳳
鸟
鹵
鹿
麃
麗
麥
麦
麻
黃
黄
黍
黎
黑
黒
黨
黹
黽
黾
鼎
鼓
鼠
鼻
齊
齋
齐
齒
齿
龍
龙
龜
龟
龠
龰
龱
龴
龵
龶
龷
龸
龹
ꭰ
ꭱ
ꮑ
ꮧ
者
艹
？
𐌰
𐌳
𐌹
𐌽
𐍂
🜨
𠀁
𠀃
𠀆
𠀉
𠀎
𠀐
𠁁
𠁣
𠂆
𠂇
𠂈
𠂉
𠂊
𠂋
𠂎
𠂒
𠂔
𠂛
𠂡
𠂢
𠂤
𠂬
𠂭
𠂹
𠃊
𠃋
𠃌
𠃍
𠃎
𠃑
𠃓
𠃔
𠃜
𠄌
𠄎
𠄠
𠄢
𠆢
𠆥
𠇍
𠈌
𠌵
𠓜
𠔉
𠔥
𠔼
𠔽
𠔿
𠕀
𠕁
𠕋
𠘧
𠘨
𠙻
𠙼
𠚏
𠚒
𠚤
𠚪
𠣏
𠤎
𠤕
𠥓
𠦄
𠦑
𠦝
𠧒
𠧗
𠧪
𠩺
𠪚
𠫓
𠫔
𠫤
𠬛
𠬝
𠬞
𠬢
𠬤
𠬶
𠮛
𠮦
𠮷
𠯑
𠱠
𠳮
𠷎
𡈼
𡉀
𡉵
𡌥
𡍮
𡏳
𡕒
𡕩
𡕰
𡖅
𡗗
𡗜
𡘆
𡘤
𡧱
𡨄
𡩧
𡬠
𡭽
𡰣
𡰥
𡰪
𡰯
𡰱
𡷈
𡸁
𡿨
𡿩
𡿪
𡿺
𢀖
𢀛
𢀩
𢁙
𢆉
𢆰
𢆶
𢇁
𢇇
𢉖
𢌬
𢌿
𢏚
𢑑
𢑚
𢖻
𢙣
𢛳
𢦏
𢦒
𢧵
𢼄
𢾕
𣁋
𣄼
𣅀
𣅽
𣍘
𣎳
𣎵
𣏋
𣏼
𣗥
𣥂
𣥖
𣦵
𣦼
𣧄
𣪊
𣪠
𣬉
𣳾
𣶒
𤇾
𤊽
𤐫
𤓰
𤔔
𤕨
𤣩
𤰇
𤰔
𤰞
𤴓
𤴔
𤽄
𥁑
𥁕
𥃦
𥃩
𥃭
𥇡
𥑟
𥘅
𥘈
𥝢
𥫗
𥱡
𦈢
𦉪
𦉬
𦉼
𦍌
𦍒
𦎧
𦐇
𦓔
𦔮
𦘒
𦙃
𦚏
𦣝
𦣞
𦣻
𦥑
𦥔
𦥯
𦨉
𦭝
𦰩
𧆞
𧈧
𧘇
𧰨
𧴪
𧴮
𧵩
𧾷
𨸏
𨾴
𩙿
𩠐
𩫏
𩵋
𪉷
𪜀
𪟽
𪠲
𪩲
𫇦
𫔭
𫜸
𫝀
𫠣
𫠩
𫢉
𫥞
𫩏
𫩠
𫪡
𫲽
𫶧
𬀷
𬐘
𬗌
𬙙
𬛸
𬜯
𬟩
𬯁
𬴘
𬺻
𬼉
𬼖
𭀰
𭁈
𭁨
𭅰
𭑈
𭕄
𭗼
𭤨
𭥫
𭻾
𮅕
𮊿
𮍌
𮍏
𮓗
𮥼
𮧮
廾
𰀁
𰀄
𰀈
𰀉
𰀕
𰀠
𰀡
𰀢
𰀪
𰁜
𰃮
𰆊
𰆘
𰋙
𰕎
𰢴
𰧭
𰯲
0--
03--
06--
09--
11--
12--
13--
14--
15--
16--
17--
20--
25--
29--
30--
32--
40--
42--
61--
62--
63--
71--
a--
aa--
ab--
abalɩ--
abi--
ac--
acro--
ad--
ade--
ae--
af--
afe--
afr--
ag--
ah--
aho--
ai--
aiz--
aj--
aja--
ak--
aka--
ako--
akp--
akɩ--
al--
ala--
ale--
alex--
ali--
alma--
alum--
alɛ--
alɩ--
alʋ--
am--
ama--
ami--
an--
ana--
and--
ang--
anim--
ant--
anta--
anthro--
anɩ--
ap--
app--
aq--
ar--
arbi--
arc--
argen--
ari--
ark--
arm--
arti--
arɩ--
as--
asa--
ase--
astr--
asu--
at--
ata--
ataa--
ate--
atlan--
atɔ--
atɩ--
au--
aust--
auto--
av--
ave--
avia--
awa--
awi--
ay--
az--
azer--
aziya--
azu--
aŋ--
aŋg--
b--
ba--
babi--
bac--
bah--
bal--
ban--
bar--
barce--
bas--
bata--
bau--
be--
beh--
ben--
ber--
bi--
biel--
bir--
birth--
bl--
bo--
boo--
bor--
bos--
bosph--
bou--
bour--
br--
brad--
brah--
bre--
bri--
bris--
brit--
bro--
broc--
bu--
budd--
bul--
bur--
bɛrɩ--
c--
ca--
caa--
cac--
cad--
cal--
cali--
cam--
can--
car--
cas--
ce--
cee--
cekɔ--
cel--
cele--
cer--
cere--
ch--
cha--
chan--
char--
charpen--
chi--
chic--
chlo--
cho--
ci--
cir--
clo--
co--
cog--
col--
com--
commu--
compag--
con--
connais--
cons--
cor--
cord--
cou--
cr--
cu--
cul--
cur--
cy--
cze--
cɔ--
cɔjɔ--
cɔz--
cɔŋ--
cɔɔ--
cɛ--
cɩ--
cɩkp--
cɩkpa--
cɩn--
cʊ--
d--
da--
daa--
dabar--
dai--
de--
del--
demo--
den--
di--
dia--
dic--
diction--
dioxy--
direc--
dis--
disc--
dj--
do--
doc--
dol--
domin--
dor--
dosto--
dou--
dr--
drama--
du--
dub--
dur--
dyna--
dɩ--
e--
ec--
eco--
ed--
edi--
ee--
efe--
efi--
efu--
ege--
egi--
ehe--
ehi--
ehu--
ejer--
eke--
eki--
eko--
eku--
ekʊ--
el--
ele--
eleph--
eli--
elli--
em--
eme--
en--
eng--
epi--
er--
erɔ--
es--
esi--
et--
ete--
eti--
eto--
etu--
eu--
euph--
ev--
eve--
ewe--
ex--
eɖuk--
f--
fa--
fac--
fal--
falɩ--
fan--
fana--
far--
fara--
faɣ--
fe--
fenaɣ--
fene--
fer--
fi--
fii--
fil--
fili--
fite--
fl--
fleu--
fo--
fon--
foo--
for--
fos--
fou--
four--
fr--
frag--
fri--
fu--
ful--
fɛ--
fɛr--
fɛɛ--
fɩ--
fʊlɩ--
g--
ga--
gad--
gal--
gar--
gas--
ge--
gen--
geog--
ger--
gi--
gior--
gla--
glo--
go--
gol--
gott--
gou--
gour--
gr--
gre--
gu--
h--
ha--
halo--
halɩ--
han--
har--
harri--
hart--
has--
hat--
haz--
he--
hee--
hei--
hel--
heli--
her--
hi--
hil--
hir--
histo--
hit--
ho--
hob--
hof--
hol--
hor--
horiz--
hos--
hu--
hub--
hur--
hus--
huuu--
hy--
hydr--
hɔ--
hɛ--
hɛlɩ--
hɩ--
hʊ--
hʋ--
i--
ig--
igu--
ii--
iira--
il--
im--
in--
indi--
indo--
inst--
io--
ios--
ir--
is--
isa--
isi--
isit--
iso--
it--
iu--
iz--
izi--
j--
ja--
jan--
jans--
jar--
je--
jes--
ji--
jo--
jou--
ju--
jus--
just--
k--
ka--
kaa--
kad--
kagb--
kal--
kale--
kali--
kalifɔ--
kam--
kama--
kan--
kap--
kar--
karo--
karɩ--
kas--
kata--
kate--
katedi--
kath--
kaz--
kazaki--
kaŋ--
kaɣ--
kaʋ--
ke--
kebɛ--
kedi--
kehi--
ken--
ker--
kete--
keve--
key--
keɣ--
kh--
ki--
kidi--
kii--
kim--
kin--
kir--
kirk--
kisi--
kla--
klarɩnɛ--
kle--
ko--
kodo--
kol--
kolo--
komu--
kon--
koo--
koto--
koyo--
kp--
kpa--
kpadɩ--
kpala--
kpan--
kpaŋ--
kpe--
kpem--
kpen--
kpi--
kpidi--
kpo--
kpoŋ--
kpɛ--
kpɛnda--
kpɩ--
kr--
kri--
kris--
kro--
kron--
krɩ--
ku--
kun--
kuz--
kɑ--
kɔ--
kɔj--
kɔlɔ--
kɔn--
kɔnsɩtan--
kɔz--
kɔŋ--
kɛ--
kɛd--
kɛgb--
kɛz--
kɩ--
kɩbɩ--
kɩcɔ--
kɩcɩ--
kɩd--
kɩda--
kɩdɛ--
kɩga--
kɩgb--
kɩj--
kɩja--
kɩkp--
kɩkpɛ--
kɩlɛ--
kɩlʊ--
kɩma--
kɩr--
kɩsɛ--
kɩta--
kɩtam--
kɩtɩ--
kɩw--
kɩy--
kɩyɛ--
kɩŋ--
kɩɩ--
kʊ--
kʊhʊ--
kʊlʊ--
kʊɖ--
kʋ--
kʋd--
kʋlʋ--
l--
la--
lan--
laro--
las--
lau--
laz--
laŋ--
laɣ--
le--
lee--
leo--
leu--
leɣ--
li--
lie--
light--
lii--
lisi--
lit--
litu--
liz--
lo--
long--
loo--
lou--
lu--
lud--
luu--
lv--
ly--
lɔ--
lɔn--
lɔnzɩ--
lɔŋ--
lɔɔ--
lɛ--
lɛɛ--
lɛɛɣ--
lɩ--
lɩm--
lʊ--
lʊbɩ--
lʋ--
m--
ma--
maa--
mac--
mag--
mal--
mala--
malɩ--
man--
mar--
masa--
mase--
masɩ--
mat--
mau--
may--
maz--
maŋ--
maŋga--
mb--
mba--
mcca--
mcm--
me--
mec--
meh--
mela--
men--
mer--
mes--
mi--
miili--
mil--
mili--
milim--
miliyɔ--
mis--
miŋ--
mm--
mo--
momo--
mon--
moo--
mor--
mou--
mu--
mudu--
mul--
mus--
mwa--
my--
mɔ--
mɔlɩbd--
mɔn--
mɔnd--
mɔɔ--
mɛ--
mɛkɩ--
mɛn--
mɛwɛ--
mɛɛ--
mɩ--
mʊ--
mʋ--
n--
na--
naa--
nab--
nakɑ--
nan--
nas--
nat--
natu--
nazi--
naŋgb--
nd--
nde--
ndo--
ndɔnj--
ndɩ--
ne--
nedɛrɩla--
nee--
neu--
new--
ng--
ngo--
ni--
nic--
nici--
nii--
nim--
nin--
niu--
niɣ--
nn--
no--
nor--
ns--
nu--
nur--
ny--
nɔ--
nɔɔ--
nɛ--
nɛpt--
nɛɛ--
nɩ--
nɩgb--
nʊ--
nʊmɔ--
nʋ--
o--
ob--
oc--
octa--
offi--
og--
oh--
ohuu--
ok--
olo--
olympi--
on--
oo--
op--
or--
orat--
organi--
ori--
os--
ose--
osɩ--
ot--
ou--
ouz--
ox--
p--
pa--
paa--
paca--
pacɩ--
pad--
pada--
pah--
pahɩ--
paja--
paka--
paki--
pakɩ--
pal--
palɛ--
palɛst--
palɩ--
pam--
pama--
pan--
papu--
par--
para--
pas--
pat--
pata--
pataa--
patɩ--
pav--
pay--
paz--
paɣ--
pe--
pee--
peh--
pehi--
pekpe--
pel--
pend--
penta--
pepeɣ--
per--
pete--
peti--
pewe--
peye--
peɣ--
ph--
phi--
pho--
phos--
phy--
pi--
pic--
pie--
pii--
pil--
pin--
pir--
piraz--
pire--
pla--
plu--
po--
poho--
pohu--
pol--
poly--
pom--
poo--
post--
potu--
pou--
pp--
ppɩ--
pr--
praz--
pre--
pri--
pris--
prit--
pro--
proc--
pruk--
psy--
pu--
publi--
pudi--
pul--
pun--
pur--
puri--
putu--
py--
pyra--
pɑ--
pɔ--
pɔd--
pɔj--
pɔr--
pɔri--
pɔrɩ--
pɔst--
pɔtɔ--
pɔz--
pɔɔ--
pɛ--
pɛl--
pɛn--
pɛpɛ--
pɛr--
pɛtɛ--
pɩ--
pɩc--
pɩcaɣtuluu--
pɩda--
pɩk--
pɩki--
pɩkɛ--
pɩsɩ--
pɩta--
pɩtɛ--
pɩtɩ--
pɩɣ--
pɩɩ--
pʊ--
pʊdɔ--
pʊtʊ--
pʊʊ--
pʋ--
pʋtɔ--
q--
qu--
qua--
quad--
r--
ra--
rac--
rag--
rah--
rb--
re--
red--
reg--
ren--
reyikz--
rho--
ri--
ric--
rich--
rii--
ro--
ru--
ruu--
ruum--
ry--
rʊ--
s--
sa--
saa--
saba--
sacrɛ--
saf--
sakrɩm--
sal--
sala--
sam--
san--
sar--
sau--
savo--
sawu--
say--
sc--
sch--
scien--
scientifi--
se--
sei--
sem--
sen--
septem--
sh--
sha--
shan--
si--
sii--
sik--
sil--
sim--
sin--
sina--
sis--
sla--
sm--
sn--
so--
soo--
sor--
sou--
soŋ--
spe--
spea--
spi--
spiri--
st--
stan--
ste--
steph--
ster--
sti--
stra--
stu--
su--
suc--
sul--
sun--
sus--
swe--
sy--
sylv--
symphoni--
sɔ--
sɔj--
sɛ--
sɛlɛ--
sɛm--
sɛrɩ--
sɛɛ--
sɩ--
sɩn--
sɩɣ--
sɩɩ--
sɩʊ--
sɩʋ--
sʊ--
sʊnzʊ--
sʊz--
sʋ--
t--
ta--
taa--
taatɩɩ--
taba--
tal--
tam--
tan--
tane--
tar--
tas--
taŋ--
te--
tea--
tech--
tee--
teno--
ter--
tex--
teɣ--
th--
the--
tho--
thu--
ti--
tii--
til--
tim--
tin--
to--
tom--
too--
tor--
tou--
tr--
tra--
traite--
trans--
tri--
trin--
tru--
ts--
tu--
tuku--
tulu--
tur--
turkmen--
ty--
tɔ--
tɔm--
tɛ--
tɛt--
tɛɛ--
tɩ--
tɩzɩ--
tɩŋ--
tɩɣ--
tɩɩ--
tʊ--
tʊmɩ--
tʋ--
tʋma--
tʋʋzɩ--
u--
ue--
uis--
uk--
ul--
um--
un--
uni--
up--
ur--
ura--
urb--
uru--
us--
ut--
uz--
v--
va--
vac--
val--
var--
ve--
vei--
ver--
ves--
vi--
vil--
vio--
virg--
vis--
vo--
volca--
voya--
vɩɔ--
w--
wa--
war--
wasiŋ--
way--
we--
wed--
wel--
wer--
wez--
whe--
white--
wi--
wie--
wii--
wil--
wo--
wol--
wor--
wɛ--
wɛɛ--
wɩ--
x--
xi--
y--
ya--
yaa--
yam--
ye--
yeru--
yi--
yiɣ--
yo--
you--
yoŋ--
yu--
yɔ--
yɔri--
yɔɔ--
yɛ--
yʊ--
yʋ--
z--
ze--
zela--
zer--
zi--
zigli--
zo--
zoro--
zu--
zʊ--
ŋ--
ŋg--
ŋn--
ɑ--
ɔ--
ɔn--
ɔndu--
ɔsɩ--
ɔz--
ɔɔ--
ɖ--
ɖa--
ɖaa--
ɖama--
ɖaɣ--
ɖe--
ɖeɣ--
ɖi--
ɖikp--
ɖo--
ɖom--
ɖoŋ--
ɖuk--
ɖulu--
ɖɑ--
ɖɔ--
ɖɛ--
ɖɩ--
ɖɩgb--
ɖɩhʋ--
ɖɩkɛ--
ɖɩl--
ɖɩta--
ɖɩz--
ɖɩɖʊ--
ɖɩɩ--
ɖʊ--
ɖʋ--
ɛ--
ɛcɛ--
ɛcɩ--
ɛdaa--
ɛdaɣ--
ɛf--
ɛfa--
ɛgb--
ɛgbaa--
ɛge--
ɛh--
ɛhɛ--
ɛhʊ--
ɛj--
ɛjaɖɛ--
ɛka--
ɛkp--
ɛkɛ--
ɛkʊ--
ɛkʋ--
ɛl--
ɛma--
ɛmɛ--
ɛn--
ɛna--
ɛndu--
ɛng--
ɛsa--
ɛsi--
ɛsɔ--
ɛsɔɔ--
ɛsɛ--
ɛsɩ--
ɛsʊ--
ɛta--
ɛtaa--
ɛtɔ--
ɛtɛ--
ɛtɩ--
ɛtʋ--
ɛv--
ɛwɛ--
ɛya--
ɛyɛ--
ɛyʊ--
ɛyʋ--
ɛzɩ--
ɛɖa--
ɛɖɔ--
ɛɛ--
ɛɛta--
ɣ--
ɩ--
ɩlɩ--
ɩm--
ɩmbu--
ɩn--
ɩra--
ɩtaa--
ɩtɛ--
ɩŋ--
ɩŋgb--
ɩɣ--
ɩɩ--
ɪ--
ʊ--
ʊʊ--
ʋ--
ʋʋ--
ʋʋɖɩ--
λ--
μ--
ν--
ξ--
ο--
πα--
миха--
ال--
--0
--00
--1
--2
--3
--4
--5
--6
--7
--8
--9
--a
--aa
--ac
--ach
--ad
--adt
--ae
--age
--agne
--ago
--agɩ
--ah
--ai
--ain
--ak
--al
--ald
--alis
--am
--an
--ana
--ani
--ania
--anii
--ans
--ant
--ante
--ao
--ap
--ar
--ard
--ary
--arɩ
--as
--asi
--asɩ
--at
--ate
--ated
--ater
--ati
--ating
--ation
--atɩ
--au
--avi
--ay
--ayi
--ayɛ
--ayɩ
--azɩ
--aŋ
--aɣ
--aɣa
--aʊ
--aʋ
--b
--ba
--balʊ
--bat
--be
--bi
--bina
--biya
--bo
--bourg
--brɩ
--bu
--burg
--burgi
--buuri
--bɩ
--bɩna
--bɩya
--bɩyɛ
--bɩɣa
--bʊ
--bʊʊ
--bʋ
--bʋʋ
--c
--ca
--cal
--cana
--cayɩ
--caɣ
--caɣʋ
--ce
--ch
--che
--cht
--ci
--cia
--cio
--ck
--cky
--cl
--co
--cs
--ct
--cus
--cy
--cɑɣ
--cɔ
--cɛyɩ
--cɩ
--cʊ
--d
--da
--daa
--dan
--dayɩ
--daɣ
--de
--ded
--den
--dge
--dhi
--di
--diɣ
--do
--dom
--dor
--dou
--dozo
--dre
--ds
--du
--dus
--duu
--dy
--dɔ
--dɛ
--dɛɛ
--dɩ
--dɩm
--dɩna
--dɩnaa
--dɩtʊ
--dɩyɛ
--dɩŋ
--dɩɣ
--dɩɣna
--dʊ
--dʊʊ
--dʋ
--dʋna
--dʋʋ
--e
--ed
--ee
--eek
--eetiɣ
--ei
--ein
--ejo
--ek
--el
--ele
--eli
--em
--ema
--en
--ena
--ene
--enee
--enstein
--ent
--eon
--er
--era
--eri
--ern
--ers
--ert
--es
--esi
--et
--eur
--ex
--ey
--ez
--ezi
--eŋ
--eɖi
--eɣ
--f
--fa
--ff
--ffe
--fi
--fic
--fort
--fu
--fɛyɩ
--fɩ
--g
--ga
--gai
--galɩ
--gas
--gaɣ
--gba
--gbaŋgʊ
--ge
--gel
--gen
--ger
--geret
--ges
--gh
--ght
--gi
--gies
--gio
--gne
--go
--goo
--grad
--gradɩ
--gs
--gt
--gton
--gu
--gua
--gy
--gɔŋ
--gɛ
--gɛɛ
--gɩ
--gɩɣ
--gʊ
--gʊna
--gʊʊ
--gʋ
--gʋʋ
--h
--ha
--hal
--ham
--he
--her
--hers
--hes
--het
--hi
--hine
--hing
--hire
--hito
--hn
--ho
--hol
--ht
--hu
--hy
--hʋlʋ
--i
--ia
--ial
--ian
--ians
--ib
--iba
--ibi
--ic
--ica
--ice
--ico
--id
--ida
--ide
--idi
--idu
--iduu
--ie
--ien
--ienne
--ies
--if
--ifi
--igation
--ight
--ii
--iiki
--ika
--iki
--il
--ila
--ile
--ili
--ille
--im
--in
--ina
--inau
--ine
--ing
--ini
--inii
--inis
--ino
--io
--ion
--ions
--ip
--ique
--ir
--ire
--iri
--is
--ise
--ish
--isi
--ism
--isme
--ist
--iste
--it
--ita
--ite
--iti
--its
--ity
--iu
--ium
--ius
--ivi
--ix
--iya
--iye
--iyi
--iyo
--iyu
--iyɔm
--iyɔmɩ
--iz
--izi
--izim
--iŋ
--iɣ
--j
--ja
--jaŋ
--je
--ji
--jo
--jɛ
--k
--ka
--kaa
--kar
--kasɩ
--katɩ
--kazɩ
--kaɣ
--ke
--key
--ki
--kia
--kii
--kina
--kiŋ
--kiɣ
--ko
--koo
--kpa
--kpaɣ
--kpe
--ks
--ku
--kula
--kum
--kuu
--ky
--kyɛ
--kɔkɩ
--kɛ
--kɩ
--kɩlɩ
--kɩlʊ
--kɩm
--kɩyɛ
--kɩŋ
--kɩɣ
--kʊ
--kʊʊ
--kʋ
--kʋʋ
--l
--la
--laa
--labʋ
--lage
--laise
--lan
--land
--lar
--lat
--lav
--laɣ
--ld
--lde
--le
--lem
--len
--ler
--let
--lf
--li
--lia
--lii
--liki
--lin
--lis
--liɣ
--lk
--ll
--lla
--lle
--llo
--lls
--lly
--lm
--ln
--lo
--lon
--lou
--ls
--lt
--ltz
--lu
--lum
--lus
--luu
--ly
--lɑ
--lɔ
--lɛ
--lɛm
--lɛɛ
--lɣ
--lɩ
--lɩm
--lɩmɩ
--lɩtʊ
--lɩyɛ
--lɩɣ
--lɩɩ
--lʊ
--lʊm
--lʊʊ
--lʋ
--lʋʋ
--m
--ma
--mam
--man
--maŋ
--maɣ
--mbe
--mda
--me
--mes
--mi
--miini
--mna
--mo
--mos
--ms
--msa
--msɩɣ
--msʊʊ
--mtʊ
--mtʋ
--muu
--mwaa
--my
--mɛɛ
--mɩ
--mɩyɛ
--mɩŋ
--mɩɣ
--mʊ
--mʊʊ
--n
--na
--naa
--naire
--nan
--nau
--naɣ
--naʊ
--naʋ
--nc
--nce
--nd
--nda
--nde
--ndo
--nds
--ndɩ
--ne
--neezii
--ner
--nes
--ng
--nga
--nge
--ngo
--ngu
--ni
--nii
--nika
--niki
--nis
--nite
--niti
--niya
--nja
--nk
--nki
--nna
--nne
--no
--nou
--ns
--nsi
--nsɩ
--nt
--nte
--nti
--nto
--nts
--ny
--nz
--nza
--nzɩ
--nɑʊ
--nɔɔ
--nɖe
--nɖɛ
--nɛ
--nɛzɩ
--nɩ
--nɩyaa
--nɩyɔm
--nɩɣ
--nɩʋ
--nʊ
--nʊŋ
--nʋ
--o
--oche
--ock
--od
--ogo
--ol
--ola
--om
--ome
--on
--ona
--onaa
--ong
--oni
--ono
--ons
--ont
--ony
--oo
--ooriyalɩ
--opa
--or
--ora
--ore
--oriya
--oriyalɩ
--orphoses
--orus
--os
--ot
--ou
--our
--ov
--ovitch
--ow
--ozo
--oŋ
--p
--pa
--pc
--pe
--pes
--pi
--pii
--pin
--ple
--plex
--po
--ppe
--py
--pɛ
--pɛstɩ
--pɩ
--pɩzɩ
--pʋ
--q
--que
--r
--ra
--rafrika
--ram
--rant
--rat
--rc
--rd
--rde
--rdo
--rds
--re
--ree
--rel
--ret
--rg
--rge
--rgh
--ri
--ria
--rii
--rika
--ris
--rise
--rk
--rki
--rm
--rmo
--rn
--rna
--rne
--ro
--rod
--rov
--rr
--rs
--rt
--rta
--rte
--rten
--ru
--rus
--ry
--rɩ
--s
--sa
--sasa
--sasɩ
--sayɩ
--saɣ
--sch
--sco
--se
--sed
--sen
--seɛ
--sh
--shire
--si
--sia
--side
--sii
--siyɔɔm
--sk
--sler
--sm
--sme
--smɩ
--so
--son
--ss
--ssa
--sse
--st
--sta
--stan
--ste
--ster
--sti
--sto
--ston
--stone
--stre
--sts
--su
--suu
--sy
--sɔ
--sɔɔ
--sɛ
--sɛɛ
--sɩ
--sɩm
--sɩna
--sɩyɛ
--sɩɣ
--sɩɩ
--sʊ
--sʊʊ
--sʋ
--sʋʋ
--t
--ta
--taa
--tan
--tani
--tanɩ
--taŋ
--taɣ
--te
--ted
--tee
--tein
--ter
--ters
--tes
--th
--tha
--thy
--ti
--tia
--tic
--tii
--tim
--tion
--tions
--tis
--tium
--tive
--to
--toire
--ton
--tone
--tovium
--town
--ts
--tt
--tta
--tte
--tu
--ture
--tus
--tuu
--ty
--tz
--tɔ
--tɔm
--tɔɔ
--tɔɣɔ
--tɛ
--tɛnɩ
--tɛrɩ
--tɛtʊ
--tɛɛ
--tɩ
--tɩlɩda
--tɩɣ
--tɩɩ
--tʊ
--tʊʊ
--tʋ
--u
--ua
--uba
--ud
--ue
--uf
--ug
--ugh
--ui
--ul
--uli
--ult
--um
--umba
--ume
--un
--una
--ur
--ure
--urg
--uri
--urs
--us
--use
--ut
--uu
--ux
--uzi
--uɖu
--uʊ
--v
--va
--val
--ve
--vi
--viduu
--vili
--vitch
--vna
--vo
--vɩ
--w
--wa
--waa
--waanɩ
--wald
--wan
--wanɩ
--way
--waɣ
--we
--well
--wi
--wu
--wuu
--wɛ
--wɛɛ
--wɩ
--wʊ
--x
--xi
--xt
--xy
--y
--ya
--yaa
--yasi
--yaɣ
--ye
--yi
--yiki
--yo
--yoo
--ys
--yu
--yɔ
--yɔda
--yɔm
--yɔmɩ
--yɔɔ
--yɛ
--yɛlɩ
--yɛŋ
--yɛɛ
--yɩ
--yɩna
--yɩsɩ
--yɩtʊ
--yɩyɛ
--yɩŋ
--yɩɣ
--yʊ
--yʊna
--yʊʊ
--yʋ
--yʋʋ
--z
--za
--zaa
--zasɩ
--zaɣ
--ze
--zi
--zii
--zilii
--zim
--zina
--ziɣ
--zm
--zo
--zu
--zuu
--zɔ
--zɛ
--zɣ
--zɩ
--zɩm
--zɩna
--zɩtʊ
--zɩyɛ
--zɩyʊ
--zɩŋ
--zɩɣ
--zɩɣna
--zɩʊ
--zʊ
--zʊna
--zʊŋ
--zʊʊ
--zʊʊna
--zʋ
--zʋʋ
--zʋʋna
--ŋ
--ŋa
--ŋaa
--ŋaɣ
--ŋga
--ŋgɩ
--ŋgʊ
--ŋi
--ŋka
--ŋna
--ŋzɩ
--ŋŋ
--ŋŋŋ
--ŋɩ
--ŋɩyɛ
--ŋɩɣ
--ŋʊʊ
--ƴɛ
--ɐ
--ɑɣ
--ɔ
--ɔla
--ɔnɩ
--ɔŋ
--ɔɔ
--ɔʊ
--ɖ
--ɖa
--ɖaa
--ɖaŋ
--ɖe
--ɖetʊ
--ɖeu
--ɖi
--ɖu
--ɖɔ
--ɖɛ
--ɖɛɛ
--ɖɩ
--ɖɩyɛ
--ɖɩŋ
--ɖɩɣ
--ɖʊ
--ɖʊʊ
--ɖʋ
--ɖʋʋ
--ɛ
--ɛrɩ
--ɛta
--ɛtɩ
--ɛzɩ
--ɛŋ
--ɛɛ
--ɛɛrɩ
--ɛʊ
--ɣ
--ɣa
--ɣdiɣ
--ɣe
--ɣi
--ɣla
--ɣlaɣ
--ɣluu
--ɣmaɣ
--ɣna
--ɣnaɣ
--ɣsi
--ɣtu
--ɣu
--ɣyɛ
--ɣyɩ
--ɣyʊʊ
--ɣza
--ɣzɩ
--ɣzɩna
--ɣɩ
--ɣʊ
--ɣʋ
--ɩ
--ɩa
--ɩla
--ɩm
--ɩna
--ɩsɩ
--ɩtɩ
--ɩyɔ
--ɩyɛ
--ɩzɩ
--ɩzʋʋ
--ɩŋ
--ɩɣ
--ɩɩ
--ɩɩna
--ɩʋ
--ʊ
--ʊm
--ʊna
--ʊyɛ
--ʊʊ
--ʋ
--ʋna
--ʋʋ
--α
--ι
--ν
--ο
--ς
--н
--ч
--ה
--ب
--سی
--ن
