!
"
#
##0
##1
##10
##11
##12
##13
##14
##15
##16
##17
##18
##19
##2
##20
##21
##22
##23
##24
##25
##26
##27
##28
##29
##3
##30
##31
##32
##33
##34
##35
##36
##37
##38
##39
##4
##40
##41
##42
##43
##44
##45
##46
##47
##48
##49
##5
##50
##51
##52
##53
##54
##55
##56
##57
##58
##59
##6
##60
##61
##62
##63
##64
##65
##66
##67
##68
##69
##7
##70
##71
##72
##73
##74
##75
##76
##77
##78
##79
##8
##80
##81
##82
##83
##84
##85
##86
##87
##88
##89
##9
##90
##91
##92
##93
##94
##95
##96
##97
##98
##99
$
%
&
'
(
)
*
+
,
-
.
/
0
00
000
001
003
01
02
027
03
035
037
04
043
05
050
06
07
08
09
1
10
100
1000
1008
101
1012
1014
102
103
1037
104
1048
105
106
107
108
1080
1085
109
1091
11
110
1100
1109
111
112
1126
113
114
1147
115
116
117
118
1187
119
1193
1199
12
120
1201
1204
1207
121
1215
122
123
123456789
1238
124
1249
125
1258
126
1260
1261
127
1276
128
1285
1286
129
1293
1297
13
130
1301
1302
1304
1305
1307
1308
131
1312
132
1322
1325
133
1332
134
1349
135
136
1368
137
1377
138
1380
139
1390
1391
1392
1393
1394
1397
1398
14
140
1401
1402
1403
1404
1405
1406
1407
1408
1409
141
1410
1411
1412
1413
1414
1415
1416
1417
1418
1419
142
1420
1421
1422
1423
1424
1425
1426
1427
1428
1429
143
1430
1431
1432
1433
1434
1435
1436
1437
144
1440
1444
145
1451
1452
1453
1457
146
1461
1469
147
1472
1473
1478
148
1481
1482
1483
1485
149
1491
1492
1493
1494
1496
1497
15
150
1500
1502
1503
1504
1506
1507
1509
151
1511
1512
1519
152
1521
1522
1524
1525
1526
1528
1529
153
1530
1531
1533
1534
1535
1536
154
1541
1542
1543
1544
1547
155
1550
1553
1554
1555
1557
156
1560
1562
1564
1565
1566
1567
157
1571
1575
1576
1578
158
1581
1582
1583
1584
1585
1586
1587
1588
1589
159
1591
1592
1593
1595
1596
1598
16
160
1600
1601
1603
1605
1606
1607
161
1610
1612
1615
1616
1617
1618
1619
162
1620
1621
1624
1626
1628
1629
163
1630
1632
1633
1634
1635
1636
1637
1638
1639
164
1640
1642
1643
1644
1648
1649
165
1650
1653
1654
1655
1657
1659
166
1660
1661
1666
1667
1669
167
1670
1671
1672
1673
1674
1675
1676
1677
1678
168
1681
1683
1684
1685
1686
1687
1688
1689
169
1690
1691
1693
1694
1695
1696
1699
17
170
1700
1701
1703
1704
1706
1707
1709
171
1710
1711
1712
1713
1714
1715
1717
1718
1719
172
1720
1721
1723
1724
1725
1727
1728
17282
1729
173
1730
1732
1734
1735
1736
1737
1738
1739
174
1740
1741
1742
1743
1744
1746
1747
1749
175
1750
1751
1753
1754
1755
1756
1757
1758
1759
176
1760
1761
1762
1763
1764
1765
1766
1767
1768
1769
177
1770
1771
1772
1773
1775
1776
1777
1778
1779
178
1780
1781
1782
1783
1784
1785
1786
1787
1788
1789
179
1790
1791
1792
1793
1794
1795
1796
1797
1798
1799
18
180
1800
1801
1802
1803
1804
1805
1806
1807
1808
1809
181
1810
1811
1812
1813
1814
1815
1816
1817
1818
1819
182
1820
1821
1822
1823
1824
1825
1826
1827
1828
1829
183
1830
1831
1832
1833
1834
1835
1836
1837
1838
1839
184
1840
1841
1842
1843
1844
1845
1846
1847
1848
1849
185
1850
1851
1852
1853
1854
1855
1856
1857
1858
1859
186
1860
1861
1862
1863
1864
1865
1866
1867
1868
1869
187
1870
1871
1872
1873
1874
1875
1876
1877
1878
1879
188
1880
1881
1882
1883
1884
1885
1886
1887
1888
1889
189
1890
1891
1892
1893
1894
1895
1896
1897
1898
1899
19
190
1900
1901
1902
1903
1904
1905
1906
1907
1908
1909
191
1910
1911
1912
1913
1914
1915
1916
1917
1918
1919
192
1920
1921
1922
1923
1924
1925
1926
1927
1928
1929
193
1930
1931
1932
1933
1934
1935
1936
1937
1938
1939
194
1940
1941
1942
1943
1944
1945
1946
1947
1948
1949
195
1950
1951
1952
1953
1954
1955
1956
1957
1958
1959
196
1960
1961
1962
1963
1964
1965
1966
1967
1968
1969
197
1970
1971
1972
1973
1974
1975
1976
1977
1978
1979
198
1980
1981
1982
1983
1984
1985
1986
1987
1988
1989
199
1990
1991
1992
1993
1994
1995
1996
1997
1998
1999
2
20
200
2000
2001
2002
2003
2004
2005
2006
2007
2008
2009
201
2010
2011
2012
2013
2014
2015
2016
2017
2018
2019
202
2020
2021
2022
2023
2028
203
204
205
206
207
208
209
21
210
211
212
213
214
215
216
217
218
219
22
220
221
222
223
224
226
227
228
229
23
230
231
232
233
234
235
237
239
24
240
241
243
244
245
246
247
248
25
250
251
252
253
2533
2539
254
2547
2552
2553
256
257
258
259
26
260
26091
261
262
265
266
267
268
269
27
270
271
272
273
275
276
278
279
28
280
281
282
283
284
285
286
287
288
29
290
291
293
295
296
297
298
299
3
30
300
3000
301
302
303
304
305
306
307
308
309
31
310
311
312
313
314
315
316
317
318
32
320
321
322
323
324
325
326
329
33
330
332
333
334
335
336
337
338
339
34
340
341
342
343
344
346
347
348
349
35
350
351
352
354
355
356
357
358
359
36
360
361
362
363
364
365
366
37
370
373
38
380
39
390
395
399
4
40
400
4000
401
402
404
406
408
409
41
415
416
419
42
425
43
432
433
435
44
440
45
450
455
457
459
46
47
470
474
476
478
479
48
480
487
49
493
5
50
500
507
508
509
51
51079
515
52
520
53
532
538
54
55
550
551
56
567
57
570
58
582
588
59
6
60
600
6000
602
605
61
610
613
62
621
622
623
626
63
630
632
634
639
64
641
642
645
65
650
653
66
660
663
664
666
67
672
677
68
680
683
684
6879
69
693
696
7
70
700
702
7022
703
705
706
707
71
711
712
72
724
725
727
73
73169
736
74
747
75
750
752
753
757
76
765
77
777
779
78
781
786
79
8
80
800
802
804
81
810
812
814
82
83
831
839
84
840
841
847
848
85
850
857
86
866
87
88
883
89
9
90
900
9000
902
906
91
911
92
924
926
927
929
93
930
94
95
950
96
960
97
973
978
9789796660482
979
9796660504
9799012120
98
986
99
:
;
=
>
?
\
^
_
`
a
aa
aadabu
aadati
aagama
aaita
aalo
aaloliyo
aalolo
aamani
aami
aaron
aasingi
ababa
abad
abadi
abbas
abbasiyah
abbey
abbott
abd
abdel
abdul
abdullah
abdulmadjid
abdurrahman
abe
abel
abeli
abi
abjad
about
abrahah
abraham
abu
abuki
aburizal
ac
academy
acara
accessed
ace
aceh
achmad
acid
acquired
act
acute
ad
ada
adabu
adalah
adaline
adam
adams
adang
adanya
adaptasi
adapted
adaro
adat
adati
adb
addis
ade
aden
adha
adik
adiknya
adimulyo
adipala
adipati
admin
administrasi
administratif
administration
adnan
adolf
adsense
adu
adulyadej
adventures
advisory
advokat
adwords
aedes
aegea
aerosmith
afc
afdhal
aff
afganistan
afghanistan
afonso
afrancia
africa
african
afrika
after
ag
agak
agam
agama
agar
age
agen
agency
agong
agresi
agripina
agro
agung
agus
agustin
agustus
ah
ahad
ahadi
ahali
ahaya
ahli
ahmad
ahmadinejad
ahmed
ahok
ahu
ahumo
ai
aichi
aids
air
airbus
aircraft
aires
airlangga
airlines
airmadidi
airport
airways
aisyah
aita
ajang
ajangale
ajar
ajaran
ajibarang
ajung
akademi
akademik
akademisi
akali
akan
akbar
akhir
akhirnya
akibat
akibati
akibatnya
akihito
akiibati
akira
akoro
aksara
akses
aksi
aktif
akting
aktivis
aktivitas
aktor
aktris
aku
akuatik
akuisisi
akumulasi
akumulator
akurat
akut
akuwo
al
ala
alabama
alalak
alam
alamat
alami
alamiah
alan
alap
alas
alasan
alasani
alaska
alat
alato
alauddin
albania
albay
albert
alberto
albertus
album
ale
aleksander
aleksandr
alel
alergi
alert
alessandro
alex
alexander
alexandria
alexis
alfa
alfabet
alfonso
alfred
alfredo
ali
alian
aliansi
align
alignbars
alih
alihu
alik
alikusu
alimo
alinguwa
alipo
aliran
alisjahbana
aliyo
aljabar
aljazair
aljir
alkimia
alkohol
all
alla
allah
allahu
allen
allende
allgemeine
alliance
allo
almanak
almarhum
alo
alofon
aloliyo
alolo
alonso
alor
alphabet
alternatif
aluh
aluku
alumni
alumu
alun
alva
alveolus
alwi
am
amadeus
amai
amali
aman
amanah
amanat
amanda
ambahu
ambal
ambesia
ambisi
ambon
ambu
ambua
ambulu
ambungu
ambuwa
amelia
amendemen
america
american
amerika
amfibi
ami
amila
amin
amino
amir
amiruddin
amirul
ammonia
amonggedo
amongo
amonia
ampana
ampar
ampe
ampelgading
ampera
ampere
amphibi
ampibabo
amplas
amrullah
amsterdam
amundsen
amunisi
an
ana
anabolik
anabolisme
anak
anaknya
anal
analisa
analisis
analiyo
ananda
ananta
anas
anastasia
anatolia
anatomi
ancalong
ancaman
anchor
ancient
and
anda
andarlı
andersen
anderson
andes
andi
andir
andre
andrea
andreas
andres
andrew
android
andropov
andy
aneh
anestesiologi
aneuk
ang
angel
angela
angeles
anggaberi
anggadu
anggalomoare
anggana
anggapuwo
anggapuwoliyo
anggeraja
anggota
anggotanya
anggrek
angham
angin
angiotensin
angka
angkasa
angkat
angkatan
angkut
angkutan
anglo
ango
angola
angry
angus
ani
anies
animalia
animasi
anion
anjatan
anjing
anjongan
anna
anne
anno
anode
anorganik
ans
antapani
antar
antara
antaranya
antariksa
antarktika
antartika
antasari
antena
anthony
anti
antipolo
anto
antoinette
anton
antonio
antonius
antono
antosha
antulu
anuar
anubis
anugerah
anumerta
anus
anwar
anyar
ao
aog
ap
apa
apakah
apapun
aparat
apartheid
aphanes
api
apingo
aplikasi
aplu
apo
apollo
apotheosis
appius
apple
apra
april
apu
apula
apuwa
aquino
ar
arab
araba
arabi
arabia
arafat
aragon
arah
arahan
arang
aranio
arashi
arbeiterpartei
arc
arcadius
arcamanik
arcandra
arcetri
archimedes
archives
ardilla
are
area
arecaceae
arema
aren
argentina
argo
argumen
ari
arif
ariffin
arifin
aristide
aristoteles
arizona
arjasa
arjosari
arjowinangun
arjuna
arkeolog
arktik
armada
armand
armenia
arms
armstrong
army
arnold
arosbaya
arrest
arsenal
arsenikum
arsip
arsitek
arsitektur
art
artape
artefak
arthropoda
arthur
arti
article
articles
artikel
artikelliyo
artileri
artiliyo
artinya
artis
artist
artists
aru
arus
as
asa
asal
asali
asaliliyo
asalnya
asam
asas
asasi
asean
asem
aset
ashley
asia
asian
asih
asing
asinua
asisten
asli
aslinya
asmara
asmat
asosiasi
asparaga
aspek
aspirasi
asri
association
astambul
astana
asteroid
astra
astro
astrolog
astronom
astronomi
astronot
asuransi
asyir
at
ata
ataliyo
atap
atas
atasnya
atau
ataupun
ath
athar
athena
ati
atinggola
atiyo
atlanta
atlantik
atlas
atlet
atma
atmodarminto
atmosfer
ato
atol
atom
atp
aturangi
au
audio
audiovisual
audrey
auf
auflage
august
auguste
augusto
augustus
aung
aur
aura
auschwitz
austin
australia
australian
austria
austro
auto
avertebrata
awa
awak
awaknya
awal
awali
awaliliyo
awalnya
awan
awang
awangpone
award
awards
awo
awu
awuhu
awuta
awwali
aya
ayabu
ayah
ayahnya
ayat
ayati
ayatollah
ayi
ayilo
ayita
ayrton
ayu
ayula
ayuwa
ayyubi
azerbaijan
azeri
aziz
azlan
azwar
b
ba
baabullah
baalajari
baao
baate
babadan
babak
babakan
babang
babat
babi
babilonia
baby
baca
bacacay
bachri
bachtiar
bacu
badai
badak
badan
badas
badegan
baden
badudu
bagacay
bagaimana
bagaimanapun
bagamanoc
bagdad
baghdad
bagi
bagia
bagian
baginda
bagong
bague
bagumbayan
bagus
baha
bahadur
bahagia
bahagian
bahan
bahari
bahasa
bahaso
bahay
bahaya
bahkan
bahodopi
bahrain
bahu
bahwa
bai
baiduri
baik
bainaa
baird
baiturrahim
baiturrahman
baja
bajeng
baji
bajo
bak
bakal
bakar
bakasi
bakat
bakau
baker
baki
bakongan
bakr
bakrie
bakteri
bakti
baku
bakung
bala
baladewa
balaesang
balahu
balai
balajari
balakama
balanda
balang
balangga
balantak
balap
balapan
balaroa
balas
balasan
balatan
bale
baleango
balen
balerejo
bali
baliara
balik
balikpapan
balinggi
balistik
balkan
balla
balok
balombo
balon
balong
balongan
baltik
baltimore
balung
balusu
bam
bamba
bambalihe
bambang
bambu
ban
banaran
banari
banawa
band
banda
bandar
bandara
bandung
banga
bangga
banggai
bangge
bangka
bangkalan
bangkinang
bangkok
bangkurung
bangladesh
bangodua
bangsa
bangsal
bangsalsari
bangsawan
bangun
bangunan
bangusa
bani
banjar
banjaran
banjaranyar
banjarbaru
banjarejo
banjarmasin
banjarnegara
banjarsari
banjir
bank
bankir
banner
banta
bantaeng
bantarsari
bantayo
banten
banteng
bantuan
bantul
bantur
banua
banwaan
banyak
banyakan
banyuasin
banyumanik
banyumas
banyusari
banyuurip
banyuwangi
baolan
bapak
bappenas
baptis
bara
barack
barak
baraka
barang
barangay
barangi
barangka
baras
barat
baraya
barbados
barbara
barcelona
bard
bardata
barebbo
bari
barincrement
barisan
barisi
barito
barlawo
baroe
baroko
barombong
baron
barong
barre
barrio
barru
barry
barset
bartlett
bartolomeo
baru
baruadi
baruga
baruta
basa
base
baseball
basidondo
basilika
basis
basket
basri
bass
bastian
basud
basuki
baswedan
bata
batade
batak
batam
batang
batanga
batangaliyo
batanghari
batangiyo
batango
batas
batasi
batauga
batavia
bate
baterai
baterei
batik
batista
bato
battery
battista
battle
batu
batuah
batuan
batubara
batudaa
batudaka
batuhampar
batui
batujaya
batununggal
batupoaro
baturraden
batutah
bau
baubau
baula
baureno
bautista
bavaria
bawa
bawah
bawang
bay
baya
bayan
bayari
baybay
bayern
bayezid
bayi
bbc
bbm
be
beach
bear
beasiswa
beatles
beatrix
beauty
bebas
bebasi
beberapa
bec
becak
beda
bedah
bee
beethoven
begawan
begin
begitu
beha
beijing
beirut
beitrag
beji
bekas
bekasi
bekerja
bel
bela
beladiri
belah
belajar
belakang
belakangan
belanda
belarus
belas
belawan
bele
beleliyo
belengkong
belerang
beleyalo
belfast
belgia
belgrano
beliau
belisarius
belitung
belize
bell
belum
ben
benar
benazir
bencana
bend
benda
bendahara
bendera
bendo
bendosari
bendungan
benediktus
bengali
bengalon
bengkal
bengkel
bengkulu
bengo
benito
benjamin
bennett
benowo
bente
benteng
bentian
bentor
bentrokan
bentuk
bentuknya
benua
benyamin
beograd
berabad
berada
beragam
beragama
berakhir
berakhirnya
beralih
beranggapan
berangkat
berantai
berapi
berarah
berarti
berasal
berat
berau
berawak
berawal
berawalnya
berayan
berbagai
berbagi
berbahaya
berbanding
berbaris
berbasis
berbeda
berbentuk
berbicara
berbunyi
berdarah
berdasarkan
berdaulat
berdemonstrasi
berdiri
berdirinya
beredar
berekor
berenti
beresi
berevolusi
berfungsi
bergabung
berganti
bergantian
bergantung
bergerak
berguna
berhadapan
berhasil
berhenti
berhubungan
berikatan
berikut
berikutnya
beringin
berisi
berisikan
berita
berjalan
berjanji
berjarak
berjudul
berjumlah
berkaitan
berkas
berkebangsaan
berkekuatan
berkembang
berketurunan
berkuasa
berkulit
berkumpul
berkunjung
berlabuh
berlaku
berlangsung
berlanjut
berlapis
berlawanan
berlayar
berlin
bermacam
bermain
bermotor
bermuatan
bermula
bern
bernama
bernard
bernhard
bernilai
bernomor
beroperasi
berpartisipasi
berpasangan
berpendapat
berpengaruh
berpenghuni
berperan
berperang
berpidato
berpindah
bersalah
bersama
bersamaan
bersatu
bersaudara
bersenjata
bersidang
bersifat
bersih
bersin
berskala
bersuara
bersubsidi
bersudut
bersumber
bertabrakan
bertahan
bertahap
bertanda
bertanggung
bertempat
bertempur
bertemu
bertenaga
bertepatan
bertindak
bertingkat
bertopik
bertrand
bertugas
beru
berubah
berujung
berupa
berusaha
berusia
bervariasi
berwarna
berwujud
besar
besaran
beserta
besi
best
besuk
besuki
besulutu
besusu
betawi
betina
betoambari
betung
beyog
beyond
bgy
bhakti
bhopal
bhumibol
bhutan
bhutto
bi
bia
biafra
biak
biara
biaro
biasa
biasaliyo
biasanya
biatan
biau
bibilohu
bibinanga
bibir
bibit
bibiyahu
bible
bicara
bid
bidang
biduk
bie
big
bihu
biihu
bikol
bila
bilal
bilalang
bilangan
bilango
bilantuwa
bilateral
bilato
bileheliyo
bilehelo
bili
bilinta
biliu
bill
billahi
billy
bilohe
bilohelo
bilohi
biloli
bilongu
bilonguliyo
bilu
bilubu
biluhu
bilulo
bilulota
bilungala
biluta
bima
bin
bina
binaatangi
binakal
binangun
binanuahan
binapemdes
binatang
binatangi
binda
biner
binggungo
binjai
binta
bintang
binte
binti
bintik
binuang
bio
biochemistry
biofisika
biografi
biographical
biographie
biokimia
biokimiawan
biola
biologi
biologie
biologis
bioskop
biot
bioteknologi
bira
birds
biringbulu
biringkanaya
birma
biro
biromaru
biru
bisa
bishop
bismarck
bisnis
bisnisi
bisnisliyo
bissappu
bit
bito
bitstream
bitung
biyasa
biyasaliyo
biyawa
bizantium
bj
black
blake
blimbing
blitar
blohm
blok
bloody
blue
bluluk
bo
boalemo
board
boat
bob
bobby
bobo
boboli
bobotsari
boccoe
bode
bodelo
boediono
boeing
boer
bogor
bogota
bogtong
boheli
bohemia
bohito
bohu
bohulio
bohulioliyo
bohuliyo
bohulotawu
boito
bojonegooro
bojonegoro
bojong
bojongloa
bojongsari
bokan
bokat
bokings
bokra
bola
bolaang
bolak
bolaliyo
bolang
bolango
bolano
bole
boleh
boli
bolivia
boliyohuto
bolkiah
bolo
bolshevik
bolton
bolu
bom
bomba
bombana
bomber
bomis
bonaparte
bond
bonda
bondan
bondo
bondoala
bondowoso
bone
bonebae
bonegunu
boneka
bonepantai
bongan
bongas
bongkudai
bongo
bongohulawa
bongoime
bongomeme
bongopini
bongu
boni
bonjol
bonn
bono
bonorowo
bontang
bonto
bontoala
bontocani
bontolempangan
bontomanai
bontomarannu
bontonompo
bontoramba
bontotiro
boo
book
books
booth
bopp
boric
boris
borneo
borobudur
borong
bos
bosch
bosnia
bosporus
boston
bot
botani
botany
botha
boti
botia
botiya
botiye
boto
botolinggo
botswana
bottom
botu
botubulota
botuliyo
botumoito
botupingge
botutihe
botutonu
boutros
boven
bowl
bowman
bowo
boxer
boy
boyband
boyd
boyi
boyito
boyolangu
bpr
bps
bpupki
brahe
brahman
braille
brasi
brasil
braun
brazil
bre
brendan
brezhnev
brgy
brian
bridge
brigade
brigadir
brimob
britania
britannica
british
britney
broadcasting
broadway
bromo
brondong
brooke
brother
brothers
brown
browser
broz
bru
bruce
brunei
bruno
bruto
brutus
bt
bu
bua
buah
buahbatu
bualemo
buana
buatan
buatulo
buaya
buayan
bubar
buboto
bubu
bubulan
bubutan
budak
budaya
budayawan
buddha
budha
budi
buena
buenavista
buenos
buga
bugis
buheli
buhetiyo
buheto
buhi
buhu
bujur
buka
bukaka
bukal
bukan
bukateja
bukide
bukit
bukitkerman
bukittinggi
buko
bukti
buku
bukuliyo
bukunya
bukur
bula
bulade
bulaeng
bulagi
bulak
bulalo
bulan
bulango
bulat
bulawa
bulawan
bule
bulenditi
bulentiti
bulgaria
bulilango
bulili
bulita
buliya
bull
bulo
bulonga
bulonggo
bulota
bulotalangi
bulotu
bulu
bulukumba
bulukumpa
bulusari
buluspesantren
bulutangkis
bumbu
bumi
bumn
bun
bunaken
bunda
bundar
bunder
bune
bung
bunga
bungah
bungajae
bungalio
bungaliyo
bungaya
bunggo
bunggohu
bunggu
bungi
bungin
bungkal
bungku
bungo
bungoliyo
bunker
bunobogu
bunta
buntalo
buntu
buntulia
bunuh
bunyi
bunyinya
buol
bupati
burabod
buranga
burgundia
burhan
burisrawa
buriswara
burkert
burkina
burma
burr
bursa
burton
buruh
buruna
burundi
burung
burungi
bus
busak
busana
busang
bush
business
buta
buti
butiye
buto
buton
butt
butterfly
butters
buttigieg
butu
butuh
buwa
buwono
buyat
buyo
by
byron
byzantium
c
ca
cab
cabagn
cabang
cabangi
cabugao
cacar
cacat
cadangan
caesar
cagar
cagub
cahaya
cahu
cairan
cakra
cakram
calcar
calcutta
california
caligula
calon
caltex
calvin
calzada
camagong
camalig
camar
camarines
cambridge
cameron
camp
campaka
campbell
campuran
campurdarat
can
canada
canadian
canary
canaveral
canberra
cancer
candi
candisari
candiwulan
cangkring
canterbury
cantian
cantung
canvas
capalonga
cape
capital
capitol
capres
captain
cara
caramoran
carat
carbide
carel
carl
carlo
carlos
carmen
carnegie
carolina
carroll
carter
cartman
cartoon
casablanca
case
cassius
castile
castro
cat
catanduanes
catatan
category
catherine
cattle
catur
catus
cawagub
cawapres
cbs
cc
cd
cdc
ce
ceaus
cebu
cedera
ceko
cekoslovakia
cekoslowakia
celah
celebes
celsius
cendana
cendekiawan
cenderung
cenrana
censor
center
central
centro
century
ceo
cepat
cephalopoda
ceres
ceri
cerita
cerme
cermee
cerpen
cervantes
cetak
cetakan
ch
cha
chad
chaim
chain
chairil
chaiyya
challenger
chamberlain
champions
chang
change
channel
chaos
chaplin
chapman
charlemagne
charles
charlie
chase
che
chechnya
checkhov
chef
chekhonte
chekhov
chelsea
chen
cheras
cherry
cherrybelle
chester
chevrolet
chi
chiang
chicago
chicken
child
children
chile
chili
china
chinese
chip
cho
choi
chordata
chris
christiaan
christian
christine
christmas
christopher
chrome
chromium
church
churchill
cia
ciamis
ciampel
cibaduyut
cibeunying
cibiru
cibuaya
cicendo
cicero
cidadap
cigondewah
cikal
cikampek
cikancung
cilacap
cilandak
cilatati
cilegon
ciletakiliyo
cilincing
cilodong
cilongok
cimahi
cimanggis
cimanggu
cina
cinambo
cincin
cindai
cinere
cinnong
cinta
cipadung
ciparay
cipari
cipayung
cipta
ciptaan
cirebon
ciri
cisalak
cisaranten
citadel
cites
citra
city
ciudad
civil
clara
clarence
clark
class
classical
claude
claudio
claudius
clav
clay
cleveland
clinton
clive
club
clyde
cm
cnn
co
coast
coba
coblong
coca
cocos
code
cola
cole
colin
college
cologne
colony
color
colors
colt
columbia
columbus
columns
columnwidth
com
combined
come
comes
comet
command
committee
commons
communications
communicators
company
comparative
complex
computer
concepcion
concert
concorde
condronegoro
confederation
conference
cong
congress
connecticut
conquistador
conservation
constance
consultant
content
continent
continents
contoh
contohnya
contribution
control
convention
cook
coolidge
coon
cooperation
coordinator
copa
copernicus
copyright
corazon
corelli
cornelis
corona
corporate
corporation
corps
corte
coulomb
council
count
country
county
course
court
cov
cover
covid
cow
cows
craig
creative
creek
crick
crime
cristo
crocus
cross
crown
cruz
cs
cu
cuaca
cukup
culex
cum
cuma
cunningham
cup
curahdami
curie
curio
curtis
curug
cut
cuti
cuukupu
cv
d
da
daa
daadata
daata
daataliyo
dabo
dabu
dada
dadaata
dadapan
dadata
dae
daendels
daerah
daerahnya
daet
daftar
dagang
dagangan
daha
dahangi
dahlan
dahlani
dahsyat
dai
daigo
dako
dakota
dakwaan
dala
dalai
dalala
dalalo
dalam
dalamnya
dale
dallas
damai
damanga
damangiyo
damango
damangoliyo
dame
damien
damon
damono
dampak
dampal
dampelas
dan
dana
danasri
danau
daniel
danjen
danny
dap
dapa
dapat
daputari
daraga
darah
darat
daratan
dari
daring
daripada
darul
darurat
darus
darussalam
darwin
das
dasar
dasari
data
datahe
datahiyo
datahu
datala
datang
datar
dataran
dateformat
dati
daud
daum
daun
dauni
daur
david
davis
dawarblandong
dawi
dawn
dawuan
dawud
dawuhan
day
daya
dayak
dayeuhluhur
days
dc
dd
de
dead
deal
death
debo
debu
debutnya
dec
declaration
deddy
dede
dee
deep
deepublish
definisi
definitif
degorontalo
dehetiyo
deheto
dehu
dekade
dekan
dekat
deket
dekker
deklarasi
dekopin
dekret
del
delano
delapan
delaware
delegasi
delhi
deli
delo
delomiyo
delomo
delomoliyo
deloo
delphi
delta
demam
dembe
deme
demi
demikian
demografi
demokrasi
demokrat
demokratik
demokratis
demon
demonstran
demonstrasi
den
denai
dengan
denggu
dengilo
denis
denmark
dennis
denny
denominasi
denpasar
densitas
deoksiribonukleat
depan
departemen
department
dependensi
depito
depok
depresi
depula
deputi
der
derajat
derawan
dermatologi
des
desa
desain
desainer
desakan
descartes
desember
desiderius
design
desis
deskripsi
desmond
detail
detasemen
detik
detohu
deutsche
deuwito
deuyito
devaluasi
devi
devon
dewa
dewan
dewanagari
dewantara
dewaruci
dewasa
dewi
dex
dhaka
dharma
dharmasraya
dhien
di
dia
diaalu
diabadikan
diadakan
diadaptasi
diadili
diadopsi
diagnosis
diagnostik
diagram
diakhiri
diakses
diaktifkan
diakui
dialami
dialek
dialiri
dialu
diam
diambil
diameter
diampu
dian
diana
dianeksasi
dianggap
diangkat
diantara
diantaranya
dianugerahi
dianut
diasingkan
diasosiasikan
diawali
dibaca
dibagi
dibajak
dibakar
dibalaka
dibanding
dibandingkan
dibangun
dibantai
dibatalkan
dibawa
dibawah
dibebaskan
dibedakan
dibentuk
dibentuknya
diberhentikan
diberi
diberikan
diberlakukan
dibom
dibuahi
dibuang
dibuat
dibubarkan
dibuka
dibunuh
dibutuhkan
dicabut
dicatat
diciptakan
dick
dickens
dictionary
diculik
did
didakwa
didapatkan
didasarkan
didefinisikan
dideskripsikan
didi
didihimo
didingga
didirikan
didirikannya
didu
diduduki
diduga
didukung
die
diego
dieja
dieksekusi
diem
diesel
difilmkan
diftong
diganti
digantikan
digelar
digit
digital
digoel
digulingkan
digunakan
dihadapi
dihadiri
dihancurkan
dihapus
dihapuskan
dihasilkan
dihentikan
dihilangkan
dihu
dihukum
diidentifikasi
diikuti
diila
diinginkan
diipo
dijadikan
dijatuhi
dijatuhkan
dijual
dijuluki
dikaitkan
dikalahkan
dikelompokkan
dikeluarkan
dikembalikan
dikembangkan
dikenal
diketahui
dikibarkan
dikili
dikirim
diklasifikasikan
diktator
dikuasai
dila
dilafalkan
dilaksanakan
dilakukan
dilambangkan
dilancarkan
dilanda
dilangato
dilantik
dilaporkan
dilarang
dilarutkan
dilatih
dile
diledakkan
dileliyo
dilelo
dilengkapi
dilepaskan
dilestarikan
diletakkan
dili
diliniliyo
dilito
diluari
diludu
diluhengo
diluncurkan
diluuari
diluwari
dimahkotai
dimainkan
dimakamkan
dimana
dimekarkan
dimembe
dimenangi
dimensi
dimiliki
diminggu
dimuat
dimuka
dimulai
dimulainya
din
dinamai
dinamakan
dinamika
dinamis
dinas
dinasti
dinding
ding
dingin
dinh
dini
diniyohu
dinobatkan
dinosaurs
dinosaurus
dinyatakan
diokletianus
dioksida
dioperasikan
dipakai
dipaksa
dipanggil
dipasang
dipatenkan
dipecah
dipegang
dipenggal
dipercaya
dipergunakan
diperingati
diperintahkan
diperkenalkan
diperkirakan
diperlukan
diperoleh
dipertahankan
dipertentangkan
dipertunjukkan
dipicu
dipilih
dipimpin
dipinjam
diplomat
diplomatik
dipo
dipompakan
diponegoro
dipotong
diproduksi
diproklamasikan
diproklamirkan
dipublikasikan
diputar
dir
dirancang
dirangcang
dirasakan
diratifikasi
dirayakan
direbut
direction
direksi
direktur
direpresentasikan
diresmikan
diri
dirilis
dirinya
dirk
dirty
dirumuskan
dirut
disahkan
disambiguasi
disamping
disandera
disatukan
discovery
disebabkan
disebut
diselenggarakan
diselesaikan
disempurnakan
diserahkan
diserang
diseret
disertai
disetujui
disiarkan
disiksa
disimpan
disingkat
disingkirkan
disintesis
disiplin
diskografi
diskrit
diskusi
disney
displaystyle
distribusi
district
distrik
ditafsirkan
ditahan
ditaklukkan
ditambah
ditambahkan
ditampilkan
ditanda
ditandatangani
ditandatanganinya
ditangkap
ditayangkan
ditegaskan
diteliti
ditembak
ditempatkan
ditemui
ditemukan
ditenggelamkan
ditentukan
diterapkan
diterbangkan
diterbitkan
diterima
ditetapkan
ditimbulkan
ditinggal
ditolak
ditorpedo
ditranslasikan
dituduh
ditugaskan
ditulis
ditunjuk
diturunkan
ditutup
diubah
diucapkan
diumumkan
diusulkan
diusung
divisi
diwakili
dixon
diy
diya
diyakini
diyalu
diyaluwo
diz
dj
djafar
djalaludin
djalil
djarot
djawatan
djaya
djojoadiningrat
djoko
djuanda
dki
dkk
dlanggu
dll
dm
dna
do
docs
doctor
doda
dodap
dog
dogma
doi
dokter
doktor
doktrin
dokumen
dokumentasi
dokuteri
dolar
dollar
dolo
doloduo
dolok
dolom
dolomi
dolomo
dolopo
domain
domesticus
domestik
dominasi
domingo
domini
dominika
dompu
don
donald
dondang
dondo
dondomon
donggala
donggo
donggulu
dongkalan
dongko
donorojo
dorang
doria
dosen
double
douche
douglas
douwes
down
download
doyi
dpd
dpp
dpr
dprd
dq
dr
draft
drake
drama
dramawan
dreary
dresden
drive
driyorejo
drs
drummer
dsb
dsdna
du
dua
duahe
dubes
dublin
dudaha
dudetu
dudu
duduk
dudula
dudulamanga
duduloto
duduta
dudutu
dudutuliyo
dugui
duhelo
duhengiyo
duhengo
duhi
duhiadaa
duhu
duka
duke
dukuh
dukungan
dulahe
dulahiyo
dulahu
dulamayo
dulehe
dulo
dulohupa
dulomo
dulopula
dulopulu
dulota
dulu
dulungo
dulungoliyo
duluo
dulupi
duluwo
dumai
dumbo
dumodupo
dumoga
duncan
duncker
dungaliyo
dungga
dunggala
dungingi
dungita
dungito
dungiyo
dungo
dungohe
dungu
dunia
dunianya
duniya
dunula
duong
dupotiyo
dupoto
duran
duren
durenan
duri
durian
dusun
duta
dutohe
dutu
dutula
dutuo
duulo
duulota
duungo
duvalier
dwi
dwibibir
dwight
dwihuruf
dwikora
dwrl
dz
e
ea
eagle
earhart
earl
earnhardt
earth
east
easter
eat
ebert
ebiet
echinodermata
eclipse
eco
ed
eddie
eddy
edgar
edge
edhie
edi
edinburgh
edirne
edisi
edison
edition
editor
edmond
edmund
eduard
eduardo
edukasi
edward
edwards
edwin
edy
eela
eenta
eerens
eeya
eeyanggu
efek
efektif
egyptair
eiffel
eiji
ein
eine
eines
einstein
eisenhower
ejaan
ejournal
ekologi
ekonom
ekonomi
ekor
ekosistem
eks
eksekusi
eksekutif
ekskresi
ekspansi
ekspedisi
eksperimen
eksperimental
ekspor
ekspresi
eksternal
ekstremis
ekuador
ekuivalen
el
ela
elba
electric
electronic
elektrik
elektro
elektroda
elektrode
elektrodinamika
elektrokimia
elektrolisis
elektrolit
elektromagnet
elektromagnetik
elektromagnetisme
elektron
elektronik
elektronika
elektrosintesis
elektrostatik
elemen
elementer
elena
eleponu
elert
elias
elizabeth
ellen
elliott
elvis
em
email
emanuel
emas
embargo
embrio
emil
emiliano
emir
emirat
emisi
emma
emmanuel
empat
empire
empiris
en
enam
encyclopaedia
encyclopedia
end
ende
endemik
endlo
energi
energy
engau
engels
enggade
enggadu
enggeleti
england
english
eniwetok
enrekang
enrico
enrique
ensiklopedi
ensiklopedia
enta
ente
enterprise
entropi
enver
enzim
epeiros
episien
episode
epsilon
eputo
equus
er
era
erasmus
erat
eremerasa
eric
erich
erie
eritrea
ernest
ernst
eropa
error
erupsi
erwin
es
esa
esai
esais
escu
esdm
esi
esperanto
est
estimates
estonia
et
eta
ethiopia
etimologi
etnis
etruska
euge
eugene
eukariotik
euler
eurasia
euro
european
eurovision
eva
evakuasi
ever
everest
evic
evolusi
executive
exile
exo
explorer
exxon
eya
eyalo
eyanggu
eyd
ez
f
fa
fabian
facebook
facts
fadel
fahrenheit
fair
faisal
fak
fakta
faktor
fakultas
falkland
fals
falsafah
false
fame
famili
familia
fan
far
faraday
fase
fasilitas
fasis
faso
fat
father
fatih
fatmawati
faust
fauzi
fbi
fc
fe
februari
february
federal
federasi
federation
federico
felipe
felis
felix
fellowship
fenisia
fenomena
ferdinand
fermi
fernando
ferry
festival
fi
fidel
field
fifa
figur
fiji
fiksi
fil
file
files
filipina
film
filogenetik
filosofi
filosofis
filsafat
filsuf
filum
final
finansial
finlandia
fiorentina
firaun
firefox
first
fisik
fisika
fisikawan
fisiologi
fitri
fitur
fitzgerald
fkip
flag
flamsteed
fleet
fleming
flight
flora
florence
flores
florida
flowers
floyd
flu
fluks
flying
fm
fokker
fokus
fonem
fonetik
fonologi
font
fontsize
foo
football
for
forbes
force
forces
ford
forest
forever
formal
formula
fort
fortune
forum
fosfat
fosil
foto
fotografer
fotografi
fotosintesis
fotosintetik
foundation
four
fox
frac
fragmen
frameless
franc
france
francesco
francia
francis
francisco
franco
frank
frankfurt
franklin
frans
fransiskus
franz
frasa
frazier
fre
fred
frederick
frederik
free
freedom
freemasonry
fregat
frekuensi
french
fried
friedman
friedrich
friends
fritz
frog
from
front
ft
fu
fukuoka
fulgencio
full
fun
fundamental
fungsi
fungsional
future
fyord
g
ga
gaambangi
gaambari
gabon
gabriel
gabungan
gading
gadis
gadjah
gadung
gaga
gagal
gagarin
gagasan
gajah
gajahmungkur
galaksi
galang
galangan
galata
galeri
galilei
galileo
gallant
gallery
gallipoli
gallus
gam
gama
gamal
gambangi
gambar
gambaran
gambari
gambariliyo
gambario
gambariolo
gambarnya
gambia
gambir
gambusi
game
games
gamet
gamma
gampengrejo
ganapu
ganapuliyo
ganda
gandasari
gandhi
gandrungmangu
gandusari
gangga
gangguan
ganjar
gantarang
gantarangkeke
ganti
gantung
gara
garam
garapu
garda
garden
garfield
garis
garisi
garnett
garnisun
garry
garuda
gary
gas
gastropoda
gate
gates
gatot
gattareng
gaulle
gawang
gay
gaya
gayam
gayamsari
gayo
gayungan
gayus
gaza
ge
gebang
gebangrejo
gebangsari
gedangan
gede
gedebage
gedeg
gedung
geger
gejala
gelanggang
gelar
gelombang
gelora
gema
gemarang
gembong
gempa
gen
gencatan
genera
general
generasi
generation
generator
genesis
genetik
genetika
genggam
genom
genteng
genting
gentuma
genuk
genus
geofisika
geografi
geografis
geologi
geometri
georg
george
georges
georgia
georgios
georgy
geospatial
ger
gerak
gerakan
gerald
gerard
gerbang
gereja
gerhana
gerhard
gerilya
gerilyawan
gerindra
german
germanicus
germanium
germany
gertshen
gerungan
gesang
gesek
ghana
ghetto
ghost
gibraltar
gigi
gigmoto
gilantiya
gilles
ginjal
gio
giovanni
girl
girlband
girls
gitar
gitaris
giuseppe
gje
glagah
glempang
glen
glenn
glikoprotein
global
globe
glossar
glossas
gloster
glugur
glukosa
glyph
gmail
go
goa
gobel
god
gogh
gogon
gol
golden
golf
golkar
golo
golongan
gombong
gomez
gondang
gone
goodman
google
gorbachev
gordon
goro
gorontalo
gorut
gosong
got
goth
gottfried
gottlieb
government
governor
gowa
gp
gr
grace
grade
grafis
graham
gram
gramedia
grammatische
grand
grande
grant
granum
grapari
grasindo
gratis
gravitasi
gray
great
green
greenland
greenwich
gregorian
gregorius
gregory
grenada
gresik
grey
griffith
grigorovich
grogol
group
grozny
grujugan
grup
gu
gua
guadalajara
guadalcanal
guadalupe
guam
guangdong
guard
guardian
guatemala
gubat
gubeng
gubernur
gudang
guevara
guez
gugur
gugus
guillotine
guinea
guinobatan
gujarat
gula
gumay
gumbasa
gumelar
gumukmas
guna
gunawan
gunung
gunungpati
gunungsari
gunungsitoli
gurah
gurion
gurkha
guru
gurun
gurupu
gustaf
gustav
gustave
gusti
gutenberg
guy
guyana
gyatso
gymnasium
h
ha
haag
haarlem
habari
habib
habibie
habis
habitat
habsburg
hadi
hadiah
hadijanto
hadiningrat
hadis
hadisi
hadisoebeno
haga
haid
haile
hair
hairul
haiti
hajar
haji
hak
hakim
haku
hal
hala
halaman
halati
hale
haleliyo
halen
half
halil
halim
hall
halley
halmahera
ham
hama
hamba
hambat
hambatan
hamburg
hamengkubuwana
hamengkubuwono
hamid
hamilton
hamisi
hampa
hampang
hampir
hampiran
hamzah
han
hana
hancock
hancur
hand
handayani
handil
handle
hanga
hangar
hangat
hani
hankey
hanla
hans
hantar
hantaran
hantje
hantu
hanya
hanzi
hape
happy
haq
hara
haraga
harapan
harata
harbor
hard
harding
hare
harfiah
harga
hari
harian
hariannya
harimau
harinya
harits
harold
harris
harrison
harry
harta
harun
harus
harvard
harvey
hary
haryanto
has
hasan
hasil
hasili
hasililiyo
hasilliyo
hassan
hassanal
hastinapur
hastinapura
hasyim
hat
hate
hati
hatta
haurgeulis
haus
havana
have
havel
havelaar
hawai
hawaii
haya
hayati
he
head
healing
heath
heaven
hebat
hebiyahu
hebiyahulo
hedelowa
hedetohuliyo
heengo
heewani
heheliliya
height
heinrich
hekiraliyo
hektar
hektare
helantobu
hele
helen
helenistik
heli
helikopter
helili
helililiyo
heliliya
helimbu
helium
hell
hellenikes
helsinki
heluma
helumo
helvetia
hemo
hemodaha
hemohutu
hemokalaja
hemokaraja
hemolawo
hemolulade
hemoluladu
hemomanyanyi
hemongajari
hemongimato
hemopona
hemopotaliya
hemorawati
hemosikola
hemotembedu
hemotombilu
hemowali
hemoyitohu
hencke
hendra
hendrar
hendrick
hendrik
henri
henry
henti
hepo
hepobalajariya
hepohunawa
hepohutu
hepohutuliyo
hepohutuwo
hepohutuwoliyo
hepolulade
hepomake
hepomakeliyo
hepopohunaliyo
hepopona
hepopotaliyaliyo
hepotaliliyo
hepotombilu
hepotombiluwa
her
herald
herbert
hercules
herman
hermann
herna
hero
herschel
hershey
hertz
heryawan
herzegovina
heta
hetanggula
hetanggulala
hetanggulaliyo
hetanggulalo
hetanggulo
hetihula
hetombiluwo
hetombiluwoliyo
hetulade
hetumula
hewan
hewani
hewanto
hey
hi
hiambola
hiasan
hibrida
hiburan
hidayat
hidayatullah
hideki
hidrogen
hidung
hidup
hieroglif
hihede
hihedeliyo
hiheolio
hiheoliyo
hihewo
hihewoliyo
hihide
hihihede
hihiihede
hihilawo
hihile
hiihewoliyo
hijau
hijriah
hijriyah
hila
hilama
hilamaliyo
hilang
hilangnya
hilawo
hile
hileyiliyo
hilir
hill
hillary
hillsborough
hilton
hilu
hilulo
himalaya
himba
himbunguwa
himmler
himpunan
himu
hina
hindenburg
hindi
hindia
hindu
hingga
hipmi
hipobacawa
hipololohe
hipolulade
hipotesis
hirameya
hirohito
hiroshima
hirupa
his
historia
historis
history
hitam
hitchcock
hitler
hitolawa
hits
hittis
hitumula
hitung
hitungan
hiv
hiyaliyo
hiyalo
hiyambola
hj
hlm
hmas
hmi
hms
ho
hok
hoki
hokkaido
holding
holiday
holimombo
hollywood
holocaust
holontalo
holt
home
homer
honda
honduras
hong
hongaria
hongkong
honshu
hoorn
horizons
horizontal
hormon
horse
hosni
hot
hotel
houdini
hour
house
houston
howard
hp
hpmi
hs
html
http
https
hu
hua
huango
hubble
hubungan
hudiyo
hudu
hudungu
hugh
hughes
hugo
huguenot
huhebu
huhulaya
huhulo
huhutu
hui
huidu
hujan
hukum
hukuman
hukumani
hukumu
hula
hulala
hulalo
hulangiyo
hulango
hulapa
hulawa
hulialio
huliliyo
hulinta
huliyaliyo
hulo
hulondalo
hulondhalo
hulontalangi
hulontalo
hulonthalangi
hulonthalo
hulu
hulubalang
hulude
hululo
hulungo
human
humanis
humaya
humblot
huna
hunaliyo
hungaria
hungayo
hungguli
hungio
hungiyo
hungo
hungolawa
hungoliyo
hunt
hunto
huntsman
huntu
huntuwa
hunyadi
hurricane
huruf
hurufnya
hurupu
husain
husin
husni
hussain
hussein
hut
huta
hutagalung
hutan
huti
hutiti
hutiya
hutu
hutuo
huulude
huungo
huwa
huwali
huwalingo
huwanga
huwange
huwango
huwi
huwo
huwongo
huwoyongo
huygens
huyi
huyula
hybrid
hyde
hyderabad
hye
hyun
i
ia
iain
ialah
ian
iast
iau
ibadah
iberia
ibm
ibn
ibni
ibnu
ibodela
ibrahim
ibrani
ibu
ibukota
ibukotaliyo
ibunya
ic
ichi
ichijoji
ichkeria
ichsan
icmi
id
ida
ide
identik
idi
idiliyo
idiyo
idol
idola
idr
idris
idu
idul
ieyasu
ignasius
ignasiusi
ignatius
ihu
ii
iii
ijen
ikan
ikatan
ike
ikip
ikis
iklan
iklanliyo
iklim
iklimliyo
ikut
il
ila
ilabulo
ilahi
ilahula
ilanggango
ilanggapu
ilato
ilawod
ile
ileengi
ilegal
ilengi
ilham
ilimi
ilimu
ilir
illinois
ilmiah
ilmiahliyo
ilmu
ilmuwan
ilo
iloduhenga
ilodungga
iloheluma
ilomangga
ilomata
ilomataliyo
ilopateya
ilosababu
ilotawa
ilowali
ilowwali
ilowwaliliyo
ilustrasi
image
images
imagesize
imaginationland
imam
iman
imbalan
imbang
imbihu
img
imigran
imintihu
imlek
immanuel
immunodeficiency
impeachment
imperium
implantasi
imunologi
in
inang
inapatan
inc
inci
increment
incubator
indah
indeks
independen
independence
index
india
indian
indiana
indianapolis
indira
indische
indium
individu
individual
indochina
indocina
indonesia
indonesian
indosat
indra
indramayu
induk
induksi
indus
industri
industry
inermis
infeksi
infiltrasi
informasi
information
infrastruktur
ing
inggeleti
inggidu
inggris
ingin
ingo
ini
inilah
inka
inke
inkubator
inobonto
inovasi
insang
insecta
insiden
insinyur
inspektur
inspirasi
instagram
institusi
institut
institute
institution
instruktur
instruments
insulin
inta
intan
intelejen
intelektual
intelligence
intensitas
inter
interaksi
interaktif
internal
internasional
international
internazionale
internet
interniran
intervensi
inti
into
introduction
intron
invasi
invertebrata
investama
investasi
investor
ion
ionik
iopateya
ipa
ipad
ipb
iphone
ipi
ipilo
ipm
iqbal
iqra
ir
ira
irak
iran
iraq
irawan
iraya
iri
irian
irish
irlandia
iron
is
isa
isaac
isabel
isallowed
isarati
isbat
isbn
isi
isidro
isilamu
isimu
isinini
iskan
isla
islam
islamic
islamiyah
islamu
island
islandia
ismail
iso
isotop
isr
isra
israel
istana
istanbul
istiadat
istilah
istimewa
istri
istrinya
it
ita
italia
italiana
itb
ito
its
itu
itulah
iucn
iv
ivan
ivanov
ivanovich
iwan
iwo
iwoimendaa
ix
iya
iyati
iyo
iyomo
izin
j
ja
jabatan
jabataniliyo
jabatanliyo
jabatannya
jabbar
jabo
jabodetabek
jaboti
jabung
jack
jackson
jacob
jacqueline
jacques
jadi
jae
jaga
jailolo
jajahan
jajar
jajaran
jakarta
jaksa
jalan
jalanan
jalilul
jalur
jam
jama
jamaika
jamak
jamalul
jaman
jamani
jambangan
jambesari
jambi
jambon
jambore
jambu
james
jamie
jamo
jamowali
jan
janan
jane
janeiro
janet
jang
janggut
janji
jano
jantan
janti
jantung
jantur
januari
january
japan
japanese
japangi
jarak
jarang
jari
jaringan
jasa
jasaliyo
jasin
jason
jassin
jat
jati
jatibarang
jatilawang
jatimulya
jatimulyo
jatirejo
jatisari
jatuh
jatuhnya
jauh
java
jawa
jawab
jawaharlal
jawi
jaya
jayakarta
jayapura
jayawijaya
jazirah
jazz
je
jean
jeanne
jefferson
jejaring
jelas
jelbuk
jemaah
jembatan
jembayan
jember
jemur
jenangan
jenazah
jenderal
jendral
jeneponto
jenewa
jenggawah
jenis
jepang
jepara
jerman
jermanik
jersey
jeruk
jeruklegi
jerusalem
jesse
jessica
jesus
jet
jetis
jews
jib
jika
jiko
jilid
jim
jima
jimmie
jimmy
jin
jiwa
jiwan
jkt
jmpl
jo
joa
joachim
joan
joaquin
joe
joest
joey
johan
johani
johann
johanna
johannes
johansson
john
johnson
joho
johor
join
joins
joko
jokowi
jombang
jomo
jonan
jonas
jones
jong
jonggol
jordan
jorge
jose
josef
joseon
joseph
josephine
josip
journal
jovellar
joy
joyce
jpg
jpnn
jr
ju
juan
juang
juara
juata
judenfrage
judul
judulliyo
juga
jules
juli
julian
juliana
juliane
julius
julukan
july
juma
jumat
jumlah
jumula
jumulah
jumulaliyo
jung
juni
junior
juno
junta
juntinyuat
jupiter
jurnal
jurnalis
juru
jururakam
jurusan
jurusolek
justice
justin
jusuf
juta
jutaan
jutawan
juventus
k
ka
kaambungu
kaapali
kabaena
kabar
kabel
kabila
kabinet
kabineti
kabisat
kabuaran
kabul
kabupaten
kabut
kaczyn
kadal
kadang
kadangkala
kadatua
kademangan
kadera
kadia
kadin
kading
kadipaten
kafka
kahar
kahu
kai
kaidah
kaimana
kaimer
kairo
kaisar
kaitan
kaitani
kajang
kajian
kajuara
kakali
kakas
kaki
kakuei
kala
kalah
kalaja
kalajaliyo
kalangan
kalasi
kalau
kalawat
kalender
kaler
kali
kalia
kalianyar
kalibagor
kalibata
kaliber
kalidawir
kalifah
kaligondang
kalijati
kalima
kalimanah
kalimantan
kalimat
kalinya
kaliorang
kaliputih
kalisari
kalisat
kalitengah
kaliwates
kaliwungu
kalkulus
kalla
kalora
kaluku
kaluwari
kamal
kaman
kamar
kamaru
kamboja
kambowa
kambu
kambungu
kamera
kamerun
kami
kamikaze
kamil
kamiri
kamp
kampak
kampanye
kampar
kampung
kampus
kamulyan
kamus
kan
kanada
kanal
kanan
kancah
kandangan
kandanghaur
kandat
kandidat
kandungan
kanigoro
kanker
kansas
kanselir
kant
kanton
kantor
kantori
kapal
kapali
kapas
kapasitas
kapasitor
kapita
kapoiala
kapolri
kapontori
kapsula
kapten
kapuas
kapupaten
karabakh
karaja
karajaliyo
karakter
karakteristik
karamat
karamoy
karang
karangampel
karangan
karanganom
karanganyar
karangasem
karangbinangun
karangduren
karanggayam
karanggedang
karanggeneng
karanggintung
karangjambu
karangjati
karangkemiri
karangklesem
karanglewas
karanglo
karangmangu
karangmoncol
karangnangka
karangpilang
karangpucung
karangreja
karangrejo
karangsalam
karangsambung
karangsari
karangtalun
karangtengah
karangturi
karat
karate
karawang
karawo
karbohidrat
karbon
karbondioksida
kardinal
kardiovaskular
karel
karena
karesidenan
kareta
karibia
karier
karim
karir
karirliyo
karl
karna
karnivora
karno
karol
kartanegara
kartika
kartini
kartografer
kartoharjo
kartu
kartun
karya
karyawan
karzai
kasar
kasi
kasih
kasimbar
kasparov
kastil
kastilia
kasunanan
kasur
kasus
kata
katabolisme
katai
katapelu
katarangani
kate
katedral
kategori
kathmandu
katili
kation
katode
katolik
katulistiwa
kaubun
kauditan
kaukasus
kaum
kauman
kawa
kawangkoan
kawangkoang
kawasa
kawasan
kawat
kawedanan
kawedusan
kawunganten
kaya
kayen
kayini
kayu
kayubulan
kayumerah
kazakhstan
ke
keadaan
keadilan
keagamaan
keahlian
keamanan
keanggotaan
kebakalan
kebakaran
kebangkitan
kebangsaan
kebanyakan
kebasen
kebebasan
keberadaan
keberhasilan
kebijakan
kebocoran
kebomas
kebon
kebonagung
kebonsari
kebudayaan
kebumen
kebumian
kebun
kebutuhan
kecamatan
kecelakaan
kecepatan
kecil
kecuali
kedamean
kedang
kedatangan
kedaulatan
kedaung
kedelapan
kediaman
kediktatoran
kediri
kedokan
kedokteran
kedua
keduanya
kedubes
kedudukan
kedungbanteng
kedunggede
kedungpring
kedungreja
kedungrejo
kedungwaru
kedungwringin
kedungwuluh
kedutaan
keempat
keenam
keesokan
kegagalan
kegiatan
kegunaan
kehakiman
kehamilan
kehancuran
kehidupan
kehilangan
kehormatan
kehutanan
kejadian
kejahatan
kejatuhan
kejobong
kejuaraan
kekaisaran
kekalahan
keke
kekebalan
kekerasan
kekhalifahan
kekuasaan
kekuasaannya
kekuatan
kelahiran
kelainan
kelak
kelamin
kelapa
kelas
kelautan
kelay
kelayakan
kelayan
kelembaban
kelenjar
keliling
kelima
kelinci
kelistrikan
keller
kelly
kelompok
kelontong
keluar
keluarga
keluarganya
kelumpang
kelurahan
kema
kemajuan
kemal
kemampuan
kemangkon
kemantan
kemanusiaan
kematian
kematiannya
kemayoran
kembali
kembalinya
kembang
kembangan
kembangbahu
kembaran
kemenangan
kemenangannya
kemendagri
kementerian
kementrian
kemerdekaan
kemerdekaannya
kemih
kemiri
kemiskinan
kemlagi
kemranjen
kemudian
kemukus
kemungkinan
kemuning
kenaikan
kencana
kencong
kendahe
kendal
kendali
kendaraan
kendari
kendo
kenegaraan
kenjeran
kennedy
kenntniss
kenny
kenohan
kent
kentucky
kenya
kenyataan
kenyataannya
kenyatta
kepada
kepadatan
kepala
kepanduan
kepausan
kepemilikan
kepemimpinan
kepemimpinanliyo
kepentingan
kepercayaan
kepler
kepolisian
kepompong
keppres
kepresidenan
kepribadian
kepulauan
kepunahan
kepung
keputusan
kera
kerabat
kerajaan
kerajaannya
kerang
kerangka
kerap
kerapatan
keras
kerayaan
kerdil
keren
kereta
kerinci
kerja
kerjasama
kernowek
kerongkongan
kerta
kertajaya
kertanegara
kertas
kertasemaya
kerugian
kerusakan
kerusuhan
kesalahan
kesatuan
kesehatan
keseimbangan
kesejahteraan
keselamatan
keseluruhan
kesembilan
kesenian
kesepakatan
kesepuluh
kesimpulan
kesugihan
kesuksesan
kesultanan
kesusasteraan
kesusastraan
ketapang
ketentuan
keterangan
keterlibatan
ketetapan
ketiga
ketik
ketika
ketinggian
ketro
ketua
ketuhanan
ketujuh
keturunan
keuangan
kevin
kewalahan
kewarganegaraan
kewenangan
kewirausahaan
kg
kh
kha
khaldun
khalid
khalifah
khan
khartoum
khas
khattab
khatulistiwa
khayalan
khi
khmer
khomeini
khosrau
khrushchev
khusus
khususnya
khz
ki
kiaracondong
kid
kids
kidul
kiel
kiev
kiki
kikim
kikingo
kikino
kilogram
kilometer
kiloton
kim
kimia
kimiawan
kimiawi
kin
kind
kindang
kinerja
king
kingdom
kini
kinovaro
kintom
kiper
kippur
kira
kirgizstan
kiri
kiribati
kisah
kita
kitab
kittikachorn
kitts
klabang
klan
klasifikasi
klasik
klaster
klepu
klerk
klinik
klinis
klirong
klojen
kloning
klorida
klorofil
kloroplas
klub
kluet
km
kneser
knesset
knil
knot
knox
knpi
ko
koadaan
koalisi
koch
kodam
kode
koepcke
koes
koesoedibiyono
koesoemo
koeswoyo
kofi
kokain
kokalukuna
kokoliyo
kokoyonga
kol
kolaka
koleksi
kolektif
koliyo
kolo
kolom
kolombia
kolompok
kolonel
kolongan
koloni
kolonial
kolonialisme
kolonisasi
koluarga
komam
komandan
komando
kombinasi
komedi
komedian
komering
komersial
komet
komik
komisaris
komisi
komite
komodo
komodor
kompas
kompleks
komplikasi
komponen
komponis
komposer
komposisi
komputasi
komputer
komungkinan
komunikasi
komunis
komunisme
komunitas
konarom
konawe
kondisi
konduktor
konfederasi
konferensi
konfigurasi
konflik
konfrontasi
kong
kongbeng
konghucu
kongo
kongres
konrad
konsensus
konsentrasi
konsep
konser
konservasi
konservatif
konsolidasi
konsonan
konspirasi
konstan
konstanta
konstantin
konstantinopel
konstantinus
konstantius
konstituen
konstitusi
konstitusional
konsul
konsultan
konsumen
kontak
konteks
kontes
kontestan
kontinental
kontinu
kontrak
kontributor
kontrol
kontroversi
kontroversial
konvensi
konvensional
konvoi
koord
koordinasi
koordinat
koordinator
kopassus
kopenhagen
koperasi
kopi
kopindo
koran
korban
korea
korean
korona
koronavirus
korosi
korps
korupsi
kosio
kosmologi
kosmonot
kosovo
kosta
kostrad
kota
kotabaru
kotabunan
kotak
kotaliyo
kotamadya
kotamobagu
kotanya
kotaraya
kotawaringin
koto
kouangan
kovalen
kpk
kradenan
krako
kramat
kranggan
krangkeng
kras
kraton
krayan
kreasi
kredit
krembangan
kreta
kri
kriket
krisis
kristal
kristen
kritik
kritikus
kritis
kroasia
krocok
kromosom
kroya
kru
ks
ksatria
ksi
ku
kuadrat
kuala
kualitas
kuan
kuantitatif
kuantum
kuaro
kuasa
kuat
kuba
kubah
kubik
kubu
kucing
kuda
kudeta
kuil
kuin
kuiper
kuis
kuku
kulawi
kuliah
kulisusu
kulit
kulon
kultus
kulu
kulur
kumbang
kumparan
kumpulan
kunci
kuning
kuningan
kunir
kunjang
kunjungan
kuno
kunti
kunyit
kuomintang
kupang
kur
kura
kurang
kurawa
kurdi
kuripan
kurniawan
kurosawa
kurs
kursi
kursus
kurt
kuru
kurubani
kurun
kurva
kusaka
kusu
kusuma
kutai
kutasari
kuti
kutowinangun
kutu
kutub
kuwait
kuwarasan
kwandang
kwartir
kyai
kyoto
kyu
kyushu
l
la
lab
laba
labia
labiya
labobo
laboratorium
labu
labuan
labuhan
labuhanbatu
laden
ladongi
lady
lage
lagi
lagu
laha
lahan
lahat
lahepa
lahir
lahirlah
lahirnya
lahore
lahu
lai
lailatul
lain
lainnya
laito
laju
lakariki
lakarsantri
lake
lakea
laki
laksamana
laku
lakudo
lakuliyo
lala
lalaaminga
lalabu
lalang
lali
lalimbue
lalong
lalonggasumeeto
lalu
lama
lamahu
lamala
lamanya
lamba
lambandia
lambang
lambi
lambunu
lambutiyo
lambuya
lamela
lami
lamingiyo
lamitiyo
lamo
lamongan
lampasio
lamper
lampu
lampung
lamu
lamuru
lamuto
landas
lane
langangon
lange
langga
langgatiyo
langgato
langi
langit
langka
langkah
langowan
langsa
langsung
language
languages
lanjut
lanjuti
lanka
lansa
lantaran
lantari
lanto
lantobu
lanud
laos
lapandewa
lapangan
lapata
lapatao
lapatio
lapatiyo
lapatiyoma
lapato
lapian
lapis
lapisan
laplace
laporan
lappariaja
laptop
lapu
larangan
laren
lari
larry
larutan
larva
lasalimu
laskar
lasso
last
lata
latambaga
latar
late
lati
latih
latihan
latin
lato
latoma
latunga
latvia
lau
laude
laurent
laut
lautan
laval
law
lawan
lawang
lawani
lawas
lawato
lawo
lawode
lawrence
lawsonia
lawulo
lay
layahu
layanan
layang
layar
layi
layito
lazim
lchsan
le
lea
leader
leadership
league
leave
lebak
lebang
lebanon
lebar
lebe
lebeliyo
lebih
lebo
lech
ledakan
ledokombo
ledungga
lee
leeto
left
legazpi
legend
legenda
legendaris
legislatif
legiun
leher
leicester
leiden
leipzig
lekukan
lelea
lelenggu
leleyangi
leluhur
lemah
lemak
lembaga
lembah
lembang
lembeyan
lembo
leme
lemito
lemma
lemo
lempeng
lemur
lengan
lenggota
lenggotaliyo
lengkap
lengkong
lengkungan
lengora
lenin
leningrad
lennon
lennox
leo
leonardo
leone
leonid
leopold
lepas
lepton
les
lestari
leste
letak
letaknya
letjen
letkol
letnan
leto
letter
letters
letup
letusan
lev
levi
lewat
lewinsky
lewis
lexico
leykin
leyte
lhokseumawe
li
lia
liang
liar
liberal
liberia
libod
libon
library
libur
libureng
libya
lidong
lie
life
liga
ligao
lights
lihat
lihu
like
likupang
lilies
lilingo
liliuokalani
liluhu
lima
limau
limba
limbangan
limbata
limbato
limboto
limbu
limehe
limited
limo
limoliyo
limongoliyo
limpoe
limu
limutu
lin
lincoln
lindu
line
linear
lingga
linggahiyo
linggahu
linggelo
lingkar
lingkaran
lingkungan
lingkup
lingoliyo
linguistik
link
linnaeus
lintang
lintas
lintasan
lintidu
linula
lio
lipat
lipi
lipu
lipuliyo
lipuwalo
lisa
lisan
lisboa
lisbon
lisensi
list
listrik
liter
literature
lithuania
litium
lito
little
liu
live
lively
liverpool
living
livonia
liyamoliyo
liyo
liyoma
liyongo
lkow
ller
llo
lo
loa
loali
lobalajari
lobalango
loboli
lobotu
lobotula
lobu
lobuto
lobutu
location
locator
locuti
lodalala
lodeheto
lodehu
lodidi
lodihu
lodudu
lodudupa
loduhu
lodulahu
lodunggaya
lodungohu
lodutu
loe
logam
loganti
logistik
logo
logos
lohadiri
lohama
lohbener
lohe
lohehu
lohelili
loheyi
lohidu
lohihede
lohihewo
lohihilawo
lohile
lohimbunguwa
lohimo
lohuduta
lohuheli
lohula
lohumbuta
lohuta
lohuto
lohutu
lohuwalinga
lohuwalingayi
lohuwalingo
lohuyi
loji
lokal
lokaraja
lokasi
loke
lokomotif
lola
lolaango
lolade
loladu
lolahi
lolahu
lolak
lolameto
lolango
lolantobu
lolawo
lolayan
lolayi
loleleyangi
loli
loliyo
lolo
loloda
lolohu
lolola
lololadu
lololimo
lolopata
lolos
lolu
lolulade
loluladu
lolumula
loma
lomake
lomarenta
lomaso
lomba
lombok
lombongo
lominta
lomo
lomoli
lomongoliyo
lomongu
lomota
lompo
lomu
lomulayi
lona
londo
london
long
longaku
longanggapu
longgu
longo
longohi
longsor
lonika
lontalengo
lontar
lontho
lontio
lonto
look
lootapu
lopale
lopangimba
lopo
lopobaca
lopobebasi
lopobu
lopohuna
lopokalaja
lopolamahe
lopolayi
lopolele
lopoluwalo
lopoma
loposadiya
lopota
lopotihula
lopotihulo
lopoturusi
lopotuwawu
lopowali
lopowate
lopulito
lopulu
lopunungo
lor
lord
lords
lore
lorenzo
lorraine
los
losarang
losari
losikola
lota
lotaawunu
lotali
lotaluhu
lotamaniya
lotapu
lotapuliyo
lotawu
lotawunu
lotayade
lotitola
lotituwawu
lotiwayito
lotolo
lotombilu
lotowuli
lotuhutayi
lotutumuliyo
lotutumulo
lou
louis
louise
louisiana
lourdes
love
lowali
lowalo
lowawa
lower
lowokwaru
lowu
loyal
loyinulo
loyitohu
ls
lsjbot
ltd
lu
luar
luas
lubang
lubuk
lubuklinggau
lucas
lucia
lucius
ludwig
luftwaffe
luis
luka
luki
lukisan
lukman
lulus
lulusi
lumadu
lumajang
lumalilo
lumba
lumbir
lumehedaa
lumolombula
lumpur
lumuala
lumualo
lumuwalayi
lumuwalo
luna
lunak
lunar
lunggongiyo
lunggongo
lungsod
luok
lupi
lurus
luson
luther
luwo
luwu
luwuk
luz
ly
lyndon
lynn
lyon
m
ma
maa
maaf
maatschappij
mabini
mac
macam
macan
macapagal
macarthur
maccini
macdonald
mada
madagascar
madagaskar
madala
madelo
madinah
madison
madiun
madrid
madura
maduran
madya
maeda
maesa
maesan
magaribu
magelang
magelhaens
magellan
magetan
magnet
magnetik
magnus
magsaysay
mahabharata
mahale
mahaluku
mahasiswa
mahatma
mahengetang
mahieu
mahkamah
mahkota
mahmoud
mahmud
mahmudi
mahri
mahumu
mai
maiden
mail
mailo
maimun
main
maine
maiwa
majalah
majapahit
majelis
majenang
majid
majidin
major
maju
maka
makalehi
makam
makan
makanan
makarti
makassar
makau
make
makedonia
makes
makhluk
makin
maklumat
makmur
makna
maksimum
makusuduo
makuta
mala
maladewa
malaka
malala
malali
malam
malang
malawi
malaya
malaysia
malei
maleo
mali
malik
malilipot
malimongan
malinao
malinau
malino
malita
mallusetasi
malo
malobago
malohutu
malowali
malta
malu
malua
maluku
mama
mamajang
mamalia
mamaliyo
mamberamo
mambo
mamluk
mammalia
mamo
mamohutu
mamoposababu
mamosalato
mamowali
mampu
mamuju
man
mana
manado
management
manager
manajemen
manajer
mananggu
manapun
manchester
manchuria
mandala
mandalajati
mandarin
mandat
mandela
mandiraja
mandiri
mandonga
manfred
mang
manganitu
mangga
manggala
manggarai
manggis
mangli
mangunharjo
mangunkusumo
manifesto
manila
manito
manokwari
mansoer
mansur
mantan
mantehage
mantikulore
mantoh
mantup
manuel
manufacturing
manufaktur
manuju
manuli
manunggal
manusia
manuver
many
manyar
mao
maori
maos
maospati
map
mapenduma
maps
maracana
maradeka
maradekaya
maradona
marang
marannu
maraton
maratua
marawola
marc
march
marco
marcos
marcus
mardiyanto
mare
mareco
marelan
marenta
maret
marga
margaret
margasatwa
margomulyo
margrethe
mari
maria
mariana
maricaya
marie
marilyn
marine
mariner
marinir
mario
mariri
maris
marisa
mariso
maritim
mark
markas
markus
marley
marmara
maroko
maron
marriage
marriott
mars
marsekal
marshal
marshall
martapura
marth
martha
marti
martin
martinus
martir
maru
marvin
marwan
marx
mary
marzuki
mas
masa
masaatia
masaatiya
masahuru
masalah
masalle
masaloka
masama
masatiya
masehi
masha
masih
masina
masing
masjid
masjidil
maskapai
masker
maso
mason
massa
massachusetts
massal
master
mastering
masuk
masuknya
masyarakat
masyumi
mata
matahari
mataiwoi
matajang
matano
mataram
mate
matematika
matematikawan
materi
material
mathbf
mathe
mathematica
mati
mato
matoliyo
matolodulahu
matsum
matsushita
matt
mattampa
matthew
mattiro
mattoanging
mau
maulana
maulid
maupun
maurice
mauritania
mauritius
mawar
mawasangka
mawoluwo
max
maxwell
may
maya
mayang
mayat
mayer
mayi
mayilohutu
mayilowali
mayjen
mayor
mayoritas
mayotte
maze
mbah
mbaya
mc
mccartney
mcdonald
mclaren
me
mealo
medali
medalla
medals
medan
medang
medi
media
mediawiki
medical
medicine
medis
mediterania
medium
medungga
meela
meembidu
meeraji
meerut
meeteri
mega
megara
megawati
mehmed
mehmet
mehndi
mei
meiji
meja
mejayan
meji
mejoyo
mekah
mekanika
mekanis
mekar
mekarsari
mekkah
meknika
mekong
meksiko
mela
melahirkan
melainkan
melaka
melaksanakan
melakukan
melakukannya
melalui
melambangkan
melancarkan
melanda
melanggar
melantik
melapangkan
melaporkan
melarang
melarikan
melati
melatih
melawan
melayu
melbourne
melebihi
meledak
meledakkan
melepas
melepaskan
meletakkan
meletus
melewati
melibatkan
melihat
melindungi
melingkar
melintasi
meliputi
melompat
meluas
melucuti
meluhu
melukai
meluncur
meluncurkan
memadai
memahami
memainkan
memakai
memaksa
memalingkan
memanfaatkan
memangi
memastikan
memasuki
mematenkan
mematikan
membaca
membagi
membahas
membajak
membakar
membangun
membantai
membantu
membatalkan
membatasi
membawa
membayar
membebaskan
membedakan
membeku
membela
membeli
membentang
membentuk
memberi
memberikan
memberinya
memberontak
membicarakan
membidu
membolehkan
membom
membombardir
membran
membuat
membubarkan
membuka
membuktikan
membunuh
memecahkan
memegang
memenangi
memenangkan
memenuhi
memerintah
memerintahkan
memfasilitasi
memicu
memilih
memiliki
memimpin
memindahkan
meminjam
meminta
memisahkan
memoir
memotong
mempatenkan
mempawah
mempelajari
mempengaruhi
memperhatikan
memperingati
memperkenalkan
memperkuat
memperluas
memperoleh
mempersembahkan
mempersilahkan
mempertahankan
mempopulerkan
memproduksi
memproklamasikan
memproklamirkan
memprotes
mempublikasikan
mempunyai
memukul
memulai
memungkinkan
memutuskan
menabrak
menachem
menahan
menaikkan
menaklukan
menaklukkan
menamakan
menampilkan
menanda
menandai
menandakan
menandatangani
menang
menanggal
menanggapi
menangkap
menanti
menara
menarik
menawarkan
mencakup
mencapai
mencari
mencederai
mencegah
mencetak
menciptakan
mencoba
menculik
mencuri
mendalam
mendapat
mendapatkan
mendarat
mendaratkan
mendekati
mendeklarasikan
mendemonstrasikan
menderita
mendeteksi
mendik
mendirikan
menduduki
mendukung
menegaskan
menekan
menelan
meneliti
menembak
menembaki
menembakkan
menembus
menempel
menemukan
menengah
menenggelamkan
menentang
menentapkan
menentukan
menerapkan
menerbitkan
menerima
menerjang
menerjemahkan
menerobos
menerus
menetap
menetapkan
menewaskan
mengacu
mengadakan
mengadaptasi
mengadopsi
mengajar
mengajukan
mengakhiri
mengakibatkan
mengaku
mengakui
mengalahkan
mengalami
mengalir
mengalirkan
mengambil
menganalisis
mengandung
menganeksasi
menganggap
mengangkat
mengangkut
menganti
mengantisipasi
mengarah
mengarahkan
mengatakan
mengawali
mengayunkan
mengecam
mengedarkan
mengeksekusi
mengelilingi
mengeluarkan
mengembalikan
mengembangkan
mengenai
mengenakan
mengenal
mengenang
mengepung
mengesahkan
mengevakuasi
menggambarkan
mengganti
menggantikan
menggerakan
menggulingkan
menggunakan
mengguncang
menggusur
menghabiskan
menghadang
menghadapi
menghadiri
menghancurkan
menghantam
menghantarkan
menghapus
menghapuskan
mengharuskan
menghasilkan
menghentikan
menghilang
menghindari
menghitung
menghormati
menghubungkan
menghukum
mengibarkan
mengidentifikasi
mengikuti
mengindikasikan
menginfeksi
menginjakkan
menginspirasi
menginvasi
mengirim
mengirimkan
mengisolasi
mengizinkan
mengklaim
mengkudeta
mengontrol
mengorbit
menguasai
mengubah
mengubur
mengudara
mengumumkan
mengundurkan
mengunjungi
mengusir
mengusulkan
menikah
menikahi
menilai
menimbulkan
meninggal
meninggalkan
meninggalnya
meningkat
meningkatkan
meningkatnya
menit
menjabat
menjadi
menjadikan
menjadikannya
menjaga
menjajah
menjalankan
menjalin
menjamin
menjangkau
menjatuhkan
menjelajah
menjelang
menjelaskan
menjual
menjuarai
menobatkan
menolak
menpora
menstruasi
mental
mentawai
menteri
mentor
mentri
menui
menuju
menulis
menunjuk
menunjukkan
menuntut
menurunkan
menurut
menutup
menyampaikan
menyandera
menyatakan
menyebabkan
menyebar
menyebarkan
menyeberangi
menyebut
menyebutkan
menyebutnya
menyediakan
menyelam
menyelamatkan
menyelenggarakan
menyelesaikan
menyerah
menyerahkan
menyerang
menyerap
menyerbu
menyerukan
menyerupai
menyetujui
menyiarkan
menyimpan
menyulut
menyumbang
menyusul
menyusut
mepanga
mer
merah
meraih
merancang
merangin
merapi
merasakan
meratifikasi
merauke
merawat
merayakan
mercury
merdeka
merebak
merebut
merek
mereka
merekam
merekomendasikan
merencanakan
merendahkan
meresmikan
meriam
merilis
merkel
merkurius
merkus
merpati
merrill
merujuk
merupakan
merusak
mesangat
mesin
mesir
mesjid
meski
meskipun
mesopotamia
messenger
messi
messier
meta
metabolisme
metal
metallica
metamorfosis
metana
meteorit
meteorologi
meter
meteri
metode
metro
metropolitan
meutia
mewakili
mexico
meyalo
meyambo
mg
mh
mhz
mi
miami
michael
michel
michelangelo
michiel
michigan
microsoft
middleton
mig
miguel
mihail
mijen
mike
mikhail
miki
mikrajuddin
mikro
mil
milan
milango
milangoliyo
mile
milenium
miliar
milik
milimeter
milis
milisi
militan
militer
miliyari
miller
million
milos
milosevic
milton
milwaukee
milyar
mimika
minahasa
minang
minanga
minangkabau
mindanao
mineral
minggu
minh
mini
minimum
mininili
minor
minta
minutes
minyak
mir
miranda
mirip
mirit
mirza
misalnya
misha
misi
misikini
misil
misinya
misionaris
miss
mississippi
missouri
misterius
mitigasi
mitologi
mitra
miyamoto
mizzen
mj
mk
mlarak
mlati
mm
mo
moali
mobaango
mobaca
mobalajari
mobantu
mobata
moberesi
mobil
mobile
mobisala
moboli
moboolo
mobu
mobutu
moch
mochtar
moda
modaha
modayag
mode
modehu
model
modeliyo
modelo
modelomo
moderen
modern
modeto
modi
modihu
modo
modu
modudu
modukungi
modul
modulohupa
modunggaya
modungohe
modungohu
mogambari
moguru
mohala
mohama
mohamad
mohammad
mohammed
mohandas
mohe
moheeliliya
mohehu
mohelu
mohengu
mohetuto
moheyi
mohihewo
mohihilonu
mohiiheo
mohile
mohimelu
mohimo
mohimondala
mohimontalo
mohiyo
mohon
mohualinga
mohualingo
mohuheli
mohuhula
mohuhulo
mohulodu
mohulonu
mohumayawa
mohumbala
mohunema
mohunemo
mohuntapa
mohutata
mohuto
mohutodu
mohutu
mohuwalinga
mohuwalingo
mohuwalo
moidu
moilong
moitohu
moitomo
mojo
mojoanyar
mojokerto
mojosari
mokalaja
mokaraja
mokarawo
moklik
mola
molaahe
molahangi
molahu
molaksana
molalahu
molalito
molamahu
molamingo
molamita
molandu
molangga
molanggata
molanggato
molanggu
molantu
molaode
molaodu
molapali
molapasi
molawani
molawo
moldavia
moldova
molecule
molekul
molekular
molekuler
moleleyangi
moleto
moli
molihu
molinggahu
molingo
molipa
mollulade
mollusca
molo
molobog
molobunga
moloheto
molohidu
molola
mololadu
mololangi
mololimo
mololohe
mololohu
molontalo
molotingo
molotolo
molotopo
molu
molubo
molulade
moluladu
molulawota
molulawoto
moluluhi
molulupuhu
molumula
molungudu
moluska
mom
moma
momake
momangimba
momarenta
momayango
momayari
momee
momili
momilohe
momilohu
momiyahe
momo
momoli
momoliliyo
momongu
momooli
momota
momu
momulayadu
momuli
momungo
momunu
momutito
momutu
mona
monako
monano
monarki
mondale
mondo
moneter
monga
mongaaturu
mongarati
mongaturu
mongilu
mongo
mongobuwa
mongoditi
mongodula
mongodulahu
mongohi
mongohuto
mongol
mongolia
mongoliyo
mongolola
mongolowala
mongondow
mongongoto
mongopanggola
mongotawu
mongotiyombu
mongowala
mongusaha
monica
monika
monitor
monjadi
monkey
monoarfa
monopoli
monroe
mont
montalengo
montallat
montana
monte
montenegro
montevideo
montho
monto
monumen
monyet
moo
mooali
mooat
moohe
moonu
moopa
moore
mooti
mootilango
mopa
mopakei
mopalajari
mopanggelo
mopasiyari
mopatato
mopatu
mopecahi
mopeehu
mopehu
mopiyohu
mopo
mopoaita
mopobaalajari
mopobalajari
mopobilohe
mopobilohu
mopobu
mopohuna
mopolayi
mopolele
mopololadu
mopoluneto
mopoluwalo
mopomulo
mopona
moponika
mopopakei
mopopalajari
mopopatata
mopopiduduta
mopopunyai
moposababu
moposadiya
mopota
mopotalia
mopotihula
mopotihulo
mopotitidehu
mopotolimo
mopotumboto
mopotunggulo
mopotunu
mopoturusi
mopotuwawu
mopowali
mopowate
mopoyimo
mopuasa
mopugad
mopula
mopulito
mopulo
mopulu
mopunyai
moputi
moputo
moputu
mopuya
moral
more
moreekeni
morfologi
morfologis
morgan
mori
mormon
moro
morowali
morse
morton
morujuki
mosadiya
mosikola
mosilita
moskow
moskwa
mossadegh
mossel
most
mosuji
mota
motabiya
motali
motamania
motanggala
motanggalo
motanggomo
motapu
motembedu
moti
motif
motilango
motimu
motinulopo
motita
motitaahangi
motitihutu
moto
motogp
motohila
motohilao
motohilawo
motolodile
motombanga
motombilu
motonggeyamo
motongkad
motor
motoro
motors
motota
mototoheto
mototolo
motulidu
moturuti
motutu
mount
mouse
moutong
movie
mowalahe
mowali
moyang
moyidu
moyitohe
moyitohu
moyitomo
moyongo
mozambik
mozart
mozilla
mp
mph
mpr
mprs
mr
mrebet
mrna
ms
msi
mts
mu
muammar
muara
muaro
muatan
mubarak
mubin
muda
mudah
mudik
muenchen
mughal
muhammad
muhammadiyah
mui
muji
mujur
mujuuru
muka
mukim
mukminin
mukti
mula
mulai
mulanya
mulayi
muli
mulia
mulo
mulolo
muloolo
multatuli
multiseluler
mulut
mulya
mulyasari
mulyo
mulyorejo
mumbai
mumbulsari
munchen
muncul
munculnya
mundur
munggiyango
munggu
mungkin
munich
munir
munisipalitas
munjungan
muntai
muntu
murad
murder
murhum
muri
murid
muridliyo
murni
murung
musa
musashi
museum
musi
musibah
musical
musik
musiki
musikus
musim
musisi
muslim
muslimin
mussolini
mustafa
musti
mustofa
musu
musuh
mutiara
mutlak
muunduru
mw
mwa
my
myanmar
mysis
mystery
n
na
nabawi
nabi
nabire
nada
nader
nadi
naga
nagasaki
nagorno
nah
naha
naik
nain
naismith
nama
namanya
nambo
namche
name
namibia
namun
nancy
nanga
nanggala
nani
nanking
nantinya
nantu
napigasi
napoleon
napoli
nara
narapidana
narayan
narkissos
narkoba
naruhito
nasa
nascar
nasdaq
nasdem
nasehati
nasib
nasional
nasionalis
nasionalisme
naskah
nasser
nasution
natal
nathan
nation
national
nations
nato
natsir
naturalis
nature
nauru
naval
navy
nawangan
nawas
nazi
nazrul
nba
nbc
nchen
nd
ndez
ne
nebula
nefron
negara
negarawan
negatif
negeri
negosiasi
nehru
neil
neliti
nelson
nen
nenek
nepa
nepal
neptune
neptunus
nero
netral
netron
network
neuroradiologi
neutron
nevada
neville
new
newfoundland
news
newton
ng
nga
ngaami
ngaamila
ngadiluwih
ngadirojo
ngagel
ngah
ngaju
ngala
ngaliyan
ngancar
ngango
nganjuk
ngantru
ngapa
ngariboyo
ngasem
ngayogyakarta
ngc
ngebel
ngengat
ngeya
ngi
ngimbang
ngo
ngoa
ngobotu
ngodalala
ngodiminggu
ngoheli
ngohelili
ngohilaya
ngohula
ngohuntua
ngohuntuwa
ngohutuwa
ngohuyi
ngolihu
ngolo
ngongala
ngongoto
ngoolo
ngopari
ngope
ngophiya
ngopita
ngopohiya
ngota
ngotaa
ngotaawunu
ngotaliyo
ngotao
ngotawunu
ngotayade
ngotayadu
ngotupa
ngowanggubu
ngrayun
ngunut
ngurah
nguye
nguyen
nh
nhk
ni
niaga
nias
nica
nicholas
nicolae
nicolas
nicolaus
niels
nieuw
niger
nigeria
night
nigsberg
nika
nikaragua
nike
nikita
nikolaevna
nikolai
nikolay
nil
nilai
nilailiyo
nilon
nin
nina
ning
nintendo
nio
nipa
nippon
nirlaba
nirsuara
nirvana
niten
nitrogen
nixon
no
nobel
noda
nokilalaki
nol
nomor
nomoro
non
nona
nonapan
nonelektrolit
nonsubsidi
noolo
noor
nopember
noraniza
norgay
norma
normal
norman
normandia
norodom
norte
north
northern
norway
norwegia
nos
not
notasi
notes
notre
nova
novel
novelis
novella
november
now
ntale
ntalenga
nti
nu
nuangan
nudibranch
nudibranchia
nudibranchs
nuevo
nugini
nuhon
nukleat
nukleotida
nukleus
nuklir
nunukan
nupedia
nur
nurdin
nuremberg
nurhaliza
nurul
nusa
nusantara
nusawungu
nutrisi
ny
nya
nyak
nyamuk
nyan
nyata
nyawa
nyepi
nyeri
o
oas
obama
obat
obatan
objek
obo
obote
obu
obyek
octavius
october
ocu
oda
ode
odele
odelo
oder
odito
oditoliyo
odiya
odiyamola
odiye
odoacer
odu
oduhenga
odungga
odungohe
odungohu
oedara
oetoyo
of
ofensif
off
office
official
ogan
ogodeide
ohama
ohasili
ohila
ohilawo
ohio
ohm
ohu
ohuheliliyo
ohunaliyo
ohuta
ois
oka
okinawa
oklahoma
oksidasi
oksidator
oksigen
oktober
ola
olah
olahraga
olangiya
olato
olau
old
ole
oleh
olele
oleo
olga
oli
olimoliyo
olimongoliyo
olimpiade
olio
oliver
oliyo
olo
olobu
olohii
olohu
olomiyo
olomo
olongia
olongiya
olongiyaliyo
olowala
oloyihi
olu
oluhuta
oluolio
oluoliyo
oluwo
oluwoliyo
oma
oman
omar
omayi
ombita
ombitaliyo
omboda
ombongo
ombulo
ombuta
omega
omo
omolu
omoluwa
omong
on
ondo
one
onembute
onggo
ongka
ongole
ongongala
onkologi
online
onto
ontonga
onuhe
ooma
oonto
oort
ootutuwa
opate
opatiyo
opatuju
opec
open
opening
openu
opera
operasi
operation
operator
opituliyo
opium
opiyohiyo
opiyohu
opo
opongaru
oposisi
opsir
optik
opu
opula
opuladuluwoliyo
opulatuwawu
opululiyo
or
orang
orange
oranye
orasa
orasawa
orbit
orbital
orbiter
orbitnya
orchard
orde
order
ordo
oregon
org
organ
organik
organisasi
organism
organisme
organization
organologam
orientation
orisinal
orle
orleans
oro
oromo
ortodoks
ortografi
os
osababu
osaka
osama
oscar
oseania
osiris
oslo
ossetia
ostrogoth
ot
ota
otahangi
otak
otaluhu
otanaha
otanggala
otapu
otawa
otawalo
othman
otiyoliyo
oto
otoduwo
otohila
otolopa
otolu
otolulio
otoluliyo
otomatis
otomionga
otomotif
otonom
otonomi
otoritas
otot
otto
ottoman
otuota
otutu
otutuwa
outer
outhoorn
ovarium
over
ovovivipar
owa
owali
owaliya
owaluliyo
owen
oxford
oyile
oyintaliyo
oyo
oyoto
p
pa
paapa
paatali
pabean
pablo
pabrik
pacific
paciran
pacitan
pada
padaelo
padahal
padamala
padamara
padang
padangan
padangguni
padat
padati
pade
padengo
padi
padjadjaran
paduan
padureso
pag
pagar
page
pagedangan
pagerwojo
pagi
pagimana
pagu
paguat
paguyaman
pahami
pahang
pahangga
pahlavi
pahlawan
pajajaran
pajak
pajukukang
pak
pakaakasi
pakaian
pakal
pakar
pakava
pake
pakel
pakem
paket
pakis
pakisaji
pakisrejo
pakistan
pakpak
pakta
paku
pakualaman
pakubuwana
pakusa
pakusari
pala
palakala
palakka
palang
palangka
palaran
palasa
palau
pale
palebohu
paleleh
palembang
palestina
pali
paliatif
palie
paling
palipa
palito
pallangga
palmer
palo
palolo
palopo
palta
palu
palung
paluwala
paman
pamarenda
pamarenta
pamean
pameran
pamona
pamplona
pamukan
pamungkas
pan
panakkukang
panama
panas
panasonic
panca
pancasakti
pancasila
panceng
pancoran
panda
pandak
pandan
pandang
pandansari
pandau
pandawa
pandean
pandemi
pandemic
pandji
panen
pangandaran
panganiban
pangato
pangeran
panggala
panggati
panggilan
panggoba
panggola
panggul
panggulo
panggung
panggungrejo
pangi
pangian
pangimba
pangkah
pangkal
pangkalan
pangkatrejo
pangkostrad
panglima
pango
panitia
panjaitan
panjang
panji
panta
pantai
pante
panti
pantungo
panulisan
panyaki
panyileukan
pao
paolo
papa
papan
papangeya
papar
paper
papers
papua
para
paracaya
parade
paraguay
parah
parahyangan
paralu
paraluliyo
parang
parangloe
pare
parenta
parepare
pari
pariaman
parigi
paripurna
paris
parit
pariwisata
park
parker
parkerizing
parlemen
parsa
part
partai
partikel
partikular
partisan
party
paru
paruh
pas
pasal
pasali
pasang
pasangan
pasar
pasaran
pasarwajo
pasca
pascarongga
pasekan
paser
pasha
pasi
pasien
pasifik
pasir
paskah
paslaten
pass
passi
pasti
pastor
pasukan
pasukannya
pasuruan
pasya
pata
patali
patato
pateda
patemon
paten
patihu
patikraja
patilanggio
patimpeng
patimuan
patodu
patologi
patrang
patriark
patrick
patriot
pattallassang
pattiro
patu
patuju
patujuliyo
patung
paul
paulo
paulus
paus
pauwo
pavel
pawai
pawodu
payakumbuh
payang
payango
payne
payu
payudara
payung
payungga
paz
pb
pbb
pcr
pd
pdf
pdi
pdip
pdri
pe
peak
pearl
pebasket
pebisnis
pebruari
pebulu
pecah
pecahan
pecatur
pedagang
pedaging
pedalaman
pediatrik
pedoman
pedro
pedurungan
pee
pegawai
pegulat
pegunungan
pejabat
pejagoan
pejuang
pekalongan
pekan
pekanbaru
pekerja
pekerjaan
pekuncen
pekunden
pelabuhan
pelafalan
pelafalannya
pelajar
pelaksana
pelaksanaaan
pelaksanaan
pelaku
pelanggaran
pelantikan
pelarangan
pelarut
pelatih
pelaut
pelawak
pelayanan
pelayaran
pele
peledak
pelem
pelemliyo
pelepasan
peletakan
pelindung
peling
pelita
pelopor
pelukis
peluncuran
peluru
pemahaman
pemahat
pemain
pemakaman
pemalang
pemanah
pemanfaatan
pemangku
pematangsiantar
pematung
pembagian
pembajakan
pembalap
pembangkitan
pembangun
pembangunan
pembantaian
pembatasan
pembawa
pembayaran
pembebasan
pembedahan
pembela
pembelajaran
pembeli
pembentuk
pembentukan
pemberantasan
pemberian
pemberontak
pemberontakan
pemberton
pembicara
pembina
pembinaan
pembom
pemboman
pembuahan
pembuangan
pembuat
pembuatan
pembubaran
pembukaan
pembuluh
pembunuh
pembunuhan
pemegang
pemekaran
pemenang
pemenangan
pemeran
pemerintah
pemerintahan
pemerintahannya
pemetaan
pemikiran
pemilih
pemilihan
pemilik
pemilu
pemimpin
pemimpinnya
pemirsa
pemogokan
pemuda
pemugaran
pemukim
pemukiman
pemuliaan
pemulihan
pemungutan
pemurus
pemusatan
pemusik
pemutaran
pen
penaklukan
penalti
penamaan
penambang
penampakan
penampilan
penandatanganan
penanggalan
penangkapan
penari
penarikan
penasehat
penasihat
penayangan
pencabutan
pencacahan
pencak
pencapaian
pencari
pencarian
pencegahan
pencernaan
pencetus
pencipta
penciptaan
pencitraan
pendadu
pendanaan
pendapat
pendapatan
pendaratan
pendek
pendekatan
penderita
pendeta
pendidik
pendidikan
pendiri
pendirian
pendopo
penduduk
pendudukan
pendudukliyo
penduduknya
pendukung
pendung
peneliti
penelitian
penembak
penembakan
penemu
penemuan
penemuannya
penentuan
penerangan
penerapan
penerbang
penerbangan
penerbit
penerbitan
penerima
penetapan
pengacara
pengadegan
pengadilan
pengakuan
pengalaman
pengaliran
pengamat
pengamatan
pengambilan
pengangguran
pengangkatan
pengangkut
pengantar
penganugerahan
pengarang
pengaruh
pengasingan
pengaturan
pengawal
pengawasan
pengebom
pengeboman
pengeboran
pengelolaan
pengeluaran
pengembang
pengembangan
pengendalian
pengepungan
pengerat
pengetahuan
penggabungan
penggagas
pengganti
penggerak
pengguna
penggunaan
penghantar
penghapusan
penghargaan
penghormatan
pengikutnya
pengiriman
pengkajian
pengkhianatan
pengobatan
penguasa
penguasaan
penguat
pengujian
pengukuran
pengumuman
pengunduran
pengungsi
pengunjung
pengurangan
pengurus
pengusaha
peningkatan
peninsular
penipuan
penis
peniti
penjabat
penjaga
penjahat
penjajah
penjajahan
penjara
penjelajah
penjelasan
penjualan
pennsylvania
penobatan
penomoran
penonton
pensiun
pensiunan
pentade
pentadio
pentadiyo
pentadu
pentagon
penting
pentosa
penuh
penularan
penulis
penulisan
penumpang
penumpangnya
penumpasan
penurunan
penutupan
penutur
penyair
penyakit
penyanyi
penyaringan
penyatuan
penyebab
penyebar
penyebaran
penyederhanaan
penyelaras
penyelenggara
penyelenggaraan
penyelesaian
penyelidikan
penyerahan
penyerang
penyerangan
penyerbuan
penyiar
penyiaran
penyimpanan
penyusun
penyusunan
people
peore
pepas
peperangan
pequen
per
peradaban
peragawati
peraih
perairan
perak
peralatan
peran
peranan
perancang
perancis
perang
perangat
perangkat
perangkatnya
peranti
peraturan
perawatan
perayaan
perbaikan
perbandingan
perbankan
perbatasan
perbedaan
perbudakan
perbukitan
perburuhan
percakapan
percepatan
percobaan
percy
perdagangan
perdamaian
perdana
perdanakusuma
perdananya
perdebatan
pereaksiliyo
pereira
perekonomian
perempuan
perencanaan
peresmian
pereyi
pergerakan
pergeseran
pergi
perguruan
perhatian
perhimpunan
perhitungan
perhubungan
perikanan
periklanan
peringatan
peringkat
perintah
perintis
period
periode
periodik
peristiwa
perjalanan
perjanjian
perjuangan
perkembangan
perkiraan
perkumpulan
perlawanan
perlindungan
perlintasan
perlombaan
permai
permainan
permaisuri
permanen
permata
permintaan
permukaan
permulaan
permusyawaratan
pernah
pernapasan
pernikahan
pernyataan
pero
perolehan
peron
perpanjangan
perpindahan
perpustakaan
pers
persada
persahabatan
persaingan
persamaan
persatuan
persegi
persekutuan
persemakmuran
persen
persenjataan
perserikatan
persero
persetujuan
persia
persiapan
personal
personel
personil
perspektif
pertahanan
pertama
pertamanya
pertamax
pertambangan
pertamina
pertandingan
pertanian
pertempuran
pertemuan
pertengahan
perth
pertikaian
pertimbangan
pertuan
pertukaran
pertumbuhan
pertunjukan
peru
perubahan
perumahan
perundingan
perunggu
peruntukan
perupa
perusahaan
perusahaani
perusak
perut
perwakilan
perwira
pesan
pesanggrahan
pesat
pesawat
pesepak
pesisir
pesta
pesulap
pesumo
peta
petahana
petambang
petanahan
petani
petasia
pete
petenis
peter
peternakan
petersburg
petinju
petir
petisah
petrus
petta
petualang
petugas
petung
pewaris
pewarisan
pewayangan
pg
ph
phil
philadelphia
philip
philippe
philippine
philippines
phillip
phoenix
phone
photo
php
physics
pi
piagam
piala
pianis
piano
pidato
pidatonya
pidie
pidiyo
piero
pierre
piet
pieter
pigmen
pihak
piilu
pikiirangi
pikir
pikirangi
piktogram
pila
pilaakasi
pilakasi
pilake
pilar
pilarenta
pilate
pili
pilintaliyo
piliolo
pilipi
pilipina
piliyo
pilkada
pilo
pilobaca
pilobalajari
pilohayanga
pilohutu
pilohutuliyo
pilohutuwaliyo
pilololade
pilomake
pilomakeliyo
pilomulo
pilopo
pilopohuna
pilopona
piloposiari
pilopota
pilopotatapuliyo
pilopotihuliyo
pilopotihulo
pilopotuwotiyo
pilopowali
pilot
pilotutu
pilotutuliyo
pilotutuwa
pimental
pimpinan
pinang
pindah
pinembani
ping
pingge
pingi
pinjaman
pink
pinochet
pinogu
pinonobatuan
pintu
pinyin
pinyuh
pio
pioneer
pionir
piotutuwa
pipibol
pipikoro
pirus
pisa
pisang
pisau
pita
pitara
pito
pitodu
pittsburgh
pitu
pius
pixii
piyohu
pki
pks
plan
planet
planologi
plaosan
plasenta
plasma
plastik
platform
plato
platonov
playstation
plaza
ploso
plosoklaten
plotarea
plotdata
plt
plus
pluto
plymouth
pm
pmi
pnb
pneumonia
png
pni
po
poasia
pob
pobaca
pobalajari
pobbutuwa
poblacion
pobo
pobu
pobuwolo
poedjangga
poestaka
poetry
pogalan
pohala
pohalaa
pohamala
pohamaliyo
pohehu
pohilawo
pohon
pohumbata
pohuna
pohunawa
pohutu
pohutuliyo
pohutuo
pohutuwala
pohutuwalo
pohutuwolo
pohuwato
poigar
poin
point
pojok
pokarajawa
pokok
pol
pola
polahi
polahuwala
polame
poland
polandia
polanggula
polango
polangui
polar
pole
poleang
polele
polelea
poleonro
polewali
poli
polimer
polimerase
polinggona
polipeptida
polisi
politeknik
politik
politiknya
politikus
politisi
poliyama
polk
polo
polobu
polodidi
polodulahe
polohungo
pololohu
polonia
polopalo
polri
polu
polupi
poma
pomake
pomakeliyo
pomalaa
pomayari
pombalap
pomilohela
pomongu
pomotaliyo
pomulolo
pomutitiyo
pon
poncowarno
ponda
pondidaha
pondidikan
pondok
pone
ponelo
pongaru
pongaruhliyo
pongawa
ponggok
pongotota
pongulawu
ponoliti
ponolitian
ponorogo
ponre
ponsel
ponti
pontianak
ponto
pontolo
ponu
poohongi
pooli
poopo
poor
poowo
pop
popa
popateya
popaya
popayato
popo
popoaito
popoayito
popobandingiyolo
popobu
popohuna
popohunalo
popolayi
popoli
popolunetoliyo
popopasio
poposambe
popoyimbidu
populasi
population
populer
porhatian
poristiwa
porna
pornah
poros
poroses
porosesi
poroyek
port
portal
portambangan
portimbangan
portrait
portugal
portugis
pos
posinggalo
posisi
positif
poso
post
postal
pot
potali
potanga
potapuo
potensi
potensial
potihulo
potitola
poto
potong
potret
potumuliyo
potunu
pound
powell
power
pp
ppp
pra
prabowo
prabu
prabumulih
pradesh
praha
praja
prajekan
prajurit
praktik
praktis
prambanan
pramoedya
pramuka
pranala
prancis
pranowo
prasad
prasasti
prasejarah
prawiranegara
pre
predator
predikat
prefaces
prefektur
prembun
premium
pres
prescott
presentasi
presenter
presiden
president
presidium
presipitasi
presley
press
prestasi
pretoria
pria
pribadi
pribumi
prigi
prihadi
prima
primata
primates
primer
primigenius
prince
princeton
principia
pringkuku
prinsip
print
priok
prithvi
prix
priyohadisubroto
pro
probably
probe
problem
probolinggo
prodeskel
prodi
product
produk
produksi
produsen
produser
prof
profesi
profesional
profesor
profil
program
project
prokariotik
proklamasi
promosi
pronojiwo
proper
properti
propinsi
proposal
prosa
proses
prosesi
prostat
protein
protektorat
protes
protestan
proto
protokol
proton
provinsi
provisional
proyek
prsi
prusia
pseksu
psikologi
pssi
pt
pterosaurus
ptt
pu
puasa
publications
publik
publikasi
published
publishers
publishing
pucanglaban
pucuk
pucung
pudak
pueblo
puerto
puger
puing
puisi
pujananting
pujangga
pujer
pukul
pula
pulang
pulanga
pulau
pulaulaut
pulausebuku
pulausembilan
pule
pulisi
pulitio
pulitiyo
pulito
pulitolio
pulitzer
pulo
pulu
pulubala
puluh
puluhan
pulung
pun
punah
puncak
puncu
pungsi
pungut
punjab
punjuru
punung
punya
pupa
pura
purba
purbalingga
puri
puriala
puring
purisima
purn
purnama
purple
puruk
purwakarta
purwarupa
purwoasri
purwodadi
purwojati
purwokerto
purworejo
purwosari
pus
pusaka
pusaran
pusat
puselemba
pushkin
pusian
puskesmas
pustaka
putaran
putera
puteri
putih
putin
putita
putitiyo
putito
putongi
putra
putranya
putri
putungo
putusani
puu
puulo
puuwatu
px
q
qadar
qaeda
qatar
qing
qnb
qoppa
qtel
quebec
queen
quest
quezon
quisling
qur
quru
r
ra
rabindranath
rabu
rachmad
rachman
rachmawati
racing
racun
racungi
radang
radar
raden
radiasi
radio
radioaktif
radiologi
radius
raf
rafael
raffles
raga
ragam
rah
rahasia
rahayu
rahim
rahmadi
rahman
rahmanto
rahmat
rahmati
rai
railroad
rainier
rais
raj
raja
rajasa
rajawali
rakaman
raksasa
rakyat
raleigh
ralph
ramadan
ramadani
ramadhan
ramah
ramai
raman
ramba
rambipuji
rambut
rame
ramon
rampa
rancangan
rancasari
rancho
randangan
ranger
rangka
rangkaian
rangkap
rangoon
rani
ranieri
rano
rantai
rantau
rante
rao
rapak
rapat
rapper
rappocini
rapu
rarowatu
ras
rasa
rashid
rasi
rasial
rasipede
rasul
rasulullah
rasyid
rata
rate
ratolindo
ratu
ratulangi
ratus
ratusan
rau
rautenstrauch
rawa
rawalo
rawis
ray
raya
raymond
rcti
re
read
reagan
reaksi
reaktor
real
recording
records
red
redaksi
redaktur
redoks
reduksi
reduktor
reed
reference
referendum
referensi
reformasi
reformulasi
regency
regional
regol
regu
regulasi
reich
reichstag
reid
reinhard
rejo
rejosari
rejotangan
rekaman
rekan
rekannya
rekayasa
rekor
rekreasi
reksonegoro
rektor
rel
rela
relasi
relatif
relativitas
release
remaja
rembang
remi
rencana
rencong
rendah
rendra
rene
rengas
rengasdengklok
rentan
replikasi
report
repository
representatif
representatives
reproduksi
reptil
reptile
republican
republik
republika
rerekeni
resepsi
residen
residence
resistance
resmi
resmiliyo
resolusi
resonansi
resources
respiratory
restoran
retrieved
return
revolusi
revolusioner
rex
rey
rez
reza
rezim
rhinopias
rhodesia
ri
riaja
rian
riattang
riau
ribosom
ribosomal
ribu
ribuan
richard
richmond
richter
richthofen
ricky
rico
ride
riden
riebeeck
right
rihlah
rika
riko
rilau
rindu
ring
ringan
ringinrejo
rings
rinkonada
rio
ris
risalah
riset
risiko
risno
rita
ritan
ritual
ritus
rival
river
rivera
riwayat
riwayati
riz
rizal
rkiye
rm
rms
rna
rnberg
ro
road
roads
roald
robert
roberto
robin
robinson
rock
rocky
roda
rodri
roem
roesli
roger
roh
roijen
roket
roll
rollies
roma
romahurmuzy
roman
romania
romawi
rombongan
rome
rommel
romulus
ron
ronald
ronaldo
roncana
ronde
rongga
ronin
roosevelt
rope
roque
rosa
rosario
rose
rosetta
ross
rossi
rouen
routa
rowo
rowokele
rowosari
roxas
roy
royal
rp
rpa
rrc
rri
rrna
rrt
rsud
rt
rtp
ruang
ruangan
ruby
ruci
rudal
rudolf
rudy
rugi
ruhollah
ruiz
rujukan
rukun
rumah
rumania
rumbia
rumpun
rumus
rumusan
runcing
rungkut
runtuh
rupa
rupawa
rupiah
rusa
rusak
rusia
rusli
russell
russia
rute
rutherford
rutin
ruu
rw
rwanda
ryan
ryu
s
sa
saarati
saat
saati
sababu
sababuliyo
sababuo
sabah
sabang
sabariah
sabongi
sabtu
sabu
sabuk
sabun
sadaniang
sadar
sadat
saddam
sadi
sadia
sadikin
saemba
safitri
sagrada
sah
sahabati
sahabatiliyo
saham
sahara
sahu
sahutu
said
saifuddien
saifuddin
saiful
saigon
sail
sains
saint
saja
sajak
saji
saka
sakai
sakhalin
sakit
saksi
sakti
sakusi
salah
salahuddin
salak
salam
salamati
salasa
salat
salatiga
saleh
salek
salib
salim
saling
salju
salman
salo
salomekko
salu
saluran
salvacion
salvador
salya
salyut
sam
sama
samaenre
saman
samar
samaran
samarinda
samata
samaturu
samawa
sambaliung
sambas
sambe
sambeng
sambikerep
sambirejo
sambit
samboja
sambutan
samekh
sampa
sampai
sampanahan
sampang
sampara
sampe
sampel
sampeyan
sampit
sampolawa
sampung
samudera
samudra
samuel
samurai
san
sana
sanangi
sandaran
sandera
sanders
sandi
sandiaga
sandiwara
sandra
sang
sanga
sangat
sangatta
sanger
sanggala
sangia
sangihe
sangkapura
sangkarrang
sangkulirang
sani
sanksi
sanskerta
santa
santan
santiago
santo
santos
santoso
sanusi
sapardi
sapi
saputro
sar
sara
saraf
sarah
sararan
saratoga
sarawak
sarayburnu
sardinia
sarekat
sari
sarirejo
sarjana
saronde
sars
sastra
sastrawan
satelit
satu
satuan
satunya
saturnus
satwa
saud
saudara
saudaranya
saudari
saudi
saumadati
sausu
savart
saw
sawahan
sawahlunto
sawang
sawangan
sawoo
saxon
saya
sayang
sayori
scalemajor
schmidt
school
schopenhauer
schuman
science
scorpionfish
scotia
scott
sctv
scud
sd
sdn
se
sea
seagull
seal
searah
search
seattle
sebab
sebagai
sebagaimana
sebagainya
sebagian
sebakung
sebaliknya
sebanyak
sebaran
sebastian
sebelah
sebelum
sebelumnya
sebenarnya
seberang
seberat
sebesar
sebuah
sebulu
sebut
sebutan
sebuti
secara
second
secret
sedang
sedangkan
sedaya
sederhana
sedikit
sedikitnya
sedunia
see
seekor
segala
segedong
segera
segitiga
seharga
sehari
sehat
sehati
sehingga
sei
seiran
seiring
sejahtera
sejak
sejara
sejarah
sejarawan
sejauh
sejenis
sejumlah
sekali
sekaligus
sekar
sekaran
sekarang
sekayu
sekelompok
sekigahara
sekitar
sekitarnya
sekjen
sekolah
sekretaris
seks
sektor
sekumpulan
sekunder
sekutu
sel
selain
selaku
selalu
selam
selama
selamat
selandia
selangor
selanjutnya
selaput
selassie
selat
selatan
selayang
selayar
selenoid
selepas
selesai
self
selor
selorejo
seluas
seluler
seluruh
seluruhnya
sem
semacam
semak
semakin
semampir
semanding
semarang
semasa
sembilan
sembo
semboro
semen
semenanjung
semenjak
sementara
semesta
semi
semikonduktor
seminar
seminggu
semit
semitik
sempaja
sempor
sempu
semu
semua
semuanya
semula
sen
senapan
senat
senator
senayan
sendang
sendiri
sendirian
senegal
sengaja
sengau
sengit
sengketa
seni
senilai
seniman
senior
senjata
senna
sensor
sensus
senter
sentimeter
sentra
sentral
sentul
senyawa
seolah
seorang
seoul
sepak
sepakat
sepanjang
sepasang
sepaso
sepeda
seperti
sepertiga
sepinggan
september
septimius
sepuluh
sequence
seragam
seram
serang
serangan
serangga
serangkai
serangkaian
serapan
seratus
serawak
serayu
serbia
serbuan
serdang
serentak
sergey
seri
serial
seribu
serie
series
serif
serikat
seril
sering
seringkali
serius
serta
serupa
service
sesaat
sesar
sesat
sese
seseorang
sesi
sesuai
sesuatu
sesudah
sesungguhnya
setahun
setara
setelah
setelahnya
setempat
setengah
setia
setiabudi
setiap
setiawan
setidaknya
setiyo
setuju
seumur
severus
sewaktu
sexual
sh
sha
shaft
shah
shakespeare
sham
shanghai
sheikh
sheldon
sherpa
shift
shio
shirley
sho
shobo
shogun
shogunat
sholah
shooting
short
should
show
shu
si
siad
siak
siam
siang
siantan
siap
siaran
siattinge
siau
sibalaya
siberia
sibolga
sibuk
sibulue
sidamulya
sidanegara
sidang
sidareja
sidaurip
sidayu
sidempuan
sidney
sido
sidoan
sidoarjo
sidodadi
sidoharjo
sidole
sidomukti
sidomulyo
sidondo
sidorame
sidorejo
siena
sierra
sifat
sigenti
sigi
sihanouk
siji
sikh
sikili
sikkim
siklon
siklus
sikola
sikolah
sikolaliyo
silalamati
silang
silat
silea
silikon
silita
siliwangi
silo
silorangi
silsilah
siluji
silusuniya
silva
silvestris
siman
simbol
simbolis
simdos
simeulue
simfoni
simo
simokerto
simon
simone
simpang
simple
simpsons
sin
sina
sinai
sinar
sindang
sindrom
sindue
singa
singapore
singapura
singh
singkat
singkatan
singkawang
singkil
single
singosari
siniu
sinoa
sinsingon
sintang
sintesis
sinus
sinusoida
sinyal
siompu
siotapina
sipahoetar
sipatana
sipatanaliyo
sipatiliyo
sipil
siprus
sir
siram
sirang
sire
siregar
sirenja
sirkuit
sirkus
siruma
sisa
sisi
sisilia
sistem
sistemi
sisters
sistim
siswa
site
siti
sitirejo
situasi
situbondo
situs
siwa
sjahrazad
sjahrir
sk
skadron
skala
skandal
sketch
sketsa
ski
skizze
skor
skotlandia
skuadron
slahung
slamet
sleman
sliyeg
slobodan
slogan
slovenia
slowakia
slut
sm
sma
small
sman
smart
smith
smithsonian
smk
smp
smpn
sms
sn
snow
so
soa
soal
sochi
social
society
socrates
sodorhana
soe
soebagyono
soebardjo
soebroto
soebyakto
soedirdja
soedirman
soegiarto
soeharto
soekarno
soekarnoputri
soemardjito
soemarmo
soeparno
soeparto
soeprapto
soepratman
soerjadi
soeryadjaya
soesilo
soetomo
soetrisno
sofifi
sofyani
sognefjord
sogod
soharusnya
sojara
sojarah
sojaraliyo
sojol
sokaraja
sokawera
soko
solanum
solar
solidaritas
solimandungan
solo
solok
solokuro
solomon
solusi
solutions
somadata
somalia
somba
something
sondakh
sondang
song
soni
soniman
sonny
sooko
soon
sopang
sophia
soppeng
sorawolio
sorong
soropia
sosial
sosialis
sosialisasi
sosiolog
sosok
sosrowerdojo
sousa
south
southeast
southern
soviet
sovyet
soyo
soyuz
sp
space
spanyol
special
species
spektrum
spekulasi
spencer
sperma
spesialis
spesialisasi
spesies
spesifik
spesimen
spiritual
spons
sponsor
spontan
sport
sprachen
sputnik
sq
sqrt
square
sr
srengat
sri
srikaton
srilangka
sriwijaya
sruweng
ss
ssrna
st
stabil
stabilitas
stadion
stadium
staf
staff
stalin
stalingrad
stanbul
standar
standard
stanford
stanley
star
stark
start
starvin
stasiun
state
states
station
statistik
status
statusliyo
stay
stenga
stephan
stephen
steppe
steve
steven
stevens
stewart
stockholm
stone
stories
storm
story
stough
stovia
strategi
strategic
strategis
straus
strauss
street
streisand
strike
strip
stroma
struktur
struktural
sts
stuart
studi
studies
studio
study
stupa
stupid
su
suak
suaka
suami
suara
suatu
sub
subadra
subang
subatom
subdisiplin
subianto
subjek
submarine
submarines
subordo
subroto
subspesialis
subspesialisasi
subu
subulussalam
suburu
suci
sucks
sudah
sudan
sudimoro
sudirman
sudut
suetonius
suez
sufyan
sugiarto
sugihan
sugihwaras
sugio
sugiono
suhardi
suharso
suharto
suhu
suka
sukabumi
sukadana
sukagumiwang
sukajadi
sukamaju
sukamakmur
sukarela
sukarno
sukasari
sukawi
sukmajaya
suko
sukoanyar
sukodadi
sukodono
sukoharjo
sukolilo
sukomanunggal
sukomoro
sukorame
sukorejo
sukosari
sukowono
sukromo
sukses
suksesi
suku
sula
sulaiman
sulawesi
suleiman
suleman
sulit
sullivan
sulsel
sultan
sulu
sulut
sumadi
sumalata
sumangati
sumatera
sumatra
sumba
sumbang
sumbawa
sumber
sumberagung
sumberbaru
sumberbendo
sumberdadi
sumberejo
sumbergempol
sumberingin
sumberjambe
sumberjati
sumberjo
sumbersari
sumberwringin
sumbu
sumedang
summa
summer
sumo
sumpah
sumpahnya
sumpiuh
sumur
sun
sunan
sunati
sunda
sunday
sung
sungai
sungaiabu
sungaidurian
sunggal
sunti
super
superfamili
supernova
supersemar
suplai
support
supreme
supriyanto
sur
surabaya
surakarta
surat
surau
surel
suriah
suriname
surohadimenggolo
suruh
survey
surveyor
surya
suryadharma
suryani
susa
susah
susanto
susi
susilawati
susilo
suska
susu
susuk
susunan
sutan
sutanto
sutarip
sutradara
sutradaraliyo
sutrisno
sutyati
suvorin
suwardi
suwawa
suwiryo
suzuki
svalbard
svg
swan
swasta
swaziland
swedia
swedish
swift
swiss
switch
switzerland
syafruddin
syahputra
syair
syamsuddin
syara
syaraa
syarat
syarati
syariah
syarif
syawal
sydney
syed
syekh
syiah
syndrome
system
systems
syuro
t
ta
taa
taambati
taapulu
taawunu
tab
taba
tabaco
tabang
tabaru
tabe
tabel
tabiya
tablet
tabloid
tabongo
tabrakan
tabu
tabua
tabukan
tabuliyo
tabung
tabungan
tabur
tabuwa
tada
tadarus
tadashi
tadiya
tagalog
taganrog
tagore
tagulandang
tahanan
tahap
tahapan
tahar
tahe
tahta
tahtanya
tahu
tahuda
tahudu
tahuli
tahun
tahuna
tahunan
tahunu
taiwan
tajikistan
tajuddin
tak
takbulat
takdir
takhta
taksonomi
tala
talaga
talang
talango
talas
talatako
talatuwewu
talaud
talawaan
tali
taliban
talilo
talimago
talisay
tallahi
tallo
talo
talohu
talu
taluditi
taluhe
taluhiyo
taluhu
talumelito
talumolo
talumopatu
talun
tama
tamako
tamalanrea
tamalate
taman
tamanan
tamani
tamaniliyo
tamansari
tamat
tamate
tambahan
tambak
tambakrejo
tambaksari
tambang
tambangan
tambati
tambatiliyo
tambi
tambo
tamboo
tambora
tambu
tambunan
tamiang
tamil
tampak
tampaknya
tampil
tampilan
tamu
tan
tanah
tanaka
tanalapa
tanaman
tanambulava
tanami
tanantovea
tanda
tandes
tandu
tanduk
tanduo
tane
tanete
tang
tangalo
tangan
tangani
tanganyika
tangerang
tangga
tanggal
tanggaliyo
tanggalo
tanggap
tanggapan
tanggetada
tanggi
tanggilingo
tanggomo
tanggu
tanggul
tanggula
tanggulala
tanggulaliyo
tanggulalo
tanggulio
tangguliyo
tanggulo
tanggung
tangkai
tangki
tangkis
tango
tangota
tani
tanjung
tanjungbalai
tanjungpinang
tanjungsari
tank
tanker
tanpa
tantangan
tantu
tanzania
taopa
tap
tapa
tapadaa
tapadaka
tapanuli
tapen
tapi
tapos
tapu
tapuliyo
tapulu
tarakan
tarakuku
target
tari
tarian
tarik
tarokan
tarsius
tarum
taruna
tasikmalaya
tasman
tata
tatanga
tati
tatoareng
tau
taufik
taufiq
taunu
tauwa
tauwalo
tavip
tawaeli
tawanan
tawangsari
tawar
tawu
tawuliyo
tawunu
tawuunu
tawuwalo
tawuweewo
tawuwewo
taya
tayade
tayadiyo
tayadu
tayadula
taylor
tbc
tbk
te
teacher
teapot
teater
tebing
ted
tee
teeto
teeye
tegak
tegal
tegalampel
tegalombo
tegalrejo
tegalsari
tegangan
teheran
teka
tekanan
teki
teknik
teknis
teknisi
teknologi
teks
tektonik
tekun
tel
teladan
telaga
telah
telegraf
telegram
telekomindo
telekomunikasi
telen
telephone
telepon
teleskop
televisi
telkom
telkomsel
tellu
telu
teluk
telur
tema
teman
tembaga
tembak
tembakan
tembakau
tembalang
tembok
tembung
temeyi
temon
tempat
tempatnya
tempeh
temperatur
tempo
tempuh
tempur
tempurejo
tempursari
tenaga
tenajar
tenda
tengah
tenggara
tenggarang
tenggarong
tenggelam
tenggilis
tenilo
tenis
tennessee
tentang
tentara
tenzing
teolog
teologi
teorema
teoretis
teori
tepat
tepi
tepian
terai
terakhir
terang
terapan
teratai
teratas
teratur
terbagi
terbaik
terbakar
terbalik
terbang
terbanyak
terbatas
terbentuk
terbentuknya
terbesar
terbibirkan
terbit
terboyo
terbuat
terbuka
terbukti
terbunuh
terburuk
tercatat
terdapat
terdekat
terdiri
terduga
terendah
teresa
tergabung
tergantung
terhadap
terhubung
terikat
terinfeksi
terintegrasi
teritori
terjadi
terjadinya
terjauh
terjemahan
terjun
terkait
terkandung
terkaya
terkecil
terkemuka
terkenal
terlalu
terlama
terlaris
terletak
terlibat
terlihat
terluar
terluka
termasuk
terminal
termodinamika
termuda
ternak
ternama
ternate
teror
teroris
terorisme
terowongan
terpadu
terpaksa
terpanjang
terparah
terpenting
terpilih
terpilihnya
terpisah
terrance
territory
terry
tersangka
tersebut
tersedia
tersendiri
tersisa
tersusun
tertangkap
tertembak
tertentu
tertinggi
tertua
tertulis
tertutup
terurai
terus
terusan
terutama
tes
tesis
test
testis
tet
tetangga
tetangganya
tetap
tetapi
tetapkan
tete
teto
teuku
teungku
teutonik
tewas
tewasnya
texas
text
textcolor
textdata
teya
teye
th
tha
thai
thailand
thalib
thamrin
thanksgiving
thanom
thariq
that
thatcher
the
theodor
theodore
theodosius
there
theresia
thermodynamics
theta
thiam
thieu
third
tho
thomas
thompson
thrakia
three
through
thumb
thus
ti
tiananmen
tiang
tiap
tiba
tibawa
tiberius
tibet
tida
tidak
tidi
tidore
tidung
tiga
tigaon
tihediyo
tihedu
tihengo
tihi
tihu
tihula
tihuto
tiilo
tiiloliyo
tiket
tikrit
tikung
tikus
tila
tilabatayila
tiladu
tilakoid
tilala
tilama
tilamuta
tilangge
tilanggula
tilanggulaliyo
tilangguliyo
tilanggulo
tilango
tilapawulula
tilapulo
tilayadiyo
tilayo
tilayoliyo
tili
tililahepa
tililahepo
tilimihula
tilimihulo
tilimimbulu
tiliyangiyo
till
tilo
tiloan
tilola
tilolahepa
tilolimo
tilolimoliyo
tiloliyo
tilombiluliyo
tilonggabila
tilongkabila
tilopotala
tilu
tiluhata
tiluladiyo
tiluladu
tilulawoto
tilulo
tilumete
tilumodu
tilumolopo
tilumula
tilumulaliyo
tilumumula
tilumuwota
tilumuwoto
tilunggulo
tim
timbang
timbau
timbul
timbulnya
timbuolo
time
timeaxis
times
timi
timihulo
timiidu
timika
timimbulu
timongolio
timongoliyo
timor
timorensis
timu
timur
timurid
timuru
tinago
tinalmud
tinangkung
tindak
tindakan
tindih
tinelo
tinepo
tingga
tinggal
tinggi
tinggimoncong
tingkat
tingohiyo
tingohu
tinju
tinombala
tinombo
tinondo
tio
tioman
tionghoa
tiongkok
tipe
tipis
tipografi
tirawuta
tiro
tirta
tirto
tisu
tita
titan
titanic
titi
titian
titihede
titihulo
titik
titiliya
titius
tito
tiwi
tiya
tiyamo
tiyamoliyo
tiyo
tiyombu
tiyongowa
tjahaja
tjakrajoeda
tjipto
tjokropranolo
tjondrokoesoemo
tjondrowibowo
tk
tkr
tlogosari
tni
to
toari
toba
tobacco
tobago
tobata
tobruk
todd
todelomo
toduwo
toer
togean
togo
tohe
toho
tohunga
toilet
toili
tojo
toko
tokoh
tokugawa
tokyo
tol
tola
tolai
tolak
tolangohula
tole
tolerance
toli
toliliyo
tolinggula
tolitihu
tolitoli
tolkien
tolo
tolohu
tolohulio
tolohuyi
tolopani
tolotio
tolu
tom
tomas
tombaango
tombariri
tombi
tombilu
tombolang
tombolo
tombuluwo
tombusabora
tomilito
tomimbihu
tomini
tommasinianus
tommy
tomohon
tomoli
tomolito
tomorrow
tompo
tompobulu
ton
tondano
tondo
tone
tonga
tongauna
tonggeyamo
tongkat
tongkok
tongo
tongute
toni
toniya
tonra
tontonunu
tonu
tony
too
toonu
top
topik
topololohe
topolontonga
topolulade
toribulu
tornado
toro
torosiaje
torpedo
torue
torusan
toshio
tota
total
totala
totibawa
totikum
toto
totobu
totolu
totoluliyo
totombulua
totombuluwa
totonihe
totonula
totonulala
tou
toulouse
tower
town
towolota
towolotaliyo
toyitato
toyongo
toyota
toyungo
tr
tract
trade
tradisi
tradisional
tragedi
training
traktat
trans
transaksi
transfer
transisi
transit
transkripsi
translasi
translation
transmigrasi
transplantasi
transportasi
transvaal
transylvania
treaty
trenggalek
trenton
trey
tri
trial
trikora
triliun
trimurti
trinidad
tripoli
trisakti
tritih
triton
trna
tropis
trotski
trowulan
truk
truman
trumon
trump
trustees
try
trygve
tsar
tsunami
tu
tua
tual
tuan
tuani
tuanku
tuau
tuawu
tuba
tubuh
tubulus
tubuwolo
tudu
tuduhan
tuduliyo
tugas
tugasi
tugasiliyo
tugu
tugurejo
tuhan
tuheta
tuhi
tuhiyango
tuja
tujuan
tujuh
tukar
tukdana
tula
tulabolo
tulade
tuladenggi
tuladiyo
tuladu
tulakan
tulali
tulalo
tulang
tulaoto
tulidu
tulisan
tulo
tuloli
tulu
tulungagung
tumbihe
tumbilo
tumbilotohe
tumbuh
tumbuhan
tumenggung
tumomboto
tumpah
tumpang
tumpuk
tumu
tumula
tumulo
tumumula
tumumulo
tumuota
tumuwota
tumuwoto
tunas
tunge
tunggal
tunggulo
tungkai
tungkal
tunis
tunisia
tunjuki
tuntang
tuntungan
tuntutan
tunu
turbin
turi
turki
turkmenistan
turner
turun
turunan
turusi
turut
tutankhamun
tutu
tutuaulio
tutuawu
tutuliyo
tutulo
tutuluhu
tutumule
tutumuliyo
tutumulo
tutung
tutupa
tutuuntunga
tutuwawu
tutuwawuliyo
tutuwawuwa
tutuwewu
tutuyan
tuva
tuwa
tuwalo
tuwanga
tuwangiyo
tuwango
tuwawa
tuwawu
tuwawuliyo
tuwewu
tuwo
tuwota
tuwotiyo
tuwoto
tuwotoliyo
tv
tvri
twa
twitter
two
tycho
tyler
tyson
u
ua
uang
uap
ubu
uda
udanawu
udara
ude
udipo
udiyo
udu
ue
uefa
uepai
uganda
ugm
ui
uin
uito
uji
ujian
ujung
ujungberung
uk
ukraina
ukrainia
ukur
ukuran
ul
ula
ulama
ulang
ulangi
ulapato
ular
ulat
ulauwa
ulaweng
ulawota
ulawu
ulawuwa
ulijadi
ulipu
ulm
ulongo
ulster
ulu
ulubongka
uluere
ulujadi
ulung
ulysses
umaq
umar
umat
umati
umayyah
umbele
umbulsari
umkm
ummumuliyo
umolandu
umonga
umum
umumi
umumnya
umur
umuru
un
una
unaaha
und
undang
under
underground
undi
unej
unesco
ung
unge
unggas
unggulan
ungodiminggu
ungu
unhas
uni
unik
unimma
union
unit
united
universal
universitas
university
unjuk
uno
unsrat
unsur
untai
unte
untea
unteliyo
unti
unting
untuk
untungi
unud
unyil
uolo
up
upa
upacara
upango
uparacaya
upatujuo
upaya
uploads
upo
upohuna
upon
uponula
upper
upright
upsilon
uranus
urea
uretra
urine
url
uruguay
urusan
urusani
urut
urutan
us
usa
usaha
usahaliyo
usahanya
usd
use
ushio
usia
uskup
usman
uss
ustadz
usu
usul
usus
uta
utah
utahu
utama
utan
utara
utc
uti
utie
utiya
utiye
uto
utomo
utonu
utoonu
utrecht
utsmani
utsmaniyah
utusan
uu
uud
uumumu
uumumuliyo
uumuru
uumuruliyo
uwa
uwale
uwaliyo
uwalo
uwanengo
uwe
uweewo
uweewoliyo
uwewo
uwewolio
uwewoliyo
uwito
uwitolo
uwitoyito
uwo
uwoliyo
uwolo
uyilotapu
uyilowali
uyito
uyitoliyo
uzbekistan
v
va
vagina
vaksin
valdivia
valencia
valensi
valeri
valley
value
van
vanguard
vanuatu
vanya
variasi
vasco
vatikan
ve
vec
vee
vektor
velasco
venera
venesia
venezia
venezuela
venture
venus
verde
verdi
vereeniging
verlag
vermont
veronese
versailles
versi
version
verstappen
vertebrata
vertikal
verwandlung
very
vessels
veteran
vettel
vez
vi
via
vibiznews
vicente
vichy
victor
victoria
victory
video
vidkun
viejo
viet
vietnam
view
viga
vii
viii
viktor
villa
village
villeneuve
vincent
vinci
vinzons
virac
virgin
virginia
virion
virtual
virus
vita
vitamin
vivaldi
vladimir
voc
vogel
vokal
vokalis
vol
volcano
volta
volume
vom
von
voronezh
vote
voyager
vs
vu
vulkanik
vv
w
wa
wabah
wabula
wadah
wadala
waddaulah
wadipalapa
wafat
wafatnya
wage
wagir
wahana
wahau
wahid
wahu
wahuma
wahyu
waisak
wajah
wajak
wajib
wajibu
wajo
wakil
wakili
wakilnya
wakorumba
waktu
wakutu
wakutuliyo
wala
walanda
walanta
walao
walaupun
walea
wales
wali
walid
walie
walikota
walikotamadya
waliliyo
walimomo
walker
wall
wallace
wallachia
walt
walter
walu
waluyo
wamba
wambulu
wamilo
wan
wanamukti
wanareja
wanasari
wangga
wanggarasi
wangon
wangopa
wangsa
wani
wanita
wannsee
wanto
wanu
wapi
wapidu
war
ward
warga
warganegara
warisa
warisan
warisi
warna
warnaliyo
warren
wars
warsawa
warsito
wartabone
wartawan
waru
was
washington
wasit
watade
watampone
watang
watch
watergate
waterloo
wates
watingo
watiya
wato
watopo
watson
watt
watu
watuagung
watubangga
watulimo
watutumou
wau
waw
wawa
waworaha
wawotobi
wawu
way
wayang
wayi
wayita
wayitiyo
wayito
we
weapons
weather
web
webnya
website
wedding
wee
weewo
weizmann
wellesley
wellington
welsh
werdhi
werner
west
western
westlife
westminster
wetan
wewo
what
which
white
whitney
who
wia
wib
wibowo
widasari
wide
widodo
widoro
width
wijaya
wiki
wikilatih
wikimania
wikimedia
wikipedia
wikipedian
wilangan
wilayah
wilayahnya
wilhelm
wilhelmina
wilkes
will
willard
willem
william
williams
wilson
wimbihu
wina
wind
windows
windsor
windu
wineru
wing
winong
winston
wirahadikusumah
wirausaha
wirausahawan
wis
wisata
wisatawan
wisconsin
wita
with
without
wiyogo
wiyung
wlahar
wo
wohuto
wole
wolfgang
woli
wolilu
wolimomo
wolio
woliyo
wolo
wololo
wolomiyo
wolomo
wolota
wolotaliyo
woloto
wolowa
wolu
woluo
woluwo
woman
wombo
wombu
wong
wonggahu
wonggarasi
wonggeduku
wonoasri
wonocolo
wonodadi
wonokerto
wonokromo
wonorejo
wonosari
wonosobo
wonotirto
wonu
wonua
woo
wood
woodland
woodrow
woods
wopahuyi
wopatiyo
wopato
wopatota
wopo
wopoto
wori
work
working
works
workshop
world
wp
wright
wringin
writer
wu
wua
wuate
wubodu
wuhan
wuhu
wuleya
wulingo
wulito
wulodu
wuluhan
wuluwo
wumbu
wumbuta
wundulako
wunemo
wungguli
wungu
wunu
wuryanto
wutatiyo
wuto
wuwa
wuwahu
wuwate
wuwumbuta
www
x
xi
xii
xiii
xiv
xv
xvi
xvii
xviii
xx
y
ya
yahoo
yahudi
yahya
yaitu
yakini
yakni
yale
yali
yalta
yaman
yamato
yamin
yan
yang
yani
yard
yasin
yasser
yat
yati
yatim
yayasan
yazid
ye
year
years
yellow
yellowstone
yeltsin
yerusalem
yes
yesus
yew
yi
yibu
yila
yilabota
yilalamo
yilalu
yilantikliyo
yilapata
yilapato
yilapita
yilate
yilawo
yilawoliyo
yilimo
yilinggiliyo
yiliyala
yilo
yiloali
yilobu
yilobungiyo
yilobutu
yiloheyi
yilohiliyo
yilohiya
yilohiyaliyo
yiloli
yilona
yilotapu
yilotapuliyo
yilowali
yilumayi
yilumodu
yilumolo
yilumonggu
yilumuwalo
yimbupulu
yimo
yinggilolo
yinulo
yiresmi
yiresmiliyo
yitaato
yitato
yito
yitohe
yitohu
yo
yogyakarta
yohanes
yom
yong
yordania
york
yoshikawa
you
young
your
youtube
yovie
ypsilantis
yuan
yudhoyono
yugoslavia
yunani
yuri
yurisdiksi
yusuf
yuta
yyyy
z
zachary
zainal
zaini
zainuddin
zaire
zakaria
zam
zaman
zambia
zanzibar
zat
zedong
zef
zeppelin
zeta
zhang
zhao
zhuge
zhukov
zia
zimbabwe
zionis
zip
zola
zona
zone
zoologi
zu
zubir
zuckerberg
zulfikar
zulkefli
zulu
zur
{
|
}
~
£
§
«
°
±
²
³
·
º
»
¾
×
ß
æ
ð
ø
ørsted
đa
ħ
ı
ł
ŋ
ƿ
ɑ
ɓ
ɕ
ə
ɛ
ɡ
ɤ
ɪ
ɯ
ɱ
ɴ
ʃ
ʋ
ʌ
ʕ
ʜ
ʰ
ʷ
ʾ
ˈ
ˌ
ː
ˑ
̀
́
̂
̃
̄
̆
̇
̈
̉
̊
̋
̌
̓
̔
̛
̣
̤
̦
̧
̨
̩
̯
̱
̲
͂
͡
α
β
γ
δ
ε
ζ
η
θ
κ
λ
μ
ν
ξ
ο
π
ρ
ς
σ
υ
φ
χ
ω
ϙ
н
у
х
ח
ا
الا
الجمهورية
العربية
المملكة
بن
ة
د
ر
ع
ق
ل
محمد
و
ي
َ
ِ
ْ
ٓ
ٔ
ٕ
क
ग
घ
ङ
ज
त
थ
न
प
भ
म
य
र
ल
श
ा
ि
ी
ु
ू
े
ो
्
ং
ত
দ
ব
র
ল
শ
া
ী
ে
্
ட
ன
ம
ா
ே
்
ᯔ
ᯩ
᯲
ẟ
​
‎
–
—
‘
’
“
”
•
…
′
‹
›
⁄
€
№
ↀ
→
↔
↷
∆
−
≈
③
④
⑦
☄
☉
☿
♀
♂
♃
♄
♅
♆
⚳
⧼
⧽
⯓
⯰
⺀
⺄
⺆
⺈
⺊
⺌
⺕
⺝
⺸
⺼
⿰
⿱
⿲
⿳
⿴
⿵
⿶
⿷
⿸
⿹
⿺
⿻
、
「
」
『
』
〢
お
く
し
の
や
ろ
゙
゚
ア
イ
ェ
カ
ク
コ
シ
ス
ト
ヒ
フ
ユ
リ
ロ
ー
㇁
㇂
㇄
㇇
㇈
㇉
㇓
㐁
㐄
㐅
㐌
㐫
㐬
㐭
㐮
㐱
㑒
㒵
㒸
㒼
㓁
㓞
㔾
㕛
㕣
㖾
㘝
㚅
㚇
㚔
㚘
㝉
㝡
㝴
㝵
㞋
㞢
㞷
㠩
㠭
㠯
㡀
㡭
㡿
㢲
㢴
㣇
㣺
㥯
㪅
㫄
㫐
㫒
㫺
㬅
㬎
㬥
㬰
㲋
㳄
㷠
㸒
㸚
㸦
㼌
㼲
㽞
㿟
䀠
䂞
䍃
䏍
䒑
䖍
䖒
䖝
䖵
䙴
䚻
䜌
䝿
䡛
䧹
䪞
一
丁
丂
七
丄
丅
丆
万
丈
三
上
下
丌
不
与
丏
丐
丑
专
且
丕
世
丘
丙
业
东
丞
丢
丣
两
严
並
丨
丩
个
丫
丬
中
丮
丰
丱
串
丵
丶
丷
丸
丹
为
主
丽
丿
乀
乂
乃
久
乆
乇
么
义
之
乌
乍
乎
乏
乐
乑
乔
乖
乗
乘
乙
乚
乛
乜
九
乞
也
习
乡
乳
乾
亀
亅
了
亇
予
争
事
二
亍
于
亏
亐
云
互
亓
五
井
亘
亚
亜
亞
亟
亠
亡
亢
交
亥
亦
产
亨
亩
享
京
亭
亮
亯
亰
亲
亳
亶
亷
人
亻
亼
亾
仁
今
介
仌
从
仐
仑
仒
仓
仕
他
付
仝
代
令
以
任
企
伊
伏
伐
休
会
伯
但
位
何
佘
余
作
佥
使
來
侈
侌
侖
侯
侵
便
保
俞
信
修
倉
倍
候
倠
備
僉
僕
儿
兀
允
兂
元
兄
充
兆
兇
先
光
兊
克
兌
免
兑
兒
兓
兔
党
兜
兟
入
全
兩
兪
八
公
六
兮
兰
共
关
兵
其
具
典
兹
兼
冀
冂
冃
冄
内
冈
冉
冊
冋
册
再
冎
冏
冐
冒
冓
冖
冗
冘
军
农
冝
冡
冥
冫
冬
冷
几
凡
凢
凵
凶
凷
凸
凹
出
函
凾
刀
刁
刂
刃
刄
刅
分
切
刍
刑
刕
刖
列
刘
则
初
別
利
别
到
制
刺
則
削
剌
前
剡
剽
劉
力
功
加
劦
助
劫
劳
劵
勃
勇
勉
勒
動
務
勞
勤
勲
勹
勺
勻
勾
勿
匀
匂
包
匆
匈
匊
匋
匍
匕
化
北
匚
匝
匡
匪
匱
匸
匹
区
医
匽
匿
區
十
卂
千
卄
卅
卆
升
午
卉
半
卌
华
卑
卒
卓
单
卖
南
卜
卝
卞
占
卡
卢
卣
卤
卦
卩
卪
卬
卯
印
危
即
却
卵
卷
卸
卻
厂
厃
厄
历
厈
厉
厌
厓
厘
厚
原
厤
厥
厨
厭
厲
厶
厷
厸
去
厼
厽
叀
参
參
叅
又
叉
及
友
双
反
叐
发
叒
叔
叕
取
受
叚
叜
叟
口
古
句
另
叩
只
召
可
台
叱
史
右
叵
号
司
叹
吂
各
吅
合
吉
吊
吋
同
名
后
吏
向
吕
君
吝
吞
否
含
启
吳
吴
吹
吾
呂
呆
呈
告
员
呙
周
命
咅
和
咎
咠
咢
咨
咸
咼
哀
品
哉
員
哥
哲
唐
商
啇
問
啚
啬
啻
善
喜
喬
單
喿
嗇
噩
嚴
囊
囗
囘
囙
囚
四
回
囟
因
囧
囬
困
囱
囷
固
国
圂
圅
國
圍
圓
土
圡
圣
圥
在
圭
地
圶
圼
坐
坒
坚
坴
垂
垔
垚
埀
埋
埶
執
基
堂
堅
堆
堇
堯
塞
墨
壘
士
壬
壯
声
壳
壴
壹
壺
壽
夂
处
夅
夆
备
夊
夋
夌
复
夏
夒
夕
外
夗
夘
多
夜
夢
大
夨
天
太
夫
夬
夭
央
失
夲
头
夷
夸
夹
夻
夾
奂
奄
奇
奈
奉
奎
奏
奐
契
奓
奔
奚
奞
奠
奢
奥
奭
女
奴
奻
好
如
妄
妙
妟
妥
妻
妾
姑
委
姜
威
娄
婁
婴
嬰
嬴
子
孑
孔
孕
孖
字
存
孚
孛
孝
孟
季
孤
学
孫
孱
學
宀
宁
宂
它
宅
宇
守
安
宋
完
宏
宓
宗
官
定
宛
宜
宝
実
客
宣
室
宮
宰
害
家
容
宾
宿
寄
寅
密
富
寒
察
寧
審
寫
寬
寮
寸
对
寺
寻
寽
対
寿
封
尃
射
将
將
專
尉
尊
尋
尌
對
小
少
尒
尓
尔
尖
尗
尚
尞
尢
尣
尤
尧
尨
尭
就
尸
尹
尺
尻
尼
尽
尾
尿
局
居
屈
屋
屎
屏
屑
展
屖
屚
属
屠
屡
屬
屮
屯
屰
山
屵
屾
岁
岂
岑
岡
岩
岳
岸
峯
峰
島
崇
崑
崔
崖
崙
崩
嵬
嶲
巂
巛
川
州
巟
巠
巢
巤
工
左
巧
巨
巩
巫
差
己
已
巳
巴
巷
巸
巽
巾
巿
帀
市
布
希
帚
帛
帝
带
師
席
帶
常
干
平
年
幵
并
幷
幸
幺
幻
幼
幽
幾
广
広
庄
床
底
店
庚
府
度
庫
庭
庶
康
庸
廉
廌
廛
廣
廩
廴
延
廷
建
廾
廿
开
弁
弃
弄
弇
弋
式
弓
弔
引
弗
弘
弜
弟
弥
弦
弱
張
強
强
彊
彌
彎
彐
彑
当
彔
录
彖
彗
彡
形
彥
彦
彧
彭
彳
役
彼
往
待
律
徒
得
徙
從
復
微
徳
徵
心
忄
必
忌
忍
志
忝
忠
忩
快
念
忽
忿
思
怠
急
怱
恆
恒
恩
恭
息
悉
患
悤
悲
悶
惠
惡
惢
愁
愈
意
愛
感
慈
慧
慮
憂
憲
應
戀
戈
戉
戊
戋
戌
戍
戎
成
我
戒
戔
或
戚
戠
戢
戦
截
戲
戶
户
戹
戼
戾
房
所
扁
扇
手
扌
才
打
托
执
承
折
拉
拜
拿
掌
推
提
摩
支
攴
攵
收
攸
改
放
政
敄
敏
敕
敖
敗
敝
敞
敢
散
敦
敫
敬
数
敷
數
斂
文
斉
斊
斗
斤
斥
斩
斬
斯
新
方
於
施
斿
旁
旋
族
无
旡
既
旣
日
旦
旧
旨
早
旬
旱
旲
时
旾
昆
昇
昌
昍
明
昏
易
昔
昗
昜
星
春
昬
是
昱
昴
昷
時
晃
晋
晏
普
景
晶
智
暑
暴
曇
曩
曰
曲
曳
更
曷
書
曹
曼
曾
替
最
朁
會
月
有
朋
服
朔
朕
朗
望
朝
木
朩
未
末
本
札
朮
术
朱
朵
朶
朿
杀
杏
杜
束
条
来
東
杲
杳
松
析
林
枚
果
枝
枲
枼
某
柔
查
柬
柰
柴
栗
桀
桑
桼
梁
條
梟
梨
棉
棘
棠
棥
森
楚
業
極
楽
榮
樂
樊
機
欠
次
欣
欮
欲
欶
欽
款
歆
歇
歛
止
正
此
步
武
歨
歪
歮
歯
歰
歲
歴
歷
歸
歹
歺
死
殳
段
殷
殸
殹
殺
殻
殿
毋
毌
母
每
毒
比
毕
毚
毛
毳
氏
氐
民
气
氣
水
氵
氶
氷
永
氺
氾
求
汝
汞
江
沃
沓
沙
沝
沢
治
泉
法
波
泣
泥
泰
洛
洪
活
派
流
浦
浩
浪
浮
海
淡
淮
清
渚
渠
湯
源
滿
漸
潜
潮
澤
火
灬
灭
灰
灵
灷
炅
炎
炏
炗
炙
炭
為
烈
烏
烝
焉
無
焦
焱
然
煞
熊
熏
燕
營
燮
爪
爫
爭
爯
爰
爱
爲
爵
父
爻
爽
爾
爿
片
牙
牚
牛
牜
牟
牢
牧
物
牪
牽
犀
犬
犭
犮
狂
狄
狊
独
狺
猋
猒
猪
献
獻
玄
率
玉
王
玟
玨
珎
珠
班
琴
瑞
瑟
瑩
瑪
瓜
瓦
甘
甚
生
産
用
甫
甬
田
由
甲
申
电
甶
男
甸
甹
画
甾
畀
界
畏
畐
留
畜
畟
畢
畧
畨
番
畫
異
畱
當
畺
畾
疊
疋
疌
疑
疒
疾
癶
癸
癹
登
發
白
百
皀
皃
的
皆
皇
皋
皐
皕
皮
皷
皿
盃
盆
盇
盈
益
盍
盎
监
盒
盖
盛
盡
監
盤
盧
目
直
相
盾
省
眇
眉
看
眔
眞
真
眷
眼
眾
着
睘
睪
睿
瞏
瞢
瞿
矍
矛
矞
矢
矣
知
矦
短
石
破
碎
磊
磨
示
礻
礼
祟
票
祭
禀
禁
禸
禹
禺
离
禽
禾
禿
秀
秃
秉
秋
科
秘
秝
秦
移
稟
穀
穆
穌
穴
究
穹
空
穿
突
窄
窒
立
竒
竜
竝
竟
章
童
竹
笑
笠
第
筆
等
答
箕
算
箴
節
篤
篭
米
粉
粛
粟
粤
粦
粲
糞
糸
糹
系
約
納
素
索
紫
累
細
絜
絫
絲
維
綿
縣
繇
織
纍
纟
缶
网
罒
罔
罕
罗
罙
罡
罢
罪
署
罷
羅
羊
羌
羍
美
羔
羕
羗
羞
羡
羣
群
義
羲
羸
羽
翁
翏
習
翕
翟
翠
翼
老
耂
考
者
耆
而
耎
耑
耒
耳
耴
耶
耷
聂
聊
聖
聚
聶
聿
肀
肃
肅
肉
肖
肙
肥
肩
肯
育
肴
胃
背
胡
胥
能
脊
脩
膚
臣
臤
臧
自
臬
臭
臯
臱
至
致
臺
臼
臽
臾
臿
舀
舂
舄
與
興
舉
舌
舍
舛
舜
舞
舟
般
艦
艮
良
色
艸
艹
艾
芒
芔
芬
芮
花
芳
芺
芻
苔
苗
苟
若
苦
英
茶
茸
荅
草
荒
荣
荼
莆
莧
莫
莽
菆
菊
菐
華
萬
落
葉
著
葛
董
葵
蒙
蒦
蒼
蓋
蓬
蓺
蔑
蔡
蔵
蕉
蕭
薄
薛
薦
薰
藍
藏
藥
蘭
虍
虎
虐
虒
虔
處
虖
虗
虘
虚
虛
虜
虞
虫
虽
蚤
蚩
蜀
蜜
蟲
蠡
血
行
衍
衛
衣
衤
表
衮
衰
袁
袞
製
褭
褱
襄
襾
西
覀
要
覃
見
規
覓
覧
親
覽
见
角
解
言
訁
訇
計
証
話
詹
語
誩
諸
讠
诸
谷
豆
豈
豊
豐
豕
豖
豙
象
豦
豩
豪
豸
貇
貝
貞
貟
負
貢
貧
貪
貫
責
貳
貴
買
費
賁
資
賈
賏
賓
賔
賛
賞
賢
賣
質
賴
贊
贝
贡
责
贯
贲
贵
赖
赞
赤
赦
走
越
足
路
蹇
身
躬
車
軍
軎
軟
輦
輪
车
辛
辜
辟
辥
辰
辱
農
辵
辶
边
达
过
近
连
迷
追
退
送
逆
逐
通
速
造
逢
連
逮
進
遀
遂
過
道
達
遣
適
遷
遺
邊
邑
邕
那
邦
邪
郎
部
郭
都
鄉
酉
酋
配
酓
釆
采
里
重
野
量
金
釒
錢
鐘
钅
長
镸
长
門
閃
閉
開
閏
閑
閒
間
閔
閵
閻
闌
门
间
闷
阑
阜
阝
阿
降
陳
隆
隊
隋
隡
隨
隱
隶
隹
隺
隻
隼
隽
难
雀
雁
集
雈
雋
雍
雐
雔
雙
雚
雜
雝
離
難
雨
雩
雪
雲
零
雷
需
霍
霜
霝
霞
霸
靈
靑
青
非
靡
面
靣
革
韋
韦
韭
韯
韱
音
頁
頃
項
須
頗
頡
頻
顛
页
風
风
飛
飞
食
飠
養
饣
首
香
馬
馮
駦
马
骨
高
髟
鬥
鬯
鬲
鬼
魚
魯
鮮
鱼
鲁
鳥
鳳
鸟
鹵
鹿
麃
麗
麥
麦
麻
黃
黄
黍
黎
黑
黒
黨
黹
黽
黾
鼎
鼓
鼠
鼻
齊
齋
齐
齒
齿
龍
龙
龜
龟
龠
龰
龱
龴
龵
龶
龷
龸
龹
ꦏ
ꦕ
ꦗ
ꦠ
ꦢ
ꦤ
ꦩ
ꦫ
ꦼ
꧀
者
艹
ﷲ
ﷺ
：
？
🜨
🝻
🝼
𠀁
𠀃
𠀆
𠀉
𠀎
𠀐
𠁁
𠁣
𠂆
𠂇
𠂈
𠂉
𠂊
𠂋
𠂎
𠂒
𠂔
𠂛
𠂡
𠂢
𠂤
𠂬
𠂭
𠂹
𠃊
𠃋
𠃌
𠃍
𠃎
𠃑
𠃓
𠃔
𠃜
𠄌
𠄎
𠄠
𠄢
𠆢
𠆥
𠇍
𠈌
𠌵
𠓜
𠔉
𠔥
𠔼
𠔽
𠔿
𠕀
𠕁
𠕋
𠘧
𠘨
𠙻
𠙼
𠚏
𠚒
𠚤
𠚪
𠣏
𠤎
𠤕
𠥓
𠦄
𠦑
𠦝
𠧒
𠧗
𠧪
𠩺
𠪚
𠫓
𠫔
𠫤
𠬛
𠬝
𠬞
𠬢
𠬤
𠬶
𠮛
𠮦
𠮷
𠯑
𠱠
𠳮
𠷎
𡈼
𡉀
𡉵
𡌥
𡍮
𡏳
𡕒
𡕩
𡕰
𡖅
𡗗
𡗜
𡘆
𡘤
𡧱
𡨄
𡩧
𡬠
𡭽
𡰣
𡰥
𡰪
𡰯
𡰱
𡷈
𡸁
𡿨
𡿩
𡿪
𡿺
𢀖
𢀛
𢀩
𢁙
𢆉
𢆰
𢆶
𢇁
𢇇
𢉖
𢌬
𢌿
𢏚
𢑑
𢑚
𢖻
𢙣
𢛳
𢦏
𢦒
𢧵
𢼄
𢾕
𣁋
𣄼
𣅀
𣅽
𣍘
𣎳
𣎵
𣏋
𣏼
𣗥
𣥂
𣥖
𣦵
𣦼
𣧄
𣪊
𣪠
𣬉
𣳾
𣶒
𤇾
𤊽
𤐫
𤓰
𤔔
𤕨
𤣩
𤰇
𤰔
𤰞
𤴓
𤴔
𤽄
𥁑
𥁕
𥃦
𥃩
𥃭
𥇡
𥑟
𥘅
𥘈
𥝢
𥫗
𥱡
𦈢
𦉪
𦉬
𦉼
𦍌
𦍒
𦎧
𦐇
𦓔
𦔮
𦘒
𦙃
𦚏
𦣝
𦣞
𦣻
𦥑
𦥔
𦥯
𦨉
𦭝
𦰩
𧆞
𧈧
𧘇
𧰨
𧴪
𧴮
𧵩
𧾷
𨸏
𨾴
𩙿
𩠐
𩫏
𩵋
𪉷
𪜀
𪟽
𪠲
𪩲
𫇦
𫔭
𫜸
𫝀
𫠣
𫠩
𫢉
𫥞
𫩏
𫩠
𫪡
𫲽
𫶧
𬀷
𬐘
𬗌
𬙙
𬛸
𬜯
𬟩
𬯁
𬴘
𬺻
𬼉
𬼖
𭀰
𭁈
𭁨
𭅰
𭑈
𭕄
𭗼
𭤨
𭥫
𭻾
𮅕
𮊿
𮍌
𮍏
𮓗
𮥼
𮧮
廾
𰀁
𰀄
𰀈
𰀉
𰀕
𰀠
𰀡
𰀢
𰀪
𰁜
𰃮
𰆊
𰆘
𰋙
𰕎
𰢴
𰧭
𰯲
01--
05--
06--
24--
25--
a--
aa--
ab--
abi--
abo--
abso--
ac--
achie--
ad--
adi--
adol--
aer--
af--
aff--
ag--
ah--
ahu--
ai--
air--
ak--
ake--
aks--
al--
ala--
ali--
alo--
alt--
am--
amb--
ambe--
ambo--
amer--
an--
ana--
and--
ang--
anguilli--
ani--
antar--
anti--
antr--
ap--
apa--
apel--
api--
apo--
aq--
ar--
arc--
argo--
art--
as--
asi--
astro--
at--
ata--
ath--
atla--
au--
ave--
ayu--
az--
azərbay--
b--
ba--
bad--
bag--
baga--
bah--
baho--
bal--
ban--
bang--
bar--
barque--
bat--
batu--
bay--
be--
beau--
bec--
bel--
ben--
bendil--
beng--
ber--
berdi--
bere--
berg--
berhem--
berke--
berm--
berp--
berr--
bersa--
berse--
bert--
bi--
bian--
bib--
bilo--
bim--
bin--
bing--
bio--
bis--
bit--
black--
ble--
bo--
bob--
bode--
boli--
bolly--
bolo--
bolu--
bon--
bone--
bong--
bonto--
bor--
botu--
bou--
bowong--
boy--
bra--
bran--
bre--
bri--
bris--
bro--
broo--
brum--
bu--
bua--
bubu--
budi--
bulu--
bumi--
bun--
bungga--
bur--
bura--
by--
c--
ca--
cab--
cag--
cah--
cal--
cala--
can--
candi--
car--
cara--
caro--
carr--
cart--
cast--
cat--
ce--
cen--
cer--
ch--
cha--
chi--
cho--
chula--
ci--
cic--
cin--
cir--
cit--
citiz--
cla--
clo--
co--
cokro--
col--
com--
con--
const--
constitu--
cor--
corn--
cot--
cra--
cri--
cro--
cu--
cul--
cy--
d--
da--
daa--
dada--
dag--
dal--
dam--
dan--
dana--
dar--
day--
dd--
de--
defe--
deket--
del--
den--
dep--
der--
dermo--
des--
deu--
di--
dia--
dibe--
dic--
did--
diekskresi--
dik--
dike--
dil--
dilu--
dimi--
din--
dinos--
dip--
diper--
dipo--
dir--
dist--
dj--
djo--
dm--
do--
dom--
don--
dor--
doro--
dr--
du--
dua--
dukuh--
dul--
dula--
dun--
dur--
dutu--
dw--
dy--
dz--
e--
ed--
educat--
ef--
eks--
el--
ele--
eleva--
em--
en--
eng--
epi--
er--
es--
esch--
est--
et--
eth--
euk--
ex--
ey--
f--
fa--
fab--
fair--
fak--
fal--
fan--
far--
farma--
fat--
faw--
fe--
fer--
fi--
figh--
fil--
filo--
fin--
fis--
fish--
fla--
fo--
fon--
for--
fos--
foto--
fri--
fu--
func--
g--
ga--
gal--
gala--
gali--
gam--
gan--
gar--
gas--
gastr--
ge--
gemb--
gempol--
gen--
geo--
geogr--
ger--
gi--
gia--
gib--
gil--
gin--
giri--
gis--
gla--
go--
gon--
goo--
good--
gove--
gr--
gra--
grac--
gre--
gri--
gro--
gru--
gu--
gua--
guil--
gul--
gun--
gur--
h--
ha--
habs--
hadi--
hag--
hak--
hal--
hala--
ham--
han--
hand--
har--
harjo--
has--
haw--
haz--
he--
heb--
hec--
hel--
hemo--
hemode--
hemohu--
hen--
hepa--
hepo--
hepode--
hepotu--
hepu--
her--
here--
hi--
hide--
hihi--
hii--
hila--
hin--
hiper--
hipo--
hippo--
hit--
ho--
hob--
hol--
holo--
hon--
hono--
hoo--
hu--
hul--
hum--
hun--
hung--
huta--
huung--
hy--
hydr--
i--
iain--
ib--
iba--
ic--
id--
ide--
ig--
ii--
ik--
ika--
il--
ila--
ilo--
ilon--
imi--
imp--
in--
indon--
inf--
ino--
inst--
inte--
integr--
inve--
investi--
ir--
is--
isi--
j--
ja--
jak--
jam--
jan--
jati--
jaya--
je--
jen--
jer--
jia--
jing--
jo--
jogo--
joo--
ju--
judi--
jun--
k--
ka--
kabo--
kabu--
kal--
kale--
kali--
kalu--
kam--
kame--
kan--
kap--
kapa--
kar--
kara--
karang--
kart--
karu--
karya--
kasu--
kati--
kaw--
kayu--
ke--
keba--
keda--
kedu--
kedung--
kee--
kege--
keke--
kel--
kelan--
kele--
kelu--
kem--
kema--
ken--
ker--
kert--
kerta--
keru--
kesa--
kete--
key--
kh--
kha--
ki--
kib--
kil--
kim--
kin--
kir--
kla--
klamp--
kle--
kli--
klu--
ko--
koko--
kom--
komp--
kon--
kond--
kor--
koro--
kota--
kra--
kre--
kro--
kru--
ku--
kun--
kuta--
kuto--
ky--
l--
la--
lab--
lahi--
lai--
lak--
laks--
lala--
lalo--
lam--
lamb--
lamp--
lan--
lanca--
land--
lang--
lanti--
laro--
lau--
law--
lay--
le--
lec--
lee--
leh--
lek--
lem--
lemp--
len--
leng--
les--
let--
li--
lib--
lic--
lil--
lili--
lim--
limf--
lin--
linggo--
lipu--
lla--
lo--
loc--
lohe--
lohum--
lola--
lolu--
lom--
lombu--
lon--
long--
lopo--
los--
lot--
loti--
lotiti--
lu--
lum--
lumbu--
lume--
lumu--
lun--
lux--
ly--
m--
ma--
maa--
mac--
madu--
mag--
maga--
magal--
magni--
magu--
mah--
maha--
mai--
maja--
mak--
makro--
maksudu--
mal--
malo--
mam--
mamo--
mamp--
man--
mang--
mangun--
mani--
map--
mar--
mara--
mari--
maro--
marq--
mas--
masa--
mat--
mata--
mate--
mau--
maxi--
may--
mayi--
maz--
mc--
me--
mega--
mel--
mem--
meman--
meme--
memp--
memper--
men--
mena--
mend--
meng--
menga--
mengabadi--
mengam--
menge--
menghu--
mengi--
mengo--
menu--
meny--
menya--
mer--
mess--
mi--
micro--
mik--
mil--
mim--
mina--
mir--
mit--
miz--
mm--
mo--
mode--
mohi--
mohu--
mohum--
mojo--
mola--
molo--
molom--
molu--
mom--
moma--
momu--
mon--
mond--
mong--
mongi--
mongo--
mono--
moo--
moperta--
mopi--
mopo--
mopula--
mor--
mot--
mota--
moti--
moto--
motolo--
mou--
mp--
mr--
mu--
mul--
mulu--
mun--
mur--
muz--
my--
n--
na--
nag--
naj--
nam--
nan--
nar--
nara--
nasru--
naz--
nd--
ne--
neb--
neigh--
ner--
net--
neu--
ng--
nga--
ngadi--
nge--
ngen--
ngo--
ngu--
ni--
no--
nogo--
non--
nor--
nst--
nu--
nuk--
nukleo--
num--
nur--
nusa--
ny--
o--
ob--
obser--
observa--
octa--
oda--
og--
ogo--
ohi--
ohu--
ok--
oke--
okta--
ol--
ola--
oli--
olo--
om--
on--
one--
ong--
opi--
opp--
opti--
or--
ori--
os--
osmore--
ot--
oto--
otu--
out--
oya--
oz--
p--
pa--
pada--
pag--
page--
pal--
pala--
pale--
pam--
pan--
panga--
pangg--
par--
para--
pas--
pat--
pati--
pato--
pav--
pe--
peka--
pele--
pelu--
pem--
peme--
pemer--
pemi--
pemu--
pen--
penam--
penda--
peng--
penga--
pengem--
pengga--
penghu--
pengu--
penin--
penu--
peny--
penye--
per--
pere--
peri--
petr--
petro--
pg--
ph--
phy--
pi--
pic--
pig--
pili--
pilo--
pilopo--
pin--
pina--
pind--
pine--
pino--
pitu--
po--
pob--
podo--
poh--
pohu--
pohula--
pola--
poli--
polo--
polu--
pom--
pomu--
pon--
pong--
ponga--
pop--
popo--
por--
pos--
pot--
potu--
pra--
pre--
pri--
pro--
psiki--
pt--
ptole--
pu--
pub--
puli--
pulo--
pun--
pung--
purw--
purwo--
pus--
put--
puu--
q--
qa--
qan--
qu--
qua--
que--
qui--
r--
ra--
rab--
rad--
rah--
rail--
ram--
ran--
rand--
rang--
ras--
rawa--
re--
reg--
rei--
rejo--
rek--
rel--
ren--
revol--
rey--
rho--
ri--
rib--
ric--
rid--
rie--
ringin--
ris--
rm--
ro--
rob--
ros--
ru--
ruk--
run--
rut--
ry--
s--
sa--
sab--
sag--
sah--
sal--
sala--
sam--
san--
sang--
sar--
sari--
sast--
sat--
saw--
say--
sc--
sch--
schu--
schutz--
sco--
se--
sea--
seang--
sei--
sek--
seka--
sel--
sem--
sen--
sepen--
seper--
ser--
set--
sh--
sha--
she--
shi--
shin--
sho--
si--
sida--
sido--
sig--
signifi--
sil--
silu--
sim--
sime--
simo--
simp--
sin--
sir--
sis--
sito--
sk--
sky--
sla--
sm--
sn--
so--
soa--
soe--
sog--
sol--
soma--
somo--
son--
sono--
sor--
soro--
sour--
sp--
sr--
sri--
st--
stam--
ste--
sti--
sto--
strato--
stu--
sty--
su--
sub--
subst--
suda--
sudi--
sudj--
sug--
suj--
suka--
suko--
sul--
suma--
sumber--
sump--
sumur--
sungai--
super--
sur--
suro--
suryo--
swa--
swe--
sy--
sya--
syah--
t--
ta--
tab--
taba--
tabu--
tag--
tai--
tak--
tal--
tala--
talu--
tam--
tamp--
tan--
tap--
tar--
taro--
taru--
tata--
tau--
tawa--
te--
tegal--
teh--
tel--
tem--
tembu--
ten--
teng--
ter--
tera--
terda--
tere--
teri--
term--
tero--
terp--
tert--
tete--
th--
the--
thu--
ti--
tib--
tiga--
tila--
tili--
tilo--
tilu--
tim--
tin--
tina--
tind--
ting--
tinti--
tinu--
titi--
tiyo--
tjokro--
tla--
tlogo--
to--
tolo--
tom--
tomin--
ton--
top--
topo--
tor--
tot--
tota--
tou--
tr--
tra--
trans--
trap--
tri--
tro--
tru--
tsu--
tu--
tum--
tumo--
tump--
tun--
tung--
tur--
tus--
ty--
u--
uda--
udu--
ue--
uk--
ukur--
ul--
ula--
ulu--
um--
un--
unc--
ung--
uni--
up--
upo--
ur--
uri--
uro--
us--
ut--
v--
va--
val--
vale--
var--
ve--
vel--
ven--
ver--
vi--
vic--
vie--
vil--
vin--
visi--
vla--
vo--
vol--
volks--
vul--
w--
wa--
wag--
wal--
wala--
wald--
walu--
wan--
war--
waru--
was--
water--
watu--
waw--
wawo--
we--
web--
wel--
wen--
whe--
whit--
wi--
widi--
wiki--
wil--
wir--
wira--
wis--
wo--
wol--
wond--
wono--
wood--
wu--
x--
xi--
xx--
y--
ya--
yao--
ye--
yer--
yi--
yila--
yilo--
yilu--
yo--
yoko--
yoshi--
yu--
yul--
yus--
z--
za--
zah--
zai--
zar--
ze--
zi--
zimmer--
zo--
zu--
zul--
đ--
ɛ--
λ--
μαθη--
ν--
π--
πο--
τ--
а--
ا--
ال--
سل--
ع--
ي--
--0
--1
--10
--2
--3
--4
--5
--6
--7
--8
--9
--a
--aa
--aan
--ab
--aba
--abad
--abat
--able
--ac
--ad
--adi
--ado
--adu
--af
--afi
--aga
--agan
--ago
--agung
--ah
--aha
--ahan
--ahi
--ai
--air
--ait
--aja
--aji
--ak
--aka
--ake
--aki
--al
--ala
--ali
--alo
--am
--ama
--amo
--an
--ana
--anan
--ane
--ang
--angan
--ani
--ann
--annya
--ano
--anom
--ant
--ao
--ap
--apa
--aphy
--apo
--ar
--ara
--ari
--aris
--arjo
--arum
--ary
--as
--ase
--asi
--asri
--at
--ata
--ate
--ated
--ati
--ato
--atur
--au
--awu
--ay
--aya
--ayu
--az
--b
--ba
--bad
--bah
--ban
--bang
--bango
--bar
--baru
--bat
--bati
--be
--bening
--ber
--berg
--bhumi
--bi
--bil
--bilohu
--ble
--bo
--bohu
--bol
--bon
--bong
--borg
--bourg
--bs
--bu
--buli
--bur
--buran
--burg
--burgh
--buru
--by
--c
--ca
--cal
--cao
--car
--care
--ce
--cea
--ceae
--cent
--ces
--ch
--cht
--ci
--cio
--cion
--cir
--ck
--cks
--cky
--co
--ct
--cts
--cu
--cus
--cy
--d
--da
--daa
--dadi
--dae
--dalem
--dan
--dang
--dar
--dat
--ddin
--de
--dea
--dengo
--der
--deta
--dge
--dh
--di
--dia
--dio
--dius
--diyo
--djan
--do
--dong
--dor
--dowo
--ds
--du
--duk
--dung
--duwo
--duwur
--dy
--e
--ea
--ean
--ed
--eds
--ee
--eed
--ef
--eg
--ega
--egan
--ege
--eh
--eha
--ei
--eja
--ejo
--ek
--ekat
--el
--ele
--eli
--elik
--ell
--elo
--em
--eman
--eme
--en
--ena
--enburg
--eng
--engah
--eni
--ens
--ensi
--ent
--eo
--ep
--er
--ero
--ers
--ert
--es
--ese
--ess
--et
--etics
--ett
--ev
--ew
--ewu
--ey
--eye
--f
--fa
--faat
--ff
--fi
--fo
--ft
--g
--ga
--gah
--gai
--gal
--gala
--gan
--gang
--gar
--gat
--gau
--gdut
--ge
--gede
--geng
--ges
--gga
--ggala
--ggo
--ggu
--ggung
--gh
--ght
--gi
--gia
--gie
--gin
--gis
--giyo
--gka
--gkal
--gkan
--gkas
--gke
--gkir
--gkit
--gkitkan
--gko
--gku
--gkung
--gkut
--gl
--gla
--gle
--gn
--gna
--go
--gon
--grafi
--graphy
--grejo
--gs
--gsa
--gu
--gue
--gul
--gulo
--gung
--gunung
--gura
--gy
--h
--ha
--hai
--ham
--han
--hanguskan
--har
--hara
--harjo
--hay
--hayu
--hd
--he
--heim
--heng
--heto
--heyi
--hi
--hin
--hip
--hir
--hiyo
--hkan
--hl
--hn
--ho
--hon
--hr
--ht
--http
--hu
--hudi
--hunga
--huys
--hy
--i
--ia
--iah
--ial
--ian
--iano
--ias
--ib
--ic
--ica
--ics
--icum
--id
--ida
--ie
--ien
--ier
--ies
--if
--igi
--ih
--ij
--ik
--ika
--iki
--il
--ila
--ili
--iliyo
--ill
--im
--ima
--imal
--imi
--in
--ina
--inal
--inan
--ine
--ing
--ingan
--ingiyo
--ini
--ino
--ins
--inya
--io
--ion
--ior
--ip
--ipe
--ir
--ire
--is
--isasi
--ish
--isi
--isme
--ist
--it
--itas
--ite
--ities
--itik
--ity
--ium
--ius
--ive
--ivity
--iya
--iyah
--iyo
--iz
--ization
--j
--ja
--jah
--jar
--jara
--jaran
--jari
--jati
--jau
--jaya
--je
--jen
--jeng
--ji
--jit
--jo
--ju
--jua
--k
--ka
--kah
--kal
--kala
--kan
--kang
--kap
--kar
--kara
--karsa
--kat
--kbud
--ke
--kel
--kerta
--ki
--kilo
--kir
--ko
--kon
--kop
--kov
--ks
--ku
--kul
--kumpul
--ky
--l
--la
--ladu
--lah
--lahe
--lai
--lalo
--lan
--land
--lang
--las
--lasi
--lat
--lawa
--ld
--ldi
--le
--led
--legi
--leh
--lek
--lele
--len
--ler
--less
--ley
--li
--lia
--ling
--lio
--lis
--lisis
--lisme
--lit
--liya
--liyo
--lk
--ll
--lla
--llah
--lle
--lm
--lo
--loe
--log
--logi
--logy
--lohu
--lon
--lopa
--lor
--lp
--ls
--lt
--lu
--luhur
--luk
--lus
--luwa
--ly
--m
--ma
--mad
--mah
--mal
--man
--mao
--mar
--mas
--mat
--mayi
--mba
--mbango
--mbe
--mber
--mbi
--mbo
--mbon
--mbu
--me
--mea
--men
--ment
--ments
--mes
--mi
--mita
--mn
--mo
--moko
--mola
--mon
--mongu
--monu
--mosa
--mpa
--mpel
--mpi
--mpo
--ms
--mu
--mulyo
--mus
--n
--na
--naa
--nae
--nah
--nai
--nal
--nan
--nang
--nao
--nas
--nasi
--nata
--nberg
--nca
--ncam
--nce
--nd
--nda
--ndang
--nde
--nden
--ndi
--ndo
--ndra
--ndu
--ne
--nel
--nelo
--ner
--nes
--nesia
--net
--ney
--ng
--nga
--ngan
--ngato
--nge
--ngen
--ngga
--nggala
--nggalo
--nggi
--nggo
--nggomo
--nggulo
--ngi
--ngin
--ngiyo
--ngka
--ngkan
--ngkap
--ngko
--ngo
--ngohi
--ngon
--ngrat
--ngs
--ngton
--ngu
--ngun
--ni
--nia
--nian
--nicus
--nik
--nity
--nium
--njak
--njau
--nji
--njutkan
--nk
--nna
--nnya
--no
--nro
--ns
--nse
--nsi
--nst
--nt
--nta
--ntai
--nte
--nter
--nti
--nto
--nts
--ntu
--ntuk
--ntung
--ntungan
--nu
--num
--nus
--ny
--nya
--nyo
--nza
--nzo
--o
--oa
--ob
--oc
--od
--oe
--og
--oge
--ogi
--ogy
--ohe
--oi
--oid
--ok
--oke
--oko
--ol
--oli
--olo
--om
--ome
--omi
--on
--ona
--onal
--ong
--ongan
--oni
--onic
--onisme
--ono
--ons
--onu
--ood
--oon
--op
--opa
--ops
--or
--ora
--orejo
--ori
--os
--ose
--oso
--osu
--ot
--otik
--ou
--oun
--ov
--ova
--ovich
--ovna
--owe
--oy
--oyo
--oza
--p
--pa
--pah
--pai
--pan
--pang
--pas
--pat
--pato
--pe
--pehu
--pi
--pin
--pit
--piyo
--ple
--po
--poh
--ps
--psi
--pton
--pu
--pula
--pura
--puro
--pute
--py
--q
--qih
--que
--r
--ra
--rak
--ral
--ram
--ran
--rang
--rat
--rawi
--raya
--rc
--rd
--rdo
--re
--rea
--reja
--rejo
--ren
--reng
--renggo
--rens
--renta
--res
--rf
--rg
--rgi
--ri
--ria
--ric
--rida
--ridae
--rin
--rina
--ris
--rity
--rium
--rjo
--rk
--rkan
--rkis
--rl
--rm
--rmo
--rn
--rna
--rni
--rno
--ro
--roa
--roto
--rov
--rque
--rr
--rry
--rs
--rsa
--rt
--rto
--ru
--ruddin
--ruh
--rum
--run
--rup
--rus
--rut
--ry
--s
--sa
--saba
--sai
--san
--sari
--sasi
--sat
--sawit
--sc
--sch
--sche
--se
--sed
--ser
--set
--sh
--shi
--shire
--si
--sia
--siasi
--sih
--sikan
--sil
--sio
--sis
--sisi
--sit
--sk
--ska
--skan
--skop
--sky
--slav
--sme
--smp
--so
--son
--sono
--sor
--ss
--ssa
--ssi
--st
--sta
--ster
--stik
--ston
--su
--suh
--sum
--sville
--syah
--szoon
--t
--ta
--tah
--tami
--tan
--tao
--tar
--tara
--tas
--tasi
--tato
--tawa
--tayi
--te
--ten
--ter
--th
--ti
--tia
--tie
--tif
--tik
--tika
--tin
--tina
--ting
--tio
--tion
--tis
--tisi
--tista
--tiyo
--tkan
--tle
--tmen
--tn
--tno
--to
--tok
--ton
--tor
--tory
--tra
--trasi
--tren
--ts
--tsu
--tt
--tta
--tti
--tty
--tu
--tum
--tun
--tung
--tur
--tus
--ty
--tz
--u
--ua
--ual
--uan
--ubi
--ud
--uddin
--ue
--ug
--ugi
--uh
--ui
--uk
--uka
--ukan
--uke
--uki
--ul
--uliyo
--ullah
--um
--un
--ung
--unu
--uo
--up
--ur
--ura
--uran
--urip
--urs
--uru
--us
--ut
--ute
--uts
--ux
--v
--va
--ve
--ver
--vic
--vna
--vo
--w
--wa
--wai
--wala
--walie
--walo
--wan
--wang
--wanga
--wangi
--waru
--was
--wati
--we
--wer
--wi
--winangun
--wn
--wo
--wola
--wolo
--won
--wu
--wulan
--x
--xq
--y
--ya
--yade
--yadu
--yah
--yai
--yaliyo
--yalo
--yan
--yanto
--yapo
--yar
--yasa
--ych
--ye
--yer
--yhur
--yi
--yita
--yito
--yn
--yo
--yoliyo
--yolo
--yon
--yoso
--yoto
--ys
--yu
--yya
--yyah
--z
--za
--zar
--ze
--zer
--zi
--zio
--zo
--zoa
--zy
--ə
--ɪ
--ʊ
--α
--η
--ις
--ν
--ا
--بية
--ة
--ح
--د
--م
--ه
--ي
--ين
