!
"
#
##0
##1
##10
##11
##12
##13
##14
##15
##16
##17
##18
##19
##2
##20
##21
##22
##23
##24
##25
##26
##27
##28
##29
##3
##30
##31
##32
##33
##34
##35
##36
##37
##38
##39
##4
##40
##41
##42
##43
##44
##45
##46
##47
##48
##49
##5
##50
##51
##52
##53
##54
##55
##56
##57
##58
##59
##6
##60
##61
##62
##63
##64
##65
##66
##67
##68
##69
##7
##70
##71
##72
##73
##74
##75
##76
##77
##78
##79
##8
##80
##81
##82
##83
##84
##85
##86
##87
##88
##89
##9
##90
##91
##92
##93
##94
##95
##96
##97
##98
##99
$
%
&
'
(
)
*
+
,
-
.
/
0
00
000
000000
001
002
01
02
03
04
05
06
07
08
09
1
10
100
1000
101
102
103
104
105
106
107
108
109
11
110
111
112
113
114
115
116
117
118
119
12
120
1200
121
122
123
124
125
126
127
128
129
13
130
131
132
133
134
135
136
137
138
139
14
140
1400
141
142
143
144
145
146
147
148
149
1492
15
150
1500
151
152
153
154
155
156
157
158
159
16
160
1600
161
162
163
1633
164
1644
165
166
167
168
169
17
170
1700
171
172
173
174
1740
175
1750
1753
1758
176
1760
1763
1766
1767
1768
177
1770
1771
1772
1774
1775
1776
1777
1778
178
1780
1781
1782
1783
1784
1785
1786
1787
1788
1789
179
1790
1791
1792
1793
1794
1795
1796
1797
1798
1799
18
180
1800
1801
1802
1803
1804
1805
1806
1807
1808
1809
181
1810
1811
1812
1813
1814
1815
1816
1817
1818
1819
182
1820
1821
1822
1823
1824
1825
1826
1827
1828
1829
183
1830
1831
1832
1833
1834
1835
1836
1837
1838
1839
184
1840
1841
1842
1843
1844
1845
1846
1847
1848
1849
185
1850
1851
1852
1853
1854
1855
1856
1857
1858
1859
186
1860
1861
1862
1863
1864
1865
1866
1867
1868
1869
187
1870
1871
1872
1873
1874
1875
1876
1877
1878
1879
188
1880
1881
1882
1883
1884
1885
1886
1887
1888
1889
189
1890
1891
1892
1893
1894
1895
1896
1897
1898
1899
19
190
1900
1901
1902
1903
1904
1905
1906
1907
1908
1909
191
1910
1911
1912
1913
1914
1915
1916
1917
1918
1919
192
1920
1921
1922
1923
1924
1925
1926
1927
1928
1929
193
1930
1931
1932
1933
1934
1935
1936
1937
1938
1939
194
1940
1941
1942
1943
1944
1945
1946
1947
1948
1949
195
1950
1951
1952
1953
1954
1955
1956
1957
1958
1959
196
1960
1961
1962
1963
1964
1965
1966
1967
1968
1969
197
1970
1971
1972
1973
1974
1975
1976
1977
1978
1979
198
1980
1981
1982
1983
1984
1985
1986
1987
1988
1989
199
1990
1991
1992
1993
1994
1995
1996
1997
1998
1999
2
20
200
2000
2001
2002
2003
2004
2005
2006
2007
2008
2009
201
2010
2011
2012
2013
2014
2015
2016
2017
2018
2019
202
2020
2021
2022
2023
2025
203
2030
204
205
206
207
208
209
21
210
211
212
213
214
215
216
217
218
219
22
220
221
222
223
224
225
226
227
228
229
23
230
231
232
233
234
235
236
237
238
239
24
240
241
242
243
244
245
246
247
248
249
25
250
251
252
253
254
255
256
257
258
259
26
260
261
262
263
264
265
266
267
268
269
27
270
271
272
273
274
275
276
277
278
279
28
280
281
282
283
284
285
286
287
288
289
29
290
291
292
293
294
295
296
297
298
299
3
30
300
3000
301
302
303
304
305
306
307
308
309
31
310
311
312
313
314
315
316
317
318
319
32
320
321
322
323
324
325
326
327
328
329
33
330
331
332
333
334
335
336
337
338
339
34
340
341
342
343
345
346
347
349
35
350
351
352
353
354
355
356
357
359
36
360
361
363
365
367
37
370
371
372
373
375
376
377
38
380
381
383
384
385
386
387
39
390
393
394
395
397
399
4
40
400
4000
401
403
404
405
406
408
41
410
412
413
415
416
42
420
425
43
430
44
440
45
450
455
46
460
47
470
48
480
49
490
5
50
500
5000
501
51
510
52
520
521
53
530
54
540
55
550
56
560
57
570
58
580
59
6
60
600
61
610
62
620
63
630
64
640
65
650
66
67
68
69
7
70
700
71
72
720
73
737
74
747
75
750
76
767
77
777
78
79
8
80
800
802
81
82
83
84
85
850
86
87
88
89
9
90
900
91
92
93
94
95
950
96
97
978
98
99
:
;
<
=
>
?
@
\
^
_
`
a
aa
aaron
ab
abbrev
abc
abdul
abdullah
abe
about
above
abraham
abu
ac
acacia
academic
academy
access
accessed
ace
acid
acoustic
act
action
ad
ada
adam
adams
add
adidas
adobe
adolf
adult
advanced
adventure
ae
af
afc
affairs
afghanistan
africa
african
after
ag
again
against
age
agency
agrilus
agrypnus
aguilera
ah
ahmad
ahmed
ahn
ai
aids
ain
air
airbus
aircraft
aires
airlines
airport
airways
aisne
ajax
ak
akb
akira
al
alabama
alain
alan
alaska
alba
albania
albert
alberta
alberto
albion
album
albums
aleksandr
alex
alexander
alexandra
alexandre
alexandria
alexandros
aleyrodidae
aleyrodinae
alfred
alge
algeria
ali
aliases
alice
align
alignbars
all
allen
alliance
alpes
alpha
also
alt
alternative
alto
am
amaryllidaceae
amazon
ame
america
american
ames
amin
amino
among
amphoe
amsterdam
amy
an
ana
analysis
ancient
and
anderson
andes
andorra
andre
andrea
andreas
andrei
andrena
andrenidae
andrew
andrews
android
andy
ang
angel
angela
angeles
angkor
anglo
angola
anh
animal
animation
anime
anlıurfa
ann
anna
anne
annotated
annual
another
ans
anthicidae
anthony
anti
antoine
anton
antonio
any
ao
ap
apg
aphia
api
apidae
apollo
apple
april
aquitaine
ar
ara
arab
arabic
araceae
aragon
araneidae
araneus
arc
arcade
archive
archived
archives
arctiinae
ardennes
are
area
arecaceae
arena
arg
argentina
args
aristotle
arizona
arkansas
arm
armenia
arms
armstrong
army
arnold
around
arrow
arsenal
art
arthur
article
articles
artist
arts
as
asean
ashley
asia
asian
asilidae
aspidium
aspleniaceae
asplenium
aspx
assam
associated
association
assyria
asteraceae
aston
astragalus
at
athena
athens
athletic
athyrium
atlanta
atlantic
atlantiques
atlas
atle
atp
attack
au
aube
auckland
audio
august
augusta
augustus
austin
australasia
australia
australian
australis
author
authority
auto
auvergne
aux
av
available
avengers
aviation
award
awards
away
axit
az
azerbaijan
b
ba
baby
babylon
bach
back
background
backgroundcolors
bad
baden
bae
bafta
bahamas
bahia
bahrain
bai
bailey
baker
bali
balkan
ball
ballad
baltic
baltimore
baly
ban
band
bang
bangalore
bangkok
bangladesh
bank
banks
bao
bar
barangay
barbados
barbara
barcelona
bardata
barnes
baroque
barra
barry
bas
base
based
basel
basic
bass
batman
battle
bavaria
bay
bayern
bb
bbc
bc
bd
be
beach
bean
beast
beat
beatles
beautiful
beauty
bec
because
beck
becker
bee
been
before
begin
beginning
begonia
bei
beijing
being
belarus
belgaum
belize
bell
bella
belle
below
ben
benfica
bengal
benjamin
bennett
benth
beograd
berg
berkeley
berlin
bermuda
bern
bernard
berry
best
beta
between
beyonce
beyond
bf
bhutan
bi
bia
bicolor
biden
bie
big
bill
billboard
billy
bin
binh
biography
biologie
biology
bird
birds
birmingham
birth
bis
bishop
bismarck
bit
black
blackburn
blake
blanco
blank
block
blog
blood
blu
blue
blues
blume
bmatrix
bo
board
boat
bob
bobby
body
boeing
bohemia
boiss
bolivia
bologna
bolshevik
bolton
bom
bon
bonaparte
bond
bong
book
books
boong
border
boris
born
borneo
borough
borussia
bosna
bosnia
boston
bot
both
botswana
bottom
bourbon
bourgogne
box
boy
boyko
boys
br
brad
bradford
bradley
brandenburg
brasil
bratislava
brazil
break
bretagne
brian
bridge
brisbane
bristol
britain
britannica
british
britton
broadway
bromeliaceae
brooklyn
bros
broth
brothers
brown
browser
bruce
bruchidae
brunei
bruno
brussels
bryaceae
bryan
bryum
bs
bt
bts
bu
budapest
buenos
buffalo
building
bulbophyllum
bulgaria
bull
bulletin
bundesliga
buo
bureau
burkina
burundi
bus
busan
bush
business
but
butler
butterflies
buy
bwv
by
byzantine
c
ca
cacbon
cactaceae
caesar
cafe
cai
cairo
calais
calci
calcio
cale
caliber
california
call
called
calvados
calvin
cam
cambodia
cambridge
camera
cameron
cameroon
camp
campaign
campania
campbell
campuchia
can
canada
canadian
cande
cang
canh
cannes
canon
cantharidae
canvas
cao
cap
cape
capital
capitale
capitol
captain
caption
carbon
card
cardiophorus
carex
carey
caribbean
caribe
carl
carlo
carlos
carmen
carol
carolina
caroline
carter
carthage
casablanca
case
cases
castile
casting
castle
castro
cat
catalina
catalog
catalogue
catalunya
category
catherine
catholic
catocala
cau
cay
cbs
cc
ccd
cd
cdot
ce
cell
celtic
census
centaurea
center
central
centre
century
ceo
cerambycidae
cf
cfg
ch
cha
chad
chai
challenge
cham
chamberlin
champion
champions
championship
chan
chang
change
chanh
channel
chao
chaplin
chapter
character
charente
charles
charleston
charlie
charlotte
chart
chase
chay
chdcnd
che
check
checklist
chelsea
chemical
chemistry
chen
cher
chernykh
chess
chester
chi
chia
chiang
chiba
chicago
chie
chikmagalur
child
children
chile
chim
china
chinese
ching
chinh
chip
chloride
cho
choa
choi
choice
chr
chris
christ
christian
christina
christine
christmas
christopher
chronicle
chrysomelidae
chrysopidae
chu
chua
chui
chun
chung
chuo
church
churchill
chuye
ci
cia
cinema
circle
cis
cite
city
civil
ck
cl
claire
clara
clark
clarke
class
classic
classical
classification
claude
clay
clb
cle
cleopatra
cleveland
climate
clinton
clip
close
cloud
club
clubiona
cm
cn
cnn
co
coast
cockerell
code
cohen
coi
col
cold
cole
coleophora
coleoptera
colin
collection
college
colletidae
collins
colombia
colombo
color
colorado
colors
columbia
columbus
com
combat
come
comic
comics
command
commission
committee
common
commune
community
company
complete
complex
computer
comte
comune
con
conan
concacaf
concert
concerto
conference
cong
congo
congress
conidae
connecticut
conservation
console
constantine
constantinopolis
contemporary
content
contest
control
conus
convert
cook
cooper
copa
copel
copenhagen
core
cornell
corona
coronavirus
corporation
corse
cos
cosmarium
costa
could
council
count
country
county
court
cover
covid
cox
cp
cpu
cr
craig
crambidae
crawford
create
creek
crete
cribb
cricket
crisis
croatia
cross
crown
crustaceans
cruz
cry
crystal
cs
css
ct
cu
cua
cuba
cultural
culture
cung
cuo
cup
current
curtis
cut
cyathea
cyrtandra
cyrus
d
da
dae
dai
daily
dakota
dallas
dalle
dame
dan
dance
dang
danh
daniel
danny
dans
danube
dao
dark
darkgrey
darwin
das
data
database
date
dateformat
dati
dave
david
davies
davis
dawn
day
days
db
dc
dd
de
dead
dean
death
debehogne
debut
dec
december
deep
default
defense
dei
del
delaware
delete
delhi
della
delle
delta
demo
democracy
democratic
den
dendrobium
denis
dennis
department
der
derby
des
described
description
descriptions
design
destiny
detroit
deutsche
development
devil
di
diamond
diana
dick
dicranaceae
dicranomyia
dictionary
did
die
diego
diesel
different
digital
din
dinh
dio
dioxide
diplazium
director
directory
discovery
disney
display
distribution
district
division
dixon
dj
djokovic
dna
do
doa
doanh
doc
doctor
does
dog
doi
dollar
domain
dominica
don
donald
dong
donie
doraemon
dortmund
dos
dose
dot
double
doubs
douglas
down
dr
dragon
drake
drama
dreadnought
dream
drive
dryopteridaceae
dryopteris
ds
dsc
dt
du
dua
dubai
dublin
due
duke
dung
duo
during
dutch
duy
duye
dvd
dx
dylan
dynamo
dynasty
dysdera
dz
e
ea
each
eagle
early
earth
east
eastern
ec
economic
economics
economy
ecuador
ed
eddie
edgar
edge
edinburgh
edit
edited
edithistory
edition
editor
edmund
edo
eds
edu
education
edward
edwards
edwin
effect
egypt
ehir
eilema
einstein
eisenhower
ek
el
elaphoglossum
elateridae
electric
electron
electronic
elegans
elena
elip
elizabeth
ellen
elmidae
else
elseif
elst
em
email
emily
emma
emmanuel
emmy
emperor
empire
empty
en
encyclopedia
encyclopædia
end
endomychidae
energy
engine
engineering
engl
england
english
eniwetok
enterprise
entertainment
entry
environment
environmental
enzym
enzyme
eo
ep
epidendrum
episode
er
era
erebidae
eric
erica
erich
erik
eritrea
ernest
ernst
error
es
esclusa
esky
espan
est
establishments
este
estonia
estrogen
et
etc
ethiopia
eu
eucalyptus
euge
eugen
eugene
eugenia
euler
eun
euphorbia
eupithecia
eure
euro
europa
europe
european
eurovision
euxoa
eva
evans
everton
evidence
evil
evolution
ex
example
exo
experience
explorer
express
extinct
eye
eyes
ez
f
fa
fabaceae
fabricius
face
facebook
factfinder
factor
factory
fair
fairy
falcon
fall
false
fame
familia
families
family
fan
fantasy
far
fashion
faso
fauna
fbi
fc
fda
fe
february
federal
federation
federer
feet
felipe
felix
female
ferdinand
ferguson
fernando
festival
ff
ffffff
fi
ficus
field
fields
fifa
fight
fighter
fighters
fighting
fiji
file
files
film
films
final
financial
find
finder
fire
first
fischer
fish
fisher
fishes
fissidens
five
fk
fl
flag
flash
fletcher
fleutiaux
flight
flora
florence
florida
flow
flower
floyd
fly
flying
fm
fo
following
font
fontsize
food
foot
football
for
forbes
force
forces
ford
foreign
forest
forever
form
format
forster
fort
forum
foster
found
foundation
four
fox
fr
frac
frame
franc
france
francesco
franche
francis
francisco
franco
frank
frankfurt
franklin
franz
fraser
fre
fred
frederick
free
freedom
french
freshwater
friedrich
friends
friese
frigate
fritz
from
front
frullania
ft
fu
fuji
fujiwara
fukuoka
full
function
funet
fury
future
g
ga
gabon
gabriel
gaga
gai
gal
gala
galaxy
galicia
galileo
galium
gallery
gam
gambia
game
games
gamma
gan
gandhi
gang
gaon
garci
garcia
garden
gardner
garonne
gary
gas
gate
gay
gb
gdan
gdp
ge
gebaseerd
gehrels
gen
gene
genera
general
generation
geneva
genus
geoffrey
geographic
geometridae
georg
george
georges
georgia
ger
gerais
germain
german
germany
gertsch
geschichte
get
ghana
ghe
ghen
ghi
ghost
gi
gia
giai
giam
gian
giang
giant
giao
gibraltar
gie
gieo
gif
gil
gilbert
gio
gioan
giovanni
girl
girls
giu
giun
giuse
giuseppe
given
glasgow
glass
glenn
global
gmina
gmt
go
god
gold
golden
golf
gom
gonza
good
google
gorbachev
gordon
got
gothic
gov
government
gp
gr
grace
gracilis
gracillariidae
graham
gram
grammy
grand
grande
grant
gray
gre
great
greatest
greek
green
greene
greenland
greg
gregory
grey
gridcolor
griseb
groeneveld
ground
group
grove
gruzia
gs
gsub
gu
guadalcanal
guam
guardian
guatemala
guez
guide
guinea
guinness
guitar
gulbarga
gun
guo
gustav
guy
guyana
h
ha
habenaria
habsburg
had
hae
hai
haiti
hal
half
halictidae
hall
ham
hamburg
hamilton
hampshire
hampson
han
hand
handbook
hang
hangul
hanh
hannah
hannibal
hannover
hans
hao
happy
hard
hardy
harold
harper
harris
harrison
harry
hart
harvard
harvey
has
hassan
hat
haut
haute
hautes
hauts
have
haven
hawaii
hawk
hay
hcm
hd
he
head
header
health
heart
heaven
heavy
hebrew
hee
heidelberg
height
heinrich
heinz
helen
helena
hell
hello
help
helsinki
hemiptera
hen
henderson
henri
henry
heo
her
herbert
hercegovina
here
heritage
hermann
hero
heroes
het
hi
hie
hieracium
high
highway
hill
hills
him
himalaya
hindu
hinh
hip
hiroshi
hiroshima
his
histoire
historia
historical
history
hit
hitler
hits
hiv
hlv
hms
ho
hoa
hoan
hoang
hoi
hokkaido
holland
hollywood
holmes
holocaust
holstein
holt
holy
home
homo
honda
honduras
hong
honshu
hood
hook
hoon
hop
hope
hopkins
hormone
horn
horse
host
hot
hotel
hotspur
house
houston
houten
how
howard
hp
hpa
hq
htm
html
http
https
htv
hu
hua
hudson
hue
hugh
hughes
hugo
hui
hull
human
hun
hung
hungary
hunt
hunter
huo
huy
huye
huynh
hwa
hwang
hy
hydro
hydropsychidae
hye
hylaeus
hymenophyllaceae
hymenoptera
hyo
hypnaceae
hypnum
hyuk
hyun
hyundai
hđbt
hđnd
i
ia
ian
iberia
ibm
ibn
ibrahim
ic
ice
iceland
ichneumon
ichneumonidae
icon
id
idaho
idol
if
ign
igor
ii
iii
il
ille
illinois
illustrated
im
image
images
imagesize
img
impact
imperial
in
ina
inc
inca
inch
incheon
include
including
increment
independent
index
india
indian
indiana
indomalaya
indonesia
ine
info
infobox
informatie
information
infty
insecta
insects
insee
insert
inside
instagram
institut
institute
int
intel
inter
interactive
international
internet
interview
into
introduction
inwonertallen
io
ion
ios
iowa
ip
ipad
iphone
iran
iraq
ireland
iris
iron
is
isaac
isbn
ise
islam
island
islands
iso
isopod
israel
issn
issue
istanbul
istat
it
italia
italian
italy
item
itis
ito
its
itunes
iucn
iv
ivan
iwo
ix
j
ja
jack
jackson
jacob
jacoby
jacques
jae
jaeger
jakarta
jake
jam
jamaica
james
jamie
jan
jane
janeiro
janet
jang
january
japan
japanese
jason
java
jay
jazz
je
jean
jeanne
jeff
jefferson
jeffrey
jennifer
jeong
jeremy
jerry
jersey
jerusalem
jessica
jesus
jet
jewish
ji
jim
jima
jimmy
jin
jma
jo
joa
joachim
joan
joe
joel
johann
johannes
johannesburg
john
johnny
johns
johnson
johnston
jon
jonathan
jones
jong
joo
joon
jordan
jorge
jose
josef
joseph
josh
joshua
journal
journey
joy
joyce
jp
jpeg
jpg
jpl
jr
jtwc
ju
juan
jules
julia
julian
julie
julius
july
jump
jun
june
jung
juni
junior
jura
just
justice
justify
justin
juventus
jyp
k
ka
kai
kaiser
kali
kamen
kamikaze
kan
kane
kaneda
kang
kannada
kansas
kara
karate
karen
karl
karnataka
kashmir
kate
kavkaz
kazakhstan
kbs
ke
keith
kelly
kem
ken
kennedy
kenneth
kent
kentucky
kenya
keo
kepler
kevin
key
keyboard
keyserling
kg
kh
kha
khai
kham
khan
khang
khanh
khao
kharkov
khe
khen
khi
khie
khinh
khmer
kho
khoa
khoai
khoan
khoang
khoe
khu
khua
khue
khung
khuo
khuy
khuye
khuynh
ki
kia
kid
kids
kie
kiev
kikaku
kill
kilo
kim
king
kingdom
kings
kinh
kiss
kit
kito
km
kn
knight
know
known
ko
kobayashi
kobe
koch
kolar
kon
kong
korea
korean
kos
kosovo
kova
kra
krako
kro
krym
ku
kuala
kunth
kuntze
kursk
kurt
kuwait
kv
kw
kwon
ky
kyo
kyoto
kyrgyzstan
kyu
kyung
l
la
label
laden
lady
lai
lake
lam
lambda
lan
lancaster
land
lane
lang
language
languages
lanh
lanka
lao
large
larry
las
laser
lasioglossum
last
lat
late
later
latin
latinh
latvia
lau
laura
laurent
law
lawrence
lay
lb
le
lead
leader
league
leave
leconte
led
lee
leeds
left
legend
leicester
leipzig
leita
lejeuneaceae
len
length
lenin
leningrad
lennon
leo
leon
leonard
leonardo
leone
leopold
lepidoptera
leptoceridae
les
leslie
let
letter
letters
level
levi
lewis
leyte
lez
lg
lgbt
li
lia
liban
liberia
liberty
library
libya
lie
life
liga
light
lightgrey
ligue
like
lil
lily
lim
lima
limited
limoniidae
lin
lincoln
linda
lindl
line
linear
lines
linh
link
linkin
links
linnaeus
linux
linyphiidae
lion
lisa
list
lista
literature
little
litva
liu
live
liverpool
lives
liveshow
living
lk
ll
ller
lloyd
ln
lo
loa
loan
local
location
lockheed
loe
log
logic
logo
loir
loire
lombardia
lon
london
long
look
lopez
lord
lorenzo
lorraine
los
lost
lot
louis
louise
louisiana
love
low
lower
lp
ltd
lu
lua
lucas
lucia
lucy
ludwig
luer
luftwaffe
lui
luis
luke
lumpur
luna
lung
luo
luther
luxembourg
luy
luye
luzon
ly
lycosidae
lynch
lyon
m
ma
mac
macdonald
macedonia
mach
machine
macmillan
madagascar
made
madison
madonna
madrid
mae
mafia
magazine
magic
magnolia
maha
maharashtra
mai
mail
main
maine
major
make
making
malawi
malaya
malaysia
maldives
male
mali
malta
man
management
manche
manchester
mandya
mang
manga
manh
manhattan
manila
manisa
manstein
manual
manuel
many
mao
map
maps
mar
marathon
marc
marcel
march
marco
marcus
mare
margaret
mari
maria
mariana
marie
marina
marine
marinespecies
marino
mario
maritime
mark
market
marketing
marne
maroc
mars
marseille
marshall
mart
marti
martin
maru
marvel
marx
mary
maryland
mason
mass
massachusetts
master
masters
match
math
mathbb
mathbf
mathrm
matt
matthew
mau
maurice
mauritius
max
maxim
maximilian
maxwell
may
maya
mb
mbc
mc
mccartney
mcdonald
md
me
mecklenburg
med
media
medical
medicine
medieval
medvedev
mega
megachile
megachilidae
melanotus
melbourne
mello
meloidae
memorial
memory
men
mer
mercedes
mercury
merr
mesa
message
messi
metacritic
metal
metro
metropolitan
meuse
mexico
meyer
meyrick
mez
mg
mhnt
mhz
mi
mia
miami
michael
michel
michelle
michigan
micro
microsoft
mid
middle
midway
mie
mig
miguel
mike
mikhail
mil
milan
milano
miles
military
mill
miller
million
min
minas
mind
mine
minh
mini
ministry
minnesota
minor
minsk
miq
mirage
miranda
miss
mission
mississippi
missouri
mit
mitchell
mitsubishi
mitt
mix
mk
ml
mm
mn
mnet
mo
mobile
mod
mode
model
modern
module
mohamed
mohammed
mol
moldova
molecular
molophilus
moltke
mon
monaco
money
mong
monitoring
monolepta
monroe
monster
mont
montana
monte
montenegro
montgomery
month
montreal
mook
moon
moore
mordellidae
mordellistena
more
morgan
mori
morning
morris
morrison
moscow
moselle
moskva
most
mother
moths
motor
motors
mount
mountain
moved
movement
movie
mozambique
mozart
mp
mph
mr
ms
mt
mtv
mu
mua
mueang
muell
muhammad
multiple
mumbai
mun
munich
muo
muricidae
murphy
murray
mus
muse
museum
music
musical
must
muzeum
mv
mw
my
myanma
myanmar
myrmeleontidae
mysore
n
na
nacional
nad
nadal
nadu
nagar
nagasaki
nagoya
nai
nakajima
nakhon
nam
name
names
namibia
namo
nan
nana
nancy
nang
nanh
nano
naples
napole
napoleon
napoli
naruto
nasa
nassau
nathan
nation
national
nations
nato
natri
natural
nature
nava
naval
navy
nay
nba
nbc
nchen
nct
nd
ndez
ne
near
nearctic
nebraska
need
nees
neil
nelson
nen
neo
neotropic
nepal
nero
nes
net
netflix
network
neuroptera
neuropterida
neutron
nevada
never
new
newcastle
newfoundland
newman
newport
news
newton
next
nez
ng
nga
ngai
ngang
ngao
ngay
ngc
nghe
nghi
nghie
ngo
ngoa
ngoan
ngon
ngu
nguo
nguy
nguye
nguyen
nh
nha
nhai
nham
nhan
nhanh
nhau
nhe
nhi
nhie
nho
nhu
nhua
nhue
nhung
nhuo
nhuye
ni
nia
nicaragua
nice
nicholas
nick
nico
nicolas
nicole
nie
nielsen
niger
nigeria
night
nike
nikolai
nil
nile
nin
nine
ninh
ninja
nintendo
nippon
nito
nitrat
nixon
nl
nm
no
noa
nobel
nobunaga
noctuidae
noel
noi
nokia
nom
non
none
nong
nord
norfolk
norman
normandie
normandy
norte
north
northern
norton
norwich
not
note
notes
nouvelle
nov
nova
novel
november
novgorod
now
nq
nr
ns
nsnd
nsu
nt
nther
nu
nuclear
num
number
numbers
nung
nuo
nxb
ny
nđ
o
oa
oai
oan
oanh
oaxaca
obama
oblast
observations
observatory
occitanie
ocean
october
oda
of
off
office
official
oh
ohio
oil
ois
oise
ok
okinawa
oklahoma
old
oliver
olivier
olympia
olympic
oman
omar
omega
on
one
ong
online
only
ono
ontario
onthophagus
op
open
opera
optional
options
or
orange
orchestra
orchid
orchidacearum
order
oregon
org
organ
organization
oricon
oriental
orientation
origin
original
origins
orlando
orleans
os
osaka
oscar
oslo
ost
other
otto
ottoman
ou
our
out
output
ov
ova
over
owen
own
oxford
oxide
oxy
oxyopes
oz
p
pa
pablo
pacific
page
pages
pakistan
palace
palau
palearctic
palermo
palestine
palomar
pan
panama
panther
panzer
paolo
paper
papers
papua
par
para
paraguay
parameter
parameters
pardosa
parent
paris
park
parker
part
parthia
partial
party
pas
pascal
pasha
past
pat
patrick
pattern
paul
paulo
pavel
pays
pc
pdf
pe
peace
peak
pearl
peckham
pedro
pen
penguin
pennsylvania
people
peperomia
per
percent
perfect
performance
period
perry
peru
pete
peter
peterburg
peters
petersburg
pez
pfalz
pg
pgs
ph
pha
phan
phanh
phantom
phanxico
phao
phaolo
pharaon
phe
phi
phie
phil
philadelphia
philip
philipin
philippe
philippine
philippines
phillips
philosophy
phim
phnom
pho
phoenix
phone
phong
photo
photon
photos
php
phra
phu
phun
phylogeny
physics
pi
piano
pic
picture
pictures
piedmont
piemonte
pierre
pin
pink
piper
pitman
pixel
pl
pla
place
plan
planck
planet
plant
plants
plasma
plate
platia
platnick
play
player
playstation
plaza
plotarea
plotdata
plus
pm
pmid
png
po
poa
point
points
poke
pol
poland
police
policy
polish
political
politics
poly
polypodiaceae
polypodium
polystichum
pomerania
pomeranian
poore
pop
pope
popular
population
port
portal
porter
portland
porto
portrait
portsmouth
pos
position
post
potter
pottiaceae
pound
pour
powell
power
poznan
pp
ppen
pr
pradesh
prague
praha
pre
prefix
premier
present
presi
president
presl
press
price
pridgeon
prime
prince
princess
princeton
print
private
prix
prize
pro
proceedings
produce
production
productions
profile
program
project
protein
proton
provence
province
ps
psi
psychotria
pt
pteridaceae
pterolophia
ptolemaios
pu
publ
public
publications
published
publishers
publishing
puerto
punjab
punk
purple
putin
putnam
puy
px
pyotr
pyrausta
pyre
q
qaeda
qatar
qh
qlvnch
qu
qua
quan
quang
quanh
quay
que
quebec
queen
queens
queensland
quen
quercus
quest
qui
quid
quo
quy
quye
qđ
r
ra
race
rachel
radar
radio
raf
rafael
rai
rain
rainbow
raion
ralph
ram
rama
ramesses
ran
random
rang
range
rangers
ranh
rank
rao
rap
rapper
rasmussen
rating
rau
raven
ravenna
raw
ray
raymond
rchb
rd
re
read
reading
reagan
real
record
recording
records
red
reed
reference
refs
region
regional
register
reid
reinmuth
related
relations
release
religion
remix
ren
rene
report
republic
require
required
res
research
resources
result
results
ret
retrieved
return
returns
reuters
review
revised
revision
revolution
rex
rey
reynolds
rez
rgb
rhein
rheinland
rhin
rhine
rho
rhode
rhodes
rhyacophila
rhynchitidae
ri
ria
ric
rica
ricardo
rice
rich
richard
richardson
richmond
rick
rico
rider
ridl
rie
riga
right
rights
rihanna
rin
ring
rio
rise
river
rna
ro
road
rob
robert
roberto
roberts
robin
robinson
robot
rock
rocket
rocky
rodri
roger
rogers
roi
roland
role
roll
rolling
rom
roma
roman
romania
rome
ron
ronald
ronaldo
rong
room
roosevelt
root
rosa
rose
ross
rothschild
rotten
round
route
routledge
rovers
row
roy
royal
rs
rttemberg
ru
rudolf
ruiz
rule
run
rung
ruo
rural
russell
russia
russian
rwanda
ry
ryan
ryo
ryu
ryukyu
s
sa
sabah
sachsen
saga
sahara
sai
said
saigon
sailor
saint
sainte
saipan
sakura
salt
salticidae
salvador
salzburg
sam
same
samoa
samsun
samsung
samuel
samurai
san
sang
sanh
sankt
sant
santa
santiago
santo
santos
sao
sapporo
sar
sara
sarah
sarawak
sars
sato
satoshi
saturn
sau
saudi
savoie
saxon
say
sbs
sc
scale
scalemajor
scaleminor
scandinavia
scarabaeidae
schimmel
schleswig
schltr
schmidt
scho
school
schotte
schum
schwarz
science
sciences
scientific
scincidae
scopula
scotia
scotland
scott
scottish
script
sd
se
sea
sean
search
season
seattle
sebastian
second
secret
section
security
see
sega
seiji
seine
selected
seleukos
self
sematophyllaceae
sen
senecio
senior
sentai
seo
seok
seoul
september
serb
serbia
sergei
serie
series
server
service
services
servlet
set
seung
seven
sevilla
sex
seychelles
sfondo
shadow
shah
shakespeare
sharp
shaw
she
sheffield
sheikh
shell
sherman
shi
shield
shift
shimizu
shimoga
shin
ship
ships
sho
short
shortname
should
show
shown
shu
si
siberia
sicilia
sicily
side
siding
sie
sierra
sigma
sign
sihanouk
silesia
silla
silva
silver
sim
simon
simpson
sin
since
sing
singapore
singer
singh
single
singlerpt
singles
singole
sinh
sir
site
sivas
six
size
sk
ska
ski
sky
sl
slam
slav
slovakia
slovenia
sm
smackdown
small
smith
smolensk
snow
so
soa
soccer
social
society
socorro
sofia
software
soi
sol
solo
solomon
somalia
some
somme
son
sonar
song
songs
sono
sons
sony
soo
sophie
soul
sound
soundtrack
source
sources
south
southampton
southern
soviet
sp
space
spain
spanish
sparta
spears
special
species
speed
spencer
sphecidae
sphingidae
spider
spin
spirit
split
sport
sports
spring
springer
springs
sqrt
square
sr
sri
ss
st
stadium
stage
stalin
stalingrad
stan
standard
standl
stanford
stanisław
stanley
star
stark
starr
stars
start
state
states
station
statistics
status
ste
steel
stefan
stephani
stephen
sterreich
steve
steven
stevens
stewart
steyerm
still
stockholm
stone
stop
store
stories
storm
story
str
strand
street
string
structure
stuart
studies
studio
studios
study
stuttgart
style
su
sua
sub
subfamilia
subic
subsp
such
sud
sudan
suez
suggested
suk
sul
sullivan
sultan
sum
sumatra
sumer
summary
summer
sun
sunday
sunderland
sung
suo
super
support
sur
survey
susan
suy
suzuki
sv
svg
sw
sweet
swift
switch
sword
sy
sydney
syllable
symbol
symphony
synopsis
syria
system
systems
szczecin
sđd
t
ta
tab
tabelle
table
tachinidae
tae
tag
tai
tail
taiti
taiwan
tajikistan
takahashi
take
takeshi
tales
taliban
talk
tam
tambon
tamil
tan
tanaka
tang
tank
tanzania
tao
target
tarn
tasmania
tau
taxdetails
taxi
taxon
taxonomic
taxonomy
tay
taylor
tb
tc
tcn
td
te
team
teams
teaser
teau
technology
ted
teen
tehran
tehsil
tel
telegraph
television
tell
tem
template
templates
temple
ten
tennessee
tennis
terrestrial
terry
tes
test
tetragnatha
texas
text
textdata
th
tha
thai
thailand
tham
thames
than
thang
thanh
thao
that
thay
thcs
the
theatre
their
thelypteridaceae
thelypteris
them
then
theo
theodore
theory
there
theridiidae
theridion
these
theta
they
thi
thie
things
third
this
tho
thoa
thoi
thomas
thomisidae
thompson
thomson
thon
thorell
thpt
threatened
three
through
thu
thua
thue
thumb
thung
thuo
thuy
thuye
ti
tia
tico
tie
tien
tiger
till
tillandsia
tim
timberlake
time
timeaxis
times
timor
timothy
tin
tinh
tipula
tipulidae
titan
titanic
title
tnhh
to
toa
toan
tobago
today
todd
together
togo
tokugawa
tokyo
tom
tomatoes
tommy
tong
tonga
tonumber
tony
too
top
topic
torino
toronto
torres
tortricidae
total
tottenham
touch
tour
tournament
tower
town
toyota
tp
tr
tra
track
trade
trai
trailer
trang
tranh
trans
translated
translation
transport
trao
travel
tre
tree
treo
trg
tri
tribus
trichoptera
trick
trie
trinh
trinidad
triple
tro
trong
trophy
tropical
tru
trua
true
trump
trung
trust
truy
truye
ts
tt
ttg
tu
tua
tue
tum
tumkur
tung
tunisia
tuo
turbine
turbo
turkmenistan
turner
tuy
tuye
tv
tvb
tvqh
tw
twitter
two
ty
tyler
type
tz
u
ua
uae
ubnd
ubtvqh
ue
ueda
uefa
ufc
ufo
uganda
uit
uk
ukraina
ukraine
ulithi
ultimate
ultra
um
un
und
under
une
unesco
ung
union
unit
united
univ
universal
universe
university
unix
unresolved
uo
up
update
upper
upright
urani
urb
urban
url
uruguay
us
usa
usb
usd
use
used
user
using
uss
ustring
ut
utah
utc
uttar
uy
uye
uzbekistan
v
va
vai
val
valencia
valle
valley
value
values
van
vancouver
vang
var
variety
vatican
vay
ve
vec
vecto
vector
vegas
ven
veneto
venezia
venezuela
venice
venus
verde
verlag
versailles
version
vertical
very
vi
via
victor
victoria
victory
video
vie
vienna
vienne
viet
vietnam
vietnamese
vietnamnet
view
viewed
vii
viii
viking
viktor
vila
villa
village
ville
vincent
vinden
vinh
violin
virgin
virginia
virtual
virus
vision
vista
visual
vitamin
vladimir
vn
vnexpress
vo
vocidalla
voi
voice
voivodeship
vol
volga
volume
von
vong
vorpommern
vs
vtc
vtv
vu
vua
vui
vuo
vy
w
wa
wagner
wake
wales
walker
wall
wallace
walt
walter
wan
wanderers
wang
want
war
ward
warfare
warner
warren
warriors
wars
warsaw
warszawa
was
washington
wat
watanabe
watch
water
watson
wave
way
wayne
we
web
weber
website
week
weekly
wei
weise
well
wells
were
werner
west
western
westminster
what
when
where
which
while
white
whiteflies
whitney
who
why
wide
width
wii
wiki
wikidata
wikipedia
wikitext
wild
wiley
wilhelm
will
willd
william
williams
willis
wilson
wimbledon
win
wind
windows
wing
wings
winston
winter
wisconsin
with
within
without
wo
wolf
wolfgang
woman
women
won
wonder
wong
woo
wood
word
work
works
world
would
wrestling
wright
wta
wu
wwe
www
x
xa
xanh
xay
xbox
xe
xem
xen
xi
xico
xie
xii
xiii
xin
xinglong
xinh
xiv
xix
xo
xoa
xoay
xong
xp
xs
xu
xua
xung
xuo
xuye
xv
xvi
xvii
xviii
xx
xysticus
y
ya
yahoo
yak
yale
yamato
yang
ye
year
years
yellow
yemen
yeon
yes
yg
yi
yo
yokohama
yokosuka
yong
yoo
yoon
york
yorkshire
you
young
your
youth
youtube
yu
yuri
z
za
zambia
ze
zealand
zero
zeus
zh
zhang
zhu
zhukov
zimbabwe
zing
zone
zootaxa
zu
zur
{
|
}
~
£
¥
§
©
«
­
®
°
±
²
³
´
µ
·
º
»
½
×
÷
đ
đa
đai
đam
đan
đang
đao
đau
đe
đem
đen
đeo
đh
đi
đie
đinh
đo
đoa
đoan
đt
đu
đua
đun
đuo
ı
ł
ʹ
ʻ
ʼ
ʿ
ˈ
ː
̀
́
̂
̃
̄
̆
̇
̈
̉
̊
̋
̌
̓
̔
̛
̣
̦
̧
̨
͂
α
β
γ
δ
ε
η
θ
λ
μ
ν
ο
π
ρ
ς
σ
τ
φ
ω
а
б
в
воениздат
г
д
е
и
к
л
м
н
на
о
п
с
т
у
ф
я
ָ
ּ
ا
َ
ٔ
त
न
र
ा
ि
्
া
்
ก
ง
น
บ
ม
ย
ร
ว
ส
อ
ั
า
ิ
ี
ื
ุ
ู
็
่
้
์
་
း
်
ា
្
​
‎
‐
‑
–
—
―
‘
’
“
”
„
†
‡
•
…
‧
′
″
€
℃
№
←
↑
→
↔
↷
−
∞
≈
≡
≤
≥
③
④
⑦
─
━
□
△
○
●
☆
♀
♂
♠
♭
⺀
⺄
⺆
⺈
⺊
⺌
⺕
⺝
⺸
⺼
⿰
⿱
⿲
⿳
⿴
⿵
⿶
⿷
⿸
⿹
⿺
⿻
、
。
〈
〉
《
》
「
」
『
』
【
】
〜
〢
あ
い
う
え
お
か
き
く
け
こ
さ
し
す
せ
そ
た
ち
っ
つ
て
と
な
に
ね
の
は
ひ
ふ
へ
ほ
ま
み
む
め
も
ゃ
や
ゅ
ゆ
ょ
よ
ら
り
る
れ
ろ
わ
を
ん
゙
゚
ァ
ア
ィ
イ
ウ
ェ
エ
ォ
オ
カ
キ
ク
ケ
コ
サ
シ
ス
セ
ソ
タ
チ
ッ
ツ
テ
ト
ナ
ニ
ネ
ノ
ハ
ヒ
フ
ヘ
ホ
マ
ミ
ム
メ
モ
ャ
ヤ
ュ
ユ
ョ
ラ
リ
ル
レ
ロ
ワ
ン
・
ー
㇁
㇂
㇄
㇇
㇈
㇉
㇓
㐁
㐄
㐅
㐌
㐫
㐬
㐭
㐮
㐱
㑒
㒵
㒸
㒼
㓁
㓞
㔾
㕛
㕣
㖾
㘝
㚅
㚇
㚔
㚘
㝉
㝡
㝴
㝵
㞋
㞢
㞷
㠩
㠭
㠯
㡀
㡭
㡿
㢲
㢴
㣇
㣺
㥯
㪅
㫄
㫐
㫒
㫺
㬅
㬎
㬥
㬰
㲋
㳄
㷠
㸒
㸚
㸦
㼌
㼲
㽞
㿟
䀠
䂞
䍃
䏍
䒑
䖍
䖒
䖝
䖵
䙴
䚻
䜌
䝿
䡛
䧹
䪞
一
丁
丂
七
丄
丅
丆
万
丈
三
上
下
丌
不
与
丏
丐
丑
专
且
丕
世
丘
丙
业
东
丞
丢
丣
两
严
並
丨
丩
个
丫
丬
中
丮
丰
丱
串
临
丵
丶
丷
丸
丹
为
主
丽
举
丿
乀
乂
乃
久
乆
乇
么
义
之
乌
乍
乎
乏
乐
乑
乔
乖
乗
乘
乙
乚
乛
乜
九
乞
也
习
乡
书
乳
乾
亀
亅
了
亇
予
争
事
二
亍
于
亏
亐
云
互
亓
五
井
亘
亚
亜
亞
亟
亠
亡
亢
交
亥
亦
产
亨
亩
享
京
亭
亮
亯
亰
亲
亳
亶
亷
人
亻
亼
亾
什
仁
今
介
仌
仍
从
仐
仑
仒
仓
仕
他
付
仙
仝
代
令
以
仪
仰
仲
任
企
伊
伏
伐
休
众
会
传
伦
伯
但
位
住
佐
体
何
佘
余
佛
作
你
佥
佳
使
來
侈
例
侌
侍
侖
依
侯
侵
便
俊
保
俞
信
修
俱
倉
倍
候
倠
倫
傅
備
傳
僉
僕
僧
儀
優
儿
兀
允
兂
元
兄
充
兆
兇
先
光
兊
克
兌
免
兑
兒
兓
兔
党
兜
兟
入
內
全
兩
兪
八
公
六
兮
兰
共
关
兴
兵
其
具
典
兹
养
兼
冀
冂
冃
冄
内
冈
冉
冊
冋
册
再
冎
冏
冐
冒
冓
冖
冗
冘
军
农
冝
冠
冡
冥
冫
冬
冷
几
凡
凢
凤
凵
凶
凷
凸
凹
出
击
函
凾
刀
刁
刂
刃
刄
刅
分
切
刍
刑
刕
刖
列
刘
则
初
別
利
别
到
制
刺
則
削
剌
前
剡
副
剽
劉
力
功
加
务
劦
动
助
劫
劳
劵
勃
勇
勉
勒
動
務
勝
勞
勤
勹
勺
勻
勾
勿
匀
匂
包
匆
匈
匊
匋
匍
匕
化
北
匚
匝
匡
匪
匱
匸
匹
区
医
匽
匿
區
十
卂
千
卄
卅
卆
升
午
卉
半
卌
华
协
卑
卒
卓
单
卖
南
博
卜
卝
卞
占
卡
卢
卣
卤
卦
卩
卪
卫
卬
卯
印
危
即
却
卵
卷
卸
卻
卿
厂
厃
厄
历
厈
厉
厌
厓
厘
厚
原
厤
厥
厨
厭
厲
厶
厷
厸
去
厼
厽
县
叀
参
參
叅
又
叉
及
友
双
反
叐
发
叒
叔
叕
取
受
叚
叜
叟
口
古
句
另
叩
只
召
可
台
叱
史
右
叵
叶
号
司
叹
吂
各
吅
合
吉
吊
吋
同
名
后
吏
向
吕
君
吝
吞
否
含
启
吳
吴
吹
吾
呂
呆
呈
告
员
呙
周
呼
命
咅
和
咎
咠
咢
咨
咸
咼
哀
品
哈
哉
員
哥
哲
唐
商
啇
問
啚
啬
啻
喀
善
喇
喜
喬
單
喿
嗇
嗣
嘉
器
噩
嚴
囊
囗
囘
囙
囚
四
回
囟
因
团
囧
囬
园
困
囱
囷
固
国
图
圂
圅
國
圍
園
圓
圖
土
圡
圣
圥
在
圭
地
圶
场
圼
坂
均
坐
坒
坚
坤
坴
垂
型
垔
垚
埀
埋
城
埶
執
基
堂
堅
堆
堇
堯
報
場
塔
塞
增
墨
壘
士
壬
壯
声
壳
壴
壹
壺
壽
夂
处
夅
夆
备
夊
夋
夌
复
夏
夒
夕
外
夗
夘
多
夜
夢
大
夨
天
太
夫
夬
夭
央
失
夲
头
夷
夸
夹
夻
夾
奂
奄
奇
奈
奉
奎
奏
奐
契
奓
奔
奕
奚
奞
奠
奢
奥
奭
女
奴
奻
好
如
妃
妄
妇
妙
妟
妤
妥
妻
妾
始
姑
姓
委
姜
姬
威
娄
娘
婁
婉
婕
婦
婴
媛
嫔
嬪
嬰
嬴
子
孑
孔
孕
孖
字
存
孙
孚
孛
孝
孟
季
孤
学
孫
孱
學
宀
宁
宂
它
宅
宇
守
安
宋
完
宏
宓
宗
官
定
宛
宜
宝
实
宠
客
宣
室
宪
宫
宮
宰
害
家
容
宾
宿
寄
寅
密
富
寒
察
實
寧
審
寫
寬
寮
寶
寸
对
寺
寻
寽
対
寿
封
尃
射
将
將
專
尉
尊
尋
尌
對
小
少
尒
尓
尔
尖
尗
尚
尞
尢
尣
尤
尧
尨
尭
就
尸
尹
尺
尻
尼
尽
尾
尿
局
居
屈
屋
屎
屏
屑
展
屖
屚
属
屠
屡
屬
屮
屯
屰
山
屵
屾
岁
岂
岑
岡
岩
岭
岳
岸
峯
峰
島
崇
崑
崔
崖
崙
崩
嵬
嶲
巂
巛
川
州
巟
巠
巢
巤
工
左
巧
巨
巩
巫
差
己
已
巳
巴
巷
巸
巽
巾
巿
帀
市
布
师
希
帚
帛
帝
带
師
席
帶
常
干
平
年
幵
并
幷
幸
幺
幻
幼
幽
幾
广
広
庄
庆
床
应
底
店
庙
庚
府
废
度
座
庫
庭
庶
康
庸
廉
廌
廛
廟
廣
廩
廴
延
廷
建
廾
廿
开
弁
弃
弄
弇
弋
式
弓
弔
引
弗
弘
弜
弟
张
弥
弦
弱
張
強
强
彊
彌
彎
彐
彑
归
当
彔
录
彖
彗
彝
彡
形
彥
彦
彧
彩
彭
彰
影
彳
役
彼
往
征
待
律
後
徐
徒
得
徙
從
御
復
微
徵
德
徽
心
忄
必
忌
忍
志
忝
忠
忩
快
念
忽
忿
怀
怒
思
怠
急
性
怱
总
恆
恋
恐
恒
恩
恪
恭
息
悉
患
悤
悲
悶
悼
情
惟
惠
惡
惢
想
愁
愈
意
愛
感
慈
慎
慕
慧
慮
慶
憂
憲
應
懷
懿
戀
戈
戉
戊
戋
戌
戍
戎
成
我
戒
戔
或
战
戚
戠
戢
戦
截
戰
戲
戴
戶
户
戹
戼
戾
房
所
扁
扇
手
扌
才
扎
打
托
执
扬
承
技
折
抚
报
拉
拔
拜
拳
拿
持
指
授
掌
推
提
揚
摩
播
支
攴
攵
收
攸
改
攻
放
政
敄
故
敏
敕
敖
敗
教
敝
敞
敢
散
敦
敫
敬
数
敷
數
斂
文
斉
斊
斗
料
斤
斥
斩
斬
斯
新
方
於
施
斿
旁
旋
族
旗
无
旡
既
旣
日
旦
旧
旨
早
旬
旱
旲
时
旾
昆
昇
昌
昍
明
昏
易
昔
昗
昜
星
春
昬
昭
是
昱
昴
昷
显
時
晃
晉
晋
晏
普
景
晶
智
暑
暴
曇
曩
曰
曲
曳
更
曷
書
曹
曼
曾
替
最
朁
會
月
有
朋
服
朔
朕
朗
望
朝
期
木
朩
未
末
本
札
朮
术
朱
朵
朶
机
朿
杀
李
杏
村
杜
束
条
来
杨
東
杲
杳
松
极
析
林
枚
果
枝
枲
枼
某
柔
查
柬
柰
柳
柴
栗
校
根
格
桀
桂
案
桑
桓
桥
桼
梁
梅
條
梟
梨
棘
棠
棥
森
楊
楚
業
極
楽
榮
樂
樊
橋
機
權
欠
次
欣
欮
欲
欶
欽
款
歆
歇
歌
歛
止
正
此
步
武
歨
歪
歮
歯
歰
歲
歴
歷
歸
歹
歺
死
殳
段
殷
殸
殹
殺
殻
殿
毋
毌
母
每
毒
比
毕
毚
毛
毳
氏
氐
民
气
氣
水
氵
氶
氷
永
氺
氾
求
汉
汝
汞
江
池
沃
沈
沓
沙
沝
河
治
泉
法
波
泣
泥
注
泰
泽
洋
洛
洞
津
洪
洲
活
派
流
济
浦
浪
浮
海
淑
淡
淮
深
清
渚
渠
渡
温
港
游
湖
湯
源
溥
溪
溫
满
滿
演
漢
漸
潘
澤
濟
灣
火
灬
灭
灰
灵
灷
炅
炎
炏
炗
炙
炭
為
烈
烏
烝
焉
無
焦
焱
然
煞
照
熊
熏
熙
燕
營
燮
爪
爫
爭
爯
爰
爱
爲
爵
父
爻
爽
爾
爿
片
版
牙
牚
牛
牜
牟
牢
牧
物
牪
特
牽
犀
犬
犭
犮
狂
狄
狊
独
狺
猋
猒
猪
献
獻
玄
率
玉
王
玟
玨
珍
珎
珠
班
現
球
理
琴
瑜
瑞
瑟
瑩
瓜
瓦
甘
甚
生
産
用
甫
甬
田
由
甲
申
电
甶
男
甸
甹
画
甾
畀
界
畏
畐
留
畜
畟
畢
略
畧
畨
番
畫
異
畱
當
畺
畾
疊
疋
疌
疑
疒
疾
病
癶
癸
癹
登
發
白
百
皀
皃
的
皆
皇
皋
皐
皕
皮
皷
皿
盃
盆
盇
盈
益
盍
盎
监
盒
盖
盛
盡
監
盤
盧
目
直
相
盾
省
眇
眉
看
眔
眞
真
眷
眼
眾
着
睘
督
睪
睿
瞏
瞢
瞿
矍
矛
矞
矢
矣
知
矦
短
石
研
破
硕
碎
碩
磊
磨
示
礻
礼
社
祐
祖
祜
祝
神
祟
祥
票
祭
祿
禀
禁
禄
福
禧
禪
禮
禸
禹
禺
离
禽
禾
禿
秀
私
秃
秉
秋
科
秘
秝
秦
称
移
程
稟
稱
稿
穀
穆
穌
穴
究
穹
空
穿
突
窄
窒
立
竒
竜
竝
竟
章
童
端
竹
笑
笠
符
第
筆
等
答
策
简
箕
算
管
箴
節
篤
篭
簡
米
粉
粛
粟
粤
粦
粲
精
糞
糸
糹
系
紀
約
紅
納
純
素
索
紫
累
細
紹
終
結
絜
絫
統
絲
經
維
網
綿
編
縣
總
繇
繼
纍
纟
红
纪
纯
纳
经
统
编
缶
网
罒
罔
罕
罗
罙
罡
罢
罪
置
署
罷
羅
羊
羌
羍
美
羔
羕
羗
羞
羡
羣
群
義
羲
羸
羽
翁
翏
習
翕
翟
翠
翰
翼
老
耂
考
者
耆
而
耎
耑
耒
耳
耴
耶
耷
聂
聊
职
聖
聚
聞
聲
聶
職
聿
肀
肃
肅
肉
肖
肙
肥
肩
肯
育
肴
胃
背
胜
胡
胥
能
脊
脩
膚
臣
臤
臧
臨
自
臬
臭
臯
臱
至
致
臺
臼
臽
臾
臿
舀
舂
舄
與
興
舉
舊
舌
舍
舒
舛
舜
舞
舟
般
船
艦
艮
良
色
艸
艹
艾
节
芒
芔
芬
芮
花
芳
芺
芻
苏
苔
苗
苟
若
苦
英
茂
范
茶
茸
荅
草
荒
荣
荼
莆
莊
莧
莫
莽
菆
菊
菐
華
营
萬
落
葉
著
葛
董
葬
葵
蒙
蒦
蒼
蓋
蓬
蓺
蔑
蔡
蕉
蕭
薄
薛
薦
薨
薰
藍
藏
藤
藥
蘇
蘭
虍
虎
虐
虒
虔
處
虖
虗
虘
虚
虛
虜
虞
號
虫
虽
蚤
蚩
蜀
蜜
蟲
蠡
血
行
衍
術
街
衛
衣
衤
表
衮
衰
袁
袞
被
裕
褭
褱
襄
襾
西
覀
要
覃
見
規
覓
視
覧
親
覺
覽
觀
见
观
视
角
解
言
訁
訇
計
訓
記
許
詔
詩
詹
語
誠
誩
說
請
論
諭
諸
謂
謝
議
護
讠
议
记
许
设
诏
诗
诚
语
说
请
诸
谓
谕
谥
谨
谷
豆
豈
豊
豐
豕
豖
豙
象
豦
豩
豪
豫
豸
貇
貝
貞
貟
負
貢
貧
貪
貫
責
貳
貴
買
費
賀
賁
資
賈
賏
賓
賔
賛
賜
賞
賢
賣
質
賴
贊
贝
贡
责
贤
贯
贲
贵
资
赐
赖
赞
赤
赦
赫
走
赵
起
超
越
趙
足
路
蹇
身
躬
車
軍
軎
軟
載
輔
輦
车
载
辅
辛
辜
辞
辟
辥
辭
辰
辱
農
辵
辶
边
达
迁
过
迎
近
还
进
远
连
迷
追
退
送
逆
选
逐
通
速
造
逢
連
逮
進
遀
遂
遇
運
過
道
達
遠
遣
適
遵
遷
選
遺
還
邊
邑
邕
那
邦
邪
郎
郑
郡
部
郭
都
鄂
鄉
鄭
酉
酋
配
酒
酓
釆
采
里
重
野
量
金
釒
鉴
銀
錄
錢
鎮
鑑
钅
钦
铁
银
锡
镇
長
镸
长
門
閃
閉
開
閏
閑
閒
間
閔
閵
閻
闌
關
门
问
间
闷
闻
阁
阑
阜
阝
阮
阳
阴
阿
陈
降
限
陛
院
除
陰
陳
陵
陶
陸
陽
隆
隊
隋
隡
隨
隱
隶
隹
隺
隻
隼
隽
难
雀
雁
雄
雅
集
雈
雋
雍
雐
雔
雙
雚
雜
雝
離
難
雨
雩
雪
雲
零
雷
電
需
霍
霜
霝
霞
霸
靈
靑
青
靖
静
靜
非
靡
面
靣
革
韋
韓
韦
韩
韭
韯
韱
音
頁
頃
項
順
須
頗
領
頡
頭
頻
顛
顯
页
顺
领
额
風
风
飛
飞
食
飠
養
餘
館
饣
首
香
馬
馮
駦
騎
马
骑
骨
體
高
髟
鬥
鬯
鬲
鬼
魏
魔
魚
魯
鮮
鱼
鲁
鳥
鳳
鸟
鹵
鹿
麃
麗
麥
麦
麻
黃
黄
黍
黎
黑
黒
黨
黹
黽
黾
鼎
鼓
鼠
鼻
齊
齋
齐
齒
齿
龍
龙
龜
龟
龠
龰
龱
龴
龵
龶
龷
龸
龹
者
艹
！
（
）
，
－
．
：
；
？
～
𠀁
𠀃
𠀆
𠀉
𠀎
𠀐
𠁁
𠁣
𠂆
𠂇
𠂈
𠂉
𠂊
𠂋
𠂎
𠂒
𠂔
𠂛
𠂡
𠂢
𠂤
𠂬
𠂭
𠂹
𠃊
𠃋
𠃌
𠃍
𠃎
𠃑
𠃓
𠃔
𠃜
𠄌
𠄎
𠄠
𠄢
𠆢
𠆥
𠇍
𠈌
𠌵
𠓜
𠔉
𠔥
𠔼
𠔽
𠔿
𠕀
𠕁
𠕋
𠘧
𠘨
𠙻
𠙼
𠚏
𠚒
𠚤
𠚪
𠣏
𠤎
𠤕
𠥓
𠦄
𠦑
𠦝
𠧒
𠧗
𠧪
𠩺
𠪚
𠫓
𠫔
𠫤
𠬛
𠬝
𠬞
𠬢
𠬤
𠬶
𠮛
𠮦
𠮷
𠯑
𠱠
𠳮
𠷎
𡈼
𡉀
𡉵
𡌥
𡍮
𡏳
𡕒
𡕩
𡕰
𡖅
𡗗
𡗜
𡘆
𡘤
𡧱
𡨄
𡩧
𡬠
𡭽
𡰣
𡰥
𡰪
𡰯
𡰱
𡷈
𡸁
𡿨
𡿩
𡿪
𡿺
𢀖
𢀛
𢀩
𢁙
𢆉
𢆰
𢆶
𢇁
𢇇
𢉖
𢌬
𢌿
𢏚
𢑑
𢑚
𢖻
𢙣
𢛳
𢦏
𢦒
𢧵
𢼄
𢾕
𣁋
𣄼
𣅀
𣅽
𣍘
𣎳
𣎵
𣏋
𣏼
𣗥
𣥂
𣥖
𣦵
𣦼
𣧄
𣪊
𣪠
𣬉
𣳾
𣶒
𤇾
𤊽
𤐫
𤓰
𤔔
𤕨
𤣩
𤰇
𤰔
𤰞
𤴓
𤴔
𤽄
𥁑
𥁕
𥃦
𥃩
𥃭
𥇡
𥑟
𥘅
𥘈
𥝢
𥫗
𥱡
𦈢
𦉪
𦉬
𦉼
𦍌
𦍒
𦎧
𦐇
𦓔
𦔮
𦘒
𦙃
𦚏
𦣝
𦣞
𦣻
𦥑
𦥔
𦥯
𦨉
𦭝
𦰩
𧆞
𧈧
𧘇
𧰨
𧴪
𧴮
𧵩
𧾷
𨸏
𨾴
𩙿
𩠐
𩫏
𩵋
𪉷
𪜀
𪟽
𪠲
𪩲
𫇦
𫔭
𫜸
𫝀
𫠣
𫠩
𫢉
𫥞
𫩏
𫩠
𫪡
𫲽
𫶧
𬀷
𬐘
𬗌
𬙙
𬛸
𬜯
𬟩
𬯁
𬴘
𬺻
𬼉
𬼖
𭀰
𭁈
𭁨
𭅰
𭑈
𭕄
𭗼
𭤨
𭥫
𭻾
𮅕
𮊿
𮍌
𮍏
𮓗
𮥼
𮧮
廾
𰀁
𰀄
𰀈
𰀉
𰀕
𰀠
𰀡
𰀢
𰀪
𰁜
𰃮
𰆊
𰆘
𰋙
𰕎
𰢴
𰧭
𰯲
00--
01--
02--
03--
04--
05--
06--
07--
08--
09--
36--
39--
40--
41--
42--
43--
44--
45--
46--
47--
48--
49--
50--
51--
52--
53--
54--
55--
56--
57--
58--
59--
60--
61--
62--
63--
64--
65--
66--
67--
68--
69--
70--
71--
72--
73--
74--
75--
76--
77--
78--
79--
80--
81--
82--
83--
84--
85--
86--
87--
88--
89--
90--
91--
92--
93--
94--
95--
96--
98--
99--
a--
aa--
ab--
abstr--
ac--
acan--
acon--
acro--
ad--
add--
addit--
adel--
ado--
ae--
aero--
af--
ag--
age--
agro--
ah--
ai--
air--
ak--
aki--
al--
albi--
ale--
ales--
ali--
all--
allo--
alt--
am--
ame--
ami--
ammo--
amo--
amphi--
an--
ana--
and--
ang--
anh--
aniso--
ano--
antho--
anu--
any--
ao--
ap--
apo--
applicat--
ar--
ara--
arc--
are--
argen--
ari--
aris--
arm--
art--
as--
ash--
aspi--
asse--
aste--
astro--
at--
ato--
au--
aure--
austr--
auto--
av--
ay--
aya--
az--
b--
ba--
bacc--
back--
bact--
bag--
bal--
ban--
bapt--
bar--
bas--
bau--
bay--
be--
beau--
bec--
bee--
beha--
bel--
belg--
ben--
ber--
bi--
bib--
biblio--
big--
bin--
bio--
bir--
bis--
bit--
bla--
blan--
ble--
blech--
bli--
blo--
bloo--
bo--
bol--
bom--
bon--
boo--
bor--
bot--
bou--
boulen--
bour--
bow--
br--
brac--
brachy--
bre--
bres--
brevi--
bri--
brit--
bro--
brow--
bru--
brun--
bu--
budd--
bun--
bur--
by--
c--
ca--
cal--
cala--
cali--
calo--
caly--
cam--
can--
cap--
car--
cara--
cass--
cat--
cau--
cc--
ce--
cele--
cent--
centu--
cer--
cera--
cey--
ch--
cha--
char--
che--
chi--
chlo--
chloro--
cho--
chr--
chry--
chryso--
chu--
ci--
cin--
cir--
cita--
ck--
cl--
clau--
cle--
clo--
cly--
cn--
co--
col--
com--
con--
cono--
constitut--
copy--
cor--
cory--
cos--
cou--
cous--
cow--
cp--
cr--
cras--
craw--
cre--
crea--
cres--
cris--
crit--
cro--
cru--
cry--
cs--
ct--
cten--
cu--
cua--
cucu--
cur--
cy--
cya--
cycl--
cyr--
cze--
d--
da--
dacty--
dae--
dai--
dal--
dama--
dan--
dar--
das--
daw--
de--
dec--
defi--
del--
den--
der--
des--
dha--
di--
diak--
dicr--
die--
diff--
digi--
dio--
diplo--
disc--
disp--
dist--
dive--
dj--
do--
dolo--
don--
dor--
dou--
dr--
drac--
dres--
dro--
dru--
dry--
du--
dun--
dur--
dy--
dz--
e--
ea--
ear--
ec--
eco--
ed--
eff--
eh--
ei--
ek--
el--
ele--
elec--
elem--
eleu--
elis--
elli--
em--
emer--
emo--
en--
end--
eo--
ep--
epic--
epip--
er--
eri--
erio--
ery--
eryth--
es--
est--
et--
eu--
euro--
eury--
eve--
ex--
ez--
f--
fa--
fair--
fal--
fan--
far--
fasc--
fau--
fe--
featu--
fel--
fer--
ff--
fi--
fili--
fin--
fini--
fir--
fitz--
fl--
flav--
fle--
flo--
flor--
fluo--
fo--
for--
fou--
fr--
frag--
fraz--
fre--
fred--
free--
fri--
fried--
fro--
fu--
fuku--
ful--
fur--
g--
ga--
gal--
gam--
gar--
gas--
gau--
gb--
ge--
gek--
gen--
geo--
ger--
get--
gi--
gil--
gla--
gli--
glo--
glu--
gly--
go--
god--
gold--
gom--
gor--
got--
gr--
grap--
gre--
grim--
gro--
gros--
gru--
gu--
guer--
guil--
gun--
gy--
h--
ha--
had--
hai--
hal--
ham--
han--
haplo--
har--
hard--
harpa--
has--
hat--
hay--
he--
hed--
hel--
heli--
hemi--
hen--
her--
herac--
hetero--
hew--
hexa--
hey--
hi--
hie--
high--
hil--
hip--
hir--
his--
histo--
ho--
hoff--
hog--
hol--
holo--
home--
hon--
hono--
hop--
hor--
horiz--
hou--
hra--
hu--
humb--
hur--
hy--
hydro--
hyper--
hypo--
hđ--
i--
ia--
ic--
id--
iden--
if--
il--
illu--
im--
in--
indepen--
indi--
indu--
infi--
infl--
int--
inter--
inva--
io--
ip--
ir--
is--
ishi--
iso--
it--
iv--
ix--
j--
ja--
jan--
japo--
jar--
je--
jen--
ji--
jin--
jo--
ju--
k--
ka--
kai--
kal--
kan--
kar--
kas--
kata--
kay--
kaz--
ke--
kei--
kel--
ken--
ker--
key--
kh--
kha--
khrush--
ki--
kim--
kin--
kir--
kiri--
kit--
kiyo--
kla--
kle--
kn--
kno--
ko--
kon--
kor--
kos--
kou--
kra--
kre--
kri--
kru--
kry--
ku--
kur--
kuz--
kw--
ky--
kyu--
l--
la--
lam--
lan--
lar--
las--
lat--
lau--
laz--
le--
lear--
leh--
leio--
leo--
lepi--
lept--
lepto--
les--
leu--
leuco--
li--
libe--
liech--
lim--
lin--
lis--
lite--
ll--
lo--
lou--
loxo--
lu--
ly--
m--
ma--
mac--
macro--
macu--
mad--
mag--
magni--
mah--
mai--
mak--
mal--
mala--
mall--
man--
map--
mar--
masa--
mate--
mats--
mau--
mauri--
may--
mb--
mc--
me--
med--
mega--
meh--
mei--
mel--
melan--
meli--
men--
mer--
meso--
meta--
mexi--
mi--
micro--
mid--
mil--
min--
mio--
mir--
mira--
mit--
miya--
mo--
mol--
mon--
mono--
mont--
mor--
mora--
mos--
mou--
mr--
ms--
mt--
mu--
mul--
multi--
mun--
mur--
mura--
mus--
my--
myr--
n--
na--
nai--
naka--
nam--
nan--
nao--
nar--
nata--
nau--
nd--
ne--
neck--
neo--
neph--
nept--
ner--
net--
neu--
new--
news--
ng--
nh--
ni--
nie--
nieder--
nigr--
nii--
nik--
niko--
no--
nom--
nor--
not--
ns--
nt--
nu--
num--
ny--
o--
oa--
ob--
obe--
ober--
obje--
obs--
occid--
oct--
of--
off--
og--
oh--
ok--
ol--
old--
ole--
oli--
on--
op--
or--
oreo--
ori--
ornitho--
ortho--
os--
ost--
ou--
out--
ov--
over--
oxy--
oz--
p--
pa--
pachy--
pai--
pal--
pala--
pall--
pan--
papi--
par--
para--
pas--
pat--
pay--
pe--
pedi--
pen--
per--
petro--
ph--
pha--
phe--
pho--
phosp--
phy--
phyll--
phyllo--
pi--
pic--
pin--
pl--
pla--
platy--
play--
plec--
plut--
po--
pol--
poly--
pont--
por--
pr--
pract--
prae--
pre--
pri--
prim--
pris--
pro--
profess--
protect--
proto--
provi--
ps--
pseu--
pseudo--
psy--
psycho--
pt--
pter--
ptero--
pu--
pueb--
pul--
pur--
px--
py--
pyg--
pyr--
q--
qu--
qua--
qui--
qđ--
r--
ra--
rad--
rag--
rah--
rai--
rail--
rain--
ram--
ran--
rap--
ray--
re--
rece--
red--
ree--
reg--
rein--
reli--
ren--
res--
ret--
rha--
rho--
rhodo--
rhy--
rhyn--
ri--
ric--
rie--
ro--
rob--
rock--
rod--
roe--
ron--
rou--
row--
rs--
ru--
rufi--
run--
ry--
s--
sa--
sai--
sal--
sala--
sam--
san--
sar--
sass--
sau--
sc--
scar--
sch--
sche--
schi--
schne--
schu--
sco--
scor--
scy--
scyto--
se--
sea--
sei--
sel--
semi--
sen--
sene--
ser--
set--
sey--
sh--
sha--
shan--
shar--
she--
shi--
sho--
show--
shu--
si--
sie--
sil--
sili--
sim--
simu--
sin--
sk--
sky--
sl--
sm--
sna--
sne--
so--
sol--
son--
sor--
sou--
sp--
spe--
spec--
sphae--
spi--
spiel--
spil--
spo--
sr--
ss--
st--
star--
stat--
ste--
ster--
stig--
sto--
str--
stu--
sty--
su--
sub--
succ--
suk--
sul--
sum--
sun--
super--
sur--
sv--
sw--
sy--
syl--
syll--
symp--
synt--
sz--
t--
ta--
tae--
tai--
taka--
tam--
tan--
tar--
tara--
tau--
tc--
te--
tech--
tel--
tem--
ten--
teo--
ter--
tetra--
th--
tha--
the--
tho--
thu--
thy--
ti--
tibe--
tim--
tin--
to--
toku--
tol--
tom--
tor--
tou--
tp--
tr--
tra--
trans--
tre--
tri--
tro--
tru--
ts--
tsu--
tt--
tu--
tun--
tur--
turri--
tw--
twe--
ty--
tz--
u--
ue--
uk--
ul--
uly--
um--
un--
under--
up--
ur--
ura--
us--
ut--
v--
va--
vacc--
val--
valen--
van--
var--
vasi--
ve--
vel--
ven--
ver--
vers--
vi--
vin--
vio--
vir--
vitt--
vla--
vn--
vo--
vol--
vu--
vul--
vy--
w--
wa--
wal--
wan--
war--
wat--
we--
web--
wei--
wel--
wer--
west--
whit--
wi--
wic--
wiki--
wil--
wild--
win--
wis--
wit--
witt--
wo--
wol--
wood--
wor--
wri--
wu--
wy--
x--
xa--
xant--
xantho--
xe--
xi--
xx--
xy--
xylo--
y--
ya--
yama--
yan--
ye--
yi--
yo--
yon--
yu--
yun--
z--
za--
zara--
ze--
zh--
zi--
zim--
zo--
zoo--
zu--
zyg--
đ--
ı--
ł--
в--
г--
д--
м--
н--
п--
с--
т--
--0
--00
--01
--1
--2
--3
--4
--5
--6
--7
--8
--9
--a
--ab
--abad
--able
--ac
--aca
--aceae
--ach
--ack
--ad
--ade
--ado
--ae
--aea
--af
--ag
--aga
--agawa
--age
--ago
--ah
--ai
--aine
--ais
--aj
--ak
--aka
--aki
--al
--ala
--ald
--ale
--ales
--alis
--als
--am
--ama
--ami
--amo
--an
--ana
--ance
--ane
--ang
--ani
--ania
--ano
--ant
--anum
--anus
--ao
--ap
--aphy
--ar
--ard
--ardo
--ari
--aria
--aris
--arius
--aro
--arra
--ars
--aru
--ary
--as
--asa
--ase
--ashi
--ast
--at
--ata
--ate
--ated
--ater
--ates
--ath
--ati
--ation
--ato
--ator
--atum
--atus
--au
--aurus
--aw
--awa
--ax
--ay
--aya
--b
--ba
--bal
--be
--ber
--bert
--bes
--bi
--ble
--bo
--bol
--bra
--bu
--burg
--bury
--by
--c
--ca
--cal
--carpus
--cas
--cca
--cco
--ce
--cea
--ceae
--cen
--cens
--cent
--cer
--cera
--ces
--cess
--ch
--chi
--cht
--ci
--cing
--cio
--cium
--ck
--cki
--co
--cq
--craft
--cs
--ct
--cta
--ctus
--cu
--cum
--cus
--cy
--cław
--d
--da
--dae
--dal
--dale
--dall
--dam
--dar
--day
--de
--dea
--deae
--ded
--des
--dh
--di
--dia
--dis
--dita
--dium
--dl
--dler
--do
--dom
--don
--donia
--dor
--dorf
--down
--dp
--dra
--dro
--dron
--ds
--dt
--du
--dum
--dus
--dy
--e
--ea
--eae
--eam
--ean
--east
--eau
--eaux
--eb
--ec
--ed
--eda
--edes
--ee
--ef
--eg
--ei
--ein
--eira
--ek
--el
--ela
--elia
--ell
--ella
--elli
--ely
--em
--ema
--emia
--emis
--emisia
--en
--ena
--enburg
--ence
--ene
--ennis
--ens
--ense
--ensis
--ent
--enus
--enza
--eo
--ep
--er
--era
--ered
--erg
--eri
--eria
--ero
--ers
--ert
--erus
--ery
--es
--ese
--ess
--est
--et
--eta
--ets
--ett
--ette
--eum
--eur
--eus
--ev
--ever
--evich
--ew
--ex
--ey
--ez
--f
--fa
--fat
--fe
--feld
--fer
--ff
--fide
--field
--fin
--fs
--ft
--fu
--ful
--g
--ga
--ge
--gel
--gen
--ger
--ges
--gg
--gh
--gham
--ght
--gi
--gin
--gn
--go
--gon
--gs
--gton
--gu
--gua
--gue
--gus
--gy
--h
--ha
--hai
--ham
--he
--hea
--heim
--hem
--hes
--hi
--hia
--hila
--hin
--hing
--hip
--hl
--hn
--ho
--hold
--hon
--hora
--hr
--hra
--hs
--ht
--hu
--hus
--hy
--hyllum
--i
--ia
--iaceae
--iae
--ial
--ian
--iana
--ianus
--ias
--iata
--iation
--iatus
--iber
--ic
--ica
--ical
--ich
--ichi
--ici
--ick
--ico
--icola
--ics
--icta
--icum
--icus
--id
--ida
--idae
--ide
--idea
--ides
--idia
--ids
--ie
--ieae
--ied
--ief
--iel
--iella
--ien
--iensis
--ier
--iere
--ieri
--iers
--ies
--iff
--ifolia
--ig
--igh
--ight
--ii
--iinae
--iini
--ik
--ika
--ike
--il
--ila
--ile
--ilia
--ilis
--illa
--im
--ima
--imus
--in
--ina
--inae
--ine
--ing
--ings
--ington
--ini
--ino
--ins
--inus
--io
--ion
--ions
--ior
--ious
--ip
--ipes
--ique
--ir
--ira
--ire
--iro
--is
--isation
--ish
--ism
--ist
--ista
--ists
--it
--ita
--ite
--ites
--ities
--ity
--itz
--ium
--ius
--iva
--ive
--ix
--iya
--iz
--ization
--ized
--j
--ja
--je
--ji
--jo
--ju
--k
--ka
--kard
--ke
--kel
--ker
--ket
--kh
--ki
--kin
--kins
--ko
--kov
--kr
--ks
--ku
--ky
--l
--la
--laceae
--land
--lar
--laris
--ld
--le
--lea
--ler
--les
--less
--ley
--lf
--li
--lia
--lica
--lid
--lii
--ling
--lio
--lip
--lis
--lity
--ll
--lla
--lle
--lli
--llia
--llo
--llum
--llus
--lly
--lm
--lma
--lo
--logy
--lora
--lov
--ls
--lsh
--lt
--lty
--lu
--lum
--lus
--ly
--lya
--lyn
--lz
--m
--ma
--mad
--man
--mann
--me
--mel
--ment
--mer
--mes
--mi
--mia
--mis
--mma
--mo
--mos
--ms
--mu
--mum
--mus
--my
--mys
--n
--na
--nae
--nal
--nar
--nard
--nas
--nc
--nce
--nd
--nda
--nder
--ne
--nea
--ned
--nell
--nella
--ner
--ners
--nesia
--ness
--ney
--ng
--ni
--nia
--nica
--nii
--nik
--ning
--nis
--nium
--nk
--nko
--nn
--nna
--nne
--no
--nor
--ns
--nse
--nsis
--nso
--nt
--nte
--nthus
--nto
--num
--nus
--ny
--o
--oa
--oc
--och
--ock
--od
--ode
--ody
--oe
--off
--oft
--og
--ogne
--ogon
--oi
--oid
--oidea
--oides
--ok
--oka
--oke
--ol
--ola
--oli
--ology
--olor
--om
--oma
--ome
--omi
--omis
--on
--ona
--one
--oni
--onia
--ons
--oo
--oon
--op
--ophyllum
--ops
--opsis
--opus
--or
--ora
--ore
--orf
--ori
--oro
--ors
--orum
--os
--osa
--ose
--osus
--ot
--ota
--oto
--ott
--otus
--ou
--ous
--out
--ov
--ovic
--ovich
--ovo
--ow
--ows
--ox
--oy
--p
--pa
--pe
--ped
--pei
--pes
--phylla
--pi
--pia
--pilus
--pis
--ple
--po
--poda
--polis
--pos
--pr
--ps
--pse
--pt
--pta
--pton
--ptus
--pur
--pus
--py
--q
--que
--r
--ra
--rad
--ral
--ras
--rat
--rax
--rb
--rc
--rd
--re
--rea
--rella
--rer
--res
--rf
--rg
--rhiza
--ri
--ria
--ries
--riidae
--ris
--rium
--rius
--rix
--rk
--rl
--rley
--rm
--rn
--rne
--rnis
--rno
--ro
--ros
--rov
--rp
--rpus
--rr
--rra
--rre
--rro
--rs
--rst
--rt
--rta
--rte
--rth
--ru
--rum
--rus
--ry
--rya
--rz
--s
--sa
--sburg
--sca
--scens
--sch
--se
--sed
--sei
--sen
--ser
--ses
--sey
--sh
--sha
--shire
--si
--sia
--sian
--sible
--sii
--sio
--sion
--sis
--sk
--sky
--sm
--sma
--so
--son
--sor
--spa
--ss
--ssa
--sse
--sson
--st
--sta
--stein
--ster
--ston
--su
--sum
--sus
--sy
--sz
--t
--ta
--taceae
--tal
--talis
--tar
--tary
--tas
--tata
--tation
--te
--tea
--ted
--tel
--tep
--ter
--tera
--teris
--terol
--tes
--th
--tha
--thing
--thus
--ti
--tia
--tic
--tica
--ticus
--tidae
--tii
--tin
--ting
--tion
--tions
--tis
--tium
--tive
--tl
--tle
--to
--ton
--tor
--tory
--tos
--tov
--town
--try
--ts
--tsky
--tsu
--tt
--tta
--tte
--tti
--tto
--tty
--tu
--tum
--ture
--tus
--ty
--tz
--u
--ua
--ual
--ub
--uca
--uction
--ud
--ue
--ug
--ugh
--ught
--ui
--uk
--uki
--ul
--ula
--ult
--ulus
--um
--uma
--ument
--uments
--umi
--un
--una
--up
--ur
--ura
--ure
--uri
--urus
--us
--usz
--ut
--uta
--ute
--uth
--ux
--v
--va
--ve
--ved
--ver
--ves
--vi
--vic
--vich
--ville
--vin
--vis
--vka
--vn
--vo
--vsky
--w
--wa
--wald
--way
--well
--wi
--wick
--wicz
--wl
--wo
--wood
--ws
--x
--xia
--y
--ya
--yah
--yan
--ye
--yer
--yi
--yia
--yl
--yllum
--ylus
--ym
--yn
--yo
--yon
--ys
--ysa
--yu
--yx
--z
--za
--zar
--ze
--zen
--zer
--zi
--zia
--zie
--zo
--zon
--zov
--zu
--zy
--zz
--zzi
--zzo
--đ
--ła
--ς
--а
--в
--ва
--е
--и
--ии
--н
--о
--ов
--т
--я
