!
"
#
##0
##1
##10
##11
##12
##13
##14
##15
##16
##17
##18
##19
##2
##20
##21
##22
##23
##24
##25
##26
##27
##28
##29
##3
##30
##31
##32
##33
##34
##35
##36
##37
##38
##39
##4
##40
##41
##42
##43
##44
##45
##46
##47
##48
##49
##5
##50
##51
##52
##53
##54
##55
##56
##57
##58
##59
##6
##60
##61
##62
##63
##64
##65
##66
##67
##68
##69
##7
##70
##71
##72
##73
##74
##75
##76
##77
##78
##79
##8
##80
##81
##82
##83
##84
##85
##86
##87
##88
##89
##9
##90
##91
##92
##93
##94
##95
##96
##97
##98
##99
$
%
&
'
(
)
*
+
,
-
.
/
0
00
000
0000
001
002
003
004
006
007
009
01
014
018
02
03
030
033
04
05
050
051
055
06
067
07
08
09
097
1
10
100
1000
1004
1007
101
1016
1017
102
103
1038
104
105
106
1069
107
108
1080
1086
109
1093
1095
11
110
111
1111
112
113
1136
114
115
116
117
118
119
12
120
1200
121
12148
122
123
124
125
1250
126
1260
127
128
129
13
130
1300
131
132
133
134
135
1350
1353
136
1368
137
138
139
14
140
1400
141
142
143
144
145
1450
1453
146
147
148
149
1492
15
150
1500
1509
151
1510
1515
1516
1517
152
153
154
155
1550
156
156890366
157
1573
158
159
1590
16
160
1600
161
162
163
164
1642
1644
1648
165
1650
1652
166
1660
167
1670
168
1680
1689
169
17
170
1700
1703
171
172
1727
173
174
175
1750
1753
1754
1758
1759
176
1760
1763
1764
1769
177
1770
1773
1776
1777
1779
178
1780
1781
1782
1783
1784
1786
1787
1788
1789
179
1790
1791
1792
1793
1794
1795
1796
1797
1798
1799
18
180
1800
1801
1802
1803
1804
1805
1806
1807
1808
1809
181
1810
1811
1812
1813
1814
1815
1816
1817
1818
1819
182
1820
1821
1822
1823
1824
1825
1826
1827
1828
1829
183
1830
1831
1832
1833
1834
1835
1836
1837
1838
1839
184
1840
1841
1842
1843
1844
1845
1846
1847
1848
1849
185
1850
1851
1852
1853
1854
1855
1856
1857
1858
1859
186
1860
1861
1862
1863
1864
1865
1866
1867
1868
1869
187
1870
1871
1872
1873
1874
1875
1876
1877
1878
1879
188
1880
1881
1882
1883
1884
1885
1886
1887
1888
1889
189
1890
1891
1892
1893
1894
1895
1896
1897
1898
1899
19
190
1900
1901
1902
1903
1904
1905
1906
1907
1908
1909
191
1910
1911
1912
1913
1914
1915
1916
1917
1918
1919
192
1920
1921
1922
1923
1924
1925
1926
1927
1928
1929
193
1930
1931
1932
1933
1934
1935
1936
1937
1938
1939
194
1940
1941
1942
1943
1944
1945
1946
1947
1948
1949
195
1950
1951
1952
1953
1954
1955
1956
1957
1958
1959
196
1960
1961
1962
1963
1964
1965
1966
1967
1968
1969
197
1970
1971
1972
1973
1974
1975
1976
1977
1978
1979
198
1980
1981
1982
1983
1984
1985
1986
1987
1988
1989
199
1990
1991
1992
1993
1994
1995
1996
1997
1998
1999
2
20
200
2000
2001
2002
2003
2004
2005
2006
2007
2008
2009
201
2010
2011
2012
2013
2014
2015
2016
2017
2018
2019
201910
202
2020
2021
2022
2023
2024
2025
203
2030
204
205
2050
206
207
208
209
21
210
2105
21069
211
212
213
214
215
216
217
218
219
22
220
221
222
223
224
225
226
227
228
229
23
230
2307
231
232
233
234
235
236
237
2371710
238
239
24
240
241
242
243
244
245
246
247
2470
248
249
24954393
25
250
2500
251
252
253
254
255
256
257
258
259
26
260
261
262
263
264
265
266
267
268
269
27
270
271
272
273
274
275
276
277
278
279
28
280
281
282
283
284
285
286
287
288
289
29
290
291
292
293
294
295
296
297
298
299
3
30
300
3000
301
302
303
304
305
306
307
308
309
31
310
311
312
313
314
315
316
3166
317
318
319
32
320
321
322
323
324
325
326
327
328
329
33
330
331
332
333
334
335
336
337
338
339
34
340
341
342
343
344
345
346
347
348
349
35
350
351
352
353
354
355
356
357
358
359
36
360
361
362
363
364
365
366
367
368
369
37
370
371
372
373
374
375
376
377
378
379
38
380
381
382
383
384
385
386
387
388
389
39
390
391
392
393
394
395
397
398
399
4
40
400
4000
401
402
403
404
405
406
407
408
409
41
410
411
412
414
415
416
417
418
419
42
420
421
422
423
424
425
426
427
429
43
430
431
432
433
434
435
436
437
438
44
440
441
442
443
444
445
446
447
448
449
45
450
451
452
453
454
455
456
458
46
460
461
463
464
465
466
467
468
469
47
470
471
472
473
4744
475
476
477
478
48
480
481
483
484
486
487
488
489
49
490
491
492
493
497
498
499
5
50
500
5000
501
503
504
505
508
509
51
510
511
512
513
514
515
518
519
52
520
521
522
525
527
528
53
530
534
535
536
539
54
540
541
546
547
548
549
55
550
552
555
557
558
56
560
561
562
563
565
57
570
572
573
574
576
577
578
58
580
581
582
583
584
585
586
589
59
590
594
595
6
60
600
6000
601
602
604
605
606
609
61
610
611
612
613
615
616
618
619
62
620
622
623
624
625
627
628
629
63
630
631
632
633
634
635
636
637
638
639
64
640
642
644
645
646
65
650
653
656
658
659
66
660
661
663
665
667
67
670
672
674
675
679
68
680
6829
683
69
690
691
695
7
70
700
701
702
704
706
707
708
71
710
711
712
715
716
717
718
72
720
725
727
729
73
732
737
74
747
75
750
76
761
762
765
767
77
770
772
774
777
78
780
786
787
79
790
794
795
8
80
800
801
802
806
81
810
813
814
815
82
820
821
823
825
83
833
84
840
85
850
852
855
857
86
864
866
87
871
875
876
88
880
881
89
890820657
894
898
9
90
900
903274
905
906
91
911
917
919
92
920
924
925
93
932
937
938
94
941
944
95
950
956
96
97
970
972
973
976
978
98
980
99
999
:
;
<
=
>
?
@
\
^
_
`
a
aa
aaa
aamir
aan
aar
aare
aaron
ab
aba
ababa
ababen
ababio
abacha
abada
abakaliki
aban
abarba
abasi
abass
abay
abayomi
abba
abban
abbas
abbasiyawa
abbe
abbey
abbott
abc
abd
abdalla
abdallah
abdel
abdelaziz
abdelkader
abdennour
abderrahmane
abdi
abdo
abdou
abdoulaye
abdourahmane
abdu
abdul
abdulaziz
abduljabbar
abdulkadir
abdulkarim
abdullah
abdullahi
abdulmumini
abdulrahaman
abdulrahman
abdulrazaq
abdulsalam
abdulsalami
abdur
abdurrahman
abdussamad
abe
abel
abena
abeni
abeokuta
aberdeen
abhishek
abi
abia
abida
abidine
abidjan
abigail
abimbola
abimilki
abin
abinci
abincin
abincinsu
abinda
abiodun
abiola
abisiniya
abiya
abkhazia
abo
abokai
abokan
abokansa
abokansu
abokantaka
aboki
abokin
abokinsa
abokiyar
abolition
aboriginal
abota
abou
abouba
aboubacar
about
above
abraham
abrams
abrefa
abs
abstract
abstracts
abu
abuakwa
abubakar
abubuwa
abubuwan
abubuwanda
abudu
abuja
abul
abule
abun
abunda
abune
aburi
abuse
abusua
abzinawa
ac
acacia
acade
academia
academic
academy
acc
access
accessdate
accessed
accident
accord
according
account
accountancy
accountant
accountants
accounting
accounts
accra
accrington
ace
acf
achaemenid
acheampong
achebe
achievement
achievers
achimota
acho
achpr
acid
acidic
aciki
acikin
ackah
acn
acp
acquah
acre
acres
across
act
acting
action
active
activism
activist
activities
activity
actor
actors
actress
acts
actualite
ad
ada
adabi
adabin
adadevoh
adadi
adadin
adadinsu
adae
adal
adalci
adalcin
adam
adama
adamawa
adams
adamu
adan
adana
adanai
adanan
adanawa
adance
adanci
adangbe
adanin
adansi
adaora
adaptation
adar
adara
adarsh
adavi
adawa
adawar
adawarsa
adb
adc
add
adda
addabar
addabi
addan
addanci
addancin
addar
addinai
addinan
addini
addinin
addininsa
addininsu
addis
additional
addo
address
addu
addy
ade
adebayo
adebisi
adebiyi
adebola
adeboye
adebutu
adedibu
adediran
adedoyin
adefarasin
adegbite
adegoke
adekanye
adekola
adekunle
adel
adelabu
adelaide
adele
adeleke
ademola
aden
adeniji
adenike
adeniran
adeniyi
adenocarcinoma
adenomatous
adenowo
adenuga
adeola
adeosun
adeoye
adesanya
adesina
adesua
adesuwa
adewale
adeyemi
adeyemo
adeyeye
adeyinka
adi
adibas
adichie
adidas
adil
adin
adinai
adinan
adinkra
adinsa
adireshi
adireshin
adiresoshin
adisa
adjei
adjetey
adjuvant
adler
adly
admin
administration
administrative
administrator
admiral
adnan
ado
adolf
adon
adopted
adrian
adriatic
adu
adua
aduana
adult
adun
adunsa
adunsu
aduwa
advance
advanced
advancement
adventist
adventure
adviser
advisory
advocacy
advocate
adwoa
ae
aerial
aerosol
aerospace
af
afa
afar
afc
afcon
afdb
affair
affairs
affan
affecting
affleck
afganistan
afghanistan
afi
afia
afikpo
afirka
afizere
afka
afkawa
afku
afkuwar
afl
afolabi
afolayan
afp
afrc
africa
africain
africaine
african
africana
africans
africanus
afrifa
afrika
afrilu
afrilun
afrinvest
afrique
afriyie
afro
afrobasket
afrobeat
afrobeats
afscme
after
aftonbladet
afurka
afuwa
afuwar
ag
aga
agadez
again
against
agaji
agajin
agarwal
agba
agbaje
agbede
agbo
agbor
age
agege
agence
agency
agenda
agenebode
agent
agents
ages
agf
aggrey
agha
aghanya
agnatic
agnes
ago
agogo
agogon
agona
agou
agra
agree
agreement
agricultural
agriculture
agroecology
agu
aguda
aguiyi
aguleri
agusta
agustan
agwagwa
agwu
agyekum
agyeman
agyemang
ah
ahafo
ahanta
ahead
ahidjo
ahl
ahlhaus
ahli
ahlul
ahlus
ahly
ahmad
ahmadi
ahmadiyya
ahmadou
ahmadu
ahmed
ahmedabad
ahmet
ahram
ai
aia
aibu
aid
aidoo
aids
aika
aikace
aikacen
aikaci
aikacin
aikaciyar
aikata
aikatan
aikatansa
aikatansu
aikatanta
aikatar
aikatau
aikatawa
aikatu
aikatun
aikawa
aike
aikewa
aiki
aikin
aikina
aikinsa
aikinsu
aikinta
aiko
aims
ain
aina
ainihi
ainihin
air
airborne
airbus
aircraft
aires
airline
airlines
airport
airtel
airways
ais
aise
aisha
aishwarya
aiswarya
ait
aiwatar
aiwatarwa
aiyuka
aiyukan
aj
aja
ajabi
ajaccio
ajah
ajali
ajami
ajanda
ajandar
ajantina
ajasin
ajax
ajay
ajayi
aje
ajegunle
aji
ajibade
ajibola
ajimobi
ajin
ajiya
ajiyar
ajiye
ajman
ajujuwa
ajunwa
ak
aka
akafi
akai
akalar
akalla
akan
akanbi
akande
akans
akanta
akanyi
akari
akasari
akasarin
akasarinsu
akasin
akawu
akayi
akbar
akbishop
ake
akekira
akerele
akewa
akeyi
akhundzada
aki
akida
akidar
akide
akidun
akilu
akim
akin
akinbobola
akindele
akinola
akinsola
akintola
akinwunmi
akinyele
akitoye
akkadian
akko
ako
akoka
akoko
akosombo
akosua
akoto
akpa
akpabio
akpan
akropong
akshay
aksum
aku
akua
akuapem
akuapim
akuffo
akufo
akure
akuya
akwa
akwai
akwamu
akwapim
akwasi
akwati
akwatia
akwatin
akwatunan
akyem
al
ala
alaafin
alaba
alabama
alabi
alade
aladu
alaibe
alain
alaka
alakanta
alakar
alakarta
alake
alakija
alal
alam
alama
alamar
alamieyeseigha
alamomi
alamomin
alamu
alamun
alan
alao
alappuzha
alaska
alassane
alatu
alave
alawus
alaƙa
alaƙar
alba
albam
albani
albania
albanian
albaniya
albany
albarka
albarkace
albarkaci
albarkacin
albarkar
albarkatu
albarkatun
albasa
albashi
albashin
albert
alberta
albertine
alberto
albion
albishir
albright
album
albums
albuquerque
alburusai
alca
alcatel
alchemy
aldershot
ale
alec
alemu
aleppo
alex
alexander
alexandra
alexandre
alexandria
alexis
alfa
alfahari
alfarma
alfarwa
alfijir
alfonso
alfred
algae
alge
algebra
alger
algeria
algerian
algiers
algorithm
algorithms
alh
alhaja
alhaji
alhaki
alhakin
alhali
alhamis
alhassan
alhazai
alheri
alherin
ali
alib
alice
aliero
alif
aliko
alimi
alimosho
alioski
aliou
alison
aliu
alive
aliyu
aljanna
aljannu
aljanu
aljazeera
aljeriya
aljihu
alka
alkahira
alkalai
alkalami
alkalan
alkalanci
alkali
alkalin
alkaliya
alkaluma
alkaluman
alkalumman
alkama
alkasum
alkawari
alkawarin
alkawuran
alkawurran
alkibla
alkiblar
alkur
all
alla
allafrica
allah
allahiya
allahn
allahntaka
allahu
allaka
allama
allan
alleged
allen
alley
alli
alliance
allianz
allied
allies
allison
allmusic
allo
alloli
allon
allotey
allsopp
allsvenskan
allu
allunan
allura
allurai
alluran
allurar
alma
almajirai
almajiran
almajiransa
almajiri
almajirin
almakashi
almanac
almara
almarar
almasihu
almeri
almost
almubazzaranci
alone
along
alonso
alpha
alphabet
alpine
alps
alqur
alqurani
also
alt
alter
alternative
although
alto
alu
aluminium
aluminum
alumma
alumni
alurar
alveolar
alves
alvin
alwala
alwali
alwashin
always
aly
alƙalai
alƙalami
alƙalan
alƙali
alƙalin
alƙaluma
alƙawari
alƙawarin
alƙawura
alƙibla
alƙur
am
ama
amaa
amadi
amadou
amadu
amaechi
amai
amaka
amal
amala
amalar
aman
amana
amanar
amanda
amannar
amar
amara
amari
amarin
amarteifio
amartey
amarya
amata
amateur
amato
amatsayin
amazing
amazon
amazons
ambace
ambaci
ambaliya
ambaliyar
ambasada
ambasadan
ambassador
ambata
ambato
ambaton
amber
ambode
ambrose
amchitka
ame
ameh
amended
america
american
americans
americas
amerika
ames
amfana
amfanar
amfani
amfanin
amfrayo
amhara
amharic
amherst
ami
amiens
amin
amina
amince
amincewa
amincewar
amincewarsa
amincewarsu
aminci
amincin
aminin
aminiya
amino
aminta
amintacce
amintaccen
amintar
amintattu
amintattun
aminu
amir
amirka
amirkawa
amirul
amitabh
aml
amma
ammad
amman
ammar
ammonia
amna
amnesty
amo
amoah
amon
among
amoo
amor
amos
amosun
amp
ampofo
amponsah
amr
amritsar
amsa
amsar
amsawa
amsawar
amshi
amsoshi
amsoshin
amsterdam
amura
amuran
amurika
amurka
amurkan
amurkawa
amurke
amurkiya
amurra
amurran
amuwo
amvca
amy
an
ana
anaang
anaerobic
analog
analysis
anam
anambara
anambra
anan
anane
anang
ananse
anar
anarchist
anarsa
anarta
anas
anatolia
anatomy
anayin
anazarci
anc
ance
ancestors
anchor
anci
ancient
and
andalus
andalusia
andani
anderlecht
anderson
andes
andhra
andorra
andre
andrea
andreas
andrei
andrew
andrews
andriy
android
andy
anemia
anenih
anfani
anfi
anfield
ang
anga
angel
angela
angeles
angelina
angelo
angelou
angels
anger
angers
angiogenesis
anglia
anglican
anglo
ango
angola
angolan
angus
ani
anil
animal
animation
anime
anin
aniocha
anioma
anita
aniyar
aniyarsa
aniyarta
anka
ankara
ankomah
ankrah
anlo
ann
anna
annabawa
annabawan
annabce
annabci
annabcin
annabi
annabin
annabta
annals
annan
annang
annashuwa
annati
anne
annette
annex
annie
anniston
anniversary
annoba
annobar
announce
announced
announces
annual
ano
anokye
anomabu
anoni
anonymous
another
anozie
anpp
ans
ansa
ansah
ansar
ansari
anse
ansu
anta
antar
antarctic
antarctica
anthology
anthony
anthropogenic
anthropological
anthropology
anti
antigen
antiquity
anto
antoine
antoinette
anton
antonio
antony
antu
antun
antwerp
antwi
anwar
any
anya
anyanwu
anyi
ao
ap
apa
apache
apapa
apart
apata
apc
apga
api
apoel
apollo
apollon
apoptosis
apostolic
app
appalachian
appeal
appearances
appeared
appelle
appiah
apple
apples
application
applications
applied
appointed
appointment
appoints
approach
approves
apr
aprelu
april
aps
aquinas
ar
ara
arab
araba
arabba
arabe
arabi
arabia
arabian
arabic
arabiya
arabs
arafah
arafat
araha
aramaic
arangama
arase
arb
arba
arbitration
arbor
arc
arcade
arch
archaeological
archaeology
archbishop
archdiocese
archer
archibald
archibong
architect
architects
architectural
architecture
archive
archived
archives
archiveurl
archnet
arctic
arden
ardo
are
area
areas
arefin
aregbesola
aremo
aremu
arena
arewa
arewaci
arewacin
argentina
argentine
argungu
argyle
arha
ari
arif
arin
arinze
aris
aristotle
arizona
arjun
ark
arkansas
arlauskis
arm
armagh
armah
armando
arme
armed
armenia
armenian
armeniya
armored
arms
armstrong
army
arna
arnold
aro
arochukwu
aromatic
aron
around
arrest
arrested
ars
arsa
arse
arsenal
arsenic
arsu
art
arta
artabu
arte
arthur
article
articles
artificial
artillery
artist
artiste
artistic
artists
arts
aru
arufe
arusha
aruwa
arvn
arya
arzani
arzika
arziki
arzikin
arzikinsu
arzikinta
arziƙi
arziƙin
as
asa
asaba
asabar
asabe
asad
asafo
asali
asalin
asalinsa
asalinsu
asalinta
asamoah
asan
asante
asantehene
asanteman
asantes
asantewaa
asar
asara
asarar
asashen
asbestos
asean
asebu
ash
ashanti
ashantis
ashekara
asher
ashes
ashirin
ashiru
ashitey
ashley
ashoka
ashraf
ashton
ashura
asi
asia
asian
asiatic
asibiti
asibitin
asibitoci
asibitocin
asile
asirce
asiri
asirin
asisat
asiya
aske
aski
askia
asma
asmara
aso
asp
aspen
aspx
asqalani
assad
assam
assasa
assemble
assembly
assessment
asset
assets
assin
assis
assistant
assoc
associate
associated
associates
association
associations
associationungiyar
assuriya
assuriyawa
asteroid
aston
astrazeneca
astronomy
asturaliya
asturian
asturias
asu
asuba
asusu
asusun
asuu
aswan
asy
asylum
asymptomatic
at
ata
atalanta
atd
ath
athens
athlete
athletes
athletic
athletico
athletics
atiku
ation
atisaye
atisayen
atkinson
atlanta
atlantic
atlantika
atlantis
atlas
atle
atletico
atm
atmore
ato
atoll
atom
atomatik
atomic
atoni
atp
atr
atrium
atta
attack
attacks
attah
attahiru
attajirai
attajiran
attajiri
attajirin
attoh
attorney
attributes
atu
atwater
atwima
atyap
au
auburn
auchi
aucho
auckland
audio
audiovisual
audit
audu
auduga
auf
aug
augie
august
augusta
augustan
auguste
augustine
augusto
augustus
auku
aukuwa
aun
auna
aunawa
auni
aunin
aur
aura
aurar
aurata
auratan
auratayya
aure
auren
aurensa
aurensu
aurenta
auri
aurora
aus
austen
austin
australia
australian
australiya
austria
austrian
austriya
auta
author
authored
authorities
authority
authors
autism
auto
autobiography
autosomal
autumn
auwal
aux
auxerre
auyaku
av
ava
available
avant
ave
avec
avengers
aventura
avenue
average
aves
avia
aviation
aviv
avoid
avril
aw
awa
awaki
awan
awanni
awar
award
awarded
awards
aware
awareness
awarsa
awarsu
awarta
awash
away
awaziem
awf
awiya
awka
awlaki
awo
awolowo
awon
awoniyi
awori
awutu
awwal
axim
axis
axum
axworthy
ay
aya
ayaba
ayan
ayanzu
ayar
ayarin
ayasofya
ayatollah
ayatullah
aye
ayesha
ayew
ayi
ayin
ayinsa
ayinsu
ayinta
ayman
ayn
ayo
ayodele
ayoub
ayoyi
ayoyin
ayoyinsa
ayoyinsu
ayuba
ayyana
ayye
ayyubid
ayyuka
ayyukan
ayyukansa
ayyukansu
ayyukanta
az
aza
azaba
azabar
azabtar
azabtarwa
azad
azahar
azam
azaman
azanci
azare
azeez
azerbaijan
azerbaijani
azhar
azi
azikiwe
azin
aziyya
aziz
aziza
azmi
azonto
aztec
azu
azumah
azumi
azumin
azure
azurfa
azurix
azuzuwan
azzakari
azzara
aƙalla
b
ba
baah
baahubali
bab
baba
babagana
babajide
babalakin
babalola
baban
babangida
babatunde
babba
babban
babbar
babcock
babel
babes
babi
babies
babila
babin
babu
babur
babura
baby
bacci
bace
bacewa
bacewar
bach
bachata
bachchan
bachelor
baci
bacin
back
background
bacon
bad
bada
badagry
badakalar
badal
badamasi
badar
badawi
badawiyya
bade
baden
badminton
badr
bafana
bafarawa
baffour
bafta
baftisma
bafulatani
bagadaza
bagaja
bagauda
bagbin
baggara
baghdad
baghdadi
bags
bagwai
bah
baha
bahamas
bahar
bahaushe
bahdari
bahia
bahir
baho
bahrain
bai
baiano
baibul
baida
bailey
bainar
baird
bait
baiti
baitul
baitulmali
baiwa
baiwar
baiyana
baiyi
bajamushe
baje
bajinta
bajintar
baka
bakake
bakaken
bakan
bakar
bakare
bakary
bakassi
baker
baki
bakin
bakinsa
bakinsu
bako
bakon
bakori
bakr
bakri
baku
bakuncin
bakwai
bal
bala
balad
balaga
balagagge
balaguro
balaguron
balarabe
balde
baldwin
bale
balewa
bali
balkan
balkans
ball
ballantana
balle
ballet
ballewa
ballmer
ballon
balogun
baltic
baltimore
bam
bama
bamai
bamako
bamalli
bamba
bamban
bambance
bambancen
bambanci
bambancin
bambanta
bambara
bambaro
bamberg
bamboo
bamgbose
bami
bamu
ban
bana
banana
banbance
banbanci
banbancin
banbanta
band
banda
bande
bandura
bandwidth
bane
bang
banga
bangalore
bangaranci
bangare
bangaren
bangarori
bangarorin
bangaskiya
bangaskiyar
bangkok
bangladesh
bango
bangon
bangor
bangoura
bangui
bangura
bani
banjul
bank
banki
bankin
banking
bankole
banks
banku
bankuna
bankunan
bankwana
banky
banner
bannerman
banque
bantu
banu
banza
banƙyama
baobab
baptist
baptiste
baqi
bar
bara
barack
baraka
barakat
baranda
barasa
barau
barayi
barayin
barazana
barazanar
barbados
barbara
barbashi
barber
barbours
barbushe
barc
barcelona
barci
barclays
barda
barde
bare
barebari
barewa
bargo
bari
bariba
bariki
barikin
barin
barista
barka
barke
barker
barkewar
barkindo
barkono
barkwanci
barkwancin
barna
barnabas
barnar
barnes
barnett
barno
barns
barnsley
baro
baroka
baron
baroness
baroque
barr
barra
barre
barrett
barrister
barron
barrow
barry
bartels
barth
bartholomew
barton
baru
bas
basa
basal
basalt
basarake
basaraken
basasa
basasar
base
baseball
based
basel
bashar
bashi
bashin
bashir
bashorun
basic
basil
basilica
basin
basira
basirar
basis
basket
basketball
basmah
basmala
basque
basra
bass
bassa
bassey
bastia
basu
basussuka
basussukan
bat
bata
bataliya
bataliyar
batanci
batare
batattu
bath
batir
batirin
batista
batlle
batman
batsa
battle
battleford
batu
batun
batura
bature
baturi
baturke
batutuwa
batutuwan
bauchi
bauna
bauta
bautan
bautar
bautawa
bauxite
bavaria
bawa
bawai
bawan
bawansa
bawdy
bawo
bawon
bawul
bay
baya
bayahude
bayajidda
bayan
bayanai
bayanan
bayanansa
bayani
bayanin
bayansa
bayansu
bayanta
bayar
bayarwa
bayelsa
bayer
bayern
bayero
bayi
bayin
bayinsa
bayo
bayreuth
bays
bayt
bayyana
bayyananne
bayyanannen
bayyananniyar
bayyanannun
bayyanar
bayyanarsa
bayyanawa
bayyane
bayyani
bayyanuwa
baz
baza
bazaar
bazai
bazara
bazarar
bazata
bazawara
bazoum
bazu
bazuwa
bazuwar
baƙar
baƙaƙe
baƙaƙen
baƙi
baƙin
baƙo
baƙon
baƙuncin
bb
bbbank
bbc
bc
bce
bcs
bd
bde
bdfutbol
be
beach
beads
bean
bear
bears
beast
beat
beatrice
beats
beautiful
beauty
beaver
bebaye
bebeji
became
because
becker
beckerlegge
beckham
become
becomes
becoming
becton
bed
bedford
bedoon
bedouin
bee
been
beer
bees
beethoven
before
began
bege
begin
beginning
begins
begum
beguwa
behind
bei
beijing
being
beirut
beit
bekwai
bel
belai
belarus
belenenses
belfast
belfodil
belgian
belgium
belgrade
beliefs
believe
belin
belinda
belize
beljiyam
bell
bella
bellanaija
belle
bello
bells
belmont
belo
belt
ben
benaye
benazir
bench
benci
bend
bendel
bene
benedict
benen
benenson
benfica
beng
bengal
bengali
bengals
bengaluru
benghazi
beni
benin
benjamin
bennacer
bennett
benny
benrahma
benson
bent
benue
benuwai
benuwe
benyu
benz
benzene
ber
bera
beraye
berayen
berber
berekum
berezovsky
berg
bergen
berger
berkeley
berlin
berlinale
bermuda
bern
bernard
bernardo
bernie
bernstein
berom
berry
bertrand
beryl
bes
best
bet
beta
bethune
betis
better
betty
between
beveren
beverly
bewley
bey
beyonce
beyond
bez
bf
bfi
bh
bharti
bhasera
bhd
bhi
bhopal
bhutan
bhutto
bi
bia
biafra
biafran
bibcode
bibi
bibiliyo
bibiyar
bible
bibliography
bichi
bid
bida
bidayuh
biden
bidi
bidiyo
bidiyon
bidiyoyin
biennale
bifouma
big
biggest
bight
bihar
biik
bijirewa
biki
bikin
bikoro
bikpakpaam
bil
bilal
bilbao
biliyaminu
biliyan
biliyoyin
bilkisu
bill
billboard
billion
billiri
bills
billy
bilma
bimbo
bin
binani
binary
bincika
bincikar
bincike
binciken
bincikensa
bincikensu
bincikenta
binciki
binciko
bindiga
bindigar
bindigogi
bindigogin
bindigu
bing
bini
binne
binnewa
bint
binta
binuwai
bio
biochemical
biochemistry
biodiversity
biodun
biographical
biographies
biography
biological
biology
biomass
biopsy
bios
biosphere
bipolar
bir
birai
birane
biranen
birch
bird
birdlife
birds
biredi
birgediya
birgewa
birgima
biri
birim
biris
biritaniya
birki
birmingham
birne
birni
birnin
birninsu
birninta
biro
birtaniya
birtaniyya
birtaniyyawa
birth
birthday
bisa
bisani
bisexual
bishara
bisharar
bishiya
bishiyar
bishiyoyi
bishiyoyin
bishiyu
bishop
bishops
bisi
bismillah
bisola
bissau
bissouma
bit
bita
bitamin
bitar
bitcoin
bitrus
bitter
biu
biwater
biya
biyafara
biyan
biyansu
biyar
biyayya
biye
biyo
biyu
biyun
biz
biza
bj
bk
bl
black
blackadder
blackburn
blackpool
blackwell
blair
blaise
blake
blay
blench
blessing
block
blog
blogger
blogs
blogspot
blood
bloom
bloomberg
bloomington
bloomsbury
blossom
bls
blue
blueprint
blues
bmj
bn
bnf
bnp
bo
boa
boac
boafo
boahen
boakye
board
boateng
boavista
bob
bobboyi
bobby
bobo
boca
bochum
bod
bode
boden
bodies
body
boeing
boggo
bogi
bogota
bohdan
boi
boiro
bokar
bokki
boko
bol
bola
bolaji
bolanle
bold
bole
bolgatanga
boli
bolivia
bollywood
bologna
bolt
bolton
bom
boma
bomb
bombay
bombino
bon
bond
bondarchuk
bongo
bonham
boni
boniface
bonn
bonnie
bonny
bono
bonsu
boo
book
booker
books
boot
booth
bordeaux
border
borders
bore
boren
borgu
bori
boris
born
borneo
borno
bornu
boro
borough
bortniansky
borussia
bose
bosnia
bosniya
boss
bosso
boston
bosworth
bot
botanical
botany
both
botola
botswana
bottom
bouba
boubacar
boufal
bougainville
boulaye
boulder
boulevard
boulogne
boumerdassi
boumerde
bounou
bourgeois
bourguiba
bournemouth
boushaki
bovi
bow
bowdich
bowen
bowl
bowling
box
boxing
boxrec
boy
boyd
boydell
boye
boys
boyz
bp
bpt
br
brad
bradford
bradley
bradman
bradshaw
bradt
braga
brahim
brain
braithwaite
bramall
branch
brand
brandon
brandt
brasil
brasileiro
brass
bratislava
bravo
brazil
brazilian
brazzaville
brca
break
breakfast
breaking
breaks
breakthrough
breast
bremen
brenner
brent
brentford
brest
brett
brewer
breweries
brewery
brewster
brexit
brian
brick
bride
bridge
bridges
bridie
brief
brien
brigade
brigadier
briggs
bright
brighton
brigitte
brill
bring
bringing
brisbane
bristol
britain
britannica
british
brno
broad
broadcast
broadcasting
broadway
broken
bromwich
broncos
brong
bronx
bronze
brook
brookfield
brooklyn
brooks
bros
brother
brothers
brought
brown
browne
browns
brt
bruce
brugge
brume
brunei
bruno
brunswick
brussels
bryan
bryant
bryce
brøndby
bs
bsa
bsc
bt
bu
buari
buba
buchan
bucharest
buchi
buck
buckingham
bucures
bud
buda
budaddiyar
budapest
buddah
budden
buddha
buddhist
bude
budewa
budget
budgit
buduma
budurwa
budurwar
budurwarsa
buenos
buff
buffalo
buga
buganda
bugawa
buge
bugi
bugu
bugun
buguwa
buhari
buhu
buhunan
bui
building
built
bujumbura
buk
bukace
bukaci
bukar
bukata
bukatar
bukatu
bukatun
bukatunsu
bukavu
bukhari
buki
bukin
bukkoki
bukky
bukola
bukukuwa
bukukuwan
bulala
bulalar
bulawayo
bulgaria
bulgarian
bull
bullar
bulldogs
bulletin
bullo
bulls
bulo
bulus
bundesliga
bundestag
bundu
bundy
buni
bunkasa
bunkasar
bunkasuwar
bunkure
bunny
bunƙasa
bunƙasar
bura
buraq
buratai
burbushin
burden
bure
bureau
buren
burge
burgewa
buri
burin
burinsa
burinsu
burinta
burji
burke
burkina
burkinabe
burlington
burma
burn
burna
burning
burnley
burns
burodi
burtaniya
burton
burtsatse
burumawa
burundi
burutu
bury
bus
busa
busar
busasshen
busasshiyar
busassun
busby
bush
bushara
bushe
bushewa
bushewar
bushiya
busia
business
businessday
busquets
bussa
busse
but
butler
butre
butterfly
butulci
bututu
bututun
buwa
buya
buyla
buzakha
buƙaci
buƙata
buƙatar
buƙatu
buƙatun
buɗaɗɗen
buɗe
buɗewa
buɗewar
bv
bw
bwf
by
byanyima
bye
byne
byrne
byron
byzantine
c
ca
caa
cabess
cabinet
cable
cabo
cac
caca
cacar
caccaki
cad
cadastral
cadet
cadi
cadmium
caen
caesar
caf
cafe
cafke
cafonline
cage
cagliari
caire
cairo
caje
caji
cajin
cak
cake
cakuda
cakulan
calabar
calabash
calcio
calcium
calcutta
caleb
calgary
california
caliphate
calitro
call
called
calls
calontir
calvin
camara
camargo
cambodia
cambridge
camden
came
camera
cameron
cameroon
cameroun
camfi
camila
camilla
camp
campaign
campbell
campeonato
campesina
campo
campus
can
canada
canadian
canal
canary
canberra
cancanci
cancanta
cancantar
cancer
candace
candidate
candidates
candle
candy
cangas
canja
canjaras
canjawa
canje
canjen
canji
canjin
canker
cannabis
cannes
cannon
canon
canonization
canterbury
canton
cantonese
canyon
canza
canzawa
cap
capacity
cape
capella
capital
capitol
capped
cappella
captain
car
cara
carb
carbohydrates
carbon
carcinogenesis
carcinogens
carcinoma
carcinomas
card
cardiff
cardinal
cardinals
care
career
cares
cargo
caribbean
caritas
carl
carlisle
carlo
carlos
carlton
carmen
carnegie
carnival
carol
carole
carolina
caroline
carpet
carr
carroll
carson
carta
carter
carthage
cartoon
casa
casablanca
casbah
case
casebook
casely
cases
cash
casino
caspian
cass
cast
castile
castillo
casting
castle
castro
cat
catalan
catalonia
category
cathedral
catherine
catholic
cato
caucasus
caucus
causa
cause
caused
causes
cave
cb
cbc
cbe
cbn
cbs
cc
cca
ccc
cccp
ccecc
cct
cctld
cctv
cd
cdc
cdp
cds
ce
cecafa
cece
ceci
cecil
cecilia
cedar
cedaw
cedric
cee
ceesay
celdf
celebrate
celebrated
celebrates
celebrating
celebration
celebrities
celebrity
cell
cello
celsius
celta
celtic
cen
census
cent
center
centers
central
centre
centro
centuries
century
ceo
cep
cercle
ceremony
certain
certificate
certified
cervical
ces
cesr
ceto
ceton
cewa
cewar
cewarsa
ceylon
cf
cfa
cfi
cfr
cfs
cgi
cgs
ch
cha
chad
chadi
chadian
chadic
chai
chair
chairman
challawa
challenge
challenges
chamba
chamber
chamberlain
chambers
champagne
champion
championnat
champions
championship
championships
champs
chan
chance
chancellor
chanchangi
chang
change
changed
changes
changing
channel
channels
channelstv
chapel
chaplin
chapman
chappell
chapter
character
charge
chari
charity
charleroi
charles
charlie
charlotte
charlton
chart
charter
chartered
charts
chase
chastain
chat
che
check
chef
chefs
cheiffou
cheikh
chekan
chelsea
chemical
chemistry
chemotherapy
chen
cheney
cheng
chennai
cherif
chernobyl
cherokee
cherry
chess
chessgames
chester
chevron
chi
chiang
chibok
chicago
chicken
chico
chidi
chidinma
chief
chiefdom
chiefs
chika
chike
chikun
child
childhood
children
chile
chima
chimamanda
chimpanzee
chimpanzees
chin
china
chinda
chinedu
chinese
chinua
chinwe
chinyere
chioma
chip
chirac
chisholm
chivu
chloride
chlorine
cho
chocolate
choice
choir
chopra
choral
chosen
choupo
chowdhury
chre
chris
christ
christchurch
christian
christianity
christians
christie
christina
christine
christmas
christoph
christophe
christopher
christy
chromium
chromosomal
chromosome
chromosomes
chronic
chronicle
chronology
chu
chuba
chuck
chukwu
chukwuemeka
chukwuka
chukwuma
chunda
chung
church
churches
churchill
ci
cia
cibiya
cibiyar
cibiyoyi
cibiyoyin
cid
cif
cigaba
cigaban
cika
cikakke
cikakken
cikakkiyar
cikakkun
cikar
cikas
cikawa
cike
ciki
cikin
cikinsa
cikinsu
cikinta
cim
cimma
cin
cincinnati
cindy
cine
cinema
cinemas
cinematic
cinematographer
cinematography
cinikayya
cinikayyar
ciniki
cinikin
cinya
cinyarsa
cinye
cinyewa
cio
cir
cirani
circle
circus
cire
cirewa
cirewar
ciro
ciroma
cirrhosis
cis
cisse
cit
citad
citadel
citation
cite
cited
cites
citi
cities
citing
citizen
citizens
citizenship
citrus
citta
city
civic
civil
civilization
ciwace
ciwacen
ciwan
ciwo
ciwon
ciyar
ciyarwa
ciyawa
ciyawar
ciyayi
ciye
cizo
cizon
ck
claim
claims
clair
claire
clan
clara
clarence
clarendon
clark
clarke
clash
class
classic
classical
classics
classification
claude
claudia
claudio
clavet
clay
clayton
cle
clean
clear
clement
clemson
cleopatra
clermont
cleveland
clifford
climate
clinic
clinical
clinton
clio
clive
clock
clonal
clone
close
closed
cloud
club
clube
clubs
cm
cms
cn
cnn
co
coach
coal
coalition
coast
coastal
coat
cobb
coca
coci
cocin
cocoa
code
codes
coffee
cohen
cokali
coke
coker
col
cola
colchester
cold
cole
coleman
coli
coliform
colin
coll
collected
collection
collections
collective
college
collegiate
colley
collier
collins
colobus
cologne
colombia
colombo
colonel
colonial
colonialism
colonoscopy
colony
color
colorado
colorectal
coltrane
colts
columbia
columbus
column
com
combat
combined
come
comedian
comedy
comes
comet
comfort
comic
comics
coming
command
commander
commanding
comment
commentary
comments
commerce
commercial
commission
commissioner
committee
committees
commodore
common
commons
commonwealth
commune
communes
communication
communications
communities
community
como
comoe
comoros
companies
companion
companions
company
compaore
comparable
comparative
competition
compilation
complete
completed
complex
composition
comprehensive
computational
computer
computing
con
conakry
concept
conception
concepts
concert
concerto
concise
concord
conde
conditions
conduct
confederacy
confederation
conference
confidential
confirmed
confirms
conflict
confucian
confucianism
confucius
cong
congo
congress
congressional
connecticut
connection
connolly
connor
conomie
conquest
conrad
consequences
conservancy
conservation
conservative
conservatives
conservatory
considered
consolidated
consort
consortium
constantine
constantinople
constituency
constitution
constitutional
construction
consul
consulting
contact
containing
contains
conte
contemporary
content
contest
context
continent
continental
continue
continued
continues
contra
contract
contre
contribution
contributions
control
convent
convention
conversation
conway
cook
cooke
cooking
cool
coomassie
cooper
cooperation
cooperative
coordinates
cop
copa
copenhagen
coppa
copper
copy
coral
cordoba
cordon
core
corey
cornelius
cornell
corner
cornwall
corona
coronavirus
coronaviruses
corp
corporal
corporate
corporation
corps
corpus
corridor
corruption
corte
cosafa
cosha
cossack
cost
costa
cote
coteau
cotonou
cotton
could
coulibaly
council
count
counter
countries
country
county
coup
coupe
cour
course
courses
court
courtney
courts
cov
cove
covenant
coventry
cover
covid
cowboys
cox
coyle
cp
cpc
cpg
cpp
cpr
cpu
cr
crabbe
craig
cranach
cranes
crash
crater
crawford
crawley
crazy
crc
cre
cream
created
creation
creative
credit
creek
creole
crescent
cretaceous
crew
crewe
cri
cricinfo
cricket
cricketarchive
crime
crimea
crimean
crimes
criminal
criminology
cripps
crisis
cristian
cristiano
criterion
critical
critics
croatia
croatian
crocodiles
cropped
crore
crosby
crosfield
cross
crossover
crow
crown
crowned
crowther
croydon
crude
cruk
cruz
cruzan
cruzeiro
cry
crystal
cs
csa
csc
cscs
csi
csir
cska
ct
cu
cuba
cuban
cubic
cudanya
cudjoe
cuku
cultural
culture
cultures
culver
cuneiform
cunkoso
cunkoson
cunningham
cup
cuppy
cure
current
currently
curtis
cusa
custom
customs
cut
cuta
cutar
cutarwa
cutuka
cututtuka
cututtukan
cuɗanya
cv
cwa
cx
cyclax
cycle
cynthia
cypress
cypriot
cyprus
cyril
cyrillic
cyrus
cystic
cytology
cz
czar
czech
czechoslovakia
d
da
daario
dab
daba
dabaibaye
dabam
daban
dabara
dabarar
dabaru
dabarun
dabba
dabbar
dabbobi
dabbobin
dabi
dabino
dabinon
dabo
dabore
dace
dacewa
dacewar
daci
dada
dadadden
dadai
daddare
daddy
dade
dadewa
dadi
dadin
daenerys
daf
dafa
dafaffen
dafi
daftarin
daga
dagaaba
dagaare
daganan
dagbani
dagbon
dage
dagewa
dagomba
dagula
dah
dahiru
dahomey
dai
daida
daidai
daidaikun
daidaita
daidaitacce
daidaitaccen
daidaitattun
daidaitawa
daidaitawar
daidaito
daidaiton
daidaituwa
daidaituwar
daily
dailypost
dailytrust
daina
daisy
daji
dajin
daju
daka
dakar
dakaru
dakarun
dakarunta
dakatar
dakatarwa
dakatarwar
dake
daki
dakika
dakile
dakin
dako
dakon
dakota
dakta
dakuma
dakuna
dakunan
dal
dala
dalar
dalbejiya
dale
dalhatu
daliba
dalibai
daliban
dalibansa
dalibanta
dalibar
dalibi
dalibin
dalilai
dalilan
dalili
dalilin
dalla
dallas
dallol
dalma
daloli
dalot
dalton
dam
dama
damage
damammaki
daman
damar
damascus
damasus
damaturu
damba
dambazau
dambazawa
dambe
damben
dame
damfara
dami
damiba
damijo
damilola
damina
damisa
damon
damu
damun
damuna
damuwa
damuwar
damuwarsu
damuwarta
dan
dana
danbaba
danbatta
dance
dancer
dancing
dandali
dandalin
dandamali
dandamalin
dandana
dandano
dane
danfodiyo
dangana
danganci
dangane
danganta
dangantaka
dangantakar
dangantakarsa
dangantakarta
dangi
dangin
danginsa
danginsu
danginta
dangme
dangote
dani
daniel
daniels
danish
danja
danjuma
dankali
dankalin
dankwa
danladi
danmark
danna
dannatt
danne
danniya
danny
danquah
dans
dansa
danshi
danta
dantata
dante
danyen
daoud
daphne
dapo
dar
dara
daraja
darajar
darajarsa
darajoji
darajojin
darakta
daraktan
daraktar
daraktoci
daraktocin
daramola
darasi
darasin
dare
darego
darekta
darektan
darektocin
daren
darfur
dari
darikar
dariya
dariye
dark
darko
darling
darlington
darmstadt
darren
dartmouth
darul
daruruwan
darussa
darussan
darwin
das
dasa
dash
dashboard
dashen
dashi
daskararru
daskararrun
daskarewa
dasu
dasuka
dasuke
dasuki
daszak
dat
data
database
date
dated
dates
dating
datse
dattawa
dattawan
datti
dattijai
dattijan
dattijo
dattijon
dattin
dau
dauda
daughter
daughters
dauka
daukacin
daukaka
daukan
daukar
daukarsa
daukarsu
dauke
dauki
dauko
daula
daular
daularsa
dauloli
daulolin
daura
daurama
daurawa
daure
dauri
daurin
dausayi
dave
david
davido
davidson
davies
davis
davos
dawa
dawakai
dawakan
dawaki
dawakin
dawla
dawn
dawo
dawood
dawowa
dawowar
dawowarsa
dawson
dawud
dawuda
dawwama
day
daya
dayake
dayan
dayawa
dayo
days
dazuka
dazukan
dazuzzuka
dazuzzukan
daƙile
daƙiƙa
daɗa
daɗaɗɗen
daɗe
daɗewa
daɗi
daɗin
daɗinsa
db
dbe
dc
dcn
dcns
dd
ddd
ddt
de
dead
deadly
deadurl
deal
dean
death
deaths
debate
deborah
debub
debut
deby
dec
decade
decalo
december
decision
declaration
declares
decline
decreasing
decree
dede
dee
deedat
deen
deep
deepwater
deer
def
default
defeat
defence
defender
defenders
defense
definition
deforestation
degree
dei
deji
del
delancey
delaware
dele
delhi
dell
della
delta
dem
demand
dembe
demo
democracy
democrat
democratic
democrats
demokradiyya
demokradiyyar
demokraɗiyya
den
dendi
deng
denis
denise
denkyira
denmark
dennis
denrele
denslow
dental
denver
department
deportivo
deputy
der
derby
derechos
derek
derrick
dervish
des
descalzos
descartes
descent
described
description
desert
design
designed
desire
desmond
despite
destiny
detail
detailed
details
detroit
deutsche
deutschland
deux
developed
developing
development
developments
devgan
devgn
devi
devil
devine
devon
dexter
dey
df
dfb
dfid
dfl
dg
dh
dhabi
dhahabi
dhaka
dharma
dhu
di
dia
diabetes
diaby
diagnostic
diagram
diallo
dialogue
diamita
diamond
diamonds
diana
diane
diaries
diarra
diary
dias
diaspora
diawara
dick
dickson
dictionaries
dictionary
dictionnaire
did
diddigi
diddigin
didier
die
died
diego
dierk
dies
diesel
diet
dietrich
diffa
difference
different
difloma
diflomasiya
diflomasiyya
diflomasiyyar
digest
digirgir
digiri
digirin
digirinsa
digirinta
digital
digo
digraph
dijital
dijon
dike
dikeh
dikko
dil
dillalai
dillalan
dillali
dillalin
dillancin
dima
dimashƙu
dimbin
dimka
dimokaradiyyar
dimokiradiyya
dimokradiyya
dimokraɗiyya
dimokuradiyya
dimokuradiyyar
dimokuraɗiyya
din
dina
dinamo
dinari
dindin
dindindin
dine
dinga
dinka
dinki
dinkin
dinner
dinsa
dinsu
dinta
dio
diocese
diop
diori
dioxide
dioxin
dioxins
diploma
diplomatic
dir
direba
direban
direbobi
direbobin
direct
directed
direction
director
directorate
directors
directory
dirty
disamba
disamban
disambar
disambiguation
disaster
disc
disco
discovery
discrimination
discus
discussion
disease
diseases
disk
diski
disney
dispatch
dissertation
distance
distinguished
distribution
district
districts
ditions
diva
diversity
divided
divine
divisio
division
divisions
dixon
diya
diyar
diyya
diyyar
dizal
dj
dja
djallon
djamena
djazairess
djenepo
djenne
djerma
djibo
djibouti
djurga
dk
dm
dmitry
dmytro
dna
dnipro
dnipropetrovsk
do
doc
docs
doctor
doctorate
doctors
doctrine
document
documentary
documentation
documents
dodanni
dodo
dodon
does
dog
dogara
dogaro
dogayen
dogg
doggy
doggystyle
dogo
dogon
doguwa
doguwar
doha
doherty
doi
doka
dokar
doke
doki
dokin
dokoki
dokokin
dokokinsu
dokokinta
dokpesi
dokta
doku
dole
doll
dollar
dolly
dolphin
dolphins
doma
domain
domboshaba
dome
domestic
domin
domingo
dominic
dominica
dominican
dominion
dominique
domino
don
donald
donaldson
done
donegal
donetsk
dong
donga
donkor
donnelly
donner
dons
door
doors
doping
dora
dorawa
dore
dorewa
dorewar
dorian
doris
dormaa
doro
doron
dorothy
dortmund
dos
doss
dosso
dostum
dosunmu
dot
dots
douala
douard
double
doubles
doucoure
doug
douglas
dove
dover
dovzhenko
down
downhill
download
downtown
doya
doyle
dozin
dp
dq
dr
dra
draft
dragon
drake
dram
drama
dramani
dramatic
draw
drc
dre
dream
dreams
drechsler
dresden
dress
drew
drexler
drinking
drive
driver
droit
droits
drop
drug
drugs
drum
drums
druze
dry
ds
dsc
dss
dstv
du
dua
dual
duba
dubai
duban
dubatan
dubatar
dubawa
dubbai
dubban
dube
dubi
dublin
dubu
dubun
dubunnan
dubura
duchess
duchy
duck
ducks
ductal
dude
due
dufe
duhu
duhun
duiker
duk
duka
dukan
dukansu
dukda
duke
dukiya
dukiyar
dukiyarsa
dukiyoyi
dukiyoyin
dukiyoyinsu
dukkan
dukkanin
dukkannin
dukkansu
dukku
dukufa
dumama
dumamar
dumas
dumbin
dumelo
dumi
dumping
dumu
dunama
dunbar
duncan
dunes
duniya
duniyar
duniyarmu
duniyoyi
duniyoyin
dunkule
dunkulewar
dunkwa
dunne
dunƙule
duo
dupsy
durban
durbar
durbi
durham
during
duro
duru
dusar
dutch
duties
dutse
dutsen
dutsi
dutsin
duwa
duwatsu
duwatsun
dvd
dw
dwa
dwight
dx
dye
dying
dylan
dymock
dynamic
dynamics
dynamo
dynasty
dz
dzanga
dziga
dʒ
e
ea
each
eagle
eagles
earl
early
earth
easley
east
eastenders
eastern
eastgate
easy
eau
eba
ebele
ebenezer
ebere
ebert
ebi
ebira
ebo
eboe
ebola
ebony
ebonyi
ebonylife
ebute
ec
ece
echo
echr
eclogues
eco
ecole
ecological
ecology
economic
economics
economist
economy
ecosystems
ecowas
ecr
ecuador
ed
eddie
eddy
ede
edem
eden
edet
edgar
edge
edina
edinburgh
edit
edita
editan
edited
edith
edition
editions
editoci
editocin
editor
editorial
editors
edmond
edmonton
edmund
edna
edo
edochie
edoid
edri
eds
edu
eduardo
education
educational
educator
edun
edward
edwards
edwin
ee
eea
eec
ef
efcc
efe
effah
effect
effective
effects
effiong
efforts
efik
efl
egala
egba
egbado
egbaland
egbe
egbin
egbuna
egi
ego
egt
eguafo
egusi
egypt
egyptian
eh
ehir
ehrc
ei
eid
eight
ein
eindhoven
einstein
eintracht
ej
ejagham
ejf
ejiofor
ejiro
ejisu
ek
eka
ekambi
eke
eket
ekiti
ekiyor
eko
ekoi
ekoid
ekong
ekpe
ekpene
ekpo
eku
ekweremadu
ekwueme
ekwunife
el
elaine
elanga
elayne
elcinema
eldee
elder
ele
eleanor
elected
election
elections
electoral
electric
electrical
electricity
electronic
electronics
elegushi
elementary
elements
elena
elendu
eletu
eleven
eli
eliakwu
elias
elijah
elimination
elisabeth
elisha
elite
elizabeth
elk
ella
elle
ellen
elles
elliot
elliott
ellis
elmina
eloy
else
elumelu
elvis
em
emai
embassy
emefiele
emeka
emem
emerald
emergency
emerging
emeritus
emerson
emezi
emi
emil
emile
emilia
emilio
emily
eminem
emir
emirate
emirates
emirati
emission
emissions
emma
emmanuel
emmy
emperor
empire
empires
employees
employment
empoli
empowerment
empress
empty
emt
en
enahoro
encomium
encyclopaedia
encyclopedia
encyclopædia
end
endocrin
endocrine
endometrial
endometrioid
endowment
ends
energy
enf
enforce
eng
engagement
engineer
engineering
engineers
england
english
engr
ennals
enough
ensemble
enter
enterprise
enterprises
entertainment
entrance
entre
entrepreneur
entry
enu
enugu
enugwu
environment
environmental
envoy
enwerem
enwonwu
enyeama
enyimba
enzyme
enzymes
eo
ep
epa
epbc
epe
epic
epidemiology
epigenetic
episcopal
episode
episodes
epithelial
epithelium
equal
equality
equator
equatorial
equiano
equity
er
era
ere
eredivisie
erelu
eri
eric
erica
erics
ericsson
erie
erik
erika
erin
eritrea
eritriya
eriya
ernest
ernst
ero
erosion
ers
ertug
es
esa
esan
esanland
esc
esclaves
escravos
ese
esi
eso
espan
espanya
espanyol
espe
especially
espn
essays
essence
essential
essex
essien
est
esta
established
establishment
estados
estate
estates
esteghlal
esther
estonia
estrogen
estuary
esu
eswatini
et
eta
etc
etebo
ethanol
ethel
etheridge
etherington
ethics
ethiopia
ethiopian
ethnic
ethnologue
eti
etim
etisalat
eto
etomi
etsako
etsu
etteh
etudes
etymology
eu
eugene
eupen
eurasia
euro
eurobasket
europa
europarl
europe
european
eurovision
euthanasia
eutrophication
eva
evaluation
evan
evangelical
evans
eve
evelyn
even
evening
event
events
ever
everett
everglades
everton
every
everyday
everything
evian
evidence
evil
evolution
ewa
ewe
ex
example
excel
excellence
exchange
exclusive
executive
exeter
exhibition
exile
exit
exocrine
expansion
experience
experimental
expert
experts
exploitation
exploration
explorer
exploring
expo
exposure
express
expression
expressway
extended
extension
external
extra
exxon
eye
eyes
eyo
ez
eze
ezekwesili
ezenwa
ezra
ezza
eɪ
f
fa
faa
fab
faber
fabian
fabius
fabra
fabrairu
fabrairun
fac
facade
face
facebook
faced
faces
faci
facilities
facility
facin
fact
factbook
factor
factors
factory
facts
faculty
fad
fada
fadace
fadada
fadadawa
fadak
fadakar
fadakarwa
fadama
fadan
fadar
fadarsa
fadawa
fadi
fadin
fado
fadoji
fadowa
faduwa
faduwar
fafaroma
fafata
fafatawa
fafatawar
faffadan
fafutuka
fafutukar
fagage
fagagen
fage
fagen
fagge
fahad
fahd
fahimce
fahimci
fahimi
fahimta
fahimtar
fai
faifai
faifan
failed
fainal
fair
fairy
faisal
faith
fajr
fakaice
fake
fakhr
fakiti
fakitin
fala
falaki
falala
falasdinawa
falasdinu
falasɗinawa
falasɗinu
falcon
falcons
fale
falen
faleti
fali
fall
fallasa
fallatah
fallen
falling
falls
falo
falola
falon
falsafa
falsafar
false
falz
fam
fama
fame
famfo
families
family
famous
fan
fanareti
fanariti
fang
fani
fanko
fanni
fannin
fannoni
fannonin
fans
fansa
fansho
fanta
fantasy
fante
fanti
fantsama
fao
faqih
far
fara
farage
farah
faransa
faransanci
faransawa
faransawan
faranta
farantawa
faranti
farantin
farar
farare
fararen
farashi
farashin
farauta
farautar
farawa
farawar
fareti
faretin
farfado
farfadowa
farfadowar
farfaganda
farfagandar
farfajiya
farfajiyar
farfasa
farfaɗo
farfaɗowa
farfaɗowar
farfesa
farfesan
fargaba
fargabar
fari
farid
farida
farilla
farin
faris
farisa
farisanci
farisawa
farji
farka
farkawa
farkisanci
farko
farkon
farkonsa
farm
farmaki
farmakin
farmers
farms
faro
farouk
faru
faruk
faruwa
faruwar
farwell
fas
fasa
fasaha
fasahar
fasahohi
fasahohin
fasali
fasalin
fasalta
fasalulluka
fascism
fascist
fasfo
fasha
fashe
fashewa
fashewar
fashi
fashin
fashion
fashola
fasinja
fasinjoji
fasinjojin
faskari
faso
fassara
fassarar
fassarori
fassarorin
fast
fasto
fastoci
fastocin
fat
fata
fatakwal
fatali
fatalwa
fatan
fatar
fatara
fatarar
fatattakar
fatattake
fatattaki
fatauci
fataucin
fatawa
fatawar
fate
fateh
faten
fath
father
fathia
fati
fatiha
fatima
fatimah
fatimid
fatma
fatou
fatu
fatun
fatwa
fauna
favipiravir
fawehinmi
fawkes
fawzan
faya
faye
fayemi
fayil
fayiloli
fayilolin
fayyace
faɗa
faɗakar
faɗakarwa
faɗakarwar
faɗar
faɗaɗa
faɗaɗawa
faɗi
faɗin
faɗo
faɗuwa
faɗuwar
fb
fbi
fc
fca
fct
fd
fda
fe
fear
feat
featherweight
feature
featured
features
featuring
feb
febreru
february
fecal
fed
federal
federation
federations
federico
fee
feghouli
fela
felicia
felipe
felix
fellow
fellows
fellowship
felt
female
femi
feminism
feminist
femme
femmes
fenareti
fenariti
fenerbahc
fensir
fenti
fentin
fer
ferdinand
ferencva
ferguson
ferna
fernandez
fernando
ferreira
ferrer
ferry
fesa
feshin
fespaco
fest
festac
festival
festus
fetur
fever
few
fewan
feyenoord
fez
fezzan
ff
fff
ffrf
fg
fgc
fgm
fi
fiba
fiber
fibrosis
fice
ficewa
ficewar
fiction
fida
fidda
fide
fidelity
fidh
field
fields
fiesta
fifa
fifi
fifiko
fifikon
fifita
fifth
fifty
figaro
fight
fighter
fighting
figure
figures
figurine
fih
fihirisar
fiji
fika
fikihu
fikihun
fil
filastik
filato
filaye
filayen
filayensu
file
files
fili
filin
filipino
fille
fillmore
film
filmfare
filmmaker
filmography
films
fils
fim
fin
fina
finafinai
finafinan
finai
final
finally
finals
finan
finance
financial
finansa
finanta
find
finds
fine
finland
finn
finney
finnish
fintiri
fiona
fiorentina
fiqh
fiqhu
fir
firam
firamare
firamari
firaminista
firaministan
firayim
fire
firenze
firgici
firgita
firikwensin
firimiya
firimiyan
firimiyar
firist
firistoci
firistocin
firmware
firs
first
fischer
fish
fisher
fishing
fit
fita
fitaccen
fitacciyar
fitad
fitar
fitarwa
fitattu
fitattun
fitila
fitilar
fitilu
fitilun
fitina
fitinar
fitness
fito
fitowa
fitowar
fitowarta
fitsari
fitzgerald
fitzpatrick
fivb
five
fixant
fiye
fiɗa
fk
fl
flag
flash
flat
fleet
fletcher
flight
fln
flood
floor
flora
florence
florida
flow
flower
floyd
fluoride
flydubai
flying
fm
fmm
fo
focus
foda
foden
fodio
fodiyo
foil
fokker
folake
folashade
folawiyo
folio
folk
follow
following
fom
fon
fonseca
food
foods
foot
football
footballdatabase
footballer
for
foradejogo
forbes
forcados
force
forced
forces
ford
fordham
foreign
forensic
forest
forestry
forests
forever
forgotten
form
formaldehyde
format
formation
former
forms
formula
forson
forster
fort
forte
fortress
fortuna
fortune
forty
forum
forungiyar
forward
foster
fotboll
fotigal
foto
found
foundation
foundations
founder
founding
fountain
four
fourth
fouta
fowler
fox
fr
fra
frafra
framework
franc
franca
france
frances
francesco
francis
francisco
franco
francophonie
frank
frankfurt
frankie
franklin
franko
franz
fraser
fraud
fray
frcn
fre
fred
freddie
frederic
frederick
free
freedom
freedombox
freeman
freetown
freiburg
french
fresh
freshwater
friday
friedman
friedrich
friendly
friends
frier
frimpong
fritz
from
front
frontier
frontline
ft
fu
fuel
fufa
fufu
fuji
fujian
fuka
fukai
fuki
fukushima
fula
fulani
fulanin
fulawa
fulbe
fulham
full
fumble
fumbles
fun
function
fund
fundamental
funds
fungi
funk
funke
funmi
funmilayo
funtua
fur
fura
furanni
furannin
furci
fure
furen
furious
furman
furniss
furodusa
furodusan
furodusoshi
furodusoshin
furofesoshi
furotesta
furotin
furry
fursuna
fursunan
fursunoni
fursunonin
furta
further
furucci
furuci
furucin
fusata
fusatattun
fuseli
fushi
fushin
fusion
fuska
fuskanci
fuskanta
fuskantar
fuskar
fuskarsa
fuskoki
fuskokin
fuso
fustat
futa
futebol
futsal
futuh
future
fx
fyade
fyaden
fyaɗe
g
ga
gab
gaba
gabace
gabaci
gabacin
gaban
gabanin
gabansa
gabansu
gabanta
gabar
gabas
gabashi
gabashin
gabata
gabatar
gabatarwa
gabatarwar
gabatowa
gabaɗaya
gabaɗayan
gabobi
gabobin
gabon
gaborone
gabriel
gaci
gada
gadaje
gadan
gadar
gaddafi
gade
gadi
gadin
gado
gadoji
gadon
gafara
gafarta
gaga
gagara
gagarumar
gagarumin
gaggafa
gaggauta
gaggawa
gaggawar
gahanga
gai
gaidam
gaishe
gaisuwa
gajarta
gaje
gajeran
gajere
gajeren
gajeriyar
gajeru
gajerun
gaji
gajimare
gajiya
gajiyar
gal
gala
galaba
galadima
galadiman
galais
galan
galatasaray
galaxy
galen
galibi
galibin
galibinsu
galihu
gall
gallagher
galleria
gallery
gallica
gam
gama
gamal
gamawa
gamayya
gamayyar
gambaga
gambari
gambia
gambiya
gambo
game
games
gami
gamji
gamma
gamsar
gamsarwa
gamsu
gamsuwa
gamu
gan
gana
ganawa
ganawar
ganda
gandhi
gandu
ganduje
gandun
gane
ganewa
ganewar
gang
ganga
gangami
gangamin
gangan
ganganci
gangar
gangara
gangaren
gangarowa
ganges
gangsta
ganguna
gani
ganima
ganin
ganinsa
ganinta
gano
ganowa
gansu
ganta
ganuwa
ganuwar
ganyaye
ganyayyaki
ganye
ganyen
gao
gaol
gap
garambawul
garanti
garantin
garaya
garba
garci
garcia
gardama
gardamar
garde
garden
gardens
gardner
gare
gareshi
gareth
garfield
garga
gargadi
gargadin
gargajiya
gargajiyance
gargajiyar
gargaɗi
gargaɗin
gari
garin
garine
garinsa
garinsu
garke
garken
garki
garko
garkuwa
garkuwan
garkuwar
garner
garoua
garri
garrison
garry
garu
garun
garuruwa
garuruwan
garuruwansu
gary
garzaya
gas
gasa
gasan
gasar
gasasshen
gashi
gashin
gashua
gashuwa
gasification
gasifier
gaskata
gaske
gaskiya
gaskiyar
gastrointestinal
gat
gata
gatan
gatari
gate
gates
gateway
gauff
gaulle
gauraya
gauraye
gave
gawa
gawar
gawarsa
gawarwaki
gawarwakin
gawatan
gawawwaki
gawawwakin
gawayi
gawayin
gay
gaya
gaye
gayya
gayyace
gayyaci
gayyata
gayyatar
gaza
gazawa
gazawar
gazette
gazetteer
gaɓar
gaɓoɓi
gb
gbagyi
gbajabiamila
gbe
gbedemah
gbenga
gboko
gbr
gc
gcc
gce
gcfr
gcon
gdp
ge
gear
geathers
gee
gefe
gefen
gefuna
gemu
gen
gender
gene
general
generally
generation
generations
genesis
genetic
genetics
geneva
genevieve
genk
genoa
genre
gent
gentile
geo
geoffrey
geographic
geographical
geography
geological
geology
geometric
geometry
geomorphology
geophysical
georg
george
georges
georgescu
georgetown
georgia
georgina
ger
gerald
gerard
germain
german
germany
gero
gerrard
gertrude
geschichte
get
getafe
gets
getty
gfa
gg
gh
gha
ghaddar
ghaith
ghali
ghana
ghanaelections
ghanahomepage
ghanaian
ghanaweb
ghani
ghansah
ghazali
ghazi
ghetto
ghezzal
ghg
ghost
ghrd
ghulam
gi
giant
giants
gibi
gibin
gibraltar
gibson
gicciye
giciye
gida
gidado
gidaje
gidajen
gidajensu
gidan
gidanka
gidansa
gidansu
gidanta
gidauniya
gidauniyar
gideon
gidi
gif
gift
gijimasu
gil
gilashi
gilashin
gilbert
giles
gill
gilla
gillar
gille
gillespie
gimbiya
gimpa
gina
ginawa
gindaya
gindi
gindin
gine
ginen
ginger
gini
ginin
ginshikan
ginshiki
ginshikin
ginshiƙai
ginshiƙan
ginshiƙi
ginshiƙin
ginu
gio
giovanni
girbe
girbi
girbin
girgije
girgiza
girgizar
girka
girkanci
girkawa
girke
girki
girl
girls
girlsan
girma
girmama
girmamawa
girmamawar
girman
girmansa
girmanta
girmi
girona
gis
gishiri
gishirin
giuseppe
give
given
gives
giwa
giwar
giwaye
giwayen
giya
giyar
giza
gizo
gizon
gje
glacial
glaciers
gladys
glamour
gland
glasgow
glass
glen
glenn
glennon
glitz
glo
globacom
global
globalization
globe
gloria
glory
gloucester
gloucestershire
glover
gm
gmt
gnosticism
go
goa
goal
goalkeeper
goals
goalscorers
gobara
gobarar
gobe
gobi
gobir
gobirawa
god
gode
godey
godfrey
godiya
gods
godswill
godwin
goes
goethe
gogaggen
gogayya
goge
gogewa
gogewar
going
goje
gojjam
gokana
gokulam
golan
gold
goldberg
golden
goldie
goldman
golf
golmaal
golo
goma
gombe
gomes
gomez
gomis
gomoa
gona
gonaki
gonakin
gonakinsu
gonar
gonarsa
gone
gong
gongola
gonja
goo
good
goodbye
goodluck
goodman
google
gopal
gor
gora
gordon
gore
goretzka
gorilla
goro
goron
goshi
gospel
gostaresh
got
gothic
gotze
goukouni
gould
gouvernement
gov
governance
governing
government
governmental
governments
governor
governorate
governors
governorship
govt
gowon
goya
goyan
goyi
goyon
gps
gr
gra
grabavoy
grace
grade
graduate
graft
graham
grain
gram
grammar
grammy
gran
granada
grand
grande
grange
granite
grant
graphic
grass
grave
graves
gray
gre
grealish
great
greater
greatest
greco
greece
greek
green
greenberg
greenburgh
greene
greenhouse
greenland
greenpeace
greens
greenville
greenwich
greenwood
greg
gregory
grenada
grenoble
greta
grey
greyball
grid
griffin
griffith
grigoriev
groningen
ground
group
groups
grove
growing
growth
gs
gsc
gsm
gt
gtbank
gu
guan
guangdong
guangzhou
guantanamo
guard
guardian
guardiola
guards
guatemala
guba
gubar
gubara
guber
guccini
guda
gudana
gudanar
gudanarwa
gudanarwar
gudawa
gudu
guduma
gudummawa
gudummawar
gudun
gudunmawa
gudunmawar
guduwa
gue
guedioura
guest
gueye
guez
guga
guguwa
guguwar
guide
guidelines
guides
guild
guillaume
guimara
guindo
guine
guinea
guinean
guingamp
guinness
guitar
guiwa
gujarat
gujarati
guje
gujewa
guji
gulf
gum
guma
gumaka
gumakan
gumel
gumi
gumuz
gun
guna
gunduma
gundumar
gundumomi
gundumomin
gungu
gungun
gunki
gunkin
guntu
guntun
guntuwar
gupta
gur
guraben
guragu
gurare
guraren
gurasa
gurbacewa
gurbacewar
gurbata
gurbataccen
gurbatacciyar
gurbatar
gurbatattun
gurbi
gurbin
gurbinsa
gurbinsu
gurbinta
gurfanar
gurgunta
gurguwar
gurguzu
guri
gurin
gurion
gurneti
guru
gurunsi
gurɓacewar
gurɓata
gurɓatacce
gurɓataccen
gurɓatar
gurɓatattun
gurɓatawa
gusau
gustav
gutenberg
guterres
guthrie
gutsuttsura
guy
guyana
gwabza
gwabzawa
gwada
gwadabe
gwadawa
gwagwarmaya
gwagwarmayar
gwaje
gwajen
gwaji
gwajin
gwal
gwale
gwammace
gwamna
gwamnan
gwamnati
gwamnatin
gwamnatinsa
gwamnatoci
gwamnatocin
gwamnoni
gwamnonin
gwanaye
gwanayen
gwandara
gwandu
gwangwani
gwani
gwanin
gwaninta
gwanjo
gwanjon
gwanki
gwano
gwanon
gwargwado
gwargwadon
gwari
gwarzo
gwarzon
gwarzuwar
gwauruwa
gwiwa
gwiwar
gwiwarsa
gwp
gy
gyada
gyan
gyang
gyara
gyaran
gyarawa
gyare
gyaren
gyaɗa
gymnasium
h
ha
haag
haaland
haaretz
haasan
haba
habaka
habasha
habe
habib
habiba
habibu
habila
habitat
habre
had
hada
hadadden
hadaddiyar
hadaddun
hadaka
hadakar
hadar
hadari
hadarin
hadawa
hadaya
hadayar
haddace
haddad
haddar
haddasa
haddi
haddin
hade
hadebe
hadejia
hadewa
hadewar
hadhramaut
hadi
hadin
hadisai
hadisan
hadisi
hadisin
hadith
hadiya
hadiye
hadiza
hadj
hadji
hadot
hadu
haduwa
haduwar
hafiz
hafsa
hafsan
hafsat
hafsoshi
hafsoshin
haganah
hagia
hagu
hague
hai
haidar
haifa
haifaffen
haifaffiyar
haifaffun
haifar
haifarwa
haife
haifeshi
haifeta
haifi
haifuwa
haifuwan
haifuwar
haihu
haihuwa
haihuwan
haihuwar
haihuwarsa
haihuwarta
haikali
haikalin
haila
haile
hair
hairston
haiti
haja
hajar
hajara
haji
hajiya
hajj
hajjaj
hajji
hajjin
haka
hakan
hakanan
hakane
hakar
hakazalika
hakeem
hakika
hakikanin
hakim
hakimai
hakimi
hakimin
hakin
hakki
hakkin
hakkinsa
hakkinsu
hakkinta
hakkoki
hakkokin
hakkokinsu
hako
hakora
hakori
hakowa
hakuri
hal
halaccin
halaka
halakar
halal
halarci
halarta
halartan
halartar
halatta
halaye
halayen
halayensa
halayensu
halayya
halayyar
hale
half
hali
halicce
halicci
halifa
halifan
halifanci
halifancin
halifax
halilu
halima
halimah
halime
halin
halinsa
halinta
halitta
halittar
halittu
halittun
hall
hallaka
hallara
halle
halliday
halloween
ham
hama
hamad
hamada
hamadar
hamama
hamani
hamas
hamayya
hamayyar
hamayyarsa
hamayyarsu
hamayyarta
hambarar
hamburg
hamburger
hamed
hamence
hamid
hamilton
hamisu
hamlet
hammad
hammam
hammarby
hammer
hammerstein
hammond
hampshire
hampton
hamshakin
hamsin
hamza
hamɓarar
han
hana
hanafiyya
hanan
hanawa
hanbal
hanbali
hanci
hancin
hand
handball
handbook
handle
handley
hands
hane
hangen
hango
hangzhou
hani
hanifa
hanji
hanjin
hankaka
hankali
hankalin
hankalinsa
hankalinsu
hankula
hankulan
hanna
hannah
hannaye
hannayen
hannayensu
hannibal
hannu
hannun
hannunsa
hannunsu
hannunta
hanoi
hans
hansard
hanson
hanta
hanya
hanyan
hanyar
hanyarsa
hanyarsu
hanyarta
hanyoyi
hanyoyin
hanzari
hanzarta
haplogroup
hapoel
happiness
happy
haq
har
harabar
harafi
harafin
haraji
harajin
haram
haramar
haramcin
harami
haramin
haramta
haramtacce
haramtaccen
haramtacciyar
haramtattun
haramtawa
haramun
harar
harare
harari
harb
harba
harbe
harben
harbi
harbin
harbo
harbor
harbour
harcourt
hard
harda
hardware
hardy
hare
haren
hargitsi
hargitsin
harhada
hari
harin
harith
harka
harkan
harkar
harkokin
harlem
harma
harmattan
harmony
harold
haroun
harouna
harper
harriet
harrington
harris
harrison
harrisons
harry
harsasai
harsashi
harsashin
harshe
harshen
harshensu
harsuna
harsunan
hart
haruffa
haruffan
harun
haruna
harvard
harvey
haryana
has
hasa
hasali
hasan
hasara
hasarar
hasashe
hasashen
hashemite
hashim
haska
haskaka
haskakawa
haskawa
haske
hasken
hassan
hastings
hasumiya
hasumiyar
hat
hate
hatenth
hatim
hatimi
hatimin
hatsari
hatsarin
hatsarori
hatsi
hatsin
hatta
hau
haudio
hauhawar
hauka
haura
haure
hauren
hausa
hausaland
hausance
hausawa
hausawan
haush
haushi
haushin
hauwa
hauza
havana
have
haven
havilland
having
havre
hawa
hawai
hawaii
hawainiya
hawan
hawansa
hawaye
hawazin
hawkins
hay
haya
hayaki
hayakin
hayaniya
hayaniyar
hayar
hayat
hayaƙi
hayaƙin
haydar
hayden
haye
hayes
hayford
hayin
hayward
hazaka
hazakar
hazardous
haze
hazel
hazikan
hazm
hazo
hazrat
haƙa
haƙar
haƙarƙari
haƙiƙa
haƙiƙanin
haƙo
haƙora
haƙoran
haƙori
haƙuri
haƙƙi
haƙƙin
haƙƙinsu
haƙƙoƙi
haƙƙoƙin
haɓaka
haɓakar
haɓakawa
haɓe
haɗa
haɗaka
haɗakar
haɗakarwa
haɗari
haɗarin
haɗawa
haɗaɗɗen
haɗaɗɗiyar
haɗaɗɗun
haɗe
haɗewa
haɗewar
haɗi
haɗin
haɗiye
haɗu
haɗuwa
haɗuwar
hb
hbo
hbv
hcards
hcc
hcv
he
head
headies
headley
headlines
headquarters
heads
heald
health
healthcare
heard
hearst
heart
hearts
heat
heath
heather
heaven
heavy
hebe
hebei
hebrew
hebron
hector
hedikwata
hedikwatar
hedkwata
hedkwatar
hedkwatarsa
hedkwatarta
heerenveen
heidelberg
height
heights
heinemann
heinrich
hejaz
hekta
held
helen
helena
helenanci
helenawa
hell
hellenanci
hellenistic
help
helping
helsinki
helwe
hemisphere
henan
henderson
hendrik
henley
henri
henrietta
henry
henshaw
hepatitis
heptathlon
her
herald
herbert
hercules
here
heritage
herlihy
herman
hermann
herna
hero
heroes
herring
hertfordshire
hertha
herve
herzegovina
hesse
hewitt
hey
hg
hi
hidayat
hidden
hidima
hidimar
hidimarsa
hidimarta
hidimomin
hidimtawa
high
higher
highest
highland
highlands
highlife
highway
hijabi
hijaz
hijira
hijirar
hijjah
hijra
hikima
hikimar
hilal
hilary
hilda
hill
hillary
hillel
hills
hilton
him
himachal
himalayan
himalayas
himma
himmatu
himself
hind
hindi
hindu
hip
hippopotamus
hira
hirar
hirarraki
his
hisbah
hisham
hispania
hispanic
hisse
histoire
histone
historia
historian
historic
historical
history
hisyah
hit
hitchcock
hitler
hits
hittiyawa
hiv
hk
hl
hm
hmga
hnd
hnl
hnni
ho
hobyo
hoc
hockey
hoda
hodar
hodder
hoffenheim
hoffman
hogan
hokie
hokies
hokusai
hold
holden
holding
holdings
holds
hole
holiday
holland
hollow
holloway
hollywood
holmes
holocaust
holt
holy
home
homer
homes
homme
homo
homs
hon
honda
honduras
honey
hong
honolulu
honor
honorary
honour
honourable
honours
hons
hood
hookem
hoover
hop
hope
hopkins
hora
horace
horar
horarwa
horas
horaswa
horizon
horizons
hormonal
hormone
hormones
horn
horo
horon
horowitz
horse
horton
hospital
hossein
host
hosts
hot
hotan
hotel
hotels
hoto
hoton
hotonsa
hotonta
hotspur
hotuna
hotunan
houghton
hour
hourihane
hours
house
houses
housing
houston
hove
how
howard
howards
howe
however
howitt
hp
hpv
hq
hr
hrc
hrds
hrf
hrfs
hrh
hrw
hsc
htm
html
htmlhttps
http
https
hu
hub
hubert
huda
huddersfield
hudson
hudu
hudun
huffington
hugh
hughes
hugo
huhu
huhun
hui
hujja
hujjar
hujjoji
hujjojin
hukuma
hukumance
hukumar
hukumcin
hukumomi
hukumomin
hukunce
hukuncen
hukunci
hukuncin
hukunta
hula
hular
hulda
huldar
hull
hulɗa
hulɗar
hum
human
humanan
humanitarian
humanities
humanity
humans
humber
humboldt
humphrey
hunayn
hundred
hungarian
hungariya
hungary
hunt
hunter
hunturu
hur
hura
hurley
hurricane
hurst
hurumin
hurwitz
husain
husaini
husayn
husband
hush
hussain
hussaini
hussein
husson
huston
huta
hutawa
hutton
hutu
hutun
huɗu
hw
hyam
hyde
hyderabad
hydrocarbon
hydrocarbons
hydrogen
hydrology
hygiene
hypoxia
i
ia
iaaf
ian
iata
ib
iba
ibada
ibadan
ibadar
ibara
ibas
ibi
ibibio
ibikunle
iblis
ibm
ibn
ibnu
ibo
ibom
ibra
ibrahim
ibrahima
ibrahimovic
ibrananci
ibru
ic
icao
icc
iccpr
ice
iceland
icelandic
icen
icescr
icj
icon
icrc
icsid
ict
icu
id
ida
idah
idaho
idahosa
idan
idanu
idanun
idar
iddo
iddrisu
idea
ideas
idemili
identity
idf
idi
idia
idibia
idin
ido
idodi
idodin
idodinta
idoji
idojin
idol
idoma
idon
idowu
idris
idriss
idrissa
idu
ie
iebc
ieee
if
ifa
ife
ifeajuna
ifeanyi
ifeka
ifelodun
ifeoma
iffhs
ifk
ifrc
iga
igabi
igala
iganmu
igbanke
igbinedion
igbo
ige
igede
igenan
ighalo
ighodaro
igiya
igiyar
igiyoyi
igiyoyin
ignace
ignatius
igor
igp
igwe
iheanacho
iheme
ihezuo
ihf
ihrda
ihu
ii
iib
iii
ijaw
ije
ijebu
ijede
ijeoma
ijesha
ijigban
ijma
ijo
ijora
ik
ika
ikan
ikara
ike
ikechukwu
ikeja
ikhwan
ikilisiya
ikilisiyar
ikirari
ikirarin
ikklesiya
ikklesiyoyin
ikklisiya
iko
ikon
ikonsa
ikonsu
ikonta
ikorodu
ikosi
ikot
ikoyi
ikpe
ikpeazu
ikrima
ikrimah
iktas
iku
ikun
ikwerre
il
ila
ilari
ilawa
ilc
ile
ilesa
ilesha
ili
iliad
ilimantar
ilimantarwa
ilimi
ilimin
iliminsa
iliminsu
iliya
illa
illar
illegal
illienko
illinois
illolin
illustrated
ilm
ilmantar
ilmantarwa
ilmi
ilmin
ilo
ilorin
ilu
ilya
im
ima
imad
image
images
imam
imamai
iman
imani
imanin
imaninsa
imaninsu
imdb
imel
imf
img
immigration
immunotherapy
imo
imoh
imota
impact
impacts
imperial
imperio
implementation
implications
importance
important
imran
imt
imu
in
ina
inabi
inaugural
inc
inch
inci
include
included
includes
including
incorporated
incorporates
increased
incumbent
inda
independence
independent
index
india
indian
indiana
indianapolis
indicates
indie
indies
indigenous
indigo
individual
individuals
indiya
indiyawa
indiyawan
indo
indochina
indonesia
indonesiya
indoor
induced
indus
industrial
industries
industry
ine
inec
inecnigeria
inequality
infantry
infectious
influence
influential
info
infobox
informatics
information
infrared
infrastructure
ing
inganci
ingancin
inganta
ingantacce
ingantaccen
ingantacciyar
ingantattun
ingantawa
inge
ingila
ingilishi
ingiza
ingolstadt
inheritance
ini
initiative
initiatives
inji
injin
injina
injinan
injiniya
injiniyan
injiniyanci
injiniyoyi
injiniyoyin
injuna
injunan
injury
inland
inn
inna
inner
innings
innocent
innovation
innsbruck
inorganic
inquiry
ins
insa
insakulofidiya
inshora
inshorar
inside
insider
inspector
inspiration
inspired
instagram
institut
institute
institution
institutions
instituto
insu
insulin
insurance
insurer
int
inta
intanet
intanit
inte
integrated
integrity
intel
intellectual
intelligence
inter
interactive
intercontinental
interest
interface
interior
internacional
internal
international
internationalasa
internationalasashen
internationale
internazionale
internet
interpol
interpretation
interstate
interview
interviews
into
introduction
inuwa
inuwar
inventory
investigation
investment
investments
investors
inyamurai
io
ioc
iom
ion
ionizing
ions
ios
iowa
ip
ipa
ipc
ipcc
ipo
ipswich
ipv
iqbal
ir
ira
iraki
iran
iranian
iraq
iraqi
irar
iraƙi
irct
ire
ireland
iren
irene
irepodun
ireti
iri
irin
irinsa
irinsu
irinta
iris
irish
iro
irokotv
iron
ironsi
irori
irro
irs
irving
is
isa
isaac
isabel
isabella
isah
isaiah
isar
isarwa
isasshen
isasshiyar
isassun
isbn
isfahan
isha
ishah
ishak
ishaku
ishaq
ishara
ishaya
ishaƙu
ishe
ishola
ishr
isi
isiaka
isichei
isil
isis
iska
iskan
iskar
isl
isla
islam
islama
islamabad
islamic
islamiyya
islamqa
island
islander
islands
isle
isma
ismail
ismaila
iso
isoko
isolo
isong
isowa
isowar
isowarsa
ispaniya
isra
israel
israeli
isrogen
iss
issa
issn
issoufou
issue
issues
istanbul
isu
isyaku
it
ita
itace
itacen
italia
italian
italiana
italic
italiya
italiyanci
italy
itama
itatuwa
itatuwan
item
itemid
ithaca
ito
its
itsan
itsekiri
ittihad
itu
itunes
itv
iu
iucn
iv
iva
ivan
ivm
ivoire
ivory
ivy
iwa
iwan
iweala
iwo
iwobi
ix
iya
iyabo
iyaka
iyakacin
iyakan
iyakance
iyakancewa
iyakancewar
iyakantaccen
iyakantattun
iyakar
iyakarta
iyakataccen
iyakoki
iyakokin
iyakokinta
iyalai
iyalan
iyalansa
iyalansu
iyali
iyalin
iyalinsa
iyalinta
iyalode
iyanya
iyar
iyawa
iyawar
iyawarsa
iyaye
iyayen
iyayengiji
iyayensa
iyayensu
iyayenta
iyke
iyo
iyya
iyyar
iyyarsa
iyyarta
iyyu
iyyun
iza
izala
izar
izarsa
izgili
izini
izinin
izon
izuwa
izz
iƙirari
iƙirarin
j
ja
jaba
jabal
jabir
jabun
jack
jackichand
jackie
jackou
jackson
jacksonville
jacob
jacobs
jacqueline
jacques
jadawali
jadawalin
jaddada
jafananci
jafar
jaffa
jagora
jagoran
jagorance
jagoranci
jagorancin
jagorancinsa
jagoranta
jagorantar
jagorar
jagorori
jagororin
jaguar
jaguars
jah
jaha
jahannama
jahar
jahilci
jahiliyya
jahl
jahohi
jahohin
jahsh
jai
jaja
jajayen
jaji
jajibirin
jajircewa
jaka
jakada
jakadan
jakadanci
jakadancin
jakadiya
jakadiyar
jakadun
jakande
jakar
jakarta
jake
jaki
jakuna
jakunkuna
jalade
jalal
jalingo
jallon
jallow
jam
jama
jamaa
jamaica
jamal
jaman
jamb
james
jamestown
jamhuriya
jamhuriyar
jamhuriyya
jamhuriyyar
jami
jamia
jamiar
jamie
jamila
jamiyar
jamiyyar
jammeh
jammu
jamus
jamusanci
jamusawa
jan
jana
janairu
janairun
janar
janareta
jane
janeiro
janet
jang
jannati
january
janye
janyewa
janyewar
janyo
japan
japanese
jar
jaraba
jarabawa
jarabawar
jarawa
jari
jarida
jaridan
jaridar
jaridu
jaridun
jarin
jarinsa
jarir
jarirai
jariran
jariri
jaririn
jarrabawa
jarrabawar
jaruma
jarumai
jaruman
jarumar
jarumi
jarumin
jarumtaka
jaruntaka
jarvis
jason
jatau
java
javanese
javier
jawabai
jawabi
jawabin
jawabinsa
jawabinta
jawad
jawo
jawziyya
jaxa
jay
jaya
jayayya
jayhawks
jazeera
jazira
jazz
jazzy
jb
jc
jd
jdeydeh
je
jean
jeanvier
jebsen
jeddah
jefa
jefar
jeff
jefferson
jeffrey
jega
jegede
jego
jeji
jem
jema
jemage
jemagu
jen
jenifa
jenkins
jennifer
jenny
jera
jere
jeremiah
jeremy
jeren
jeri
jerin
jerome
jerry
jersey
jerusalem
jesse
jessica
jessie
jesuit
jesus
jet
jets
jeune
jewel
jewish
jews
jharkhand
jhr
ji
jiang
jibge
jibril
jibrin
jibuti
jide
jie
jifa
jifan
jiga
jigan
jigawa
jigilar
jigo
jigogi
jigogin
jigon
jiha
jihad
jihadi
jihadin
jihar
jiharsa
jihohi
jihohin
jihohinsu
jijiya
jijiyar
jijiyoyi
jijiyoyin
jika
jikan
jikansa
jiki
jikin
jikinsa
jikinsu
jikinta
jikkata
jikoki
jikokin
jikunan
jill
jim
jima
jimawa
jimi
jimilar
jimilla
jimillar
jimina
jimla
jimlar
jimmy
jimoh
jimre
jin
jindadin
jingina
jinginar
jini
jinin
jinjina
jinkiri
jinkirin
jinkirta
jinnah
jinsi
jinsin
jinsuna
jinsunan
jinya
jinyar
jinƙai
jira
jirage
jiragen
jiran
jirgi
jirgin
jita
jitar
jituwa
jiya
jiyya
jj
jk
jm
jo
joa
joachim
joan
joanne
job
jobawa
jockey
joe
joel
joey
jogirafiyar
johan
johann
johannes
johannesburg
john
johnny
johns
johnson
johnston
johor
joi
join
joined
joins
joint
jojin
jojiya
joke
jolie
jollof
jolly
jolof
jombo
jon
jonah
jonathan
jones
jong
jordan
jorge
jos
jose
josef
joseph
josephine
josh
joshi
joshua
josiah
jota
journal
journalism
journalist
journalists
journals
journey
joy
joyce
jp
jpeg
jpg
jr
jradi
js
jstor
ju
juaben
juan
juba
jubilee
jude
judge
judges
judicial
judith
judo
judoka
judy
juice
juin
juji
jujjuya
jujjuyawa
jujjuyawar
juju
jukun
jul
jules
juli
julia
julian
juliana
julie
juliet
julius
july
juma
jumare
jumla
jumlar
jumma
jumoke
jump
jumulla
jun
juna
junairu
junansu
junction
june
jung
jungle
junior
jupiter
jure
jurewa
juri
jurisprudence
juriya
juriyar
jury
jus
just
justice
justin
juventus
juya
juyar
juyawa
juyayi
juye
juyi
juyin
juzu
k
ka
kaaba
kaabi
kaabu
kaba
kabara
kabari
kabarin
kabarinsa
kabba
kabeji
kabewa
kabila
kabilanci
kabilar
kabilu
kabilun
kabir
kabiru
kabo
kabore
kabul
kaburbura
kaburburan
kabylia
kabylie
kaca
kacal
kace
kachalla
kachia
kacici
kaciya
kaciyar
kada
kadada
kadai
kadaici
kadan
kadara
kadarori
kadarorin
kadarorinsa
kadawa
kaddamar
kaddara
kaddarorin
kade
kadewere
kadiri
kaduna
kae
kafa
kafada
kafafen
kafaffen
kafafu
kafan
kafanchan
kafando
kafar
kafarsa
kafata
kafawa
kafi
kafin
kafinta
kafirai
kafka
kafofin
kaftin
kafu
kafuwa
kafuwar
kafuwarta
kaga
kagame
kagara
kagera
kagga
kagoro
kaho
kahon
kai
kaiama
kaifi
kaifin
kaikaice
kaimi
kaina
kainji
kairouan
kaiser
kaita
kaiwa
kaizer
kaji
kajol
kajuru
kaka
kakakin
kakan
kakanfo
kakanni
kakannin
kakanninmu
kakanninsa
kakanninsu
kakansa
kakanta
kakar
kakarsa
kakarta
kake
kakkausar
kala
kalaba
kalabari
kalahari
kalam
kalamai
kalaman
kalan
kalanda
kalandar
kalanga
kalangu
kalanick
kalar
kali
kalifa
kalifancin
kalifoniya
kalilan
kalla
kalli
kallo
kallon
kallonsa
kallonta
kalma
kalman
kalmar
kalmomi
kalmomin
kalu
kalubalanci
kalubalantar
kalubale
kalubalen
kam
kama
kamal
kamala
kaman
kamanceceniya
kamanni
kamannin
kamanninsa
kamanta
kamar
kamara
kamari
kamarsu
kamaru
kamata
kamawa
kambi
kambin
kambodiya
kambun
kame
kamel
kameru
kamerun
kamewa
kamfani
kamfanin
kamfaninsa
kamfanoni
kamfanonin
kamfas
kamfe
kamfen
kamil
kammala
kammalawa
kamo
kamoze
kampala
kamshi
kamu
kamuku
kamun
kamus
kamuwa
kamwe
kan
kana
kanada
kanal
kanam
kanana
kananan
kananun
kanar
kanayo
kandahar
kandami
kane
kanem
kanembu
kanemi
kang
kanga
kango
kangwa
kani
kanin
kaninsa
kanjamau
kanka
kankana
kankanin
kankara
kankare
kanku
kanmu
kannada
kanne
kannywood
kano
kansa
kansar
kansas
kanshi
kansila
kansilan
kansiloli
kansilolin
kansu
kant
kanta
kante
kanti
kantin
kantuna
kantunan
kanu
kanun
kanurai
kanuri
kanwa
kanwar
kanya
kanyi
kaolin
kapoor
kappa
kar
kara
karachi
karafa
karagar
karai
karama
karamar
karamci
karami
karamin
karamokho
karamoko
karan
karance
karanci
karancin
karanta
karantar
karantarwa
karantarwar
karantawa
karar
karara
kararraki
kararrakin
kararrawa
karas
karasa
karate
karatu
karatun
karatunsa
karatunsu
karatunta
karatuttukan
karawa
karawar
karawarsa
karaya
karaye
karba
karbala
karban
karbar
karbe
karbi
karbo
karbuwa
kare
karen
karewa
karewar
karfafa
karfafawa
karfe
karfi
karfin
karfinsa
kari
kariba
karibiyan
karim
karimci
karin
kariya
kariyan
kariyar
karkace
karkacewar
karkanda
karkara
karkarar
karkashin
karkashinsa
karkashinta
karkata
karkatar
karko
karl
karlovy
karma
karmapa
karnataka
karni
karnin
karnuka
karo
karofi
karon
karrama
karramawa
karramawar
karshe
karshen
karthala
karu
karuk
karuwa
karuwai
karuwanci
karuwar
karya
karyata
karye
karyewa
karyewar
karzai
karɓa
karɓar
karɓe
karɓi
karɓuwa
kasa
kasada
kasadar
kasafai
kasafi
kasafin
kasafta
kasai
kasan
kasance
kasancewa
kasancewar
kasancewarsa
kasancewarsu
kasancewarta
kasantuwar
kasar
kasarmu
kasarsa
kasarsu
kasarta
kasashe
kasashen
kasashensu
kasawa
kaset
kashe
kashegari
kashen
kashewa
kashi
kashim
kashin
kashmir
kashmiri
kashmiris
kasida
kasidu
kasim
kasko
kaso
kason
kassena
kasu
kasusuwa
kasusuwan
kasuwa
kasuwan
kasuwanci
kasuwancin
kasuwancinsa
kasuwancinsu
kasuwancinta
kasuwanni
kasuwannin
kasuwar
kasımpas
kat
kataf
katafaren
katagum
katako
katakon
katamanso
katanga
katangar
katange
katantanwa
kate
katepwa
katherine
kathir
kathleen
kati
katie
katin
katolika
katon
katsalandan
katse
katsewa
katsina
katunan
katuwar
kau
kauce
kaucewa
kaufman
kauna
kaunar
kaura
kaurace
kauracewa
kauri
kaurin
kaushi
kauye
kauyen
kauyuka
kauyukan
kawa
kawai
kawance
kawancen
kawanya
kawar
kawarta
kawata
kawayenta
kawo
kawowa
kawowo
kawu
kawun
kawuna
kawunan
kawunansu
kawunsa
kay
kaya
kayan
kayansu
kayanta
kayar
kayatarwa
kayayyaki
kayayyakin
kaye
kayembe
kayen
kayes
kayi
kayo
kayode
kayyade
kaza
kazakhstan
kazalika
kazamin
kazan
kazanta
kazaure
kazim
kazka
kaɗa
kaɗai
kaɗan
kaɗe
kb
kcca
ke
kebbi
kebe
kebul
keda
kedar
keele
keeler
keep
keffi
kehinde
kei
keita
keith
kek
keke
keken
kekuna
kekunan
kel
kelambakkam
kelani
kelantan
kelechi
keller
kelly
kemi
ken
kenadid
kenan
kenkey
kennedy
kenneth
kenny
kensington
kent
kente
kentucky
kenya
kenyatta
kepler
kera
kerala
kerawa
kere
kerr
kerry
kes
keshi
keta
ketabe
ketare
ketu
kevin
kewaya
kewayawa
kewaye
kewayen
kewayenta
kewayon
key
keyboard
keyi
keynes
keys
keystone
keɓance
keɓancewa
keɓancewar
keɓanta
keɓantacce
keɓantaccen
keɓantawa
keɓaɓɓe
keɓaɓɓen
keɓaɓɓiyar
keɓaɓɓu
keɓaɓɓun
keɓe
keɓewa
keɓewar
kg
kha
khachna
khadija
khadijah
khair
khaldu
khaldun
khaled
khalfallah
khalid
khalifa
khalifanci
khalifancin
khalifofi
khalifofin
khalil
khamene
khamis
khan
khanna
khans
kharkiv
khartoum
khatijah
khattab
khaybar
khazim
khomeini
khonshu
khorasan
khumaini
khurasan
khuzestan
khyber
ki
kiba
kibera
kibi
kibiya
kibiyoyi
kicin
kick
kicker
kickoff
kicks
kid
kida
kidan
kidaya
kidayar
kide
kididdiga
kididdigar
kids
kiev
kievan
kifar
kifaye
kifayen
kifi
kifin
kigali
kiki
kila
kill
killace
killed
killer
killing
kills
kilo
kilogiram
kilogram
kilomita
kim
kima
kimani
kimanin
kimanta
kimantawa
kimantawar
kimar
kimiya
kimiyar
kimiyya
kimiyyan
kimiyyar
kin
kindergarten
kindersley
king
kingdom
kingdomasar
kingdoms
kingibe
kings
kingsley
kingston
kino
kinshasa
kintampo
kio
kira
kiran
kiransa
kiranshi
kiransu
kiranta
kirar
kirari
kiraye
kirayen
kirdi
kiredit
kirga
kiri
kirista
kiristan
kiristanci
kiristi
kiristoci
kiristocin
kirji
kirk
kirki
kirkira
kirkirar
kirkire
kirkireshi
kirkiri
kirkiro
kirsimeti
kirtani
kiru
kisa
kisan
kishi
kishin
kishiya
kishiyar
kiss
kisumu
kit
kita
kitab
kitchen
kitse
kitsen
kitso
kivu
kiwan
kiwo
kiwon
kiyama
kiyashi
kiyashin
kiyasi
kiyasin
kiyasta
kiyaye
kiyayewa
kiyayya
kizomba
kiɗa
kiɗan
kiɗe
klaus
klein
kleinewillingho
klm
klub
km
knapp
knesset
knight
knights
knockout
know
knowledge
knowles
known
knox
knust
knvb
ko
kobi
kobina
kobza
kochi
koci
kocin
kociyan
koda
kodago
kodayake
kodinetan
koeman
kofa
kofar
koffi
kofi
kofin
kofofi
kofofin
koforidua
kofuna
kofunan
kofur
kogi
kogin
kogo
kogon
koguna
kogunan
kojo
kok
koka
kokari
kokarin
kokarinsa
kokarinsu
kokarinta
kokawa
kokawar
koke
koken
koko
kola
kolawole
koleji
koli
kolin
kolkata
kololuwa
kololuwar
kolombiya
koma
komai
komawa
komawar
komawarsa
kome
komenda
komo
komputa
kona
konadu
konawa
kone
konewa
konewar
kong
kongo
konkomba
konni
kontagora
koo
kora
korafe
korafen
korafi
korafin
korama
koramu
korar
korau
kore
korea
korean
koren
kori
koriya
korle
koro
korona
korsah
korup
koshin
kosoko
kosovo
kota
kotoko
kotu
kotun
kotuna
kotunan
kou
kouara
kouka
koulikoro
kountche
kouyate
kowa
kowacce
kowace
kowane
kowanne
kowannensu
koya
koyan
koyar
koyarwa
koyarwar
koyarwarsa
koyaswar
koyaushe
koyawa
koyaya
koyi
koyo
koyon
kp
kpmg
kramer
krasnodar
krefeld
kretschmann
krige
krishna
krista
kristi
kristin
kroatiya
krobo
krulak
kt
ku
kuala
kuba
kuban
kubba
kubi
kubra
kubuta
kubutar
kuce
kud
kudade
kudaden
kudan
kudanci
kudancin
kudi
kudin
kudiri
kudirin
kudu
kuduri
kudurin
kudurori
kudus
kufa
kufour
kufuor
kujera
kujerar
kujerarsa
kujerarta
kujeru
kujerun
kuka
kukan
kukawa
kuke
kula
kulab
kulake
kulawa
kulawar
kuli
kuliya
kuliyoyi
kulla
kulle
kullen
kullewa
kullu
kullum
kullun
kulob
kulthum
kulture
kulub
kum
kuma
kumallo
kumar
kumasi
kumba
kumbura
kumburi
kumburin
kumfa
kumi
kun
kuna
kunama
kunar
kunci
kundaye
kundi
kundin
kungiya
kungiyar
kungiyarsa
kungiyarta
kungiyoyi
kungiyoyin
kunkuntar
kunkuru
kunle
kunna
kunnawa
kunne
kunnen
kunno
kunnukara
kunnuwa
kunqu
kunsa
kunshe
kunshi
kunshin
kunun
kunya
kunyar
kunzei
kur
kura
kurai
kuraishawa
kurakurai
kurakuran
kurame
kurciya
kurdawa
kurdistan
kure
kuri
kurket
kurkuku
kurkukun
kurma
kurmi
kuros
kursiyin
kurt
kuru
kuruciya
kuruciyarsa
kuruniyan
kururuwa
kusa
kusan
kusanci
kusancin
kusantar
kush
kuskure
kuskuren
kusurwa
kusurwar
kusurwoyi
kut
kuta
kuteb
kuti
kutigi
kutsa
kutsawa
kutse
kutub
kutumbi
kuwa
kuwait
kuwaiti
kuyanga
kuyi
kuzari
kuzarin
kuɗaɗe
kuɗaɗen
kuɗi
kuɗin
kv
kw
kwa
kwabena
kwabo
kwace
kwadago
kwadagon
kwadwo
kwafa
kwafi
kwafin
kwahu
kwai
kwaikwayi
kwaikwayo
kwaikwayon
kwaikwayonsa
kwaku
kwakwa
kwakwalwa
kwakwalwan
kwakwalwar
kwal
kwalabe
kwalaben
kwalara
kwalba
kwale
kwaleji
kwalejin
kwalejoji
kwalejojin
kwalen
kwali
kwallan
kwallaye
kwallayen
kwallayensa
kwalliya
kwalliyar
kwallo
kwallon
kwallonsa
kwalta
kwamanda
kwamandan
kwamandoji
kwamandojin
kwame
kwamfuta
kwamfutar
kwamfutoci
kwamfutocin
kwaminis
kwaminisanci
kwamishina
kwamishinan
kwamishinar
kwamishiniyar
kwamishinoni
kwamishinonin
kwamiti
kwamitin
kwamitoci
kwamitocin
kwan
kwana
kwanaki
kwanakin
kwanan
kwance
kwanciya
kwanciyar
kwando
kwandon
kwane
kwangila
kwangilar
kwangilarsa
kwangiloli
kwangilolin
kwango
kwankwaso
kwano
kwanon
kwanta
kwantar
kwantena
kwantiragi
kwantiragin
kwantiraginsa
kwanton
kwanturola
kwanyar
kwara
kwarai
kwarangwal
kwarara
kwararafa
kwararan
kwararar
kwararowar
kwararre
kwararren
kwararriya
kwararriyar
kwararru
kwararrun
kware
kwarewa
kwarewar
kwarewarsa
kwari
kwarin
kwarjini
kwaro
kwaruruka
kwarya
kwaryar
kwas
kwasa
kwasai
kwasan
kwashe
kwasi
kwaskwarima
kwaskwarimar
kwastam
kwastan
kwastomomi
kwata
kwatance
kwatancen
kwatanci
kwatancin
kwatankwacin
kwatanta
kwato
kwatsam
kwaya
kwayar
kwayoyi
kwayoyin
kwazazzabo
kwazo
kwazon
kwazonsa
kwazulu
kweku
kwesi
ky
kyaftin
kyakkyawa
kyakkyawan
kyakkyawar
kyale
kyallen
kyama
kyamar
kyamara
kyamarar
kyamarori
kyan
kyanda
kyar
kyari
kyau
kyaun
kyauta
kyautar
kyautata
kyautatawa
kyautuka
kyaututtuka
kyaututtukan
kyawawa
kyawawan
kyawu
kyawun
kyiv
kyle
kyoto
kyrgyzstan
kz
l
la
lab
laban
labanon
labarai
labaran
labari
labarin
labarinsa
labarinta
labaru
labarun
labastille
labe
label
laberiya
labor
laboratory
labour
labs
laburare
laburaren
labyad
lac
lacca
laccar
laccoci
lacey
lada
ladabi
ladabtar
ladabtarwa
ladan
laden
ladi
ladies
ladipo
lado
ladoja
ladol
lady
lafazi
lafazin
lafia
lafiya
lafiyan
lafiyar
lafiyarsa
lafiyarsu
lafiyarta
lafiyayyen
laftana
laftanar
lager
lagoon
lagoons
lagos
laguna
lahab
lahadi
lahani
lahira
lahore
lai
laifi
laifin
laifinsa
laifuffuka
laifuffukan
laifuka
laifukan
laila
laima
laka
lakabi
lakabin
lakafta
lake
lakes
lakhdar
lal
lala
lalace
lalacewa
lalacewar
lalata
lalatar
lalibela
laliga
lallai
lallasa
lallashe
lalle
lalong
lam
lama
lamari
lamarin
lamba
lamban
lambar
lambda
lambert
lambo
lambobi
lambobin
lambu
lambun
lambuna
lambunan
lami
lamidi
lamido
lamine
lamiri
lamirin
lamorde
lamp
lamptey
lamu
lamuni
lamunin
lamura
lamuran
lancashire
lancaster
lance
lancet
land
landan
landau
landfill
landing
lands
landscape
lane
lang
lange
langer
langtang
language
languages
lanka
lankwasa
lanre
lantarki
lantarkin
lanƙwasa
laos
lapai
lar
lara
laraba
larabawa
larabawan
larabci
larabcin
lardi
lardin
larduna
lardunan
large
largest
larr
larry
larura
larurar
las
lasafta
laser
lashe
lasisi
lasisin
laspo
lassa
last
lat
late
lateef
later
latest
latin
latinanci
latino
latinos
latitude
latrun
latsa
latsawa
latvia
lau
lauderdale
launch
launched
launches
launi
launin
launuka
laura
laurel
lauren
laurence
laurent
laurie
lausanne
laushi
lauya
lauyan
lauyoyi
lauyoyin
lava
laval
law
lawa
lawal
lawan
lawma
lawn
lawrence
laws
lawson
lawyer
lawyers
lay
laya
layer
layi
layin
layiwola
layuka
layukan
layya
lazio
laƙabi
laƙabin
lb
lber
lbs
lcda
le
lea
leaching
lead
leader
leaders
leadership
leading
leads
leaf
league
leap
lear
learn
learning
least
leave
leaves
leaving
lebanon
lebe
lebur
leburori
lecture
lectures
led
leda
lee
leeds
left
legacies
legacy
legal
legane
legas
legend
legendary
legends
legion
legislation
legislative
legit
legon
lehmann
lei
leicester
leiden
leigh
leila
leipzig
leken
lekki
leko
lekwot
lemo
lemon
lemu
lemun
len
lengai
lenin
lenore
lens
leo
leon
leonard
leonardo
leone
leonid
leontovych
leopold
lere
les
lesbian
lesley
leslie
lesotho
less
lessing
lessons
let
letter
letters
leurs
leuven
lev
levant
levante
level
levels
leverkusen
levy
lewis
lex
lexicon
ley
leymaniye
leƙen
lfp
lg
lga
lgbt
lgbtq
lgbtqia
li
lia
lib
liberal
liberation
liberia
liberiya
libertarian
liberty
libiya
libraries
library
libreville
libya
licence
lie
liechtenstein
liege
lierse
lies
lieu
lieutenant
lieux
lif
life
lifestyle
lifetime
lig
liga
light
lightning
ligue
like
likely
likita
likitan
likitanci
likitancin
likitoci
likitocin
lil
lilian
lille
lillehammer
lilongwe
lily
lima
limamai
limaman
limami
limamin
liman
limann
limassol
limited
limpopo
lin
lincoln
linda
linden
lindsay
line
lines
ling
linguistic
linguistics
link
linked
linkedin
links
linus
linux
linzami
linzamin
lion
lionel
lions
lipakshi
lira
lisa
lisbon
lissafa
lissafi
lissafin
lissafta
list
liste
listed
listing
lists
lit
lita
litattafai
litattafan
literary
literature
literatures
lithuania
litinin
littafai
littafan
littafi
littafin
littafinsa
littafinta
littattafai
littattafan
littattafansa
little
liu
live
lived
liverpool
lives
living
livingstone
lix
liyafa
liyafar
liz
liza
lk
ll
lla
llb
llc
ller
llm
lloyd
lmg
ln
lo
loan
lobe
loc
local
located
location
locke
locomotive
locomotives
loda
lodge
lodi
logan
logic
logistics
logo
logone
loi
lok
lokaci
lokacin
lokacinda
lokacinsa
lokacinsu
lokacinta
lokoja
lokomotiv
lokpobiri
lokuta
lokutan
lola
loma
lome
lon
london
lonely
long
longitude
longman
longuda
look
looking
lookman
lopez
lord
lords
lorenzo
lorient
los
loses
loss
lost
lou
loughborough
louis
louise
louisiana
louisville
love
loveauna
lovejoy
lovers
low
lower
loyola
lp
ls
lsc
lt
ltd
lte
lu
lualaba
luanda
luangwa
luc
luca
lucas
lucent
lucia
lucky
lucy
ludwig
lugano
lugard
lui
luigi
luis
luisa
luka
luke
lukman
lullube
lulluɓe
lumana
lumba
lumie
lumpur
lunda
lung
lungu
lura
lusaka
luth
luther
lutheran
luton
lutte
luv
luwadi
luwaɗi
lux
luxembourg
luxor
lviv
lw
lyatoshynsky
lyce
lydia
lyle
lymph
lymphatic
lymphocytes
lymphoma
lynch
lynda
lynn
lynne
lyon
lyonnais
lyrics
lysenko
m
ma
maa
maad
maart
maastricht
maballin
mabanbanta
mabel
mabika
mabil
mabiya
mabiyan
mabiyansa
mabiyi
mabiyin
maboe
mabukaci
mabukata
mabuɗan
mabuɗin
mac
macarthur
macau
macaulay
macbeth
maccabi
maccido
macdonald
mace
macedonia
macen
machine
maciji
macijin
macizai
mack
mackenzie
maclean
macmillan
macro
macron
mad
mada
madadin
madadinsa
madafun
madagascar
madagaska
madagaskar
madaidaicin
madaidaiciya
madaidaiciyar
madaidaitan
madaki
madam
madame
madannai
madannin
madara
madarar
madatsar
madatsun
madaukakin
madauki
madauwari
madawaki
madawwami
maddie
made
madea
madelung
madhya
madigo
madina
madinah
madinawa
madison
madogara
madogaran
madonna
madras
madrasa
madre
madrid
madu
madubi
madubin
madueke
madugu
maduka
mafa
mafaka
mafakar
mafarauci
mafarauta
mafarautan
mafari
mafarin
mafarki
mafarkin
mafi
mafia
mafita
mafitsara
mafiya
magabacin
magabata
magabatan
magada
magadan
magaji
magajin
magajinsa
magajiya
magana
maganadisu
maganar
maganarsa
maganaɗisu
magance
magancewa
maganganu
maganganun
magani
maganin
magatakarda
magazine
maggie
maghreb
maghrib
magic
magidanci
magidanta
magina
magma
magna
magnesium
magnetic
magnus
magoya
magudanan
magudanar
magudi
magudin
magunguna
magungunan
maguzawa
mah
maha
mahada
mahadar
mahadi
mahaifa
mahaifar
mahaifarsa
mahaifi
mahaifin
mahaifina
mahaifinsa
mahaifinsu
mahaifinta
mahaifiya
mahaifiyar
mahaifiyarsa
mahaifiyarsu
mahaifiyarta
mahaifiyata
mahajjata
mahal
mahalarta
mahalicci
mahaliccin
mahalli
mahallin
mahama
mahamadou
mahamat
mahanga
mahangar
mahara
maharan
maharashtra
maharba
maharbi
maharin
mahatma
mahaukaci
mahaukaciyar
mahaukata
mahauta
mahavishnu
mahawara
mahaya
mahayan
mahaɗa
mahaɗan
mahaɗar
mahdi
mahe
maher
mahimman
mahimmanci
mahimmancin
mahimmin
mahmood
mahmoud
mahmud
mahrez
mahukunta
mahukuntan
mahuta
mai
maici
maid
maida
maido
maidowa
maiduguri
maigida
maigidan
maigidanta
maikori
mail
maimaita
maimaitawa
maimaituwa
maimakon
main
maina
maine
mainland
mainz
mais
maison
maita
maitama
maiyuwa
maj
maja
majagaba
majah
majalisa
majalisan
majalisar
majalissar
majalisu
majalisun
majami
maje
majeerteen
majek
majid
majistare
majiya
majiyar
majiyoyi
majiyoyin
majiyyaci
majiɓinci
majiɓincin
major
majority
maka
makabarta
makabartar
makabartu
makada
makafi
makaho
makala
makale
makama
makamai
makaman
makamancin
makamantan
makamantansu
makamashi
makamashin
makami
makamin
makanikai
makanta
makara
makaranta
makarantan
makarantar
makarantarsa
makarantu
makarantun
makare
makarfi
makasudin
makau
makawa
makaɗa
make
makeda
makeen
maker
makera
makerere
makers
makes
makeup
makgadikgadi
maki
makidoniya
makin
makinde
making
makinwa
makirci
makircin
makiya
makiyaya
makiyayan
makiyayi
makka
makkah
makli
mako
makogwaro
makoki
makoma
makomar
makomarsa
makomarsu
makon
makonni
makonnin
maktoum
makudan
makullin
makun
makurdi
makwabciyar
makwabciyarta
makwabta
makwabtaka
makwabtan
makwabtansu
makwanni
mal
mala
malaga
malagasy
malaika
malala
malalar
malam
malama
malamai
malaman
malamansa
malamar
malami
malamin
malaminsa
malanta
malaria
malatyaspor
malawi
malay
malayalam
malaysia
malcolm
maldives
male
maleshiya
malesiya
mali
malik
maliki
malikiyya
malin
maliya
mall
mallaka
mallakan
mallakar
mallake
mallaki
mallakin
mallam
mallorca
malmo
malta
malumfashi
mama
mamaci
mamacin
mamadou
mamaki
mamakin
mamallakin
maman
mamaya
mamayar
mamaye
mamayewa
mamayewar
mamba
mamban
mambe
mambila
mambilima
mambilla
mambobi
mambobin
mambobinta
mamelodi
mamluk
mamman
mammography
mampong
mamprusi
man
mana
manaf
management
manager
managing
manaja
manajan
manajoji
manajojin
manazarta
manazartai
manchester
manchu
mandara
mandarin
mande
mandela
mandinka
mandz
mane
manema
manga
manganese
mango
mangoro
mangrove
mangroves
mangwaro
manhaja
manhajar
manhattan
manhyia
mani
manifesto
manila
manitoba
manitou
maniyyi
manja
manjo
mann
manna
manne
manoma
manoman
manomi
manor
manpower
mans
mansa
mansfield
mansions
manso
mansour
mansur
manta
mantawa
mantua
manu
manual
manuel
manufa
manufacturing
manufar
manufarsa
manufarta
manufofi
manufofin
manufofinsa
manufofinsu
manufofinta
manuscript
many
manya
manyan
manyika
manzanni
manzarta
manzo
manzon
mao
map
maple
maps
mapungubwe
maputo
mar
mara
maraba
maradi
marafa
maraice
marais
marar
maras
marasa
marassa
marathon
marawa
maraya
marayu
marc
marca
marcel
march
marche
marco
marcos
marcus
mare
margaret
marghi
margi
mari
maria
mariam
mariama
marian
marie
marigayi
marigayin
marigayiya
marilyn
marina
marine
marino
mario
marion
maris
maritime
maritzburg
mariya
mark
market
marketing
markets
marks
markus
marley
marmara
marmari
maroc
marokko
maroko
maroua
marques
marquette
marrakech
marrakesh
marriage
married
marriott
marry
mars
marseille
marsh
marshal
marshall
martaba
martabar
martani
martanin
martha
marti
martial
martin
martinair
martinez
martins
martinsson
marubuci
marubucin
marubuciya
marubuciyar
marubuta
marubutan
marufi
marvel
marvin
marwa
marwan
marx
marxist
mary
maryam
maryamu
maryland
mas
masa
masaka
masaku
masalit
masallaci
masallacin
masallatai
masallatan
masana
masanan
masani
masanin
masaniya
masaniyar
masar
masara
masarar
masarauta
masarautan
masarautar
masarautarsa
masarautu
masarautun
masarawa
masari
masarufi
masauki
masaukin
mashahurai
mashahuran
mashahuri
mashahurin
mashawarci
mashawarcin
mashawarta
mashaya
mashhad
mashi
mashigar
mashigin
mashin
mashrur
masifa
masina
masjid
mask
masks
maslaha
maslahar
maso
mason
masood
masoya
masoyan
masoyi
masquerade
masquerades
masroor
mass
massa
massachusetts
massif
massoud
mastectomy
master
mastercard
masters
mastroeni
masu
masunta
mat
mata
matafiya
matafiyi
mataimaka
mataimakan
mataimakansa
mataimaki
mataimakin
mataimakinsa
mataimakiya
mataimakiyar
matakai
matakan
mataki
matakin
matalauta
matalautan
matan
matani
matansa
matansu
matar
matarsa
matasa
matasan
matashi
matashin
matashiya
matashiyar
matatar
matattara
matattarar
matattu
matattun
matatun
matawalle
match
matches
mate
material
materials
mathematics
matheus
mathieu
matilda
mato
matrilineal
matrix
matsa
matsakaici
matsakaicin
matsakaiciyar
matsakaita
matsakaitan
matsala
matsalar
matsaloli
matsalolin
matsananci
matsanancin
matsananciyar
matsar
matsawa
matsaya
matsayi
matsayin
matsayina
matsayinsa
matsayinsu
matsayinta
matse
matsi
matsin
matsugunan
matsuguni
matsugunin
matt
matter
matters
matthew
matthews
matuka
matukan
matukar
matukin
matuƙar
mau
maudu
maulidi
maureen
maurice
mauritania
mauritaniya
mauritius
mausoleum
mawa
mawaka
mawakan
mawaki
mawakin
mawakiya
mawakiyar
mawallafa
mawallafi
mawallafin
mawaƙa
mawaƙan
mawaƙi
mawaƙin
mawaƙiya
mawaƙiyar
mawuyacin
max
maxakali
maxim
maxwell
may
maya
mayafi
mayafin
mayaka
mayakan
mayaki
mayan
mayanka
mayar
mayaƙa
mayaƙan
mayaƙin
maye
mayer
mayo
mayor
mayotte
mayu
mayun
mayweather
mayya
maza
mazaba
mazabar
mazabarsa
mazabu
mazabun
mazaje
mazajen
mazajensu
mazan
mazauna
mazaunan
mazaunanta
mazauni
mazaunin
mazauninsu
mazaɓar
mazaɓu
mazembe
mazhabar
mazhabobi
mazhabobin
mazibuko
mazugi
maƙabartar
maƙarƙashiya
maƙasudi
maƙasudin
maƙera
maƙeri
maƙerin
maƙiyi
maƙwabta
maƙwabtansu
maɓallan
maɓalli
maɓallin
maɓuɓɓugan
maɓuɓɓugar
maɓuɓɓuka
maɗaukaki
maɗaukakin
mb
mba
mbadinuju
mbaise
mbau
mbc
mbe
mbgn
mbit
mc
mcarthur
mcbride
mcc
mccaffrey
mccain
mccarthy
mcdermott
mcdonald
mcdonnell
mcginn
mcgraw
mcgregor
mcintyre
mckeever
mclaughlin
mclean
md
mda
mdd
mdot
mdwiki
me
mea
mean
meaning
means
meat
mecca
mechanical
mechanics
mechanized
mechelen
mecklin
med
medal
media
mediawiki
medical
medicine
medieval
medina
mediterranean
medium
meenal
meer
meereen
meet
meeting
meets
mega
megawatt
meher
mehta
mei
mejbri
mel
melanoma
melbourne
mele
melinda
memba
memban
member
members
membership
membobi
membobin
membobinsu
membobinta
membrane
memoir
memoirs
memorial
memory
memphis
men
mena
mendenhall
mendes
mendy
mene
menene
meng
menopause
mensah
menu
mep
meps
mer
meraldene
mercato
mercator
mercedes
merchant
mercury
mercy
meredith
meri
meridian
merit
merkel
merriam
merry
mers
merseyside
mes
mesa
mesi
mesofotamiya
mesopotamia
mesopotamiya
message
messenger
messi
met
meta
metabolism
metal
metamorphic
metaphysics
metastases
metastasis
metastatic
metcalfe
methane
methionine
method
methodist
methods
methylation
metres
metric
metro
metropolis
metropolitan
metta
metz
mexico
meyer
meziko
mfa
mfantsipim
mfr
mg
mh
mhin
mhz
mi
mia
miami
mic
mica
michael
michel
michelangelo
michelle
michigan
michika
micro
microbiology
microformats
microplastics
microsoft
microwave
mid
middelburg
middle
middlesbrough
middlesex
middleton
midfielder
midlands
mido
midtjylland
midwest
mighty
migration
miguel
mihrab
miji
mijin
mijinta
mika
mikati
mikawa
mike
mikel
mikhail
mikiya
mil
miladiyya
milan
milano
mildred
mile
miles
military
miliyan
miliyoyin
milk
mill
mille
millennium
miller
million
mills
milton
milwaukee
mimi
mimiko
min
mina
minaj
minaret
minarets
mind
minds
mine
minerva
mines
ming
mini
minin
minine
mining
miniseries
minista
ministan
ministar
minister
ministers
ministoci
ministocin
ministocinsa
ministre
ministries
ministry
minjibir
minna
minneapolis
minnesota
minnie
minority
minsk
mint
minti
mintina
mintoci
mintuna
minute
minutes
miocene
mir
mira
mirab
miracle
mirage
miriam
mirror
mirza
mis
misalai
misalan
misali
misalin
misalta
misau
mise
mishan
mishaneri
misira
misis
misr
misra
miss
missilou
missing
mission
missionary
mississippi
missouri
mista
mit
mita
mitar
mitchell
mitoci
mitosis
mitsanski
mix
mixed
miya
miyagun
miyan
miyar
mizani
mizrahi
miƙa
mk
mko
ml
mla
mlh
mls
mm
mma
mnet
mnoga
mnsd
mo
mobil
mobile
mobira
moc
mod
mode
model
models
modern
modernghana
modi
modibbo
modibo
modric
modupe
mofe
moffat
mofu
mogadishu
mogaji
mogg
moghalu
mohamad
mohamed
mohammad
mohammed
mohsen
moi
molde
moldova
mole
molecular
moledo
molly
mombasa
moment
momoh
mon
mona
monaco
monarch
monastery
monastir
monday
monde
money
mongol
mongolia
mongolian
mongoliya
mongols
monguno
monica
monique
monitor
monitoring
monk
monkey
mono
monoclonal
monoxide
monroe
monrovia
mons
monsef
monster
mont
montana
montane
monte
monteiro
montenegro
montessori
montgomery
month
monthly
months
montpellier
montreal
monument
monuments
mood
moon
moonlight
moore
moorish
moors
moosa
moose
mopti
mora
moral
more
moreirense
moremi
moreno
morgan
moriba
moriyar
morning
moro
moroccan
morocco
moroko
morris
morrison
morro
morse
mort
mortality
morton
mos
mosaic
moscow
moses
moshood
mosque
moss
mossad
mossi
most
mosul
mota
motar
motarsa
mother
mothers
motherwell
moting
motion
motoci
motocin
motor
motorola
motors
motsa
motsawa
motsawar
motsi
motsin
mounir
mount
mountain
mountains
mouscron
moussa
moustapha
move
moved
movement
movements
movie
movies
moyo
mozambik
mozambique
mozart
mp
mph
mps
mr
mri
mrs
ms
msakni
msc
msh
msw
mt
mtn
mtv
mu
muammar
muawiya
muawiyah
muazu
mubarak
mubaya
mubi
much
mucinous
mudalur
mudanya
muddin
mufti
mufuradi
mugabe
mugabi
mugayen
muggan
mughal
mugun
mugunta
muguwar
muh
muhaiyaddeen
muhajir
muhallansu
muhalli
muhallin
muhallinsu
muhammad
muhammadu
muhamman
muhammed
muharram
muhawara
muhawarar
muhimman
muhimmanci
muhimmancin
muhimmi
muhimmin
muhimmiyar
muir
mujaddadi
mujahid
mujalla
mujalladi
mujallar
mujallolin
mujallu
mujiya
muka
mukaddashin
mukala
mukamai
mukaman
mukami
mukamin
mukaminsa
mukaminta
muke
mukhtar
muku
mulki
mulkin
mulkinsa
mulkinsu
mulkinta
mulla
mullah
multi
multimedia
multiple
muluk
muma
mumbai
mumin
muminai
mummuna
mummunan
mummunar
mumuye
mun
muna
munafunci
munajjid
munanan
muni
munich
municipal
municipality
munin
munir
munising
mura
murabba
murabus
murad
muradin
muradun
murar
muratova
murder
murfi
murfin
murhu
murhun
muri
murjani
murkushe
murmansk
murmure
murmurewa
murmushi
murna
murnar
murphy
murray
mursi
murtala
murya
muryar
muryarhausa
muryarsa
muryarta
muryoyi
muryoyin
murƙushe
mus
musa
musabbabin
musah
musamman
musanta
musantawa
musanya
musanyawa
musawi
musaya
musayar
musaylima
musaylimah
muse
museum
museveni
musgunawa
musharraf
mushin
music
musical
musician
musk
muslim
muslims
musnad
muson
musona
musonda
mussolini
must
mustafa
mustafizur
mustapha
musu
musulinci
musulma
musulmai
musulman
musulmi
musulmin
musulunci
musulunta
musuluntar
musun
mut
mutallab
mutanan
mutane
mutanen
mutanensa
mutanensu
mutanenta
mutapa
muttalib
mutu
mutum
mutumi
mutumin
mutummutumi
mutumtaka
mutun
mutunci
mutuncin
mutunta
mutuntaka
mutuntawa
mutuwa
mutuwan
mutuwar
mutuwarsa
mutuwarsu
mutuwarta
muƙamai
muƙami
muƙamin
mv
mvp
mw
mwenemutapa
mwepu
my
myanmar
myers
mykola
mystery
myth
mzali
mzansi
n
na
naa
naacp
nabi
nabil
nac
nace
nacional
nada
nadaga
nadama
nadamar
nadawa
nade
naden
nadi
nadia
nadin
nadine
nadinsa
nadu
naf
nafada
nafi
nafila
nafisa
naft
naga
nagar
nagari
nagarta
nagartar
nagogo
naguib
nahawu
nahawun
nahiya
nahiyar
nahiyoyi
nahiyoyin
nai
naidoo
naija
nair
naira
nairobi
najaf
najasa
najd
najeria
najeriya
najeriyar
naka
nakalto
nakasa
nakasar
nakasassu
nakasu
nakate
nake
nal
nam
nama
namadi
naman
name
named
names
nami
namibia
namibiya
namiji
namijin
namo
namoda
namomin
namu
namun
nan
nana
nanan
nanata
nancy
nandi
nandom
nanjing
nanka
nanotechnology
nantes
nanumba
naomi
naples
napoleon
napoli
naptip
narambada
narcea
nard
narkar
narke
narkewa
narkewar
narrative
nas
nasa
nasaba
nasara
nasarar
nasararsa
nasararta
nasarawa
nasarori
nasarorin
nash
nashi
nashville
nasiha
nasihu
nasir
nasiru
nasr
nasri
nass
nassara
nassarawa
nassau
nasser
nassi
nassim
nassnig
nassoshi
nasty
nasu
nat
nata
natal
natalia
natalie
natasha
nathan
nathaniel
nation
nationair
national
nationalasa
nationale
nations
native
nato
natsuwa
natural
nature
nau
nauyi
nauyin
nauyinsa
nauyinsu
nauyinta
naval
navy
nawa
nawab
naya
nayi
nazari
nazarin
nazi
nazifi
nazir
nazirul
naƙasa
naƙasassu
naɗa
naɗaɗɗen
naɗi
naɗin
nb
nba
nbc
nc
ncaa
ncbi
ncc
nce
ncei
nchen
nchengladbach
nchez
ncnc
ncw
nd
nda
ndani
ndanitv
ndayishimiye
ndc
nddc
nde
ndez
ndi
ndiaye
ndidi
ndlea
ndlovu
ndoki
ndong
ndour
ndp
ndu
nduka
ne
nea
near
nearly
nebraska
nec
neco
necropolis
ned
nedbank
nee
need
needed
needs
neem
negative
negev
negro
negus
neighborhood
neil
neill
neja
nelson
nema
neman
nemi
nemo
neo
neoclassical
neolithic
neoplasia
neoplasm
neoplasms
neoplastic
nep
nepa
nepal
nepu
neruda
nerville
nes
nesa
nesan
nesanta
nestle
nestor
nesyri
net
netanyahu
netflix
netherlands
netu
network
networks
neubauer
neuberger
neuer
neuroendocrine
nevada
never
neville
nevis
new
newark
newcastle
newell
newfoundland
newly
newman
newport
news
newsarchive
newsletter
newspaper
newspapers
newswatch
newsweek
newton
next
neymar
nez
nff
nfl
nfvf
ng
nga
ngalande
nge
ngige
ngizim
ngn
ngo
ngoma
ngos
ngouali
ngozi
nguru
ngwa
nh
nha
nhl
nhs
nhu
ni
nia
niamey
nicaragua
nice
nicholas
nichols
nick
nickel
nicky
nico
nicola
nicolas
nicole
niei
nielsen
nietzsche
nig
nigcomsat
nige
nigel
niger
nigeria
nigeriadecide
nigerian
nigerians
nigerias
nigeriasat
nigeriya
night
nightingale
nights
nih
nii
nijar
nijer
nijeriya
nika
nikah
nike
nikki
nikolai
nile
nilo
nilu
nimasa
nimc
nin
nina
nine
ning
ningi
ninka
ninkaya
ninki
nio
nior
nipost
niru
nirvana
nisa
nisan
nisanta
nisantar
nishadantar
nishadantarwa
nishadi
nishaɗantarwa
nishaɗi
nishaɗin
nite
nitel
nitrate
nitrogen
nitrous
nitse
niwa
nixon
niyi
niyya
niyyar
nizam
niƙa
nj
njdep
njoku
nk
nkechi
nkem
nkiru
nkoranza
nkrumah
nkunku
nkwanta
nl
nla
nlc
nlm
nm
nma
nme
nmrc
nnaji
nnamdi
nneka
nnewi
nnpc
no
noaa
noah
nobel
noble
nobody
noc
node
nodes
noe
noi
noir
noire
noirs
nok
nokia
nolan
nollywood
nom
noma
noman
nomawa
nominated
nomination
non
none
nono
nonon
nonprofit
nonso
noodles
noor
nor
norbert
nord
nordic
nordsjælland
norfolk
norman
norridgewock
norris
norse
north
northampton
northcote
northeast
northern
northwest
northwestern
norton
norway
norwegian
norwich
nos
not
note
notes
notre
nottingham
notts
nouah
noun
nour
nouveau
nouvelle
nov
nova
novel
novelist
novels
november
novgorod
novo
novosibirsk
now
npa
npc
npf
npfl
npl
npn
npp
npr
nr
nrc
nrhp
nri
ns
nsa
nsawam
nsc
nsclc
nse
nsue
nsukka
nsuta
nsw
nt
nta
ntc
ntu
ntv
nu
nuba
nubia
nuc
nuclear
nueva
nufa
nufi
nufin
nuhu
nuisances
nukiliya
nukiliyar
numan
number
numbers
numfashi
numidia
nun
nuna
nunawa
nune
nunen
nuni
nunin
nupe
nupedia
nur
nura
nuraphone
nuremberg
nurmagomedov
nurse
nursery
nursing
nut
nutrition
nutsar
nutse
nutsewa
nutsuwa
nuwamba
nuwamban
nuwambar
nuwanba
nuwar
nuwas
nw
nwa
nwachukwu
nwafor
nwakanma
nwankwo
nwaoboshi
nweke
nwokolo
nwosu
nwsl
ny
nyako
nyambe
nyame
nyarko
nyc
nyiragongo
nyong
nyra
nysc
nytimes
nyu
nz
nzechukwu
nzema
nzeogwu
o
oa
oahe
oak
oakland
oap
oasis
oau
oba
obafemi
obaje
obama
obas
obasanjo
obaseki
obatala
obe
obi
obiageli
obiang
obika
obingwa
obituary
object
oblast
oboli
obolo
obolon
obong
obosi
observatory
observer
obuasi
obverse
oc
occasional
occidental
ocean
oceania
oceanic
och
ochan
oclc
oct
octoba
october
oda
odar
ode
odesa
odessa
odi
odibo
odili
odion
odisha
odo
odofin
odu
oduah
oduduwa
odumegwu
odumosu
odunsi
oduro
odyssey
oecd
oem
of
ofada
ofan
ofasa
ofaya
ofayan
off
offa
offered
offers
office
officer
officers
offices
official
officially
officials
officiel
ofis
ofishi
ofishin
ofishinsa
ofishinta
ofisoshi
ofisoshin
ofori
ofpra
ofr
often
ofungiyar
og
oga
ogba
ogbemudia
ogbomosho
ogbomoso
ogboni
ogidan
ogidi
ogoja
ogoni
ogron
oguaa
ogun
ogundipe
ogunlesi
ogunsanya
ogusta
oguta
ogwashi
ogwumike
oh
ohchr
ohene
ohio
oi
oil
oilers
oin
ois
oja
oji
ojo
ojota
oju
ojude
ojuelegba
ojukwu
ok
oka
okada
okadigbo
okafor
okala
okanlawon
okavango
okazaki
oke
okechukwu
okeke
okeleji
okello
okene
okere
okereke
oklahoma
oko
okocha
okoh
okojie
okolo
okomfo
okon
okonjo
okonkwo
okoro
okosun
okowa
okoye
okpala
okpara
okpe
okra
okrika
oktoba
oktoban
oktobar
oku
okundaye
okunna
okupe
okyere
ol
ola
olabisi
oladipo
olaiya
olajide
olajumoke
olajuwon
olamide
olatunji
olaudah
olawale
olayinka
old
older
oldham
ole
oleg
oleh
oleksandr
olena
olga
olisa
oliseh
oliveira
oliver
olivia
olivier
ollennu
olofin
olokun
olonisakin
olowo
olowofoyeku
olson
olu
olufemi
olufunke
olufunmilayo
olumba
olumide
olunloyo
olusegun
olusola
oluwa
oluwashina
oluwole
olympiacos
olympiad
olympic
olympics
olympique
om
omagbemi
oman
omanhene
omani
omar
omawumi
ombudsman
omega
omeili
omeruo
omo
omoba
omoni
omoniyi
omotola
omotoso
omotoyossi
on
ona
onabanjo
onanuga
onayemi
once
oncogenes
oncology
ondo
one
onepage
ones
oni
onitsha
online
only
onnoghen
onoh
onoja
ons
ontario
onwe
onwenu
onye
onyeama
onyejocha
onyeka
onyenokwe
oo
oon
ooni
op
opa
opara
opec
open
opening
opens
opera
operas
operating
operation
operations
opinion
opium
opobo
opoku
opportunity
opposition
oprah
optic
option
opus
oputa
oquaye
or
ora
oracle
oral
oran
orange
oranmiyan
orchestra
ordega
order
orders
ordonnance
ore
oregon
org
organ
organic
organisation
organization
organizations
ori
orient
oriental
orientation
origin
original
originally
originalon
origins
orisaguna
orizu
orji
orlando
orleans
oro
oromia
oromiffa
oromo
oron
orthodox
oruru
os
osa
osagie
osaka
osama
osas
osborn
oscar
oscars
oseaniya
osei
oshinowo
oshiomhole
oshoala
oshodi
oshogbo
osinbajo
osita
oslo
osman
osoba
osogbo
osteosarcoma
ostien
ostiraliya
ostireliya
ostiriya
osu
osuji
osun
osunde
ot
ota
otal
otedola
otel
othello
other
others
othman
oti
oto
ottawa
otto
ottoman
otukpo
otumfuo
otunba
otw
ou
ouagadougou
ouattara
oubandawaki
oue
oued
ouest
oumar
oumarou
our
ousmane
out
outdoor
outline
outside
outstanding
oval
ovarian
ovaries
ovary
over
overland
overseas
overview
owa
owan
owen
owens
owerri
own
owned
owns
owo
owoh
owu
owusu
ox
oxfam
oxford
oxidation
oxidative
oxide
oxides
oxygen
oye
oyelowo
oyetola
oyingbo
oyo
oyoko
oyongo
oz
ozo
ozone
oʊ
p
pa
paa
pablo
pac
pace
pacific
pack
packers
page
pageant
pages
pah
pahs
paid
pain
painter
painting
paintsil
pak
pakistan
pakistani
palace
palais
palatal
palau
palermo
palestine
palestinian
palgrave
pallister
palm
palmas
palme
palmer
pam
pamela
pan
panafrican
panama
panathinaikos
panchayat
pancreas
pancreatic
pandemic
pandey
pandogari
panel
pankhurst
pannets
panorama
panoramio
pantami
pantheon
panther
panthera
panthers
paolo
pap
papa
paparoma
paper
papers
papillary
papillomavirus
papua
papyrus
par
para
parachute
parade
paradise
paraguay
parajanov
paralympic
paralympics
parameter
parc
parents
paris
parish
park
parker
parks
parliament
parliamentary
parlophone
parma
part
partey
parti
participation
parties
partner
partners
partnership
parts
party
parveen
pas
pascal
pascual
pasha
pashtun
pasifik
pass
passes
passion
past
pastor
pat
pategi
patel
patent
path
pathology
patience
patrice
patricia
patrick
patriotic
patriots
patron
patti
pau
paul
paula
pauli
pauline
paulista
paulo
pavilion
pay
payne
pays
paz
pbi
pbs
pc
pcb
pcbs
pci
pcr
pd
pdf
pdp
pe
peace
peacefmonline
peaceful
peacock
peak
pearce
pearl
pearson
peasant
peasants
pech
pedagogical
pedri
pedro
peerage
peggy
peju
pele
pelican
pelosi
pen
penal
penalty
penang
pence
pendjari
penguin
peninsula
penn
pennsylvania
pentagon
pentathlon
pentikostal
pentru
people
peoples
pep
pepsi
per
perak
percy
pereira
perez
perfect
performance
performing
period
perm
permafrost
permanent
permission
perry
persepolis
persia
persian
person
personal
personality
personnel
persons
perspective
perspectives
perspectivesisbn
perth
peru
peruvian
peshawar
pet
pete
peter
peterborough
peters
petersburg
peterson
petit
petition
petro
petroleum
peugeot
pez
pfa
pfizer
pg
pgd
pgs
ph
pharmaceutical
pharmacy
phase
phb
phd
phil
philadelphia
philharmonic
philip
philippe
philippine
philippines
philips
phillip
phillippa
phillips
philosophy
phiri
phoenix
phone
phonology
phosphate
phosphorus
photo
photograph
photographs
photos
photosynthesis
php
phr
phyllis
physical
physics
physiology
pi
pia
pian
pianist
piano
pib
pickens
picture
pictures
pidgin
pidjin
piece
pieces
piedmont
pier
pierce
pierre
pies
pieter
pietro
pilchen
pillars
pilot
pin
pine
ping
pink
pinochet
pinto
pinyin
pioneer
pipe
pipeline
piper
pirates
pisa
pisco
pitt
pittsburgh
pius
pixel
pizza
pk
pki
pl
place
places
plain
plains
plan
plane
planet
planning
plans
plant
plantain
plantation
plants
plaque
plasma
plastic
plate
plateau
platform
platinum
plato
play
played
player
players
playersan
playing
plays
plaza
plc
pleistocene
pliocene
plot
plunketts
plus
plutarch
pluto
plymouth
pm
pmc
pmid
pmnewsnigeria
pnc
pndc
pnds
png
po
podcast
poems
poet
poetry
pogba
point
points
pokal
poku
pol
poland
polar
pole
poli
police
policean
policies
policy
polisario
polish
political
politician
politicians
politics
politique
poll
polling
pollution
polo
poly
polycyclic
polymer
polyposis
polyps
polytechnic
pompey
pont
pontecorvo
pool
poor
pop
pope
popoola
popper
poppy
popular
population
populations
por
porsche
port
portal
portant
porter
portland
porto
portrait
ports
portsmouth
portugal
portuguese
position
positive
post
poster
postgraduate
posts
pot
potassium
potential
potiskum
potter
pour
poverty
powell
power
powerful
powerlifting
powers
pp
ppe
ppen
ppm
ppn
ppp
pr
pra
prabhas
practical
practice
practices
practitioners
pradesh
prague
praia
prairie
prakash
prampram
pratt
pravda
prayer
prc
pre
preamble
precious
prefecture
prefix
preliminary
premier
premiere
premiership
premium
premiumtimesng
prempeh
prentice
presbyterian
preseason
presence
present
presentation
presented
presents
presidency
president
presidential
press
presse
pressure
preston
pretoria
pretty
prevalence
prevent
prevention
preview
previous
price
pride
prima
primary
primavera
prime
primeira
primera
primetime
prince
princess
princeton
princewill
principal
principe
principles
print
printing
prior
priscilla
prison
privacy
private
prix
priya
prize
pro
probably
problem
problems
proceedings
process
processes
processing
proctor
produced
producer
product
production
productions
products
prof
professional
professionals
professionnelle
professor
profile
profiles
profit
profumo
progesterone
program
programme
programs
progress
progressive
progressives
project
projects
promise
promoted
promoting
promotion
pronounced
pronunciation
proof
properties
property
prophet
proposal
proposed
proquest
prose
prostate
protasov
protect
protected
protection
protectorate
protest
proto
protocol
provide
provided
province
provincial
provisional
provost
prp
pru
prussia
ps
psa
psc
psg
psl
psv
psychology
pt
pts
pu
pub
public
publication
publications
publique
published
publisher
publishers
publishing
publius
pudil
puerto
pulitzer
pulp
pulse
punch
punchng
pune
punic
punishment
punjab
punjabi
punk
punt
pure
puri
purple
pushkin
pussy
put
putin
px
pylori
pyotr
pyramid
pyramids
pyrolysis
python
q
qa
qaddamar
qadi
qadir
qadiriyya
qaeda
qarshe
qasa
qasar
qasim
qatar
qatif
qawwali
qays
qayyim
qc
qi
qin
qing
qinghai
qira
qissa
qpr
qu
qua
qualification
qualifiers
quality
quansah
quarter
quarterback
quarterly
quarters
quartet
quartey
quartier
quartz
quaternary
quaye
quds
qudus
que
quebec
queen
queens
queensland
quest
question
questions
quetta
qui
quincy
quinlan
quinn
quipe
quist
quote
quoted
qur
quraishawa
quran
qureshi
qusai
qwai
qwari
r
ra
raba
rabah
rabat
rabawa
rabbah
rabbi
rabbit
rabe
raben
rabewa
rabi
rabih
rabin
rabiu
rabo
rabon
rabu
rabuwa
rabuwar
race
rachel
rachid
racial
racing
rad
rada
radadin
radar
radcliffe
rade
radiation
radical
radin
radio
radiotherapy
radius
radiyo
radon
rae
rafael
raffia
rafi
rafin
rafiu
rafuka
rafukan
raga
ragamar
ragar
rage
ragewa
ragewar
ragi
ragin
rago
ragowar
ragu
raguwa
raguwar
rah
raha
rahama
rahamar
raheem
rahim
rahma
rahman
rahmaniyya
rahotanni
rahotannin
rahoto
rahoton
rahotonsa
rahotonta
rahusa
rai
raiders
rail
raila
railroad
railway
railways
rain
raina
rainbow
rainforest
raini
raira
rairayi
rairayin
raisi
raj
raja
rajab
rajasthan
rajavi
raji
rajin
rajista
rajistar
raka
rake
rakiya
rakiyar
rakuma
rakumi
rale
rally
ralph
ram
rama
ramadan
ramat
ramawa
ramblers
rami
ramin
ramla
ramo
ramos
rams
ramsey
ramuka
ramukan
ramuwa
ramuwar
ran
rana
ranaku
ranakun
ranan
ranar
rance
rancen
rancensa
rand
randa
randall
randolph
random
randy
rangadi
rangadin
range
rangers
rangwame
rangwamen
rani
rank
ranked
ranking
rano
ranodu
ransa
ransome
ransu
ranta
rantsar
rantse
rantsuwa
rantsuwar
rao
rap
raphael
rapid
rapids
rapper
rapporteur
rar
rarar
rarara
rard
rare
rarraba
rarrabawa
rarrabawar
rarrabe
rarrabewa
rarrabu
rarrabuwa
rarrabuwar
rarrafe
ras
rasa
rasaki
rasha
rashanci
rashawa
rasheed
rashi
rashid
rashidi
rashidun
rashin
rashtriya
rassa
rassan
rastafari
rasu
rasul
rasuwa
rasuwar
rasuwarsa
rasuwarta
rat
rata
rataya
rataye
rate
rates
rating
ration
ratsa
ratsawa
ratsi
rattaba
raunana
raunata
rauni
raunin
raunuka
raunukan
ravens
raw
rawa
rawaito
rawalpindi
rawan
rawani
rawanin
rawar
rawaya
rawlings
ray
raya
rayar
rayarwa
rayayyu
rayayyun
raye
rayen
raymond
rayu
rayuka
rayukan
rayukansu
rayuwa
rayuwar
rayuwarmu
rayuwarsa
rayuwarsu
rayuwarta
rayuwata
rayyayun
razavi
razi
raƙuma
raƙuman
raƙumi
raɗaɗi
raɗin
rb
rc
rca
rcd
rcra
rd
rden
rdens
rdoba
re
reach
reaction
read
reader
reading
ready
reagan
real
reality
rear
reason
reasons
rebecca
rebels
receive
received
receives
recent
receptor
recipes
recognition
reconstruction
record
records
recovery
recreation
rectangular
rector
red
reddy
redemption
rediff
redir
rediyo
rediyoaktif
rediyon
redskins
reed
reef
rees
reesing
ref
reference
references
reflection
reflections
reform
reformed
refugees
regatta
reggae
regime
regiment
regina
region
regional
regions
register
registration
regular
regulation
regulations
rehema
reich
reid
reign
reilly
reims
reina
reine
reinvented
rekhmire
rel
related
relations
relationship
relay
release
released
releases
relegation
relief
religion
religions
religious
rels
remains
remi
remix
remo
renaissance
rene
renewable
renewal
rennes
reno
renon
rep
repertoire
report
reported
reporter
reporters
reporting
reports
represent
representation
representative
representatives
reprieve
reprint
reps
republic
republican
republished
reputation
required
rera
res
research
reserve
reserves
reshe
reshen
residence
residents
resigns
resistance
resolution
resort
resource
resources
respect
response
responsibility
rest
restoration
restore
result
results
retrieved
return
returned
returns
reuben
reuters
rev
reve
reveals
reverend
review
reviews
revised
revista
revival
revolt
revolution
revolutionary
revue
rex
rey
reyes
reynolds
rez
reza
rfi
rgb
rhine
rho
rhode
rhodes
rhodesia
rhys
rhythm
rhythmic
ri
ria
riaa
rib
riba
ribadu
ribar
ribas
ribbon
ric
rica
ricardo
rice
rich
richard
richards
richardson
richmond
richter
rick
rico
ricordi
rida
ridda
ride
rider
riders
ridge
riding
rie
rien
rienne
rieure
rift
rig
riga
rigakafi
rigakafin
rigar
rigaya
right
rights
rightsancin
rigima
rigimar
rigingimu
rigingimun
riguna
rigunan
rihanna
rijeka
rijista
rijistar
rijiya
rijiyar
rijiyoyi
rijiyoyin
rika
rike
rikice
rikicen
rikicewa
rikicewar
rikici
rikicin
rikide
rikita
rikitarwa
rikitattun
riko
rikodi
rikodin
rikon
riley
rima
rimbey
rimi
ring
ringim
rini
rinj
rinjayar
rinjaye
rinjayen
rinjayi
rinka
rio
ripley
ripples
riqe
riro
risalah
rise
rising
risk
rita
ritaya
ritayar
ritual
river
rivers
riverside
riya
riyad
riyadh
rizespor
rizvi
riƙa
riƙe
riƙewa
riƙo
riƙon
rm
rna
ro
road
roads
rob
roba
robert
roberto
roberts
robertson
robin
robinson
robobi
robobin
robot
robotics
roc
rocha
rochas
rochdale
roche
rochester
rock
rockefeller
rocks
rockwell
rocky
roda
rodgers
rodney
rodriguez
rodrygo
roger
rogers
rogo
rohan
rohingya
rohit
rok
roka
roki
roko
rokoki
rokon
roland
role
roles
roll
rolling
rom
roma
roman
romance
romanesque
romania
romanian
romaniya
romanized
romantic
romawa
rome
romeo
romero
romney
roms
ron
ronald
ronaldinho
ronaldo
rookie
room
rooney
roosevelt
roots
ros
rosa
rosary
rose
rosemary
roses
ross
roster
rostov
rotary
rotherham
rotimi
rotten
rotterdam
rouch
rouge
rough
round
route
routledge
rovers
row
rowan
rowman
roy
royal
roƙi
roƙo
roƙon
rpg
rs
rsc
rsp
rsssf
rt
rtd
rtpc
ru
rubber
rube
rubin
rubuce
rubucen
rubucensa
rubuta
rubutaccen
rubutacciyar
rubutattun
rubutawa
rubutu
rubutun
rubutunsa
ruby
rudani
rudolf
rue
rufa
rufaffiyar
rufai
rufe
rufewa
rufi
rufin
rufus
ruga
rugby
ruggie
ruguje
rugujewa
rugujewar
ruguza
ruhaniya
ruhi
ruhin
ruhohi
ruhohin
ruhu
ruhun
ruins
ruku
rukunan
rukuni
rukunin
rukuninsu
rukunnan
rukunoni
rul
rule
ruled
rulers
rules
ruling
rum
ruma
rumawa
rumbun
rumbunilimi
rumfa
rumfar
rumfuna
rumfunan
rumi
run
runduna
rundunar
rundunarsa
rundunonin
rungumar
rungume
rungumi
runner
runners
running
runoff
runs
rupert
ruqayya
ruqayyah
rura
rural
rurales
rus
rusa
rusasshiyar
rush
rushe
rushewa
rushewar
russell
russia
russian
rusul
rutgers
ruth
rutsa
ruwa
ruwaito
ruwan
ruwanda
ruwansu
ruwaya
ruwaye
ruwayen
ruwayoyi
ruɗani
ruɗe
ruɗi
rwanda
rwandan
rwenzori
ryan
ryder
s
sa
saad
saadi
saba
sababbi
sababbin
sabah
sabani
sabanin
sabar
sabawa
sabbin
sabc
sabha
sabili
sabine
sabis
sabiya
sabo
saboda
sabon
sabulu
sabulun
sabunta
sabuntawa
sabuntawar
sabuwa
sabuwar
sace
sacen
sachs
saci
sacks
sacramento
sacred
sad
sada
sadaka
sadaki
sadar
sadarwa
sadarwar
sadat
sadau
sadaukar
sadaukarwa
sadaukarwar
saddam
sade
sadik
sadiq
sadiya
sadu
saduwa
saeed
safa
safai
safar
safarar
safari
safe
safety
saffold
safi
safiya
safiyar
safiyya
safta
saga
sagamu
sage
sahaba
sahabbai
sahabban
sahabbansa
sahabi
sahara
saharan
saharar
saharareporters
sahel
sahelian
sahib
sahih
sahihancin
sahihin
sahitya
sahrawi
sahu
sahun
sai
said
saida
saidai
saidu
saif
saigon
saikolojin
saint
sainte
saints
saison
saita
saiti
saitin
saitunan
sajan
saka
sakaci
sakamako
sakamakon
sakamakonsa
sakan
sakandare
sakandaren
sakandari
sakandire
sakar
sakatare
sakataren
sakatariya
sakatariyar
sakatarorin
sakawa
sake
sakewa
saki
sakin
sakinsa
sakkwato
sako
sakon
sakonni
sakonnin
sal
sala
salaam
saladin
salafi
salafiyya
salaga
salah
salam
salama
salameh
salami
salar
salars
salat
salati
sale
saleh
salem
sales
salibiyya
salic
salifou
salih
salihu
salim
salinity
salinization
salisu
saliyo
salla
sallah
sallama
sallamar
sallame
sallar
salloli
sallolin
salma
salman
salmon
salo
saloma
salon
saloum
salt
salula
salvador
salzburg
sam
sama
samame
samamen
saman
samaniya
samaniyar
samantha
samar
samara
samarda
samari
samarin
samarra
samartaka
samarwa
samatta
samba
sambo
same
sameera
samfur
samfura
samfuran
samfuri
samfurin
samfurori
sami
samia
samir
samira
sammacin
sammy
samo
samoa
sampdoria
sampson
samson
samsung
samu
samuel
samun
samunsa
samunsu
samunta
samuwa
samuwar
san
sana
sanaa
sanadi
sanadin
sanadiyar
sanadiyyar
sanam
sanan
sananne
sanannen
sananniya
sananniyar
sanannu
sanannun
sanar
sanarwa
sanarwar
sanata
sanatan
sanatoci
sanatocin
sanctuary
sand
sanda
sandan
sandar
sanders
sandhurst
sandler
sandra
sands
sandstone
sanduna
sandunan
sandy
sane
sang
sanger
sangha
sango
sani
sanin
saninsa
saninta
sanitation
saniya
saniyar
sanjay
sankara
sankarar
sankarau
sanna
sannan
sanneh
sanni
sannna
sannu
sanogo
sans
sansani
sansanin
sansanonin
sanshi
sanskrit
sant
santa
santiago
santimita
santo
santos
santsi
sanusi
sanwo
sanya
sanyawa
sanyaya
sanye
sanyi
sanyin
sao
sapele
sar
sara
sarabia
sarah
saraki
sarakuna
sarakunan
saran
sarari
sararin
saratu
sarauniya
sarauniyar
sarauta
sarautar
sarawak
sarcoma
sardauna
sardaunan
sare
saren
sarewa
sari
sarka
sarkakiya
sarkar
sarki
sarkin
sarkinsu
saro
sarpong
sarrafa
sarrafawa
sars
sarvas
sarƙoƙi
sarƙoƙin
sas
sasanta
sasantawa
sasha
sashe
sashen
sashi
sashin
saskatchewan
saskatoon
sassa
sassaka
sassaken
sassan
sassanid
sassauci
sassaucin
sassauta
sassauƙa
sassaƙa
sassuolo
sat
sata
satan
satar
satb
satellite
sati
satifiket
satin
satire
satumba
satumban
satumbar
saturday
sau
sauce
saud
sauda
saudi
saudia
saudiya
saudiyya
sauka
saukaka
saukar
sauke
saukewa
sauki
saukin
sauko
saukowa
saura
sauran
sauransu
saurara
saurare
sauraren
saurari
sauraro
sauraron
saurayi
saurayin
saurayinta
sauri
saurin
sauro
sauti
sautin
sautuka
sautuna
sautunan
sauya
sauyawa
sauyawar
sauye
sauyen
sauyi
sauyin
sauƙaƙa
sauƙaƙan
sauƙaƙe
sauƙi
sauƙin
savage
savanna
savannah
savannas
save
savings
saw
sawa
sawaba
sawalha
sawu
sawun
saxon
saxony
say
saya
sayan
sayar
sayarwa
sayayya
saye
sayed
sayen
sayf
sayi
sayo
says
sayyadina
sayyid
sayyida
sayyidah
saƙa
saƙar
saƙo
saƙon
saƙonnin
saɓa
saɓani
saɓanin
sb
sc
sca
scala
scale
scan
scandal
scandinavia
scans
scarecrow
scc
scene
schabowski
schalke
scheme
schengen
schiavo
schmidt
schmitt
schneider
scho
scholar
scholars
scholarship
scholz
school
schools
schro
schwartz
sci
science
sciences
scientific
scientist
scientists
scientology
scissors
sclc
score
scored
scores
scoring
scotia
scotland
scott
scottish
scout
screen
screenplay
sculptor
sculpture
sd
sda
sdn
sdp
se
sea
seahawks
seal
sean
search
season
seat
seats
seattle
sebastia
sebastian
sebiba
sec
second
secondary
seconds
secret
secretariat
secretary
section
sector
securities
security
seda
sedan
see
seed
seeds
seek
seeks
seen
sefwi
seghir
segun
segunda
seidu
seif
seine
sekondi
sekyere
sel
selam
selasi
selassie
select
selected
selection
self
selim
seljuq
selling
selma
sembe
sembene
semedo
semi
semiconductor
semien
seminar
seminary
seminoles
seminoma
semitic
sen
sena
senate
senator
senatorial
senators
senegal
seney
senior
sense
sent
senufo
senussi
senya
seoul
sep
separate
sepsis
sept
september
serbia
serbian
serer
serge
sergei
sergey
sergio
serhiy
seria
serial
serie
series
seriki
serous
serve
served
server
service
services
serwaa
ses
sesame
session
sessions
set
seth
sets
setting
settlement
setu
seun
seven
seventh
several
sevilla
seville
sex
sexual
sexuality
seychelles
seyi
seymour
seyni
sfaxien
sfn
sg
sgs
sh
sha
shabaab
shabab
shaban
shaci
shadow
shadows
shafa
shafar
shafawa
shafe
shafi
shafin
shafinsa
shafinta
shafuka
shafukan
shagala
shagari
shagaya
shago
shagon
shagulgula
shagulgulan
shaguna
shagunan
shah
shahad
shahada
shahadar
shahara
shaharar
shahararran
shahararre
shahararren
shahararriyar
shahararrun
shahid
shahidai
shaho
shai
shaida
shaidan
shaidar
shaidawa
shaidu
shaidun
shaihu
shaikh
shaka
shakar
shakara
shakatawa
shakatawar
shake
shakespeare
shakhtar
shaki
shakira
shakka
shakkar
shakku
shakkun
shale
shall
sham
shama
shamar
shamarpa
shams
shamsi
shan
shandong
shang
shanghai
shannon
shanono
shanu
shanun
shanxi
shanye
shanyewar
shapiro
shar
shara
sharadi
sharadin
sharar
share
shareef
sharewa
sharh
sharhi
sharhin
shari
sharia
sharif
sharjah
sharks
sharma
sharon
sharp
sharudda
sharuddan
sharuɗɗa
sharuɗɗan
shata
shaw
shawagi
shawara
shawarar
shawararsa
shawarce
shawarci
shawarwari
shawarwarin
shawn
shawo
shay
shayar
shayari
shayarwa
shaye
shayi
shaykh
shaƙatawa
she
sheba
shebur
sheda
shedar
sheet
sheetz
sheffield
shehu
shehun
sheik
sheikh
sheila
shek
sheka
shekar
shekara
shekaran
shekarar
shekarara
shekararsa
shekararta
shekarata
shekarau
shekaru
shekarun
shekarunsa
shekarunsu
shekarunta
shekau
shela
shelanta
shelar
shell
shelley
shelter
shema
shenzhen
shepherd
sheraton
sherif
sheriff
sherman
sherwood
shettima
shetty
shevchenko
shewa
shi
shia
shibam
shida
shield
shifa
shift
shiga
shigar
shigarsa
shigarsu
shigarwa
shigarwar
shige
shigo
shigowa
shigowar
shika
shillington
shima
shimfida
shimfidar
shimfidawa
shimfiɗa
shimfiɗar
shin
shina
shine
shingayen
shinge
shingen
shinkafa
shinkafar
shinkafi
ship
shipping
shira
shiraz
shire
shiri
shirin
shirinsa
shirinta
shiriya
shirka
shirley
shirt
shiru
shirya
shiryar
shiryawa
shirye
shiryen
shiryensa
shiryenta
shiva
shiyar
shiyasa
shiyya
shiyyar
shiyyoyin
shock
shola
shona
shonekan
shoneyin
shoot
shooting
shop
shore
short
shot
shots
should
show
showing
shows
shri
shrine
shrubs
shruti
shtml
shu
shuaibu
shubuha
shude
shudi
shuga
shugaba
shugaban
shugabanci
shugabancin
shugabancinsa
shugabanni
shugabannin
shugabanninsu
shugabansu
shugabanta
shugabantar
shugabar
shuka
shukar
shuke
shuken
shuki
shuni
shura
shuru
shuwa
shuwagabanni
shuwagabannin
shuwaka
shuɗe
shuɗi
shyllon
si
siberia
sibi
sic
sichuan
sicilian
sicily
sida
siddiq
side
sident
sidi
sidney
sie
siege
siemens
sierra
sifa
sifar
sifen
siffa
siffanta
siffar
siffofi
siffofin
sifili
sifiri
sifirin
sifofi
sifofin
siga
sigar
sigari
sigina
siginar
sigma
sigmoidoscopy
sign
signe
signed
significant
signing
signs
sigogi
sigogin
sihiri
sika
sikanin
sikasso
sikeli
sikelin
sikh
sikila
sil
sila
silar
silence
silent
silicon
siliki
silima
silinda
silsilar
silt
silva
silver
silverbird
sim
simba
simeon
simi
simien
siminti
simintin
simmons
simon
simone
simple
simpson
simy
sin
sina
sinadarai
sinadaran
sinadari
sinadarin
sinadirai
sinai
sinan
sinanci
sinawa
since
sinclair
sindh
sindhi
sindi
sine
sing
singapore
singer
singh
singing
single
singles
sings
sinima
sinimar
sint
sintiri
sio
siollun
sion
sioux
sipaniya
sir
sira
sirat
siri
siririn
siriya
sirleaf
sirri
sirrin
sisi
sissako
sister
sisters
sitaci
sitcom
site
sites
sittin
sitting
situ
situation
six
sixth
siya
siyan
siyar
siyarwa
siyarwar
siyasa
siyasan
siyasance
siyasar
siyasarsa
siyayya
siye
size
sk
ska
ski
skier
skiing
skills
skin
skopje
skrypka
sky
sl
slalom
slam
slate
slave
slavery
slavia
slavic
slavonic
slim
slimane
slimani
sloan
slovak
slovakia
slovenia
slow
sludge
sm
small
smart
smc
smirke
smith
smithsonian
smog
smoker
sms
snake
snapchat
snoop
snow
snp
snyder
so
soap
sobiyat
sobolev
soccer
soccerbase
soccernet
soccerway
sochaux
sochi
social
socialist
socie
sociedad
societies
society
societyungiyar
socio
sociological
sociology
socrates
soda
sodium
sofia
software
soil
soja
sojan
soji
sojin
sojoji
sojojin
sojojinsa
soke
sokewa
sokewar
soki
sokoto
sol
sola
solanke
solar
soldier
soldiers
sole
solid
solidarity
solingen
solo
solomon
solutions
soma
somali
somalia
somaliland
somaliya
some
somerset
something
son
sona
sonata
song
songhai
songhay
songs
sonia
sonic
soninke
sonnet
sonnets
sonni
sonny
sons
sonta
sony
soo
soong
soot
sophia
sophie
sophocles
soprano
sorbonne
sori
soro
sos
sosai
soshiyolojin
soso
souk
soul
souleymane
souma
sound
soundcity
soundcloud
soup
souq
sour
source
sourcebook
sources
sous
sousa
sousse
south
southampton
southend
southern
souza
sovereignty
soviet
sow
sowande
soweto
soya
soyayya
soyayyar
soyayyen
soyinka
soyombo
sp
spa
space
spaces
spain
spal
spanish
sparks
sparta
spartak
spartan
speaker
speaking
speaks
special
species
specific
spector
spectrum
speech
speed
spencer
spice
spider
spiegel
spike
spill
spirit
spiritual
spizz
split
sport
sportif
sporting
sportive
sports
spot
spotify
spp
spread
spring
springer
springfield
springs
spruce
spurs
spy
sq
squad
squamous
square
squash
sr
sram
src
sri
ss
ssce
sseldorf
ssg
ssr
sss
st
stable
stade
stadium
staff
stafford
stage
stalin
stan
stanbic
stand
standard
standards
standing
stanford
stanislav
stanley
stanton
star
starred
starring
stars
start
started
starting
starts
state
stated
statement
states
statesman
station
stations
statistical
statistics
statisticsididdigar
stats
statue
status
stay
ste
steaua
steel
steelers
stefan
steinbeck
steinberg
steiner
stella
stellenbosch
stem
sten
step
stephanie
stephen
steps
sterling
stern
steve
steven
stevens
stevenson
stew
stewart
still
sting
stm
stmicroelectronics
stochastic
stock
stockholm
stoke
stone
stones
stool
stop
store
stores
stories
storm
story
stoughton
stowe
strack
strange
strasbourg
strategic
strategy
stratford
stratosphere
stream
street
streets
stretch
stride
strike
striker
strip
stromal
strong
stroud
structure
struggle
stuart
student
students
studies
studio
studios
study
stuttgart
style
su
sua
sub
subaru
subject
submission
submitted
subramanya
success
successful
succession
successors
such
sud
sudais
sudan
sue
suf
sufanci
sufaye
sufeto
sufi
sufism
sufuri
sufurin
sufyan
suga
sugar
suharto
sui
suicide
suisse
suit
suite
suites
sujada
suka
sukafi
sukai
sukan
sukar
sukari
sukayi
suke
sukeyi
suki
sul
sulaiman
sulayman
sule
suleiman
suleja
sulemanu
sulfate
sulfide
sulfur
sulhu
sulis
sulke
sullivan
sullubawa
sultan
sultana
sultanate
sultans
suma
sumaila
sumatra
sumer
sumerian
summary
summer
summit
sumner
sun
suna
sunada
sunadarai
sunadaran
sunan
sunana
sunansa
sunansu
sunanta
sunaye
sunayen
sunayensu
sundance
sunday
sunderland
sundowns
sune
sunfi
sung
sunkai
sunna
sunnah
sunnewsonline
sunni
sunny
sunset
sunshine
suntai
sunyani
sunyi
supe
super
supercopa
supercup
superdraft
superfund
supergroup
superior
superliga
supersport
superstar
supertac
supplement
supply
support
supporting
supreme
sur
sura
surah
surar
surat
suratul
sure
surface
surgery
suriname
surori
surorin
surrey
surukin
surukinsa
surulere
survey
survival
susan
suspended
sussex
sussuka
sustainable
sutherland
suttura
sutura
suturar
suv
suya
suyi
suyuti
suzanne
suzy
sv
svenska
svg
sw
swag
swahili
swamp
swan
swansea
swap
swat
swaziland
swears
sweden
swedish
sweet
swift
swindon
swiss
switch
switzerland
sword
sworn
sydney
syed
sylla
sylvester
sylvia
symbian
symphony
symposium
syndrome
syngas
synthesis
syracuse
syria
syriac
system
systems
t
ta
tab
taba
tabaqat
tabar
tabarau
tabarbare
tabarbarewa
tabarbarewar
tabari
tabawa
tabbaci
tabbacin
tabbas
tabbata
tabbatacce
tabbataccen
tabbatacciyar
tabbatar
tabbatarwa
tabbatattun
tabi
tabin
tabki
tabkin
tabkuna
table
tables
tabloid
tabo
tabu
tac
tace
tacewa
taci
tackles
tada
tade
tadjoura
taekwondo
tafara
tafarkin
tafarnuwa
tafasa
tafawa
tafazzul
tafe
tafi
tafida
tafin
tafiya
tafiyar
tafiyarsa
tafiyarsu
tafiye
tafiyen
tafka
tafki
tafkin
tafkuna
tafkunan
tafsir
tafsiri
tafsirin
tag
taga
tagh
tagoe
tagogi
tagogin
tagomashi
tagulla
tagwaye
tagwayen
tahajjud
tahir
taho
tahoua
tai
taimaka
taimakawa
taimake
taimaki
taimako
taimakon
taimakonsa
taimiyya
taipei
taiwan
taiwo
taiye
taj
tajikistan
tajine
tak
taka
takaddama
takaddamar
takaddar
takaddun
takai
takaice
takaici
takaicin
takaita
takaitaccen
takaitacciyar
takaitattun
takaitawa
takalma
takalmi
takalmin
takamaiman
takan
takara
takarar
takararsa
takarda
takardar
takardu
takardun
takasance
takawa
take
taken
takes
taki
takin
taking
takobi
takobin
takoradi
taksi
takuba
takum
takun
takunkumi
takunkumin
takura
takurawa
takwaransa
takwararta
takwarorinsa
takwarorinsu
takwarorinta
takwas
takyi
tal
talabijan
talabijin
talaka
talakawa
talakawan
talal
talata
talatin
talauci
talaucin
talbijin
tale
talent
tales
talha
talhah
talib
taliban
taliya
talk
talking
talks
tall
talla
tallace
tallacen
tallafa
tallafawa
tallafi
tallafin
tallan
tallata
tallatawa
tallinn
tally
talmud
talon
talotalo
tam
tama
tamale
tamanin
tamara
tambari
tambarin
tambaya
tambayar
tambaye
tambayi
tambayoyi
tambayoyin
tambuwal
tamid
tamil
tamim
tamkar
tammy
tamoxifen
tampa
tamu
tamwar
tan
tana
tanada
tanadar
tanade
tanaden
tanadi
tanadin
tanda
tandja
tane
tang
tangale
tanganyika
tango
tank
tanka
tanki
tankin
tanko
tankokin
tankuna
tankunan
tano
tantance
tantancewa
tantancewar
tantanin
tanti
tanzania
tanzaniya
tao
taoism
tar
tara
taraba
taraiyar
tarakta
taran
tarar
taras
tarawa
tarayya
tarayyar
tarba
tarbiyya
tarbiyyar
tare
tareda
tarek
taremi
target
tarho
tari
tarihance
tarihi
tarihin
tarihinsa
tarihinsu
tarihinta
tarikh
tarin
tariq
tariqa
tarkace
tarkacen
tarkighir
tarko
tarkon
tarkwa
taro
tarok
taron
taronta
tartsatsi
taru
taruka
tarukan
tarurruka
tarurrukan
taruwa
taruwar
tarwatsa
tarzoma
tarzomar
tasa
tasamu
tasha
tashar
tashe
tashen
tashi
tashin
tashinsa
tashoshi
tashoshin
tasi
tasiri
tasirin
tasirinsa
tasirinsu
tasirinta
task
taskar
tasmania
taso
tasoshin
tasowa
tasseron
tasu
taswira
taswirar
taswirori
taswirorin
tat
tata
tatar
tatiana
tatsuniya
tatsuniyar
tatsuniyoyi
tatsuniyoyin
tattaki
tattakin
tattalin
tattara
tattarawa
tattare
tattaro
tattauna
tattaunawa
tattaunawar
tau
tauhidi
tauhidin
taurari
taurarin
tauraro
tauraron
tauraruwa
tauraruwar
tauri
taurin
tauris
tausayawa
tausayi
taushi
tauye
tawada
tawaga
tawagar
tawagarsa
tawagarsu
tawali
tawaya
tawaye
tawayen
tax
taxi
taya
tayal
tayar
tayi
tayin
taylor
taymiyyah
tayo
tazama
tazara
tazarar
tazo
taƙaice
taƙaita
taƙaitaccen
taƙaitawa
taɓa
taɓarɓarewa
taɓawa
taɗi
tb
tbilisi
tbol
tbs
tchad
te
tea
teacher
teachers
teaching
teak
team
teams
teamungiyar
tears
teatro
teauroux
tebur
teburi
teburin
tech
techiman
technical
technologies
technology
tectonic
tectonics
tecumseh
ted
teddy
tedela
tee
teen
teenage
tef
tehran
teju
tejuosho
teku
tekun
tekuna
tekunan
tel
telebijin
telecom
telecommunications
telegraph
telenovela
television
tell
telugu
tema
tempest
template
temple
temporis
ten
tenerife
teni
tennessee
tennis
tenor
tera
tercera
teresa
term
terminal
terminology
terms
terra
terrace
terracotta
terri
territories
territory
terror
terrorism
terry
tes
tesla
tessa
test
testicular
testosterone
tetteh
texas
text
texts
th
tha
thabit
thai
thailand
thames
than
thani
tharp
that
thatcher
the
thean
theater
theatre
theban
thecable
theguardian
their
them
then
thenationonlineng
thenia
thenigerianvoice
theodore
theology
theophilus
theoretical
theory
therapy
there
theresa
thermal
these
thesis
theungiyar
thew
they
thiam
thierno
thierry
thievy
thing
things
think
thinkpad
third
this
thisday
thisdaylive
thomas
thompson
thomson
thorium
thornton
those
though
thought
thoughts
threat
three
thriller
throne
through
throughout
thumb
thunberg
thunder
thuram
thursday
thyroid
ti
tia
tianjin
tibet
tica
ticket
tico
tide
tie
tienne
tier
tierra
ties
tif
tiffany
tiger
tigers
tigray
tigrinya
tigris
tijani
tijjani
tijjaniyya
tikiti
tikitin
tiktok
tilas
tilasta
tilastawa
till
tillabe
tilo
tim
timbo
timbuktu
time
timeline
times
timi
timo
timothy
tin
tina
tinsel
tinubu
tip
tippecanoe
tir
tirailleurs
tirana
tiraspol
tiriliyan
tirmidhi
tirmizi
tis
tisa
tisserand
titanium
titans
titi
titin
title
titles
tituna
titunan
tiv
tiwa
tiyata
tiyatar
tiyoloji
tiyolojin
tj
tko
tlemcen
tnm
to
tobago
tobi
toby
today
todd
tofa
together
togo
togoland
toile
toka
tokar
toko
tokyo
tola
told
toledo
tolstoy
tom
tomatoes
tomb
tombalbaye
tome
tommy
tomori
tomorrow
ton
tona
tong
tonga
toni
tono
tony
tonye
too
took
top
tope
topic
topics
topo
topoisomerase
torino
tornadoes
toro
toronto
torre
torres
torture
tory
toshe
toshewa
toshewar
tosin
tostan
total
tottenham
toubou
touch
toulon
toulouse
tour
toure
tourism
tourists
tournament
tournamentsoftware
tours
towards
tower
towers
town
towns
townsend
township
toxic
toxicology
toyin
toyota
tozarta
tp
tr
trabalzini
trabelsi
track
tracker
tracks
tracy
trade
trading
tradition
traditional
traditions
traffic
trafficking
trafford
tragedy
trail
trailer
train
training
trans
transboundary
transcorp
transfer
transformation
transgender
transistor
transit
transition
transl
translate
translated
translation
translations
transnational
transparency
transport
transportation
transvaal
traore
travel
travels
tre
treatise
treatment
treaty
tree
trees
trek
trenc
trends
trent
trenton
trevor
tri
trial
trials
triangle
tribal
tribe
tribunal
tribune
tribuneonlineng
tribute
trick
trier
trilogy
trinidad
trinity
trio
trip
triple
tripoli
triumph
troitsky
trophy
tropical
troposphere
troy
troyes
trudeau
true
truman
trump
trust
truth
ts
tsaba
tsabar
tsabta
tsabtace
tsabtar
tsabtataccen
tsada
tsadar
tsafe
tsaffin
tsafi
tsafin
tsafta
tsaftace
tsaftacewa
tsaftar
tsaftataccen
tsaga
tsagaita
tsage
tsai
tsaida
tsaiko
tsaka
tsakani
tsakanin
tsakaninsa
tsakaninsu
tsakaninta
tsakar
tsaki
tsakin
tsakiya
tsakiyar
tsakuwa
tsallaka
tsallake
tsallakewa
tsalle
tsami
tsamiya
tsammani
tsammanin
tsan
tsana
tsanani
tsananin
tsananta
tsanantawa
tsangaya
tsangayar
tsangwama
tsantsan
tsar
tsara
tsararraki
tsararren
tsararru
tsararrun
tsarawa
tsare
tsaren
tsarewa
tsari
tsarin
tsarinsa
tsarinta
tsarkaka
tsarkakakken
tsarkake
tsarkakewa
tsarki
tsaro
tsaron
tsarotsaro
tsarukan
tsatson
tsattsarkan
tsattsauran
tsauni
tsaunin
tsaunuka
tsaunukan
tsauraran
tsauri
tsawa
tsawaita
tsawaitawa
tsawan
tsawo
tsawon
tsawonsa
tsaya
tsayar
tsayawa
tsayayya
tsayayyar
tsayayye
tsayayyen
tsayayyun
tsaye
tsayi
tsayin
tsayinsa
tsayuwa
tsayuwar
tsere
tseren
tserewa
tsibirai
tsibiran
tsibiri
tsibirin
tsige
tsinci
tsinkaya
tsinkayar
tsinkaye
tsinkayen
tsinke
tsintsiya
tsira
tsiraici
tsirara
tsiraru
tsirarun
tsire
tsiri
tsiro
tsiron
tsirrai
tsiya
tsofaffi
tsofaffin
tsoffin
tsoho
tsohon
tsohuwa
tsohuwar
tsoka
tsokaci
tsokana
tsokanar
tsokoki
tsoma
tsoratar
tsoratarwa
tsoro
tsoron
tsu
tsufa
tsugunar
tsunami
tsunduma
tsuntsaye
tsuntsayen
tsuntsu
tsutsa
tsutsotsi
tt
tteok
ttt
tu
tuareg
tuba
tubalan
tubali
tubalin
tube
tucker
tucson
tuddai
tude
tudes
tudu
tudun
tuesday
tufa
tufafi
tufafin
tuffa
tuhuma
tuhumar
tuhumarsa
tuhume
tuhumen
tuhumi
tuka
tuki
tukin
tukuna
tukunya
tukunyar
tukur
tukuru
tukwane
tula
tulayha
tulip
tulsa
tulu
tulun
tumaki
tumatir
tumor
tun
tuna
tunani
tunanin
tunaninsa
tunaninsu
tunaninta
tunatar
tunatarwa
tunawa
tunda
tunde
tuni
tunis
tunisia
tunisie
tunisiya
tunji
tunkarar
tunkari
tunku
tuno
tuntuba
tuntubar
tuntube
tuntubi
tuntuɓar
tuntuɓe
tuntuɓi
tunusiya
tunzura
tura
turai
turaki
turance
turanci
turancin
turare
turawa
turawan
turbidity
turbin
turbo
ture
turin
turjiya
turk
turkawa
turkey
turkic
turkish
turkiya
turkiyya
turkmenistan
turmi
turn
turner
turns
turo
tursasa
tursasawa
turtle
tururi
tururin
tururuwa
tushe
tushen
tusker
tuta
tutar
tutoci
tutocin
tutsi
tutu
tuvan
tuwo
tuwon
tuƙi
tuƙuru
tv
tw
twente
twentieth
twenty
twi
twice
twifo
twiga
twin
twinkle
twins
twitter
two
ty
tyap
tyler
tyne
type
types
tyrese
tyson
tze
u
ua
uac
uae
uba
ubah
ubaidah
uban
ubangi
ubangida
ubangiji
ubangijin
ubangijina
ubangijinsa
ubanni
ubayd
uber
ubong
ubs
uc
uche
uchendu
ucla
ucr
ud
udhr
udi
udinese
udo
udu
uefa
uele
ufc
ufuoma
ug
uganda
ugandan
ugcc
ughelli
ugo
uhud
uhudu
uhuru
ui
ujiza
uk
uka
ukan
ukeje
ukic
ukip
ukku
ukpo
ukrain
ukraine
ukrainian
ukraniya
uku
ukun
ukwu
ul
ulama
ulrich
ultimate
ultraviolet
ulu
um
uma
umar
umarce
umarci
umarni
umarnin
umarninsa
umaru
umayya
umayyad
umayyawa
umeh
umm
umma
ummah
ummai
umman
ummar
ummarmu
ummarsa
ummarsu
ummarta
ummi
ummomi
ummomin
ummominsu
ummu
umno
umoh
umrah
umu
umuahia
umukabia
umurce
umurci
umurni
umurnin
un
una
unaids
uncle
unclos
uncp
und
under
underground
understanding
undp
une
unep
unesco
unfccc
unfp
ungiyar
ungozoma
ungps
ungulu
unguwa
unguwan
unguwanni
unguwannin
unguwar
unhcr
unhrc
uni
unicef
unicode
unidos
uniform
unilag
unilever
union
unions
unionungiyar
unique
unit
united
units
unity
universal
universe
universidad
universita
universite
universities
university
unix
unknown
unn
unreviewed
until
unveiled
unveils
uoc
up
update
updated
upload
uploads
upn
upon
upper
uppereast
upright
upsilon
uqba
ur
ura
uranium
urar
urbaines
urban
urbana
urdu
urges
urhobo
uri
url
uromi
urori
urorin
uruguay
urushalima
us
usa
usaid
usain
usama
usayn
usb
usc
usd
usda
use
used
useni
user
usgs
using
usl
usm
usman
usmaniyya
usmanu
uss
ussr
usually
usul
uta
utah
utbah
utc
uthman
utm
utme
utrecht
uttar
uttarakhand
uv
uwa
uwan
uwana
uwani
uwansa
uwansu
uwanta
uwantaka
uwar
uwargida
uwargidan
uwargidanmu
uwarsa
uwarta
uwaye
uwayen
uyo
uys
uzbek
uzbekistan
uzodinma
uzor
uzuri
uzza
v
va
vaccines
vacher
val
valdez
vale
valencia
valentine
valentyn
valerie
valladolid
valle
valley
value
values
van
vancouver
vanessa
vanguard
vanguardngr
vanilla
vanuatu
var
vargas
variant
variety
various
varsity
vary
vasilev
vasyanovych
vasyl
vatican
vaughan
vaughn
vax
vc
ve
vector
ved
vedic
vega
vegas
vehicle
veil
veloppement
ven
venetian
venezuela
venezuelan
venice
venlo
venture
ventures
venus
vera
verde
verlag
vermont
vernon
verona
veronica
verse
version
versions
versus
vertov
very
vfb
vfl
vhs
vi
via
vic
vice
vicente
vick
vicker
vickers
victims
victor
victoria
victory
video
videos
vie
vienna
viet
vietnam
vietnamese
view
viewers
views
vigo
vii
viii
viking
vikings
viktor
vila
villa
village
villages
villarreal
ville
villiers
vilnius
vin
vince
vincennes
vincent
vintage
vinyl
viola
violence
violet
violin
vip
vipers
virgil
virgin
virginia
virtual
virunga
virus
vis
visa
viscount
vision
visit
visited
visits
vista
visual
vita
vitesse
vito
vitro
vivian
vixen
vizier
vladimir
vladislav
vocal
vocals
vogue
voice
voices
voivodeship
vol
volcanic
volcano
volga
volgograd
volkswagen
volleyball
volodymyr
vols
volta
volume
volumes
vom
von
voodoo
vote
voting
vowels
voyage
vr
vs
vu
vv
vvv
w
wa
waccan
wacce
wace
wada
wadai
wadancan
wadanda
wadannan
wadansu
wadata
wadataccen
wadatar
wadatattun
wadda
wade
wadi
wadia
wadud
waec
wafa
wafer
wafu
wage
wagner
waha
wahab
wahala
wahalar
wahalhalun
wahayi
wahayin
wahhab
wahingdoh
wai
wailers
waina
waiting
waja
wajaba
wajabcin
wajabta
wajajen
wajan
waje
wajen
wajibai
wajibci
wajibcin
wajibi
wajirat
waka
wakafi
wakar
wakarsa
wakarta
wake
wakefield
waken
wakilai
wakilan
wakilansu
wakilce
wakilci
wakilcin
wakili
wakilin
wakilinsa
wakiliya
wakiliyar
wakilta
wakiltan
wakiltar
wakoki
wakokin
wakokinsa
wakokinta
wal
wala
walau
wale
wales
wali
walid
waliyi
waliyyai
waliyyan
waliyyi
walk
walker
walking
wall
wallace
wallafa
wallafawa
wallafe
wallafen
wallahi
wallis
wallon
walls
walsh
walt
walter
walton
walwala
walwalar
walƙiya
wambai
wamdeo
wamena
wan
wanan
wancan
wanda
wande
wanderers
wando
wane
wanene
wang
wani
wanka
wankan
wanke
wanki
wankin
wanna
wannan
wanne
wanner
want
wanted
wants
wanzar
wanzu
wanzuwa
wanzuwar
waqoqin
waqqas
war
waraka
warawa
warburg
ward
wards
ware
waregem
warewa
warfare
wargaje
wargaza
wari
warin
wariya
wariyar
warkar
warkarwa
warke
warkewa
warming
warner
warns
warren
warri
warrior
warriors
wars
warsaw
warware
warwarewa
warwatse
warwick
was
wasa
wasabi
wasali
wasalin
wasan
wasanin
wasanni
wasannin
wasanninsa
wasanninsu
wasanninta
wasansa
wasansu
wasanta
wase
washe
washegari
washington
wasika
wasikar
wasiku
wasikun
wasiyya
wasiƙa
wasiƙar
wasiƙu
wasiƙun
wassce
waste
wasu
wasula
wasulan
wasunsu
wata
watakila
watan
watanni
watannin
watau
wataƙila
watch
water
waterfall
waters
watford
wato
watsa
watsar
watsawa
watsawar
watse
watsi
watson
watt
watts
wauta
wave
waves
waxanda
way
waya
wayar
wayau
wayback
waye
wayewa
wayewar
wayne
wayo
wayoyi
wayoyin
ways
waziri
wazirin
waziristan
waƙa
waƙar
waƙarsa
waƙarta
waƙe
waƙoƙi
waƙoƙin
waƙoƙinsa
waɗancan
waɗanda
waɗannan
waɗanne
waɗansu
wbc
wc
wd
we
wealth
wear
weather
weatherford
web
webarchive
webb
weber
website
webster
wed
wedding
wednesday
wee
week
weekend
weekly
wef
wehda
weight
welbeck
welcome
welfare
well
welle
weller
wellington
wells
welsh
welterweight
wembley
wenchi
wendy
went
werder
were
werner
wesley
wesleyan
west
westall
western
westminster
westport
wet
wetlands
wfc
wg
whale
what
whatsapp
wheatley
wheeler
when
where
whether
which
whig
whigs
while
whip
white
whitney
who
whole
whose
why
whyte
wi
wicket
wickets
wide
widely
width
wien
wiesbaden
wife
wigan
wike
wiki
wikibooks
wikidata
wikimania
wikimapia
wikimedia
wikipedia
wikis
wikisource
wikki
wiktionary
wild
wildlife
wiley
wilfred
wilhelm
wilkes
wilkinson
will
willem
william
williams
williamson
willie
willis
willow
wilson
wilt
wimax
wimbledon
win
wind
windhoek
window
windows
windsor
winfrey
wing
winger
wings
winneba
winner
winners
winning
winnipeg
wins
winslow
winston
winter
wipf
wipo
wire
wisconsin
wisdom
wise
wiseman
wissa
with
within
without
witness
witwatersrand
wiv
wives
wiwa
wiwi
wiz
wizkid
wnba
wo
wodaabe
wojcicki
wole
wolf
wolfgang
wolfsburg
wolof
wolverhampton
wolves
woman
women
womens
won
wonder
wong
wood
woodland
woodrow
woods
woodward
worcester
word
wordpress
words
work
workers
working
works
workshop
world
worldcat
worldfootball
worlds
worldstatesmen
worldwide
worth
would
wp
wrestling
wright
write
writer
writers
writing
writings
written
wrong
wrote
wsl
wt
wto
wu
wuce
wucewa
wucewar
wucin
wudil
wuhan
wuka
wukake
wukari
wulakanci
wulakanta
wurare
wuraren
wuri
wurin
wurina
wurinsa
wuta
wutan
wutar
wutsiya
wutsiyar
wuya
wuyan
wuyansa
wuyar
wuƙa
wuƙaƙe
ww
wwf
wwii
www
wychwood
wycombe
wydad
wyoming
x
xavier
xbox
xe
xi
xia
xii
xiii
xinhua
xinjiang
xiv
xo
xp
xu
xv
xvi
xx
xxx
y
ya
yaa
yaba
yabar
yabatech
yabawa
yabi
yabo
yabon
yace
yaci
yacigaba
yacoub
yacouba
yada
yadawa
yadda
yadi
yadu
yadudduka
yaduwa
yaduwar
yafara
yafe
yafi
yaga
yage
yah
yahaya
yahia
yahoo
yahudanci
yahudawa
yahudawan
yahuza
yahya
yaje
yaji
yajin
yakai
yakamata
yakan
yakar
yakasai
yakasance
yake
yaki
yakin
yakoma
yakubu
yakurr
yala
yale
yalwa
yalwar
yam
yamai
yamama
yamamah
yaman
yamma
yammaci
yammacin
yamman
yamuna
yan
yana
yanada
yanar
yanayi
yanayin
yanayinsa
yanayinta
yanci
yancin
yancinsu
yancinta
yanda
yang
yanka
yankakken
yankan
yankari
yanke
yankee
yankewa
yankewar
yanki
yankin
yankinsa
yankinsu
yankinta
yankuna
yankunan
yankunansu
yankunanta
yansa
yansu
yanta
yantar
yanzu
yanzun
yao
yaounde
yar
yara
yarabawa
yaran
yaransa
yaransu
yaranta
yarbanci
yarbawa
yarbawan
yard
yarda
yardar
yare
yaren
yarensu
yari
yarima
yariman
yarin
yarinta
yarinya
yarinyar
yarjejeniya
yarjejeniyar
yarjejeniyoyi
yarjejeniyoyin
yarjeniyoyin
yarmouk
yaro
yaron
yarsa
yarsu
yarta
yaruka
yarukan
yarurruka
yasa
yasamu
yashewa
yashewar
yashi
yashin
yasin
yasir
yasmin
yassin
yassine
yat
yates
yatsa
yatsan
yatsu
yatsun
yau
yaudara
yaudarar
yaudare
yaushe
yaw
yawa
yawaita
yawaitar
yawan
yawanci
yawancin
yawancinsu
yawansu
yawanta
yawo
yawon
yawun
yaya
yayan
yayansa
yayanta
yaye
yayi
yayin
yayinda
yazama
yazid
yazidawa
yazidi
yazidis
yazo
yaƙar
yaƙe
yaƙi
yaƙin
yaɗa
yaɗu
yaɗuwa
yaɗuwar
ye
yeah
yeahs
year
yearbook
years
yeboah
yeh
yekini
yellow
yemen
yemi
yemisi
yenagoa
yencin
yendi
yeni
yeovil
yerevan
yerima
yero
yes
yesu
yet
yetunde
yewa
yewande
yhri
yi
yiadom
yin
yini
yinka
yinsa
yinta
yiwa
yiwu
yiwuwa
yiwuwar
yiyuwa
yle
ynaija
yo
yobe
yoga
yogyakarta
yola
yomi
york
yorker
yorkshire
yoruba
yota
you
young
younger
your
yousafzai
youssef
youssouf
youth
youths
youtube
yu
yuan
yugoslavia
yuguda
yukon
yukren
yuli
yulin
yumbu
yumɓu
yun
yunfa
yuni
yunin
yunkai
yunkuri
yunkurin
yunnan
yunusa
yunwa
yunwar
yunƙuri
yunƙurin
yuri
yuriy
yuro
yusef
yussuf
yusuf
yusuff
yusufu
yuwu
yuwuwa
yuwuwar
yves
yvonne
z
za
zaba
zababben
zababbun
zaban
zabar
zabarsa
zabe
zaben
zabensa
zabenta
zabi
zabid
zabin
zabo
zabtarewar
zabuka
zabukan
zabura
zaburar
zack
zafar
zafi
zafin
zaftarewar
zagaya
zagayawa
zagaye
zagayen
zagayowar
zage
zaghawa
zagi
zagin
zagon
zagreb
zahir
zahiri
zahra
zai
zaid
zaidu
zain
zainab
zaire
zaitun
zaizayar
zaka
zakara
zakaran
zakari
zakaria
zakariyya
zakarun
zaki
zakin
zakka
zakuna
zakzaky
zalika
zalla
zalunci
zaluncin
zalunta
zaluntar
zam
zama
zamalek
zaman
zamanai
zamanantar
zamani
zamanin
zamaninsa
zamansa
zamanta
zamantakewa
zamantakewar
zamanto
zamba
zambezi
zambia
zambiya
zamewa
zamfara
zamo
zamu
zan
zana
zance
zancen
zane
zanen
zanga
zangar
zango
zangon
zanjai
zanna
zantawa
zanzibar
zar
zara
zarafi
zarafin
zarafinsu
zaragoza
zaran
zarar
zarce
zare
zareco
zaren
zarge
zargen
zargi
zargin
zarginsa
zaria
zariya
zarma
zarmakoy
zarruk
zartar
zartarwa
zartarwar
zartas
zartaswa
zasu
zata
zato
zaton
zauna
zaunar
zaune
zaure
zauren
zawahiri
zawarawa
zawiya
zawiyet
zayd
zayed
zayn
zaynab
zayyana
zayyano
zazzabi
zazzabin
zazzage
zazzagewa
zazzau
zazzaɓi
zazzaɓin
zaɓa
zaɓar
zaɓaɓɓen
zaɓaɓɓu
zaɓaɓɓun
zaɓe
zaɓen
zaɓi
zaɓin
zaɓukan
zaɓuɓɓuka
zaɓuɓɓukan
ze
zealand
zed
zedong
zeila
zemura
zen
zeng
zenith
zerbo
zero
zhang
zhao
zhejiang
zheng
zhishen
zhou
zhu
zi
zida
zidan
zidane
zik
zika
zim
zimbabwe
zimmermann
zina
zinare
zinaren
zinari
zinariya
zinc
zinchenko
zinder
zine
zion
zira
zirga
zirgar
zirin
zitouna
ziyad
ziyara
ziyarar
ziyarce
ziyarci
ziyarta
ziyartar
zlatan
zo
zobe
zoben
zogale
zomo
zone
zongo
zoo
zoology
zoom
zoonotic
zoroastrian
zou
zquez
zu
zub
zuba
zubairu
zubar
zubarwa
zubayr
zube
zubewa
zubewar
zuciya
zuciyar
zuciyarmu
zuciyarsa
zuciyata
zuckerberg
zuga
zuhudu
zukatan
zukiswa
zulfikar
zulte
zulu
zum
zuma
zumunci
zumunta
zungeru
zunubai
zunubi
zur
zura
zurfafa
zurfi
zurfin
zuri
zurich
zuriya
zuriyar
zuriyarsa
zuriyarsu
zurmi
zuru
zuwa
zuwan
zuwo
zx
{
|
}
~
¡
¢
£
¥
§
©
ª
«
®
¯
°
±
²
³
´
µ
·
º
»
½
¿
×
æ
þ
ħ
ı
ŋ
ŧ
ƙ
ƙa
ƙabila
ƙabilanci
ƙabilar
ƙabilu
ƙabilun
ƙaddamar
ƙaddamarwa
ƙaddara
ƙaddarar
ƙafa
ƙafafu
ƙafafun
ƙafar
ƙafarsa
ƙaho
ƙalilan
ƙalla
ƙalubalanci
ƙalubalantar
ƙalubale
ƙalubalen
ƙamshi
ƙamus
ƙanana
ƙananan
ƙanshi
ƙanwar
ƙanwarta
ƙanƙanta
ƙanƙara
ƙara
ƙarama
ƙaramar
ƙarami
ƙaramin
ƙaranci
ƙarancin
ƙarar
ƙararraki
ƙararrakin
ƙararrawa
ƙarasa
ƙarawa
ƙare
ƙarewa
ƙarewar
ƙarfafa
ƙarfafawa
ƙarfe
ƙarfi
ƙarfin
ƙarfinsa
ƙari
ƙarin
ƙarni
ƙarnin
ƙarnuka
ƙarshe
ƙarshen
ƙarshensa
ƙaru
ƙaruwa
ƙaruwar
ƙarya
ƙaryata
ƙarƙashin
ƙarƙashinsa
ƙasa
ƙasan
ƙasar
ƙasarsa
ƙasarsu
ƙasarta
ƙasashe
ƙasashen
ƙasashensu
ƙashi
ƙashin
ƙasusuwan
ƙasƙanci
ƙasƙantar
ƙauna
ƙaunaci
ƙaunar
ƙaunarta
ƙaunataccen
ƙaura
ƙaurawar
ƙauye
ƙauyen
ƙauyensa
ƙauyuka
ƙauyukan
ƙawance
ƙawancen
ƙawata
ƙaya
ƙayar
ƙayyadadden
ƙayyadaddun
ƙayyade
ƙazamar
ƙazamin
ƙazanta
ƙazantar
ƙaƙƙarfan
ƙera
ƙere
ƙeta
ƙetare
ƙetaren
ƙi
ƙidaya
ƙidayar
ƙididdiga
ƙididdigar
ƙididdige
ƙididdigewa
ƙila
ƙima
ƙimar
ƙimomin
ƙin
ƙira
ƙirar
ƙirgar
ƙirji
ƙirjin
ƙirƙira
ƙirƙirar
ƙirƙire
ƙirƙiri
ƙirƙiro
ƙiyasin
ƙiyasta
ƙiyayya
ƙofa
ƙofar
ƙofofi
ƙofofin
ƙoli
ƙona
ƙonawa
ƙone
ƙonewa
ƙoshin
ƙoƙarce
ƙoƙari
ƙoƙarin
ƙoƙarinsa
ƙudan
ƙudirin
ƙuduri
ƙudurin
ƙugiya
ƙugu
ƙulla
ƙulli
ƙungiya
ƙungiyar
ƙungiyarsa
ƙungiyarta
ƙungiyoyi
ƙungiyoyin
ƙunsa
ƙunsar
ƙunshe
ƙunshi
ƙuntata
ƙuntataccen
ƙuntatawa
ƙur
ƙura
ƙurar
ƙuri
ƙuruciya
ƙuruciyarsa
ƙuruciyarta
ƙwace
ƙwadago
ƙwai
ƙwallaye
ƙwallayen
ƙwallo
ƙwallon
ƙwanƙolin
ƙwanƙwasa
ƙwarai
ƙwararre
ƙwararren
ƙwararriyar
ƙwararru
ƙwararrun
ƙwaraƙwarai
ƙware
ƙwarewa
ƙwarewar
ƙwari
ƙwarin
ƙwaro
ƙwarya
ƙwarƙwarar
ƙwaya
ƙwayar
ƙwayoyi
ƙwayoyin
ƙwazo
ƙwaƙwalwa
ƙwaƙwalwar
ƙwaƙƙwaran
ƙyale
ƙyalli
ƙyalƙyali
ƙyama
ƙyamar
ƴ
ƴa
ƴan
ƴanci
ƴancin
ƴar
ƴaƴa
ƴaƴan
ƴaƴansu
ƴaƴanta
ɏ
ɐ
ɑ
ɒ
ɓ
ɓace
ɓacewa
ɓacin
ɓangare
ɓangaren
ɓangarori
ɓangarorin
ɓarke
ɓarkewa
ɓarkewar
ɓarna
ɓarnar
ɓata
ɓaure
ɓawon
ɓoyayyen
ɓoyayyun
ɓoye
ɓoyewa
ɓullo
ɔ
ɕ
ɗ
ɗa
ɗabi
ɗaci
ɗaga
ɗage
ɗaiɗai
ɗaiɗaikun
ɗaki
ɗakin
ɗakuna
ɗakunan
ɗalibai
ɗaliban
ɗalibi
ɗalibin
ɗan
ɗanja
ɗansa
ɗansu
ɗanta
ɗanyen
ɗanɗano
ɗari
ɗaruruwan
ɗauka
ɗaukacin
ɗaukaka
ɗaukan
ɗaukar
ɗaukarsa
ɗaukarsu
ɗaukarta
ɗauke
ɗauki
ɗauko
ɗaura
ɗaure
ɗaurin
ɗawainiyar
ɗaya
ɗayan
ɗayansu
ɗiban
ɗigon
ɗimbin
ɗin
ɗinki
ɗinkin
ɗinsa
ɗinsu
ɗinta
ɗiya
ɗiyar
ɗora
ɗorawa
ɗorewa
ɗorewar
ɗumamar
ɗumbin
ɗumi
ɘ
ə
ɛ
ɡ
ɣ
ɦ
ɨ
ɪ
ɰ
ɲ
ɹ
ɽ
ɾ
ʁ
ʃ
ʊ
ʐ
ʑ
ʒ
ʔ
ʝ
ʰ
ʲ
ʹ
ʺ
ʻ
ʼ
ʽ
ʾ
ʿ
ˁ
ˆ
ˈ
ˌ
ː
˚
ˤ
˺
̀
́
̂
̃
̄
̆
̇
̈
̉
̊
̋
̌
̏
̓
̔
̕
̘
̚
̛
̞
̠
̣
̦
̧
̨
̩
̪
̭
̮
̯
̱
̲
̳
͂
ͅ
͡
ͤ
ͭ
α
β
γ
δ
ε
η
θ
ι
κ
λ
μ
ν
ο
π
ρ
ς
σ
τ
υ
φ
χ
а
в
г
е
з
за
и
к
л
м
н
на
ни
о
п
р
с
т
у
украі
х
ь
э
ю
я
і
ә
ְ
ִ
ַ
ָ
ֹ
ּ
א
ב
מ
ר
ת
،
؟
ا
ابن
ال
الا
الله
ب
بن
بو
ة
ت
ث
ج
ح
خ
د
ذ
ر
ز
س
ش
ص
ض
ط
ع
عبد
غ
ـ
ف
في
ق
ك
ل
لا
م
محمد
من
ن
ه
و
ى
ي
ً
ٌ
ٍ
َ
ُ
ِ
ّ
ْ
ٓ
ٔ
ٕ
ٰ
ٱل
ۢ
ۭ
ް
ं
क
च
त
द
न
प
ब
म
र
ल
व
स
ह
ा
ि
ी
ु
े
्
ক
ড
ত
ন
ব
ম
য
র
ল
স
়
া
ি
ী
ু
ে
্
க
ச
த
ப
ம
ல
ா
ி
ு
்
ం
ట
న
ర
ల
స
ా
ి
ీ
ు
ే
ో
్
ಂ
ಕ
ಗ
ಜ
ಠ
ಡ
ತ
ದ
ನ
ಪ
ಬ
ಮ
ಯ
ರ
ಲ
ವ
ಶ
ಷ
ಸ
ಹ
ಾ
ಿ
ು
ೂ
ೃ
ೆ
್
ೕ
්
ා
ි
ු
ෙ
ิ
ี
้
་
ོ
ᵐ
ᶬ
​
‌
‎
‐
‑
‒
–
—
‘
’
‚
‛
“
”
„
‟
†
•
…
‬
′
″
‹
›
⁄
₂
₦
€
₴
₹
№
™
←
↑
→
↔
↗
↵
↷
−
∗
≤
≥
⋅
③
④
⑦
▶
♭
✓
⟨
⟩
⦁
ⱦ
ⴰ
ⴱ
ⴻ
ⵉ
ⵍ
ⵎ
ⵏ
ⵓ
ⵙ
ⵜ
⺀
⺄
⺆
⺈
⺊
⺌
⺕
⺝
⺸
⺼
⿰
⿱
⿲
⿳
⿴
⿵
⿶
⿷
⿸
⿹
⿺
⿻
」
『
』
〢
あ
い
す
つ
て
と
に
の
ひ
る
゙
ウ
ク
コ
ス
ト
ハ
フ
ユ
ラ
ル
ン
・
ー
㇁
㇂
㇄
㇇
㇈
㇉
㇓
㐁
㐄
㐅
㐌
㐫
㐬
㐭
㐮
㐱
㑒
㒵
㒸
㒼
㓁
㓞
㔾
㕛
㕣
㖾
㘝
㚅
㚇
㚔
㚘
㝉
㝡
㝴
㝵
㞋
㞢
㞷
㠩
㠭
㠯
㡀
㡭
㡿
㢲
㢴
㣇
㣺
㥯
㪅
㫄
㫐
㫒
㫺
㬅
㬎
㬥
㬰
㲋
㳄
㷠
㸒
㸚
㸦
㼌
㼲
㽞
㿟
䀠
䂞
䍃
䏍
䒑
䖍
䖒
䖝
䖵
䙴
䚻
䜌
䝿
䡛
䧹
䪞
一
丁
丂
七
丄
丅
丆
万
丈
三
上
下
丌
不
与
丏
丐
丑
专
且
丕
世
丘
丙
业
东
丞
丢
丣
两
严
並
丨
丩
个
丫
丬
中
丮
丰
丱
串
丵
丶
丷
丸
丹
为
主
丽
丿
乀
乂
乃
久
乆
乇
么
义
之
乌
乍
乎
乏
乐
乑
乔
乖
乗
乘
乙
乚
乛
乜
九
乞
也
习
乡
乳
乾
亀
亅
了
亇
予
争
事
二
亍
于
亏
亐
云
互
亓
五
井
亘
亚
亜
亞
亟
亠
亡
亢
交
亥
亦
产
亨
亩
享
京
亭
亮
亯
亰
亲
亳
亶
亷
人
亻
亼
亾
仁
今
介
仌
从
仐
仑
仒
仓
仕
他
付
仝
代
令
以
仮
任
企
伊
伏
伐
休
会
伯
但
位
何
佘
余
作
佥
使
來
侈
侌
侖
侯
侵
便
保
俞
信
修
倉
倍
候
倠
備
僉
僕
儿
兀
允
兂
元
兄
充
兆
兇
先
光
兊
克
兌
免
兑
兒
兓
兔
党
兜
兟
入
全
兩
兪
八
公
六
兮
兰
共
关
兵
其
具
典
兹
兼
冀
冂
冃
冄
内
冈
冉
冊
冋
册
再
冎
冏
冐
冒
冓
冖
冗
冘
军
农
冝
冡
冥
冫
冬
冷
几
凡
凢
凵
凶
凷
凸
凹
出
函
凾
刀
刁
刂
刃
刄
刅
分
切
刍
刑
刕
刖
列
刘
则
初
別
利
别
到
制
刺
則
削
剌
前
剡
剽
劉
力
功
加
劦
助
劫
劳
劵
勃
勇
勉
勒
動
務
勞
勤
勹
勺
勻
勾
勿
匀
匂
包
匆
匈
匊
匋
匍
匕
化
北
匚
匝
匡
匪
匱
匸
匹
区
医
匽
匿
區
十
卂
千
卄
卅
卆
升
午
卉
半
卌
华
卑
卒
卓
单
卖
南
卜
卝
卞
占
卡
卢
卣
卤
卦
卩
卪
卬
卯
印
危
即
却
卵
卷
卸
卻
厂
厃
厄
历
厈
厉
厌
厓
厘
厚
原
厤
厥
厨
厭
厲
厶
厷
厸
去
厼
厽
叀
参
參
叅
又
叉
及
友
双
反
叐
发
叒
叔
叕
取
受
叚
叜
叟
口
古
句
另
叩
只
召
可
台
叱
史
右
叵
号
司
叹
吂
各
吅
合
吉
吊
吋
同
名
后
吏
向
吕
君
吝
吞
否
含
启
吳
吴
吹
吾
呂
呆
呈
告
员
呙
周
命
咅
和
咎
咠
咢
咨
咸
咼
哀
品
哉
員
哥
哲
唐
商
啇
問
啚
啬
啻
善
喜
喬
單
喿
嗇
噩
嚴
囊
囗
囘
囙
囚
四
回
囟
因
囧
囬
困
囱
囷
固
国
圂
圅
國
圍
圓
圖
土
圡
圣
圥
在
圭
地
圶
圼
坐
坒
坚
坴
垂
垔
垚
埀
埋
城
埶
執
基
堂
堅
堆
堇
堯
塞
墨
壘
士
壬
壯
声
壳
壴
壹
壺
壽
夂
处
夅
夆
备
夊
夋
夌
复
夏
夒
夕
外
夗
夘
多
夜
夢
大
夨
天
太
夫
夬
夭
央
失
夲
头
夷
夸
夹
夻
夾
奂
奄
奇
奈
奉
奎
奏
奐
契
奓
奔
奚
奞
奠
奢
奥
奭
女
奴
奻
好
如
妄
妙
妟
妥
妻
妾
姑
委
姜
威
娄
婁
婴
嬰
嬴
子
孑
孔
孕
孖
字
存
孚
孛
孝
孟
季
孤
学
孫
孱
學
宀
宁
宂
它
宅
宇
守
安
宋
完
宏
宓
宗
官
定
宛
宜
宝
客
宣
室
宮
宰
害
家
容
宾
宿
寄
寅
密
富
寒
察
寧
審
寫
寬
寮
寸
对
寺
寻
寽
対
寿
封
尃
射
将
將
專
尉
尊
尋
尌
對
小
少
尒
尓
尔
尖
尗
尚
尞
尢
尣
尤
尧
尨
尭
就
尸
尹
尺
尻
尼
尽
尾
尿
局
居
屈
屋
屎
屏
屑
展
屖
屚
属
屠
屡
屬
屮
屯
屰
山
屵
屾
岁
岂
岑
岡
岩
岳
岸
峯
島
崇
崑
崔
崖
崙
崩
嵬
嶲
巂
巛
川
州
巟
巠
巢
巤
工
左
巧
巨
巩
巫
差
己
已
巳
巴
巷
巸
巽
巾
巿
帀
市
布
希
帚
帛
帝
带
師
席
帶
常
干
平
年
幵
并
幷
幸
幺
幻
幼
幽
幾
广
広
庄
床
底
店
庚
府
度
庫
庭
庶
康
庸
廉
廌
廛
廣
廩
廴
延
廷
建
廾
廿
开
弁
弃
弄
弇
弋
式
弓
弔
引
弗
弘
弜
弟
弥
弦
弱
張
強
强
彊
彌
彎
彐
彑
当
彔
录
彖
彗
彡
形
彥
彦
彧
彭
影
彳
役
彼
往
待
律
徒
得
徙
從
復
微
徵
心
忄
必
忌
忍
志
忝
忠
忩
快
念
忽
忿
思
怠
急
怱
恆
恒
恩
恭
息
悉
患
悤
悲
悶
惠
惡
惢
愁
愈
意
愛
感
慈
慧
慮
憂
憲
應
戀
戈
戉
戊
戋
戌
戍
戎
成
我
戒
戔
或
戚
戠
戢
截
戲
戶
户
戹
戼
戾
房
所
扁
扇
手
扌
才
打
托
执
承
折
拉
拜
拿
掌
推
提
摩
支
攴
攵
收
攸
改
放
政
敄
敏
敕
敖
敗
教
敝
敞
敢
散
敦
敫
敬
数
敷
數
斂
文
斉
斊
斗
斤
斥
斩
斬
斯
新
方
於
施
斿
旁
旋
族
旗
无
旡
既
旣
日
旦
旧
旨
早
旬
旱
旲
时
旾
昆
昇
昌
昍
明
昏
易
昔
昗
昜
星
春
昬
是
昱
昴
昷
時
晃
晋
晏
普
景
晶
智
暑
暴
曇
曩
曰
曲
曳
更
曷
書
曹
曼
曾
替
最
朁
會
月
有
朋
服
朔
朕
朗
望
朝
木
朩
未
末
本
札
朮
术
朱
朵
朶
朿
杀
李
杏
杜
束
条
来
東
杲
杳
松
析
林
枚
果
枝
枲
枼
某
柔
查
柬
柰
柴
栗
桀
桑
桼
梁
條
梟
梨
棘
棠
棥
森
楚
業
楽
榮
樂
樊
欠
次
欣
欮
欲
欶
欽
款
歆
歇
歛
止
正
此
步
武
歨
歪
歮
歯
歰
歲
歴
歷
歸
歹
歺
死
殳
段
殷
殸
殹
殺
殻
殿
毋
毌
母
每
毒
比
毕
毚
毛
毳
氏
氐
民
气
氣
水
氵
氶
氷
永
氺
氾
求
汝
汞
江
沃
沓
沙
沝
河
泉
法
波
泣
泥
泰
洋
洛
洪
活
派
流
浦
浪
浮
淡
淮
清
渚
渠
湖
湯
溪
滿
漢
漸
火
灬
灭
灰
灵
灷
炅
炎
炏
炗
炙
炭
為
烈
烏
烝
焉
無
焦
焱
然
煞
熊
熏
燕
營
燮
爪
爫
爭
爯
爰
爱
爲
爵
父
爻
爽
爾
爿
片
牙
牚
牛
牜
牟
牢
牧
牪
牽
犀
犬
犭
犮
狂
狄
狊
独
狺
猋
猒
猪
献
獻
玄
率
玉
王
玟
玨
珎
班
琴
瑟
瑩
瓜
瓦
甘
甚
生
産
用
甫
甬
田
由
甲
申
电
甶
男
甸
甹
画
甾
畀
界
畏
畐
留
畜
畟
畢
畧
畨
番
畫
異
畱
當
畺
畾
疊
疋
疌
疑
疒
疾
癶
癸
癹
登
發
白
百
皀
皃
的
皆
皇
皋
皐
皕
皮
皷
皿
盃
盆
盇
盈
益
盍
盎
监
盒
盖
盛
盡
監
盤
盧
目
直
相
盾
省
眇
眉
看
眔
眞
真
眷
眼
眾
着
睘
睪
睿
瞏
瞢
瞿
矍
矛
矞
矢
矣
知
矦
短
石
研
破
碎
磊
磨
示
礻
礼
神
祟
票
祭
禀
禁
禸
禹
禺
离
禽
禾
禿
秀
秃
秉
秋
科
秝
秦
移
稟
穀
穌
穴
究
穹
空
穿
突
窄
窒
立
竒
竜
竝
竟
章
童
竹
笑
笠
第
筆
等
答
箕
算
箴
節
篤
篭
米
粉
粛
粟
粤
粦
粲
糞
糸
糹
系
約
納
素
索
紫
累
細
絜
絫
絲
維
綿
縣
繇
纍
纟
缶
网
罒
罔
罕
罗
罙
罡
罢
罪
署
罷
羅
羊
羌
羍
美
羔
羕
羗
羞
羡
羣
群
義
羲
羸
羽
翁
翏
習
翕
翟
翠
翼
老
耂
考
者
耆
而
耎
耑
耒
耳
耴
耶
耷
聂
聊
聖
聚
聶
聿
肀
肃
肅
肉
肖
肙
肥
肩
肯
育
肴
胃
背
胡
胥
能
脊
脩
膚
臣
臤
臧
自
臬
臭
臯
臱
至
致
臺
臼
臽
臾
臿
舀
舂
舄
與
興
舉
舌
舍
舛
舜
舞
舟
般
艮
良
色
艸
艹
艾
芒
芔
芬
芮
花
芳
芺
芻
苏
苔
苗
苟
若
苦
英
茶
茸
荅
草
荒
荣
荼
莆
莧
莫
莽
菆
菊
菐
華
萬
落
葉
著
葛
董
葵
蒙
蒦
蒼
蓋
蓬
蓺
蔑
蔡
蕉
蕭
薄
薛
薦
薰
藍
藏
藥
蘭
虍
虎
虐
虒
虔
處
虖
虗
虘
虚
虛
虜
虞
虫
虽
蚤
蚩
蜀
蜜
蟲
蠡
血
行
衍
街
衛
衣
衤
表
衮
衰
袁
袞
褭
褱
襄
襾
西
覀
要
覃
見
規
覓
覧
親
覽
见
视
角
解
言
訁
訇
計
討
詹
語
誩
諸
讠
谷
豆
豈
豊
豐
豕
豖
豙
象
豦
豩
豪
豸
貇
貝
貞
貟
負
貢
貧
貪
貫
責
貳
貴
買
費
賁
資
賈
賏
賓
賔
賛
賞
賢
賣
質
賴
贊
贝
贡
责
贯
贲
贵
赖
赞
赤
赦
走
越
足
路
蹇
身
躬
車
軍
軎
軟
輦
车
辛
辜
辟
辥
辰
辱
農
辵
辶
边
达
过
近
连
迷
追
退
送
逆
逐
通
速
造
逢
連
逮
進
遀
遂
過
道
達
遣
適
遷
遺
邊
邑
邕
那
邦
邪
郎
部
郭
都
鄉
酉
酋
配
酓
釆
采
里
重
野
量
金
釒
錢
钅
長
镸
长
門
閃
閉
開
閏
閑
閒
間
閔
閵
閻
闌
门
间
闷
阑
阜
阝
阿
降
陳
隆
隊
隋
隡
隨
隱
隶
隹
隺
隻
隼
隽
难
雀
雁
集
雈
雋
雍
雐
雔
雙
雚
雜
雝
離
難
雨
雩
雪
雲
零
雷
需
霍
霜
霝
霞
霸
靈
靑
青
非
靡
面
靣
革
韋
韦
韭
韯
韱
音
頁
頃
項
須
頗
頡
頻
顛
页
風
风
飛
飞
食
飠
養
饣
首
香
馬
馮
駦
马
骨
高
髟
鬥
鬯
鬲
鬼
魚
魯
鮮
鱼
鲁
鳥
鳳
鸟
鹵
鹿
麃
麗
麥
麦
麻
黃
黄
黍
黎
黑
黒
黨
黹
黽
黾
鼎
鼓
鼠
鼻
齊
齋
齐
齒
齿
龍
龙
龜
龟
龠
龰
龱
龴
龵
龶
龷
龸
龹
ꝛ
ꞑ
ꞧ
者
艹
ﺍ
ﺎ
ﺑ
ﺓ
ﺔ
ﺗ
ﺘ
ﺩ
ﺪ
ﺭ
ﺮ
ﺳ
ﻄ
ﻋ
ﻘ
ﻝ
ﻟ
ﻠ
ﻣ
ﻤ
ﻧ
ﻨ
ﻫ
ﻭ
ﻮ
ﻱ
ﻲ
ﻳ
ﻴ
ﻷ
﻿
（
）
，
：
？
￼
🌿
𠀁
𠀃
𠀆
𠀉
𠀎
𠀐
𠁁
𠁣
𠂆
𠂇
𠂈
𠂉
𠂊
𠂋
𠂎
𠂒
𠂔
𠂛
𠂡
𠂢
𠂤
𠂬
𠂭
𠂹
𠃊
𠃋
𠃌
𠃍
𠃎
𠃑
𠃓
𠃔
𠃜
𠄌
𠄎
𠄠
𠄢
𠆢
𠆥
𠇍
𠈌
𠌵
𠓜
𠔉
𠔥
𠔼
𠔽
𠔿
𠕀
𠕁
𠕋
𠘧
𠘨
𠙻
𠙼
𠚏
𠚒
𠚤
𠚪
𠣏
𠤎
𠤕
𠥓
𠦄
𠦑
𠦝
𠧒
𠧗
𠧪
𠩺
𠪚
𠫓
𠫔
𠫤
𠬛
𠬝
𠬞
𠬢
𠬤
𠬶
𠮛
𠮦
𠮷
𠯑
𠱠
𠳮
𠷎
𡈼
𡉀
𡉵
𡌥
𡍮
𡏳
𡕒
𡕩
𡕰
𡖅
𡗗
𡗜
𡘆
𡘤
𡧱
𡨄
𡩧
𡬠
𡭽
𡰣
𡰥
𡰪
𡰯
𡰱
𡷈
𡸁
𡿨
𡿩
𡿪
𡿺
𢀖
𢀛
𢀩
𢁙
𢆉
𢆰
𢆶
𢇁
𢇇
𢉖
𢌬
𢌿
𢏚
𢑑
𢑚
𢖻
𢙣
𢛳
𢦏
𢦒
𢧵
𢼄
𢾕
𣁋
𣄼
𣅀
𣅽
𣍘
𣎳
𣎵
𣏋
𣏼
𣗥
𣥂
𣥖
𣦵
𣦼
𣧄
𣪊
𣪠
𣬉
𣳾
𣶒
𤇾
𤊽
𤐫
𤓰
𤔔
𤕨
𤣩
𤰇
𤰔
𤰞
𤴓
𤴔
𤽄
𥁑
𥁕
𥃦
𥃩
𥃭
𥇡
𥑟
𥘅
𥘈
𥝢
𥫗
𥱡
𦈢
𦉪
𦉬
𦉼
𦍌
𦍒
𦎧
𦐇
𦓔
𦔮
𦘒
𦙃
𦚏
𦣝
𦣞
𦣻
𦥑
𦥔
𦥯
𦨉
𦭝
𦰩
𧆞
𧈧
𧘇
𧰨
𧴪
𧴮
𧵩
𧾷
𨸏
𨾴
𩙿
𩠐
𩫏
𩵋
𪉷
𪜀
𪟽
𪠲
𪩲
𫇦
𫔭
𫜸
𫝀
𫠣
𫠩
𫢉
𫥞
𫩏
𫩠
𫪡
𫲽
𫶧
𬀷
𬐘
𬗌
𬙙
𬛸
𬜯
𬟩
𬯁
𬴘
𬺻
𬼉
𬼖
𭀰
𭁈
𭁨
𭅰
𭑈
𭕄
𭗼
𭤨
𭥫
𭻾
𮅕
𮊿
𮍌
𮍏
𮓗
𮥼
𮧮
廾
𰀁
𰀄
𰀈
𰀉
𰀕
𰀠
𰀡
𰀢
𰀪
𰁜
𰃮
𰆊
𰆘
𰋙
𰕎
𰢴
𰧭
𰯲
00--
000--
002--
01--
02--
03--
04--
05--
06--
07--
08--
09--
140--
53--
54--
55--
56--
57--
59--
64--
68--
69--
71--
72--
74--
75--
77--
78--
80--
81--
82--
83--
84--
85--
86--
87--
88--
89--
90--
91--
92--
93--
95--
96--
97--
978--
97805--
98--
a--
aa--
ab--
aba--
abdel--
abdi--
abdul--
abdur--
abe--
abi--
abo--
abs--
abu--
abyss--
ac--
acc--
accep--
accom--
ace--
achi--
act--
ad--
ada--
adam--
add--
ade--
adegb--
adi--
adje--
ado--
adu--
advert--
ae--
af--
afa--
afen--
afi--
afl--
african--
afro--
ag--
aga--
agro--
agu--
ah--
ai--
aid--
aig--
air--
ais--
aiye--
aj--
aja--
aje--
aji--
ak--
aka--
ake--
akh--
aki--
akin--
ako--
aku--
akwa--
al--
ala--
ale--
alek--
aless--
alh--
ali--
alka--
alky--
all--
allem--
allo--
almo--
alph--
alt--
am--
ama--
ambi--
ame--
amend--
ami--
amo--
amp--
amphi--
amr--
amu--
an--
ana--
analy--
anas--
anc--
and--
ang--
anglo--
ani--
ann--
anna--
ano--
ant--
anth--
anthro--
anti--
anu--
any--
ao--
ap--
apa--
api--
apol--
app--
appea--
appro--
apr--
aq--
aqi--
ar--
ara--
arc--
are--
ari--
arm--
aro--
arri--
art--
aru--
as--
asa--
asem--
ash--
asi--
aso--
asp--
assas--
assi--
assu--
astr--
asu--
asymmet--
at--
ata--
ath--
atmosph--
atten--
attr--
atu--
au--
aun--
aus--
austr--
auto--
av--
ava--
ave--
aw--
awa--
awo--
axi--
ay--
aya--
aye--
ayi--
ayo--
az--
aza--
azi--
azu--
aƙi--
b--
ba--
baba--
back--
bact--
bad--
bag--
bagu--
bah--
bai--
bak--
bal--
bala--
ball--
bam--
bami--
ban--
bar--
bara--
bas--
bat--
bau--
baw--
bay--
baƙ--
bb--
be--
beau--
beck--
bed--
bee--
beer--
bei--
bel--
bell--
ben--
beni--
ber--
berk--
bes--
bet--
bey--
bh--
bi--
bia--
biblio--
bid--
bien--
big--
bil--
bin--
bio--
bir--
bit--
bl--
black--
blas--
blue--
bn--
bo--
bob--
bod--
bohe--
boi--
bol--
bon--
boo--
bor--
bot--
bott--
bou--
boua--
bour--
bow--
br--
brah--
bre--
bri--
brit--
britan--
bro--
bron--
bru--
bry--
bu--
bucca--
buk--
bung--
bunk--
bur--
burs--
bus--
bush--
but--
bw--
by--
c--
ca--
cad--
cal--
cala--
camb--
can--
cap--
car--
cast--
cat--
cay--
cc--
cd--
ce--
celes--
cen--
cer--
ch--
cha--
chal--
char--
charm--
che--
check--
cher--
chhat--
chi--
chitt--
cho--
chry--
chu--
ci--
cid--
cim--
cin--
cir--
circu--
cis--
cit--
citi--
city--
ck--
cla--
clar--
clau--
cle--
cli--
clo--
clu--
cm--
cn--
co--
coch--
cock--
cog--
col--
collabo--
com--
come--
comme--
compl--
compo--
con--
concer--
conclu--
const--
contr--
convoc--
coor--
cop--
cor--
cord--
cosm--
cott--
cou--
coug--
coun--
cov--
cow--
cp--
cr--
cre--
cri--
criti--
croc--
cross--
crusa--
cs--
ct--
cu--
cult--
cumm--
cur--
cut--
cy--
cyc--
cyto--
cytosp--
d--
da--
dagb--
dah--
dai--
daily--
dak--
dal--
dam--
dan--
dar--
das--
dat--
dau--
daw--
day--
db--
dc--
de--
dead--
dec--
dee--
def--
del--
dele--
dem--
demo--
den--
depen--
der--
des--
dete--
dev--
dh--
di--
dia--
did--
die--
dig--
dil--
dimen--
dimokara--
din--
dio--
dir--
discip--
disp--
diss--
dist--
div--
dj--
dja--
dm--
do--
doc--
dog--
dolo--
don--
dor--
dou--
dow--
down--
dr--
dra--
ds--
du--
dur--
dw--
dy--
dysp--
dz--
e--
ea--
ear--
ebi--
ebr--
ebu--
ec--
eco--
ed--
edo--
edu--
ee--
ef--
eg--
egb--
eh--
ei--
eisen--
ej--
ek--
eke--
eku--
el--
ele--
elect--
eli--
elli--
em--
embr--
emer--
emi--
empl--
en--
encep--
end--
endos--
eng--
envi--
eo--
ep--
ephe--
epid--
equato--
equi--
er--
ers--
es--
esc--
esoph--
espo--
est--
et--
eth--
ethno--
eti--
eto--
eu--
euro--
ev--
ewu--
ex--
execu--
exer--
exis--
expe--
expl--
extre--
ey--
eyi--
ez--
eze--
f--
fa--
fab--
facul--
fai--
fair--
fak--
fal--
fam--
fan--
far--
fas--
fau--
fav--
faw--
fay--
fc--
fd--
fe--
feb--
fed--
fee--
fel--
fen--
fer--
ferti--
fi--
fika--
fil--
film--
fin--
fir--
fire--
fit--
fl--
flag--
flame--
flav--
flu--
fluoro--
fly--
fo--
fol--
folo--
fon--
foot--
for--
four--
fr--
fra--
fre--
fred--
free--
ft--
fu--
ful--
full--
fun--
fur--
fy--
g--
ga--
gab--
gaba--
gai--
gal--
gam--
gan--
gar--
gard--
gas--
gat--
gau--
gaz--
gb--
gbe--
gc--
ge--
gen--
geo--
ger--
gest--
get--
gg--
gh--
gha--
ghana--
gi--
giac--
gif--
gil--
gio--
gior--
gis--
gla--
glen--
gli--
glo--
glu--
gly--
gm--
go--
gochu--
god--
gold--
good--
gor--
got--
gr--
gra--
grand--
grass--
gre--
green--
gri--
griez--
gu--
gue--
guer--
gui--
guil--
gul--
gum--
gun--
gur--
gwa--
gwar--
gwi--
gwo--
gwu--
gy--
gym--
h--
ha--
hack--
had--
hai--
hak--
hal--
hall--
ham--
han--
har--
hard--
hart--
has--
hasum--
hat--
hau--
hausa--
haw--
hay--
haz--
he--
head--
hect--
hel--
heli--
hels--
hen--
hend--
her--
herac--
hex--
hey--
hi--
high--
him--
hip--
his--
histo--
hit--
hiz--
hl--
hm--
ho--
hodg--
hol--
home--
homo--
hon--
hong--
hop--
hor--
hos--
hot--
house--
how--
hr--
html--
hu--
hub--
huff--
hui--
hum--
hur--
hut--
hw--
hy--
hybr--
hydr--
hydro--
hyper--
i--
ia--
ib--
iba--
ibi--
ibrani--
ic--
id--
iden--
idu--
ie--
if--
ife--
ig--
igb--
igbo--
igh--
igi--
ih--
ihe--
ii--
ik--
ike--
il--
ila--
ili--
illu--
illust--
ilu--
im--
ima--
imam--
impro--
impu--
in--
ina--
inaug--
inc--
incre--
indi--
india--
infect--
ing--
inhi--
ini--
ins--
inspi--
instrumen--
int--
inter--
inva--
inve--
invest--
io--
ion--
ip--
ir--
iran--
ire--
is--
isa--
ishi--
isi--
iso--
isti--
it--
ita--
iu--
iv--
iwu--
iya--
iz--
j--
ja--
jah--
jai--
jam--
jan--
jar--
jau--
jaun--
jaw--
jawa--
jay--
je--
jem--
jen--
ji--
jin--
jir--
jo--
joa--
jon--
jor--
jou--
jr--
ju--
judi--
juil--
jun--
juven--
k--
ka--
kai--
kak--
kal--
kali--
kalt--
kam--
kan--
kana--
kar--
kara--
kari--
kasa--
kaska--
kass--
kat--
kau--
kay--
ke--
keban--
kel--
ken--
ker--
kes--
ket--
key--
kg--
kha--
khe--
khi--
kho--
khu--
khw--
ki--
kid--
kilo--
kim--
kin--
kino--
kir--
kiri--
kirs--
kit--
ko--
koda--
kok--
kom--
kons--
kont--
koo--
kor--
kort--
kou--
kp--
kra--
kre--
kri--
kro--
kru--
ku--
kud--
kum--
kuma--
kun--
kur--
kut--
kuɓ--
kw--
kwa--
kwai--
kwan--
kwar--
ky--
kyak--
l--
la--
lab--
lac--
lak--
lal--
lam--
lanc--
land--
lans--
lar--
las--
lat--
lau--
law--
lay--
le--
lea--
league--
lect--
led--
legis--
lei--
len--
leo--
let--
leuk--
lev--
leven--
lex--
ley--
li--
lia--
lib--
lie--
lig--
light--
lil--
lin--
line--
lit--
ll--
lo--
loan--
lok--
lon--
long--
lor--
lou--
low--
ls--
lu--
luc--
lw--
ly--
m--
ma--
maa--
mac--
mad--
mafo--
mag--
magh--
magu--
mah--
mai--
main--
maj--
majin--
mak--
makar--
makh--
mal--
mammog--
mamp--
man--
map--
maq--
mar--
mara--
mari--
mark--
mas--
mat--
mata--
mathe--
matsu--
mau--
mave--
maw--
mawa--
max--
may--
maz--
maƙa--
maƙwa--
mb--
mba--
mc--
mcc--
md--
me--
mea--
med--
medic--
mega--
meh--
mei--
mel--
memo--
men--
menti--
mer--
mes--
mesosph--
met--
meta--
mexi--
mez--
mg--
mh--
mi--
mic--
micro--
mid--
mik--
mil--
mill--
min--
mir--
mis--
mit--
mk--
mm--
mo--
moc--
moi--
mon--
mono--
monte--
mor--
mori--
morph--
mos--
mou--
mp--
mr--
ms--
mt--
mu--
mugh--
muh--
muk--
mukar--
mukh--
mul--
mulk--
multi--
mun--
muq--
muqa--
mur--
murd--
mus--
mut--
muza--
muƙa--
mw--
my--
n--
na--
naf--
nag--
nah--
nai--
nak--
nal--
nam--
nan--
naq--
nar--
narc--
nare--
nas--
nat--
nau--
naw--
nay--
nb--
nc--
nd--
ndi--
ndu--
ne--
nea--
nec--
neo--
nep--
nes--
net--
neu--
neur--
neutr--
new--
news--
ney--
ng--
nga--
ngo--
ngu--
nh--
ni--
nia--
nigeria--
nih--
nin--
nj--
nk--
nl--
nm--
nna--
nne--
nnen--
nni--
nno--
no--
noc--
nom--
non--
nor--
north--
nos--
not--
nou--
nr--
ns--
nt--
nu--
nuc--
nucleo--
nut--
nw--
nwa--
nwabu--
ny--
nz--
o--
oa--
oak--
oba--
obani--
obe--
ober--
obi--
obo--
obs--
obser--
obu--
oc--
occup--
och--
oct--
ode--
odi--
odo--
odu--
of--
off--
offen--
og--
oga--
ogbu--
ogun--
oh--
oi--
oje--
oju--
ok--
oka--
oke--
oko--
oku--
ol--
ola--
old--
ole--
olorun--
olu--
oluwa--
oly--
olymp--
om--
omo--
on--
ona--
onco--
one--
oni--
onu--
onwu--
onye--
oo--
op--
open--
oppo--
opport--
or--
ora--
ore--
ori--
oro--
orph--
orth--
orthog--
orto--
os--
osa--
osu--
ot--
ota--
ou--
out--
over--
ovi--
own--
owo--
ox--
oye--
oz--
p--
pa--
padm--
pah--
pakh--
palan--
palas--
paleo--
pall--
pam--
pan--
pap--
par--
para--
park--
pas--
pat--
patri--
pav--
pay--
pc--
pd--
pe--
peda--
pedi--
pel--
pen--
pente--
pep--
per--
peren--
pest--
pet--
petro--
ph--
phen--
phoenic--
photo--
phy--
physic--
physio--
pi--
pia--
pick--
pigm--
pin--
pine--
pit--
pl--
plat--
play--
plea--
plot--
pm--
po--
podo--
pok--
pol--
poli--
poly--
pop--
por--
port--
poss--
post--
pot--
poz--
pr--
pra--
pre--
prest--
prim--
priv--
pro--
produ--
profes--
prost--
pru--
ps--
psychi--
psycho--
pt--
pu--
pub--
pue--
pur--
put--
py--
q--
qa--
qar--
qarqa--
qi--
qu--
qua--
que--
qui--
qur--
r--
ra--
rad--
radio--
raff--
rafuff--
rah--
rai--
rain--
raj--
ram--
ran--
rap--
ras--
rat--
rau--
raw--
ray--
raz--
rc--
re--
recogni--
red--
redee--
ref--
refer--
regard--
regu--
rehabil--
rein--
rel--
ren--
rep--
res--
rest--
rev--
rhe--
rheto--
rhi--
rhy--
ri--
rit--
riz--
rm--
ro--
rob--
rock--
ron--
ros--
rosa--
rose--
roth--
rou--
round--
row--
rox--
rs--
ru--
rum--
run--
rundu--
rus--
ruɓ--
ry--
s--
sa--
saba--
saff--
sai--
sak--
saka--
sakh--
sal--
sam--
san--
sana--
sanct--
sand--
sans--
saq--
sar--
sara--
sarko--
sas--
sat--
sau--
sav--
saw--
say--
sc--
scha--
sche--
schl--
schm--
schu--
sci--
scri--
sd--
se--
sea--
sec--
sedi--
sedimen--
see--
sei--
sel--
seleu--
semi--
sen--
sene--
sep--
ser--
serb--
set--
sey--
sg--
sh--
sha--
sham--
she--
sher--
shi--
shin--
shir--
show--
shu--
si--
sic--
sidd--
sik--
sil--
sim--
simul--
sin--
sir--
sira--
six--
siy--
sk--
ska--
skele--
sky--
sl--
slo--
sm--
snow--
so--
socio--
soft--
sol--
some--
son--
song--
sor--
sou--
soul--
south--
sow--
sp--
spa--
spec--
spit--
spot--
sr--
sri--
ss--
st--
stabi--
stag--
stam--
star--
stat--
ste--
stra--
stre--
struct--
stu--
sty--
su--
sua--
sub--
subse--
subst--
succ--
sud--
sudir--
suf--
sul--
sun--
super--
supp--
sur--
survi--
susp--
sust--
sv--
sw--
swim--
sy--
syl--
symb--
symph--
synt--
sø--
t--
ta--
tab--
taba--
tag--
tah--
tai--
taj--
tak--
tal--
tam--
tama--
tan--
taps--
taq--
tar--
tash--
tass--
tat--
tau--
taw--
tax--
tay--
tchi--
te--
tea--
tech--
ted--
tek--
tel--
tele--
telom--
temp--
tempera--
ten--
ter--
terre--
tes--
tex--
text--
th--
tha--
the--
thir--
thou--
thur--
ti--
tim--
tin--
tir--
tj--
tka--
to--
tom--
ton--
top--
tor--
tou--
tr--
trans--
trau--
tre--
tri--
trou--
ts--
tsan--
tsat--
tse--
tsu--
tt--
tu--
tubu--
tun--
tur--
turb--
turbo--
tv--
tw--
twi--
ty--
u--
ua--
uba--
uc--
ud--
udo--
udu--
ug--
ui--
uk--
uka--
ul--
um--
umu--
un--
una--
und--
under--
ung--
uni--
up--
ur--
ura--
us--
uss--
uti--
utu--
uzo--
v--
va--
vacc--
val--
vamp--
van--
var--
ve--
ved--
vel--
ven--
ver--
verd--
vers--
verte--
vi--
via--
vic--
vie--
vin--
viro--
vis--
vo--
voa--
voc--
voda--
voi--
vol--
volun--
vor--
vou--
vr--
vu--
vul--
vuln--
w--
wa--
wah--
wai--
wal--
wan--
war--
wars--
was--
water--
wax--
wc--
we--
web--
wein--
wel--
well--
wer--
west--
wet--
wey--
whe--
whis--
whit--
white--
wi--
wiki--
wil--
win--
wind--
wire--
wit--
with--
wo--
wood--
wool--
word--
world--
wu--
wur--
wy--
x--
xe--
xi--
xu--
xx--
y--
ya--
yah--
yam--
yan--
yaq--
yar--
yat--
yay--
ye--
yes--
yi--
yitz--
yo--
you--
yu--
yun--
z--
za--
zabubb--
zag--
zam--
zan--
zar--
zay--
zazza--
ze--
zi--
zik--
zim--
zo--
zoo--
zoom--
zou--
zu--
đ--
ƙ--
ƙa--
ƙadan--
ƙadar--
ƙan--
ƙanƙa--
ƙar--
ƙi--
ƙir--
ƙul--
ƙum--
ƙun--
ƙwar--
ƙwaraƙ--
ƙya--
ƴa--
ƴan--
ɓ--
ɗ--
ɗa--
ɗan--
α--
κ--
ν--
τ--
в--
вул--
д--
к--
кіноа--
л--
м--
муз--
н--
націо--
но--
нс--
нсь--
о--
п--
р--
с--
т--
філ--
я--
ا--
ب--
ج--
ح--
د--
ر--
س--
ش--
ص--
ع--
ـ--
ف--
ق--
ل--
م--
مس--
و--
ي--
ಅ--
--0
--00
--03
--05
--06
--0625
--1
--11
--12
--125
--13
--14
--17
--2
--20
--21
--22
--24
--25
--28
--3
--30
--3125
--32
--34
--37
--375
--4
--42
--43
--4375
--46875
--5
--50
--51
--53
--55
--56
--5625
--57
--6
--60
--61
--62
--625
--65
--682
--6875
--7
--70
--73
--75
--76
--8
--8125
--82
--84
--85
--86
--87
--875
--9
--9375
--96
--a
--aa
--aat
--ab
--abad
--abe
--able
--ac
--ach
--acio
--ack
--ad
--ada
--ade
--ado
--ae
--af
--afo
--africa
--ag
--age
--agh
--ah
--ai
--aic
--aid
--ain
--air
--aire
--aj
--ak
--aki
--aks
--aky
--al
--ala
--ale
--aled
--ali
--alibai
--aliban
--all
--ally
--alo
--als
--am
--ama
--an
--ana
--ananan
--ance
--anci
--ancin
--and
--ane
--ani
--ano
--ans
--ant
--ante
--ants
--anu
--ao
--ap
--aq
--aqbaj
--ar
--ara
--aramar
--ard
--are
--arfafa
--arfin
--ari
--aries
--arin
--arru
--arrun
--ars
--arshe
--ary
--as
--asa
--asar
--asashe
--asashen
--ase
--asta
--at
--ata
--ate
--ated
--ates
--ati
--atic
--ation
--ative
--ativity
--ator
--ats
--atu
--au
--aux
--aw
--awa
--awi
--ax
--ay
--aya
--ays
--az
--aza
--b
--ba
--back
--bah
--ban
--bank
--bar
--bba
--bci
--be
--bee
--berg
--bes
--bha
--bi
--bic
--bie
--bility
--bin
--bis
--biyi
--biz
--ble
--bler
--bles
--bo
--bor
--borg
--bou
--box
--boy
--bra
--bre
--bs
--bu
--bul
--bun
--bunmi
--burg
--bus
--by
--c
--ca
--cal
--can
--car
--cation
--cats
--cc
--cce
--ccen
--cciya
--cciyar
--cco
--ce
--cea
--cen
--cer
--ces
--cg
--ch
--cha
--che
--chi
--cho
--cht
--chy
--ci
--cia
--cie
--cier
--cies
--cil
--cin
--cing
--cinsa
--cio
--ciya
--ck
--cke
--cker
--cki
--cks
--cle
--co
--cock
--code
--coe
--comm
--cott
--cr
--craft
--cre
--croft
--cs
--ct
--cter
--ctive
--ctomy
--cts
--cu
--cue
--cular
--cus
--cy
--d
--da
--dad
--dae
--dale
--dar
--dau
--day
--dda
--dde
--dden
--ddun
--de
--debris
--ded
--deen
--den
--der
--des
--dh
--di
--dic
--die
--din
--ding
--dio
--dis
--dit
--dium
--dji
--dle
--dler
--dman
--do
--dom
--don
--dona
--dor
--dou
--dow
--down
--dows
--dpur
--dra
--dro
--ds
--dt
--du
--dun
--duna
--dunni
--dur
--dus
--dy
--e
--ea
--ean
--east
--eb
--ebe
--ec
--ect
--ects
--ed
--eda
--ee
--eed
--eel
--eem
--een
--ees
--ef
--eg
--egbu
--eh
--ei
--ek
--el
--ela
--eld
--ele
--ell
--elli
--ello
--elo
--els
--em
--ema
--embre
--eme
--ement
--en
--ena
--enburg
--ence
--ene
--ened
--eni
--enic
--enin
--enko
--enne
--ens
--ense
--ensis
--ensive
--ent
--ente
--ento
--ents
--eo
--ep
--er
--ere
--erg
--eri
--ern
--ers
--ert
--erte
--eru
--ery
--es
--ese
--esh
--ess
--est
--et
--eta
--ete
--eth
--etics
--ets
--ett
--etta
--ette
--etti
--eu
--eur
--ev
--evo
--ew
--ews
--ex
--ey
--ez
--eza
--eze
--f
--fa
--fai
--fan
--far
--fc
--fe
--feld
--ff
--ffe
--ffen
--ffun
--fi
--fia
--fie
--fied
--field
--fin
--fio
--fiya
--fo
--fofi
--fofin
--ford
--fs
--ft
--fta
--ftan
--fu
--ful
--fy
--g
--ga
--gage
--gan
--gar
--garh
--gari
--gate
--gba
--gbe
--gbo
--ge
--ged
--gen
--genic
--ger
--ges
--gger
--gh
--ghe
--ght
--gi
--gia
--gie
--gies
--gin
--ging
--gir
--gle
--gn
--gna
--gne
--go
--gon
--gos
--gou
--grad
--graph
--graphs
--graphy
--gs
--gton
--gu
--gua
--gue
--gul
--gun
--gus
--gwe
--gwu
--gy
--gya
--h
--ha
--haft
--hah
--hai
--hak
--haku
--hal
--hall
--ham
--han
--hbil
--hd
--he
--head
--hed
--heim
--hel
--hen
--hene
--her
--hes
--hew
--hf
--hi
--hia
--hias
--hic
--hid
--hie
--hild
--hin
--hina
--hing
--hip
--hir
--hiya
--hmi
--hn
--ho
--hol
--hold
--hood
--hou
--hr
--hra
--hryn
--hs
--ht
--hto
--http
--https
--hu
--hua
--hun
--hus
--hy
--hyl
--i
--ia
--iac
--iah
--ial
--ian
--ians
--iary
--ias
--ib
--ibe
--ible
--ic
--ica
--ical
--ich
--ici
--icia
--icism
--ick
--ico
--ics
--id
--ide
--ides
--ids
--ie
--ied
--iel
--ield
--ien
--ienne
--ient
--ier
--iers
--ies
--iest
--if
--ified
--ifu
--ig
--ight
--igi
--igo
--ih
--iha
--ihi
--ii
--iji
--ik
--ika
--ikh
--iki
--ikin
--il
--ila
--ile
--iles
--ilian
--ill
--ille
--ily
--im
--ime
--imi
--in
--ina
--ination
--inde
--ine
--ines
--ing
--ingham
--ings
--ington
--ini
--iniya
--ino
--ins
--inson
--inus
--io
--iola
--ion
--ios
--ious
--iq
--ique
--ir
--ira
--ire
--iro
--iru
--is
--isanci
--isation
--ise
--ised
--ises
--ish
--ising
--ism
--isms
--iso
--ist
--ista
--istic
--ists
--it
--ita
--ite
--ites
--ith
--ities
--itis
--itt
--ity
--iu
--ium
--ius
--iv
--ive
--ives
--ivity
--ix
--iy
--iya
--iyah
--iyanci
--iyar
--iye
--iyoyi
--iyu
--iyya
--iz
--ization
--ize
--ized
--izer
--izing
--j
--ja
--jan
--jawa
--je
--ji
--jin
--jio
--jk
--jo
--ju
--juk
--k
--ka
--kai
--kal
--kan
--kanci
--kapı
--kar
--kari
--ke
--ked
--ken
--ker
--kers
--kese
--ket
--kezi
--kh
--khi
--khov
--ki
--kia
--kie
--kin
--kis
--kiya
--kke
--kko
--kku
--kla
--kle
--kn
--ko
--kon
--kor
--kos
--kou
--kov
--kovsky
--kpa
--kpo
--kr
--kro
--ks
--kt
--ku
--kun
--kwe
--kwu
--ky
--kye
--kyi
--l
--la
--lade
--lah
--laja
--lam
--lan
--lana
--land
--lar
--lav
--lay
--lc
--ld
--lde
--le
--lect
--led
--lee
--lekun
--lem
--ler
--lers
--les
--less
--let
--lets
--ley
--lf
--li
--lia
--lic
--lid
--lik
--lim
--lin
--line
--ling
--link
--lis
--lism
--list
--lity
--liya
--ll
--lla
--llah
--llahu
--lle
--lles
--lli
--llo
--lls
--lly
--lm
--lo
--logy
--loli
--lon
--loo
--lope
--lor
--lore
--lot
--lov
--loye
--lr
--ls
--lsa
--lt
--lu
--lus
--ly
--lyn
--lz
--m
--ma
--mah
--mam
--man
--mar
--mata
--mate
--mba
--mbi
--mbo
--mci
--me
--med
--meh
--men
--ment
--ments
--mer
--mey
--mi
--mia
--mic
--mie
--min
--ming
--mma
--mmer
--mo
--mog
--mola
--moto
--mouth
--mp
--mpt
--ms
--mson
--mu
--my
--n
--na
--nah
--nai
--nal
--nan
--nar
--nary
--nas
--nberg
--nca
--nce
--nces
--nci
--ncies
--ncin
--ncy
--nd
--nda
--nder
--ndo
--ndum
--ne
--ned
--neh
--nel
--nell
--nem
--nen
--ner
--ners
--nes
--nesia
--ness
--net
--neur
--news
--ney
--ng
--nga
--ngba
--nge
--ngi
--ngs
--nham
--nho
--ni
--nia
--nic
--nie
--nier
--nik
--nin
--nique
--nis
--nism
--nium
--niya
--nk
--nka
--nke
--nko
--nmu
--nn
--nna
--nne
--nnen
--nni
--nnu
--no
--nou
--ns
--nsa
--nse
--nshe
--nsi
--nsis
--nsu
--nt
--nta
--ntar
--ntawa
--nte
--nth
--nti
--ntin
--ntly
--nto
--nton
--nts
--nu
--nue
--nun
--nus
--nut
--nwo
--ny
--nya
--nye
--nyi
--nyo
--nza
--nze
--o
--oa
--ob
--oc
--oci
--ock
--ocytic
--od
--ody
--oe
--of
--off
--ogen
--ogenic
--ogo
--ography
--ogu
--ogy
--oh
--oi
--oid
--ok
--ol
--ola
--oli
--olo
--ological
--ology
--olu
--om
--oma
--ome
--omi
--omy
--on
--one
--ong
--ongo
--oni
--online
--ono
--ons
--ont
--onu
--onwu
--oo
--ood
--oon
--op
--ope
--or
--ora
--ord
--ori
--orn
--oro
--ors
--orth
--ory
--os
--osa
--ose
--oshi
--osi
--osis
--oso
--osophical
--ot
--ote
--ou
--oua
--oui
--oum
--oun
--ous
--out
--ov
--ova
--ovo
--ow
--owo
--oy
--oz
--p
--pa
--pad
--pe
--ped
--per
--pes
--pf
--ph
--phie
--phy
--pi
--pic
--platin
--ple
--po
--pond
--port
--pos
--post
--pp
--pps
--pro
--ps
--pse
--pt
--pu
--pur
--pus
--py
--q
--qa
--qi
--que
--r
--ra
--rah
--rai
--ral
--ram
--ran
--rat
--rc
--rce
--rche
--rchy
--rd
--rde
--rdi
--rds
--rdt
--re
--rea
--reate
--red
--rem
--ren
--rer
--res
--ret
--retti
--rf
--rfa
--rfs
--rg
--ri
--ria
--rial
--rian
--ric
--ries
--ril
--rin
--rina
--rio
--ris
--rit
--rite
--rium
--riz
--rj
--rk
--rko
--rm
--rma
--rn
--rno
--ro
--ron
--rori
--rorin
--ros
--rou
--rov
--row
--rp
--rr
--rra
--rran
--rre
--rri
--rry
--rs
--rsa
--rson
--rsu
--rt
--rta
--rte
--rton
--ru
--rum
--run
--rup
--rwa
--ry
--rya
--ryl
--rys
--s
--sa
--sah
--san
--sar
--sberg
--sburg
--sby
--sch
--schule
--sco
--se
--sed
--sem
--sen
--ser
--ses
--sey
--sh
--sha
--she
--shen
--shi
--ship
--shire
--sho
--si
--sia
--sian
--side
--sie
--sis
--sition
--sity
--sive
--sk
--ska
--ske
--ski
--sky
--slav
--sley
--sm
--sman
--so
--som
--son
--sou
--soye
--spor
--ss
--ssa
--ssan
--sse
--sshe
--sshen
--ssi
--sson
--ssy
--st
--sta
--stan
--state
--ste
--stein
--ster
--stic
--sto
--ston
--stry
--sts
--su
--sus
--sville
--sy
--sz
--t
--ta
--tacce
--taccen
--tad
--tah
--tai
--tain
--tal
--tan
--tar
--tarwa
--tas
--tattun
--tawa
--tc
--tch
--te
--tech
--ted
--tein
--tely
--ter
--terozoic
--ters
--tes
--tey
--tf
--th
--tha
--the
--thi
--thy
--ti
--tia
--tial
--tib
--tic
--tics
--ties
--tik
--til
--time
--tin
--ting
--tion
--tions
--tis
--tism
--tium
--tive
--tiya
--tle
--tler
--to
--toci
--toid
--tology
--ton
--tone
--tor
--tors
--tos
--tou
--tov
--town
--toye
--tra
--tree
--tro
--try
--ts
--tsa
--tse
--tsi
--tsine
--tsky
--tt
--tta
--tte
--tter
--tti
--tto
--ttu
--ttuka
--ttun
--tu
--tul
--tum
--tun
--tur
--tus
--tuwa
--tv
--ty
--tz
--u
--ua
--ual
--ually
--uan
--ub
--ubba
--ube
--uc
--uce
--uci
--ud
--uda
--uddin
--udeen
--ue
--uel
--ues
--uf
--uga
--uge
--ugh
--uh
--ui
--uit
--uk
--uka
--ukai
--uke
--uki
--ul
--ula
--ular
--ule
--ullah
--um
--ume
--umi
--un
--una
--ung
--unga
--ungiyar
--ungiyoyi
--ungiyoyin
--unia
--uo
--up
--uq
--ur
--ura
--ure
--ures
--urg
--uri
--urin
--urn
--urs
--uru
--urus
--ury
--us
--use
--usi
--usz
--ut
--uta
--ute
--uth
--ution
--utu
--utz
--uu
--uwa
--ux
--uyi
--uz
--v
--va
--vac
--vation
--ve
--ved
--ver
--ves
--vest
--vez
--vi
--via
--vich
--vid
--view
--vik
--ville
--vir
--vo
--vsky
--vy
--vych
--w
--wa
--waju
--wal
--wan
--war
--wararrun
--wat
--way
--ways
--we
--web
--wed
--wen
--wer
--wi
--wich
--wick
--win
--wish
--wk
--wn
--wo
--wold
--wood
--wor
--world
--ws
--wu
--wumi
--wunmi
--wura
--wy
--wyn
--x
--xa
--xi
--xin
--y
--ya
--yah
--yako
--yan
--yar
--yard
--yas
--yd
--ye
--yea
--yen
--yensu
--yer
--yev
--yi
--yin
--ying
--yk
--yl
--ym
--yn
--yna
--ynx
--yo
--yon
--yoyi
--yoyin
--yr
--yra
--ys
--ysis
--yt
--yu
--yx
--yy
--yya
--yyar
--yye
--yyen
--yyu
--yyun
--z
--za
--zal
--zan
--zar
--zation
--zawa
--ze
--zel
--zer
--zi
--zia
--zie
--zin
--zing
--zmi
--zo
--zon
--zu
--zy
--zz
--zza
--zzi
--zzo
--zzy
--ƙa
--ƙar
--ƙaƙƙiya
--ƙe
--ƙi
--ƙin
--ɓa
--ɓe
--ɓo
--ɗa
--ɗe
--ɗi
--ɗin
--ɗo
--ɗɗen
--ə
--α
--ι
--ο
--ς
--υ
--а
--ан
--в
--д
--е
--и
--ии
--к
--ка
--ки
--м
--н
--ні
--о
--ович
--ого
--оі
--р
--ра
--ск
--т
--та
--у
--ь
--я
--і
--ا
--ان
--ب
--ة
--ت
--ح
--د
--ر
--س
--ع
--ف
--ل
--م
--ن
--ه
--ى
--ي
