!
"
#
##0
##1
##10
##11
##12
##13
##14
##15
##16
##17
##18
##19
##2
##20
##21
##22
##23
##24
##25
##26
##27
##28
##29
##3
##30
##31
##32
##33
##34
##35
##36
##37
##38
##39
##4
##40
##41
##42
##43
##44
##45
##46
##47
##48
##49
##5
##50
##51
##52
##53
##54
##55
##56
##57
##58
##59
##6
##60
##61
##62
##63
##64
##65
##66
##67
##68
##69
##7
##70
##71
##72
##73
##74
##75
##76
##77
##78
##79
##8
##80
##81
##82
##83
##84
##85
##86
##87
##88
##89
##9
##90
##91
##92
##93
##94
##95
##96
##97
##98
##99
$
%
&
'
(
)
*
+
,
-
.
/
0
00
000
0001
00027777777777777778
00035488235475000004
001
0023597372167
009
01
016666666666666666
02
0292
03
04
0469088
05
05585262
09
09290304
1
10
100
1000
10000
100000
1000000
1000000000
101
101325
1016
1054
1055
11
110
11229
1129848290276167
119
12
120
123
1234
125
127
128
13
130
132
138
14
140
143
144
15
150
1500
152
1574074074074073
158
1582
159
16
160
1600
1609
17
18
180
182
1821
184
18474
1853
1868
189
19
1905
191
1920
1926
1930
1933
1936
1939
194
1940
1941
1942
1944
1945
1948
1949
195
1950
1951
1952
1953
1954
1955
1956
1957
1958
1960
1961
1962
1963
1964
1965
1966
1967
1968
197
1970
1971
1972
1973
1974
1975
1977
1978
1979
198
1980
1981
1982
1983
1984
1985
1986
1987
1989
199
1990
1991
1992
1993
1994
1995
1996
1997
1998
1999
2
20
200
2000
2001
2002
2003
2004
2005
2006
2007
2008
2009
201
2010
2011
2012
2013
2014
2015
2016
2017
2018
2019
2020
2044809344
21
22
220
224
226
23
234
235
23597372167
239
24
240
24496
25
250
26
27
27679
27777777777777779
28
2869
29
3
30
300
3048
31
31557600000000000
316846592
32
325
33
34
344
35
355
3558179483314004
359237
36
360
3600
3600000
37
39
4
40
400
41
4184
4184000
4184000000
42
4327
44
44704
45
453
46
48
49875
5
50
500
52
53
5359237
54
54609
55555555555555558
56
58
58987294928
59
59237
6
60
600
602176487
61
625
6251
63
639
67
68
6894
69987158227022
7
70
700
7271
735
745
75
7572931683608
785411784
8
80
800
80234544
80665
82642731689663
828
83
8316846592
84
85
8601
87
88
9
90
900
904710203122
907
95
98
98066
99
9999
:
;
<
=
>
?
@
\
^
_
a
aa
aaa
aabaŋdi
aabe
aabi
aace
aaci
aacie
aajue
aake
aakee
aakuut
aala
aale
aalooi
aanɔŋ
aanɔŋiic
aare
aathou
aatɔ
aawa
aaye
aayee
aayeke
aayi
aba
ababa
abak
abako
abandon
abaŋ
abaŋdi
abaŋe
abaŋloi
abbr
abbreviate
abbreviation
abc
abdalla
abe
abeer
abel
aben
abi
abiy
abiɛi
about
above
abs
absolute
absvalue
abu
abuk
abun
abuo
abuɔ
abuɔn
abuɔr
abyei
abɔ
abɛ
abɛk
abɛɛr
aca
acak
acceleration
accept
accepted
accepts
access
accessdate
accessed
accesses
according
ace
acene
aceŋ
aci
acie
acieŋ
acin
aciɛ
acoli
acre
acres
action
actively
actual
acuo
acuɔl
acɔk
acɔl
ad
adar
adarwa
adau
add
addcat
addclass
added
addis
addition
additional
addkey
addpencil
address
addrow
adds
addsuffix
ade
adek
adekic
adel
aden
adhande
adhandi
adhie
adhieth
adhil
adhukŋeei
adi
adiirco
adio
adir
adith
adiɛɛr
adj
adjacent
adjectival
adjust
adjusted
administrators
ado
adɛ
africa
african
afrika
after
afterwards
afterword
aga
again
agany
agar
age
ageer
agency
agenruon
ago
aguiɛr
aguiɛre
agut
agutci
agɔk
agɔl
agɛ
agɛkeŋɛɛk
agɛny
ahmed
aids
air
airdate
aji
ajo
ajou
ajuaarwe
ajue
ajuiɛr
ajuɛɛr
ajɔk
ak
aka
akat
ake
akec
akee
akeer
akek
akeko
aken
akeu
aki
akim
akmat
ako
akol
akole
akthum
akue
akueen
akuen
akuma
akuo
akut
akutajuɛɛr
akutame
akutci
akutden
akutdi
akute
akutguirmiir
akutic
akutjuɛ
akutkuanybe
akutluɔilɔjik
akutmatic
akutmɛ
akutnam
akutnhi
akutnhom
akuttakluɔi
akuut
akuutcimat
akuute
akuutnhom
akuutriɛl
akuɔ
akɔ
akɔl
akɛ
akɛɛth
akɛɛthnhi
al
ala
alathke
alathkeer
alawɛ
alaŋ
albert
ale
alei
alek
aleu
ali
alia
aliap
alias
aliases
aliaseslist
alier
align
aliip
aliir
aliiric
alir
aliu
alkt
all
allcat
allow
allowblankparams
allowed
allows
allowsmall
alo
aloi
along
alony
aloŋ
aloŋthi
alpha
already
also
alt
alternate
alternativemap
although
altitude
alttype
altvalue
alue
alui
aluk
alur
aluranyicɣɔ
aluur
aluɔ
aluɛlweŋ
always
alɔ
alɔn
alɔŋ
alɔŋde
alɛ
alɛi
alɛk
alɛl
alɛŋ
alɛɛc
am
ama
amaatnho
amacma
amat
amatakuɔ
amatbaai
amatdi
amatdɔ
amatdɔmlo
amatic
amatjua
amatnhom
amatnhomakute
amatnhomɣɔɔc
amatthok
ambox
ame
amen
ameri
america
american
amerika
amet
ami
amirika
amit
amiyok
amount
amp
amper
ampere
ampersand
amuk
amuo
amɛ
amɛn
an
anaŋ
anaŋlath
anchor
and
anei
angola
anhia
anhiar
ani
ann
anne
annotation
annotations
annum
anong
another
anoŋ
anoŋic
antonio
anuak
anue
any
anyaar
anyanya
anyic
anyicɣɔ
anyiko
anyikol
anyooth
anyoothpio
anys
anything
anyuɔɔl
anɔŋ
anɔŋic
anɔŋiic
anɛ
aop
ap
apa
apac
apakat
apamduo
apartheid
apath
ape
apeeth
apei
api
apio
apiri
apirika
apirka
apiɛth
apostrophe
apostrophes
app
appear
appears
append
appended
applies
apply
approach
appropriate
apri
aprika
april
apruuk
apuruk
apuruuk
apɛ
apɛi
apɛidi
apɛidit
apɛɛi
ar
ara
araap
arab
arabic
arac
arak
arakjue
aramwe
arap
archive
archived
archivedate
archiveurl
are
area
arekwe
arem
aren
arg
argkeys
args
argsarg
argsi
argsk
argsparam
argtables
argtableval
argument
arguments
argumentsname
aria
ariiŋwe
arilic
ario
arithop
aro
arok
arop
around
arpent
arpt
arqueig
arr
array
article
articles
artist
aruɔ
arxiv
arɔ
arɔm
arɔmbaai
arɛ
arɛm
arɛɛm
as
ascii
asia
asin
ask
assemble
assembled
assign
assigned
associated
association
assume
assumed
at
atam
ataui
ate
ater
athe
athi
athia
athie
athiek
athio
athiɛ
athiɛk
athiɛleiyic
athiɛlɛm
atho
athor
athueec
athuɔ
athɛ
athɛɛk
ati
atie
atitle
atlantic
atlantik
atm
atmosphere
ato
atoocki
attempt
attempts
attr
attribute
attributes
attrs
atuaany
atuany
atuny
atuo
atutuul
atuɔ
atuɔcki
atŋc
atɔ
atɛ
au
audio
august
australia
australian
authe
autho
author
authority
authorlink
authorlist
authormask
authorn
authors
authtralia
automated
automatically
autumn
av
available
average
avoid
avoirdupois
awa
awai
awan
award
awe
aweil
awet
awi
awicthum
awou
awu
awuo
awuɔ
awuɔu
awuɔɔk
awɛ
awɛtwe
axis
aya
ayaa
aye
ayee
ayek
ayeke
ayeki
ayen
ayene
ayi
ayiɛɛl
ayo
ayɔ
ayɛ
aŋi
aŋic
aŋiɛcwe
aŋo
aŋola
aŋoot
aŋot
aŋui
aŋuɔ
aŋɔ
aɣaarnhom
aɣarnhom
aɣeer
aɣer
aɣet
b
ba
baai
baairot
baany
baar
baardi
baau
baaudi
baciir
background
backgroundcolor
backtranslate
backward
backwards
bad
bahr
bahutu
bai
baira
bak
bake
baknɔŋtiim
bakteryia
balentin
ban
bangla
bangui
bank
banner
bantu
bany
bar
barack
bare
bari
barrel
barrels
base
based
baseline
basic
batutthi
bau
baŋ
baŋthin
bbc
bbl
bc
bce
bd
bdft
be
bearing
because
becomes
beec
been
beer
before
begin
beginning
begins
behavior
behaviour
bei
being
beka
belaruc
beljiem
below
ben
bene
bengali
benke
bentiu
beny
benymacbaai
ber
beric
beside
bestrank
better
between
beu
beverage
bf
bg
bh
bhojpuri
bhp
bi
bia
biak
bial
bianabur
bianabuur
bibcode
bic
bicop
bics
bictoria
bie
bieber
bihari
bii
biith
bik
biktoria
bilingual
billboard
billion
bio
biorxiv
biɔ
black
blacklist
blank
blench
blue
blurb
bn
bo
board
body
bodyclass
bok
bol
bold
book
books
booktitle
boolean
boor
bor
border
bordercolor
borderwidth
borderwidthnum
bot
both
botswana
bottom
bounds
box
boxargs
boxes
boxtable
boxtype
boya
bq
br
bracket
brackets
brake
break
breaks
bridge
brisco
britain
britin
british
broken
brundi
brɛ
bsh
btu
bu
bug
buganda
build
builder
built
builtin
buk
bul
bulgaria
bulgarian
bulleted
bullets
bump
buo
buot
buoth
buotic
burjuŋ
burundi
bushel
but
buth
buut
buɔ
buɔl
buɔn
buɔt
buɔth
buɔtic
buɔɔt
buɔɔth
buɔɔtic
by
byte
bɔ
bɛ
bɛi
bɛidi
bɛn
bɛne
bɛny
bɛnymacbaai
bɛr
bɛt
bɛɛi
bɛɛr
bɛɛrdi
c
ca
caal
caar
caaric
caath
cabaka
cachename
cad
cae
caina
cak
cal
calculate
calculated
calculation
calendar
calic
california
call
called
caller
calling
calls
calorie
calories
cam
camki
can
cannot
canonicalname
cap
capitalization
caption
capture
carat
carter
cartography
case
cases
cash
cat
categories
categoriesns
categorisation
categorise
categorization
categorize
categorizing
category
categoryhandler
categorylabels
categoryprop
cath
cats
cattitle
cause
cawiki
cbaai
cbe
cbk
cbuɔth
cc
cci
cde
cden
cdewe
cdi
ce
cek
ceka
cell
cells
celsius
cemanhraan
cen
cene
cenne
cent
center
centi
centimeter
centimeters
centimetre
centimetres
central
century
certain
ceŋ
cfg
cfgkey
cfgvalue
cfgvaluetype
cframe
chad
chain
change
changed
changes
chapter
chapterurl
char
character
characters
charge
chargs
chars
charsi
charts
chavacano
check
checkdigit
checked
checking
checknum
checknumandaddsuffix
checks
checksum
checktype
chemical
chicago
child
childers
china
chinese
choose
chosen
christmas
church
ci
cianic
ciaryic
cic
cid
cie
ciecath
cieeŋ
cieeŋro
ciek
ciekic
ciel
cien
cier
ciet
cieŋ
cieŋjiek
cii
ciic
ciil
ciin
ciinden
ciir
ciith
cik
cil
cilatueŋ
cilic
cime
cimin
cimɛn
cin
cinake
cinden
cindi
cine
cinwa
circle
cit
citation
citationclass
citations
cite
citeref
cites
citeseerx
city
ciɛ
ciɛk
ciɛl
ciɛlic
ciɛth
ciɛŋ
ciɛŋden
ciɛŋthɛɛr
ciɛɛm
ciɛɛth
ciɛɛŋ
ciɛɛŋde
cka
ckanhial
ckatɔɔr
cke
cki
ckuatto
cl
cla
claim
claims
class
classes
clean
cleannumber
cleanup
clear
clinton
clone
close
closing
cm
cma
cmbox
cmɛ
cnhom
co
code
codes
coins
cok
cokluɛl
col
colic
collaboration
collapsible
collection
college
colon
color
colspan
com
combination
combinations
combo
combos
comma
command
commas
comment
comments
common
commons
community
comp
compact
companion
compare
comparedisplay
comparelink
comparepages
compareurl
comparisons
compatibility
compatible
components
compop
composite
concat
concatenate
concatenation
concentration
condition
conditions
confederation
conference
conferenceurl
config
configuration
connected
considered
console
contain
containing
contains
content
contenttitle
contrast
contribution
contributor
contributorlist
contributors
control
controls
conversion
convert
converted
converting
converts
conveys
cool
coord
coordinate
coordinates
coordinatespec
coordinput
coords
cop
copied
copy
copying
cord
corporate
correct
correctly
corresponding
cos
cost
could
coulomb
count
counter
counting
country
cpou
cpuɔ
create
created
createlink
credits
crosses
crot
cs
css
csstext
cthok
cthook
ctx
cu
cua
cuai
cuat
cubic
cue
cueetce
cuet
cuft
cuftnaturalgas
cuin
culluk
cum
cumi
cup
currency
current
currently
curriculum
custom
customary
cuyd
cuɔ
cuɔl
cuɔp
cuɔt
cuɛ
cuɛt
cuɛtic
cuɛɛt
cv
cvt
cvtround
cwe
cwt
cŋaknhi
cŋaknhom
cɔ
cɔk
cɔkalɔn
cɔl
cɔɔl
cɛ
cↄl
d
da
daa
daai
dac
daiyiim
dam
dan
daniel
dap
dar
darpoor
darpor
dash
data
databoxroot
datacell
dataid
dataindex
datapage
dataset
datastyle
datatable
datatonumber
datatype
datavalue
date
dates
dau
day
days
dbyr
dd
de
dead
deadurl
deal
dealing
debit
debug
dec
decade
decametre
decdeg
december
decimal
decimals
decimeter
decimetre
declaration
declared
decode
decoded
decorate
decorated
deen
deepcopy
deet
deetic
default
defaultkey
defaults
define
defined
definition
defkey
deg
degree
degrees
dek
dekic
del
delete
deletion
delink
delinklinkclass
dels
demo
democratic
demonstration
demopage
demospace
den
deng
denominator
density
denstr
depend
depending
depends
dependvalue
deprecated
depth
der
derg
derived
description
detect
detected
detection
detects
detem
determine
determined
determines
detic
deto
development
deŋ
deŋgei
deŋlith
df
dh
dha
dhal
dhambia
dharou
dhatem
dhaŋ
dhaŋuan
dhe
dhetem
dhi
dhia
dhie
dhiec
dhieth
dhiil
dhil
dhiɔp
dhiɛ
dhiɛl
dho
dhol
dhorou
dhoŋ
dhoŋuan
dhuk
dhukcie
dhuke
dhukpiny
dhuo
dhuŋ
dhuŋwal
dhuɔ
dhuɔk
dhɔ
dhɛ
di
dia
diak
dictionary
did
didiŋa
die
diff
different
digit
digits
diir
dikconari
dim
din
dinka
dir
direct
direction
directly
disable
disambiguator
discouraged
disp
display
displayauthors
displayed
displayeditors
displaying
displays
dissertation
dissolvent
distance
distancefromleft
dit
div
divide
diŋe
diɛ
diɛnde
diɛr
diɛt
diɛte
diɛtke
diɛtken
diɛtkor
diɛɛr
djibouti
dl
dm
dms
dmy
do
doc
docket
docname
docpage
docpagebase
docs
docspace
doctitle
documentation
does
doesn
dog
doi
doibroken
doing
dolar
doleib
doli
dom
domain
domains
domic
don
donald
done
donepairs
dool
door
dose
dot
douala
double
doubled
doŋ
doŋgola
dr
drachm
draft
dram
drawn
drc
dry
drygal
du
due
duge
dugeer
duk
dum
dummy
dunam
duo
duot
dup
dupio
duplicate
duria
duriaŋ
duum
duut
duŋ
duŋɔ
duŋɛ
duɔ
dv
dvd
dwt
dɔ
dɔm
dɔmbaai
dɔmic
dɔɔr
dɛ
dɛk
dɛn
dɛɛie
dɛɛu
e
eac
each
eald
earlier
earth
ebe
eben
ebuɔla
ebɛ
ec
ece
ecfcf
eci
economics
ed
edges
edit
editicon
edition
editlink
editor
editorlink
editorlist
editormask
editors
eds
edu
education
educational
edward
ee
eec
eetɔ
eetɛn
eeye
eeyee
ef
effect
efficiency
egypt
eh
eissn
either
ej
eke
ekuatoria
el
electric
electrical
electronvolt
element
elidhabeth
elie
else
elseif
em
embargo
embargoed
eme
eminem
emission
emit
emits
emmy
empty
emulated
en
enable
enabled
encode
encoded
encoding
encyclopaedia
encyclopedia
end
endash
endashes
endbox
ends
energy
eng
engineering
english
engscale
ensure
entered
entire
entities
entity
entityid
entries
entry
enumerated
env
envfunc
envfuncs
environment
enwiki
episode
eprint
equal
equals
equation
equivalent
erg
erin
eriteria
eritrea
err
error
errormessage
errorprinter
errors
errs
es
escape
escapebrackets
escapepattern
escapes
escobar
et
etal
etc
ete
ethiopia
etɔ
etɛ
eu
euro
europe
european
ev
evaluate
even
event
ever
every
example
examples
except
exception
exceptions
exclude
exhaust
exist
existing
exists
exit
exp
expand
expanded
expandedtemplate
expandtemplate
expected
expecttype
experiment
exponent
export
exported
expr
expression
expressions
expstr
ext
extended
extension
extensions
extensiontag
external
extra
extract
extractcoordtemplates
extracts
extraneous
eya
eye
eyee
eŋ
f
fa
facebook
factor
factors
fahrenheit
fail
failed
failing
fails
fall
fallback
false
family
far
fargs
farther
fatal
fc
featured
features
february
feet
female
feminine
ferguson
fetch
fetchlanguagename
fetchwikidata
ff
fg
field
fields
fifa
figs
file
fill
final
find
finds
firkin
first
firstcoord
firstn
firstpostfix
five
fix
fixchildboxes
fixed
fixes
fixinfoboxlabel
fixup
fixups
fl
flag
flip
flipped
float
floor
florida
flow
fluid
fmargs
fmbox
fmt
foe
fold
followed
following
follows
font
fontsize
fontstyle
foo
foot
football
for
forbes
force
foreign
foreword
form
format
formatattributes
formatdate
formatinlanguage
formatmessage
formatnum
formats
formatted
formatting
forms
fortnight
forward
found
foundation
four
frac
fracpart
fraction
fracture
frame
frameless
frameonly
france
free
french
from
ft
ftin
ftlb
ftlbf
fudge
fuel
full
fullurl
func
funcname
function
functionality
functions
furlong
future
g
ga
gaak
gaam
gadhal
gaga
gai
gal
gallon
gallons
gam
game
gaps
garang
garaŋ
gas
gasoline
gat
gauss
gco
ge
geer
geeth
geeu
gen
genamaatnhomde
genamatnhom
gender
gendi
gene
general
generally
generate
generated
generates
generational
genre
geo
geographical
geohack
geojson
george
geotype
german
germani
germany
get
getargnums
getargs
getbeststatements
getboolean
getcontentlanguage
getcurrentframe
getcurrenttitle
getentity
getentityidforcurrentpage
getentityobject
getenvironment
getlabel
getlabelbylang
getlabelwithlang
getmapparams
getmetatable
getnamespaceparameters
getparameters
getparammappings
getparent
gets
getsnak
gettitle
gettitleobject
getunit
ghana
ghazal
gher
gi
gie
gigalitre
gigatonne
gigawatt
giit
gill
git
give
given
gives
giɛtruɛl
gj
gje
gl
glee
global
globals
globe
glossary
gmatch
gmol
gn
go
goke
goki
gol
gold
golden
gon
good
google
gor
gordon
got
gov
government
gr
grab
gradient
grain
gram
grammy
grams
grau
graus
gray
greater
greenberg
gregorian
gri
group
grouping
groups
groupsgroups
grt
gs
gsplit
gsub
gt
gu
gua
guaŋ
gue
gui
guide
guie
guiir
guinea
guir
gun
guo
guop
gup
gut
gutci
guup
guɔ
guɔl
guɔp
guɔɔr
guɛ
gw
gy
gɔ
gɔc
gɔcde
gɔl
gɔny
gɔt
gɔɔc
gɔɔt
gɛ
gɛl
gɛm
gɛme
gɛmgɛm
gɛɛr
gɛɛth
gↄl
h
ha
had
haile
hamdok
hand
handle
handled
handler
handlers
handlersk
handles
hands
harris
harvard
has
hash
hasprop
hassen
have
haven
having
hawkiŋ
haystack
hcard
hdl
header
headerid
heading
headingfontsize
headingstyle
heat
hectare
hecto
hectolitre
heglig
height
help
helper
hemisphere
here
herpes
hertz
hh
hidden
hide
history
historylink
hitler
hiv
hl
hlist
hm
hold
holding
holds
homo
horizontal
horsepower
hostname
hot
hour
hours
house
how
however
hp
hpa
hs
ht
html
http
https
human
hundred
hundredweight
hus
hussein
hyphen
hyphenated
hyphens
i
ibaai
ic
icon
id
idbackgroundcolor
idcolor
ident
identical
identifier
identifiers
identifies
identify
idfontsize
idheight
idhiethe
idi
idlineheight
idotherparams
idpadding
ids
idtextalign
idwidth
ie
iebc
ietf
if
igad
ignore
ignoreblank
ignored
ignoreisbn
ignores
ihp
ii
iic
iii
ijip
ike
ikuatoriɛ
im
imac
image
imagecelldiv
imagecheckblank
imagediv
imageemptycell
imageemptycellstyle
imageleft
imageleftcell
imageright
imagerightcell
imagerightnone
images
imax
imbox
immediately
imp
imperial
impgal
implements
implied
import
important
imported
impoz
imppt
impqt
impulse
in
inactive
inc
incase
inch
inches
include
included
includemetatable
includes
including
incorrect
incorrectly
indent
independent
index
indexed
indexer
india
indian
indic
indicate
indicated
indicating
indicator
indices
individual
indiɛn
inext
info
infobox
infoboxdata
infoboxes
infoboxlabel
infoboxlabelsfromid
infocolor
infofontsize
infolineheight
infootherparams
infopadding
information
infotextalign
inhabitant
inhabitants
inherit
initial
initialization
initials
inlanguage
inlb
inline
inout
input
inputs
insensitive
insert
inserted
inset
inside
instances
instead
institution
integer
integers
intended
internal
international
interpret
interpreted
interview
interviewer
interviewerlist
interviewers
into
introduction
invalid
invalidating
invalidtypeerror
invariant
invert
invisible
invoke
invoked
invoking
io
ios
iowa
ipairs
iparm
ipiny
ipv
ir
ireland
irish
is
isbn
iscomplex
isdeprecated
isfirst
isis
isknownlanguagetag
ismn
isn
isnegative
isnotempty
iso
isp
isset
issmall
issn
issubpage
issubstituted
issue
issued
issues
istalkpage
istemperature
istemplatepage
isxn
it
italia
italian
italic
italics
italictitle
italy
item
itemid
items
itemstyle
iter
iteradd
iterate
iterator
ithio
ithiopia
ithiopiɛ
ithiɔpia
ithmail
its
itself
iyemac
j
ja
jaak
jaal
jai
jak
jakthon
jal
jala
jam
jamden
jame
james
jamic
jan
january
japan
japanese
jat
je
jem
jfm
jie
jieŋ
jiic
jiik
jiɛ
jiɛk
jiɛɛk
jiɛɛkden
jiɛɛm
jiɛɛme
jo
john
johnson
join
joiner
joins
jok
jol
jomo
jon
joon
joseph
jothep
joule
joules
journal
joŋlei
jpg
jr
json
jsonencode
jstor
jua
juaar
juac
juak
juanmaketh
juba
judai
jue
juec
jueec
jui
juie
juiir
juir
juiɛr
jul
julian
junub
jur
just
juɛ
juɛc
jɔ
jɔk
jɔl
jɔla
jɔn
jɔt
jɔtnhial
jɔŋtooc
jɔɔk
jɛ
k
ka
kaa
kaam
kaamcek
kaamic
kaampamaac
kaar
kaarou
kaartuɔ
kaaŋ
kabaai
kabila
kabɛ
kac
kaci
kacke
kacken
kadhetem
kadhic
kadhie
kadhorou
kadhoŋuan
kadi
kadia
kadiak
kael
kai
kajue
kajuɛ
kak
kake
kakuma
kakɛ
kal
kaldi
kalethiɛ
kalik
kam
kamero
kameroon
kamerun
kamken
kamon
kampala
kamron
kan
kanada
kanitha
kanye
kardashian
karou
kartum
kat
kathɛɛr
katiɔɔp
kawac
kay
kaya
kaye
kayee
kaŋ
kaŋo
kaŋuan
kbe
kbei
kbeu
kbio
kboe
kcal
kci
kde
kden
kdhi
kdi
kdiɛt
ke
keci
kecin
keco
kede
kedhia
kedhie
kedhiɛ
kedia
kee
keek
keep
keer
keerou
kek
keka
keke
kekke
kelvin
kelvins
ken
kene
kenhi
kenia
kenic
kenne
kenning
keny
kenya
kenyatta
kepɛ
ker
kern
kerou
ketho
kev
kevt
kewutic
key
keya
keyboard
keye
keyiic
keys
keyword
keywords
keŋuan
kg
kgco
kgf
khartoum
ki
kic
kiic
kiim
kiir
kiirkɔ
kiit
kiith
kil
kilo
kilocalorie
kilocalories
kilogram
kilograms
kilojoule
kilojoules
kilolitre
kilometer
kilometers
kilometre
kilometres
kilomole
kilomoles
kiloton
kilotonne
kilotonnes
kilowatt
kilowatts
kinds
kingdom
kir
kirkɔ
kit
kite
kith
kiɛ
kj
kk
kka
kke
kken
kkurou
kkɔc
kkɛ
kl
klo
kluŋ
km
kmol
kmɛ
kn
knhom
knok
knot
know
knowledge
known
knownflag
ko
koc
kok
kol
kole
kolombia
komatiip
kong
konh
kony
konye
kooldɛ
koole
koor
kooth
koplik
kor
kordopan
kordupan
koth
kou
kovid
koŋgo
koŋo
kpa
kpi
kpiny
kpuo
kri
kro
kruo
ks
kt
kte
kthi
kthin
kthinnyɔt
kthiɔ
ktho
kto
kttnt
ktɛ
ku
kua
kuaat
kuac
kual
kuan
kuany
kuanyic
kuat
kuataŋɔu
kuate
kube
kuc
kue
kuec
kueen
kueer
kuel
kuen
kuenka
kueny
kuer
kuere
kuin
kuka
kula
kum
kuny
kuo
kuol
kuony
kuoth
kur
kurdi
kuric
kut
kuum
kuur
kuut
kuye
kuyen
kuɔ
kuɔny
kuɔnyde
kuɛ
kuɛl
kuɛm
kuɛn
kuɛny
kuɛr
kuɛre
kuɛt
kuɛth
kuɛtkuɛt
kuɛɛr
kuɛɛt
kv
kw
kwh
kya
kyɔ
kŋo
kɔ
kɔc
kɔcbaai
kɔcci
kɔccuɛt
kɔcdaai
kɔcde
kɔcdi
kɔce
kɔcjue
kɔcke
kɔcken
kɔckiirkɔ
kɔckɔ
kɔckɛ
kɔcroor
kɔcŋicka
kɔk
kɔn
kɔu
kɔye
kɔŋ
kɔɔc
kɔɔr
kɛ
kɛcwei
kɛm
kɛme
kɛmken
kɛn
kɛt
kɛɛc
kɛɛm
kɛɛmpamaac
kↄc
kↄↄc
l
la
laac
laai
laar
laaric
laba
label
labeldiv
labelid
labels
lac
ladekdek
lady
lagu
lai
lajik
lakin
lako
lam
lan
landhi
lang
langcode
language
languages
lanhi
laraab
large
last
lastauthoramp
lastcoord
lastfirst
lastfirsttable
lastn
lat
later
lathi
latin
latitude
latlon
latter
latueŋ
lay
laydate
laysource
layurl
laŋ
lb
lba
lbaai
lbco
lbei
lbf
lbfft
lbm
lbmol
lbrisco
lccn
lci
lcwt
lda
lde
lden
ldi
ldɔ
ldɛ
le
leading
leap
learning
least
leave
lec
lee
leec
leece
leeclonpath
leer
left
lek
lel
lelthok
len
leng
length
ler
less
letter
letters
level
levels
leŋ
lh
lhs
li
lia
liberation
libraryutil
libya
lic
license
licmanaithe
lie
liga
liic
liith
lik
like
lil
lim
limit
limited
line
linear
lineheight
lines
linestring
link
linkbox
linkclasses
linked
linkey
linkn
links
linksdata
liny
list
listed
listitems
listk
listparam
lists
liststyle
liststyletype
listtag
listtype
liter
lith
litre
liu
live
liveweb
liɔi
liɛ
liɛl
liɛɛt
ljonbɛ
lk
lka
lke
lken
lko
lkɔ
lkɛ
llajik
lliec
llɔ
lma
lne
lnhom
lni
lo
load
loaddata
loaded
loadi
loc
local
localcase
localized
located
location
locations
lock
log
logic
logo
logobject
loi
loiloi
loiro
lol
lon
london
lone
long
longer
longitude
longmonth
lonloi
lonpath
lony
looi
look
looked
looking
looks
lookup
loony
loop
looŋ
lop
lotuko
louisville
lower
lowercase
loŋ
lp
lpi
lpiny
lpinye
lt
ltf
lthok
lthɛɛr
lto
lua
luaak
luaargs
luak
lual
luat
luaŋ
luaŋca
luaŋnhialic
lue
lueel
luel
lueth
lui
luk
lukic
luknhom
lum
lung
luo
luoi
luoiloi
luony
luooi
luui
luŋ
luŋdi
luɔ
luɔi
luɔide
luɔiden
luɔie
luɔk
luɔny
luɔnyyinythi
luɔɔi
luɛ
luɛl
luɛlde
luɛth
luɛɛk
luɛɛl
luɛɛth
lwei
ly
lɔ
lɔc
lɔco
lɔk
lɔn
lɔne
lɔnhial
lɔteetic
lɔtueŋ
lɔu
lɔŋ
lɔŋe
lɔɔc
lɔɔk
lɔɔŋ
lɛ
lɛn
lɛŋ
lɣer
m
ma
maac
maace
maalithkuelrou
maalithtɔɔŋkuelrou
maan
maat
maathai
mabio
mabior
mac
maca
macbaai
mach
machar
machine
macthok
macue
madagathkar
made
madholpio
mading
madirit
madit
madiŋ
mado
madrid
maduot
mag
magazine
magic
magnetic
magnetizing
magnitude
magɔ
mailing
mailinglist
main
maincat
mainnsname
mainsnak
maint
maintenance
makana
make
makecat
makecategorylink
makeinvokefunc
makelist
maker
makes
makestartboxdata
makestartboxlinksdata
maketh
maketoolbar
makeurllink
makewikilink
making
makpiny
makue
makuei
makuel
makuɛ
malakal
malakia
malek
malformed
mali
malio
malith
maloŋ
malual
malui
mama
man
mancethter
manchester
manda
mande
mandela
mandinga
mane
manh
manhbaai
manhe
manual
manut
many
manye
manywe
map
mapa
mapdataname
mapframe
mapinyciɛlic
maplink
mapname
mapping
mappings
mappingskey
mappingsnsname
maps
mapurl
mapuur
mar
marathon
marc
margin
maria
marial
maril
mark
marker
markers
markhigh
marks
marksize
markup
marshall
martin
mary
mask
maskn
mass
massachusetts
master
mat
match
matched
matches
matchesblacklist
matchestitle
matching
mateen
math
mathematical
mathers
mathia
mati
matic
matiic
mato
mawe
max
maxdef
maximum
maxlen
maxsigfig
may
maya
mayam
mayardi
mayardit
maybe
mayie
mayiel
mayoŋ
maŋgala
maŋicpio
maŋo
maŋok
maŋu
mb
mbaai
mbbl
mbox
mbq
mbuk
mbɛ
mcal
mci
mcode
mda
mde
mden
mdy
me
mean
means
meant
measurement
mec
media
mediawiki
medium
meei
meek
meen
megacalorie
megacalories
megajoule
megalitre
megaton
megatonne
megatonnes
megawatt
mei
melbourne
memoized
mempith
men
mene
menh
meningitis
mercury
merg
merge
mergeargs
merreikh
message
messagebox
messagename
messages
met
meta
metaargs
metaargskey
metadata
metatable
meter
meters
meth
method
methods
metre
metres
metric
mev
meŋitho
mg
mgɛ
mi
miami
mic
mica
michael
michelle
micro
microformat
microformats
microwatt
mid
middle
mie
might
miir
miirdi
miire
miiri
miiric
miirimatwuɔt
miirlɔckɔc
miirmackoor
miith
mike
mil
mile
milek
miles
milla
millennium
milles
milliard
millicalorie
millicalories
milligram
milliliter
millilitre
millimeter
millimetre
million
milliwatt
min
mini
minim
minimum
minus
minut
minute
minutes
mio
mir
miri
mirror
mirrorsummary
mirrorurl
mismatch
missing
mith
miti
mixed
miɔ
miɔc
miɔɔc
miɛ
miɛc
miɛt
mj
mk
mke
ml
mla
mlatm
mluo
mluɔ
mly
mm
mmmm
mmol
mn
mo
moc
mod
mode
modf
modified
modify
module
modules
moduletitle
mol
molar
mole
moles
moment
money
month
months
mony
more
moreargumentsexist
morrison
mos
moscow
most
move
movement
moveprot
moving
mpa
mpge
mpgimp
mpgus
mph
mpi
mpiny
mprotectionbanner
mr
mro
ms
msg
msgkey
mshared
mt
mtabletools
mthok
mti
mtontnt
mttnt
mtx
mtɔŋ
mtɔŋge
mu
mudhi
muk
muke
muknhom
mult
multi
multicultural
multiling
multiple
multiplier
muo
muonyjie
muorŋaknhom
muorŋaknɔm
murle
music
must
muthebeni
muthiliim
muthilim
muthlim
muuk
muɔ
muɔnyja
muɔr
muɔrŋaknhom
muɔɔc
muɔɔr
muɣameth
mw
mwe
mwh
mxdlat
mxdlon
my
myanmar
mɔ
mɛ
mɛc
mɛcthok
mɛi
mɛn
mɛnh
mɛnhe
mɛt
mɛɛc
mɛɛk
mɛɛn
mɛɛt
n
na
naa
naal
nabuur
nacɔk
nade
nadhi
nadɛ
naijeria
nail
nailkɔ
nairobi
nako
nakɔ
nal
nala
name
named
namelist
namelistformat
nameparam
names
namesep
namesi
namespace
namespaces
napata
napta
nasir
nathir
national
natural
nautical
navbar
nawe
naye
naŋ
naŋic
naɣɔn
nba
nbaaie
nbe
nbei
nbk
nbot
nbsp
nbuɔn
nbuɔt
ncbi
nci
nciɛl
nco
nd
ndash
ndataset
nde
nden
ndhe
ndhiethe
ndi
ndia
ne
nearest
necessary
need
needed
needle
needs
negative
neither
nerue
nested
net
network
never
new
newindex
newline
newlines
newrawmessage
news
newsgroup
newspaper
newton
next
neŋ
nh
nhden
nhe
nhi
nhia
nhiaar
nhial
nhialic
nhiar
nhiarbe
nhie
nhiim
nhiɛ
nho
nhom
nhomic
nhomla
nhomlaau
ni
nic
nie
nigeria
nih
niic
niin
nijer
nil
nilargs
nilargskey
nile
nilo
nilotic
nils
nimeiry
nin
niɔp
nka
nke
nken
nkenue
nkrumah
nkuo
nkɔ
nkɔccuɛt
nlm
nlo
nluk
nm
nmi
nn
nne
nnhom
no
nobatiɛ
nobel
nocat
nocomma
node
nok
nom
non
nondefault
none
nooi
noon
nopp
normally
north
northern
not
notation
note
notempty
notes
nothing
notice
notifying
notracking
november
now
nowiki
nowrap
noŋ
noŋic
nrou
ns
nscategory
nsname
nstable
nsw
nthi
nthii
ntho
nthɛɛr
nto
ntoc
nuba
nubiɛ
nue
nuer
nuet
num
number
numbered
numbers
numdot
numerals
numerator
numeric
numerical
numparam
nums
numsep
numstr
nuɔɔi
nuɛ
nuɛr
nv
nwa
ny
nya
nyaai
nyai
nyakut
nyan
nyandeŋ
nyane
nyapuruuk
nybaai
nybei
nyde
nyden
nydi
nye
nyerere
nyi
nyic
nyie
nyiga
nyiic
nyin
nyindhia
nyinh
nyinic
nyiny
nyith
nyithic
nyithnyol
nyiɛ
nyiɛc
nyiɛre
nyiɛɛi
nyka
nykoor
nykoormacbaai
nykor
nykue
nylajanyany
nyluɔi
nyluɔitueŋ
nymacbaai
nymɛcbaai
nynhom
nyo
nyooth
nyoth
nypamac
nypawut
nypi
nyriɛl
nyrɔt
nythi
nythii
nytho
nyua
nyuc
nyuo
nyuon
nyuoth
nyuuth
nyuɔ
nyuɔth
nyuɔɔny
nyuɔɔth
nyɔɔt
nɔ
nɔk
nɔn
nɔŋ
nɔŋic
nɔŋiic
nɛ
o
obama
obj
object
objects
occur
occurs
oceania
ocinsoutput
oclc
ocm
ocn
ocolc
october
odinga
odp
oe
of
off
offset
ofi
often
ohio
oil
oilbbl
ok
ol
old
olimpik
omar
omargs
ombox
omdurman
omit
omitsep
omitted
on
once
one
only
op
opening
openlibrary
opt
option
optional
optionalarg
optionally
options
or
order
ordered
orders
org
organization
orig
origargs
origargsargname
origin
original
origink
origyear
oromo
os
osti
other
otherparams
others
otherwise
ounce
ounces
our
out
outinfo
output
outputs
outside
outvalue
over
overflow
overhead
overlap
overlay
overlays
override
overwritten
own
oz
ozf
ozt
p
pa
paan
paande
paanden
paandi
paane
paankɔc
pabak
pabakic
pablo
pacuol
pacuɔl
pacuɔlic
padding
padlock
page
pagename
pages
pagetype
paguo
paguot
paguotbak
paguotcuɔl
paguotic
pagut
paguɔ
pair
pairs
pakam
pam
pamaac
pamaacriel
pamaacriɛl
pamac
pamat
pamatnhom
pamatpio
pamɛɛc
pan
panaki
panakim
pande
panden
pandi
pane
pankɔc
panliɛ
panpio
panthou
panthɛɛr
panŋaknhom
papua
par
para
param
parameter
parameternames
parameters
paramlink
paramorder
params
parantha
paren
parens
parent
parentheses
pargs
parm
parms
parmsi
parmsiparm
parmsoption
parmsparms
parse
parsec
parsedec
parser
parserfunctions
part
parts
party
parue
parut
parutbak
parutcuɔl
parutic
pascal
pass
passed
past
path
pathbe
pattern
patterns
paul
pawun
pawune
pawut
pawuut
pawuɔ
payaam
payam
paŋeŋ
paŋok
pc
pcall
pcath
pci
pcr
pd
pde
pdf
pdi
pe
pec
peck
peec
peei
peeth
pei
pen
penbɛ
pene
penthia
people
per
percent
percentatge
perch
performance
period
periodical
periodically
person
pertext
peru
pev
pframe
pg
phalara
phone
php
physics
pi
pia
pial
pialguo
piath
piathbe
pic
pick
pie
pieth
piiny
piir
piiu
pint
piny
pinyate
pinyde
pinyden
pinydiɛ
pinye
pinyli
pinyliɛt
pinyliɛɛt
pinyliɛɛtic
pinymio
pinymo
pinynhom
pinynhome
pinynom
pio
pioc
piocemanhraan
pipe
piped
pipes
pitch
piu
piye
piŋ
piɔ
piɛ
piɛny
piɛnyliɛɛt
piɛr
piɛth
piɛɛth
pj
pk
pl
place
placed
placeholder
places
plain
plainlinks
plathmodium
please
plen
plural
plus
pm
pmc
pmcs
pmid
pmids
pn
pneumonia
png
pntype
po
podcast
point
points
pol
poland
polish
politician
polygon
pondemaat
pop
populates
population
poranthu
port
portal
portion
portions
portugal
pos
posen
position
positive
possible
possibly
postfix
postscript
poth
potugal
pound
pounds
pow
power
pp
practice
pre
prec
preceded
preceding
precision
precisions
prefix
prefixed
prefixedtext
prefixes
prefixtable
preload
preprocess
preprocessargs
preprocesssinglearg
present
presentation
preserve
press
pressure
presume
pretty
preunit
preunits
prevent
prevents
preview
previous
previously
primarily
primary
prime
print
printblurb
printerror
printtitle
private
probably
problem
problems
process
processed
processing
program
prop
proper
properly
propersign
properties
property
propertyvalue
protected
protection
protectionlevels
protocol
provide
provided
provides
ps
psi
pt
ptr
publication
publicationdate
publicationplace
published
publisher
publishername
pubmed
pulse
punctuation
puo
puol
pur
purge
puric
purpose
purposes
put
puur
puɔ
puɔc
puɔl
puɔlic
puɔth
puɔɔl
px
pyeong
pŋiɛckue
pɔ
pɛ
pɛi
pɛini
pɛn
pɛne
pɛɛi
pɛɛini
q
qid
qinu
qt
qtr
quad
quadrat
quadrats
quadrillion
quadrimester
qual
qualifier
quart
quarter
query
quilo
quilogram
quinn
quotation
quote
quoted
quotes
r
ra
raan
raanawuo
raanbaai
raanden
raandi
raane
raanke
raanpio
raanto
raap
rac
rad
radiation
radioactivity
radius
raguer
rai
raila
rak
ram
ran
randit
random
range
rangei
ranges
rankine
ranto
rap
rastafari
rat
rate
rather
ratio
raw
rawget
rawset
ray
raŋ
rbaai
rbe
rbei
rbrisco
rbɛ
rca
rci
rco
rd
rde
rdeen
rden
rdenic
rdi
rdia
re
read
readable
reads
real
reason
reasons
reassemble
rebeka
rec
recic
recognized
record
recovery
red
reduce
redundant
reec
reenken
reer
ref
reference
references
reformat
reformats
refs
regardless
regex
regexp
regexps
registrant
registration
regular
rek
rel
related
relative
release
relevant
relia
rem
remainder
remap
remaplang
removalnotice
remove
removeblanks
removed
removes
render
rendered
rendering
renderlist
renders
renderstartbox
renderstartboxlinks
rendertrackingcategories
rep
repetitions
replace
replaced
replacement
replaces
report
reported
represent
representing
represents
republic
requested
require
required
requires
rer
res
reset
result
resulting
results
ret
retrieved
return
returned
returning
returns
retval
reu
reuse
rev
reverse
rfc
rft
rhs
ri
ria
riak
rial
ric
rie
riek
riel
right
riic
riil
riin
rika
ril
rilbe
rilic
riliic
rim
rin
rine
rinke
rinken
rio
rip
riŋ
riɔ
riɔp
riɛ
riɛa
riɛl
riɛlapɛi
riɛlde
riɛldekɔc
riɛldi
riɛle
riɛlic
riɛlnhom
riɛm
riɛmic
riɛu
riɛŋ
riɛɛl
riɛɛr
rka
rke
rken
rkor
rkudhie
rkumac
rkurou
rkuto
rkɔ
rma
rnhi
rnyiɛɛny
ro
robert
rod
roger
rok
rol
roman
romanization
ronaldo
rood
rool
roor
roore
rooric
root
ror
rot
rotloi
rou
round
rounded
rounding
roundprec
route
row
rowargs
rowcellstyle
rowclass
rowid
rownums
rowstyle
roŋe
roŋpi
roŋroŋ
rpiny
rpiu
rpuo
rriɛl
rrou
rtext
rthi
rthiinga
rthɛ
rthɛɛr
rtum
ru
rua
ruai
rual
ruanda
ruccia
rue
ruel
rum
rumbek
run
runbuɔt
rune
runic
runke
running
runthia
runthok
runtimto
runtueŋ
ruo
ruon
ruonic
ruonke
rup
rutherford
ruun
ruɔ
ruɔn
ruɔr
ruɔɔn
ruɛ
ruɛl
rwa
rwe
rwei
rwodi
ryɔ
ryɔu
rŋaknhi
rŋuan
rɔ
rɔm
rɔt
rɔtde
rɔu
rɛ
rɛc
rɛn
rɛntuaany
rɛɛc
rɛɛnken
rɛɛr
s
sa
safe
saharan
salaam
salva
sam
same
san
sandbox
sandboxes
sandboxlinks
sandboxpreload
sandboxtitle
sanitizedataset
savannah
save
saved
say
sbox
scale
scaled
scales
scf
scheme
scientific
scope
scott
scribunto
script
scriptchapter
scwt
se
search
searches
season
seasons
sec
second
secondpostfix
seconds
sect
section
sections
see
seem
seen
segment
segon
selassie
select
selected
self
semicolons
sent
sentence
sep
separate
separated
separator
separators
sepc
sequence
sequential
serial
series
serieslink
seriesnumber
serve
server
services
serving
set
setmetatable
sets
setting
settings
seven
several
shaft
shaku
shallow
shared
sheet
sheets
shift
short
shortmonth
should
shouldbe
show
showid
showinvalidtypeerror
shown
shows
shp
si
sigfig
sign
signal
significand
significant
sil
silver
similar
similarly
simple
simplicity
simplify
sin
since
sing
single
singular
siprefixes
site
six
size
sizes
skew
skip
sl
slash
sm
small
smallparam
smalltext
smoot
snak
snaktype
so
soft
solar
solid
some
something
sometimes
sorghum
sort
sortable
sortkey
sortspan
source
sources
south
southern
sp
space
spaced
spaces
spacing
spain
span
spancss
spanish
sparseconcat
special
specific
specified
specify
speed
speedy
spell
spelled
spelling
spin
spla
split
splm
spring
sq
sqbr
sqcm
sqft
sqin
sqkm
sqm
sqmi
square
squared
sqverst
sqyd
sr
ssdm
ssrn
ssrns
st
standard
starostin
start
startbox
starting
startnum
state
statement
statements
states
stating
station
status
steady
steam
step
stephen
stf
stiff
still
stone
store
stores
str
strange
strforce
string
strings
strip
stripmarker
stripmarkers
stripped
structure
strval
style
stylein
styleout
styleratio
styling
sub
subbox
subcells
subcellsk
subdiv
subdivisions
subdivs
subheader
subheaderrowclass
subheaderstyle
subinfo
subject
subjectlink
subjectns
subjectspace
subpage
subpageno
subpageonly
subpages
subpagetext
subscription
subst
substitute
substituted
substring
substrings
subunit
success
successful
such
sudan
suffix
suggest
suggested
suggestion
suggestions
summary
summer
sun
supplement
supplied
support
supported
supports
supposed
suppress
suppressed
suppression
sure
surname
sv
sval
svg
swap
sydney
sym
symbol
symlink
syntax
syntaxhighlight
syracuse
system
t
ta
tab
taban
table
tablecen
tablefield
tablei
tablemerge
tableroot
tablerow
tables
tablespoon
tabletools
tac
tag
tagargs
tagname
tags
tail
taiwan
tak
take
taken
takes
takthook
talk
talkargistalkpage
talkpagetitle
talktext
talktitle
tan
tandha
tandhania
tanganyika
tanzania
tap
tapɛi
target
tarnovo
taŋ
taŋganyika
tbak
tbe
tbl
tbrisco
tbsp
tbuɔ
tci
tcoins
tcuft
td
tde
tden
tdi
te
teaching
technical
techreport
tecit
tecithekedi
ted
tede
teem
teer
teet
teetdhe
tek
tekic
tekiic
tekmuoocthok
tem
temp
temperature
template
templatecat
templatecategory
templatecategoryrequirename
templatedata
templateerrorcategory
templatelink
templatename
templates
templatesort
templatetitle
temporary
ten
tene
teny
tenɔŋ
terawatt
terminal
terminate
test
testcases
testcaseseditlink
testcaseslink
testcaseslinkdisplay
testcaseslinks
testcasespreload
testcasesrunlink
testcasesrunlinkdisplay
testcasestitle
tested
testing
tests
tet
tex
texas
text
textalign
textcell
textcelldiv
textstyle
tfrac
th
tha
thaa
thaal
thaany
thaar
thalpa
thalva
than
thanooi
thany
thanyco
thanypiny
thar
that
thati
thbuo
thde
thden
thdi
the
theek
theem
theer
their
them
then
there
therm
thermal
thermochemical
therms
these
thesis
thetable
they
thi
thia
thiaak
thiaan
thiaar
thiai
thiak
thiar
thiaŋ
thic
thidni
thie
thiei
thiek
thiekic
thiekiic
thii
thiik
thiin
thik
thin
thing
things
thinnyɔɔt
thio
thiok
this
thisvalue
thith
thitlual
thiɔ
thiɔr
thiɛ
thiɛk
thiɛɛth
thke
thken
thm
thmath
tho
thobat
thobiyet
thok
thokde
thokic
thoktha
thol
tholomon
thomalia
thon
thonde
thook
thor
those
thou
thousand
thouth
thoŋ
thoŋden
thpio
three
through
thtim
thtueŋ
thuat
thuda
thudan
thue
thuec
thumb
thuo
thura
thurumbil
thuum
thuume
thuɔ
thuɔk
thuɔŋden
thuɔɔu
thuɛ
thyene
thɔ
thɔn
thɔr
thɔŋ
thɔɔr
thɛ
thɛny
thɛɛ
thɛɛr
thɛɛric
ti
tia
tiaam
tiam
tic
tidiedval
tidyval
tie
tieŋ
tieŋic
tiic
tiim
tiit
tik
tim
timbuktu
timda
time
timecaption
times
timestamp
tina
tine
tio
tit
title
titlearea
titlearg
titlelink
titleobj
titles
titlestyle
titletext
titletype
tiŋ
tiŋden
tiŋŋaknhom
tiɔ
tiɔm
tiɔp
tiɔpic
tiɔpnom
tiɔɔp
tiɛ
tiɛl
tiɛm
tiɛtwei
tiɛŋ
tj
tjo
tka
tkathɔn
tke
tken
tkɛ
tl
tla
tld
tlo
tluɔi
tma
tman
tmbox
tme
tmec
tmeec
tmp
tmɛ
tnhi
tnhom
tnt
tnyin
to
toc
todays
todo
tok
tol
ton
tonj
tonnage
tonne
tonnes
tonumber
tony
tonydi
too
tooc
tools
toom
tooŋ
top
topic
topotha
torque
torr
tostring
total
touadera
toŋ
toŋbaai
toŋgol
toŋic
toŋiic
toŋthike
tp
tpiny
tpio
tr
traan
track
tracking
trackingcategories
trailing
trans
transchapter
transcluded
transcript
transcripturl
translate
translated
translatenext
translation
translator
translatorlist
translators
transwiki
treat
treated
tree
trick
trillion
trim
trims
trimwhitespace
triŋ
tro
troy
true
trump
try
ts
tsfc
tsubo
ttuany
tu
tuaany
tuaanye
tuany
tuanye
tuanykaar
tuc
tue
tueeŋ
tueny
tueŋ
tui
tuk
tul
tunto
tuo
tuooc
turkana
tut
tuuk
tuur
tuuŋ
tuŋ
tuŋe
tuŋken
tuɔ
tuɔc
tuɔm
tuɔɔc
tuɛny
tuɛnytuɛny
tw
twe
twelve
twic
twice
twitter
two
type
typedata
types
typewriter
typically
typing
tɔ
tɔc
tɔu
tɔŋ
tɔŋbaai
tɔŋdi
tɔŋe
tɔŋic
tɔɔŋ
tɔɔŋbaai
tɔɔŋkuel
tɛ
tɛk
tɛkde
tɛkic
tɛkpiny
tɛm
tɛɛm
tɛɛr
u
ua
uawai
ubrisco
ucfirst
ucode
ude
ue
uefa
ug
uganda
uguo
uhuru
uic
uiic
uk
uke
ul
ule
ulookup
un
unbulleted
uncategorized
uncertainty
undefined
underscore
underscores
understood
unfit
unhom
unicode
union
uniq
unique
uniquepoints
unit
unitcode
united
unitid
units
unitsi
unity
university
unknown
unless
unnamed
unpack
unrecognized
unset
unstripnowiki
unsupported
until
up
update
updated
upi
upiny
upper
uppercase
upright
uri
uricomponents
url
urls
us
usa
usage
usbbl
usbeerbbl
usbsh
usbu
usdrybbl
usdrygal
usdrypt
usdryqt
use
usecollapsibletextfields
used
useful
uselang
usename
usenet
usenetid
user
userbox
users
uses
usescurrenttitle
usesymbol
usewikidata
usfloz
usgal
usgalatm
usgi
using
uskenning
usoz
usozserve
uspk
uspt
usqt
ustring
usually
usub
usurped
utable
utf
uthin
utilities
utype
uyic
v
val
valarray
valid
validate
validates
validation
valinfo
valinfoi
vals
valstr
valsv
value
valuefunc
values
valuetofind
vanc
vancouver
var
variable
variables
variant
variations
varicella
variety
various
varname
vauthors
ve
veditors
veliko
ver
version
versions
verst
vertical
via
victoria
view
viewedithistorypurge
viewing
vikipedia
visible
viss
visual
vname
void
vol
volt
volume
von
vparam
vxxxxors
w
wa
waac
waak
waan
waar
waaric
wac
wak
wakɔ
wal
wala
wall
wan
want
wanted
wantname
war
warning
warnings
was
wat
water
watkɔ
watnhom
watt
wau
way
wayne
we
web
website
week
weer
wei
weight
wel
well
wen
wenŋaknhom
were
west
wet
weu
weŋ
wh
what
when
where
whether
which
while
white
whitelist
whitespace
who
whole
wholestr
wi
wic
wide
width
wie
wiir
wiki
wikibase
wikidata
wikilink
wikilinked
wikilinks
wikimedia
wikiminiatlas
wikipedia
wikiproject
wikis
wikitext
wildcard
will
william
williamson
winter
wit
with
within
without
withspace
wiɛ
wk
wl
wo
word
words
work
workaround
works
world
worldcat
would
wp
wrap
wrapped
wrapper
wrappers
write
written
wrong
wule
wum
wun
wundi
wune
wunmɛ
wuo
wut
wutic
wuut
wuɔ
wuɔr
wuɔt
wuɔɔk
www
wɔɔk
wɛ
wɛl
wɛt
wɛɛr
x
xhi
xlate
xlo
xml
xn
xx
xxx
xxxxors
y
ya
yaa
yadɛ
yai
yak
yako
yam
yanh
yanhden
yanhe
yap
yar
yard
yards
yath
yd
ye
year
years
yeco
yecu
yee
yeen
yeka
yeke
yekene
yeki
yekke
yeko
yeme
yemɛn
yemɛɛn
yen
yene
yenhom
yenne
yes
yesno
yet
yeth
yeto
yetɛ
yeyic
yi
yia
yic
yie
yiic
yiik
yijip
yik
yin
yindia
yinye
yinyraan
yio
yiok
yith
yiɛ
yj
ylkt
ym
ymd
yng
yo
yok
yom
yor
york
you
your
yourself
youtube
yoweri
yr
yuganda
yui
yuic
yuni
yunion
yunited
yup
yurathia
yurop
yurup
yuul
yuɔm
yy
yyy
yyyy
yɔ
yɔt
yɔu
yɔŋ
yɔɔmtɔŋ
yɔɔp
yɔɔtwei
yɛ
yɛr
z
za
zac
zam
zbl
zealand
zero
zeros
zj
zm
zoom
zoster
zzz
{
|
}
~

¢
£
§
¬
°
±
²
³
µ
¶
·
¸
½
×
ø
ŋ
ŋa
ŋbei
ŋca
ŋde
ŋden
ŋdi
ŋe
ŋeei
ŋeeiabi
ŋeŋ
ŋgelbaai
ŋgli
ŋi
ŋic
ŋice
ŋicka
ŋie
ŋiec
ŋiic
ŋiɛ
ŋiɛc
ŋiɛciɛɛŋ
ŋke
ŋko
ŋkɔ
ŋkɛ
ŋli
ŋlith
ŋluɔi
ŋnhom
ŋnyin
ŋo
ŋoot
ŋot
ŋpiny
ŋpinynhom
ŋthi
ŋthith
ŋthɛɛr
ŋu
ŋua
ŋuan
ŋue
ŋun
ŋuo
ŋut
ŋuun
ŋuut
ŋuɔ
ŋuɔt
ŋuɛ
ŋwei
ŋɔ
ŋɔk
ŋɛ
ŋɛk
ƿ
ǆ
ɏ
ɔ
ɛ
ɛa
ɣa
ɣaa
ɣaac
ɣaacwei
ɣe
ɣeberu
ɣeec
ɣeer
ɣeet
ɣen
ɣene
ɣer
ɣet
ɣo
ɣoc
ɣok
ɣon
ɣone
ɣook
ɣoŋ
ɣɔ
ɣɔc
ɣɔn
ɣɔnthɛɛr
ɣɔɔc
ɣɔɔl
ɣɔɔldi
ɣɛ
ɣɛn
ɣɛɛc
ɣɛɛr
̀
́
̂
̃
̄
̆
̇
̈
̊
̌
̓
̔
̣
̨
͂
α
ε
εε
η
μ
ο
ς
τ
τα
а
в
и
к
о
т
я
языки
і
ԑ
۲
ট
ল
ে
্
ັ
ິ
ື
້
‍
‎
‑
–
—
‘
’
“
”
•
…
′
″
⁄
⁶
€
℅
⅔
→
↔
↷
−
⋅
③
④
⑦
☄
☉
☾
♀
♠
⺀
⺄
⺆
⺈
⺊
⺌
⺕
⺝
⺸
⺼
⿰
⿱
⿲
⿳
⿴
⿵
⿶
⿷
⿸
⿹
⿺
⿻
。
〢
コ
ユ
㇁
㇂
㇄
㇇
㇈
㇉
㇓
㐁
㐄
㐅
㐌
㐫
㐬
㐭
㐮
㐱
㑒
㒵
㒸
㒼
㓁
㓞
㔾
㕛
㕣
㖾
㘝
㚅
㚇
㚔
㚘
㝉
㝡
㝴
㝵
㞋
㞢
㞷
㠩
㠭
㠯
㡀
㡭
㡿
㢲
㢴
㣇
㣺
㥯
㪅
㫄
㫐
㫒
㫺
㬅
㬎
㬥
㬰
㲋
㳄
㷠
㸒
㸚
㸦
㼌
㼲
㽞
㿟
䀠
䂞
䍃
䏍
䒑
䖍
䖒
䖝
䖵
䙴
䚻
䜌
䝿
䡛
䧹
䪞
一
丁
丂
七
丄
丅
丆
万
丈
三
上
下
丌
不
与
丏
丐
丑
专
且
丕
世
丘
丙
业
东
丞
丢
丣
两
严
並
丨
丩
个
丫
丬
中
丮
丰
丱
串
丵
丶
丷
丸
丹
为
主
丽
丿
乀
乂
乃
久
乆
乇
么
义
之
乌
乍
乎
乏
乐
乑
乔
乖
乗
乘
乙
乚
乛
乜
九
乞
也
习
乡
乳
乾
亀
亅
了
亇
予
争
事
二
亍
于
亏
亐
云
互
亓
五
井
亘
亚
亜
亞
亟
亠
亡
亢
交
亥
亦
产
亨
亩
享
京
亭
亮
亯
亰
亲
亳
亶
亷
人
亻
亼
亾
仁
今
介
仌
从
仐
仑
仒
仓
仕
他
付
仝
代
令
以
任
企
伊
伏
伐
休
会
伯
但
位
何
佘
余
作
佥
使
來
侈
侌
侖
侯
侵
便
保
俞
信
修
倉
倍
候
倠
備
僉
僕
儿
兀
允
兂
元
兄
充
兆
兇
先
光
兊
克
兌
免
兑
兒
兓
兔
党
兜
兟
入
全
兩
兪
八
公
六
兮
兰
共
关
兵
其
具
典
兹
兼
冀
冂
冃
冄
内
冈
冉
冊
冋
册
再
冎
冏
冐
冒
冓
冖
冗
冘
军
农
冝
冡
冥
冫
冬
冷
几
凡
凢
凵
凶
凷
凸
凹
出
函
凾
刀
刁
刂
刃
刄
刅
分
切
刍
刑
刕
刖
列
刘
则
初
別
利
别
到
制
刺
則
削
剌
前
剡
剽
劉
力
功
加
劦
助
劫
劳
劵
勃
勇
勉
勒
動
務
勞
勤
勹
勺
勻
勾
勿
匀
匂
包
匆
匈
匊
匋
匍
匕
化
北
匚
匝
匡
匪
匱
匸
匹
区
医
匽
匿
區
十
卂
千
卄
卅
卆
升
午
卉
半
卌
华
卑
卒
卓
单
卖
南
卜
卝
卞
占
卡
卢
卣
卤
卦
卩
卪
卬
卯
印
危
即
却
卵
卷
卸
卻
厂
厃
厄
历
厈
厉
厌
厓
厘
厚
原
厤
厥
厨
厭
厲
厶
厷
厸
去
厼
厽
叀
参
參
叅
又
叉
及
友
双
反
叐
发
叒
叔
叕
取
受
叚
叜
叟
口
古
句
另
叩
只
召
可
台
叱
史
右
叵
号
司
叹
吂
各
吅
合
吉
吊
吋
同
名
后
吏
向
吕
君
吝
吞
否
含
启
吳
吴
吹
吾
呂
呆
呈
告
员
呙
周
命
咅
和
咎
咠
咢
咨
咸
咼
哀
品
哉
員
哥
哲
唐
商
啇
問
啚
啬
啻
善
喜
喬
單
喿
嗇
噩
嚴
囊
囗
囘
囙
囚
四
回
囟
因
囧
囬
困
囱
囷
固
国
圂
圅
國
圍
圓
土
圡
圣
圥
在
圭
地
圶
圼
坐
坒
坚
坴
垂
垔
垚
埀
埋
埶
執
基
堂
堅
堆
堇
堯
塞
墨
壘
士
壬
壯
声
壳
壴
壹
壺
壽
夂
处
夅
夆
备
夊
夋
夌
复
夏
夒
夕
外
夗
夘
多
夜
夢
大
夨
天
太
夫
夬
夭
央
失
夲
头
夷
夸
夹
夻
夾
奂
奄
奇
奈
奉
奎
奏
奐
契
奓
奔
奚
奞
奠
奢
奥
奧
奭
女
奴
奻
好
如
妄
妙
妟
妥
妻
妾
姑
委
姜
威
娄
婁
婴
嬰
嬴
子
孑
孔
孕
孖
字
存
孚
孛
孝
孟
季
孤
学
孫
孱
學
宀
宁
宂
它
宅
宇
守
安
宋
完
宏
宓
宗
官
定
宛
宜
宝
客
宣
室
宮
宰
害
家
容
宾
宿
寄
寅
密
富
寒
察
寧
審
寫
寬
寮
寸
对
寺
寻
寽
対
寿
封
尃
射
将
將
專
尉
尊
尋
尌
對
小
少
尒
尓
尔
尖
尗
尚
尞
尢
尣
尤
尧
尨
尭
就
尸
尹
尺
尻
尼
尽
尾
尿
局
居
屈
屋
屎
屏
屑
展
屖
屚
属
屠
屡
屬
屮
屯
屰
山
屵
屾
岁
岂
岑
岡
岩
岳
岸
峯
島
崇
崑
崔
崖
崙
崩
嵬
嶲
巂
巛
川
州
巟
巠
巢
巤
工
左
巧
巨
巩
巫
差
己
已
巳
巴
巷
巸
巽
巾
巿
帀
市
布
希
帚
帛
帝
带
師
席
帶
常
干
平
年
幵
并
幷
幸
幺
幻
幼
幽
幾
广
広
庄
床
底
店
庚
府
度
庫
庭
庶
康
庸
廉
廌
廛
廣
廩
廴
延
廷
建
廾
廿
开
弁
弃
弄
弇
弋
式
弓
弔
引
弗
弘
弜
弟
弥
弦
弱
張
強
强
彊
彌
彎
彐
彑
当
彔
录
彖
彗
彡
形
彥
彦
彧
彭
彳
役
彼
往
待
律
徒
得
徙
從
復
微
徵
心
忄
必
忌
忍
志
忝
忠
忩
快
念
忽
忿
思
怠
急
怱
恆
恒
恩
恭
息
悉
患
悤
悲
悶
惠
惡
惢
愁
愈
意
愛
感
慈
慧
慮
憂
憲
應
戀
戈
戉
戊
戋
戌
戍
戎
成
我
戒
戔
或
戚
戠
戢
截
戲
戶
户
戹
戼
戾
房
所
扁
扇
手
扌
才
打
托
执
承
折
拉
拜
拿
掌
推
提
摩
支
攴
攵
收
攸
改
放
政
敄
敏
敕
敖
敗
敝
敞
敢
散
敦
敫
敬
数
敷
數
斂
文
斉
斊
斗
斤
斥
斩
斬
斯
新
方
於
施
斿
旁
旋
族
无
旡
既
旣
日
旦
旧
旨
早
旬
旱
旲
时
旾
昆
昇
昌
昍
明
昏
易
昔
昗
昜
星
春
昬
是
昱
昴
昷
時
晃
晋
晏
普
景
晶
智
暑
暴
曇
曩
曰
曲
曳
更
曷
書
曹
曼
曾
替
最
朁
會
月
有
朋
服
朔
朕
朗
望
朝
木
朩
未
末
本
札
朮
术
朱
朵
朶
朿
杀
杏
杜
束
条
来
東
杲
杳
松
析
林
枚
果
枝
枲
枼
某
柔
查
柬
柰
柴
栗
桀
桑
桼
梁
條
梟
梨
棘
棠
棥
森
楚
業
楽
榮
樂
樊
欠
次
欣
欮
欲
欶
欽
款
歆
歇
歛
止
正
此
步
武
歨
歪
歮
歯
歰
歲
歴
歷
歸
歹
歺
死
殳
段
殷
殸
殹
殺
殻
殿
毋
毌
母
每
毒
比
毕
毚
毛
毳
氏
氐
民
气
氣
水
氵
氶
氷
永
氺
氾
求
汝
汞
江
沃
沓
沙
沝
泉
法
波
泣
泥
泰
洛
洪
活
派
流
浦
浪
浮
淡
淮
深
清
渚
渠
湯
滿
漸
灣
火
灬
灭
灰
灵
灷
炅
炎
炏
炗
炙
炭
為
烈
烏
烝
焉
無
焦
焱
然
煞
熊
熏
燕
營
燮
爪
爫
爭
爯
爰
爱
爲
爵
父
爻
爽
爾
爿
片
牙
牚
牛
牜
牟
牢
牧
牪
牽
犀
犬
犭
犮
狂
狄
狊
独
狺
猋
猒
猪
献
獻
玄
率
玉
王
玟
玨
珎
班
琴
瑟
瑩
瓜
瓦
甘
甚
生
産
用
甫
甬
田
由
甲
申
电
甶
男
甸
甹
画
甾
畀
界
畏
畐
留
畜
畟
畢
畧
畨
番
畫
異
畱
當
畺
畾
疊
疋
疌
疑
疒
疾
癶
癸
癹
登
發
白
百
皀
皃
的
皆
皇
皋
皐
皕
皮
皷
皿
盃
盆
盇
盈
益
盍
盎
监
盒
盖
盛
盡
監
盤
盧
目
直
相
盾
省
眇
眉
看
眔
眞
真
眷
眼
眾
着
睘
睪
睿
瞏
瞢
瞿
矍
矛
矞
矢
矣
知
矦
短
石
破
碎
磊
磨
示
礻
礼
祟
票
祭
禀
禁
禸
禹
禺
离
禽
禾
禿
秀
秃
秉
秋
科
秝
秦
移
稟
穀
穌
穴
究
穹
空
穿
突
窄
窒
立
竒
竜
竝
竟
章
童
竹
笑
笠
筆
等
答
箕
算
箴
節
篤
篭
米
粉
粛
粟
粤
粦
粲
糞
糸
糹
系
約
納
素
索
紫
累
細
絜
絫
絲
維
綿
縣
繇
纍
纟
缶
网
罒
罔
罕
罗
罙
罡
罢
罪
署
罷
羅
羊
羌
羍
美
羔
羕
羗
羞
羡
羣
群
義
羲
羸
羽
翁
翏
習
翕
翟
翠
翼
老
耂
考
者
耆
而
耎
耑
耒
耳
耴
耶
耷
聂
聊
聖
聚
聶
聿
肀
肃
肅
肉
肖
肙
肥
肩
肯
育
肴
胃
背
胡
胥
能
脊
脩
膚
臣
臤
臧
自
臬
臭
臯
臱
至
致
臺
臼
臽
臾
臿
舀
舂
舄
與
興
舉
舌
舍
舛
舜
舞
舟
航
般
艮
良
色
艸
艹
艾
芒
芔
芬
芮
花
芳
芺
芻
苔
苗
苟
若
苦
英
茶
茸
荅
草
荒
荣
荼
莆
莧
莫
莽
菆
菊
菐
華
萬
落
葉
著
葛
董
葵
蒙
蒦
蒼
蓋
蓬
蓺
蔑
蔡
蕉
蕭
薄
薛
薦
薰
藍
藏
藥
蘭
虍
虎
虐
虒
虔
處
虖
虗
虘
虚
虛
虜
虞
虫
虽
蚤
蚩
蜀
蜜
蟲
蠡
血
行
衍
衛
衣
衤
表
衮
衰
袁
袞
褭
褱
襄
襾
西
覀
要
覃
見
規
覓
覧
親
覽
见
角
解
言
訁
訇
計
詹
語
誩
諸
讠
谷
豆
豈
豊
豐
豕
豖
豙
象
豦
豩
豪
豸
貇
貝
貞
貟
負
貢
貧
貪
貫
責
貳
貴
買
費
賁
資
賈
賏
賓
賔
賛
賞
賢
賣
質
賴
贊
贝
贡
责
贯
贲
贵
赖
赞
赤
赦
走
越
足
路
蹇
身
躬
車
軍
軎
軟
輦
车
辛
辜
辟
辥
辰
辱
農
辵
辶
边
达
过
近
连
迷
追
退
送
逆
逐
通
速
造
逢
連
逮
進
遀
遂
運
過
道
達
遣
適
遷
遺
邊
邑
邕
那
邦
邪
郎
部
郭
都
鄉
酉
酋
配
酓
釆
采
里
重
野
量
金
釒
錢
钅
長
镸
长
門
閃
閉
開
閏
閑
閒
間
閔
閵
閻
闌
门
间
闷
阑
阜
阝
阿
降
陳
隆
隊
隋
隡
隨
隱
隶
隹
隺
隻
隼
隽
难
雀
雁
集
雈
雋
雍
雐
雔
雙
雚
雜
雝
離
難
雨
雩
雪
雲
零
雷
需
霍
霜
霝
霞
霸
靈
靑
青
非
靡
面
靣
革
韋
韦
韭
韯
韱
音
頁
頃
項
須
頗
頡
頻
顛
页
風
风
飛
飞
食
飠
養
饣
首
香
馬
馮
駦
马
骨
高
髟
鬥
鬯
鬲
鬼
魚
魯
鮮
鱼
鲁
鳥
鳳
鸟
鹵
鹿
麃
麗
麥
麦
麻
黃
黄
黍
黎
黑
黒
黨
黹
黽
黾
鼎
鼓
鼠
鼻
齊
齋
齐
齒
齿
龍
龙
龜
龟
龠
龰
龱
龴
龵
龶
龷
龸
龹
者
艹
﻿
，
？
�
🜨
𠀁
𠀃
𠀆
𠀉
𠀎
𠀐
𠁁
𠁣
𠂆
𠂇
𠂈
𠂉
𠂊
𠂋
𠂎
𠂒
𠂔
𠂛
𠂡
𠂢
𠂤
𠂬
𠂭
𠂹
𠃊
𠃋
𠃌
𠃍
𠃎
𠃑
𠃓
𠃔
𠃜
𠄌
𠄎
𠄠
𠄢
𠆢
𠆥
𠇍
𠈌
𠌵
𠓜
𠔉
𠔥
𠔼
𠔽
𠔿
𠕀
𠕁
𠕋
𠘧
𠘨
𠙻
𠙼
𠚏
𠚒
𠚤
𠚪
𠣏
𠤎
𠤕
𠥓
𠦄
𠦑
𠦝
𠧒
𠧗
𠧪
𠩺
𠪚
𠫓
𠫔
𠫤
𠬛
𠬝
𠬞
𠬢
𠬤
𠬶
𠮛
𠮦
𠮷
𠯑
𠱠
𠳮
𠷎
𡈼
𡉀
𡉵
𡌥
𡍮
𡏳
𡕒
𡕩
𡕰
𡖅
𡗗
𡗜
𡘆
𡘤
𡧱
𡨄
𡩧
𡬠
𡭽
𡰣
𡰥
𡰪
𡰯
𡰱
𡷈
𡸁
𡿨
𡿩
𡿪
𡿺
𢀖
𢀛
𢀩
𢁙
𢆉
𢆰
𢆶
𢇁
𢇇
𢉖
𢌬
𢌿
𢏚
𢑑
𢑚
𢖻
𢙣
𢛳
𢦏
𢦒
𢧵
𢼄
𢾕
𣁋
𣄼
𣅀
𣅽
𣍘
𣎳
𣎵
𣏋
𣏼
𣗥
𣥂
𣥖
𣦵
𣦼
𣧄
𣪊
𣪠
𣬉
𣳾
𣶒
𤇾
𤊽
𤐫
𤓰
𤔔
𤕨
𤣩
𤰇
𤰔
𤰞
𤴓
𤴔
𤽄
𥁑
𥁕
𥃦
𥃩
𥃭
𥇡
𥑟
𥘅
𥘈
𥝢
𥫗
𥱡
𦈢
𦉪
𦉬
𦉼
𦍌
𦍒
𦎧
𦐇
𦓔
𦔮
𦘒
𦙃
𦚏
𦣝
𦣞
𦣻
𦥑
𦥔
𦥯
𦨉
𦭝
𦰩
𧆞
𧈧
𧘇
𧰨
𧴪
𧴮
𧵩
𧾷
𨸏
𨾴
𩙿
𩠐
𩫏
𩵋
𪉷
𪜀
𪟽
𪠲
𪩲
𫇦
𫔭
𫜸
𫝀
𫠣
𫠩
𫢉
𫥞
𫩏
𫩠
𫪡
𫲽
𫶧
𬀷
𬐘
𬗌
𬙙
𬛸
𬜯
𬟩
𬯁
𬴘
𬺻
𬼉
𬼖
𭀰
𭁈
𭁨
𭅰
𭑈
𭕄
𭗼
𭤨
𭥫
𭻾
𮅕
𮊿
𮍌
𮍏
𮓗
𮥼
𮧮
廾
𰀁
𰀄
𰀈
𰀉
𰀕
𰀠
𰀡
𰀢
𰀪
𰁜
𰃮
𰆊
𰆘
𰋙
𰕎
𰢴
𰧭
𰯲
0--
00--
000--
01--
02--
03--
08--
09--
10--
13--
14--
15--
17--
18--
19--
20--
21--
23--
25--
26--
28--
29--
3--
31557--
34--
35--
37--
39--
4--
40--
41--
42--
5--
6--
65--
7--
75--
77--
8--
85--
9--
97--
98--
a--
aa--
aba--
abaŋ--
above--
ac--
aci--
activ--
ad--
add--
ade--
adh--
adɔ--
age--
agr--
agu--
ak--
akeu--
aki--
akony--
aku--
akua--
akut--
al--
ala--
all--
alt--
am--
ame--
ami--
an--
anthro--
any--
ap--
api--
app--
apuɔ--
ar--
ara--
arg--
args--
as--
at--
ate--
atit--
atri--
atuu--
atɛɛ--
au--
auto--
ay--
aŋ--
b--
ba--
bacte--
bak--
bal--
bany--
bar--
base--
baŋ--
be--
below--
ben--
ber--
bi--
bib--
bio--
bo--
br--
brit--
brow--
btu--
bu--
bur--
but--
bɛi--
bɛny--
c--
ca--
cam--
can--
cap--
car--
cat--
cc--
ce--
ceŋ--
cfg--
ch--
chee--
ci--
cin--
cir--
ciɛŋ--
cl--
co--
con--
conf--
cons--
conv--
cop--
cre--
cro--
cu--
cuɔt--
cɔk--
cɛ--
cɛth--
d--
da--
dar--
date--
dav--
de--
dead--
dec--
deci--
dee--
delink--
dh--
dha--
dhie--
dhu--
di--
dia--
dic--
dis--
distin--
do--
doc--
docu--
du--
dɛɛ--
e--
eas--
econo--
edit--
ee--
elec--
em--
en--
equato--
es--
et--
eth--
ex--
exp--
f--
fa--
femto--
figu--
file--
fl--
fq--
fron--
g--
ga--
gal--
ge--
gen--
geo--
get--
gh--
gi--
giga--
gl--
go--
gr--
gre--
gri--
gt--
gu--
gut--
gɛ--
h--
ha--
har--
he--
hemisphere--
hi--
ho--
hol--
hon--
hyper--
i--
id--
im--
image--
imp--
imple--
in--
inf--
info--
inhi--
inst--
inter--
ir--
is--
iso--
it--
ith--
iv--
iŋ--
j--
ja--
jam--
je--
ji--
jo--
ju--
k--
ka--
kaa--
kaam--
kak--
kal--
kam--
kan--
kar--
kde--
ke--
kede--
kee--
ken--
kg--
kha--
ki--
kilo--
km--
knhi--
ko--
koc--
kri--
kt--
ku--
kua--
kur--
kut--
kw--
kye--
kɔ--
kɔc--
kɛ--
kɛm--
kɛɛ--
l--
la--
lau--
lay--
le--
lea--
leer--
leŋ--
li--
lic--
lig--
light--
lik--
lin--
list--
lo--
loc--
loi--
lon--
looi--
lth--
lu--
luŋ--
luɔi--
ly--
lɔ--
lɛɛ--
m--
ma--
maalith--
mac--
mai--
make--
map--
mark--
mat--
mauri--
mb--
me--
mec--
mega--
mer--
mi--
micro--
miir--
miirmat--
mil--
milli--
mirror--
mist--
ml--
mm--
mo--
mt--
mu--
muk--
multi--
muɔ--
muɔny--
my--
mɛ--
mɛnh--
mɛt--
mɛtnhom--
n--
na--
nai--
ne--
neander--
new--
nh--
nhial--
ni--
nic--
nin--
nka--
nn--
no--
ns--
nu--
ny--
nya--
nyi--
nyin--
nyu--
nyuu--
nɔŋ--
nɛ--
o--
op--
ope--
or--
org--
p--
pa--
pale--
pan--
panor--
pay--
pe--
pen--
per--
peta--
philipp--
pi--
piny--
piu--
piŋ--
pk--
pl--
po--
pp--
pran--
pre--
pro--
proce--
prof--
pub--
pɛ--
pɛi--
pɛɛi--
q--
quilo--
r--
ra--
raan--
ram--
rde--
rdh--
re--
regi--
render--
rep--
repe--
req--
ri--
riɛ--
rku--
ro--
rot--
rou--
ru--
rum--
run--
ruo--
rɔt--
s--
sa--
sal--
sandbox--
sarko--
scho--
se--
sep--
ser--
set--
sex--
sh--
sha--
shil--
si--
ska--
sl--
small--
so--
sp--
sq--
st--
ste--
str--
su--
sub--
switcher--
t--
ta--
tan--
taŋ--
te--
ter--
tera--
termin--
th--
the--
thi--
tho--
thu--
ti--
tidyval--
tiim--
tim--
tiŋ--
tiɛɛ--
to--
toŋ--
tr--
tra--
trans--
tri--
tu--
tur--
tuŋ--
type--
tɔŋ--
tɛ--
u--
ug--
uk--
ul--
un--
underst--
unit--
units--
us--
v--
ve--
vi--
view--
vir--
vit--
vo--
w--
wa--
wan--
war--
we--
wel--
wet--
what--
wi--
wiki--
wo--
wu--
wun--
wut--
wɛ--
x--
y--
ya--
ye--
yen--
yi--
yith--
yotta--
yu--
z--
za--
zetta--
ŋ--
ŋa--
ŋe--
ɔ--
ɛ--
ɣa--
ɣan--
ɣe--
ɣet--
ɣi--
ɣo--
ɣon--
ɣɔn--
--0
--00
--000
--000000
--0254
--04
--06
--1
--2
--24
--3
--4
--43
--5
--6
--66
--69
--7
--76
--8
--84
--86
--89
--9
--91
--a
--aan
--able
--ac
--ada
--ae
--ah
--ai
--ained
--ak
--al
--am
--an
--ans
--ap
--ar
--ard
--argname
--args
--ary
--at
--ath
--ation
--atm
--ats
--au
--aŋ
--b
--ba
--bai
--be
--bei
--bet
--beth
--bi
--bl
--ble
--blurb
--box
--bs
--byid
--bɛ
--c
--ca
--ce
--ch
--ci
--ck
--class
--co
--cok
--count
--createurl
--ct
--d
--da
--data
--dddd
--de
--den
--denic
--des
--di
--display
--dit
--do
--ds
--dɔ
--dɛ
--dɛn
--e
--ea
--ec
--ects
--ed
--editurl
--ee
--een
--egories
--ei
--ek
--el
--en
--ence
--ent
--ep
--er
--erly
--es
--ese
--ess
--et
--eth
--eu
--ew
--ey
--eŋ
--f
--format
--g
--ga
--ge
--gi
--go
--grey
--h
--ha
--hal
--he
--her
--hg
--hi
--hia
--hic
--hiɛ
--ho
--hok
--hom
--hum
--huo
--i
--ia
--ial
--ian
--ible
--ic
--ice
--ict
--id
--ie
--ient
--ies
--ification
--ified
--ii
--iic
--ik
--ika
--il
--im
--in
--ine
--ing
--iny
--io
--ion
--ip
--ir
--ire
--is
--ise
--isplay
--ist
--it
--ite
--ith
--ity
--ium
--ive
--ization
--ize
--ized
--iŋ
--iɔ
--iɛ
--iɛl
--j
--ja
--jik
--jue
--juɛ
--k
--ka
--ke
--ken
--key
--ki
--kin
--king
--ko
--kor
--ks
--kɔ
--kɔc
--kɛ
--l
--la
--lba
--ld
--le
--lei
--les
--ley
--li
--lin
--ling
--link
--list
--ll
--lla
--lo
--ls
--lu
--luɔ
--ly
--m
--ma
--mal
--me
--ment
--mi
--mɛ
--n
--na
--nal
--name
--nce
--nd
--nda
--ne
--ng
--nh
--nhi
--nho
--ni
--nia
--niɛ
--no
--nom
--now
--ns
--nt
--nts
--num
--nums
--ny
--nyi
--nɔm
--nɛ
--o
--oc
--ogy
--oi
--ok
--om
--ombia
--on
--ong
--only
--onne
--ons
--ony
--oom
--op
--or
--ot
--oth
--otta
--ou
--oŋ
--p
--pa
--page
--pe
--pi
--ping
--piny
--pio
--pipetrick
--ple
--pos
--r
--ra
--ral
--rd
--re
--required
--rg
--ri
--ring
--rn
--ro
--rot
--rou
--rrss
--rry
--rs
--rt
--ry
--rɔt
--s
--sco
--se
--self
--sh
--shes
--sia
--son
--ss
--st
--ster
--style
--t
--ta
--tat
--tatements
--te
--ted
--ter
--tes
--text
--th
--thi
--tho
--thumb
--ti
--tim
--tin
--ting
--title
--tly
--to
--tok
--ton
--tor
--tre
--ts
--tucnui
--tue
--ty
--tyle
--tɔ
--tɛ
--u
--ual
--uc
--ue
--ui
--uk
--ul
--um
--uo
--ur
--url
--us
--ut
--uth
--uuk
--uul
--uur
--uŋ
--uɔ
--uɔl
--uɛ
--uɛl
--v
--ve
--ville
--w
--wa
--we
--wei
--wi
--wood
--word
--wton
--x
--y
--ya
--yam
--ye
--yic
--yo
--ys
--z
--zed
--zol
--ł
--ŋ
--ŋa
--ŋic
--ŋok
--ɔ
--ɔc
--ɔk
--ɔl
--ɔm
--ɔn
--ɔny
--ɔr
--ɔt
--ɔth
--ɔu
--ɔŋ
--ɔɔp
--ɛ
--ɛc
--ɛi
--ɛk
--ɛl
--ɛm
--ɛn
--ɛny
--ɛr
--ɛt
--ɛth
--ɛu
--ɛŋ
--ɛɛi
--ɛɛr
--ɛɛt
--ɣo
--и
