!
"
#
##0
##1
##10
##11
##12
##13
##14
##15
##16
##17
##18
##19
##2
##20
##21
##22
##23
##24
##25
##26
##27
##28
##29
##3
##30
##31
##32
##33
##34
##35
##36
##37
##38
##39
##4
##40
##41
##42
##43
##44
##45
##46
##47
##48
##49
##5
##50
##51
##52
##53
##54
##55
##56
##57
##58
##59
##6
##60
##61
##62
##63
##64
##65
##66
##67
##68
##69
##7
##70
##71
##72
##73
##74
##75
##76
##77
##78
##79
##8
##80
##81
##82
##83
##84
##85
##86
##87
##88
##89
##9
##90
##91
##92
##93
##94
##95
##96
##97
##98
##99
$
%
&
'
(
)
*
+
,
-
.
/
0
00
000
0000
001
01
0123
02
03
04
05
06
07
08
09
1
10
100
1000
10000
101
102
1024
103
104
105
106
107
108
109
11
110
1100
111
112
113
114
115
116
117
118
119
12
120
1200
121
122
123
124
125
126
127
128
129
13
130
1300
131
132
133
134
135
136
137
138
139
14
140
1400
141
142
143
145
146
147
148
149
1492
15
150
1500
151
152
153
154
1540
1547
155
156
157
158
1583
159
15924
16
160
1600
161
162
163
164
165
166
167
168
169
17
170
1700
1704
1707
171
172
173
174
175
1750
1758
176
1765
177
1775
178
179
18
180
1800
1801
1814
1815
1819
182
1825
1829
183
1831
1833
184
1840
1849
185
1850
1855
1856
1857
1858
1859
1860
1861
1862
1865
1866
1867
1869
187
1870
1875
1876
1877
1880
1881
1882
1883
1884
1885
1886
1887
1888
1889
189
1890
1892
1893
1894
1895
1896
1897
1899
19
190
1900
1901
1902
1903
1904
1905
1906
1907
1908
1909
191
1910
1911
1912
1913
1914
1915
1916
1917
1918
1919
192
1920
1921
1922
1923
1924
1925
1926
1927
1928
1929
193
1930
1931
1932
1933
1934
1935
1936
1937
1938
1939
194
1940
1941
1942
1943
1944
1945
1946
1947
1948
1949
195
1950
1951
1952
1953
1954
1955
1956
1957
1958
1959
196
1960
1961
1962
1963
1964
1965
1966
1967
1968
1969
197
1970
1971
1972
1973
1974
1975
1976
1977
1978
1979
198
1980
1981
1982
1983
1984
1985
1986
1987
1988
1989
199
1990
1991
1992
1993
1994
1995
1996
1997
1998
1999
2
20
200
2000
2001
2002
2003
2004
2005
2006
2007
2008
2009
201
2010
2011
2012
2013
2014
2015
2016
2017
2018
2019
202
2020
2021
2022
2023
203
204
205
206
207
208
21
210
212
213
214
215
219
22
220
221
222
223
224
225
226
227
228
229
23
230
231
232
233
2332579
234
235
236
237
238
239
24
240
241
242
243
244
245
247
248
25
250
2500
251
252
253
254
255
256
258
26
260
261
262
264
265
266
267
268
27
270
272
273
275
2758
276
279
28
280
281
282
285
287
288
29
290
293
294
295
296
298
299
3
30
300
3000
301
302
304
305
306
308
31
310
312
313
315
3166
318
319
32
320
321
322
323
324
325
326
327
33
330
336
34
340
341
35
350
358
36
360
365
37
370
375
38
380
381
382
383
384
385
386
387
388
389
39
390
391
4
40
400
4000
403
404
408
41
410
413
414
41464
415
416
419
42
420
4217
424
427
43
430
436
44
440
441
444
447
45
450
452
46
47
48
480
485
489
49
496
499
5
50
500
5000
501
51
52
53
54
541
55
550
555
56
567
57
58
580
588
59
6
60
600
6000
61
62
63
639
64
640
65
650
66
67
68
69
7
70
700
7000
71
72
73
737
74
744
747
75
750
76
77
777
78
79
8
80
800
81
82
828
83
84
85
850
86
8601
87
88
886
888
89
9
90
900
91
92
93
94
949
95
96
97
976
978
98
99
992
996
999
:
;
<
=
>
?
@
\
^
_
`
a
aa
aaa
ab
abandoned
abbr
abbreviate
abbreviated
abbreviation
abbreviations
abc
ability
able
ablon
abolished
abort
aborted
aborting
about
above
abovestyle
abraham
absence
absent
absolute
absolutely
abstract
abuse
abusefilter
abuselog
abuselogdifflink
abuseloglink
abuselogsearchfilterlink
abuselogsearchtitlelink
abuselogsearchuserlink
abusing
ac
academia
academic
acanthocarpus
accept
acceptable
accepted
accepting
accepts
access
accessdate
accessed
accessibility
accessible
accession
accommodate
accompanied
accompanying
accordance
according
accordingly
account
accounts
accuracy
accurate
accurately
achieve
achieved
acid
acquire
acre
acres
acridotheres
acronym
acronyms
across
act
acted
acting
action
actioncompleted
actioned
actions
activate
activated
active
actively
activexdocument
activities
activity
actor
actors
acts
actual
actually
ad
add
addbeingdeleted
addbutton
addbuttontocontrolbar
addclass
addcss
addcustomfunction
adddeleteparamlinelink
added
addelementstopreviewbar
adderror
addeventlistener
addexist
addfooterlink
adding
addinitcallback
additems
addition
additional
additionally
additionnalclasses
additions
addlinks
addname
addnewicon
addnewiconli
addnewtext
addnewtextli
addoption
addpagetosuivi
addparamlinebutton
addportletlink
address
addressed
addresses
adds
addsectiontitle
addtoholdingcell
addtolog
addtradtotranslatedparamdesc
addwarning
adequate
adhering
adj
adjacent
adjective
adjust
adjusted
adjustment
admin
administration
administrative
administrator
administrators
adminonly
admins
adminship
admissibilite
admission
admitted
adopted
adresse
adsl
advance
advanced
advantage
advertising
advice
advised
advisor
advisory
ae
aerial
af
afc
afd
affairs
affect
affected
affecting
affects
affichage
afficher
affiliate
affiliated
affiliates
affiliation
affiliations
aforementioned
africa
african
aft
after
again
against
age
ageing
agencies
agency
agenda
agent
agents
ages
agf
aggregation
ago
agra
agree
agreed
agreement
agricultural
agriculture
ahead
ahluwalia
ahref
ai
aid
aide
aidemeta
aids
aim
air
aircraft
aired
airlines
airport
airports
aiv
aivpage
ajax
ajaxinput
ajout
ajoute
ajouter
aka
al
alan
alaska
albert
alberta
album
albums
alert
alerts
alexa
alexander
alias
aliases
align
aligned
alignment
all
allahabad
allcheckboxdivs
alleged
allegiance
allheaders
alllinesseen
alllis
allmovie
allow
allowbots
allowed
allowing
allows
allowsoft
allpages
alltabs
alltags
alluvium
alma
almost
alone
along
alongside
alpha
alphabet
alphabetic
alphabetical
alphabetically
alphanumeric
alpine
alps
already
alreadypresenttags
also
alt
alter
altered
alternate
alternately
alternative
alternatively
alternativemap
alternatives
although
altitude
altogether
alttitle
always
alwaysshowntabs
am
amazon
ambassador
ambiguity
ambiguous
ambox
amendment
america
american
americas
amet
among
amount
amounts
ampersand
an
analysis
anatomy
anatomyofhumanbo
anchor
anchornode
anchors
ancient
and
andaman
andhra
andrew
android
angeles
angiosperms
angle
anim
animal
animals
animation
anime
anniversary
annotated
annotation
annotations
announce
announced
announcement
announcing
annual
annually
anobject
anon
anonblock
anonymous
another
answer
answers
antarctic
antarctica
anthem
anthony
anti
antibody
antidisestablishmentarianism
antiquity
antonio
any
anyone
anything
anyway
anywhere
apart
apg
api
apilimit
apiobj
apologies
apologize
apostrophe
app
apparent
appear
appearance
appearances
appeared
appearing
appears
append
appendchild
appended
appending
appendreasonbox
appends
appendtext
appendto
apple
applicable
application
applications
applied
applies
apply
applychangetags
applying
appointed
appreciated
approach
approaches
appropriate
appropriately
approval
approved
approximate
approximately
approximation
apps
april
apt
aquarium
aqueduct
ar
arab
arabia
arabian
arabic
aravali
arbitrary
arbitration
arc
archaeological
archipelago
archipelagos
architect
architectural
architecture
archival
archive
archived
archivedate
archivelist
archives
archiveurl
archiving
arctic
ardea
are
area
areas
aren
arg
args
argument
arguments
aria
arial
arid
arise
arizona
arles
arm
armed
armour
arms
army
around
arr
arranged
array
arrayliketoarray
arrayname
arrays
arrow
art
arthur
arti
article
articlefeedbackv
articlelengthlimit
articlelink
articlepagename
articlepath
articles
articleshow
artifact
artillery
artist
artists
artistyle
arts
artwork
arunachal
arv
arxiv
as
ascii
ashoka
asia
asian
asiatic
asin
ask
asked
asking
asks
asnextdiff
asp
aspect
aspects
aspreviousdiff
aspx
assam
assamese
assembly
assert
assess
assessment
assets
assign
assigned
assist
assistance
assisted
associate
associated
association
assume
assumed
assuming
asterids
asterisk
asterisks
astronomical
async
at
atc
atcvet
athlete
athletes
athletics
ation
atlantic
atlas
atmosphere
atmospheric
atom
atomic
attached
attack
attacks
attempt
attempting
attempts
attend
attended
attention
attr
attribute
attributed
attributes
attribution
au
aud
audio
aug
august
austin
australia
australian
austria
author
authorities
authority
authorized
authorlink
authormask
authorn
authors
autism
auto
autobiography
autoblock
autocollapse
autoconfirmed
autoedit
autofill
autofillid
autofillprop
autolevel
automated
automatic
automatically
automatique
automatiques
autopatrol
autovalue
autowikibrowser
autres
aux
auxiliary
av
availability
available
availablelanguages
avec
average
avertissement
avertobar
avertobutton
avg
aviation
avoid
avoided
avoiding
avoids
award
awarded
awards
aware
away
awb
axis
ayant
az
b
ba
babel
bac
back
background
backlink
backlinks
backlog
bacteria
bad
badge
badminton
bahadur
balance
balanced
bali
balises
baltimore
ban
bananas
band
bandeau
bandeaux
bangalore
bangladesh
bank
banknotes
banks
banned
banner
banners
bar
baraha
bare
barre
bars
bas
base
baseball
based
baseline
baseurl
basic
basically
basin
basins
basis
basque
bat
batch
batchchunks
batchdelete
batchmax
batchoperation
batchprotect
batchundelete
bathymetry
battery
battle
battles
bay
baz
bb
bbc
bc
bce
bd
be
bear
beatified
beating
beatles
beauty
became
because
become
becomes
becoming
been
bef
before
beforeparampanelsavedhookresult
began
begin
beginning
begins
begun
behalf
behave
behavior
behaviour
behind
beijing
being
belgium
beliefs
believe
believed
bell
belong
belonging
belongs
below
belowstyle
belt
beneath
benefit
bengal
bengali
ber
berkeley
berlin
beside
besides
best
beta
better
between
beyond
bg
bh
bho
bhojpuri
bhwiki
bi
bias
biased
bibcode
bibliographic
bibliographies
bibliography
bicycle
bienvenue
big
bigger
bihar
bild
bill
billiard
billion
bin
binary
bind
bing
binomial
biodiversity
biogeographic
biographical
biographies
biography
biological
biology
biomedical
biomes
biorxiv
biosphere
bird
birdlife
birds
birth
birthday
birthplace
bishop
bit
bl
black
blacklist
bladed
blanchiment
blank
blankbar
blanked
blanking
blankinput
blankname
blasco
blatant
blind
blocage
block
blocked
blockflags
blockgroup
blockinfo
blocking
blockip
blocklink
blockpreset
blockquote
blocks
blog
blogs
blp
blpprod
blue
bm
bn
bo
board
bodies
body
bodyclass
bodystyle
boeing
bogage
boilerplate
boiling
bold
bolded
book
bookdata
bookmark
books
boolean
boracay
border
bordered
borders
born
borough
bosnia
bot
botanical
botany
botedit
both
bots
bottom
boundary
bouton
boutons
bowl
bowling
box
boxes
br
brace
braces
bracket
brackets
brahmaputra
brahmi
braille
brain
branch
branches
brand
brazil
break
breaking
breaks
brian
bridge
brief
briefly
bring
britain
britannica
british
broad
broadcast
broader
broken
bronze
brother
brought
brown
browse
browser
browsers
bs
bsi
bt
buddha
buddhism
buddhist
budget
bug
bugs
bugzilla
bugzillalinkstart
build
buildblanckpreviewbar
buildhistorypanel
building
buildings
buildpreviewbar
built
bulbul
bulgaria
bulk
bullet
bulleted
bulletless
bundle
bureau
burial
buried
burma
burmese
bus
business
but
button
buttonimage
buttons
buttonwidget
bw
by
bypass
bypasswatchdefault
bytes
c
ca
caa
cable
cache
cached
cactions
calculate
calculated
calculates
calculation
calculations
calcutta
calendar
california
call
callback
callbackparameters
callbacks
called
calling
callname
callnames
calls
callsign
cambridge
came
camera
campaign
campaignbox
campaigns
campus
can
canada
canadian
canal
cancel
cancelfunction
cancelinput
cancer
candidate
candidates
cane
cannot
canon
canonical
canonicalname
canonized
canton
cap
capable
capacity
cape
capital
capitalization
capitalize
capitalized
caps
caption
captions
capture
captured
carbon
card
cardinal
cards
care
career
careful
carefully
cargo
caribbean
carried
carries
carry
cars
cartography
cartouche
cartridge
cas
cascade
cascading
case
cases
cash
casno
cast
castle
casualties
cat
catalog
catalogue
catch
catches
catchment
cate
categories
categoriestests
categoriestestsa
categorisation
categorise
categorised
categorises
categorization
categorize
categorized
categorizes
categorizing
category
categorytree
catharanthus
cathcart
cathedral
cause
caused
causes
causing
caution
cc
ccc
cd
ce
ceased
ceiling
celebrate
cell
cells
cellule
censorship
census
center
centered
centimeters
centimetres
central
centralauth
centralauthtoken
centralized
centre
cents
century
ceremonial
ceres
certain
cf
cfd
cfds
cfdtarget
cgi
ch
chain
chains
chairman
challenge
challenged
challenges
champion
championships
chan
chance
chancellor
chandigarh
change
changed
changedlink
changeligne
changepreset
changes
changeslist
changetag
changetaglinks
changetaglog
changetagok
changetags
changing
channel
channels
chapter
char
character
characteristics
characters
charat
charge
chargement
charger
charinsert
charles
chart
charter
charts
chebi
check
checkbox
checkboxes
checked
checkedparams
checkform
checking
checkinputstotransform
checkinputstotransforminthisnode
checklabel
checklist
checks
checkuser
checkuserblock
chembl
chemical
chemicals
chemistry
chemspiderid
chess
chhattisgarh
chi
chicago
chief
child
childhood
childnodes
children
chile
china
chinese
choice
choices
choisya
choose
choosing
chosen
christian
chrome
chronological
chronology
chunk
chunksize
church
churchill
ciaaw
ciales
circa
circle
circuit
circulation
circumstances
cis
citation
citations
cite
cited
citediv
citemain
citeref
cites
citeseerx
citeselect
citetb
citetemplate
cities
citing
citizenship
citoid
city
civil
civilian
ckoerner
cl
clades
claim
claimed
claims
clarification
clarify
clarity
class
classes
classic
classical
classification
classified
classis
classname
clause
clean
cleaned
cleanup
clear
clearer
clearinput
clearly
cleartimeout
clearyourcache
clerk
clerks
click
clickable
clicked
clicking
clicks
client
climate
clinical
clip
clipboard
clips
clock
clocktime
close
closed
closediscussion
closely
closemenu
closer
closes
closing
closure
closures
club
clubnumber
clubs
clusty
clutter
cluttering
cm
cmbox
cmd
cms
cn
co
coach
coast
coastal
coastline
coat
coauthor
coauthors
code
coded
codepoint
codes
coding
coi
coin
coins
col
cold
collaboration
collaborative
collapse
collapsed
collapsible
collapsing
collect
collected
collection
collections
college
colon
colons
color
colorado
colored
colors
colour
colours
cols
columbia
column
columns
colwidth
com
combatant
combination
combinations
combine
combined
combining
combo
come
comes
comic
coming
comma
command
commande
commander
commanders
commanding
commands
commas
comme
comment
commentaire
commentary
commentatorlinelinks
commentatorlinelinkslength
commentatorlink
commentlinks
comments
commenttests
commenttestsa
commercial
commission
committee
common
commonly
commons
commonsets
commonsmetadata
commonwealth
commune
communication
communis
communist
communities
community
compact
companies
companion
company
comparative
compare
compared
comparison
compass
compatibility
compatible
competing
competition
competitions
competitors
complete
completed
completely
completion
complex
compliance
compliant
complicated
comply
component
components
composed
composer
compound
comprehensive
compromised
computed
computer
computers
computeweight
computing
con
concat
concept
concepts
concern
concerned
concerning
concerns
concise
concluded
concrete
condition
conditional
conditions
conduct
conducted
conf
conference
config
configurable
configuration
configurations
configure
configured
confirm
confirmation
confirmed
conflict
conflicting
conflicts
conform
confuse
confused
confusing
confusion
congo
congress
congressional
conjunction
connect
connected
connecting
connection
connections
consecutive
consensus
consequently
conservation
consider
consideration
considerations
considered
consist
consistency
consistent
consistently
consisting
consists
console
consonant
consonants
constant
constituency
constituent
constitute
constitutional
constrained
construct
constructed
construction
constructive
constructor
consult
consultation
consultations
consumer
contact
contactlinks
contain
contained
container
containing
contains
contemporary
content
contentform
contentious
contentmodel
contents
contest
context
contextual
continent
continental
continue
continued
continues
contracted
contradictory
contrary
contrast
contrib
contriblink
contribs
contribute
contributing
contribution
contributions
contributor
contributors
control
controlled
controller
controllers
controlling
controls
controversial
controversy
convenience
convenient
convention
conventional
conventions
conversation
conversations
conversion
conversions
convert
converted
converting
converts
convey
conveyor
cook
cookie
cooperation
coor
coord
coordinate
coordinates
coordinator
copie
copied
copies
copy
copying
copypaste
copyright
copyrighted
copyrighticon
copyrights
copyvio
core
cornell
corner
coronavirus
corporate
corporation
correct
corrected
correction
corrections
correctly
correspond
corresponding
corresponds
cost
cotton
cou
could
couldn
council
count
counted
counter
countess
counties
counting
countries
country
counts
county
couple
course
court
courtesy
cover
coverage
covered
covering
covers
covid
cp
cr
crane
craton
cratons
cre
create
createaddbutton
createchecklistmenu
created
createelement
createevent
createexpiry
createform
creategroup
createlevel
createnewicon
createnewtext
createoption
creates
createtextnode
creating
creation
creative
creator
credit
credited
credits
crested
crew
cricket
cricketarchive
criminal
criteria
criterion
critical
croatia
cropped
cross
crystal
cs
csd
csinha
csrftoken
css
csspage
ctrl
ctx
ctype
cu
cubic
cucumber
cultural
culture
cup
cupe
cur
curation
curly
curpref
currencies
currency
current
currentblockinfo
currently
currentparams
currentprotectionlevels
currentrationale
currents
currentvalue
currentvaluelength
cursor
curtimestamp
custom
customary
customize
customized
customlist
customlistlabeltitle
customlistvaluetitle
customoptionarray
custompageli
customresultinput
cut
cwa
cy
cycling
cyprus
cyrillic
czech
d
da
dab
daily
dal
dam
damage
dance
dang
dans
dark
darkgreen
dash
dashed
dashes
data
database
databases
dataset
datasets
datatype
date
dated
dateformat
datein
dateparam
dateprocessing
dates
datestr
david
dawn
day
daylight
days
db
dc
dd
ddd
dddd
ddddff
de
dead
deadline
deadurl
deal
dealing
dealt
dear
death
deaths
debate
debates
debian
debug
debugcontent
debugmoveanchor
debugul
debut
dec
decade
decades
deccan
deceased
december
decide
decided
deciding
decimal
decimals
decision
declaration
declared
declined
decodeuricomponent
decommissioned
decoration
decorations
decorative
decrease
dedicated
deep
def
defamatory
default
defaultconfig
defaultgroup
defaults
defaultsort
defaultstate
defaultvalue
defeating
deferred
define
defined
defineproperties
defineproperty
defines
defining
definition
definitions
defunct
deg
degree
degrees
deities
del
delay
delegates
delete
deletebutton
deleted
deletedcontrib
deletedcontriblink
deletedcontributions
deletelink
deletepage
deletepages
deleteredirects
deletetalk
deletethisparam
deleting
deletion
deletions
deletionsummaryad
delhi
deliberate
delimited
delimiters
delisted
delisting
delivered
deliveries
delivery
delta
demand
demande
demo
democratic
demographics
demolished
demonstrate
demonstrated
demonstrating
demonstration
demonym
demospace
den
denmark
denomination
denominations
denominator
denote
density
deny
department
dependencies
dependency
dependent
depending
depends
deployment
deprecated
deprod
depth
deputy
deputyminister
der
derivative
derived
des
desc
descinput
desclabel
desclog
describe
described
describes
describing
description
descriptions
descriptive
descriptor
descriptors
desctags
desert
design
designated
designates
designation
designations
designed
designer
designs
desirable
desired
desk
desktop
despite
destination
destroyed
destructive
detail
detailed
detaillinkspan
details
detect
detected
detection
detects
determination
determine
determined
determines
determining
deutschland
dev
devanagari
develop
developed
developer
developers
developing
development
device
devices
devvalidatedversion
df
di
dia
diacritics
diagram
diagrams
dialect
dialects
dialog
dialogs
dialogue
diameter
diamond
dictionaries
dictionary
did
didn
die
died
diego
diff
diffbutton
differ
difference
differences
different
differentiate
differently
differs
difficult
diffs
digit
digital
digitized
digits
dimensional
dimensions
din
diplomatic
dir
direct
directed
direction
directional
directions
directives
directly
director
directory
disability
disable
disabled
disabledmodules
disableonmousemoveonselects
disables
disabletalk
disabling
disagree
disallow
disambig
disambiguate
disambiguation
disambiguator
disappeared
disaster
disbanded
discharge
discipline
disclosure
discontinued
discouraged
discovered
discovery
discuss
discussed
discussing
discussion
discussionnodes
discussions
discussiontext
discussionview
disease
disp
dispatchevent
display
displayed
displaying
displays
displaytitle
dispute
disputed
disputes
disruption
disruptive
dissemination
dissolution
dissolved
distance
distinct
distinction
distinguish
distinguished
distribute
distribution
distributor
district
districts
div
divbox
divdebug
diverse
diversity
divgoogle
divgooglecontent
divided
dividing
divine
divisio
division
divisions
divlivepreview
divname
divtchat
divtimer
diwali
dl
dlgtbody
dlp
dm
dmoz
dms
dmy
dna
do
doc
docategorycheckboxes
docket
doctoral
doctrine
document
documentation
documented
documentelement
documenting
documents
docustomexpiry
doe
does
doesn
doextras
dog
doi
doing
dollar
dolor
dom
domain
domains
dome
domestic
don
donald
donation
done
dorlands
dormant
dot
dotask
dots
dotted
double
doubles
doubt
doubtful
down
download
downloaded
downloader
dr
draft
drafting
drafts
draggablemixin
drake
draw
drawing
drawn
drbuttonsa
dre
dreze
drinking
drive
driven
droite
droits
drop
dropdown
dropped
drug
drugbank
drugs
dry
ds
dst
dt
du
dual
duck
ducks
due
duke
dummy
dunam
dunams
duplicate
duplicated
duplicates
duration
durationinput
during
dutch
dvd
dxv
dyk
dynamic
dynasty
e
ea
each
earl
earlier
earliest
early
earth
ease
easier
easiest
easily
east
eastern
easting
easy
echo
ecology
economic
economics
economy
ecoregions
ed
edge
edinburgh
edit
editable
editbutton
editcount
edited
editexpiry
editform
editing
editintro
edition
editions
editlevel
editlink
editmode
editmodify
editnotice
editnotices
editor
editorlink
editorlinks
editors
editpage
editparam
editparamparam
editprot
edits
editsa
editsection
editsummary
edittoken
edittools
eds
edu
education
educational
edward
eee
eeee
effect
effective
effectively
effects
effort
efforts
eg
eggs
egypt
egyptian
ei
eight
eighth
einstein
either
el
elclass
elected
election
elections
electorate
electric
electrical
electronic
elem
element
elementary
elements
elevation
eleventh
eligible
eliminated
elitre
elizabeth
elold
els
else
elsewhere
elsi
em
ema
email
embed
embedded
embedding
emblem
emerge
emergency
emirates
emit
emperor
emphasis
emphasized
empire
employed
employees
employment
empty
emptyfunction
en
enable
enabled
enables
enabling
enclose
enclosed
encode
encoded
encodeforurl
encodeuricomponent
encoding
encounter
encountered
encourage
encouraged
encyclo
encyclopaedia
encyclopedia
encyclopedic
encyclopædia
end
ended
endfile
ending
endnote
ends
energy
enforced
enforcement
engage
engaged
engagement
engine
engineering
engines
england
english
engvar
enhanced
enough
ensign
ensigns
ensure
ensures
enter
entered
entering
enters
entire
entirely
entities
entity
entries
entry
enum
enumerable
enumerableonly
enumvalues
environment
environmental
enwiki
eo
eoc
epa
episode
episodes
epoch
eq
equal
equals
equator
equatorial
equipment
equity
equivalent
era
erg
erm
err
error
errorcheck
errors
errorsinput
errortype
es
escape
escaped
escaperegexp
escstr
escuser
esmodule
espaces
espan
especially
esperanto
essay
essays
essential
essentially
est
establish
established
establishment
estimate
estimated
estonia
et
etc
ethnic
ethnologue
ethos
etymology
eu
eurasian
euro
europe
european
ev
evad
eval
evaluate
evaluated
evaluates
evaluation
even
evenstyle
event
events
eventually
ever
every
everyone
everything
everywhere
evidence
evidently
evolution
evt
ew
ex
exact
exactly
examination
example
examples
exceed
exceeded
except
exception
exceptional
exceptions
excerpt
excessive
excessively
exchange
exclamation
exclude
excluded
excludemi
excludes
excluding
exclusive
exclusively
excuse
exec
execute
executed
executive
exhaustive
exist
existed
existence
existent
existimgnode
existing
existingli
existinglibis
existinputnode
exists
expand
expanded
expanding
expands
expandtemplates
expansion
expect
expected
expensive
experience
experienced
experiences
experiment
experimental
expert
expire
expired
expires
expiry
explain
explained
explaining
explains
explanation
explanations
explanatory
explicit
explicitly
explorer
explosive
export
exports
expr
express
expressed
expression
expressions
ext
extdesc
extend
extended
extendedconfirmed
extends
extension
extensionarray
extensionlistarray
extensionname
extensions
extensionvalues
extensive
extent
external
externally
extinct
extinction
extra
extract
extrajs
extraneous
extremely
exttohide
eye
f
fa
face
facebook
faced
facilitate
facilities
facility
fact
factbook
factor
factors
factory
facts
factsheet
factual
fail
failed
failing
fails
failure
fair
fairly
fairytale
faith
fake
fakespan
falco
fall
fallback
falls
false
familiar
families
family
famous
fancy
faq
far
fashion
fast
faster
fat
fate
father
faut
favicon
favor
fb
fc
fda
fdc
fe
feature
featured
features
featuring
feb
february
fed
federal
federation
fedora
feed
feedback
feedbackid
feedbackpagelink
feedbackpagelinktitle
feedbackslink
feel
feet
fellow
female
feminism
fene
fermeture
ferns
festival
festivals
few
fewer
ff
ffd
fff
ffffff
fi
fiction
fictional
field
fieldlayout
fieldobj
fields
fieldset
fieldsetlayout
fieldsetname
fieldsets
fifa
fifteen
fifth
fight
figure
figures
fiji
file
filename
files
fill
filled
filling
film
films
filter
filterid
filterlink
filterrevid
filters
filtersform
final
finally
finals
finance
financial
find
finding
finds
findsources
fine
finish
finished
finland
finnish
fips
fire
firearms
firefox
first
firstchar
firstchild
firstname
fish
fit
fits
five
fivefor
fix
fixed
fixedbottompanel
fixedtitlepanel
fixedtoppanel
fixes
fixing
fixme
flag
flagged
flaggedrevs
flagicon
flags
flash
flat
flexibility
flexible
flight
flip
float
floated
floating
flood
floor
flora
florida
flow
flower
flowering
flowing
flown
flows
fluff
flying
fn
fnautosave
fncanusemwusertoken
fnloadsuccess
fnneedtokeninfoquery
fnsavesuccess
fo
focus
focused
foehn
folk
folklore
follow
followanchor
followbuttons
followcontent
followcrossnsredirect
followed
following
followlist
followredirect
follows
followsublist
followsublisttogglelink
followsublisttoggletitle
followtable
fonctions
font
fonts
fontsize
fontweight
foo
food
foot
football
footer
footera
footerbox
footerspan
footnote
footnotes
for
foranononly
force
forced
forceprocess
forces
foreach
foreign
forest
forests
forget
form
formal
formally
format
formation
formations
formats
formatted
formatting
formdiv
formed
former
formerly
formevents
formpref
forms
formula
formulae
formulas
forregisteredonly
fort
forth
forum
forward
fossil
found
foundation
founded
founder
founders
founding
four
fourth
fpn
fr
fra
frac
fraction
fractions
fragment
frame
framed
frameless
framework
franc
france
francis
francisco
fre
free
freedom
freeform
freely
french
frequency
frequent
frequently
fresh
freshwater
friday
friendlies
friendly
friendlywelcome
friends
from
front
fs
ft
fuel
full
fully
fullyprotected
func
function
functional
functionality
functions
functionstorun
fund
fundamental
funding
funds
funtiontoeval
further
furthermore
future
fy
g
ga
gadget
gadgets
galleries
gallery
game
games
gan
gandhi
ganga
ganges
gangetic
gap
gaps
garden
garrison
gas
gauche
gauge
gauges
gaza
gazette
gb
gdp
ge
gender
gene
genera
general
generally
generate
generated
generatenewid
generates
generating
generation
generator
generic
genre
genres
genus
geo
geobox
geodata
geographic
geographical
geography
geogroup
geohack
geojson
geological
george
georgia
gerd
german
germany
gestion
get
getactionprocess
getactivetags
getattribute
getbodyheight
getcallbackparameters
getchangetag
getchecked
getcreator
getdata
getdate
getelementbyid
getelements
getelementsbytagname
getelementwithid
getformfromthisinput
getformparams
getfriendlypref
getfullyear
gethist
getinputdata
getliveaverto
getlivethank
getmonth
getmsg
getnamespaceid
getnamespaceinfofrompage
getoldcss
getownpropertydescriptor
getownpropertysymbols
getpagecontent
getpageinfos
getpagename
getpagetext
getparamvalue
getpref
getprefixedtext
getprototypeof
getreadyprocess
getredirectsfor
getrelevantresults
getrequirewildcardcache
getresponse
getrevision
getrevisiondelete
gets
getsetupprocess
getstatuselement
gettalkpage
getteardownprocess
getter
gettime
gettimetag
getting
geturl
getutcfullyear
getutcmonth
getvalueof
gfdl
ghats
ghi
gi
gif
gini
github
give
given
gives
giving
gje
gkd
gl
glacier
glaciers
glad
glance
glasgow
global
globalfill
globalindex
globally
globals
globe
glossaries
glossary
gm
gnd
gnis
gnome
gnu
go
goa
goal
goals
god
godavari
goes
going
gold
golden
good
goodid
google
googlediv
gories
got
gotpref
gov
governance
governing
government
governmental
governor
gpcm
gps
grabbing
grade
gradient
grammar
grand
grant
granted
grants
graph
graphic
graphical
graphics
gravitational
gravity
gray
great
greater
greatest
greatly
grebe
greece
greek
green
greenland
greetings
gregorian
gregory
grep
grey
grid
grin
gross
ground
grounds
groundwater
group
grouped
groupes
grouping
grouplist
groupn
groupname
groups
groupstyle
growth
grus
gt
gu
guarantee
guest
guidance
guide
guideline
guidelines
guides
guinea
gujarat
gujarati
gulf
gupta
gurmukhi
guru
gutenberg
h
ha
habitat
hack
had
half
hall
hamburgefonts
han
hand
handbook
handle
handled
handler
handles
handling
hanging
hangul
hanja
happen
happened
happening
happens
happy
harassment
hard
hardness
harmful
harv
harvard
haryana
has
hasclass
hash
hasinput
hasn
hasownproperty
haspage
hasprotectlog
hastemplate
hathitrust
hatnote
hatnotes
hauteur
have
having
hcalendar
hcard
hdi
hdl
hdlinks
he
head
header
headers
headerstyle
heading
headings
headline
headquarters
health
hear
heart
heat
heavy
hebrew
hectares
height
heinze
heir
held
helicopter
helipad
hello
help
helped
helper
helpful
helphref
helping
helplink
helps
helptip
helptitle
hemisphere
hence
henry
her
here
hereafter
heritage
heron
herzegovina
hex
hg
hh
hi
hidden
hiddeniwlist
hiddenlinks
hiddenlistul
hiddenname
hiddenuser
hide
hidebutton
hidelinelink
hidelink
hidelinks
hidelinktext
hideownsubpage
hidepage
hides
hidetag
hideuser
hidewhenmultiple
hiding
hierarchical
hierarchy
high
higher
highest
highlands
highlight
highlighted
highlighting
highlights
highly
highway
hill
hills
him
himachal
himalaya
himalayan
himalayas
hindi
hindu
hinduism
hint
his
hist
histbutton
histlink
historian
historic
historical
histories
historique
history
historyarray
historypanel
historyparams
hit
hl
hlist
hms
hn
ho
hoax
hockey
hold
holder
holders
holding
holdingcell
holds
hole
holiday
holy
home
homepage
homo
honey
hong
honorific
honours
hook
hooks
hope
horizontal
horse
hospital
hospitals
host
hosted
hosting
hostname
hostserverpath
hot
hotcat
hou
hour
hours
house
houses
hover
hovering
hovers
how
however
howmany
hq
hqt
hr
href
hsb
htm
html
htmlelement
htmlize
htmlnode
http
https
hu
hubble
human
humanities
humid
humor
hundred
hungarian
hurricane
hut
hybrid
hyderabad
hydrornis
hyperlink
hyphen
hyphens
i
ia
iata
ib
icao
icc
ice
iceland
ico
icon
iconfieldset
iconic
iconli
iconname
icono
icons
icontypeoptions
ictv
id
idea
ideally
ideas
identical
identification
identified
identifier
identifiers
identifies
identify
identifying
identities
identity
idinput
idlabel
idnumber
ids
idt
idx
ie
if
iframe
ig
igloo
ignore
ignorecase
ignored
ii
iii
il
illegal
illustrate
illustrated
illustration
illustrator
ilo
im
image
imageinfos
imageleft
imagepage
imageright
images
imagesize
imagespan
imagestyle
imageusage
imbox
imdb
ime
img
immediate
immediately
impact
impaired
imperial
implement
implementation
implementations
implemented
implementing
implied
imply
import
importance
important
imported
impossible
impression
improper
improperly
improve
improved
improvement
improvements
improving
in
inactive
inappropriate
inarray
inc
incategory
inch
inches
include
included
includes
including
inclusion
inclusive
income
incomplete
inconsistent
incorporate
incorporated
incorporating
incorrect
incorrectly
incr
increase
increased
increases
increment
incumbent
indeed
indef
indefinite
indefinitely
indent
indentation
indented
indents
independence
independent
independently
index
indexed
indexes
indexing
indexof
india
indian
indiatimes
indic
indicate
indicated
indicates
indicating
indication
indications
indicator
indigenous
individual
individually
individuals
indo
indonesia
indonesian
indus
industrial
industry
infantry
inferred
infinite
infinity
inflation
influence
influenced
influences
info
infobox
infoboxes
inform
informal
information
informative
informed
infos
infrastructure
infringement
infringing
ing
inherit
inheritclass
inherited
inherits
init
initevent
initial
initialcontrib
initialisation
initialize
initially
initials
initiative
inittableheight
inline
inn
inner
innerhtml
inprop
input
inputadd
inputname
inputnode
inputok
inputs
inputsa
inputstotransform
inputting
inputvalue
inscript
insee
insensitive
insert
insertafter
insertbefore
inserted
inserting
insertion
inserts
inset
inside
insignia
insource
insta
install
installation
installationpage
installed
installing
instance
instanceof
instances
instead
institute
institution
institutions
instruction
instructions
instrument
instruments
insufficient
int
integer
integrated
integrity
intended
intention
intentionally
inter
interact
interaction
interactive
interest
interested
interesting
interests
interface
interior
interlanguage
intermediate
internal
internally
internals
international
internet
interoprequiredefault
interpret
interpretation
interpreted
intervention
interview
interwiki
interwikilist
interwikitext
intitle
into
intro
introduce
introduced
introducing
introduction
invalid
inventor
inverse
invertupdate
investigations
invisible
invitation
invite
invited
invocation
invoke
invoked
involved
involves
involving
io
ion
ionization
ip
ipa
ipac
ips
ipsum
iptv
ipv
ir
iranian
irc
ireland
irish
iron
irrelevant
irrigation
is
isarray
isbn
isipaddress
islam
islamic
island
islands
isle
isn
isnan
iso
isold
isotopes
ispageredirect
israel
isrange
isrunning
isselected
issn
issue
issued
issues
issuing
ist
isvalid
it
italian
italic
italicization
italicize
italicized
italics
italy
item
itemkey
items
iter
iterable
iteration
iterator
its
itself
iu
iucn
iupac
iv
iwlength
j
ja
james
jammu
jan
janata
jane
january
japan
japanese
jargon
jassa
java
javascript
javier
jean
jersey
jerusalem
jet
jeux
jfm
jharkhand
ji
jimbo
jmol
job
joe
john
johnson
join
joined
joining
joint
jones
jordan
jose
jour
journal
journals
jp
jpeg
jpg
jquery
jr
js
jshint
json
jstor
judgements
julian
july
jump
junction
junctions
june
junior
juniperus
jupiter
jurisdiction
just
justice
justified
justify
k
ka
kannada
kapurthala
karakoram
karnataka
kartusche
kashmir
kasra
kathmandu
kazakhstan
kb
kcvelaga
kde
kdmconfig
ke
keep
keeping
keeps
kegg
kelvins
kenya
kept
kerala
kev
kew
key
keyboard
keyboards
keycode
keydocument
keydown
keymanweb
keys
keyword
keywords
kg
khan
khmer
ki
kidambi
killed
kilometers
kilometres
kind
kindly
kinds
king
kingdom
kingdoms
kitchensink
kj
kk
km
kml
kn
know
knowledge
known
ko
kolkata
konark
kong
korea
korean
kosovo
krishna
kro
ksh
kumar
kutch
l
la
label
labeled
labelelement
labelled
labels
lack
lacking
lacks
ladakh
lady
lahore
laid
lake
lakes
lakshadweep
lalit
lancement
land
landmark
landmarks
landscape
lang
langlinks
language
languages
langues
lanka
large
largely
larger
largest
last
lastalerts
lastedittime
lastindex
lastindexof
lastlastindex
lastrc
lastrevision
lastt
lat
latd
late
later
latest
latin
latitude
latm
latn
latns
lats
latter
launch
launched
launchingbar
launchingbarbar
launchingbarcounter
launchprocess
launchprocessforce
launchprocessnextstep
law
lawrence
laws
lay
layer
layout
layouts
laysummary
lb
lc
lccn
le
lead
leader
leaders
leadership
leading
leads
league
leap
learn
learning
least
leave
leaves
leaving
lecontinue
lectures
led
lee
left
legacy
legal
legend
legends
legislation
legislative
legislature
legitimate
legobot
legs
len
length
lengthy
leni
lenj
leo
lermontov
les
less
lesser
let
lets
letter
letterhead
letters
level
levels
lewis
li
liability
liberty
libraries
library
libris
licence
license
licensed
licenses
licensing
lie
lien
liens
lies
lieutenant
life
light
ligne
ligneclass
lignetype
liid
like
likely
lila
lim
limit
limitation
limitations
limite
limited
limits
limo
lincoln
line
linear
linecontent
lineless
linemore
lines
linesa
lineuid
link
linkable
linkbuilder
linked
linkedarticle
linking
linkmarkup
linknode
links
linnaeus
linux
liparamname
list
listaverto
listbando
listbandotag
listdialog
listdown
liste
listed
listes
listing
listings
listn
listname
lists
liststyle
literal
literature
little
live
liveabuselog
livearticle
liveblock
livecontact
livecontrib
lived
livedeletedcontrib
livediff
liveedit
livefeedback
livefilter
livefollow
livegooglesearch
livehidden
livehiddenpages
livehist
liveinterwiki
livelink
livenewpages
livenewusers
livepreview
livepreviewfoot
livepreviewtitle
liveprotect
liverc
liverccontainer
liverccustomparams
livercli
liverclink
livercpreviewdisplayed
liverctag
liverctchatdisplayed
liverevertmessage
liverevoc
lives
livespam
livesuivi
livetag
livewhatlinkshere
living
lk
ll
lo
load
loadapi
loaded
loader
loading
loadingtime
loadquery
loads
loadtime
loc
local
localcomments
locale
localedata
locality
locally
localname
locate
located
location
locations
locator
lock
locmapin
log
logevents
logged
logging
logic
logical
login
lognames
logo
logos
logpage
logs
lon
london
long
longd
longer
longest
longitude
longm
longs
look
looking
looks
lookup
lookupcreation
lookupmenuselectwidget
lookupmenutagmultiselectwidget
loop
lord
lords
lorem
los
loss
lost
lot
louis
louisiana
love
loves
low
lower
lowercase
lowest
lp
lrc
lrcaddclass
lrcaddcustomizableclasses
lrcaddspecialloglist
lrcaddstate
lrcaddtohistory
lrccloseall
lrccreatewatchpagelink
lrccssstyles
lrcdisplaydebug
lrcescapestr
lrcescapestrhtml
lrcextensions
lrcextensionsa
lrcgetapiurl
lrcgetargfromurl
lrcgetdifflink
lrcgetelementsbyclass
lrcgetflowstatusforaction
lrcgethistorylink
lrcgetmediawikimessage
lrcgetnamespacename
lrcgetobjectlength
lrcgetotherpagename
lrcgetpagelink
lrcgetpageurl
lrcgetprotectlink
lrcgetuglypageurl
lrcgetuserlink
lrcgooglediv
lrchasclass
lrchasstate
lrcicons
lrciconsa
lrciconsid
lrcinittableheight
lrcisextensioninstalled
lrcisflowpage
lrclogextension
lrclogname
lrclogright
lrclogtype
lrcmakeicon
lrcmakeoption
lrcmakeparam
lrcmakeparamdescription
lrcmakereportarray
lrcmaketext
lrcoptionmenuvalues
lrcpage
lrcparams
lrcpatroleditstep
lrcpatrollnk
lrcremoveclass
lrcrevertmessages
lrcsortfollow
lrcstripstring
lrcsubfollowdelete
lrcsubfollowshowhide
lrcsupprlineparams
lrctogglelogo
lrctogglewatchlink
lrctranslatedparamdesc
lrctranslatedparamdesctextid
lrctranslatedparamdesctextidlang
lrctranslatedtexts
lrctranslatedtextstextid
lrctranslatedtextstextidlang
lrcundo
lrcupdatebutton
lrcusercan
lrcuserhasright
lrcuserwarningsmessagesa
lst
lstaverto
lstbando
lstblank
lstparammenutabs
lstreport
lt
ltd
lu
lua
luminosity
lumrix
lustre
lv
lvpreviewfoot
lying
lyricist
lyrics
m
ma
mab
mac
macedonia
machine
made
madeira
madhya
magazine
magazines
magic
magnitude
mahal
mahanadi
maharashtra
mahatma
mai
mail
mailing
main
mainland
mainlink
mainly
mainspace
maint
maintain
maintained
maintaining
maintains
maintenance
mainwindow
major
majority
make
makelink
makes
making
malay
malayalam
malaysia
male
malformed
malta
man
manage
managed
manageipv
management
managepagemagicwordsfuncs
manageparams
manager
managerclubs
manageryears
managetags
managing
mandarin
mandatory
manga
mango
mangrove
manipulation
manmade
manner
manual
manually
manufactured
manufacturer
manufacturing
many
manzanar
map
mapcaption
mapframe
mapping
maps
mapsize
marathi
marble
march
marcos
margin
marginal
marginleft
marine
mark
marked
marker
markers
market
marketing
marking
markred
marks
marksize
markup
marrage
married
mars
marsh
martin
marxist
mary
mask
masquage
masque
mass
massachusetts
massmessage
master
match
matched
matcher
matches
matching
mater
material
materials
math
mathbf
mathematical
mathematics
matrice
matter
matters
max
maximum
maxnamelength
may
maybe
mayor
mb
mbox
mccune
mdy
me
mean
meaning
meaningful
meanings
means
meant
measure
measured
measurement
measurements
measures
mechanics
mechanism
medal
medals
media
mediawiki
mediawikiextensions
mediawikigeneralconfig
mediawikiinterwikimap
mediawikimagicwords
mediawikimessages
mediawikinamespaces
mediawikitags
mediawikiwikibase
medical
medicine
medieval
mediterranean
medium
medlineplus
meet
meeting
meetings
meets
melting
member
memberof
members
membership
memo
memorandum
memorial
memory
men
mention
mentioned
menu
menuanchor
menucontent
menuoptionwidget
menus
menutitle
mercury
merely
merge
merged
merger
mergers
merging
meridian
mess
message
messagebox
messageboxes
messagedata
messages
met
meta
metadata
metal
metals
metatemplate
metatemplates
meteorological
meteorology
meter
meters
method
methods
metre
metres
metric
metro
metropole
metropolitan
mexico
mf
mfd
mg
mh
mi
michael
microformat
microformats
microsoft
mid
middle
might
migration
mile
miles
military
millennium
miller
million
millions
milmos
mime
min
mind
mine
mini
minidiffpreviewextension
minimal
minimap
minimum
minister
ministerial
ministers
ministry
minlen
minor
minoredit
minority
minus
minute
minutes
mirrors
misc
miscellaneous
miscellany
mise
misleading
missile
missiles
missing
mission
misspelled
misspelling
misspellings
mistake
mistakenly
mistakes
misusing
mit
mix
mixed
mixinclass
mk
ml
mm
mmmm
mn
mobile
modal
mode
model
models
modern
modes
modi
modif
modification
modifications
modified
modifier
modify
modifying
modifyinputs
modifyreviewform
module
modulecount
modules
modulus
mohs
mol
molecular
moment
monarchs
monday
money
monitor
monitoring
mono
monobook
monospace
monospaced
monsoon
montenegro
month
monthly
monthname
months
monument
monuments
moodbar
moon
moons
moorish
more
morebits
morelink
morning
mos
moscow
mosque
most
mostly
mother
motion
motor
motto
mount
mountain
mountains
mouse
mouseover
mouth
move
movebutton
moved
moveexpiry
movelevel
movelink
movement
movemodify
movepage
moves
movie
movies
moving
moz
mozilla
mp
mpage
mr
ms
msg
msw
mt
much
mughal
muhammad
multi
multibuttonconfirm
multilingual
multimedia
multiple
mumbai
municipalities
municipality
muse
museum
music
musical
musicbrainz
musician
musicians
must
mustang
mustbeshown
mutually
mw
mwprotect
mwprotectunchained
my
myanmar
mylanguage
myna
mypage
mythology
n
na
nabokov
nadu
nagpur
name
named
namedata
namedrefs
namelength
namely
names
namespace
namespacefilter
namespacename
namespacenumber
namespaceregex
namespaces
naming
nan
narmada
narrow
narrower
nasa
nasdaq
naskh
nation
national
nationality
nations
native
nativename
nativetitle
natural
nature
nav
naval
navbar
navbox
navboxes
navchild
navframe
navigate
navigation
navigational
navpop
navpopup
navtoggle
navy
nawab
nb
nbsp
nd
nds
ndtv
ne
near
nearby
nearest
nearly
necessarily
necessary
need
needed
neededright
needing
needs
negative
neither
nepal
nepali
nes
nest
nested
nesting
net
netherlands
network
networks
neutral
neutrality
never
new
newarray
newbie
newcomers
newelementheight
newer
newfromtext
newheight
newinput
newli
newline
newlines
newly
newmarginleft
newname
newobj
newoption
newpage
newpagelist
news
newsection
newsectionlink
newsectiontext
newsectiontitle
newsletter
newspaper
newspapers
newstyles
newtag
newtarget
newtd
newtext
newtz
newvalue
newvaluetype
newvaluevalue
newwin
newwindowlink
next
nextdifflink
nextlength
nextpreviewindex
nextsibling
nexttr
nfcc
ng
nh
nhl
ni
nic
nice
nicholas
nickname
nicknames
nicobar
night
nile
nin
nine
ninth
nitesh
nl
nlist
nlm
nmem
nn
nnnnnn
no
noactions
nobel
nobots
nocat
nochange
nocreate
node
nodename
noeditsection
noflip
nogallery
noicon
noinclude
noindex
nombre
nomenclature
nominal
nominate
nominated
nominating
nomination
nominations
nominator
noms
non
none
nonewsectionlink
nonsense
nonstandard
nonsysoponly
nopopup
nor
norm
normal
normalize
normalized
normalizeds
normally
north
northeast
northern
northing
northwest
norway
norwegian
not
notability
notable
notably
notag
notation
note
noted
notename
notes
notewidget
nothing
notice
noticeboard
noticeboards
noticebox
noticed
notices
notification
notifications
notificationtimestamp
notified
notify
notifycreator
notifying
notifytext
notifyuser
notminor
notoc
noun
nov
nova
novel
november
now
nowiki
nowrap
np
npov
nps
nr
nrhp
ns
nsfilter
nsnumber
nt
nth
ntitle
nuclear
null
num
numadded
number
numbered
numbering
numberofactionsleft
numbers
numeral
numeric
numerical
numerous
numforms
numparts
numprotected
nurses
nuvola
nuxsr
nv
ny
nz
o
oauth
obe
obelisk
obj
object
objective
objects
objetxml
objisdifferent
objkey
objone
objtwo
obscure
observatory
observed
observer
obsolete
obtain
obtained
obvious
occasion
occasionally
occupation
occupations
occupied
occupy
occur
occurred
occurrence
occurrences
occurring
occurs
ocean
oceania
oceans
oclc
oct
october
odd
oddstyle
odi
odia
odisha
oed
of
off
offensive
offer
offered
offering
offers
office
officer
offices
official
officially
offline
offname
offset
offsetheight
offsets
offsettop
offsetwidth
often
ogg
ohio
oil
ok
okfunction
okinput
ol
old
older
oldest
oldfeedback
oldfield
oldformhide
oldid
oldlen
oldline
oldtags
oldtarget
oldtchat
oldtemp
oldtext
olist
olympic
olympics
olympiques
ombox
ombudsperson
omit
omits
omitted
omitting
on
oncancel
once
onclick
one
onepage
ones
onfailure
ongoing
online
onloadfailure
only
onmousemove
onmouseup
onok
onsavefailure
onsavesuccess
onselect
onsubmit
onsuccess
ontario
onto
oo
oojs
ooui
opacity
open
opened
opening
opens
openstreetmap
opera
operate
operated
operates
operating
operation
operational
operations
operator
operators
opinion
opinions
opportunity
opposed
opposite
opt
opted
optgroup
option
optional
optionally
options
optionscontent
optionspanel
optionstext
optl
optout
optzero
or
orange
orbit
orbital
orcid
order
ordered
ordering
orders
ordinary
ordinates
ordo
oregon
org
organic
organisation
organisations
organised
organism
organisms
organization
organizational
organizations
organize
organized
organizing
oriental
orientation
orig
origin
original
originalairdate
originally
originates
origins
origyear
oriya
orphan
orphaned
orthodox
os
osgb
osm
osti
other
otherpage
otherpagelink
otherpagename
otherpagenamespacenumber
otherpagetext
others
othertagname
otherwise
otrs
ou
ought
our
out
outcome
outdated
outer
outernav
outernavclass
outflow
outils
outline
output
outputs
outreach
outside
over
overall
overflow
overlap
overlay
overlays
overly
overridden
override
overrides
overriding
overseas
oversight
overview
overwritten
owl
own
owned
owner
owners
ownership
ownkeys
owns
oxford
oxygen
oz
p
pa
pacific
pack
package
pad
padded
padding
paddingright
padleft
padlock
pag
page
pagedeleter
pagefeedbackslink
pageid
pageloaded
pagename
pagenamenorm
pagenameregex
pagenamespacenumber
pagensnumber
pageobj
pageparam
pageresult
pages
pagesection
pagetext
pagetitle
pagetoedit
pagetriage
pageundeleter
pageurl
pagine
paid
painting
pair
paired
pakistan
palace
pale
palestine
pan
panama
pane
panel
panellayout
pango
paper
papers
par
para
paragraph
paragraphe
paragraphs
parakeet
parallel
param
parame
parameter
parameters
parammenu
parammenuanchor
parammenuform
parammenuli
parammenupart
parammenurunning
paramoldid
paramorder
parampage
params
paramsinurl
paramsp
paramsparam
paramtab
paramuser
paraphrasing
parent
parentheses
parenthesis
parenthetical
parentli
parentnode
parents
paris
park
parking
parks
parliament
parsable
parse
parsed
parsedcomment
parseint
parser
parserfunctions
parses
parsing
part
partial
partialbox
partially
participants
participate
participated
participating
participation
particular
particularly
parties
partner
partners
partnership
partnerships
partof
parts
party
pas
pass
passage
passed
passenger
passengers
passes
passing
password
past
paste
pasted
pasting
patch
patent
path
paths
patkai
patna
patrol
patrolled
patrolleddiff
patrollink
patron
pattern
patterns
paul
pbuttons
pc
pcategories
pclevel
pd
pdf
pe
peace
peak
peaks
peer
peerages
peers
pencil
pending
penguin
peninsula
pennsylvania
people
pepper
per
percent
percentage
percentages
peregrinus
perfectly
perform
performance
performed
performer
performing
perhaps
period
periodic
periodical
periodically
periods
permalink
permanent
permanently
permet
permission
permissions
permit
permitted
perseus
persian
persistent
person
personal
persons
perspective
perspectives
peru
peter
petscan
pfo
pg
ph
phab
phabricator
phase
philippines
philosophy
phone
phonetic
phonology
photo
photograph
photographs
photography
photos
php
phrase
phrases
phylum
physical
physics
pi
pick
picture
pictures
piece
pieces
pied
pink
pinpoint
pinyin
pipe
piped
pipes
pitta
pixel
pixels
pk
pl
place
placed
placeholder
placement
placeofburial
places
placing
plagiarism
plain
plainlinks
plainlist
plains
plan
plane
planet
planetary
planets
planned
planning
plans
plant
plantilla
plants
plate
plateau
platform
platforms
play
played
player
players
playing
playlist
plays
please
plot
plr
plural
plus
plusieurs
pm
pmc
pmid
pneumonoultramicroscopicsilicovolcanoconioses
png
podcast
podiceps
poem
poems
poet
poetry
pog
point
pointer
pointers
pointing
points
poland
polar
pole
police
policies
policy
polish
political
politician
politics
polls
pollution
poly
pond
poor
poorly
pop
pope
popular
populate
populated
populates
population
populations
popup
popuppreview
popups
popupstring
popuptitle
popuptoplinks
port
portal
portals
portfolio
portion
portlet
portletarea
portleti
portletid
portletname
portletnext
portlets
portlettype
portrait
portugal
portuguese
position
positional
positioned
positioning
positions
positive
positives
possess
possibilities
possibility
possible
possibly
post
postal
postarti
postdata
postdifflink
posted
posteditoricons
poster
posters
posting
postponed
posts
postscript
potential
potentially
pounds
pour
pov
power
pp
ppm
ppp
pr
practical
practice
practices
pradesh
prasad
prc
pre
precede
preceded
precedence
precedes
preceding
precipitation
precise
precisely
precision
predecessor
predecessors
predefined
predefinic
predicted
predloga
preeditor
preeditoricons
pref
prefecture
prefer
preferable
preferably
preference
preferences
preferred
prefix
prefixed
prefixes
prefixindex
prefixing
prefs
prefspanel
prefswindow
preg
pregnancy
preload
preloadreq
premier
prepare
prepend
prependtext
pres
presence
present
presentation
presented
presenting
presently
presents
preserve
preserved
preserving
preset
president
presidential
presidents
press
pressure
pretenders
pretty
prev
prevent
preventdefault
prevents
preview
previewbarargs
previewbartd
previewbox
previewdialog
previewdiv
previewer
previewindex
previewing
previewlink
previewmaker
previews
previewwindow
previous
previousdifflink
previously
price
primarily
primary
prime
prince
princeton
principal
principle
principles
print
printed
printer
printing
printworthiness
printworthy
prior
priority
privacy
private
prix
prize
prizes
probably
problem
problematic
problems
procedural
procedure
proceed
proceedings
process
processed
processes
processing
prod
prodtype
produce
produced
producer
producers
produces
producing
product
production
products
profession
professional
profile
profit
program
programme
programmes
programming
programs
progress
progressive
project
projection
projects
proleptic
prominence
prominent
promo
promote
promotion
promotional
prompt
pronounce
pronounced
pronunciation
pronunciations
proofread
proofreadthon
prop
proper
properly
properties
property
proportional
proposal
proposals
propose
proposed
proposing
proprietary
props
prose
protect
protectbutton
protected
protecteditselect
protectedpage
protection
protectionnode
protectlink
protectmoveselect
protectunchainedinput
proto
protocol
protoprops
prototype
proveit
provide
provided
providerid
provides
providing
province
provinces
provincial
provision
provost
proxy
ps
pseudo
psuggest
pt
ptext
pubchem
public
publication
publications
publicly
publish
published
publisher
publishers
publishes
publishing
pubmed
pull
pump
punctuation
pune
punjab
punjabi
puppet
puppetry
puppy
pure
purely
purge
purple
purpose
purposes
push
pushkin
pushpin
put
puts
putting
px
python
pywikibot
pywikipedia
q
qid
qualifier
qualify
qualitative
quality
quantities
quantity
queen
quelligne
queries
query
querylimit
querystring
question
questionable
questions
qui
quick
quickfilter
quickform
quickly
quite
quotation
quotations
quote
quoted
quotes
quoting
r
ra
radio
radius
rail
railway
rain
rainfall
rains
raise
raised
raising
rajasthan
ralttitle
random
range
rangeblock
ranges
rank
ranked
ranking
ranks
rapid
rapidly
rare
rarely
rate
rather
rating
ratio
ration
rationale
rationales
raw
rawls
rc
rcat
rcats
rccopyright
rcevents
rcid
rcli
rclimit
rcline
rclist
rcpaused
rcrequest
rcs
rctype
rd
re
reach
reached
read
readability
readable
reader
readers
readership
readily
reading
reads
ready
real
reallink
really
realms
realtypeof
reason
reasonable
reasonably
reasonparam
reasons
reasonsdropdownname
rebecca
rebuilt
recall
receive
received
recent
recentchanges
recently
recherche
recognised
recognition
recognize
recognized
recommend
recommendation
recommendations
recommended
record
recorded
recording
recordings
records
recreate
recreated
recreation
rect
rectangle
rector
recursive
red
redefine
redir
redirect
redirectandupdate
redirectdeleter
redirected
redirectfilter
redirecting
redirection
redirections
redirects
redirmatch
redlink
reduce
reduced
reduces
redundancy
redundant
ref
refactoring
refer
reference
referenced
references
referencing
referendum
referred
referring
refers
refimprove
reflect
reflist
reflisti
refname
refnum
refobj
refresh
refs
reftagurl
reftoolbar
reftoolformarea
reg
regard
regarded
regarding
regardless
regards
regent
regents
regex
regexp
regexpexec
region
regional
regions
register
registered
registers
registration
registry
regnal
regnum
regular
regularly
reign
reischauer
rejected
rejection
rel
relate
related
relating
relation
relations
relationship
relative
relatively
relatives
relativetimes
release
released
releases
relecture
relevance
relevant
relevantusername
reliability
reliable
reliably
relief
relies
religion
religions
religious
relist
relisted
reload
rely
remain
remainder
remaining
remaininginputs
remains
remarks
remember
remerciement
reminder
removal
remove
removeattr
removechild
removeclass
removed
removenomtemplates
removepagefromsuivi
removes
removing
rename
renamed
renameuser
renaming
render
rendered
rendering
renders
renewal
repeat
repeated
repeatedly
repeating
replace
replaceability
replaceable
replacechild
replaced
replacement
replaces
replacevalue
replacing
replies
reply
replying
report
reportarray
reported
reporter
reporting
reports
repository
represent
representation
representative
representatives
represented
representing
represents
reprint
reprinted
republic
republics
req
reque
request
requested
requesterror
requesting
requests
requeteoldid
require
required
requirement
requirements
requireobjectcoercible
requires
requiretarget
requiring
res
research
reserve
reserved
reserves
reservoir
reset
resetlink
residence
resident
resize
resizezone
resolution
resolve
resolved
resolvedname
resolves
resolving
resource
resources
respect
respective
respectively
respelling
respond
responding
response
responses
responsetext
responsexml
responsible
rest
resting
restoration
restore
restored
restricted
restriction
restrictions
result
resulted
resulting
resultitemwidget
resultpanel
results
resume
resumefield
resumeid
resumestart
ret
retain
retained
retarget
retired
retrait
retrieve
retrieved
retrieving
return
returned
returning
returns
reuse
reused
rev
revdel
reveal
revenue
revermessages
reverse
revert
revertcurid
reverted
reverticon
reverticonrazlink
reverticonsup
reverting
revertoldid
reverts
reverttorevisionnode
revertuser
revid
review
reviewed
reviewing
reviews
revised
revision
revisiondelete
revisiondeletelinks
revisiondeletelog
revisiondeleteok
revisionref
revisions
revnode
revolution
revs
rewrite
rfc
rfd
rgb
rice
rich
richard
ride
rifier
rift
right
rights
rio
rise
rising
risk
river
rivers
rm
rn
ro
roa
road
roads
robert
robot
robots
roc
rock
role
roles
rollback
rollbackbutton
rollbackinplace
roman
romanization
romanized
rome
root
rose
rosids
rotation
rotten
rough
roughly
round
rounded
rounding
rounds
route
routes
routledge
row
rows
royal
rpp
rpppage
rr
rs
rss
rt
rtitle
rtl
rtm
ru
ruby
rugby
rule
rules
run
runhooks
running
runs
runway
runways
rural
russia
russian
rvlimit
rvprop
rx
s
sa
sable
safari
safe
safely
safest
safesubst
safety
said
sainik
saint
salt
salvador
same
samecontent
sample
samples
samuel
san
sanctuary
sandbox
sanitizeipv
sanitychecks
sans
sanskrit
sapiens
sarti
sat
satellite
satellites
satisfies
satisfy
satpura
saturn
sauvegarde
save
saveapi
saved
saves
saving
say
saying
says
sc
scale
scaled
scales
scaling
scanned
scene
schedule
scheduled
scheme
schemes
scholar
scholars
scholarship
scholarships
school
schools
science
sciences
scientific
scientist
scientists
scim
scope
score
scotland
scots
scott
scottish
screen
screens
screenshot
screenshots
scribunto
script
scripts
scroll
scrollamount
scrollbox
scrolldown
scrolling
scrolltop
sd
se
sea
seal
search
searchable
searched
searches
searchform
searchhtml
searching
searchlink
searchstring
searchurl
season
seasonal
seasons
seat
seats
sec
second
secondary
seconds
secretary
section
sections
sectiontitle
security
see
seealsos
seed
seeing
seek
seeking
seem
seems
seen
sees
segment
segments
sel
selbb
select
selected
selecting
selection
selectnode
selector
self
selfref
semantic
semantically
semi
semicolon
semicolons
sen
senate
send
sending
senior
sense
sensitive
sent
sentence
sentences
sep
separate
separated
separately
separates
separating
separator
separators
sepdiff
sepfive
sepfour
sepnode
sepone
september
septhree
septwo
sequence
sequences
sequential
serbia
serekh
serial
series
serif
serious
serv
serve
served
server
servers
serves
service
services
serving
session
sessions
set
setappendtext
setattribute
setbuttonsenabled
setcallbackparameters
setchangetags
setcontent
setcreateoption
setdisplayorder
seteditsummary
setelementlabel
setelementtooltipvisibility
setfollowredirect
setopacity
setoption
setpagelist
setpagetext
setparent
setpopuphtml
setprototypeof
sets
setscriptname
setter
settimeout
setting
settings
settitle
settlement
setup
setvalues
setvar
setverticalresizezone
setwatchlist
setwatchlistfrompreferences
seven
seventh
several
sexing
sfn
sh
shadda
shadow
shah
shall
sham
shan
shape
shapes
share
sharealike
shared
shares
sharing
sharma
she
sheet
sheets
shell
sher
shield
shift
ship
ships
shist
shiva
shore
short
shortcut
shortcuts
shortened
shorter
shortform
shorthand
shortlink
should
shouldn
show
showallblanking
showallcontact
showallerrorsbutton
showallreplaced
showallrevert
showallself
showallwarningsbutton
showallwatchlist
showcount
showdata
showflag
showhide
showing
showlog
shown
showpreviewontop
showrc
showrollbacklinks
shows
showtags
showuser
showwl
si
siberian
side
sidebar
sides
sierra
sig
sigfig
sign
signature
signed
significance
significant
significantly
signing
signs
signups
sikkim
sil
silver
similar
similarly
simple
simpleprintf
simpler
simplest
simplewindow
simplified
simplify
simply
sin
since
singapore
singh
single
singlenotice
singles
singlewarn
singular
siprop
sir
sister
sit
site
sites
sitewide
situated
situation
situations
six
sixth
size
sized
sizediff
sizes
sizing
sk
skeleton
skills
skin
skins
skip
skipped
skipping
sky
sl
slacko
slackware
slash
slashes
slavic
slice
slightly
slogan
slow
slower
sm
small
smaller
smallimage
smallimageright
smalltext
smiles
smith
snapshot
snippet
snow
so
soccer
social
socialist
society
sock
sockpuppet
sockpuppetry
soft
software
soil
soils
solar
sole
solid
solo
solubility
solution
solve
some
someone
something
sometimes
somewhat
somewhere
son
song
songs
sons
soon
sorry
sort
sortable
sorted
sorting
sortkey
sortorder
sorts
sothername
sotherns
sothernsnumber
sotherpn
sothertext
sound
sounds
source
sourced
sourceforge
sourcer
sources
sourcing
sous
south
southeast
southern
southwest
sovereign
sovereignty
soviet
sp
space
spaced
spaces
spacing
spain
spam
spamming
span
spanish
spans
spantag
sparingly
spe
speak
speaker
speakers
speaking
special
specialchars
specialist
speciality
specialized
speciallink
specialloglist
specialloglistconfig
specialnotice
specialpage
specialtabs
specialty
species
specific
specifically
specification
specifications
specifics
specified
specifies
specify
specifying
speech
speed
speedily
speedy
spell
spelled
spelling
spellings
spencer
spi
splice
split
spoken
sport
sports
sportsperson
spot
spouse
spread
spring
sprotect
spur
spy
sq
sqft
sqmi
sqrt
square
sr
src
sri
ss
ssrn
st
stabilisation
stabilization
stabilize
stable
stablebutton
stablelink
stack
stacked
stacklayout
staff
stage
stale
stalk
stamp
stand
standalone
standard
standarddesc
standardization
standardized
standards
standing
stands
star
start
started
startfile
starting
starts
stat
state
stated
statehood
statelem
statement
statements
states
static
staticprops
station
stations
statistical
statistics
stats
statue
status
statusdiv
statuselement
statusindicator
statusnode
stay
stdinchi
stem
step
stephen
steps
stewards
sticky
still
stock
stockholm
stone
stones
stop
stoplive
stops
storage
store
stored
stores
stories
storm
storms
story
str
straight
strain
strait
strategic
strategy
stream
streams
street
strength
stress
stressed
strict
strictly
string
strings
strip
striping
stripns
stripped
strloc
stroke
strong
strongly
struct
structural
structure
structured
structures
stub
stubs
stubtag
stubtags
student
students
studies
studio
study
stuff
stumpings
stupa
style
styled
styleinput
stylemenu
styles
stylesul
styling
stylistic
su
sub
subcategories
subcategory
subclass
subdiv
subdivision
subdivisions
subfamily
subgroup
subgroups
subject
subjective
subjectlink
subjects
sublist
sublistname
sublistspan
submission
submissions
submit
submitted
submitting
subpage
subpagedeleter
subpagelister
subpageof
subpages
subscribe
subscript
subscription
subsection
subsections
subsequent
subsequently
subset
subsidiary
subspecies
subst
substance
substances
substantial
substantially
substitute
substituted
substitutes
substituting
substitution
substitutions
substr
substring
subtemplate
subtemplates
subtitle
subtle
subtopic
subtropical
subunit
subvalue
succeeded
success
successful
successfully
succession
successive
successor
successors
such
sudo
sufficient
sufficiently
suffix
suffixed
sugar
sugarcane
suggest
suggested
suggestinput
suggestion
suggestions
suggestlimit
suggestparams
suggests
suggestselectlimit
suicide
suit
suitable
suite
suivi
sulawesi
sume
summaries
summarize
summary
summaryad
summarybuttons
summarytext
summer
summit
sun
sunda
sundarbans
sunday
sup
super
supercalifragilisticexpialidocious
superclass
supercluster
superimposed
superscript
supersede
superseding
superunit
supp
supplement
supplemental
supplied
supplies
supply
supplying
support
supported
supporting
supports
supposed
suppress
suppressarticleinsummary
suppressed
suppresses
suppressing
suppression
suppressprotectwarning
supprligne
supprligneform
supprlineparams
supreme
sur
sure
surface
suri
surname
surrounded
surrounding
survey
suspected
suspended
suspension
sv
svg
swap
sweden
swedish
sweeper
swimming
swiss
switch
switched
switches
switching
switzerland
syllable
syllables
sym
symbol
symbols
sync
synonym
synonyms
syntax
syntheses
syria
sysop
sysoponly
sysops
system
systems
t
ta
tab
tabcontainer
tabdiv
tabindex
table
tables
tablescroll
tablines
tabrc
tabs
tabscroll
tabshautdroite
tabshautgauche
tactical
tag
tagbar
tagdesc
tagged
tagging
tagindex
taginput
taglist
tagname
tags
tagselect
tagstoremove
tagtemplate
tagtext
tailleliste
taiwan
take
taken
takes
taking
talk
talkback
talking
talklink
talkpage
talkpagelink
talkpagename
talkpageobj
talks
tall
tamil
tanganyika
tank
tanzania
tapti
target
targetdiv
targetinput
targets
targettalk
task
taskitemcontroller
taskitemwidget
tasklistpanel
tasks
tat
taxa
taxobox
taxoboxes
taxon
taxonomic
taxonomy
taylor
tb
tbody
tbtarget
tc
tchat
tchatmoveanchor
tchatresizeanchor
td
te
teaching
team
teams
tech
technical
technically
technique
techniques
technology
tekija
telescope
television
tell
tells
telugu
temp
tempar
temparn
tempdiv
temperate
temperature
temperatures
templat
template
templatedata
templateeditor
templatename
templates
templatestests
templatestyles
templatetext
temple
temporarily
temporary
temps
ten
tend
tendentious
tenfor
tennis
tense
tenth
term
termend
terminal
terminating
terminology
terminus
terms
termstart
ternata
terr
terrain
terrestrial
territories
territory
tertiary
test
testactions
testcases
tested
testedversion
testedversioncontainer
testing
tests
teux
texas
text
textalign
textarea
textbd
textbg
textbglinks
textcode
textcolor
textcontent
texte
textes
texthd
texthg
textid
textinput
textinputwidget
textlabel
texts
textselection
textstyle
textual
tfd
tfdtarget
tg
th
thai
thailand
than
thank
thankbar
thankbutton
thanks
thar
that
the
thearray
thearraytitle
theatre
their
theli
them
theme
themes
themselves
then
thenamespace
thenode
theories
theory
thepagelink
theplantlist
there
therefore
thereof
thermal
these
thesis
they
thin
thing
things
thingwithparameters
think
thinking
third
this
thisarray
thisask
thiscomment
thiscommentatorlinks
thisdate
thisedit
thisfunction
thisline
thislinevalues
thismatch
thisnamespacename
thisnode
thispage
thisprocess
thistag
thisuser
thisvariable
thisvariabletext
thisvariablevalues
thomas
thon
thorough
those
thou
though
thought
thoughts
thousand
thousands
thread
threatened
threats
three
through
throughout
throw
thu
thumb
thumbnail
thursday
thus
thy
ti
tibet
tibetan
tick
ticker
ticket
tidy
tied
tiger
tilde
tildes
till
time
timeless
timeline
timeout
timer
times
timesofindia
timestamp
timezone
timor
tiny
tip
tips
tissues
title
titlebar
titleclass
titled
titles
titlestyle
titular
tl
tld
tm
tmbox
to
toarray
toc
toch
tocharian
toconsumablearray
toctable
toctitle
toctoggle
toctogglelink
tocul
today
todo
together
toggle
togglelink
toindexedobject
toisostring
token
tokens
tokyo
tolowercase
tomatoes
tomb
tomorrow
tone
too
took
tool
toolbar
toolbox
toolkits
tools
tooltip
tooltipnode
tooltips
top
topic
topical
topicdiv
topics
topnotes
topographic
toreturn
toronto
tostring
total
totalresize
totext
toujours
touppercase
touppercasefirstchar
tourism
tourist
tournament
toward
towards
tower
town
tprintf
tr
track
tracked
tracking
trackingcategories
trackingcategory
tracks
trackstep
trade
traded
tradition
traditional
traditions
traffic
trailing
train
trainer
training
trans
transclude
transcluded
transcludes
transcluding
transclusion
transclusions
transcribed
transcript
transcription
transcriptions
transfer
transform
transit
transition
translate
translated
translatewiki
translating
translation
translations
translator
translators
translit
transliterated
transliteration
translittitle
transmission
transparent
transport
transportation
transwiki
travel
tre
treat
treated
treatment
treaty
tree
trees
tres
triage
trick
trid
tried
trigger
triggering
trillion
trim
trimmed
trinomial
triple
trivia
trivial
trmore
tropic
tropical
trouble
true
truncated
trust
trusted
trustees
truth
try
trying
ts
tt
ttf
ttl
ttt
tu
tudor
tuesday
tul
tunnel
turkey
turkish
turn
turned
turning
turnout
turns
turtle
tutorial
tv
tw
tweak
twelve
twenty
twice
twinkle
twinkleconfig
twinklefluff
twinkleoptions
twinklewarn
twitter
twl
two
txt
txtdiff
type
typed
typeerror
typeof
typeone
types
typical
typically
typing
typo
typographic
typos
tz
u
uaa
uadmin
ublock
ubuntu
uc
ucategories
ucfirst
ucoc
ucontrib
udate
udiscut
ueditor
uf
ug
ui
uid
uk
ukraine
ukrainian
ul
ulan
ultimate
umpired
un
unable
unacceptable
unambiguous
unambiguously
uname
unavailable
unbalanced
unbinder
unblock
unbulleted
uncategorized
uncertain
uncertainty
unchainedinput
unchainedlabel
unchainedtd
unchanged
unclear
unclosed
unconstructive
uncontroversial
und
undef
undefined
undel
undelete
under
undergoing
underground
underline
underlying
underneath
underscore
underscores
understand
understanding
understands
underwater
undesirable
undo
undobar
undobutton
undue
une
unencyclopedic
unescape
unesco
unexpected
unformatted
unfortunately
unhide
unhidelink
unhidelinktext
unicode
uniform
unii
union
unique
uniquely
unit
united
unitnorm
units
universal
universe
universities
university
unknown
unless
unlike
unlikely
unlimited
unlink
unlinkbacklinks
unlinked
unlinker
unlinking
unlinknamespaces
unlinksummarypanel
unlinktaskpanel
unlinkwindow
unmsm
unnamed
unnecessarily
unnecessary
unneeded
unnumbered
unofficial
unordered
unprintworthy
unprotect
unpublished
unranked
unreferenced
unrelated
unreliable
unresolved
unset
unsourced
unspecified
unsubscribe
unsupported
unsure
until
untranslatedtexts
unused
unusual
unwatch
unwatched
unwatchlink
unwatchlinktext
up
upcoming
update
updated
updatediscussion
updatefrommodel
updatelaunchingbar
updatenewlogpage
updatenomtemplates
updateoldlogpage
updatepages
updatepreviewwindowattributes
updates
updating
upgrading
upload
uploaded
uploader
uploading
upon
upper
upright
ur
urban
uremove
uri
url
urlencode
urlencoded
urlparams
urls
us
usa
usability
usable
usage
usages
usd
use
used
useful
user
userbox
userboxes
usercustompage
usergrouplist
userhidden
userinfo
userinfos
userisingroup
userisip
userissysop
userlink
userlinks
usermsg
username
usernames
usernorm
userpage
userpagelink
userpagename
userparampage
userright
userrights
users
userspace
usertalk
usertalkpage
userthank
uservalue
uservalues
uses
usgs
using
ussr
usual
usually
ut
utah
utc
util
utilisateur
utilisateurs
utilities
utility
utils
utm
utparams
uttar
uttarakhand
uw
v
va
vac
vacancy
vacant
vaccine
vague
val
valid
validate
validatedversion
validation
validity
valign
valley
valuable
value
values
valuesline
valuespan
valuetype
van
vanarticle
vancouver
vand
vandal
vandalism
vandalisme
vandaltalklink
vantimestamp
vapor
var
varanasi
variable
variablefieldset
variables
variabletype
variableul
variant
variants
variation
variations
varies
varieties
variety
varindex
various
vary
varying
vatican
vb
ve
vector
vegetation
vehicle
vehicles
velocity
venerated
ventimiglia
venue
venues
venuetype
ver
verbatim
verifiability
verifiable
verification
verified
verify
vers
versa
version
versions
versus
vertical
very
vi
via
viaf
vice
victoria
victory
video
videos
vietnamese
view
viewed
viewers
viewing
viewpoints
views
vii
village
villages
vincent
vindhya
violate
violates
violating
violation
violations
virgil
virginia
virtual
virus
viruses
visibility
visible
visit
visitation
visited
visiting
visitors
vista
visual
visualeditor
visualisation
visually
vital
vo
vocation
voice
void
vol
volcanic
volcano
volga
volume
volumes
volunteer
volunteers
von
vote
voted
voter
voters
votes
voting
vowel
vowels
vs
w
wa
wait
wales
want
wanted
wants
war
warm
warn
warning
warnings
warningstring
warrant
warring
wars
warsaw
was
washington
wasn
waste
watch
watchapicall
watchbutton
watchcategories
watchcategoriesloaded
watched
watchedlink
watchers
watchersbutton
watchlink
watchlinks
watchlinktext
watchlist
watchlistenums
watchlistexpiry
watchlistoption
watchlists
watchorexpiry
watchpref
watchuser
water
waterfall
waters
waterways
wave
way
wayback
ways
wbr
wcomment
wd
we
weak
weapon
weapons
weasel
weather
web
webcite
webkit
webroot
website
websites
webster
wednesday
week
weekly
weeks
weight
weights
welcome
welcomeen
welcomes
welcoming
well
welsh
went
were
west
western
westminster
wet
wetlands
wgaction
wgarticleid
wgcanonicalspecialpagename
wgcurrevisionid
wgformattednamespaces
wglangprefs
wgnamespaceids
wgnamespacenumber
wgpagename
wgrelevantusername
wgs
wgserver
wgtitle
wgusergroups
wgusername
what
whatamidoing
whatever
whatlinkshere
whatlinksherelink
when
whenever
where
whereas
wherever
whether
which
whichever
while
white
whitespace
who
whois
whole
whom
whose
why
wickets
wide
widely
wider
widget
width
widths
wiked
wiki
wikia
wikibase
wikibooks
wikicamp
wikicode
wikiconference
wikidata
wikidataitem
wikieditor
wikificatortool
wikify
wikilink
wikilinked
wikilinking
wikilinks
wikimania
wikimarkup
wikimedia
wikimedian
wikimedians
wikimeet
wikiminiatlas
wikinews
wikipage
wikipe
wikipedia
wikipedian
wikipedians
wikipedias
wikiproject
wikiprojects
wikiquote
wikis
wikisource
wikitable
wikitables
wikitext
wikitexti
wikiversity
wikivoyage
wikt
wiktionary
wild
wildcard
wildlife
wiley
will
william
williams
willing
wilson
win
wind
window
windowmanager
windows
windowsetmanager
windowwidth
winds
wine
wing
winner
winter
wip
wisconsin
wise
wish
wishes
wishlist
with
withdate
withdraw
withecho
withfilters
within
without
wizard
wl
wlitem
wm
wmde
wmf
wmflabs
wocka
women
won
word
worded
wording
words
work
workarea
workaround
worked
worker
workerfailure
workersuccess
workflow
working
works
workshop
workshops
world
worldcat
worldwide
worry
worth
would
wouldn
wounded
wp
wpajax
wpbannermeta
wpcleaner
wpsearchfilter
wpsubmit
wpsummary
wptextbox
wrap
wrapinoptgroup
wrapped
wrapper
wrapping
wraps
writable
write
writer
writers
writes
writing
written
wrong
wrote
wstitle
wt
wu
www
x
xfd
xfdc
xfdcat
xfdcloser
xfdwatchdiscussion
xhtml
xi
xls
xml
xmldoc
xmlhttp
xmlreq
xp
xpd
xx
xxx
xxxx
xyz
y
ya
yahoo
yamuna
ye
year
years
yellow
yem
yemen
yerevan
yes
yesterday
yet
yield
yields
york
yorker
yosemite
you
young
your
yourself
youth
youtube
yuan
yue
yugoslavia
yy
yyyy
z
za
zbl
ze
zealand
zero
zeros
zh
zindex
zone
zones
zoo
zoology
zoom
zu
zumeta
{
|
}
~
¡
¢
£
§
©
«
¬
­
°
±
²
³
µ
·
º
»
¼
½
×
ß
æ
ð
÷
ø
þ
ħ
ł
ŋ
œ
ɑ
ɔ
ɖ
ə
ɚ
ɛ
ɡ
ɣ
ɤ
ɨ
ɪ
ɽ
ʃ
ʈ
ʊ
ʒ
ʔ
ʰ
ʲ
ʷ
ʹ
ʻ
ʿ
ˈ
ˌ
ː
˞
ˤ
̀
́
̂
̃
̄
̅
̆
̇
̈
̉
̊
̋
̌
̓
̔
̛
̣
̤
̦
̧
̨
̩
̪
̮
̯
̱
̲
̸
͂
ͅ
͡
α
β
δ
ε
η
θ
ι
λ
μ
ν
ξ
ο
π
ρ
ς
σ
τ
υ
φ
χ
ψ
ω
а
в
е
ж
и
к
м
н
о
с
скии
у
шаблон
яе
ִ
ء
ا
الگو
ب
ت
ث
ج
ح
خ
د
ذ
ر
ز
س
ش
ص
ض
ط
ظ
ع
غ
ف
ق
قالب
ل
م
ن
ه
و
ى
ي
َ
ُ
ِ
ٓ
ٔ
ٕ
پ
چ
ژ
گ
ی
ے
ހ
ވ
ދ
ަ
ި
ެ
ް
ँ
ं
ः
अ
अइल
अइस
अइसन
अइसह
अईल
अईसन
अउर
अऊर
अक
अकबर
अकसर
अख
अखब
अग
अगर
अगल
अगस
अच
अछ
अज
अजम
अजय
अट
अटल
अठ
अड
अण
अत
अतन
अतव
अथ
अथर
अथव
अद
अदम
अध
अन
अनच
अनज
अनन
अनस
अप
अपड
अपन
अपनह
अपभ
अपम
अपर
अपरदन
अपल
अपव
अफ
अफग
अफसर
अब
अबतक
अबल
अबस
अबह
अभ
अभय
अम
अमर
अय
अर
अरघ
अरथ
अरब
अरल
अरव
अल
अलक
अलकन
अलग
अव
अवकलन
अवत
अवतरण
अवध
अवर
अवल
अवश
अवस
अवसर
अश
अष
अस
असम
असर
असल
असहमत
अह
अहमद
आ
आइ
आइएस
आइएसओ
आइकन
आइटम
आइड
आइप
आइब
आइल
आइस
आइसल
आई
आईप
आईफ
आईस
आउट
आउटप
आउर
आऊर
आक
आकर
आख
आग
आगम
आगमन
आगर
आच
आचरण
आज
आजक
आजमगढ
आट
आठ
आठव
आड
आत
आद
आदत
आदम
आदर
आध
आन
आनन
आप
आपक
आपत
आपन
आपर
आपस
आपसद
आफ
आफत
आब
आभ
आम
आमत
आय
आयतन
आयन
आयर
आयरल
आर
आरएल
आरक
आरम
आरस
आल
आलम
आव
आवत
आवल
आवश
आश
आस
आसन
आसप
आसम
आह
इ
इऑक
इक
इकट
इकल
इग
इगर
इच
इज
इजर
इट
इटर
इटल
इड
इडब
इडर
इण
इत
इतन
इथ
इथन
इद
इन
इनक
इनकर
इनप
इनफ
इनर
इनल
इनस
इनह
इनहन
इप
इपर
इपरल
इफ
इब
इबर
इम
इमर
इमरज
इमल
इय
इयर
इर
इरफ
इरस
इल
इव
इश
इस
इसक
इसम
इसर
इसल
इसस
इह
इहव
इऽ
ई
ईअड
ईओ
ईक
ईग
ईज
ईट
ईद
ईन
ईप
ईम
ईय
ईर
ईल
ईव
ईश
ईस
ईसव
ईह
उ
उक
उग
उच
उज
उजर
उट
उठ
उठल
उड
उत
उतपत
उतर
उतरत
उतरल
उथ
उद
उदगम
उदय
उदयप
उध
उन
उनक
उनकर
उनल
उनह
उनहन
उप
उपक
उपकरण
उपग
उपच
उपज
उपजल
उपत
उपद
उपध
उपन
उपनगर
उपप
उपपन
उपब
उपभ
उपम
उपमह
उपय
उपर
उपलक
उपलब
उपव
उपश
उपशहर
उपस
उपह
उब
उभ
उम
उमर
उर
उल
उलट
उष
उस
उसक
उसम
उह
उहव
ऊ
ऊख
ऊट
ऊन
ऊपर
ऊर
ऋ
ऋग
ऋच
ऋत
ऋष
ऌ
ऍक
ऍफ
ऍम
ऍस
ऎ
ए
एइज
एइसन
एईज
एक
एकट
एकड
एकत
एकद
एकदम
एकम
एकमत
एकर
एकल
एकसम
एकह
एग
एच
एचट
एचड
एचय
एज
एट
एटर
एटलस
एड
एडम
एडव
एडवर
एत
एतन
एतर
एथ
एथन
एन
एनआईट
एनए
एनक
एनज
एनड
एनर
एनस
एप
एफ
एब
एम
एमएल
एयर
एयरप
एयरबस
एयरल
एयरव
एर
एल
एलन
एलबम
एव
एवर
एश
एशन
एस
एसएलव
एह
एहम
एहस
ऐ
ऐक
ऐकर
ऐत
ऐतर
ऐल
ऐस
ऐसन
ऑ
ऑक
ऑकल
ऑट
ऑड
ऑन
ऑनल
ऑप
ऑपर
ऑफ
ऑब
ऑर
ऑस
ओ
ओइज
ओइसन
ओक
ओकर
ओखर
ओखलढ
ओज
ओट
ओठ
ओड
ओतन
ओन
ओप
ओपन
ओब
ओभर
ओम
ओर
ओल
ओव
ओवर
ओवरस
ओश
ओस
ओह
औ
औच
औज
औद
औपच
और
औरत
औरतन
औसत
औसतन
क
कअप
कइ
कइन
कइयन
कइल
कइलन
कइलस
कइस
कइसन
कई
कईग
कईन
कईयन
कईल
कईलस
कउन
कए
कक
कखग
कग
कगण
कच
कचड
कचर
कछ
कज
कजर
कट
कटक
कटन
कटर
कटल
कठ
कठप
कड
कढ
कण
कत
कतम
कतर
कतरन
कतवर
कथ
कथन
कद
कदम
कन
कप
कपड
कफ
कब
कभ
कभर
कम
कमज
कमर
कमल
कय
कयल
कर
करक
करण
करत
करद
करन
करब
करम
करल
करव
करवल
करववल
करस
कल
कलकत
कलत
कलन
कलम
कलर
कलल
कव
कवन
कवर
कश
कष
कस
कसब
कसभ
कसरत
कसल
कह
कहत
कहन
कहल
कहलन
कहलस
कऽ
ख
खक
खकर
खग
खज
खट
खड
खण
खत
खतम
खतर
खतरन
खद
खन
खनन
खप
खबर
खभ
खम
खर
खरच
खरब
खल
खलन
खव
खवन
खवल
खस
खसकत
ग
गइल
गइलन
गई
गईल
गए
गक
गकर
गज
गझ
गट
गटन
गठ
गठन
गठब
गड
गडम
गढ
गण
गणत
गणन
गणर
गत
गद
गदर
गन
गप
गपत
गब
गभद
गम
गमत
गमन
गमरमर
गय
गयल
गर
गरक
गरण
गरभ
गरम
गरहन
गल
गलक
गलत
गलप
गलय
गव
गवत
गवर
गवल
गश
गस
गह
गहन
गहर
घ
घट
घटक
घटत
घटन
घटनक
घड
घन
घनत
घम
घर
घव
घसक
ङ
च
चइत
चउथ
चउब
चक
चट
चटक
चटन
चटर
चड
चढ
चत
चतर
चथर
चन
चनज
चनरगरहन
चनरम
चप
चब
चम
चमक
चमकद
चमड
चय
चर
चरक
चरण
चरन
चरम
चल
चलच
चलत
चलन
चलनस
चलल
चव
चश
चस
चह
छ
छक
छखपड
छठ
छठई
छठव
छड
छत
छन
छप
छपर
छपल
छमत
छर
छल
छलक
छव
छह
ज
जइस
जइसन
जइह
जईस
जईसन
जक
जग
जगज
जगण
जगत
जगद
जगन
जगह
जगहन
जघर
जचग
जज
जञन
जट
जड
जत
जतन
जतर
जद
जदय
जध
जन
जनक
जनकप
जनगणन
जनज
जनत
जनन
जनपद
जनम
जनमल
जनरल
जनल
जनवर
जनस
जप
जफ
जब
जबक
जबतक
जबर
जबरदस
जबल
जबलप
जभ
जम
जमल
जमश
जमहल
जय
जयनगर
जयप
जयव
जर
जरक
जरत
जरल
जरव
जल
जलज
जलध
जलप
जलब
जलबह
जलभ
जलम
जलव
जलस
जव
जवन
जश
जस
जह
जहर
जहव
झ
झटक
झन
झर
झरन
झल
झलक
ञ
ट
टक
टकक
टकट
टकर
टग
टच
टज
टत
टन
टनगर
टनम
टनर
टप
टफ
टब
टम
टर
टरट
टरन
टरनर
टरनल
टरप
टरफ
टरम
टरल
टरव
टरस
टल
टलग
टव
टवर
टस
टहन
टहर
ठ
ठक
ठन
ठप
ठभ
ठम
ठल
ठहर
ड
डक
डकर
डग
डच
डट
डन
डप
डब
डबल
डम
डर
डरग
डरल
डल
डव
डश
डस
डहर
ढ
ढक
ढल
ण
णक
णकट
णन
णप
णभट
णम
णय
णव
णवत
णस
णह
त
तइय
तई
तक
तकन
तकर
तकल
तख
तग
तच
तज
तट
तटस
तड
तत
तथ
तन
तनत
तनध
तनह
तप
तपस
तब
तबतक
तबल
तबस
तभ
तम
तय
तर
तरक
तरण
तरन
तरप
तरफ
तरर
तरल
तरह
तल
तलव
तव
तवन
तश
तशत
तस
तसर
तह
तहत
तहस
तऽ
थ
थक
थड
थत
थन
थप
थब
थम
थर
थल
थलभ
थलम
थलर
थव
थश
थस
थह
द
दक
दख
दग
दज
दण
दत
दन
दनश
दप
दफ
दब
दभ
दम
दमन
दय
दर
दरग
दरत
दरद
दरप
दरब
दरबन
दरभ
दरल
दरव
दल
दलदल
दव
दश
दशक
दशहर
दस
दसक
दसखत
दसल
दसव
दसहर
दह
दहन
ध
धइल
धक
धड
धत
धन
धनक
धनब
धप
धम
धमक
धर
धरण
धरत
धरन
धरम
धल
धव
धवन
धश
धस
न
नइख
नई
नईख
नउव
नए
नक
नकद
नकर
नकल
नख
नग
नगर
नगरप
नच
नज
नजद
नजर
नट
नड
नत
नतम
नद
नन
ननगर
नप
नफ
नब
नबर
नभ
नभद
नम
नमक
नमन
नमभ
नमर
नमस
नय
नयक
नर
नरकट
नरम
नरल
नरस
नल
नलग
नव
नवक
नवत
नवन
नवम
नवर
नवरन
नवल
नश
नष
नस
नसन
नसभ
नसमव
नसर
नह
नहन
नहर
प
पइस
पक
पकड
पकव
पख
पगढ
पघ
पच
पछ
पज
पञ
पट
पटकथ
पटन
पटर
पटल
पठ
पड
पडर
पडल
पढ
पण
पत
पतई
पतझड
पतन
पतर
पतल
पथ
पथर
पद
पदक
पदम
पन
पनड
पनब
पप
पब
पबज
पम
पय
पर
परक
परगन
परच
परज
परत
परतद
परद
परध
परन
परफ
परब
परबत
परभ
परम
परमह
परय
परल
परव
परश
परस
परह
पल
पव
पवन
पवल
पवलस
पश
पष
पस
पसन
पसम
पह
पहच
पहर
पहल
पहलव
पऽ
फ
फइल
फइलल
फग
फड
फत
फन
फर
फरक
फरप
फरवर
फल
फलन
फसल
ब
बइठ
बइठल
बइस
बई
बक
बकत
बकर
बकल
बख
बखर
बग
बगइच
बगल
बगसर
बघ
बच
बचन
बचपन
बचल
बज
बजट
बट
बटन
बड
बढ
बत
बतवल
बद
बदर
बदल
बदलत
बदलन
बदलल
बध
बन
बनज
बनट
बनड
बनत
बनर
बनल
बनलन
बनव
बनवल
बनवलस
बनववल
बनस
बफ
बब
बम
बय
बर
बरक
बरकर
बरख
बरण
बरत
बरतन
बरद
बरन
बरनन
बरफ
बरब
बरम
बरव
बरस
बल
बलम
बलर
बव
बस
बसन
बसल
बह
बहत
बहर
बहल
बहस
भ
भइय
भइल
भईल
भउर
भक
भग
भगत
भगव
भजन
भट
भण
भत
भद
भन
भब
भय
भयल
भर
भरत
भरतप
भरप
भरम
भरल
भरलस
भरव
भल
भव
भवत
भवन
भवल
भषवन
म
मइय
मई
मउअत
मऊ
मक
मकथ
मकबर
मकर
मकरण
मकसद
मख
मग
मगढ
मगध
मगर
मगरमच
मगह
मच
मचक
मचर
मछ
मछर
मछल
मज
मजद
मजब
मझ
मट
मठ
मड
मढ
मण
मत
मतद
मतभ
मतलब
मथ
मद
मदद
मददग
मदन
मदर
मदरस
मध
मन
मनई
मनउम
मनगर
मनद
मनम
मनल
मनव
मनह
मप
मफ
मब
मभ
मम
ममत
मय
मर
मरण
मरद
मरन
मरम
मरल
मल
मलय
मव
मवर
मश
मशह
मस
मसर
मह
महक
महज
महत
महब
महम
महर
महल
महस
य
यक
यकत
यकर
यकश
यग
यच
यज
यट
यटक
यटन
यड
यण
यत
यतन
यथ
यद
यन
यनश
यप
यब
यबर
यभ
यभट
यम
यमन
यय
ययन
यर
यरम
यरस
यल
यलर
यव
यवन
यवर
यवस
यवह
यश
यस
यसभ
यह
र
रआन
रइन
रइय
रई
रउआ
रउव
रक
रकट
रकब
रकम
रकल
रख
रखण
रखत
रखन
रखप
रखरख
रखल
रखलस
रग
रगट
रगढ
रगत
रघ
रच
रचन
रचय
रचल
रचलन
रछ
रज
रजन
रजनन
रठ
रड
रण
रणन
रत
रतट
रतन
रतल
रथ
रथम
रद
रदर
रध
रन
रनक
रनगर
रनप
रप
रपट
रपत
रफ
रफल
रब
रबड
रबत
रबन
रबर
रबल
रभ
रम
रमण
रमणक
रमन
रमश
रय
रर
ररचन
रल
रव
रवन
रवर
रश
रशस
रष
रस
रसग
रसड
रसमल
रसर
रह
रहण
रहत
रहन
रहब
रहम
रहर
रहल
रहलन
रहव
रहस
रहऽसन
ल
लइक
लइकन
लईक
लईकन
लउक
लउकत
लउकल
लउर
लक
लकड
लकन
लकर
लख
लखण
लखनऊ
लग
लगत
लगन
लगभग
लगल
लगलन
लगव
लगवल
लगह
लघ
लघर
लच
लज
लझ
लट
लटक
लटकल
लड
लत
लद
लन
लप
लपट
लपत
लपम
लफ
लब
लबज
लबर
लभ
लम
लमड
लमसम
लमहर
लय
लयन
लर
लल
लव
लवट
लवल
लवस
लश
लस
लह
लहज
लहर
लहरद
लहव
लऽ
लऽसन
ळ
व
वई
वक
वकर
वग
वच
वचन
वज
वजन
वजह
वट
वड
वडर
वण
वत
वतन
वद
वध
वन
वनस
वप
वब
वभ
वम
वय
वयस
वर
वरण
वरणव
वरन
वरप
वरम
वरस
वल
वलप
वलपम
वव
वश
वस
वसन
वह
वहन
श
शक
शकर
शग
शज
शत
शतर
शद
शन
शनर
शनल
शनश
शप
शपथ
शब
शबर
शम
शय
शर
शरण
शरद
शल
शलत
शव
शवन
शश
शस
शह
शहर
शहरन
ष
षक
षण
षत
षद
षन
षप
षम
षमत
षय
षर
षरत
षवर
षश
षस
स
सई
सउद
सऊद
सएप
सक
सकत
सकर
सकल
सख
सग
सगढ
सगर
सगरम
सङ
सच
सज
सझ
सञ
सट
सटल
सड
सडक
सत
सतलज
सतह
सद
सदन
सदर
सदस
सन
सनक
सनर
सनल
सप
सपन
सपर
सफ
सफर
सफल
सफलत
सब
सबक
सबद
सबर
सबल
सबस
सभ
सभक
सभन
सभस
सम
समक
समकक
समग
समझ
समझल
समत
समतल
समन
समब
समय
समर
समश
समस
सय
सयस
सर
सरक
सरग
सरज
सरण
सरद
सरन
सरय
सरल
सरस
सरह
सल
सलम
सलर
सव
सवन
सवर
सस
सह
सहक
सहज
सहन
सहभ
सहमत
सहय
सहर
सहस
सऽ
ह
हई
हउए
हउव
हक
हगढ
हचर
हज
हजह
हट
हटवल
हड
हडसन
हण
हत
हतर
हथ
हद
हन
हनत
हनद
हप
हफ
हब
हबर
हभ
हम
हमक
हमन
हमर
हमल
हय
हर
हरग
हरण
हरद
हरन
हरम
हरल
हल
हलक
हलचल
हलन
हलस
हव
हवन
हस
हसन
हह
हऽ
़
ऽ
ऽल
ऽसन
ा
ि
ी
ु
ू
ृ
ॅ
ॆ
े
ै
ॉ
ॊ
ो
ौ
्
ॐ
॑
॒
ॠ
।
॥
०
०१
०३
०४
०५
०६
०७
०८
०९
१
१०
११
१२
१३
१४
१५
१६
१७
१८
१९
२
२०
२००७
२०११
२०१४
२०१५
२०१६
२१
२२
२३
२४
२५
२६
२७
२८
२९
३
३०
३१
३३
३४
३५
३७
४
४५
४७
५
६
७
८
९
॰
ং
জ
ট
ঠ
ণ
ত
দ
ন
প
ব
মপ
য
র
ল
ষ
স
়
া
ি
ী
ু
ে
্
ਗ
ਜ
ਪ
ਬ
ਾ
ੀ
ੁ
ੰ
ં
ગ
છ
ત
ન
ા
ી
ુ
ે
્
ଆ
ଚ
ଛ
ଞ
ଟ
ମ
଼
ା
ି
େ
୍
ப
ம
ய
ர
ல
ழ
வ
ா
ி
ு
ெ
்
ం
క
గ
చ
త
ద
న
ప
భ
మ
య
ర
ల
వ
స
ా
ి
ీ
ు
ూ
ృ
ె
ే
ో
్
ౖ
ತ
ಳ
ು
್
ം
ള
ാ
്
ං
ක
ල
ස
්
ැ
ි
ු
ี
ื
่
้
་
ཁ
ག
ང
ད
བ
ཡ
ི
ོ
တ
န
ဘ
မ
သ
ာ
း
်
ြ
ႂ
ႆ
᜔
ខ
ភ
ម
រ
ស
ា
ែ
្
ᨁ
ᨕ
ᨗ
ᵊ
​
‌
‍
‎
‏
‑
–
—
‘
’
“
”
„
†
‡
•
…
‰
′
″
‹
›
⁄
€
₹
№
←
↑
→
↓
↔
↷
⇒
⇔
⇨
∃
∆
∈
∑
−
√
∞
≈
≤
≥
⊂
⊃
⊆
⊇
⊕
⊗
⋅
␥
③
④
⑦
─
│
★
☆
☉
♔
♠
♦
✉
✓
✗
⟨
⟩
⟶
ⰲ
ⰽ
ⰾ
ⱀ
ⱁ
ⱄ
ⱏ
ⱐ
ⱑ
ⴰ
ⵉ
ⵎ
ⵖ
ⵜ
ⵣ
⺀
⺄
⺆
⺈
⺊
⺌
⺕
⺝
⺸
⺼
⿰
⿱
⿲
⿳
⿴
⿵
⿶
⿷
⿸
⿹
⿺
⿻
【
】
〢
い
お
か
さ
ん
゙
カ
コ
タ
ユ
ワ
ン
ー
㇁
㇂
㇄
㇇
㇈
㇉
㇓
㐁
㐄
㐅
㐌
㐫
㐬
㐭
㐮
㐱
㑒
㒵
㒸
㒼
㓁
㓞
㔾
㕛
㕣
㖾
㘝
㚅
㚇
㚔
㚘
㝉
㝡
㝴
㝵
㞋
㞢
㞷
㠩
㠭
㠯
㡀
㡭
㡿
㢲
㢴
㣇
㣺
㥯
㪅
㫄
㫐
㫒
㫺
㬅
㬎
㬥
㬰
㲋
㳄
㷠
㸒
㸚
㸦
㼌
㼲
㽞
㿟
䀠
䂞
䍃
䏍
䒑
䖍
䖒
䖝
䖵
䙴
䚻
䜌
䝿
䡛
䧹
䪞
一
丁
丂
七
丄
丅
丆
万
丈
三
上
下
丌
不
与
丏
丐
丑
专
且
丕
世
丘
丙
业
东
丞
丢
丣
两
严
並
丨
丩
个
丫
丬
中
丮
丰
丱
串
丵
丶
丷
丸
丹
为
主
丽
丿
乀
乂
乃
久
乆
乇
么
义
之
乌
乍
乎
乏
乐
乑
乔
乖
乗
乘
乙
乚
乛
乜
九
乞
也
习
乡
乳
乾
亀
亅
了
亇
予
争
事
二
亍
于
亏
亐
云
互
亓
五
井
亘
亚
亜
亞
亟
亠
亡
亢
交
亥
亦
产
亨
亩
享
京
亭
亮
亯
亰
亲
亳
亶
亷
人
亻
亼
亾
仁
今
介
仌
从
仐
仑
仒
仓
仕
他
付
仝
代
令
以
任
企
伊
伏
伐
休
会
伯
但
位
何
佘
余
作
佥
使
來
侈
侌
侖
侯
侵
便
保
俞
信
修
倉
倍
候
倠
備
僉
僕
儿
兀
允
兂
元
兄
充
兆
兇
先
光
兊
克
兌
免
兑
兒
兓
兔
党
兜
兟
入
全
兩
兪
八
公
六
兮
兰
共
关
兵
其
具
典
兹
兼
冀
冂
冃
冄
内
冈
冉
冊
冋
册
再
冎
冏
冐
冒
冓
冖
冗
冘
军
农
冝
冡
冥
冫
冬
冷
几
凡
凢
凵
凶
凷
凸
凹
出
函
凾
刀
刁
刂
刃
刄
刅
分
切
刍
刑
刕
刖
列
刘
则
初
別
利
别
到
制
刺
則
削
剌
前
剡
剽
劉
力
功
加
劦
助
劫
劳
劵
勃
勇
勉
勒
動
務
勞
勤
勹
勺
勻
勾
勿
匀
匂
包
匆
匈
匊
匋
匍
匕
化
北
匚
匝
匡
匪
匱
匸
匹
区
医
匽
匿
區
十
卂
千
卄
卅
卆
升
午
卉
半
卌
华
卑
卒
卓
单
卖
南
卜
卝
卞
占
卡
卢
卣
卤
卦
卩
卪
卬
卯
印
危
即
却
卵
卷
卸
卻
厂
厃
厄
历
厈
厉
厌
厓
厘
厚
原
厤
厥
厨
厭
厲
厶
厷
厸
去
厼
厽
叀
参
參
叅
又
叉
及
友
双
反
叐
发
叒
叔
叕
取
受
叚
叜
叟
口
古
句
另
叩
只
召
可
台
叱
史
右
叵
号
司
叹
吂
各
吅
合
吉
吊
吋
同
名
后
吏
向
吕
君
吝
吞
否
含
启
吳
吴
吹
吾
呂
呆
呈
告
员
呙
周
命
咅
和
咎
咠
咢
咨
咸
咼
哀
品
哉
員
哥
哲
唐
商
啇
問
啚
啬
啻
善
喜
喬
單
喿
嗇
噩
嚴
囊
囗
囘
囙
囚
四
回
囟
因
囧
囬
困
囱
囷
固
国
圂
圅
國
圍
圓
土
圡
圣
圥
在
圭
地
圶
场
圼
坐
坒
坚
坴
垂
垔
垚
埀
埋
埶
執
基
堂
堅
堆
堇
堯
塞
墨
壘
士
壬
壯
声
壳
壴
壹
壺
壽
夂
处
夅
夆
备
夊
夋
夌
复
夏
夒
夕
外
夗
夘
多
夜
夢
大
夨
天
太
夫
夬
夭
央
失
夲
头
夷
夸
夹
夻
夾
奂
奄
奇
奈
奉
奎
奏
奐
契
奓
奔
奚
奞
奠
奢
奥
奭
女
奴
奻
好
如
妄
妙
妟
妥
妻
妾
姑
委
姜
威
娄
婁
婴
嬰
嬴
子
孑
孔
孕
孖
字
存
孚
孛
孝
孟
季
孤
学
孫
孱
學
宀
宁
宂
它
宅
宇
守
安
宋
完
宏
宓
宗
官
定
宛
宜
宝
客
宣
室
宮
宰
害
家
容
宾
宿
寄
寅
密
富
寒
察
寧
審
寫
寬
寮
寸
对
寺
寻
寽
対
寿
封
尃
射
将
將
專
尉
尊
尋
尌
對
小
少
尒
尓
尔
尖
尗
尚
尞
尢
尣
尤
尧
尨
尭
就
尸
尹
尺
尻
尼
尽
尾
尿
局
居
屈
屋
屎
屏
屑
展
屖
屚
属
屠
屡
屬
屮
屯
屰
山
屵
屾
岁
岂
岑
岡
岩
岳
岸
峯
島
崇
崑
崔
崖
崙
崩
嵬
嶲
巂
巛
川
州
巟
巠
巢
巤
工
左
巧
巨
巩
巫
差
己
已
巳
巴
巷
巸
巽
巾
巿
帀
市
布
希
帚
帛
帝
带
師
席
帶
常
干
平
年
幵
并
幷
幸
幺
幻
幼
幽
幾
广
広
庄
床
底
店
庚
府
度
庫
庭
庶
康
庸
廉
廌
廛
廣
廩
廴
延
廷
建
廾
廿
开
弁
弃
弄
弇
弋
式
弓
弔
引
弗
弘
弜
弟
弥
弦
弱
張
強
强
彊
彌
彎
彐
彑
当
彔
录
彖
彗
彡
形
彥
彦
彧
彭
彳
役
彼
往
待
律
徒
得
徙
從
復
微
徵
心
忄
必
忌
忍
志
忝
忠
忩
快
念
忽
忿
思
怠
急
怱
恆
恒
恩
恭
息
悉
患
悤
悲
悶
惠
惡
惢
愁
愈
意
愛
感
慈
慧
慮
憂
憲
應
戀
戈
戉
戊
戋
戌
戍
戎
成
我
戒
戔
或
戚
戠
戢
截
戲
戶
户
戸
戹
戼
戾
房
所
扁
扇
手
扌
才
打
托
执
承
折
拉
拜
拿
掌
推
提
摩
支
攴
攵
收
攸
改
放
政
敄
敏
敕
敖
敗
敝
敞
敢
散
敦
敫
敬
数
敷
數
斂
文
斉
斊
斗
斤
斥
斩
斬
斯
新
方
於
施
斿
旁
旋
族
无
旡
既
旣
日
旦
旧
旨
早
旬
旱
旲
时
旾
昆
昇
昌
昍
明
昏
易
昔
昗
昜
星
春
昬
是
昱
昴
昷
時
晃
晋
晏
普
景
晶
智
暑
暴
曇
曩
曰
曲
曳
更
曷
書
曹
曼
曾
替
最
朁
會
月
有
朋
服
朔
朕
朗
望
朝
木
朩
未
末
本
札
朮
术
朱
朵
朶
机
朿
杀
杏
杜
束
条
来
東
杲
杳
松
析
林
枚
果
枝
枲
枼
某
柔
查
柬
柰
柴
栗
桀
桑
桼
梁
條
梟
梨
棘
棠
棥
森
楚
業
楽
榮
樂
樊
欠
次
欣
欮
欲
欶
欽
款
歆
歇
歛
止
正
此
步
武
歨
歪
歮
歯
歰
歲
歴
歷
歸
歹
歺
死
殳
段
殷
殸
殹
殺
殻
殿
毋
毌
母
每
毒
比
毕
毚
毛
毳
氏
氐
民
气
氣
水
氵
氶
氷
永
氺
氾
求
汝
汞
江
沃
沓
沙
沝
泉
法
波
泣
泥
泰
洛
洪
活
派
流
浦
浪
浮
淡
淮
清
渚
渠
湯
滿
漸
灣
火
灬
灭
灰
灵
灷
炅
炎
炏
炗
炙
炭
為
烈
烏
烝
焉
無
焦
焱
然
煞
熊
熏
燕
營
燮
爪
爫
爭
爯
爰
爱
爲
爵
父
爻
爽
爾
爿
片
牙
牚
牛
牜
牟
牢
牧
牪
牽
犀
犬
犭
犮
狂
狄
狊
独
狺
猋
猒
猪
献
獻
玄
率
玉
王
玟
玨
珎
班
琴
瑟
瑩
瓜
瓦
甘
甚
生
産
用
甫
甬
田
由
甲
申
电
甶
男
甸
甹
画
甾
畀
界
畏
畐
留
畜
畟
畢
畧
畨
番
畫
異
畱
當
畺
畾
疊
疋
疌
疑
疒
疾
癶
癸
癹
登
發
白
百
皀
皃
的
皆
皇
皋
皐
皕
皮
皷
皿
盃
盆
盇
盈
益
盍
盎
监
盒
盖
盛
盡
監
盤
盧
目
直
相
盾
省
眇
眉
看
眔
眞
真
眷
眼
眾
着
睘
睪
睿
瞏
瞢
瞿
矍
矛
矞
矢
矣
知
矦
短
石
破
碎
磊
磨
示
礻
礼
祟
票
祭
禀
禁
禸
禹
禺
离
禽
禾
禿
秀
秃
秉
秋
科
秝
秦
移
稟
穀
穌
穴
究
穹
空
穿
突
窄
窒
立
竒
竜
竝
竟
章
童
端
竹
笑
笠
筆
等
答
箕
算
箴
節
篤
篭
米
粉
粛
粟
粤
粦
粲
粵
糞
糸
糹
系
約
納
素
索
紫
累
細
絜
絫
絲
維
綿
縣
繁
繇
纍
纟
缶
网
罒
罔
罕
罗
罙
罡
罢
罪
署
罷
羅
羊
羌
羍
美
羔
羕
羗
羞
羡
羣
群
義
羲
羸
羽
翁
翏
習
翕
翟
翠
翼
老
耂
考
者
耆
而
耎
耑
耒
耳
耴
耶
耷
聂
聊
聖
聚
聶
聿
肀
肃
肅
肉
肖
肙
肥
肩
肯
育
肴
胃
背
胡
胥
能
脊
脩
膚
臣
臤
臧
自
臬
臭
臯
臱
至
致
臺
臼
臽
臾
臿
舀
舂
舄
與
興
舉
舌
舍
舛
舜
舞
舟
般
艮
良
色
艸
艹
艾
芒
芔
芬
芮
花
芳
芺
芻
苔
苗
苟
若
苦
英
茶
茸
荅
草
荒
荣
荼
莆
莧
莫
莽
菆
菊
菐
華
萬
落
葉
著
葛
董
葵
蒙
蒦
蒼
蓋
蓬
蓺
蔑
蔡
蕉
蕭
薄
薛
薦
薰
藍
藏
藥
蘭
虍
虎
虐
虒
虔
處
虖
虗
虘
虚
虛
虜
虞
虫
虽
蚤
蚩
蜀
蜜
蟲
蠡
血
行
衍
衛
衣
衤
表
衮
衰
袁
袞
褭
褱
襄
襾
西
覀
要
覃
見
規
覓
覧
親
覽
见
角
解
言
訁
訇
計
話
詹
語
誩
諸
讠
语
谷
豆
豈
豊
豐
豕
豖
豙
象
豦
豩
豪
豸
貇
貝
貞
貟
負
貢
貧
貪
貫
責
貳
貴
買
費
賁
資
賈
賏
賓
賔
賛
賞
賢
賣
質
賴
贊
贛
贝
贡
责
贯
贲
贵
赖
赞
赤
赦
走
越
足
路
蹇
身
躬
車
軍
軎
軟
輦
车
辛
辜
辟
辥
辰
辱
農
辵
辶
边
达
过
近
连
迷
追
退
送
逆
逐
通
速
造
逢
連
逮
進
遀
遂
過
道
達
遣
適
遷
遺
邊
邑
邕
那
邦
邪
郎
部
郭
都
鄉
酉
酋
配
酓
釆
采
里
重
野
量
金
釒
錢
钅
長
镸
长
門
閃
閉
開
閏
閑
閒
間
閔
閩
閵
閻
闌
门
间
闷
闽
阑
阜
阝
阿
际
降
陳
隆
隊
隋
隡
隨
隱
隶
隹
隺
隻
隼
隽
难
雀
雁
雅
集
雈
雋
雍
雐
雔
雙
雚
雜
雝
離
難
雨
雩
雪
雲
零
雷
需
霍
霜
霝
霞
霸
靈
靑
青
非
靡
面
靣
革
韋
韦
韭
韯
韱
音
頁
頃
項
須
頗
頡
頻
顛
页
風
风
飛
飞
食
飠
養
饣
首
香
馬
馮
駦
马
骨
高
髟
鬥
鬯
鬲
鬼
魚
魯
鮮
鱼
鲁
鳥
鳳
鸟
鹵
鹿
麃
麗
麥
麦
麻
黃
黄
黍
黎
黑
黒
黨
黹
黽
黾
鼎
鼓
鼠
鼻
齊
齋
齐
齒
齿
龍
龙
龜
龟
龠
龰
龱
龴
龵
龶
龷
龸
龹
ꆇ
ꉙ
ꭹ
ꮃ
ꮳ
ꯩ
者
艹
️
﻿
（
）
？
𐌲
𐌹
𐌺
𐌿
𐍃
𐍄
𑂀
𑂁
𑂃
𑂄
𑂅
𑂆
𑂈
𑂉
𑂋
𑂍
𑂎
𑂏
𑂒
𑂓
𑂔
𑂖
𑂗
𑂙
𑂝
𑂞
𑂟
𑂠
𑂡
𑂢
𑂣
𑂥
𑂦
𑂧
𑂨
𑂩
𑂪
𑂬
𑂭
𑂮
𑂯
𑂰
𑂱
𑂲
𑂳
𑂴
𑂵
𑂶
𑂷
𑂸
𑂹
𑂺
𑃀
𑃁
👈
👉
👤
💌
📲
🜨
𠀁
𠀃
𠀆
𠀉
𠀎
𠀐
𠁁
𠁣
𠂆
𠂇
𠂈
𠂉
𠂊
𠂋
𠂎
𠂒
𠂔
𠂛
𠂡
𠂢
𠂤
𠂬
𠂭
𠂹
𠃊
𠃋
𠃌
𠃍
𠃎
𠃑
𠃓
𠃔
𠃜
𠄌
𠄎
𠄠
𠄢
𠆢
𠆥
𠇍
𠈌
𠌵
𠓜
𠔉
𠔥
𠔼
𠔽
𠔿
𠕀
𠕁
𠕋
𠘧
𠘨
𠙻
𠙼
𠚏
𠚒
𠚤
𠚪
𠣏
𠤎
𠤕
𠥓
𠦄
𠦑
𠦝
𠧒
𠧗
𠧪
𠩺
𠪚
𠫓
𠫔
𠫤
𠬛
𠬝
𠬞
𠬢
𠬤
𠬶
𠮛
𠮦
𠮷
𠯑
𠱠
𠳮
𠷎
𡈼
𡉀
𡉵
𡌥
𡍮
𡏳
𡕒
𡕩
𡕰
𡖅
𡗗
𡗜
𡘆
𡘤
𡧱
𡨄
𡩧
𡬠
𡭽
𡰣
𡰥
𡰪
𡰯
𡰱
𡷈
𡸁
𡿨
𡿩
𡿪
𡿺
𢀖
𢀛
𢀩
𢁙
𢆉
𢆰
𢆶
𢇁
𢇇
𢉖
𢌬
𢌿
𢏚
𢑑
𢑚
𢖻
𢙣
𢛳
𢦏
𢦒
𢧵
𢼄
𢾕
𣁋
𣄼
𣅀
𣅽
𣍘
𣎳
𣎵
𣏋
𣏼
𣗥
𣥂
𣥖
𣦵
𣦼
𣧄
𣪊
𣪠
𣬉
𣳾
𣶒
𤇾
𤊽
𤐫
𤓰
𤔔
𤕨
𤣩
𤰇
𤰔
𤰞
𤴓
𤴔
𤽄
𥁑
𥁕
𥃦
𥃩
𥃭
𥇡
𥑟
𥘅
𥘈
𥝢
𥫗
𥱡
𦈢
𦉪
𦉬
𦉼
𦍌
𦍒
𦎧
𦐇
𦓔
𦔮
𦘒
𦙃
𦚏
𦣝
𦣞
𦣻
𦥑
𦥔
𦥯
𦨉
𦭝
𦰩
𧆞
𧈧
𧘇
𧰨
𧴪
𧴮
𧵩
𧾷
𨸏
𨾴
𩙿
𩠐
𩫏
𩵋
𪉷
𪜀
𪟽
𪠲
𪩲
𫇦
𫔭
𫜸
𫝀
𫠣
𫠩
𫢉
𫥞
𫩏
𫩠
𫪡
𫲽
𫶧
𬀷
𬐘
𬗌
𬙙
𬛸
𬜯
𬟩
𬯁
𬴘
𬺻
𬼉
𬼖
𭀰
𭁈
𭁨
𭅰
𭑈
𭕄
𭗼
𭤨
𭥫
𭻾
𮅕
𮊿
𮍌
𮍏
𮓗
𮥼
𮧮
廾
𰀁
𰀄
𰀈
𰀉
𰀕
𰀠
𰀡
𰀢
𰀪
𰁜
𰃮
𰆊
𰆘
𰋙
𰕎
𰢴
𰧭
𰯲
00--
01--
02--
04--
05--
07--
08--
09--
14--
18--
21--
24--
27--
28--
29--
30--
31--
33--
34--
35--
36--
37--
39--
40--
42--
43--
44--
45--
46--
47--
48--
51--
53--
55--
56--
57--
58--
60--
61--
63--
65--
66--
67--
68--
70--
71--
75--
77--
80--
81--
85--
88--
89--
95--
96--
99--
a--
aa--
ab--
abe--
ac--
action--
activ--
active--
ad--
add--
addcustom--
added--
addnew--
ae--
af--
after--
afterpreview--
agf--
agg--
ai--
air--
ajax--
al--
ali--
all--
allo--
alt--
am--
amph--
an--
animated--
anon--
anti--
any--
ap--
apl--
app--
appo--
ar--
arc--
archaeo--
args--
as--
astr--
at--
attr--
au--
auto--
av--
az--
azerbai--
b--
ba--
back--
bad--
bar--
bas--
base--
bc--
bcheck--
be--
beau--
bel--
bene--
ber--
bh--
bhagi--
bhar--
bi--
bio--
bit--
bl--
blank--
blo--
block--
bo--
bold--
boo--
book--
bot--
box--
br--
build--
bun--
bur--
by--
c--
ca--
calc--
camb--
camp--
can--
cap--
car--
caro--
cas--
cat--
cauc--
cc--
ce--
cele--
celebr--
cent--
centr--
cer--
ch--
cha--
cham--
check--
chel--
cho--
chr--
chro--
cite--
citi--
cl--
clar--
class--
clear--
close--
co--
col--
collabo--
coln--
com--
communi--
con--
conclus--
consec--
content--
contr--
copy--
corr--
cou--
cr--
create--
cro--
csd--
csdanddi--
csdcriteria--
cu--
cult--
cur--
current--
custom--
cy--
cyber--
cycl--
d--
da--
dar--
data--
days--
db--
de--
dec--
def--
default--
define--
definecustom--
del--
delete--
deleted--
deli--
depe--
desc--
dha--
di--
dia--
diff--
dio--
disa--
disc--
discla--
div--
dm--
do--
done--
down--
dr--
drai--
dro--
du--
duplicat--
dur--
e--
ea--
eco--
ed--
edit--
effic--
eg--
ei--
el--
elec--
electr--
elim--
elli--
em--
emo--
empty--
en--
end--
entr--
enum--
epi--
equ--
er--
ero--
es--
et--
eu--
ev--
ex--
exp--
expe--
expected--
explor--
ext--
extra--
f--
fa--
fac--
fake--
fakeicon--
far--
fe--
ff--
fi--
file--
filt--
filter--
first--
fla--
flag--
flagrev--
flo--
flow--
flu--
fn--
fo--
fol--
follow--
font--
for--
format--
fr--
free--
ft--
fu--
ful--
full--
fun--
fus--
g--
ga--
gan--
gap--
gar--
gb--
gcm--
ge--
geo--
get--
getpagesug--
getusersug--
gi--
gl--
glo--
global--
go--
god--
good--
gra--
gray--
gre--
group--
gu--
h--
ha--
har--
hard--
harm--
has--
he--
hel--
her--
hi--
hide--
hiero--
his--
hist--
ho--
hope--
horn--
html--
hu--
hy--
hydro--
i--
ia--
ib--
ic--
icon--
id--
idebut--
if--
ig--
ii--
il--
illu--
im--
ima--
img--
imp--
import--
in--
inadver--
index--
info--
infra--
ing--
inha--
init--
inj--
inner--
insert--
inspi--
int--
inter--
inve--
invent--
invi--
io--
ip--
ir--
is--
iso--
it--
item--
iu--
iv--
j--
ja--
je--
ji--
jo--
jud--
judgm--
judic--
jul--
k--
ka--
kan--
ke--
key--
kha--
ki--
kill--
kilo--
kn--
ko--
kon--
kr--
kra--
ku--
kun--
kur--
l--
la--
label--
lang--
last--
lat--
lay--
lc--
le--
lec--
li--
life--
line--
ling--
link--
list--
live--
liveold--
liverc--
ll--
lo--
load--
loc--
local--
log--
lon--
long--
look--
low--
lrc--
lrccreate--
lrcedit--
lrcget--
lrcgetall--
lrctoggle--
lu--
luc--
ly--
m--
ma--
mac--
mag--
maha--
main--
make--
mal--
mala--
man--
map--
mar--
mark--
match--
max--
me--
medal--
men--
menu--
mer--
merge--
meta--
mi--
micr--
micro--
mid--
mig--
min--
mini--
miss--
mo--
modify--
modu--
mol--
mon--
mono--
month--
mor--
more--
mos--
moti--
mouse--
move--
ms--
mu--
multi--
multimode--
mur--
mus--
mw--
my--
n--
na--
name--
narr--
native--
nav--
nb--
ne--
nec--
needed--
ner--
new--
news--
newuser--
next--
ni--
no--
node--
non--
norm--
not--
note--
notify--
nou--
nouve--
ns--
num--
ny--
o--
oblig--
obser--
observa--
occ--
odi--
off--
office--
ok--
ol--
old--
oly--
on--
ondelete--
one--
only--
onprotect--
open--
opp--
or--
oro--
os--
other--
otsi--
ou--
out--
over--
ox--
p--
pa--
page--
pages--
pal--
pan--
para--
param--
parse--
pas--
pay--
pc--
pe--
ph--
phil--
pho--
pi--
pl--
plea--
po--
pok--
pol--
pop--
popup--
port--
pos--
post--
postlive--
pr--
pra--
pre--
prefsitem--
prev--
preview--
priv--
pro--
process--
prof--
prohi--
protect--
przy--
psy--
pt--
pu--
pue--
pur--
q--
qu--
qual--
que--
quel--
query--
quick--
quickform--
r--
ra--
ran--
raz--
rc--
rclist--
re--
read--
real--
rec--
rece--
recip--
recog--
red--
ref--
reg--
regex--
regul--
rel--
relo--
remo--
repe--
report--
rept--
reput--
res--
result--
rev--
revers--
rfd--
ri--
rid--
rm--
ro--
roll--
root--
rt--
ru--
run--
rv--
s--
sa--
safe--
sak--
san--
satur--
save--
sc--
scan--
sch--
sche--
sco--
scul--
se--
sea--
search--
sec--
section--
sel--
semi--
sen--
sep--
set--
sets--
setup--
sh--
shar--
short--
show--
shr--
si--
sic--
sign--
sil--
sim--
simul--
sin--
single--
site--
sk--
sl--
slo--
sm--
smart--
sna--
so--
sock--
soft--
some--
sp--
spam--
specu--
speedy--
spi--
squ--
sr--
st--
stable--
stan--
start--
ste--
stop--
str--
strip--
stu--
su--
sub--
subject--
subtr--
succ--
suff--
summary--
sun--
super--
sur--
sust--
sv--
swa--
swe--
sy--
sym--
t--
ta--
tabsbas--
tag--
tags--
talk--
task--
tb--
tchat--
td--
te--
teac--
tecto--
ten--
test--
text--
th--
the--
thic--
this--
thisis--
thislink--
ti--
time--
title--
tl--
to--
toc--
toggle--
top--
total--
tr--
trad--
trans--
trib--
tro--
tru--
ts--
tsto--
tu--
tur--
tw--
twinkle--
ty--
type--
u--
uc--
ul--
ump--
un--
under--
undis--
unkn--
unlinkimage--
up--
update--
updatefollow--
ur--
url--
us--
use--
user--
ut--
utc--
uw--
v--
va--
val--
value--
van--
vand--
var--
ve--
vi--
vic--
vice--
view--
vint--
vir--
vla--
vo--
vor--
vul--
w--
wa--
walk--
war--
warning--
watch--
we--
web--
wet--
wg--
whe--
wiki--
wil--
win--
window--
wit--
with--
wm--
wo--
woo--
wor--
work--
wp--
x--
xfd--
xi--
y--
ya--
your--
youth--
z--
za--
ze--
zoo--
zu--
đ--
в--
к--
ко--
м--
мо--
н--
с--
م--
अ--
अन--
अप--
अर--
अल--
अस--
आ--
आइ--
आई--
आम--
आर--
इ--
ई--
उ--
उन--
उप--
उभ--
ऊ--
ऍ--
ए--
एक--
एच--
एन--
एम--
एल--
एस--
ऐ--
ऑ--
ओ--
औ--
क--
कट--
कन--
कम--
कर--
कव--
ख--
ग--
गव--
घ--
ङ--
च--
चल--
छ--
ज--
जग--
जन--
जम--
जय--
जल--
झ--
ञ--
ट--
टन--
टर--
ठ--
ड--
डर--
ढ--
ण--
त--
तर--
तल--
थ--
थन--
द--
दन--
दश--
ध--
धन--
न--
नव--
प--
पन--
पल--
फ--
ब--
बड--
बन--
बर--
भ--
भर--
म--
मल--
मस--
य--
यन--
यर--
र--
रम--
ल--
लम--
व--
वन--
वर--
श--
ष--
स--
सत--
सम--
सर--
ह--
हर--
ऽ--
०--
१८--
१९--
२०--
३--
४--
५--
६--
७--
८--
९--
--0
--00
--08
--1
--2
--20
--24
--25
--26
--3
--4
--45
--5
--6
--7
--8
--83
--89
--9
--a
--ab
--abad
--able
--ac
--ace
--action
--ad
--ae
--ag
--age
--aging
--ago
--ah
--ai
--aic
--ail
--ain
--aj
--ak
--al
--ala
--ali
--all
--ally
--als
--alt
--am
--ama
--ament
--amp
--an
--ana
--ance
--andbox
--ang
--ange
--ania
--ans
--ant
--ants
--ap
--api
--aq
--ar
--ara
--ard
--aries
--array
--ary
--as
--ase
--aspatrolled
--at
--ata
--ate
--ated
--ates
--ath
--athon
--ati
--atic
--ating
--ation
--ative
--ator
--ators
--atus
--au
--averto
--aw
--ay
--b
--bal
--ball
--bar
--bars
--base
--be
--bility
--bject
--ble
--block
--body
--bot
--box
--bs
--burg
--button
--buttonicon
--by
--c
--ca
--cal
--caps
--car
--care
--carets
--case
--cat
--ce
--ced
--ceptor
--ch
--che
--chill
--chunks
--ci
--cio
--ck
--class
--co
--code
--col
--color
--config
--content
--controller
--cp
--cript
--critic
--cs
--css
--ct
--cted
--cus
--cy
--d
--da
--data
--date
--day
--de
--debug
--ded
--defaultlang
--delete
--desc
--di
--dialog
--diff
--difflink
--dir
--displayorder
--div
--do
--done
--door
--dra
--ds
--dthreads
--dy
--e
--earch
--eb
--ec
--ect
--ection
--ed
--edit
--ee
--eer
--ef
--ei
--el
--elect
--element
--ell
--ely
--en
--ence
--end
--enia
--ening
--ense
--ent
--ep
--er
--ere
--ern
--error
--ers
--ervation
--ery
--es
--ese
--esis
--ess
--est
--et
--eth
--etic
--ets
--eurs
--ev
--event
--ew
--expiry
--ey
--ez
--f
--failure
--ff
--field
--file
--for
--form
--ful
--full
--func
--fy
--g
--ga
--gar
--ge
--ged
--gen
--ger
--gh
--ging
--go
--gon
--gram
--group
--gs
--gton
--h
--ha
--ham
--hand
--he
--hed
--heet
--height
--hes
--hi
--hint
--hip
--hort
--how
--hs
--ht
--hter
--html
--hu
--hy
--i
--ia
--ial
--ialog
--ian
--iation
--ible
--ic
--ica
--ical
--ick
--icon
--ics
--id
--ide
--ided
--ident
--ids
--ie
--ied
--ien
--iens
--ient
--ier
--ies
--if
--iff
--ification
--ified
--ify
--ii
--ik
--ike
--iki
--il
--ile
--ility
--illa
--im
--image
--img
--imi
--in
--ina
--inate
--inated
--ind
--index
--ine
--ined
--info
--infos
--ing
--ingroups
--ini
--inmenu
--input
--inputname
--ins
--io
--ion
--ions
--ious
--ip
--ique
--ir
--ire
--is
--isation
--ise
--ised
--ish
--ism
--ist
--istic
--ists
--it
--ita
--ite
--item
--ities
--ity
--ium
--ival
--ive
--ively
--ives
--ivity
--ix
--iya
--iz
--ization
--ize
--ized
--izing
--j
--ject
--ji
--joy
--js
--ju
--k
--ka
--kar
--ke
--key
--keys
--kh
--ki
--ks
--ku
--ky
--l
--la
--label
--lang
--las
--ld
--le
--leader
--led
--left
--legend
--len
--length
--ler
--less
--level
--ley
--lf
--li
--lia
--lick
--limit
--line
--lines
--ling
--link
--links
--lis
--list
--listmenu
--listul
--ll
--lla
--lle
--lo
--loaded
--loader
--log
--logy
--ls
--lt
--lty
--lus
--ly
--m
--ma
--magnifier
--main
--man
--map
--mark
--mas
--match
--mation
--me
--ment
--ments
--menu
--mi
--mic
--mod
--mode
--model
--month
--most
--move
--mpty
--msg
--n
--na
--nable
--nam
--name
--navlink
--nce
--ncy
--nd
--nda
--nder
--ne
--ned
--nel
--ner
--ners
--nese
--ness
--net
--ney
--nfo
--ng
--ni
--nia
--nie
--ning
--nist
--no
--node
--notice
--ns
--nt
--nta
--ntly
--nts
--nu
--number
--nus
--ny
--nya
--nym
--o
--oc
--ock
--od
--og
--ogical
--ogy
--oid
--oix
--ol
--ola
--oldid
--oline
--ology
--om
--on
--one
--only
--ons
--oo
--oon
--op
--options
--oque
--or
--ora
--orama
--ore
--orm
--ors
--ort
--ortorder
--ory
--os
--ose
--ot
--ota
--ou
--ous
--out
--ov
--ow
--ox
--oy
--p
--pace
--pacee
--page
--pages
--pagesasminor
--pan
--param
--paramid
--params
--part
--parts
--path
--pe
--ped
--pedia
--ping
--plied
--plit
--po
--pos
--pref
--prefvalues
--ps
--q
--que
--query
--r
--ra
--rah
--ral
--rals
--ram
--ray
--rc
--rd
--re
--reason
--red
--redir
--ref
--regex
--req
--rer
--result
--results
--retries
--revid
--review
--revoc
--rf
--ri
--ria
--rian
--rier
--ries
--right
--rin
--ris
--rl
--rn
--rnis
--ro
--ron
--rot
--roup
--row
--rs
--rt
--rus
--ry
--s
--sa
--sch
--sdone
--se
--sed
--ser
--ses
--set
--sh
--shire
--si
--sia
--sion
--sis
--sk
--so
--sor
--space
--span
--split
--ss
--st
--stein
--ston
--stone
--str
--string
--style
--success
--t
--ta
--tab
--tabilization
--tabs
--tag
--tags
--tal
--tan
--tart
--tatus
--te
--team
--ted
--teen
--teenth
--ter
--tes
--test
--tests
--text
--textcode
--textcodelang
--th
--tha
--thi
--this
--ti
--tic
--ties
--time
--ting
--tion
--tions
--title
--tive
--tle
--tly
--to
--toc
--ton
--top
--tor
--tory
--tos
--tr
--tra
--tring
--tructure
--ts
--ture
--tus
--ty
--tyle
--type
--u
--ua
--ual
--uating
--ub
--uccess
--ud
--ue
--uel
--ul
--ular
--um
--ummary
--ung
--up
--upt
--ur
--ura
--ure
--ures
--urg
--url
--urs
--us
--use
--user
--ut
--ux
--uz
--v
--va
--val
--value
--values
--ve
--view
--w
--ward
--wards
--ware
--watch
--way
--widget
--width
--wiki
--window
--wise
--wood
--x
--xfd
--y
--ya
--yam
--year
--years
--ype
--yr
--ys
--z
--za
--ze
--zi
--zone
--zy
--zz
--а
--д
--и
--к
--кая
--н
--ی
--अ
--आ
--ई
--ए
--एस
--ओ
--क
--ख
--ग
--घ
--च
--छ
--ज
--ञ
--ट
--ठ
--ड
--ढ
--ण
--त
--थ
--द
--ध
--न
--प
--फ
--ब
--भ
--म
--य
--र
--ल
--व
--वल
--श
--स
--ह
--ऽ
--ऽत
--ऽन
--०
--५
