!
"
#
##0
##1
##10
##11
##12
##13
##14
##15
##16
##17
##18
##19
##2
##20
##21
##22
##23
##24
##25
##26
##27
##28
##29
##3
##30
##31
##32
##33
##34
##35
##36
##37
##38
##39
##4
##40
##41
##42
##43
##44
##45
##46
##47
##48
##49
##5
##50
##51
##52
##53
##54
##55
##56
##57
##58
##59
##6
##60
##61
##62
##63
##64
##65
##66
##67
##68
##69
##7
##70
##71
##72
##73
##74
##75
##76
##77
##78
##79
##8
##80
##81
##82
##83
##84
##85
##86
##87
##88
##89
##9
##90
##91
##92
##93
##94
##95
##96
##97
##98
##99
$
%
&
'
(
)
*
+
,
-
.
/
0
00
000
001389
00238
01
01254
02
03
03158
04
05
0585317631
06
07
08
09
1
10
100
1000
1001
1002
1003
1004
1005
1006
1007
1008
1009
101
1010
1011
1012
1013
1014
1015
1016
1017
1018
1019
102
1020
1021
1022
1023
1024
1025
1026
1027
1028
1029
103
1030
1031
1032
1033
1034
1035
1036
1037
1038
1039
104
1040
1041
1042
1043
1044
1045
1046
1047
1048
1049
105
1050
1051
1052
1053
1054
1055
1056
1057
1058
1059
106
1060
1061
1062
1063
1064
1065
1066
1067
1068
1069
107
1070
1071
1072
1073
1074
1075
1076
1077
1078
1079
108
1080
1081
1082
1083
1084
1085
1086
1087
1088
1089
109
1090
1091
1092
1093
1094
1095
1096
1097
1098
1099
11
110
1100
1101
1102
1103
1104
1105
1106
1107
1108
1109
111
1110
1111
1112
1113
1114
1115
1116
1117
1118
1119
112
1120
1121
1122
1123
1124
1125
1126
1127
1128
1129
113
1130
1131
1132
1133
1134
1135
1136
1137
1138
1139
114
1140
1141
1142
1143
1144
1145
1146
1147
1148
1149
115
1150
1151
1152
1153
1154
1155
1156
1157
1158
1159
116
1160
1161
1162
1163
1164
1165
1166
1167
1168
1169
117
1170
1171
1172
1173
1174
1175
1176
1177
1178
1179
118
1180
1181
1182
1183
1184
1185
1186
1187
1188
1189
119
1190
1191
1192
1193
1194
1195
1196
1197
1198
1199
12
120
1200
1201
1202
1203
1204
1205
1206
1207
1208
1209
121
1210
1211
1212
1213
1214
1215
1216
1217
1218
1219
122
1220
1221
1222
1223
1224
1225
1226
1227
1228
1229
123
1230
1231
1232
1233
1234
1235
1236
1237
1238
1239
124
1240
1241
1242
1243
1244
1245
1246
1247
1248
1249
125
1250
1251
1252
1253
1254
1256
1257
1258
1259
126
1260
1261
1262
1263
1264
1265
1266
1267
1268
1269
127
1270
1271
1272
1273
1274
1275
1276
1277
1278
1279
128
1280
1281
1282
1283
1284
1285
1286
1288
1289
129
1290
1291
1292
1293
1294
1295
1296
1298
1299
13
130
1300
1302
1303
1305
1306
1307
1308
1309
131
1310
1311
1312
1313
1314
1315
1316
1317
1318
1319
132
1321
1323
1325
1326
1327
1329
133
1330
1331
1332
1334
1335
1336
1337
1338
1339
134
1341
1342
1343
1344
1345
1346
1348
1349
135
1350
1351
1352
1356
1357
1358
136
1360
1362
1363
1367
1368
1369
137
1370
1371
1372
1373
1375
1376
1377
1378
138
1380
1382
1384
1385
1388
1389
139
1392
1393
1395
14
140
1400
1401
1402
1403
1405
1406
1407
141
1410
1412
1413
1417
1418
142
1420
1421
1422
1426
1427
1429
143
1430
1431
1435
1437
144
1443
1444
1447
1448
145
1450
1452
1453
1456
1457
1458
1459
146
1462
1463
1465
1467
1468
1469
147
1470
1471
1472
1473
1477
148
1480
1481
1486
1487
149
1490
1491
1492
1493
1494
1497
15
150
1500
1501
1502
1503
1504
1505
1506
1507
1508
1509
151
1510
1511
1512
1513
1514
1515
1517
1519
152
1520
1521
1522
1524
1525
1526
1529
153
1530
1531
1533
1534
1538
1539
154
1540
1542
1546
1547
1549
155
1550
1551
1552
1557
1558
1559
156
1560
1562
1563
1564
1565
1567
1568
157
1571
1572
1578
158
1580
1582
1588
159
1590
1595
1596
16
160
1600
1601
1602
1605
1608
161
1610
1612
1614
1616
1617
1618
1619
162
1620
1624
1627
1628
163
1630
1632
1638
164
1640
1643
1646
165
1650
1652
166
167
1671
1678
168
169
1694
1699
17
170
1700
1703
1708
171
1710
1716
1717
1719
172
1720
1723
1724
1728
173
1730
1735
174
1740
1745
1746
1747
1748
175
1750
1757
1759
176
1760
1762
1763
1764
1765
1767
1768
177
1770
1772
1773
1774
1776
1777
1778
1779
178
1780
1781
1782
1783
1784
1785
1787
1788
1789
179
1790
1791
1792
1793
1794
1795
1796
1797
1798
1799
18
180
1800
1801
1802
1803
1804
1805
1806
1807
1808
1809
181
1810
1811
1812
1813
1814
1815
1816
1817
1818
1819
182
1820
1821
1822
1823
1824
1825
1826
1827
1828
1829
183
1830
1831
1832
1833
1834
1835
1836
1837
1838
1839
184
1840
1841
1842
1843
1844
1845
1846
1847
1848
1849
185
1850
1851
1852
1853
1854
1855
1856
1857
1858
1859
186
1860
1861
1862
1863
1864
1865
1866
1867
1868
1869
187
1870
1871
1872
1873
1874
1875
1876
1877
1878
1879
188
1880
1881
1882
1883
1884
1885
1886
1887
1888
1889
189
1890
1891
1892
1893
1894
1895
1896
1897
1898
1899
19
190
1900
1901
1902
1903
1904
1905
1906
1907
1908
1909
191
1910
1911
1912
1913
1914
1915
1916
1917
1918
1919
192
1920
1921
1922
1923
1924
1925
1926
1927
1928
1929
193
1930
1931
1932
1933
1934
1935
1936
1937
1938
1939
194
1940
1941
1942
1943
1944
1945
1946
1947
1948
1949
195
1950
1951
1952
1953
1954
1955
1956
1957
1958
1959
196
1960
1961
1962
1963
1964
1965
1966
1967
1968
1969
197
1970
1971
1972
1973
1974
1975
1976
1977
1978
1979
198
1980
1981
1982
1983
1984
1985
1986
1987
1988
1989
199
1990
1991
1992
1993
1994
1995
1996
1997
1998
1999
2
20
200
2000
2001
2002
2003
2004
2005
2006
2007
2008
2009
201
2010
2011
2012
2013
2014
2015
2016
2017
2018
2019
202
2020
2021
2022
203
204
205
206
207
208
209
21
210
211
212
2129
213
2132
2133
2134
2135
2136
2137
214
215
216
217
218
219
22
220
221
222
223
224
225
226
227
228
229
23
230
2300
231
232
233
234
235
236
237
238
239
24
240
241
242
243
244
245
246
247
248
249
25
250
251
252
253
254
255
256
257
258
259
26
260
261
262
263
264
265
266
267
268
269
27
270
271
272
273
274
275
276
277
278
279
28
280
281
282
283
284
285
286
287
288
289
29
290
291
292
293
294
295
296
297
298
299
3
30
300
3000
301
302
303
304
305
306
307
308
309
31
310
311
312
313
314
315
316
317
318
319
32
320
321
322
323
324
325
326
327
328
329
33
330
331
332
333
334
335
336
337
338
339
34
340
341
342
343
344
345
346
347
348
349
35
350
351
352
353
354
355
356
357
358
359
36
360
361
362
363
364
365
366
367
368
369
37
370
371
372
373
374
375
376
377
378
379
38
380
381
382
383
384
385
386
387
388
389
39
390
391
392
393
394
395
396
397
398
399
4
40
400
4000
401
402
403
404
405
406
407
408
409
41
410
411
412
413
414
415
416
417
418
419
42
420
421
422
423
424
425
426
427
428
429
43
430
431
432
433
434
435
436
437
438
439
44
440
441
442
443
444
445
446
447
448
449
45
450
4500
451
452
453
454
455
456
457
458
459
46
460
461
462
463
464
465
466
467
468
469
47
470
471
472
473
474
475
476
477
478
479
48
480
4800
481
482
483
484
485
486
487
488
489
49
490
491
492
493
494
495
496
497
498
499
5
50
500
5000
500062
500071
501
502
503
504
505
506
507
508
509
51
510
5102
511
512
513
514
515
516
517
518
519
52
520
521
522
523
524
525
526
527
528
529
53
530
531
532
533
534
535
536
537
538
539
54
540
541
542
543
544
545
545058
546
547
548
549
55
550
551
552
553
554
555
556
557
558
559
56
560
561
562
563
564
565
566
567
568
569
57
570
571
572
573
574
575
576
577
578
579
58
580
581
582
583
584
585
586
587
588
589
59
590
591
592
593
594
595
596
597
598
599
6
60
600
601
602
603
604
605
606
607
608
609
61
610
611
612
613
614
615
616
6161
617
618
619
62
620
621
622
623
624
625
6253
626
627
628
629
63
630
631
632
633
634
635
636
637
638
639
64
640
641
642
643
644
645
646
647
648
649
65
650
651
652
653
654
655
656
657
658
659
66
660
661
662
663
664
665
666
667
668
669
67
670
671
672
673
674
675
676
677
678
679
68
680
681
682
683
684
685
686
687
688
689
69
690
691
692
693
694
695
696
697
698
699
7
70
700
701
702
703
704
705
706
707
708
709
71
710
7106
711
712
713
714
715
716
717
718
719
72
720
7203
721
722
723
724
725
726
727
728
729
73
730
731
732
733
734
735
736
737
738
739
74
740
741
742
743
744
745
746
747
748
749
75
750
751
752
753
754
755
756
757
758
759
76
760
761
762
763
764
765
766
767
768
769
77
770
771
772
773
774
775
776
777
778
779
78
780
781
782
783
784
785
786
787
788
789
79
790
791
792
793
794
795
796
797
798
799
8
80
800
801
802
803
804
805
806
807
808
809
81
810
811
812
813
814
815
816
817
818
819
82
820
821
822
823
824
825
826
827
828
829
83
830
831
832
833
834
835
836
837
838
839
84
840
841
842
843
844
84433
845
846
847
848
849
85
850
851
852
853
854
85401
855
856
857
858
859
86
860
861
862
863
864
865
866
867
868
869
87
870
871
872
873
874
875
876
877
878
879
88
880
881
882
883
884
88459
885
886
887
888
88810
889
89
890
891
892
893
894
895
896
897
898
899
9
90
900
901
902
903
904
905
906
907
908
909
91
910
911
912
913
914
915
916
91674
917
918
919
92
920
921
922
9223372036854775808
923
924
925
926
927
928
929
93
930
931
932
933
934
935
936
937
938
939
94
940
941
942
943
944
945
946
947
948
949
95
950
951
952
953
954
955
956
957
958
959
96
960
961
962
963
964
965
966
967
968
969
97
970
971
972
973
974
975
976
977
978
9783642297182
9785386009687
979
98
980
981
982
983
984
985
986
987
988
989
99
990
991
992
993
994
995
996
997
998
999
:
;
<
=
>
?
@
\
^
_
a
aa
aaa
ab
abc
about
abril
absolute
ac
action
ad
add
administraciones
administrati
administrative
ady
ae
af
after
ag
ah
ai
aj
ak
al
ali
all
also
alt
am
amu
an
and
andersson
annual
any
ao
ap
aq
ar
archive
are
args
ark
arms
art
article
as
asnost
aspx
ast
asteroids
astronomical
astronomy
astrophysical
astrophysics
at
atlas
au
authority
autonomous
av
available
averaged
aw
ax
ay
az
b
ba
background
bagnulo
bao
bar
bas
bases
batson
bb
bc
bd
be
been
before
bel
bf
bg
bh
bhutan
bi
bj
bk
bl
blicas
bm
bn
bo
border
bot
bp
bq
br
brandt
brasileiro
brasław
bratislava
brazil
bry
bs
bt
bu
bulletin
bumthang
bur
bureau
business
but
bv
bw
bx
by
bychkov
bychkova
bz
c
ca
can
canada
carbon
cat
catalogue
categories
category
cb
cc
cd
ce
celkem
center
cerga
cf
cfg
cg
cgi
ch
cha
change
changes
chapman
che
chemically
chu
chv
ci
cia
cj
ck
cl
claim
claims
class
cm
cn
co
coat
code
color
com
comets
commons
communities
community
config
content
context
cp
cq
cr
crater
create
cs
css
ct
cu
cv
cw
cx
cy
cz
cze
d
da
dag
data
database
datatype
datavalue
date
datos
davies
day
db
dc
dd
de
default
del
der
des
description
df
di
diagram
dictionary
diffusion
discussion
display
dj
dk
dl
dm
dn
do
dobes
doc
dostupne
dp
dq
dr
ds
dt
du
duniłowicze
dus
dv
dw
dwornik
dx
dy
dz
dzieje
dziejo
dzisien
e
ea
eb
eberhardt
ec
ed
edit
editing
edition
editor
editors
ee
ef
effective
eg
eh
ei
ej
ek
el
else
elseif
elsevier
em
en
encarta
end
english
enlarged
entidades
entity
entityid
eo
ep
epos
eq
er
error
es
eska
esky
estati
estimate
estimates
et
etne
eu
ev
eva
evolutionary
ew
ex
excel
extragalactic
ey
ez
f
fa
false
fb
fe
feature
feedback
ff
fg
fh
fi
fields
fifth
figueras
file
files
find
first
fj
fk
fl
flag
flags
fm
fn
fo
for
format
formowanie
foundation
fp
fr
frame
free
from
fs
ft
fu
function
fw
fy
g
ga
gabriel
gault
gazetteer
ge
general
geografia
geograficzny
geological
george
georges
geospatial
get
gimen
gj
gje
gks
global
gmina
go
gomez
google
gov
granicy
grenier
group
gsc
gsub
gło
h
ha
hacienda
has
have
hd
he
heidelberg
help
here
hgmn
hiddencat
hipparcos
history
hledi
ho
how
hr
htm
html
http
https
i
iana
ic
icarus
icon
id
ietova
if
igbe
ii
iii
image
images
img
in
index
info
information
ing
innosti
insert
instituto
international
into
ipac
ipairs
ir
irk
is
isbn
iso
it
item
iv
iva
ix
j
ja
jana
japan
jew
jezdu
jiny
journal
jpg
js
k
ka
kab
kag
kai
kal
kam
kao
kar
kem
kerrod
key
kha
khk
kinematics
kir
kis
know
ko
kochukhov
kom
kon
koper
korec
kos
kova
kra
kraje
krhova
kris
krm
kro
kug
kur
kya
l
la
label
ladislav
lang
language
languages
las
last
lat
lauko
le
left
len
lene
lenenia
lenenie
lerner
lestwa
levitation
ley
library
lidove
like
line
linear
link
links
lip
list
lm
lo
local
locales
log
london
loneos
long
lop
lunar
luri
lutz
lycosa
m
ma
madej
mag
magnetic
magnitudes
main
mainsnak
make
manfroid
many
map
mar
marcela
match
math
may
mcclure
me
media
mediawiki
mennessier
mercury
message
meta
meteors
mezir
miasta
mic
michaud
miejscowos
miestnej
miloslav
ministerio
ministerstvo
minor
minule
mn
mo
mobile
mode
module
mojgorod
month
monthly
mor
mora
more
morrison
mos
most
mow
msk
msn
municipal
municipalities
munst
mur
mw
n
na
najnowsze
nakladatelstvi
name
names
namespace
nasa
ncaa
neat
need
new
news
newsletter
next
ngc
ngr
nil
niz
no
nomenclature
nor
north
not
notices
nove
noviny
now
nr
ns
num
number
nvs
ny
o
obce
obci
obe
obl
october
od
odas
of
office
official
okr
okresy
olsztyn
oms
on
one
online
only
op
oproti
options
or
ore
org
organiza
orl
other
our
out
p
pa
padding
page
pages
pairs
param
parameter
parameters
params
part
pattern
pavol
pdf
pe
peculiar
people
per
peter
petrlova
php
physics
piotr
pl
planet
planetary
please
png
pnz
po
poc
podrocje
pojezierze
polarimetry
polic
polskiego
polskiej
population
portal
powiat
powiatu
powiaty
pp
praha
prefix
prehl
press
preston
pri
processes
project
projects
properties
property
propertyid
protection
provinces
psk
pu
publication
publications
px
q
qualifier
qualifiers
r
ra
radiometry
rank
rd
re
read
rect
reference
region
registro
reguladora
related
remove
renson
republika
republiky
request
require
res
result
results
ret
return
review
revised
right
rk
rm
ro
robin
rocznik
ros
royal
royer
rs
ru
rus
russell
rya
rzeczypospolitej
s
sa
sah
sak
sam
sar
scap
schmadel
science
scientific
se
search
section
see
self
sequence
set
should
si
sie
simba
site
size
ska
ske
ski
skorowidz
slovenska
slovenskej
smo
snak
so
society
some
souboru
souc
source
spacewatch
spanish
spb
special
specified
spectrophotometry
spra
springer
sr
src
st
sta
stars
start
stat
state
statement
states
statistical
statistics
statystyczny
stellar
stica
str
string
strom
struc
style
sub
superweb
support
surface
survey
sve
svg
synthesis
słownik
t
ta
tab
table
tag
talk
tam
tat
te
team
technical
template
templatedata
templates
test
text
th
than
that
the
their
then
there
these
they
this
thumb
ti
time
title
tku
tnej
to
tolma
tom
tonumber
tool
top
torra
tostring
tr
tra
translate
true
ts
tu
tul
tuv
tve
type
tyu
u
ua
udm
uesac
uk
uly
un
und
united
university
up
uploads
upper
url
urza
us
use
used
user
users
using
usporiadani
ustring
utc
uts
v
val
valas
value
values
vc
ve
veda
vezi
vgg
vi
vii
viii
viliam
visual
visualeditor
vizier
vla
vlg
vne
vneho
vnom
vnu
voja
vojensky
vol
volko
vor
vseti
vy
vyc
vyd
vznikaji
w
want
warszawa
was
we
web
webrzs
weekly
what
when
which
whitaker
who
wiatowej
width
wiki
wikibase
wikidata
wikimedia
wikipedia
wikipedias
wikis
wikitext
wilejka
wilen
will
with
wmf
wny
wojnie
wolumin
word
work
world
would
wschodniej
www
wykaz
x
xi
xii
xiii
xiv
xix
xlo
xv
xvi
xvii
xviii
xx
xxi
y
yar
year
york
you
your
z
za
zab
zdenko
zellner
zemi
zemne
zemnom
zemnospra
ziemia
zme
zr
zubriczky
{
|
}
~
«
­
°
±
²
³
·
»
×
̀
́
̂
̃
̄
̆
̇
̈
̊
̌
̗
̣
̧
̨
α
а
абадан
абаи
абанан
абат
абатан
абатскан
абатца
абдулинан
абзелилован
абруццо
абсолютан
абу
авангард
август
августехь
авегӏон
авеи
авиацин
авила
австралин
австри
австрии
австрин
авт
автономин
автономная
автономныи
автор
аг
агари
агдаман
агдашан
агеева
агрызан
агӏденаш
агӏдеш
агӏеж
агӏмогӏ
агӏо
агӏонаш
агӏора
агӏри
агӏсуи
ад
адаккха
адала
адам
адаман
адамаш
адамии
адана
адапазаринан
аджарин
адидже
адии
адм
административан
административно
администраци
администрацин
администрация
адрес
адыгеи
адыгея
аелла
аз
азера
азербаи
азехь
аззам
аззамаш
ази
азизии
азин
азинан
азитан
азнакаеван
азован
азовскии
азории
аи
ак
ака
акад
академи
академин
акваторера
аквитани
акдагӏмаденин
акденизнан
аки
аккха
аккъии
аклимат
акмолан
аксаи
аксараи
аксе
аксекинан
аксубаеван
аксунан
аксыи
актанышан
акте
актобен
актогаи
актриса
актуальные
акулово
акха
акхушан
акхӏисарнан
акчаабатнан
акчадагӏнан
акчакаленан
акъари
акъарии
акъарин
акъонаш
ал
ала
алабама
алагиран
алагоас
аладжанан
алаи
алан
аланин
алапаевскан
алар
аларан
алачамнан
алашехӏирнан
алба
алданан
але
алеи
александр
александра
александрин
александро
александров
александрован
александровка
александровкан
александрово
александровскан
александровски
александровскии
александровское
алексеевка
алексеевкан
алексеевскан
алексеевски
алексеевскии
алексеевское
алексеи
алексино
алессандри
али
алиев
аликанте
аликован
алинан
аллахӏ
алматан
алнашин
ало
алсама
алссам
алссама
алтаи
алташ
алтиеи
алтинордунан
аль
альбасете
алье
альмерия
альметьевскан
альпаш
альто
альшееван
аляска
ам
амал
амалан
амалаш
амалех
амалехь
амалии
амало
аман
аманан
амаси
амасин
америка
америки
америкин
амма
амплитуда
амуран
амурская
амурскои
ан
ана
аналитическии
анамурнан
анан
анапан
анатоли
анатолин
англ
англии
андерсон
анджикан
андиринан
андреаполан
андреапольскии
андреевка
андреевски
андреевское
андреи
анкара
анна
аннан
аномалеш
анри
ант
антакин
антали
антициклон
антициклонан
антициклонаш
антициклонии
антоновка
антоново
антропован
анхальт
аоста
апастован
апрелан
апрелера
апрелехь
апрель
апули
апшеронскан
ар
ара
арабанан
арагацотнан
арад
араи
араклинан
аран
арапгирнан
араратан
арахецар
арахецархои
арахецна
арахии
арахьа
арахьара
арачан
арбажан
арбакир
аргаяшан
ардатован
ардахӏан
арджеш
ардимлин
аре
аренан
аренаш
аренашкахь
аренашца
арении
арзамасан
аризона
аркадакан
арканзас
арклимат
арктикан
арктиканклимат
арктикера
армавиран
арсеньеван
арскан
артвин
арте
артист
артисташ
артуклунан
архангельскан
архангельская
архангельски
архангельское
архаран
архив
архитектурин
ас
аса
асан
асанан
асанера
асанехь
асекееван
асехь
аскизан
аскин
аснан
ассоциацин
асср
ассрн
аст
астаран
астероид
астероидаш
астероидии
астраханская
астраханскои
астрель
астрономин
астури
ат
атагӏа
атагӏанан
атакумнан
атан
атантикан
аткарскан
атлантикан
атлантикера
атлантикин
атлас
атмосфера
атмосферан
атмосферехь
атнан
атта
атыраунан
атюрьеван
атяшеван
аургазин
аургазинскии
афанасово
афанасьеван
афи
африкин
ах
ахархои
ахгӏаи
ахтубан
ахтубинскан
ахтыркан
ахча
ахь
ахьмад
ахьтан
ахӏи
ац
ацара
ацклимат
ацш
ацшн
ачинскан
аш
ашкаленан
аштаркханан
аьзни
аьзнин
аьккхина
аьккхинчу
аьккхира
аьлла
аьлча
аьлчи
аьрру
аьтто
аьттонца
аьтту
аьхка
аьхке
аьхкенан
аьхкенна
аьхкенца
аьхьа
аьчка
ая
б
ба
бабаеван
бабино
бабушкинан
бабынинан
бавари
бага
баганан
багачкан
багратионовскан
бад
бадахос
баден
база
базар
базарни
базиликата
баи
баия
бакалинан
бакеу
бакин
баккха
баккхии
бакохан
бакъ
бакъдерг
бакъду
бакъо
бакъонан
бакъонаш
бакъонии
бала
балаклеи
баланс
балахтан
балашован
балаьнан
балезинан
бали
баликесир
балка
балканах
балкании
балкхарои
балтасин
балтачеван
балтии
балтикаи
балха
бан
бандирманан
бар
бара
барабинскан
барам
барамал
бараман
бараме
барамера
барамерачу
барамехь
барамца
баран
барановичин
барановка
бараново
бардан
барз
баро
барселона
барсуки
барт
бартин
бартинан
барышан
барятинан
бас
басар
басахь
басеги
басешкахь
баскетбол
баскетболан
баскетболех
баскетболхо
баскетболхои
бассеи
батецкан
баткенан
батман
батталгазинан
баттахь
бафраннан
баха
бахам
бахаман
бахархои
бахархоша
бахмачан
бахмутан
баххалц
бахьан
бахьана
бахьанехь
бахьна
бахьнехь
бац
бацара
башкаленан
башкираш
башкирии
башкортостан
баштанкан
башха
башхалла
башхаллаш
башхаллашца
баьккхина
баьккхинарг
баьккхира
баьхна
баьццара
баьчча
баяндаи
бгӏетань
бе
бежа
бежаницин
бежаницкии
бежецкан
бежецкии
без
беза
безам
безенчукан
безл
беи
бекхна
бекъа
беларуси
белая
белгород
белгородан
белгородская
белгородскои
беле
белебеи
бели
белин
белинан
белинскан
белира
белла
белларш
белован
белое
белозерскан
белокалитвинскии
белокатаи
белопольен
белорецкан
белореченскан
белоруссехь
белорусси
белоруссин
белхало
белхалои
белхан
белхаш
белыи
белыничин
бельскии
бельфогӏан
беляевкан
бен
бена
београд
бепиг
бер
бераш
бергаманан
бергамо
берд
бердал
бердан
бердаца
бердашца
бердичеван
бердянскан
бере
берег
березинан
березник
березники
березовка
березовкан
березово
берестовицан
берии
бериславан
беркате
берриг
бертан
берш
бес
бесара
бесараллаклимат
беттан
беттанаш
беттанашкахь
беха
бехаш
бехк
бехке
бецан
бецаш
беш
бешенковичин
библиотека
бигадичнан
биганан
бижбулякан
бии
билгала
билгалаи
билгалдахарш
билгалдолу
билгали
билгало
билганза
биледжик
бин
бина
бинан
бинарш
бингоьл
бингоьлан
бинчу
биографи
биография
биологин
бира
биреджикнан
бирскан
бискаи
бисмилнан
бистрица
битлис
битлисан
бихор
бич
бк
благоваран
благовещенскан
благовещенскии
благоевградан
близнюкин
блок
бо
бобринецан
боброван
бобровка
боброво
бобруи
бовланза
бовха
богдановка
богданово
богодухован
богородицкан
богородскан
богородскии
богучаран
бодлея
бодрумнан
бодьян
божарии
боздогӏанан
бозованан
бозу
бои
бок
боккха
боккъала
боксе
бокситогорскан
болалуш
болам
болгарин
болии
бологин
болотнин
болу
болунан
болуш
болх
болхован
болчу
большая
большевик
большеречьен
большеселон
большесельскии
большие
большое
большои
бондарин
бор
бора
боран
борзанан
борис
борисовка
борисовн
борисово
борисоглебскан
борисоглебскии
борисполан
борки
борнованан
боровичин
боровскан
бородино
борок
борскан
бос
бот
ботошань
боуэлл
бохалла
бохам
боханан
боху
бохург
бохуш
боцу
боцучу
боцуш
боьра
боьран
боьранаш
брага
браганса
брагинан
бразили
бразилин
бразилия
браи
бранденбург
браничево
бранко
бранку
браславан
брасован
братскан
брашов
бреи
бреила
брестан
брешиа
британи
британин
броварин
брод
бродин
брокгауза
броја
брянскан
брянская
брянскои
бу
буа
бугурусланан
бугӏгунди
буда
буде
будет
буздякан
бузеу
бузулукан
буи
буинскан
булагатии
буллин
буприрода
бураеван
бургасан
бургенланд
бургос
бурдур
бурлукан
бурса
бурт
буртан
буряти
бурятии
бурятин
бурятия
буса
бусалба
бускан
бутан
бутана
бутанан
бутт
бутырки
бух
буха
бухар
бухара
бухах
бухахь
буц
бучан
буш
буьи
буьрка
буьрса
бы
быково
было
быть
быхован
бышеван
бышевскии
бюро
бӏаьста
бӏаьстачулклимат
бӏаьсте
бӏаьстен
бӏаьстенан
бӏаьстенна
бӏе
бӏешарахь
бӏешеран
бӏешераш
бӏешерашкахь
бӏешерии
бӏешо
бӏостанехьа
в
ва
вавожан
вагаи
вагӏ
ваи
вала
валар
валдаи
валенси
валкин
валле
валуи
валь
вальядолид
валя
ван
вандеи
вара
варашан
варгашин
варламова
варми
вармия
варнавинан
варнан
вартон
вары
вас
василево
василии
васильевка
васильевкан
васильево
васильевски
васильевское
васильковкан
васильково
васлуи
васьково
ватанабэ
ваха
вахара
вац
вачан
ваша
вашингтон
вашкин
ваьлла
введение
ве
вегетацин
веданан
веза
везиркоьпруьнан
веи
век
века
векал
векалш
велижан
велика
велики
великии
великолукскии
великопольскан
великотырновон
великоустюгскии
велира
велла
веллачул
велли
вельскан
вельскии
вен
вена
венан
венгерован
вене
венеран
венето
венеци
вера
верещагинан
вермонт
версица
верх
верхнедвинскан
верхнедонскан
верхнее
верхнекамскан
верхнетоемскии
верхни
верхние
верхнии
верхняя
верховажьен
верховье
верховьен
верхошижемьен
вершинин
вес
весе
весели
вест
вестник
вестфали
весь
весьегонскан
весьегонскии
веткан
ветлуган
вехара
ви
виана
видинан
виета
византии
визеу
вии
вики
википеди
википедии
википедин
виктор
викулован
вила
вилегодскан
вилегодскии
вилеи
вилен
вилледж
вилча
вильнон
вина
винницан
виноградовскан
вираншехӏирнан
виргини
виргиния
вирджини
висконсин
витгенштеи
витебскан
вице
вичуган
вишеран
вишня
вка
вкан
владивостокскца
владимир
владимиран
владимирехь
владимировка
владимирская
владимирскои
власово
власти
вн
внесении
внутренних
во
вовшахтоьхна
вовшех
вогезаш
вода
воеводаллин
воеводинан
воеводство
воеи
воен
вожеган
вознесенка
вознесенскан
вои
воккха
воклуьз
волавелира
волган
волгоградан
волгоградская
волгоградскои
волжскан
волинан
волково
волковысскан
волновахан
волован
вологдин
вологодская
вологодскии
володарскан
воложинан
волоколамскан
волоколамскии
волоконовкан
волосован
волость
волотан
волоче
волу
волуш
волхован
волчанскан
волчу
волынскан
вольскан
вольф
воля
вон
вопросы
воробье
воронежан
воронежская
воронино
воронован
вороново
воронцово
ворхӏ
воскресенскан
воскресенски
воскресенскии
воскресенское
восток
восточни
восточныи
восход
воткинскан
вохман
воцу
воцуш
вранча
врацан
времени
время
врх
вс
все
всеволожскан
всероссии
всех
вскан
вскии
вское
вторая
второи
ву
вукмировић
вулька
вурнаран
вуьртемберг
вы
выборган
выгоничин
вып
выползово
выселки
высоки
высоково
высокое
высочина
вытегран
вышгородан
вышневолоцкии
вышни
вьенна
вязникин
вязниковскии
вязовка
вязьман
г
га
габровон
гаваи
гаврилов
гавриловкан
гагаринан
гагӏ
гагӏонна
газ
газан
газет
газета
газетан
газиантеп
газипашанан
гаи
гал
галактика
галактикаш
галанчӏожан
галац
галереи
галичан
галл
галла
галлехь
галхо
галхои
ган
гар
гари
гатчинан
гафурии
гаш
гвадалахара
гвардеи
гвардин
гг
ггӏанд
гдован
гдовскии
геи
гена
генара
генахь
геническан
геннаш
генри
генрих
геогр
географи
географии
географин
географические
географическии
географических
географическое
география
геодезии
геологин
георгии
герга
гергара
гергарчу
гергахь
гергга
герггаклимат
гереденан
герельс
герз
германи
германин
гессен
гилл
гиллс
гильфердинг
гильфердинга
гималаи
гипускоа
гиресун
гисэ
гл
главна
глазован
глазуновкан
глебово
глинкан
глубокин
глусскан
глушкован
гминера
го
гован
говзалла
говзаллин
говзанча
говр
год
года
году
гои
гол
голованевскан
головина
головино
голышманован
гольштеи
гомелан
гора
горан
горанбои
гордеевкан
горж
горин
горка
горки
горкин
горловкан
горни
горномарии
горныи
город
города
городецан
городецкии
городище
городов
городок
городокан
городских
городского
городское
городскои
гороховецан
горшечнин
горы
горьковскан
государственное
государственныи
гоьи
гоьксунан
гоьлбашинан
гоьлджуькнан
гоьненан
гоьрдеснан
гояс
градец
градова
градусал
градусе
граждании
гражданска
граи
грам
гранада
гранди
граф
граче
греи
грива
григории
григорово
гридино
грин
гришино
гроднон
грозныи
гросу
гроув
груневельд
грязин
грязовецан
грязовецкии
гуарда
губадлин
губан
губерни
губернии
губкинан
гулам
гуламан
гуламехь
гуламии
гули
гулькевичин
гунаш
гуо
гуон
гуона
гуонан
гуонара
гуонаха
гуонаш
гуонехь
гуп
гура
гурахь
гурин
гурьевскан
гурьевскии
гусаран
гусь
гута
гуттар
гуттара
гуттарен
гуттаренна
гуш
гуьи
гуьлнарнан
гуьмуьшхӏане
гуьмуьшхӏаненан
гуьнеи
гуьржии
гуьрпинарнан
гьи
гэи
гэмпшир
гӏ
гӏа
гӏажарии
гӏазакхии
гӏаи
гӏала
гӏалан
гӏаланаш
гӏалара
гӏалахь
гӏалгӏаи
гӏалин
гӏалмакхои
гӏап
гӏарабевлла
гӏараваьлла
гӏаттам
гӏачо
гӏачун
гӏаш
гӏебартои
гӏезалои
гӏеи
гӏеллоклимат
гӏерташ
гӏеуьньон
гӏеххьа
гӏизларан
гӏии
гӏиргӏазои
гӏирма
гӏирман
гӏирс
гӏирсаш
гӏишло
гӏишлош
гӏо
гӏовс
гӏои
гӏон
гӏона
гӏоролаш
гӏоронаш
гӏоьнца
гӏуллакх
гӏуллакхан
гӏуллакхаш
гӏуллакхехь
гӏуллакхии
гӏуллакххо
гӏуллакххои
гӏум
гӏур
гӏура
гӏурклимат
д
да
даар
давлеканован
давыдово
дагахь
дагестан
дагиров
даи
даиман
даккха
даккхар
даккхарна
даккхии
даккъии
дакота
дакъа
дакъалецира
дакъалоцу
дакъолгаш
дакъош
дала
даладо
далан
далар
далии
далматован
дальни
дан
данаш
данилован
даниловка
даниловскии
данкован
данные
дар
дара
даран
дарбанан
даренденан
дарж
даржан
даржарах
дарже
даржехь
дарна
даровскан
дарра
дарц
дарцклимат
дас
дат
дато
даха
дахар
дахаран
дахарехь
дахо
дахьа
дац
дацара
дацаре
дацахь
дашо
даьккхина
даьккхира
даьлла
даьлча
даьржина
даьтта
даьхна
даьхнии
два
движения
двинан
двор
дворики
дворы
дгӏом
де
дебе
дебеонь
девелинан
деврекан
дег
дегӏаста
дегӏастанан
дедовичин
деза
деи
декабрехь
декабрь
декабря
декадашкахь
декадехь
декадехьклимат
декхар
декхарш
декхъехь
декъа
декъан
декъахо
декъахои
декъашхо
декъашхои
декъе
декъера
декъехь
дел
дела
делавэр
делан
делахь
деле
делевкан
деление
дели
деликлимат
делира
делла
дело
дель
дельберг
деменскан
демидован
демирджинан
демографи
демократин
демянскан
ден
дени
денизли
денна
денои
денош
деношца
день
департамент
департаментан
депутат
депутаташ
дер
дерг
деревня
дерз
дерикнан
дерриг
детин
деха
дехар
дехачу
дехха
дехьа
дехьаи
дечиг
дечиган
деш
деша
дешан
дешар
дешаран
дешии
дешин
дешна
дешнаш
дж
джавахетин
джалал
джан
джанан
джании
джаникнан
джанкои
джаьбраилан
джаьлилабадан
джеи
джексон
джел
джерси
джиденан
джон
джорджи
джули
джуманан
джумхӏурии
джурджу
дзержинскан
дзержинскии
дзонгхаган
дзонгхагехь
дзюдон
ди
диаметр
диаметрехь
дивригӏинан
диекхна
дии
дика
дикачу
дикемернан
дикка
дилла
диллина
димбовица
дин
дина
динамика
динамо
динан
динахь
динг
дира
директор
дирекция
дисина
диснан
дитт
дитташ
диффузи
дишехӏирнан
для
дмитриеван
дмитриевка
дмитриевскии
дмитрии
дмитрован
дмитровка
дмитровскан
дмитровскии
днепран
днепропетровскан
днестровскан
дновскии
днон
дня
до
добринкан
добричин
добрушан
добрянкан
дов
довха
довхачу
дог
догӏан
догӏанан
догӏанаш
догӏдонь
догӏнаш
догӏу
догӏубаи
догӏучу
догӏуш
доза
дозанал
дозанаш
дозане
дозанехь
дои
доккха
доккхаха
доккху
доккхуприродные
доктор
докшицин
докъаран
дол
дола
долалуш
долара
долахь
долгин
долгое
долгорукован
долж
долии
долина
доллар
доллучу
долни
долу
долуш
долчу
дом
дома
домак
домброва
доменаш
домодедован
домодедово
дон
донан
донецкан
доп
дополнении
дор
дора
доровка
доровскии
дорогин
дорогобужан
доттаг
доттагӏаллин
доттагӏии
дохалла
дохаллехь
дохаллин
дохдалар
дохдарна
дохделча
дохк
дохкаллин
доца
доцу
доцург
доцуш
доцца
дош
дошлои
доьдучу
доьзал
доьзалан
доьзалера
доьзалехь
доьзна
доьшии
драматург
древнюю
државен
дрибинан
дрогичинан
дрогобычан
дружба
ду
дубки
дубнан
дубнон
дубовскан
дубовскии
дубрава
дуброва
дубровка
дубровкан
дубровнан
дуброво
дуи
дуккха
дуклимат
дукха
дукхалла
дукхаллии
дукхаллин
дукхах
дукхаха
дукхахдерг
дукхахьа
дукхахьолахь
дукъ
дукъал
дукъан
дукъо
дулкадирогӏлунан
думиничин
дурсунбеи
духар
духовщинан
душетин
дуь
дуьздже
дуьздженан
дуьззина
дуьи
дуьне
дуьнен
дуьнена
дуьненаи
дуьненан
дуьненахь
дуьххьала
дуьххьара
дуьххьарлера
дуьхьал
дуьхьала
дуьхьало
дуьхьалонан
дюртюлин
дятлован
дятькован
дӏа
дӏаи
дӏалецира
дӏалоцу
дӏатесна
дӏатовжар
дӏахилар
дӏахьо
дӏаялар
е
ев
еврази
евреи
европа
европера
европехь
европин
ег
его
егорьевскан
егорьевскии
ед
единыи
ее
ежегодник
еза
езиг
еи
екатерина
екатеринбург
екатеринбургца
екатериновка
екатериновкан
екхна
екъа
екъаи
екъна
ел
елахь
елга
елена
елецан
елизавета
елира
елла
еллачу
ельникин
ельнян
емаш
емельянован
ему
ен
енан
енбекшикхазакхии
енидженан
еникоьи
енисеи
енишехӏирнан
енн
ер
ера
ере
ерзар
ермишан
ерриг
ерригроссии
ерш
ершичин
ершован
если
есть
ет
етничка
етноконфесионални
етта
ефрона
еха
ехира
ехь
еш
ешили
ж
жабинкан
жаи
жамбылан
жамӏ
жамӏашца
жамӏехь
жан
жанеи
жарковскан
же
жегӏ
железногорскан
железногорскии
железнодорожная
железнодорожныи
желтои
жераи
жердевкан
животные
жигара
жигарадевлча
жигаралла
жигӏонда
жижиг
жиздран
жизни
жизнь
жилино
жима
жимачу
жирковскан
жирона
жирятинан
житковичин
житомиран
жлобинан
жмеринкан
жоп
жос
жудецан
жукован
жуковкан
жуково
жуковскии
журавле
журнал
журналист
жуьгтии
жуьгӏа
жӏаи
жӏаран
жӏарахои
з
за
забаи
заболотье
заборье
завод
заводан
заводскои
заволжскан
завьялован
завьяловскии
загорье
задонскан
заечар
заза
заи
заиграеван
заинскан
закарпатьен
закон
законаш
зал
заларин
залегощан
залесье
зальцбург
зама
заманан
заманахь
заманаш
заманашца
заманехь
замошье
зан
заозерье
заокскан
западни
западно
западнодвинскии
заполье
запорожьен
зараи
заран
заречни
заречныи
заречье
заринскан
зарубежным
заря
зарян
захарован
захарово
заьнгиланан
збаражан
збк
зборован
звезда
звезды
звенигован
звенигородкан
зе
зеи
зеле
зелени
зеленовн
зеленоградскан
зеленодольскан
зельван
земо
зерендан
зерноградан
зерноградскии
зза
зианчуран
зиленан
зиман
зимовникин
зира
златибор
злин
злынкан
змиеван
знаменка
знаменскан
знаменскии
знаменское
знач
зовка
зовкан
зовскии
золотоношан
золотухинан
золочеван
зона
зонан
зонашкахь
зонгулдак
зонера
зонехь
зонехьклимат
зонии
зонин
зорба
зубова
зубово
зубцован
зубцовскии
зуда
зударии
зуеван
зуевкан
зуево
зуевскии
зулам
и
ибн
иван
ивано
иванович
ивановка
ивановн
иваново
ивановская
ивановски
ивановскии
ивановское
ивановскои
иваньково
ивацевичин
ивелин
ивриндинан
ивьенан
иглин
игран
игӏдир
ие
из
иза
изаклимат
изд
издание
издательство
изегӏ
изза
измаи
измалкован
изменении
измир
измитан
износкин
ии
ил
илгазан
илгинан
илдизелинан
илдиримнан
илецкан
или
илишан
илкадимнан
илла
иллина
иллинера
иллинои
иллира
иловлян
илфов
иль
ильинка
ильино
ильинскан
ильински
ильинскии
ильинское
им
имам
имени
имеретин
император
императоран
импери
империи
империисторическая
империн
имранлинан
ин
ина
инарла
инарлин
инверсеш
ингалс
ингалсан
ингашан
ингушетии
индекс
индексаш
индиана
индирнан
индрик
инеболунан
инегоьлнан
инжавинан
инзан
инствата
институт
институтан
интервью
интернет
информации
информация
инчу
иоганн
ипеки
ир
ира
иранан
ирбеи
ирбитан
иркутскан
иркутская
иркутскои
иркутскца
ирс
исаклин
исаково
исбаьхьалла
исбаьхьаллин
исбаьхьалча
исилькулан
исина
искитиман
искра
искусство
ислам
исламан
ислахӏии
исмаиллин
испани
испанин
испанхои
испарта
испирнан
исписка
исраилехь
исследования
иссык
ист
истан
истера
истехь
истмала
исторехь
истори
истории
историк
историко
историн
историческая
историческии
историю
история
источники
истран
истринскии
исттехь
итали
италин
итира
итоги
итон
итт
их
ичалкин
иш
иша
ишиман
ишимбаи
ишкол
ишколан
ишколаш
ишколехь
ишта
иштта
ишттачу
иъ
иэдарш
иэс
иэсан
иэшии
июлан
июлехь
июль
июльклимат
июльярославская
июнан
июнехь
июнь
к
ка
кабанскан
кабардино
кавакнан
кавказ
кавказа
кавказан
кавказехь
кад
кадамжаи
кадинхӏанинан
кадоман
кадуи
кадыи
кадыров
казанка
казарма
казахстан
каи
как
калабри
калачан
калачинскан
калдехьара
кале
каледжикнан
калининградан
калининградская
калинино
калининскан
калининскии
калинковичин
калиновка
калитван
калифорни
калманкан
калмыкия
калтасин
калугин
калужская
калужскои
калхьалхара
кальвадос
кальмиускин
кальскан
кальскии
кальского
калязинан
калязинскии
каменец
каменецан
каменецкии
каменка
каменкан
каменныи
каменскан
каменскии
камень
камешкован
кампани
камчаткан
камчаткаца
камышин
кан
канашан
кангалнан
кандидат
кандиранан
канзас
канскан
кантабрия
канталь
кантемировкан
кантон
кантонан
кантонаш
канэда
капитан
кара
карабагӏларнан
карабуьк
карагаи
карагандан
карадениз
караджабеи
караи
караиделан
караисалинан
каракочанан
каракоьпруьнан
караман
караманан
карасаи
карасукан
карасунан
каратаи
карахь
карачаево
карачеван
караш
каргапольен
каргополан
каргопольскии
кардымован
карелин
карелия
каресинан
карии
каринти
карл
карловы
кармаскалин
каролина
карпово
карс
карсан
карскан
карта
картанаш
картасы
карте
картлин
картографии
картография
картол
карьера
касерес
касимован
каспии
каспин
кастамону
кастамонунан
кастельон
касторнан
катаи
каталина
каталог
каталогехь
катарина
категореш
категори
католикии
каховкан
кахӏраманмараш
кацуура
качуган
каш
кашарин
кашарскии
кашинан
кашинскии
каширан
каширскан
кашнан
каштелу
каьдаьбаьи
каьлбаьджаьран
каьхӏтанан
кв
квасников
квемо
кг
кгӏоьз
ке
кегии
кедан
кезан
кеи
келераш
келесин
келкитан
кем
кема
кеман
кеманаш
кемахӏанан
кемеровн
кемеровская
кемеровскои
кентукки
кеп
кепан
кепар
кепара
кепаш
кепезнан
кепехь
кепсутнан
кер
керла
керлачу
керс
керста
керт
кесова
кесовогорскии
кест
кеста
кетован
кехат
кехаташ
кечам
кечи
кешнаш
кешнашкахь
ки
киев
киеван
киевн
кизилджахӏамамнан
кизилтепенан
кизнеран
кии
кикнуран
килемарин
килис
километр
килс
килсан
кильмезан
кима
кимовскан
кимрин
кимрскии
кин
кинан
кингисеппан
кинелан
кинель
кинешман
кино
кинон
кинскии
киразнан
киреевскан
киржачан
кириккале
кирикхӏанан
кириллован
кирилловскии
киришин
киркларели
кировн
кирово
кировоградан
кировскан
кировская
кировскии
кирсанован
киршехӏир
кисловодскехь
китаи
китами
китт
кичменгски
кишертан
ккал
кладр
клаи
класс
классан
классик
классикан
классификаци
клеи
клепикин
клетнян
клеть
клецкан
климат
климатан
климататан
климатера
климатические
климаткхолларан
климатна
климато
климован
климовичин
климово
клин
клинан
клинскии
клинцин
кличевн
клуб
клубан
клубаш
клубехь
клуж
ключ
ключи
клявлинан
км
кминскан
кн
книга
книги
книжное
ко
кобаяси
кобринан
ков
кован
кованджиларан
ковасна
ковелан
ковернинан
ковн
ково
коврован
ковскан
ковскии
ковылкинан
ког
когаш
кого
когӏгӏез
код
коджасинанан
коджаэли
коды
кожуун
кожуунан
козанан
козелецан
козельскан
козенца
козловка
козлово
кои
коимбра
кологриван
колодезь
коломенскии
коломин
коломнан
колони
колорадо
колпнан
колубара
колыванан
колышлеи
кольски
кольчугинан
ком
команда
командан
командехь
командин
командо
комаричин
комаровка
комарово
коми
комии
комитет
комитета
комитетан
коммуна
коммунан
коммунаш
коммунера
коммунистии
комо
комплекс
композитор
комсомольскан
комсомольскии
кому
конакнан
конакован
конаковскии
конвекцин
конвекцина
кондопоган
конец
кони
коннектикут
конотопан
коношан
коношскии
константинован
константиновка
констанца
конституци
конституцин
конте
континенталалла
континенталан
континенталла
континенталлии
континентан
контракт
конференција
коныше
координаташ
копан
копылан
кораблинан
кордова
кордон
кореи
кореличин
кореневан
коркутелинан
корлевич
корман
коровино
коростенан
корочан
корсакован
корсика
корта
корунья
корюковкан
косан
космосан
костанаи
костино
костромин
костромская
костромскои
костюковичин
кот
котельничан
котласан
котласскии
котлякова
котово
кочарлинан
коче
кочене
кошеле
кошкинан
коьи
коьллаш
коьрта
коьртан
коьртаниг
коьртачу
коьрте
коьртехь
крае
краи
кралове
краматорскан
красная
красни
краснин
красноармеи
красноборскан
красноборскии
красновишерскан
красногвардеи
красногородскан
красногорскан
красногорскии
краснодаран
краснодарскии
краснодарского
красное
краснозе
краснознаменскан
краснокамскан
краснопольен
красносельскан
краснослободскан
красносулинскии
краснохолмскии
краснояран
красноярскан
красноярскии
красноярскца
красные
красныи
кратер
кратеран
кратераш
кратерш
края
кременецан
кременчуган
крестцин
кривои
крик
кричеван
кромин
кропивницкан
круглин
крупкин
крус
крутец
крутинкан
крутои
крым
крымскан
крюково
кстован
кубинскан
кубок
кувандыкан
кувшинован
кугарчин
куда
кудымкаран
куедан
куженеран
кузнецкан
кузнецова
кузнецово
кузоватован
кузьмино
куи
кукморан
кулан
кулпнан
культура
культурашнаклимат
культурин
культуры
куме
кумылженскан
кунашакан
кунгуран
кунео
куньян
купинан
купянскан
курагинан
курган
курганан
курганская
курганскии
курганскои
куркинан
курорт
курс
курскан
курская
курскии
курскои
куртамышан
курчалои
курчатован
кусиро
кутан
кухни
куц
кушнаренкован
куще
куьг
куьи
куьтахӏи
куьтахӏинан
куэнка
куюргазин
куявско
кх
кха
кхаа
кхааннах
кхаж
кхазакхаш
кхазакхстан
кхазакхстанан
кхазакхстанехула
кхаи
кхаман
кхарачои
кхача
кхачаи
кхачале
кхачар
кхачарна
кхачаро
кхаччалц
кхаьллан
кхаьчна
кхел
кхелли
кхелхина
кхелхира
кхерам
кхераме
кхета
кхетадо
кхетам
кхетар
кхеташ
кхеташо
кхеташон
кхеташонан
кхетта
кхечарех
кхечира
кхечу
кхиамаш
кхиар
кхиаран
кхии
кхиина
кхин
кхиоран
кхира
кхо
кхоалгӏа
кховдии
кхозлагӏчу
кхои
кхолла
кхолладелла
кхоллаелла
кхоллаи
кхоллало
кхоллалучу
кхоллам
кхолламан
кхолламаш
кхоллар
кхолларан
кхоллархо
кхоллаяларан
кхоллаяларна
кхочу
кхочучу
кхочуш
кхочушдаран
кхоччуш
кхоъ
кхоьллина
кхоьллинчу
кхоьллинчул
кхоьллира
кхоьчу
кху
кхуза
кхузара
кхузахь
кхузза
кхуллу
кхуллуш
кхуьи
кхуьлина
кхуьу
къаи
къам
къамел
къастало
къастош
къаьмнаш
къаьмнии
къаьста
къаьстачу
къаьсташ
къаьстина
къба
къевлина
къегина
къекъарца
къекъаш
къии
къилба
къилбан
къилбаседа
къилбаседан
къилбаседера
къилбаседехь
къилбаседехьа
къилбаседехьара
къилбехахь
къилбехь
къилбехьа
къилбехьара
къилбседа
къинхьегаман
към
къобал
къовсам
къовсамехь
къоларг
къома
къоман
къона
къора
къуръан
кызыл
кызылордан
кырджалин
кыштовкан
кэролин
кюстендилан
књига
кӏажахь
кӏаи
кӏант
кӏахетин
кӏеда
кӏеззиг
кӏезиг
кӏела
кӏелахь
кӏентан
кӏиранбуса
кӏоргенехь
кӏотар
кӏошт
кӏоштан
кӏоштара
кӏоштаркашчуннии
кӏоштахь
кӏошташ
кӏошташкара
кӏошташкарчуннии
кӏошташкахь
кӏошташкахьчул
кӏошташкахьчулклимат
кӏоште
л
ла
лаамца
лабелира
лабинскан
лаг
лагӏи
ладаме
ладикнан
лазон
лаи
лаклимат
лакха
лакхара
лакхарчу
лакхахь
лаллин
лало
лам
ламанан
лан
лана
ланаш
ланд
ландаш
ландехан
ландшафтии
лаптева
лар
лара
лараран
ларарца
лари
лас
лась
лат
латаран
латархо
латархои
латинан
латта
латталелоран
латтан
латтана
латтанаш
латтано
латтар
латтарех
латтаро
латташ
латто
лауреат
лах
лаха
лахара
лахарчу
лахахь
лахденпохьян
лахь
лаца
лацар
лацио
лачинан
лачу
лаш
лаьмнаш
лаьмнашкахь
лаьмнии
лаьнкаьранан
лаьтта
лаьттаи
лаьттаклимат
лаьттан
лаьттара
лаьттачу
лаьтташ
лаьттина
лаьттира
лаьцна
лађевић
лгота
лдм
ле
лебедева
лебедянан
лебушании
лебяжье
лебяжьен
лев
левзина
левзира
левитаци
лежневан
лез
леи
лекха
лела
леладо
лелаи
лелар
лелаш
лелии
лело
лелор
лелоран
лелош
лельчицин
ленан
ленд
ленин
ленина
ленинан
ленинградан
ленинградская
ленинградскои
ленинск
ленинскан
ленинскии
ленскан
леон
лепар
лепаран
лепелан
лер
лерикан
лерина
леррана
леррина
лес
лесничество
лесное
леснои
лет
лецира
лечхуми
лешуконскан
ли
либерец
ливнин
лига
лигехь
лигин
лигури
лидан
лидженан
лии
лимузен
лин
лина
линан
линия
лиознан
липецкан
липецкая
липецкои
липовка
лира
лиси
лискинан
лиссабон
лись
литван
литература
литературин
литературы
лихославлан
лихославльскии
лки
лкован
ло
лов
лован
ловечин
ловза
ловзар
ловзаран
ловзарехь
ловзарии
ловзархо
ловзархои
ловзарш
ловзаршкахь
ловзаш
ловзии
ловзу
ловзуш
ловка
ловкан
лово
ловски
ловскии
ловское
лог
логои
лодеи
лодзинскан
лозегӏ
лозовин
лои
лок
локалној
локнян
локхалла
лом
ломан
ломбарди
ломоносова
ломоносован
лон
лопатино
лор
лора
лорин
лору
лорура
лоруш
лос
лотошинан
лотошинскии
лоттуьи
лоцу
лоьмар
лся
лу
луагӏ
луагӏа
луагӏан
луагӏе
лубнин
луг
луган
луганскан
лужки
лузан
луи
луизиана
луизина
лука
лукин
лукино
лукоянован
луларчу
лунинецан
луны
луон
лури
лууш
лухан
луховицин
луцкан
луш
луьлнан
луьра
луьсталла
лыи
лыскован
ль
львован
льгован
льеи
любанан
любиман
любимскии
любинскан
люблинан
любытинан
любытинскии
людинован
лямбиран
ляховичин
м
ма
магаданца
магии
магнитан
магнитии
магӏи
магӏитим
магӏн
магӏна
магӏтен
мадеи
мадрид
маж
мазалкан
мазидагӏинан
мазин
мазовин
мазурин
маи
макан
макарово
макарьеван
македонин
македонија
макнот
макова
макс
максатихан
максатихинскии
максимовка
максимум
максимуман
максимумашна
макстат
мактааралан
мала
малага
малазгиртан
малати
малахово
малая
мале
мали
малии
малиновка
малкаранан
малмыжан
малоархангельскан
малое
малопольскан
малоританан
малоярославецан
малх
малхбале
малхбален
малхбалера
малхбалехь
малхбалехьа
малхбалехьара
малхбера
малхбуза
малхбузан
малхбузанклимат
малхбузе
малхбузен
малхбузера
малхбузехь
малхбузехьа
малхбузехьара
малые
малыи
мамадышан
мамакнан
ман
манавгатнан
манан
мананан
мангалан
мангистаунан
мани
маниса
манов
манпашанан
мансии
мантурован
манш
марамуреш
мараньян
мардин
маре
мари
марии
мариинскан
мариински
мария
марка
марке
марково
маркс
марксан
маркхалаш
мармаран
марнеулин
марсан
март
марта
мартан
мартанан
мартвилин
мартехь
мартиника
мартыновкан
мархаш
мархии
маршах
маршо
марьевка
марьино
мас
масала
масалла
масаллин
масех
масии
маслово
массанхьа
массачусетс
массаш
массаша
массашна
массашца
массех
массии
массо
мат
матвеев
матвеевка
матвеево
математикин
материалы
материк
материкан
маттахь
мату
матч
матчехь
маунт
мах
махка
махкара
махкахь
мациев
мачва
мачканан
машан
машар
машаран
машина
маь
маьждиг
маьлхан
маьрша
маьӏна
мая
маяк
мај
мб
мглинан
мдж
ме
мега
мегар
мед
медведеван
медведево
медвежьегорскан
медвенкан
медицинан
медынан
межан
междуреченскан
меже
меженаш
мезенан
меи
мекленбург
мексико
мел
мелекесскан
меленкин
мелеузан
меликгазинан
мелитополан
мелхан
мельница
мен
менеменан
ментешенан
меня
мерамнан
меркурии
мерсин
меса
месаш
мессьен
мест
местин
местного
место
месудии
метах
метеорологин
метр
метргорода
метро
метта
меттан
меттана
меттанаш
меттанашкахь
меттании
меттахӏоттии
меттехь
меттиг
меттиган
меттигаш
меттигашкахь
меттигера
меттигерчу
меттигехь
меттигии
меттиго
мехала
механизм
мехаш
мехашклимат
мехашца
мехединць
мехкан
мехкаш
мехкашкахь
мехкдаьттан
мехкии
мехца
мещовскан
ми
мидал
мидалш
миди
микрокӏошт
микрокӏошташ
милан
миласнан
миллерован
миллеровскии
миллион
милославскан
мин
минас
мини
минимум
министр
министран
миннесота
минот
минскан
миорин
мир
мира
миргородан
мирни
мирныи
миссисипи
миссури
митино
михаи
михаил
михалево
михӏаличчикнан
мичиган
мичуринскан
мишкин
мишкинан
миякин
мкинан
млн
млрд
мм
мн
мне
мог
могиле
могилев
могӏа
могӏам
могӏбиан
модуль
можа
можаи
можган
мозаик
мозель
мозыран
мои
мокшанан
молдавин
молдова
молизе
молоде
молодечнан
молокован
молоковскии
мон
монастырщинан
монголера
монголи
монтана
монтанан
морави
моравич
моравия
моргаушин
мордован
мордовин
мордовия
моркин
морозово
морозовскан
моршанскан
мосальскан
моск
москаленкин
москва
москваца
московская
московскии
московскои
москох
москохан
москохахь
москохца
мост
мостаг
мостагӏии
мостинан
мотт
мох
мохе
мохк
мохь
мошенскан
мошенскои
мошкован
моьгӏт
моьз
мркос
мс
мск
мстиславлан
мтианетин
мугӏла
музеи
музыка
музыкин
мукачеван
мукъа
муниципалан
муниципалитет
муниципалитетан
муниципалитетанпортугалия
муниципалитеташ
муниципалитетлары
муниципального
муниципальное
муниципальныи
муниципальных
мур
муратпашанан
муреш
мурманскан
муроман
муромцеван
муса
муссоналлин
муссонан
муссонии
мустафакемалпашан
мутнан
муха
муххале
мухьаммад
муш
мушнан
муьлхха
муьлххачу
муьран
муьрашкахь
муьрехь
мценскан
мценскии
мцхета
мы
мыс
мытищин
мышкинан
мэн
мэриленд
мяделан
мякотин
н
на
наварра
навигацин
навлян
наволок
нагаи
нагахь
наггахь
нагорскан
над
надежда
нажи
назарован
названии
названия
назиллинан
называевскан
наи
наллихӏанан
налоган
нальчик
нан
нана
нанкин
наокеанан
напр
нарг
нареч
наро
народная
нартол
нарынан
населе
население
населението
населения
населенных
насељима
наслег
настоящ
наташ
нати
натии
наук
наука
наукам
науки
научнои
нах
наха
нахана
нахь
национална
национальное
национальнои
национальныи
начу
наш
наюити
ная
не
небраска
невелан
невскан
невшехӏир
него
нежинан
неи
неклиновскан
неклиновскии
некоузан
некоузскии
некрасово
некрасовскан
некрасовскии
некъ
некъан
некъаш
некъашна
некъе
некъии
нелидован
нем
неманан
немирован
немцои
ненан
ненцои
неопр
нера
нерехтан
несветаи
несвижан
несеуд
несов
нестерован
нет
нехаевскан
нехан
неян
ни
нива
нигӏде
нижегородская
нижегородскои
нижнедевицкан
нижнее
нижнесилезин
нижнеудинскан
нижни
нижние
нижнии
нижняя
низам
низипнан
нии
ник
никитино
никифоров
никифоровкан
никола
николаевка
николаевкан
николаевн
николаевскан
николаевскии
николаи
николо
никольскан
никольски
никольскии
никольское
никополан
никсаран
никулино
нилуьфернан
нин
ниси
нисло
нисса
ницкъ
ницкъаш
ницкъии
ницца
ниш
нка
нки
нкин
нланд
нмут
нна
нныи
нных
но
нобелин
нов
нова
нован
новая
новгород
новгородан
новгородская
новгородскои
нове
нови
новии
новинка
новинки
новка
новкъа
новкъахь
ново
новоалександровка
новоаннинскан
новоград
новогрудокан
новодеревеньковскан
новодугинан
новое
новозыбкован
новокубанскан
новокузнецкан
новомихаи
новомосковскан
новониколаевка
новониколаевскан
новоржеван
новоржевскии
новороссии
новосе
новоселки
новосергиевкан
новосибирскан
новосибирская
новосибирскои
новосилан
новосокольникин
новоузенскан
новоукраинкан
новохопе
новскии
новское
новые
новыи
ногинскан
ногӏ
ногӏии
ногӏманди
ное
нои
нок
нолинскан
ноль
ноокат
нормера
норт
норти
нохч
нохчии
ноябран
ноябрендә
ноябрера
ноябрехь
ноябрь
нс
нскии
нт
нурлатан
нусаи
нуьи
нш
ны
ныи
нытван
ньевгӏ
нью
нюксеницан
нямц
няндоман
няндомскии
о
об
обзор
областаан
областан
областана
областаш
областашца
областе
областера
областехь
области
область
обоянан
образование
образовании
образования
обсерваторехь
обслужване
обсуждение
обухован
обухово
общ
общественным
общин
общини
объект
объектан
объекташ
объектии
объем
ов
ова
оваджикан
овегӏнь
овл
овлу
овлуш
овлуьи
овха
овхачу
овхо
овхонан
овхонаш
овхонашклимат
овхонашца
ог
огаи
огаре
огиз
огӏ
огӏа
огӏлунан
огӏн
огӏу
огӏуактуална
огӏузелинан
огӏуш
од
одессан
одинцовон
одинцовскии
одоеван
одунпазаринан
ое
оза
озан
озгат
озгатан
озе
озерки
озеро
озургетин
ои
оидзуми
ок
окан
окато
океан
океанан
океанашна
океане
океанера
океании
оккха
оккхачу
оккху
оккхуш
оклахома
округ
округов
окситани
октябран
октябрехь
октябрь
октябрьскан
октябрьски
октябрьскии
октябрьское
октября
октябряхь
окуловкан
окъалла
окъаллаш
окъаллин
ол
олаелира
олаелла
олаи
олан
оле
оленинан
оленинскии
олии
олимпии
оломоуц
олонецан
олт
олтунан
олу
олунан
олура
олучу
олуш
олхазар
олхазарш
олчу
ольховаткан
ольховка
ольшанка
ом
омар
омарца
оминг
омкан
омскан
омская
омскои
омскца
он
она
онда
онеган
они
оникишубатнан
онкарахӏисар
онна
онов
операци
ополен
опочкан
оптикан
општина
ор
ора
орам
орамат
ораматаш
ораматии
орбиташна
орга
орган
органан
организација
оргеи
ордан
орден
орденан
орду
оре
орегон
оренбурган
оренбургская
оренбургскои
оренсе
орехово
оричин
орк
орлован
орловка
орлово
орловскан
орловская
орловскии
орловскои
орографин
ортакоьи
ортахӏисарнан
орхӏанелинан
оршанан
оршанкан
осан
осетия
осиновка
осиповичин
осколан
османгазинан
османии
осташкован
осташковскии
остров
острован
островецан
островскан
островскии
острогожскан
от
отар
отв
отделение
отделения
отдыха
отраднин
отта
отто
оук
официалан
официальныи
офнан
оханнесбург
оханскан
охии
охк
охло
оху
охъярна
охьа
охьадогӏу
охьатаьӏна
оца
оценка
оцу
оцун
оцург
оцучу
оцуш
оцуьна
оццу
очанаш
очании
оче
очерк
очко
ошан
ошмянин
оштан
оьгу
оьдемишнан
оьду
оьзалпнан
оьздангалла
оьздангаллин
оьзна
оьрза
оьрс
оьрсаша
оьрсии
оьху
оьшу
оьшуш
оӏ
п
па
павел
пави
павинан
павлован
павловка
павлово
павловскан
павловскии
павловское
павлоградан
павлодаран
пазарджикан
пазарджикнан
пазари
пазаринан
паи
паленсия
палехан
палкинан
палласовкан
паломар
памятник
пан
пана
панан
панаш
пании
панинан
панчу
пара
параиба
парана
параньган
паргӏат
паргӏата
паргӏато
пардубице
париж
парк
парламентан
парти
партии
партин
парфеньеван
парфинан
пасинлернан
патносан
паулу
пауль
пахарь
пачхьалкх
пачхьалкхан
пачхьалкхаш
пачхьалкхашкахь
пачхьалкхии
паччахь
паччахьалла
паччахьаллин
паччахьан
пгӏованс
пгӏовансан
пе
пеи
пекуляран
пен
пензенская
пензенскои
пензин
пенон
пенсильвани
пер
первая
перви
первое
первомаи
первыи
перевод
переволоцкан
перед
перемышлан
перен
переписи
перепись
переславлан
переславскии
периода
пермии
пермскии
пермского
пернамбуку
перникан
перфектурехь
першембенан
пески
пестован
пестово
пестрецин
пестякин
песчанка
петарбух
петарбухан
петербург
петриковн
петрова
петровка
петрово
петровскан
петровски
петровскии
петровское
петропавловка
петушкин
печатня
печорин
печорскии
пи
пиауи
пигӏенеи
пижанкан
пии
пик
пикагӏди
пильнан
пинарбашинан
пинеган
пинскан
пирогово
пирот
пителинан
пичаеван
пко
пкс
плавскан
план
плевенан
плеи
плесецкан
плесецкии
пло
пловдиван
пльзень
плюссан
по
победа
поветан
погаран
погоде
погорелка
погост
под
податоци
подаци
подгоренскан
подгорни
поддорьен
подкарпатан
подлясьен
подольскан
подосиновецан
подпорожьен
пои
покровка
покровскан
покровски
покровскии
покровское
пол
полатлинан
поле
полен
полесскан
политика
политикаш
политикин
политическои
полкан
пологин
положение
полоцкан
полтаван
полтавкан
поль
польскан
польша
польше
польшетерриториальное
польшин
полюсан
полякии
поляна
полянан
полянского
поляны
поляран
померани
поморав
поморскан
пономаре
понырин
попис
поповка
попово
поречье
порт
порталегри
порталы
порту
португалин
португалия
порхован
порховскии
посадан
посадскии
посе
поселение
поселении
поселения
после
пособие
поспелов
пост
поставин
постоянен
постоянного
похвистневан
почепан
починкин
починок
починокан
пошехонскии
пошехоньен
поштан
поэт
правда
правдинскан
правительство
правительствон
прахова
преглед
председателан
председатель
президент
президента
президентан
президиуман
премьер
пресс
префектуран
при
приволжскан
пригородни
прие
приложение
прилукин
приморскан
приморскии
приморско
приморьен
приозерскан
прионежьен
припадност
пристенан
проблемы
провинцехь
провинци
провинцин
программа
прогресс
проект
проекты
прокопьевскан
пролетарскии
промышленнин
промышленностан
пронскан
проспект
прост
против
профессионалан
профессор
профиль
прохоров
прохоровкан
процесс
процессаш
процессаша
прудин
прудки
пруды
пружанин
пряжан
пскован
псковская
пуату
пугаче
пудожан
пункт
пунктов
пункты
пурган
пустошка
пустошкан
пустошкинскии
путь
путятинан
пуховичин
пучежан
пушкинан
пушкино
пушкински
пушкинскии
пуьи
пуьтуьргенан
пфальц
пхеа
пхи
пхиъ
пчинья
пыталован
пьемонт
р
ра
раболунан
работа
работы
рабочии
радиации
радиацин
радиацино
раж
развития
разг
разградан
раздельнин
раздолье
разн
разъезд
раи
ракитнин
ракх
ракхан
раменскан
раменскии
раменье
рамешкин
рамешковскии
рамичан
рамонан
ран
рана
рандин
расина
рассвет
рассказован
растения
рахан
рача
рачу
раш
рашка
ре
реал
реаль
ребе
революци
революцин
регион
регионан
регионанпичета
регионаш
регионашка
регионера
регионехь
регистрация
ред
редактор
реджо
режиссе
реза
реи
рекорд
рекреацин
рельеф
рельефан
рен
ренан
ренаш
рении
република
републици
републички
репье
республика
республикашкахь
республикехь
республики
республикин
рефахӏии
реформы
рецензенты
речицан
речка
решадии
ржаксан
ржеван
ржевскии
ри
ривер
риг
ридж
ризе
рии
риман
рин
рио
риохи
рипол
риу
рия
рная
рнген
рни
рное
рныи
ро
роберт
ровенькин
ровнан
рог
роган
рогатинан
рогаче
рогнединан
рогӏера
рогӏехь
род
родионово
родники
родникин
роза
рои
рок
роль
роман
романовка
романово
романья
ромнин
ромоданован
рославлан
россехь
росси
россии
россия
россонинан
россошан
ростов
ростовн
ростовская
ростовскои
роща
рскан
рскии
рсфср
ртищеван
ру
рубежом
рубцовскан
рудня
руднян
рузаевкан
рузан
рузманца
рузскии
руки
рум
руман
румынин
рус
русен
руслан
руссан
русская
русски
русские
русскии
русско
ручеи
рф
рхои
рыбинскан
рыбинскии
рыбни
рыбнин
рыльскан
ряжскан
рязанан
рязанехьчул
рязанская
рязанскои
рӏа
с
са
сабин
сабирабадан
саваштепенан
савез
савинан
савино
сагӏта
садаӏаран
садови
садовыи
саи
саид
сакари
саксони
саламанка
салерно
салихӏлинан
салтии
сальскан
самарин
самарская
самарскои
самаш
самборан
самегрело
самои
самора
самоуправи
самоуправление
самоуправления
самсун
самцхе
сан
саналган
санашца
сандован
санкт
санна
санта
сантарен
санту
санчурскан
сапожокан
сарагоса
сараи
сараин
саракташан
сарапулан
саратовн
саратовская
саратовскои
сардини
сарии
сарикаи
саричамнан
саркисов
саркисова
сарманован
сарнин
сарухӏанлинан
сархои
сасован
сато
сату
саут
сафонован
сахалинан
сахалинская
сахалинскои
сахьт
сахьтан
сахьтана
сахьташкахь
сахьтехь
сахьтии
сацадо
сацам
сацамца
сации
саӏудии
сборник
сванети
сведения
свентокшискан
свердловн
свердловскан
свердловская
свет
светли
светлогорскан
светлыи
свечан
свислочан
свобода
свои
сделать
се
сеара
себе
себежан
себя
севваь
севгӏ
северин
северная
севернин
северныи
северо
северскан
севилья
севскан
сеговия
седа
седарчашкахь
седарчашна
седарчех
седарчии
седин
сеи
секретарь
селаж
селе
селиванован
селижарован
селижаровскии
селище
село
селтин
селчуклунан
сельскии
сельских
сельского
сельское
сельсовет
сельцо
сема
семано
семе
семеи
семеновка
семеновски
семилукин
сен
сена
сенаторов
сенаторова
сеннан
сент
сентер
сентябран
сентябрера
сентябрехь
сентябрь
серафимовичан
сербин
сербия
сергеевка
сергеи
сергиев
сергиево
сергиевскан
серебряно
середина
сержипи
сери
серикнан
серия
серло
серлонан
сернуран
серпухован
серпуховскии
серышеван
сетубал
сехьа
си
сибиу
сибрехан
сибрехара
сиван
сивас
сивасан
сиверекнан
сиврихӏисарнан
сидорово
сизал
сии
сиирт
силванан
силезин
силезия
силистран
силифкенан
силья
симаван
симеиз
симидзу
син
сина
синджанан
синдиргинан
синельникован
синлун
синоп
сипатех
сипташ
сипташца
сиптии
сирла
система
системан
системехь
сити
сих
сиха
сихха
сицили
ск
ска
скадовскан
сказ
скан
ская
ски
скии
ского
ское
скои
ском
скопинан
славгородан
славскан
сланцин
сливенан
сливкера
слобода
слободан
слободка
слободскои
слова
словакин
словареи
словари
словарь
словении
словенин
словения
слово
слониман
службы
слуцкан
см
смирнова
смолевичин
смоленскан
смоленская
смоленскои
смолянан
сморгонан
смреспублика
со
собинкан
собир
собрание
сов
совгӏат
совгӏатан
совгӏаташ
совгӏатхо
совгӏатхои
совет
совета
советан
советии
советскан
советская
советски
советскии
современных
совхоз
совхоза
соединенные
сои
соколан
соколовка
соколово
сокольскан
сокольскии
сокорро
солдатскан
солигаличан
солигорскан
соликамскан
солнечногорскан
солнечногорскии
солнцеван
соловье
соль
сольцин
сом
соманан
сомма
сон
сона
сонкован
сонковскии
соргунан
сория
сорокин
сорокино
соскован
соснован
сосновка
сосновкан
сосновскан
сосновскии
сост
составители
софин
социалан
социалистии
сочехьчул
сочин
сочинении
соькенан
соьлжа
соьлжан
союз
союзан
спартак
спас
спасскан
спасскии
спасское
спб
спектран
спектрашкахь
спирован
список
спорт
спортан
спортхои
справочник
справочников
спринг
спрингс
србије
србији
србију
среднерусски
средни
среднии
средняя
сскп
сср
ссрс
ссср
ст
ставрополан
ставрополехь
ставропольскии
ставропольского
стаг
стадион
стална
станица
становин
становите
становника
становништво
станци
станции
станция
стара
старая
старе
стари
старии
старицан
старицкии
старо
старобельскан
стародубан
старое
старожилован
старозагоран
старорусскии
старост
староюрьеван
старые
старыи
стат
статеи
статистика
статистике
статистики
статистикин
статистику
статистическии
статус
стать
статьи
статья
стве
ствие
ство
ствоэнциклопедия
стеган
степановка
степнои
стереотип
стерлибашеван
стерлитамакан
стигал
столбцин
столинан
стомма
стоьмаш
стоьмии
стр
стран
странам
страница
страны
стрии
струги
структура
студентии
ступинан
ступино
ступинскии
су
суворован
суд
суджан
судиславан
судогдан
сузакан
суздалан
суземкан
суксунан
сул
сулеи
сулинан
султан
сумин
сумон
суна
сунан
сунгурлунан
суражан
сурнан
сурсаташ
сурскан
сурт
суручнан
сус
сусанинан
сусурлукнан
суун
сухая
сухиничин
сухои
сучава
сущ
суьгӏ
суьдан
суьи
суьлеи
суьрташ
схьа
схьадаьлла
схьаи
схьакхачарна
сызранан
сысолан
сыче
сьюдад
сэи
сэки
сюмсин
сюникан
ся
сямжан
т
та
таблица
тавдан
таврическан
тавшанлинан
тагӏн
таи
так
также
таласан
талдоман
талдомскии
талицан
талламан
талламаш
талован
там
тамбовн
тамбовская
тамбовскои
тан
танасковић
тар
таран
тарасовка
тарасово
тарасовскан
тарасовскии
тарбагатаи
тардолуьи
тарло
тарногскан
таро
таррагана
тарсуснан
тарусан
тархьама
таса
татарскан
татарстан
татистикин
татищеван
татол
татышлин
таутенбург
тахана
таханлера
тацинскан
таш
ташкоьпруьнан
таштаголан
таьртаьран
таьӏна
тбилисскан
тверан
тверская
тверскои
те
театр
театран
теи
текирдагӏ
теккекоьи
текст
телеорман
телескопан
темникован
температура
температуран
температураш
температурашца
теннесси
теори
тепебашинан
тера
терахь
тербунин
терго
терджанан
терк
теркан
терменан
термин
терновкан
тернополан
терр
терра
территориальное
территориальном
теруэль
тетри
тетюшин
тех
техас
техка
техника
техникин
теша
тешалла
тешаме
тж
ти
тианетин
тиблиси
тидам
тии
тиллина
тиллира
тиман
тимаше
тимиш
тина
типа
тира
тираж
тиренан
тироль
титово
титул
тихвинан
тихорецкан
ткъа
то
тоба
тобан
тобанан
тобанаш
тобольскан
тован
товузан
тогучинан
тогӏенаш
тогӏенехь
тои
токантис
токаре
токат
токатан
толам
толамхо
толедо
толочинан
толстои
только
том
томарзанан
томас
томах
томскан
томская
томскои
тон
тонкинан
тонн
тоншаеван
топ
топкин
топлич
топонимическии
топонимия
торбалинан
торбееван
торжокан
торжокскии
торопецан
торопецкии
торосларнан
тортумнан
торъялан
тоскана
тоснан
тотьман
тоха
тохар
тоцкан
тоьлла
тоьпаш
тоьуш
тоьуши
тоьхна
тр
трабзон
транспорт
тре
тренер
тренеран
тренераш
трентино
тренто
три
троицкан
троицки
троицкии
троицкое
тропикан
тропикера
троснан
трубчевскан
труд
тс
тся
тт
тта
ттаза
ту
туапсен
туван
тужан
тузлуджанан
туи
тукаевн
тула
тулгӏенаш
тулин
тулунан
тулча
тульская
тульскои
тульчинан
тунан
тунджели
тур
тура
турекан
турин
туркестанан
туркин
туркои
турку
турниран
турпал
турпалхо
турс
турсло
туруои
тутаевн
тутаевскии
тутакан
тутуков
туху
тухуш
туш
тушбанан
туьи
туьллуьи
туьринген
туьркии
тхо
ты
тырговиштен
ть
тюкалинскан
тюменан
тюменская
тӏаи
тӏаккха
тӏамехь
тӏаналлии
тӏаьххьара
тӏаьххьарчу
тӏаьхь
тӏаьхьа
тӏаьхьара
тӏаьхьарчу
тӏаьхье
тӏе
тӏегӏа
тӏегӏанан
тӏеда
тӏеии
тӏекхаччалц
тӏекхета
тӏекхочуш
тӏелатар
тӏеман
тӏемаш
тӏемлои
тӏера
тӏетаьӏӏа
тӏех
тӏехула
тӏехулаклимат
тӏехулара
тӏехуларчу
тӏехулонан
тӏехулоне
тӏехь
тӏехьа
тӏехьара
тӏехьчулла
тӏеэцна
тӏиера
тӏом
тӏуналла
тӏуьна
у
уаз
уаза
уван
уварован
уггар
уггаре
угличан
угличскии
угол
угран
удмурташ
удмуртии
удмуртин
удмуртия
удомельскии
удомлян
уезд
уефа
ужуран
узгенан
уздан
узловин
уи
уккхии
уккъера
украина
украинаш
украинехь
украинин
украины
укъа
укъаи
укъара
укъаралла
укъараллера
укъараллерасписок
укъараллин
укъахь
уланан
уллакх
уллера
уллехь
уллорчу
уллохула
уллохь
улус
улусан
ульянован
ульяновка
ульяновскан
ульяновская
ульяновскии
ума
уманан
уманаш
умар
умбри
уме
ун
унечан
университет
университета
университетан
университетехь
унин
унусемренан
упознајте
упоредни
упорован
ур
урал
уралан
уралдехьех
урало
урам
урата
уренан
уржуман
урицкан
урожаи
урт
уртан
уртнан
уругваи
урхалла
урхаллин
урюпинскан
усвятин
условия
усманан
усольен
успенка
уссурии
уст
устецк
устрои
усть
устье
устьян
устьянскии
устюган
устюжнан
уфа
уфан
уха
ухаи
ухатуху
ухолован
учалин
участок
уче
учебное
уш
ушак
ушакан
ушаково
ушачин
уьбии
уьи
уьк
уьни
уьрегӏирнан
уьртан
уьш
уьшклимат
уэда
уэльва
уэска
ф
фаи
фактор
фактории
фактория
факторш
факультет
фале
фалештин
фамили
фару
фатежан
фатежскии
фатсанан
фгӏанс
фгӏанш
фе
фебруар
февралан
февралехь
февраль
федералан
федеральнои
федерации
федерацин
федоровка
федоровкан
феи
феодализма
ферзикован
физика
физикин
философ
философии
философин
фильм
фильмаш
финансии
финистегӏ
финляндехь
фирован
фк
флорида
фоминскан
фоминскии
фон
форарльберг
формате
форт
фотографическии
фрагезеш
франк
франковскан
франц
францехь
франци
францин
французии
фрегезеш
фрегезиобщественные
фридрих
фриули
фролован
фс
фурманован
футбол
футболан
футболех
футболист
футболисташ
фуьзулин
х
ха
хаа
хаало
хаалуш
хаам
хаамаш
хаамашца
хаамии
хабаровскан
хабаровскии
хабаровского
хаван
хадии
хаза
хаи
хаии
хакаси
хакасин
хакасия
хала
халеакала
халкъан
халкъашна
хамар
хамаран
хан
ханна
ханты
харагаулин
харгита
харовскан
харц
харш
харькован
хаси
хасковон
хастоьмаш
хатӏ
хаутен
хачмазан
хашурин
хаъал
хаьа
хаьржина
хаьржира
хаэн
хвастовичин
хвои
хелин
хелхар
хеман
хенал
хенан
хенахь
хенаца
херсонан
хета
хетарехь
хи
хии
хикхоче
хила
хиламаш
хилар
хиларан
хиларклимат
хиларна
хиларо
хиларх
хиларца
хилии
хилира
хилла
хилларг
хиллачу
хилча
химин
хин
хина
хино
хир
хира
хиславичин
хих
хиш
хлевнин
хмао
хмельникан
хмельницкан
ходжаваьндан
хозяи
хои
холм
холман
холмогорин
холмогорскии
хольт
хомутовкан
хотынецан
хрустальнин
хуан
худа
художник
хулон
хунедоара
хустан
хутор
хууш
хуьи
хуьлу
хуьлуклимат
хуьлукраткие
хуьлура
хуьлуш
хь
хьажа
хьажии
хьажоргаш
хьаи
хьакха
хьакъ
хьал
хьала
хьалха
хьалхалера
хьалхара
хьалхарчу
хьан
хьаннаш
хьахии
хьаьжа
хьаьжжина
хьаьжна
хьаькам
хьен
хьесап
хьесапашца
хьехархо
хьехархои
хьии
хьо
хьовзадо
хьожа
хьокху
хьокъехь
хьолах
хьолахклимат
хьолахь
хьолаш
хьолашкахь
хьолехь
хьоло
хьост
хьосташ
хьоькху
хьун
хьуна
хьуьнан
хӏаваан
хӏаваии
хӏаваин
хӏаван
хӏаваъ
хӏавзанан
хӏаи
хӏаккаьри
хӏалилии
хӏаллак
хӏаллаки
хӏанан
хӏара
хӏарранан
хӏатаи
хӏафикан
хӏендекнан
хӏизанан
хӏинди
хӏиндин
хӏинжа
хӏиниснан
хӏинца
хӏинцалера
хӏинцалерачу
хӏирии
хӏиттаи
хӏиттии
хӏокху
хӏора
хӏорасанан
хӏорд
хӏордан
хӏордашна
хӏоттам
хӏоттаман
хӏоттамии
хӏоттамца
хӏоттии
хӏоьттина
хӏоьттира
хӏума
хӏуманаш
хӏумнаш
хӏун
хӏунда
хӏутту
ц
ца
цадалар
цало
цалун
цалучу
цалуш
цаман
цамаш
цамгар
цар
цара
царе
царех
царехь
царин
царна
царш
цасоццаш
цахилар
цахуьлу
цаьрца
цаяларреспублика
цаяларца
цаяро
цево
целинан
целиннин
целинскии
цельсин
центгӏ
центр
центральныи
центран
цера
церан
церкован
цивильскан
цига
цигара
цигахь
ции
циклон
циклонан
циклонаш
циклонашца
циклонии
цильнан
цина
цинчу
цира
циркуляцех
циркуляции
циркуляцин
циркуляцица
цифровои
цк
цкарон
цкъа
цо
цска
цу
цул
цуна
цунах
цундела
цунна
цуо
цуш
цуьна
цуьнан
цуьнга
цуьнца
цхр
цхьа
цхьаа
цхьабосса
цхьадолчу
цхьаи
цхьан
цхьана
цхьанатоьхна
цхьанаэшшара
цхьанаэшшаралла
цхьанна
цхьатерра
цхьацца
цхьаццанхьа
цхьаъ
цхьаьна
цхьаьнатоьхна
цхьаьнаэшшара
цхьаьннан
цы
цӏа
цӏарах
цӏарца
цӏахь
цӏе
цӏен
цӏена
цӏера
цӏеран
цӏераш
цӏеххьана
цӏии
ч
ча
чагодан
чаи
чалдиранан
чамзинкан
чан
чанаккале
чанин
чанкаи
чанкири
чаплин
чаплыгинан
чаршамбанан
частин
часть
чаусин
чашникин
че
чебоксаран
чего
чекмагушан
чекх
чекхболуш
чекхдолуш
чекхи
чекхъяккхира
чекхъяьккхира
челно
человек
челябинскан
челябинская
чем
чемпион
чемпионат
чемпионатан
чемпионатехь
чемпионатии
чемпионаш
чемпионии
чему
чепецкан
червенан
червони
червоноградан
чергазии
чердынан
через
черемисинован
черемхован
черепанован
череповецан
череповецкии
черикован
черкассин
чермикнан
чернан
черниговкан
черниговн
черновцин
чернушкан
черных
чернышковскан
чернянкан
черняховскан
черткован
чертковскии
четаи
чехии
чехин
чехка
чехован
чеховскии
чеченскии
чеченскои
чечерскан
чечни
чечня
чикои
чинарнан
чиненан
численности
численность
чистоозе
читан
чишмин
чкаловскан
чкаловскии
чкъор
чкъоьран
чкъоьраца
чкъоьрнаш
чкъоьрнашкара
чкъоьрнашна
чо
чов
чолхалло
чолхе
чолхечу
чорткиван
чорум
чоруман
чот
чохь
чоь
чоьнан
чоьхьара
чоьхьарчу
что
чтобы
чу
чубаии
чубукнан
чувашаш
чувашин
чувашия
чувашскои
чудован
чуи
чул
чулыман
чумранан
чун
чура
чусовои
чухломан
чухула
чучкован
чуьра
чуяхка
чӏагӏи
чӏагӏло
чӏебарлои
чӏогӏа
чӏулга
ш
ша
шабалинан
шаблон
шаблыкинан
шагӏанта
шадерг
шадринскан
шаи
шампань
шанлиурфа
шапель
шара
шаран
шаранган
шарахь
шарахьклимат
шарахькраткая
шарахьсоединенные
шарканан
шаркишланан
шарковщинан
шарлыкан
шарои
шарьян
шатесна
шатрован
шатуран
шатурскии
шаховскан
шаховскои
шахуньян
шахьар
шахӏинбеи
шацкан
шаьш
швеи
ше
шебекинан
шевченко
шегӏ
шеи
шеко
шекснан
шекснинскии
шеллало
шелонан
шелонаш
шелонашца
шелте
шелъелла
шемалан
шен
шена
шенан
шенкаи
шенкурскан
шенкурскии
шенталан
шепетовкан
шера
шеран
шераш
шерашкара
шерашкахь
шере
шерефликочхӏисарнан
шерии
шетан
шехӏзаделернан
шехӏиткамилнан
шеш
ши
шида
шии
шила
шиленан
шилован
шилово
шимскан
шина
шипунован
шира
ширакан
ширачу
ширнак
шишкино
шиъ
шклован
школа
шлезвиг
шо
шозза
шолгӏа
шолгӏачу
шолгӏачул
шолохован
шораллашкахь
шораллера
шораллехь
шораллин
шорта
шортта
шосткан
шотландин
штаи
штат
штатан
штатера
штатии
штаты
штири
шу
шуи
шумади
шумеи
шуменан
шумилинан
шумячин
шура
шуьи
шуян
ще
щигровскии
щучинан
щучьен
ы
ые
ыи
ыншанан
ыртаунан
ь
э
эвенкии
эвла
эвлаагентство
эвлан
эвланаселенные
эвланаш
эвлара
эвлатерриториальное
эвлахь
эвора
эгеи
эгӏ
эгӏо
эдвард
эдирне
эдремитнан
эз
эзар
эи
экваторан
экз
экономика
экономикин
эл
эла
элан
элаьзигӏ
элаьзигӏан
элбистанан
элеанор
электронныи
элементаш
элии
элира
элмалинан
эль
эльст
эмилия
эн
эна
энгельсан
эндатэ
эндгӏ
энергин
энциклопеди
энциклопедическии
энциклопедических
энциклопедия
эрал
эрана
эрбаанан
эрганинан
эрдемлинан
эрджишнан
эрегӏлин
эрегӏлинан
эрзинджан
эрзурум
эрик
эрк
эркан
эркаш
эрмалои
эртилан
эсени
эскар
эскаран
эскарш
эскарша
эскишехӏир
эспириту
эссонна
эст
это
эфелернан
эффекташ
эхиг
эхиган
эхирит
эхь
эца
эцар
эцаран
эцна
эшар
эшархо
эшарш
эшшар
эшшара
ю
юбилгалдан
юбилеи
югры
южан
южныи
юкаменскан
юккъара
юккъе
юккъера
юккъераоьрсии
юккъерачу
юккъерчу
юккъехь
юкъ
юкъа
юкъаи
юкъаметтиг
юкъаметтигаш
юкъаметтигии
юкъара
юкъараллаш
юкъараллин
юкъахь
юпитеран
юргамышан
юрган
юридически
юрии
юрлан
юрт
юртан
юртахь
юрьев
юрьевецан
юрьево
юрьян
юсьван
юта
юург
юха
юхаерзар
юханехьа
юхахьовзадо
юхнован
юьззина
юьи
юькъаллаш
юьртабахаман
юьртабахамна
юьртан
юьстича
юьххьехь
юьхь
юьхьанца
юьхьиг
я
ябланич
яворован
ядрин
яздархо
яздархои
яздина
яздира
язи
язык
языка
языке
яи
яккха
яккхии
яккхинарг
яккхира
яковлеван
яковлево
якутин
якутия
якутскца
якшур
якъон
яла
ялаи
ялии
яломица
ялта
ялташна
ялтехь
ялх
яман
ямболан
ян
янаулан
январан
январехь
январь
январьгеографическое
января
японии
японин
япония
яр
яра
яран
яранскан
яркован
ярославлан
ярославская
ярославскии
ярцеван
ясная
ясногорскан
ясси
яха
яхара
яхьа
яхьаклимат
яхьарклимат
яц
яшкинан
яьккхина
яьккхира
яьлла
яьржина
яьхкича
яя
ђурић
і
іаьнца
језик
језички
љубоја
һ
ӏ
ӏа
ӏабдул
ӏадат
ӏаи
ӏалам
ӏаламан
ӏалашо
ӏали
ӏам
ӏамош
ӏарш
ӏаткъам
ӏаткъаман
ӏаткъамбо
ӏаткъамии
ӏаткъамца
ӏаш
ӏашца
ӏаьмнаш
ӏаьн
ӏаьна
ӏаьнан
ӏаьнаре
ӏаьнца
ӏаьнцаклимат
ӏаьрбии
ӏаьржа
ӏаьца
ӏедал
ӏедалан
ӏедало
ӏии
ӏилма
ӏилманан
ӏилмании
ӏилманча
ӏилманчаш
ӏилманчо
ӏиндагӏа
ӏовхои
ӏумар
ӏуьи
ا
ب
ر
ل
م
و
ي
َ
ُ
ِ
ّ
ْ
ٔ
ٕ
ा
‎
‑
–
—
―
‘
’
“
”
„
†
•
…
′
″
№
←
→
↔
↷
−
③
④
⑦
⺀
⺄
⺆
⺈
⺊
⺌
⺕
⺝
⺸
⺼
⿰
⿱
⿲
⿳
⿴
⿵
⿶
⿷
⿸
⿹
⿺
⿻
〢
コ
ユ
㇁
㇂
㇄
㇇
㇈
㇉
㇓
㐁
㐄
㐅
㐌
㐫
㐬
㐭
㐮
㐱
㑒
㒵
㒸
㒼
㓁
㓞
㔾
㕛
㕣
㖾
㘝
㚅
㚇
㚔
㚘
㝉
㝡
㝴
㝵
㞋
㞢
㞷
㠩
㠭
㠯
㡀
㡭
㡿
㢲
㢴
㣇
㣺
㥯
㪅
㫄
㫐
㫒
㫺
㬅
㬎
㬥
㬰
㲋
㳄
㷠
㸒
㸚
㸦
㼌
㼲
㽞
㿟
䀠
䂞
䍃
䏍
䒑
䖍
䖒
䖝
䖵
䙴
䚻
䜌
䝿
䡛
䧹
䪞
一
丁
丂
七
丄
丅
丆
万
丈
三
上
下
丌
不
与
丏
丐
丑
专
且
丕
世
丘
丙
业
东
丞
丢
丣
两
严
並
丨
丩
个
丫
丬
中
丮
丰
丱
串
丵
丶
丷
丸
丹
为
主
丽
丿
乀
乂
乃
久
乆
乇
么
义
之
乌
乍
乎
乏
乐
乑
乔
乖
乗
乘
乙
乚
乛
乜
九
乞
也
习
乡
乳
乾
亀
亅
了
亇
予
争
事
二
亍
于
亏
亐
云
互
亓
五
井
亘
亚
亜
亞
亟
亠
亡
亢
交
亥
亦
产
亨
亩
享
京
亭
亮
亯
亰
亲
亳
亶
亷
人
亻
亼
亾
仁
今
介
仌
从
仐
仑
仒
仓
仕
他
付
仝
代
令
以
任
企
伊
伏
伐
休
会
伯
但
位
佐
何
佘
余
作
佥
使
來
侈
侌
侖
侯
侵
便
保
俞
信
修
倉
倍
候
倠
備
僉
僕
儿
兀
允
兂
元
兄
充
兆
兇
先
光
兊
克
兌
免
兑
兒
兓
兔
党
兜
兟
入
全
兩
兪
八
公
六
兮
兰
共
关
兵
其
具
典
兹
兼
冀
冂
冃
冄
内
冈
冉
冊
冋
册
再
冎
冏
冐
冒
冓
冖
冗
冘
军
农
冝
冡
冥
冫
冬
冷
几
凡
凢
凵
凶
凷
凸
凹
出
函
凾
刀
刁
刂
刃
刄
刅
分
切
刍
刑
刕
刖
列
刘
则
初
別
利
别
到
制
刺
則
削
剌
前
剡
剽
劉
力
功
加
劦
助
劫
劳
劵
勃
勇
勉
勒
動
務
勞
勤
勹
勺
勻
勾
勿
匀
匂
包
匆
匈
匊
匋
匍
匕
化
北
匚
匝
匡
匪
匱
匸
匹
区
医
匽
匿
區
十
卂
千
卄
卅
卆
升
午
卉
半
卌
华
卑
卒
卓
单
卖
南
卜
卝
卞
占
卡
卢
卣
卤
卦
卩
卪
卬
卯
印
危
即
却
卵
卷
卸
卻
厂
厃
厄
历
厈
厉
厌
厓
厘
厚
原
厤
厥
厨
厭
厲
厶
厷
厸
去
厼
厽
叀
参
參
叅
又
叉
及
友
双
反
叐
发
叒
叔
叕
取
受
叚
叜
叟
口
古
句
另
叩
只
召
可
台
叱
史
右
叵
号
司
叹
吂
各
吅
合
吉
吊
吋
同
名
后
吏
向
吕
君
吝
吞
否
含
启
吳
吴
吹
吾
呂
呆
呈
告
员
呙
周
命
咅
和
咎
咠
咢
咨
咸
咼
哀
品
哉
員
哥
哲
唐
商
啇
問
啚
啬
啻
善
喜
喬
單
喿
嗇
噩
嚴
囊
囗
囘
囙
囚
四
回
囟
因
囧
囬
困
囱
囷
固
国
圂
圅
國
圍
圓
土
圡
圣
圥
在
圭
地
圶
圼
坐
坒
坚
坴
垂
垔
垚
埀
埋
埶
執
基
堂
堅
堆
堇
堯
塞
墨
壘
士
壬
壯
声
壳
壴
壹
壺
壽
夂
处
夅
夆
备
夊
夋
夌
复
夏
夒
夕
外
夗
夘
多
夜
夢
大
夨
天
太
夫
夬
夭
央
失
夲
头
夷
夸
夹
夻
夾
奂
奄
奇
奈
奉
奎
奏
奐
契
奓
奔
奚
奞
奠
奢
奥
奭
女
奴
奻
好
如
妄
妙
妟
妥
妻
妾
姑
委
姜
威
娄
婁
婴
嬰
嬴
子
孑
孔
孕
孖
字
存
孚
孛
孝
孟
季
孤
学
孫
孱
學
宀
宁
宂
它
宅
宇
守
安
宋
完
宏
宓
宗
官
定
宛
宜
宝
客
宣
室
宮
宰
害
家
容
宾
宿
寄
寅
密
富
寒
察
寧
審
寫
寬
寮
寸
对
寺
寻
寽
対
寿
封
尃
射
将
將
專
尉
尊
尋
尌
對
小
少
尒
尓
尔
尖
尗
尚
尞
尢
尣
尤
尧
尨
尭
就
尸
尹
尺
尻
尼
尽
尾
尿
局
居
屈
屋
屎
屏
屑
展
屖
屚
属
屠
屡
屬
屮
屯
屰
山
屵
屾
岁
岂
岑
岡
岩
岳
岸
峯
島
崇
崑
崔
崖
崙
崩
嵬
嶲
巂
巛
川
州
巟
巠
巢
巤
工
左
巧
巨
巩
巫
差
己
已
巳
巴
巷
巸
巽
巾
巿
帀
市
布
希
帚
帛
帝
带
師
席
帶
常
干
平
年
幵
并
幷
幸
幺
幻
幼
幽
幾
广
広
庄
床
底
店
庚
府
度
庫
庭
庶
康
庸
廉
廌
廛
廣
廩
廴
延
廷
建
廾
廿
开
弁
弃
弄
弇
弋
式
弓
弔
引
弗
弘
弜
弟
弥
弦
弱
張
強
强
彊
彌
彎
彐
彑
当
彔
录
彖
彗
彡
形
彥
彦
彧
彭
彳
役
彼
往
待
律
徒
得
徙
從
復
微
徵
心
忄
必
忌
忍
志
忝
忠
忩
快
念
忽
忿
思
怠
急
怱
恆
恒
恩
恭
息
悉
患
悤
悲
悶
惠
惡
惢
愁
愈
意
愛
感
慈
慧
慮
憂
憲
應
戀
戈
戉
戊
戋
戌
戍
戎
成
我
戒
戔
或
戚
戠
戢
截
戲
戶
户
戹
戼
戾
房
所
扁
扇
手
扌
才
打
托
执
承
折
拉
拜
拿
掌
推
提
摩
支
攴
攵
收
攸
改
放
政
敄
敏
敕
敖
敗
敝
敞
敢
散
敦
敫
敬
数
敷
數
斂
文
斉
斊
斗
斤
斥
斩
斬
斯
新
方
於
施
斿
旁
旋
族
无
旡
既
旣
日
旦
旧
旨
早
旬
旱
旲
时
旾
昆
昇
昌
昍
明
昏
易
昔
昗
昜
星
春
昬
是
昱
昴
昷
時
晃
晋
晏
普
景
晶
智
暑
暴
曇
曩
曰
曲
曳
更
曷
書
曹
曼
曾
替
最
朁
會
月
有
朋
服
朔
朕
朗
望
朝
木
朩
未
末
本
札
朮
术
朱
朵
朶
朿
杀
杏
杜
束
条
来
東
杲
杳
松
析
林
枚
果
枝
枲
枼
某
柔
查
柬
柰
柴
栗
桀
桑
桼
梁
條
梟
梨
棘
棠
棥
森
楚
業
楽
榮
樂
樊
欠
次
欣
欮
欲
欶
欽
款
歆
歇
歛
止
正
此
步
武
歨
歪
歮
歯
歰
歲
歴
歷
歸
歹
歺
死
殳
段
殷
殸
殹
殺
殻
殿
毋
毌
母
每
毒
比
毕
毚
毛
毳
氏
氐
民
气
氣
水
氵
氶
氷
永
氺
氾
求
汝
汞
江
沃
沓
沙
沝
泉
法
波
泣
泥
泰
洛
洪
活
派
流
浦
浪
浮
淡
淮
清
渚
渠
湯
滿
漸
火
灬
灭
灰
灵
灷
炅
炎
炏
炗
炙
炭
為
烈
烏
烝
焉
無
焦
焱
然
煞
熊
熏
燕
營
燮
爪
爫
爭
爯
爰
爱
爲
爵
父
爻
爽
爾
爿
片
牙
牚
牛
牜
牟
牢
牧
牪
牽
犀
犬
犭
犮
狂
狄
狊
独
狺
猋
猒
猪
献
獻
玄
率
玉
王
玟
玨
珎
班
琴
瑟
瑩
瓜
瓦
甘
甚
生
産
用
甫
甬
田
由
甲
申
电
甶
男
甸
甹
画
甾
畀
界
畏
畐
留
畜
畟
畢
畧
畨
番
畫
異
畱
當
畺
畾
疊
疋
疌
疑
疒
疾
癶
癸
癹
登
發
白
百
皀
皃
的
皆
皇
皋
皐
皕
皮
皷
皿
盃
盆
盇
盈
益
盍
盎
监
盒
盖
盛
盡
監
盤
盧
目
直
相
盾
省
眇
眉
看
眔
眞
真
眷
眼
眾
着
睘
睪
睿
瞏
瞢
瞿
矍
矛
矞
矢
矣
知
矦
短
石
破
碎
磊
磨
示
礻
礼
祟
票
祭
禀
禁
禸
禹
禺
离
禽
禾
禿
秀
秃
秉
秋
科
秝
秦
移
稟
穀
穌
穴
究
穹
空
穿
突
窄
窒
立
竒
竜
竝
竟
章
童
竹
笑
笠
筆
等
答
箕
算
箴
節
篤
篭
米
粉
粛
粟
粤
粦
粲
糞
糸
糹
系
約
納
素
索
紫
累
細
絜
絫
絲
維
綿
縣
繇
纍
纟
缶
网
罒
罔
罕
罗
罙
罡
罢
罪
署
罷
羅
羊
羌
羍
美
羔
羕
羗
羞
羡
羣
群
義
羲
羸
羽
翁
翏
習
翕
翟
翠
翼
老
耂
考
者
耆
而
耎
耑
耒
耳
耴
耶
耷
聂
聊
聖
聚
聶
聿
肀
肃
肅
肉
肖
肙
肥
肩
肯
育
肴
胃
背
胡
胥
能
脊
脩
膚
臣
臤
臧
自
臬
臭
臯
臱
至
致
臺
臼
臽
臾
臿
舀
舂
舄
與
興
舉
舌
舍
舛
舜
舞
舟
般
艮
良
色
艸
艹
艾
芒
芔
芬
芮
花
芳
芺
芻
苔
苗
苟
若
苦
英
茶
茸
荅
草
荒
荣
荼
莆
莧
莫
莽
菆
菊
菐
華
萬
落
葉
著
葛
董
葵
蒙
蒦
蒼
蓋
蓬
蓺
蔑
蔡
蕉
蕭
薄
薛
薦
薰
藍
藏
藤
藥
蘭
虍
虎
虐
虒
虔
處
虖
虗
虘
虚
虛
虜
虞
虫
虽
蚤
蚩
蜀
蜜
蟲
蠡
血
行
衍
衛
衣
衤
表
衮
衰
袁
袞
裕
褭
褱
襄
襾
西
覀
要
覃
見
規
覓
覧
親
覽
见
角
解
言
訁
訇
計
詹
誩
諸
讠
谷
豆
豈
豊
豐
豕
豖
豙
象
豦
豩
豪
豸
貇
貝
貞
貟
負
貢
貧
貪
貫
責
貳
貴
買
費
賁
資
賈
賏
賓
賔
賛
賞
賢
賣
質
賴
贊
贝
贡
责
贯
贲
贵
赖
赞
赤
赦
走
越
足
路
蹇
身
躬
車
軍
軎
軟
輦
车
辛
辜
辟
辥
辰
辱
農
辵
辶
边
达
过
近
连
迷
追
退
送
逆
逐
通
速
造
逢
連
逮
進
遀
遂
過
道
達
遣
適
遷
遺
邊
邑
邕
那
邦
邪
郎
部
郭
都
鄉
酉
酋
配
酓
釆
采
里
重
野
量
金
釒
錢
钅
長
镸
长
門
閃
閉
開
閏
閑
閒
間
閔
閵
閻
闌
门
间
闷
阑
阜
阝
阿
降
陳
隆
隊
隋
隡
隨
隱
隶
隹
隺
隻
隼
隽
难
雀
雁
集
雈
雋
雍
雐
雔
雙
雚
雜
雝
離
難
雨
雩
雪
雲
零
雷
需
霍
霜
霝
霞
霸
靈
靑
青
非
靡
面
靣
革
韋
韦
韭
韯
韱
音
頁
頃
項
須
頗
頡
頻
顛
页
風
风
飛
飞
食
飠
養
饣
首
香
馬
馮
駦
马
骨
高
髟
鬥
鬯
鬲
鬼
魚
魯
鮮
鱼
鲁
鳥
鳳
鸟
鹵
鹿
麃
麗
麥
麦
麻
黃
黄
黍
黎
黑
黒
黨
黹
黽
黾
鼎
鼓
鼠
鼻
齊
齋
齐
齒
齿
龍
龙
龜
龟
龠
龰
龱
龴
龵
龶
龷
龸
龹
者
艹
？
𠀁
𠀃
𠀆
𠀉
𠀎
𠀐
𠁁
𠁣
𠂆
𠂇
𠂈
𠂉
𠂊
𠂋
𠂎
𠂒
𠂔
𠂛
𠂡
𠂢
𠂤
𠂬
𠂭
𠂹
𠃊
𠃋
𠃌
𠃍
𠃎
𠃑
𠃓
𠃔
𠃜
𠄌
𠄎
𠄠
𠄢
𠆢
𠆥
𠇍
𠈌
𠌵
𠓜
𠔉
𠔥
𠔼
𠔽
𠔿
𠕀
𠕁
𠕋
𠘧
𠘨
𠙻
𠙼
𠚏
𠚒
𠚤
𠚪
𠣏
𠤎
𠤕
𠥓
𠦄
𠦑
𠦝
𠧒
𠧗
𠧪
𠩺
𠪚
𠫓
𠫔
𠫤
𠬛
𠬝
𠬞
𠬢
𠬤
𠬶
𠮛
𠮦
𠮷
𠯑
𠱠
𠳮
𠷎
𡈼
𡉀
𡉵
𡌥
𡍮
𡏳
𡕒
𡕩
𡕰
𡖅
𡗗
𡗜
𡘆
𡘤
𡧱
𡨄
𡩧
𡬠
𡭽
𡰣
𡰥
𡰪
𡰯
𡰱
𡷈
𡸁
𡿨
𡿩
𡿪
𡿺
𢀖
𢀛
𢀩
𢁙
𢆉
𢆰
𢆶
𢇁
𢇇
𢉖
𢌬
𢌿
𢏚
𢑑
𢑚
𢖻
𢙣
𢛳
𢦏
𢦒
𢧵
𢼄
𢾕
𣁋
𣄼
𣅀
𣅽
𣍘
𣎳
𣎵
𣏋
𣏼
𣗥
𣥂
𣥖
𣦵
𣦼
𣧄
𣪊
𣪠
𣬉
𣳾
𣶒
𤇾
𤊽
𤐫
𤓰
𤔔
𤕨
𤣩
𤰇
𤰔
𤰞
𤴓
𤴔
𤽄
𥁑
𥁕
𥃦
𥃩
𥃭
𥇡
𥑟
𥘅
𥘈
𥝢
𥫗
𥱡
𦈢
𦉪
𦉬
𦉼
𦍌
𦍒
𦎧
𦐇
𦓔
𦔮
𦘒
𦙃
𦚏
𦣝
𦣞
𦣻
𦥑
𦥔
𦥯
𦨉
𦭝
𦰩
𧆞
𧈧
𧘇
𧰨
𧴪
𧴮
𧵩
𧾷
𨸏
𨾴
𩙿
𩠐
𩫏
𩵋
𪉷
𪜀
𪟽
𪠲
𪩲
𫇦
𫔭
𫜸
𫝀
𫠣
𫠩
𫢉
𫥞
𫩏
𫩠
𫪡
𫲽
𫶧
𬀷
𬐘
𬗌
𬙙
𬛸
𬜯
𬟩
𬯁
𬴘
𬺻
𬼉
𬼖
𭀰
𭁈
𭁨
𭅰
𭑈
𭕄
𭗼
𭤨
𭥫
𭻾
𮅕
𮊿
𮍌
𮍏
𮓗
𮥼
𮧮
廾
𰀁
𰀄
𰀈
𰀉
𰀕
𰀠
𰀡
𰀢
𰀪
𰁜
𰃮
𰆊
𰆘
𰋙
𰕎
𰢴
𰧭
𰯲
00--
125--
128--
129--
130--
132--
133--
134--
135--
136--
137--
138--
139--
140--
141--
142--
143--
144--
145--
146--
147--
148--
149--
151--
152--
153--
154--
155--
156--
157--
158--
159--
160--
161--
162--
163--
164--
165--
166--
167--
168--
169--
170--
171--
172--
173--
174--
175--
176--
177--
202--
203--
204--
205--
206--
207--
208--
209--
210--
211--
212--
213--
214--
215--
216--
217--
218--
219--
220--
221--
222--
223--
224--
225--
226--
227--
228--
229--
230--
231--
232--
233--
234--
235--
236--
237--
238--
239--
240--
241--
242--
243--
244--
245--
246--
247--
248--
249--
250--
251--
252--
253--
254--
255--
256--
257--
258--
259--
260--
261--
262--
263--
264--
265--
266--
267--
268--
269--
270--
271--
272--
273--
274--
275--
276--
277--
278--
279--
280--
281--
282--
283--
284--
285--
286--
287--
288--
289--
290--
291--
292--
293--
294--
295--
296--
297--
298--
299--
300--
301--
302--
303--
304--
305--
306--
307--
308--
309--
310--
311--
312--
313--
314--
315--
316--
317--
318--
319--
320--
321--
322--
323--
324--
325--
326--
327--
328--
329--
330--
331--
332--
333--
334--
335--
336--
337--
338--
339--
340--
341--
342--
343--
344--
345--
346--
347--
348--
349--
350--
351--
352--
353--
354--
355--
356--
357--
358--
359--
360--
361--
362--
363--
364--
365--
366--
367--
368--
369--
370--
371--
373--
374--
376--
377--
378--
379--
380--
381--
382--
383--
384--
385--
386--
387--
388--
389--
390--
391--
392--
393--
394--
395--
396--
397--
398--
400--
401--
403--
404--
405--
406--
407--
408--
409--
410--
411--
412--
413--
414--
415--
416--
417--
418--
419--
420--
421--
422--
423--
424--
425--
426--
427--
428--
429--
430--
431--
432--
433--
434--
435--
436--
437--
438--
439--
440--
441--
442--
443--
444--
445--
447--
448--
449--
450--
451--
452--
453--
454--
455--
456--
457--
458--
459--
460--
461--
462--
463--
464--
465--
466--
467--
468--
469--
470--
471--
472--
473--
474--
475--
476--
477--
478--
479--
481--
482--
483--
484--
486--
487--
488--
489--
491--
492--
493--
494--
495--
496--
497--
498--
499--
500--
501--
502--
503--
504--
505--
506--
507--
508--
509--
510--
512--
513--
514--
515--
516--
517--
518--
519--
520--
521--
522--
523--
524--
525--
526--
527--
528--
529--
530--
531--
532--
533--
534--
535--
536--
537--
538--
539--
540--
541--
542--
543--
544--
545--
546--
547--
548--
550--
551--
552--
553--
554--
555--
556--
557--
558--
559--
560--
561--
562--
563--
565--
566--
567--
568--
569--
570--
571--
572--
573--
574--
575--
576--
577--
579--
581--
583--
585--
586--
587--
589--
590--
591--
592--
593--
594--
596--
597--
598--
599--
600--
602--
603--
604--
605--
606--
607--
608--
609--
610--
611--
612--
614--
615--
616--
617--
618--
620--
621--
622--
623--
624--
625--
626--
627--
628--
629--
630--
631--
632--
633--
634--
635--
636--
637--
638--
639--
640--
641--
642--
643--
644--
645--
646--
648--
649--
650--
652--
653--
654--
655--
656--
657--
658--
659--
660--
661--
662--
663--
664--
667--
668--
669--
670--
671--
672--
674--
675--
676--
677--
678--
679--
680--
681--
684--
685--
686--
688--
689--
690--
691--
692--
693--
694--
695--
696--
697--
699--
700--
701--
702--
703--
704--
705--
706--
707--
708--
709--
710--
711--
712--
713--
714--
715--
716--
717--
718--
719--
721--
722--
724--
725--
726--
727--
728--
729--
731--
732--
733--
734--
735--
736--
737--
738--
739--
740--
741--
742--
743--
744--
745--
746--
747--
748--
749--
750--
751--
752--
753--
755--
756--
757--
758--
759--
762--
763--
764--
765--
766--
767--
768--
769--
770--
771--
772--
773--
774--
775--
776--
777--
778--
779--
780--
781--
782--
783--
784--
785--
786--
788--
789--
790--
791--
792--
793--
794--
795--
796--
798--
799--
800--
801--
802--
803--
804--
805--
806--
807--
809--
810--
811--
812--
813--
814--
815--
816--
817--
818--
820--
821--
822--
823--
825--
826--
827--
828--
829--
830--
831--
832--
833--
834--
836--
837--
838--
839--
840--
841--
842--
843--
844--
846--
847--
848--
849--
850--
851--
852--
853--
854--
855--
856--
857--
858--
860--
861--
863--
864--
865--
866--
867--
868--
869--
871--
872--
873--
874--
875--
876--
877--
879--
880--
881--
882--
883--
884--
885--
886--
888--
889--
890--
891--
892--
893--
894--
895--
896--
897--
898--
899--
900--
901--
902--
903--
904--
905--
906--
907--
908--
909--
910--
911--
912--
914--
915--
916--
917--
918--
919--
920--
922--
923--
924--
925--
927--
928--
930--
931--
932--
933--
934--
935--
936--
937--
938--
940--
941--
942--
943--
944--
945--
946--
948--
949--
950--
951--
952--
953--
954--
955--
956--
957--
958--
959--
960--
961--
962--
963--
964--
966--
967--
969--
970--
971--
972--
973--
974--
975--
976--
977--
978--
979--
980--
981--
982--
984--
985--
986--
987--
988--
989--
990--
991--
992--
993--
994--
995--
996--
997--
998--
999--
ab--
ac--
add--
ag--
al--
am--
an--
ap--
appen--
ar--
argu--
as--
at--
au--
aug--
ba--
be--
bet--
bi--
bl--
bo--
br--
ca--
cap--
cen--
ch--
che--
ci--
cl--
co--
colu--
con--
cons--
cor--
cr--
cur--
d--
da--
date--
de--
deve--
di--
dis--
do--
dr--
ea--
el--
en--
es--
eu--
ev--
ex--
f--
fa--
fe--
fi--
fo--
format--
fr--
fu--
g--
ga--
ge--
gen--
get--
go--
gre--
gu--
h--
ha--
he--
ho--
i--
id--
impor--
impro--
in--
inter--
is--
j--
ja--
jo--
k--
ko--
l--
la--
le--
lo--
m--
ma--
me--
mo--
mun--
n--
na--
nase--
no--
o--
obl--
op--
or--
p--
pa--
paren--
pe--
pl--
po--
pre--
pro--
pu--
publ--
q--
qu--
ques--
r--
ra--
re--
reg--
ro--
row--
ru--
s--
sa--
se--
sepa--
ser--
sha--
si--
so--
spa--
spe--
st--
su--
sub--
syst--
t--
ta--
te--
th--
ti--
to--
tr--
trans--
u--
un--
up--
us--
v--
ve--
vi--
vo--
w--
we--
x--
y--
z--
а--
аб--
аба--
абаз--
абин--
абрам--
абхаз--
ав--
ава--
ави--
австр--
аг--
ага--
агапо--
агӏ--
ад--
аджи--
адм--
админ--
аз--
ази--
аи--
ак--
ака--
аксе--
аку--
акча--
акъ--
ал--
ала--
але--
алеш--
али--
алти--
алфе--
аль--
альф--
ам--
амаз--
амбро--
амери--
амур--
ан--
ана--
анд--
андро--
ани--
анса--
ант--
анти--
ап--
апа--
ар--
ара--
арад--
арг--
арген--
артил--
археол--
архи--
архитек--
ас--
аса--
аст--
ат--
аф--
афри--
ах--
ахма--
ахме--
ахтар--
ахӏ--
аш--
ашагӏи--
аь--
аьз--
аьк--
аьр--
аьх--
ая--
б--
ба--
баг--
багаев--
багӏ--
баз--
бак--
бакъ--
бал--
бала--
бан--
бар--
бас--
бат--
бах--
бахӏче--
бац--
баш--
баьл--
баьх--
бгӏ--
бе--
бев--
без--
бек--
бел--
бело--
белогор--
белозе--
беломор--
белояр--
бель--
беля--
бен--
бер--
бес--
бех--
бешик--
би--
библи--
бил--
билгал--
бир--
бирилюс--
бирю--
благовеще--
ближ--
бо--
боб--
бобро--
бов--
бог--
бога--
богос--
богу--
бож--
боз--
бок--
боков--
бол--
бола--
боло--
боль--
больше--
бон--
бор--
боров--
бос--
бох--
боч--
боь--
боьр--
бояр--
бр--
бра--
бре--
брез--
бри--
бро--
бру--
брюхове--
брян--
бу--
буб--
бугуль--
буд--
бул--
булга--
бур--
бура--
бури--
бутур--
бух--
бухб--
буь--
бы--
быв--
быч--
бю--
бӏ--
бӏаь--
бӏаьр--
бӏе--
в--
ва--
ваджи--
вадин--
вал--
вали--
ван--
вар--
варва--
вари--
вас--
василь--
вась--
вах--
ве--
вев--
вегӏ--
вед--
веж--
вел--
вели--
велико--
вен--
вер--
вере--
верхне--
верхов--
весе--
вет--
веш--
вз--
ви--
вид--
вил--
виль--
вилья--
вин--
виногра--
виноградов--
вир--
вис--
вито--
виш--
вишне--
вла--
влади--
вн--
вну--
во--
вов--
вовшах--
вод--
воз--
возне--
вознесен--
вок--
вол--
вола--
волгодон--
волж--
воло--
волч--
воль--
воп--
вор--
воро--
воскре--
восточ--
воь--
вра--
вре--
вс--
все--
вто--
ву--
вуд--
вур--
вы--
выс--
высо--
выста--
выш--
вь--
вя--
вяз--
вязов--
вятс--
г--
га--
габ--
гав--
гаг--
гал--
гам--
ган--
гар--
гаь--
гва--
гвар--
гви--
гг--
ге--
гед--
гел--
ген--
георгие--
гер--
герман--
ги--
гил--
гим--
гин--
гир--
гл--
гла--
глаз--
глин--
глу--
глух--
гни--
го--
гов--
гово--
гол--
голо--
голов--
гон--
гор--
горе--
горноураль--
горох--
горь--
государ--
гоч--
гоь--
гоьк--
гоькче--
гоьл--
гоьр--
гр--
гра--
граж--
грах--
гре--
гри--
грибанов--
гро--
гроз--
грос--
гру--
груз--
груп--
гряз--
гу--
гул--
гумани--
гумб--
гун--
гур--
гусе--
гучу--
гуь--
гуьмс--
гі--
гӏ--
гӏа--
гӏар--
гӏара--
гӏе--
гӏер--
гӏир--
гӏо--
гӏов--
гӏоьр--
гӏу--
д--
да--
дага--
даз--
дакъа--
дал--
дан--
дар--
дау--
дах--
дач--
даш--
даь--
даьӏах--
дви--
де--
дев--
деж--
дез--
дек--
декъа--
дем--
деми--
ден--
дер--
дере--
дех--
дехьа--
деш--
деяте--
дж--
джа--
дже--
джи--
джу--
дз--
дзю--
ди--
дик--
дил--
дин--
дипло--
дис--
дми--
дмитриев--
дне--
до--
доб--
добро--
дов--
дож--
док--
дол--
дола--
дом--
дон--
дох--
доц--
доь--
доьх--
дра--
драф--
дре--
дро--
дроз--
дру--
друг--
друж--
ду--
дуб--
дубо--
дубро--
дур--
дух--
духов--
дуь--
ды--
дэ--
дю--
дя--
дӏа--
дӏавоьл--
дӏакъ--
дӏаса--
е--
ев--
евг--
евл--
евро--
ег--
егорлык--
ед--
ез--
ек--
екате--
ел--
еле--
елх--
елхов--
ель--
ен--
ени--
ер--
ере--
ерм--
ерма--
ерриг--
еси--
ест--
ет--
ефим--
ефрем--
ех--
еху--
еш--
ешил--
ж--
жа--
жак--
жан--
жар--
же--
жел--
железно--
женщ--
жер--
жи--
живот--
жил--
жим--
жир--
жу--
жура--
журав--
жӏа--
жӏаь--
з--
за--
забо--
зав--
заволж--
заг--
зад--
зак--
зам--
зап--
заповед--
заполяр--
зареч--
зах--
заха--
захаро--
зве--
зе--
зем--
зер--
зи--
зилаи--
зим--
зин--
зна--
зо--
зов--
зол--
золот--
зор--
зу--
зуд--
зы--
зырян--
зӏ--
и--
ибраг--
ибраьхӏ--
ив--
ива--
иван--
иваш--
ивн--
иг--
игна--
ид--
иде--
иди--
идрин--
ие--
иж--
ижмор--
из--
изоб--
ик--
ил--
илан--
иле--
или--
иль--
им--
ин--
инса--
интер--
инф--
ио--
ир--
ира--
ис--
иса--
исбаь--
исетс--
искен--
искус--
испан--
ист--
источ--
ита--
итт--
их--
ич--
иш--
иэ--
ию--
к--
ка--
кава--
кад--
каз--
каза--
казан--
казачин--
кал--
кали--
калин--
калинин--
калинов--
каль--
кам--
камен--
камчатс--
камы--
камыш--
кан--
канев--
кап--
капи--
кар--
кара--
карг--
карга--
карпо--
карь--
кас--
каст--
ката--
кате--
кафед--
кач--
каш--
кв--
квар--
кварке--
кгӏ--
ке--
кевн--
кел--
кем--
кен--
кер--
кеч--
кечъ--
кеш--
кеша--
ки--
киз--
кизил--
кизиль--
кин--
кине--
кино--
кир--
киреев--
кирен--
кирил--
киро--
кис--
кич--
киш--
кле--
клет--
кли--
клим--
климов--
ключев--
книж--
кноп--
кня--
княж--
ко--
коб--
ков--
ковернин--
когам--
кож--
кожевни--
коз--
кок--
коко--
кол--
коллек--
коло--
колу--
колх--
колы--
коль--
ком--
коман--
комсомоль--
кон--
кондра--
коно--
конс--
константи--
константино--
константинов--
конт--
конфе--
конц--
концер--
коп--
копы--
кор--
коренов--
корми--
коро--
корса--
кост--
кот--
котель--
коч--
кочубеев--
кош--
коь--
коьпруь--
кра--
крас--
краси--
красно--
краснокутс--
красноуфим--
крат--
кре--
крем--
кри--
крив--
криво--
кро--
кру--
круп--
кры--
крю--
ку--
кувши--
кугӏ--
куд--
куз--
кузне--
кузнецо--
кузь--
кузьмин--
кула--
куле--
кули--
кулу--
куль--
кумлу--
кун--
кур--
курманаев--
курт--
курь--
куч--
куш--
куь--
куьз--
кх--
кха--
кхе--
кхи--
кхо--
кхоьл--
къ--
къаьст--
къе--
къил--
къин--
къинхь--
къоларг--
къоьл--
къу--
кы--
кыт--
кь--
кях--
кӏ--
кӏа--
кӏен--
кӏор--
л--
ла--
лав--
лаг--
лаз--
лаза--
лаише--
лак--
лал--
лам--
лап--
лар--
лат--
лаь--
ле--
лебе--
лев--
лег--
лек--
лел--
лела--
лер--
лес--
леч--
ли--
либер--
лин--
лип--
липо--
лит--
литви--
лиц--
лич--
ло--
лов--
лоз--
лом--
лон--
лопа--
лох--
лоь--
лу--
луб--
луж--
лух--
луч--
луь--
лы--
ль--
лю--
люб--
любо--
люд--
ля--
м--
ма--
маг--
мага--
маго--
магӏ--
мажар--
маз--
мак--
мака--
макаро--
макуш--
мал--
мали--
мало--
малы--
маль--
ман--
мар--
мара--
марз--
марты--
марь--
марьин--
марьянов--
мас--
мат--
мате--
матери--
мах--
маш--
маьӏ--
ме--
мег--
мед--
меди--
меж--
между--
мел--
мель--
мен--
мензелин--
мер--
мес--
метал--
мето--
мех--
ми--
миг--
мик--
мил--
мин--
минусин--
мир--
мис--
мих--
миха--
мичурин--
мн--
мо--
мов--
мог--
мод--
мож--
моз--
мок--
мокроу--
мол--
мом--
мон--
мор--
мордов--
моро--
мороз--
мостов--
мот--
мош--
му--
мун--
мур--
мурман--
мус--
муслюм--
мут--
мух--
мучкап--
муь--
мы--
мыш--
мэ--
мя--
мяс--
н--
на--
нава--
наг--
наго--
надеж--
наз--
наза--
накъо--
нар--
нас--
ната--
наум--
науч--
наци--
наш--
не--
нев--
нег--
некра--
нер--
нерчин--
нест--
неф--
нех--
ни--
нидер--
ниж--
нижне--
нижнека--
низ--
ник--
нин--
нис--
но--
нов--
ново--
нор--
нс--
ну--
нур--
нуь--
нью--
о--
об--
обли--
обра--
образ--
обще--
ов--
овхӏа--
ог--
од--
одес--
оз--
озе--
озин--
ок--
оку--
ол--
оле--
оли--
олим--
оль--
ольг--
ольх--
ом--
омутнин--
он--
оп--
опа--
опи--
ор--
ос--
осе--
оси--
осм--
осо--
ост--
остан--
от--
откры--
отно--
отрад--
офици--
ох--
охал--
охот--
охьа--
ош--
оь--
оьз--
оьл--
оьмер--
оьтт--
оьх--
п--
па--
пав--
пал--
паль--
памя--
пан--
пань--
пар--
пара--
парф--
пас--
пау--
пах--
паш--
пе--
пед--
пен--
пер--
пере--
перев--
пес--
петр--
петро--
петух--
пеш--
пи--
пил--
пионер--
пиро--
писа--
писаре--
пись--
пла--
плат--
пле--
пло--
по--
пог--
пого--
погоре--
под--
подго--
подоль--
пож--
поз--
позиц--
пок--
пол--
поли--
политиче--
половин--
полян--
пон--
понт--
поп--
попо--
пор--
поро--
пос--
пота--
пох--
поч--
поэ--
пр--
пра--
прав--
правос--
практи--
пре--
пред--
преоб--
префек--
при--
приволж--
про--
проб--
произве--
промыш--
прох--
пру--
пруд--
пу--
публиц--
пур--
пути--
пуш--
пхь--
пши--
пы--
пыш--
пь--
пье--
пьегӏ--
пя--
пяти--
р--
ра--
рад--
ради--
радио--
раз--
раздоль--
рал--
рам--
рас--
раст--
рат--
рах--
ре--
рег--
ред--
рее--
рез--
рек--
реп--
респуб--
реч--
ржа--
ри--
рич--
ро--
род--
родников--
рож--
рожде--
роз--
рон--
рос--
ру--
руб--
руд--
руз--
рус--
ры--
рыб--
рыль--
ря--
рязан--
с--
са--
сав--
сави--
сад--
саз--
сак--
сакм--
сал--
сали--
саль--
сам--
сан--
сар--
сара--
саргатс--
сари--
сары--
саьн--
саян--
сва--
све--
сверд--
свет--
сви--
сво--
свобод--
свя--
се--
севас--
севе--
сед--
сек--
секре--
сел--
сели--
сель--
семе--
семен--
семи--
семикарако--
сен--
сень--
сер--
серг--
сече--
си--
сиб--
сив--
сил--
силь--
сим--
син--
сир--
систе--
сит--
ск--
скор--
ску--
сла--
слав--
славян--
слад--
сле--
сли--
сло--
слу--
см--
смир--
снеж--
со--
соб--
собо--
сов--
совре--
согл--
соз--
сок--
соко--
соколь--
соку--
сол--
солнеч--
сор--
сорочин--
сос--
софь--
соци--
соь--
спек--
спи--
спо--
спут--
средне--
ссы--
ст--
ста--
стан--
стар--
старо--
статистиче--
сте--
степ--
степанов--
стеф--
сти--
сто--
стол--
сту--
студен--
су--
суб--
субъек--
суво--
суворо--
суз--
сур--
суро--
сус--
сух--
суь--
суьр--
сфе--
схьа--
сцен--
сы--
сь--
сю--
т--
та--
таб--
тав--
так--
тал--
тали--
тальмен--
там--
тамбо--
тан--
тар--
тат--
татар--
тацин--
таш--
творче--
те--
текм--
тел--
теле--
тем--
тен--
тень--
теп--
тер--
тере--
терень--
тес--
тех--
техно--
ти--
тил--
тим--
тимо--
тих--
тихви--
тиш--
то--
ток--
тол--
том--
тон--
топ--
тор--
точ--
тоь--
тр--
тра--
тре--
третья--
три--
тро--
тру--
тс--
ту--
тугулы--
тур--
туь--
ты--
тыр--
ть--
тю--
тюль--
тяжин--
ті--
тӏ--
тӏа--
тӏам--
тӏе--
тӏул--
у--
убин--
ува--
уваро--
уг--
уд--
уда--
уж--
уз--
узун--
уи--
уинс--
ук--
ука--
укари--
укъа--
ул--
ули--
улу--
уль--
ума--
ун--
унг--
уни--
управ--
ур--
ури--
урхал--
ус--
уса--
усадь--
успен--
ут--
ух--
уч--
уча--
участ--
уш--
уь--
ф--
фа--
фабри--
фак--
фар--
фат--
фе--
федер--
федо--
федоров--
фер--
фести--
фи--
физи--
фил--
фили--
филол--
фин--
фина--
фло--
фом--
фомин--
фон--
фор--
фри--
фро--
фу--
функц--
фур--
фуру--
х--
ха--
хаа--
хаз--
хаза--
хал--
хан--
хар--
харж--
харжам--
хари--
харь--
хво--
хе--
хен--
хер--
хи--
хил--
хин--
хле--
хо--
хоб--
хов--
ходж--
хок--
хол--
холм--
хор--
хоро--
хот--
хохоль--
хро--
ху--
хун--
хуь--
хь--
хьаж--
хьаш--
хьаь--
хьаьж--
хьаьр--
хье--
хьо--
хьуь--
хӏ--
хӏа--
хӏадж--
хӏан--
хӏар--
хӏил--
хӏин--
хӏо--
хӏол--
хӏот--
хӏоь--
хӏу--
хӏуса--
ц--
ца--
цве--
цвет--
це--
цел--
целин--
цер--
ци--
цигг--
цимлян--
цом--
цу--
цхьа--
цы--
цӏ--
цӏерпошт--
ч--
ча--
чак--
чал--
чам--
чар--
чарыш--
чат--
чатал--
че--
чекх--
чекхъ--
чел--
чепе--
чер--
черда--
чере--
черни--
черно--
черныше--
черня--
чех--
чече--
чеченс--
чи--
чил--
чир--
чис--
чисто--
чиш--
чка--
чо--
чор--
чоь--
чу--
чуд--
чул--
чун--
чур--
чух--
чӏ--
чӏа--
чӏагӏ--
ш--
ша--
шаб--
шад--
шал--
шам--
шап--
шар--
шарыпо--
шат--
шах--
шахь--
шаь--
шве--
швец--
ше--
шел--
шер--
шест--
шехӏ--
ши--
шиго--
шил--
шин--
шир--
ширя--
шиш--
шко--
шма--
шо--
шов--
шоз--
шор--
шот--
шпа--
шта--
шу--
шуми--
ще--
щер--
ы--
ь--
э--
эв--
эду--
эк--
эко--
эконо--
экономиче--
экс--
экспе--
эл--
элек--
электр--
эль--
эм--
эн--
энг--
эп--
эпо--
эр--
эс--
эст--
эт--
этим--
этно--
эф--
эч--
эш--
ю--
юж--
юкъа--
юни--
юр--
юри--
юртов--
юсу--
юх--
юха--
юь--
юьр--
юьрта--
я--
яб--
яг--
ягод--
яз--
як--
яков--
яковлев--
яку--
ял--
ялуторо--
ян--
япо--
яр--
яру--
яс--
ях--
яц--
ӏ--
ӏа--
ӏам--
ӏар--
ӏел--
ӏи--
ӏом--
ا--
--0
--00
--000
--001
--002
--003
--004
--005
--006
--007
--008
--01
--011
--012
--013
--02
--03
--030
--031
--032
--04
--040
--043
--05
--06
--07
--070
--072
--073
--078
--08
--080
--09
--095
--097
--1
--10
--100
--11
--12
--121
--122
--13
--14
--141
--15
--155
--157
--16
--17
--170
--18
--19
--2
--20
--21
--22
--23
--24
--25
--252
--26
--27
--28
--29
--3
--30
--31
--32
--33
--334
--34
--35
--36
--37
--371
--376
--38
--39
--4
--40
--41
--42
--43
--44
--440
--444
--45
--452
--46
--47
--471
--48
--49
--5
--50
--51
--511
--52
--53
--54
--55
--56
--562
--57
--58
--59
--6
--60
--61
--62
--63
--631
--64
--65
--66
--67
--68
--69
--7
--70
--71
--711
--72
--73
--74
--742
--75
--755
--76
--77
--78
--786
--79
--8
--80
--800
--81
--82
--83
--833
--84
--85
--86
--87
--88
--89
--9
--90
--91
--910
--911
--92
--93
--935
--938
--94
--945
--95
--96
--966
--97
--98
--987
--99
--a
--ad
--al
--an
--as
--ate
--ation
--b
--ble
--box
--c
--ce
--ces
--ch
--ck
--ct
--d
--de
--e
--earch
--ed
--en
--ent
--er
--ers
--es
--et
--f
--g
--ge
--gn
--h
--her
--i
--ia
--ic
--id
--ie
--ies
--ight
--ign
--il
--im
--in
--ing
--ion
--ions
--is
--ive
--j
--k
--ke
--ki
--ks
--l
--la
--le
--li
--ll
--ls
--ly
--m
--mber
--ment
--mp
--n
--na
--naks
--nce
--nd
--ne
--ng
--ns
--nt
--nts
--o
--ok
--oks
--on
--ons
--or
--ors
--os
--ot
--p
--pty
--q
--r
--ra
--ral
--rd
--re
--rgs
--rn
--rs
--rt
--ry
--s
--se
--sia
--sian
--sk
--son
--ss
--st
--sue
--t
--ta
--te
--ted
--ter
--ting
--tion
--ton
--tor
--ts
--ty
--u
--ue
--ul
--um
--ur
--us
--v
--ve
--w
--x
--y
--z
--а
--ав
--ава
--ада
--адан
--адин
--адо
--ае
--аев
--аево
--аж
--аз
--аи
--ак
--аково
--ал
--алла
--аллин
--ам
--амаш
--ами
--ан
--ана
--ане
--ани
--ание
--ании
--ания
--ано
--аново
--ар
--ара
--ари
--арии
--арш
--ас
--ат
--ата
--ать
--ау
--ах
--ахо
--ахь
--ац
--аца
--аци
--ач
--ачи
--ачин
--аш
--аша
--ашан
--аши
--ашин
--ашка
--ашкахула
--ашкахь
--ашна
--ашца
--ая
--б
--ба
--бан
--бах
--баш
--бе
--беи
--бек
--би
--бо
--бург
--бье
--в
--ва
--ван
--вар
--вать
--вая
--ве
--вец
--вець
--ви
--вилл
--виль
--вин
--вич
--вичи
--вка
--вки
--вн
--вна
--во
--вое
--вои
--вск
--вская
--вски
--вуд
--вцы
--вы
--вые
--выи
--вье
--г
--га
--ган
--ге
--ген
--гер
--ги
--гии
--гин
--гино
--гия
--го
--гор
--горье
--град
--гу
--гӏ
--гӏе
--гӏи
--д
--да
--дала
--дан
--дар
--даш
--де
--дж
--джа
--джи
--джик
--джикнан
--ди
--дии
--дка
--дни
--до
--дов
--долу
--доьду
--дра
--дс
--дт
--ду
--ды
--дь
--дье
--е
--ев
--ева
--еван
--еви
--евич
--евичи
--евка
--евн
--ево
--евски
--ега
--егӏ
--ее
--еево
--ез
--еи
--ек
--ел
--еле
--елка
--ель
--ем
--ен
--ени
--ение
--ении
--ения
--енка
--енки
--енс
--ент
--ень
--епе
--ер
--ера
--ериал
--ес
--ества
--ет
--ета
--еть
--ех
--ехула
--ехь
--ец
--ецан
--ецкии
--ецкое
--ець
--еш
--ештин
--ешть
--ж
--жа
--же
--жи
--жице
--жки
--жни
--жо
--жок
--жу
--жье
--з
--за
--зан
--занскан
--заци
--зе
--зи
--зии
--зин
--зино
--зия
--зки
--зм
--зо
--зово
--зу
--зы
--зь
--зье
--и
--иа
--иан
--ив
--иг
--ид
--ие
--иев
--ием
--изм
--ии
--ик
--ика
--икан
--ики
--ико
--ил
--илеи
--илово
--им
--ин
--ина
--инан
--инг
--ини
--инка
--ино
--иновка
--иново
--ины
--ио
--ир
--ира
--ис
--ит
--ить
--иться
--их
--иха
--иц
--ица
--ицан
--ице
--ицы
--иця
--ич
--ича
--ичи
--иш
--ище
--ищи
--ию
--ия
--к
--ка
--кан
--кара
--касы
--кахула
--кахь
--кая
--ке
--кехь
--ки
--кие
--кии
--кин
--кли
--ко
--ково
--кое
--кон
--кс
--кт
--ктор
--ку
--кув
--кугӏ
--куль
--кх
--кци
--къ
--къа
--л
--ла
--лак
--лан
--лг
--ле
--лехь
--ли
--лии
--лик
--лин
--лица
--лия
--лка
--лл
--лла
--лле
--ллехь
--лли
--ллии
--ллин
--ллица
--лло
--ллс
--ло
--лое
--лок
--лс
--лт
--лу
--лур
--луш
--лха
--лхо
--лц
--лча
--лы
--лыи
--лык
--ль
--льд
--лье
--льни
--льных
--лья
--ля
--ляк
--м
--ма
--мад
--ман
--маци
--маш
--мби
--ме
--мен
--ми
--мии
--мка
--мо
--мов
--мово
--му
--мя
--н
--на
--нан
--нар
--нара
--нах
--наш
--ная
--нг
--нга
--нд
--нда
--не
--нево
--нее
--нер
--нера
--нех
--нехь
--нец
--нза
--ни
--ниг
--ние
--нии
--ник
--никово
--нин
--ница
--нице
--ниця
--нию
--ния
--нка
--нки
--нко
--нли
--нн
--нна
--нная
--нни
--нно
--нного
--ннои
--нность
--нные
--но
--нов
--ного
--ное
--нои
--ном
--ности
--ность
--нс
--нск
--нскан
--нская
--нски
--нскии
--нское
--нт
--нташ
--ну
--нуть
--нца
--нцы
--нча
--ны
--ные
--ныи
--ным
--ных
--нь
--нье
--ньи
--ня
--о
--ов
--ова
--ован
--овая
--овец
--ови
--овице
--ович
--овичи
--овка
--овкан
--овн
--овна
--ово
--овое
--овои
--овс
--овск
--овски
--овскии
--овское
--овцы
--овы
--овыи
--овье
--ог
--ога
--оги
--ого
--ографи
--од
--ое
--оз
--ои
--ок
--ол
--ола
--ологи
--оль
--ольск
--ольски
--ом
--ома
--он
--оне
--оп
--ор
--ос
--ош
--оьи
--п
--па
--пе
--пенан
--пи
--пинар
--пов
--пово
--пп
--пу
--пы
--р
--ра
--рал
--ран
--рафи
--рах
--рг
--рд
--ре
--рево
--рех
--рехь
--речье
--рж
--ржа
--ри
--рии
--риш
--рия
--рк
--рка
--рки
--рли
--рло
--рн
--рна
--рниг
--рня
--ро
--ров
--рово
--рои
--рс
--рск
--рт
--рта
--ру
--рх
--рхен
--рхо
--рхошна
--рца
--рчу
--рш
--ршна
--ры
--рь
--рье
--рьево
--ря
--с
--са
--саев
--саш
--сбург
--свилл
--се
--селье
--си
--син
--сия
--ск
--скан
--ская
--ске
--ски
--ские
--скии
--ско
--ского
--ское
--скои
--сл
--со
--сово
--сон
--сс
--сса
--сси
--ст
--ста
--стан
--сташ
--ства
--сти
--стии
--сть
--су
--сы
--сь
--сье
--ся
--т
--та
--тал
--тан
--тау
--таун
--тах
--таца
--таш
--тво
--те
--тель
--тен
--тепе
--тер
--ти
--тии
--тик
--тин
--тия
--тка
--тки
--тли
--тни
--то
--тов
--товка
--тово
--тон
--тор
--тт
--ту
--ты
--тыи
--ть
--тье
--тьево
--ться
--тя
--у
--уа
--ув
--уд
--уз
--узен
--уи
--ук
--ул
--ула
--ум
--ун
--унан
--уо
--уп
--ур
--ура
--уран
--ург
--урин
--ус
--ут
--уть
--ух
--уш
--уь
--ф
--фа
--фан
--фе
--фи
--филд
--фф
--х
--ха
--хе
--хи
--хии
--хк
--хо
--хов
--ховка
--хово
--хои
--хочо
--хочун
--хоша
--хошна
--ху
--хула
--хь
--хьа
--хьама
--хьара
--хӏ
--хӏан
--хӏисаран
--ц
--ца
--цан
--це
--цево
--цеш
--ци
--цин
--цино
--ция
--цк
--цки
--цкии
--цко
--цкое
--цо
--цово
--цу
--цы
--ць
--ця
--ч
--ча
--чара
--чарех
--чарна
--че
--чев
--чево
--черан
--чех
--чи
--чии
--чик
--чин
--чино
--чиха
--чихан
--чице
--чка
--чки
--чни
--чо
--чу
--чул
--чун
--чух
--чь
--чье
--чьи
--ш
--ша
--шан
--ше
--шево
--ши
--шин
--шино
--шка
--шкахь
--шки
--шна
--шня
--ште
--шть
--шца
--шь
--ща
--ще
--щево
--щи
--щина
--ъ
--ъа
--ъе
--ъян
--ы
--ые
--ыи
--ым
--ынь
--ых
--ыш
--ь
--ьба
--ьга
--ье
--ьево
--ьи
--ьино
--ьк
--ьки
--ько
--ьлла
--ьлчи
--ьн
--ьне
--ьни
--ьнца
--ьрг
--ьс
--ьск
--ься
--ью
--ья
--ьяк
--ьян
--ьяново
--э
--ю
--ющии
--я
--ября
--як
--ял
--ям
--ян
--яна
--янка
--яр
--яс
--ята
--ять
--ях
--ӏ
--ӏа
--ӏан
--ӏе
--ӏи
