!
"
#
##0
##1
##10
##11
##12
##13
##14
##15
##16
##17
##18
##19
##2
##20
##21
##22
##23
##24
##25
##26
##27
##28
##29
##3
##30
##31
##32
##33
##34
##35
##36
##37
##38
##39
##4
##40
##41
##42
##43
##44
##45
##46
##47
##48
##49
##5
##50
##51
##52
##53
##54
##55
##56
##57
##58
##59
##6
##60
##61
##62
##63
##64
##65
##66
##67
##68
##69
##7
##70
##71
##72
##73
##74
##75
##76
##77
##78
##79
##8
##80
##81
##82
##83
##84
##85
##86
##87
##88
##89
##9
##90
##91
##92
##93
##94
##95
##96
##97
##98
##99
$
%
&
'
(
)
*
+
,
-
.
/
0
00
000
002
01
02
03
035
04
05
06
07
075023
08
09
1
10
100
1000
101
103
104
105
107
11
111
112
113
116
117
119
12
120
123456789
125
126
128
129
13
130
1300
136
14
140
143
147
15
150
1500
1517
1518
1521
155
15569
1590
16
160
1600
163
164
1646
165
1652
1668
168
1690
17
1714
1727
1758
1777
178
1785
18
180
1800
1809
1815
1818
182
1825
1831
1835
1850
1859
186
1860
1874
1875
1876
1882
1886
1889
1890
1898
19
1900
1901
1903
1904
1905
1907
1909
1910
1911
1913
1914
1915
1916
1917
1919
192
1920
1923
1928
1930
1938
1939
1940
1943
1945
1946
1948
1949
1952
1953
1954
1955
1956
1957
1958
1959
1960
1961
1962
1963
1965
1966
1967
1968
1969
197
1970
1971
1972
1973
1974
1975
1976
1977
1978
1979
1980
1981
1982
1983
1984
1985
1986
1987
1988
1989
199
1990
1991
1992
1993
1994
1995
1996
1997
1998
1999
2
20
200
2000
2001
2002
2003
2004
2005
2006
2007
2008
2009
2010
2011
2012
2013
2014
2015
2016
2017
2018
2019
2020
2021
2022
2023
2024
2025
2026
2027
2028
2029
2030
2031
2032
2033
2035
2040
2041
2042
2043
205
208
209
21
210
213
22
220
222
224
225
23
230
233
234
238
24
240
246
247
248
249
25
250
252
254
2548
257
26
260
263
264
27
270
273
277
278
28
280
281
282
283
284
285
29
3
30
300
3000
305
31
310
312
314
315
32
321
33
337
34
348
35
351
353
354
355
36
360
361
366
368
369
37
371
372
375
38
381
388
39
392
393
4
40
400
4000
4008
405
407
41
42
420
428
43
430
435
44
45
46
47
474
475
476
477
478
48
480
482
483
484
485
486
487
488
489
49
490
491
492
493
494
495
496
5
50
500
502
51
510
511
52
52914
53
54
543
55
556
557
558
559
56
560
561
562
563
564
57
579
58
580
581
582
59
592
6
60
600
602
61
62857845
63
64
65
66
67
672
68
69
691
7
70
700
7000
71
72
73
74
75
76
77
78
79
8
80
800
8000
81
8129
82
83
84
85
850
86
87
89
9
90
900
91
92
93
94
95
96
97
978
9780486450063
9789792118155
979
98
99
:
;
=
?
@
\
^
_
`
a
aanteekeningen
aaron
ab
abad
abaga
abakha
abakhania
abalugu
abao
abarani
abaranira
abasaki
abaso
abataha
abbey
abdomen
abdu
abdul
abe
abene
aberahamo
aberamo
abeto
abo
abolobolo
aborsi
aboto
about
abraham
abstraksi
abu
abua
abuania
abudo
ac
acar
acara
acarodermatitis
aceh
acid
acton
ad
ada
adalah
adam
adamo
adanya
adaptasi
adat
adawa
address
adil
adira
administrator
ado
adodogo
adogo
adogoa
adogodogo
adogoi
adrian
adrianus
adu
adudu
adulo
adulonia
adulosoi
adults
ae
aefa
aefo
aegagrus
aekhu
aekhugo
aekhula
aekhulania
aendro
aetu
afabo
afaduhu
afaehu
afahato
afakhai
afalukha
afango
afao
afarisayo
afaruka
afasi
afaso
afato
afefu
afektif
afeto
affairs
afi
afia
afo
afoa
afore
afp
afrika
after
afu
afufu
afulu
afuriata
afuriatania
afusi
ag
aga
agaboto
agafo
agakandro
agama
agamara
agambaoho
aganau
agape
agar
ago
agung
agustinus
agustus
ah
ahakho
ahani
ahato
ahe
ahele
aheta
ahili
ahli
ahmad
aho
ahole
ahono
ahonoa
ahori
ahou
ahowu
ahulo
ahulu
ahulua
ahuluara
ahuwa
ai
aids
aila
air
aisi
aiso
aito
ajak
ajaran
aka
akademi
akademisi
akaliru
akan
akao
akar
akayo
akhari
akhe
akhi
akhinia
akhir
akho
akhozi
akhulada
aki
akses
aksesi
aksioma
akta
aktif
aktivitas
akui
al
ala
alai
alam
alami
alamiah
alangi
alasa
alasan
alat
alau
alaw
alawa
alawe
alawekecamatan
alawera
alba
albertus
aldehid
ale
alergi
aleu
alew
alex
alexa
alexander
alexandria
ali
alimago
alimbo
alio
alioko
alisi
alito
aljabar
alkaloid
alkitab
alkohol
alkostar
all
allah
allen
alliance
alo
alowalangi
alquran
alt
altaica
alu
alua
aluania
alubanua
alufo
alui
aluimo
alukha
alumni
alveoli
am
ama
amabu
amada
amaedola
amaehuta
amaehutara
amagu
amakhai
amakhaita
amakhaitania
amakhoita
amalua
amama
amamoka
amandraya
amania
amano
amaosata
amaranthus
amarase
amareta
amaro
amate
amatela
amatenia
amatohula
amatonga
amaw
amawa
amawao
amb
ambo
ambon
ambukha
ame
amena
amenesi
american
amerika
amesokho
ami
amino
amo
amoguna
amohadu
amokho
among
amoni
amonita
amono
amoyensis
amplitudo
amsal
amsterdam
amualago
amuata
amuhua
amunu
amur
amuri
amusolado
amuzaewe
an
ana
anaemia
anak
anaknya
analisis
anaoma
anastomus
anatomi
anau
anaukhu
anaunau
anaunia
ancestors
ancient
and
andre
andrew
andro
android
aneka
anema
anemai
anemia
anga
angali
angalo
angandro
angaro
angela
angerago
angeraigo
angetula
anggaran
anggota
angi
angka
angkatan
anglikan
angoguna
angolifa
angolita
angombakha
angombakhata
angora
angorudua
angoruduania
angowuloa
ani
ania
anicetus
anifi
anihakeriso
animal
animals
anjing
annelida
annie
ano
anofula
anofuli
antar
antara
antaranews
antawirya
anthropologist
anti
antibodi
antihelmintik
antikanker
antiokhia
antioksidan
antipater
antonius
antropolog
antropologi
anu
anua
anugerah
anulasi
anumalo
anumana
anuno
anxiety
ao
aoha
aohasi
aolo
aoloma
aombo
aoni
apa
apade
apapun
apel
api
aplikasi
apollo
apolonius
apoptosis
apose
apostolik
apotek
apotik
app
apple
april
aqob
aquatica
aquinas
ara
arab
arabia
arabica
arabika
arah
araido
arakha
arakhago
arako
aramba
arame
arami
aramo
arania
arao
arara
arato
arawi
archive
are
areca
arecaceae
arecaidine
arecaine
arecanut
arecoline
arekolin
arekolina
aren
areu
argentina
aria
aritmetika
arlington
arloji
aro
arongoa
arora
arota
aroziduhu
arsip
arsitek
arsitektur
artemis
article
artidjo
artifisial
artikel
artinya
artis
arts
arua
arugi
aruru
arurua
aruzo
arya
as
asa
asad
asal
asala
asali
asam
asambua
asara
asasi
ase
asese
aset
asi
asia
asian
asila
asiliyaw
asin
asinan
asing
asio
asioini
asioni
asitengabo
asiwai
asli
aso
asogo
asogu
asonia
asora
asosiasi
asosiatif
asoso
asosoi
aspek
asrama
assessment
assisi
association
astringent
astronomi
asu
at
ata
atabo
ataha
atama
ataro
ataru
atas
atau
ataupun
atayania
ate
atebulo
atedou
atedounia
atefuta
ategaolo
ateho
atekiko
aterou
atewu
ati
atlantik
ato
atobali
atohare
atoharera
atokea
atora
atoro
atoru
atosasa
atoto
atsiri
atta
atua
atuania
atulo
atumbu
atumbukha
atumbunia
aturai
au
audio
augend
aukhu
aukhunia
auri
aurida
aurifa
aurifo
aurinia
aurira
aus
australia
australian
australis
austronesian
autokrin
avinu
avraham
aw
awa
awai
awakho
awal
awale
awalisi
awam
awe
aweda
awedo
awela
awena
awetan
awo
awu
awuwu
awuyu
aya
ayagawe
ayah
ayam
ayat
ayati
ayu
ayub
azi
azo
azowato
azuni
b
ba
babaya
babi
babilonia
babura
baby
bacang
bachelor
bactrocera
bada
badagahe
badalu
badan
badano
bade
badete
badger
bado
badu
bae
baene
baera
baero
baerolangi
baew
baewa
baewali
bag
baga
bagania
bagi
bagia
bagian
bagino
bago
bagolo
bagotalua
bagotaluania
bagotaluara
bagulidano
bah
bahan
bahana
bahasa
bahaya
bahili
bahiza
bahkan
baho
bahwa
baik
baini
bajo
bakabu
bakal
bakar
bakha
bakhania
bakho
bakhu
bakteri
bakteria
baku
bala
balaekha
balai
balaki
balalu
balanda
balandra
balau
balazi
balazo
bali
balik
balo
baloi
balu
balubalu
balugo
balugu
baluse
bambanua
bambo
bambu
ban
bana
banaha
banahia
banana
bananas
banasi
band
bandar
bandara
bandung
bang
bangai
bangainia
bangasi
bangau
bangkok
bangladesh
bangsa
bangun
baniha
banio
banjar
bank
bano
banomo
bantam
bantu
bantuan
banua
banuada
banuania
banuasa
banuasibohou
banyak
bao
baomo
bapa
bappenas
bara
barack
baragale
barang
barangsiapa
barani
barasi
barat
barelang
barlow
barmen
barnabas
baro
barong
barrier
baru
baruzo
bas
basaki
basis
baso
bast
bat
bata
bataha
batak
batam
batang
batano
batavia
bate
batere
batin
batogo
batu
bau
baulu
baw
bawa
bawadeso
bawah
bawandruho
bawang
bawangai
bawangowalu
bawania
bawi
bawiibid
bawo
baya
bayam
bayi
bayo
bazibongi
bazinga
bazisambua
bazo
bbc
be
beagle
bean
beans
beatty
bebas
bebe
bebek
beberapa
beca
bedah
bedanya
been
behu
beijing
bekerja
bekhu
bela
belakang
belanda
belang
belas
belawan
bele
belewa
belgia
belize
bell
belu
beluk
ben
benang
benar
benda
bendahara
bendara
bene
benedict
benediktus
benggala
bengkong
bengkulu
benih
benjamin
benteng
bentuk
benua
beo
berada
berakhir
berangkat
berani
berard
berasal
berat
berbagai
berbahasa
berbanding
berbentuk
berbuat
berbulu
berbunyi
bercak
bercerai
bercocok
berdarah
berdasarkan
berdosa
berencana
berfungsi
berguna
berhalusinasi
berhasil
beri
berikut
berisi
berita
berkas
berkat
berkeluarga
berkenaan
berkokok
berkontribusi
berkurang
berlaku
berlangsung
berlatih
berlawanan
berlebihan
berlin
berpendapat
berperang
berra
bersahaja
bersalah
bersama
bersifat
bersih
bersyarat
bertahan
bertahap
bertanggung
bertani
bertentangan
bertujuan
berua
berumah
berupaya
berwarna
berzina
besar
beserta
besi
beta
betara
betawi
betina
beto
betu
betua
beyond
bhutan
bi
biara
biasa
biaya
bibit
bible
bicolor
biden
big
biha
bihasa
bijak
bijbelgenootschap
biji
bila
bilangan
billion
bima
bimasakti
bin
binaka
bine
bini
bino
bintang
binu
bio
biography
biokimiawi
biologi
biology
bir
biri
biru
bisa
bisnis
biso
bisul
bitaha
bizi
bj
bks
black
blackberry
blogspot
blood
bnkp
bo
bobot
bobozi
body
bogo
bogor
boha
bohalima
bohou
bokai
bola
bolalahina
bolihae
bolo
bolokha
bom
bongi
bongsu
book
books
bosi
bosibosi
bosinia
botani
boto
botol
botombawo
botomuzo
botonia
botow
bowo
bowoa
bowonia
boyo
bps
brad
brandenburg
brannan
brasil
brazil
breastfeeding
bri
britania
britannica
british
bros
brothers
brown
browne
brunei
bruno
btn
bu
bua
buah
buahan
buala
buania
buatan
buato
buaya
bubu
bubuk
bubur
bucerotidae
bucorvus
budaya
buddha
buddhisme
bude
budi
budidaya
budu
bugis
built
bukan
bukanlah
bukannya
bukit
bukittinggi
bukti
buku
bulan
bulawan
buli
bulla
bulu
bulugeu
bulunia
bumi
bunga
buni
bunia
bunuh
bupati
burbn
burgess
burma
burmese
buru
buruk
burune
burung
business
bute
butir
buwu
by
c
cabai
cacing
cajetan
cakra
calico
california
calon
calopteryx
cambridge
cambuk
camp
campak
campuran
campus
canadian
canis
cap
cape
capra
capsaicin
capsicum
capung
cara
care
carica
carl
case
cassava
casti
castilla
cat
catatan
catechism
catechu
catholic
catholicity
catus
cc
ccc
cdc
cek
cell
cempedak
centang
center
centers
ceo
cepat
cerai
cerdas
ceriagrion
cerita
ch
cha
chagas
charles
chen
chewing
chi
children
china
chinchilla
choi
chow
chris
christian
christianity
christians
christmas
christopher
chrome
chronic
ciamis
ciconia
cina
cinta
cipta
ciptaan
ciri
cit
citrus
civilization
civitate
ckd
clieu
clinical
cm
cnn
co
cobaan
cocos
coenagrion
coffea
coffee
coklat
college
collins
colocasia
com
committee
common
como
company
comscore
conference
congregatio
connubii
conservation
constant
consumption
contoh
control
coon
cooper
copernicus
corbetti
corona
coronavirus
coronel
cotton
countries
courage
covid
cox
crab
creutzberg
crop
crops
cross
crumeniferus
cruz
cucumis
cucurbitaceae
cuju
cukup
cultural
culture
curriculum
d
da
daa
dabina
dachi
dadao
dadaoma
dae
daeli
daelu
daerah
dafitu
daftar
dafulu
daging
daha
dahadano
dahana
daho
daily
dairy
dakera
dalam
dalamnya
dali
dalifuso
dalil
dalimbo
dalinga
dalingara
dalo
daloe
dalu
dalumbanua
daluni
dalunia
damai
dambai
dambo
dambu
damo
dan
dana
danau
dandra
dandraluo
dandrania
dandraya
dandro
dandru
dandrunia
dane
danego
danga
dangania
dangara
dangi
dani
dania
daniel
dano
dao
daodao
daodaozanuwo
daoma
dapat
dapil
dar
dara
darah
darat
dari
darinya
daripada
daroma
daromali
darua
darurat
darwin
dasa
dasar
data
database
datang
dato
daun
david
daw
dawa
dawai
dawido
dawo
dawuo
daya
dayak
dayo
dayonia
de
dead
deal
death
debu
december
decentcoffee
declaration
definitif
degu
dei
dekan
dekat
dekha
dekhe
dela
delafiga
delaware
deli
delta
dema
demam
demand
demi
demikian
demografi
demokrat
den
dengan
deni
denninger
denominasi
depan
departemen
department
depkes
der
derajat
des
desa
desain
desember
deskripsi
desmond
deso
desolo
dete
deteho
deteksi
detenia
detik
detiknews
deu
deutsches
development
dew
dewa
dewan
dewasa
di
dia
diabetes
diagnosa
diagnosis
diakon
diakses
diala
dialek
diambil
diameter
dianggap
dianjurkan
diarahkan
diare
dibalik
dibangun
dibenarkan
dibuat
dictionary
die
diet
diganggu
digital
dignityusa
diharapkan
dihasilkan
dihindari
dikarenakan
diketahui
dikritik
dilaksanakan
dilakukan
dilakukannya
dilarang
dilihat
dima
dimakan
dimaksudkan
dimensi
dimiliki
diminta
dimodifikasi
dimorfisme
dinas
dinasti
dini
dinikmati
diosesan
dipakai
dipaksa
dipandang
dipanggil
dipelesetkan
diperbolehkan
dipercaya
dipercayakan
diperlukan
diperoleh
diperuntukkan
diponegoro
diptera
dirangkum
direktorat
direktur
diri
dirinya
disambig
disambiguasi
disease
disebarkan
disebut
diselipkan
diserahkan
diskriminasi
disney
distribusi
distrik
ditandai
ditanduk
ditemukan
diterima
ditetapkan
ditjen
ditujukan
dituntut
diubah
divisi
diwajibkan
diwo
dkk
dl
dll
dna
do
doa
dobara
dobua
doctrina
dodol
dog
dogo
dogs
dohare
doho
doi
dokter
doktor
dokumen
dokumentasi
dola
dolar
doli
dolidoli
dollar
dolo
domba
dombua
dome
domeda
domera
domesticus
domestik
domestikasi
donald
donga
dongania
dongo
donia
donya
dorman
dorosi
doru
dosa
dosen
dosis
doto
dou
double
douglas
dover
down
doyo
dozi
dpc
dpr
dprd
dr
dragon
drako
drs
drum
du
dua
duada
duania
dubala
duduk
duduma
dufa
dugala
duha
duhemberua
duhi
duho
duhu
duka
duku
dukungan
duli
dulu
duma
dumadao
dumadumania
dumania
dumba
dumbao
dumo
dundraha
dundro
dung
dungo
dunia
duniawi
duno
duo
duria
durian
duriania
duru
durudano
dusu
dusun
duturu
dvina
dwarf
e
earlybird
east
ebolo
ebolonia
ebua
ebuania
ec
eck
economist
ed
edena
edisi
editor
edo
eds
edu
education
edward
edwards
ee
een
efa
efasi
efek
efektif
efeso
ege
egebua
egebuania
eggplant
eha
ehao
ehaogo
ehede
eheha
eho
ehomo
ehosakhozi
ehowu
ein
einstein
ejection
ekholo
ekonomi
ekor
eksklusif
ekskomunikasi
ekspedisi
eksperimen
ekspor
ekstensif
ekstrak
ekstrem
el
ela
elang
ele
elegans
elego
elektrik
elemen
elemu
elew
elewazi
eli
elio
elizabeth
elo
elohei
elsevier
eluaha
eluahania
eluahara
elungu
ema
emali
emania
emanuel
emara
emas
embrio
embua
embun
emedicine
emosi
empat
en
ena
enaho
enao
enata
enau
encyclopedia
endemik
endokrin
endro
endronga
energi
enggano
engine
english
enia
enoni
ensiklik
ensiklopedia
entri
enzim
eo
ep
ephippiorhynchus
epidemi
epidermis
epilepsi
era
erai
erasmus
ere
erege
erei
ernst
ero
eroma
eropa
eruno
erxleben
es
esculenta
ese
esesolo
esi
esiw
esolo
essentials
ester
estetika
estrogen
esuano
et
etanol
etanolik
ethics
ethnographische
etika
etimologi
etiopia
eto
etu
etuna
eu
eugenika
eunia
eurocopter
europe
euta
eutanasia
ev
evolusi
evolusioner
evolution
ew
ewali
ewe
exchange
exclusive
ezoi
f
fa
faal
fab
faba
fabali
fabalisa
fabaliw
fabanua
fabe
fabeca
faber
fabiri
fabo
fabola
fabu
facebook
factors
fadema
fadiala
fadoro
fadorobahili
fadorosifulubanua
faduhu
faduhusi
fae
faebu
faebuania
faedo
faefa
faehago
faehu
faekhu
faero
fafa
fafo
faga
fagai
fagambo
fagamo
fagaragazi
fagati
fagaw
fagito
fago
fagohi
faha
fahalama
fahandrona
fahao
fahasara
fahato
fahede
faho
fahowu
fahuhuo
fahuhuosa
fahuhuosi
fahulo
fahulu
fahuwu
fahuwusa
faigi
faigo
failo
faisal
fajar
fakai
fakake
fakao
fakaole
fakawa
fake
fakha
fakhai
fakhaito
fakhamo
fakhe
fakhili
fakho
fakoda
fakta
faktor
fakultas
fakulu
falafu
falailo
falaka
falali
falawu
falcon
faleke
falele
falemba
faliaro
falika
falito
falo
falua
falukha
falukhaisi
falukhasa
falulu
falulusa
fama
famabali
famabo
famado
famadu
famaedo
famaedogo
famaedonia
famaehago
famaena
famaenu
famago
famaha
famahao
famahato
famaho
famai
famaigi
famaisa
famakhai
famakiko
famaku
famalala
famalali
famalalini
famalega
famaliaro
famalua
famangele
famano
famao
famareso
famareta
famarou
famaruka
famasao
famasindro
famaso
famasua
famati
famatimba
famatira
famato
famatu
famatua
famatuno
famaw
famawa
famazaewe
famazo
fame
famera
fameta
famidi
famili
familia
familien
family
famo
famoadu
famobo
famoboto
famofa
famohu
famokai
famolakho
famolala
famolaya
famoligo
famono
famorudu
famosumange
famoto
famotokhi
famotu
famunu
fana
fanaba
fanago
fanaha
fanaho
fanandraigo
fanano
fanari
fanasa
fanaw
fanayama
fandrafe
fandrita
fandru
fandrugasi
fanedanu
fanefe
fanehe
fanehego
fanema
fanetenia
faneu
fanga
fangabuso
fangadogo
fangahaogo
fangahato
fangai
fangaila
fangakayo
fangali
fangalo
fangalui
fangalulu
fangami
fangamo
fangandro
fangaoha
fangaro
fangaruwuni
fangaruwusi
fangaso
fangatabo
fangataro
fangaukhu
fangazo
fangefa
fangehao
fangehaogo
fangeheta
fangelama
fangele
fangelifi
fangera
fangerai
fangesa
fangi
fangide
fangiro
fango
fangofo
fangoguna
fangoko
fangombakha
fangona
fangorifi
fangoroma
fangorudugo
fangosili
fangosisi
fangotome
fangowai
fangowalu
fangowasa
fangowasaini
fangoya
fangoyo
fanguhugo
fanguhuku
fanguma
faniha
fanika
fanikha
fanila
faniri
fano
fanofu
fanohugo
fanolo
fanou
fanu
fanufa
fanukari
fanulo
fanuno
fanunu
fanura
fanuriago
fanuriaigo
fanutu
fanutuno
fanuturu
fanuwo
fao
faogo
faohia
faola
faoma
faondra
faondrato
faosa
faosato
faoso
fara
farago
faraha
farahu
faramasa
faramasania
farasi
faratai
farege
fareso
fareta
fariawo
farisayo
farisayoi
faritia
farm
farmasi
faro
faruka
fasa
fasafi
fasala
fasambua
fasanga
fasao
fasaule
fasaulesaule
fasazilo
fase
fasindro
faso
fasting
fasui
fasumangeta
fasuwo
fataha
fatahana
fataho
fatalifuso
fatambai
fatandri
fatele
fatelepon
fatema
fatenge
fatete
fati
fatimba
fatiti
fato
fatohu
fatolosa
fatome
fatu
fatua
fatui
fatuka
fatukasa
fatuno
fatuo
fatutu
fatuwu
fau
faudu
faudugo
fauri
favoured
fawu
fawukho
fayaw
fayo
faza
fazaewe
fazambua
fazaumba
fazazita
fb
fe
fealu
feasts
feb
februari
february
federal
federasi
federation
fefu
fehede
fele
felelima
felendrua
felew
felewalu
felewitu
felezara
felidae
felis
fellows
femanga
fenaeta
fenini
fenolik
fera
fere
fertilisasi
fertilization
festival
fetaho
fetaro
fetaronia
fetarora
fetero
fetua
ffu
fi
fia
fiber
fidei
field
figa
fighting
fihr
fiku
filato
file
filem
filemo
fili
filipi
filipina
film
filosofi
filsafat
filsuf
finalisfinalist
findra
findrako
finia
finlandia
fino
fire
firo
first
fish
fisher
fishman
fisik
fisika
fiso
fitu
fitumoi
fitur
fitzroy
flavonoid
flora
flores
florida
flower
flu
fly
fo
fobo
fodo
foeluaha
fofa
fofano
fofo
fogambaraini
fogao
fogaoni
fogati
fogo
fohalo
fohasa
fohayaigo
fohi
fohombo
fohu
foko
fokonia
fokus
folau
folaw
folaya
folaza
foligi
folisi
foliti
folo
folohe
folowi
fombagi
fombaso
fombo
fonaha
fondrako
fondrara
fondraru
fondrege
fondrino
fondro
fondrondrongo
fondrorogo
fondrou
fonga
fongambato
fono
food
for
forbes
foreign
foremilk
formal
foro
forose
fosago
fosil
fosumange
fotatugo
foto
fotokopi
fotuwu
foundation
founder
fowo
fozago
fozawili
fr
fraksi
frame
frameless
francis
francisco
fransiskus
franz
freedom
from
fruit
ft
fu
fuas
fuka
fuli
full
fulo
fulu
fune
fungi
fungisida
fungsi
furi
furinia
furugo
fuso
future
fuyu
g
ga
gaba
gabe
gabera
gaberahamo
gabriel
gabula
gabungan
gada
gadamo
gadaya
gadesi
gadjah
gado
gadulo
gadulonia
gae
gaekhula
gaele
gafalo
gafasi
gafi
gafinia
gafo
gafore
gafuriata
gaga
gagah
gahe
gahenia
gahulua
gahuluara
gai
gajah
galakha
galakhao
galaksi
galametura
galang
galapagos
galasi
gale
galeri
galide
galito
gallus
galo
galogo
gama
gamabu
gamaedola
gamaehuta
gamakhaita
gamakhoita
gamato
gamatohula
gamaudu
gamaw
gamawao
gambara
gambaraini
gambarania
gambe
gambo
gameta
gametaho
gamo
gamonita
gamuata
gana
ganda
gandra
gandrondro
ganefo
ganetenia
gangandro
gangango
gangarahuta
gangelea
gangetula
gangguan
gangolifa
gangombakhata
gangorudua
gangow
gangowuloa
gano
gantung
gao
gaolo
gara
garagazi
garagazini
garam
garamba
gararo
garate
garawi
gari
garilawo
garis
garufu
gas
gasa
gasagasa
gasagore
gasi
gasiw
gaso
gate
gati
gatoli
gatua
gatumbukha
gaudium
gauko
gaurifa
gaurifo
gaw
gawa
gawe
gawelu
gawo
gawofo
gawu
gayo
gaza
gazi
gazuni
gazunira
gc
ge
gea
gecu
gedena
gedrukt
gefe
gehai
geheha
gejala
gelang
gelap
gelar
gelea
gelemu
gelera
gelew
geleyo
gelombang
geluaha
geluahania
gema
gempa
gen
gendro
general
genetic
genetically
genetik
genetika
genggam
genom
genoni
genset
genus
geogarafi
geografi
geografis
geographic
geographische
geologi
geometri
georg
george
georgia
gera
gerakan
gere
gereja
geremani
german
geschichte
gesheim
getah
getuna
geu
gi
gia
giawa
gide
gido
gigi
gili
gilinga
gilo
gin
ginger
ginjal
gino
gio
giro
gito
giwo
giza
gizara
gizi
gizita
gje
gl
global
glucose
glukosa
glycohemoglobin
gmki
go
goats
god
godo
goendrafo
gofano
gofu
gogohe
gogowaya
gohe
gohi
gohito
goi
goigoi
goigoinia
goiogoi
gokho
gola
golambanua
golayama
golden
goli
goligo
golo
golola
golongan
golu
gombo
gomo
gomusola
gondro
gong
gono
good
google
gorahua
gore
gori
gorifito
goroisa
gorontalo
gosali
goso
gossypium
gotalua
gotaluada
gotaluania
gotaluara
gotham
goto
gov
governor
gow
gowasa
gowe
gowi
gowimanekhe
gowirio
gowo
gowoto
gowuloa
graetz
grafik
gram
gramedia
grammar
grand
grapsus
gratian
gravenhage
gravitasi
great
grimm
ground
group
grup
gu
gua
guangdong
guardian
gubalo
gubernur
gugat
gugus
guide
guilt
guinea
guitar
gula
gulden
gule
guli
gulidano
gulinia
gulito
gulma
gulo
gumbu
gumi
gumo
guna
gunania
gunawan
gunting
gunung
gunungbaru
gunungsitoli
gunungtua
guo
gureta
guri
gurifo
guro
guru
gurunga
gurunia
gurura
gurusi
gusa
gusi
guti
guto
gutu
gutundru
guvacoline
gyaru
h
ha
haag
habeli
habibie
habitat
habitatnya
hada
hadaia
hadapan
hadauga
hadia
hadits
hado
hae
hafea
haga
hagania
hagara
hago
haid
hak
hakhi
hakhinia
hakikatnya
hakim
hal
halama
halaman
halasa
halaw
halawa
half
halicarnassus
halle
halo
halodoc
halu
ham
hama
hambae
hambaw
hambawa
hambu
hamega
hamo
hamparan
hampir
han
hana
hand
handbook
handle
handphone
haniha
hantu
hanu
hanya
hanyalah
hao
haogo
hape
harago
harana
harapan
harato
harazaki
hare
harefa
harenia
harga
hari
harian
harimao
harimau
harimbale
harimo
harinake
harita
harris
harry
harta
haru
harus
harvard
hary
haryono
hasambalo
hasamo
hasara
hasi
hasil
hasila
hasilania
hasrat
hasyim
hati
hatinya
hato
hauga
have
haw
hawa
hawaii
hawk
hawu
hawui
haya
hayo
hayya
hba
hcn
he
health
heberai
heberaio
hefe
hego
heha
heinrich
hektar
hektare
hele
helefanikha
helehele
helikopter
helua
hemiptera
hemoglobin
henago
hendri
hendrihendri
heno
henslow
herbal
hercules
heritage
hermafrodit
hermione
herschel
het
heteroseksual
hew
hewa
hewae
hewan
hewisa
heyne
heza
hezo
hezoso
hi
hia
hias
hibala
hibrida
hibridisasi
hidup
hidupnya
hie
high
hijau
hikaya
hikayania
hilarius
hili
hilibadalu
hilidaura
hiliduho
hilifado
hilifalago
hilifalawu
hilifaondrato
hiligafoa
hiligano
hiligara
hiligatoli
hiligeho
hiligodu
hiligoe
hiligolu
hilihambaw
hilihao
hilihati
hilihili
hiliho
hilikara
hililaza
hilimaera
hilimbaruzo
hilimbawo
hilimbo
hilimbuasi
hilimegai
hilimo
hilina
hilinakhe
hilinamaziho
hilinamo
hilinawalo
hilisalaw
hilisalo
hilisangawo
hilisangowo
hilisao
hilisataro
hilisebua
hiliserangkai
hilisimaetano
hiliso
hilitobara
hiliwa
hiliwaebu
hiliwalo
hiliweto
hiliwetogela
hilizalo
hilizarito
hiliziho
hilizoliga
hilizoroilaw
hill
himpunan
hinako
hinaoya
hindery
hindia
hindmilk
hindu
hingga
hino
hipoplastik
hippo
hircus
his
historische
history
hitam
hiv
hiw
hiza
hkbp
hms
ho
hogu
hogunia
hogwarts
hoho
hola
holi
holland
holo
hombo
homoseksual
homoseksualitas
honda
hondra
hong
honje
hono
honogo
horace
hormat
hormon
hormonal
hormone
horo
horofia
hot
hotel
hou
houra
house
how
howu
howuhowu
hoya
hp
hpl
htm
html
http
https
hu
hua
huania
hubbard
hubo
hubungan
hubungi
hudson
huge
hughes
huhuo
huhuora
huku
hukum
hukuma
hulando
hulo
hulu
humaga
human
humanae
humane
humendru
humene
hummel
huna
huno
huo
hura
hurley
hurufo
huruna
hutan
huu
huuu
huuuu
huuuuu
i
ia
iada
iago
iba
ibabaya
ibadu
ibali
ibaloi
ibalugo
ibaso
ibe
iberia
ibid
ibidi
ibini
ibo
ibokai
ibrani
ibu
ibukota
ibukotania
ibunu
ic
id
ida
idan
idano
idanoi
ide
ideide
idenia
identitas
ido
idugu
ifa
ifabo
ifabu
ifaduhu
ifaehago
ifago
ifaha
ifahato
ifahede
ifaheu
ifahowu
ifaigi
ifake
ifakhai
ifakiko
ifalua
ifamawa
ifangelama
ifao
ifaogo
ifarou
ifasa
ifasindro
ifasui
ifatenge
ifato
ifatumbu
ifatuno
ifazaewe
ifazo
ifg
ifili
ifo
ifodiwo
iforoma
ifu
ifuli
ifurugo
ifuto
iga
igi
igide
igo
igogohe
ihalo
ihaogo
ihenago
iho
ihulo
ii
iii
ika
ikan
ikaoni
ikatan
ikhamo
ikhu
ikip
iklan
iklim
ikon
ila
ilada
ilania
ilara
ilau
ilaw
ilir
ilmiah
ilmiahnia
ilmu
ilo
imaedo
image
imam
imamat
iman
imane
imba
immunoglobulin
impaired
impor
in
ina
inaaaaa
inada
inagu
inania
inbreeding
inc
inci
including
indah
indeks
india
indies
indo
indocina
indonesia
indra
indrao
induk
indulgensi
industri
inehego
infeksi
informasi
information
inganga
ingatkan
inggris
ingo
inheriting
ini
inia
inji
injil
inkwell
ino
inpres
insektisida
inseminasi
inses
insiden
inspirasi
instagam
instagram
instan
institusi
institute
insulin
int
integral
interaksi
internal
internasional
international
internet
interpretasi
inti
into
introduction
investasi
io
ion
ios
ipb
iphone
ipomoea
ir
ira
irai
irak
iramatua
iran
iraono
iraonoda
iraonogambo
iraonogeba
iraonohura
iraonolase
iraononia
irara
irasoi
irege
irian
irlandia
iro
iron
irongo
irugi
is
isa
isaac
isalahani
isaw
isawo
isbn
ischnura
ise
isi
islam
island
islands
iso
isofu
israel
issn
istana
istilah
istri
istrinya
isuli
isura
it
ita
itaba
itaha
italia
itandraigo
itania
itaria
itarogo
itatugo
itehe
itehego
itema
itenaw
itete
iti
itik
itimbago
ito
itohugo
itolo
its
itu
itugu
itutuno
ituturu
ituyu
iv
iw
iwa
iwo
ix
iya
iza
izago
ize
izin
izu
izumaigo
j
ja
jabar
jabiru
jackal
jacksoni
jadi
jadwal
jae
jago
jagung
jahat
jahe
jajang
jakal
jakarta
jalan
jam
jamak
jambe
jambi
jambu
james
jamu
jamur
jan
janda
janet
jangan
jangka
jangkrik
janji
jantan
jantung
januari
japan
jarak
jardin
jari
jaringan
jarum
jasa
jatuh
jawa
jawab
jawad
jawwad
jaya
jean
jemaat
jembatan
jenazah
jenderal
jenis
jepang
jerman
jeruk
jesus
jet
jews
jika
jil
jiwa
jiwanya
jmpl
joe
johan
johann
johannes
john
joint
joko
jokowi
jon
jonathan
jose
joseph
josiah
journal
journey
jpg
ju
judaism
juga
juli
julung
jum
jumlah
juni
junisia
jurnal
juruselamat
jus
juta
juz
k
ka
kabar
kabarnias
kabel
kabera
kabinet
kabu
kabufate
kabupaten
kacang
kadar
kadavoor
kadidi
kaefe
kafalo
kafeina
kafu
kain
kaisaro
kait
kakap
kaki
kaku
kala
kalajengking
kalasi
kale
kaledaia
kali
kalifornia
kalimantan
kalori
kalsium
kalua
kamala
kambera
kambing
kambo
kamboja
kamera
kameza
kamis
kampanye
kampung
kampus
kamus
kana
kanada
kanan
kandra
kandrondro
kandungan
kangkung
kanisius
kanji
kanker
kanselir
kanton
kantor
kaoni
kapal
kapas
kapitalisme
kapten
kapusin
kapuziner
kara
karakteristik
karang
karat
karate
karbohidrat
kare
karena
karet
karibia
karier
karim
karl
karnivora
karo
kartu
kartun
karunia
karya
karyawan
kase
kasih
kasus
kata
katai
katedral
kategori
katekismus
katoli
katolik
kauko
kaum
kaw
kawa
kawaii
kawelu
kawin
kawofo
kaya
kayu
kbbi
kdigo
ke
keadaan
keadilan
keajaiban
keanggunan
keasaman
kebaikan
kebajikan
kebal
kebangkitan
kebenaran
kebencian
keberadaan
keberadaannya
kebiasaan
kebohongan
kebudayaan
kebun
kebutuhan
kecaman
kecamatan
kecenderungan
kecepatan
kecil
kecuali
kedokteran
kedondong
kedua
keenam
kefe
kegagalan
kegembiraan
kegiatan
kegiatannya
kegunaan
kehai
kehendak
kehidupan
kehijauan
kehutanan
keindahan
keinginan
kejadian
kejahatan
kejiwaan
kekal
kekayaan
kekebalan
kekerasan
kekristenan
kekuatan
kelabang
kelahiran
kelamin
kelapa
kelas
kelelawar
kelembagaan
kelera
keli
kelima
kelinci
kelompok
kelopak
keluaran
keluarga
kelurahan
kelvin
kemajuan
kematian
kembali
kemdikbud
kemendagri
kementerian
kementrian
kemerdekaan
kemiskinan
kemoterapi
kemudian
kemuliaannya
kemungkinan
kemurnian
kenikmatan
kentang
kenya
kenyamanan
kepada
kepala
kepausan
kepekaan
kependudukan
kepengurusan
kepentingan
keperawatan
kepolisian
keprok
kepulauan
keputihan
keputusan
kera
kerabat
kerajaan
kereta
kering
keripik
keriso
kerja
kerugian
kerusuhan
kesalahan
kesatuan
kesehatan
keseluruhan
kesembilan
kesempurnaan
kesenangan
kesepuluh
keseriusannya
kesetiaan
kesuburan
kesuksesan
kesultanan
ketam
ketan
ketat
ketela
ketergantungan
ketertarikan
ketidak
ketidakadilan
ketidaksetujuan
ketiga
ketika
ketua
ketujuh
ketupa
ketupat
keturunan
keuangan
keuntungan
keuskupan
kevin
kewajiban
kewu
keyakinan
kg
kh
kha
khai
khala
khamo
khao
khardori
khas
khawa
khenoki
khi
khili
khinia
kho
khoi
khotbah
khusus
khususnya
ki
kiasa
kiat
kibu
kidney
kifo
kilo
kilomete
kilonia
kimia
kingdom
kini
kinologi
kio
kira
kiri
kisa
kisah
kisruh
kita
kitab
klara
klasifikasi
klaus
kleiweg
klerus
kloning
km
knikkers
knpi
ko
koajutor
koda
kode
kodenia
kodrat
kodratnya
koendrafo
kofi
kofia
kohabitasi
koho
koin
koleksi
kolesterol
kolesteron
kolonel
koloni
kolonial
kolostrum
kolosus
koma
komentar
komisi
komitmen
kompas
kompasiana
kompendium
kompeten
kompleks
komponen
komputer
komunikasi
komunis
komutatif
kondisi
kondom
koneksi
konflik
kong
kongo
kongres
konjektur
konkubinat
konsekuensi
konsep
konservatif
konsili
konsisten
konstantin
konstantinopel
konsultasi
konsumennya
konsumerisme
konteks
kontrasepsi
kontrol
kopi
kopra
korbannya
korea
korindro
kortisol
korupsi
kosmetik
kota
kotamadya
kotania
koum
kpu
kpud
kreeft
krieger
kristal
kristen
kristiani
kristus
kritis
kromatografi
kromosom
kru
ktp
kua
kuadrat
kualitas
kuania
kuasa
kuaso
kuasoi
kuat
kubalo
kubu
kucing
kuda
kudo
kudus
kue
kueni
kuil
kuliah
kulit
kulitnya
kultivar
kulu
kumparan
kuning
kuningan
kuno
kuntum
kuo
kupat
kupu
kura
kurangnya
kureta
kurusi
kutipan
kuweni
l
la
laanen
laba
lababaya
labadu
labagi
labali
labalo
labaloi
labalugo
labasi
labaso
labatogo
labayoini
labe
labidi
labila
labilao
labini
labo
labobo
labokai
laboratorium
labu
labulo
labunu
lada
ladari
ladea
ladi
lado
ladou
lae
laeduru
laekato
laerduru
lafa
lafabali
lafabea
lafabo
lafabu
lafaduhusi
lafaedogo
lafaehago
lafaenu
lafaga
lafago
lafaho
lafahulo
lafaigi
lafairo
lafake
lafakhai
lafaku
lafalali
lafalemba
lafaliaro
lafalo
lafalua
lafamawa
lafangowalu
lafano
lafaogo
lafaolago
lafaondrago
lafarahugo
lafareso
lafarisayoi
lafaro
lafarou
lafaruka
lafasa
lafasindro
lafasura
lafataw
lafatenge
lafatete
lafati
lafato
lafatohu
lafatuno
lafau
lafauwu
lafazaewe
lafazaumba
lafazo
lafe
lafera
lafili
lafindrako
lafo
lafodanga
lafodiwo
lafohadu
lafohu
lafondrondrongo
lafono
laforudugo
lafoto
lafotu
lafu
lafuli
lagaini
lagemann
lagi
lagigia
lago
lagohi
lagoligo
lagore
lagu
lagule
lagundri
lahagu
lahalo
lahan
lahaogo
lahayaigo
lahe
lahenago
laheta
lahewa
lahia
lahir
laho
lahole
lahonogo
lahori
lahorigo
lahuhugo
lahuku
lahulu
lahusa
lai
laia
lailo
lain
lainnya
lakaoni
lakete
lakha
lakhai
lakhamo
lakhao
lakho
laki
lakilo
lakirito
lako
laktogeneses
laktogenesis
laku
lakukan
lala
lalai
lalania
lalara
lalat
lalau
lali
lalo
lalu
laluo
lama
lamaera
lamane
lamarck
lambang
lambe
lampu
lampung
lamuhu
lana
lancang
langanga
langi
langit
langka
langsat
langu
language
lania
lanjut
lanjutan
lanjutkan
lanka
lano
lao
laoli
laoly
laos
laosi
laow
laowo
laoya
lapanga
lapangan
lapas
laptop
lara
laraga
laraka
larako
larangan
larango
larasoi
larino
larinogo
laro
larongo
larorogo
larosa
laru
larugi
larva
lasala
lasao
lasara
lasarabaene
lasarabagawu
lasarabahili
lasarafaga
lasasai
lasaw
lase
lasihoi
lasila
laso
lasofu
last
lasugi
lasura
lata
lataba
latafi
lataha
latahaini
lataho
latandraigo
latano
lataru
latataba
latatawi
latatugo
latehe
latema
latera
lateu
lati
latibo
latimba
latimbago
latin
latiti
lato
latohugo
latoto
latunu
lature
latutu
lau
lauru
laut
laverna
law
lawa
lawaendro
lawalawaluo
lawalinga
lawao
lawe
lawo
lawu
lawuo
layang
laza
lazago
lazozo
le
lea
lead
lebe
lebih
lee
lefe
legacy
legenda
lehe
lehenia
leiden
lekato
leke
lela
lelania
lele
lemah
lemak
lemari
lembaga
lembe
lensa
lenyai
leo
leonard
leopard
lepas
lepidoptera
leptoptilos
lere
lestarikan
leste
let
letnan
letters
level
levenson
lew
lewato
lewio
lewo
lewuo
li
liar
library
life
lihae
lihat
liho
likhe
likunga
lili
lima
limau
limi
lingkaran
lingkungan
lingkungannya
linguistics
linia
linn
linnaeus
lintah
lintang
lio
lippo
liputan
lira
lirik
lisbon
lisitiri
list
listrik
litbang
little
liturgi
liu
liw
liwa
liwaliwa
lo
lockheed
lofo
loga
logika
logo
lohe
lohelohe
lokal
lokasi
lolomatua
lombok
lomo
lonceng
london
longhair
lorang
lord
lot
loti
lotu
louis
love
low
lowalangi
lowalangira
lowalangiu
lowalani
lowu
lu
lua
luaha
luahagundre
luahalaraga
luahamofakhe
luahanou
luania
luar
luas
lubang
lubanua
ludwig
lugo
luhur
luka
lukas
lulu
lulugo
lumalo
lumo
luo
lupa
lupus
lurus
luther
lutheran
luwak
lybica
lynx
lyon
m
ma
mabanua
mabe
mabo
mabu
macam
macan
machine
mackerel
mada
mado
madolaoli
madono
madora
madu
madula
madura
maedo
maedogo
maena
maennchen
mafi
maga
magazine
magi
magiao
magnitudo
maha
mahasiswa
mahemolu
mahemolunia
mahkamah
mahkota
mai
maifu
maigi
main
maine
mainz
maize
majalah
maju
makam
makan
makanan
makassar
make
makhluk
making
makna
mako
mala
malai
malaka
malam
malang
malaria
malaya
malaysia
male
malikhokhoi
maliw
malo
maltese
malu
malua
maluku
mama
mamado
mamadoli
mamadu
mamaenu
mamaha
mamahao
mamaigi
mamake
mamakhai
mamakiko
mamalia
mamaliaro
mamalo
mamalua
mamaondrago
mamareso
mamarou
mamasi
mamasugi
mamati
mamato
mamaukhu
mamaw
mamawa
mamazaewe
mamazo
mame
mamera
mamesu
mamidi
mamili
mamo
mamoka
mamokai
mamolakho
mamondriwo
mamondrongo
mamoto
mampu
mamunu
man
mana
manabina
manado
manaere
management
manago
manaha
manaho
manajemen
manana
manangu
manano
manao
manari
manaro
manawa
manchu
manchuria
mandailing
mandarin
mandranga
mandrehe
mane
manegu
manehego
manema
manendre
manfaat
manga
mangadogo
mangadulo
mangaekhugo
mangahaogo
mangahono
mangai
mangal
mangala
mangali
mangalo
mangalui
manganau
mangandrauli
mangandro
mangarato
mangaro
mangawuli
mangebua
mangeheta
mangelama
mangele
mangelifi
mangera
mangerai
mangerogo
mangesa
mangetuna
mangga
mangi
mangifera
mangila
mangiro
mangiwa
mango
mangodo
mangoguna
mangohori
mangokho
mangomasi
mangona
mangoroma
mangorudugo
mangosara
mangositengago
mangow
mangowalu
manguma
mani
maniamo
maniasa
manihot
manimba
manipulasi
manis
manisio
mano
manoe
manofu
manohugo
manolo
mantili
manu
manual
manuge
manuko
manumbu
manuno
manunu
manura
manusia
manusuli
manutu
manutuno
manx
mao
maola
maoso
mar
marafadi
marafala
marafule
marah
marase
marasusi
marataba
marbles
mardiyanto
mareko
maret
marga
maria
mark
market
markus
marmer
maroi
mars
martabat
martin
martinik
martinique
martinus
maru
mary
mas
masa
masaala
masak
masehi
masi
masih
masing
masker
masturbasi
masui
masuk
masyarakat
mata
matahari
matai
mataluo
matang
mate
matematika
matematikawan
matematis
mathe
mathematical
mathematics
mathieu
mati
matiana
matiri
matius
mato
matonga
matonganai
matthew
matua
matuania
maulu
maupun
mausoleum
mausolus
mauwu
mawo
max
may
maya
mayang
mayor
mays
mazauwu
maziaya
mazingo
mazino
mazmur
mazo
mazui
mb
mba
mbadagahe
mbade
mbadu
mbagi
mbagia
mbago
mbagolo
mbakhu
mbala
mbalanga
mbalazo
mbalo
mbalu
mbalugu
mbaluse
mbambato
mbana
mbanio
mbanu
mbanua
mbanuaibid
mbanuania
mbanuara
mbanuasi
mbaruzo
mbata
mbatawi
mbate
mbato
mbaw
mbawa
mbawandruho
mbawania
mbawau
mbawi
mbawo
mbaya
mbe
mbekhu
mbela
mbelu
mbene
mbenua
mbeto
mbetu
mbetua
mbewe
mbewera
mbini
mbiri
mbo
mboe
mboha
mbola
mboli
mbolo
mbolokha
mbombo
mbongi
mbosi
mbosinia
mboto
mbotoa
mbotoda
mbotonia
mbotora
mbotow
mbotowa
mbowo
mbowoa
mbowonia
mboyo
mbu
mbua
mbuala
mbuania
mbuaya
mbude
mbuku
mbukunia
mbuli
mbulu
mbulugeu
mbulunia
mbumbu
mbumo
mbunga
mbunia
mburu
mburune
mbute
mbuwu
mbuyu
mcf
mdpl
me
means
mebendazol
med
medan
medanbisnisdaily
media
medical
medis
mediterania
medium
medo
medscape
medua
mefo
mege
megeno
mei
mekah
mekanik
meksiko
melacak
melahirkan
melakukan
melalui
melanchthon
melanggar
melarang
melawan
melayu
melengkapi
melibatkan
melihat
meliputi
mellitus
melo
meluo
memandang
memandangnya
memasak
membahas
membahayakan
membantu
membedakan
membenarkan
membentuk
memberikan
membo
membuat
membutuhkan
meme
memenia
memenuhi
memiliki
meminta
memisahkan
memohon
mempelai
memperkaya
memperoleh
mempersatukan
mempertahankan
mempromosikan
memulai
mena
menambah
menambahkan
menara
mencakup
mencapai
mencari
menceraikan
mencontohkan
mendaftar
mendalam
mendapatkan
mendefinisikannya
mendorong
mendro
mendrua
mendruamano
mendua
mendukung
mene
menegaskan
menemene
menempati
menengah
menerima
mengajarkan
mengajukan
mengakibatkan
mengakui
mengalami
mengalaminya
mengambil
mengandung
mengasihi
mengatakan
mengatasi
mengawini
mengecilkan
mengecualikan
mengeluarkan
mengenai
mengenal
mengendalikan
mengerikan
mengesahkan
menggunakan
menghambat
menghasilkan
menghendaki
menghilangkan
menghindari
menghormati
mengikat
mengindikasikan
mengklaim
menguak
mengubah
mengundurkan
menguntungkan
mengurangi
mengutuk
menikmati
meninggal
meningkat
menit
meniti
menjabat
menjadi
menjaga
menjamin
menjelaskan
menjemur
meno
menolak
mensyaratkan
mentawai
mentega
menteri
mentimun
menuju
menuntut
menurut
menyadari
menyajikan
menyambut
menyampaikan
menyangkal
menyatakan
menyebabkan
menyebutkan
menyerang
meragembo
merah
merak
mercapturic
mercusuar
merdeka
mere
merek
mereka
merekalah
merendahkan
meriam
merit
merkel
merkurius
merpati
mertua
merupakan
merusak
mesia
mesin
mesir
meskipun
mesokho
mesopotamia
mesra
mesti
meta
metabolik
metabolism
metabolisme
metabolit
metabolomik
mete
meteor
meter
meteribid
methylnipecotic
metode
metro
metropolitan
mew
mewakili
mewele
mewelezara
mewitu
mewo
mewulu
meza
meziw
mg
mgr
mi
mibe
michael
michelin
mifo
miga
migu
mike
mikha
mikroskop
milan
milenial
mili
miliar
miligram
milik
miliki
milimete
militer
milk
milo
mimisan
minangkabau
mineral
ming
minggu
mini
minia
minimal
minum
minuman
minyak
miraya
misa
misalnya
miserai
miserayi
misi
misionaris
misirai
misiyefo
miskin
mission
misteri
mitema
miti
mitos
mitou
miwo
miyaw
miyawa
miyo
miyomo
mk
ml
mm
mo
moa
moabi
mobile
mobiso
mobo
mobowo
modaha
modane
model
modern
modigliani
modoi
modou
mofa
mofano
mofo
mofozu
mogai
mogao
mogo
mogumo
moguna
mohadu
mohaga
mohago
mohakhi
mohalo
mohare
mohede
mohi
mohili
mohitnagar
mohokha
mohombo
mohua
moi
moji
mola
molai
molakho
molau
molaw
molaya
molaza
molekul
molewio
molo
molohe
molohi
moloi
molombase
molua
moluo
mombala
mombaso
momo
momordica
monaha
mondra
mondri
mondrino
mondro
mondroi
mondroto
mondrugi
money
monga
mongafu
mongambato
mongandroto
monganga
mongawawa
mono
monoecious
monokaltur
monokotil
monokultur
moore
moral
morasoi
moresby
morfologi
moro
moroi
mororogo
morphology
morris
mosagi
mosaic
mosikho
mosindro
motalimbo
motandra
moteu
motif
moto
motu
mow
mowa
mowao
mowato
mowo
mowua
moyo
mozaewe
mozago
mozawili
moze
mozo
mpnia
mpr
mr
ms
mu
muara
mubadu
mubali
mubasi
mube
muda
mudadao
mudah
mudalu
mudik
mudo
mufa
mufabo
mufagao
mufaigi
mufairo
mufake
mufalua
mufaogo
mufatete
mufato
mufaudugo
mufazo
mufili
mufohu
mugu
muhaga
muhalo
muhammad
muhaogo
muhede
muheta
muho
muhombo
muhonogo
muko
mukoli
mukuba
mula
mulai
muleu
mulia
multivariat
mulut
muncul
munganga
mungkin
muno
mura
muraka
murasoi
murid
murni
murugi
mus
musa
musang
musasai
museum
musik
musim
musindro
muslim
musuh
musura
musyawarah
muta
mutaba
mutandra
mutano
mutation
mutlak
muto
mutu
mutunu
muw
muzago
muzaraini
muzawili
myanmar
mycteria
n
na
nabati
nabi
nachrichten
nada
nadaoya
nadu
naere
nafabali
nafaro
nafo
nafsu
nafuri
naga
nago
nagole
nagolenia
nagu
naha
nahanawu
nahania
nahia
nahiania
nahiara
naho
nai
naik
naisi
nakhe
nakhinia
nakhiu
nalo
nama
namada
namagu
namania
nambi
nami
namo
namu
namun
nana
nandro
nangi
nangka
nania
nanjing
nano
nara
naro
nasa
nashville
nasi
nasimano
nasio
nasional
naso
nasu
natafaigi
natal
national
nations
nato
natural
naturalis
nature
nau
naukhu
naw
nawo
nawu
naya
nazalo
nazara
nazareta
nazura
nborn
ndao
ndaono
ndew
ndr
ndra
ndraha
ndrahania
ndramatua
ndrangania
ndrania
ndraono
ndraonogambo
ndraononia
ndraonora
ndrara
ndrasa
ndraso
ndrata
ndraw
ndrawa
ndrege
ndregenia
ndrela
ndrew
ndri
ndriala
ndrima
ndriw
ndriwo
ndriwoibid
ndro
ndrohu
ndroi
ndroinia
ndronga
ndrongania
ndrorogo
ndroto
ndrotonia
ndru
ndrua
ndruhu
ndrulu
ndrumi
ndruria
ndruru
ne
necked
nederlandsch
neeraj
negara
negatif
negeri
negri
nehe
neil
nekhe
nelayan
nemali
nene
nepal
nescafe
net
netherlands
networks
new
newali
news
newton
ng
nga
ngafu
ngafulu
ngafunia
ngaho
ngai
ngalo
ngaluo
ngambato
ngamohi
ngamohinia
ngandro
ngandroto
ngandrotonia
ngao
ngaotu
ngaro
ngaroro
ngaroto
ngasi
ngaw
ngawa
ngawal
ngawalo
ngawangawalo
ngawawa
ngawawania
ngawawara
ngawua
ngawuo
ngenaoli
ngengat
ngenge
ngengenia
ngenoli
ngenu
ngera
ngerania
ngerara
ngide
ngingi
ngo
ngoni
ni
nia
niai
nias
niasonline
niassatu
niasser
niassisch
niassische
nibadu
nibali
nibaso
nibaya
nibe
nibo
nibu
nibulo
nibunu
nicolaus
nidano
nido
niduno
nifa
nifaduhusi
nifaedogo
nifaehago
nifaha
nifahao
nifaho
nifaigi
nifaiginia
nifaigira
nifairo
nifake
nifakhai
nifakhoi
nifalemba
nifaliaro
nifalua
nifaluania
nifaluara
nifamawa
nifangamo
nifaogo
nifaoso
nifareso
nifaro
nifaruka
nifasindro
nifataro
nifato
nifatuno
nifazaewe
nifazawa
nifazo
nifetaro
nifi
nifili
nifo
nifobunga
nifodane
nifofa
nifogaba
nifohu
nifohura
nifolagu
nifono
niforo
niforoma
nifosumange
nifoto
nifotoi
nifufu
nifuta
nigambaraini
nigamo
nigili
nigogohe
niha
nihalo
nihanigo
nihaogo
nihenago
niho
nihoe
nihohoi
nihonogo
nijhoff
nikah
nikaoni
nikaonira
nikaza
nikhao
nikhaora
nikho
nikhoi
nikhu
niko
nila
nilai
nilau
nilo
nilului
nimfa
nina
ninada
ninagu
ninania
ninara
ningo
ninox
nira
niraka
nirasoi
nirbing
nirino
niro
nirongoda
nirongonia
nirorogo
niru
nirugira
nisano
nisi
nisila
niso
nisura
nisurania
nitaba
nitano
nitaru
nitatugo
nitaw
nitema
niteu
niti
nitifa
nito
nitunu
nituonia
nitutu
nitutuno
nituturu
nituwuni
nituyu
niv
niw
niwa
niwo
nizi
nkri
nm
nmr
no
noa
noakhi
nofu
nohi
nokturnal
nola
nomege
nomero
nominal
nommensen
nomo
nomohede
nomonia
nomor
nomora
nomoro
non
nono
nonomatua
nonomo
nononia
nonora
nonozalukhu
nopember
nora
normal
noro
north
northern
nosa
nose
noso
not
notasi
note
noto
notobali
nov
novel
novela
november
now
nowi
noyo
npk
npr
nu
nua
nucifera
nudu
nue
nugini
nugroho
nui
nukha
nukhara
nulitas
numalo
numana
number
numero
numo
nungo
nuno
nuo
nurani
nuremberg
nursing
nusa
nusantara
nusi
nut
nuwu
nya
nyiru
nytimes
o
oa
obama
obat
obeng
obesitas
objek
obo
obor
obou
oc
ocicat
oclc
october
odane
odo
odorata
oela
of
ofeta
officinale
ofmcap
ofo
ogham
ogo
ogoro
ogtt
oguna
ogunao
ohahau
ohalo
ohama
ohamai
ohe
ohera
ohi
ohito
oholu
oi
oiso
oja
okafu
okho
okhoi
oko
oksida
oksigen
oksitosin
oktober
ola
oladano
olahraga
olano
olaraga
olau
olayama
old
ole
oleh
olembai
olembali
oleoresin
oli
olifu
olifuaigo
oligochaeta
olo
olofo
olohuni
olola
olora
olsen
olu
olympia
omanu
omasi
omasira
ombakha
ombo
ombuyu
omega
omo
omonia
omuhua
omuso
on
onarai
onderlagh
ondrako
ondrasi
ondrasira
ondro
ondrumi
ondruminia
ondrumo
one
onekhe
onekhenia
ongi
onia
onkp
online
ono
onohazumba
onolalu
onolimbu
onomatua
ononamo
ononia
onora
onoro
onowaembo
onozalukhu
onozikho
onozitoli
op
operasi
or
orahili
orahilibadalu
orahua
orahuahili
oral
orang
oranye
order
ordo
org
organ
organik
organisasi
organization
organoleptik
orifi
origin
oro
oroi
oroisa
oroita
oroma
oroyo
orthetrum
ortodoks
orudu
orudua
orudugo
osa
osala
osali
osamuzaigo
osara
osarao
ose
oseania
osilio
osilo
osisi
oso
otaho
otalua
otaluania
otani
otano
otarai
otaria
other
oto
otomosi
otoritas
ottoman
otu
otufo
otus
ou
ovasa
overpopulasi
ow
owai
owalu
owalusi
owao
owasa
owasaini
owi
own
owo
owoto
owua
owuge
owulo
owuloi
owulowuloi
owuru
oxford
oxide
oya
oyania
oyo
ozu
p
pabrik
pacific
pada
padang
padi
page
pagi
pahat
pahlawan
pajak
pakaian
pakistan
pala
palembang
palestina
palheta
paling
palm
palma
palsu
palsy
paman
pamela
pamflet
pamoat
panama
panas
pancasila
pandan
pandangan
pandanus
panduan
pangan
pangeran
panggilan
pangkal
panjang
pansus
pantai
panthera
pantun
papain
papan
papaya
papua
para
parafin
paraguay
parameter
paramita
parasit
pare
parfum
paria
paris
pariwisata
parlemen
parmy
paroki
part
partai
partikel
parut
pasang
pasangan
pasangannya
pasar
pasifik
pasti
pastor
pater
pathophysiology
pati
patil
patimpus
patriarch
patriarkat
patten
patung
paud
paul
paulus
paus
pbb
pca
pdb
pdf
pdi
pdip
pebruari
pecahan
pecel
pekan
pekerja
pekerjaan
peking
pelabuhan
pelaku
pelakunya
pelamar
pelanggaran
pelat
pelita
peluang
pelung
pemakaman
pemakan
pemalsuan
pemanfaatan
pembangunan
pembatalan
pembatasan
pembelaan
pembelaannya
pembenaran
pembentukan
pemberian
pemberitahuan
pembibitan
pembuahan
pembuatan
pembukaan
pemekaran
pemeliharaan
pemerasan
pemerian
pemerintah
pemerintahan
pemerkosaan
pemesan
pemilihan
pemilik
pemutusan
penafsiran
penanaman
penang
penasehat
pencatatan
pencegahan
pencipta
penciptaan
pencurian
pendek
penderitaan
pendidikan
penduduk
penebar
penegasan
peneliti
penelitian
penemuan
penentuan
penerbangan
penerbit
penetapan
pengadilan
pengajuannya
pengakuan
pengamatan
pengambilan
pengantara
pengaspalan
pengaturan
pengelolaan
pengembangan
pengenalan
pengendalian
pengertian
pengetahuan
penggunaan
penghalang
penghormatan
pengkajian
pengolahan
pengorbanan
penguasa
pengurus
penipuan
peniten
penjajanya
penjelasan
penjelasannya
penjumlahan
pennsylvania
penolakan
pensiun
penting
penuh
penyakit
penyalahgunaan
penyanyi
penyebaran
penyelidikan
penyemprotan
penyerahan
penyerang
penyesatan
penyiangan
penyimpangan
penyucian
pepaya
per
peradilan
perahu
perak
peran
perancis
perang
peraturan
percabulan
percaya
perceraian
perdagangan
perdana
perdebatan
peredaran
perempuan
pergi
pergundikan
pergurua
perguruan
perhatian
perikanan
perilaku
peringkat
perintah
periode
perjalanan
perjamuan
perjanjian
perjuangan
perkawinan
perkawinannya
perkebunan
perkembangannya
perlakuan
perlindungan
perlu
permainan
permanen
permen
pernah
pernikahan
pernyataan
persatuan
persebaran
persen
perserikatan
persetujuan
persia
persiapan
persyaratan
pertahanan
pertama
pertamini
pertanian
pertengahan
pertumbuhan
perubahan
perusahaan
perzinaan
pes
pesan
pesawat
pesta
pestisida
pet
peta
petahana
petani
peter
peternakan
peters
petrus
pgi
ph
pharos
phd
philadelphia
phillips
philosopher
phoenix
phone
pict
pieter
pihak
pikiran
pilkada
pinang
pineung
pining
pinyin
pipa
piper
pipit
piramida
pirantel
pisang
pita
pl
plakat
planet
plant
plantes
plants
plasenta
plasma
plastik
pln
pls
poaceae
pohon
pola
polandia
polar
polaroid
policy
polifenol
poligami
politik
politikus
politisi
polres
polybag
polybagnia
polychaeta
pom
pontianak
popeye
popper
poprockeet
population
pornografi
port
portugal
portugis
posisi
post
potato
potensi
pots
potter
power
pp
practice
pradiabetes
pradnya
praktik
praktis
pranala
prancis
prefek
prefektur
premolar
presence
preservation
presiden
presipitasi
press
prevention
pria
pribadi
pride
primer
princeton
prinsip
pro
problems
probosis
production
produk
produksi
prof
profesor
profil
progesteron
program
project
prokreasi
prolactin
prolaktin
proliferasi
propinsi
propinsial
prosea
prosedur
proses
prostitusi
protein
protestan
protozoa
provinsi
proyek
prv
psikologi
pt
public
publications
publik
publishing
puccioni
puisi
pukul
pula
pulang
pulau
puma
pun
punca
pupil
pupu
purn
purnama
purut
pusaka
pusat
puskesmas
pustaka
putih
putik
putra
px
q
qing
quartz
queen
quraisy
r
ra
rabu
races
racun
radang
radar
raden
radio
radiolocation
rafarafa
rafe
raga
ragam
rago
rags
rahang
rahmat
rahu
raido
rainbow
raja
rajungan
raka
rakigae
rakyat
rambut
rame
rami
rangkong
rania
rantai
ras
rasa
rasio
raso
rasoi
rasonia
rasul
rasuli
rata
rate
rato
ratu
raya
rayo
razo
re
read
red
redaksi
referensi
refleks
reflex
reformasi
registrasi
regulasi
rekayasa
rekening
relatif
relikui
rempah
rempang
rendah
rendemen
rentang
renville
report
republik
research
resmi
resources
restoran
retensi
reuters
review
rheinische
rho
ri
ria
riau
ribu
richard
riches
right
rigi
rimba
rinardi
ring
ringan
ringspot
rinia
rino
rio
rise
riset
risiko
ritsumeikan
river
riw
riwayat
ro
robert
robusta
roderick
rodos
rofia
roh
rohani
roket
roko
roma
roman
romawi
rome
ron
ronald
rongo
rorogo
roso
rota
rotan
roti
royal
royo
rozi
rp
rpg
rri
rrt
rs
rterbuch
ru
rua
ruang
ruas
rubrik
rudal
rufia
rugi
rujak
ruma
rumah
rumasaki
rumba
rumbi
rumput
rumputan
rumus
rundro
rusia
russia
ruti
ruzo
s
sa
saat
sab
saba
sabak
sabakha
sabaso
sabat
sabata
sabato
sabe
sabeto
sabit
sabo
sabolo
sabre
sabtu
sabu
sabua
sabut
sachsen
sadahadaha
sadawa
saddle
sado
sadogo
saefa
saekhu
saewe
safasa
safeto
safo
safuria
safusi
sag
saga
sagaito
sagaro
sagatua
sageu
sagi
sago
sah
saham
sahari
sahato
sahe
saho
sahono
saigo
sains
saito
saja
sajo
sakali
sake
sakho
sakhozi
saki
sakilo
sakit
sako
sakramen
sakubi
sala
salah
salahi
salahini
salak
salasa
salaw
salawa
sali
salidi
saling
salio
saliw
salo
salua
sam
sama
samado
samadu
samaduhu
samaenu
samahao
samaigi
samakao
samake
samakhai
samakiko
samaliaro
samalua
samareso
samarou
samarukhu
samasi
samasindro
samasui
samati
samato
samatuno
samaw
samawa
samawu
samazo
samba
sambalo
sambau
sambo
sambu
sambua
same
samena
samete
sami
samigu
samo
samobo
samohu
samokai
samondrongo
samosa
sampai
sampeu
samping
samu
samudera
samudra
samuel
samueli
samuhua
samuli
samunu
samuza
san
sana
sanabina
sanaha
sanana
sanandro
sanano
sanari
sanaro
sanau
sanaukhu
sandrala
sandrari
sandrohu
sanema
sang
sanga
sangadono
sangadulo
sangago
sangahaogo
sangai
sangalo
sangalui
sangamohi
sangandro
sangat
sangata
sangawuli
sangehowu
sangele
sangetuna
sangi
sangiago
sangila
sango
sangodo
sangoguna
sangokho
sangombakha
sangondrasi
sangorifi
sangoroma
sangosili
sangowalu
sanguhuku
sangui
sanguma
sanguri
sanifi
sano
sanohugo
sanolo
sanskerta
santa
santo
sanu
sanua
sanuge
sanuno
sanura
sanutulo
sanutuno
sanuturu
sanuwo
sao
saoha
saohago
saombo
saponin
sara
saradadu
saradadunia
saraf
saraina
sarakhago
sarambia
sarana
sarara
sarcoptes
sareu
sari
saribu
sarjana
saro
saruzo
sasai
sasak
sasao
sasese
sasesenia
sasi
sasoso
sastra
satabo
sataha
sataro
sate
sato
satoru
satu
satua
satuada
satuan
satuania
satuara
satulo
satunya
saukhu
saule
sauli
sauri
saw
sawah
sawai
sawe
sawena
sawi
sawit
sawo
sawu
sawuyu
sawuyunia
sayang
sayu
sayur
sayuran
sazilo
scabiei
scabies
scho
school
schreck
schro
science
scientific
scriptura
sd
sdn
sdnmt
se
search
sebagai
sebagaimana
sebagian
sebelah
sebelum
sebelumnya
sebolo
sebua
sebuah
secara
securities
sedang
sedarah
sede
sederhana
sedikit
sedo
seed
segala
segar
segebohou
segebua
segmen
sehi
sehingga
seiko
sejak
sejarah
sejarahnya
sejati
sekadar
sekali
sekarang
sekhe
sekitar
sekola
sekolah
sekolania
sekretaris
seks
seksual
seksualitas
sektor
sekuler
sekunder
sel
selain
selalu
selama
selandia
selasa
selat
selatan
selection
seleksi
seluruh
semarang
sembelit
semenanjung
semi
seminari
semua
senat
senator
sendiri
senegalensis
seni
senin
senior
senjata
sensitivitas
sensus
senti
sentra
senyawa
seorang
sepak
sepanjang
sepeda
seperti
sepet
september
serabut
serai
serak
serambinews
serangan
serangga
serati
serbuk
serdang
seri
seribu
serigala
serikat
sering
serius
sero
sersan
serta
seseorang
seso
sesokho
sesolo
sesuai
sesuatu
sesungguhnya
set
sete
setelah
setempat
seti
setiap
setidaknya
sets
seumur
seutuhnya
seven
sh
shah
shahih
shift
short
shorthair
shrewsbury
shropshire
si
sia
siai
siakhi
siana
sianida
siata
siba
sibaga
sibagania
sibaho
sibai
sibarani
sibaya
sibayania
siberia
sibohou
sibolga
sidarua
side
sidik
sidombua
sidua
siduahili
sidugu
sifa
sifabo
sifagai
sifago
sifagohi
sifahato
sifahuhuo
sifahuwu
sifai
sifakhai
sifakhili
sifalaete
sifalago
sifalemba
sifalukha
sifamai
sifao
sifaola
sifaoma
sifaoro
sifarahu
sifaruka
sifat
sifatali
sifatalifuso
sifatew
sifatewu
sifaudu
sifelendrua
sifelezara
sifi
sifindra
sifo
sifulu
sig
sigelo
sigide
sigo
sihare
sihene
siheu
sihino
siho
siholi
sihombo
sihulo
sikap
sikayo
sikhala
sikhalania
sikho
siklus
sikola
sikoli
sila
silako
silalo
silatao
silataonia
sili
silika
silima
silimabanua
silimo
silio
siliw
silo
silvestris
simaenaria
simalambuo
simalapari
simalungun
simanaere
simandrao
simane
simanga
simano
simanullang
simate
simatua
simatuania
simbi
simbo
simbol
simenari
simendrua
simo
simoi
simoni
simuk
sina
sinaga
sinai
sinali
sinangea
sinano
sinar
sinarikhi
sinasa
sinaya
sindro
sindruhu
sindruhundruhu
sindruhunia
sinema
sinenge
singa
singapore
singapura
singkat
singkong
singo
sini
sinia
sino
sintesis
sintetik
sinumalo
sinumana
sinumbua
sinuno
sinura
sinyal
sipade
sipil
siprus
sirao
sirici
sirih
sirombu
sirup
sisa
sisambua
sisambualahe
sisara
sisarahili
sisarahiligamo
sisarahilima
sise
sisi
sisindro
sisiw
siskamling
siso
sisobahili
sisobambo
sisobambow
sisobambowo
sisobandrao
sisobaoho
sisobawino
sistem
sistim
sita
sitambai
sitambainia
sitatalu
sitaya
sitebai
sitefa
siteho
sitekiko
sitenga
sitengabo
siteso
sito
sitobali
sitohare
sitola
sitoli
sitoro
sitotoksik
sitou
sitrat
sitroborat
situasi
situbondo
situmbu
situs
siw
siwa
siwalaw
siwalu
siyaw
siyefo
skadron
skala
skandal
skotlandia
sls
sm
sma
smartphone
smh
smith
smk
smp
sms
sni
so
soboto
sobowo
societies
society
sodadao
sodoi
soeharto
soera
sofa
sofano
sofeta
sofetua
sofo
sofu
sogae
sogai
sogale
sogawu
sogawunasi
sogo
sogoro
soguna
sohahau
sohalo
soho
sohombo
soi
sokafu
sokho
soko
sola
solakho
solanaceae
solanum
solar
solau
solaya
solaza
sole
soledua
solemba
soli
solo
solohe
solohi
soloi
solumo
somambaw
somasi
somasido
sombalugo
sombo
sombuyu
some
somo
somuso
sonasa
sondra
sondrege
sondro
sondrorogo
sondrou
sondrugi
sonekhe
sonjaya
sonowi
soroi
soroma
soroso
soroyo
sorting
sorudu
sosial
sosialisme
soso
sotabina
soteu
soto
sotoi
sotufo
south
soviet
sow
sowanua
sowao
sowato
sowo
sowu
sowua
sowuge
sowulo
soya
soyania
soyo
sozago
sozawili
sp
spanyol
species
spektrometri
sperma
spes
spesies
spinosus
spiritus
spp
sprachlehre
springer
sr
sri
srilangka
sriwijaya
ssp
st
stadium
standar
standardisasi
starr
state
states
statistics
statistik
status
stem
stephen
stoma
stone
store
stork
story
strigidae
strix
stroke
struggle
struktur
stt
student
studi
studie
studies
study
su
suami
suara
suatu
sub
subspesies
subtropis
subur
suci
sudah
suffering
suhu
sukamaju
sukarela
sukarno
sukhoi
sukrosa
suku
sula
sulaman
sulawesi
suling
sulit
sulo
sultan
sumangala
sumange
sumatera
sumatra
sumatrae
sumba
sumbar
sumber
sumbu
sumut
sunda
sunday
sundermann
sungai
sungguh
sup
super
superfamilia
suplemen
sura
surabaya
surakarta
surat
surati
surga
surgical
suru
surune
surut
surya
sus
susu
susua
sutro
suzuki
swadaya
swasta
sweet
swiss
symptoms
systems
systrom
syukur
syzygium
t
ta
taba
tabali
tabaloho
tabaso
tabby
tabe
tabel
tabina
tablet
tabo
tabogo
tabotokhi
tabu
tabung
tae
tafa
tafaedogo
tafaigi
tafalo
tafamawa
tafaruka
tafatohu
tafo
tafu
tafuo
taga
tagia
tagoyofo
tagoyomo
taha
tahalo
tahaogo
tahap
tahataha
taho
tahuan
tahun
taigi
taigo
tak
takaoni
takbenda
takera
takokak
takraw
taksonomi
takula
takulania
talafu
talake
talas
tale
tali
talifusi
talifuso
talimbo
talinga
talkaboutcoffee
talo
talu
talumbanua
talumuzo
talunia
tama
taman
tamane
tambai
tambo
tambu
tamil
tamu
tan
tanah
tanahmasa
tanam
tanaman
tanda
tandan
tandra
tandraigo
tandraluo
tandrania
tandro
tandroi
tandru
tanduk
tanga
tangan
tangandrotoi
tangerang
tangga
tanggal
tanggapan
tanggung
tangkai
tangkap
tania
tanim
tanin
tanjung
tannenbaum
tannin
tano
tanpa
tanzania
tapanuli
tapioka
tara
taraha
tarakhaini
taraso
tarawato
tari
tarian
tarika
tarikh
taro
taroma
taromali
tarongo
taru
tarugi
tasi
taso
tasura
tata
tataba
tatalu
tato
tatu
tatugo
taw
tawa
tawarikh
tawo
tawuo
taya
taylor
tb
te
tearo
teba
tebabaya
tebagi
tebai
tebato
tebe
tebo
teboka
tebokai
tebu
tebua
tebulo
technology
tedo
tedou
tedudugo
tefa
tefabo
tefado
tefaehago
tefagamo
tefagati
tefago
tefaho
tefahowu
tefaigi
tefakhai
tefalali
tefalua
tefamaw
tefangamo
tefaogo
tefarahu
tefaroi
tefarou
tefasafi
tefasao
tefasindro
tefato
tefatohu
tefatuno
tefaua
tefaudu
tefaudugo
tefawu
tefazaewe
tefazaw
tefazawili
tefazo
tefe
tefengo
tefili
tefo
tefodiwo
tefolaya
teforoma
tefosumange
tefot
tefoto
tefurugo
tefuta
tegambaraini
tego
teh
tehalo
tehaogo
tehe
tehengo
teheta
teho
tehonogo
tehori
tekanan
tekaoni
tekiko
teknik
teknis
teknologi
teko
tekokak
teks
tekstil
telah
telaumbanua
telefo
telefon
telegram
telegraph
telekomunikasi
telepon
televisi
tello
telo
telobigo
telon
teluk
telukbelukar
telukdalam
teluksiabang
telur
tema
teman
tembo
tempat
tempo
tempur
tenga
tengah
tengan
tenge
tenggara
tenggorokan
tengku
tentang
tentara
teo
teohe
teoli
teolog
teologi
teologis
teorema
teori
tephrosia
tepung
tera
terakhir
terang
terapan
teratur
terbatas
terbit
terbuka
terceraikan
tercipta
terdapat
terdiri
tergantung
terhadap
terhormat
teridentifikasi
terikat
terjadi
terjemahan
terjun
terkadang
terkait
terkenal
terlibat
termasuk
terminologi
ternate
tero
teroksigenasi
terongo
terorisme
terorogo
terou
terpena
terpisah
tersebut
tersedia
tertentu
terung
terwelu
tes
tesalonika
tesao
tesendra
tesi
tesikho
tesis
teso
test
testament
tesua
tesura
tetabi
tetaha
tetano
tetapi
tetatugo
tete
tetegawa
tetehego
teteho
tetema
tetibo
teto
tetohugo
tetutu
tetutuno
tetuyu
tetzel
teu
tew
tewa
tewu
th
thai
thailand
that
the
theory
thomas
thumb
ti
tibo
tidak
tidur
tiga
tigaserangkai
tiger
tigris
tikus
tilt
tim
timbal
time
times
timor
timur
tindakan
tinggal
tinggi
tingkat
tingkatan
tionghoa
tiongkok
tipe
tiroksin
tito
tivi
tk
tni
to
toaster
toba
tobali
tobo
toda
todo
tof
tofo
toga
togese
tohare
toho
tohu
tohude
tohugo
toi
toke
tokea
tokhai
toko
tokoh
tokyo
tola
tolalo
tolerance
toli
tolo
toma
tomat
tome
ton
tongkol
tongo
top
torah
toro
toroi
torosi
torpedo
tortoiseshell
toru
torvum
tosai
tosake
tosasa
total
toto
tou
towa
tradisi
tradisional
transformasi
translasi
transplantasi
treatment
tree
trends
trente
tribunnews
tropika
tropis
trump
truth
ts
tsunami
tu
tua
tuada
tuania
tuanya
tuba
tubuh
tufa
tugala
tugu
tuha
tuhan
tuhe
tuhegafoa
tuhegeo
tuhemberua
tuho
tuhoni
tuhonia
tujuan
tujuh
tuka
tukang
tulang
tuli
tulumbaho
tulus
tumasik
tumba
tumbao
tumbu
tumbuh
tumbuhan
tumit
tumo
tumpang
tumula
tuna
tundraha
tundro
tungau
tunggal
tungo
tuno
tuo
tupolev
tura
turia
turki
turun
tutu
tutul
tuturu
tuwu
tv
twitter
two
type
tyto
tytonidae
u
ua
uang
ube
ubi
uco
uda
udang
udara
udu
udusa
ue
ufa
ufaigi
ufi
uga
ugamo
uganda
ugo
ui
uji
uk
ukhugo
ula
ulali
ulangan
ulau
uli
ulidan
ulidano
ulinia
ulito
ulitp
ulo
uloa
uloi
ultra
ulu
ulugawo
uluhou
ulumoro
ulunoyo
ulususua
uluzoi
umane
umat
umbi
umbian
umbu
umbubalo
umbunasi
umbusohahau
umo
umum
un
unago
und
undang
undru
uner
unesco
unggul
ungkapan
ungo
ungu
ungugo
uni
unia
unik
union
unit
united
universal
universitas
university
uno
unta
untuk
uo
up
upa
upacara
upah
upaya
uph
upland
uplc
upright
ura
uri
urifo
uro
urongo
uru
urusi
urutan
us
usa
usaha
usatoday
usccb
usia
uskup
uso
ussuri
usu
usul
uta
utama
utara
uti
utu
utundru
uu
uw
uwai
uwe
uwu
uwumo
uwunia
uwura
uzo
v
vacante
vaksin
vaksinasi
valemba
valencia
valid
validitas
values
van
vanni
var
varian
varietas
varieties
vatikan
ve
ver
verheij
versi
vestalis
vi
viaggio
victoria
video
videos
vietnam
view
views
viii
violet
virginia
virus
visualisasi
vitae
vitami
vitamin
vitamine
vitro
viva
vocal
vogelii
voice
vol
voldemort
voli
volume
von
voor
voyage
vs
w
wa
waa
wabalisa
wabaliw
wabanuasa
wabo
wabu
wada
wadorobahili
wadousa
wafa
waga
wagaisa
waha
wahana
wahasara
wahuhuosa
wahuwusa
wahyu
wajar
wajib
wakake
wakhe
wakho
wakil
wakodasa
waktu
walden
wales
wali
walito
walo
walu
walukhasa
walukhasata
walulusa
wama
wamado
wamadou
wamadu
wamaduhu
wamaedo
wamaedogo
wamaedogu
wamaehago
wamaenu
wamaeri
wamagao
wamaha
wamahalo
wamahao
wamahato
wamahuhuosi
wamaigi
wamaigida
wamaisa
wamakao
wamake
wamakhai
wamakiko
wamaku
wamalala
wamalali
wamalalini
wamaliaro
wamalua
wamanenu
wamano
wamanura
wamaondrago
wamareso
wamareta
wamasa
wamasao
wamasi
wamasindro
wamasui
wamataw
wamati
wamatinia
wamatira
wamato
wamatua
wamatuno
wamaw
wamawa
wamazaewe
wamazo
wame
wamera
wameta
wamidi
wamili
wamilu
wamo
wamobo
wamoboto
wamohu
wamokai
wamolakho
wamolo
wamoloi
wamomaha
wamondrondrongo
wamondrongo
wamono
wamosumange
wamoto
wamotokhi
wamotu
wamu
wamuli
wamulo
wamunu
wana
wanaba
wanabina
wanafi
wanaha
wanana
wanandrai
wanandraigo
wanano
wanari
wanaro
wanarogo
wanaru
wanasa
wanasai
wandri
wandrita
wandru
wanehego
wanema
wanenaw
wanese
waneu
wanga
wangago
wangahalo
wangahaogo
wangahato
wangai
wangakali
wangali
wangalo
wangalui
wangami
wangandro
wangaohasi
wangarato
wangasosoi
wangatabo
wangawe
wangawuli
wangefa
wangehao
wangehaogo
wangeheta
wangelama
wangera
wangerai
wangesa
wangetu
wangi
wangide
wangifi
wangila
wangiro
wango
wangodo
wangoguna
wangogunao
wangohorigo
wangomasi
wangombakha
wangomuhua
wangondrasi
wangorifi
wangoroma
wangorudugo
wangosara
wangosawuyu
wangosili
wangosilinia
wangosisi
wangositengago
wangotome
wangotomosi
wangowai
wangowalu
wangowasa
wangowasaini
wangowuloi
wangoya
wanguhugo
wanguhuku
wanguma
wanguri
wangusu
wanguw
waniaga
wanibo
wanika
wanikha
waniri
wanisio
wanita
wano
wanofu
wanohugo
wanolo
wanou
wanuko
wanulo
wanuno
wanunu
wanura
wanuriago
wanuriaigo
wanusuli
wanutu
wanutuno
wanuturu
wanuwo
wao
waosa
waosato
wara
warao
wareta
warga
wariawo
warisan
warna
wartawan
waruwu
waso
wasumangeta
wasuwo
watahana
watalifuso
watandrisa
watch
water
wato
watuisa
waw
wawa
wawakhao
wawayaso
waya
wayback
we
wealu
web
weber
website
wedgwood
wedo
wefao
wefaora
wehede
wehedera
weihnachtsbaum
wekoli
wemanga
wemaoso
wemo
wemondri
wenaeta
were
weri
west
westminster
wetaho
wetaro
wetaronia
wetarora
wetero
what
whatsapp
when
white
who
why
wi
wib
widodo
widya
wiga
wikho
wiki
wikimedia
wikipedia
wiktionary
wilayah
wilfried
wilhelmina
william
wing
winkler
wino
wiro
wisata
wiso
wisuda
with
wittenberg
wo
woba
wobanuasa
wobarahao
wobila
wobo
wodou
wofano
wofo
wogai
wogambaraini
wogamo
wogao
wogaoni
wogili
wohalo
wohanu
wohawoha
wohayaigo
wohole
wohombo
wokaoni
wolau
wolaw
wolawa
wolaya
wolaza
wolo
wolohe
wolohi
wolombase
womba
wombagi
wombala
wombali
wombaloi
wombambaya
wombaso
wombo
women
wonders
wondra
wondrako
wondrege
wondrino
wondro
wondrorogo
wondrou
wondrugi
wonga
wongambato
wonganga
wongi
wono
woraka
worasoi
world
wotatugo
woto
wowo
wowuania
wozago
wu
wua
wui
wuka
wulo
wulu
wune
wurugo
wuso
wuwu
wuyu
www
x
xiv
xvi
y
ya
yaduhu
yahoo
yahudi
yai
yaia
yaira
yaitu
yakni
yakobo
yamendrua
yang
yanuari
yas
yasato
yasonna
yatobali
yaw
yawa
yay
yayasan
year
yefo
yehowa
yeremia
yerusalem
yesaya
yesu
yesus
yitzchaq
yo
yogyakarta
yohane
yohanes
yomo
york
yosefo
yosua
you
youtube
yu
yuda
yudaisme
yuli
yunani
yuni
yunnan
yunus
z
za
zabakha
zabe
zabeto
zabo
zabu
zado
zadogo
zafo
zafusi
zagabe
zago
zahato
zaho
zahulo
zai
zaiso
zaito
zakhozi
zaku
zalaw
zalawa
zalio
zaliw
zalo
zalua
zalukhu
zama
zamadu
zamaigi
zamakao
zamake
zamaliaro
zamalua
zaman
zamareso
zamasi
zamasindro
zamati
zamato
zamaw
zamawa
zamazo
zamba
zambo
zambua
zame
zamena
zami
zamo
zamobo
zamokai
zamondrondrongo
zamondrongo
zamueli
zamunu
zanago
zanandro
zanano
zanarogo
zanau
zanawo
zandrala
zanema
zanga
zangahaogo
zangai
zangalui
zangetu
zangila
zangodo
zangoguna
zangokho
zangombakha
zangondrasi
zangorifi
zangowalu
zanguhuku
zanguma
zanguri
zanifi
zano
zanohugo
zanolo
zanuno
zanura
zanutu
zara
zaradadu
zarilahia
zaro
zasai
zasao
zasese
zat
zato
zatua
zatuania
zatuara
zatulo
zau
zauri
zaw
zawa
zawena
zawi
zawili
zawu
zawuyu
zawuyunia
zazi
ze
zea
zebua
zedo
zega
zekola
zekolania
zendrato
zesokho
zeus
zho
zi
zibaya
zibayania
zibo
ziboga
zibohou
zibolga
zibongi
zide
zido
zidombua
zifabo
zifagai
zifago
zifahuwu
zifakhai
zifalukha
zifamai
zifao
zifaola
zifasui
zifatalifuso
zifo
zigariti
zigide
zigo
zigusigu
ziha
zihago
zihara
zihene
ziheu
ziho
zihulo
zikhala
zikhalania
zikho
zikola
zikolah
zilako
zilatao
zilo
zima
zimae
zimalapari
zimane
zimanga
zimano
zimate
zimatua
zimatuania
zimbi
zimbo
zimilo
zimo
zina
zinali
zinangea
zinano
zinasa
zinatali
zindruhunia
zinema
zinenge
zinga
zingiber
zingiberaceae
zingo
zino
zinumbua
zinuno
zinura
zinurania
zirege
zirugi
zisag
zisageu
zisago
zisambu
zisambua
zisamigu
zisamo
zisara
ziso
zisobambow
zita
zitambai
zitano
zitebai
zitenga
zito
zitobali
zitola
zitoro
zitumbu
zo
zobali
zodadao
zofa
zofo
zogale
zogamo
zogaoni
zogo
zoguna
zohalo
zoho
zohombo
zokho
zola
zolau
zole
zolo
zolohe
zomasi
zombaso
zombo
zombuyu
zondrino
zondro
zondrou
zondrugi
zonekhe
zono
zonuza
zoonomia
zorasoi
zoroma
zoroso
zorugo
zosou
zoto
zow
zowanua
zowato
zowo
zowulo
zoya
zoyo
zozago
zu
zui
zukhu
zula
zulo
zumaha
zumange
zung
zura
zurania
zuri
zusu
zuta
zuzu
zuzundrao
zwaan
{
|
}
~
§
°
±
²
´
µ
·
½
×
ø
ɒ
ə
ɡ
ɪ
ʲ
ʼ
ˈ
ː
˚
ˠ
̀
́
̂
̃
̄
̆
̈
̋
̌
̍
̓
̣
̧
͂
ͅ
α
ε
κκλησι
μ
ο
ς
о
х
֣
ְ
ֲ
ִ
ֵ
ֶ
ַ
ָ
ֹ
ּ
ׁ
ׂ
א
אבינו
אברהם
ב
ד
ה
ו
ז
י
כ
ל
מ
נ
ע
ף
פ
ר
ש
ת
ا
الا
سلام
قبل
م
َ
ٕ
ட
ன
ம
ா
ே
்
ี
ᨁ
ᨕ
ᨗ
ᨘ
ᬢ
ᬶ
᭄
ᯔ
ᯩ
᯲
​
‎
‏
–
—
‘
’
“
”
‟
†
…
→
↔
↷
③
④
⑦
★
☉
☧
☿
♂
♥
⺀
⺄
⺆
⺈
⺊
⺌
⺕
⺝
⺸
⺼
⿰
⿱
⿲
⿳
⿴
⿵
⿶
⿷
⿸
⿹
⿺
⿻
〢
い
か
し
と
は
ゆ
わ
゙
コ
シ
タ
テ
ユ
ル
㇁
㇂
㇄
㇇
㇈
㇉
㇓
㐁
㐄
㐅
㐌
㐫
㐬
㐭
㐮
㐱
㑒
㒵
㒸
㒼
㓁
㓞
㔾
㕛
㕣
㖾
㘝
㚅
㚇
㚔
㚘
㝉
㝡
㝴
㝵
㞋
㞢
㞷
㠩
㠭
㠯
㡀
㡭
㡿
㢲
㢴
㣇
㣺
㥯
㪅
㫄
㫐
㫒
㫺
㬅
㬎
㬥
㬰
㲋
㳄
㷠
㸒
㸚
㸦
㼌
㼲
㽞
㿟
䀠
䂞
䍃
䏍
䒑
䖍
䖒
䖝
䖵
䙴
䚻
䜌
䝿
䡛
䧹
䪞
一
丁
丂
七
丄
丅
丆
万
丈
三
上
下
丌
不
与
丏
丐
丑
专
且
丕
世
丘
丙
业
东
丞
丢
丣
两
严
並
丨
丩
个
丫
丬
中
丮
丰
丱
串
丵
丶
丷
丸
丹
为
主
丽
丿
乀
乂
乃
久
乆
乇
么
义
之
乌
乍
乎
乏
乐
乑
乔
乖
乗
乘
乙
乚
乛
乜
九
乞
也
习
乡
乳
乾
亀
亅
了
亇
予
争
事
二
亍
于
亏
亐
云
互
亓
五
井
亘
亚
亜
亞
亟
亠
亡
亢
交
亥
亦
产
亨
亩
享
京
亭
亮
亯
亰
亲
亳
亶
亷
人
亻
亼
亾
仁
今
介
仌
从
仐
仑
仒
仓
仕
他
付
仝
代
令
以
任
企
伊
伏
伐
休
会
伯
但
位
何
佘
余
作
佥
使
來
侈
侌
侖
侯
侵
便
保
俞
信
修
倉
倍
候
倠
備
僉
僕
儿
兀
允
兂
元
兄
充
兆
兇
先
光
兊
克
兌
免
兑
兒
兓
兔
党
兜
兟
入
全
兩
兪
八
公
六
兮
兰
共
关
兵
其
具
典
兹
兼
冀
冂
冃
冄
内
冈
冉
冊
冋
册
再
冎
冏
冐
冒
冓
冖
冗
冘
军
农
冝
冡
冥
冫
冬
冷
几
凡
凢
凵
凶
凷
凸
凹
出
函
凾
刀
刁
刂
刃
刄
刅
分
切
刍
刑
刕
刖
列
刘
则
初
別
利
别
到
制
刺
則
削
剌
前
剡
剽
劉
力
功
加
劦
助
劫
劳
劵
勃
勇
勉
勒
動
務
勞
勤
勹
勺
勻
勾
勿
匀
匂
包
匆
匈
匊
匋
匍
匕
化
北
匚
匝
匡
匪
匱
匸
匹
区
医
匽
匿
區
十
卂
千
卄
卅
卆
升
午
卉
半
卌
华
卑
卒
卓
单
卖
南
卜
卝
卞
占
卡
卢
卣
卤
卦
卩
卪
卬
卯
印
危
即
却
卵
卷
卸
卻
厂
厃
厄
历
厈
厉
厌
厓
厘
厚
原
厤
厥
厨
厭
厲
厶
厷
厸
去
厼
厽
叀
参
參
叅
又
叉
及
友
双
反
叐
发
叒
叔
叕
取
受
叚
叜
叟
口
古
句
另
叩
只
召
可
台
叱
史
右
叵
号
司
叹
吂
各
吅
合
吉
吊
吋
同
名
后
吏
向
吕
君
吝
吞
否
含
启
吳
吴
吹
吾
呂
呆
呈
告
员
呙
周
命
咅
和
咎
咠
咢
咨
咸
咼
哀
品
哉
員
哥
哲
唐
商
啇
問
啚
啬
啻
善
喜
喬
單
喿
嗇
噩
嚴
囊
囗
囘
囙
囚
四
回
囟
因
囧
囬
困
囱
囷
固
国
圂
圅
國
圍
圓
土
圡
圣
圥
在
圭
地
圶
圼
坐
坒
坚
坴
垂
垔
垚
埀
埋
埶
執
基
堂
堅
堆
堇
堯
塞
墨
壘
士
壬
壯
声
壳
壴
壹
壺
壽
夂
处
夅
夆
备
夊
夋
夌
复
夏
夒
夕
外
夗
夘
多
夜
夢
大
夨
天
太
夫
夬
夭
央
失
夲
头
夷
夸
夹
夻
夾
奂
奄
奇
奈
奉
奎
奏
奐
契
奓
奔
奚
奞
奠
奢
奥
奭
女
奴
奻
好
如
妄
妙
妟
妥
妻
妾
姑
委
姜
威
娄
婁
婴
嬰
嬴
子
孑
孔
孕
孖
字
存
孚
孛
孝
孟
季
孤
学
孫
孱
學
宀
宁
宂
它
宅
宇
守
安
宋
完
宏
宓
宗
官
定
宛
宜
宝
客
宣
室
宮
宰
害
家
容
宾
宿
寄
寅
密
富
寒
察
寧
審
寫
寬
寮
寸
对
寺
寻
寽
対
寿
封
尃
射
将
將
專
尉
尊
尋
尌
對
小
少
尒
尓
尔
尖
尗
尚
尞
尢
尣
尤
尧
尨
尭
就
尸
尹
尺
尻
尼
尽
尾
尿
局
居
屈
屋
屎
屏
屑
展
屖
屚
属
屠
屡
屬
屮
屯
屰
山
屵
屾
岁
岂
岑
岡
岩
岳
岸
峯
島
崇
崑
崔
崖
崙
崩
嵬
嶲
巂
巛
川
州
巟
巠
巢
巤
工
左
巧
巨
巩
巫
差
己
已
巳
巴
巷
巸
巽
巾
巿
帀
市
布
希
帚
帛
帝
带
師
席
帶
常
干
平
年
幵
并
幷
幸
幺
幻
幼
幽
幾
广
広
庄
床
底
店
庚
府
度
庫
庭
庶
康
庸
廉
廌
廛
廣
廩
廴
延
廷
建
廾
廿
开
弁
弃
弄
弇
弋
式
弓
弔
引
弗
弘
弜
弟
弥
弦
弱
張
強
强
彊
彌
彎
彐
彑
当
彔
录
彖
彗
彡
形
彥
彦
彧
彭
彳
役
彼
往
待
律
徒
得
徙
從
復
微
徵
心
忄
必
忌
忍
志
忝
忠
忩
快
念
忽
忿
思
怠
急
怱
恆
恒
恩
恭
息
悉
患
悤
悲
悶
惠
惡
惢
愁
愈
意
愛
感
慈
慧
慮
憂
憲
應
戀
戈
戉
戊
戋
戌
戍
戎
成
我
戒
戔
或
戚
戠
戢
截
戲
戶
户
戹
戼
戾
房
所
扁
扇
手
扌
才
打
托
执
承
折
拉
拜
拿
掌
推
提
摩
支
攴
攵
收
攸
改
放
政
敄
敏
敕
敖
敗
敝
敞
敢
散
敦
敫
敬
数
敷
數
斂
文
斉
斊
斗
斤
斥
斩
斬
斯
新
方
於
施
斿
旁
旋
族
无
旡
既
旣
日
旦
旧
旨
早
旬
旱
旲
时
旾
昆
昇
昌
昍
明
昏
易
昔
昗
昜
星
映
春
昬
是
昱
昴
昷
時
晃
晋
晏
普
景
晶
智
暑
暴
曇
曩
曰
曲
曳
更
曷
書
曹
曼
曾
替
最
朁
會
月
有
朋
服
朔
朕
朗
望
朝
木
朩
未
末
本
札
朮
术
朱
朵
朶
朿
杀
杏
杜
束
条
来
東
杲
杳
松
析
林
枚
果
枝
枲
枼
某
柔
查
柬
柰
柴
栗
桀
桂
桑
桼
梁
條
梟
梨
棘
棠
棥
森
楚
業
楽
榮
樂
樊
欠
次
欣
欮
欲
欶
欽
款
歆
歇
歛
止
正
此
步
武
歨
歪
歮
歯
歰
歲
歴
歷
歸
歹
歺
死
殳
段
殷
殸
殹
殺
殻
殿
毋
毌
母
每
毒
比
毕
毚
毛
毳
氏
氐
民
气
氣
水
氵
氶
氷
永
氺
氾
求
汝
汞
江
沃
沓
沙
沝
泉
法
波
泣
泥
泰
洛
津
洪
活
派
流
浦
浪
浮
淡
淮
清
渚
渠
港
湯
源
滿
漸
火
灬
灭
灰
灵
灷
炅
炎
炏
炗
炙
炭
為
烈
烏
烝
焉
無
焦
焱
然
煞
熊
熏
燕
營
燮
爪
爫
爭
爯
爰
爱
爲
爵
父
爻
爽
爾
爿
片
版
牙
牚
牛
牜
牟
牢
牧
牪
牽
犀
犬
犭
犮
狂
狄
狊
独
狺
猋
猒
猪
献
獻
玄
率
玉
王
玟
玨
珎
班
琴
瑟
瑩
瓜
瓦
甘
甚
生
産
用
甫
甬
田
由
甲
申
电
甶
男
甸
甹
画
甾
畀
界
畏
畐
留
畜
畟
畢
畧
畨
番
畫
異
畱
當
畺
畾
疊
疋
疌
疑
疒
疾
癶
癸
癹
登
發
白
百
皀
皃
的
皆
皇
皋
皐
皕
皮
皷
皿
盃
盆
盇
盈
益
盍
盎
监
盒
盖
盛
盡
監
盤
盧
目
直
相
盾
省
眇
眉
看
眔
眞
真
眩
眷
眼
眾
着
睘
睪
睿
瞏
瞢
瞿
矍
矛
矞
矢
矣
知
矦
短
石
破
碎
磊
磨
示
礻
礼
祟
票
祭
禀
禁
禸
禹
禺
离
禽
禾
禿
秀
秃
秉
秋
科
秝
秦
移
稟
穀
穌
穴
究
穹
空
穿
突
窄
窒
立
竒
竜
竝
竟
章
童
竹
笑
笠
第
筆
等
答
箕
算
箴
節
篤
篭
米
粉
粛
粟
粤
粦
粲
糞
糸
糹
系
約
納
素
索
紫
累
細
絜
絫
絲
維
綿
縣
繇
纍
纟
缶
网
罒
罔
罕
罗
罙
罡
罢
罪
署
罷
羅
羊
羌
羍
美
羔
羕
羗
羞
羡
羣
群
義
羲
羸
羽
翁
翏
習
翕
翟
翠
翼
老
耂
考
者
耆
而
耎
耑
耒
耳
耴
耶
耷
聂
聊
聖
聚
聶
聿
肀
肃
肅
肉
肖
肙
肥
肩
肯
育
肴
胃
背
胡
胥
能
脊
脩
膚
臣
臤
臧
自
臬
臭
臯
臱
至
致
臺
臼
臽
臾
臿
舀
舂
舄
與
興
舉
舌
舍
舛
舜
舞
舟
般
艮
良
色
艸
艹
艾
芒
芔
芬
芮
花
芳
芺
芻
苔
苗
苟
若
苦
英
茶
茸
荅
草
荒
荣
荼
莆
莧
莫
莽
菆
菊
菐
華
萬
落
葉
著
葛
董
葵
蒙
蒦
蒼
蓋
蓬
蓺
蔑
蔡
蕉
蕭
薄
薛
薦
薰
藍
藏
藥
蘭
虍
虎
虐
虒
虔
處
虖
虗
虘
虚
虛
虜
虞
虫
虽
蚤
蚩
蜀
蜜
蟲
蠡
血
行
衍
衛
衣
衤
表
衮
衰
袁
袞
褭
褱
襄
襾
西
覀
要
覃
見
規
覓
覧
親
覽
见
角
解
言
訁
訇
計
詹
語
誩
諸
讠
谷
豆
豈
豊
豐
豕
豖
豙
象
豦
豩
豪
豸
貇
貝
貞
貟
負
貢
貧
貪
貫
責
貳
貴
買
費
賁
資
賈
賏
賓
賔
賛
賞
賢
賣
質
賴
贊
贝
贡
责
贯
贲
贵
赖
赞
赤
赦
走
越
足
路
蹇
蹴
身
躬
車
軍
軎
軟
輦
车
辛
辜
辞
辟
辥
辰
辱
農
辵
辶
边
达
过
近
连
迷
追
退
送
逆
逐
通
速
造
逢
連
逮
進
遀
遂
過
道
達
遣
適
遷
遺
邊
邑
邕
那
邦
邪
郎
部
郭
都
鄉
酉
酋
配
酓
釆
采
里
重
野
量
金
釒
錢
钅
長
镸
长
門
閃
閉
開
閏
閑
閒
間
閔
閵
閻
闌
门
间
闷
阑
阜
阝
阿
降
陳
隆
隊
隋
隡
隨
隱
隶
隹
隺
隻
隼
隽
难
雀
雁
集
雈
雋
雍
雐
雔
雙
雚
雜
雝
離
難
雨
雩
雪
雲
零
雷
需
霍
霜
霝
霞
霸
靈
靑
青
非
靡
面
靣
革
鞠
韋
韦
韭
韯
韱
音
頁
頃
項
須
頗
頡
頻
顔
顛
页
風
风
飛
飞
食
飠
養
饣
首
香
馬
馮
駦
马
骨
高
髟
鬥
鬯
鬲
鬼
魚
魯
鮮
鱼
鲁
鲇
鳥
鳳
鸟
鹵
鹿
麃
麗
麥
麦
麻
黃
黄
黍
黎
黑
黒
黨
黹
黽
黾
鼎
鼓
鼠
鼻
齊
齋
齐
齒
齿
龍
龙
龜
龟
龠
龰
龱
龴
龵
龶
龷
龸
龹
ꦏ
ꦠ
ꦥ
ꦸ
꧀
者
艹
？
𠀁
𠀃
𠀆
𠀉
𠀎
𠀐
𠁁
𠁣
𠂆
𠂇
𠂈
𠂉
𠂊
𠂋
𠂎
𠂒
𠂔
𠂛
𠂡
𠂢
𠂤
𠂬
𠂭
𠂹
𠃊
𠃋
𠃌
𠃍
𠃎
𠃑
𠃓
𠃔
𠃜
𠄌
𠄎
𠄠
𠄢
𠆢
𠆥
𠇍
𠈌
𠌵
𠓜
𠔉
𠔥
𠔼
𠔽
𠔿
𠕀
𠕁
𠕋
𠘧
𠘨
𠙻
𠙼
𠚏
𠚒
𠚤
𠚪
𠣏
𠤎
𠤕
𠥓
𠦄
𠦑
𠦝
𠧒
𠧗
𠧪
𠩺
𠪚
𠫓
𠫔
𠫤
𠬛
𠬝
𠬞
𠬢
𠬤
𠬶
𠮛
𠮦
𠮷
𠯑
𠱠
𠳮
𠷎
𡈼
𡉀
𡉵
𡌥
𡍮
𡏳
𡕒
𡕩
𡕰
𡖅
𡗗
𡗜
𡘆
𡘤
𡧱
𡨄
𡩧
𡬠
𡭽
𡰣
𡰥
𡰪
𡰯
𡰱
𡷈
𡸁
𡿨
𡿩
𡿪
𡿺
𢀖
𢀛
𢀩
𢁙
𢆉
𢆰
𢆶
𢇁
𢇇
𢉖
𢌬
𢌿
𢏚
𢑑
𢑚
𢖻
𢙣
𢛳
𢦏
𢦒
𢧵
𢼄
𢾕
𣁋
𣄼
𣅀
𣅽
𣍘
𣎳
𣎵
𣏋
𣏼
𣗥
𣥂
𣥖
𣦵
𣦼
𣧄
𣪊
𣪠
𣬉
𣳾
𣶒
𤇾
𤊽
𤐫
𤓰
𤔔
𤕨
𤣩
𤰇
𤰔
𤰞
𤴓
𤴔
𤽄
𥁑
𥁕
𥃦
𥃩
𥃭
𥇡
𥑟
𥘅
𥘈
𥝢
𥫗
𥱡
𦈢
𦉪
𦉬
𦉼
𦍌
𦍒
𦎧
𦐇
𦓔
𦔮
𦘒
𦙃
𦚏
𦣝
𦣞
𦣻
𦥑
𦥔
𦥯
𦨉
𦭝
𦰩
𧆞
𧈧
𧘇
𧰨
𧴪
𧴮
𧵩
𧾷
𨸏
𨾴
𩙿
𩠐
𩫏
𩵋
𪉷
𪜀
𪟽
𪠲
𪩲
𫇦
𫔭
𫜸
𫝀
𫠣
𫠩
𫢉
𫥞
𫩏
𫩠
𫪡
𫲽
𫶧
𬀷
𬐘
𬗌
𬙙
𬛸
𬜯
𬟩
𬯁
𬴘
𬺻
𬼉
𬼖
𭀰
𭁈
𭁨
𭅰
𭑈
𭕄
𭗼
𭤨
𭥫
𭻾
𮅕
𮊿
𮍌
𮍏
𮓗
𮥼
𮧮
廾
𰀁
𰀄
𰀈
𰀉
𰀕
𰀠
𰀡
𰀢
𰀪
𰁜
𰃮
𰆊
𰆘
𰋙
𰕎
𰢴
𰧭
𰯲
00--
01--
02--
06--
08--
12--
13--
14--
15--
16--
17--
18--
19--
20--
22--
27--
32--
34--
39--
57--
6--
71--
79--
8--
84--
a--
ab--
abys--
ac--
acc--
ad--
adi--
ae--
afa--
afe--
afi--
afr--
ag--
aga--
ago--
agri--
ah--
ahe--
ai--
ak--
aka--
al--
ala--
ali--
alt--
am--
ama--
amaet--
amb--
ame--
ami--
amo--
amoza--
an--
and--
ang--
anga--
anti--
ao--
ap--
ar--
are--
ari--
arke--
arth--
as--
asa--
ash--
asi--
ast--
at--
ata--
atali--
ate--
au--
auber--
auto--
b--
ba--
bag--
baga--
bah--
bal--
bale--
ban--
bapt--
bar--
baruyu--
bas--
bat--
baw--
bawa--
bawo--
be--
bel--
ber--
bers--
bet--
bi--
bib--
bil--
bin--
bio--
bit--
bo--
boc--
boto--
bra--
bre--
bri--
bro--
bron--
bu--
buil--
bun--
bur--
buth--
c--
ca--
cac--
can--
car--
cas--
cat--
ce--
cel--
cen--
cent--
ch--
cha--
chry--
cla--
clas--
co--
col--
colo--
com--
communi--
con--
cor--
cory--
cre--
cri--
cu--
cy--
d--
da--
de--
del--
den--
di--
dia--
dik--
dis--
disi--
diskri--
dist--
do--
dr--
du--
dy--
e--
ec--
ed--
ege--
eho--
ek--
eko--
el--
eli--
emp--
en--
eng--
ep--
epis--
es--
et--
eu--
ev--
ex--
f--
fa--
fac--
fae--
fak--
fal--
fama--
famo--
fang--
fanga--
fange--
fango--
far--
fara--
fari--
fasa--
fe--
fer--
fi--
fir--
fit--
flo--
fo--
foc--
fofa--
for--
fr--
fre--
fri--
fu--
g--
ga--
gae--
gali--
gama--
gamo--
gan--
gang--
gango--
gar--
gawu--
ge--
gen--
ger--
gha--
gi--
gl--
glu--
go--
gon--
goro--
gra--
gre--
gro--
gu--
gunung--
guv--
h--
ha--
hal--
ham--
han--
har--
hare--
he--
heilk--
hel--
hen--
her--
hi--
hili--
hipo--
hiru--
histo--
ho--
hori--
hosp--
hu--
hun--
hy--
i--
ib--
ide--
ifa--
ifo--
ikhu--
ill--
im--
imig--
in--
indi--
info--
insp--
inst--
io--
ip--
ir--
ira--
is--
iskan--
it--
ita--
iw--
j--
ja--
jam--
je--
jew--
ju--
k--
ka--
kali--
kan--
kar--
kast--
ke--
kec--
keju--
ken--
kep--
kh--
kha--
kho--
khu--
ki--
kla--
kle--
kli--
klik--
klo--
ko--
kof--
kon--
konst--
kont--
konti--
kre--
kri--
ku--
kuk--
kur--
l--
la--
lafa--
lafo--
lago--
lak--
laka--
lan--
lang--
lap--
lata--
le--
lep--
li--
lin--
lip--
lo--
lomp--
lon--
long--
lu--
luc--
ludo--
m--
ma--
mag--
mah--
maha--
mak--
mal--
mali--
mama--
mamo--
man--
mana--
mange--
mar--
maru--
mat--
mb--
mba--
mbe--
mbo--
me--
med--
mem--
memi--
memper--
men--
meng--
menga--
menu--
meny--
menye--
mes--
meso--
meta--
mi--
mik--
mo--
mon--
mos--
mu--
mufa--
multi--
muta--
my--
n--
na--
nan--
nas--
nc--
ne--
nel--
nerv--
new--
ng--
nga--
ni--
nifa--
nife--
nifo--
nip--
no--
nola--
nono--
norwe--
nu--
o--
of--
offi--
ogo--
oi--
ola--
omu--
on--
oni--
ono--
op--
or--
ori--
osa--
ot--
oto--
out--
ov--
p--
pa--
pac--
pan--
panc--
par--
para--
pas--
pasc--
pat--
pe--
ped--
pemi--
pen--
pena--
peng--
penga--
penge--
pengu--
penun--
peny--
pep--
per--
pet--
ph--
pi--
pin--
pl--
plac--
po--
pol--
pon--
posi--
pot--
pra--
pre--
pri--
pro--
pt--
pu--
publi--
pur--
q--
qua--
quadr--
quest--
r--
ra--
ran--
rat--
re--
reli--
ren--
rep--
represen--
resi--
reso--
ri--
ro--
ru--
rub--
s--
sa--
sae--
sah--
salv--
sama--
sami--
samo--
san--
sandr--
sang--
sango--
sara--
sch--
sco--
scorp--
se--
sec--
sek--
sel--
sen--
ser--
set--
sh--
sha--
si--
sid--
sifa--
sig--
sim--
sin--
sipo--
sira--
sisara--
siso--
site--
sla--
sm--
so--
sofa--
sogo--
solo--
son--
sor--
sp--
squa--
st--
stat--
su--
sub--
sul--
sup--
sur--
swe--
sy--
sya--
t--
ta--
tab--
tafa--
tafo--
tak--
talu--
tan--
te--
tefa--
tefe--
tek--
tem--
temp--
ter--
terp--
teru--
tes--
tesi--
th--
ti--
tim--
tin--
tip--
tir--
to--
tong--
tox--
tra--
transm--
tri--
tria--
trop--
tru--
ts--
tu--
tuhe--
u--
ua--
ufa--
un--
uni--
up--
ura--
us--
v--
ve--
vege--
vi--
vil--
vir--
visi--
vo--
vol--
w--
wa--
wal--
wala--
wama--
wamo--
wana--
wane--
wang--
wanga--
wanu--
war--
we--
wi--
wil--
win--
wo--
wolo--
wu--
wy--
x--
y--
ya--
ye--
yo--
yu--
za--
zama--
zamo--
zang--
zango--
zara--
ze--
zi--
zifa--
ziha--
zo--
zu--
zuh--
μαθη--
ר--
--0
--1
--12
--2
--3
--4
--5
--6
--62
--7
--8
--9
--a
--ae
--age
--ah
--ahan
--ai
--ak
--akha
--aku
--al
--am
--an
--ang
--ans
--anto
--ao
--ap
--ar
--ard
--ari
--aru
--arum
--as
--asi
--at
--ation
--au
--awan
--awi
--b
--ba
--bai
--bal
--bale
--baru
--be
--bi
--ble
--bo
--boe
--boi
--bps
--bs
--bu
--bua
--bus
--c
--ca
--cal
--cang
--ce
--cea
--ceae
--cens
--ch
--cht
--ci
--ck
--cle
--co
--ct
--cta
--cu
--cus
--cut
--d
--da
--dae
--dano
--day
--ddin
--ddy
--de
--dea
--dege
--di
--dia
--din
--ding
--dis
--do
--dono
--doro
--dou
--dre
--ds
--du
--dugo
--dulo
--dy
--e
--ea
--ed
--ef
--eh
--ehusi
--ei
--ek
--ekha
--ekhugo
--el
--en
--eni
--enu
--er
--eri
--ern
--ers
--es
--ese
--et
--ete
--eu
--ew
--ewua
--ey
--f
--fa
--fau
--fe
--fi
--fo
--ft
--fu
--fuo
--g
--ga
--gal
--gan
--gar
--gat
--ge
--geha
--gga
--ght
--gi
--go
--grafi
--gu
--gue
--gus
--gy
--h
--ha
--hai
--halo
--ham
--han
--hao
--hat
--he
--hela
--heu
--hi
--hili
--hita
--hkan
--ho
--hogo
--hori
--houni
--hu
--hugo
--huku
--i
--ia
--ial
--ian
--iat
--ibid
--ic
--ica
--ics
--id
--igo
--ih
--ii
--ik
--il
--ile
--ilo
--im
--in
--ine
--ing
--ini
--inus
--ion
--ip
--ir
--iro
--is
--isasi
--isi
--isme
--it
--itas
--ito
--ium
--ius
--j
--ja
--jaran
--ji
--jo
--k
--ka
--kab
--kah
--kai
--kan
--kao
--kat
--kau
--ke
--kh
--kha
--kho
--khoi
--khu
--ki
--kiko
--ko
--koe
--kol
--komo
--kota
--ks
--ksi
--kt
--ku
--kut
--l
--la
--laete
--lah
--lai
--lan
--land
--lang
--lar
--lat
--lau
--lauru
--layama
--ld
--le
--lemba
--les
--lf
--li
--lia
--lifa
--ligo
--lin
--lina
--line
--ling
--lio
--lis
--litas
--ll
--lla
--lle
--lls
--lly
--lm
--lo
--log
--logi
--loi
--lp
--ls
--lu
--lui
--luo
--lus
--ly
--lysis
--m
--ma
--mad
--mah
--man
--masi
--mat
--maw
--mba
--mbo
--mbu
--me
--men
--mi
--mia
--mic
--mis
--mo
--mu
--muhua
--mum
--n
--na
--nal
--nan
--nata
--nce
--nd
--nda
--nder
--ndo
--ndro
--ne
--neal
--ned
--ner
--nesi
--ng
--nga
--ngan
--nge
--ngele
--nger
--ngewe
--ngi
--ngkan
--ngkat
--ngo
--ngu
--ni
--nia
--nin
--nkan
--no
--nogo
--noi
--ns
--nsi
--nsis
--nt
--ntal
--nte
--ntik
--nto
--nu
--nua
--nura
--nus
--nx
--ny
--nya
--o
--oe
--ogo
--ografi
--oi
--oid
--ok
--ol
--olago
--om
--omago
--on
--ona
--onal
--ons
--or
--ora
--osa
--ot
--ota
--p
--pa
--pan
--pe
--pi
--ping
--pkan
--po
--poda
--pok
--pong
--ps
--psi
--pter
--pu
--puk
--pur
--pus
--q
--r
--ra
--rah
--rai
--rak
--ran
--rara
--rasi
--raya
--rd
--re
--rege
--res
--reso
--rg
--ri
--rigo
--rin
--ris
--risayoi
--rium
--rius
--rk
--rkan
--rm
--rn
--rno
--rns
--ro
--rogo
--rry
--rs
--rt
--rta
--rto
--rtz
--ru
--rudugo
--rugo
--ruka
--rukhu
--rum
--ruwu
--ry
--s
--sa
--san
--sao
--se
--sea
--sed
--sensi
--ses
--sh
--shi
--si
--sis
--siwawo
--ska
--skan
--so
--soma
--son
--sor
--ss
--st
--ster
--sti
--stiwa
--su
--sui
--t
--ta
--tal
--tan
--tar
--tary
--tas
--tase
--tasua
--tawi
--te
--ted
--ten
--ter
--th
--ti
--tial
--ticus
--ties
--tif
--tik
--tin
--ting
--tion
--tions
--tis
--tkan
--to
--tokhi
--tomosi
--tor
--tos
--town
--tric
--ts
--tt
--tter
--tty
--tu
--tua
--tus
--ty
--tz
--u
--ua
--ud
--uhkan
--ui
--ukhu
--uku
--ul
--uli
--ulu
--um
--un
--ung
--ur
--ure
--ures
--uru
--us
--ut
--uw
--uwu
--v
--va
--ve
--vo
--vus
--w
--wa
--wan
--wao
--wati
--we
--wi
--wo
--wu
--wua
--wulo
--x
--y
--ya
--yago
--yah
--yaigo
--yo
--yoini
--yu
--z
--za
--zaewe
--zaule
--zaumba
--zi
--zin
--zio
--zo
--zu
--zuni
--ר
