!
"
#
##0
##1
##10
##11
##12
##13
##14
##15
##16
##17
##18
##19
##2
##20
##21
##22
##23
##24
##25
##26
##27
##28
##29
##3
##30
##31
##32
##33
##34
##35
##36
##37
##38
##39
##4
##40
##41
##42
##43
##44
##45
##46
##47
##48
##49
##5
##50
##51
##52
##53
##54
##55
##56
##57
##58
##59
##6
##60
##61
##62
##63
##64
##65
##66
##67
##68
##69
##7
##70
##71
##72
##73
##74
##75
##76
##77
##78
##79
##8
##80
##81
##82
##83
##84
##85
##86
##87
##88
##89
##9
##90
##91
##92
##93
##94
##95
##96
##97
##98
##99
$
%
&
'
(
)
*
+
,
-
.
/
0
00
000
001
005
01
0175
02
03
035
04
045
05
0525
06
065
07
08
085
09
095
1
10
100
1000
10000
100000
101
102
1022
1025
103
104
1040
105
106
107
1075
108
1080
109
1095
1097
1099
11
110
1100
110000
1106
111
1114
112
1120
1122
1125
1128
113
114
1142
115
116
1167
1169
117
1175
118
1183
1185
1186
1187
119
1192
1193
1198
12
120
1200
12000
120000
1203
1204
1206
1208
121
1212
1216
1217
1219
122
1220
1221
1225
1227
123
1230
1231
1239
124
1240
1241
1244
1249
125
1250
12500
1254
1258
126
1265
1267
1268
1269
127
1270
1274
1275
1278
128
1283
1289
129
1291
1292
1294
1297
1299
13
130
1300
1302
1303
1304
1306
1307
1308
131
1311
1313
1314
1315
1316
1317
1319
132
1320
1321
1322
1323
1325
1326
133
1330
1331
1333
1336
1339
134
1340
1341
1342
1343
1344
1346
1347
135
1350
1351
1352
1353
1357
1358
136
1360
1361
1362
1364
1367
1369
137
1371
1372
1375
1378
138
1380
1381
1383
1386
1389
139
1394
1395
1397
14
140
1400
1401
1405
141
1410
1414
1415
142
1425
1428
143
1431
1436
144
145
1453
146
1464
1466
1467
1469
147
1472
1475
1476
1478
1479
148
1480
1481
1482
1483
1484
1486
1489
149
1490
1492
1494
1497
1498
1499
15
150
1500
15000
1501
1503
1504
1505
1506
1507
1508
1509
151
1510
1511
1512
1513
1514
1515
1516
1517
1518
1519
152
1520
1521
1522
1523
1524
1525
1526
1527
1528
1529
153
1530
1531
1532
1533
1534
1536
1537
1539
154
1540
1541
1542
1543
1544
1545
1546
1547
155
1550
1553
1554
1555
1556
1557
1558
156
1560
1561
1562
1563
1564
1566
1567
1568
1569
157
1570
1571
1572
1574
1575
1576
1577
1578
1579
158
1580
1581
1582
1584
1585
1586
1587
1588
1589
159
1590
1591
1592
1594
1595
1597
1598
1599
16
160
1600
1601
1602
1603
1604
1605
1606
1608
1609
161
1610
1611
1612
1613
1614
1615
1616
1617
1618
1619
162
1620
1622
1623
1625
1629
163
1630
1631
1632
1633
1635
1636
1638
1639
164
1640
1641
1642
1643
1644
1645
1646
1647
1648
1649
165
1650
1651
1652
1653
1656
1657
1658
166
1660
1661
1662
1664
1666
1667
1669
167
1670
1672
1673
1674
1675
1676
1677
1678
1679
168
1680
1681
1682
1683
1684
1685
1686
1687
1688
1689
169
1690
1691
1692
1693
1694
1695
1696
1697
1698
1699
17
170
1700
1702
1703
1705
1706
1707
1708
1709
171
1710
1711
1712
1713
1714
1715
1716
1717
1718
1719
172
1720
1722
1723
1724
1725
1726
1728
1729
173
1730
1731
1732
1733
1734
1735
1736
1737
1738
1739
174
1740
1741
1742
1743
1744
1745
1746
1747
1748
1749
175
1750
17500
1751
1752
1753
1754
1755
1756
1757
1758
1759
176
1760
1761
1762
1763
1764
1765
1766
1767
1768
1769
177
1770
1771
1772
1773
1774
1775
1776
1777
1778
1779
178
1780
1781
1782
1783
1784
1785
1786
1787
1788
1789
179
1790
1791
1792
1793
1794
1795
1796
1797
1798
1799
18
180
1800
1801
1802
1803
1804
1805
1806
1807
1808
1809
181
1810
1811
1812
1813
1814
1815
1816
1817
1818
1819
182
1820
1821
1822
1823
1824
1825
1826
1827
1828
1829
183
1830
1831
1832
1833
1834
1835
1836
1837
1838
1839
184
1840
1841
1842
1843
1844
1845
1846
1847
1848
1849
185
1850
1851
1852
1853
1854
1855
1856
1857
1858
1859
186
1860
1861
1862
1863
1864
1865
1866
1867
1868
1869
187
1870
1871
1872
1873
1874
1875
1876
1877
1878
1879
188
1880
1881
1882
1883
1884
1885
1886
1887
1888
1889
189
1890
1891
1892
1893
1894
1895
1896
1897
1898
1899
19
190
1900
1901
1902
1903
1904
1905
1906
1907
1908
1909
191
1910
1911
1912
1913
1914
1915
1916
1917
1918
1919
192
1920
1921
1922
1923
1924
1925
1926
1927
1928
1929
193
1930
1931
1932
1933
1934
1935
1936
1937
1938
1939
194
1940
1941
1942
1943
1944
1945
1946
1947
1948
1949
195
1950
1951
1952
1953
1954
1955
1956
1957
1958
1959
196
1960
1961
1962
1963
1964
1965
1966
1967
1968
1969
197
1970
1971
1972
1973
1974
1975
1976
1977
1978
1979
198
1980
1981
1982
1983
1984
1985
1986
1987
1988
1989
199
1990
1991
1992
1993
1994
1995
1996
1997
1998
1999
2
20
200
2000
20000
2001
2002
2003
2004
2005
2006
2007
2008
2009
201
2010
2011
2012
2013
2014
2015
2016
2017
2018
2019
202
2020
2021
2022
2025
203
204
205
206
207
2075
208
209
2092
21
210
211
212
213
214
215
216
217
218
219
22
220
221
222
223
224
225
226
227
228
229
23
230
231
232
233
234
235
236
237
238
239
24
240
241
242
243
244
245
246
247
248
249
25
250
2500
25000
251
252
253
254
255
256
257
258
259
26
260
261
262
263
264
265
266
267
268
269
27
270
271
272
273
274
275
276
277
2775
278
279
28
280
281
282
283
284
285
286
287
288
289
29
290
291
292
293
294
295
296
297
298
299
3
30
300
3000
30000
301
302
303
304
305
306
307
308
309
31
310
311
312
3125
313
314
315
316
317
318
319
32
320
321
322
323
324
325
326
327
328
329
33
330
331
332
333
334
335
336
337
338
339
34
340
341
342
343
344
345
346
347
348
349
35
350
3500
35000
351
352
353
354
355
356
357
3575
358
359
36
360
361
362
363
364
365
366
367
368
369
37
370
371
372
373
374
375
376
377
378
379
38
380
381
382
383
384
385
386
387
388
389
39
390
391
392
393
394
395
396
397
398
399
4
40
400
4000
40000
401
402
403
404
405
406
407
408
409
41
410
411
412
413
414
415
416
417
418
419
42
420
421
422
423
424
425
426
427
428
429
43
430
431
432
433
434
435
436
437
4375
438
439
44
440
4406
441
442
443
444
445
446
447
448
449
45
450
45000
451
452
453
454
455
456
457
458
459
46
460
461
462
463
464
465
466
467
468
469
47
470
471
472
473
474
475
476
477
478
479
48
480
481
482
48252
483
484
485
486
487
488
489
49
490
491
492
493
494
495
496
497
498
499
5
50
500
5000
50000
501
502
503
504
505
506
507
508
509
51
510
511
512
513
514
515
516
517
518
519
52
520
521
522
523
524
525
526
527
528
529
53
530
531
532
533
534
535
536
537
538
539
54
540
541
542
543
544
545
546
547
548
549
55
550
551
552
553
554
555
556
557
558
559
56
560
561
562
563
564
565
566
567
568
569
57
570
571
572
573
574
575
576
577
578
58
580
581
582
5825
583
584
585
586
587
588
589
59
590
591
592
593
594
595
596
597
598
599
6
60
600
6000
60000
601
602
603
604
605
606
607
609
61
610
611
612
613
614
615
616
617
618
619
62
620
621
622
623
625
626
627
628
629
63
630
631
632
633
634
635
636
637
638
639
64
640
641
642
643
644
645
646
647
648
649
65
650
651
652
655
656
657
658
66
660
661
663
664
665
666
667
669
67
670
671
672
674
675
676
68
680
681
684
685
686
687
688
689
69
690
691
693
695
697
698
699
7
70
700
7000
70000
701
704
705
707
708
709
71
710
711
712
713
714
715
716
717
719
72
720
721
722
724
725
727
728
73
730
732
733
734
735
736
737
74
740
741
742
743
745
747
748
75
750
7500
751
752
753
754
755
757
76
760
762
764
765
767
77
770
771
774
775
776
78
780
781
782
783
785
786
787
79
791
793
794
7942
795
8
80
800
80000
802
8028
803
804
805
806
809
81
810
813
814
815
817
82
820
821
822
825
826
83
830
831
833
834
835
839
84
840
842
844
845
846
85
850
85000
855
856
86
860
861
865
868
869
87
870
873
874
875
88
880
885
886
89
891
895
9
90
900
90000
9025
903
905
906
909
91
915
918
92
920
924
925
926
93
930
931
932
933
935
936
94
940
945
95
955
959
96
960
965
969
97
970
975
978
9781135963415
98
980
983
985
99
995
999
:
;
<
=
>
?
@
\
^
_
`
a
aa
aaro
aaron
aarona
ab
aba
aban
abasida
abbas
abbaye
abbe
abbeville
abbott
abc
abd
abdallah
abdelaziz
abdiasa
abdo
abdu
abdul
abdullah
abe
abel
abela
abi
abia
abiama
abidia
abidjan
abidy
abily
abimeleka
abita
abjady
abo
abou
about
abraham
abrahama
abrahamika
abrama
abu
ac
acade
aceh
achille
acre
acteur
ad
ada
adala
adalbert
adalo
adam
adama
adams
adaoro
adar
adara
ade
adidy
adigeana
adihevitra
adijady
adika
adimizana
adin
adiny
adiresy
adizaoza
adler
adnan
ado
adobe
adolf
adolfo
adolph
adolphe
adour
adria
adriamanitra
adrian
adriano
adrien
advent
adventisma
adventist
adventista
advento
ady
afa
afaka
afangaro
afara
afatsy
afeliany
afenina
affaires
afganista
afganistana
afindra
afo
afobe
afonso
afotroa
afovoan
afovoany
africa
africaine
african
afrika
afrikana
afrikanina
afrikansa
afrique
afro
ag
age
agency
agglome
agha
agne
agny
agostino
agreste
agusti
ah
ahaba
ahafaha
ahafahan
ahafahana
ahafahany
ahafantarana
ahalanian
aharonim
ahasoerosy
ahatsiarovana
ahaza
ahazia
ahazoana
ahiahy
ahitana
ahitra
ahmad
ahmed
ahmet
aho
ahoana
ahora
ahura
ahy
ai
aichi
aignan
aigues
aime
ain
aina
aingam
ainy
air
aire
aires
airlines
ais
aise
aisne
aix
aiza
aizina
ak
akaba
akademia
akadia
akadiana
akaikin
akaikiny
akaiky
akambana
akanga
akanjo
akaza
akbar
akemenesy
akemenida
akenato
akfm
akima
akita
akjea
akoho
akon
akondro
akony
akora
akory
al
ala
alabama
alagoano
alagoas
alahadin
alahady
alahamadibe
alahamady
alahasady
alahasaty
alahatra
alahelo
alain
alaina
alakamisy
alakaosy
alakarabo
alalan
alalana
alalany
alam
alan
alana
alaotra
alarobia
alarobian
alaska
alasora
alatsinainy
alba
alban
albaney
albania
albany
albe
albedo
albert
alberta
alberto
albi
albin
alborz
albrecht
album
alc
aldo
ale
alec
alef
alefa
alegre
aleha
alejandro
aleksandar
aleksander
aleksandr
aleksandra
aleksandria
aleksei
alema
alemaina
alemana
alemanina
alenc
aleo
aleota
alessandro
alevina
alex
alexander
alexandra
alexandre
alexandrie
alexandrovitch
alexei
alexis
alf
alfa
alfeo
alfonso
alfred
alfredo
algo
ali
alice
align
alika
alikasajy
alim
alimo
alin
alina
alisateur
alisay
alitara
alix
alizay
aljeria
all
alla
allah
allan
allard
alle
allen
alliance
allier
alma
almeida
aloalo
aloha
alohan
alohany
alohotsy
alois
alonso
alpes
alpha
alphonse
als
alsace
also
alt
alta
altaika
alto
alves
alvin
alzeria
am
ama
amable
amadou
amakiana
amalekita
amam
aman
amance
amand
amantarana
amaury
amazia
amazo
amazonas
amazonense
ambadiky
ambalavao
ambaniandro
ambanin
ambanivohitra
ambanja
ambany
ambara
ambaran
ambarany
ambaratonga
ambaratongam
ambato
ambatofisaorana
ambatolampy
ambatondrazaka
ambatovinaky
ambatovory
ambatovy
ambert
ambilobe
ambin
ambiroa
amboalohany
amboasary
ambodifahitra
ambodirano
ambohibao
ambohibe
ambohidrabiby
ambohidrano
ambohidrapeto
ambohidratrimo
ambohimahasoa
ambohimahatakatra
ambohimalaza
ambohimandroso
ambohimanga
ambohimanjaka
ambohimirimo
ambohitrabiby
ambohitraina
ambohitrakely
ambohitrandriamanitra
ambohitrandriananahary
ambohitrombihavana
amboise
ambolena
ambon
ambonin
amboniny
ambony
ambositra
ambovombe
ambozontany
ambroise
amby
ame
amen
amena
amenemesy
ameno
america
american
amerika
amerikana
amerikanina
amerindiana
ametrahana
amharika
ami
amidy
amie
amiens
amiko
amim
amin
amina
aminao
aminareo
aminay
amintsika
aminy
amir
amn
amo
among
amonita
amontana
amoron
amoronkay
amorontsiraka
amos
amosa
ampahafolon
ampahan
ampahany
ampahatelon
ampahatsiahivina
ampahefatry
ampahibemaso
ampakarina
ampanihy
amparafaravola
ampemba
ampembambazaha
ampiana
ampianarin
ampianarina
ampiarahina
ampiasain
ampiasaina
ampiasainy
ampiasana
ampidirina
ampiharina
ampiposahana
ampita
ampitahaina
ampitahao
ampitan
ampitson
ampondra
amponga
ampy
amy
an
ana
anabatisma
anabatista
anabavin
anabaviny
anabavy
anadahin
anaka
anakara
analalava
analamanga
analanjirofo
anambara
anamboarana
anambra
anana
ananan
ananana
ananany
anankiray
anao
anaovan
anaovana
anaovany
anarako
anaram
anaran
anarana
anaranao
anarany
anareo
anatanterahana
anatin
anatiny
anato
anatole
anatoli
anatrehan
anatrehany
anaty
anavahana
anay
ancenis
ancien
ancient
and
andafy
andalan
andalana
andalinana
andalovan
andalusia
andama
andamaney
andaniny
andavanandro
andelle
andelys
anders
andersen
anderson
andersson
andevo
andhra
andiam
andian
andiana
andiany
andilan
andinihana
andinin
andininy
ando
andohalambo
andohalo
andrade
andraikiny
andraikitra
andraikitry
andraisan
andraisana
andramasina
andrana
andrasana
andratsay
andravoahangy
andre
andrea
andreas
andrefan
andrefana
andrefany
andrei
andrew
andrews
andriamanafotsarivo
andriamanalina
andriamananitany
andriamanelo
andriamanely
andriamangarira
andriamani
andriamanibavy
andriamaniny
andriamanitr
andriamanitra
andriamanitrao
andriamanitro
andriamanitry
andriamanitsika
andriamanjaka
andriamary
andriamasinavalona
andriambahoaka
andriambavy
andriambelomasina
andriamby
andriampakatro
andriampanarivofonamanjaka
andriampolofantsy
andrian
andriana
andrianamboatsimarofy
andrianamboninolona
andrianampoina
andrianampoinimerina
andrianamponga
andrianan
andriananahary
andrianavalonimerina
andriandahy
andriandambonavalona
andriandambotanimanjaka
andriandambozozoro
andriandoriamanjaka
andriandranando
andriandranandobe
andrianentoarivo
andrianjafy
andrianjaka
andrianjakavololonandriana
andrianonitomponitany
andriantompokoindrindra
andriantomponarivo
andriantomponimerina
andriantsoly
andriatompokoindrindra
andrim
andrimanitra
andringitra
andro
androany
android
androm
andron
androna
androny
androy
andry
andrzej
andy
anefa
anehoana
anelanelan
anelanelany
ang
angamba
angano
angatra
ange
angel
angela
angeles
angelo
angers
anglais
angletera
angleterre
anglikana
anglikanisma
anglisy
anglo
ango
angola
angon
angona
angorodao
angovo
anhui
anie
animisma
animista
anio
anirian
anisa
anisan
anita
anivon
anjakan
anjara
anjaran
anjarany
anjelin
anjeliny
anjelo
anjely
anjou
anjozorobe
ankabeazan
ankabetsahan
ankalazaina
ankalazana
ankamaroan
ankamaroany
ankapobeny
ankaramalaza
ankaratra
ankavanan
ankavanana
ankavia
ankazoabo
ankazobe
ankazomanga
ankehitriny
ankehitrio
ankibon
ankibonimerina
ankilany
ankivy
ankizy
ankoatr
ankoatra
ankoatry
ankohonana
ankohonany
ankolafy
ankolaka
ankorombe
ankotrokotroka
ann
anna
anne
annecy
annette
annick
annie
ano
anoina
anoloan
anombohan
anondroana
anoratana
anosibe
anosimanjaka
anosipatrana
anosy
anovana
anovozan
ans
anselme
antakarana
antalaha
antalaotra
antambahoaka
antampon
antanambao
antananarivo
antandroy
antanifotsy
antankarana
antanosy
antarktika
ante
antefasy
antemoro
antenantenan
antenantenany
antenatenany
antenimiera
antenimieram
antenimieran
antesaka
anthony
anti
antidahy
antigoa
antikristy
antilia
antilo
antio
antiokia
antiokosy
antioquia
antitra
anto
antoandro
antoine
antoinette
antoka
antoko
antokom
antokon
antokony
antom
antomotra
anton
antoni
antonin
antonio
antonontonony
antonony
antontan
antony
antrendry
antro
antsa
antsahadinta
antsahamanitra
antsanga
antsantsa
antsasa
antsasaky
antsasany
antsika
antsimo
antsinana
antsinanan
antsinanana
antsipiriany
antsirabe
antsiranana
antso
antsohihy
antsoin
antsoina
antsoiny
antsy
any
ao
aogositra
aogostino
aogosto
aoka
aondrana
aorian
aoriana
aorina
aostralia
aostraliana
aostro
aotrisy
ap
apetraka
apetrany
api
apo
apocalypse
apokalipsa
apokalipsin
apokalipsy
apokalypsy
apokrifa
apokrifan
apollo
apostolika
apostoly
apple
april
aprily
apt
aquitaine
ar
ara
arab
arabe
arabia
arabo
arabon
arac
arachide
arago
aragon
arahin
arahina
arak
araka
arakaraka
arakaraky
araky
aral
arama
arameana
aramianina
araraquara
aratra
arc
arche
archer
archeve
archibald
architecte
archive
archived
ardabil
ardasira
arde
ardennaise
ardennaises
ardennes
are
areti
aretin
aretina
argentan
argonne
ariana
arianisma
ariaramnesy
ariary
arie
arika
arikanjely
arintany
ariosy
aristide
aristo
aristobolo
arivo
arivonimamo
arivony
arizona
arjentina
arkanjely
arkansas
arkeo
arktika
arles
armagnac
armancourt
armand
armando
arme
armenia
armeniana
armin
armstrong
arn
arnaud
arne
arno
arnold
arnoult
arona
arovana
arras
arrats
arrondissement
arsakida
arsamesy
arse
arsesy
arseveka
arsidio
art
artakserksesy
artemisia
arthur
article
articles
artist
artiste
artois
arts
artur
arturo
arusha
ary
as
asa
asabotsy
asam
asan
asanao
asany
asara
asaramanitra
asaramantsina
asasoratra
aseho
asehon
asera
asher
ashley
asia
asiana
asidra
asiria
asiriana
asistero
asitero
askenazy
asombola
asorasady
asorota
asorotany
asotry
asp
assam
assis
association
astarac
astero
astriana
astrisma
astro
asturias
asuncio
asy
asyria
at
ata
atahorana
atalia
atambatra
atao
ataoko
ataon
ataony
ataovy
ateniana
aterineto
ath
athe
athens
athle
atia
atitany
atlanta
atlantika
atlantique
atlantiques
ato
atody
atokana
atonton
atrice
atseret
atsimo
atsimon
atsimondrano
atsimony
atsinana
atsinanan
atsinanana
atsinanany
atsy
atuba
aty
au
aube
aubert
aubigny
aubin
aubry
aubusson
auch
aude
auger
augsburg
august
augusta
auguste
augustin
augusto
augustus
aulnay
aumale
aure
aurelio
aurillac
aurora
austin
australia
austria
auteur
authie
author
autre
autriche
auvergne
aux
av
ava
avahana
avant
avara
avaradrano
avaratr
avaratra
avaratry
avec
avela
avelao
averina
avesnes
avesta
aveyron
aviavy
avignon
avo
avoakan
avoir
avokoa
avon
avranches
avre
avril
avrily
avy
awiya
ax
axel
ay
ayatollah
az
aza
azaria
azariasa
azerbaija
azerbaijan
azerbaijana
azerbaijany
azeri
azery
azia
aziatika
azisy
aziz
azo
azon
azonao
azony
azur
azy
b
ba
baala
baasa
babela
babilo
babilona
babiloniana
babisma
babo
bac
bach
bacon
bade
baden
badia
bady
bagdad
bago
baha
bahaisma
bahamasy
bahay
bahia
bahiny
bahoaka
bahoakan
bai
baiano
baibolin
baiboly
baiko
baikon
bailey
bailleul
bailly
bains
baird
bajao
baker
bakhtiari
bakiteny
bako
bakr
baktriana
bal
bala
balaama
baldwin
balearic
bali
balkana
ball
balotsy
balta
baltika
balto
baluchestan
baly
bamako
bambara
ban
banane
bandar
bangladesy
bank
banks
banky
banto
bao
baole
baolina
baomba
baovao
baptist
baptiste
bar
bara
baraka
baratra
barbady
barbara
barbier
barboda
barbosa
bardia
bareina
barito
barnaba
barnes
barney
baroka
barolong
baron
baronnies
barotra
barra
barre
barrett
barry
barselona
barth
barthe
bartlett
barto
bartolomeo
barton
baruch
bary
bas
basa
base
baseball
based
bases
basikety
basil
basile
basket
basque
basse
bassigny
bassin
bastia
bastide
bastides
bastien
basy
bat
bataille
batan
batana
bateke
batemy
bates
batisa
batisan
batisma
batista
bato
batseba
battista
bauchot
baudouin
bauer
baumann
bauru
bava
bavaka
bavam
baventy
bavie
bay
bayard
bayonne
bazan
bazana
bazilika
bazin
bbc
be
beach
bealanana
beauce
beaufort
beaulieu
beaumont
beaune
beauregard
beaurepaire
beauvais
beauvoir
bebe
bec
beck
becker
bedford
befandriana
behivavy
beijing
being
bekily
bel
bela
belarosia
belgique
belizy
bell
bellac
belle
bellegarde
belles
belleville
belley
belmont
belo
belona
belza
belzika
bemarivo
ben
bena
bend
bene
benedetto
benenitra
bengal
bengaly
beni
benino
benito
benjamin
benjamina
bennett
benoi
benoist
benoit
benton
beosy
ber
berbera
berenike
berg
berge
berger
bergerac
berio
berkeley
berlin
bernadette
bernard
bernardino
bernardo
bernay
bernd
bernhard
bernier
beroroha
berry
bert
berthelot
berthold
bertin
bertrand
besakana
besalampy
besinimaro
besse
besson
best
bet
beta
betafo
bete
betela
betioky
betlehema
betroka
betsaka
betsiboka
betsileo
betsimisaraka
betty
bevava
beverly
bey
bezaha
bezanozano
bi
bia
bianchi
białystok
bibi
bibidia
bibikely
bibilava
bible
biblical
biblika
biby
bidy
bie
bielo
bien
big
bigot
bihar
bila
bilady
bilh
bill
billancourt
billy
bin
bint
bintana
bio
biolgaria
birao
biraom
biraon
bird
birijiny
biriky
birmana
birmania
bisao
bishop
bit
bita
bitany
bitika
bizantina
bizantioma
bizimungu
bjo
black
blair
blaise
blake
blanc
blanchard
blanche
blanchet
blaye
ble
blench
bloch
blog
blois
blue
bney
bo
boa
boafidy
boalohany
boan
boanaratra
bob
bobby
bobonong
bocage
boda
bodirindrina
bodisma
bodista
bodivona
bodo
boe
boeing
boeny
boganda
bohe
bohitra
boina
bois
boisduval
boissie
boissy
boity
boka
bokatra
bokim
bokin
bokiny
bokotra
boky
bola
bolamena
bolan
bolana
bolantany
bolena
bolgaria
bolo
bologne
boloky
boly
bom
bon
bonaparte
bond
bondrona
bongo
bongolava
boninahitra
bonne
bonnet
bonneville
bony
book
books
booksources
booth
boraha
borborema
bordeaux
boribory
boriky
boris
boriziny
borkina
borona
borondey
borondy
borough
bos
bosc
bosnia
boston
bota
botaniste
boteti
botsoana
boubacar
bouchard
boucher
bouches
bouillon
boulanger
boulle
boulogne
bourbon
bourg
bourgeois
bourges
bourgogne
boutonne
boy
boyd
boyer
bozaka
bra
brabant
brad
bradley
bradt
brady
brahim
brahma
branco
brandebourg
brandon
brandt
bratislava
braun
bray
braye
brazila
brazzaville
bre
brenne
bresse
bressuire
brest
bretagne
brethren
breton
breuil
brezila
brezily
brian
brice
brickaville
brie
brief
briey
brigham
brigitte
brignoles
brill
brioude
britaina
britanika
britannica
british
brive
broney
brooklyn
brooks
brown
bru
bruce
brun
brunel
brunet
bruno
brunswick
brussel
bryan
bu
buchanan
bucharest
buchnera
buck
bud
budapest
buddy
buenos
buffalo
bug
bugey
building
buis
bujumbura
bull
bureau
buri
burke
burns
burton
bus
bush
bushehr
business
bussie
bussy
butler
buyoya
by
byron
c
ca
cabarde
cabo
cachou
cafe
cahiers
cahors
calais
caldas
california
calvi
calvin
cambrai
cambre
cambridge
cameron
camille
camillo
camp
campagne
campbell
campinas
campo
campos
camus
can
canada
canadien
canal
canary
canche
cane
canne
cantal
canton
cantons
cap
cape
capelle
carcassonne
cardinal
carl
carlo
carlos
carlton
caro
carol
carolina
caroline
caron
carpentier
carr
carre
carrie
carroll
carson
carter
cartier
carvalho
cas
casimir
caspar
cassel
castelbriantais
castelnau
castelsarrasin
castille
castillon
castres
castro
catalonia
catarina
catarinense
cate
category
catherine
catholic
catholique
cauca
caudre
caumont
causse
causses
caux
cavendish
cc
cd
cdp
ce
ceara
cecil
ceim
celle
celles
cembre
center
central
centre
centro
century
ceres
cerf
cerro
ces
cesare
cf
cgi
ch
cha
chabot
chaharmahal
chal
chalon
chamber
chamberlain
chambers
chambon
champ
champagne
champion
champs
chan
chandler
change
chantal
chanteur
chapelle
chapman
charente
charge
charlemagne
charles
charleville
charlie
charlotte
charly
charolles
charpentier
charrette
chartres
chase
chaumont
che
chef
cheikh
chemin
chen
cher
cherbourg
chester
chet
chevalier
chez
chhattisgarh
chi
chiba
chicago
chinese
chinon
cho
chongqing
chre
chris
christ
christian
christiane
christianisme
christianity
christie
christina
christine
christoph
christophe
christopher
christus
chu
chuck
church
churches
churchill
ci
cia
cie
cile
cio
cisse
city
civilization
ck
clair
claire
clara
clarence
clark
clarke
claude
claudine
claudio
claudius
claus
clav
clayton
cle
clemens
clement
clemente
clermont
cleveland
cliff
clifford
clifton
clignon
clinaison
clinton
clio
clive
cloud
clouds
club
clyde
cm
cn
co
cobourg
coco
code
codex
cohen
cole
coleman
colette
coligny
colin
coll
colle
collection
college
collenette
collin
collines
collins
colomb
colombe
colombey
colombo
colonial
colonna
color
colorado
columbia
columbus
com
comite
commentary
commerce
commerciaux
commission
common
commonwealth
communaute
commune
communes
community
comne
comores
company
compaore
compie
compositeur
computer
comte
con
conceic
concert
conde
condom
confe
conference
congo
congolais
congre
connecticut
connor
conrad
conseil
constance
constant
constantin
constantinople
construction
conte
content
conti
contre
conway
cook
cooper
coran
corbie
cordoba
corneille
cornelis
cornelius
cornell
coronavirus
corporation
corps
corre
corse
corte
cosse
costa
coste
coteaux
coton
coucy
coudray
council
country
county
cour
courcelles
court
courtenay
coutances
couture
covid
cox
craig
crawford
cre
crea
creek
creuse
cristian
cristiano
criture
crivain
croix
cros
cross
cruz
cs
ct
ctor
culture
cunningham
curie
curite
curitiba
curt
curtis
cuvillier
cvo
cy
cyperus
cyprien
cyr
cyril
cyrille
cœur
d
da
dada
daewoo
dag
dagesh
daharampehintany
daharana
daharanjarahasin
dahatra
dahatsoratra
dahl
daholo
daholobe
dahy
daiaka
dakar
dakota
dala
dalam
dalamby
dalan
dalana
dale
dalisma
dallas
daly
dama
damasko
damaskosy
damasy
damba
dame
dames
damien
dampierre
dan
dana
danemark
danemarka
danie
daniel
daniela
danielle
daniely
daniny
danitra
danitry
danja
danmarka
danny
danoa
dans
dante
danube
dany
daoud
dapa
dar
dard
dario
darmstadt
darren
darwin
dary
das
dasa
dasht
data
database
date
datin
daty
dauphin
dave
david
davida
davidson
davies
davis
davitra
dax
day
daza
dc
de
dean
death
debian
debo
deboka
deborah
december
decin
degre
dehibe
dehibem
dehiben
dehilahy
dei
deka
del
delhi
dell
della
delta
demo
demokratikan
demonia
demons
demony
den
dene
denis
denise
dennis
denver
denys
deo
deotero
deoterokanonika
deoteronomia
dep
departamentan
departemanta
departemantan
departement
departementan
department
der
derek
derina
des
desambra
deschamps
desimaly
desmond
detroit
deus
deux
devant
development
devoly
dhu
di
dia
diabe
diagram
diaka
diakan
diakonoff
diakra
diamond
diamondra
dian
diana
diane
diany
dias
diaspora
diavina
dicis
dick
dickens
dictionary
dictionnaire
didier
didim
didin
didinao
didy
die
diego
diem
dieppe
dieter
dietrich
dieu
dieux
digital
dihy
dijon
dika
dikaina
dikan
dikany
dikea
dimampolo
dimin
dimitri
dimy
din
dina
dinastia
dinastian
dingam
dingana
dino
dio
diois
diola
diplaoma
diplo
dipoavatra
dir
dirk
dis
disadisa
disease
disma
disney
diso
dison
dispensasio
dista
district
distrika
distrikan
dit
dite
diterrane
dition
ditions
divay
divine
dixon
dizier
dmitri
dmitry
dniepr
do
doalisma
dobo
doc
doce
doha
doi
dokam
doko
dokotera
dokotra
dolara
dom
domain
dombes
domenico
domfront
domingo
dominique
dompierre
don
donald
donbass
dong
donne
donnees
dorana
dordogne
dore
doria
dorothy
dos
dosy
douai
douaisis
douard
douce
douces
doug
douglas
doza
dq
dr
dra
drabefaravolamanjaka
drabiby
dradama
drafitra
dragona
draguignan
draha
draharaha
draharaham
drain
drainy
drakitra
dralambo
dramboasalama
dranavalona
drano
dranomasin
dranomasina
dranon
dranony
drariny
drasendrasoa
drasoherina
dratsy
dravalomanana
dravidiana
dravina
dray
drazana
drazany
dreams
drehetra
drenin
dreniny
drenirano
drenivohitra
dreny
dreux
drivotra
dro
droa
droit
droits
drouais
droza
dry
ds
du
dubois
duc
duchesne
duchess
dudley
dufour
duke
dumas
dumont
duncan
dunkerque
dunkirk
dunn
dunois
dupont
dupre
dupuis
dupuy
durand
durga
dus
duval
dvd
dwight
dy
dz
e
earl
early
earth
east
eastern
eaux
ebay
eberhard
ebio
eccentricity
echinochloa
economic
ed
eddie
eddy
eden
edena
edgar
edisiona
edith
edition
editions
edme
edmond
edmund
edo
edoma
edouard
eds
edu
eduard
eduardo
education
edward
edwards
edwin
eem
eerdmans
efa
efapolo
efatra
efes
efesiana
efeso
efesosy
efezy
effendi
efi
efijery
efitr
efitra
efitrano
efraima
egea
egipta
egiptiana
eglizy
egon
egypta
ehime
ehoda
ehrlich
eighteenth
eilema
einstein
eisenach
eisleben
ejeda
ejipsiana
ejipta
ejiptiana
ek
eken
ekena
ekeny
ekiomenika
ekiomenisma
ekipa
ekiti
eklesia
ekleziastika
eklezio
eko
ekoado
ekoato
eks
eksaody
ekso
eksodosy
el
ela
elanelan
elanelana
elanelany
elany
elatra
elca
eleanor
elefanta
elefantina
elektro
elektronika
eli
elia
elias
elie
elisa
elisabeth
elizabeta
elizabeth
elkasaita
elle
ellen
elliot
elliott
ellis
elo
elohim
ely
emanuel
emerson
emil
emile
emilio
emily
emirata
emma
emmanuel
emperora
emperoran
empira
empiran
empire
en
encarta
encyclopaedia
encyclope
encyclopedia
encyclopædia
end
endolzansy
endri
endrik
endrika
endriky
endriny
eng
england
english
enim
enimpolo
enin
enina
enque
enrico
enrique
entam
entana
entertainment
enti
entim
entimilaza
entin
entina
entiny
entre
environs
eny
enzo
eo
eofrata
eokaristia
eorazia
eoraziana
eoro
eoropa
eoropeana
eoropeanina
eosebio
ep
ephraim
epifanesy
epifania
epikorosy
episko
episkopaly
epistilin
epistily
epistola
er
eran
erana
erechim
erfurt
eric
erich
erik
erika
eritrea
eritreana
eritreritra
ernest
ernesto
ernst
eroa
erstein
erwin
ery
es
esao
esdrasa
eseniana
eskato
eskimo
esoatiny
esorina
espace
espaina
espanio
espaniola
espe
esperanto
espi
esprit
essen
essonne
est
estado
este
esteban
estera
esther
esto
estonia
estre
estrela
estuaire
et
etazonia
ethnic
etio
etiopia
etiopiana
eto
etona
etsy
ettore
ety
eu
euge
eugen
eugene
eugenio
eure
euro
europa
europe
eustache
ev
eva
evan
evange
evangelical
evanjelika
evanjelin
evanjelisma
evanjelista
evanjely
evans
eveka
evekan
evic
evitch
ex
excentricite
exe
exorcism
express
extremadura
ez
ezaka
ezek
ezekiasa
ezekiela
ezra
f
fa
fabian
fabio
fabre
fabrice
fabricius
fabrizio
facebook
factbook
faculte
faditra
fady
fafana
fah
faha
fahababoan
fahababoana
fahadimin
fahadimy
fahadiovan
fahadiovana
fahadisoam
fahadisoan
fahadisoana
fahaefatra
fahafaha
fahafaham
fahafahan
fahafahana
fahafahany
fahafantarana
fahafatesan
fahafatesana
fahafatesany
fahafinaretana
fahafito
fahafolo
fahagagana
fahagola
fahaiza
fahaizan
fahaizana
fahaizany
fahakeliny
fahalalahan
fahalalahana
fahalalana
fahalanian
fahalavoan
fahaleovan
fahaleovantena
fahaleovantenan
fahaleovantenany
fahamarinan
fahamarinana
fahamasinana
fahambonian
fahampian
fahantrana
faharavan
faharesen
faharetan
faharetana
faharoa
faharoan
fahasahiranana
fahasalamana
fahasambarana
fahasamihafan
fahasamihafana
fahasimban
fahasimbana
fahasivy
fahasoavan
fahasoavana
fahatanorany
fahatanterahan
fahataperan
fahatelo
fahatelon
fahateraham
fahaterahan
fahaterahana
fahaterahany
fahatezeran
fahatongavan
fahatongavana
fahatsapana
fahatsiarovan
fahatsiarovana
fahavalo
fahavaloko
fahavalon
fahavalony
fahavaratra
fahavelony
fahaverezan
fahaverezana
fahavitan
fahavokarana
fahazavan
fahazavana
fahazazan
fahazazana
fahazazany
fahazoan
fahazoana
fahazoany
fahefan
fahefana
fahefany
fahefatr
fahefatra
fahefatry
fahendren
fahendrena
fahenin
fahenina
fahiny
fahirano
fahita
fahitalavitra
fahitan
fahitana
fahitany
fahizay
fahombiazan
fahombiazana
fahorian
fahoriana
fahotan
fahotana
fahotany
fai
faingana
faingo
faith
fajiry
faka
fakam
fakan
fakana
fakany
falls
faly
fam
famadihana
famahana
famaizana
famakafakana
famakiana
famantarana
famantaranandro
famaranana
famaritana
famatsiam
famatsiana
fambara
fambolem
fambolena
famelan
famelana
fameno
famenon
famerana
famerenana
fametrahan
fametrahana
faminanian
faminaniana
faminaniany
faminavinana
famindram
famindrana
famintinana
famoaham
famoahana
famokarana
famolavolana
famonjena
famonoana
famorana
famoretana
famoriam
famoronana
fampahafantarana
fampahalalam
fampahalalana
fampahatsiahivana
fampakaram
fampanantenana
fampandrosoana
fampanjakana
fampiakarana
fampianaram
fampianaran
fampianarana
fampianarany
fampiasa
fampiasam
fampiasan
fampiasana
fampidirana
fampielezam
fampielezan
fampielezana
fampifanampiana
fampifandraisana
fampifangaroana
fampiharana
fampihavanam
fampihavanana
fampihenana
fampihorohoroana
fampijaliana
fampiraisana
fampiroboroboana
fampisehoana
fampitahana
fampitana
fampitandremana
fampitomboana
fampitsaharana
fampivoarana
famporisihana
fan
fana
fanabeazana
fanadihadiana
fanadiovana
fanafahana
fanafarana
fanafihan
fanafihana
fanafoanana
fanafody
fanafohezana
fanagasiana
fanahiko
fanahin
fanahiny
fanahy
fanajana
fanaka
fanakambanana
fanakatonana
fanakianana
fanala
fanalahidin
fanalana
fanamafisana
fanamarihana
fanamarinana
fanamasinam
fanamasinana
fanambadian
fanambadiana
fanambadiany
fanambara
fanambaran
fanambarana
fanambinana
fanamboarana
fanamelohana
fanampian
fanampiana
fanampin
fanampiny
fananahana
fananan
fananana
fananany
fananarana
fanandevozana
fanandramana
fanandratana
fanandroan
fanandroana
fananganana
fanangonam
fanangonan
fanangonana
fananiham
fanantenana
fanao
fanaon
fanaony
fanaovam
fanaovan
fanaovana
fanapahan
fanapahana
fanapahany
fanaperana
fanaraha
fanarahana
fanararaotana
fanarenana
fanasan
fanasana
fanasaziana
fanasitranana
fanasokajiana
fanatanjahan
fanatanjahantena
fanatanterahana
fanatitra
fanatontoloana
fanatrehan
fanatsarana
fanavahana
fanavakavahana
fanavaozam
fanavaozana
fanavotana
fanazavana
fandaharam
fandaharan
fandaharana
fandalinana
fandaminana
fandavan
fandavana
fandefasana
fandehanan
fandevenana
fandikan
fandikana
fandinihana
fandiovana
fandoavam
fandoroana
fandrafetana
fandraharahana
fandraiketana
fandraisam
fandraisan
fandraisana
fandraisany
fandrao
fandrarana
fandravana
fandrefesana
fandrehitra
fandresen
fandresena
fandreseny
fandriam
fandriampahalemana
fandriana
fandrindrana
fandringanana
fandripahana
fandroahana
fandroan
fandroana
fandrobana
fandrosoan
fandrosoana
fanefena
fanehoam
fanehoan
fanehoana
fanekem
fanekempihavanana
faneken
fanekena
fanelanelanana
fanendrena
fanenjehan
fanenjehana
fanenomana
fanentanana
fanerena
fanesorana
fanga
fangatahan
fangatahana
fanilo
fanimbana
fanindroany
fanintelony
fanirahana
fanirian
faniriana
faniriany
fanisam
fanisan
fanisana
fanitaram
fanitaran
fanitarana
fanitsiana
fanitso
fanjaka
fanjakan
fanjakana
fanjakany
fanjakazakan
fanjanahan
fanjanahantany
fanjonoana
fankahalana
fankalazana
fankasitrahana
fankatoavana
fanny
fano
fanodinana
fanofanana
fanohanan
fanohanana
fanoharana
fanoheran
fanoherana
fanokafana
fanokanana
fanoloana
fanoloran
fanolorana
fanomanana
fanomboana
fanombohan
fanombohana
fanombohany
fanomezam
fanomezan
fanomezana
fanomezany
fanompoam
fanompoan
fanompoana
fanondrana
fanondranana
fanonganam
fanonganana
fanonona
fanononana
fanontana
fanontaniana
fanoratana
fanoratra
fanorenan
fanorenana
fanorona
fanosorana
fanova
fanovana
fanta
fantany
fantarina
fantatr
fantatra
fantatrao
fantatro
fantatry
fantsakana
fantsona
fao
faobe
faosa
fara
faradofay
farafangana
faramparan
faran
farango
farany
farao
fararano
faratampony
fari
faribolan
faribolana
farihimena
farihin
farihy
fariseo
faritan
faritana
faritanin
faritany
faritr
faritra
faritry
farittra
farizianina
farne
fars
farsy
fary
fasan
fasana
fasany
fasea
fasika
faso
fath
fatin
fatorana
fatrana
fatratra
faty
faure
fausto
favre
fay
faye
fe
febroary
february
federaly
federasio
federation
federico
fedra
fehezan
fehezankevitra
fehezanteny
fehezin
fehibe
fehiben
fehin
felice
felipe
felix
fenisia
fenisiana
fenitra
feno
fenoarivo
feo
feon
feony
fepetra
fer
ferdinand
ferdinando
ferenc
ferguson
ferna
fernand
fernandes
fernandez
fernando
ferrand
ferrari
ferre
ferreira
ferrie
ferry
ferte
feteza
fetezan
fetim
fetin
fetra
fety
ffkm
ffpm
fi
fia
fiadanan
fiadanana
fiadiana
fiafaran
fiafarana
fiagonana
fiahian
fiahiana
fiainam
fiainan
fiainana
fiainany
fiakaran
fiakarana
fiala
fialan
fialana
fialofana
fialokalofana
fiambenana
fiampangana
fianahana
fianakavia
fianakaviam
fianakaviambe
fianakaviamben
fianakavian
fianakaviana
fianakaviany
fianarana
fianarantsoa
fianarany
fiandohan
fiandohana
fiandrasana
fiandrianam
fiandrianan
fiandrianana
fiandrianany
fiangonan
fiangonana
fiangonany
fianianana
fianjeran
fiantombohan
fiantraikan
fiantraikany
fiantrana
fiantsoana
fiara
fiaraha
fiarahabana
fiarahamonin
fiarahamonina
fiarahan
fiarahana
fiarakodia
fiaramanidina
fiaran
fiarovan
fiarovana
fiasa
fiasan
fiasana
fiavian
fiaviana
fiaviany
fiavin
fibebahana
fide
fiderana
fides
fidina
fidinan
fidinana
fidiovana
fidiram
fidiran
fidirana
fidirany
fiekem
fieken
field
fields
fielezan
fiendrika
fieritreretana
fifadian
fifaliana
fifamatorana
fifamoivoizana
fifampiraharahana
fifampiresahana
fifanahafana
fifanakalozana
fifanandrinana
fifanaraham
fifanarahan
fifanarahana
fifandimbiasan
fifandimbiasana
fifandirana
fifandonana
fifandraisan
fifandraisana
fifandraisany
fifanekena
fifangaroan
fifangaroana
fifaninanana
fifanoheran
fifanoherana
fifanolanana
fifehezan
fifehezana
fifidianana
fifindra
fifindran
fifohazam
fifohazana
fiforonan
figeac
fihaonambe
fihaonan
fihaonana
fiharian
fihavanana
fihazana
fihenan
fiherenana
fihetseham
fihetsika
fihetsiketseham
fihetsiketsehan
fihetsiketsehana
fihetsiky
fiheveran
fiheverana
fiheverany
fihinana
fihinanana
fihirana
fihisahana
fihoa
fihodinana
fihodirana
fiitaran
fijalian
fijaliana
fijaliany
fijerena
fijerin
fijery
fijinjana
fijoroan
fijoroana
fika
fikajiana
fikambanam
fikambanan
fikambanana
fikarakarana
fikarohana
fikasan
fikasana
fikasany
fikendrena
fikomian
fikomiana
fikorontanana
fila
filadelfia
filaharan
filaharana
filalaovana
filamatra
filamatry
filaminana
filan
filana
filankevi
filankevitra
filankevitry
filaza
filazam
filazan
filazana
filazantsara
filazantsaran
filazany
file
filemona
filentehan
filioque
filip
filipiana
filipina
filipo
filippo
filistina
filma
filo
filoha
filoham
filohan
filohany
filozofa
filozofia
fils
fin
finday
fingotra
finiste
finlandy
fino
finoa
finoan
finoana
finoany
fintinina
fiodor
fiofanana
fiomanana
fiombonam
fiombonan
fiombonana
fiompiana
fiompy
fiorenan
fiovam
fiovan
fiovana
fiovaovan
fiparitahan
fipoiran
fira
firafitra
firafitry
firaisam
firaisan
firaisana
firaisankina
firaka
firaketana
firapotsy
firavaka
firavoravoana
firazanana
firazanany
firehan
firehana
firenana
firenen
firenena
fireneny
firesahana
firmin
fironana
fironany
firongatry
first
firy
fisafidianana
fisainan
fisainana
fisaka
fisalasalana
fisamborana
fisaonana
fisaorana
fisaraham
fisarahan
fisarahana
fischer
fiseho
fisehoan
fisehoana
fisehon
fish
fisher
fisialin
fisialy
fisian
fisiana
fisiany
fisokafan
fisokafana
fisotroana
fisy
fitadiavana
fitadidiana
fitafiana
fitahiana
fitaizana
fitakiana
fitambaran
fitambarana
fitandremana
fitanisana
fitantanam
fitantanan
fitantanana
fitantaran
fitantarana
fitaovam
fitaovana
fitaratra
fitarihan
fitarihana
fitaterana
fitehirizana
fitenenan
fitenenana
fitenim
fitenin
fiteniny
fiteny
fiteraham
fiterahana
fitetezana
fitia
fitiavam
fitiavan
fitiavana
fitiavany
fito
fitodika
fitoeran
fitoerana
fitohizan
fitokana
fitomaniana
fitomboan
fitomboana
fitombon
fiton
fitondra
fitondram
fitondran
fitondrana
fitondrany
fitontonganan
fitopolo
fitorian
fitoriana
fitoviam
fitovian
fitoviana
fitovinany
fitrandrahana
fitsabahan
fitsaboana
fitsaharana
fitsanganan
fitsanganana
fitsanganany
fitsapan
fitsapana
fitsaran
fitsarana
fitsidihana
fitsikerana
fitsingerenan
fitsinjara
fitsinjaran
fitsinjarana
fitsipi
fitsipika
fitsipiky
fitsipiteny
fitsofan
fitzgerald
fivahiniana
fivakisan
fivalozana
fivarotana
fivavaham
fivavahan
fivavahana
fivavahany
fivelomana
fiverenan
fiverenana
fiverenany
fividianana
fivoahan
fivoahana
fivoaran
fivoarana
fivoasan
fivoasana
fivoasany
fivondronan
fivoriam
fivoriambe
fivorian
fivoriana
fizaha
fizahan
fizakan
fizara
fizaram
fizaran
fizarana
fizarazara
fizika
fizisma
fizorana
fizotran
fjkm
flandre
flavio
flavius
fle
fleming
fletcher
fleury
flip
flm
flood
flop
florence
florent
flores
florian
floriano
florida
flour
floyd
fm
fmg
fo
foana
foanana
fofonaina
fohy
foibe
foibem
foiben
foibeny
foinikia
foinikiana
foix
foko
fokom
fokon
fokontany
fola
folany
folo
folon
fomba
fombafomba
fombafombam
fombam
fomban
fombany
fon
fonenan
fonenana
fonenany
fonohasina
fonon
fonosana
fontaine
fontana
fontenay
fontsize
fony
footballeur
for
fora
forbes
force
forces
ford
fore
foreign
forest
forez
forges
formation
foronin
foronina
fort
fortune
fosse
foster
foto
fotoam
fotoan
fotoana
fotoanan
fotodrafitrasa
fotona
fotopampianarana
fototeny
fototr
fototra
fototry
fotsiny
fotsy
foulpointe
foundation
fouquet
fournier
fox
foxmoor
foy
foza
fpr
fpvm
fr
frac
franc
franca
france
frances
francesco
franche
francis
francisco
francisque
franck
franckfort
franco
francophonie
frank
franklin
frans
frantis
frantsa
frantsay
franz
fraser
fre
fred
frederic
frederick
frederico
frederik
fredrik
free
freebase
freeman
french
frera
friedrich
friends
fritz
from
front
ft
fu
fuchs
fujian
fukui
fukuoka
fukushima
fulgence
fundo
future
fy
g
ga
gabas
gabo
gabriel
gabriela
gabriele
gabrielle
gabriely
gada
gadona
gae
gaetano
gagnon
gaillard
gal
gala
galatiana
gale
galicia
galilea
galileo
galilia
gallery
galli
gallieni
gallimard
gambia
gana
ganagana
gandhi
ganesh
gansu
gao
gara
garci
garcia
gard
garde
gardner
garizima
garnier
garonne
garrett
gartempe
gary
gascogne
gaspar
gaspard
gaston
gasy
gaulle
gauteng
gauthier
gautier
gay
gaza
gazela
gazetiboky
gazety
gb
gbe
gdan
gdiano
ge
gehena
gemara
gen
gene
general
genesisy
genevie
genevois
gengis
gentil
geoffrey
geoffroy
geonames
georg
george
georges
georgia
ger
gerais
gerald
gerard
gerardo
gerd
gerhard
gerizima
germain
germaine
gers
gervais
gestion
gex
gezy
ghana
ghanzi
gheorghe
ghislain
gi
giacinto
giacomo
gian
giancarlo
gianni
gibeaux
gibson
gideo
gidro
gifu
gil
gilaky
gilan
gilbert
gilberto
giles
gilles
gimone
gina
ginea
gino
gion
giorgio
giovan
giovanni
girard
giraud
girl
girofle
girolamo
gironde
girons
gis
gisa
gise
gitara
giuliano
giulio
giuseppe
giza
gje
glace
glen
glenn
glise
glises
global
globe
gloria
gma
gmatika
gmt
gne
gno
go
goa
goatemala
goavana
god
godefroy
godfrey
godoro
goia
goiana
goiano
goire
gojaraty
gold
golestan
golf
gomes
gonc
goniotorna
gonza
gonzalo
google
gordon
gore
gorie
gospel
gottfried
gottlieb
gottlob
gou
gould
gourdon
gov
governador
governemanta
governemantan
government
governora
governoran
govoffice
gr
gra
grace
graf
grafia
grafian
graham
grama
grammar
grand
grande
grandense
grandidier
grange
grant
grasse
gratia
gray
gre
great
greatness
green
greene
greenwood
greg
gregg
grego
gregoriana
gregorio
gregory
grenadina
grenady
grenier
grenoble
gresy
grey
griffith
griffiths
grigori
grika
grikan
grimaldi
gripa
grisia
grisy
griveaud
gropius
gros
grosso
group
groups
grove
gru
gu
gua
guangdong
guangxi
gue
guene
gueorgui
guez
guglielmo
gui
guide
guido
guillaume
guillermo
guise
guizhou
gujarat
gunma
gunnar
gur
guru
gustaf
gustav
gustave
gustavo
gutie
guy
guyot
guzma
gwyn
gy
gyatso
gyo
gyula
h
ha
haabom
haambo
haas
haavo
haavon
haavony
habaka
habakabaka
habakoka
habe
haben
habeny
habetsahan
habib
habibiana
habsbourg
habyarimana
hadesy
hadisoana
hadita
hadivory
hadj
hady
hafa
hafaingam
hafainganam
hafaliana
hafan
hafanana
hafangaro
hafatr
hafatra
hafatry
hafohezina
hag
hagara
hagay
haguenau
haha
hahafaha
hahafahan
hahafahana
hahafahany
hahafantarana
hahafantatra
hahafatesany
hahafaty
hahalala
haharitra
hahatanteraka
hahaterahan
hahatonga
hahatongavan
hahatsiarovana
hahazo
hahazoan
hahazoana
hahazoany
hahita
hahitana
hai
haiady
haifa
haikoriam
hain
hainan
hainaut
haingana
haingon
hainkintana
haino
haintany
hainteny
haisoratra
haiteny
haity
haizina
haja
hajaina
haka
hakana
hakeliny
hakitroka
hakitroky
haky
hal
hala
halaka
halava
halavam
halavan
halavany
halaviran
halavirana
hale
halehiben
hall
hama
hamadan
hamaha
hamaizin
hamaky
hamana
hamantarana
hamaritana
hamel
hamela
hamely
hamerenana
hamerina
hametrahana
hametraka
hamid
hamilton
hamindra
hamito
hamoaka
hamonjena
hamonjy
hamono
hamonoana
hamorona
hampanjaka
hampianatra
hampiasa
hampiasaina
hampiditra
hampihatra
hampihena
hampionona
hampisy
hampitombo
hampitsaharana
hampitsahatra
hampshire
hampson
hampton
han
hana
hanafaka
hanafika
hanafoana
hanaiky
hanaja
hanala
hanam
hanamafisana
hanamafy
hanambady
hanambara
hanamboarana
hanamboatra
hanamora
hanampiana
hanampy
hanan
hanana
hananan
hanangana
hananganana
hanao
hanaovana
hanapaka
hanaraka
hanatanterahana
hanatanteraka
hanatsarana
hanau
hanavahana
handao
handefa
handeha
handimby
handositra
handova
handrava
handravana
handray
handresena
handresy
handroaka
haneho
hanehoana
hanesorana
hangul
hanimba
hanin
hanina
hanja
hanjaka
hanjakan
hanjo
hankalaza
hankalazana
hankany
hanoa
hanohana
hanoherana
hanohitra
hanohy
hanolotra
hanomboka
hanome
hanomezana
hanompo
hanondroana
hanondroany
hanoratana
hanoratra
hanorina
hanova
hans
hansen
hantsana
hany
haosa
har
hara
harald
harbor
harding
hardy
haren
harena
haricot
harin
hariva
harivan
harmattan
harold
harper
harriet
harris
harrison
harry
hart
hartford
hartley
hartmann
harun
harvey
haryana
has
hasan
hasideana
hasidisma
hasin
hasina
hasiny
hasmo
hasmoneana
hassan
hastings
hatao
hataon
hataony
hatramin
hatrany
hatreo
hatrizay
hatry
hatsaram
hatsaran
hatsarana
hatsiaka
hatsiha
haut
haute
hautes
hauts
havan
havana
havanana
havandra
havany
have
haven
havia
havoana
havre
hawaii
hay
haye
hayes
hazandrano
hazavana
hazo
hazofijaliana
hazomanga
hazon
he
health
heart
heaven
heb
hebei
hebreo
hebreon
hebrew
hebrio
hector
hefaka
heights
heilongjiang
heinrich
heinz
hektara
helen
helena
helenika
helenistika
helety
helio
hell
helmut
helo
helodrano
helodranon
heloka
helpe
helsinki
hen
hena
henan
henderson
hendrick
hendrik
hendry
heniheny
henjana
henning
heno
henoka
henoy
henri
henriette
henrik
henry
hentitra
heny
her
herbert
herbulot
heretika
herim
herin
herinandro
herinandron
herinaratra
hering
herintaona
heriny
herisetra
herman
hermann
herna
hero
heroda
herrera
hers
herve
hery
herzego
herzegovina
hesse
hetra
hetsi
hetsika
hetsiky
hetsy
heverin
heverina
heveriny
hevi
heviny
heviteny
hevitr
hevitra
hevitry
hezekia
hi
hiadiana
hiady
hiafaran
hiahia
hiaina
hiakatra
hiala
hialana
hialoha
hianao
hianareo
hianatra
hiandry
hiankohoka
hiantohana
hiara
hiaraka
hiaro
hiarovana
hiasa
hiavian
hidera
hidina
hidirana
hiditra
hidodikodonany
hidro
hiero
hieronimo
hifanandrify
hifanaraka
hifehy
hifidy
hifindra
high
hihaino
hihinana
hijanona
hijery
hikambana
hikso
hilaire
hilary
hilaza
hilazana
hill
hills
hina
hindi
hindo
hindoa
hindoisma
hindy
hino
hinoana
hiova
hipetraka
hipo
hippolyte
hira
hiragana
hiram
hiran
hiresaka
hirkano
hiroshi
hiroshima
hirsch
his
hisahana
hisakanana
hiseho
hisehoan
hisian
hisolo
hisorohana
hista
histoire
historical
historien
historiques
history
hisy
hita
hitady
hitako
hitan
hitana
hitanao
hitandrina
hitantana
hitany
hitarika
hiteny
hiteraka
hitita
hitoetra
hitondra
hitondrana
hitory
hitovy
hitranga
hitsangan
hitsangana
hitsanganan
hitsara
hivadika
hivavahana
hivavaka
hiverenan
hiverenany
hiverina
hivoaka
hivoka
hizara
hmo
ho
hoala
hoalan
hoan
hoatry
hoavin
hoavy
hoazy
hockey
hodi
hodidinin
hodiny
hoditra
hody
hoe
hoffmann
hohanina
hohenzollern
hokkaido
holger
holland
holmes
holstein
holt
holy
homalium
home
homeko
homena
homer
homme
homo
honahona
honenan
hong
hongaria
hongrie
honina
hono
honore
hope
hopitaly
hopkins
horace
horatio
horeba
horita
horizonte
hormozgan
horohorontany
horonam
horonan
horonantsary
horst
hosea
hoso
hosodoko
hosoka
hoto
house
houston
hova
hovalahy
how
howard
howe
hoy
htm
html
http
https
hu
huang
hubei
hubert
hudson
hugh
hughes
hugo
hugues
hui
huisne
humaines
humbert
humphrey
hunan
hunt
hunter
huntington
hupostasis
hus
hussein
hutu
hyacinthe
hylemera
hyo
i
ia
iadian
iahve
iahveh
iahvista
iainana
iakima
iakina
ialahy
ialohavan
ian
ianao
ianarana
ianareo
ianjadian
iantsoana
iarsanisma
iaveh
iazdanisma
iba
ibaraki
iberika
iblisy
ibm
ibn
ibrahim
ibzana
ic
id
ida
idaho
idi
idirana
iditra
iemena
ier
if
ifanadiana
ifanaovan
ifandraisana
ifandraisany
ifaneraseran
ifanongoavana
igbo
ign
ignace
ignacio
ignatio
ignaz
ignazio
igor
ihany
iharan
iharana
ihorombe
ihosy
ihvh
ii
iii
ijanon
ikaloy
iko
ikongo
il
ila
ilafy
ilaidama
ilain
ilaina
ilam
ilan
ilanivato
ilany
ilay
ilazana
ilazany
iles
ilhe
illinois
ilmenita
ilo
ils
ilya
im
image
imamo
imamono
imanoela
imasoandro
imbetsaka
imerina
imiantsoarivo
impito
impoinimery
imprimerie
in
ina
inc
inde
index
india
indian
indiana
indianapolis
indianina
indo
indolzansy
indonesia
indonezia
indostria
indostrialy
indostrian
indra
indraindray
indran
indray
indre
indreto
indrindra
indrindraindrindra
indrisy
indro
indroa
ine
influenza
info
informatika
information
inge
injeniera
inner
inoan
inoana
inoany
inona
insee
institut
institute
inte
intelo
international
internationale
internet
into
introduction
intsony
inty
iny
io
iombonan
iombonana
ion
ionut
iorenan
iouri
iowa
ipetrahan
ipod
ippolito
ir
ira
iraika
iraisam
iraisan
iraisana
iraisany
irak
iraka
iraky
iran
iraniana
irany
iray
ire
ireneo
ireny
ireo
irery
iresahana
ireto
irina
irlanda
irlandey
irlandy
iron
irving
irwin
is
isa
isaac
isaaka
isabel
isabella
isabelle
isaia
isaina
isaka
isakara
isaky
isam
isambo
isan
isandra
isankarazany
isany
isbn
isbo
ise
isehoan
isfahan
ishikawa
isidore
isika
isiraely
iskario
islam
islamic
islamika
islamista
island
islands
islandy
isle
isma
ismaela
ismail
iso
ispahan
israe
israel
israeliana
israelita
israely
issoire
issoudun
istanbul
istva
it
ita
itabuna
italia
italiana
italika
itambaran
itapetininga
itasy
itenenana
ito
itoeran
itoviany
its
itsaohana
ity
iv
iva
ivan
ivanovitch
ivar
ivato
ivavahana
ivelan
ivelany
ivo
ivohibe
ivoire
ivon
ivondro
ivongo
ivontoeran
ivontoerana
iwate
ix
iza
izahay
izaho
izaia
izaitsizy
izany
izao
izay
izy
j
ja
jack
jackie
jackson
jacky
jacob
jacobs
jacobus
jacopo
jacqueline
jacques
jadona
jagiellonia
jaime
jainisma
jaira
jakarta
jake
jako
jakob
jakoba
jaky
jamai
jamba
james
jammu
jamo
jan
jana
janahary
janaka
janany
jane
janeiro
janet
janoary
january
janvier
jao
jaona
japa
japana
japo
japoney
jarahasiny
jaroslav
jason
jato
jaton
jatony
java
javaboahary
javaboarin
javaboary
javakanto
javamaniry
javaney
javatra
javier
jay
jaza
je
jean
jeanne
jebosita
jeff
jefferson
jeffrey
jefta
jehan
jeho
jehovah
jeko
jeneralin
jeneraly
jenezy
jenkins
jennifer
jenny
jens
jensen
jentilisa
jentily
jeo
jeografia
jeorjia
jequitinhonha
jer
jeremia
jeremy
jerena
jereo
jeriko
jermanika
jero
jeroboama
jerome
jerosalema
jerry
jersey
jerusalem
jery
jerzy
jese
jeso
jesoa
jesosy
jesse
jesu
jesus
jeune
jewish
jews
jezebela
jharkhand
ji
jia
jian
jiana
jiangsu
jiangxi
jiboty
jibrily
jihadista
jika
jikan
jilin
jill
jim
jime
jimmy
jin
jiny
jiolahin
jiolahy
jiona
jiosin
jiosy
jir
jirama
jiro
jirofo
jk
jo
joa
joachim
joan
joany
joaqui
joaquim
job
joba
jobily
jocelyne
joda
jodaisma
jodasy
jodea
jodeo
jodia
jodita
jody
joe
joel
joela
johan
johann
johannes
johannesburg
johansson
john
johnny
johnson
johnston
johr
jolay
joliana
jolie
jolio
joly
jon
jona
jonas
jonata
jonathan
jones
jong
jono
jonzac
jordan
jordana
jordania
jorge
joro
jos
jose
josef
josefa
josep
joseph
josephine
josette
joshua
josia
josoa
joubert
jour
journal
journaliste
jours
joy
joyce
jpg
jpl
jr
jstor
ju
juan
judai
judaism
judith
juillet
juiz
jules
julia
julian
julie
julien
juliette
julio
julius
july
jumada
jun
junction
june
jung
junior
jupiter
just
justice
justin
justus
juve
k
ka
kaaba
kabakabaka
kabala
kabary
kabila
kabul
kaday
kady
kafa
kafaliana
kafe
kagame
kagoshima
kahn
kai
kaina
kainkintana
kairo
kaisara
kaisarea
kaja
kajara
kajimirindra
kajy
kakao
kala
kalandrie
kaldeana
kalifa
kalifata
kalifornia
kalimantan
kalipsa
kalipsan
kalipsin
kalipsy
kaliptika
kalkedo
kalvinisma
kambana
kambavy
kambisesy
kambo
kamboty
kamerona
kamiao
kan
kana
kanaana
kanaanita
kanada
kanadianina
kanagawa
kanana
kananeana
kandahy
kandida
kanefa
kanina
kanji
kanjo
kankafotra
kano
kanonan
kanonika
kansas
kanto
kantoney
kaodim
kaodin
kaody
kaokaziana
kaokazy
kaominin
kaominina
kaontia
kaontian
kaonty
kaopenagy
kapila
kapiteny
kaplan
kapurthala
kapvera
kara
karai
karaiba
karaita
karama
karankaina
karatra
karazam
karazan
karazana
karazany
karbo
kardinaly
karel
karemy
karen
karena
kariana
karim
karipetra
karismatika
karl
karnataka
karol
kartago
karthala
kary
kasa
kasai
kase
kashmir
kasina
kaskay
kaspiana
kastila
katanga
katara
kate
katedraly
katekisma
katekista
katesizin
kato
katolika
katowice
katsaka
kaviara
kay
kayes
kayibanda
kaza
kazaksta
kazimierz
kazo
ke
keita
keith
kelikely
kelimalaza
kelin
keller
kelly
keloka
keltika
kely
ken
kena
kendry
kenia
kennedy
kenneth
kenny
kenrick
kent
kentucky
kerala
kerinandro
keriny
kerman
kermanshah
kerobima
kery
ketisma
ketuvim
kevi
kevin
keviny
kevitr
kevitra
kevitry
kg
kgalagadi
kgatleng
khan
khanukka
khatami
khomeini
khorasan
khuzestan
khz
ki
kia
kianja
kianjan
kiba
kibay
kibo
kibon
kibosy
kiev
kigali
kiko
kilalao
kilasin
kilasy
kilometatra
kilonjy
kim
kimbangisma
kimeriana
kimpa
kina
king
kingdom
kiniaroanda
kinshasa
kintan
kintana
kioba
kiorda
kippur
kipra
kipro
kira
kirgizista
kiriakoff
kirk
kiro
kirosy
kis
kisangani
kisoa
kitawala
kitay
kitoba
kitra
kity
kivu
klasika
klaus
klein
klemento
kleo
klioba
km
knight
knorr
knox
knut
ko
koa
koba
koch
kodia
koditra
kofehy
kokoa
kolejy
kolikoly
kolombia
kolontsain
kolontsaina
kolorado
kolosiana
koltoraly
komitin
komity
komra
konfirmasiona
kong
kongo
konrad
konsily
konstantin
kontinenta
kor
korda
kordista
korea
koreanina
korintiana
koronantsary
korontana
kos
kosa
kositika
kota
koulikoro
kova
krasia
kratika
kratikan
kreo
kreta
krifa
krifan
krimea
krishna
krismasy
kristadelfiana
kristaly
kristiana
kristianina
kristianisma
kristo
kristy
krizy
kro
kroazada
krzysztof
ksa
ksan
kserksesy
ksia
ksida
ksizenina
kto
ku
kuchma
kumamoto
kurdistan
kurt
kwazulu
kweneng
ky
kyiv
kyoto
l
la
labastide
labiera
labor
laborde
labozia
lac
lacombe
lacoste
lacroix
ladislas
lafatra
lafayette
lafin
lafiny
lafo
lafy
lagarde
lagida
lagrange
laharam
laharampehintany
laharan
laharana
laharanjarahasina
lahateny
lahatra
lahatsary
lahatsoratra
lahatsoratry
lahimatoa
lahimatoan
lahin
lahitokana
lahy
lai
lainga
lajeado
lajos
laka
lakana
lakandrano
lakandranon
lake
lakes
lakroa
lala
lalam
lalamby
lalampanorenana
lalan
lalana
lalao
lalina
lam
lama
lamba
lambalandy
lambamena
lamban
lambert
lambo
lamesa
lamim
lamina
lamothe
lamy
lan
lana
lancaster
land
lande
landes
landey
landihazo
landry
landy
lane
lang
lange
langlois
langon
langres
language
languages
langue
languedoc
lanin
lanitra
lanja
lanjan
lanjany
lanonana
lanthenay
lantom
lany
lao
laodike
laon
laoniny
lapa
lapan
lapany
laporte
lara
lard
largentie
larry
lars
las
lasa
lasan
lasibatry
latabatra
latin
latina
latour
latsa
latsabato
latsaka
latsaky
latvia
launay
laura
lauragais
laure
laurence
laurent
lava
lavaka
laval
lavalava
lavenona
lavitra
lavitrisa
lavitry
lavo
lavoraryizay
law
lawrence
lay
laza
lazaiko
lazain
lazaina
lazainy
lazan
lazany
lazao
lazare
lazarosy
ld
ldavia
le
lea
leandro
lebel
leblanc
lebrun
leclerc
lecomte
lee
lefa
lefe
lefebvre
lefitra
lefitry
lefona
left
legales
legioma
legrand
lehibe
lehiben
lehilahy
lehmann
leigh
leipzig
lela
lelafo
lemaio
lemaire
lemak
lemaka
lemba
lembalemba
lembalemban
lembeye
lemoine
lempona
lemy
lena
lenoir
lens
lenta
leo
leon
leonard
leonardo
leone
leonid
leopold
leopoldo
leroux
leroy
les
leslie
less
lestat
leste
lestin
leto
lettres
leur
lev
level
levi
levita
levitika
levitikosy
levona
levy
lewis
ley
lez
lezo
li
lia
liana
liaoning
liba
libanona
libe
liberaly
liberia
liberio
libia
libiana
libourne
library
libre
libreville
lidia
lie
liechtenstein
lien
lieu
life
ligne
lika
liktenstaina
liliane
lille
lima
limoges
limoux
limpopo
lin
linarisma
lincoln
linda
lindsay
line
linezia
lineziana
lingala
linguistics
linux
lio
lioka
lion
liona
lionel
lique
lis
lisa
lisabeth
lisbon
lise
lisio
lisisma
lisitr
lisitra
lisitry
lisp
lisy
litchis
liteisma
liteista
litera
literatiora
literatioran
literature
litika
litikan
litoania
litoral
litorjia
litorjian
litorjika
little
liu
liva
live
livia
living
livre
lix
ljubljana
lla
lle
ller
lloyd
lms
lo
loatra
loches
lode
logan
logos
loha
lohahevitra
lohahevitry
lohalaharana
loham
lohan
lohandohany
lohany
loharano
loharanom
loharanon
lohasaha
lohasahan
lohataona
lohateny
lohavohitra
loholona
loi
loir
loire
loiret
loka
lokanga
loko
lokon
lokony
loksemborga
lolo
lomagne
lombard
lonaka
londa
london
londres
long
lons
lopes
lopez
lord
lorenz
lorenzo
lorestan
lorraine
los
losia
losifera
lost
lot
lotera
loterana
loteranisma
lothar
lou
loudunais
louis
louise
louisiana
loup
lourenc
lova
lovam
lovan
lovantsofin
lovantsofina
love
lovia
lovitch
low
loza
loze
lu
luba
luc
luca
lucas
luce
luciano
lucie
lucien
lucius
lucy
ludovic
ludovico
ludwig
lui
luigi
luis
luiz
lumumba
luna
lune
lunebourg
luther
lutheran
luxembourg
lvarez
lvaro
ly
lynch
lynn
lyon
lyons
lys
m
ma
maaniany
mabille
mac
macdonald
machine
mackenzie
macmillan
macro
mad
mada
madagascar
madagasikara
madame
madeleine
madhya
madinidinika
madinika
madio
madison
madon
madrid
maevatanana
mafana
mafy
magazine
magdalena
magedona
magne
magnus
magny
magreba
magy
maha
mahabo
mahafaly
mahafantatra
mahafaoka
mahafaty
mahafehy
mahafeno
mahafinaritra
mahagaga
mahaiana
mahajamba
mahajanga
mahakasika
mahalala
mahalana
mahalapye
mahaleo
mahaleotena
mahanoro
mahantra
maharashtra
maharitra
mahasamihafa
mahasoa
mahatahotra
mahatoky
mahatonga
mahatratra
mahatsapa
mahatsiaro
mahatsinjo
mahatsiravina
mahavelona
mahavita
mahavokatra
mahay
mahazaka
mahazatra
mahazo
mahefa
maherin
mahery
mahita
mahitsizoro
mahitsy
mahmoud
mahomby
mai
maika
mail
mailaka
maimaim
maimaimpoana
main
maina
maine
maingoka
mainka
maintirano
maintsy
mainty
maio
maire
mairie
mais
maison
maitso
maivana
maizina
majika
major
maka
makabeo
makany
makedo
makoa
mal
malacca
malagasy
malahelo
malaialama
malaio
malakia
malaky
malala
malalaka
malaoy
malata
malawi
malay
malaza
malcolm
maldiva
malefaka
malemy
maley
malezia
malgache
malgaches
mali
malia
maliana
malik
malilandy
mallet
maloto
malta
maltey
maluku
maly
mamadika
mamakivaky
mamaky
mamaly
mamangy
mamantatra
mamarana
mamaritra
mamatsy
mamboly
mamela
mameno
mamerina
mamers
mametra
mametraka
mamindra
mamiomby
mamirapiratra
mamoaka
mamokatra
mamondrona
mamonjy
mamono
mamorona
mampahatsiahy
mampalaza
mampanantena
mampanao
mampiahiahy
mampianatra
mampiasa
mampiavaka
mampidi
mampiditra
mampifandray
mampifangaro
mampihatra
mampihena
mampikony
mampinono
mampiray
mampisaraka
mampiseho
mampisy
mampita
mampitohy
mampitombo
mampitovy
mamporisika
mamy
man
mana
manafangaro
manaiky
manaisotra
manaja
manakaiky
manakana
manakara
manala
manam
manamafy
manamarika
manamarina
manambady
manambara
manambatra
manamboatra
manamboninahitra
manameloka
manamorona
manampahaizana
manampahefana
manampy
manan
manana
mananara
manandratra
manandriana
manandrify
manangana
manangona
mananjara
mananjary
manano
manantena
manantitra
manao
manapaka
manaporofo
manara
manaraka
manarakaraka
manarona
manasaraka
manase
manasokajy
manatanteraka
manatona
manatrika
manavaka
manazava
mancha
manche
manchester
mancini
manda
mandady
mandala
mandalina
mandalo
mandan
mandany
mandao
mandarina
mandavan
mande
mandeana
mandefa
mandeha
mandehana
mandeisma
mandela
mandiavato
mandidy
mandika
mandimby
mandinga
mandinika
mando
mandoa
mandoro
mandositra
mandra
mandrafitra
mandraka
mandrakariva
mandrakizain
mandrakizay
mandrakotra
mandrara
mandrare
mandray
mandresy
mandriaka
mandritra
mandritry
mandritsara
mandroaka
mandroso
mandry
maneho
manendry
maneno
maneran
manerana
manetika
manetriketrika
manfred
manga
mangabe
mangahazo
mangalaza
manganezy
mangarahara
mangataka
mangatsiaka
mangatsiatsiaka
mangina
mangingina
mangoro
mangotraka
mania
manidina
manify
manikeisma
manila
manimba
manin
manina
manindry
manirery
maniry
manisy
manitra
manitsaka
manja
manjaka
manjakamiadana
manjakandriana
manjary
mankahala
mankalaza
mankamin
mankany
mankasitraka
mankato
mann
manoa
manodidin
manodidina
manodidon
manoe
manohana
manohitra
manohy
manokan
manokana
manolo
manoloana
manolotra
manolotrony
manomboka
manome
manomeha
manompo
manondraka
manondro
manonona
manontany
manontolo
manontolon
manopy
manoratra
manorina
manoritsoritra
manoro
manota
manova
mans
mantasoa
mantes
mantoue
mantsy
manuel
many
mao
maoderina
maorisy
maoritania
map
mar
maraina
marais
maranha
marani
maranitra
marary
maraty
marburg
marc
marcel
marcelle
marcellin
marcello
marcelo
march
marchand
marche
marcilly
marco
marcos
marcus
mare
marefo
marek
mareuil
margaret
marguerat
marguerite
mari
maria
marian
marianne
mariano
marie
marihina
marika
mariky
marimaritra
marin
marina
marindrano
marines
marino
mario
marion
maripana
maritime
maritimes
maritiora
maritrano
marius
mark
marka
markazi
markio
marko
markus
marne
maro
maroantsetra
marobe
maromaro
maron
maroserana
marovatana
marovoay
marques
marquis
mars
marsa
marsan
marseille
marshall
martel
martha
marthe
marti
martial
martin
martine
martinez
martins
martiry
martsa
marty
marvin
marx
mary
maryland
maryse
mas
masada
masaka
mascareignes
masedo
masedonia
masera
maserati
masia
masiaka
masikoro
masin
masina
masindahy
masiny
masira
masirasira
maso
masoala
masoandro
masoivoho
masoivohon
mason
masony
massachusetts
masse
massif
massimo
masson
master
masy
mat
mata
matahotra
matanjaka
matatia
matavy
matematika
matetika
matevina
mateza
matha
mathe
mathias
mathieu
mathilde
mathurin
maticien
matihanina
matin
matio
mato
matoantenin
matoanteny
matoatoa
matoky
matory
matroka
matsiatra
matsilo
matt
matteo
matthew
matthias
matthieu
maty
maubeuge
mauriac
maurice
mauritius
mauro
maury
mavesatra
mavitrika
mavo
mavokely
max
maxime
maximilian
maximilien
maxwell
may
mayer
mayotte
maza
mazandaran
mazandarany
mazava
mazda
mazdakisma
mazdeisma
mb
mba
mbamin
mbia
mbola
mccarthy
md
mdrm
me
mecklembourg
meda
media
mediana
mediawiki
medici
medina
mediteranea
mediteraneana
megido
mehmed
mehmet
meier
meisma
mekabiana
mekanika
meksika
mel
melakhim
melaky
melanezia
melaneziana
melchior
melkizedeka
melo
meloka
memfisy
mena
menabe
menahema
menaka
menakeliny
menakely
menarana
menarandra
menase
menatra
mende
mendes
mendoza
mendrika
menehould
ment
mention
meo
mer
mercier
merina
mes
mesa
mesia
mesianika
mesianisma
mesnil
meso
mesopotamia
metaly
metatra
metatrona
meto
metria
metro
metropolitana
mety
meunier
meursault
meurthe
meuse
mexico
mey
meyer
meyrick
mez
mg
mgr
mi
mia
miady
miafara
miafin
miafina
miaiky
miaina
miainga
miakanjo
miakatra
miala
mialoha
miami
miampanga
miampita
miampy
mianadahy
mianaka
mianatra
mianatsimo
mianavaratra
miandalana
miandany
miandraikitra
miandry
miankandrefana
miankavia
miankina
mianmara
miantoka
miantsinanana
miantso
miara
miaraka
miaramila
miaramilan
miaramilany
miarina
miarinarivo
miaro
miary
miasa
miavaka
mibaby
mibebaka
michael
michał
miche
michel
michelangelo
michele
micheline
michelle
michigan
microsoft
midadasika
middle
midera
midi
midika
midina
miditra
midongy
midrasa
midrash
mie
miely
miena
miendri
miendrika
mieritreritra
miezaka
mifady
mifamatotra
mifameno
mifanahaka
mifanakaiky
mifanalavitra
mifanandrify
mifanaraka
mifanarakaraka
mifandimby
mifandraika
mifandratra
mifandray
mifanesy
mifangaro
mifanila
mifanitsy
mifanohitra
mifantoka
mifarana
mifehy
mifetra
mifidy
mifindra
mifindrafindra
mifintina
mifono
miforona
mifototra
miguel
miha
mihaino
mihainoa
mihantona
mihataka
mihatra
mihazakazaka
mihazona
mihena
mihetsika
mihevi
mihevitra
mihinan
mihinana
mihintsy
mihira
mihitsy
mihoa
mihoatra
mihodikodina
miiba
miisa
miitatra
mijanona
mijery
mijoro
mika
mikaela
mikambana
mikarakara
mikasa
mikasika
mikasikan
mikatsaka
mikaza
mike
mikea
mikendry
mikhai
mikhail
mikisaka
mikitroka
mikoriana
mikro
mila
milahatra
milalao
milan
milanja
milano
milatsaka
milaza
mile
milenarisma
milenarista
miles
milevina
miliara
milina
milisy
militaire
mill
millau
miller
mills
miloko
milos
milton
milwaukee
mimouni
min
minas
mineira
mineiro
minerals
mineraly
minervois
mines
ming
minika
minikana
mining
minisitra
minisitry
ministe
ministera
ministeran
ministry
minitra
minnesota
mino
minor
minora
miohatra
miombon
miombona
miompana
miompy
mionisipaliten
miorina
miova
miovaova
miozolma
miozolmana
miparitaka
mipetraka
mipoitra
mira
miracles
mirahalahy
miraika
miraikitra
mirakitra
miranda
mirande
miray
mirefy
mirehitra
mireille
miresaka
miroslav
mirotsaka
mirza
mis
misafidy
misahana
misaina
misakafo
misakana
misaraka
miseho
misely
misintona
misio
misiona
misionera
misna
misokajy
misokatra
misolo
misongadina
misotro
miss
mission
missionary
missions
mississippi
missouri
mista
mistika
misy
mit
mita
mitady
mitafy
mitaha
mitahiry
mitaky
mitam
mitambatra
mitana
mitandrina
mitanila
mitanisa
mitantana
mitantara
mitany
mitaona
mitarika
mitatitra
mitazona
mitchell
mitentina
miteny
miteraka
mitety
mitia
mitodika
mitoetra
mitohy
mitokana
mitombo
mitondra
mitonon
mitory
mitovitovy
mitovy
mitra
mitraisma
mitrandraka
mitranga
mitrotro
mitsaha
mitsahatra
mitsanga
mitsangana
mitsara
mitsikera
mitsinjara
mitsinjo
mitsio
mitsipaka
mivadika
mivady
mivaingana
mivaky
mivantana
mivarina
mivarotra
mivavaka
mivelatra
mivelona
miverimberina
miverina
mivezivezy
mividy
mivoaka
mivoatra
mivondrona
mivory
miyagi
miyazaki
mizaka
mizakatenan
mizana
mizara
mizoram
mizotra
mly
mm
mn
mnla
mo
moa
moana
moanina
mobutu
mocratie
mocratique
modely
modern
mody
mofo
mohamady
mohamed
mohammad
mohammed
moi
mois
moizy
moka
molotra
molsheim
momba
mombamomba
momban
mompera
mon
mona
monaco
mond
monde
mondiale
mone
monestier
mongolia
monica
monima
monin
monina
monique
monisipalite
monisma
monista
monja
monka
mono
monroe
mons
mont
montagne
montagu
montana
montauban
montbard
montbrison
montdidier
monte
monteil
montenegro
montes
montfort
montgomery
montigny
montmorency
montmorillon
montpellier
montre
montreuil
montrond
monts
moon
moore
mopti
mora
moraingy
moramanga
moramora
mordekay
more
moreau
morel
moreno
morgan
mori
morin
moritz
morlaix
morombe
moron
morondava
moroni
morontsirak
morontsiraka
morontsiraky
morris
morrison
morrissey
mort
mortagne
morte
morton
mosary
moselle
moses
mosesy
moshe
moskva
motera
motte
moulin
moulins
mount
mountain
moura
moussa
mouvement
movement
moyen
moyenne
mozambika
mozika
mozilmana
mp
mpahaikintana
mpahaisiansan
mpahary
mpahay
mpahita
mpajaka
mpajakan
mpaka
mpamaky
mpamari
mpamaritra
mpamatsy
mpamboly
mpamelona
mpamily
mpaminanin
mpaminany
mpamoaka
mpamokatra
mpamonjy
mpamono
mpamoron
mpamorona
mpamory
mpamosavy
mpampianatra
mpampiankin
mpampiankina
mpampiasa
mpampindrana
mpampita
mpampitohy
mpan
mpanakanto
mpanamboatra
mpanamory
mpanampy
mpanan
mpanandro
mpanao
mpanapaka
mpanara
mpanaraka
mpanatanja
mpanatanteraka
mpanavao
mpandala
mpandalina
mpandalo
mpandanjalanja
mpandeha
mpandika
mpandimby
mpandinika
mpandova
mpandraharaha
mpandray
mpandresy
mpandrindra
mpanefy
mpanelanelana
mpanentana
mpangalatra
mpanj
mpanjaka
mpanjakan
mpanjakany
mpanjakavavin
mpanjakavavy
mpanjana
mpanjanaka
mpanjanatany
mpanjifa
mpanjono
mpankalaza
mpankasitraka
mpanohana
mpanohitra
mpanolo
mpanolotsain
mpanolotsaina
mpanompo
mpanompon
mpanompony
mpanompovavin
mpanondrana
mpanoradala
mpanoratra
mpanorenana
mpanorin
mpanorina
mpanoritra
mpanota
mpc
mpiady
mpiahy
mpialoha
mpiambina
mpianakavy
mpianany
mpianatr
mpianatra
mpianatry
mpiandraikitra
mpiandry
mpiantoka
mpiara
mpiaro
mpiasa
mpiasam
mpiasan
mpiavy
mpifanandrina
mpifaninana
mpifanolo
mpifehy
mpifidy
mpifindra
mpifindrafindra
mpihavana
mpihaza
mpihira
mpijery
mpijirika
mpikambana
mpikarakara
mpikarama
mpikaroka
mpikatroka
mpikomy
mpila
mpilalao
mpino
mpioko
mpiompy
mpirahalahy
mpiray
mpirenireny
mpisalotra
mpisava
mpisikidy
mpisolo
mpisoron
mpisorona
mpisoronabe
mpitahiry
mpitaingin
mpitan
mpitana
mpitandrina
mpitantana
mpitari
mpitarika
mpitendry
mpiteny
mpitifitra
mpitolona
mpitondra
mpitoriteny
mpitory
mpitrandraka
mpits
mpitsabo
mpitsara
mpitsaran
mpitsidika
mpitsikera
mpitsoa
mpivady
mpivarotra
mpivavaka
mpizaha
mpo
mpomba
mponin
mponina
mponiny
mpumalanga
mry
ms
mtk
mu
muh
muhammad
muller
mumbai
mun
mur
murad
murat
murcia
murphy
murray
museum
museveni
music
musicien
mustafa
mustapha
mwali
mwami
my
n
na
nadaba
nader
nadika
nadine
nadu
nafahana
nafana
nafenina
nafindra
naftaly
nagada
nagano
naha
nahafahan
nahafahana
nahafahany
nahafantarana
nahafantatra
nahafatesan
nahafatesana
nahafatesany
nahafaty
nahalala
nahalany
nahaleo
nahare
naharesy
nahariana
naharitra
nahary
nahasarika
nahaterahan
nahaterahany
nahatonga
nahatongavan
nahatongavany
nahatratra
nahatsapa
nahatsiaro
nahavita
nahavitana
nahay
nahazo
nahazoan
nahazoana
nahazoany
nahery
nahita
nahitan
nahitana
nahoana
nahoma
nahomby
nai
naivo
naka
nakambana
nakan
nakany
nakarina
nakhon
nako
nal
nalahelo
nalain
nalaina
nalainy
nalamina
nalaza
nalefa
nalefan
nalefany
nalevina
nalisma
nalista
naly
namadika
namakivaky
namaky
namaly
naman
namana
namangy
namany
namarana
namaritra
nambara
nambaran
nambarany
namboarin
namboarina
namboly
name
namehana
namela
namelona
namely
namerina
names
nametra
nametrahan
nametrahana
nametraka
namibia
namidy
naminany
namindra
namoaka
namokatra
namolavola
namonjy
namono
namonoana
namorona
namoronana
namoronany
namory
nampakatra
nampalaza
nampanaiky
nampanantena
nampanantenaina
nampanao
nampanaovin
nampandry
nampangaina
nampian
nampiana
nampianarin
nampianarina
nampianatra
nampiantso
nampiasa
nampiasain
nampiasaina
nampiasainy
nampiasana
nampiavaka
nampidirana
nampidirin
nampidirina
nampiditra
nampiely
nampiharina
nampihatra
nampihena
nampiray
nampiroborobo
nampiseho
nampisy
nampita
nampitandrina
nampitombo
nampitondraina
namporisihin
namporisika
nan
nana
nanafaka
nanafika
nanafoana
nanaiky
nanaisotra
nanaja
nanakaiky
nanala
nanam
nanamafisana
nanamafy
nanamarika
nanambady
nanambara
nanamboatra
nanamelohana
nanameloka
nanamora
nanampy
nanan
nanana
nananan
nanandrana
nanandratra
nanangana
nananganana
nananganany
nanangona
nanantena
nanao
nanaovan
nanaovana
nanaovany
nanapa
nanapahan
nanapaka
nanara
nanaraka
nanararaotra
nanasa
nanasitrana
nanatanterahana
nanatanteraka
nanatevin
nanatona
nanatrika
nanavao
nanavotra
nanazava
nancy
nanda
nandalo
nandamina
nandany
nandao
nandefa
nandeha
nandehanany
nandevenana
nandidian
nandidy
nandika
nandikana
nandimby
nandinika
nandoa
nandoro
nandositra
nandova
nandrahona
nandraiketana
nandraikitra
nandraisan
nandrakotra
nandrara
nandrava
nandray
nandre
nandresen
nandresy
nandrindra
nandritra
nandritry
nandroaka
nandroba
nandroso
nandry
naneho
nanendry
nanenjika
nanerana
nanery
nangala
nangataka
nangonina
nanimba
naniraka
naniry
nanisy
nanitatra
nanjaka
nanjakan
nanjakany
nanjakazaka
nanjary
nanjavona
nanjo
nankalaza
nankalazaina
nankany
nankasitrahan
nankasitrahin
nankasitraka
nankatoavin
nankatoavina
nankeo
nanoa
nanodidina
nanohana
nanoherana
nanohitra
nanohy
nanokana
nanokatra
nanolo
nanoloana
nanolotra
nanomana
nanombohan
nanombohany
nanomboka
nanome
nanomezan
nanomezany
nanompo
nanondro
nanongana
nanonona
nanontany
nanoratana
nanoratra
nanorenan
nanorenana
nanorim
nanorina
nanoro
nanosika
nanova
nansy
nantes
nantsoin
nantsoina
nantsoiny
nantua
nany
nao
naongan
naongana
naorin
naorina
naoriny
napetrak
napetraka
napetraky
napetrany
napole
nara
narahin
narary
naratra
narbonne
narcisse
nard
nas
nasa
nasain
nasaina
nasainy
naseho
nasehon
nasiam
nasiana
nasio
nasionaly
nasolo
nassau
nat
nata
natahotra
natal
natambatra
natana
natanjaka
natao
nataon
nataonao
nataony
naterak
nateraka
nateraky
nathalie
nathan
nathaniel
national
nationale
nations
natiora
natioran
natiorany
natokana
natoky
natolony
natolotra
natolotry
natombok
natomboka
natonta
natoraly
natory
natsangan
natsangana
natsangany
natsoina
natura
nature
navadika
navarre
navela
navelan
navelany
naverin
naverina
navigateur
navoaka
navoakan
navoakany
nazaire
nazareana
nazareta
nazo
nc
nchez
nd
ndao
ndez
ndia
ndor
ndorasy
ne
neana
nebokadnetsara
nebraska
nederlandy
neerlandey
nefa
nefia
nefilima
negrito
negro
nehemia
neil
neill
neily
neken
nekena
nekeny
nel
nelson
nely
nenilava
nenjehin
nenti
nentim
nentin
nentina
nentiny
neny
neo
nepaley
nepaly
nera
nero
nes
nesle
nesorin
nesorina
nesto
nestor
net
netherlands
nety
neufcha
neuilly
neumann
neuve
neuville
nevada
nevers
nevi
neville
nevisy
new
newman
newport
news
newton
ney
nez
nezia
neziana
nezianina
nfesy
nfosianisma
nfosiosy
ng
nga
ngamiland
ngay
ngazidja
ngc
ngel
ngeza
ngo
ngregasio
ngria
nguesso
ngulo
ngwaketse
ni
nia
niadian
niady
niafara
niafina
niaiky
niaina
niainan
niainany
niainga
niakaran
niakatra
niala
nialan
nialoha
nialokaloka
niamboho
niampanga
niampita
niana
nianatra
nianatsimo
nianavaratra
niandohan
niandraikitra
niandry
niankandrefana
niankina
niantoka
niantomboka
niantso
niantsoan
niantsoana
niara
niaraka
niaritra
niaro
niasa
niatrika
niavaka
niavian
niaviany
niavin
nibeazana
nibodo
nic
niccolo
nice
nicholas
nichols
nick
nicola
nicolae
nicolai
nicolas
nicole
nida
nidina
nidinany
nidiran
niditra
nie
niels
niely
nieritreritra
nieur
niezaka
nifanandrina
nifanaovan
nifanaovany
nifanarahana
nifanaraka
nifandimby
nifandray
nifanena
nifanesy
nifangaro
nifaninana
nifanohitra
nifantoka
nifarana
nifehy
nifidy
nifindra
niforona
niforonan
nifototra
nify
nigel
niger
nihaino
nihamafy
nihamaro
nihaona
niharan
niharatsy
nihatsara
nihazakazaka
nihazona
nihena
nihevitra
nihinana
nihira
nihoatra
niigata
niisa
niitatra
nijaly
nijanona
nijery
nijoro
nika
nikambana
nikaragoa
nikarakara
nikasa
nikatsaka
nikea
nikeana
nikela
nikendry
nikita
niko
nikola
nikolai
nikolaus
nikolay
nikomy
nil
nila
nilaina
nilamina
nilaozan
nilatsaka
nilaza
nilazan
nilazana
nilazany
nilo
nils
nily
nimo
nin
nina
nindramina
nineteenth
ninive
ninke
nino
ninoan
ninoana
ninoany
nio
niomana
niondrana
nior
niorenan
niorim
niorina
niort
niova
niparitaka
nipetrahan
nipetraka
nipoaka
nipoiran
nipoitra
nirahin
niray
nirehitra
niresaka
niroborobo
nirodana
nirotsaka
nis
nisa
nisafidy
nisahana
nisakana
nisambotra
nisan
nisana
nisaotra
nisaraka
nisea
nisedra
niseho
nisehoan
nisiam
nisian
nisiany
nisma
nisokatra
nisolo
nisongadina
nisotro
nista
nisy
nita
nitady
nitafy
nitahiry
nitaky
nitambatra
nitana
nitandrina
nitantana
nitantara
nitaraina
nitarika
nitazona
niteny
niterahany
niteraka
nitety
nitodika
nitoe
nitoeran
nitoetra
nitohy
nitomany
nitombo
nitondra
nitondran
nitondrany
nitory
nitovy
nitranga
nitsaha
nitsahatra
nitsangan
nitsangana
nitsanganan
nitsanganany
nitsidika
nitsikera
nitsipaka
nitsoaka
nivadika
nivaky
nivarotra
nivavahan
nivavaka
nivelatra
niverina
nividy
nivoaka
nivoatra
nivondrona
nivory
nizaka
nizara
nizarazara
nizera
nizeria
nizero
nke
nko
nkurunziza
nms
nnis
no
noa
noailles
nobel
nobia
nodikaina
nodimandry
nodorana
nody
noe
noel
noely
nofehezin
nofo
nofoanan
nofoanana
nofoanany
nofon
nofony
noforonin
noforonina
noforoniny
nofy
nogadraina
nogasina
nogent
nohagasina
nohamafisin
nohamafisina
nohamafisiny
nohavaozina
nohelohin
nohelohina
noheverin
noheverina
noheveriny
noho
nohomboana
nohon
noire
nois
noix
nojerena
nokarakarain
nokleary
nolavin
nolazain
nolazaina
nolazainy
nolovaina
nolovana
nom
nomen
nomena
nomeny
nomerika
nomery
non
nonenan
nonina
nono
nontron
nony
nor
noraiketina
noraisin
noraisina
noraisiny
noravan
norbert
nord
nordeste
noristany
norman
normand
normandie
noroahina
noroahiny
noroeste
norte
north
northern
norton
norve
norvezy
nos
nosamborina
nosin
nosokafana
nosoloana
nosoloina
nosoniavin
nosoniavina
nosoratan
nosoratana
nosoratany
nosy
not
notafihin
notanterahin
notanterahina
notapahin
notapahina
notarihan
notarihin
notendren
notendrena
notenenina
noteren
notes
notohanan
notohizan
notokanana
notontosain
notre
notsaraina
notsidihina
notsorina
nous
nouveau
nouvel
nouvelle
nova
novaina
novambra
novana
novangiana
novely
november
novingiana
novo
novolavolaina
novonoin
novonoina
noye
nozarain
nozaraina
ns
nsilin
nsily
nstantino
ntaolo
ntenegro
nter
nther
ntinenta
nu
nusa
ny
nyi
nyons
nzwani
o
oak
oakland
oas
obadia
oberthu
obote
oce
ocean
ocidental
octave
octeville
october
oda
odile
odiny
odisha
odore
ody
oeste
of
office
official
officiel
ofisialin
ofisialy
oganda
ogandey
ogaritika
ogo
ogooue
ographie
ogriana
oh
ohabolana
oharina
ohatra
ohio
ois
oise
oita
okayama
okinawa
oklahoma
okraina
okrainiana
oktobra
ol
olaf
olan
olana
old
oldenbourg
ole
oleg
olga
olimpika
oliveira
oliver
olivier
olo
ologie
ologien
ologue
oloko
olom
olomasin
olomasina
olombelona
olon
olona
olonne
olony
oloron
olsen
omaiada
omaly
omar
ombiasa
ombiasy
ombilahy
ombivavy
omby
omeiada
omeko
omem
omen
omena
omeo
omer
ompiana
oms
on
onard
once
ondrilahy
ondry
one
onenan
onilahy
onin
onitarisma
oniversite
oniversiten
onja
onjam
online
onore
ontario
onu
ony
open
ophile
opold
or
ora
oraliana
oram
orana
orange
oranio
orazio
orb
orbano
ordinasiona
ordo
ordre
ore
oregon
org
organisation
organization
orge
orgie
oria
oriela
orient
oriental
orientale
original
origines
origins
orinasa
orinasam
orissa
orlando
orle
orleans
orne
orogoay
orona
orondy
orsa
orsini
ortodoksa
ory
os
osa
oscar
osilahy
oskar
oslo
osman
oso
osun
oswald
osy
ota
otan
other
othman
othon
otis
otri
ottawa
otto
ou
ouagadougou
ouche
ouen
ouest
our
ourcq
ousia
outre
ova
ovaina
ovana
over
oviana
ovy
owen
oxford
oz
ozbeka
ozbekista
ozia
ozinina
ozona
p
pa
pablo
pacha
pacheco
padesm
paganisma
page
pages
pahafatesana
pahafatiny
pahaizana
pahalalana
pahalemana
paharavan
paharazana
paharetan
paharoa
pahasalamana
pahasoavan
pahasoavana
pahataperana
pahatongan
pahefana
pahendrena
pahlavi
pahotana
pahoviana
paika
paikady
paiso
paka
pakejy
pakista
pakistana
pakistaney
palais
palaiseau
palapye
palatinat
pale
paleo
palestina
palestiniana
palm
palma
palmer
palo
paly
pamantarana
pambolena
pamiers
paminaniana
pamokarana
pamonjena
pampianaram
pampianaran
pampianarana
pampiasa
pan
pana
panahin
panahy
panama
panambadiana
pananana
panantenana
panao
panavotana
pandeha
pandemis
pandevenana
pandrosoana
panehoan
panenteisma
panitsiana
panjaka
panjakan
panjakana
panjono
pankasitrahana
panoharana
panoherana
panontaniana
panoratana
panorenan
panorenana
panteisma
pantsika
paolo
paoly
paoma
paompy
paositr
paositra
papa
papiasy
papoa
papoazia
par
para
paradisa
paragoay
parai
paraibano
paraky
parana
paranaense
paranai
paranavai
parda
paris
parisy
paritany
paritra
paritry
park
parker
parlemanta
paroasy
parosia
parsons
parsy
part
parthenay
parti
partiana
pas
pasadena
pasana
pascal
pascale
pasifika
pasiona
paska
paskha
passe
passo
passos
past
pasteur
pasto
pastona
pastor
pastora
pat
patate
patmo
pato
patra
patrana
patriarka
patriarkan
patrice
patricia
patrick
patriotique
patterson
paty
pau
paul
paula
paule
paulin
pauline
paulista
paulo
pavel
paypal
pays
pc
pdf
pe
peana
peanina
pearl
pearson
pedro
pehezanteny
pehibe
pehin
pehintaniny
pehintany
peintre
pejy
peka
pekahia
pelan
pellegrin
pelletier
pen
penguin
penitra
penjaby
pennsylvania
pentateoka
penteko
pentekosta
peo
peola
peony
people
peoples
per
perche
percy
pereira
pergamo
periheliany
period
perkins
pernambucana
pernambucano
pernambuco
pernay
pero
perrier
perrin
perrot
perry
persa
persana
persia
persiana
persika
perso
persona
personan
pesakh
peshitta
pesitry
pet
pete
peter
petera
peters
petit
petite
petra
petrus
peuple
pew
pez
pg
ph
phane
phe
phil
philadelphia
philibert
philip
philipp
philippe
phillips
philosophe
phoenix
phone
photographe
php
pi
pia
piadiana
piaget
piainan
piainana
piainany
pialana
piana
pianakaviam
pianakaviana
pianarana
piandohan
piandohana
piandrian
piangonana
piaraha
piarahamonina
piaramanidina
piasana
piasatanana
piaui
piaviana
pic
picard
picarde
picardie
pie
pielezana
pier
piera
piero
pierre
piet
pieter
pietro
pifandraisana
pifehezana
pifidianana
pifohazana
pigmea
pihariana
pihavanana
pihodinan
pikaly
pilaminana
pilato
pilazantsara
pilo
pin
pinal
pine
pinoan
pinoana
pinoany
pinto
pinus
pinyin
pio
piofohana
pioneiro
piotr
piper
piracicaba
piraiminisitra
piraketan
piraketana
piramida
pirenana
pirenen
pirenena
pirenenan
pirinty
pirogue
pisainana
pisian
pisiana
pisoronana
pisotro
pitahiana
pitantanana
pitaterana
pitenenana
pitenin
piteny
pitiavana
pitondran
pitondrana
pitondrantena
pitot
pitrandrahana
pitsaboana
pitsarana
pitsipika
pitsipiteny
pittsburgh
pivarotana
pivarotra
pivavahan
pivavahana
pivoarana
pla
place
plaine
plaines
plan
planeta
planets
plastika
plateau
plato
playstation
pleasant
plessis
plus
pneomato
png
po
poana
poe
poeta
point
pointe
poirier
pois
poisons
poissons
poitiers
poitou
poivre
poko
pokon
pokontaniny
pol
polis
polisy
politicien
politika
politikan
politique
polo
polonesi
poloney
polonia
polony
pomba
pome
pomme
pon
ponao
ponenan
ponenana
ponenany
ponika
ponin
ponina
poniny
ponja
pons
pont
ponte
pontio
pony
poopy
pop
pope
population
populations
porofo
porofon
port
portal
porte
porter
portes
porto
portogey
portugal
post
potiguar
poto
potoam
potoan
potoana
potoanan
potraka
poulos
pour
powell
power
pp
ppp
pr
practice
pradesh
praiminisitra
praiministra
prairie
prayer
pre
prefektioran
presbiteriana
present
president
presidente
press
preston
preto
pretra
price
priest
prince
princess
prinsipe
printsy
printy
privas
prix
pro
profile
programa
project
prophe
prosper
protestanta
protestantisma
prout
provence
prudente
prusse
ps
psd
pseodepigrafa
pseodo
pt
pta
ptianisma
ptika
pto
pu
public
publications
publique
publishers
publishing
puf
punjab
purim
pute
puy
px
pxpernambuco
py
pyre
q
qa
qazvin
qit
qu
quatre
que
quebec
queen
queensland
quentin
quercy
quesnel
qui
quimper
quincy
quinn
r
ra
rabat
rabbi
rabefaravolamanjaka
rabi
rabiby
rabinika
raby
rac
rache
rachel
racine
radama
radio
rafael
rafaela
rafaely
raffaele
raffaello
rafi
rafitra
rafitry
rafohy
rafsanjani
rah
raha
rahalahin
rahalahiny
rahalahy
raharaha
raharaham
raharahan
rahateo
rahavaviny
rahefa
rahely
rahman
rahon
rahona
raiamandreny
raibeny
raiki
raikipohy
raikitra
raiko
rain
rainer
rainibahy
rainilaiarivony
rainisoalambo
rainivoninahitriniony
rainy
raisin
raisina
rajako
rajaonarimampianina
rajasthan
rajemisa
rajoelina
rakanjobe
raki
rakibolana
rakikira
rakipahalala
rakipahalalana
rakitra
rakitroka
rakoto
rakotonirina
rakotosaona
rakotozandry
rakotra
rakotry
ral
ralambo
ralanimboahangy
rald
rale
ralf
ralph
raly
ram
rama
ramadany
ramanantsoa
ramanjaka
ramaromanompo
ramatoa
rambony
rambouillet
rameva
rami
ramieba
ramitongoa
ramo
ramon
ramos
ramsay
ramsesy
ran
ranavalona
ranavalontsimitoviaminandriana
randolph
random
rangita
ranie
rano
ranoka
ranom
ranomandry
ranomasimbe
ranomasin
ranomasina
ranon
ranonorana
ranony
ranoray
ranotsara
rantsan
rany
raolison
raoul
rapapango
raphae
raphael
raphia
rapids
rard
rariny
ras
rasendrasoa
rashid
rasoherina
rassemblement
rata
ration
ratra
ratsileondrafy
ratsimamotoa
ratsimandrava
ratsimilaho
ratsimivily
ratsiraka
ratsitohininamanjaka
ratsy
rau
raud
rault
rava
ravalomanana
ravan
ravatoverere
ravelonjanahary
ravin
ravina
raviny
ravoromanga
ray
raymond
razambe
razamben
razambeny
razan
razana
razany
razavi
raze
rb
rc
rd
rda
rdania
rdinasio
rdinatianisma
rdisma
rdo
rdoba
re
rea
real
reana
reba
recensement
recherche
red
reed
refesi
refesina
refo
reformasiona
refy
reginald
region
rehandry
rehefa
rehetra
reho
reich
reid
reims
reine
reiner
reinhard
reinhold
religieux
religion
religions
religious
relijiozy
remy
ren
renaissance
renard
renato
renaud
renault
rence
rene
renifeo
renin
reniny
renirano
reniranon
renisoratra
reniteny
renivintana
renivohi
renivohiny
renivohitr
renivohitra
renivohitry
reny
reo
repoblika
repoblikan
repoblikana
report
repositories
republic
res
resahin
resahina
resaka
research
resin
resiny
resources
restaorasio
resy
ret
rethel
retrieved
retsila
retz
rev
review
revo
revolisiona
revue
rey
reynolds
rez
reza
rg
rgen
rgy
rhin
rho
rhode
rhodes
ri
ria
riakasia
rialy
rian
riana
rianisma
ribe
ribeira
ribeiro
ric
rica
ricard
ricardo
riccardo
rice
rich
richard
richards
richardson
richmond
richter
rick
rico
ricourt
ridge
rie
rier
rieur
rieure
rieux
riga
rigaud
right
rigord
rigueux
rijan
rika
riko
rin
rindrambaiko
rindrankajy
rindrin
rindrina
rintiana
rio
riom
rios
rique
ririnina
ris
risle
rita
rite
rites
rito
ritter
rive
river
rivera
rivers
rives
rivie
rivo
rivodoza
rivotra
rjia
rjiana
rk
rma
rmasio
rmasiona
rmo
rn
rneo
ro
roa
roalahy
roan
roanda
roandey
roanne
roapolo
rob
roba
robena
robert
roberto
roberts
robertson
robin
robinson
roch
rocha
roche
rochechouart
rochefort
rochelle
roches
rochester
rock
rod
rode
rodez
rodney
rodolfo
rodolphe
rodri
rodrigo
rodrigues
roger
rogers
rognon
rohan
rohy
roi
roimainty
roimemy
rojas
roland
rolf
rolland
rom
roma
romain
roman
romana
romania
romaniana
romans
rome
romero
romorantin
ron
ronald
rondo
ronique
ronne
ronnie
ronono
roosevelt
roque
rosa
rose
rosenberg
rosh
rosia
rosiana
rosie
rosina
ross
rossi
rosy
rota
rotaka
roth
rothschild
rotrou
rotsak
rouen
rouergue
rouge
rousseau
roussel
roussillon
routledge
roux
rova
rovan
rovere
roy
royal
royaume
roye
royer
rrez
rs
rt
rto
rtogaly
rtogey
ru
ruanda
rube
rubens
rubus
rudi
rudolf
rudolph
rugby
ruiz
run
rusalem
russell
russia
russie
ruth
rutherford
rveziana
rvezy
rwanda
ry
ryan
ryu
rza
s
sa
saa
saalmu
saba
sabata
sabatan
sabatra
sabelianisma
sable
sables
sacre
sadoseanina
sadoseo
sady
safata
safavida
safidy
safiotra
safodrano
saga
sage
saha
sahala
sahalahala
sahan
sahanin
sahaniny
sahara
saharaoy
sahariana
sahel
sahely
sahirana
sahy
sai
said
saika
saikanosin
saikanosy
saikinosy
saily
sain
saina
sainam
sainan
saingy
saint
sainte
saintes
saintois
saintonge
saints
sait
saitama
saka
sakafo
sakafon
sakaiza
sakaizan
sakalava
sakamasay
sakana
sakany
sakaraha
sakave
sakay
sakeli
sakelidrano
sakramenta
sakramentan
sakso
sal
sala
salaam
saladin
salah
salam
salama
salamo
salamon
salan
salem
salers
salinas
salle
salles
salo
saloma
salome
salomon
salt
salvado
salvador
salvatore
sam
sama
samaria
samaritana
sambaina
sambany
sambatra
sambava
sambo
sambofiara
sambon
sambre
samgara
samihafa
samo
samoela
sampam
sampan
sampana
sampandraharaha
sampin
sampy
samso
samson
samsona
samuel
samy
san
sanda
sandam
sandan
sanders
sandoka
sandra
sandro
sands
sandy
sangan
sanger
sankara
sanskrita
sanskrity
sant
santa
santana
santander
santerre
santiago
santo
santos
sao
saodita
saola
saoly
sar
sara
sarah
saraha
saran
saranga
sarangam
sarangan
sarda
sardisy
sarec
sarimihetsika
sarin
sarintanin
sarintany
saritanin
sarivongan
sarivongana
sarlat
sarmatiana
saro
sarobidy
saron
sarotiny
sarotra
sarthe
sary
sasanida
sasantsasany
sasany
sasatra
sassou
sata
satan
satana
satorna
satrapa
satrapia
satria
satro
satroka
sauer
sault
saulx
sauma
saumur
sauvage
sauveterre
sauveur
sava
savaivo
save
saverne
savoie
savorovoro
saxe
sazy
sb
sbdb
sc
scar
scha
schleswig
schmid
schmidt
schmitt
schneider
schnorr
scho
school
schro
schu
schulz
schuster
schwerin
science
sciences
scott
scriptura
scriptures
sculpteur
sd
se
sea
sean
seania
seashores
sebastia
sebastian
sec
second
secre
sedan
sedekiasa
sedra
see
sefa
sefarada
sefer
segondra
segre
seha
sehatr
sehatra
sehatry
seho
seine
seisely
seitana
sekema
seko
sekolin
sekoly
sekretera
sekta
sela
seleokida
seleokosy
selim
seljokida
sema
semita
semitika
semnan
senario
sendika
sendra
senegala
senegaly
senlis
senofo
sent
seo
septambra
septanta
september
septembre
septoaginta
septoajinta
seranam
seranan
seranana
serba
serbia
serfa
serge
sergei
sergey
sergio
sergipe
serguei
series
serivisy
serowe
serra
serrana
serre
serres
serta
service
services
ses
sese
sesitany
seso
seta
seth
setia
setiana
setrin
setroka
sevastopol
seventh
seychelles
seymour
seza
sezin
sezy
sfera
sforza
sh
sha
shaanxi
shaar
shabbat
shah
shahr
shakti
shalva
shandong
shanghai
shanxi
sharqia
shavuot
shaw
she
shedim
shemini
sherman
shevat
shi
shift
shiga
shin
shina
shiraz
shirley
shiva
shizuoka
shlomo
sho
shu
si
sia
sialisma
sialista
sialy
siana
siansa
siansan
siantifika
siasa
siberia
siberiana
sichuan
siciles
sida
sident
sidina
sidney
sie
siegfried
siera
sierra
sigara
sigismond
sihanaka
siisma
siita
sikao
sikasso
sikema
sikidy
sikisma
silaghi
silamo
silaovakia
silaovenia
silia
silo
silva
silvio
sily
sima
simba
sime
simeo
simeona
simia
simika
simo
simon
simona
simone
simpson
sin
sina
sinago
sinagoga
sinaia
sinay
sindy
singa
singaley
singan
singaporo
singer
singh
sinkretisma
sino
sinoa
sinoda
sinoptika
sinto
sio
sion
sioux
sipra
sir
sira
siramamy
sire
siria
siriaka
siriana
sirilika
sirisy
siro
sis
sisa
sisam
sisan
sisin
sisintany
sisiny
sistan
sisy
site
sites
sitrana
sitrapo
sitrapon
sitrapony
sivilizasio
sivilizasiona
sivily
sivy
sj
sk
ska
skandinavia
skandinaviana
skea
ski
skitiana
sko
sl
slava
slo
sm
sme
smika
smirna
smith
snia
snow
sns
so
soa
soahily
soalala
soanierana
soatana
soatoavina
soavaly
soavina
soavinandriana
soazilandy
sobo
sobstansa
social
sociales
socie
society
soda
sodaney
sodina
soe
soeda
soedoa
sofia
sofina
software
soisa
soissons
sokajiana
sokajin
sokajina
sokajy
sokatra
sokay
sokitra
sol
sola
solifara
solika
solitany
solo
solofo
sologne
solom
solombavam
solombavambahoaka
solomon
solomona
solon
solontena
solontenan
solosaina
solta
soltana
solus
somalia
somary
somatra
sombin
some
someriana
somme
son
song
sonia
sonisma
sonita
sonny
sons
sony
sophia
sophie
sora
sorabe
sorany
sorata
soratana
soratanam
soratanana
soratr
soratra
soratry
soria
soridala
soridalany
sorinama
soritra
sorom
sorona
sosa
sosialista
sosialy
soso
soson
sosona
soule
source
sources
sous
sousa
south
southern
souza
sovietika
sozana
sp
spe
special
spencer
spenta
speyer
spi
spinoza
spirit
spiritual
sports
spring
springfield
springs
sprinty
sr
sri
srilanka
ss
ssd
sseldorf
sstr
st
sta
stan
standard
stanford
stanislas
stanisław
stanley
star
state
states
station
statistics
statistika
ste
stefan
stefano
stein
steiner
stephan
stephen
sterling
stern
steve
steven
stevens
stevenson
stewart
stika
stisisma
sto
stockholm
stone
story
strasbourg
strauss
street
strisy
stuart
student
students
studies
studio
study
su
sua
suarez
substantia
sucre
sud
sudeste
sudoeste
sue
suez
suisse
sukkot
sul
sulawesi
suleiman
sullivan
sulpice
sultan
sumatra
sume
sun
sung
supe
sur
surya
sus
susan
suzanne
sv
sven
swedish
sy
sydney
sylla
sylvain
sylvestre
sylvie
synoda
synodam
syste
system
sz
szlo
t
ta
tabac
tabernakely
tabilao
tadeo
tadeusz
tadiny
tady
tafahoatra
tafakatra
tafasaraka
tafaverina
tafi
tafiditra
tafik
tafika
tafiky
tafiny
tafo
tafondro
taha
tahaka
tahaky
taham
tahan
taheza
tahirim
tahirin
tahiry
taho
tahony
tahotra
tai
tailandey
tailandy
tain
taioa
taire
taiwan
tajikista
tajiky
takalon
takarina
takatry
takela
takelaka
takila
taksiborosy
tal
talata
tale
talen
talenta
talibana
talisy
talmoda
talmodan
talmud
taloha
talohan
tam
tama
tamatave
tamba
tambajotra
tambajotran
tambavy
tambinteny
tambonin
tamia
tamiana
tamiko
tamil
tamily
tamim
tamin
tamina
tamingana
taminy
tamn
tampes
tampo
tampoka
tampon
tampony
tamy
tan
tana
tanaka
tanakh
tanako
tanala
tanan
tanana
tananan
tananao
tananarive
tanany
tanatin
tanaty
tandapa
tandavan
tandindomin
tandindon
tandindona
tandrefana
tandremana
tandrify
tandrok
tandroka
tandroy
tanelanelan
tanety
tang
tanganyika
tangena
tangoro
tangorom
tangoron
tangs
tanibe
taniefitra
tanim
tanimanga
tanimbary
tanin
tanindrana
tanindrazana
taniny
tanisaina
tanjaka
tanjaky
tanjany
tanjon
tanjona
tanjony
tanora
tant
tantara
tantaraina
tantaram
tantaran
tantarany
tantely
tanterahin
tanterahina
tanteraka
tantra
tantsaha
tantsambo
tany
tanzania
tao
taoa
taolan
taolana
taom
taombaovao
taompolo
taon
taona
taonan
taonany
taonarivo
taonina
taonjato
taor
taorian
taoriana
taova
taozava
taozavatra
tapa
tapak
tapaka
tapaky
tapany
tapitra
tapitrisa
tara
tarana
taranak
taranaka
taranakao
taranaky
taranany
taranja
taratasin
taratasy
taratra
tarazo
tardenois
tarehimarika
tarehin
tarehiny
tarehy
tareky
tari
tariby
tarihin
tarika
tarn
taro
tasmania
tat
tatara
tatitra
tato
tats
tatsimo
tatsinanana
taty
tava
tavany
tavela
tavy
tay
taylor
taze
tazomoka
tbilisi
te
teatra
teau
teaubriant
teaudun
teaulin
teauneuf
teauroux
teaux
teba
tebay
teboka
ted
tefan
teheran
tehezan
teisma
teispesy
teista
teknika
tekno
teknolojia
tekto
tel
telefaonina
televiziona
tell
tellerault
tellier
telo
telogo
telon
telopolo
tely
temple
tempolin
tempoly
temps
ten
tena
tenan
tenantenan
tenany
tenda
tendro
tendrombohitr
tendrombohitra
tendron
tendrontany
tendrony
tenenin
tenenina
tenggara
teniko
tenim
tenin
teninao
teniny
tenisy
tennessee
teny
teo
teoahedo
teolojia
teolojiana
teolojika
tepa
ter
tera
terak
teraka
teraky
teratanin
teratany
teresa
terio
terminal
terra
terre
terres
terry
tery
tes
tesalo
tesaloniana
testament
testamenta
testamentan
testanta
testantisma
tetenin
tetenina
tetezamita
tetezana
teti
tetiandro
tetiarana
tetika
tetikasa
teto
tety
tetzel
texas
text
textes
tezitra
th
thai
than
thani
that
the
their
thelle
theo
theodor
theodore
theology
theotokos
thibault
thie
thierry
thiers
this
thomas
thompson
thomson
thonon
thought
thumb
thune
ti
tia
tiako
tian
tiana
tianjin
tiany
tiberiada
tiberiasy
tiberio
tibeta
tibetana
tidivoara
tie
tien
tienne
tiennes
tigra
tigrinia
tigrisy
tika
tilikambo
till
tillon
tillonnais
tim
time
times
timo
timor
timothy
timoty
tine
tinto
tio
tiorka
tique
tiro
tis
tishri
tisma
tissot
tista
titanina
tito
titosy
titus
tk
tn
tniela
to
toa
toaka
toamasina
toarega
tobia
tobias
tobilehibe
tobim
tobin
toby
tochigi
today
todd
toe
toekaren
toekarena
toera
toeram
toeran
toerana
toerany
toetanim
toetanin
toetany
toetr
toetra
toetran
toetrandro
toetrany
toetry
tohanan
tohatra
tohidrano
tohin
tohodrano
toile
tokan
tokana
tokantrano
toko
tokoa
tokom
tokony
toky
tokyo
tolagnaro
toledo
toliara
toliary
tolo
tolom
tolona
tolorana
tolotra
tom
toma
tomasy
tomates
tombanana
tombo
tombokase
tombontsoa
tombontsoan
tombony
tombouctou
tome
tommaso
tommy
tompo
tompoko
tompom
tompomenakely
tompon
tomponandraikitra
tompontanin
tompontany
tompontsika
tompony
ton
tonanahary
tondra
tondrahan
tondro
tondroin
tondroina
tonga
tongalafatra
tongavan
tongolo
tongony
tongotr
tongotra
tongoza
toni
tonizia
tonon
tononandro
tononina
tononkalo
tononkira
tononkiran
tonony
tonta
tontolo
tontolon
tony
top
tora
toradroa
torah
torak
toraka
torimaso
torimason
toritenin
toriteny
torka
torkia
torkika
torkmena
torkmenista
toro
torohevitra
toromarika
toronto
torre
torres
toscane
totalin
totmo
totsy
tou
toul
toulgoe
toulois
toulon
toulouse
toumani
tour
touraine
toure
tournon
tours
toussaint
tov
tovana
tovo
tovolahy
tovona
tower
town
townsend
toy
toyama
tpir
tr
tra
tract
tracy
trade
tradition
traditions
traduction
traikefa
train
tranain
tranainy
tranga
trangan
trano
tranom
tranomaizina
tranombakoka
tranon
tranonkala
tranonkalan
tranony
translation
traore
tratra
tratran
tratrany
tratry
travel
tre
tremblay
tres
trevor
tria
tribune
trinitariana
trinite
trinitera
tripoli
tripura
tristan
triteisma
tro
trois
tromba
tromelin
trompetra
trondro
tropikaly
tropole
trosa
troyes
trust
ts
tsady
tsaha
tsain
tsaina
tsakafo
tsakafon
tsambo
tsambon
tsamirery
tsampana
tsampy
tsangambato
tsangan
tsangana
tsanganan
tsanganana
tsapa
tsapain
tsapan
tsara
tsaraina
tsaramaso
tsaratanana
tsaratsara
tsarovy
tsary
tsasatra
tsehatra
tsehatry
tseka
tsekia
tseko
tsekoly
tseky
tselatra
tsena
tseranana
tserasera
tsesitany
tshisekedi
tsi
tsia
tsiahy
tsiambaratelon
tsiansa
tsihy
tsikelikely
tsikera
tsikidy
tsikombakomba
tsilo
tsimanompo
tsimihety
tsimokaretina
tsimparifary
tsinam
tsinana
tsindraindray
tsindrimandrin
tsindrimandry
tsindrimpeo
tsindry
tsinga
tsingerim
tsingerin
tsingerina
tsinjoarivo
tsiny
tsipelina
tsipi
tsipika
tsirairay
tsiraka
tsiranana
tsirangaina
tsiribihina
tsirinteny
tsirkasiana
tsiro
tsiroanomandidy
tsiroaroa
tsitoha
tsitrapo
tsivory
tso
tsoa
tsoana
tsoavaly
tsodrano
tsodranon
tsofina
tsofoka
tsokajin
tsolika
tsolitany
tsonia
tsoratra
tsosialy
tsotra
tsy
tt
tu
tude
tudes
tulle
turner
turtle
tutume
tv
tx
ty
tyler
tymoshenko
tz
u
ubuntu
ugo
uh
uk
ulrich
umberto
un
und
une
unesco
uni
unicode
unies
union
unis
united
universalis
universelle
universite
university
unix
up
upright
ur
urbain
urbaine
urban
ursula
us
usa
users
ut
utah
utc
utilisateur
uttar
uttarakhand
uwe
v
va
vadiben
vadim
vadin
vadiny
vady
vahana
vahaolana
vahiny
vahoaka
vahoakan
vahoakany
vaika
vajraiana
vaka
vakia
vakin
vakina
vakinankaratra
vakinisisaony
vakio
vakiteny
vakitrano
vakivakin
vakoka
vaksiny
vaky
val
valala
valan
valanaretina
valde
vale
valence
valencia
valenciennes
valentin
valentine
valeri
valesa
valette
valiha
valim
valin
valiny
valisoa
valle
valley
vallon
vallons
valo
valois
vals
vambra
van
vancouver
vangaindrano
vange
vangin
vaniany
vanille
vanim
vanimpotoan
vanimpotoana
vaninandro
vaninteny
vanja
vantany
vao
vaovao
vaovaon
var
varahina
varatra
varavaran
varavarana
varenne
varennes
vargas
varginha
varika
varimbazaha
variste
varotra
varso
vary
vasa
vassili
vata
vatam
vatan
vatana
vatany
vatika
vatikana
vato
vatolampy
vatomandry
vaton
vatosoa
vatovavy
vatravatra
vaucluse
vaux
vava
vavahadin
vavahady
vavak
vavaka
vavan
vavany
vaventy
vavimatoan
vavin
vavolombelon
vavolombelona
vavy
vazaha
vazimba
ve
veda
vedika
vega
vehivavy
veil
velaran
velarana
velarantanin
velarantaniny
velarantany
velarany
velay
velirano
velively
velon
velona
veloppement
vena
vende
vendo
venezoela
venia
vennes
venosy
vent
ver
vera
verde
verdun
verin
vermandois
vermont
verneuil
vernon
vers
version
vert
verte
vertentes
vertus
vervins
very
ves
vesle
vetivety
vexin
vez
vezo
vi
via
vic
vicente
vicomte
victoire
victor
victoria
vidal
video
vidim
vidin
vidiny
vidy
vie
vieira
vienna
vienne
vierzon
vietika
vietnam
vietnamiana
vietnamy
viette
vieux
view
vigan
vignes
vignette
vii
viii
viktor
vila
vilany
villa
village
villages
villard
villars
ville
villedieu
villefranche
villeneuve
villers
villes
villiers
vin
vina
vinanin
vincent
vincenzo
vinci
vingeanne
vinsanta
vintan
vintana
viraty
virginia
virgo
virijina
virijiny
virjiny
visconti
vishnu
visnoisma
vista
vita
vital
vitali
vitan
vitany
vito
vitry
vitsivitsy
vitsy
vittorio
vives
viziry
vladimir
vo
voa
voaaro
voadika
voadio
voady
voafaritra
voafaritry
voafehin
voafetra
voafetran
voafidy
voaforona
voahangy
voaheloka
voahodidin
voahodidina
voahosotra
voajanahary
voakasiky
voalamina
voalavo
voalaza
voalazan
voaloboka
voalohan
voalohandohany
voalohany
voam
voamadinika
voamaina
voamariky
voamarina
voambolan
voambolana
voampanga
voan
voanemba
voaniho
voanjo
voanjobory
voankazavana
voankazo
voanteny
voany
voaorina
voaozona
voaporofo
voarakitra
voarara
voaray
voaresaka
voaroaka
voasambotra
voasary
voasokajy
voasokitra
voasolon
voasoratra
voatabia
voatahirin
voatahiry
voatanisa
voatantara
voatendry
voatery
voatokana
voatondraka
voatondro
voatonona
voavoly
voavonjy
voay
voazara
vodin
vodiny
vodivona
vody
vogel
vohemar
vohipeno
vohitr
vohitra
vohon
voisines
voka
vokany
vokarina
vokatr
vokatra
vokatry
vokovoko
vol
vola
volafotsy
volahavana
volamaka
volambita
volamena
volan
volana
volapoky
volasira
volavita
volavolan
volena
volgata
volker
volo
volohany
volom
volomboasary
volomparasy
volon
volondavenona
volonondry
volony
volta
volume
volution
voly
vomanga
von
vondro
vondrom
vondron
vondrona
vondrozo
vonin
voninahiny
voninahitr
voninahitra
voninahitry
voninkazo
voniny
vonizongo
vonjeo
vonjimaika
vono
vonoina
vonona
vonto
voromahery
vorona
vosges
vost
votoatin
votoatiny
vous
vouziers
vovo
vovoka
vre
vres
vreux
vry
vs
vubu
vy
w
wa
wade
wagner
waldemar
wales
walker
wallace
walsh
walt
walter
walther
walton
wang
ward
warner
warren
was
washington
watch
watchtower
watson
wayback
wayne
we
web
webb
weber
website
webster
weekly
weil
weimar
weiss
well
wellhausen
wells
werner
wesley
west
western
westminster
weston
westphalen
what
white
whitney
who
wi
width
wiki
wikibolana
wikimania
wikimedia
wikipedia
wilhelm
will
willard
willem
willi
william
williams
williamson
willie
willis
willy
wilson
wim
windows
winston
winter
wisconsin
wissembourg
with
wittenberg
wo
wojciech
wolf
wolff
wolfgang
wood
woods
world
worms
wright
wu
wurtemberg
www
wyoming
x
xaintois
xaver
xavier
xi
xiberoa
xii
xiii
xinjiang
xiv
xu
xv
xvi
xx
xxx
y
ya
yah
yahweh
yale
yamagata
yamaguchi
yamanashi
yame
yang
yannick
yanukovych
yazd
ye
year
yehoshua
yo
yod
yogyakarta
yom
yon
yong
york
you
young
your
youssef
youtube
yoweri
yu
yuan
yunnan
yuri
yushchenko
yusuf
yvan
yvelines
yves
yvette
yvon
yvonne
z
za
zafikelin
zafikeliny
zafimanely
zafimaniry
zafin
zafiraminia
zafisoro
zafy
zagreb
zagros
zai
zaira
zak
zaka
zakaria
zambia
zambika
zan
zana
zanabintana
zanadralambo
zanadranavalona
zanahary
zanak
zanaka
zanakalahin
zanakandriana
zanakao
zanakavavin
zanako
zanaky
zanamangarira
zananilahy
zanany
zanapeo
zanatanin
zanatany
zanateny
zanatsoratra
zanda
zandary
zandriny
zanjan
zany
zanzibar
zara
zaraina
zaratany
zaratostra
zareo
zaridaina
zato
zatovolahy
zava
zavaboary
zavakanto
zavamananaina
zavamaneno
zavamaniry
zavatra
zay
zaza
zazakely
zazaky
zazalahy
zazamarolahy
zazavavy
zdene
ze
zealand
zebedeo
zebedio
zebolo
zebolona
zebra
zedekia
zef
zefania
zelandy
zeller
zelo
zervanisma
zezika
zezoita
zhang
zhejiang
zi
ziasa
zie
ziers
zilpa
zimbaboe
zimry
ziona
zitina
ziva
zo
zodiaka
zodiaque
zohy
zoina
zokiny
zokiolona
zolo
zolta
zom
zoma
zon
zona
zoom
zoran
zorn
zoro
zoron
zotra
zotram
zozoro
zquez
zsef
zu
zurich
zwingli
zy
zygmunt
{
|
}
~
£
§
©
«
­
®
°
±
²
³
´
µ
·
»
¿
×
ħ
ı
łukasz
ŋ
ɔ
ə
ɛ
ɯ
ʃ
ʔ
ʕ
ʹ
ʻ
ʼ
ʾ
ʿ
ˀ
ˈ
ː
˩
̀
́
̂
̃
̄
̆
̇
̈
̉
̊
̋
̌
̓
̔
̛
̠
̣
̦
̧
̨
̩
̮
̱
̲
͂
ͅ
͡
α
αι
αν
ας
αυ
β
γ
δ
ε
ει
ζ
η
ησου
θ
θεο
θεου
ι
κ
και
κυ
λ
μ
μα
με
μενον
ν
να
νη
ντα
ξ
ο
ος
ου
π
πα
πο
προ
ρ
ρα
ς
σ
τ
τα
τε
τη
της
το
του
τω
υ
υι
φ
φυ
χ
ω
в
г
и
н
с
у
֑
֖
֣
ְ
ֱ
ֲ
ֳ
ִ
ֵ
ֶ
ַ
ָ
ֹ
ֻ
ּ
ֽ
־
ׁ
ׂ
א
ב
ג
ד
ה
הו
ו
ז
ח
ט
י
יהוה
יו
יום
ים
ך
כ
ל
ם
מ
מו
ן
נ
ס
ספר
ע
ף
פ
ץ
צ
ק
ר
רו
ש
ת
ء
ا
ال
الا
الثاني
ب
ة
ت
ج
ح
خ
د
ذ
ذو
ر
ربيع
ز
س
ش
ص
صلاة
ط
ع
ف
ق
ك
ل
م
ن
ه
و
ى
ي
ً
َ
ُ
ِ
ّ
ْ
ٓ
ٔ
ٕ
ٰ
ۭ
त
द
न
म
र
ल
स
ा
ि
ी
ु
े
्
া
ਿ
ੁ
க
ி
்
ร
ส
อ
ั
ิ
ี
ุ
ู
่
้
์
་
ུ
፡
᾿
​
‌
‎
‑
–
—
‘
’
“
”
„
†
•
…
‬
‰
′
‹
›
€
→
↔
↷
−
√
≈
③
④
⑦
◌
♪
ⴰ
ⵉ
ⵏ
ⵜ
⺀
⺄
⺆
⺈
⺊
⺌
⺕
⺝
⺸
⺼
⿰
⿱
⿲
⿳
⿴
⿵
⿶
⿷
⿸
⿹
⿺
⿻
〢
い
か
く
し
す
た
と
る
ん
゙
コ
ユ
ㅈ
㇁
㇂
㇄
㇇
㇈
㇉
㇓
㐁
㐄
㐅
㐌
㐫
㐬
㐭
㐮
㐱
㑒
㒵
㒸
㒼
㓁
㓞
㔾
㕛
㕣
㖾
㘝
㚅
㚇
㚔
㚘
㝉
㝡
㝴
㝵
㞋
㞢
㞷
㠩
㠭
㠯
㡀
㡭
㡿
㢲
㢴
㣇
㣺
㥯
㪅
㫄
㫐
㫒
㫺
㬅
㬎
㬥
㬰
㲋
㳄
㷠
㸒
㸚
㸦
㼌
㼲
㽞
㿟
䀠
䂞
䍃
䏍
䒑
䖍
䖒
䖝
䖵
䙴
䚻
䜌
䝿
䡛
䧹
䪞
一
丁
丂
七
丄
丅
丆
万
丈
三
上
下
丌
不
与
丏
丐
丑
专
且
丕
世
丘
丙
业
东
丞
丢
丣
两
严
並
丨
丩
个
丫
丬
中
丮
丰
丱
串
丵
丶
丷
丸
丹
为
主
丽
丿
乀
乂
乃
久
乆
乇
么
义
之
乌
乍
乎
乏
乐
乑
乔
乖
乗
乘
乙
乚
乛
乜
九
乞
也
习
乡
书
乳
乾
亀
亅
了
亇
予
争
事
二
亍
于
亏
亐
云
互
亓
五
井
亘
亚
亜
亞
亟
亠
亡
亢
交
亥
亦
产
亨
亩
享
京
亭
亮
亯
亰
亲
亳
亶
亷
人
亻
亼
亾
仁
今
介
仌
从
仐
仑
仒
仓
仕
他
付
仝
代
令
以
仮
任
企
伊
伏
伐
休
会
伯
但
位
体
何
佘
余
作
佥
使
來
侈
侌
侖
侯
侵
便
保
俞
信
修
倉
倍
候
倠
備
僉
像
僕
儿
兀
允
兂
元
兄
充
兆
兇
先
光
兊
克
兌
免
兑
兒
兓
兔
党
兜
兟
入
全
兩
兪
八
公
六
兮
兰
共
关
兵
其
具
典
兹
兼
冀
冂
冃
冄
内
冈
冉
冊
冋
册
再
冎
冏
冐
冒
冓
冖
冗
冘
军
农
冝
冡
冥
冫
冬
冷
几
凡
凢
凵
凶
凷
凸
凹
出
函
凾
刀
刁
刂
刃
刄
刅
分
切
刍
刑
刕
刖
列
刘
则
初
別
利
别
到
制
刺
則
削
剌
前
剡
剽
劉
力
功
加
劦
助
劫
劳
劵
勃
勇
勉
勒
動
務
勞
勤
勹
勺
勻
勾
勿
匀
匂
包
匆
匈
匊
匋
匍
匕
化
北
匚
匝
匡
匪
匱
匸
匹
区
医
匽
匿
區
十
卂
千
卄
卅
卆
升
午
卉
半
卌
华
卑
卒
卓
单
卖
南
博
卜
卝
卞
占
卡
卢
卣
卤
卦
卩
卪
卬
卯
印
危
即
却
卵
卷
卸
卻
厂
厃
厄
历
厈
厉
厌
厓
厘
厚
原
厤
厥
厨
厭
厲
厶
厷
厸
去
厼
厽
县
叀
参
參
叅
又
叉
及
友
双
反
叐
发
叒
叔
叕
取
受
叚
叜
叟
口
古
句
另
叩
只
召
可
台
叱
史
右
叵
号
司
叹
吂
各
吅
合
吉
吊
吋
同
名
后
吏
向
吕
君
吝
吞
否
含
启
吳
吴
吹
吾
呂
呆
呈
告
员
呙
周
命
咅
和
咎
咠
咢
咨
咸
咼
哀
品
哉
員
哥
哲
唐
商
啇
問
啚
啬
啻
善
喜
喬
單
喿
嗇
噩
嚴
囊
囗
囘
囙
囚
四
回
囟
因
団
囧
囬
困
囱
囷
固
国
圂
圅
國
圍
圓
土
圡
圣
圥
在
圭
地
圶
圼
坐
坒
坚
坴
垂
垔
垚
埀
埋
城
埶
執
基
堂
堅
堆
堇
堯
塞
墨
壘
士
壬
壯
声
壳
壴
壹
壺
壽
夂
处
夅
夆
备
夊
夋
夌
复
夏
夒
夕
外
夗
夘
多
夜
夢
大
夨
天
太
夫
夬
夭
央
失
夲
头
夷
夸
夹
夻
夾
奂
奄
奇
奈
奉
奎
奏
奐
契
奓
奔
奚
奞
奠
奢
奥
奭
女
奴
奻
好
如
妄
妙
妟
妥
妻
妾
始
姑
委
姜
威
娄
婁
婴
嬰
嬴
子
孑
孔
孕
孖
字
存
孚
孛
孝
孟
季
孤
学
孫
孱
學
宀
宁
宂
它
宅
宇
守
安
宋
完
宏
宓
宗
官
定
宛
宜
宝
客
宣
室
宮
宰
害
家
容
宾
宿
寄
寅
密
富
寒
察
寧
審
寫
寬
寮
寸
对
寺
寻
寽
対
寿
封
尃
射
将
將
專
尉
尊
尋
尌
對
小
少
尒
尓
尔
尖
尗
尚
尞
尢
尣
尤
尧
尨
尭
就
尸
尹
尺
尻
尼
尽
尾
尿
局
居
屈
屋
屎
屏
屑
展
屖
屚
属
屠
屡
屬
屮
屯
屰
山
屵
屾
岁
岂
岑
岡
岩
岳
岸
峯
島
崇
崑
崔
崖
崙
崩
嵬
嶲
巂
巛
川
州
巟
巠
巢
巤
工
左
巧
巨
巩
巫
差
己
已
巳
巴
巷
巸
巽
巾
巿
帀
市
布
希
帚
帛
帝
带
師
席
帶
常
干
平
年
幵
并
幷
幸
幺
幻
幼
幽
幾
广
広
庄
床
底
店
庚
府
度
庫
庭
庶
康
庸
廉
廌
廛
廣
廩
廴
延
廷
建
廾
廿
开
弁
弃
弄
弇
弋
式
弓
弔
引
弗
弘
弜
弟
弥
弦
弱
張
強
强
彊
彌
彎
彐
彑
当
彔
录
彖
彗
彡
形
彥
彦
彧
彭
彳
役
彼
往
待
律
徒
得
徙
從
復
微
徵
心
忄
必
忌
忍
志
忝
忠
忩
快
念
忽
忿
思
怠
急
怱
恆
恒
恩
恭
息
悉
患
悤
悲
悶
情
惠
惡
惢
愁
愈
意
愛
感
慈
慧
慮
憂
憲
應
戀
戈
戉
戊
戋
戌
戍
戎
成
我
戒
戔
或
戚
戠
戢
截
戲
戶
户
戸
戹
戼
戾
房
所
扁
扇
手
扌
才
打
托
执
承
折
拉
拜
拿
掌
推
提
摩
支
攴
攵
收
攸
改
放
政
敄
敏
救
敕
敖
敗
教
敝
敞
敢
散
敦
敫
敬
数
敷
數
斂
文
斉
斊
斗
斤
斥
斩
斬
斯
新
方
於
施
斿
旁
旋
族
无
旡
既
旣
日
旦
旧
旨
早
旬
旱
旲
时
旾
昆
昇
昌
昍
明
昏
易
昔
昗
昜
星
春
昬
是
昱
昴
昷
時
晃
晋
晏
普
景
晶
智
暑
暴
曇
曩
曰
曲
曳
更
曷
書
曹
曼
曾
替
最
朁
會
月
有
朋
服
朔
朕
朗
望
朝
木
朩
未
末
本
札
朮
术
朱
朵
朶
朿
杀
杏
杜
束
条
来
東
杲
杳
松
析
林
枚
果
枝
枲
枼
某
柔
查
柬
柰
柴
栗
校
格
桀
桑
桼
梁
條
梟
梨
棘
棠
棥
森
楚
業
楽
榮
構
樂
樊
機
欠
次
欣
欮
欲
欶
欽
款
歆
歇
歛
止
正
此
步
武
歨
歪
歮
歯
歰
歲
歴
歷
歸
歹
歺
死
殳
段
殷
殸
殹
殺
殻
殿
毋
毌
母
每
毒
比
毕
毚
毛
毳
氏
氐
民
气
氣
水
氵
氶
氷
永
氺
氾
求
汉
汝
汞
江
沃
沓
沙
沝
泉
法
波
泣
泥
泰
洛
洪
活
派
流
浦
浪
浮
海
淡
淮
清
渚
渠
湖
湯
滿
漢
漸
潮
火
灬
灭
灰
灵
灷
炅
炎
炏
炗
炙
炭
為
烈
烏
烝
焉
無
焦
焱
然
煞
熊
熏
燕
營
燮
爪
爫
爭
爯
爰
爱
爲
爵
父
爻
爽
爾
爿
片
牙
牚
牛
牜
牟
牢
牧
牪
牽
犀
犬
犭
犮
狂
狄
狊
独
狺
猋
猒
猪
献
獻
玄
率
玉
王
玟
玨
现
珎
班
現
理
琴
瑟
瑩
瓜
瓦
甘
甚
生
産
用
甫
甬
田
由
甲
申
电
甶
男
甸
甹
画
甾
畀
界
畏
畐
留
畜
畟
畢
畧
畨
番
畫
異
畱
當
畺
畾
疊
疋
疌
疑
疒
疾
病
癶
癸
癹
登
發
白
百
皀
皃
的
皆
皇
皋
皐
皕
皮
皷
皿
盃
盆
盇
盈
益
盍
盎
监
盒
盖
盛
盡
監
盤
盧
目
直
相
盾
省
眇
眉
看
眔
眞
真
眷
眼
眾
着
睘
睪
睿
瞏
瞢
瞿
矍
矛
矞
矢
矣
知
矦
短
石
破
碎
磊
磨
示
礻
礼
祖
神
祟
票
祭
禀
禁
福
禸
禹
禺
离
禽
禾
禿
秀
秃
秉
秋
科
秒
秝
秦
移
稟
穀
穌
穴
究
穹
空
穿
突
窄
窒
立
竒
竜
竝
竟
章
童
竹
笑
笠
筆
等
答
箕
算
箴
節
篤
篭
簡
米
粉
粛
粟
粤
粦
粲
糞
糸
糹
系
紀
約
納
素
索
紫
累
細
絜
絫
絲
維
綿
緒
縣
繇
纍
纟
缶
网
罒
罔
罕
罗
罙
罡
罢
罪
署
罷
羅
羊
羌
羍
美
羔
羕
羗
羞
羡
羣
群
義
羲
羸
羽
翁
翏
習
翕
翟
翠
翼
老
耂
考
者
耆
而
耎
耑
耒
耳
耴
耶
耷
聂
聊
聖
聚
聶
聿
肀
肃
肅
肉
肖
肙
肥
肩
肯
育
肴
胃
背
胡
胥
能
脊
脩
膚
臣
臤
臧
自
臬
臭
臯
臱
至
致
臺
臼
臽
臾
臿
舀
舂
舄
與
興
舉
舌
舍
舛
舜
舞
舟
般
艮
良
色
艸
艹
艾
芒
芔
芬
芮
花
芳
芺
芻
苔
苗
苟
若
苦
英
茶
茸
荅
草
荒
荣
荼
莆
莧
莫
莽
菆
菊
菐
華
萬
落
葉
著
葛
董
葵
蒙
蒦
蒼
蓋
蓬
蓺
蔑
蔡
蕉
蕭
薄
薛
薦
薰
藍
藏
藥
蘭
虍
虎
虐
虒
虔
處
虖
虗
虘
虚
虛
虜
虞
虫
虽
蚤
蚩
蜀
蜜
蟲
蠡
血
行
衍
衛
衣
衤
表
衮
衰
袁
袞
褭
褱
襄
襾
西
覀
要
覃
見
規
覓
覧
親
覽
见
角
解
言
訁
訇
計
訓
詹
語
誩
諸
讠
语
谷
豆
豈
豊
豐
豕
豖
豙
象
豦
豩
豪
豸
貇
貝
貞
貟
負
貢
貧
貪
貫
責
貳
貴
買
費
賁
資
賈
賏
賓
賔
賛
賞
賢
賣
質
賴
贊
贝
贡
责
贯
贲
贵
赖
赞
赤
赦
走
越
足
路
蹇
身
躬
車
軍
軎
軟
輦
车
辛
辜
辟
辥
辰
辱
農
辵
辶
边
达
过
近
连
迷
追
退
送
逆
逐
通
速
造
逢
連
逮
進
遀
遂
運
過
道
達
遣
適
遷
遺
邊
邑
邕
那
邦
邪
郎
部
郭
都
鄉
酉
酋
配
酓
釆
采
里
重
野
量
金
釒
錢
钅
長
镸
长
門
閃
閉
開
閏
閑
閒
間
閔
閵
閻
闌
门
间
闷
阑
阜
阝
阳
阿
降
限
陳
隆
隊
隋
隡
隨
隱
隶
隷
隹
隺
隻
隼
隽
难
雀
雁
集
雈
雋
雍
雐
雔
雙
雚
雜
雝
離
難
雨
雩
雪
雲
零
雷
需
霍
霜
霝
霞
霸
靈
靑
青
非
靡
面
靣
革
韋
韦
韭
韯
韱
音
頁
頂
頃
項
須
頗
頡
頻
顛
页
風
风
飛
飞
食
飠
養
饣
首
香
馬
馮
駦
马
骨
高
髟
鬥
鬯
鬲
鬼
魚
魯
鮮
鱼
鲁
鳥
鳳
鸟
鹵
鹿
麃
麗
麥
麦
麻
黃
黄
黍
黎
黑
黒
黨
黹
黽
黾
鼎
鼓
鼠
鼻
齊
齋
齐
齒
齿
龍
龙
龜
龟
龠
龰
龱
龴
龵
龶
龷
龸
龹
者
艹
﻿
（
？
𠀁
𠀃
𠀆
𠀉
𠀎
𠀐
𠁁
𠁣
𠂆
𠂇
𠂈
𠂉
𠂊
𠂋
𠂎
𠂒
𠂔
𠂛
𠂡
𠂢
𠂤
𠂬
𠂭
𠂹
𠃊
𠃋
𠃌
𠃍
𠃎
𠃑
𠃓
𠃔
𠃜
𠄌
𠄎
𠄠
𠄢
𠆢
𠆥
𠇍
𠈌
𠌵
𠓜
𠔉
𠔥
𠔼
𠔽
𠔿
𠕀
𠕁
𠕋
𠘧
𠘨
𠙻
𠙼
𠚏
𠚒
𠚤
𠚪
𠣏
𠤎
𠤕
𠥓
𠦄
𠦑
𠦝
𠧒
𠧗
𠧪
𠩺
𠪚
𠫓
𠫔
𠫤
𠬛
𠬝
𠬞
𠬢
𠬤
𠬶
𠮛
𠮦
𠮷
𠯑
𠱠
𠳮
𠷎
𡈼
𡉀
𡉵
𡌥
𡍮
𡏳
𡕒
𡕩
𡕰
𡖅
𡗗
𡗜
𡘆
𡘤
𡧱
𡨄
𡩧
𡬠
𡭽
𡰣
𡰥
𡰪
𡰯
𡰱
𡷈
𡸁
𡿨
𡿩
𡿪
𡿺
𢀖
𢀛
𢀩
𢁙
𢆉
𢆰
𢆶
𢇁
𢇇
𢉖
𢌬
𢌿
𢏚
𢑑
𢑚
𢖻
𢙣
𢛳
𢦏
𢦒
𢧵
𢼄
𢾕
𣁋
𣄼
𣅀
𣅽
𣍘
𣎳
𣎵
𣏋
𣏼
𣗥
𣥂
𣥖
𣦵
𣦼
𣧄
𣪊
𣪠
𣬉
𣳾
𣶒
𤇾
𤊽
𤐫
𤓰
𤔔
𤕨
𤣩
𤰇
𤰔
𤰞
𤴓
𤴔
𤽄
𥁑
𥁕
𥃦
𥃩
𥃭
𥇡
𥑟
𥘅
𥘈
𥝢
𥫗
𥱡
𦈢
𦉪
𦉬
𦉼
𦍌
𦍒
𦎧
𦐇
𦓔
𦔮
𦘒
𦙃
𦚏
𦣝
𦣞
𦣻
𦥑
𦥔
𦥯
𦨉
𦭝
𦰩
𧆞
𧈧
𧘇
𧰨
𧴪
𧴮
𧵩
𧾷
𨸏
𨾴
𩙿
𩠐
𩫏
𩵋
𪉷
𪜀
𪟽
𪠲
𪩲
𫇦
𫔭
𫜸
𫝀
𫠣
𫠩
𫢉
𫥞
𫩏
𫩠
𫪡
𫲽
𫶧
𬀷
𬐘
𬗌
𬙙
𬛸
𬜯
𬟩
𬯁
𬴘
𬺻
𬼉
𬼖
𭀰
𭁈
𭁨
𭅰
𭑈
𭕄
𭗼
𭤨
𭥫
𭻾
𮅕
𮊿
𮍌
𮍏
𮓗
𮥼
𮧮
廾
𰀁
𰀄
𰀈
𰀉
𰀕
𰀠
𰀡
𰀢
𰀪
𰁜
𰃮
𰆊
𰆘
𰋙
𰕎
𰢴
𰧭
𰯲
00--
000--
001--
005--
01--
02--
03--
035--
04--
045--
05--
06--
065--
07--
08--
085--
09--
095--
100--
101--
102--
103--
104--
105--
106--
107--
108--
109--
110--
111--
112--
113--
114--
115--
116--
117--
118--
119--
120--
121--
122--
123--
124--
125--
126--
127--
128--
129--
130--
131--
132--
133--
134--
135--
136--
137--
138--
139--
140--
141--
142--
143--
144--
145--
146--
147--
148--
149--
155--
157--
159--
162--
163--
165--
166--
170--
172--
202--
203--
204--
205--
206--
207--
208--
209--
210--
211--
212--
213--
214--
215--
216--
217--
218--
219--
220--
221--
222--
223--
224--
225--
226--
227--
228--
229--
230--
231--
232--
233--
234--
235--
236--
237--
238--
239--
240--
241--
242--
243--
244--
245--
246--
247--
248--
249--
250--
251--
252--
253--
254--
255--
256--
257--
258--
259--
260--
261--
262--
263--
264--
265--
266--
267--
268--
269--
270--
271--
272--
273--
274--
275--
276--
277--
278--
279--
280--
281--
282--
283--
284--
285--
286--
288--
289--
290--
291--
293--
294--
295--
296--
297--
298--
299--
300--
301--
304--
305--
306--
308--
309--
310--
311--
312--
313--
314--
315--
316--
317--
319--
320--
321--
322--
323--
324--
325--
326--
328--
329--
330--
331--
333--
334--
336--
337--
339--
340--
341--
342--
343--
344--
345--
346--
348--
349--
350--
351--
353--
355--
356--
357--
358--
359--
360--
361--
363--
364--
365--
366--
367--
368--
369--
370--
371--
373--
375--
376--
378--
379--
380--
381--
382--
383--
384--
385--
387--
388--
389--
390--
391--
393--
394--
395--
396--
397--
398--
399--
400--
401--
403--
405--
406--
408--
410--
411--
414--
415--
416--
417--
418--
419--
420--
421--
422--
423--
424--
425--
426--
430--
431--
432--
433--
434--
435--
436--
439--
440--
441--
442--
443--
444--
445--
446--
447--
448--
449--
450--
451--
454--
455--
456--
458--
459--
460--
461--
463--
464--
465--
466--
468--
469--
470--
471--
472--
473--
474--
475--
476--
478--
479--
480--
481--
482--
483--
484--
485--
486--
488--
489--
490--
491--
494--
496--
497--
498--
499--
500--
504--
505--
506--
507--
508--
509--
510--
512--
513--
514--
515--
516--
517--
518--
519--
520--
521--
522--
523--
524--
525--
526--
527--
529--
530--
531--
533--
534--
535--
536--
538--
539--
540--
541--
543--
544--
545--
546--
547--
548--
549--
550--
551--
553--
554--
555--
556--
558--
559--
560--
561--
562--
563--
564--
565--
566--
568--
569--
57--
570--
571--
572--
573--
574--
575--
576--
577--
578--
580--
581--
583--
584--
585--
586--
590--
591--
592--
593--
594--
595--
596--
598--
599--
60--
600--
601--
603--
604--
605--
606--
607--
609--
610--
611--
613--
614--
615--
616--
617--
618--
619--
62--
620--
621--
623--
625--
626--
627--
628--
629--
630--
631--
633--
634--
635--
636--
637--
638--
639--
640--
641--
642--
643--
644--
645--
646--
647--
648--
649--
65--
650--
651--
652--
655--
656--
657--
658--
66--
660--
661--
663--
664--
665--
666--
669--
67--
670--
671--
674--
675--
676--
68--
680--
681--
684--
685--
686--
688--
689--
69--
690--
691--
693--
695--
698--
699--
70--
700--
701--
704--
705--
708--
709--
71--
710--
711--
712--
713--
714--
715--
716--
719--
72--
720--
721--
724--
725--
727--
728--
73--
730--
733--
734--
735--
736--
74--
740--
741--
742--
743--
745--
747--
748--
75--
750--
751--
753--
754--
755--
757--
76--
760--
762--
764--
765--
767--
77--
770--
771--
774--
775--
776--
78--
780--
781--
783--
785--
786--
787--
79--
791--
794--
795--
80--
800--
803--
804--
805--
806--
809--
81--
810--
813--
814--
815--
817--
82--
820--
821--
822--
825--
826--
83--
830--
831--
833--
834--
835--
839--
84--
840--
844--
845--
846--
85--
850--
855--
856--
86--
860--
861--
865--
868--
869--
87--
870--
874--
875--
88--
880--
885--
886--
89--
891--
895--
90--
900--
903--
905--
906--
909--
91--
915--
918--
92--
920--
924--
93--
930--
931--
933--
935--
936--
94--
940--
95--
955--
959--
96--
960--
965--
969--
97--
970--
975--
978--
98--
980--
983--
985--
99--
995--
999--
a--
aa--
ab--
aba--
abder--
abi--
ac--
acc--
acti--
ad--
ada--
ade--
adi--
adminis--
ado--
advan--
af--
afa--
afo--
aft--
ag--
agos--
agu--
ah--
ai--
air--
ak--
akade--
aki--
ako--
al--
ala--
alc--
ale--
alex--
ali--
all--
alo--
alt--
alu--
am--
ama--
amb--
ambala--
amban--
ambato--
ambo--
amboa--
ambodi--
ambohi--
ambro--
ame--
ami--
amo--
ampa--
ampaha--
ampi--
ampia--
ampifan--
ampitov--
ampo--
an--
ana--
and--
ande--
andra--
andrano--
andria--
andriama--
andriamb--
andrian--
andriantsimitoviamin--
andriatsimitoviamin--
ane--
ang--
anjerimanon--
anka--
ankadi--
ankasitra--
anki--
ankili--
ann--
anne--
ano--
anosi--
ans--
antai--
antana--
ante--
anthro--
anti--
antsi--
ao--
ap--
apet--
apo--
app--
applica--
ar--
ara--
arc--
arch--
are--
argen--
ari--
art--
arunac--
as--
asa--
ash--
asp--
asse--
at--
ata--
ate--
ath--
ato--
atso--
atten--
atti--
au--
aul--
aust--
auto--
av--
ava--
avara--
aver--
avo--
ax--
ay--
az--
azo--
b--
ba--
bab--
bac--
bad--
bag--
bah--
bai--
bak--
bal--
balth--
ban--
bar--
bara--
bas--
bat--
bate--
bau--
baut--
bay--
bazi--
be--
beau--
bec--
bee--
beh--
bel--
bell--
belle--
belze--
ben--
ber--
bet--
beth--
betsi--
beu--
bey--
bi--
bib--
biblio--
bie--
big--
bil--
bin--
bio--
biolo--
bir--
bla--
blo--
bloo--
blu--
bo--
boa--
boalo--
bod--
boh--
bois--
bol--
bom--
bon--
bor--
borg--
boriborin--
bos--
bou--
boul--
bour--
bous--
bout--
bow--
box--
bra--
brad--
bre--
bri--
bris--
bro--
brog--
broo--
brou--
bru--
bry--
bu--
buf--
bug--
buk--
bul--
bun--
bur--
burg--
burk--
bus--
by--
c--
ca--
cail--
cal--
cald--
cale--
camb--
can--
cap--
car--
cara--
carac--
carb--
carpen--
cart--
cas--
cassa--
cau--
caus--
caval--
cay--
ce--
cel--
cen--
cer--
ch--
cha--
chamb--
chan--
chap--
char--
chart--
chass--
chau--
che--
chev--
chi--
child--
cho--
chry--
ci--
cin--
cityof--
civi--
ck--
cla--
clau--
cle--
cli--
clo--
clu--
co--
coch--
cof--
cog--
col--
colo--
com--
con--
cono--
constitut--
coo--
cor--
corb--
cord--
corn--
cott--
cou--
coun--
cour--
cous--
cout--
cow--
cra--
cre--
cri--
cris--
cristo--
cro--
crom--
cru--
cs--
cu--
cul--
cumm--
cun--
cur--
cus--
cut--
cy--
d--
da--
dag--
daha--
dal--
damo--
dan--
dar--
dau--
daw--
day--
de--
dei--
del--
deme--
demi--
demo--
den--
dep--
der--
des--
dey--
di--
dia--
die--
dif--
dig--
dil--
dini--
dio--
direct--
dis--
disco--
divi--
dja--
do--
doal--
dob--
doc--
doctr--
docu--
dod--
doha--
dol--
dom--
don--
dor--
dou--
dour--
dow--
dr--
dra--
drafi--
draha--
dratsi--
dre--
dren--
drey--
dro--
dru--
du--
duc--
dun--
dur--
dy--
dz--
e--
eag--
east--
eat--
eb--
ecc--
eck--
ed--
ef--
efa--
eg--
egli--
eh--
ei--
ek--
ekino--
el--
ela--
ele--
elect--
elek--
eli--
elo--
emm--
emp--
en--
end--
eng--
engel--
eno--
envi--
eo--
ep--
epif--
epis--
er--
erit--
es--
esco--
espa--
est--
et--
ethno--
eti--
eto--
eu--
euro--
ev--
eva--
ever--
ewa--
ewi--
ex--
explo--
ey--
ez--
f--
fa--
fab--
fah--
faha--
fahamendre--
fahara--
fahavelo--
fahavoa--
fai--
fair--
fal--
fam--
faman--
famar--
famehe--
famela--
famelez--
famelo--
famirapi--
famo--
famongo--
fampa--
fampi--
fampio--
fampirafe--
fampo--
fan--
fana--
fanan--
fanda--
fande--
fando--
fandos--
fandr--
fandra--
fandraho--
fanet--
fanga--
fange--
fanja--
fanka--
fano--
fanond--
far--
fara--
fati--
fau--
fe--
feder--
fehi--
fel--
feli--
fen--
feno--
fer--
fest--
feu--
ff--
fi--
fia--
fiadi--
fian--
fianja--
fianto--
fiezah--
fifampikaso--
fifan--
fifanka--
fifi--
fihara--
fihetse--
fika--
fikor--
fil--
fila--
fin--
finan--
fio--
fion--
fipo--
fira--
firin--
firo--
firoboro--
fiso--
fita--
fitahiri--
fite--
fiti--
fito--
fitoron--
fitsao--
fitsi--
fitz--
fiva--
fivadi--
fivar--
fivelo--
fla--
flam--
flo--
fo--
fokon--
fol--
folo--
fon--
for--
foto--
fou--
four--
fow--
fr--
fran--
fre--
free--
fres--
fri--
fried--
fro--
fron--
fru--
fu--
fuji--
ful--
g--
ga--
gae--
gal--
gan--
gar--
gari--
garri--
gau--
gav--
ge--
gei--
gel--
gen--
geo--
ger--
gha--
ghi--
gho--
gi--
giam--
gian--
gib--
gil--
gis--
giu--
gla--
glen--
glo--
gno--
go--
god--
gol--
gold--
gon--
gond--
goo--
good--
gor--
gott--
gou--
gouverne--
gr--
gra--
gran--
grand--
gre--
green--
gri--
grif--
gro--
groen--
gru--
gu--
gua--
gue--
gui--
guil--
gun--
gur--
gy--
h--
ha--
had--
hadr--
hafa--
hag--
haha--
hai--
hal--
ham--
hama--
hamb--
hame--
hamm--
hamp--
hampah--
hampi--
hampif--
han--
hana--
hand--
handa--
hande--
handr--
handra--
handrin--
hano--
hanon--
hanore--
haor--
har--
hara--
has--
hateze--
hats--
hau--
haute--
haw--
hay--
hazo--
he--
hed--
hel--
hen--
hep--
her--
herak--
hermeneo--
heu--
hey--
hi--
hiak--
hiam--
hian--
hibe--
hifampi--
hifan--
higa--
high--
hiha--
hikara--
hil--
hila--
hin--
hio--
hira--
his--
hiso--
histo--
hita--
hivoa--
ho--
hob--
hod--
hof--
hofi--
hol--
hola--
hoo--
hor--
horo--
hospi--
hou--
houl--
hous--
hova--
hu--
hub--
hul--
humb--
hur--
hus--
hut--
hy--
i--
ia--
ian--
ib--
ic--
id--
idi--
ie--
if--
ifana--
ig--
ihe--
il--
ila--
im--
imerim--
in--
inc--
indi--
ing--
inuk--
io--
iou--
ipo--
ir--
ire--
ireo--
is--
isa--
isan--
iso--
it--
ita--
ito--
itovi--
its--
iu--
iv--
ivava--
ivo--
iz--
iza--
izany--
izy--
j--
ja--
jac--
jacque--
jaf--
jan--
jar--
jau--
je--
jen--
jer--
ji--
jo--
joa--
jol--
jon--
jos--
jou--
ju--
jul--
jø--
k--
ka--
kac--
kad--
kai--
kal--
kali--
kam--
kan--
kana--
kao--
kar--
kara--
kari--
kart--
kasa--
kasi--
kathar--
kathe--
ke--
kel--
ken--
ker--
kevi--
key--
kh--
kha--
kho--
khu--
ki--
kian--
kil--
kilahi--
kim--
kin--
kiri--
kis--
kla--
kle--
know--
ko--
koa--
koh--
kohl--
kol--
kolo--
kolot--
kon--
kons--
kor--
kos--
kou--
kra--
kre--
kri--
kris--
kro--
kru--
kry--
ksi--
ku--
kun--
ky--
l--
la--
lab--
lac--
laf--
lag--
laha--
lahi--
lai--
lak--
lake--
lali--
lalle--
lam--
lan--
lance--
lao--
lar--
las--
lau--
lava--
lavi--
law--
ld--
le--
lea--
lect--
leh--
lehi--
len--
les--
leu--
lev--
lexi--
ley--
li--
lib--
lichten--
lie--
lig--
lil--
lin--
lind--
lis--
litu--
llo--
lo--
loha--
loi--
long--
lor--
lot--
lou--
lova--
lu--
luc--
lud--
ly--
m--
ma--
mac--
mad--
made--
mag--
mah--
maha--
mai--
mail--
maj--
mak--
mal--
mamo--
mamp--
mampah--
mampi--
mampif--
man--
mana--
manam--
manan--
mangi--
mano--
manon--
mao--
map--
mar--
mare--
mari--
maro--
mas--
mat--
mau--
maur--
may--
maz--
mb--
mc--
mcc--
mcd--
mcin--
mck--
mckin--
me--
med--
meh--
mel--
men--
mena--
mer--
mes--
meso--
metho--
meto--
meu--
mey--
mi--
mia--
mian--
miand--
mic--
micro--
mid--
midi--
mie--
mifam--
mifampi--
mifan--
mifanka--
mig--
miha--
mik--
mika--
miko--
mil--
mile--
min--
minis--
mio--
mira--
mire--
mis--
misam--
misand--
mit--
mita--
mitatao--
mito--
miton--
mitsi--
miz--
mo--
moa--
moc--
moh--
moi--
mol--
mon--
mono--
mont--
monu--
mor--
mora--
mos--
moss--
mou--
mour--
mous--
mout--
moy--
mp--
mpah--
mpam--
mpama--
mpampi--
mpan--
mpi--
mpia--
mpian--
mpif--
mpifan--
mpio--
mpiso--
mpit--
mpita--
mpiv--
mu--
mul--
mun--
mur--
muss--
my--
n--
na--
nafa--
naga--
naha--
nahi--
nai--
nal--
namb--
namo--
namoa--
namp--
nampah--
nampi--
nampiaka--
nampif--
nampone--
nan--
nana--
nanam--
nandr--
nanes--
nanka--
nanki--
nano--
nanoh--
nanon--
nao--
nar--
nara--
nas--
nat--
nato--
nau--
nava--
naza--
nazi--
nc--
nd--
nde--
ne--
ner--
nes--
neu--
new--
ng--
nga--
ngo--
ngu--
ni--
nia--
nian--
niand--
nibe--
nic--
nie--
nifam--
nifampi--
nifan--
nifanka--
nifi--
nig--
niha--
nihan--
nihana--
nik--
nika--
niki--
nin--
nio--
nis--
nisa--
nises--
nita--
nitain--
nito--
nivoa--
no--
noa--
nobu--
nodi--
nodo--
nofi--
noga--
noha--
noho--
noka--
nom--
non--
nopo--
nor--
noro--
nos--
nosafi--
nosambo--
nosoka--
not--
noteno--
notez--
noton--
nou--
nova--
nove--
novo--
ns--
nti--
nu--
nupe--
ny--
o--
oak--
oat--
ob--
octo--
ode--
of--
og--
oga--
oh--
ok--
oka--
ol--
omb--
on--
ondr--
one--
opt--
or--
ora--
oram--
ore--
ori--
os--
ose--
ostre--
ott--
ou--
oul--
out--
over--
oy--
oz--
p--
pa--
pad--
pag--
paha--
pail--
pal--
pamin--
pan--
pana--
panamba--
panand--
pandr--
pano--
panoh--
par--
para--
pas--
pasqu--
pat--
pau--
pav--
paw--
pay--
pe--
pel--
pela--
pen--
pente--
per--
pet--
petra--
petro--
pey--
ph--
phar--
pho--
photo--
phy--
physi--
pi--
pia--
piand--
pic--
pier--
pig--
pika--
pil--
pin--
pio--
pir--
pira--
pla--
ple--
plo--
plu--
pluto--
po--
pod--
poi--
pol--
poly--
pomm--
pon--
popu--
por--
port--
pou--
poul--
pous--
poz--
pr--
prac--
pras--
pre--
pri--
prim--
prin--
pro--
protes--
provi--
pru--
ps--
psy--
pu--
pub--
pul--
puy--
py--
q--
qa--
qing--
qu--
que--
quel--
quest--
qui--
quin--
r--
ra--
rab--
rabe--
rad--
raf--
rag--
rah--
raha--
rai--
raim--
rain--
rakoto--
ram--
rama--
ran--
randr--
randria--
randrian--
ras--
ratcha--
ratsi--
rau--
ray--
razafi--
razakatsi--
rd--
re--
rea--
red--
reg--
rela--
ren--
reni--
res--
ret--
reu--
rev--
rever--
rey--
rg--
rhe--
rho--
ri--
ria--
rich--
rid--
rie--
rig--
ril--
rin--
ris--
rit--
rk--
rn--
ro--
roa--
rob--
rock--
rod--
roh--
roi--
rol--
rom--
ron--
rose--
rou--
rous--
rouv--
row--
roy--
rs--
rt--
ru--
rub--
ruf--
rug--
rush--
ry--
s--
sa--
sab--
sabo--
sac--
sacc--
sad--
safi--
saha--
sai--
sak--
saka--
sal--
sam--
sama--
san--
saos--
sar--
satu--
sau--
saul--
saus--
saw--
sc--
sch--
sche--
schi--
schu--
sci--
sco--
scor--
se--
sea--
seb--
sec--
see--
seg--
sei--
sel--
sen--
ser--
seu--
sey--
sh--
sha--
shan--
she--
shi--
sho--
shu--
si--
sia--
sie--
sig--
sik--
sil--
sila--
silber--
silves--
sin--
sis--
sisin--
siva--
six--
sk--
sl--
slo--
sm--
smy--
so--
soa--
sol--
son--
sora--
sou--
sp--
spe--
spi--
spo--
ss--
st--
sta--
ste--
sto--
stock--
stra--
strate--
stre--
stu--
sty--
su--
sub--
sui--
sun--
sur--
sus--
sv--
swa--
swe--
swi--
swin--
sy--
syl--
symb--
syn--
sz--
sø--
t--
ta--
tab--
tafa--
tahi--
tai--
taka--
take--
tal--
tam--
tamba--
tan--
tao--
tapa--
tat--
tau--
te--
teac--
tech--
teg--
teh--
tel--
tele--
telo--
temp--
ten--
teo--
ter--
tes--
teti--
th--
thau--
the--
thi--
thio--
tho--
thor--
thu--
thur--
ti--
tig--
tis--
to--
toe--
toha--
toku--
tol--
tom--
ton--
tong--
tor--
toro--
toto--
tou--
tour--
tr--
tra--
trand--
trans--
tre--
tri--
trim--
trin--
tro--
tru--
ts--
tsak--
tsara--
tsaro--
tsi--
tsia--
tsind--
tso--
tt--
tu--
tul--
tur--
twi--
ty--
tz--
u--
uga--
uh--
uk--
ul--
un--
under--
uni--
up--
ur--
us--
ut--
v--
va--
val--
valo--
van--
vao--
var--
vato--
vau--
vaut--
vava--
ve--
vel--
vele--
ven--
ver--
ves--
vey--
vi--
via--
vic--
vie--
vien--
vig--
vigno--
vil--
ville--
vin--
vina--
vir--
vitt--
vla--
vo--
voa--
voafi--
voan--
voata--
vohi--
vol--
vola--
volo--
von--
voron--
vou--
vsev--
vu--
vulga--
w--
wa--
wal--
wald--
wan--
war--
water--
we--
wei--
wein--
wel--
wen--
west--
whe--
whi--
whit--
wi--
wid--
wie--
wiki--
wil--
win--
witt--
wo--
wol--
wood--
wri--
wu--
wy--
x--
xi--
xu--
xx--
y--
ya--
yan--
yasu--
ye--
yev--
yo--
yoshi--
yu--
z--
za--
zacha--
zafi--
zai--
zal--
zan--
zana--
zara--
zava--
ze--
zi--
zimmer--
zla--
zo--
zor--
zoro--
zou--
zu--
zwi--
đ--
α--
β--
γ--
δ--
δι--
ε--
επισ--
ζ--
θ--
ι--
κ--
κα--
λ--
μ--
με--
ν--
νε--
ο--
π--
πα--
ρ--
ρι--
σ--
σι--
τ--
φ--
χ--
χρισ--
ω--
א--
ב--
י--
ע--
ש--
ת--
ا--
ب--
ش--
م--
و--
ي--
ٱل--
--0
--00
--01
--02
--029
--03
--04
--05
--06
--07
--08
--09
--1
--10
--11
--111
--1111
--111111
--12
--13
--14
--15
--16
--17
--18
--19
--2
--20
--21
--22
--222
--2222
--222222
--23
--24
--25
--26
--27
--28
--29
--3
--30
--31
--32
--33
--333
--3333
--333333
--34
--35
--36
--37
--38
--39
--4
--40
--41
--42
--43
--44
--444
--4444
--444444
--45
--46
--47
--48
--49
--5
--50
--51
--52
--53
--54
--55
--555556
--5556
--556
--56
--57
--58
--59
--6
--60
--61
--62
--63
--64
--65
--66
--666667
--6667
--667
--67
--68
--69
--7
--70
--71
--72
--73
--74
--75
--76
--77
--7777778
--777778
--77778
--7778
--778
--78
--79
--8
--80
--81
--82
--83
--84
--85
--86
--87
--88
--8888889
--888889
--88889
--8889
--889
--89
--9
--90
--91
--92
--93
--94
--95
--96
--97
--98
--99
--a
--ab
--abad
--ac
--aca
--ace
--ach
--ad
--ada
--ade
--adina
--ae
--ael
--aert
--af
--afana
--aga
--age
--agnac
--ah
--aha
--ahan
--ahana
--ahatra
--ai
--aigne
--ail
--ain
--ais
--aivo
--ak
--aka
--aki
--ako
--aky
--al
--ala
--ald
--ale
--aly
--am
--amy
--an
--ana
--anan
--and
--ane
--ani
--anitra
--ano
--ans
--ant
--any
--ao
--apa
--ar
--ara
--ard
--ardo
--are
--areo
--ari
--aria
--arin
--arivo
--ark
--aro
--ars
--art
--ary
--as
--ashi
--asina
--at
--ate
--ati
--ation
--atra
--atti
--aty
--au
--aud
--auld
--ault
--aus
--aut
--aux
--avan
--avana
--ay
--az
--b
--ba
--bad
--baka
--bana
--baud
--bault
--baum
--bb
--bbs
--be
--beau
--ben
--berg
--bes
--beuf
--bi
--ble
--bm
--bo
--bola
--boninahitry
--bot
--bour
--brook
--bs
--bu
--burg
--burn
--bury
--by
--c
--ca
--cal
--cat
--ce
--ceae
--ceau
--cel
--cent
--cer
--ces
--cey
--ch
--che
--chi
--cht
--chy
--ci
--cin
--city
--ck
--cki
--cle
--co
--cock
--cors
--cq
--croft
--cs
--ct
--cu
--cule
--cus
--cy
--d
--da
--dah
--dain
--dal
--dale
--dall
--dam
--dan
--dat
--dava
--dd
--de
--defa
--dehibe
--des
--det
--dge
--dh
--di
--dia
--din
--ding
--dio
--do
--doa
--dohan
--don
--dona
--dor
--dorf
--doro
--dou
--doux
--dr
--dra
--drana
--dratra
--drazaka
--dre
--drefana
--dren
--drena
--driana
--drify
--drika
--drin
--drina
--dro
--drona
--droso
--drosoana
--drova
--dry
--ds
--dt
--du
--dy
--dze
--e
--ea
--eae
--eau
--ec
--eck
--ect
--ed
--eda
--ee
--ef
--eff
--efo
--eg
--eh
--eha
--eho
--ei
--eil
--ein
--eiro
--ek
--eka
--el
--ela
--ele
--ell
--ella
--elli
--ello
--elm
--els
--em
--ema
--emy
--en
--ena
--enan
--enburg
--ence
--enika
--enne
--eno
--enona
--ens
--ense
--ent
--ento
--eo
--er
--era
--erahan
--erahany
--ere
--erg
--eri
--erie
--erin
--ero
--erre
--ers
--ert
--es
--esa
--escu
--ese
--esia
--ess
--esy
--et
--eta
--ete
--etra
--ets
--etsika
--ett
--etta
--ette
--etti
--eu
--eul
--eur
--eus
--euse
--eux
--ev
--eville
--evo
--ew
--ey
--ez
--eza
--ezana
--ezia
--f
--fa
--fatra
--fay
--fe
--fehy
--feld
--ff
--ffe
--ffen
--fi
--fiana
--fic
--field
--fina
--fitra
--fo
--fort
--four
--foy
--ft
--fy
--g
--ga
--gado
--gain
--gam
--gan
--gana
--gany
--gar
--gas
--gataka
--gate
--ge
--geja
--gel
--gen
--ger
--ges
--get
--gg
--ggio
--ggs
--gh
--ghem
--ghi
--ght
--gi
--gie
--gin
--ging
--gio
--gkok
--gler
--gna
--gnac
--gne
--gni
--gnol
--gny
--go
--gon
--gona
--gony
--gory
--gozohozo
--gres
--gs
--gt
--gton
--gu
--gua
--gue
--gues
--gy
--gzhou
--h
--ha
--haba
--hac
--hako
--ham
--han
--hana
--hangy
--hany
--hat
--hatra
--he
--head
--hed
--heim
--hel
--hem
--her
--hes
--het
--hi
--hia
--hiana
--hibe
--hid
--hidy
--hie
--hien
--hier
--hieu
--hiko
--him
--hin
--hiny
--hip
--hitra
--hl
--hm
--hn
--ho
--hoff
--hoka
--hon
--hona
--hou
--hr
--http
--hu
--hy
--i
--ia
--iac
--ial
--ialy
--iam
--ian
--iana
--ianina
--iano
--ias
--iat
--iata
--ib
--ibe
--ic
--ica
--ice
--ich
--ick
--ico
--icum
--id
--ida
--ide
--ides
--idy
--ie
--ied
--iel
--ien
--ienne
--ier
--iers
--ies
--iet
--ieu
--ieux
--if
--ig
--igny
--ih
--ihan
--ihy
--ii
--ik
--ika
--ikh
--iko
--iky
--il
--ilala
--ile
--ilika
--ill
--illa
--ille
--illes
--illo
--illon
--illy
--ily
--im
--ima
--imer
--imo
--in
--ina
--inana
--ine
--ines
--ing
--inga
--ingan
--ingo
--ings
--ington
--ini
--inic
--inie
--ino
--ins
--inson
--iny
--io
--ion
--ions
--ios
--iosy
--iot
--ip
--ipy
--ique
--ir
--ira
--ire
--iro
--iry
--is
--isa
--ise
--ish
--islav
--ism
--isma
--isme
--ista
--iste
--isy
--it
--ita
--ite
--ith
--itr
--itra
--itry
--itt
--ity
--itz
--iu
--ium
--ius
--ive
--ivezy
--ivo
--ix
--iz
--iza
--izana
--ize
--izina
--j
--ja
--jaka
--je
--jean
--jena
--ji
--jo
--jy
--k
--ka
--kafo
--kafy
--kao
--kar
--kasika
--katra
--katy
--ke
--kel
--kely
--ker
--ketsika
--key
--kh
--kha
--ki
--kiana
--kin
--kina
--ko
--kona
--kou
--kov
--ks
--ku
--ky
--l
--la
--lahy
--lain
--lan
--land
--lao
--lar
--lat
--lau
--lav
--laza
--ld
--ldo
--le
--len
--ler
--les
--let
--lette
--ley
--lf
--lhac
--li
--lia
--lian
--lie
--lier
--lim
--lin
--lina
--lis
--lk
--ll
--lla
--lle
--lles
--lli
--llo
--llon
--lls
--lly
--lm
--lo
--loa
--lock
--logie
--logy
--lojika
--lon
--lona
--lotra
--lov
--loy
--lozan
--ls
--lt
--lta
--ltz
--lu
--lus
--ly
--lyn
--lz
--m
--ma
--man
--mann
--mar
--maso
--may
--mba
--mbady
--mbana
--mbatra
--mbe
--mbo
--mby
--me
--men
--ment
--mer
--met
--mi
--miana
--mic
--min
--mina
--mir
--mive
--mma
--mn
--mo
--mont
--mos
--mot
--mpy
--ms
--mu
--mura
--mus
--my
--n
--na
--nabe
--nac
--nah
--nai
--naire
--nais
--naise
--nam
--nan
--nana
--nany
--nao
--nary
--naud
--nay
--nc
--nca
--nce
--nch
--nco
--ncourt
--nd
--nda
--nde
--ndeha
--ndi
--ndo
--ndoha
--ndra
--ndraka
--ndre
--ndriaka
--ndriana
--ndrifiana
--ndrify
--ndrina
--ndro
--ndry
--nds
--ndy
--ne
--nea
--neau
--nec
--nei
--nel
--nen
--ner
--nes
--net
--neur
--ney
--ng
--nga
--nge
--nger
--nges
--ngo
--ngs
--ngy
--nha
--nho
--ni
--nia
--nie
--nier
--nik
--nin
--nina
--nitra
--njaka
--njara
--njo
--njy
--nk
--nka
--nn
--nna
--nne
--nner
--nnes
--no
--nona
--noro
--not
--nov
--noy
--ns
--nse
--nsis
--nson
--nstein
--nt
--nta
--nte
--nti
--ntin
--ntino
--nto
--ntsika
--num
--nus
--nx
--ny
--nz
--nza
--nzo
--o
--oa
--oan
--ock
--od
--oe
--off
--og
--ohan
--ohio
--oi
--oin
--oir
--ois
--ok
--oka
--oko
--ol
--ola
--oli
--olle
--oly
--om
--oma
--ombe
--ome
--on
--ona
--onan
--ond
--one
--ong
--onga
--ongam
--oni
--onne
--onofy
--ons
--ont
--onta
--ony
--oo
--or
--ora
--ore
--orf
--ori
--orin
--oro
--ort
--os
--osy
--ot
--oto
--otte
--otti
--ou
--oun
--our
--ourt
--ous
--out
--oux
--ov
--ova
--ovic
--ovich
--ovitch
--ow
--oy
--oz
--p
--pa
--parihy
--pe
--pel
--peo
--pf
--ph
--pha
--phie
--phy
--pi
--pis
--ple
--po
--pore
--port
--pp
--ppe
--ps
--pt
--pte
--pter
--pur
--py
--q
--qi
--que
--r
--ra
--raka
--ram
--ran
--rana
--rano
--rany
--rara
--ras
--rat
--ratr
--ratry
--ray
--rc
--rch
--rche
--rd
--rde
--rdi
--rds
--re
--rehin
--rel
--rell
--relli
--ren
--reo
--rer
--res
--ret
--rey
--rf
--rg
--rga
--rge
--rgue
--rgues
--ri
--ria
--rie
--rill
--rim
--rin
--rina
--rinina
--riny
--rio
--risma
--rit
--ritra
--rius
--rivo
--rk
--rm
--rn
--rna
--rnay
--rne
--rno
--rny
--ro
--roka
--rol
--ron
--rona
--ronina
--rop
--ros
--rot
--rou
--rov
--row
--roy
--rp
--rr
--rra
--rre
--rro
--rs
--rson
--rt
--rta
--rte
--rth
--rty
--ru
--rum
--rus
--ry
--rz
--s
--sa
--sac
--san
--sana
--sany
--sarika
--sas
--sat
--say
--sberg
--sboro
--sburg
--sch
--sco
--scu
--se
--sed
--sel
--sen
--ser
--set
--sey
--sfeld
--sh
--si
--sia
--side
--sika
--sim
--sin
--sinina
--siny
--sio
--sis
--sita
--sk
--ski
--sky
--slav
--sler
--sley
--sma
--sman
--snay
--sne
--sner
--snoy
--so
--soa
--soka
--son
--sot
--sov
--ss
--ssa
--ssac
--sse
--ssen
--ssi
--ssie
--sson
--ssy
--st
--sta
--ste
--ston
--stown
--stre
--stro
--su
--sville
--sy
--sz
--sław
--t
--ta
--takatra
--tam
--tan
--tana
--tany
--tao
--tara
--tas
--tatra
--tch
--te
--ted
--tein
--tema
--tena
--teny
--ter
--tes
--tesan
--tet
--teuil
--teur
--th
--tha
--tham
--the
--ti
--tia
--tic
--tica
--tin
--tina
--ting
--tini
--tino
--tio
--tion
--tions
--tira
--tis
--titra
--tive
--tl
--tle
--tler
--tn
--tner
--to
--toana
--ton
--tona
--tor
--tory
--tos
--tot
--town
--tr
--tra
--tre
--tri
--trika
--trude
--try
--ts
--tsa
--tsaka
--tsalama
--tsay
--tsika
--tsimo
--tso
--tsoa
--tsorana
--tsu
--tsy
--tt
--tta
--tte
--ttes
--tti
--tto
--tu
--tum
--tus
--tut
--ty
--tz
--u
--ua
--uan
--ub
--uc
--ucci
--ud
--ue
--uel
--uer
--ues
--uet
--uf
--ugh
--ui
--uil
--uin
--uk
--uke
--uki
--ul
--ula
--uld
--ule
--uls
--ult
--ulx
--um
--uma
--ume
--un
--ung
--uny
--up
--ur
--ura
--ure
--ures
--urg
--uri
--urs
--us
--use
--uses
--usse
--ust
--ut
--ute
--uth
--uto
--uve
--ux
--uy
--uz
--uze
--uzzi
--v
--va
--val
--vam
--van
--vana
--vany
--vao
--vavy
--ve
--vel
--ven
--vet
--vey
--vi
--viana
--vic
--vich
--ville
--vin
--vina
--vis
--vitch
--vitra
--vna
--vo
--vona
--vory
--votra
--vski
--vue
--vy
--w
--wa
--wal
--wan
--way
--we
--wi
--wicz
--win
--wn
--wood
--work
--worth
--ws
--wski
--x
--xa
--xe
--xi
--xia
--xt
--y
--ya
--yan
--ye
--yer
--yev
--yi
--yl
--yn
--yne
--yre
--ys
--yu
--z
--za
--zac
--zaha
--zal
--zam
--zan
--zar
--zara
--ze
--zek
--zel
--zer
--zhou
--zi
--zia
--ziana
--zija
--zika
--zin
--zina
--zio
--zo
--zu
--zy
--zza
--zzi
--zzo
--α
--βρι
--ε
--η
--ι
--ις
--λη
--λι
--ν
--ο
--ρ
--ρι
--ς
--υ
--ω
--и
--א
--אל
--ה
--ות
--י
--יה
--ל
--ן
--ר
--ש
--ת
--ان
--ب
--ة
--د
--ر
--ل
--ن
--ى
