!
"
#
##0
##1
##10
##11
##12
##13
##14
##15
##16
##17
##18
##19
##2
##20
##21
##22
##23
##24
##25
##26
##27
##28
##29
##3
##30
##31
##32
##33
##34
##35
##36
##37
##38
##39
##4
##40
##41
##42
##43
##44
##45
##46
##47
##48
##49
##5
##50
##51
##52
##53
##54
##55
##56
##57
##58
##59
##6
##60
##61
##62
##63
##64
##65
##66
##67
##68
##69
##7
##70
##71
##72
##73
##74
##75
##76
##77
##78
##79
##8
##80
##81
##82
##83
##84
##85
##86
##87
##88
##89
##9
##90
##91
##92
##93
##94
##95
##96
##97
##98
##99
$
%
&
'
(
)
*
+
,
-
.
/
0
00
000
0000
001
005
009
01
02
024
0291
04
05
06
06232
07
0764
08
09
1
10
100
1000
101
102
103
104
105
106
108
109
11
110
1100
111
1114
113
1135
114
116
118
12
120
1200
122
123
1234
123456789
124
125
126
127
128
13
130
131
132
1321
1323
135
136
1368
137
138
139
14
140
141
142
143
144
147
15
150
1500
151
152
153
155
157
158
1582
159
16
160
1600
1605
1616
162
1620
163
1630
164
1644
165
166
167
168
169
17
170
1700
1706
171
1722
173
1734
1735
174
1754
176
1767
177
1781
1782
1787
1788
179
1790
1793
1795
1796
18
180
1800
1806
1809
181
1813
182
1821
1824
1825
1828
183
1832
1833
184
1841
1848
185
1851
1852
1853
1854
1855
1856
1860
1861
1864
1866
1868
1871
1872
1874
1875
1876
1878
1879
1880
1881
1882
1883
1884
1885
1886
1887
1888
189
1890
1891
1892
1893
1894
1895
1896
1898
1899
19
1900
1901
1902
1903
1904
1905
1906
1907
1908
191
1910
1911
1912
1913
1915
1916
1917
1918
1919
1920
1921
1922
1923
1924
1925
1926
1927
1928
1929
193
1930
1931
1932
1933
1934
1935
1936
1937
1938
1939
194
1940
1941
1942
1943
1944
1945
1946
1947
1948
1949
195
1950
1951
1952
1953
1954
1955
1956
1957
1958
1959
196
1960
1961
1962
1964
1965
1966
1967
1968
1969
197
1970
1973
1974
1975
1976
1977
1978
198
1980
19800035
1981
1982
1983
1985
1986
1987
1988
1989
199
1990
1991
1992
1993
1994
1995
1996
1997
1998
1999
2
20
200
2000
2001
2002
2003
2004
2005
2006
2007
2008
2009
201
2010
2011
2012
2013
2014
2015
2016
2017
2018
2019
202
2020
2021
2022
207
2096
21
210
211
214
2160
22
220
224
225
226
229
23
234
238
239
24
240
243
244
248
25
250
252
26
265
27
270
271
273
276
278
28
280
28000
29
3
30
300
3000
301
302
303
31
310890
32
320
33
34
349
35
350
36
360
3600
37
373
3746
378
38
39
4
40
400
402
407
41
42
420
421
424
43
4327
44
440
45
450
46
47
470
47487597
48
49
5
50
500
5000
51
518
52
527
53
5327
54
547
549
55
56
57
570
58
580
59
5988
6
60
600
61
62
624
625
63
636
639
64
65
66
67
68
69
7
70
700
71
72
7271
73
734
737
74
75
750
76
7637
77
78
79
7909
8
80
800
80123
81
810
8132
82
8289
83
84
844
85
86
8600
8601
87
87943
88
89
9
90
900
91
910
92
93
94
95
96
962
97
971
978
979
98
99
992
996
9999
:
;
<
=
>
?
@
\
^
_
a
aachen
ab
aba
abandon
abarten
abbreviate
abbreviated
abbreviation
abc
aber
abgedeckt
abgeschra
able
about
above
abovebelow
aboveclass
abovestyle
abs
absolut
abstand
abu
acacia
academic
academy
accelerating
accept
acceptable
accepted
access
accessdate
accesses
according
acht
acid
acids
across
action
active
actively
activist
activities
acts
actual
actually
ad
adam
add
addclass
added
adding
additem
addition
additional
additionally
addkey
addon
address
addrow
adds
adjust
administrative
admitted
adolf
ae
aek
aekmoj
aelwed
aemj
aen
aencang
aenndang
aenq
aenvih
aeu
aeueiq
aeundaej
aeuyungh
afghanistan
african
afromoths
after
afterwards
afterword
again
against
age
agency
ages
aguila
ahead
ahfuhan
ahgwnhdingz
ahkezbah
ahlahboz
ahlazbwz
ai
aids
aigib
aihgiz
aij
aiq
airdate
aisinggyozloz
aiswhbing
aiwjlanz
aizcwng
aj
ak
al
albania
alexander
alfabeto
algaebase
algeria
ali
alias
aliases
aliaseslist
aliasesp
aliasesq
align
all
alldone
alle
alleged
allem
allen
aller
alliierte
alliierten
allnames
allow
allowed
allows
almost
along
alpha
alphabet
already
als
also
alt
alternate
although
always
alwaysdisplay
am
america
american
amino
among
amongst
amount
amp
ampersand
an
analogous
analytical
anbaiz
anchor
anchorencode
ancient
ancienz
and
andere
anderem
anderen
anders
andorra
andrea
anfa
anfang
anfangs
angq
angqhoh
anh
anhdaz
anhmwnz
anhveih
animal
ankara
anmerkung
anna
anniversary
annotation
annotations
another
anq
anteil
antenne
anthropogenic
anti
antrieb
antriebsra
antweb
any
anylang
anylanguage
anything
anzahl
ap
apa
apart
apostrophe
apostrophes
appeal
appear
appears
append
appended
application
applied
applies
appointed
approach
appropriate
appropriately
approved
approximately
april
ar
arabic
arbitrary
archive
archived
archivedate
archiveurl
archlord
arctic
are
area
areas
aren
arg
argentina
argkeys
args
argsarg
argsi
argsk
argskey
argsp
argtables
argtableval
argued
argues
argument
arguments
argumentsname
aria
armee
armeen
armenia
army
around
arr
array
arrays
arrest
arrested
art
article
articles
artillerietruppe
artist
artitle
arts
arxiv
as
asbox
ascii
asiatica
asin
asked
assemble
assembled
assembleoutput
assert
assign
assigned
assistance
assistant
associated
association
assume
assumed
astana
at
atdate
atitle
atlas
attached
attempt
attempts
attended
attention
attr
attribute
attributes
au
auch
aucouh
audaihleihya
audeihleih
audio
auf
aufbau
aufgrund
aufnahme
auftrag
august
aumwnz
aus
ausbaufa
ausf
ausfu
ausgeliefert
ausgeru
ausreichend
ausstattung
australia
austria
auth
autho
author
authored
authorities
authority
authorlink
authorlist
authormask
authorn
authors
auto
autobiography
automated
automatic
automatically
autotaxobox
autumn
auxcats
außer
av
available
avoid
avoids
award
awarded
awards
away
azerbaijan
b
ba
back
background
backwards
bad
badge
badges
bae
baebingz
baecinj
baed
baedauq
baeh
baek
baekbinghyangz
baekging
baekhaij
baekmeijcouh
baema
baen
baenaj
baengh
baenghgauq
baengz
baengzdaengz
baengzfonx
baengzgawq
baengzgoemqbak
baengzmeij
baengzndongq
baengzyoux
baenq
baenqluxsae
baenz
baenzaen
baenzbaenz
baenzbaih
baenzbingh
baenzgoeng
baenzgya
baenzlai
baenzlawz
baenzmaz
baenzmbwn
baenzneix
baenzngoenz
baenzraq
baenzroix
baet
baez
baezding
baeznaengz
baezneix
bag
bahbwnz
bahgihswhdanj
bahgungh
bahliz
bahmax
bahrain
bahsih
bahsihleihya
bahwjgan
baih
baihbaek
baihdoeng
baihgwnz
baihgyae
baihhaenx
baihlaeng
baihlaj
baihnaj
baihnamz
baihndaw
baihrog
baihsae
baihsaebaek
baihswix
baij
baijbouh
baijcap
baiq
baiz
baj
bak
bakdou
bakdoumonz
bakfanh
bakgoh
baksaek
baksaw
bam
bamq
ban
band
bang
bangcoh
bangh
bangiuz
bangjgauq
bangkok
bangla
bangladesh
bangx
banh
banhfap
banhlah
banhleix
banhraih
banhsaeh
banhsanq
banhswj
banj
banq
banringz
bar
barbados
bare
base
based
basepagename
baserank
basestyle
basetaxon
basic
basilica
basionym
basionymid
basionymitem
bat
batbat
bator
bau
baudaengz
baugau
baugvaq
bauhamz
bauj
baujcang
baujcingq
baujciz
baujcwng
baujhoh
baujlouz
baujyiemj
bauq
bawx
bazginz
bazgveiq
bbc
bc
bce
bd
be
bearbeitung
became
because
bechtermu
become
becomes
been
befand
befanden
befindlichen
before
beg
began
begin
beginn
beginnenden
beginning
begins
begloh
behavior
behaviour
bei
beiden
beij
beijbaenz
beijing
beijlumj
beijlwd
beim
being
beix
beixnuengx
beizyin
beka
beksingq
belarus
belief
believed
below
belowclass
belowstyle
ben
bencwng
bengali
bengwz
bengxgya
bengxunj
benjamin
benq
benz
ber
bereits
bergepanzer
berkeley
berlangen
berlegen
berlegenheit
berlegungen
berlin
bernard
besatzung
besatzungen
besaß
bescha
beschreibung
besser
besseren
best
bestand
bestehenden
bestrank
bestval
bet
beteiligten
betgvaq
betrug
better
between
bevor
bewa
bewaffnet
bewaffnung
bewegung
bezeichnung
bf
bh
bhi
bhojpuri
bhutan
bi
bibcode
bibi
biek
bien
biengjloh
biengz
biengzbeih
bienhauh
bienhcingqfap
bienliz
bienq
bienqbaenz
bienqcaet
bienqvaq
bienyiengq
bietdingh
big
bihari
bihbingz
bihbingzgya
bihcinj
bij
bijliswz
bik
bildern
billion
billions
biluj
bin
bineix
bing
bingdoih
bingh
binghdoeg
binghfatnit
binghgoek
binghlah
binghnaek
binghraq
binghsiqrueg
bingjceij
bingjloih
bingjngux
bingjsaen
bingjsaenz
bingjswt
bingjyinz
bingzciengz
bingzdaengj
bingzdingh
bingzfueng
bingzgyaq
bingzloz
bingznienz
bingzseiz
bingzsiengz
bingzyi
bingzyinz
binomial
binomialauthority
binqbya
biochemistry
biography
biome
biorxiv
birdlife
birds
bis
bison
bissau
bit
bitmaeg
biu
biucinj
biujmienh
biujyienh
biujyienj
biuq
biz
bizbaz
bizbodbod
bizbwd
bizoenj
bizyau
bizyez
black
blacklist
blacklisted
blacklisting
blah
blank
block
bloodsucker
blue
bn
bne
bnf
bo
body
bodyclass
bodystyle
bogen
boh
bohcangz
bohdaegcangh
bohdahsez
bohlanz
bohloz
bohmbwn
bohmeh
bohsih
bohswh
boihfamh
boihfanj
boiqhab
boiz
boizbouj
boizhaemz
bold
boldfirst
bond
bonghyat
bongz
bonj
bonjcaet
bonjdeih
bonjdieg
bonjfaenh
bonjgohswngh
bonjndang
bonjsaek
bonjvunz
bonn
book
books
booktitle
boolean
boq
borassus
border
bordered
borders
born
bosnia
bot
botanical
botanist
both
botswana
bottom
bouh
bouhfaenh
bouhmonz
bouhsaw
bouhvih
bounds
boux
bouxbeix
bouxbingh
bouxboux
bouxcawj
bouxcawjguenj
bouxciengqfwen
bouxcuengh
bouxdaeuz
bouxdaez
bouxdauh
bouxdazyinx
bouxgeq
bouxgun
bouxhoiz
bouxhoj
bouxhong
bouxlaux
bouxlawz
bouxmienh
bouxmiuz
bouxmo
bouxmoh
bouxmohlaujcuz
bouxraiz
bouxrauz
bouxsai
bouxsawjyungh
bouxsei
bouxseng
bouxsij
bouxvunz
bouxwnq
bouxyaej
bouxyauzcuz
box
boxun
bozsw
bozswqswngh
bozswqyenzgiuswngh
br
bracket
brackets
brazil
break
breaks
breinigerberg
bridge
bright
brinell
britischen
british
broken
brother
brought
bru
brummba
bto
buat
bucin
bucinscript
buedluenh
buek
buekguh
buendauj
buenq
buenqyiengz
buenyungh
buet
buffer
buffhtml
bug
buh
buhboemz
buhcapaek
buhfaiq
buhgim
buhgoeb
buhlen
buhmajgva
buhmienz
buhraez
build
builder
buildwikilink
built
bujbienq
bulgarien
bump
bumwnz
bungjbauq
bungq
bungqraen
bungz
bungzdaengz
buqvaih
bureau
burkina
bush
business
but
butenandt
buz
buzdauzyaz
buzveij
buzveiz
bw
bwh
bwhmiz
bwn
bwnh
bwt
bwtbingh
bwz
bwzgingh
by
bya
byaboux
byaek
byaekaengjgwx
byaekbohcaiq
byaekdoengzhau
byaekgaiqlanz
byaekgat
byaekmbungj
byaekroem
byagingdingz
byai
byaij
byaijyiengq
byajraez
byamanh
byangq
byanouq
byauhcunj
byauhcunjyinh
byauhdenj
byaujsi
byawz
byoenh
byouq
byte
c
ca
cab
cabceiq
cabfwngz
cabo
caeg
caekhaex
caem
caemh
caemhcaiq
caemj
caen
caencik
caengz
caengzgiek
caenh
caenleix
caenndang
caensaed
caenzciuz
caepcawq
caepfap
caephengz
caepnieb
caet
caetcib
caethwk
caetliengh
caeuq
caeuqfaenh
caeus
caeux
caez
caezcaemh
caezcienz
caezcingj
caezgya
caffeine
cai
caih
caihaih
caiq
caiqlij
caiqlix
caivi
caix
caiz
caizcanj
caizfouq
caj
cal
calculates
calendar
calendarid
calendarmodel
calflora
california
call
called
callhook
calling
callparserfunction
calls
cam
came
camgya
camhhengz
camjgaeq
camp
camz
can
canada
canberrah
cancer
cancwng
cancwngh
candaiz
cang
cangh
canghbingz
canghcwngz
canghdajveh
canghfwen
canghheiq
canghyw
cangj
cangjcauxruz
cangoz
cangq
cangzcenh
cangzcwngh
cangzcwngz
cangzsah
cangzveij
cangzveijvei
cangzvu
canh
canhgauj
canhgya
canjbinj
canjseng
canloz
cannot
canonicalname
cansen
canto
canusewikidata
caoqcwng
caoqgoz
cap
capfwngz
capitalise
capitalization
caption
capture
cardinal
care
career
carried
cartography
cartoon
case
cases
cash
castillo
cat
catalog
categories
categorization
categorize
categorized
categorizing
category
catname
cats
catstub
cau
caudungh
caueq
cauh
cauhbaenz
cauhcoz
cauhdawz
cauhguh
cauhlaeb
cauhmoq
cauhyungz
cauqfanj
cause
caused
causim
caux
cauxbaenz
cauxguh
cauz
cauzsenh
cawj
cawjcieng
cawjdaej
cawjdaez
cawjdoengh
cawjgiek
cawjguenj
cawqceq
cawqfaen
cawqleix
cawqsawq
cawx
cawz
cawzcin
cawzcou
cawzdoeng
cawzhah
cawzliux
cax
caz
cazcam
cazcawq
cazdawz
cazniemh
cazsaed
cazyawj
cbk
cc
ccat
cd
cdate
ce
ceb
ced
ceh
cehbinghdoeg
cehnengzbingh
ceih
ceihleix
ceij
ceijdingh
ceijok
ceiq
ceiqdingh
ceiqgauh
ceiqheiq
ceiqnoix
ceiz
ceizraemxrouh
cek
cell
cen
ceng
cengfuj
cenj
center
central
century
cenzdiz
cenzgoz
cenzhizciq
ceremony
certain
ceuj
cezgyangh
cezyoz
cf
cfg
cfgvalue
cfgvaluetype
ch
cha
chad
chair
chan
chance
chancellor
change
changeable
changed
changer
changes
chapter
chapterurl
char
character
characters
charges
charles
chars
charsi
chart
charter
charts
chassis
chavacano
cheap
check
checkdigit
checked
checking
checks
checksum
checktype
checkvalue
chemical
chemistry
cher
chi
child
children
chile
china
chinese
chlich
choice
choose
chosen
chr
christmas
chuit
chulalongkorn
ci
cib
ciba
cibbet
cibcaet
cibfaen
cibfean
cibgeij
cibgouj
cibhaj
cibloeg
cibngeih
cibngux
cibsam
cibseiq
cibuh
cidu
cieddoiq
ciem
ciemcingq
ciemcoh
ciemdingh
ciemhciemh
ciemq
ciemqaeu
ciemqfamh
ciemqhaeuj
cien
ciendaez
cienfanh
cieng
ciengh
ciengj
ciengjhangh
ciengq
ciengqyouz
ciengx
ciengz
ciengzdieg
ciengzgeiz
ciengzlwenx
ciengzsaeq
ciengzseiz
cienh
cienj
cienjbienq
cienleix
cienmonz
cienq
cienz
cienzboq
cienzbouh
cienzdoengj
cienzdungj
cienzhoih
cienzlah
cienzmienh
ciep
ciepsouh
ciepswnj
ciet
cietbouxbing
cietdaengloengz
ciethaek
ciethauxseng
cietheiq
ciethoenzvaiz
cietlauxsae
cietsaed
cietyoux
cietyoz
cietyozgya
cietyozgyah
cigdaengz
cigsoh
cih
cihciz
cihmeh
cihsaw
cihsiz
cij
cijdauj
cijdwg
cijmiz
cijnanz
cik
cili
cim
cimdoiq
cimhlaeng
cimyawj
cimz
cin
cinbu
cincanj
cinfaen
cing
cingciuz
cingcuj
cingh
cinghdauj
cinghlingz
cinghseuq
cingj
cingjdaej
cingjgaij
cingjleix
cingjsi
cingmingz
cingq
cingqcaih
cingqciengz
cingqdangq
cingqdeng
cingqheiq
cingqsik
cingsaenz
cingsingj
cingz
cingzcik
cingzdoh
cingzgvang
cinhhaij
cinii
cinj
cinjhawj
cinjsoj
cinq
cinqsiuhswngh
cinz
ciq
ciqgau
circumstances
citation
citationclass
citations
cite
citemismatch
citeparams
citeq
citeref
cites
citeseerx
citeweb
cities
citing
citizen
citizens
city
ciuh
ciuhai
ciuhgeq
ciuhgonq
ciuhgyawj
ciuhlaux
ciuhneix
ciuhvunz
ciuq
ciuqei
ciuqfap
ciuqgoq
ciuqsaed
ciuqsouj
ciuqyiengh
ciusou
civet
cix
ciz
cizbing
cizcungh
cizcunghci
cizcwz
cizdij
cizdonz
cizgaih
cizgenz
cizgiz
cizlieng
ciznieb
ciznwngz
cizvu
cizyazsi
ck
cke
ckenlegepanzer
ckenleger
ckenteil
ckzahlen
cl
claim
claimcommands
claimentity
claims
claimsproperty
claimspropertyid
class
classification
classified
clav
clean
cleanup
clear
climate
climates
clone
close
closest
closing
cloth
clothes
cm
cn
co
codaeuz
code
codehydro
codes
coemh
coeng
coenggauq
coenggyau
coenggyauq
coengmingz
coengz
coengzyiemz
coenz
cogaep
cogeiz
coglaeng
coh
coicaenh
coih
coihaeuj
coihdingh
coihgaij
coins
cojcoeng
col
cold
collaboration
collapse
collapsed
collapsible
collect
collected
collection
cologne
colombia
colon
colonprefix
color
colour
colouras
colspan
column
com
combination
come
coming
comma
command
commandfunc
commandments
commandname
commas
comment
comments
committed
committee
common
commonly
commons
commonsmedia
commonswiki
communist
communities
community
comp
company
compare
comparisons
compiled
complete
completely
complex
components
compounds
comprehensive
compulsory
comz
comzgiet
comzrengz
comzyouq
con
concat
concatenate
concatenated
concatenation
concatvalues
condemned
condition
conditions
conf
conference
conferenceurl
config
configuration
conflict
congh
congress
congz
conh
conhci
conhyinq
conifers
connected
connecting
conservation
considered
consists
consortium
constitution
construct
contact
contain
contained
containing
contains
content
continents
continue
continued
contribution
contributions
contributor
contributorlist
contributors
control
controls
conv
conversion
convert
converted
conveys
conzdungj
cook
cooperation
coord
coords
copbaenz
copied
copy
copytable
coq
corporate
correct
correctly
corresponding
cosih
cosmology
cou
coufaen
couh
couhdwg
couhsuenq
coujva
could
counsel
count
counter
counting
countries
country
couqmingzgij
court
coux
coz
cozbinj
cozciuh
cozfungh
cozgya
cozyung
cozyungh
create
created
createicon
createrow
creative
crime
criminal
criticism
criticized
croatia
croatian
cropped
cross
cs
css
csstext
cterms
ctx
cu
cuengh
cuenghhag
cuenghyanghvuengz
cuengq
cuengqbyaij
cuengqsoeng
cug
cuh
cuhcungh
cuhhaij
cuhlenz
cuj
cujcangh
cujcangj
cujciz
cujgvanh
cujsiz
cujyao
cujyaoq
cujyau
cujyi
cujyin
cuk
culture
cumx
cung
cungbyoengq
cungcig
cungdaeuz
cungdenj
cungfaen
cunggeuk
cungguek
cungh
cunghcij
cunghdoeng
cunghdungh
cunghfeih
cunghgoz
cunghgozhaij
cunghgung
cunghgyau
cunghhoz
cunghsanh
cunghsim
cunghsinh
cunghvaz
cunghya
cunghyangh
cungj
cungjcwz
cungjdaej
cungjdungj
cungjgez
cungjlij
cungjmou
cungjndei
cungjsuenq
cungjsuhgi
cungq
cungqvunz
cungsim
cungzcing
cungzcoj
cunh
cunhyi
cunj
cunjcwz
cunz
cunzgezsing
cur
curitiba
current
currentbasstate
currententityid
currentitem
currently
currentpagename
currenttitle
currrankval
currtaxon
curstate
custody
custom
cuz
cwkrom
cwng
cwngci
cwngcigiz
cwngcigya
cwngcigyah
cwngcising
cwngciz
cwngcouh
cwngcwz
cwngdangj
cwngfuj
cwnggen
cwnggenz
cwngh
cwnghauh
cwnghez
cwngsi
cwngzciu
cwngzcwz
cwngzduh
cwngzgoj
cwngzsi
cwngzyenz
cwnz
cwxcaih
cwz
cwzdungh
cwzmeh
cwzminz
cwzyin
cwzyoz
cyprus
cyrillic
czech
d
da
dab
dabdaengz
dabei
dacan
daeg
daegbeix
daegbied
daegcangh
daegdaengq
daegdiemj
daegdingh
daeggienz
daegnuengx
daegsaek
daegyin
daeh
daehbaeuz
daehsoengq
daehyinh
daej
daejyienh
daek
daekgoz
daekguek
daemq
daemx
daeng
daenggeiq
daengh
daengj
daengjdaengj
daengngoenz
daengq
daengx
daengxbiengz
daengxbuenz
daengxcungq
daengxgoz
daengxhoih
daengz
daengzcog
daengzdaej
daenj
daep
daepnengq
daeqceih
daeqgoz
daeuhfouh
daeuhfouhgau
daeuhfouhhaeu
daeuhfouhva
daeuj
daeuq
daeux
daeuzseng
daez
daezgyau
daezhawj
daezok
daezsang
daezsingj
daezswng
dagegen
daging
dagwzming
dah
dahcangzgyangh
dahin
dahlaeh
dahliuj
dahnga
dahnuengx
dahraix
dahsez
dahvangzhoz
dahvuj
dai
daibingzyangz
daibiuj
daibyauj
daidu
daigoz
daih
daihbet
daihbingz
daihbingzyangz
daihbuek
daihbuenz
daihcaet
daihcib
daihdaej
daihdaeq
daihdamj
daihgaiq
daihgouj
daihhag
daihhaj
daihhanz
daihhoih
daihliengh
daihloeg
daihluz
daihndei
daihngeih
daihngux
daihroek
daihsam
daihsawq
daihseiq
daihsiet
daihyangz
daihyangzcouh
daihyoz
daily
daimler
daiq
daiqdaeuz
daiqdoengh
daiqlingx
dairaeg
daixbaj
daiyi
daiyienz
daiz
daizbaek
daizcaj
daizvanh
daj
dajcauh
dajcawj
dajciengj
dajciengx
dajcim
dajgauj
dajgauq
dajgoeng
dajleix
dajleq
dajsou
dajsuenq
dajveh
dak
dalaep
dalai
dalmatian
daluz
dam
damaligen
damdoz
damh
damit
damq
damqcaz
damz
damzvah
dan
danach
dandog
dang
dangdieg
dangguh
dangh
danghnaeuz
dangj
dangjanq
dangjbai
dangjcangh
dangjcuj
dangjcunghyangh
dangjfungh
dangjgij
dangjgveih
dangjsing
dangjveij
dangjvu
dangjyenz
dangqmaz
dangqnaj
dangrap
dangseiz
dangz
dangzbingz
dangzciuz
dangzdai
dangzloih
danhfanz
danhmai
danhvei
danhyenz
dann
danq
danvih
danz
dap
daqlix
dark
darstellte
darunter
darya
das
dash
dasihyangz
dasinh
dass
data
database
databases
datacell
dataparameter
dataset
datastyle
datatype
datavalue
date
dateformat
datei
daten
dateprecedesdate
dates
datetime
datetimejulian
daudwz
daughter
dauh
dauhgyau
dauj
daujlun
daujyang
daujyenj
daujyij
dauq
dauqlaeng
dauqma
dauqranz
dauqyawj
dauz
dava
davei
david
davidson
daw
dawz
dawzmaenh
dawzndei
dawznduj
dawzraq
dawzyiemz
daxboh
day
dayoz
days
dayungz
daz
dazgizgwzswhdanj
dazlibanh
dazu
dazyinx
dd
de
dead
deadurl
deal
dealing
deals
death
deborah
debug
debugging
dec
decade
december
decimal
decimalprecision
decimaltodms
declaration
declared
decode
decoded
dedicated
deep
deepcopy
deer
default
defaultkey
defaults
defaultseparators
define
defined
definition
deg
degree
degrees
degsymbol
deih
deihcei
deihdoengh
deihfueng
deihleix
dek
del
delete
delim
delink
delinklinkclass
delivered
dem
demgiengz
demgya
demlai
demo
democracy
democratic
demopage
demospace
den
denen
deng
dengj
dengjdengj
dengloek
denh
denhdij
denhdwngj
denhgoz
denhgyauz
denhsij
denhvwnz
denied
denn
dennauj
denqyingj
denqyingz
densi
denva
denyingj
dep
department
depend
dependencies
depending
dependvalue
deprecated
deprecatedidcat
deq
der
deren
derivatives
derived
dern
des
desc
descendants
description
desert
deserts
desired
despite
dessen
destroyed
desynced
detain
detained
detect
detected
detection
detects
detention
determine
determined
determines
determining
deudoeng
deutlich
deutsche
deutschen
deutschland
deuz
devanagari
developed
development
dezdau
dezsih
df
di
dialects
dialogue
dialogues
dictionary
did
didmaj
die
died
dieg
diegbinghraq
diegcoj
diegdeih
diegguek
dieggvangq
dieghawq
diegnywj
diegvih
diegyouq
diemcaw
diemheiq
diemj
diengan
dienhcwngz
dienheiq
dienhginh
dienhngoz
diente
diese
diesem
diesen
dieser
dieses
diet
dietloh
different
diffusion
digih
digit
digital
digitletter
digits
digiuz
digoz
dih
dij
dijbauj
dijci
dijhi
dijyuz
diligence
din
ding
dingceih
dingcouj
dingh
dinghaih
dinghgeiz
dinghyangh
dingj
dingjdangj
dingjlawh
dingjmaenh
dinglai
dingmaux
dingmeih
dingq
dingqaeu
dingqdingq
dingqnyi
dingyoux
dingz
dingzlai
dinj
diplomats
direct
directly
direkt
disambiguator
discouraged
discovered
discovering
disease
disp
display
displayauthors
displayed
displayeditors
displays
dissertation
dissident
dissidents
distance
distant
distanz
diucaz
diuhcan
diuq
diuqfoux
diuqsiu
diuz
diuzcingj
diuzgaij
diuzgen
diuzgienh
diuzlaeh
diuzleix
diuzliuh
diuzsienq
div
diversity
division
divwnq
diz
dizcang
djibouti
dl
dmy
dne
do
doc
docket
doctoral
document
documentary
documentation
documents
doed
doedok
doedyienh
doeg
doegsaw
doek
doekdingh
doekfag
doeklaeng
doeknaiq
doeksaed
doeksat
doekseng
doekyaek
doeng
doengbaek
doengbauq
doengceiq
doenggvaq
doengh
doenghbaez
doenghboux
doenghduz
doenghfwngz
doenghgij
doenghgiz
doenghgo
doenghgvaq
doenghngauz
doengj
doengjdoengj
doengjgeiq
doengjit
doengnamz
doengnamzya
doengz
doengzcaez
doengzdoih
doengzeiq
doengzgaep
doengzseiz
doeq
does
doesn
dofus
dog
doglaeb
doh
dohdaengz
dohgyu
dohlaemung
dohraez
doi
doibroken
doicaenh
doidoengh
doihaeuj
doihawj
doihduz
doihengz
doing
doinyoengx
doiq
doiqciuq
doiqdaih
doiqdingj
doj
domain
domains
dominated
dominica
don
done
doneipairs
donepairs
donotlink
donq
donqdonq
donzdij
doppelt
doq
dort
dortmund
dot
dou
double
doubled
doucwngh
douq
dox
doxbauq
doxbiek
doxceng
doxdaeuj
doxdoeng
doxdoengz
doxdoiq
doxdoiqlun
doxej
doxgaiq
doxgap
doxgiet
doxgiethab
doxgven
doxgyau
doxgyaux
doxhwnj
doxlienz
doxlumj
doxroengz
doxwngq
dprec
draft
dragon
drehstabfederung
drehturm
drei
drop
dtxt
dtype
du
due
duenh
duet
duetliz
duh
duhhenj
duhnganh
duj
dujwjgiz
duk
dukcoi
dummy
dump
dung
dunghcih
dunghgingh
dunghgvanj
dunghlanz
dunghloz
dunghmonz
dunghsij
dunghya
dungjci
dungjcouz
dungx
dungxcaiz
dungzci
dup
duplicate
duplicates
durch
durchschlagen
during
duz
duzbit
duzboux
duzbya
duzduz
duzfangz
duzgaeq
duzguk
duzliz
duzmeh
duznengz
duznyungz
duzroeg
duzsuhgvanj
duzvaiz
duzyiuh
dv
dvd
dw
dwg
dwggyaez
dwgrengz
dwh
dwk
dwkceih
dwkciengq
dwkfug
dwng
dwzgoz
dwzlij
dwzyij
dx
dzong
e
each
earlier
earth
east
easy
eat
ebenbu
ebenfalls
ebird
economic
ed
edirne
edit
editable
editatend
edited
edition
editonwikidata
editor
editorlink
editorlist
editormask
editors
eds
edu
education
eerror
ef
efforts
eggs
eiciuq
eid
eifap
eigene
eigentlich
eight
ein
einbau
eine
einem
einen
einer
eines
einfu
eingebaut
eingebaute
eingefu
eingeschra
eingesetzt
eingesetzten
eingestellt
einheiten
einheitsfahrgestell
einige
einsatz
einsatzverwendung
einstein
einzige
eiq
eiqceiq
eiqdaihleih
eiqngeih
eiqsei
eiqsik
eiqsouj
eisen
eissn
either
ej
el
election
elections
electrical
electronic
element
elements
elementscat
elizabeth
else
elseif
em
embargo
embargoed
embassy
emil
emit
emits
emonocot
empty
emptycell
emulated
en
enabled
encode
encoded
encoding
encyclopaedia
encyclopedia
end
endash
endashes
ende
endgu
endparam
ends
endtime
endtimed
endtimem
endtimey
engl
english
engq
engqgya
enorm
enough
ensure
ensures
ent
entered
entfernung
entfernungen
entfiel
entities
entity
entityid
entityobject
entries
entry
entschieden
entsprach
entstand
entweder
entwickelte
entwicklung
entwu
enumerated
environmental
episode
eprint
eq
equal
equation
equivalent
er
era
erbeuteten
erfolgreich
erfolgte
erhalten
erhielt
erho
eric
eritrea
erlangen
err
errcat
erreicht
erreichte
error
errororentity
errors
errortext
errs
ersatz
erschaffen
erst
erste
ersten
es
esc
escape
escapepattern
espan
esperanto
essen
establish
establishcommands
established
estonia
et
etal
etc
eth
etterlin
etwa
eu
euj
euring
europe
european
evaluates
even
evenodd
event
eventually
ever
every
evidence
evil
evolution
exact
exactly
example
examples
excellent
except
exceptions
exclude
exemplaren
exist
existence
existent
existing
exists
expanded
expandtemplate
expansion
expected
expensive
experiment
experimental
experiments
explicitly
expression
ext
extended
extension
extensions
extensiontag
external
extra
extract
extracts
extracturl
extraneous
ezlozswh
f
fa
face
facebook
factor
fadceih
fadcienz
faedleixhag
faen
faenbied
faenbouh
faencek
faencing
faencung
faendingz
faengoeng
faenguenj
faenh
faenhhong
faenloih
faensanq
faensik
faenx
faenzcieng
faenzhag
faenzvaq
faex
faexhoengz
faexnyienq
fag
fagcax
fahrer
fahrgestell
fahrgestelle
fahrgestelles
fahrzeug
fahrzeuge
fahrzeugen
fail
failing
faiq
fall
fallback
false
famh
famhcoih
famhfap
family
famname
fan
fanghloz
fanghyenz
fangz
fangzcwngzgangj
fangzhoj
fanh
fanj
fanjcingq
fanjdoiq
fanjdui
fanjying
fanjyingj
fanveiz
fanzdwg
fanzyungz
fap
fapdingh
fapgvi
faplingh
faplwd
fapvah
far
fargs
farther
faso
fast
faster
fat
fatbingh
fatbiuj
fatbouh
fatcanj
fatdoengh
father
fatmingz
fatok
fatroengz
fatseng
fatyaem
fatyen
fatyienh
fauna
faz
fazcanj
fazcanjgvanh
fazci
fazgoz
fazliz
fazveih
fazyangz
fazyen
fazyij
fb
fbtbl
fdate
fdfdfd
fe
feature
february
feel
feicouh
feihcouh
feihgih
feihlizbinh
feindlichen
feindpanzer
feiyenz
feiz
feldhaubitze
feldzug
female
ferdinand
fertigung
festen
festival
fetch
fetches
fetchlanguagename
fetchvalue
fetchwikidata
feuerkraft
few
ff
ffnung
ffnungen
field
fieldname
fields
fiji
file
fill
film
filter
final
find
finded
findlang
finds
fine
fire
first
firstn
firstrow
fischer
fishbase
five
fix
fixed
fiz
flabellifer
flag
flagbest
flagperiod
flagrank
flags
flak
flakpanzer
fleischer
float
flooded
floor
flora
flores
florida
flussfahrt
fmt
foao
folgende
follow
followed
following
follows
fondation
fonghsan
font
fontstyle
fonx
foo
for
forbidden
force
ford
foreign
forest
foreword
form
formally
format
formatdate
formatinlanguage
formatmessage
formatparams
formatparamsparameters
formatpropertyvalues
formats
formatstr
formattable
formatted
formatterurl
formatting
formed
former
formgebung
forms
forty
forward
fossil
fossilrange
fossilworks
fouhceij
fouhngux
fouhsaen
fouhsaenz
fouhswt
fouhyinz
foujdingh
found
foundation
foundations
foundrank
fouq
fouqmiz
four
fourth
foux
fouz
fouzfap
fouzhauh
fox
fozgyau
fragment
frame
frameless
franc
france
francisco
franklin
frankreich
franzo
free
freedom
french
frequent
freud
friedrich
friends
frightened
from
fromnumber
fromtitlecount
front
frontpanzerung
fru
fructose
fruits
fu
fucujcangj
fucwz
fuemx
fueng
fuengbienh
fuengcim
fuengfap
fuengfueng
fuengmienh
fuengsik
fuengyenz
fuengyiengq
fuengz
fuengzbingh
fuengzceih
fuengzre
fuengzsienq
fug
fugcoengz
fugoh
fugsaeh
fuhyinz
fuj
fuk
fukcab
fukhwng
fuklwnh
full
fulltext
fullurl
fully
funcname
function
functionality
functions
fundamental
fung
fungheiq
funghgen
fungsaek
fungsug
fungyiemj
funk
funkanlage
funkausru
funker
funkgera
funktion
further
future
fuzcouh
fuzdauj
fuzgen
fuzhau
fuzhauh
fuzsuih
fuzvu
fw
fwd
fwed
fwen
fwj
fwn
fwngz
fwngzunq
fwnhlanz
fwnraq
fwnz
fwt
fwtfat
g
ga
gab
gaeb
gaej
gaem
gaemdawz
gaemgienz
gaemh
gaemhanh
gaemhgaj
gaemmaenh
gaen
gaenbonj
gaengawq
gaenh
gaenhlaenz
gaenj
gaenjbik
gaenjgip
gaenjmaed
gaenlaeng
gaenlaenz
gaenq
gaenriengz
gaenx
gaep
gaepgwnz
gaeplaj
gaeq
gaeqlw
gaeu
gaeuq
gag
gaggaj
gaghaed
gagndwn
gagnyienh
gagrox
gagsaenq
gai
gaicawx
gaihdon
gaij
gaijbienq
gaijcauh
gaijcingq
gaijfang
gaijfangginh
gaijgez
gaijgwz
gaijmoq
gaijndei
gaiq
gaiqbing
gaiqdawz
gaisig
gaj
gak
galt
galten
gambia
gamcaek
gamduk
games
gamj
gamz
ganbu
gancei
ganfwnh
gang
ganggoj
gangh
ganghgoj
ganghsih
gangj
gangjgoj
gangjgouz
gangjmingz
gangjriu
gangjvah
ganh
ganhsu
ganjmau
ganq
gao
gap
gapbaenz
gapgaiq
gasawh
gate
gauh
gauhcungh
gauhdengj
gauhgiz
gauj
gaujcaz
gaujhaed
gaujniemh
gauneix
gauqbaiq
gauxca
gawjbauq
gawq
gaxgonq
gaz
gazngaih
gebaut
gedacht
geeignet
gefecht
gegen
gegensatz
gehen
geidoekgauq
geij
geijceih
geijcouj
geijhaih
geijhozyoz
geijlai
geijmaux
geijmeih
geijyoux
geiq
geiqloeg
geiqmaenh
geiz
geizciengh
geizgan
geizhauh
geizheih
gejcawz
gejdoeg
gekliz
gela
gelegt
gemj
gen
gencuz
genera
general
generalcommands
generally
generaloberst
generate
generational
geneva
gengangh
gengceij
genggangq
gengngux
gengsaen
gengsaenz
gengswt
gengyinz
genhcaz
genhciz
genhgez
genj
genjcaz
genjcazyen
genjdanh
genjgij
genjsij
genjyiz
genq
genre
gensez
genus
genusauthority
genusmanual
genutzt
genyi
genz
geography
geological
george
gepanzerten
gepanzerter
geq
geqgangj
ger
geringe
geringen
geringerer
gerlach
german
germany
gern
gesamte
gesamten
gesamtgewicht
geschichte
geschlossenen
geschu
get
getabovebelowcolspan
getalias
getallstatements
getargnums
getargs
getattr
getbadge
getbeststatements
getboolean
getcatforid
getcode
getcommonslink
getcontentlanguage
getcurrentframe
getcurrenttitle
getdatevalue
getdescription
getediticon
getentity
getentityid
getentityidforcurrentpage
getentityobject
gethookname
getitemlangcode
getlabel
getlabelbylang
getlink
getmetatable
getparameters
getparammappings
getparent
getproperty
getpropertyids
getqualifier
getqualifierdatevalue
getqualifiers
getqualifiervalue
getranktable
getrawvalue
getreferencedetail
getreferences
getriebe
getriebes
gets
getsinglerawqualifier
getsitelink
getsnakvalue
getsumofparts
gettaxoboxcolour
gettaxoninfoitem
gettitle
getvalue
getvaluebylang
getvaluebyqual
getvalueofclaim
geu
geux
gewa
gewicht
gezcwz
gezgoj
gezgou
gezyi
gfuncs
ghana
gi
gib
gibseiz
gidij
giek
giekdaej
giem
giemq
gien
giendingh
giengiengz
giengiet
giengz
giengzbik
giengzdiuh
giengzvaq
gienh
gienj
gienjniemh
gienq
gienqnaeuz
gienz
gienzhanh
gienzik
gienzleih
gienzlig
gienzvi
giet
gietcomz
gietdingh
giethab
gietlwnh
gietsim
gif
gig
gigenjcuj
giguen
gih
gihbwnj
gihci
gihcuj
gihcwngz
gihdungceh
gihduzgyau
gihfuj
gihginhvei
gihgou
gihgvanh
gihminz
gij
gijgvangj
gijgvangq
gijgwn
gijlawz
gijliz
gijmaz
gijneix
gijveij
gijyuz
gijyw
gik
gikcoi
gim
gimhenj
gimq
gimqcij
gimqgeih
gimsug
gin
ginbingz
ging
gingcig
ginggvaq
gingh
ginghci
ginghciyoz
ginghyingz
gingjcaz
gingjgauq
ginglig
gingniemh
gingq
gingqcungh
gingsouh
ginh
ginhcouh
ginhdui
ginhsw
ginjdauh
ginzcaiq
ginzcung
ginzdauj
ginzgauj
gipgip
gisieng
gisongih
gisuz
git
giuz
giuznamh
giva
give
given
giyez
giz
gizbinghraq
gizdieg
gizgiu
gizgiz
gizgyae
gizhaenx
gizlauz
gizlij
gizlinz
gizlungz
gizlungzpoh
gizmen
gizneix
gizsaed
gizsanh
gizswh
gizswngh
gizwjgizswhswhdanj
gizyawz
gje
glasbaustein
gleiche
gleichen
glich
glichen
glichkeit
gliederung
global
globals
globalsiteid
globe
globeid
glucose
gmatch
gmt
gnd
go
gobwnj
gocoengz
gocwngz
godiengangh
goek
goekbingh
goekdaej
goekgaen
goekhawx
goekmboq
goekraemx
goemq
goeng
goengbouh
goengcingq
goengdaeuz
goengdauh
goenggungh
goenghai
goenghleix
goenglauz
goengleix
goengqde
goengqvunz
goengrengz
goengzyongq
goenq
gofaex
goh
gohgi
gohlauj
gohyoz
gohyozgya
gohyozgyah
goj
gojgaeqfangz
gojndaej
gojyij
gold
goleux
gonq
gonqlaeng
good
google
goq
goreux
got
gotrequired
gou
gouj
goujcib
goulau
gouq
gouqseiqcawj
gouqvunz
gouz
gov
govangh
government
governmental
goyinz
goz
gozci
gozcingh
gozcuz
gozfangz
gozging
gozgiz
gozgya
gozliz
gozminz
gozminzdangj
gozvuyen
grab
gradually
graduated
graefe
grammar
gran
granaten
grandparent
grant
grass
grasses
grassland
grasslands
grazing
great
greater
greatest
greatgrandparent
greatgreatgrandparent
green
gregorian
gregorius
grenada
grin
gro
ground
group
groupcell
groups
groupstyle
groupwidth
grow
große
großen
großer
gru
gruson
gruzia
gsub
gten
gu
gua
guangxi
guatemala
guderian
guek
guekcoj
guekgya
gueknden
guekrog
guen
guenfueng
guengjsae
guenj
guenjgoq
guenjleix
guenyaem
gugungh
guh
guhbaenz
guhcaemz
guhcaez
guhcawj
guhdauh
guhfap
guhgoek
guhgyaj
guhhong
guhmaz
guhndei
guhseuq
guhsing
gui
guide
guilin
guilty
guinea
guj
gujarati
gujbah
gujdienz
gujli
guk
gun
gung
gungcanjcujyi
gungcanjdangj
gungh
gunghawj
gunghcangj
gunghcoz
gunghcwngz
gunghgi
gunghminz
gunghnungz
gunghoz
gunghozgoz
gunghsanghlenz
gunghswh
gunghvei
gunghyenz
gunghyez
gunghyungh
gungjcoz
gungq
gungyen
gungzhoj
gunh
gut
gutenberg
guzconj
gvaehsuiq
gvaengh
gvaenghgyaq
gvaengx
gvaengxgyaq
gvai
gvan
gvanbaz
gvancangh
gvancez
gvangjcouh
gvangjdungh
gvangjsih
gvangq
gvangqlangh
gvangvuz
gvanh
gvanhaeh
gvanhcang
gvanhdenj
gvanhgen
gvanhliuzcujyi
gvanhnen
gvansim
gvaq
gvaqbae
gvaqdaeuj
gvaqlaeng
gvaqseiq
gvaz
gvei
gveibingz
gveicouh
gveigangj
gveihcwz
gveihfan
gveihmoz
gveihva
gveilinz
gveiqceih
gveiqcouj
gveiqhaih
gveiqmaux
gveiqmeih
gveiqyoux
gvej
gven
gvendaengz
gvengq
gvi
gvidingh
gvigawj
gvihaeuj
gvilwd
gvinab
gvwnhmingz
gw
gwn
gwnz
gwnzbiengz
gwnzde
gwnzmbwn
gwzgvanh
gwzgyangz
gwzlinznazdaz
gwzming
gxfs
gya
gyacizgvanh
gyae
gyaep
gyaepcaz
gyaepdawz
gyaeq
gyaeraez
gyaeu
gyaeuj
gyaeujhoq
gyaeujvunz
gyaeundei
gyaez
gyaezmaij
gyagiengz
gyahaeuj
gyahbauj
gyahden
gyahdingz
gyahfungh
gyahgwnh
gyahnazda
gyaiq
gyaj
gyajbauq
gyalaeg
gyamaenh
gyamwngz
gyanazda
gyang
gyangding
gyangh
gyanghaemh
gyanghaet
gyanghcuz
gyanghsih
gyanghsuh
gyanghwnz
gyangj
gyangnamh
gyangqgaep
gyangsim
gyangz
gyapceij
gyaploih
gyapngux
gyapsaen
gyapsaenz
gyapswt
gyapyinz
gyaqcienz
gyarengz
gyasae
gyau
gyaudoeng
gyauhdungh
gyauhhoz
gyauhyiqsoj
gyauq
gyauqsiz
gyausou
gyauyin
gyauyuz
gyauyuzgyah
gyaz
gyoebbaenz
gyoebyaem
gyoengde
gyoengq
gyoengqde
gyoengqgou
gyoengqlwg
gyoengqvunz
gyoengvunz
gyoij
gyong
gyongqde
gyonj
gyonjcomz
gyonjgangj
h
ha
hab
habdangq
habdoengz
habfap
habhoz
habngamj
habseiz
habyungh
had
haeb
haed
haedsaed
haedsim
haeh
haehdaengngoenz
haehdoengj
haehdungj
haehsoq
haekfug
haemh
haemhlwenz
haemq
haemz
haemzhoj
haengj
haengjdingh
haenh
haenq
haenqrengz
haenx
haep
haet
haetromh
haeuj
haeujcoengh
haeujlaeg
haeujvunz
haeux
haeuxbieg
haeuxcid
haeuxcuk
haeuxgwn
haeuxnaengj
haeuxyangz
haex
hag
hagdangz
haggeiz
hagseng
hagsib
hah
hahceiq
hahsazgwswhdanj
hahvaxnaz
hai
haicauh
haicaux
haicawz
haici
haidaeuz
haifat
haiguh
haih
haihag
haihij
haij
haijbaz
haijcingh
haijdai
haijgen
haijhaek
haijnanz
haijyangz
haijyaz
hailangh
hainduj
haj
hajcib
hak
hakdoj
half
hall
halle
hamj
hamz
hamzciep
hamzsouq
han
hanciuz
hand
handelte
handle
handled
handler
handlers
handlersk
handles
handrad
hands
hangh
hanghmoeg
hangoz
hangq
hangz
hangzciemq
hangzcouh
hangzdenh
hangzgungh
hangzhou
hanh
hanhgeiz
hanhhaed
hanq
hans
hansindicator
hant
hantindicator
hanz
hanzgoz
hanzloh
haq
hard
hartmut
harvard
has
hash
hat
hatheuh
hatmaenj
hatte
hatten
hau
haubitze
hauh
haujlai
hauptsa
hauptwaffe
hauq
haus
hauxseng
have
havel
haven
having
haw
hawj
hawsingz
hawxsij
haystack
hdl
he
head
header
headerstyle
heahdoengj
health
hearing
heart
heavier
heavy
heck
heeres
heereswaffenamt
heereswaffenamtes
hei
height
heih
heihaeuh
heiq
heiqhaeuh
heiqlau
hekdiemq
held
help
helper
hemisphere
hemq
hen
hengz
hengzdoengh
hengzguh
hengzsawj
hengzsingh
henhoh
henj
henkahsi
henschel
henz
henzhaij
henzndang
her
herbivores
herbst
here
hergestellt
hergestellten
heritage
hermann
hersteller
herstellung
herzegovina
heu
heuh
heuhguh
heuj
heujdou
heujma
heujvaemh
heujvaiz
heuschrecke
heux
hexoses
hezdiuz
hezsangh
hhttttpp
hidden
hidungj
hier
hierarchy
hig
high
higher
highest
highly
higkeit
hihlaz
hihlizvangz
him
hindernisse
hing
hingz
hingzcwng
hingzcwnggih
hingzdai
hingzsaeh
hingzseiq
hingzsieng
hingzsiengq
hingzsik
hingzveiz
hinten
hinter
hinteren
his
historical
history
hit
hix
hjahr
hk
hler
hlist
hnlich
hnliche
ho
hoch
hoeng
hoengh
hoengheiq
hoenghhwd
hoengq
hoengqheiq
hoengz
hoenx
hoenxbaih
hoenxhingz
hoenz
hoet
hoh
hohcouh
hohe
hohen
hohhot
hoi
hoih
hoiq
hoiz
hoizdap
hoizfuk
hoizvah
hoj
hojcen
hold
holding
holds
holiday
holzmodell
holzschiene
home
homini
homo
hong
hongdawz
hongsaeh
honorary
hook
hooks
hooksparameters
hop
hopbi
hopheux
hormones
horse
horses
horst
host
hostname
hot
hothoh
hougoj
house
houz
how
however
hoz
hozbaek
hozbingz
hozciz
hozcoz
hozdung
hozdunggya
hozdunggyah
hozfeiz
hozgyongx
hoznanz
hre
hren
hrend
hrt
hrte
hrten
hrung
hrungen
hsommer
ht
htm
html
htmlbuilder
http
https
hu
hua
hucau
huge
huk
hulenzvangj
human
humboldt
hummel
hundred
hung
hungloet
hungmbwk
hungnaek
hungzenh
hungzginh
hungzgvanh
huningz
huq
hus
huz
huzbaek
huzgin
huznanz
huzndei
hw
hwa
hwk
hwng
hwngfat
hwngvuengh
hwnj
hwnjbae
hwnjdaeuj
hwnjdin
hwnjmbaek
hwnjndang
hwnq
hwnqbaenz
hwnqguh
hwzdung
hwzlungzgyangh
hybrid
hydrostatischem
hyphen
hyphenated
hyphens
i
ia
ibn
ibrahim
ic
ice
ichno
icon
id
idea
ident
identical
identifier
identifiers
identifies
identify
identities
ids
idx
ie
iek
iekdingh
iekliengh
ien
ienq
ienqhoij
ies
iet
ietceih
ietcouj
ietf
iethaih
ietloih
ietmaux
ietmeih
ietyoux
if
ifnot
ifroms
ignore
ignoreblank
ignored
ignoreisbn
ignores
ihm
ihre
ihren
ihrer
ihrerseits
ihres
ii
iii
ij
ik
illinois
im
image
imageclass
imageleft
images
imagestyle
imglbl
imglbls
imgs
immediately
immer
implement
implemented
implements
import
important
imported
importedfrom
imprisonment
in
inactive
inauguracion
incase
incertae
incited
inciting
include
included
includemetatable
includes
including
incorrect
increment
indem
independent
index
indexed
indexer
india
indian
indic
indicate
indicated
indicating
indicator
indices
individual
industry
infanterie
inferredfrom
influence
info
infobox
infoboxes
infoboximage
infolge
information
infrataxoni
ing
ingj
inherit
inhtml
init
initial
initialise
initialization
initials
inline
input
inputs
inputstr
insect
insensitive
insert
inset
insgesamt
insik
insitelinks
inst
installiert
instance
instanceof
instanceofstate
instances
instandsetzung
instead
instid
int
intable
integer
intended
inter
intermediate
internal
international
internationalise
internet
interpret
interview
interviewer
interviewerlist
interviewers
interviews
into
introduction
invalid
invalidating
invasion
invisible
invited
invoke
invoked
invoking
involved
ipa
ipairs
ipv
iq
iran
iraq
is
isbn
iserror
isfara
isknownlanguagetag
islabel
islamic
islands
ismn
isn
isni
isnilorempty
isnotempty
iso
israel
issn
issourced
issue
issued
ist
istype
isvalidentityid
isxn
it
italia
italian
italic
italicize
italicized
italicizetaxonname
italics
italictitle
italmarker
itbouh
itbuen
itcig
itdaengj
itdingh
item
itemid
items
iterate
iteration
iterator
itgungh
itheij
itloh
itlwd
itmienh
its
itself
itsim
itthem
iugouz
iv
ivb
ivoire
j
ja
jack
jackson
jagdpanzer
jahr
jahre
jahres
jan
january
jarom
je
jedoch
jetzt
jeweils
jfm
jia
jilin
jingzjing
jintao
jinyan
jiu
jkey
jodan
john
join
joiner
joinnode
jordan
joseph
journal
jpg
jr
json
jstor
judgment
jul
juli
julian
july
june
juni
just
k
ka
kaliberla
kam
kamas
kamen
kampfpanzer
kampfpanzers
kampfraum
kampfraumes
kampfstarkes
kampfwertgesteigerten
kanone
karl
kategorie
kathmandu
kaum
kazakhstan
kbs
keep
keine
kenya
kept
kern
kev
key
keys
keyword
keywords
kg
killed
killmarkers
kim
kind
kinds
king
kingdom
kinshasa
kiribati
kitts
klappe
kleinen
km
knapp
knittel
know
knowledge
known
knownflag
ko
kommandant
kompanie
kong
konnte
konnten
kr
kraft
kraftfluss
kran
krieg
krieges
kriegsbeginn
kriegsende
kriegsverlauf
kriegsverlaufes
krupp
ku
kugelblitz
kulturnav
kuppel
kursker
kurz
kurze
kurzen
kuwait
kwk
kyrgyzstan
l
la
label
labelhook
labelledby
labelorid
labelstyle
laboratory
ladeschu
lae
laeb
laebbaenz
laebcaez
laebcienz
laebcin
laebcou
laebdaeb
laebdoeng
laebfap
laebhah
laebhwnj
laeg
laegdaeuq
laeggyae
laehcei
laehvaih
laemzseiz
laeng
laengz
laep
laepda
laeq
laeuh
laeuj
laeuz
laeuzningz
lah
lahdawz
lahdingh
lahdinh
lahfaz
lai
laihnaeuz
lainoix
laj
lajbiengz
lajda
lajmbanj
lajmbwn
lajneix
lak
lake
lama
lamanites
lan
land
lang
langcode
lange
langen
langh
langhmanhcujyi
langlabel
langobj
language
languages
lanka
lanz
lanzcouh
lao
large
last
lastarg
lastauthoramp
lastfirst
lastfirsttable
lasthtml
lastn
lat
latconv
latdegrees
latdegsym
late
later
latestdatequalifier
latin
latinization
latitude
latminsym
latminutes
latseconds
latsecsym
latvia
lau
laufe
laufrollen
laufwerk
lauheiq
laujvoh
lauq
laureate
lautete
laux
lauxbaeg
lauxbaeghoengz
lauxsae
lauxsaed
lauxyez
law
lawrence
lawyer
lawyers
lawz
lax
lay
laydate
laysource
layurl
lazily
lbl
lc
lccn
lccnparts
le
leab
leabbaen
leabbean
leaders
leading
leap
learn
least
leave
lebanon
lecture
lecturer
led
lediglich
lefh
left
lehmanns
leicht
leichte
leichten
leih
leihyungh
leistungsfa
leix
leixlun
leixlwnh
leixniemh
leixsing
leixyouz
leizbingz
lek
len
length
lenkgetriebe
lenzbangh
lenzcwng
lenzhozgoz
lenzmungz
leone
lesotho
less
let
letter
letterdigit
letterpos
letters
letzten
leu
leux
level
levels
lezningzcujyi
lezsiz
lh
lhasa
li
liberty
library
libraryutil
librivox
license
liebyawj
liechtenstein
lied
lief
lieferte
liegenden
liencanh
liengz
lienh
lienz
lienzbangh
lienzcanh
lienzciep
lienzdaemh
lienzhab
lienzhaeh
life
ligfap
liggaeuq
ligliengh
lij
lijlun
lijsiengj
lijyouz
lik
like
limit
limited
line
lines
lingh
lingjdauj
lingjsiu
lingjyiz
lingxdaeuz
lingz
lingzleih
link
linked
linkedid
linkeditem
linken
linkn
linkname
linkprefix
links
linktarget
linktext
linx
linz
linzbah
linzgenj
lipos
lisij
list
listcell
listclass
listed
listk
listnum
listnums
listparam
lists
listtext
liter
literal
literary
literature
lithuania
little
liu
liujcouh
liujgaij
liujgyauz
liux
liuz
liuzgiuz
liuzgiuzgoz
liuzhingzbing
liuzhingzsing
liuzlieng
liuznaenj
liuzyiz
liuzyozswngh
live
liver
liveweb
lix
liz
lizard
lizards
lizcangz
lizhai
lizsij
ll
ller
llig
lo
load
loaddata
loaded
loadi
lobw
local
locally
localval
located
location
locations
lock
loeg
loek
loeng
loengcawq
loengh
loengloek
loenq
log
loh
lohsienq
loih
lonconv
londegrees
londegsym
long
longer
longitude
longmonth
lonminsym
lonminutes
lonseconds
lonsecsym
look
looking
looks
loop
loops
loq
loqsiengj
lost
louis
louz
louzsim
love
lowb
lower
lowercase
lowerk
loxsanq
loz
lozciz
lozcwngz
lozmaj
lozmax
lozsiz
lozyez
lp
lpost
lpostfix
lpre
lprefix
lpumpen
ltig
ltige
lu
lua
luaargs
luba
luenh
luenz
luftu
lukthung
lumj
lumjbaenz
lumjgyaq
lumjnaeuz
lumz
lungz
lungzcouh
lungzdouz
lungzginz
lungzgoemj
luz
luzswnhbauj
lw
lwed
lwg
lwgbieng
lwgda
lwgdaih
lwgfaeg
lwggaet
lwggwz
lwggyoh
lwghagdoenghbaez
lwglan
lwgmanh
lwgmbwk
lwgminz
lwgndae
lwgnding
lwgngeih
lwgningq
lwgnyez
lwgnyezrauh
lwgsai
lwgsam
lwgsau
lwi
lwnh
lwnhdaez
lwnhgangj
lwnzleixyoz
ly
m
ma
macedonia
machte
madagascar
made
madrid
mae
maedcaed
maeddoh
maegsaego
maenh
maenhndei
maenz
maenzbya
maeuz
maeuzaeu
magazine
magic
magirus
mai
maij
mailing
mailinglist
main
mainland
mainnsname
mainsnak
maint
maintained
maintenance
maj
majgwzswh
majgwzswhcujyi
majhung
majlaizsihya
majliya
major
majsazcuhsai
mak
makdauz
makdoengj
make
makeordinal
makes
maketable
makgai
makgam
making
makit
maklaeq
makleiz
makmaenj
makmoed
maknganx
makyungz
maldives
male
mali
malta
man
mangxndang
manifesto
mann
manner
mannose
manual
manualflag
manually
manva
many
map
mappings
mappingsnsname
mappingsordered
mapurl
mar
march
margin
marguments
maria
marino
mark
marker
markers
marks
markt
markup
marriage
married
marx
mask
maskn
masse
match
matched
matches
matchhook
matching
math
mather
matter
mauh
mauhgvaq
mauz
mauzcwzdungh
mauzdun
mauznamzcuz
mauznanz
max
maxgai
maximum
maxsearchlevels
maxsize
maxvals
maxwell
may
mayaddcalendar
maybach
maz
mb
mba
mbaek
mbaet
mbaeu
mbaeumbeng
mbaibaij
mbangj
mbangjdi
mbanj
mbanjcuengh
mbanjgun
mbaq
mbat
mbaw
mbawfaex
mbefat
mbeguh
mbei
mbi
mbiengj
mbii
mbik
mbin
mbinfoen
mbitmbeuj
mbmix
mboengq
mbonq
mbouj
mboujcaengz
mboujdan
mboujdanh
mboujdingz
mboujdoengz
mboujduenh
mboujguenj
mboujlwnh
mboujmiz
mboujnex
mbpairs
mbselect
mbwn
mbwnnamh
mbwq
mctid
mdy
me
means
meant
measure
media
mediawiki
medical
medicine
meet
meg
megbya
meh
mehdahsez
mehdaiq
mehmbwk
mehmoiz
mehr
mehyah
meijcouh
meijgoz
meist
meisten
meix
meizdij
member
members
memoized
memory
men
menh
menhmenh
mentioned
merely
mergeargs
mergearrays
mergedrow
mergedtoprow
message
messages
messenger
meta
metaargs
metaargskey
metadata
metatable
method
methods
meuz
mexico
mg
mgfa
mgp
michael
middle
mied
miengloh
miengz
mienh
mienhcik
mienhmienh
mienjdien
mienzbauz
might
mij
mijcaengz
milita
millennium
million
mimiz
min
minerva
mingh
minghlingh
minghyinh
mingz
mingzbeg
mingzciuz
mingzcoh
mingzcu
mingzdaeuz
mingzginh
mingzleih
mini
miniatur
minimize
ministry
minsymbol
minute
minutes
minz
minzcuj
minzcujcujyi
minzcuz
minzcuzvunznoix
minzcuzyiengh
minzcuzyoz
minzfaz
minzgoz
minzyung
miss
missing
misuhcangj
mit
mitgefu
mittig
mittler
mittleren
mittlerer
miuhhauh
miux
miuz
mix
mixed
miz
mizdi
mizgven
mizmingz
mizndang
mizseiz
mizyauq
mizyouq
mizyungh
mk
mlt
mm
mmmm
mmt
mo
mode
model
modelle
modellen
modern
modified
modify
module
modules
moeg
moegbiu
moeggva
moek
moengj
mohlauj
moix
moksha
moldova
monaco
monat
monolingual
monolingualtext
monotypic
montane
monte
month
months
monz
monznga
moq
more
moreargumentsexist
morning
morocco
moses
most
mostly
motor
motorbuch
motorbuchverlag
mou
mountain
mountains
mouth
moux
move
movement
movseparator
moz
mozbanj
mozfan
mpfe
mpfen
mpft
mpi
mqi
mr
ms
msg
msgkey
mt
mtabletools
mtx
mu
much
muengh
muengzcungq
muengzmuengz
muenz
muh
muhhaeux
mui
mult
multilanguage
multiple
multipurpose
mumh
mung
mungz
mungzguj
munich
munition
munitionsschlepper
munitionstra
museum
musste
mussten
must
mustang
muz
muzbyauh
muzdiz
muzyij
mw
mwfunck
mwh
mwhneix
mwncupcup
mwngz
mwngzmbouj
mwnz
mwnzcinj
my
myaex
myaiz
myanmar
n
na
nabokov
nach
nachdem
nachfolger
nae
naed
naednaed
naef
naefaiq
naek
naemj
naeng
naengbak
naengh
naengz
naengzliengh
naengzlig
naenj
naenz
naeuz
naeuzdauq
nahmen
naih
naijcangh
naj
najdoiq
najgyad
nam
name
named
namelist
namelistformat
namely
names
namesep
namesi
namespace
namespaces
namh
namij
namz
namzdan
namzgigcouh
namzgva
namzmeijcouh
namzningz
namzyied
nangq
nangqdaengz
nanz
nanzcangh
nanzdaez
nanzfei
nanzfeih
nanzging
nanzmeijcouh
nanzsanh
nanzsinggoh
naq
nara
nas
nashorn
national
nations
native
natural
naturally
nature
nauhyied
nauq
nauru
nav
navbar
navbox
navboxes
navboxparams
nay
naz
nazbolunz
nbk
ncbi
nchen
ncipe
nd
ndaej
ndaejhingz
ndaejnyi
ndaek
ndaem
ndaen
ndaeng
ndaengndiengq
ndai
ndang
ndangcangq
ndangdaej
ndash
ndat
ndataset
ndau
ndaundeiq
ndaundeiqbyaij
ndaundeiqdenh
ndaundeiqfaex
ndaundeiqfeiz
ndaundeiqhaijvuengz
ndaundeiqnamh
ndaundeiqraemx
ndaw
ndawbiengz
ndawde
ndawgyang
ndawsim
ndawsingz
nde
ndei
ndeindei
nden
nder
nderte
ndeu
ndi
ndiepdaih
ndigah
ndik
nding
ndit
nditbonj
nditndiengq
ndoencag
ndoeng
ndoengfaex
ndoenndok
ndoet
ndoi
ndoj
ndok
ndokbanzciz
ndokbaz
ndokgemj
ndokgenq
ndokgizlungz
ndokgvaengzgiengz
ndokgyaed
ndokgyaeujhoq
ndokhwet
ndoksaen
ndoksej
ndoksoenj
ndokunq
ndongq
ndonj
nduk
nduknaeuh
ndukndek
ndung
ndwen
ndwenbet
ndwencaet
ndwencib
ndwencieng
ndwengouj
ndwenlab
ndwenloeg
ndwenndwen
ndwenngeih
ndwenngoenz
ndwenngux
ndwensam
ndwenseiq
ndwi
ndwn
ne
neben
necessary
neck
need
needed
needle
needs
negativ
negative
nei
neican
neimungzguj
neinz
neither
neix
neiyungz
nelson
nem
nengz
nengznyaen
nepal
nested
net
netherlands
network
neue
neuen
never
nevis
new
newindex
newline
newlines
newobject
news
newsgroup
newspaper
newton
next
nextarg
nf
ng
nga
ngaem
ngaenz
ngaenzhag
ngaenzhangz
ngaenzsaw
ngaeux
ngaeuz
ngah
ngaih
ngaiz
ngamq
ngangqraen
nge
ngeh
ngeih
ngeihcib
ngeihdaengj
ngeihgaep
ngeix
ngeixnaemj
ngeiz
ngen
ngeng
ngengq
nger
ngit
nglich
nglichen
ngoenz
ngoenzciet
ngoenzcog
ngoenzduzliz
ngoenzgaijfang
ngoenzlaeng
ngoenzlwenz
ngoenznaengz
ngoenzneix
ngoenzngoenz
ngoenzsinghgiz
ngouzcouh
ngozlozswh
nguh
nguhbauq
ngux
nguxhengz
ngwz
ngxi
nh
nha
ni
nibelungenwerk
nicht
niedrigen
niemh
nienz
nienzdaih
nienzgaep
niez
nih
nijbaiz
nikolic
nil
nilargs
nilargskey
ningzha
ningzmingz
ninz
nip
niq
nit
niujcingq
nizbozwj
nkte
nlm
nmbe
no
nobel
nocache
nocat
noch
node
nodes
noflip
noh
nohgaeq
noicon
noix
nolinks
nom
nominated
nomj
non
none
noop
nopp
nor
nordafrika
normal
normalen
normalizedname
normally
north
northern
nospecial
not
note
noted
notes
nothing
notoc
notracking
nou
nouhaih
nov
novalue
november
now
nowiki
nowrap
nowrapitems
nozbeiwj
nozveih
ns
nsid
nsname
nuengx
nueva
null
num
number
numbered
numbers
numdigits
numeric
numerical
numerous
nums
nun
nungz
nungzminz
nungzyez
nur
nuzli
nwngzyenz
nyaeknyex
nyaemh
nyaemhyungh
nyaemzceij
nyaemzngux
nyaemzsaen
nyaemzsaenz
nyaemzswt
nyaemzyinz
nyaenq
nyaeq
nyamhcij
nyapnyaj
nyeiqdenj
nyeiqswq
nyeng
nyengh
nyengngeh
nyengq
nyezrauh
nyi
nyied
nyiedbonj
nyieddaiz
nyieg
nyiengh
nyienh
nyienz
nyinh
nyinhcaen
nyinhdingh
nyinhnaeuz
nyinhrox
nyouh
nyumx
nyungz
nywj
nz
o
oben
oberfla
oberhalb
obj
object
objects
observe
obtained
obwohl
occupied
occur
occurring
occurs
ocinsoutput
oclc
ocm
ocn
ocolc
october
odd
oddeven
oder
oemqlauxbaeg
oenq
oet
of
off
offenen
official
officialwebsite
offizielle
offset
ofi
oft
often
ohne
oij
oil
ois
ok
okbae
okbanj
okbonj
okdaeuj
okdou
okgyaeq
okhaq
okleih
okmingz
okrog
oksaeh
okseng
oksiq
oktober
okyienh
ol
old
older
oldest
oldestfossil
ombox
omitted
on
once
one
ones
onj
onjdingh
online
only
onlycat
onlysourced
onlysrc
onore
oo
op
open
opened
opening
openlibrary
operation
ops
option
optional
optionally
options
or
order
ordered
ordinal
ordsuffix
org
organic
organization
organized
orig
origargs
origargsargname
origin
original
origink
origyear
orozco
orphancat
os
osd
ostfront
osti
other
others
otherwise
otto
ottomotor
oucouh
ouh
ouhcouh
ouhyangz
our
out
outfuncs
outidx
output
outputhook
outputs
outside
outstring
over
overcaption
overimage
overimagerowclass
overridden
override
overrides
overwrite
overwritten
own
ozu
p
pa
pacar
pacific
padding
page
paged
pagedoc
pageid
pagename
pageobject
pages
pair
pairs
pak
pakistan
palazzo
palladio
pallas
panama
panther
panthers
panzer
panzerartillerie
panzerbefehlswagen
panzerbeobachtungswagen
panzerdivision
panzerdivisionen
panzerfa
panzerfertigung
panzerhaubitze
panzerhaubitzen
panzerja
panzerkampfwagen
panzerkampfwagens
panzermodelle
panzern
panzers
panzerschutz
panzertruppe
panzerung
panzerverba
panzerwaffe
papaya
papua
par
paracel
paraguay
param
parameter
parameters
paramlink
paramorder
params
paramsaliasesp
paramsi
paraset
parens
parent
parentargs
parentargsalias
parentargslowerk
parentargsparam
parentargsparams
parentauthority
parentheses
parenthtml
parentinstanceof
parentitem
parentmonogenus
parentnodes
parents
parentt
parenttaxon
parenttaxonrank
parenttaxonrankstate
parenttaxonstate
parentv
pargs
paris
parm
paro
parole
parse
parsed
parsedate
parsedformat
parseformat
parseinput
parseparam
parser
parses
parsewikidataurl
part
participated
particular
particularly
parts
parttbl
party
pass
passage
passed
path
pattern
patterns
paul
pcall
pd
pdf
peace
peaceful
pen
pencil
people
per
percent
performance
perfume
period
periodical
periodically
periodpos
periods
periskop
perlmutter
permitted
persian
person
personal
petition
pfu
pg
phd
phenylhydrazine
php
phra
phuttha
physics
pic
pica
picasso
pick
pid
pinus
pipe
piped
pipes
place
placed
placeholder
places
plain
plainidx
plan
plant
plantago
plants
planungen
plates
plaza
please
pleistocene
plural
plus
pmc
pmcs
pmid
pmids
png
podcast
podzun
point
pointer
poland
polar
polenfeldzug
police
polish
political
pomfret
poor
popular
populates
population
porridge
porsche
port
portal
portion
portions
portrait
pos
position
positional
positive
possible
possibly
post
postfix
postscript
pot
powder
power
pp
prairie
pre
prec
precision
precisions
preference
preferences
preferred
prefetchedrefs
prefix
prefixes
prefixtable
preis
preload
prelog
prepared
preprocess
preprocessargs
preprocesssinglearg
present
presentation
preserve
president
presidential
press
presume
prev
prevent
prevents
preview
previous
previously
prevp
prevqid
pri
primarily
principles
printerror
printing
prior
prison
private
prize
pro
probably
problems
process
processed
processflag
processflagorcommand
processing
processitem
processseparators
procuratorate
produktion
produktionssta
produzierten
professor
program
project
projekt
promoting
prop
propclaims
proper
properly
propert
properties
property
propertyid
propertyvalue
propertyvalueandquals
propid
props
proptbl
propval
propvalue
prose
protect
protected
protects
proteins
protests
protocol
prototyp
prototypen
proved
provide
provided
provides
province
ps
psychology
ptr
pub
public
publication
publicationdate
publicationplace
publications
published
publisher
publishername
publishing
pubmed
punc
puncmark
punctuation
purines
purposes
put
pval
pvalid
px
pxxx
pyi
q
qargs
qarluq
qatar
qi
qid
qids
qinu
qlcode
qnumber
qplist
qqualid
qstr
qtype
qu
qua
quadrimester
qual
qualid
qualified
qualifier
qualifierid
qualifiers
qualifierscount
qualifiersqualifierid
qualita
qualitativ
quals
quantitative
quantitativen
quantities
quantity
quarter
query
quickly
quotation
quote
quoted
quotes
qv
qval
qvals
qvalue
r
ra
radio
raeh
raek
raem
raemh
raemx
raemxda
raemxdangz
raemxfwn
raemxgwn
raemxgyu
raemxmaeg
raemxmboq
raemxrongz
raemxsaw
raen
raetnae
raeuj
raeujndang
raeuz
raeuzred
raez
raezrangh
raezrangrang
rafael
rag
ragoek
rain
rainfall
raising
raixcaix
raiz
range
ranges
rangh
rank
rankpos
ranks
ranksrankpos
rankval
rankvaltable
ranz
ranzdajcawj
ranzmbanj
ranzvax
rap
rapdawz
rapmaenh
rappelz
raq
rarely
rather
raw
rawequal
rawget
rawkeyself
rawsep
rawset
rawvalue
rct
rd
re
reached
read
real
really
reason
reasons
reassemble
rebuild
receive
received
receives
recent
rechte
rechten
rechts
recognized
recommended
record
recording
recursive
red
redcatlink
redirect
reduce
redundant
ref
reference
references
referenceurl
refhash
reformat
refparts
regardless
regex
regexp
regexps
region
register
registrant
registration
regular
reich
reih
reihnaz
reject
rek
relativ
relative
release
released
relevant
remained
remap
remaplang
remove
removeblanks
removed
removeidx
removes
removing
ren
render
renderaboverow
renderbelowrow
rendered
rendering
rendernavbar
rendersnak
rendertrackingcategories
rengz
rengzdajcauh
rengzgietcomz
rengzhoengh
rengzlig
rep
repeat
repetitions
replace
replacealias
replaced
replacedecimalmark
replacement
replaces
replacespecialchars
report
reported
reporters
representing
represents
reptiles
republic
req
reqranks
request
requested
require
required
requires
rer
res
research
reset
resolve
responding
response
rest
result
resulti
resultparam
resultparameters
results
ret
retained
retrieved
return
returned
returning
returns
returnval
reuse
reuters
reverse
revolution
rex
rfahrzeuge
rfc
rfe
rft
rgb
rheinmetall
rice
rich
richard
richtschu
rieng
riengh
riengjvaiq
riengz
rienz
riess
right
rights
rijiq
rim
rin
rinmaeg
riu
riuriu
riuz
river
rizsienq
robert
rod
roeg
roegga
roeggeuq
roeggyaeujmeuz
roegnyanh
roek
roekcib
roemx
roen
roenci
roenfaz
roengz
roengzbae
roengzban
roengzdaeuj
roengzdaiz
roengzfwngz
roengzlwg
roengzrengz
roenhojceh
roenloh
rog
roh
rohstoffbedarf
role
rolle
rom
roman
romania
romanization
romh
rong
rongh
ronghndwen
ronghsag
rongx
ronzdoeng
root
roq
roten
round
rounded
roundto
row
rowargs
rowclass
rowcount
rownums
rows
rowstyle
rox
roxdaengz
roxnaeuz
roxnyinh
roxsoq
roxyiuj
rser
rsl
rt
rtegrad
rtig
rtung
ru
rueg
ruidenj
rule
rum
rumz
rumzcin
run
rund
rundum
running
rupees
rushdie
russlandfeldzug
ruz
rwix
rwz
rzburg
s
sa
sae
saebaek
saeceij
saed
saedbauj
saedceij
saedcingz
saedguh
saedhengz
saedsaeh
saedyienh
saeh
saehcingz
saehgienh
saehhangh
saehnieb
saehsaed
saej
saejlaux
saejlwg
saek
saekaeuj
saekcamz
saekhenj
saekhenjgeq
saekhoengz
saekmong
saelanz
saemjcaz
saemjdingh
saemjgeiq
saemjlwnh
saemxsaemx
saemxsax
saen
saenamz
saenq
saenqfangj
saenqniemh
saenqnyaemh
saenqsik
saenqsim
saenxswx
saenz
saeqsim
saetbae
saetloeng
saetnaj
saezlaeng
safe
safeuri
sah
sai
said
saihwet
saijfuj
saint
saisaengq
saiwjveizya
sajbaizciengz
salman
sam
samarkand
samcib
samdaengj
same
samgoz
sample
san
sandbox
sang
sangdi
sanghaij
sanhcah
sanhcej
sanhdungh
sanhih
sanhsih
sanitizedataset
sanj
sanjsih
sanq
sanskrit
santiago
sart
sasa
sat
satbyai
satsat
sau
saucingh
saudi
sauh
saujsu
saul
sauvaz
savanna
savannas
save
saved
saw
sawcih
sawcuengh
sawcuenh
sawgej
sawgeq
sawgun
sawheiq
sawj
sawjyungh
sawloih
sawmeh
sawndip
sawq
sawqmwh
sawqniemh
sawyingh
saxsax
saying
says
saß
sc
scale
scales
scan
schachtellaufwerk
scheme
schlacht
schließlich
schmalturm
schmidt
scholar
scholars
schon
school
schopenhauer
schutzklappe
schwere
schweren
schwerste
schwimmfa
sciences
scientific
scientist
scope
scribunto
script
scriptchapter
scripts
sd
se
search
searches
searching
season
seasons
sechs
sechstagekrieg
second
secretary
secsymbol
sect
section
sections
security
sedis
see
seedlings
seem
seen
segih
segment
sei
seicingz
seihaiz
sein
seine
seinen
seiner
seiq
seiqcawq
seiqcib
seiqdaengj
seiqdaeuz
seiqgaiq
seiqgeij
seiqgeiq
seiqgyaiq
seiqhenz
seiqlengq
seiqlig
seiqvunz
seite
seiten
seitenrichtfeld
seitenwa
seitlich
seivunz
seiz
seizbienh
seizcin
seizcou
seizdaih
seizde
seizdoeng
seizgan
seizgei
seizgeiz
seizhaenx
seizhaeuh
seizhah
seizlawz
seizneix
seizseiz
seizva
selbst
selbstfahrlafette
selbstfahrlafetten
select
selected
self
selfclosing
semi
semicolon
seng
sengdoengh
senger
sengj
sengjgaep
sengmingh
sengsiu
senhbu
senhcin
senhcinsing
senhconz
senhyenz
senj
senjgij
senjsoengq
senq
sensitive
sent
sentence
sentenced
seoul
sep
separ
separate
separated
separately
separating
separator
separators
sepc
seps
sepsk
september
sequence
sequences
sequential
ser
serbia
serial
serie
serienproduktion
series
serieslink
seriesnumber
server
set
setformatandseparators
setfossilrange
setmetatable
setranks
sets
setting
settings
settled
setzen
seuq
seuqcengh
sevei
seveicujyi
seven
several
sex
seychelles
sezbei
sezsih
sf
sfamily
sg
sgenus
shadow
shared
sheep
sheet
sheets
sherman
shi
shift
short
shortmonth
shortname
should
show
showed
showerrors
showing
shows
showtaxon
shrublands
si
sibauh
sibgvenq
sibsib
sich
sichto
side
sie
sien
sieng
siengj
siengjfap
siengsaenq
siengsim
sienj
sienmingz
sierra
sifan
sig
sigi
sigij
sigin
sign
signal
signatures
signed
significant
signs
sih
sihbanhyaz
sihcang
sihla
sihlaz
sihmuj
sihningz
sij
sik
sikart
sikhaek
silkroad
silver
sim
simdaeuz
similar
similarly
simnyienh
simple
sin
since
sinceih
sincouj
sing
singconzyenjsing
singdiuh
singgo
singhaeh
singhgiz
singj
singjsag
single
singleclaim
singlevalue
singmeh
singq
singqbied
singular
singz
singzsi
sinhaih
sinhcin
sinhcuz
sinhgyahboh
sinhgyangh
sinhoj
sinhsu
sinhvwnz
sinmaux
sinmeih
sinyangj
sinyoux
sinzningz
sinzswng
sinzvanz
siqgyaiq
siqsoq
site
siteid
sitelink
sitelinks
sitelinkscfg
siubae
siucawz
siudoeg
siuh
siuhyangj
siujbingz
siujboh
siujcuj
siujfuh
siujgangh
siujguiz
siujhanz
siujmuenx
siujsawq
siujsez
siujsiet
siujsoq
siujyez
siujyoz
siusik
siuvwnz
six
siz
sizcen
size
sizedefault
sizyensiz
sk
skin
skins
skip
skipv
sl
slash
slightly
slink
slovakia
slovenia
small
smaller
smt
smulti
snak
snakequalsvalue
snaks
snaksaliasesp
snaksdtype
snaktype
snakvalue
so
social
socialist
society
soeng
soengq
soengqfangz
soengrwnh
soengz
soft
soh
sohguenjsi
soil
soj
sojdwzsui
sojlaiz
sojmiz
sojyij
solche
solcher
solid
solitary
sollte
sollten
some
something
sometimes
somevalue
sommer
son
sondern
song
sonjhaih
sons
soon
soq
soqgi
soqliengh
soqyoz
soqyozgyah
sort
sorted
sortindices
sortkey
sou
souaeu
soucomz
souh
souhaeuj
souj
soujduenh
soujduh
soujfuj
soujgih
soujsuz
soujwj
source
sourcecount
sourced
sourcedonly
sources
south
southern
sowie
sowjetischen
sozswqswngh
sozswqyenzgiuqswngh
spa
space
spaced
spaces
spacing
span
spanish
sparseconcat
speak
speakers
special
species
speciesmanual
specieswiki
specific
specified
specify
specmbi
speech
spelling
spf
spider
spielberger
spielte
spin
spit
split
spoken
sprache
spratly
spreading
spring
sq
square
sr
sri
ss
sspecies
ssrn
ssrns
st
sta
stalin
stammwerk
stand
standard
standardausfu
standen
star
stark
starke
starken
start
started
starting
starts
starttime
starttimed
starttimem
starttimey
state
stated
statedin
statement
statements
states
statesparam
statesparameters
stating
station
stats
statt
stattdessen
status
staudinger
steady
stehenden
stellte
stellungen
step
stereochemical
stet
steten
still
stolberg
stop
store
stored
stores
str
strain
strformat
strict
strike
string
stringargs
strings
strip
striping
stripmarker
stripmarkers
stripped
strips
strout
structure
struggle
stt
stu
stub
stubcats
student
students
studied
studies
study
studying
stug
stunden
stung
sturmgeschu
sturmpanzer
stuttgart
style
styleratio
styles
styling
sub
subdivision
subdivisionranks
subf
subg
subgenus
subgroup
subheader
subheaderrowclass
subheaderstyle
subject
subjectitem
subjectlink
subjectns
subpage
subpages
subs
subscription
subsect
subsequent
subser
subsp
substances
substitute
substring
subtropical
subtype
subvar
subversion
succeed
success
successful
such
sudan
suenggangq
suenq
suenqsoq
suenqveh
suenva
suffering
suffix
suffixes
sugars
suggest
suggested
suggestion
suggestions
suh
suhgi
suhlienz
suicide
suij
suijbingz
suijli
suk
suksij
sum
summary
summer
sung
sungcan
sungciuz
sunggyah
sunghhenz
sunh
sunny
supernova
supernovae
supersect
supplied
support
supported
supporting
supports
suppress
suppressedidcat
suppressfields
supsou
sure
surname
survival
suspicion
suz
svg
swadesh
swahili
swaziland
swci
swcigih
swcigin
swconh
sweden
swhauh
swhfan
swhfaz
swhgeij
swhgih
swhgvah
swhliu
swhliugu
swhsiengj
swhsiengjgya
swhyenz
swhyienz
swhyienzsoq
swiq
switch
switched
switchlang
switzerland
swix
swjgungh
swkahsi
swnghbingz
swnghcanj
swnghcanjliz
swnghdai
swnghging
swnghhoz
swnghhozvei
swnghvuz
swnghyungz
swngj
swngjvei
swngli
swngminj
swnh
swnhleih
swnjyangh
swyenz
swyouz
swyouzcujyi
swz
swzcangh
swzdenj
swzgyahcuengh
syed
sylvestris
synonyms
syntax
synthesis
syria
system
systems
t
ta
tab
table
tablecell
tablei
tablemerge
tablerow
tables
tabletools
tag
tage
tagname
tags
tah
tail
taiwan
take
taken
takes
taking
talk
tang
tanzania
taranto
tarask
target
tashkent
tauchpanzer
taxa
taxobox
taxoboxcolour
taxocolour
taxon
taxonbar
taxonbars
taxonitalics
taxonomic
taxonomy
taxonparamissingerror
taxonrank
taxonrankstate
taxonranktable
taxonranktablei
taxontable
taxontablei
taxontabletaxontable
tbl
tcoins
td
te
teach
team
technical
technik
technische
techreport
teil
teils
temp
tempel
temperate
template
templateargs
templatedata
templatepage
templates
temple
tempmeta
temporal
temporary
tempsort
ten
ter
teren
term
terminal
terminate
terpene
terpenes
test
testcases
tested
testing
tests
text
texts
tfromsparentmonogenus
tfromsv
th
thai
than
that
the
their
them
then
theory
there
these
thesis
they
thimphu
thing
things
third
this
thisqid
those
though
thought
thoughts
thousand
threatened
three
throat
through
throwerror
thumb
thumbnail
thumbtime
thus
ti
tia
tiagpaen
tiagtsa
tiananmen
tidiedval
tidyval
tiger
tigers
tikal
till
time
timecaption
times
timestamp
timezone
timor
title
titlearea
titlearg
titlecell
titleclass
titlecolspan
titled
titleformats
titlegroup
titlelink
titlenumber
titlerow
titles
titlestyle
titletext
titletype
tld
tls
tmcid
tnt
to
today
todays
todo
together
toggles
togo
tome
tonnen
tonumber
too
took
tools
top
topic
topimage
topreached
toptaxonn
tostring
totally
totalverlust
totalverluste
tr
tracking
tragen
trailing
trang
trans
transchapter
transcript
transcripturl
translate
translated
translation
translations
translator
translatorlist
translators
transparent
treat
treated
treats
tree
trees
trial
trick
tried
tries
trim
trims
trinomial
tropical
trotz
trotzdem
true
trunk
truppe
try
tsa
tsort
tstubdoc
tte
tu
tundra
tunisia
turkic
turkmenistan
turm
turmschwenkwerk
turn
tw
tweaking
twelve
twice
twitter
two
txt
txtlang
type
typeofreference
types
typewriter
typically
tz
tze
tzen
tzes
tzlich
tzliche
tzt
tzungsfahrzeug
tzungspanzer
tzwagen
u
uabbr
ubio
uc
ucfirst
uk
ukgyaeuj
ukngviz
ukraine
ul
ulan
um
umgeru
umj
umzustellen
unable
unbuild
uncategorized
uncertainty
unclosed
und
undefined
under
underscore
underscores
understanding
unfit
ungewo
ungu
unicode
unimproved
union
uniq
unique
unit
united
unitonly
units
unitsperdegree
universal
universe
university
unknown
unknownparams
unless
unlike
unmodified
unnamed
unpack
unqnemnem
unrecognized
unset
unstrip
unstripnowiki
unsupported
unter
unterlegen
unterlegenheit
unternehmen
unterstellte
unterstu
until
unto
up
upb
update
updated
upon
upper
uppercase
upright
uq
uqdawz
uqlah
urea
uri
url
urls
urn
urspru
uruguay
us
usa
usage
use
usecite
used
useful
uselang
usenet
usenetid
useparams
user
userbox
users
uses
ushistory
using
ustring
ustringlower
usual
usually
usurped
utf
utilities
utility
uzbek
uzbekistan
uzbeks
v
va
vagut
vah
vahcaen
vahcoj
vahcuengh
vahdaez
vahdai
vahfan
vahgun
vahgvangjdungh
vahgyaj
vahmanggyalah
vahnduj
vahnizbozwj
vahsaenqdaek
vahsat
vahsug
vahvuhswhbiedkez
vahyinghgoz
vahyiuz
vaigoh
vaigyauh
vaih
vaiq
vaiqdi
vaiqhaemh
vaiqvued
vaiz
vajsi
val
valid
validate
validates
validation
validity
valkey
vallist
vals
value
values
valuesarray
valuesarrayi
valuesarrayj
valuetofind
valurl
vamauxdan
vamoiz
van
vanc
vancouver
vangh
vangjcan
vangjloz
vangz
vangzhoz
vangzsingz
vanj
vanq
vanuatu
vanz
vanzging
vanzgyangh
vanzlij
vaq
vaqhag
vaqhaggya
vaqyoz
var
variable
variables
variant
variante
variants
variations
varieties
variety
various
vat
vauthors
vayoz
vazcingdonq
ve
veditors
vegetable
vegetation
veh
vei
veibau
veijda
veijyenz
veijyenzvei
veiswngh
veiyenz
veiyenzgoz
veiyi
veiz
veizcij
veizciz
veizcuz
veizfanj
veizgiek
veizgij
veizgvanh
veizgveih
veizswnghvuz
veizvuz
veizvuzwj
venezuela
veq
ver
verba
verde
verdict
verfu
vergleich
verku
verlag
verluste
verlustreichen
version
versta
versuche
verwendet
verwendung
very
via
viaf
vicenza
victor
video
view
vih
vihci
vihliux
vihmaz
vihneix
virtues
virus
visible
visit
visual
viz
vk
vladimir
vlist
vo
vol
voltaire
volume
volumen
vom
vomag
von
vor
vorfu
vorgesehen
vorne
vortaro
vorteil
vowel
vparam
vqualifiersv
vu
vuengz
vuengzciuz
vuengzdaeq
vuengzgoz
vuengzvih
vuenh
vuenyungz
vuhgwzlanz
vuhwjduh
vujcangh
vujgi
vujgvanhgoh
vujhan
vujmingz
vujvuj
vukovar
vunz
vunzbingh
vunzfamh
vunzhong
vunzlai
vunzlajmbwn
vunzloih
vunzmbanj
vunzraeuz
vunzsai
vuz
vuzciz
vuzcungj
vuzleix
vuzleixyozgyah
vwndiz
vwnh
vwnzgen
vwnzgengauj
vwnzgu
vwnzlaiz
vwnzmingz
vwnzva
vwnzyen
vwnzyi
vwnzyoz
vxxxxors
w
wa
waffe
waffen
waffenarsenal
walk
walter
wan
wang
wanne
want
wanted
war
waren
warndump
wars
was
washington
watch
water
watson
way
ways
wałe
wcsp
wd
we
web
website
weeks
wehrmacht
weight
weit
weitere
weiteren
welcome
well
weltkrieg
weltkrieges
wenige
wenn
went
werden
were
werk
west
western
westfeldzug
westfront
what
whatever
when
where
whether
which
while
white
whitefield
whitelist
whitelisting
whitespace
who
whole
whom
whose
why
wichtigsten
wide
width
wie
wieder
wiener
wife
wiki
wikibase
wikidata
wikidataib
wikidataid
wikidataids
wikilink
wikilinked
wikilinks
wikimedia
wikipedia
wikis
wikisource
wikispecies
wikitable
wikitext
wild
wildcard
wildflowers
wildlife
wilhelm
will
william
windaus
winning
winter
wirbelwind
wirksam
with
within
without
wjbinh
wl
wngdang
wnggai
wngq
wngqdoiq
wnhlaiz
wnq
wo
wobei
wolfgang
won
woodard
woody
word
worden
words
work
working
works
world
worldcat
worldcatid
worldwide
would
wp
wrap
wrapped
wrapper
wrappers
wraps
write
writer
writers
writing
writings
written
wrong
wsc
wtf
wu
wundt
wurde
wurden
www
wyangjvadan
wzdungzciet
wzgoh
x
xeno
xeric
xi
xia
xiaobo
xiaoming
xinjiang
xiyang
xlate
xml
xn
xue
xx
xxx
xxxxors
y
ya
yacouh
yaek
yaem
yaemciet
yaemh
yaemmuenz
yaemsei
yaemyiengz
yaeng
yaenglwnh
yaep
yaeuh
yah
yahvaiz
yajgyadaz
yajlizan
yak
yakrwix
yamajsenhoz
yamajsin
yamq
yamqdin
yanfaz
yangh
yanghgangj
yangj
yangjlozcujyi
yangz
yanhai
yau
yauqgih
yauzcuz
yauzyenz
yawh
yawhcaek
yawhfuengz
yawhgingj
yawj
yawjbingh
yawjdoeg
yawjfap
yawjnaek
yawjraen
yawjyawj
ye
year
years
yebyeb
yejbeij
yemen
yen
yencunh
yencwz
yendai
yendaih
yendaiva
yenfanh
yenfaz
yenhgiu
yenhgiuyenz
yenhmingz
yenjyenz
yenqsanh
yenz
yenzanh
yenzcwz
yenzcwzsing
yenzgiu
yenzgiucunghsinh
yenzgiusoj
yenzgungh
yenzswj
yes
yesno
yesu
yet
yezdaiz
yezgingh
yezsuh
yfactor
yfull
yi
yidanh
yied
yiednamz
yiemj
yiemz
yiemzcungh
yiemzgek
yiemzhaenq
yiemzmingz
yiemzrwd
yiemzsouj
yiemzsuk
yien
yiencwj
yiengh
yienghbonj
yienghceij
yienghmoq
yienghndang
yienghndei
yienghneix
yienghsaeh
yienghsiengq
yienghyiengh
yiengj
yiengjmiz
yiengq
yiengz
yiengzbya
yiengzlwg
yiengzmeh
yienh
yienhciengz
yienhda
yienhgaep
yienhsaed
yienhsiengq
yienjheiq
yienz
yienzaen
yienzbit
yienzlaiz
yienzleix
yienzliuh
yienznaeuz
yienzsoi
yienzsoq
yienzswj
yietbaeg
yigen
yihoz
yihswhlanzgoz
yihyen
yihyoz
yijcih
yijcou
yijcuz
yijhaeh
yijheah
yijluz
yijswzlez
yijyenz
yijyenzyoz
yimingz
yin
yindi
yindu
yindung
yindunizsihya
yinduyangz
ying
yingh
yinghgoz
yinghlenzbangh
yinghvwnz
yinghyij
yinghyungz
yingjyangj
yingz
yingzcangh
yinh
yinhhengz
yinhsu
yinhyoz
yinhyungh
yinniz
yinvu
yinxfat
yinxhwnj
yinz
yinzconh
yinzda
yinzgouj
yinzhangz
yinzminz
yinzminzbi
yinznanz
yinzsanh
yinzsw
yinzvwnz
yinzvwnzcujyi
yinzyenz
yisuz
yiswhfazlah
yivei
yivu
yiyi
yiz
yizbau
yizbwnj
yizcanj
yizcingz
yizcou
yizminz
yizswhlanzgyau
ymd
yo
yoglinz
yomuenz
york
you
youdaez
youh
youhsi
youhyouh
young
younger
youngest
youngestfossil
youq
youqgaenj
your
yous
youtube
youx
youz
youzcaih
youzraemx
yoz
yozbaij
yozcej
yozgi
yozgoh
yozgyah
yozsiuh
yozsiz
yozsoh
yozsuz
yozswngh
yozswz
yozvei
yozyen
yrediv
yrefactor
yreround
yround
yugoslav
yujcangh
yung
yungh
yunghrengz
yungjhu
yungjveih
yungq
yungyiemj
yungzhawj
yungzheih
yungzsug
yungzyub
yup
yuz
yuzcaiz
yw
ywbingh
ywcuengh
ywdoj
ywhag
ywhaggya
yy
yyy
yyyy
z
za
zacapa
zagreb
zahlenma
zam
zbl
zealand
zehou
zeigte
zeitpunkt
zeng
zero
zeros
zersto
zf
zh
zha
zhang
zhao
zhe
zhi
zho
zhuang
zi
zielen
zielfernrohres
zimbabwe
ziziphus
zizyphus
zoobank
zoujtah
zu
zum
zumindest
zur
zurich
zuru
zusa
zwar
zwei
zweite
zweiten
zwischen
zylinder
zzz
{
|
}
~

§
«
­
°
±
²
¶
·
»
½
×
ß
ßere
ßiger
ßte
÷
ø
ƿ
ǆ
ɏ
ɒ
ɔ
ʿ
ˈ
̀
́
̂
̃
̄
̆
̇
̈
̉
̌
̓
̛
̣
̦
̧
̨
̯
α
β
δ
θ
λ
ν
ξ
π
ρ
ς
σ
τ
υ
б
в
р
у
ִ
ײ
بن
ه
ي
ّ
ْ
ٔ
ं
क
ज
त
द
ध
न
प
भ
य
ल
व
स
ह
ा
ि
ी
ृ
े
्
ং
ক
ঙ
ঠ
থ
দ
ন
ব
র
ল
া
ী
ু
্
ก
ข
จ
ญ
ต
น
บ
พ
ภ
ม
ย
ล
ส
ั
ิ
ี
ุ
ู
็
่
้
์
ນ
ັ
여성부
‍
‎
–
—
―
‘
’
“
”
„
•
…
‧
℃
→
↔
↷
−
③
④
⑦
─
☉
☾
☿
♀
♂
♃
♄
♆
⛢
⺀
⺄
⺆
⺈
⺊
⺌
⺕
⺝
⺸
⺼
⿰
⿱
⿲
⿳
⿴
⿵
⿶
⿷
⿸
⿹
⿺
⿻
、
。
〈
《
》
「
」
『
』
【
】
〔
〕
〢
い
う
え
か
き
く
こ
さ
し
ち
つ
て
と
な
に
の
ひ
ふ
ま
ゅ
ゆ
ょ
ら
り
る
れ
ん
゙
゚
ァ
ア
ィ
イ
ウ
オ
カ
ク
ケ
コ
サ
シ
ス
セ
ソ
タ
ッ
ツ
テ
ト
ネ
ノ
ヒ
フ
ヘ
ホ
ミ
メ
ュ
ユ
ョ
ラ
リ
ル
レ
ロ
ン
ヶ
・
ー
㇁
㇂
㇄
㇇
㇈
㇉
㇓
㐁
㐄
㐅
㐌
㐫
㐬
㐭
㐮
㐱
㑒
㒵
㒸
㒼
㓁
㓞
㔾
㕛
㕣
㕰
㖾
㗢
㘝
㚅
㚇
㚔
㚘
㝉
㝡
㝴
㝵
㞋
㞢
㞷
㠩
㠭
㠯
㡀
㡭
㡿
㢲
㢴
㣇
㣺
㥯
㪅
㫄
㫐
㫒
㫺
㬅
㬎
㬥
㬰
㭊
㲋
㳄
㷠
㸒
㸚
㸦
㼌
㼲
㽞
㿟
䀠
䂞
䍃
䏍
䏢
䒑
䖍
䖒
䖝
䖵
䙴
䚻
䜌
䝿
䡛
䢏
䧹
䪞
一
丁
丂
七
丄
丅
丆
万
丈
三
上
下
丌
不
与
丏
丐
丑
专
且
丕
世
丘
丙
业
丛
东
丝
丞
丢
丣
两
严
並
丨
丩
个
丫
丬
中
丮
丰
丱
串
临
丵
丶
丷
丸
丹
为
主
丼
丽
举
丿
乀
乂
乃
久
乆
乇
么
义
之
乌
乍
乎
乏
乐
乑
乔
乖
乗
乘
乙
乚
乛
乜
九
乞
也
习
乡
书
买
乱
乳
乾
亀
亂
亅
了
亇
予
争
事
二
亍
于
亏
亐
云
互
亓
五
井
亘
亚
些
亜
亞
亟
亠
亡
亢
交
亥
亦
产
亨
亩
享
京
亭
亮
亯
亰
亲
亳
亵
亶
亷
人
亻
亼
亾
亿
什
仁
仅
仇
今
介
仌
仍
从
仏
仐
仑
仒
仓
仔
仕
他
付
仙
仛
仝
代
令
以
仪
仫
们
仮
仰
仲
件
价
任
份
仿
企
伊
伍
伎
伏
伐
休
众
优
伙
会
伝
伟
传
伤
伦
伪
伯
估
伴
伸
伻
似
伽
但
佈
位
低
住
佐
佑
体
佔
何
佗
佘
余
佚
佛
作
你
佥
佬
佳
併
使
侃
來
侈
例
侌
侖
侗
供
依
侠
侧
侯
侵
侶
便
係
促
俄
俌
俗
保
俞
信
俩
俬
修
俱
俸
倉
個
倍
們
倒
候
倚
借
倠
倡
倫
倱
值
倾
假
偉
偏
偕
做
停
健
偭
偶
偷
偽
偿
傅
傍
傑
備
傢
傣
傲
傳
傷
傺
傻
僅
僉
像
僑
僕
僧
僮
價
儀
億
儒
償
優
儲
儿
兀
允
兂
元
兄
充
兆
兇
先
光
兊
克
兌
免
兑
兒
兓
兔
党
兜
兟
入
內
全
兩
兪
八
公
六
兮
兰
共
关
兴
兵
其
具
典
兹
养
兼
兽
冀
冂
冃
冄
内
冇
冈
冉
冊
冋
册
再
冎
冏
冐
冒
冓
冖
冗
冘
写
军
农
冝
冠
冡
冥
冫
冬
冯
冰
冲
决
况
冷
冻
净
凄
准
凉
凌
减
凝
几
凡
凢
凤
凫
凭
凯
凵
凶
凷
凸
凹
出
击
函
凾
刀
刁
刂
刃
刄
刅
分
切
刊
刍
刑
划
刕
刖
列
刘
则
刚
创
初
判
別
刨
利
别
到
制
刷
券
刺
刻
剂
則
削
剌
前
剑
剖
剛
剡
剧
剩
副
割
創
剽
劃
劇
劉
劍
力
劝
办
功
加
务
劦
动
助
努
劫
劲
劳
劵
势
勁
勃
勇
勉
勒
動
務
勞
勢
勤
勰
勳
勵
勸
勹
勺
勻
勾
勿
匀
匂
包
匆
匈
匊
匋
匍
匕
化
北
匚
匝
匠
匡
匪
匯
匱
匸
匹
区
医
匽
匾
匿
區
十
卂
千
卄
卅
卆
升
午
卉
半
卌
华
协
卑
卒
卓
協
单
卖
南
博
卜
卝
卞
占
卡
卢
卣
卤
卦
卩
卪
卫
卬
卯
印
危
即
却
卵
卷
卸
卻
卿
厂
厃
厄
厅
历
厈
厉
压
厌
厓
厕
厘
厚
原
厤
厥
厨
厭
厮
厲
厶
厷
厸
去
厼
厽
县
叀
参
參
叅
又
叉
及
友
双
反
叐
发
叒
叔
叕
取
受
变
叙
叚
叛
叜
叟
口
古
句
另
叩
只
叫
召
叮
可
台
叱
史
右
叵
叶
号
司
叹
叺
吁
吂
吃
各
吅
合
吉
吊
吋
同
名
后
吏
吐
向
吓
吕
吗
君
吝
吞
吟
否
吧
吨
吪
含
听
吮
启
吳
吴
吵
吸
吹
吼
吽
吾
呂
呆
呈
告
呎
呕
员
呙
呜
呢
呦
周
味
呵
呼
命
咅
和
咎
咏
咒
咕
咖
咛
咟
咠
咢
咨
咪
咬
咱
咲
咳
咸
咼
咽
哀
品
哆
哇
哈
哉
响
員
哥
哪
哭
哮
哲
哺
唇
唍
唐
唑
唤
售
唯
唱
唾
商
啇
啊
問
啕
啖
啚
啟
啡
啤
啥
啦
啬
啶
啸
啻
啼
喀
喂
善
喆
喇
喉
喘
喜
喝
喤
喪
喬
喭
單
喻
喿
嗇
嗝
嗟
嗡
嗣
嗷
嗽
嘉
嘛
嘟
嘧
嘲
嘴
嘵
嘹
嘿
噌
噎
噜
器
噩
噪
噫
噻
嚁
嚱
嚴
嚼
囊
囗
囘
囙
囚
四
回
囟
因
团
囧
囬
园
囯
困
囱
围
囷
固
国
图
圂
圅
圆
圈
國
圍
園
圓
圖
團
土
圡
圣
圥
在
圩
圭
地
圳
圶
场
圼
址
坂
均
坎
坏
坐
坒
块
坚
坛
坡
坤
坦
坪
坴
垂
垄
型
垒
垔
垚
垟
垣
埀
埃
埋
城
域
埶
執
培
基
埼
堀
堂
堅
堆
堇
堡
堤
堪
堯
報
場
塊
塑
塔
塗
塘
塚
塞
填
塵
境
墅
墓
墙
增
墨
墳
墾
壁
壇
壓
壘
壤
士
壬
壮
壯
声
壳
壴
壶
壹
壺
壽
夂
处
夅
夆
备
夊
夋
夌
复
夏
夒
夕
外
夗
夘
多
夜
够
夠
夢
夥
大
夨
天
太
夫
夬
夭
央
失
夲
头
夷
夸
夹
夻
夾
奂
奄
奇
奈
奉
奋
奎
奏
奐
契
奓
奔
奖
套
奚
奞
奠
奢
奥
奧
奬
奭
女
奴
她
奻
好
如
妄
妆
妇
妈
妊
妑
妖
妙
妟
妥
妹
妻
妾
姆
始
姐
姑
姓
委
姗
姚
姜
姦
姪
姫
姱
姹
姻
姿
威
娃
娄
娇
娘
娜
娟
娠
娣
娱
娶
婁
婆
婌
婚
婧
婴
婵
婺
媒
媚
媳
媽
嫁
嫉
嫌
嫩
嬌
嬰
嬴
孀
子
孑
孔
孕
孖
字
存
孙
孚
孛
孝
孟
季
孤
学
孩
孫
孱
學
孽
宀
宁
宂
它
宅
宇
守
安
宋
完
宏
宓
宗
官
宙
定
宛
宜
宝
实
审
客
宣
室
宪
宫
宮
宰
害
宴
宵
家
容
宽
宾
宿
寂
寄
寅
密
寇
富
寒
寓
寞
察
寥
實
寧
寨
審
寫
寬
寮
寰
寵
寶
寸
对
寺
寻
导
寽
対
寿
封
専
尃
射
将
將
專
尉
尊
尋
尌
對
導
小
少
尒
尓
尔
尖
尗
尘
尚
尝
尞
尢
尣
尤
尧
尨
尬
尭
就
尴
尸
尹
尺
尻
尼
尽
尾
尿
局
层
居
屆
屈
屋
屍
屎
屏
屑
展
屖
屙
屚
属
屠
屡
屢
層
履
屬
屮
屯
屰
山
屵
屾
屿
岁
岂
岑
岚
岛
岜
岡
岩
岳
岸
岿
峨
峯
峰
島
峽
崇
崎
崑
崔
崖
崙
崛
崦
崩
崳
崽
嵌
嵫
嵬
嶲
嶽
巂
巅
巛
川
州
巟
巠
巡
巢
巤
工
左
巧
巨
巩
巫
差
己
已
巳
巴
巷
巸
巽
巾
巿
帀
币
市
布
师
希
帕
帖
帚
帛
帝
带
師
席
帮
帶
常
帽
幕
幣
幫
干
平
年
幵
并
幷
幸
幺
幻
幼
幽
幾
广
広
庄
庆
庇
床
序
库
应
底
店
庙
庚
府
庞
废
度
座
庫
庭
庵
庶
康
庸
廉
廊
廌
廖
廛
廟
廠
廢
廣
廩
廬
廳
廴
延
廷
廸
建
廾
廿
开
弁
异
弃
弄
弇
弋
式
弓
弔
引
弗
弘
弜
弟
张
弥
弦
弭
弯
弱
張
強
弹
强
弼
彊
彌
彎
彐
彑
归
当
彔
录
彖
彗
彡
形
彥
彦
彧
彩
彭
彰
影
彳
役
彻
彼
往
征
径
待
很
律
後
徐
徒
得
徙
從
御
復
循
微
徳
徵
德
徼
徽
心
忄
必
忆
忌
忍
忏
志
忘
忙
忝
忠
忧
忩
快
忳
念
忻
忽
忿
怀
态
怅
怎
怒
怕
怖
思
怠
急
性
怨
怪
怱
总
恆
恋
恍
恐
恒
恢
恣
恤
恨
恩
恭
息
恶
悉
悔
悖
悟
悠
患
悤
悦
您
悬
悯
悲
悶
悸
悼
情
惆
惊
惑
惚
惜
惟
惠
惡
惢
惨
惭
惯
想
惶
惹
愁
愈
意
愚
愛
感
愿
慈
態
慌
慕
慢
慣
慧
慨
慮
慰
慶
慷
慾
憂
憐
憲
憶
懂
應
懒
懲
懷
懼
戀
戈
戉
戊
戋
戌
戍
戎
戏
成
我
戒
戔
或
战
戚
戠
戢
截
戰
戲
戴
戶
户
戹
戼
戾
房
所
扁
扇
手
扌
才
扎
打
托
扣
执
扩
扫
扬
扭
扮
扲
扶
批
扽
找
承
技
把
抑
抒
抓
投
抖
抗
折
抚
抛
抟
抢
护
报
抬
抱
抵
抹
抽
拂
担
拉
拍
拐
拒
拔
拖
拗
招
拜
拟
拥
拨
择
括
拳
拷
拼
拽
拾
拿
持
指
按
挖
挝
挡
挤
挥
挪
挫
振
挺
挽
捆
捉
捐
捕
捞
损
捡
换
捨
据
捲
捷
掇
授
掉
掌
排
掘
掠
採
探
接
控
推
掩
措
掬
掰
掸
描
提
插
揚
換
握
揭
揮
援
揽
損
搜
搬
搭
搴
摄
摆
摇
摊
摔
摧
摩
摶
摸
撂
撄
撑
撒
撞
撩
撫
播
撰
擁
擊
操
擔
據
擞
擠
擦
攀
攝
支
攴
攵
收
攸
改
攻
放
政
敄
故
效
敌
敏
救
敕
敖
敗
教
敝
敞
敢
散
敦
敫
敬
数
敲
整
敷
數
斂
文
斉
斊
斋
斌
斑
斗
料
斜
斤
斥
斩
斬
断
斯
新
斷
方
於
施
斿
旁
旅
旋
旌
族
旗
无
旡
既
旣
日
旦
旧
旨
早
旬
旭
旱
旲
时
旺
旾
昆
昇
昊
昌
昍
明
昏
易
昔
昗
昜
星
映
春
昧
昨
昬
昭
是
昱
昴
昷
显
時
晃
晉
晋
晏
晓
晕
晚
晤
晦
晨
晩
普
景
晰
晴
晶
智
晾
暂
暑
暖
暗
暫
暮
暴
曆
曇
曉
曜
曩
曰
曲
曳
更
曷
書
曹
曼
曾
替
最
朁
會
月
有
朋
服
朔
朕
朗
望
朝
期
木
朩
未
末
本
札
朮
术
朱
朴
朵
朶
机
朽
朿
杀
杂
权
杆
李
杏
材
村
杖
杜
束
条
来
杨
杭
杯
杰
東
杲
杳
杵
松
板
极
构
枉
析
林
枚
果
枝
枫
枲
架
枼
柄
柏
某
染
柔
柢
查
柬
柰
柱
柳
柴
柽
栄
标
栈
栏
树
栗
校
样
核
根
格
栽
桀
桂
桃
框
案
桌
桑
桓
桠
档
桥
桦
桶
桼
梁
梅
條
梟
梦
梧
梨
梯
械
梳
梵
检
棄
棉
棋
棒
棘
棟
棠
棣
棥
森
棱
椅
植
椎
椒
椰
楚
楠
業
極
楷
楼
楽
概
榄
榜
榮
榴
槃
構
槌
槐
槽
槿
樂
樊
樓
標
樟
模
樣
横
樽
樾
橋
機
橡
檂
檔
檢
櫻
權
欠
次
欢
欣
欧
欮
欲
欶
欺
欽
款
歆
歇
歌
歐
歛
歡
止
正
此
步
武
歧
歨
歪
歮
歯
歰
歲
歴
歷
歸
歹
歺
死
殆
殊
残
殖
殛
殳
殴
段
殷
殸
殹
殺
殻
殿
毀
毁
毋
毌
母
每
毒
比
毕
毚
毛
毫
毳
氏
氐
民
气
氢
氣
氧
氮
氯
氰
水
氵
氶
氷
永
氺
氾
汁
求
汇
汉
汏
汕
汗
汝
汞
江
池
污
汤
汪
汭
汲
決
汽
沃
沈
沉
沌
沐
沒
沓
沙
沝
没
沥
沧
河
油
治
沽
沾
沿
況
泄
泉
泊
泌
法
泛
泡
波
泣
泥
注
泪
泰
泳
泻
泽
洁
洋
洒
洗
洛
洞
津
洪
洲
活
派
流
浄
浅
测
济
浓
浙
浦
浩
浪
浮
浴
海
浸
涂
涅
消
涉
涕
涛
涟
涡
润
涯
液
涵
涼
淆
淇
淋
淌
淑
淘
淡
淤
淫
淮
深
淳
淵
混
淺
添
清
渊
渐
渔
渙
渚
渠
渡
渣
温
測
港
渴
游
湖
湘
湛
湯
湾
湿
溃
源
準
溘
溝
溟
溥
溪
溫
溯
溶
溺
滅
滇
滋
滑
滚
滝
滞
滟
满
滤
滨
滩
滲
滴
滿
漁
漂
漆
漏
演
漢
漫
漬
漱
漸
潇
潋
潔
潘
潜
潤
潮
潰
潲
潺
澄
澈
澤
澳
激
濑
濟
濯
濱
瀉
瀛
瀬
灌
灑
灣
火
灬
灭
灰
灵
灶
灷
灼
災
灾
炁
炅
炉
炎
炏
炗
炙
炭
炮
炳
炸
点
為
炼
烂
烈
烏
烘
烜
烝
烟
烤
烦
烧
烫
热
烷
烹
焉
焊
無
焦
焯
焰
焱
然
煉
煌
煜
煞
煤
照
煨
煮
煽
熊
熏
熟
熱
熹
燃
燈
燒
燕
營
燥
燦
燮
燵
爆
爐
爪
爫
爬
爭
爯
爰
爱
爲
爵
父
爷
爸
爺
爻
爽
爾
爿
片
版
牌
牒
牙
牚
牛
牜
牟
牡
牢
牧
物
牪
牲
牴
牵
特
牺
牽
犀
犬
犭
犮
犯
状
犹
狀
狂
狄
狊
狐
狗
狠
独
狭
狱
狹
狺
猋
猎
猒
猛
猩
猪
献
猿
獁
獄
獅
獎
獨
獭
獲
獻
玄
率
玉
王
玛
玟
玨
玩
玫
环
现
玲
玻
珈
珊
珍
珎
珠
班
現
球
理
琉
琐
琛
琢
琪
琴
琵
琶
琼
瑚
瑜
瑞
瑟
瑩
瑪
瑰
瑶
瑾
璃
璋
璠
環
瓜
瓦
瓶
瓷
甘
甚
甜
生
產
産
用
甩
甫
甬
田
由
甲
申
电
甶
男
甸
甹
町
画
甾
畀
界
畏
畐
留
畜
畟
畢
略
畧
畨
番
畫
異
畱
畴
當
畺
畾
疆
疊
疋
疌
疏
疑
疒
疔
疗
疚
疝
疣
疥
疫
疮
疱
疳
疸
疹
疼
疾
病
症
痔
痕
痘
痛
痤
痨
痰
痹
痿
瘍
瘤
瘫
療
癌
癜
癣
癫
癶
癸
癹
登
發
白
百
皀
皂
皃
的
皆
皇
皈
皋
皐
皕
皮
皱
皷
皿
盃
盆
盇
盈
益
盍
盎
盐
监
盒
盔
盖
盗
盘
盛
盟
盡
監
盤
盧
目
直
相
盼
盾
省
眇
眉
看
県
眔
眞
真
眠
眧
眩
眶
眷
眼
眾
着
睁
睘
睛
睡
督
睪
睾
睿
瞅
瞎
瞏
瞒
瞢
瞧
瞪
瞬
瞿
矍
矚
矛
矞
矢
矣
知
矦
矩
矫
短
石
矿
码
砂
砍
研
砖
破
础
硅
硎
硫
硬
确
碉
碌
碎
碑
碗
碟
碧
碰
碳
確
碼
碾
磊
磐
磨
磬
磺
礁
礦
示
礻
礼
社
祀
祂
祇
祈
祖
祗
祝
神
祟
祠
祥
票
祭
祷
祸
禀
禁
禄
禎
福
禦
禪
禮
禱
禳
禸
禹
禺
离
禽
禾
禿
秀
私
秃
秉
秋
种
科
秘
秝
租
秤
秦
秧
积
称
移
秽
稀
程
稍
税
稔
稟
稣
種
稱
稿
穀
穌
積
穗
穴
究
穷
穹
空
穿
突
窄
窑
窒
窝
窰
立
竒
站
竜
竝
竞
竟
章
童
端
競
竹
竺
笃
笈
笋
笑
笔
笙
笠
符
第
筆
等
筋
筑
筒
答
策
筷
筹
签
简
箋
箏
箓
箕
算
管
箭
箴
節
範
篇
築
篠
篤
篦
篭
篮
篾
簕
簡
簸
簽
簿
籌
籍
籤
籲
米
类
粉
粑
粒
粗
粘
粛
粟
粤
粥
粦
粪
粮
粲
粹
精
糇
糊
糍
糖
糞
糟
糠
糯
糸
糹
系
紀
約
紅
納
紐
純
紙
級
素
索
紧
紫
累
細
紹
終
組
結
絕
絜
絡
給
絫
統
絲
經
綜
維
綱
網
綴
綾
綿
緒
線
緣
編
緬
緯
練
縣
縫
縮
縱
總
繁
繇
織
繫
繼
續
纍
纕
纟
纠
红
约
级
纪
纯
纱
纲
纳
纵
纷
纸
纺
纽
线
练
组
绅
细
织
终
绍
经
绑
结
绕
绘
给
络
绝
统
绣
绥
继
绪
续
绮
绳
维
绵
综
绽
绿
缀
缅
缆
缓
缕
编
缘
缝
缦
缨
缩
缴
缶
缸
缺
网
罒
罔
罕
罗
罙
罚
罡
罢
罩
罪
置
署
罷
羁
羅
羊
羌
羍
美
羔
羕
羗
羞
羟
羡
羣
群
義
羲
羸
羽
翁
翅
翌
翏
習
翕
翟
翠
翩
翰
翻
翼
耀
老
耂
考
者
耆
而
耍
耎
耑
耒
耕
耗
耳
耴
耶
耷
耻
聂
聊
聋
职
聏
联
聖
聚
聞
聪
聯
聲
聶
職
聽
聿
肀
肃
肅
肆
肇
肉
肋
肌
肖
肙
肛
肝
肢
肥
肧
肩
肪
肯
肱
育
肴
肺
肿
胀
胃
胆
胇
背
胎
胖
胛
胜
胞
胡
胥
胶
胸
胺
能
脂
脈
脉
脊
脏
脑
脓
脚
脩
脫
脱
脸
脹
脾
腊
腎
腐
腔
腕
腛
腥
腦
腰
腸
腹
腺
腾
膀
膉
膚
膜
膝
膠
膨
臂
臟
臣
臤
臧
臨
自
臬
臭
臯
臱
至
致
臺
臼
臽
臾
臿
舀
舂
舄
與
興
舉
舊
舌
舍
舒
舛
舜
舞
舟
航
般
舰
舵
舶
船
艮
良
艰
色
艳
艸
艹
艺
艾
节
芒
芔
芙
芝
芦
芨
芬
芮
花
芳
芺
芻
苋
苍
苎
苏
苑
苓
苔
苗
苞
苟
若
苦
英
苹
茂
范
茅
茉
茗
茞
茨
茫
茱
茶
茸
荅
草
荊
荐
荒
荡
荣
荤
药
荷
荼
莆
莉
莊
莎
莞
莧
莪
莫
莱
莲
获
莹
莺
莽
菁
菅
菆
菊
菌
菐
菖
菜
菩
華
菲
萄
萊
萝
营
萧
萨
萩
萬
萱
萸
落
葉
著
葛
葡
董
葬
葵
蒂
蒙
蒜
蒟
蒦
蒲
蒼
蓄
蓉
蓋
蓝
蓣
蓬
蓮
蓺
蔑
蔓
蔚
蔡
蔣
蔬
蔵
蕃
蕉
蕎
蕙
蕭
薄
薇
薛
薦
薩
薪
薬
薯
薰
藉
藍
藏
藝
藤
藥
藩
藻
蘆
蘇
蘭
虍
虎
虏
虐
虒
虔
處
虖
虗
虘
虚
虛
虜
虞
號
虫
虱
虽
虾
蚅
蚍
蚓
蚕
蚤
蚧
蚩
蚯
蛆
蛇
蛈
蛋
蛙
蛟
蛤
蛭
蛮
蛾
蜀
蜋
蜜
蜡
蝇
蝉
蝎
蝦
蝪
蝴
蝶
螃
融
螺
蟀
蟄
蟋
蟲
蟹
蠕
蠡
蠢
血
衆
行
衍
術
衔
街
衛
衝
衡
衣
衤
补
表
衮
衰
衿
袁
袋
袍
袖
袞
被
袭
裁
裂
装
裏
裔
裕
裘
裙
補
裝
裡
裤
裳
裴
裹
製
褂
複
褐
褒
褥
褭
褱
襄
襟
襲
襾
西
覀
要
覃
覆
見
規
覓
視
覧
親
観
覺
覽
觀
见
观
规
视
览
觉
角
觞
解
觥
触
觸
言
訁
訂
訇
計
訊
討
記
訛
訪
設
許
訴
訶
証
訾
詔
評
詞
詢
詣
試
詩
話
該
詳
詹
誅
誉
誌
認
誓
誕
語
誠
誤
誥
誦
誩
說
説
課
調
談
請
論
諸
諾
謀
謂
謇
講
謝
證
識
譚
譜
警
譬
譯
議
譲
護
譽
讀
變
讓
讖
讚
讠
计
订
认
讨
让
讪
训
议
记
讲
许
论
讼
讽
设
访
诀
证
评
识
诉
诊
词
译
试
诗
诙
诚
话
诞
诟
诡
该
详
诩
诫
语
误
说
诵
请
诸
诺
读
诼
课
谁
调
谇
谈
谊
谍
谐
谑
谓
谢
谣
谦
谨
谱
谷
豁
豆
豈
豊
豐
豕
豖
豙
象
豦
豩
豪
豫
豸
貇
貌
貓
貝
貞
貟
負
財
貢
貧
貨
貪
貫
責
貳
貴
買
費
貿
賀
賁
資
賈
賊
賏
賓
賔
賛
賜
賞
賢
賣
賦
質
賴
購
贈
贊
贖
贝
负
贡
财
责
贤
败
账
货
质
贪
购
贯
贲
贴
贵
贸
费
贺
资
赋
赎
赏
赐
赔
赖
赛
赞
赤
赦
赫
走
赴
赵
赶
起
趁
超
越
趋
趣
趨
足
趴
跋
跌
跑
跚
距
跟
跩
路
跳
践
踊
踏
踐
踩
踪
蹄
蹇
蹈
蹒
蹟
蹦
蹪
蹭
蹲
蹻
蹿
躅
身
躬
躴
躺
車
軍
軎
軟
較
載
輒
輔
輝
輦
輩
輪
輸
輻
輾
輿
轉
车
轨
转
轮
软
轰
轴
轻
轼
载
较
辅
辆
辉
辑
输
辖
辗
辛
辜
辞
辟
辣
辥
辦
辨
辩
辭
辰
辱
農
辵
辶
边
辽
达
迁
迅
过
迈
迎
运
近
返
还
这
进
远
违
连
迦
迪
迫
迭
述
迴
迷
迹
追
退
送
适
逃
逆
选
透
逐
递
途
這
通
逛
逝
速
造
逢
連
逮
週
進
逸
逼
遀
遁
遂
遇
遊
運
遍
過
道
達
遗
遞
遠
遣
遥
適
遭
遵
遷
選
遺
遼
避
邀
還
邈
邊
邑
邓
邕
那
邦
邪
邮
邯
邻
郁
郎
郑
郡
部
郭
郵
郷
郸
都
鄉
鄙
鄧
鄰
酉
酋
酌
配
酒
酓
酮
酯
酱
酵
酸
醇
醉
醒
醣
醫
醮
釆
采
释
釋
里
重
野
量
金
釒
針
鈔
鈴
鉛
鉴
銀
銅
銚
銜
銮
銳
鋸
錄
錢
錦
錮
鍊
鍍
鍵
鍾
鎮
鏈
鏡
鐘
鐵
钅
针
钓
钟
钢
钦
钧
钩
钱
钻
铁
铃
铅
铛
铜
铝
铣
银
链
销
锁
锄
锅
锋
锐
锑
错
锡
锣
锦
键
锻
镇
镜
長
镸
长
門
閃
閉
開
閏
閑
閒
間
閔
関
閣
閭
閱
閵
閻
闌
闕
關
闡
门
闪
闭
问
闲
间
闷
闹
闻
闽
阁
阅
阐
阑
阔
阙
阜
阝
队
阡
阮
阱
防
阳
阴
阵
阶
阻
阿
陀
附
际
陆
陈
陋
陌
降
限
陕
院
陣
除
险
陪
陰
陳
陵
陶
陷
陸
陽
隅
隆
隈
隊
隋
隍
階
随
隐
隔
際
障
隡
隨
險
隱
隶
隸
隹
隺
隻
隼
隽
难
雀
雁
雄
雅
集
雈
雋
雍
雐
雔
雕
雖
雙
雚
雜
雝
離
難
雨
雩
雪
雰
雲
零
雷
電
需
霄
震
霍
霓
霜
霝
霞
霧
露
霸
靈
靑
青
靖
静
靜
非
靠
靡
面
靣
革
靴
鞋
鞍
鞭
鞿
韋
韓
韦
韩
韭
韯
韱
音
韵
韶
響
頁
頂
頃
項
順
須
頌
預
頒
頓
頗
領
頜
頡
頭
頻
顆
題
額
顏
願
顛
類
顯
页
顶
项
顺
须
顾
顿
颂
预
领
颇
颈
颐
频
颗
题
颜
额
颠
颤
颧
風
风
飒
飓
飘
飛
飞
食
飠
飯
飲
飴
飽
飾
養
餐
餘
館
饅
饑
饣
饥
饭
饮
饰
饱
饵
饿
馆
馋
馍
馔
首
香
馬
馮
駅
駐
駒
駦
駱
駿
驅
驗
驚
马
驰
驱
驶
驻
驾
骂
骄
骆
骇
验
骑
骚
骤
骨
骸
骼
髁
髓
體
高
髟
髮
鬥
鬯
鬲
鬼
魂
魅
魏
魔
魚
魯
鮋
鮨
鮪
鮮
鯉
鯛
鯨
鯰
鰊
鰍
鰓
鰭
鰻
鱈
鱗
鱼
鲁
鲍
鲜
鳅
鳖
鳞
鳥
鳳
鳴
鴉
鴞
鵦
鶴
鸟
鸡
鸢
鸣
鸦
鸭
鸮
鸾
鸿
鹄
鹅
鹊
鹰
鹳
鹵
鹽
鹿
麃
麓
麗
麟
麥
麦
麩
麪
麻
麼
黃
黄
黍
黎
黏
黑
黒
默
點
黨
黹
黽
黾
鼎
鼓
鼠
鼻
齊
齋
齐
齒
齿
龍
龙
龚
龜
龟
龠
龰
龱
龴
龵
龶
龷
龸
龹



者
艹
！
％
（
）
，
－
．
０
２
３
４
５
６
８
：
；
？
［
］
ａ
ｂ
ｃ
ｄ
ｉ
ｍ
ｎ
ｒ
～
𐀀
🜨
𠀁
𠀃
𠀆
𠀉
𠀎
𠀐
𠁁
𠁣
𠂆
𠂇
𠂈
𠂉
𠂊
𠂋
𠂎
𠂒
𠂔
𠂛
𠂡
𠂢
𠂤
𠂬
𠂭
𠂹
𠃊
𠃋
𠃌
𠃍
𠃎
𠃑
𠃓
𠃔
𠃜
𠄌
𠄎
𠄠
𠄢
𠆢
𠆥
𠇍
𠈌
𠌵
𠓜
𠔉
𠔥
𠔼
𠔽
𠔿
𠕀
𠕁
𠕋
𠘧
𠘨
𠙻
𠙼
𠚏
𠚒
𠚤
𠚪
𠣏
𠤎
𠤕
𠥓
𠦄
𠦑
𠦝
𠧒
𠧗
𠧪
𠩺
𠪚
𠫓
𠫔
𠫤
𠬛
𠬝
𠬞
𠬢
𠬤
𠬶
𠮛
𠮦
𠮩
𠮷
𠯑
𠱠
𠳮
𠷎
𡈼
𡉀
𡉵
𡌥
𡍮
𡍹
𡎜
𡏳
𡕒
𡕩
𡕰
𡖅
𡗗
𡗜
𡗯
𡗶
𡘆
𡘤
𡥧
𡧱
𡨄
𡩧
𡬠
𡭽
𡰣
𡰥
𡰪
𡰯
𡰱
𡱍
𡷈
𡸁
𡿨
𡿩
𡿪
𡿺
𢀖
𢀛
𢀩
𢁙
𢆉
𢆰
𢆶
𢇁
𢇇
𢉖
𢌬
𢌿
𢏚
𢑑
𢑚
𢖻
𢙣
𢛳
𢦏
𢦒
𢧵
𢳝
𢼄
𢾕
𣁋
𣄼
𣅀
𣅽
𣍘
𣎳
𣎵
𣏋
𣏼
𣔉
𣗥
𣥂
𣥖
𣦵
𣦼
𣧄
𣪊
𣪠
𣬉
𣳾
𣶒
𤇾
𤊽
𤋏
𤐫
𤓰
𤔔
𤕨
𤜄
𤣩
𤰇
𤰔
𤰞
𤴓
𤴔
𤽄
𥁑
𥁕
𥃦
𥃩
𥃭
𥇡
𥑟
𥘅
𥘈
𥝢
𥫗
𥱡
𦈢
𦉪
𦉬
𦉼
𦍌
𦍒
𦎧
𦐇
𦓔
𦔮
𦘒
𦘭
𦙃
𦙭
𦚏
𦛨
𦜘
𦡯
𦣝
𦣞
𦣻
𦥑
𦥔
𦥯
𦨉
𦭝
𦰩
𧆞
𧈧
𧘇
𧰨
𧴪
𧴮
𧵩
𧾷
𨳙
𨳿
𨸏
𨾴
𩙿
𩠐
𩨾
𩫏
𩵋
𪉷
𪜀
𪝈
𪟞
𪟽
𪠲
𪩲
𫇖
𫇦
𫔭
𫔯
𫜸
𫝀
𫠣
𫠩
𫢉
𫥞
𫩏
𫩠
𫪡
𫰈
𫱆
𫲽
𫶧
𬀷
𬐘
𬗌
𬙙
𬛸
𬜯
𬟩
𬠼
𬯁
𬴘
𬺻
𬻨
𬻹
𬼉
𬼖
𬿇
𭀰
𭁈
𭁨
𭅰
𭆨
𭏢
𭑈
𭑫
𭕄
𭗼
𭙄
𭤨
𭥓
𭥫
𭨡
𭨪
𭶼
𭷐
𭻾
𭾮
𮄫
𮅕
𮊿
𮍌
𮍏
𮓗
𮥼
𮧮
𮪼
廾
𰀁
𰀄
𰀈
𰀉
𰀕
𰀠
𰀡
𰀢
𰀪
𰁜
𰂌
𰃮
𰆊
𰆘
𰊎
𰋙
𰍯
𰕎
𰢴
𰧭
𰯲
𰻸
󳕑
󳚬
󴆦
󴴯
󶅫
󶷡
󶸨
0--
00--
01--
05--
06--
07--
08--
09--
10--
11--
12--
13--
14--
15--
17--
18--
20--
21--
23--
24--
25--
27--
29--
30--
31--
32--
33--
34--
35--
38--
39--
41--
43--
45--
46--
47--
48--
49--
50--
51--
52--
53--
55--
56--
59--
60--
61--
62--
67--
69--
74--
75--
84--
90--
a--
ab--
abg--
activ--
ad--
advo--
aen--
aeu--
afrika--
ag--
ah--
ai--
ak--
al--
alum--
am--
amaz--
amq--
an--
ang--
angebr--
angq--
anh--
announ--
annu--
anq--
any--
ap--
app--
ar--
arg--
args--
as--
at--
atri--
atta--
au--
auf--
aus--
außen--
av--
b--
ba--
bae--
baek--
baez--
bah--
baih--
baij--
baiz--
baj--
bak--
bal--
ban--
banh--
banj--
bar--
base--
bau--
bauj--
bauq--
be--
bedeu--
beg--
beh--
beij--
benj--
ber--
beson--
bet--
bh--
bi--
bien--
bienq--
bil--
bingh--
bingz--
binj--
binq--
bio--
bit--
biz--
bli--
bo--
boh--
bonj--
bouh--
boux--
boz--
br--
brey--
bri--
broad--
bu--
buen--
bug--
buh--
buj--
buq--
but--
buz--
bwz--
bya--
byaek--
byagap--
byauj--
byo--
c--
ca--
cae--
caeg--
caen--
caenh--
caep--
caet--
caez--
cai--
caij--
caiq--
caiz--
calcu--
cam--
camh--
can--
cang--
cangh--
cangq--
car--
carr--
cau--
cawj--
cawq--
cawz--
caz--
cc--
ce--
ceh--
ceij--
ceiz--
cell--
censo--
cenz--
ch--
check--
chr--
ci--
cib--
cien--
cienz--
ciep--
cih--
cij--
cin--
cing--
cingj--
cingq--
cingz--
cir--
circu--
ciuq--
ciuz--
cix--
ciz--
ck--
ckg--
cl--
claim--
co--
coi--
coih--
com--
comz--
con--
congratu--
cop--
cor--
cou--
couh--
coz--
crit--
cu--
cuj--
cuk--
culti--
cung--
cungh--
cunz--
cw--
cwng--
cwz--
cycl--
d--
da--
daeg--
daek--
daez--
dah--
dai--
daih--
daiq--
daiz--
daj--
dam--
damq--
dan--
dang--
danh--
dap--
data--
date--
datetime--
dau--
dauq--
dauz--
dawz--
dax--
de--
dead--
defe--
defin--
deih--
delink--
dem--
den--
deng--
denh--
denz--
dep--
deu--
di--
dieg--
diens--
dienz--
diff--
dih--
dij--
din--
dingj--
dingq--
disam--
diss--
diuh--
diz--
do--
doek--
doeng--
doh--
doi--
doiq--
donz--
dor--
douz--
down--
dox--
doz--
du--
duh--
dui--
dungh--
dunh--
durch--
duz--
dwg--
dwk--
dwz--
e--
ear--
eg--
eid--
ein--
einge--
el--
elec--
elektr--
em--
en--
ent--
enzy--
er--
es--
eu--
every--
ex--
exam--
exce--
expa--
explo--
ext--
f--
fa--
faed--
faen--
fag--
fahr--
fanh--
fanj--
faplunz--
fat--
faz--
fe--
feih--
fest--
file--
fin--
find--
fir--
fla--
flo--
flu--
fo--
fol--
for--
foux--
fr--
fu--
fuj--
fuk--
fungh--
fuz--
g--
ga--
gaeu--
gag--
gai--
gaih--
gaij--
gaiq--
gak--
gam--
gan--
gang--
gangj--
gap--
gar--
gauh--
gauq--
ge--
geiq--
geiz--
gej--
gem--
gemj--
gen--
genj--
ges--
get--
gi--
gih--
gij--
gik--
gim--
gimq--
ging--
gingj--
ginh--
ginj--
giuz--
giz--
gle--
go--
goeng--
goh--
goj--
gok--
goq--
gouj--
gouq--
goz--
gra--
gre--
groß--
gu--
guek--
guh--
guj--
gung--
gvangh--
gvangj--
gvanj--
gvaq--
gvei--
gveiq--
gvi--
gwn--
gwnz--
gwz--
gy--
gya--
gyae--
gyah--
gyaj--
gyau--
gyauh--
gyoe--
gyoeb--
gyoep--
h--
ha--
hab--
haex--
hag--
hai--
haij--
haj--
han--
har--
harmo--
has--
hat--
hau--
hauj--
haupt--
haw--
haz--
he--
heah--
heav--
heiq--
her--
hi--
hih--
hin--
ho--
hoiz--
hoj--
holl--
hooknames--
hoz--
hu--
hung--
hungz--
huz--
hw--
hwnj--
hwnq--
hwz--
hy--
i--
im--
in--
inf--
infra--
inne--
insi--
int--
inter--
investi--
ip--
ir--
is--
isi--
iso--
it--
iu--
j--
ja--
je--
jen--
jo--
json--
ju--
k--
ka--
kampf--
ket--
kha--
kla--
kle--
ko--
komm--
konventi--
konzip--
ku--
l--
la--
laeb--
lah--
lai--
laiz--
laj--
lanz--
last--
lat--
lau--
lay--
le--
leit--
len--
lenk--
lenz--
lez--
lh--
li--
lie--
lig--
lij--
ling--
lingz--
link--
linz--
liuz--
liz--
lizenz--
ll--
lo--
loh--
lon--
loz--
lu--
lungz--
luz--
lw--
lwed--
lwg--
m--
ma--
maez--
mag--
mai--
maj--
mak--
man--
manufactu--
map--
maq--
mauh--
mauz--
max--
maz--
mb--
mba--
mbaj--
mbat--
mbaw--
mbouj--
me--
meg--
meij--
meiz--
men--
mi--
mic--
micr--
min--
minj--
minz--
mis--
mit--
miz--
mo--
mon--
monum--
mor--
mou--
moz--
mu--
muz--
mw--
myauz--
myok--
n--
na--
naj--
namh--
namz--
nanz--
nd--
ndaej--
ndang--
ndat--
ndaw--
ndei--
ndok--
ne--
neg--
neu--
new--
nf--
ng--
ngeih--
ngoenz--
ni--
nit--
nn--
no--
noh--
non--
nor--
nord--
not--
nou--
ns--
nu--
nya--
nz--
o--
obso--
oet--
off--
ok--
oly--
on--
op--
opti--
or--
orp--
os--
osaz--
ouh--
out--
over--
p--
pa--
pal--
panzer--
pi--
pit--
pla--
ple--
po--
pol--
pp--
pra--
pre--
pri--
printdatavalue--
pro--
prog--
prov--
pu--
px--
q--
qu--
que--
ques--
r--
ra--
raemx--
raet--
raez--
raiz--
rank--
ranz--
raw--
rd--
re--
rea--
read--
recip--
recog--
ref--
reg--
render--
rep--
req--
res--
resolve--
rev--
reyk--
rft--
right--
ris--
riu--
riuz--
riz--
rk--
ro--
roeg--
rog--
rohr--
rom--
rox--
ru--
ruz--
rz--
s--
sa--
sac--
sae--
saed--
saeh--
saek--
saemj--
saenq--
saet--
sai--
sak--
sal--
sam--
san--
sang--
sanh--
sat--
sau--
saw--
sawq--
sc--
sch--
se--
sei--
seiq--
seiz--
sel--
seng--
senh--
senj--
set--
sez--
sh--
sha--
sho--
show--
si--
siez--
sih--
sij--
sim--
sing--
singz--
sinh--
sip--
situ--
siu--
siuj--
siz--
sk--
sl--
so--
soh--
son--
song--
soq--
souj--
sov--
sp--
spe--
spezial--
ss--
st--
ste--
sterreic--
su--
sub--
suh--
suij--
suj--
sup--
super--
supple--
sur--
sw--
swe--
swh--
swj--
swn--
swng--
swngh--
swz--
sy--
synthe--
t--
ta--
taj--
tak--
talk--
tan--
tarn--
te--
temp--
th--
thumb--
ti--
tidyval--
to--
tr--
tra--
trans--
trav--
tro--
tru--
tten--
tu--
turk--
turm--
u--
um--
un--
under--
unweg--
up--
uploadan--
ur--
urg--
us--
uyg--
v--
va--
vah--
vaiq--
vaiz--
val--
van--
var--
vaz--
ve--
veh--
vei--
veih--
veij--
veiz--
ver--
vie--
viet--
vin--
viol--
vit--
vor--
vu--
vuj--
vunz--
vuz--
vw--
vwnz--
w--
wa--
we--
wel--
wi--
wiki--
win--
wirkungs--
wis--
wo--
woo--
xi--
y--
ya--
yaek--
yaem--
yah--
yangz--
yau--
yawh--
ye--
yen--
yenz--
yez--
yi--
yienh--
yienj--
yih--
yij--
yin--
yinj--
yinx--
yinz--
yiz--
yizcuenz--
yo--
yoeg--
you--
youq--
youz--
yoz--
yungj--
yungz--
yw--
z--
zehn--
zi--
zoo--
zu--
zuneh--
ß--
ßi--
đ--
владими--
с--
น--
--0
--00
--03
--07
--1
--2
--3
--4
--5
--50
--6
--7
--8
--9
--a
--aa
--ab
--able
--ably
--ack
--ad
--aemh
--aengz
--aeu
--af
--age
--agt
--ai
--aij
--ain
--aj
--ak
--al
--ald
--ally
--ame
--an
--ana
--ance
--ant
--anz
--ar
--ara
--argname
--ary
--as
--at
--ate
--ated
--ati
--ation
--ator
--atur
--au
--awj
--ay
--az
--b
--ba
--bae
--baiq
--ban
--base
--baz
--be
--benj
--beuq
--bi
--bieg
--bit
--biu
--biuj
--ble
--boiq
--bouj
--bouq
--boux
--boz
--bs
--bu
--bueg
--burg
--bwz
--c
--ca
--cak
--can
--canj
--cat
--cauz
--caw
--cawq
--caz
--ce
--cei
--ceih
--ces
--ceu
--cez
--cfg
--ch
--che
--chen
--cht
--ci
--ciet
--cih
--cihbu
--cij
--cimj
--cingx
--cinj
--cinz
--ciuz
--ciz
--class
--clusion
--co
--coj
--couh
--coz
--cu
--cuj
--cujyi
--cup
--cuz
--cw
--cwng
--cwngz
--cwx
--cwz
--d
--da
--daek
--daeuz
--dah
--dai
--daih
--dangj
--danh
--dat
--date
--dauj
--dddddd
--de
--den
--di
--dien
--dij
--dingh
--diuh
--do
--doc
--dog
--donz
--doq
--dor
--douz
--doz
--ds
--dun
--dungh
--duz
--dwg
--dwz
--e
--eb
--ect
--ed
--ee
--eg
--eiq
--eiz
--ek
--el
--ely
--em
--en
--ence
--end
--ene
--engz
--enq
--ens
--ensive
--ent
--ep
--eq
--er
--ere
--ered
--ern
--ers
--ert
--erte
--es
--esis
--est
--et
--eten
--eu
--eur
--euz
--ey
--ez
--f
--fa
--faex
--fap
--fat
--faz
--fei
--ff
--ffung
--fly
--format
--fortitle
--fu
--fug
--ful
--fuz
--g
--ga
--gaeq
--gai
--gan
--ganh
--ge
--ged
--gefu
--geiz
--gej
--genz
--gep
--geq
--ges
--gh
--gi
--gih
--gij
--gim
--ging
--gip
--giz
--gj
--go
--goek
--goh
--gou
--goz
--gq
--grey
--gsa
--gt
--gte
--guek
--guh
--guhnaz
--gung
--guz
--gvanh
--gx
--gya
--gyah
--gyaj
--gyawj
--gz
--h
--ha
--haed
--haemh
--haenx
--hag
--haih
--haij
--halb
--hau
--he
--header
--hed
--heiq
--hesis
--hl
--hlossen
--hoh
--hoih
--hom
--hong
--hoz
--hr
--hswh
--hu
--hung
--huq
--hur
--huz
--hvuz
--hwnj
--hy
--i
--ia
--ial
--ian
--iated
--ib
--ible
--ic
--ica
--ical
--icles
--ics
--id
--idx
--ie
--ien
--ier
--iert
--ierte
--ig
--ige
--ign
--ih
--ij
--ik
--ika
--il
--ily
--im
--in
--inate
--ination
--inct
--ine
--ing
--ings
--ink
--io
--ion
--ionen
--ions
--ior
--ious
--iq
--ire
--is
--isation
--ische
--ischen
--ise
--ish
--isio
--ism
--ist
--it
--ita
--iters
--ity
--iuz
--iv
--ive
--ix
--iz
--ization
--ize
--ized
--izing
--j
--jcij
--jvei
--k
--ka
--ke
--keit
--key
--ki
--ks
--kung
--l
--la
--laeb
--laeh
--laeng
--lag
--lage
--lah
--laiz
--laux
--lc
--le
--ler
--less
--ley
--lf
--li
--lichen
--liengh
--lig
--lij
--limz
--ling
--link
--list
--liuh
--liuj
--liuz
--liz
--lla
--llen
--lo
--loh
--loux
--lox
--ls
--lt
--lu
--luj
--lun
--lung
--lwnh
--ly
--m
--ma
--maed
--maeq
--maex
--man
--mas
--mat
--max
--maz
--me
--med
--meh
--men
--ment
--mers
--mh
--mi
--ming
--miz
--mo
--moeb
--momj
--mp
--mq
--mx
--mz
--n
--na
--naj
--nal
--name
--namz
--nanh
--nanz
--naz
--nc
--nce
--nd
--nden
--nduj
--ne
--ned
--neix
--nen
--ner
--nes
--ng
--nga
--ngh
--ngonz
--ngoz
--ngs
--ngunh
--ngz
--nh
--ni
--nie
--nieb
--ning
--ningz
--nj
--nk
--nn
--no
--nong
--nq
--ns
--nt
--num
--nums
--nwngz
--nz
--o
--oa
--od
--oeg
--oek
--oengz
--of
--ok
--om
--omy
--on
--ona
--one
--ong
--onic
--only
--onq
--ons
--onz
--oq
--or
--ore
--ors
--ort
--os
--osed
--ots
--ou
--ous
--ow
--oz
--p
--page
--pe
--pect
--ped
--pf
--phylum
--ping
--pipetrick
--pos
--q
--qid
--que
--r
--ra
--rad
--raen
--raeu
--rag
--raiz
--rang
--ranz
--raq
--re
--ref
--regimenter
--reiz
--required
--res
--ri
--ria
--rig
--rim
--rin
--ro
--rog
--rov
--rp
--rr
--rrss
--rs
--rse
--rten
--rub
--ruemh
--rug
--rum
--ry
--s
--sa
--sae
--saeh
--san
--sanh
--sat
--sau
--saw
--sawz
--se
--sed
--sei
--seiq
--seng
--ses
--seuq
--sh
--si
--sia
--sien
--sij
--sim
--sing
--siuj
--sive
--siz
--skonzept
--sm
--soh
--soj
--soq
--sou
--ss
--st
--ster
--style
--su
--sug
--suj
--suz
--sw
--swh
--swj
--swng
--swngh
--swnghdiu
--t
--ta
--tal
--tan
--tance
--te
--ted
--ten
--tes
--text
--th
--ti
--tic
--tim
--ting
--tion
--title
--tle
--tly
--tor
--tra
--tre
--treten
--ts
--ture
--ty
--u
--ua
--uate
--uated
--uation
--ue
--ues
--ug
--uh
--uj
--uk
--ula
--um
--ung
--ungh
--uq
--ur
--ure
--url
--us
--ux
--uz
--v
--va
--vah
--value
--vanh
--vaq
--vaz
--ve
--vei
--venz
--vi
--vied
--vih
--vo
--vunz
--vuz
--vwnz
--w
--ward
--weise
--wh
--wiki
--wj
--wn
--ws
--wz
--x
--y
--ya
--yaej
--yang
--yau
--yauq
--yawj
--yaz
--year
--yen
--yenz
--yez
--yi
--yih
--yij
--yinx
--yinz
--yiz
--yoz
--yozgya
--yu
--yuz
--yw
--z
--ze
--zen
--zgoj
--zgya
--zt
--zte
--zva
--ƨ
--а
