!
"
#
##0
##1
##10
##11
##12
##13
##14
##15
##16
##17
##18
##19
##2
##20
##21
##22
##23
##24
##25
##26
##27
##28
##29
##3
##30
##31
##32
##33
##34
##35
##36
##37
##38
##39
##4
##40
##41
##42
##43
##44
##45
##46
##47
##48
##49
##5
##50
##51
##52
##53
##54
##55
##56
##57
##58
##59
##6
##60
##61
##62
##63
##64
##65
##66
##67
##68
##69
##7
##70
##71
##72
##73
##74
##75
##76
##77
##78
##79
##8
##80
##81
##82
##83
##84
##85
##86
##87
##88
##89
##9
##90
##91
##92
##93
##94
##95
##96
##97
##98
##99
%
&
'
(
)
*
+
,
-
.
/
0
000
01
02
03
04
046
06
07
08
1
10
100
1000
1009
1015
102
10226
1026
103
104
10462
105
106
1074
108
10936
11
110
11058
11087
111
1116
112
113
11325
11350
114
11474
115
11558
1158
116
117
1177
118
11964
11981
12
120
1200
12000
1208
121
123
124
1247
125
12599
126
1268
127
128
13
130
1300
1308
131
1312
132
133
134
136
137
138
139
1395
14
140
1400
141
142
143
144
145
146
1460
15
150
1506
151
1517
1539
155
159
16
160
1604
161
163
1639
164
165
1658
166
167
17
170
1708
174
175
1754
177
178
179
18
180
1800
1816
182
1820
1831
1861
1862
1863
1865
1866
1867
1870
1871
1872
1873
188
1880
1881
1895
1896
1897
1898
1899
19
190
1900
1901
1902
1903
1904
1905
1906
1907
1908
1909
1910
1911
1912
1913
1914
1915
1917
1919
1920
1921
1922
1923
1925
1930
1931
1933
1934
1935
1936
1937
1938
1939
1940
1941
1942
1943
1944
1945
1946
1947
1948
1949
195
1950
1951
1952
1953
1954
1955
1956
1957
1958
1959
196
1960
1961
1962
1963
1964
1965
1966
1967
1968
1969
1970
1971
1972
1973
1975
1976
1977
1978
1979
198
1980
1981
1982
1983
1984
1985
1986
1987
1988
1989
1990
1991
1992
1993
1994
1995
1996
1997
1998
1999
2
20
200
2000
2001
2002
2003
2004
2005
2006
2007
2008
2009
201
2010
2011
2012
2013
2014
2015
2016
2017
2018
2019
2020
2021
2022
204
207
208
21
210
211
22
228
23
2370
24
240
244
25
250
256
26
262
27
271
273
274
276
279
28
29
2953
296
2998
3
30
300
3000
3011
303
305
3060
308
31
3103
3151
3167
3174
319
32
320
323
329
3295
33
3320
333
3333
3386
34
340
3439
345
3456
3457
346
35
350
3528
3545
3563
3597
36
360
3631
3633
365
366
3677
368
3682
37
370
3708
371
3728
373
3737
3745
3772
38
380
3806
3852
3879
39
3956
3957
3995
3997
4
40
400
4000
4032
4059
41
4106
4112
4116
4127
4132
4142
4170
4188
42
420
43
4305
4345
44
45
455
456
46
4604
4629
4648
4667
4668
47
4738
48
49
4947
5
50
500
5000
506
5065
5068
5090
51
5137
5151
5168
5188
5198
52
5259
5266
53
5387
54
5432
55
56
5630
57
58
5824
59
6
60
600
6071
61
619
62
63
6332
64
6400
65
6542
66
67
677
68
69
7
70
700
7046
7062
71
7134
7182
7183
72
724
7253
7289
73
74
745
75
7517
76
7622
7677
77
7701
78
79
7957
8
80
800
8000
8088
81
8111
8131
82
8220
83
84
8479
85
8525
86
865
87
88
89
893
9
90
900
91
92
93
9390
94
944
95
96
97
972
98
984
985
988
99
997
:
;
=
>
?
_
`
a
aan
abeba
abel
abi
abo
aboma
abongra
abra
abragi
accord
accra
acht
acragas
addis
adfokati
adippe
adolf
affairs
affo
afrika
afrikan
afrka
agata
agi
agidya
agne
aguila
ai
airola
airport
aiti
aititenti
aka
aktifi
aktivisti
aktori
akwazey
al
ala
alapasa
alawan
albani
albert
albina
album
aldoti
aldotiblangi
aldotiparti
alfabet
ali
align
alignbars
all
alla
alle
allekie
almaza
alni
als
also
alternative
am
amalfi
ambaran
ameli
amen
american
amerika
amerikani
amerka
amerkan
amrika
amrka
amsterdam
amurt
an
and
andere
andorra
andorrakultur
andre
andrew
andy
angela
angeles
anil
animalia
ann
anna
another
antarktika
anti
antila
anton
antonio
anu
ao
aparti
arab
arabi
arabic
arabiskrifi
arc
architecture
archive
ardea
area
argentinikondre
argitekti
argynnis
arienzo
arnold
aron
arowakka
arpaia
arrondissementi
art
artis
artisti
aruba
arya
as
asi
at
ati
atoli
atomi
atominumro
august
australiya
australiyankondre
autorustaru
aux
av
avella
avt
award
ay
azerbaijanikondre
b
ba
babel
babette
baboeram
baca
bacara
bachalpsee
backgroundcolors
bacra
baden
bagi
baka
bakara
bakaseywan
bakka
bakra
bakrakondre
bakraman
bakratongo
baku
bakı
bang
bankiman
bar
bararis
barbara
barcelona
bardata
bardot
barra
barrie
barron
basi
be
begi
beijing
belarusikondre
belarustongo
belgi
belgikondre
ben
benevento
benin
berbera
bere
berekening
bergen
bergi
berlin
bernhardt
bi
bibel
biden
bigi
bigin
bigiwatra
bigripi
bika
biko
bingen
binh
bla
black
blaka
blanga
blanki
blifi
bloom
blue
bn
bo
bobowatrameti
boen
boeng
boerenveen
bofo
bofu
bofuben
bon
borderi
borges
born
bos
bosch
boskopu
bosni
bosnikondre
bosu
botticelli
bottom
bouterse
boven
bra
brada
brando
brasil
brasiliani
brasilkondre
brazil
breinigerberg
bribi
bridge
briey
brifis
brigitte
briti
brokopondo
bromki
bron
brownsweg
brudu
bruegel
brusilu
bu
buku
bulgari
bulgarit
bun
busi
bustono
butrint
buuraha
by
byron
c
ca
cabendadorp
caigua
cairo
cal
cambridge
came
cameo
camille
campania
campodarsego
can
canvas
caroline
caron
caserta
cassini
castelen
cate
category
cdu
ce
ceel
center
central
cha
chad
chan
chaplin
charalambous
cheese
chi
chicago
china
chris
city
clarence
clark
cleopatra
club
co
coast
cobar
cock
colo
color
colors
com
commewijne
commons
condre
convolvulus
cor
coronie
cow
critical
cuba
curitiba
cut
d
da
dafu
dagu
dal
dali
dam
dame
damme
damsko
dan
dani
darkgrey
darmi
dat
database
dateformat
datem
dati
datie
datum
daugavpils
david
davids
dawson
dc
de
dede
dein
del
delibaka
dem
demografi
den
denise
denki
denkiman
dennis
denzel
departementi
der
desi
devidasi
dey
deyli
deze
di
dialekti
diameter
didon
die
diesie
diessie
difrenti
dijk
dikoderi
dis
disi
disie
dissi
dissie
distrikti
diversiti
do
documentary
doe
doedel
doksi
dominique
don
donald
donatello
dong
door
doorson
dopu
dorosey
dorpu
doti
doysri
doysrikondre
doysritongo
dr
dray
dre
drenthe
dresi
dri
dringi
dropu
du
dumas
durfort
dusun
dy
dyaso
dyasoten
dz
e
ea
ed
ede
ededulanti
edeminister
edewe
edgar
edirne
editor
edwin
een
eene
effi
effie
effoe
efru
eftru
efu
egiptakondre
egretta
ei
eigi
eigitongo
eilanti
ekonomi
ekosi
eksakti
eksempre
ekstremi
el
elektroni
elementi
elizabeth
ellen
emanuelson
en
enceladus
end
eng
engels
engelse
english
engraving
enki
enkri
entrena
er
erik
eropa
escher
eslaktu
estiano
estlenikondre
et
ethiopikondre
etienne
etimologi
etnam
etym
euge
evangelisti
evelyn
evolusi
f
fa
fakulti
falku
famili
famosi
famous
famu
fasi
fassie
fatupisi
fdp
fe
femi
feni
fergie
ferrier
fesi
feti
fettie
fi
fiction
figueres
figur
file
film
filosofi
fils
findi
finkondre
first
fisisi
fistisani
flaku
floyd
fo
foe
foeroe
folku
fontsize
football
for
forchia
formi
formu
fosagti
foserfu
fosfeyfi
fosfor
fosi
fosili
fosneygi
fosseybi
fosseyfi
fossiks
fossiksi
fosten
fostri
fostu
fostwarfu
foswan
fotbal
fotenti
foto
fotto
fou
founder
fowru
fraay
fraga
frameless
franc
franca
frank
frans
franskondre
franstongo
frazioni
frei
fri
frie
friends
friendship
frits
froktu
from
front
fru
frugeti
frugetism
frukon
frusendi
frusini
fu
fubal
fubalman
fukon
fuli
fulopi
funen
furu
fuwerp
g
ga
gabriel
gado
gadu
gakuen
ganga
gebroiki
gefre
genetisi
geni
geografi
george
georges
georgia
gerard
gerrit
gesontu
gesontukibri
ghana
gi
gie
ginea
gini
giorgio
girl
girls
giuseppe
gje
glenn
globe
go
god
goddo
goedoe
goedschalk
goes
golden
gon
goo
goti
gov
gowtu
gramatika
gran
grand
granman
gransu
grapukesicius
grasi
gray
gridcolor
gridlijn
griki
grikit
grikitongo
gro
gron
groningen
gronpratisistem
gronskrif
grontapu
grontapubeyfi
gru
grun
gu
guangxi
gullit
gur
guru
guso
gwe
h
haag
haakmat
habie
hagens
hali
han
hannah
hans
harold
harry
harvard
hasselbaink
havana
havøysund
he
heddeman
height
helpie
hem
henk
henri
her
herchwei
herchweiler
herman
het
heyr
himmel
hindoestani
hindu
hindustani
hiri
his
ho
hoe
hoi
holi
holland
hollie
hondru
horizontal
house
hriwnia
http
https
hu
huberts
hugo
huygens
i
id
ies
if
iguanidae
ii
ija
ijssel
il
im
image
imagesize
imperium
importanti
in
increment
india
indiakondre
indiana
indicum
indo
indonesia
indonesikondre
infrumasi
ingien
ingris
ingrisikondre
ingriskondre
ingristongo
ini
inideli
iniflu
inifluri
inikondre
iniwono
innie
instansi
institut
institute
internasionali
internet
inwonertal
ipa
iprage
iran
irodikromo
is
isbn
isi
iskini
islambribi
island
isle
islenikondre
isotopi
israel
istat
isyu
italiani
italiya
italiyani
italiyanik
italiyanikondre
italiyano
j
jacob
jacques
jae
jakarta
jakob
james
jan
janeiro
jannah
japan
japani
je
jean
jeangu
jeanne
jehovah
jenny
jerusalem
jesus
jetty
jimmy
jo
joan
johan
johannes
john
johnny
johnson
johr
jong
jorge
jose
joseph
journals
jozef
jpg
jr
ju
juan
jules
juliette
julius
jumaada
justify
juventus
k
ka
kaa
kaas
kabaratiman
kalendra
kalloe
kamp
kan
kanadakondre
kankan
kar
karaibi
kari
karin
karl
karlsruhe
karta
karto
kasi
kasteli
kaw
kawmerki
kawmeti
kawmetikipi
kayanakondre
kebroiki
kees
kemisi
ken
kenki
kerki
ki
kibri
kiesie
kilo
kilometer
king
kirkedomo
kisi
kissie
kiyiw
klasse
klay
klayen
klemi
klik
kloru
klosi
kluivert
km
known
ko
kode
koderi
kogro
koko
koleradatra
kolombikondre
kolumnisti
kom
kompleti
komunikasi
kon
kondre
kondrebuman
kondrefoto
kondremoni
kong
kongo
konin
kontren
kopi
korea
korsow
koru
kosta
kotoigi
kovo
kownu
kownukronsneki
kreis
kreksyunr
kreyoli
kribisi
krim
krimbergi
krimineli
krosbei
krosi
krusu
krutulanti
kultur
kulturu
kuri
kuro
kurt
kurtu
kwa
kwakoegron
kwinti
l
la
laat
lady
lagadisi
land
langa
langar
langatengi
lange
lanti
lapudenki
las
late
latour
lay
layer
le
ledi
leeuwin
left
legend
legi
legremakti
legwana
leki
lelydorp
leni
leo
leri
lerisistem
les
lesi
leti
letlenikondre
letri
letters
letti
leysi
li
lias
liba
libanon
libi
libisma
libiten
lichtenstein
lidi
life
lightgrey
limburg
limburgkondre
limburgt
linda
linedata
linegrey
lingua
linki
links
lisbon
liste
liter
literature
lithograph
litiwroko
lituwaniyakondre
liza
lo
load
lobi
loekoe
logo
loi
loire
lokasi
loktu
lom
london
long
lord
los
lotari
louis
love
loyada
lu
ludwigsburg
luis
luksemburgkondre
lv
m
ma
maarten
macrooy
madagaskarlegwana
mademoiselle
madrid
maga
magnitudi
makandra
makandrameki
malata
male
malgrat
malsi
malta
mama
mamafoto
man
mang
manina
manklositisi
manteri
map
mar
mara
marceau
marcel
marchand
marcus
maria
marie
mario
mariya
marjorie
mark
marki
maroni
marowijne
martin
martinus
masara
mason
masra
master
masukiri
masyin
matawai
materiala
materiyali
mathurin
may
me
media
meditarranee
medium
mek
meki
mekie
meksikokondre
meleagris
men
mena
meni
merki
merkikaw
met
metamorphosis
meter
meti
metisortu
meurthe
mevrouw
mez
mezzotint
mi
miami
michae
michael
mid
middeleeuwen
midi
mies
miksi
milan
milyun
mindri
mindrie
minh
miniatuur
minti
mirror
miti
mm
mode
modeli
modern
moderni
modulor
moengo
moesoe
moessoe
moffo
mohin
moiano
moldavikondre
moleri
molie
monima
monte
montfort
montsoreau
moro
moselle
moshchena
moslim
mosque
mossoe
movie
moy
mu
mun
museum
musu
my
n
na
naam
nadri
nakomili
nam
name
nancy
nanga
nanganen
nangi
napoli
naruhito
nasi
nasifla
natru
naw
nawn
nb
nc
nd
ndyuka
ne
nebiben
nederlands
nederlandse
negatifi
neigi
nem
nembre
nen
nengre
nenli
nepal
net
new
ni
nia
nickerie
niet
nieuw
night
ningre
niri
niro
nivo
no
nodi
nofotron
nomo
nomru
noni
noord
noordsei
normali
norman
noso
now
nowe
ns
nu
numro
nutrali
nyan
nyanyan
nyun
nyunr
nyunsu
o
odesa
odi
of
ofanga
ofangaman
official
offoe
ofisali
ofiseli
ofti
oftoten
og
ogarnikondre
ogarnitongo
ogri
ogrie
ogu
ois
ok
oktu
okwe
on
ondro
ondroben
ondrobenin
ondrodeli
ondrofamili
ondrowerpi
oni
onnoe
ons
ook
oostsei
oostvaardersplassen
op
ope
ophiophagus
opo
opobu
opoflaku
opositi
opoteki
oppo
opukini
or
ordi
orestis
org
organisasi
organismi
orginali
orientation
ortsverein
osaki
osasco
oseyaniya
oskisk
oso
ostriyakondre
oten
other
otonomi
otru
over
owktu
owru
owrur
owstu
p
pa
pacino
painting
pakistan
pakukima
palermo
paltoga
panama
panorama
panoramio
paolisi
papiamento
papira
para
paramacca
paramaribo
paris
parlementi
parti
pasa
pasar
pasaten
pasuni
paton
patrick
patumu
paul
paulo
pe
peckham
peenti
peentiman
pefu
penanga
pengel
pensmaga
period
periodi
periodiki
persepolis
perspolis
peru
pesoni
peten
peter
peyna
phan
phe
pi
piacenza
pierre
piers
pieter
pigazzano
pikien
pikin
pikinkaw
pikinmoni
pikinr
pikturama
pinas
pinki
pipel
pisi
plant
plesi
plesie
plessie
plotarea
plotdata
pluga
poet
poeti
points
poku
poland
polanen
polikondre
polin
politiki
politiksistem
politongo
pop
popular
populasi
portrait
portugesokondre
pos
positifi
postukode
poti
pottie
pp
pramisi
prani
prati
preki
prem
prenki
prenspari
presi
presibanban
presidenti
presifla
presimi
presiplusplus
press
price
proberi
produksi
produseri
project
protoni
provinsi
psatori
psranu
pu
punt
puspusi
puławy
px
q
qua
quang
queen
r
ra
raas
rabi
racine
radhakishun
radio
rafael
raffae
ramdas
rangiroa
rasi
raymann
re
referenti
referi
regio
rei
reinier
reiti
remy
renaissance
rene
repoliku
republiek
republika
reputasi
resi
rettie
rey
rgb
rgen
rger
ri
ria
riba
richard
rie
riedewald
riga
right
rijkaard
riki
rillis
rio
ripoliku
risorti
risursi
rita
river
rmala
ro
robert
roccabruna
roccarainola
role
roli
roma
romanum
romenikondre
romenitongo
romeo
rommy
ron
ronald
ropa
ropask
rotondi
rotterdam
roy
royston
rtongo
rttemberg
rudi
rudy
rundi
rusik
rusikondre
rusitongo
rusland
ruud
ryan
s
sa
sabi
sabie
sacred
safu
sagranu
sal
saleki
salekism
salvador
sama
samma
san
sand
sandie
sandro
sani
sant
santa
santi
santiago
santokhi
sara
sarah
saramacca
saramaka
saranam
sardou
sarnami
sarthe
scalemajor
scaleminor
schloss
school
schouten
schwarzenegger
sciurus
se
sea
seattle
second
seedorf
sei
seksi
sel
selfi
selfsti
selli
sender
sendie
senivo
sensi
sensie
sergio
sesame
sesamum
seti
sey
sfondo
shakespeare
sharda
shift
short
si
sicilia
sifi
sifri
sigmaringen
siki
siksi
silesia
sili
simboli
simbolo
simnu
simon
simons
sin
sing
singeri
singie
sins
sinsi
sint
sipaliwini
siprus
sirey
siri
sistemi
sito
situasi
sk
ska
skaki
skali
ski
skin
skopu
skoro
skotriki
skowola
skrifi
skrifiman
sku
skutiparatu
sky
slaaf
slakti
slang
slory
slovakikondre
sma
smadoti
smith
sne
sneisi
sneki
sneysa
sneysakondre
sneysi
snipes
so
soema
som
somalikondre
somaliregime
somten
somtengi
son
sonen
soo
soort
sope
sophie
soria
sortu
soso
sowa
sowe
sp
spanyoro
spanyorokondre
spanyorotongo
spd
spen
spesifiki
sport
spot
spredi
sr
srafu
sranan
srananadfokati
srananaktori
srananbibel
srananfubalman
sranankabaratiman
sranankolumnisti
sranankondre
sranankultur
srananman
srananmiti
srananpresidenti
sranantongo
srbiyatongo
srefi
srefidensi
sri
srn
st
staat
stage
stallone
stanley
start
stati
statistik
stekilegwana
sterkudenki
stiri
stomolophidae
stomolophus
stopulakidenki
stori
story
stow
strali
strangu
street
streyfeti
strobo
strontu
studenti
studi
stuttgart
su
subdivisi
subject
suicide
suku
suma
sung
supurpa
sur
surinaams
surinaamse
suriname
swerigekondre
swerrie
swiskondre
sya
sylvester
t
ta
taal
taalunie
tabla
tafra
taiwan
taki
takie
takiman
takru
tan
tang
tapu
tara
tarra
tata
tau
tayp
tba
te
teater
tee
teki
teksti
teli
telting
tem
temple
ten
tengi
tenyarili
tepu
terei
teri
teritri
text
textdata
tgilanti
th
thames
that
the
theater
thee
thiet
this
thomas
three
thumb
ti
tiarrie
tien
till
timeaxis
timor
tipisi
tiri
title
tjoerie
tlacote
tld
to
toc
toe
toenae
tom
tonga
tongo
too
top
tot
totness
toul
tower
tra
translation
trawan
tre
treedi
treni
tri
trili
trio
trojany
tron
tropidurinae
trow
tru
ttlikon
tu
tuki
tukon
turkiyakondre
tv
twi
twisti
two
u
uetersen
ufficiale
uk
ukomi
ukr
ukraina
ukrainakondre
ukrainalanti
ukrainasma
ukrainatongo
ul
ulm
um
uma
umali
un
uncredited
und
uni
unit
united
universiti
university
uns
unser
upright
urby
uroks
usa
utah
utrecht
v
va
valle
valley
value
van
variyeti
vatikano
ve
venetiaan
venswelikondre
verenigde
vertel
vertical
vez
vi
via
victor
video
vietnam
vietnamoro
ville
vilnius
vo
vocals
volume
von
voor
vowel
voyager
vrede
vries
vung
w
wa
wageningen
wakka
wales
wan
wandi
wandie
wanhatti
wani
wanica
wansuma
want
wantu
warau
warhol
was
washington
wat
water
watra
watrabigi
wawan
wayana
we
web
website
weekend
wegi
wej
wel
wen
wesi
west
westsei
wey
which
who
wi
width
wie
wiki
wikimedia
wikipedia
wili
willemstad
william
wim
winiman
winston
winter
wisi
wit
with
without
witi
wo
wolodimir
woman
women
wong
wood
woodard
woodcut
woorden
woortoe
wordt
work
world
wortu
wortubuku
wortuguru
wortukomi
wp
wroko
wrokoman
wrokowortu
wu
www
x
xidan
xs
y
yampanesi
yapi
yari
year
yesimugurunakomilesplosigrafiki
yesimugurunakomiliyari
yesimuyari
yguskapi
york
you
yu
yun
yupino
yusi
ywaarde
yyyy
z
zanderij
zar
zeeland
zijn
znw
zuid
zuidsei
{
|
}
ª
«
°
²
´
·
¹
»
½
×
ß
æ
đ
ħ
ĳ
ŀ
ł
łobez
ŧ
ƒ
ƣ
ǥ
ə
ɛ
ˈ
ˌ
ː
̀
́
̂
̃
̄
̆
̇
̈
̊
̋
̌
̏
̑
̛
̦
̧
̨
͡
α
ε
в
е
и
т
у
א
ב
ג
י
ا
الا
ب
ت
ث
ج
جمادى
ح
خ
د
ذ
ر
ربيع
ز
س
ش
ص
ض
ط
ظ
ع
غ
ف
ق
ل
م
ن
ه
و
ّ
ٓ
ٔ
پ
چ
ژ
ک
گ
ی
‎
–
—
‘
’
“
”
„
…
′
″
₴
→
↔
↷
③
④
⑦
△
☉
☾
⠀
⠁
⠅
⠆
⠍
⠎
⠑
⠓
⠕
⠗
⠙
⠚
⠝
⠟
⠠
⠥
⠦
⠴
⠼
⺀
⺄
⺆
⺈
⺊
⺌
⺕
⺝
⺸
⺼
⿰
⿱
⿲
⿳
⿴
⿵
⿶
⿷
⿸
⿹
⿺
⿻
。
〢
コ
ユ
㇁
㇂
㇄
㇇
㇈
㇉
㇓
㐁
㐄
㐅
㐌
㐫
㐬
㐭
㐮
㐱
㑒
㒵
㒸
㒼
㓁
㓞
㔾
㕛
㕣
㖾
㘝
㚅
㚇
㚔
㚘
㝉
㝡
㝴
㝵
㞋
㞢
㞷
㠩
㠭
㠯
㡀
㡭
㡿
㢲
㢴
㣇
㣺
㥯
㪅
㫄
㫐
㫒
㫺
㬅
㬎
㬥
㬰
㲋
㳄
㷠
㸒
㸚
㸦
㼌
㼲
㽞
㿟
䀠
䂞
䍃
䏍
䒑
䖍
䖒
䖝
䖵
䙴
䚻
䜌
䝿
䡛
䧹
䪞
一
丁
丂
七
丄
丅
丆
万
丈
三
上
下
丌
不
与
丏
丐
丑
专
且
丕
世
丘
丙
业
东
丞
丢
丣
两
严
並
丨
丩
个
丫
丬
中
丮
丰
丱
串
丵
丶
丷
丸
丹
为
主
丽
丿
乀
乂
乃
久
乆
乇
么
义
之
乌
乍
乎
乏
乐
乑
乔
乖
乗
乘
乙
乚
乛
乜
九
乞
也
习
乡
乳
乾
亀
亅
了
亇
予
争
事
二
亍
于
亏
亐
云
互
亓
五
井
亘
亚
亜
亞
亟
亠
亡
亢
交
亥
亦
产
亨
亩
享
京
亭
亮
亯
亰
亲
亳
亶
亷
人
亻
亼
亾
仁
今
介
仌
从
仐
仑
仒
仓
仕
他
付
仝
代
令
以
任
企
伊
伏
伐
休
会
伯
但
位
何
佘
余
作
佥
佳
使
來
侈
侌
侖
侯
侵
便
保
俞
信
修
倉
倍
候
倠
備
僉
僕
儿
兀
允
兂
元
兄
充
兆
兇
先
光
兊
克
兌
免
兑
兒
兓
兔
党
兜
兟
入
全
兩
兪
八
公
六
兮
兰
共
关
兴
兵
其
具
典
兹
兼
冀
冂
冃
冄
内
冈
冉
冊
冋
册
再
冎
冏
冐
冒
冓
冖
冗
冘
军
农
冝
冡
冥
冫
冬
冷
几
凡
凢
凵
凶
凷
凸
凹
出
函
凾
刀
刁
刂
刃
刄
刅
分
切
刍
刑
刕
刖
列
刘
则
初
別
利
别
到
制
刺
則
削
剌
前
剡
剽
劉
力
功
加
劦
助
劫
劳
劵
勃
勇
勉
勒
動
務
勞
勤
勹
勺
勻
勾
勿
匀
匂
包
匆
匈
匊
匋
匍
匕
化
北
匚
匝
匡
匪
匱
匸
匹
区
医
匽
匿
區
十
卂
千
卄
卅
卆
升
午
卉
半
卌
华
卑
卒
卓
单
卖
南
卜
卝
卞
占
卡
卢
卣
卤
卦
卩
卪
卬
卯
印
危
即
却
卵
卷
卸
卻
厂
厃
厄
历
厈
厉
厌
厓
厘
厚
原
厤
厥
厨
厭
厲
厶
厷
厸
去
厼
厽
叀
参
參
叅
又
叉
及
友
双
反
叐
发
叒
叔
叕
取
受
叚
叜
叟
口
古
句
另
叩
只
召
可
台
叱
史
右
叵
号
司
叹
吂
各
吅
合
吉
吊
吋
同
名
后
吏
向
吕
君
吝
吞
否
含
启
吳
吴
吹
吾
呂
呆
呈
告
员
呙
周
命
咅
和
咎
咠
咢
咨
咸
咼
哀
品
哉
員
哥
哲
唐
商
啇
問
啚
啬
啻
善
喜
喬
單
喿
嗇
噩
嚴
囊
囗
囘
囙
囚
四
回
囟
因
囧
囬
困
囱
囷
固
国
圂
圅
國
圍
圓
土
圡
圣
圥
在
圭
地
圶
圼
坐
坒
坚
坴
垂
垔
垚
埀
埋
埶
執
基
堂
堅
堆
堇
堯
塞
墨
壘
士
壬
壮
壯
声
壳
壴
壹
壺
壽
夂
处
夅
夆
备
夊
夋
夌
复
夏
夒
夕
外
夗
夘
多
夜
夢
大
夨
天
太
夫
夬
夭
央
失
夲
头
夷
夸
夹
夻
夾
奂
奄
奇
奈
奉
奎
奏
奐
契
奓
奔
奚
奞
奠
奢
奥
奭
女
奴
奻
好
如
妄
妙
妟
妥
妻
妾
姑
委
姜
威
娄
婁
婴
嬰
嬴
子
孑
孔
孕
孖
字
存
孚
孛
孝
孟
季
孤
学
孫
孱
學
宀
宁
宂
它
宅
宇
守
安
宋
完
宏
宓
宗
官
定
宛
宜
宝
客
宣
室
宮
宰
害
家
容
宾
宿
寄
寅
密
富
寒
察
寧
審
寫
寬
寮
寸
对
寺
寻
寽
対
寿
封
尃
射
将
將
專
尉
尊
尋
尌
對
小
少
尒
尓
尔
尖
尗
尚
尞
尢
尣
尤
尧
尨
尭
就
尸
尹
尺
尻
尼
尽
尾
尿
局
居
屈
屋
屎
屏
屑
展
屖
屚
属
屠
屡
屬
屮
屯
屰
山
屵
屾
岁
岂
岑
岡
岩
岳
岸
峯
島
崇
崑
崔
崖
崙
崩
嵬
嶲
巂
巛
川
州
巟
巠
巢
巤
工
左
巧
巨
巩
巫
差
己
已
巳
巴
巷
巸
巽
巾
巿
帀
市
布
希
帚
帛
帝
带
師
席
帶
常
干
平
年
幵
并
幷
幸
幺
幻
幼
幽
幾
广
広
庄
床
底
店
庙
庚
府
度
庫
庭
庶
康
庸
廉
廌
廛
廣
廩
廴
延
廷
建
廾
廿
开
弁
弃
弄
弇
弋
式
弓
弔
引
弗
弘
弜
弟
弥
弦
弱
張
強
强
彊
彌
彎
彐
彑
当
彔
录
彖
彗
彡
形
彥
彦
彧
彭
彳
役
彼
往
待
律
徒
得
徙
從
復
微
徵
心
忄
必
忌
忍
志
忝
忠
忩
快
念
忽
忿
怀
思
怠
急
怱
恆
恒
恩
恭
息
悉
患
悤
悲
悶
惠
惡
惢
愁
愈
意
愛
感
慈
慧
慮
憂
憲
應
戀
戈
戉
戊
戋
戌
戍
戎
成
我
戒
戔
或
戚
戠
戢
截
戲
戶
户
戹
戼
戾
房
所
扁
扇
手
扌
才
打
托
执
承
折
拉
拜
拿
掌
推
提
摩
支
攴
攵
收
攸
改
放
政
敄
敏
敕
敖
敗
敝
敞
敢
散
敦
敫
敬
数
敷
數
斂
文
斉
斊
斗
斤
斥
斩
斬
斯
新
方
於
施
斿
旁
旋
族
无
旡
既
旣
日
旦
旧
旨
早
旬
旱
旲
时
旾
昆
昇
昊
昌
昍
明
昏
易
昔
昗
昜
星
春
昬
是
昱
昴
昷
時
晃
晋
晏
晩
普
景
晶
智
暑
暴
曇
曩
曰
曲
曳
更
曷
書
曹
曼
曾
替
最
朁
會
月
有
朋
服
朔
朕
朗
望
朝
木
朩
未
末
本
札
朮
术
朱
朵
朶
朿
杀
李
杏
村
杜
束
条
来
東
杲
杳
松
析
林
枚
果
枝
枲
枼
某
柔
查
柬
柰
柴
栗
桀
桂
桃
桑
桼
梁
條
梟
梨
棘
棠
棥
森
楚
業
楽
榮
樂
樊
欠
次
欣
欮
欲
欶
欽
款
歆
歇
歛
止
正
此
步
武
歨
歪
歮
歯
歰
歲
歴
歷
歸
歹
歺
死
殳
段
殷
殸
殹
殺
殻
殿
毋
毌
母
每
毒
比
毕
毚
毛
毳
氏
氐
民
气
氣
水
氵
氶
氷
永
氺
氾
求
汝
汞
江
汤
沃
沓
沙
沝
河
治
泉
法
波
泣
泥
泰
洛
洪
活
派
流
浦
浪
浮
淡
淮
清
渚
渠
湯
滿
漸
潽
火
灬
灭
灰
灵
灷
炅
炎
炏
炗
炙
炭
為
烈
烏
烝
焉
無
焦
焱
然
煞
照
熊
熏
燕
營
燮
爪
爫
爭
爯
爰
爱
爲
爵
父
爻
爽
爾
爿
片
牙
牚
牛
牜
牟
牢
牧
牪
牽
犀
犬
犭
犮
狂
狄
狊
独
狺
猋
猒
猪
献
獻
玄
率
玉
王
玟
玨
珎
班
琉
琴
瑟
瑩
璃
瓜
瓦
甘
甚
生
産
用
甫
甬
田
由
甲
申
电
甶
男
甸
甹
画
甾
畀
界
畏
畐
留
畜
畟
畢
畧
畨
番
畫
異
畱
當
畺
畾
疊
疋
疌
疑
疒
疾
癶
癸
癹
登
發
白
百
皀
皃
的
皆
皇
皋
皐
皕
皮
皷
皿
盃
盆
盇
盈
益
盍
盎
监
盒
盖
盛
盡
監
盤
盧
目
直
相
盾
省
眇
眉
看
眔
眞
真
眷
眼
眾
着
睘
睪
睿
瞏
瞢
瞿
矍
矛
矞
矢
矣
知
矦
短
石
破
碎
磊
磨
示
礻
礼
祟
票
祭
禀
禁
禸
禹
禺
离
禽
禾
禿
秀
秃
秉
秋
科
秝
秦
移
稟
穀
穌
穴
究
穹
空
穿
突
窄
窒
立
竒
竜
竝
竟
章
童
竹
笑
笠
筆
等
答
箕
算
箴
節
篤
篭
米
粉
粛
粟
粤
粦
粲
糞
糸
糹
系
約
納
素
索
紫
累
細
絜
絫
絲
維
綿
縣
繇
纍
纟
缶
网
罒
罔
罕
罗
罙
罡
罢
罪
署
罷
羅
羊
羌
羍
美
羔
羕
羗
羞
羡
羣
群
義
羲
羸
羽
翁
翏
習
翕
翟
翠
翼
老
耂
考
者
耆
而
耎
耑
耒
耳
耴
耶
耷
聂
聊
聖
聚
聶
聿
肀
肃
肅
肉
肖
肙
肥
肩
肯
育
肴
胃
背
胡
胥
能
脊
脩
膚
臣
臤
臧
自
臬
臭
臯
臱
至
致
臺
臼
臽
臾
臿
舀
舂
舄
與
興
舉
舌
舍
舛
舜
舞
舟
般
艮
良
色
艸
艹
艾
芒
芔
芬
芭
芮
花
芳
芺
芻
苑
苔
苗
苟
若
苦
英
茶
茸
荅
草
荒
荣
荼
莆
莧
莫
莽
菆
菊
菐
華
萬
落
葉
著
葛
董
葵
蒙
蒦
蒼
蓋
蓬
蓺
蔑
蔡
蕉
蕭
薄
薛
薦
薰
藍
藏
藥
蘭
虍
虎
虐
虒
虔
處
虖
虗
虘
虚
虛
虜
虞
虫
虽
蚤
蚩
蜀
蜜
蟲
蠡
血
行
衍
衛
衣
衤
表
衮
衰
袁
袞
褭
褱
襄
襾
西
覀
要
覃
見
規
覓
覧
親
覽
见
角
解
言
訁
訇
計
詹
誩
諸
讠
谷
豆
豈
豊
豐
豕
豖
豙
象
豦
豩
豪
豸
貇
貝
貞
貟
負
貢
貧
貪
貫
責
貳
貴
買
費
賁
資
賈
賏
賓
賔
賛
賞
賢
賣
質
賴
贊
贝
贡
责
贯
贲
贵
贸
赖
赞
赤
赦
走
越
足
路
蹇
身
躬
車
軍
軎
軟
輦
车
辛
辜
辟
辥
辰
辱
農
辵
辶
边
达
过
运
近
连
迷
追
退
送
逆
逐
通
速
造
逢
連
逮
進
遀
遂
過
道
達
遣
適
遷
遺
邊
邑
邕
那
邦
邪
郎
部
郭
都
鄉
酉
酋
配
酓
釆
采
里
重
野
量
金
釒
錢
钅
長
镸
长
門
閃
閉
開
閏
閑
閒
間
閔
閵
閻
闌
门
间
闷
阑
阜
阝
阳
阿
降
陳
陽
隆
隊
隋
隡
隨
隱
隶
隹
隺
隻
隼
隽
难
雀
雁
集
雈
雋
雍
雐
雔
雙
雚
雜
雝
離
難
雨
雩
雪
雲
零
雷
需
霍
霜
霝
霞
霸
靈
靑
青
非
靡
面
靣
革
韋
韦
韭
韯
韱
音
頁
頃
項
須
頗
頡
頻
顛
页
風
风
飛
飞
食
飠
養
饣
首
香
馬
馮
駦
马
骨
高
髟
鬥
鬯
鬲
鬼
魚
魯
鮮
鱼
鲁
鳥
鳳
鸟
鹵
鹿
麃
麗
麥
麦
麻
黃
黄
黍
黎
黑
黒
黨
黹
黽
黾
鼎
鼓
鼠
鼻
齊
齋
齐
齒
齿
龍
龙
龜
龟
龠
龰
龱
龴
龵
龶
龷
龸
龹
者
艹
？
🜨
𠀁
𠀃
𠀆
𠀉
𠀎
𠀐
𠁁
𠁣
𠂆
𠂇
𠂈
𠂉
𠂊
𠂋
𠂎
𠂒
𠂔
𠂛
𠂡
𠂢
𠂤
𠂬
𠂭
𠂹
𠃊
𠃋
𠃌
𠃍
𠃎
𠃑
𠃓
𠃔
𠃜
𠄌
𠄎
𠄠
𠄢
𠆢
𠆥
𠇍
𠈌
𠌵
𠓜
𠔉
𠔥
𠔼
𠔽
𠔿
𠕀
𠕁
𠕋
𠘧
𠘨
𠙻
𠙼
𠚏
𠚒
𠚤
𠚪
𠣏
𠤎
𠤕
𠥓
𠦄
𠦑
𠦝
𠧒
𠧗
𠧪
𠩺
𠪚
𠫓
𠫔
𠫤
𠬛
𠬝
𠬞
𠬢
𠬤
𠬶
𠮛
𠮦
𠮷
𠯑
𠱠
𠳮
𠷎
𡈼
𡉀
𡉵
𡌥
𡍮
𡏳
𡕒
𡕩
𡕰
𡖅
𡗗
𡗜
𡘆
𡘤
𡧱
𡨄
𡩧
𡬠
𡭽
𡰣
𡰥
𡰪
𡰯
𡰱
𡷈
𡸁
𡿨
𡿩
𡿪
𡿺
𢀖
𢀛
𢀩
𢁙
𢆉
𢆰
𢆶
𢇁
𢇇
𢉖
𢌬
𢌿
𢏚
𢑑
𢑚
𢖻
𢙣
𢛳
𢦏
𢦒
𢧵
𢼄
𢾕
𣁋
𣄼
𣅀
𣅽
𣍘
𣎳
𣎵
𣏋
𣏼
𣗥
𣥂
𣥖
𣦵
𣦼
𣧄
𣪊
𣪠
𣬉
𣳾
𣶒
𤇾
𤊽
𤐫
𤓰
𤔔
𤕨
𤣩
𤰇
𤰔
𤰞
𤴓
𤴔
𤽄
𥁑
𥁕
𥃦
𥃩
𥃭
𥇡
𥑟
𥘅
𥘈
𥝢
𥫗
𥱡
𦈢
𦉪
𦉬
𦉼
𦍌
𦍒
𦎧
𦐇
𦓔
𦔮
𦘒
𦙃
𦚏
𦣝
𦣞
𦣻
𦥑
𦥔
𦥯
𦨉
𦭝
𦰩
𧆞
𧈧
𧘇
𧰨
𧴪
𧴮
𧵩
𧾷
𨸏
𨾴
𩙿
𩠐
𩫏
𩵋
𪉷
𪜀
𪟽
𪠲
𪩲
𫇦
𫔭
𫜸
𫝀
𫠣
𫠩
𫢉
𫥞
𫩏
𫩠
𫪡
𫲽
𫶧
𬀷
𬐘
𬗌
𬙙
𬛸
𬜯
𬟩
𬯁
𬴘
𬺻
𬼉
𬼖
𭀰
𭁈
𭁨
𭅰
𭑈
𭕄
𭗼
𭤨
𭥫
𭻾
𮅕
𮊿
𮍌
𮍏
𮓗
𮥼
𮧮
廾
𰀁
𰀄
𰀈
𰀉
𰀕
𰀠
𰀡
𰀢
𰀪
𰁜
𰃮
𰆊
𰆘
𰋙
𰕎
𰢴
𰧭
𰯲
0--
04--
15--
16--
17--
18--
19--
24--
47--
59--
60--
61--
64--
73--
a--
aa--
aam--
aan--
ab--
aband--
abu--
ac--
aca--
acti--
ad--
administ--
adver--
af--
afi--
ag--
ai--
ak--
al--
ala--
ale--
alex--
am--
amyc--
an--
ana--
and--
ang--
ano--
ap--
apo--
ar--
ara--
armen--
as--
at--
au--
auk--
ay--
b--
ba--
bac--
bah--
bal--
bar--
bas--
bat--
be--
bei--
ber--
berk--
bey--
bi--
bij--
bir--
blangi--
bo--
boek--
bom--
bon--
br--
bre--
bri--
bro--
bu--
bul--
bur--
c--
ca--
cab--
cal--
campa--
car--
cast--
cau--
ce--
cen--
ci--
cla--
co--
com--
con--
cor--
cou--
cre--
cri--
cro--
cu--
d--
da--
dar--
de--
des--
det--
di--
die--
dik--
do--
doc--
dr--
dra--
du--
dur--
dy--
e--
ec--
ech--
ed--
ede--
efek--
ek--
el--
ele--
emm--
en--
er--
es--
esp--
et--
ex--
f--
fa--
fab--
fe--
fer--
fi--
flo--
fo--
fre--
fri--
fru--
fu--
g--
ga--
gal--
gar--
gau--
ge--
gebo--
gehe--
gelder--
gen--
ger--
gi--
go--
gor--
gra--
gran--
gre--
gri--
grik--
gron--
gu--
gui--
h--
ha--
ham--
har--
hart--
he--
heid--
heil--
hel--
hen--
her--
hi--
histori--
ho--
hol--
hou--
hu--
i--
ib--
id--
igu--
im--
in--
inf--
ini--
interna--
ir--
iri--
is--
j--
ja--
jac--
jas--
je--
jel--
jet--
jo--
ju--
k--
ka--
kal--
ke--
kem--
ken--
ki--
kil--
kis--
kla--
kle--
ko--
kolera--
kolo--
kom--
kon--
kor--
kri--
kru--
ku--
kul--
kwama--
l--
la--
lan--
lau--
le--
lebi--
lei--
let--
li--
libi--
lie--
lil--
lo--
loktu--
lon--
lu--
luk--
ly--
lyang--
m--
ma--
mac--
mag--
mai--
man--
mar--
mat--
mau--
me--
mel--
merki--
met--
meti--
mey--
mi--
mic--
mid--
mik--
mil--
mini--
mis--
mo--
mog--
mok--
mon--
mona--
mor--
mu--
mul--
mun--
mus--
my--
n--
na--
nath--
nd--
ne--
nel--
ni--
nig--
no--
nor--
norski--
now--
ns--
nu--
o--
oc--
od--
odk--
odo--
of--
og--
ok--
ol--
oli--
om--
on--
ondro--
oo--
oon--
oop--
oos--
oost--
op--
opo--
or--
os--
ouw--
ow--
p--
pa--
pal--
par--
pas--
pe--
per--
pi--
pie--
pik--
pikin--
pla--
po--
pol--
poli--
polychro--
por--
pra--
pre--
presi--
pri--
pro--
pu--
pub--
q--
r--
ra--
ram--
rang--
re--
ren--
reut--
ri--
rid--
ro--
rob--
ron--
roz--
ru--
run--
rus--
s--
sa--
saba--
sar--
sateliti--
scar--
sch--
se--
sen--
ser--
sh--
si--
sie--
sk--
skyk--
sla--
so--
soci--
sol--
som--
son--
sor--
sp--
spe--
spesi--
spesru--
spi--
sr--
sranan--
st--
sta--
ste--
sto--
stu--
su--
suc--
sust--
swe--
t--
ta--
tai--
taki--
te--
tek--
tele--
ter--
th--
ti--
tiko--
tj--
to--
ton--
tongo--
tra--
tri--
tro--
tsjeki--
tu--
tuguru--
tur--
ty--
u--
ukraina--
ul--
univer--
ur--
urba--
v--
va--
var--
vati--
ve--
vel--
ven--
ver--
vi--
via--
vil--
vir--
vla--
vo--
vol--
w--
wa--
wal--
war--
we--
wer--
wi--
wiki--
wil--
win--
wo--
wor--
wri--
x--
xiao--
y--
ye--
yu--
z--
za--
zang--
zek--
ال--
ذ--
--0
--00
--1
--2
--3
--4
--5
--6
--7
--8
--9
--a
--aar
--ad
--ada
--ads
--ae
--afoss
--ak
--al
--ali
--am
--an
--ana
--ani
--ano
--anse
--ant
--ar
--ard
--ary
--as
--asie
--at
--ath
--au
--aus
--ay
--b
--ba
--ber
--berg
--bi
--bo
--burg
--by
--c
--ca
--ce
--ch
--che
--cht
--chts
--cia
--cie
--cio
--ck
--co
--ct
--cun
--cus
--d
--da
--dae
--dag
--dala
--de
--di
--dia
--dkv
--do
--dom
--dor
--dro
--ds
--du
--dy
--e
--ea
--ebi
--ec
--ed
--ef
--ein
--ek
--eks
--ekti
--el
--eld
--eli
--elle
--elte
--em
--en
--ene
--ep
--er
--erg
--eri
--ers
--ert
--ery
--es
--esia
--et
--eti
--ex
--f
--ff
--fi
--fie
--ft
--fu
--ful
--g
--ga
--gal
--ge
--gen
--ger
--ght
--gi
--go
--gu
--guru
--h
--hi
--i
--ia
--ian
--ic
--ics
--id
--ie
--ier
--ifi
--ij
--ijk
--ijke
--ike
--iki
--il
--iman
--in
--ina
--inae
--ine
--ing
--ino
--ir
--is
--isi
--it
--ity
--j
--ja
--jap
--je
--jk
--jn
--k
--ka
--kant
--kaw
--ke
--ki
--kia
--kie
--kli
--ko
--kondre
--kreek
--krutu
--ks
--kt
--kti
--ku
--l
--la
--lar
--ld
--le
--len
--let
--lf
--li
--lie
--lis
--ll
--lla
--lle
--llo
--lm
--lo
--ls
--lt
--lu
--ly
--m
--ma
--man
--me
--mi
--mo
--mp
--mu
--mun
--n
--na
--nburg
--nce
--ncourt
--nd
--nde
--ne
--nen
--nes
--ng
--ngen
--ngi
--ngo
--ngs
--ni
--nie
--nk
--nkel
--nn
--no
--ns
--nsi
--nt
--nta
--nti
--nu
--nz
--o
--oe
--ol
--om
--on
--one
--ongo
--oord
--opobringi
--or
--os
--ot
--ou
--p
--pe
--pi
--po
--pt
--pu
--pv
--que
--r
--ra
--ral
--rch
--rd
--rdi
--re
--rea
--rg
--rge
--ri
--ris
--riya
--rk
--rly
--rm
--rn
--rno
--ro
--rry
--rs
--rse
--rsma
--rt
--rto
--ru
--rus
--ry
--s
--sch
--se
--sen
--sh
--sha
--si
--sie
--sk
--ski
--sm
--sma
--sme
--so
--son
--spliti
--sru
--ss
--sse
--ssen
--st
--ste
--stein
--sti
--stic
--ston
--sts
--su
--t
--ta
--te
--ted
--teki
--ten
--tes
--th
--ti
--tia
--tie
--tifi
--tion
--tje
--tn
--to
--tongo
--tor
--tory
--ts
--tt
--tte
--tti
--tu
--tum
--tus
--ty
--u
--ud
--uel
--ulegwana
--um
--ur
--urg
--urt
--us
--ut
--uw
--v
--va
--ve
--ven
--vo
--vu
--w
--wa
--wan
--we
--wisi
--ws
--x
--y
--ya
--ye
--yo
--ys
--yt
--z
--za
--zen
--zio
--zo
--zoa
--zzi
--ر
