!
"
#
##0
##1
##10
##11
##12
##13
##14
##15
##16
##17
##18
##19
##2
##20
##21
##22
##23
##24
##25
##26
##27
##28
##29
##3
##30
##31
##32
##33
##34
##35
##36
##37
##38
##39
##4
##40
##41
##42
##43
##44
##45
##46
##47
##48
##49
##5
##50
##51
##52
##53
##54
##55
##56
##57
##58
##59
##6
##60
##61
##62
##63
##64
##65
##66
##67
##68
##69
##7
##70
##71
##72
##73
##74
##75
##76
##77
##78
##79
##8
##80
##81
##82
##83
##84
##85
##86
##87
##88
##89
##9
##90
##91
##92
##93
##94
##95
##96
##97
##98
##99
$
%
&
'
(
)
*
+
,
-
.
/
0
00
000
002
005
007
01
02
020
021
023
03
030
031
035
038
04
046
05
051
052
054
057
059
06
07
08
080
09
098
1
10
100
1000
1001
100591
101
102
103
104
105
1050
106
107
108
109
11
110
1100
111
112
113
1139
114
115
116
117
118
119
12
120
1200
1206
121
122
123
124
125
126
127
128
1280
129
13
130
1300
131
132
13216
133
13303
134
135
136
137
138
139
1392
1397
13992
14
140
1400
141
14118
142
1428
143
144
145
1453
146
1462
1463
1466
1469
147
1472
148
1483
1485
1487
1488
1491
1492
1493
1494
1497
1498
15
150
1500
1502
1503
1506
1508
1509
151
1511
1515
1517
152
1520
1521
1522
1523
1524
1526
1528
153
1534
1537
1538
1539
154
1541
155
1550
1553
1556
156
1565
157
1571
158
1580
1581
159
15919
15924
1594
16
160
1600
1603
1605
1606
1607
1609
161
1610
1613
1616
1618
162
1623
163
1634
164
1648
165
1655
1657
1658
166
1661
1665
1667
167
1670
1672
168
1682
1683
169
1697
17
170
1700
1705
171
172
173
174
1745
175
1754
1758
1759
176
177
1776
178
1783
179
1790
18
180
1800
1801
1802
1805
1809
181
1810
1811
1813
1814
1815
1819
182
1821
1822
1823
1828
183
1830
1831
1834
1835
1837
1838
1840
1842
1845
185
1850
1851
1853
1859
1861
1862
1864
1865
1866
1867
1868
187
1870
1871
1873
1874
1875
1877
1878
188
1880
1884
1885
1886
1888
1889
189
1890
1892
1893
1894
1895
1896
1897
1898
1899
19
190
1900
1901
1902
1903
1904
1905
1906
1907
1909
191
1910
1911
1912
1913
1914
1915
1916
1917
1918
1919
192
1920
1921
1922
1923
1924
1925
1926
1927
1928
1929
193
1930
1931
1932
1933
1934
1935
1936
1937
1938
1939
194
1940
1941
1942
1943
1944
1945
1946
1947
1948
1949
195
1950
1951
1952
1953
1954
1955
1956
1957
1958
1959
196
1960
1961
1962
1963
1964
1965
1966
1967
1968
1969
197
1970
1971
1972
1973
1974
1975
1976
1977
1978
1979
198
1980
1981
1982
1983
1984
1985
1986
1987
1988
1989
199
1990
1991
1992
1993
1994
1995
1996
1997
1998
1999
2
20
200
2000
2001
2002
2003
2004
2005
2006
2007
2008
2009
201
2010
2011
2012
2013
2014
2015
2016
20160916
2017
20170117
20170916
20170923
20170924
20171110
20171211
2018
20180630
2019
202
2020
2021
20210225184946
2022
203
204
205
206
207
207715
208
209
209203
21
210
211
212
213
2130
214
215
216
217
218
219
22
220
221
222
223
224
225
226
227
228
229
23
230
232
233
234
235
236
237
238
239
24
240
241
242
243
244
245
246
247
248
249
25
250
2500
251
252
254
255
256
257
258
259
26
260
261
262
263
264
266
267
268
27
270
271
272
273
274
275
2758
276
277
278
279
28
280
2800
281
282
283
284
285
286
288
29
290
291
292
293
294
295
296
297
298
299
3
30
300
3000
301
302
303
304
305
306
308
309
31
314
31446
316
31635
317
318
319
32
320
321
322
323
326
327
328
33
330
331
332
333
334
335
336
337
338
339
34
340
341
342
343
344
345
346
347
348
349
35
350
351
352
354
355
357
358
359
36
360
3600
364
366
367
368
37
370
373
375
376
377
378
379
38
380
384
385
387
388
389
39
390
391
392
394
395
397
398
399
4
40
400
4000
401
402
403
404
405
406
407
408
41
410
4109
411110
412
414
415
417
42
420
421
424
425
427
43
430
433
434
437
44
440
442
443
445
446
45
450
453
457
459
4599
46
460
462
463
465
466
467
468
47
470
471
472
474
477
478
48
480
482
484
487
49
490
495
496
498
5
50
500
5000
501
506
507
508
509
51
510
518
5181
519
52
520
521
524
526
527
529
53
530
533
5354
537
538
54
540
541
542
543
55
550
552
553
556
557355
56
560
560820
561
562
564
565
566
569
57
570
575
578
58
5800
581
582
583
585
587
589
59
590
591
5914
592
594
595
597
599
6
60
600
6000
601
603
606
607
61
610
611
612
615
618
62
620
622
624
625
626
6261
629
63
630
631
632
635
637
639
64
640
644
6462
648
649
65
650
653
655
657
658
659
66
660
6601
662
6635
664
667
668
67
670
676
68
680
689
69
690
699
7
70
700
7000
702
708
709
7098
71
710
711
716
718
719
72
720
725
728
7290
73
734
74
741
742
748
75
750
751
752
757
758
759
76
77
771
775
78
780
784
785
787
788
79
790
791
792
799
8
80
800
8000
801
802
803
81
816
817
82
820
823
826
828
83
830
836
84
841
843
85
850
851
856
858
859
86
864
868
87
870
872
88
884
89
894
895
896
89958
9
90
900
9000
91
910
914
915
916
918
92
921
924
929
93
930
94
940
944
947
95
950
952
957
958
96
961
966
968
97
970
975
978
98
980
985
986
99
992
994
995
9975
998
:
;
<
=
>
?
@
\
^
_
`
a
aa
aaa
aadidi
aadihan
aadingan
aadupan
aadupanay
aadupen
aaidangan
aalaan
aalan
aam
aamen
aamisan
aapuyu
aaron
aasipan
aatalan
aatupan
aayad
aayaw
aazihan
aazihen
ab
ababalaki
abadaan
abala
abali
abataan
abbas
abbottii
abbr
abd
abdalla
abdel
abdelaziz
abdelmadjid
abdo
abdrabbuh
abdul
abdulla
abdullah
abela
abesa
abesaay
abibi
abibien
abibiyan
abih
abinacadan
abinung
abiy
able
aboriginal
about
above
abovestyle
abs
absent
abu
abuabuan
abuabuwan
abuabuwanay
abuan
abuh
abulad
abuwan
abuyu
ac
aca
acaay
acaba
acacay
acak
acaken
acanthaceae
acasa
acawa
acawaan
acawaay
acawana
acawaw
acay
according
ache
achi
aci
acid
acika
acima
acin
acker
across
action
actor
actress
acu
ad
ada
adaaw
adada
adadaan
adadaay
adadan
adam
adama
adams
adasay
adawan
adawas
add
addcat
addclass
added
addnewline
addon
adds
addsuffix
ade
adeci
ademaw
ademiad
adengis
adetuman
adi
adiadi
adiadiay
adidem
adidi
adidiay
adidien
adidihenay
adiding
adidingay
adietu
adih
adihan
adihay
adihen
ading
adingu
adipangpang
adipapang
adipawnay
adipin
adiping
adiri
adiwawa
administrative
adu
adup
adupan
adupen
adventures
ae
ael
aenegan
aenem
aenengan
aepah
aer
aesu
af
afar
afghan
afghanistan
afih
afilika
africa
african
after
agal
age
ageq
agostinho
agrabah
agreement
agta
ah
ahacica
ahbal
ahbalay
ahcid
ahciday
ahe
ahebal
ahebalay
ahebed
aheci
ahecid
aheciday
ahemaw
ahemaway
ahemi
ahi
ahica
ahicaan
ahicaen
ahicahican
ahican
ahicanaca
ahitay
ahizan
ahmadzai
ahmed
ahn
ahulic
ai
aid
aidaan
aidang
aidangan
aidaw
ain
aingimea
air
ais
aisian
aizaw
aizi
aja
ajinc
ak
aka
akak
akamu
akamy
akan
akanatal
akapah
akate
akawaw
akaway
akawayan
akawy
akay
akayi
ake
akeak
akeakenekan
akebia
aken
akenek
akenekay
akenis
akihito
akkadian
aku
akudi
akulit
akuti
akutiay
akuwan
aky
al
ala
alaan
alaaw
alabama
alabi
alaci
aladdin
alaen
alahica
alahicaan
alahican
alain
alala
alalangawan
alalipayan
alamay
alan
alang
alangah
alangahay
alapanay
alapo
alapu
alapuo
alaska
alassane
alasubu
alatu
alaw
alawan
alawaw
alawen
alawhan
alawhani
alba
albania
albanian
albert
alberto
album
ale
alealedahan
alebis
aledah
aledahay
alejandro
aleksandar
alem
ales
alesan
alesen
aleut
alex
alexander
alexis
algeria
algerian
ali
alias
aliases
alibungbung
alice
align
alikakay
alilolo
alima
alin
alipawnay
alipay
alisalap
alisan
alishan
alisin
aliwsen
aliyaliyac
aliyev
aljungic
all
allcat
allen
allin
allnames
allow
allowed
allows
almazbek
alnum
alo
alolong
along
alpha
alphabet
already
alsalap
also
alston
alt
alta
although
alu
alua
alubu
aluday
aluma
aluman
alumanay
alungdas
alupal
alupalan
alvi
always
alya
am
ama
amaan
amaduka
amahetik
amahica
amahida
amahini
amahiza
amakaadih
amakatukuh
amala
amalacawa
amalaheci
amalahuk
amalatabakiay
amalawpes
amalebut
amalecad
amalepacaw
amalika
amalingatu
amalinges
aman
amana
amanan
amanatu
amang
amangaleb
amangalep
amangelu
amapatay
amapeci
amatineng
amaudip
amausep
amay
amaydih
amazon
ambox
amed
ameday
ameenah
amelik
america
american
ami
amiadih
amiadup
amiadupay
amiala
amiales
amiasip
amiatal
amiazih
amibanaw
amibetik
amica
amicumud
amicunus
amidang
amidateng
amihca
amihcaan
amihcan
amiheca
amihecaan
amihica
amikawaw
amikilim
amikulit
amikuwan
amiladay
amilakuid
amilika
amilikaan
amilikaay
amilikan
amilitin
amiliyas
amilka
amilunguc
amim
amin
aminaman
aminanam
aminu
amipatay
amipelu
amis
amisa
amisabalucu
amisakakawaw
amisakapah
amisalisin
amisalunguc
amisan
amisanga
amisay
amisen
amisiteked
amislic
amisuayaw
amisulit
amisumad
amitaneng
amiteka
amitena
amitiih
amitudu
amlika
among
amount
amu
amuhuan
amuhuwan
amuhuwanay
amukan
amulangaw
amusakamu
amutu
amuzgo
an
ana
ananum
anatole
anay
anca
ancaay
ancash
ancay
ancient
ancoh
and
andersen
anderson
andorra
andrea
andrej
andrew
andrzej
ang
angal
angang
anganga
angangan
anganganan
angangangan
angangngan
angcoh
angel
angeles
angic
angil
angiosperms
anglel
angola
angsi
angtul
angtulay
ani
anicudadan
anicuwa
anidatengan
anifong
anika
anikalepacawan
anikalpacawan
anikasi
anikaudip
anikaudipan
anikulitan
anikuwanan
animal
animalia
animals
anini
anipahabayan
anipalumaan
anipi
anisangaan
anisulitan
aniwan
aniwyiw
aniwyu
aniyadu
anmuhuan
anna
annu
annual
anoh
another
ant
antal
anteng
antetokounmpo
anthony
anti
antigua
antise
anto
antonio
antul
anu
anuayaw
anucaay
anucila
anumahiza
anusa
any
anyadu
anything
ao
aow
aozi
aoziguo
ap
apa
apaca
apache
apacici
apahabay
apakatengil
apala
apalu
apaluma
apan
apapuro
apasubana
apatideng
apaw
apc
api
applied
appropriate
apr
april
apu
apudule
apuhau
aputova
aputula
aputule
apuu
apuyu
apuyuay
ar
ara
arab
arabia
arabian
arabic
arabica
aramaic
archange
archibald
archive
archives
ard
ardea
ardern
are
area
arenga
arg
argentina
argkeys
args
argsi
argsk
argtables
argument
arguments
ari
arif
armen
armenia
armenian
armstrong
arnousn
around
arr
array
art
arthur
article
articles
artsakh
arturs
aru
arya
aryan
as
asa
asaan
asaca
asadov
asan
asay
asgard
ash
ashe
ashraf
asi
asia
asian
asibalu
asidibu
asik
asikawaw
asilamit
asilangaw
asing
asip
asipapah
asipen
asiroay
asiya
askar
asmat
asp
aspx
assad
assembleoutput
assembly
assign
associated
association
assoumani
assume
asteraceae
asterales
asu
asuay
asue
at
ata
atademaw
atahekal
atahkal
atal
atalen
ataluma
atambayev
ataneng
atapa
atay
atayal
atayalu
atayda
atayni
atayza
ate
ateka
atekak
atekakay
ateng
athens
atikak
atilad
atimsi
ating
atipal
atipelec
atlanta
atlantic
atlas
atmosphere
ato
atolan
atomo
atonan
atta
attended
attles
attr
attraction
attribute
atu
atudi
atuud
au
auckland
august
augustine
auk
aumay
auo
aureliu
auskan
austin
australia
australian
australis
austria
aut
auto
automatically
autumn
aux
av
ava
available
avar
aves
avoid
avt
aw
awa
awaay
award
awards
awas
awasen
awaw
awawa
awawan
awawen
away
awcikul
awcima
awi
awk
awmay
awtili
awu
awyu
awza
ay
aya
ayaan
ayadah
ayam
ayaman
ayamay
ayaw
ayawan
ayaway
ayawen
ayawtu
ayay
ayda
aydaay
aydahan
aydasa
ayday
aydecia
ayi
aylik
aymara
aysipadise
ayta
ayti
aytu
ayu
ayza
ayzaay
ayzasa
ayzasatu
az
azali
azerbaijan
azerbaijani
azi
aziazihan
azih
azihan
azihen
aziz
b
ba
baa
baad
baaday
baat
baatay
baba
babahi
babahiyan
babakahan
babala
babalak
babalakasen
babalaki
babalakian
babalakiay
babalakiyay
babalangad
babaledaw
babaluan
babatuan
babau
babaungen
babayu
babayuh
babayuhan
babeku
babelbel
babelih
babenis
babenisan
babis
babo
babulatak
babutingan
babuy
baca
bacaywan
back
background
backgroundcolor
backtranslate
bacu
bacusulit
bad
bada
badaan
badahung
badahungen
badakuwan
badakuwang
badanbangan
baded
badi
badic
badisusu
badukukan
baduwac
baeket
baeketay
baetu
baga
bah
baha
bahal
bahamas
bahbah
bahbahan
bahbahen
bahel
bahrain
bai
bailey
bainimarama
bainouk
bakah
bakahen
bakan
baker
baket
baki
bakibaki
bakici
bakir
bakiya
bakudang
bakung
bala
balaay
balad
balah
balakas
balaki
balakiay
balakitu
balakiyay
balalangad
balangbang
balangbangan
balanta
balat
balatbat
balaten
balattu
balaud
balaut
balaw
balay
balaysan
baldwin
balesitan
baleyliya
bali
balian
baliay
balidas
baliq
balius
baliyalaw
baliyus
balkans
balo
balobalo
balochi
baltic
balticyu
baltimore
balu
baluan
baluay
balubaluan
balucu
balucuan
balucuay
balud
baluden
baluhan
baluhang
baluhay
baluhaya
baluhayay
baluinana
balulu
balung
balunga
balungaay
balungan
balutebut
baluwan
baluwang
baluwangay
bambi
ban
bana
banacadan
banaw
banawan
banawen
bancal
bancalay
band
banda
bang
bangacal
bangah
bangas
bangasan
bangbangcal
bangcal
bangcalay
banges
bangesis
banggu
bangkok
bangku
bangladesh
bangsi
bangsis
bangsisay
bangu
banic
banihiw
banihiwsaan
banks
banner
bansisa
bantu
banu
banuaz
banuh
banuhan
banuhay
banul
banun
bao
bar
baratheon
barbados
barbuda
bareli
barkley
barnes
barnett
barnhill
baron
barr
barrett
barrow
barry
basa
basal
basaw
base
based
basestyle
bashar
bashir
basic
basis
basketball
basque
basu
basuto
basutoland
bat
bataan
bataanay
batac
batacan
batad
bataday
batak
batan
batbato
bati
batikal
bato
battle
batu
batuan
batul
bau
bauan
baw
bawahan
bawbi
bawu
bay
bayabay
bayah
baybay
bayduk
bayhunpi
bayi
bayu
bayuan
bayuay
bayubayu
bayubayuan
bayubayuwan
bayuway
bazoum
bb
bbc
bc
bce
bcp
bd
be
bea
beach
bean
beard
beasley
because
bechuanaland
beck
becker
become
becomes
beded
beden
been
before
begin
behaviour
behind
behnke
bei
beinan
being
bel
belac
belarus
belaw
belaway
belbel
belek
belekan
beleng
belgium
belguim
belih
belihen
belin
beliw
belize
bell
belle
bellen
below
belus
belut
ben
bena
bender
benel
beng
bengal
beni
benin
benis
benjamin
bennett
benson
berawan
berber
berdimuhamedow
bergen
bernard
berry
besi
best
bestval
besu
besuc
bettel
better
between
bey
bf
bg
bh
bhandari
bhasa
bhoti
bhutan
bi
bian
biao
bibby
bicin
bidadiki
bidakelung
bidayuh
biden
bidhya
big
bihekac
bihid
bihit
bihkac
bihun
bikol
bil
bila
bilal
bilanga
bilbil
bildac
bili
biliay
bilil
bill
biluwa
bin
bina
binacada
binacadaan
binacadan
binacadanay
binacanan
binaduan
binawan
binawlan
binawlanay
bing
bio
bird
birds
birth
bisher
bissau
bit
bitelak
bituka
bitunay
biw
biy
biya
biyalaw
biyalawan
biyang
biyaw
biyaway
biyu
biyuan
black
blacklist
blacklisting
blackwell
blaise
blake
blangaw
blank
blazers
blhuy
blica
block
blocks
blog
blood
blount
blue
blurb
bms
bn
bnp
bo
boa
bob
bodo
body
bodyclass
bold
bolivia
bolivian
bolsonaro
bom
bombax
bon
bongo
bonner
bontok
boo
book
booker
books
boolean
boone
booth
boozer
boraginaceae
border
borderwidthnum
borealis
born
boro
borut
bos
bosch
bosnia
boston
both
botswana
bottom
boubacar
bounnhang
bouteflika
bow
bowen
bowie
bowman
box
boxargs
boxtable
boxtype
boy
boyd
bozo
br
bracket
bradley
brahim
bramlett
branaw
branch
brandon
brasil
bratislava
brazil
break
brennan
breton
brewer
breynia
bricen
bridge
britain
british
britt
brnabic
brooks
browne
bru
brunei
bs
bsuling
bu
bua
bubukun
bubun
bucici
bucks
bucud
bucul
bucyacaw
budawa
budawan
budibud
budu
buhan
buhang
buhari
buhat
buhaten
buhung
bujar
bukal
bukebukelal
bukebukelalan
bukelal
bukeluh
bukes
bukeykay
buklavu
buksi
bukubu
bukul
bul
bulabulangan
bulad
buladan
bulah
bulat
bulatan
bulaw
bulawan
bulbul
buley
bulgaria
bulgarian
buling
buliyas
bullets
bulls
bulu
buluku
bun
bunabunakan
bunac
bunak
bunan
bunaw
bunawan
bunday
buner
bung
bunga
bungka
bungluh
bunguh
bunka
buntay
bunu
bunuk
bunun
bununay
bunung
bunyoni
buriat
burkhalter
burkina
burma
burundi
busi
busugi
busuk
but
buta
butch
butimu
buting
butingan
butingay
butu
butuc
butud
butul
butung
butungan
buwa
buwah
buwak
buy
buyang
buyi
buyu
buyuan
buyuay
buyubuyu
buyubuyuan
bwarung
by
byte
c
ca
caa
caacaay
caah
caang
caay
caaya
caayay
caayen
caayhen
caayhenay
caayka
caaykacelem
caaykakapah
caaykalecad
caaykatineng
caaykatinengan
caaykaw
caaysa
caaytu
cabal
cabay
cabaya
cabayan
cabayay
cabeng
cabengay
cabi
cabo
caca
cacaay
cacacacay
cacakayan
cacaliwayan
cacan
cacanan
cacay
cacaya
cacayan
cacayay
cacaycacay
cacayen
cacayya
cacebalan
cacekawan
cacekulan
cacudaan
cacudad
cacudadan
cacudadanay
cacudaden
cacudatan
cacuhcuhan
caculculan
caculculen
caculilan
cacumudan
cacy
cadillac
cah
cahu
cai
cairo
cait
caka
cakat
cakatakalaway
cakaw
cakay
cakeb
cakenuh
caket
cal
calahcah
calamay
calap
calaped
calasiv
calaw
calay
calayzazan
caldes
caldesay
caledes
caledesay
calekah
calekaka
calekakaan
calekakaay
calendar
calendarmodel
calenged
calenget
california
caliway
caliwayan
calkakaan
call
called
caluway
cambodia
cameron
cameroon
can
cana
canacana
canacanan
canacananan
canada
canadian
canan
canancanan
cancan
cancanan
canel
cang
cangla
canis
canmu
cao
cape
capi
capiay
capital
capiwac
captain
caption
captures
caputuwa
car
cardinal
career
caribbean
carl
carlos
carnivora
carolina
carrie
cartier
carvalho
caryophyllales
cascas
cascasan
case
cases
castex
cat
catalonia
categories
categorisation
categorise
category
categoryhandler
catname
cats
cattitle
catu
cause
cavak
caw
cawa
cawi
cay
caya
cayay
caycaay
caycay
cayhen
cayhenay
cayi
cayka
caykaasu
caykadayum
caykalecad
caykalecaday
caykanca
caykasa
caykatalaw
caykataneng
caykatenes
caykatineng
caykatuud
caykaw
caykayadah
caypasumad
caypiwac
caysa
caytu
cbk
cc
cd
ce
cea
cean
ceaw
ceay
cebal
cebalan
cebang
cebecebedan
cebecebetan
cebisan
cebu
cecay
cecayay
cece
ceci
cedang
ceiba
ceka
cel
celacan
celah
celahcan
celak
celakan
celas
celem
celinga
celip
celitan
cell
cells
celtic
celtics
celuh
cemad
cemed
cen
cenbu
cence
cenceay
cencun
ceng
cengce
cengel
cengyi
cenhu
cenhuay
ceni
cening
cenpaw
centan
center
central
century
cepi
cepo
certain
cesya
ceviche
cey
ceymi
cfg
ch
cha
chad
chain
cham
chan
chang
changbin
change
changes
changnasen
changpin
chao
character
characters
chargs
charles
chat
chatino
chaw
che
check
checkarchives
checknum
checknumandaddsuffix
checks
checktype
chen
cheng
chengce
chenggong
chengzhi
chi
chiayi
chicago
chief
chifa
chihshang
child
chile
chin
china
chinantec
chinense
chinensis
chinese
chiroptera
chishang
chn
choa
chong
chontal
chordata
chou
chris
christian
christiane
christophe
chu
chuan
chuang
chun
chung
chunrih
church
chyy
ci
cia
ciama
ciamengan
cian
ciang
ciataw
ciaw
ciay
ciba
cibai
cibaki
cibalbalan
cibarbaran
cibutung
cica
cicekaay
cidakay
cidatayay
cideaky
cideaya
cidek
cidekan
cidekay
cidenay
cidikay
cie
cieng
ciey
cigarette
cihabayan
cihafayan
cihak
cihakay
cihek
cii
ciid
ciina
ciit
ciitan
cika
cikah
cikasa
cikasuan
cikasuwan
cikatenes
cikciken
cikdekay
cikeliwan
cikep
ciku
cila
cilakayan
cilakesay
cilal
cilala
cilalan
cilalongay
cilamitay
cilangasan
cilapuk
cilay
cilekay
cilekaya
cilekayan
cilemin
cileminay
cili
cilicilisan
cilily
cilis
cilkay
cilo
cilu
ciluciluk
cilucilukan
cima
cimacima
cin
cina
cinaiya
cinbulan
cincen
cinceta
cincinnati
cinciu
cinemnemay
cing
cingaluan
cingaroan
cinglikwang
cini
cinida
cinidaan
cinita
ciniza
cinizaan
cinizanan
cinsan
cinsbu
ciocoi
cipaka
cipangopaludina
cipawkan
cipuypuyan
cirakayan
cirakesay
cirarokohay
ciripunan
cirocan
cis
cisiwsiwan
citekudan
cities
citudungay
city
ciu
ciung
ciupus
ciusinlun
ciw
ciwciw
ciwidian
ciwidiyan
ciwkangan
ciwlu
ciwluay
ciwng
ciy
ciya
ciyak
ciyakang
ciyama
ciyan
ciyanen
ciyang
ciyaw
ciye
ciyen
ciyu
ciyuci
cjk
claim
claims
clarke
class
classes
classical
claude
clayton
clear
cleveland
cliff
close
closely
club
cm
cmbox
cmd
cn
co
coach
coast
coatla
coco
coconut
cocos
code
codepoint
codes
coffee
col
cola
colclass
collapse
collapsible
collection
collective
college
collinet
colombia
colon
color
cols
colspan
colstyle
columbia
columbus
column
columns
com
comma
command
commas
common
commonly
commons
comorian
comp
company
compare
compareurl
compatibility
complete
complex
compositae
compressarray
comuli
con
concat
conde
conditions
conf
config
configuration
conflicting
cong
congchyy
congfen
conghwaminku
congli
congnanmeico
congo
congsin
congtung
conjunction
consists
contain
containing
contains
content
context
control
convert
cook
cooking
copy
corey
corn
cornish
corresponding
cortizo
costa
cote
cotton
cou
could
count
countries
country
county
cov
covid
cow
cp
crassocephalum
crc
create
cree
creole
crepidioides
crioulo
croatia
croo
crop
cropped
cross
crossing
cruella
cruz
crystals
cs
css
csstext
cu
cuan
cuay
cuba
cucu
cucuan
cucuk
cuda
cudad
cudadan
cudaday
cudaden
cudet
cudetay
cuduh
cuecuedan
cuedec
cueded
cuededay
cuedet
cuedetay
cui
cukana
cukaymasen
cuked
cuku
cul
culaculal
culahakay
culal
culay
culculen
culen
culi
culil
culilan
culilay
culilen
culiu
culiye
cultivars
cultivated
culture
culu
culuk
cumelak
cumi
cumikay
cumud
cumudan
cumut
cun
cuncu
cung
cungkoay
cungku
cungli
cungtun
cungtung
cungus
cungya
cunida
cunli
cuntu
cuntun
cunus
cunusan
cunusen
cuo
cuoay
cuokuo
cupelak
cupu
curpage
current
currentdate
currently
cus
cusay
cut
cuun
cuung
cuw
cuwa
cuwaay
cuwacuwa
cuwacuwaay
cuwacuway
cuwan
cuwang
cuwcuw
cuwen
cuwi
cuy
cuyacuy
cuyuh
cwan
cweng
cy
cya
cyalan
cyama
cyan
cyang
cyaw
cyayi
cye
cyen
cyocuy
cyprus
cyril
cyrillic
cyrl
cyu
cyun
czech
czechia
czechoslovakia
d
da
dabak
dabek
dabire
dac
dada
dadac
dadadadanan
dadadanan
dadadiwan
dadan
dadanan
dadatengan
dadatengen
dadatukan
dadawa
dadaya
dadayday
dadayumen
dademaw
dademec
dademecan
dadi
dadibuan
dadingu
dadinguay
dadipana
dadipasan
dadipasanay
dadiputan
dadiputen
dadisapan
dadiw
dadiway
daduducan
daduducen
daduy
daecusay
daedac
daesu
dahomey
dai
daigaz
dais
daju
dakep
dakepen
dalah
dallas
dalu
damay
damayan
damek
damiad
damsay
damsaya
damsayay
damud
dan
dang
dangah
dangkay
dangku
dani
daniel
danish
dankace
danmark
danmay
dansu
dao
dap
dapdap
dar
daren
dari
darrell
das
dash
data
dataset
datastyle
datatype
datavalue
datay
date
datemaw
dateng
datengan
datengen
dates
datetime
dating
datipasan
datong
datuk
datukan
dau
daung
dauqpusan
dave
david
davugele
daw
dawa
dawku
dawmi
dawmiay
dawu
dawya
day
dayas
daydam
dayday
dayhan
dayhiw
dayhuw
days
dayum
dbeibeh
dc
ddd
de
deal
death
debah
debu
debug
debung
debungan
debungay
debut
dec
december
deciduous
decimalprecision
deday
dedemiad
deepcopy
default
defaultkey
defaults
defects
defined
definition
deg
deguo
dehebay
dei
deka
deku
del
delete
delim
dem
demaad
demaid
demec
demecen
demiad
demiadan
demiaday
demiamiad
demiat
demidad
demidemiad
demidemiadan
democratic
demospace
den
deng
dengtal
denis
denmark
dennis
dep
depah
depend
dependencies
depending
deprecated
der
des
desay
desc
description
descriptions
detail
details
detay
detect
detected
detroit
devi
df
dhabi
dhm
di
dia
dialect
diameter
diao
dibu
dicem
diceman
dichondra
dick
dictionary
dida
didi
didiay
didier
didihen
diego
dietu
diff
different
digest
digits
dih
dihan
diheb
dihebay
dihedeheban
diheku
dihekuay
dihemay
dihen
dihep
dihepay
dihing
dihku
dihkuay
dika
dikec
dikidiki
dikuc
dikucan
dikudan
dikudanay
dikuday
dil
dili
dimiad
dimuten
din
dina
ding
dingki
dingkiay
dingu
dinka
dinkam
dinki
dinum
diospyros
dip
dipah
dipas
dipit
dipu
dipun
dipunan
dipunay
diput
diputen
directly
dis
disambiguation
disambiguator
disan
disdisen
disney
disp
display
displayed
displayname
displays
disticha
district
ditek
ditu
div
division
diw
diwas
diya
diyung
djerad
djumulj
dl
dmy
dna
do
doc
docpage
docs
doctitle
documentation
does
doesn
dog
dogon
dom
domesticated
domingo
dominica
dominican
don
donald
done
dong
donghe
donkuan
dora
dorcus
dos
douard
double
douglas
dow
dowmung
down
dowras
dprec
dr
draft
dramas
dream
drums
dry
dt
dtxt
dtype
du
duan
duba
duc
duda
duduc
duducen
due
duhduh
duhem
duhepic
duhepicay
duhpicay
duka
dukay
duke
duku
dull
duma
dumaan
dumaay
dumaduma
dumasa
dumasatu
dumay
dun
duna
dung
dungan
dungdung
dungec
dungi
dungus
dungy
duo
duque
duration
dus
dusun
dutay
dutch
dutucdutuc
duu
duud
duut
duutay
duwic
duyu
dv
dvd
e
each
eagle
ear
earl
early
earth
east
eastern
ec
ecowas
ecuador
ed
edad
edapen
edapngiha
edaw
ede
edek
edgar
edi
edible
edid
edil
edip
edipay
edirne
edit
edition
editors
edo
edu
eduard
eduardo
eduay
eee
eesti
ef
effect
efi
efong
egypt
egyptian
ei
eid
either
ekek
ekimay
ekin
ekun
el
elac
elaeagnus
elan
elaw
elements
eli
elic
elielip
elis
elizabeth
ellan
elmer
elos
else
elseif
elun
elva
em
emang
embera
emi
emirates
emmerson
emomali
emperor
empty
en
enal
enalan
enalay
end
ended
enem
enemay
enen
eneng
enengan
enengay
enenmay
eng
england
engleri
english
enip
ensure
ent
entire
entity
entityid
entries
entry
enuc
env
envfuncs
environment
eo
ep
epah
epaper
epuc
equal
equatorial
equivalent
er
era
erdene
erdog
eric
erick
eriocheir
eritrea
erna
ernie
err
error
errororentity
errors
ers
es
esculenta
ese
essebsi
estonia
estonian
eswatini
et
etad
etal
etc
ethiopia
etip
etipan
etipay
eton
ettoday
etul
eu
eudicots
eukarya
eukaryota
eun
eupatorium
euphorbia
euphorbiaceae
europe
european
evaristo
even
evenodd
ewe
ex
example
except
excubitor
exist
existing
exists
expandtemplate
expecttype
expensive
experiment
export
ext
extension
extra
extract
ey
eymun
eytemuy
eyyo
ez
f
fa
face
facebook
factor
fafokod
fahol
fai
fakong
fakung
fakuo
falaw
fali
fallback
fallopia
falls
false
familiaris
family
famname
fan
fanaw
fang
fantesi
faq
far
fargs
farouq
faso
fata
fattah
faure
faustin
fawa
fay
fayez
fb
fbtbl
fc
fdate
fe
fea
feature
february
federal
federer
fei
feico
feicuiguo
feizuiguo
felipe
female
fen
feng
fengbin
fenglin
fengpin
ferna
fernando
festival
fetch
fetchwikidata
few
fey
ff
fg
fhm
fi
field
fieldname
fields
fieldsi
fieldsindex
fiji
file
filipe
filipin
film
films
filter
final
find
findlang
finland
finnish
fire
first
fiti
five
fix
fixed
fj
flag
float
flood
floor
florida
florin
flower
flowering
flowers
fmargs
fmbox
fmt
fo
fofana
folalacay
followed
following
fong
fonseca
font
fontstyle
foo
food
for
force
forcipule
foreignpage
forest
form
format
formatdate
formatlink
formatmessage
formatnum
formatpropertyvalues
formats
formatstr
formatstring
formatted
formatting
formed
former
formosa
formosan
formosana
formosanum
forms
forrow
forseeargstotable
forseetable
forward
found
four
foxtail
fr
fraction
fragaria
frame
frameless
franc
france
francesco
francisco
frank
fred
frederiksen
free
french
frisian
from
front
frr
fruit
ft
fu
fudafudak
fulfulde
fuli
full
fulltext
fullurl
fulufuluan
fun
func
function
functions
funereus
fung
fuo
fuolaywise
fur
furcula
fuw
fuwan
fuxing
fuy
fven
fwa
fy
fʁɑ
g
ga
gaara
gabinete
gabon
gadaba
gaelic
gaga
gagikian
gai
gained
gal
galasu
gali
gambia
game
gan
gang
gankiw
gao
garden
gardenia
gardens
garibashvili
gary
gas
gases
gaston
gasu
gate
gbaya
gbayang
gbe
gdp
ge
geingob
gelao
gem
gen
gene
generally
generate
generated
generates
genoa
gentianales
genus
george
georgia
georgian
georgr
german
germanic
germany
get
getallstatements
getargnums
getargs
getbeststatements
getcatforid
getcommonslink
getcontentlanguage
getcurrentframe
getcurrenttitle
getentity
getentityidforcurrentpage
getentityobject
getenvironment
getexports
getitemlangcode
getopt
getparameters
getparammappings
getparent
gets
getseparator
getshortlink
getsitelink
getsumofparts
gettitle
gettitleobject
getvalue
getvaluebyqual
ghale
ghali
ghana
ghani
gi
giammattei
gicu
gid
giing
giki
gikian
gilan
gilbert
giles
gin
ging
ginger
gingku
ginkgo
giovanni
girl
girls
git
given
giza
gje
gl
glabra
glargs
glass
global
globals
gluban
gnaalu
gnassingbe
gnd
go
god
gods
golden
golovchenko
gomes
gondi
gong
gongxidaye
good
got
gotabaya
gothic
gov
government
gowryu
grand
grass
gray
grc
great
greater
grebo
greece
greek
green
greenland
greg
gregorian
group
grow
grown
grows
gsub
gu
guajava
guan
guanajuato
guang
guangfu
guanshan
guanxi
guarani
guatemala
gui
guiena
guillaume
guillermo
guine
guinea
guiyang
gukut
gula
gulf
gun
gunbe
guo
gurbanguly
gurib
gustaf
guterres
guyana
gwa
gwei
gwo
h
ha
habay
habayan
habayiing
habelut
habelutan
haboeh
habutud
haca
hacacacacay
hacacay
hacecacecay
hacica
haciliwan
hacining
hacul
haculan
hacuning
had
hademhem
hadi
hae
haemay
hage
hah
hahanhanan
hahican
hai
haida
haiduan
haising
haiti
haitian
haitutuan
haji
hak
haka
hakay
hakhak
hakiya
haku
hakya
hal
hala
halemhem
haley
half
halfa
halhal
halhalen
hali
haliabibi
halimutat
halley
hallstatt
halu
halusipun
hamad
hamaw
hamawsa
hamay
hamaybaki
hamdok
hami
hamid
hamin
haminen
hamuleyte
han
hana
hanaku
hanakuyama
hanan
hananay
hanany
hanauka
hanaw
hanay
hanbizan
hanca
hand
handle
handler
hang
hangay
hangisaw
hangul
hanhan
hanhanan
hani
hanida
hanika
hanita
hank
hanku
hannanay
hannida
hanoi
hans
hansa
hansaw
hansi
hant
hante
hantu
hantuaku
hantukami
hanu
hanumita
hao
haomi
hapinang
harald
harawan
harbour
harry
has
hasa
hash
hashim
hasina
hassan
hata
hatanengen
hatida
hatidaay
hatidaaytu
hatidatu
hatini
hatiniay
hatiniyay
hatiza
hatizaay
hatnote
hatu
hatusa
hau
hausa
have
having
haw
hawai
hawaii
hawks
hawmi
hawsa
hawtu
hay
hayata
hayayda
haycan
haykay
haymaw
haymawen
haymawhan
hayni
haynika
haynisadikud
hayu
hbo
hbs
hbun
he
head
header
heading
heads
heart
heat
hebal
hebrew
hecek
heci
hecian
hedek
hefyiliaw
heger
hehi
hei
height
hekal
hekalan
hekalay
heku
helan
held
help
helper
helun
helung
hemay
hemhem
hen
hena
henaca
henay
henchun
heney
heng
henhe
heni
henian
heniay
heniyan
henli
henry
hepin
heping
hepipi
her
herb
herbaceous
here
herna
herzegovina
hese
hetay
hetik
hey
hezuysiw
hh
hi
hibiscus
hica
hicaan
hicaen
hicaenaca
hicahica
hicahicaan
hicahicaay
hicahican
hican
hicanaca
hicanan
hicasa
hida
hidaen
hidahan
hidahida
hidan
hidasa
hidasatu
hiday
hidden
hide
hieroglyphs
higgins
high
highland
hikin
hikuki
hikukiay
hikuy
himice
hina
hinaadih
hinabi
hinapelu
hinasakamu
hindi
hindko
hini
hiniay
hinien
hinin
hinisa
hinisatu
hinuki
hiong
his
hispaniola
history
hita
hitay
hitayan
hitayay
hittite
hitu
hiwhiw
hiya
hiyan
hiza
hizaen
hizahiza
hizasa
hk
hla
hlist
hm
hmong
hms
hnoptions
ho
holness
hondura
honduras
hong
hongkong
hongtei
hongye
hopi
horizontal
hornets
hororok
host
hoste
hotel
hou
hour
hours
house
how
hr
hrung
hsiao
hsien
hsinchu
hsuan
ht
htin
htm
html
http
https
hu
hua
hualien
huan
huang
huasteca
huave
huay
hubaw
hubert
huciyen
hucu
hucunu
hue
huey
huge
hui
huiam
huing
huishui
huisin
huitoto
hukang
hul
hulak
hulalm
hulam
hulaman
hulamay
hulan
hulansi
hulic
hulicay
human
hun
hunan
hung
hungarian
hungary
hungdulasi
hungti
hungtian
hungtiay
hungty
hungtyay
hunhungaz
hunti
huntu
huo
hupu
husida
hussein
husu
huting
huw
huwa
huwan
huwang
huway
huy
huyan
hwa
hwalyen
hwan
hwang
hy
hz
i
ia
iamisay
ian
iana
iayaw
iayaway
ibalucu
ibayuay
ibn
ibrahim
ibrahima
ibuh
ibukelalay
ibuyuay
ic
ica
icapi
ice
icel
iceland
icelang
icelangan
icelangay
icep
ici
iciba
icibang
icon
icuwa
icuwacuwa
icuwacuwaay
id
ida
idaay
idadan
idai
idaidaw
idang
idangan
idatu
idau
idaw
idawaca
idaway
idawku
idawtu
idawya
ideograph
idi
idih
idini
idiw
idriss
ids
iduc
iduma
idwa
idx
ie
ienal
ietf
if
ifugao
iga
igaan
igaay
ignore
igu
ihekaay
ihekal
ihekalay
ihownang
ihu
ii
iii
iin
iing
ik
ika
ikang
ike
ikit
iko
iku
ikul
ikyu
il
ila
ilabu
ilabuay
ilabuhan
ilabuway
ilaed
ilaku
ilala
ilalabu
ilang
ilausan
ilh
ilham
ili
ililis
ilir
ilisin
illinois
iluc
iluciluc
iluiluc
iluma
ima
image
imageemptycell
imageleft
imageright
imahida
imahini
imahiza
imamu
imataay
imax
imbox
imdb
imelang
imelangan
imelangay
imf
img
imi
imian
imin
imonyte
implement
implemented
implements
implied
important
imran
in
ina
inaayaw
inaayaway
inai
inaiay
inaka
inakaay
inakawaw
inal
inay
inaya
inayay
inayi
inayiay
inayinayi
inaynay
inaynayi
inc
include
included
includes
including
incubator
incumin
indent
index
india
indian
indiana
indians
indic
indica
indigenous
individual
indo
indonesia
indonesian
indu
info
infobox
infocolor
information
ing
inga
ingay
ingcumin
inggu
ingkuo
ingrida
ingtu
ingu
inh
inherit
ini
inika
inikudan
inipi
initial
iniw
iniwtu
iniyadu
iniyan
iniyay
iniyu
inline
inn
input
insac
insert
inside
instagram
instance
instead
int
integer
international
inti
intini
into
intro
intu
inu
inuayaw
inuayawan
inuayaway
inudikudan
inuktitut
inutebanan
inutipan
invalid
invert
invoke
inyadu
inyutu
inywtu
io
iohannis
iowa
ip
ipa
ipabaw
ipabaway
ipairs
iputahay
ira
irakli
iran
iranian
iranmeylek
iraq
iraraley
iratay
ireland
irish
irland
is
isa
isabella
isaetipan
isaias
isasa
isasaay
isaw
isawalian
isbc
isbn
ise
isexist
isi
ising
isingan
islabel
islam
islamic
islamkiw
island
islands
islong
ismud
isn
isnegative
isnotempty
iso
israel
issmall
issue
isthmus
isu
isuwanan
it
ita
itakuwan
itali
italian
italic
italics
italy
itamiyan
itaneng
itapiingan
itaw
itawan
itaway
itawya
itawyaay
itaywanay
itda
itdai
iteban
itebanay
item
itemid
items
itepal
iterator
iti
itida
itidaay
itidai
itidan
itidasa
itidatida
itila
itimula
itimulay
itini
itiniay
itinien
itinitu
itiniyay
itisuwan
ititaan
ititanan
itiya
itiza
itizaay
itizaw
itneg
itni
its
itu
itunduh
itza
iu
iumah
iv
iva
ivoire
ivoirie
ixora
iy
iya
iyadah
iyadahay
iyazu
iyn
iyo
iyu
iyubin
iyubung
iyun
iyung
iyw
iza
izang
izau
izaw
izaway
izawtu
izay
izetbegovic
izikuz
iziw
izukan
j
ja
jacinda
jackfruit
jacob
jacques
jae
jafar
jair
jakobsdo
jam
jamaica
jamaican
james
jammeh
jan
jane
janez
jans
january
japan
japanese
japonica
japonicum
jasmine
java
javanese
jay
jazz
jdz
je
jean
jeff
jen
jerome
jersey
jesse
jesus
jeveq
jewish
jheronimus
ji
jia
jian
jiang
jianshi
jiao
jigme
jim
jimmy
jin
jinfeng
jing
jiniya
jinping
jinshan
jioji
jiu
jo
joan
joe
johannes
john
johnny
johnson
join
joko
jon
jonathan
jong
jordan
jorge
jose
joseph
josh
jovenel
jpeg
jpg
jr
json
ju
jua
juan
judeo
judy
jugnauth
julian
julius
july
jun
just
juǀ
k
ka
kaabuabuan
kaadada
kaadih
kaadihan
kaahebal
kaahebalan
kaala
kaalaan
kaamisan
kaamisanay
kaan
kaangican
kaapor
kaasu
kaayawan
kaazih
kaba
kabaad
kabaat
kabaian
kabalaki
kabalakian
kabalan
kabalian
kabana
kabanaan
kabang
kabangcal
kabatad
kabelecan
kabi
kabid
kabidangan
kabilil
kabing
kabit
kabiyalaw
kabiyalawan
kabore
kabulawan
kabus
kaca
kacaay
kacacayat
kacakat
kacaledes
kacaledesan
kacalilaw
kacaliwayan
kacaw
kacawan
kacay
kacebalan
kacekukan
kaceleman
kacinlawan
kacudu
kacumelakan
kacumuli
kadabu
kadademecan
kadamat
kadayum
kadazan
kadebitay
kademan
kademec
kademecan
kadengan
kadhimi
kadideng
kadihan
kadihi
kadihian
kadihiyan
kadihiyi
kadimel
kadipunan
kadu
kaduba
kaduh
kaduka
kaduut
kaduwangay
kaedem
kaedeman
kael
kaen
kafa
kagak
kagame
kahacica
kahaehaeoan
kahamin
kahaminan
kahapinang
kahemekan
kahenawlan
kahenulan
kahetik
kahetikan
kahica
kahicaan
kahida
kahidaan
kahini
kahinian
kahiu
kahiw
kahiza
kahkahoe
kahulaman
kai
kaicelang
kaidaw
kaidawan
kaidihan
kailabu
kaili
kainaian
kainayian
kainyay
kais
kaisa
kaitizaan
kaiyan
kaizaw
kaja
kaka
kakaan
kakaay
kakabi
kakabian
kakabitan
kakacawan
kakadabuwan
kakaenan
kakaenen
kakaenenan
kakalamkam
kakalaw
kakalayan
kakalimaan
kakaliman
kakaliwhan
kakalukan
kakama
kakana
kakanamuhan
kakanan
kakanen
kakangalayan
kakapah
kakapahan
kakapahay
kakapetan
kakaph
kakaselal
kakasenengan
kakasic
kakatalawan
kakatayzaan
kakatinengan
kakatukuh
kakatuud
kakatuuday
kakaudipan
kakausan
kakaw
kakawasan
kakawaw
kakawawan
kakawawen
kakawit
kakawsa
kakawsan
kakawsanay
kakawusan
kakay
kakayda
kakaydaan
kakaydih
kakaydihan
kakayzaan
kakedalan
kakelahan
kakelic
kakelidan
kakeliday
kakelitan
kakelul
kakenis
kakenisan
kaketi
kaki
kakibetul
kakicuh
kakicuhan
kakididaan
kakilacan
kakilian
kakilima
kakilimaan
kakiliman
kakilimn
kakilukilul
kakilul
kakilulan
kakinginan
kakinging
kakingingan
kakininan
kakining
kakiningan
kakitaan
kakitidaan
kakitidaanay
kakitidan
kakitil
kakititaan
kakitizaan
kaku
kakulian
kakulitan
kakuliyan
kakulut
kakunas
kakunasulitan
kakungkuan
kakuniza
kakunkuan
kakutay
kakuwanan
kal
kala
kalaabuabuwan
kalaacakan
kalaamisan
kalabadesan
kalabangbangan
kalabaw
kalabian
kalabiyan
kalacacay
kalacaledesan
kalacapian
kalacawaan
kalacingan
kaladamsayan
kaladebitay
kaladi
kalaepa
kalah
kalaheci
kalahecian
kalahida
kalahukan
kalahukn
kalaidaw
kalakalakan
kalakalawlaway
kalakuwitan
kalala
kalalacal
kalalacalan
kalalais
kalalaisan
kalalayan
kalalecad
kalalekalan
kalalid
kalalidan
kalalikeluhan
kalalikidan
kalalitemuhan
kalalitin
kalalitinan
kalalitinay
kalaliwasak
kalaliwasakan
kalaliyas
kalalucek
kalaludan
kalaluk
kalalum
kalaluman
kalaluran
kalam
kalamkam
kalamkamay
kalamkamen
kalamkan
kalang
kalankan
kalanutipan
kalapa
kalapangkiwan
kalapuya
kalas
kalasabitayan
kalasibekan
kalasumasumanahan
kalatan
kalatebanan
kalaten
kalatimulan
kalatubangan
kalaw
kalawalian
kalawkaw
kalawlaw
kalawlawan
kalawlaway
kalawpes
kalawpesan
kaleca
kalecabay
kalecabayan
kalecad
kalecadan
kalecaday
kalecadlecad
kalecaleca
kalecat
kalecuh
kalecuhan
kalekuan
kalepacaw
kalepacawan
kalesakan
kalevuan
kalibuan
kalibutan
kalibuwa
kalihalay
kalihanawan
kalikatan
kalikeluhan
kalikidan
kalikiday
kaliku
kalilid
kalilidan
kalimad
kalimadan
kalimucu
kalimucuan
kalimud
kalimulakan
kalinga
kalingatu
kalingatuan
kalingatuwan
kalingesan
kalingku
kalingkuay
kalinku
kalipahak
kalipahakan
kalipunan
kalisahan
kalisiu
kalisiw
kalisiwan
kalisiway
kalitang
kalitemuhan
kaliwaliwah
kaliwan
kaliwasak
kaliwasakan
kaliwhan
kaliwmahan
kaliyawan
kaliyuh
kaliyuhan
kaliyut
kallas
kalpacaw
kalpacawan
kalu
kaluacawaan
kalucek
kaludi
kaluk
kalukan
kalukawaw
kaluluan
kalulumenian
kaluluwan
kalumyiti
kalumyitiay
kalunasulitan
kalung
kalungangan
kalʉvʉnga
kam
kama
kamacal
kamaenepay
kamakamaan
kamaya
kamen
kami
kamihcaan
kamisa
kamisama
kamu
kamuan
kamuay
kamulaw
kamulmul
kamun
kamusa
kamuwan
kan
kana
kanaayan
kanaha
kanahantu
kanahatu
kanakanabu
kanakanavu
kanamuh
kanamuhan
kanan
kananaman
kanas
kanasaw
kanata
kanatal
kanatala
kanatalan
kanatalay
kanatl
kanca
kanen
kaneng
kang
kangaay
kangaayan
kangadahan
kangalayan
kangangayawan
kangbuli
kangelu
kangeluan
kanihalan
kanpuyaku
kansas
kansicu
kansu
kantal
kanum
kanuri
kanus
kao
kaohsiung
kapa
kapaceba
kapah
kapaha
kapahaw
kapahay
kapahayay
kapahen
kapahkapah
kapahtu
kapapina
kapatay
kapatayan
kapawan
kapawanan
kapeten
kapi
kapicidekan
kapu
kapud
kapulung
kapulunga
kapulungan
kapulunganay
kapulungay
kapulus
kapulusay
kaput
kaputan
kaputun
kara
karabakh
karamemedesane
karen
karin
karo
karu
kasa
kasaamisan
kasabinacadan
kasabinawlan
kasabuyu
kasacacay
kasadep
kasadit
kasaditan
kasaduma
kasadumaan
kasaetim
kasaetiman
kasahecian
kasahenulan
kasahenulay
kasahida
kasahini
kasaicelang
kasaidaw
kasakaput
kasaliyutan
kasalumaluma
kasalungan
kasametek
kasanga
kasaniyadu
kasaniyazu
kasaselal
kasasengian
kasasibutan
kasasiduma
kasasidumaan
kasasilacul
kasasiluma
kasasingangan
kasasizuma
kasasu
kasasuazih
kasasubana
kasasukapah
kasasula
kasasulul
kasasumamadan
kasatedep
kasatedepan
kasatezep
kasatiman
kasatimulan
kasatinman
kasaupu
kasaupuan
kasaupuay
kasaupuwan
kasausi
kasazuma
kasazumaan
kasazumaay
kase
kasedan
kaselep
kaselepan
kasenengan
kasenu
kasenun
kasenunsa
kasenusa
kasi
kasiacawa
kasibalu
kasibaluan
kasibalucu
kasibanuh
kasibekan
kasic
kasidamekan
kasidikuc
kasienaw
kasienawan
kasiheci
kasihecian
kasikadan
kasikawaw
kasikawawan
kasikaz
kasikazen
kasilacul
kasilaculan
kasilawadan
kasiliwan
kasinawan
kasingalih
kasingalihan
kasingangan
kasinganganan
kasiniyazu
kasiusiuwan
kasiwantan
kasiwawaan
kasiwsiwan
kasiwsiwwan
kassory
kasu
kasuga
kasulin
kasumad
kasumadan
kasumamada
kasumamadan
kasumamadanay
kasumamaday
kasumanah
kasumanahan
kasumanamanahan
kasuwan
kasuy
kata
katabaki
katabakian
katabakiay
katabalan
katadadan
katadadanay
katahekal
katahekalan
katahkal
katahkalan
katakelal
katalakaw
katalakawan
katalakaway
katalalan
katalan
katalanan
katalaw
katalawan
kataluma
katalumaan
katanaya
katanayu
katanektek
kataneng
katang
katangka
kataniktik
katanka
katatelek
katatelekan
katatengilan
katatudung
katatules
katatungus
katawaan
katawidan
kataydaan
katayni
kataynian
katayniyan
katayza
katayzaan
katelin
katenes
katenesan
katengil
katengilan
katepa
katepaan
kathmandu
kati
katimul
katimulan
katineng
katinenga
katinengan
katinengay
katinengen
katinengi
katini
katizaan
katri
katu
katuduh
katuduhan
katukah
katuku
katukuh
katukuhan
katuud
katuuday
katuudkatuud
katuudtu
katuut
kau
kaudad
kaudadan
kaudip
kaudipan
kaukak
kaus
kauzip
kauzipan
kavalugan
kavelan
kavulugan
kaw
kawa
kawaan
kawabata
kawadietuan
kawaitay
kawali
kawalian
kawalianay
kawanan
kawas
kawaw
kawawa
kawawan
kawaway
kaway
kawbu
kawcung
kawil
kawili
kawilian
kawiza
kawjiasu
kawlah
kawni
kawpil
kay
kaya
kayabes
kayadah
kayadahan
kayadahay
kayakay
kayakayan
kayan
kayda
kaydaan
kaydaay
kaydih
kaydihan
kaydung
kayi
kaying
kaykayda
kayku
kaynah
kaynahan
kayni
kaypulel
kaysin
kaysing
kaysiya
kayta
kaytini
kayu
kayway
kazakhstan
kazali
kazizeng
kb
kbaqeh
kdusan
ke
kean
kebalan
keci
kecu
kedal
kee
keesan
kei
keith
kek
kela
kelah
kelakela
kelal
kelan
kelas
kelawdi
kelecen
kelekela
keli
kelid
keliden
kelit
keliw
keliway
kelun
kemalan
ken
kenaw
kenekay
keng
keni
kenikenisan
kenis
kenisan
kenisay
kenny
kent
kentucky
kenutan
kenuy
kenya
kepayni
kerchak
kesem
kesiyciya
ket
ketay
ketenes
ketun
ketunen
kevelan
key
keypress
keys
keyzay
kg
khadga
khalifa
kham
khama
khan
khasawneh
khesar
khmer
khpan
khu
ki
kia
kiayawan
kibetul
kibetulay
kicay
kida
kidawawa
kidemu
kids
kidu
kihemid
kiir
kika
kikang
kikapahan
kikay
kikayay
kiku
kikul
kila
kilac
kilacan
kilakilang
kilakilanga
kilakilangan
kilakilanganay
kilakilangay
kilaluhu
kilan
kilang
kilanga
kilangan
kilangay
kilangkilang
kilangkilangan
kilay
kilaykin
kilayking
kilim
kilimanjaro
kilimen
kilisetu
kilmi
kilukan
kilul
kilulay
kilulen
kim
kiman
kimay
kimkiman
kimli
kimukimulu
kimulmul
kimulmulan
kimulmulay
kimulu
kin
kina
kinabakah
kinacacay
kinacacayay
kinakawaw
kinanoka
kinapatay
kinapina
kinapinaan
kinapinaay
kinatulu
kinatusa
kinayiman
kinbu
kincal
kines
king
kingcong
kingdom
kingkiw
kingma
kings
kini
kinian
kining
kiniyan
kinkiwan
kinli
kinmung
kinnauri
kinshasa
kinslanting
kinyawpan
kip
kiptul
kiska
kisu
kisut
kisuwanan
kiswahili
kita
kitaan
kitabakian
kitaki
kitakiay
kitakid
kitakiday
kitakit
kitakitan
kitakitay
kitasa
kitatu
kitatusa
kitidaan
kitidaanay
kitidan
kitizaan
kiu
kiw
kiwit
kiwkay
kiwkayay
kiwma
kiwmah
kiy
kiya
kiyadahan
kiyadahay
kiyaku
kiyakuan
kiyami
kiyandi
kiyu
kiyuay
kiyukiyuan
kiyukiyuwan
kiyuma
kiyumi
kiza
kizawng
kizemu
kizemuay
kk
kknews
klaus
klesan
kling
km
kmu
kn
knaziy
kngungu
knicks
knlibu
knotweed
know
known
ko
kobah
kocoum
koda
kodic
kok
kokhir
koku
kol
koli
kom
komi
konda
kong
konkani
kono
konrote
korea
korean
koro
kosovo
kota
kou
kow
koyo
kpelle
kriol
kris
krit
krivokapic
kru
krumen
ksunu
ktukuh
ktv
ku
kua
kuali
kuan
kuang
kuangfu
kuapin
kuay
kuba
kubabalaki
kubalucu
kubetul
kubili
kubinacadan
kubkub
kubu
kubung
kucaay
kucacay
kucu
kuculil
kucung
kucungay
kuczynski
kudemiad
kudih
kudrengere
kuduma
kueneng
kuengel
kuh
kuhak
kuhan
kuheci
kuhemay
kuheni
kuhenisa
kuhi
kuhini
kuhitay
kuhkuh
kuhni
kui
kuizaway
kuk
kuka
kukalisiu
kukamu
kukan
kukatuuday
kukawaw
kukay
kuki
kukit
kuku
kukuan
kukuk
kukulit
kukun
kukung
kukuy
kul
kula
kulala
kulan
kulang
kulangaw
kulas
kulayu
kulayuay
kuleyciyu
kuli
kuliay
kulid
kulikulitan
kulit
kulitan
kulitay
kuliwan
kuliya
kuljaljau
kulu
kulul
kululay
kuluma
kulus
kuma
kumad
kumaen
kumahiniay
kumata
kumay
kumceday
kumi
kumihcan
kumikuwanay
kumu
kumud
kumuh
kumulis
kumuo
kun
kuna
kunah
kunce
kuncendan
kunfun
kung
kungadavane
kungangan
kungce
kungcin
kunghe
kungku
kungkuan
kungkuay
kungkung
kungli
kungtun
kunhe
kunhekuo
kuni
kunian
kunida
kunidaay
kunidateng
kunika
kunikahida
kunikan
kunikasa
kunikasaan
kunikasi
kunikaudip
kunikauzip
kunipa
kunipazeng
kunipi
kunipisanga
kunisulitan
kunitanengan
kuniyan
kunizateng
kunku
kunli
kuntaw
kuntun
kunu
kunuan
kunuheni
kunyadu
kunyun
kunyung
kuo
kuomin
kuotun
kuowan
kupa
kupkup
kupu
kurdish
kurgyzstan
kurumba
kus
kusa
kusaan
kusananay
kusapi
kusausi
kuse
kuselal
kusi
kusiy
kusuday
kusuni
kusuy
kut
kutademaw
kutangah
kutaw
kutekiteki
kuti
kutiay
kutisa
kutji
kutkut
kutkutan
kutuki
kutumuk
kutusi
kutusisa
kuugongelwa
kuuzip
kuw
kuwa
kuwait
kuwaku
kuwalu
kuwan
kuwanan
kuwanay
kuwang
kuwansaedap
kuwawa
kuwawi
kuwk
kuwn
kuxan
kuy
kuya
kuyadahay
kuyda
kuydaan
kuyni
kuynian
kuyniyan
kuyu
kuyuheni
kuyumi
kuyza
kw
kwa
kwang
kwo
kwoay
ky
kya
kyaculen
kyahaw
kyai
kyalu
kyam
kyami
kyamihaw
kyamihawsa
kyaw
kyo
kyrgyzstan
kyriakos
kyu
kyukay
kyum
kyuni
kyusa
kzyay
kıbrıs
l
la
laa
laad
laaluwa
laan
laang
lab
labades
labang
label
labelhook
labelorid
labels
labi
labiay
labii
labiiay
labin
labiyi
labu
labuan
labuay
labunuluma
labuwan
labuway
lac
lacacay
lacalle
lacihakan
lacik
lacu
lacul
laculaculan
laculan
laculen
lacus
lacusay
ladaway
laday
ladayan
ladayen
ladem
laden
lae
laecus
laecusay
laed
laedis
laeno
laet
laetus
laetusay
lagerstroemia
lah
lahad
lahaday
lahaw
laheci
lahu
lahud
lahuday
lahuk
lahul
lai
laic
laidazuan
lain
lais
laiw
laiyi
lak
lakalak
lakalakan
lakat
lake
lakedaw
lakers
laki
laklak
lakon
laku
lakulakuan
lakulakuwan
lakuwyt
lala
lalaan
lalaay
lalaba
lalabaen
lalabinan
lalabu
lalabuay
lalacan
lalaculan
lalad
lalais
lalaisan
lalaliwan
lalami
lalan
lalangaw
lalangawan
lalangawanay
lalangawen
lalangwan
lalapa
lalauya
lalay
lalayan
lalebu
lalecuhan
lalekalan
lalengac
lalengawan
lali
lalicay
lalid
lalidec
lalikid
lalilucan
lalima
lalimaay
lalimekan
lalimenah
lalipayan
lalit
lalitemuh
lalitilitin
lalitin
laliu
laliw
laliwan
laliwasak
laliyas
lalo
lalu
lalubangan
lalud
laludan
laluday
laluk
lalum
laluma
lalumaan
lalumaang
lalumaay
lalusa
lalusidan
lalut
laluwaluwah
lam
lama
lamal
lamalay
lamangan
lameneng
lami
lamiales
lamian
lamid
lamihung
lamit
lamitan
lamu
lamuan
lan
lanay
lanciw
land
landaw
landaway
lang
langa
langad
langan
langas
langat
langaw
langawan
langaway
langbul
langcode
langdaw
langdawan
langdaway
langdawsa
langlangdawan
langobj
language
languages
langw
langwan
lanhe
lanhekuo
laniste
lanius
lanka
lanli
lanmun
lanngdun
lanpan
lantana
lanu
lanulanuan
lanyu
lao
laos
lapai
lapu
lapulase
lapuo
lapuolai
large
largest
las
laso
last
lasubu
lasubuan
lasubuay
lasubut
lasutan
lat
late
latem
later
latin
latlat
latlatay
latn
latus
latvia
latvian
lau
laudaw
laulauzan
laundry
laurentino
lavulan
law
lawa
lawad
lawal
lawat
laway
lawilaw
lawlaw
lawlawan
lawlawpes
lawp
lawpes
lawpesen
lawsi
lay
laya
layak
layakay
layapen
layic
layin
laying
laylay
laylayan
laylayay
laysa
layung
lazily
lb
lbl
lc
lccn
lccnparts
le
leading
leaf
leaves
lebanon
lebawa
lebawaw
lebung
lebungan
lecad
lecu
lecuh
lecuhan
lecuhen
ledek
ledekan
ledekay
lee
left
lei
lekad
lekakawa
lekakawaw
lekal
lekec
lekuay
lel
lele
lemed
lemu
len
leng
lengac
lengaw
length
lengua
lengus
leo
leon
leone
lesa
lesing
lesotho
leste
let
letak
letek
letsie
letter
leu
level
ley
leyka
leyoxen
lh
lhamte
lhs
li
lia
lian
liana
liaw
liay
liberia
library
libraryutil
libung
libya
licaes
lice
licing
liclic
licon
lidalid
lidateng
lidaw
lidung
lidunglidungan
lie
liechtenstein
liel
lien
liewan
life
lih
lihab
lihalaw
lihalay
lihalaya
lihalayay
lihanaw
lihat
lihud
lihum
lihun
lika
likad
likat
like
likec
likecu
likecuay
liked
likelikenan
likeluh
likelunay
liken
likenlikenan
likes
liki
likid
likisi
likisian
likisiay
likit
liklik
likucu
likut
likutay
lilac
lilal
lilang
lili
liliden
lilies
lilin
liling
liliopsida
lilis
lilisan
lilisay
lily
lim
lima
limaan
limaay
limad
limaden
limaki
liman
limay
limeceda
limecedam
limecedan
limek
limi
limini
limit
limucedan
limulak
limulakay
lin
linahem
linbu
line
linear
lineng
linengen
linenum
linesep
ling
linga
lingacay
lingad
lingatu
lingatuwan
linges
lingiha
lingiw
lingkak
lingsiya
link
linked
linkeditem
linkprefix
links
linpan
linpanti
lionel
lip
lipahak
lipahakay
lipay
lipayan
lipida
lipun
lipunan
lipunay
lis
lisan
lisav
lisbon
lise
lisin
lisinan
lising
list
listnum
listnums
lists
listtotext
listtype
lit
lita
litapangan
lite
literary
lithuania
lithuanian
litinan
little
litu
liu
liuliuen
liuliuwen
liutehua
liv
liw
liwaliwan
liwan
liwanen
liwasak
liwiy
liwkang
liwli
liwliw
liwliwan
liwliwanay
liwliway
liwliwen
liwmah
liwmahan
lix
liy
liya
liyad
liyal
liyang
liyas
liyaw
liye
liyen
liyung
liyungay
liyut
liyuten
ljubljana
lkuxan
ll
llyung
lng
lo
load
loaddata
loaded
loadi
local
locally
localpage
localval
located
location
log
logo
lohok
loma
london
long
lonicera
lonsdale
look
looks
loong
loop
lop
lopes
los
lotay
lou
louis
louisa
louise
lour
love
low
lowan
lower
lowland
lp
lpost
lpre
lripay
lt
ltn
lu
lua
luan
luanda
luay
lub
luba
lubang
lubas
lubu
lubuc
luc
lucek
luci
lucik
lude
lue
luhung
lui
luinaay
luis
luise
lukashenko
lukay
lukedaw
lukis
lukiyaw
lukonde
lukyaw
lul
lulu
luluna
lum
luma
lumaan
lumaay
lumaluma
lumalumaan
lumen
lumeni
lumenian
lumeniay
lumi
luminiay
lumuluma
lun
lunabay
lunem
lung
lungs
lungu
lungucen
luni
lunilun
luo
luode
luoke
luoma
luomio
lupakatj
lupas
lupasan
lupay
lupesoliai
lupo
lupus
luri
lusa
lusid
lutimay
lutinman
lutu
lutuk
lutukan
lutukay
lutuklutukan
lutulutukan
lutulutukay
lutungay
luvsannamsrain
luw
luwad
luxembourg
luy
luyaluy
luye
lv
lwan
lwax
lyaw
lye
lyen
lyo
m
ma
maa
maaalaw
maabibi
maacak
maacakay
maada
maadada
maadih
maadihay
maaedap
maahemaw
maala
maalaay
maalatu
maalaw
maales
maapa
maapaay
maatal
maawas
maay
maazih
maazihan
maazihay
maba
mabaad
mabaat
mabaatay
mababenis
mababiyaw
mabaca
mabadahung
mabadi
mabadiay
mabaha
mabahbah
mabahel
mabahelay
mabakah
mabaki
mabalad
mabaladay
mabalakas
mabalaki
mabalat
mabalatay
mabali
mabalic
mabaliyus
mabalucu
mabalud
mabana
mabanan
mabanaw
mabangbang
mabanic
mabanicay
mabasaw
mabasaway
mabatad
mabataday
mabatuan
mabawbaw
mabayu
mabecul
mabelec
mabelecay
mabelih
mabelihay
mabelin
mabeluh
mabesu
mabesucay
mabi
mabiay
mabidang
mabilbil
mabilil
mabitelak
mabiyalaw
mabuhang
mabuhat
mabulad
mabulah
mabulaw
mabulaway
mabulawtu
mabulilah
mabuliyas
mabunal
mabusuk
mabusukay
mabut
mabutelak
mabuwah
mabuwahay
mabuwak
mabuwakay
maca
macabi
macacabi
macacamul
macacapi
macacebis
macacelcel
macacelcelay
macacidek
macacubelisay
macacuis
macacukah
macaculi
macakad
macakat
macakatay
macakay
macalap
macaliw
macaliway
macamel
macamul
macapi
macapiay
macarthur
macau
macebal
macebalay
macebed
macebeday
macebis
macedonia
macedonian
maceku
macekuk
macelahay
macelem
macelemay
maci
macimacian
macitun
macky
macri
macrolanguage
macu
macucuk
macunus
mada
madaceb
madadapu
madadecdec
madademec
madademecay
madagascar
madakep
madakepay
madang
madapanay
madapesud
madateng
madatengay
madawdaw
madayum
madayumay
madbouly
made
madebay
madebun
madebung
madecdecay
madem
mademec
mademecay
madicem
madicemay
madih
madihi
madimel
madimelay
madiput
madiputay
maduba
maduhem
maduhemay
maduhen
maduka
madukaay
maduro
mae
maedap
maedem
maedeng
maedes
maedesay
maekek
maeluc
maemin
maenapay
maenep
mag
magazine
magnoliophyta
magnoliopsida
magyar
mah
mahaen
mahamadou
mahamat
mahamaw
mahamin
mahaminay
mahapinang
mahapingan
mahavun
mahaymaw
mahaymaway
mahcaan
mahcacay
maheda
mahedaw
mahedaway
mahedek
mahelek
mahemek
mahemin
mahepec
mahetik
mahetikay
mahezek
mahi
mahica
mahicaay
mahicahica
mahicahicaay
mahicatu
mahicay
mahida
mahidaay
mahidahen
mahidahida
mahidasa
mahidatu
mahinaay
mahinda
mahini
mahinian
mahiniay
mahinisa
mahiniyay
mahitakassabak
mahiya
mahiza
mahizaay
mahizahiza
mahizatu
mahka
mahmin
mahmintu
mahmoud
mahmuwac
mahtatusa
mahtatusaay
mahtik
mahtusaay
mahulak
mahuyahuy
mai
maia
maibagah
maibuk
maibukay
maibul
maidang
maidih
maidu
maikes
maikesay
main
mainal
maincat
mainpage
mainsnak
maint
maintan
maizang
majia
majoro
mak
maka
makaadih
makaadihay
makaala
makaalatu
makaamis
makaamisay
makaawas
makaazih
makaazihay
makabalunga
makacuwacuwaay
makadateng
makademec
makademecay
makadih
makadihay
makadungdung
makadungdungay
makaen
makai
makakenis
makaketun
makakilim
makakilul
makakitin
makakutay
makala
makalad
makalah
makalat
makalatay
makalitemuh
makaluma
makamelaw
makan
makapah
makapahay
makasanek
makasasa
makasasaay
makasic
makasicay
makasimsim
makatalay
makataw
makatengil
makatepa
makatimul
makatimulay
makatineng
makatuduh
makatukuh
makay
makayda
makaydaay
makayi
makayni
makayniay
makayniyay
makayza
makayzaay
makazateng
makazayazaya
makazih
make
makecategorylink
makedal
makeinvokefunc
makela
makelah
makelal
makelap
makelec
makeordinal
makepay
makes
makesem
maketitle
maketoolbar
maketun
makeurllink
makewikilink
makewikitexterror
makewrapper
makhuwa
makimulmul
makimulmulay
makosso
makotaay
maku
makuay
makudus
makudusay
makulahay
makulebut
makumud
makutaay
makutkut
makuwan
mal
mala
malaacawa
malaacawaay
malaalaw
malaalitin
malaayaw
malabades
malabadesay
malabali
malabang
malabas
malabelaw
malabi
malabut
malabuway
malacabay
malacacay
malacacayay
malacad
malacawa
malacing
malacung
maladaw
maladay
malagasy
malagiki
malahad
malahat
malahatay
malahci
malaheci
malaheciay
malahitay
malahitayay
malahuk
malahulay
malakal
malakalak
malakanatal
malakapah
malakapahay
malakui
malakuit
malakuli
malakuud
malakuwid
malakuwit
malalaba
malalabalaba
malalacal
malalacay
malalais
malalala
malalamel
malalamlam
malalaw
malalebu
malalemed
malalemeday
malalid
malaliday
malalikeluh
malalikid
malalikit
malalit
malalitemuh
malalitin
malalitinay
malaliting
malaliw
malaliwaliwah
malaliwasa
malaliwasak
malaliya
malaliyas
malaliyasay
malaliyun
malaloong
malaluk
malalum
malalumay
malalutin
malamel
malamelay
malamikeliday
malamukeliday
malan
malanam
malang
malanu
malasacabayay
malasakabesu
malasakakaay
malasakubaday
malasapaiyu
malasatalakaway
malasawad
malasayaway
malasepat
malasulit
malatademaw
malatapang
malataw
malatay
malatu
malatulu
malatumuk
malatuna
malatusa
malau
malavi
malawa
malawacu
malawi
malawilaw
malawit
malawlaay
malawlaw
malawpes
malawpesay
malawpese
malay
malayo
malaysia
malaysiya
malbawa
malbiyaw
malbud
malcabay
malcabayay
malcad
malcaday
malcadcad
malcapu
maldives
male
maleacawa
maleacawaay
malebat
malebawa
malebawaay
malebawaw
malebekay
malebtu
malebu
malebud
malebut
malebutay
maleca
malecabay
malecad
malecaday
malecalecad
malecat
malecay
maledeb
malekaka
malekakaay
malekep
maleku
malemed
malemeday
malengatay
malepa
malepacaw
malepi
malepun
malesusu
mali
malialac
malian
malibung
malibut
malielegaoi
malik
malikaku
malikat
malikatay
malikeluh
malikid
malikiday
malikit
malikuda
malilid
malilinay
malilit
malimad
malimaday
malimat
malimatay
malimula
malimulak
malineng
malinengay
malinga
malingad
malingaday
malingatu
malingatuay
malinges
malingtu
malingusut
malipahak
malitemuh
malitemuhay
malitin
maliumah
maliwaliwah
maliwang
maliwasak
maliwliw
maliya
maliyas
maliyuh
maliyuhay
maliyut
malkakaay
malkaputay
malpacaw
malpacaway
malpadang
malta
malu
maluacawa
maluay
maluayaw
malubic
malubicay
malubuay
malucabay
malucek
malucekay
maluk
malukakaenen
malukakanan
malukay
malulangat
malulud
malumaluy
malumanay
malunem
malungayangay
malupisak
malusulit
maluyaluy
maluyuh
maluyuhay
malyasia
mam
mama
mamaala
mamabalakas
mamadan
mamahavunna
mamalawpes
mamalian
mamalukay
mamapatay
mamelaw
mamelawan
mamelmel
mamenu
mamenuay
mami
mamiading
mamibahbah
mamidang
mamiedap
mamiedapay
mamikakelidan
mamikeliday
mamikingkiway
mamikuwan
mamikuwanay
mamilmil
mamim
mamimaliay
mamin
maminanamay
maminay
mamingayaw
mamintu
mamipadang
mamisimaw
mamisiwbayay
mamitenaay
mamitukuday
mammalia
mamucuy
mamucuya
mamuemu
mamukeliday
mamulmul
mamulmulay
mamuni
man
mana
manaenel
manah
manahung
manamec
manamecay
manamu
manamuh
manamuhay
manana
mananam
mananamay
mananel
mananukas
mananunud
manasseh
manay
manayat
manda
mandaic
mandinka
manengil
mang
manga
mangaay
mangaayay
mangacun
mangadis
mangadu
mangaduay
mangaduway
mangalay
mangalayay
mangaleb
mangalep
mangan
mangangayaw
mangangul
mangasiw
mangay
mangayaw
mangcelan
mangeli
mangelu
mangeluay
mangga
manggaay
manglay
manila
maninel
maninelay
maninkakan
manipuri
maniyul
manno
manobo
mansur
mantaay
manuel
manumhan
manuneng
manunengay
many
maolin
maori
map
mapa
mapaadih
mapaading
mapaales
mapaaw
mapabacu
mapabali
mapabaliw
mapabaluhay
mapabeli
mapacakay
mapacekil
mapacici
mapacilal
mapacilalay
mapacilu
mapacuk
mapadaki
mapadang
mapaedil
mapahabay
mapahezek
mapakutay
mapalalid
mapalalit
mapalasul
mapalatit
mapalaw
mapalaway
mapalekal
mapalid
mapalilit
mapananum
mapangangan
mapanganganay
mapanukas
mapanutek
mapapaliw
mapaseneng
mapasenget
mapaseta
mapasilac
mapasumad
mapatahekal
mapatay
mapataya
mapatayay
mapatideng
mapatizeng
mapauzip
mapawacay
mapawan
mapawpaw
mapazazan
mapazeng
mapeci
mapela
mapelad
mapelpel
mapelu
mapenec
mapikihay
mapili
mapilpil
mapipiay
mapiyas
mappings
mapudac
mapulang
mapulin
mapulu
mapulul
mapulun
mapulung
mapulungay
mapulungnay
mapusiay
maputun
mapuut
mapuwah
mar
marape
mararo
marc
marcelo
march
marcus
margin
margrethe
marguments
mari
maria
maribasi
marie
marin
marino
mario
mark
markup
marorok
marrero
marti
martin
marwari
maryland
masa
masaacakay
masaadidi
masaadidiay
masaadidingay
masaadipingay
masaapuyuay
masaatiladay
masabaluhay
masabaluhayay
masabana
masabelengay
masabucuyay
masabuyu
masabuyuay
masacabaay
masacabay
masacabayay
masacacay
masacacayay
masacilisay
masacuyacuyay
masadak
masadep
masadi
masadicem
masadicemay
masadicenmay
masadid
masadit
masaditay
masaduma
masadumaay
masaenal
masaenalay
masaheci
masaheciay
masahelungay
masahicaay
masahungtiay
masakakuay
masakalutay
masakamu
masakamuway
masakanatal
masakapah
masakapahay
masakaput
masakaputay
masakeliway
masakiketay
masakimay
masakimulmul
masakimulu
masakimuluay
masakinmay
masakunida
masalamitay
masalaway
masalebungay
masaliyutay
masaluimeng
masamaliay
masamata
masametek
masamsam
masamucuy
masamulmul
masamulmulay
masanek
masanga
masangaay
masaniyadu
masanu
masapucu
masasa
masasakamu
masasalaay
masasalama
masaselal
masasengi
masasengiay
masasetset
masasiduma
masasidumaay
masasiket
masasiketay
masasiteked
masasizuma
masasizumaay
masasu
masasuada
masasuadih
masasuala
masasuayaw
masasuazih
masasubelih
masasukamu
masasukapah
masasukaydih
masasukaynah
masasukazih
masasula
masasulit
masasulul
masasumidangay
masasunamuh
masasunga
masasungaay
masasungayaw
masasutineng
masasuwal
masatademaw
masatademaway
masatalakaway
masatanayaay
masatanayu
masatangah
masatangahay
masatatutuan
masatay
masatedep
masatekeday
masatezep
masati
masatikuk
masatukusay
masatulu
masatuluay
masatusa
masatusaay
masatututuay
masaupu
masaupuay
masaupuway
masausi
masausiay
masawacu
masawahelulay
masawantan
masay
masazuma
masazumaay
mase
masebek
masela
maselep
maseli
masemel
masemetay
masenat
maseneng
masengetay
masetul
mashan
masibek
masikad
masikasik
masikaz
masiked
masikeda
masikul
masilac
masilsil
masilud
masimaw
masinang
masinanut
masinawal
masinga
masinghalan
masisi
masisin
masitoban
masitudung
masitungus
masiul
masiyul
mass
massachusetts
masu
masubaat
masubeliday
masuhuaz
masukazih
masuku
masukut
masuldaay
masulit
masulitay
masulul
masumad
masumaday
masumat
masungaay
masuni
masuniay
masupeday
masupet
masuwab
mat
mata
mataan
mataay
matabal
matabalay
matabesiw
matabu
matadim
matahepu
matahpu
matalaw
matalaway
matalul
matalulay
matan
mataneng
matanki
matapal
matastas
matatawa
matatelek
matatengil
matatud
matatudung
matatudungay
matatules
matatungduh
matatungduhay
matatungus
matatungusay
matatusa
matawa
matawid
match
matches
matching
matekes
matekesay
matel
matena
matenes
matenesay
matenesmatenes
matengil
matengilay
matepa
material
matesekay
math
mati
matin
matinen
matineneg
matineng
matinengay
matinengtu
matingen
matiniay
matiti
matiya
matiyung
mato
matt
mattarella
matu
matuduh
matuduhay
matulak
matulin
matuling
matumes
matumesay
matungusay
matusul
mau
maudad
maudaday
maudip
maudipay
maui
mauli
mauning
mauningay
maupu
mauri
maurice
mauritania
mauritius
mauritus
mausaw
mautang
mauzip
mauzipay
mavericks
maw
mawada
mawawada
mawli
mawluy
max
maxarg
maxdiff
maxvals
may
maya
mayan
mayardit
mayasvi
mayaw
maybalay
maycaliway
maycelun
maycuduh
maycumud
mayda
maydah
maydi
maydih
maydihay
mayhuman
mayi
mayke
mayl
maylabu
maylabuay
maylay
maylayap
maylayay
maylubung
maynah
mayngayaw
mayo
maypulu
maysakamu
maysang
maysausi
maysulul
maysumad
maytayax
mayza
mazakep
mazatec
mazateng
mazatengay
mazeket
mazih
mazu
mazuhemay
mba
mbasogo
mbe
mbo
mbox
md
mdy
me
mea
means
media
mediawiki
medical
medicine
mediterranean
meduk
meeting
mei
meiguo
mel
melanau
melaw
melitmelit
mem
member
memoized
men
menah
menay
mende
meng
menmen
menu
mepuwal
mer
merge
message
messages
meta
metaargs
metaargskey
metadata
metalaw
metapay
metatable
mette
metuiy
mexico
mey
mg
mhatnote
mi
mia
miaam
miaamay
miabibi
miacak
miacingay
miadeci
miadih
miadihay
miading
miadingay
miadup
miadupay
miala
mialaay
mialatu
mialaw
miales
mialesay
mian
miani
miao
miaoli
miasik
miasip
miasipay
miatal
miaw
miawas
miawaw
miawli
miawza
miay
miazih
miazihay
mibabayuh
mibabelih
mibaca
mibacaay
mibadahung
mibahbah
mibahel
mibakah
mibalah
mibalakas
mibalakasay
mibalat
mibalatay
mibalic
mibanaw
mibangbang
mibasaw
mibasbas
mibatad
mibatung
mibaung
mibelaw
mibelih
mibelihay
mibelin
mibetik
mibetikay
mibihekac
mibuhat
mibulaw
mibulesak
mibulibul
mibulibulay
mibuting
mibutingay
mibuwah
micabi
micaculi
micakat
micakay
micakayay
micalap
micaliw
micaliway
micaliwayay
micamul
micangcang
micapi
micapiay
micapitu
micapiya
micapiyay
micebis
micebisay
micedem
micekaw
micekiw
micekiway
micekul
micelem
micengel
micepcep
michael
michea
michel
michigan
micidakay
micidek
micidekay
micikcik
micili
micista
micitek
miciyang
microchiroptera
micronesia
micu
micuay
micucu
micucuay
micucuk
micuda
micudad
micudadan
micudaday
micuduh
micukaymas
micukelay
miculcul
miculek
miculimek
miculu
miculuay
micumu
micumud
micumuday
micumut
micumutay
micunuday
micunus
micunutay
micuzuh
micuzuhay
mid
mida
midademec
midaduy
midakep
midama
midang
midangan
midangay
midanguy
midapu
midateng
midayhiw
midayliay
middle
midebun
midebung
midebungay
midemec
midepit
mididaw
midiku
midimut
midiput
midiputay
miditudan
miduduc
miduducay
midungdung
midungus
mie
miecaw
miedap
miedapay
mienip
migani
migankiw
migankiway
might
migingkiw
migingkiway
miguel
mihacaan
mihaka
mihalhal
mihalhalay
mihaming
mihang
mihanhan
mihantay
mihantaya
mihantayay
mihanu
mihapu
mihaymaw
mihca
mihcaan
mihcaanay
mihcaay
mihcan
miheca
mihecaan
mihecahecaan
mihecan
mihepec
mihibang
mihica
mihicahica
mihida
mihilhil
mihinang
mihinangay
mihini
mihinum
mihinumay
mihmihcaan
mihmihcan
mihulak
mihulakay
miida
miidang
miidangay
miigiay
miilisin
miinuli
mika
mikabitay
mikacaw
mikacaway
mikadabu
mikalang
mikalat
mikalatay
mikalic
mikapah
mikapet
mikaput
mikasuy
mikawaw
mikawaway
mikayakay
mikaygi
mikayki
mikaykung
mikaylangcilu
mike
mikelap
mikelec
mikelid
mikeliday
mikelih
mikelit
mikelitay
mikemkem
miketun
mikhail
miki
mikiayaw
mikihatiya
mikikaka
mikikung
mikilac
mikilam
mikilangay
mikilihida
mikilim
mikilimay
mikilin
mikiling
mikilu
mikilul
mikilulay
mikinaul
mikinaulay
mikingkiw
mikingkiway
mikingsa
mikining
mikinkiuway
mikinkiw
mikinkiway
mikinsa
mikisa
mikisasa
mikiskis
mikitinay
mikiwakiw
mikiyadah
mikiyaku
mikoku
miku
mikuanay
mikucungay
mikukay
mikuli
mikuliay
mikulid
mikuliniw
mikulisa
mikulit
mikulitan
mikulitay
mikuning
mikutay
mikutayay
mikutkut
mikuwan
mikuwanan
mikuwanay
mil
mila
milabin
milabu
milacul
miladay
miladlad
milaedis
milais
milakalak
milakalakay
milakec
milakui
milakuit
milakuitay
milakuud
milakuuyd
milakuwit
milalaba
milalad
milaladay
milalamel
milalebu
milaliday
milalitay
milalitin
milaliw
milaliway
milami
milan
milangec
milapac
milasul
milasur
milatlat
milatlatay
milatuh
milaup
milawlaw
milawpes
milayap
milecad
milecaday
milepacaw
miletek
milhida
mili
milibaki
milicay
miliclic
miliclicay
milihayay
milihida
milihidaay
milihiza
milihizaay
milikat
milikeluh
miliken
mililid
mililiday
mililis
mililisay
mililit
mililitay
mililuc
mililucay
milimad
milimek
milimekay
milinen
milingatu
milingatuay
milingtu
milisapen
milisimet
milisin
militangah
militemuh
militin
militing
miliwan
miliwku
miliwliw
miliyas
miliyasay
miliyaw
miliyun
millet
million
milos
milpacaw
milu
milubang
milucek
milunguc
milusimet
milwaukee
mim
mimali
mimaliay
mimelaw
mimelaway
mimingay
min
mina
minalu
minaluan
minaman
minami
minanam
minanaman
minanamay
minanum
minatu
mincu
mindiff
minengneng
minerva
ming
mingaay
mingaduy
mingayaw
mingayaway
mingudu
mini
minister
miniwaniw
minkay
minkoku
minnis
minpaw
minse
mintuyu
minukay
minus
minute
mipabacu
mipacin
mipacuk
mipaculi
mipadaesu
mipadan
mipadang
mipadangay
mipaiyu
mipalaw
mipalaway
mipalita
mipaluma
mipana
mipangangan
mipasubana
mipatadas
mipatay
mipataya
mipatayay
mipatizeng
mipazen
mipazeng
mipeci
mipecu
mipela
mipelu
mipenec
mipes
mipili
mipudac
mipuhpuh
mipulu
mipuluh
mipulung
mipupu
mipuput
mipuputay
miputun
mipuud
mipuut
miq
mirror
mirziyoyev
mis
misa
misaaam
misaahebal
misaayaw
misabadidiw
misabalucu
misabaluhay
misabana
misabilil
misaculiculil
misadabek
misadakadakay
misadawmi
misademiaday
misadibu
misadimel
misadipit
misaelaw
misagiki
misagikiay
misaheci
misahemay
misahicahica
misaicelang
misait
misakabi
misakakawaw
misakakawaway
misakakaway
misakaku
misakakuay
misakaliyuh
misakamu
misakamuay
misakapa
misakapah
misakapahay
misakaput
misakaputay
misakawaw
misakawaway
misaketun
misalama
misalamaay
misalami
misalihalay
misalil
misalisin
misalisinay
misaliyut
misalukiyaw
misaluma
misalunguc
misamamaw
misamawmaw
misametek
misamsam
misanai
misanek
misang
misanga
misangaan
misangaay
misangan
misangasip
misangay
misanu
misanyadu
misapaluhay
misapayu
misapinang
misapud
misasa
misasaw
misaselal
misaselic
misasengi
misasengiay
misasetulay
misasing
misasingay
misatabaki
misatadasay
misatalay
misatapang
misateked
misatekeday
misateket
misaudad
misaulic
misaumah
misaungay
misaupu
misausi
misawacu
misawacuay
misawad
misawanengay
misawantan
misayadah
misaybang
misaydan
misaydang
misayuancumincuay
misebangay
misebeng
misebengay
misebingay
miseking
misela
miselalay
miselep
misengel
misengi
misengiay
misetset
mishmi
mishustin
misi
misikul
misilsil
misilsilay
misilud
misimaw
misimaway
misimpi
misinanud
misinanut
mising
misinga
misingkiw
misingkiway
misinkiw
misinsi
misiteked
misitekeday
misiwatid
misiwbay
misiwbaya
misiwbayay
misiwkay
misiwsiw
missing
mistesekay
misu
misuayaw
misuayaway
misudikud
misulac
misuli
misulid
misulimet
misulit
misulitan
misulitay
misulul
misulup
misulut
misumad
misumat
misuninipay
misuped
misupeday
misupet
misupit
mit
mita
mitaan
mitaba
mitabaku
mitabi
mitabu
mitadas
mitaduay
mitahaw
mitahaway
mitakus
mitaliyuk
mitanam
mitaneng
mitanengay
mitapal
mitatengil
mitaung
miteka
mitekel
mitelungay
mitena
mitengil
mitengilay
mitenun
mitenunay
mitepal
mitesakay
mitesek
mitesekay
mitima
mitiway
mitiyung
mitizibangay
mitsotakis
mitu
mitudawa
mitudu
mituduay
mituduh
mitudung
mitudungay
mituk
mituktuk
mituktukay
mitukuday
mitules
mitulin
mitulun
mitupin
mitutuy
mitway
miubi
miubiay
miucul
miulic
miulicay
miundu
miunduay
miuyamali
miw
miwada
miwananay
miwatawat
miwawies
miwok
mixe
mixed
mixtec
mixtepec
miy
miyadih
miyala
miyamay
miyazih
miyukiw
miyung
mizakep
mizateng
mizatengay
mizawis
mizikec
mizizaw
mizizaway
mizuhu
mk
mklapay
mkmatuy
mknahuy
mkslaq
mksuzing
mkzihing
ml
mlt
mm
mn
mnangagwa
mnong
mo
moana
moby
mod
model
modern
modi
module
modules
moe
moeketsi
moh
mohamed
mohammed
moi
mokgweetsi
mola
moldova
mollis
molo
mon
monaco
monako
monating
mong
mongolia
mongolian
mono
monolingualtext
montenegro
month
months
moon
mor
morales
more
moreargumentsexist
mornos
morocan
moroccan
morocco
morotai
morrison
morus
moscow
moses
moshoeshoe
most
mostafa
mottley
mountain
move
mozambique
mp
mpu
mr
mrmurak
ms
msg
mshared
mswati
mt
mtabletools
mu
muabibi
muala
muan
muangic
muasip
muawaw
muazih
mubahel
mubahelay
mubahuy
mubangad
mubelih
mubelihay
mubelin
mucebal
mucebalay
mucebang
mucelak
mucelakay
mucelem
much
mucikcikay
mucuduh
muculal
muculalay
muculcul
muculi
muculil
muculilay
muculu
mucuy
mudadiw
mudadiway
mudakep
mudan
mudateng
mudebu
mudebung
mudeku
mudikec
mudimut
mudiput
mududuc
mue
muenen
muenenay
mueneng
muenenga
muenengan
muenengay
muenengtu
muengen
muengeneng
muetem
mugabe
mugi
mugunghwa
muh
muhalhal
muhalhalay
muhammad
muhammadu
muhan
muhanhan
muhanmude
muhmuh
muhyiddin
muisi
muji
muka
mukacaw
mukaen
mukan
mukanay
mukasi
mukasiay
mukawaw
mukawaway
mukayakay
mukelid
mukeliday
mukelit
muketun
mukilim
mukilul
mukin
mukinay
muking
mukingay
mukingnay
mukumaw
mukunuy
mul
mula
mulaay
muladay
mulakuwit
mulalaba
mulalad
mulaladay
mulalat
mulalatay
mulalaw
mulalemed
mulaliu
mulaliw
mulaliway
mulangaw
mulangaway
mulatlat
mulawlaw
mulcekay
mulebut
mulebutay
mulecuh
mulecuhay
mulekal
muleku
mulenek
mulengaw
mulenu
muli
mulikat
mulimuut
mulisaka
muliwliw
muliya
muliyas
muliyaw
muliyut
mulmul
mulmulan
multiple
mulu
mulutlut
mulutuc
mulutucay
mum
mumtefaeteluo
mumul
mumunt
mun
munabaw
munabaway
munday
muneng
munengay
mung
mungangaw
mungangaway
muni
munten
muo
muosin
mupalaw
mupalaway
mupatay
mupuakiyaway
mupuhpuh
mupulul
mupupu
muria
murisaka
murraya
murut
musa
musabili
musabiliay
musahemay
musakakawaw
musakakawaway
musakamu
musakamuay
musakamuway
musakapah
musakawaw
musakawaway
musalami
musalisinay
musaliyut
musaluimeng
musalukiyaw
musalukiyaway
musalukyaw
musapayu
musasakamuan
musaungay
musaungayay
musaupu
musausi
muscat
muse
muselin
musepi
museum
museveni
music
musikul
musikulay
musilac
musilsil
musiluyay
musiwsiw
muslim
must
mustafa
musuayaw
musumad
muta
mutadem
mutahkal
mutakus
mutan
mutayda
mute
mutelekay
mutengteng
mutesek
mutesekay
mutharika
mutideng
mutiku
mutimadaw
mutiyung
mutizeng
mutudu
mutung
mutupin
mutuwa
muulic
muungal
muwa
muwala
muwalaay
muwangic
muwangicay
muwawa
muyu
muzikec
mw
mww
my
myanmar
myawan
mye
myrcella
myrtales
n
na
naamahiza
naan
naay
naayaw
naayawan
naayaway
naba
nababalaki
nababalakian
nabakuan
nabakuwan
nabalucu
nabalucuan
nabi
nabiam
naca
nacaay
nacacay
nacila
nacilaay
nacudadan
naculilan
nacun
nadateng
nadatengan
nadatungan
nademiadan
nadikuda
nadikudan
nadim
nadipa
nadipaan
naenengan
naftali
naga
nagngan
nago
nagorno
nahuatl
nahyan
nai
naiay
naida
naidaw
naihunpu
naila
naiti
naitini
naizaw
naka
nakaay
nakahara
nakahila
nakai
nakamu
nakamuamin
nakamuan
nakamuwan
nakanan
nakaw
nakawawan
naku
nakulitan
nakungkuan
nakungkuwan
nalaculan
nalalacan
nalalacanan
nalaylayan
nalecu
nalecuh
nalecuhan
nalemangaw
nalimaan
nalimaanay
naliman
nalinabuan
nalinabuwan
naliwanan
nalu
naluma
nalumaan
nalunasulitan
naluto
naluwan
nam
nama
namaabibi
namaala
namabulaw
namadademec
namademec
namahica
namahicaay
namahida
namahini
namahiza
namaka
namakaamis
namakaamisay
namakabayu
namakacuwaay
namakadih
namakai
namakay
namakayca
namakaycuwa
namakayda
namakaydaay
namakayiniay
namakayni
namakayniay
namakayniyan
namakayniyay
namakayza
namakayzaay
namala
namalahuk
namalalais
namamin
namangangayaw
namapatay
namapili
namasia
namauzip
name
named
namekan
namelia
names
namespace
namespaces
namespacesns
nameylos
namgyel
nami
namiacawa
namibia
namibutingay
namicudad
namihcaan
namihuduc
namikelih
namilawat
namim
namimali
namin
naming
namisan
namisanga
namisulit
namizateng
namu
namudadiw
namueneng
namuh
namuhan
namukan
namulecuh
namupatay
namusakamu
nan
nana
nanam
nanaman
nananaman
nananuman
nananumen
nanaum
nanay
nang
nangan
nangiha
nangipenan
nangla
nangnisalu
nani
naniyadu
nanmei
nanto
nantou
nanu
nanuadidi
nanuayaw
nanum
nanuman
nanumay
nanumen
nanutawya
nanzhuang
nao
napaaninen
napahezek
napaluma
napangangan
napatideng
napatizeng
napialai
napuli
napulun
nar
nara
narendra
narowan
nasa
nasakamuan
nasakamuwan
nasanga
nasani
nasaungay
nasepiyan
nasi
nasipakay
nasulitan
natahkal
natalzan
natangahan
natawlan
natawran
natayda
natayni
natayniay
natayza
nate
natimulan
natinengan
national
nationals
native
natu
natural
naturalized
nau
naudipan
naumahan
nauru
nauyaan
nauyzaanay
navbar
navbox
naw
nawan
nawhan
nay
naya
nayaan
nayay
naybalucu
nayi
nayiay
nayinayi
nayinayiay
naynayi
naytida
nazatengan
nazikuz
nazikuzan
nazipa
nazipaan
nba
nchez
nd
nda
ndataset
ndayishimiye
nde
ndebele
ndez
nds
ne
nebneban
necessary
nederland
need
needed
needs
negative
neiya
nelay
nemnem
nen
neng
nengil
nengneng
nengnengen
neo
nep
nepal
nepali
net
netherlands
never
new
newari
newline
news
next
ney
ng
nga
ngaay
ngabul
ngaduy
ngala
ngalay
ngaleb
ngalngal
ngaluh
ngan
nganga
ngangaan
ngangan
nganganan
nganganay
ngangasawan
ngangaw
ngangay
ngangayaw
ngangayawan
ngangihaw
ngani
ngapan
ngasa
ngasaw
ngatu
ngaw
ngawa
ngawaan
ngay
ngayangay
ngayaw
ngayawan
ngayngay
ngazuy
ngbaka
ngel
ngelab
ngeli
ngelu
ngiha
ngipen
ngipenan
ngirente
ngisngis
ngngan
ngo
nguema
nguesso
ngurus
ngutu
ni
nia
niacakan
niadupan
niae
nialaan
nian
niao
niatalan
niay
niazihan
nibahelan
nibakahan
nibaki
nibutingan
nibutung
nicaliwayan
nicaragua
nicence
nicobarese
nicola
nicudadan
niculilan
nicunusan
nida
nidaan
nidadiwan
nidang
nidasa
nidateng
nidatengan
nidebungan
nidimutan
nieneng
niger
nigeria
nigerian
night
niheni
niinisto
nika
nikaadih
nikaadihan
nikaahebal
nikaahebalan
nikaala
nikaalaan
nikaba
nikabalaki
nikabancal
nikabi
nikacaay
nikacakat
nikacakatan
nikacaliwayan
nikacamulan
nikacaw
nikacelakan
nikadademec
nikademec
nikademecan
nikadihan
nikaenan
nikahetik
nikahetikan
nikahida
nikahidaan
nikahini
nikahinian
nikaidaw
nikaidawan
nikakapah
nikakutay
nikakutaykutay
nikal
nikala
nikalaan
nikalabi
nikalaheci
nikalahecian
nikalakalak
nikalalacal
nikalalacalan
nikalalais
nikalalaisan
nikalalekal
nikalalekalan
nikalalikeluhan
nikalalitinan
nikalaliwasak
nikalaliwasakan
nikalalubangan
nikalatan
nikalawilawan
nikalawpes
nikalawpesan
nikalcabay
nikalcabayan
nikalecabayan
nikalecadan
nikalekalan
nikalepacawan
nikalilid
nikalingat
nikalingatu
nikalingatuan
nikaliwmahan
nikalpacaw
nikalpacawan
nikaluk
nikalukan
nikan
nikanan
nikangangayaw
nikangelu
nikaniyul
nikapacaw
nikapalaw
nikapatay
nikapatayan
nikapatelac
nikapulung
nikapulungan
nikaputunan
nikasa
nikasaan
nikasacabay
nikasadit
nikasaditan
nikasakuwakuwan
nikasasiduma
nikasasuakuti
nikasasulitan
nikasasumad
nikasaupuan
nikaseneng
nikasi
nikasibalu
nikasidikuc
nikasiheci
nikasilac
nikasilacul
nikasilaculan
nikasilsilan
nikasingangan
nikasumad
nikasumadan
nikatabaki
nikatabakian
nikatahkal
nikatahkalan
nikatalakaw
nikatalakawan
nikataluma
nikatanaya
nikatanayu
nikatatungduhay
nikataydaan
nikatayni
nikataynian
nikatenes
nikatenesan
nikatineng
nikatinengan
nikatuduh
nikatukuh
nikatuudan
nikaudad
nikaudadan
nikaudip
nikaudipan
nikauip
nikauzip
nikauzipan
nikauzup
nikawawan
nikayadah
nikayadahan
nikaydaan
nikaydih
nikaydihan
nikayki
nikaykian
nikaymaw
nikayzuan
niked
niki
nikilukan
nikingkiwan
nikinkiwan
nikitidaan
nikol
niku
nikuda
nikudan
nikudanay
nikulitan
nikulitay
nikuwan
nikuwanan
nil
nila
nilacul
nilaculan
niladayan
nilangaw
nilangawan
nilangecan
nilargs
nile
nilecu
nilecuh
nilecuhan
nils
nima
nimanima
nimuyaw
nin
nina
ninaman
ninanaman
ninaniyadu
ninel
ning
ningasip
ninja
ninka
ninticu
nio
nipa
nipaadih
nipaayaw
nipabalucu
nipabalucuan
nipabaluhay
nipabeli
nipabelian
nipabinawlan
nipacakay
nipacakayan
nipacikahan
nipacudad
nipadadan
nipadeng
nipahabay
nipahabayan
nipahezek
nipahulic
nipaini
nipakalisiwan
nipalada
nipalamal
nipalekal
nipalekalan
nipaluma
nipalumaan
nipaluman
nipanganga
nipangangan
nipanganganan
nipangiha
nipanutek
nipanutekan
nipasepi
nipasilac
nipasilsil
nipasilsilan
nipasubana
nipasulit
nipatadas
nipatahekal
nipatahka
nipatahkal
nipatahkalan
nipatata
nipatayan
nipataydaan
nipatayni
nipatideng
nipatidengan
nipatiyam
nipatizeng
nipatizengan
nipatudu
nipatuduan
nipatungnus
nipawacayan
nipawali
nipawalian
nipecician
nipi
nipiadih
nipiadup
nipiawaw
nipiazih
nipibetik
nipicebis
nipicudad
nipicumud
nipicunus
nipidademec
nipidateng
nipidatengan
nipidebung
nipidiput
nipiedap
nipikingkiwan
nipikuwan
nipikuwanan
nipiladlad
nipilatlat
nipili
nipilian
nipiliwan
nipilunguc
nipimali
nipinanam
nipinanum
nipingayaw
nipipadang
nipipawah
nipipili
nipisanga
nipisangaan
nipisilud
nipisiwbay
nipisiwsiw
nipisulit
nipisulitan
nipitanam
nipitaneng
nipitapal
nipite
nipitima
nipizateng
nipun
nis
nisa
nisabalucu
nisabaluhay
nisaicelangan
nisakaku
nisakakuan
nisakapahan
nisakapu
nisakaput
nisakaputan
nisaketunan
nisalami
nisanga
nisangaan
nisangan
nisapalan
nisasingan
nisaungay
nisaungayan
nisausi
nisausian
nisepi
nisepian
nishani
nisi
nisilitan
nisimsim
nisingkiwan
nisu
nisubelidan
nisubelitan
nisulit
nisulitan
nisulutan
nisumadan
nisupedan
nita
nitabuan
nitadasan
nitanengan
nitatengan
nitenunan
nitu
nituktukan
nitukudan
nitulikan
niu
niw
niwlang
niwsilan
niy
niya
niyacu
niyadu
niyaduan
niyaduay
niyalu
niyam
niyan
niyaniyadu
niyaw
niyay
niyazu
niyazuay
niywama
niyzau
niza
nizaan
nizateng
nizatengan
nizaw
nl
nn
no
nobita
nocat
nocturnality
node
noicon
nokan
nolinks
non
none
nong
normal
norman
norodom
north
northeast
northeastern
northern
northwest
northwestern
norway
norwegian
nos
not
note
noteta
nothing
notice
noufo
nov
nova
november
now
nowiki
nowrap
nr
ns
nsa
nscategory
nsid
nspace
nstable
nte
ntsay
ntu
nu
nuamisan
nuayaw
nuayawan
nuayaway
nuayzaay
nubabalaki
nubayu
nubi
nubian
nubinacadan
nubinawlan
nubu
nuco
nuda
nudaw
nudikudan
nudikuday
nudipun
nuduma
nudumaan
nudumaay
nueneng
nuenengay
nuetipan
nuetipananay
nuhekal
nuhekalan
nuhekalay
nuheni
nuhenian
nuhenisa
nuhini
nuhitay
nuhni
nuhulam
nui
nuitidaay
nuka
nukamu
nukanatal
nukay
nulabi
nulangaw
null
nulpin
nuluma
num
numa
numaka
numaku
numanti
numasa
number
numbers
numeric
numi
numisu
numita
nums
nun
nuna
nunanum
nung
nuni
nunika
nunipi
nunisulitan
nuniyam
nuniyazu
nuno
nunuheni
nunum
nunyadu
nuo
nusakidaya
nusejek
nusi
nutademaw
nutaw
nutawan
nutaway
nuteban
nutenes
nutimulan
nutineng
nutinengay
nutipan
nutipanay
nutuas
nutumuk
nutumulan
nuu
nuudip
nuwa
nuwalian
nuwalianay
nuwaliay
nuwaliyan
nuwama
nuwamisan
nuwamisanay
nuwatan
nuwawaan
nuwina
nuya
nuyaan
nuyaanay
nuyazu
nuyda
nuyni
nuza
nuzikuzan
nuzuma
nuzumaan
nuzumaay
nv
nw
ny
nya
nyadu
nyaduay
nyanyadu
nye
nyusi
o
oaxaca
obama
obed
obiang
obj
object
objects
oc
occitan
ocean
oceania
oco
ocoay
october
ocuo
od
odoratissimum
of
ofaya
off
office
official
officinale
offset
often
ogu
ohay
ohio
oirat
ojibwa
ok
okinawa
oklahoma
oko
oku
ol
olalip
olaw
old
oldhamii
oli
olu
om
oman
omar
ombox
omicron
omitted
on
once
ondimba
one
ong
only
onlycat
onlysourced
onlysrc
op
opening
operation
oponoho
opt
option
optional
optionally
options
optionsk
or
orba
order
ordered
ordinal
ordsuffix
org
orig
origargs
oriya
orlando
orleans
ornamental
oro
oromo
ortega
orthographic
orthography
os
osd
otd
other
others
otherwise
othmani
otomi
ottoman
ou
ouattara
ouhoumoudou
ould
oumeng
our
out
outidx
output
outputbox
outputhook
outside
outstring
ouzhou
over
overcaption
overimage
overlook
override
overridecode
ow
own
oxford
oyun
p
pa
paaca
paacawa
paadih
paading
paakuti
paakutiay
paanin
paaninen
paanip
paasu
paayaw
paayaway
paazih
paazihay
paazihen
pabacuan
pabadidiwan
pabalic
pabaliu
pabaliw
pabaliway
pabalucu
pabaluhay
pabalunga
pabalungaay
pabaw
pabawan
pabaway
pabelet
pabeli
pabelian
pabeliay
pabelien
pabelin
pabesuc
pabesut
pabi
pabinawlan
pablo
pabuisan
pabulingan
pabutingan
pabuy
pabuyan
paca
pacabay
pacabayay
pacait
pacaiten
pacakat
pacakay
pacakaya
pacakayan
pacakayay
pacakayen
pacalaan
pacaliw
pacamul
paceba
pacebaan
pacebaay
pacebasa
pacebu
pacekcek
pacekil
pacelak
pacena
paci
pacici
pacicien
pacidal
pacific
pacikahen
pacilal
pacilalan
pacilu
pacingen
pacisetan
pacuay
pacubelis
pacucu
pacucuway
pacudacudadan
pacudad
pacudadan
pacudaden
pacuem
pacuked
paculi
paculian
paculiay
paculil
paculilay
pacumud
pacumuden
pacumut
pacuna
pacunaay
pacunus
pacupiyaway
pacuya
pada
padacke
padadan
padadanay
padadiw
padaduki
padaesu
padahaw
padaicaw
padaiycaw
padakaw
padakuwan
padamek
padang
padangen
padding
padebun
padek
padeku
padekuan
padekuwan
pademiad
padeng
padengen
pades
padihing
padik
padingkiay
paduh
paduma
padungus
padutus
pae
paedap
paeneng
paengaw
paengil
paenu
page
pagename
pages
pagetype
pagetypee
pah
pahabay
pahabaya
pahabayan
pahabayay
pahahan
pahalhal
pahanhan
pahanhanan
pahari
paharia
pahawh
pahay
pahcekan
pahceken
pahecek
pahecekan
paheci
pahedek
pahedekan
pahelak
pahetikan
pahezek
pahezekan
pahezekay
pahikukian
pahimi
pahlavi
pahor
pahpah
pahudingay
pahulic
pahulican
pahulicay
pahusu
pahutin
pahutinan
pahutingay
pai
paicelang
paid
paina
paini
painiay
paio
pairs
paisingan
paiwan
paiwanay
paiyu
pak
paka
pakaadih
pakaala
pakaales
pakaawas
pakaazih
pakabalunga
pakabana
pakacaw
pakacuduay
pakadateng
pakadebung
pakademec
pakadih
pakaduba
pakadungdung
pakaen
pakahalhal
pakahemhem
pakaicelang
pakakapah
pakal
pakala
pakalaheci
pakalal
pakalaliw
pakalatu
pakalihalay
pakalisiw
pakalisiwan
pakalisiway
pakan
pakanamuh
pakanan
pakanay
pakapulu
pakara
pakasakamu
pakasaw
pakaseneng
pakasiwawa
pakatawa
pakatelay
pakatemec
pakatengil
pakatepa
pakatineng
pakatinengay
pakatukuh
pakatulu
pakatusa
pakay
pakayadah
pakayakayay
pakayda
pakayluma
pakayni
pakayniay
pakaynien
pakaynin
pakayniyay
pakayza
pakayzaan
pakayzaen
pakazih
pakelakela
pakelang
pakelid
paketun
paketunay
paketung
pakilangan
pakilul
pakinacacay
pakincalan
pakistan
paku
pakuh
pakuhica
pakulitan
pakumud
pakungku
pakunida
pakuniza
pakutay
pakuyuc
pakuyucay
pakwari
pal
pala
palaacawa
palaan
palabang
palabangay
palacacay
palacacayen
palada
palahad
palaheci
palalacal
palalecad
palalid
palalitin
palaliw
palaliyasen
palaludan
palamal
palamalan
palamalay
palamalen
palamel
palamelen
palamitan
palaml
palamlam
palan
palang
palangan
palangaw
palapalaan
palasawad
palasit
palasubu
palasul
palatademaw
palatateng
palatatenga
palatiyung
palatuh
palatuluen
palatusa
palatusaen
palau
palaung
palaw
palawacu
palawano
palaway
palawpes
palaylay
palcabayay
palecad
palecaden
palecuhanan
palekal
palekalan
palekalay
paleman
palemang
pali
palid
palidan
palidaw
palikat
palikeluh
palikutay
palilid
palima
palimad
palimulak
palinkaan
palisaan
palisin
palita
palitaan
palitemuh
paliw
paliwalay
paliwan
paliwanan
paliwliwen
paliyun
palm
palongacay
palu
paluayaw
palubicen
palucek
palud
palula
paluma
palumaan
palumaay
palumaen
palumata
palutatenga
palutatengaan
palutatengan
paluwad
pam
pamacoy
pame
pan
pana
panama
panan
pananukas
pananum
panay
pancah
pancahay
pang
panga
panganga
pangangaan
pangangan
panganganan
panganganay
panganganen
pangca
pangcah
pangcahay
pangcha
pangciw
pangiduan
pangiduwan
pangiha
pangihaay
pangingih
pangkiw
pangkiwan
pangkiway
pangpangcahan
pangwi
paniculata
panihiw
paniyul
panjabi
panke
pankiw
pano
panpancahan
pantaw
pantu
panu
panukas
panukasen
panutek
panutekan
panutekay
papa
papacakayan
papadengan
papah
papahabayan
papahan
papahanhanan
papahutinan
papalamalan
papaluma
papalumaan
papangaan
papangaay
papasubana
papasubanaan
papaw
papayzaan
papazaan
papelu
papeluay
paper
papi
papiadih
papicudad
papiedap
papiidangay
papikan
papilian
papiliyas
papilubang
papilun
papina
papinaay
papinanam
papipadang
papituay
papua
papulu
papululan
papulung
papuya
par
para
paraguay
param
paramaribo
parameter
parameters
params
paran
parayapay
parent
parentargs
parentargsparam
parenthetical
pargs
paris
park
parm
parms
parseinput
parseparam
part
partial
parts
pas
pasa
pasaamis
pasabaan
pasaduma
pasaheci
pasaicelang
pasaida
pasakamu
pasakamuen
pasakapah
pasakapahen
pasaksak
pasaluimeng
pasaluimengen
pasanga
pasangaan
pasapayu
pasasa
pasasuala
pasatedep
pasatezep
pasatimul
pasaupu
pasawali
pasay
pasayda
pasaydaay
pasaydaen
pasaydan
pasayla
pasayni
pasayza
pasayzaan
pasazuma
pascal
pasco
pascual
pase
paseneng
paseng
pasentu
pasepi
pasepian
pasepien
pashai
pashayi
pashinyan
pashto
pasibana
pasikau
pasiketen
pasilsil
pasiluc
pasilut
pasimal
pasimel
pasing
pasintu
paso
pasongan
pass
passed
pasu
pasubana
pasubanaay
pasubanaen
pasukas
pasulitan
pasumad
pasumadan
pasumaden
pasumana
pasumat
pasuni
pasupapah
pasusun
pasuya
pata
patababaw
patacuwan
patada
patadas
patademaway
patadikud
patadu
patahekal
patahekalan
patahekalay
patahekalen
patahka
patahkaan
patahkal
patahkalay
patahkalen
patahtah
patakid
patakis
patakit
patakus
patalahekal
patalakaw
patalaw
patalawan
patalaway
pataluma
patalumaen
patan
patang
patangasa
patapabaw
patapuc
patasasa
patata
patatenga
patatiku
patatungus
pataungay
patawlinan
patawsi
patay
patayay
patayda
pataydaen
pataydan
patayen
patayni
pataynin
patayza
patayzaen
patelac
patelacay
patelah
patelatela
patelay
patelayan
patelek
patelekay
pateluh
patelungan
patenak
pateng
paterungan
patetek
patiden
patideng
patidengan
patidengay
patiku
patikuen
patinaku
patinakuay
patineng
patinengen
patiyak
patiyam
patiyamay
patiza
patizang
patizen
patizeng
patizengan
patizengay
patizengen
patizneg
patnghan
patrice
patrick
pattern
patterni
patterns
patubeli
patubilisa
patucek
patudu
patuduan
patuduay
patudud
patukil
patukuh
patungus
patusukan
patutud
patuzu
patyamay
pau
paudadan
paudip
paudipay
paui
paul
paula
paulicay
pauliday
pauzip
pauzipay
pauzipen
paw
pawacay
pawada
pawali
pawalien
pawalil
pawalilay
pawalinen
pawan
pawapen
pawasa
pawciya
pawliwti
pawmu
pawsa
pawti
pay
paya
payas
payawan
paybalucu
paybinacadan
paybulad
paycacay
paycacayay
payci
paycucuan
paycucuay
paydang
paydangan
paydemiad
paydemiadan
payhun
payhunpi
paykanatal
paykanatalay
paylabu
paylang
paylima
paylipay
payljus
payluma
paylumaluma
paymihcaan
paymihmihcaan
payni
paynien
payniyadu
payniyaniyazu
payniyazu
paynyanyadu
paypay
paysin
paysu
payteban
paytebanay
paytem
payu
payuan
paywan
paza
pazateng
pazazan
pazen
pazeng
pazengen
pazik
paziki
pazumaan
pb
pcall
pd
pdf
pe
pea
pecu
pedaduki
pedro
pei
pela
pelaan
pelaen
pelu
pen
penen
peng
peninsula
pennsylvania
people
per
perennial
performance
period
persian
persimmon
person
peru
peter
petun
pey
ph
phaa
phankham
philadelphia
philippe
philippine
philippines
phillips
pho
phoenix
phonetic
phowa
php
phu
pi
pia
piadih
piadihan
piadihi
piadupan
piala
pialaan
pialai
piales
pian
piano
piasip
piatalan
piatali
piawaw
piazih
piazihan
piazihi
pibadahungi
pibahel
pibuting
pibutingan
pic
picakay
picakayan
picalap
picalapan
picaliwayan
picapi
picapian
picedekan
picekulan
picemekan
picidek
picidekan
pick
picudad
picudadan
picudadi
picudatan
picumud
picumudan
pid
pidangan
pidateng
pidebung
pidgin
pidiput
pidiputan
pieces
piedap
pieneng
pienengan
pierre
pig
pih
pihacen
pihaceng
pihacengan
pihacengay
pihalhal
pihalhalan
pihay
pihaymaw
pihaymawi
pihibang
pihibangan
pihpih
piida
piidangan
pika
pikacaw
pikacawan
pikalat
pikan
pikanan
pikawaw
pikawawan
pikelec
piketun
pikikung
pikilim
pikilul
pikingkiwan
pikiningan
pikinsa
pikulasan
pikulian
pikulit
pikulitan
pikuwan
pikuwanan
pikuwanay
pikuwang
pila
pilabinan
pilaedisan
pilakalak
pilaliw
pilangawan
pilangecan
pilapila
pilas
pilasul
pilatlatan
pilawpes
pildac
pilecuhan
pilecukan
pili
pilien
pilihida
pilihiza
piling
pilipayan
pilis
pilisin
pilisinan
piliyas
piliyasan
piliyasi
piluceken
pilunguc
pimalian
pin
pina
pinaay
pinacadan
pinaluma
pinanam
pinanaman
pinangan
pinanum
pinapina
pinapinaay
pinatu
pinay
pincilin
pinfan
pinfun
ping
pingangayaw
pingayaw
pingtung
pininangan
pinpucu
pintaw
pintung
pinyin
pipadang
pipahabanan
pipahabayan
pipahanhanan
pipalamal
pipalumaan
pipangangan
pipatahkal
pipatay
pipazeng
pipazengan
pipili
pipulu
pipupu
pisa
pisaicelang
pisait
pisakakawaw
pisakakawawan
pisakaku
pisakamu
pisakapah
pisalamaan
pisalisin
pisalisinan
pisaluma
pisalunguc
pisamsam
pisanga
pisangaan
pisatezep
pisaungay
pisausi
pisawacu
pisengal
pisikul
pisilsil
pisilsilan
pisin
pisinanut
pising
pisinga
pisingkiw
pisingkiwan
pisirian
pisitekedan
pisiwbay
pisiwbayan
pisiwsiw
pistons
pisu
pisuayaw
pisulit
pisulitan
pisulul
pisupedan
pisupet
pitakusan
pitanam
pitapal
pitapalan
pitay
pite
pitebing
pitekaan
pitel
pitengil
pitengili
pitu
pituay
pitulas
pituulan
pituway
piuwac
piuyamali
piw
piwaniki
piwma
pixnet
piy
piya
piyan
piyang
piyaway
piyuma
pizateng
pizawis
pl
place
placeholder
plain
plainidx
plainlist
plains
plan
plane
plant
plantae
plantain
plants
play
played
player
players
please
plenkovic
plmwan
plural
plus
pn
png
pnguu
po
pocahontas
poem
point
points
poland
policy
polinisiya
political
polo
pololan
polynesia
polyphylla
pomo
ponaway
pong
pop
popoloca
popoluca
port
porter
portland
portrait
portugal
portuguese
pos
position
positive
posko
posong
possible
post
postcard
postfix
potici
potter
pou
pow
power
powhatan
ppm
pra
prasad
pratan
pravind
pre
precision
prefer
preferred
prefix
prefixedtext
prefixes
preload
preprocess
preprocessargs
preprocesssinglearg
presence
present
president
presidente
presidential
press
preview
previous
prevp
pri
prime
prince
princess
principe
print
printtitle
private
process
processing
produce
produces
product
professional
project
prop
proper
properties
property
propertyid
propertyvalueandquals
props
proptbl
propval
propvalue
protected
protection
protectionlevels
protectorate
proto
provide
provided
provides
province
ps
psidium
pt
pu
puah
public
publique
pubu
puc
pucang
puces
pucu
pucud
pucunug
pudac
pudacen
pudah
puduh
puduk
pue
puebla
pueneng
puenengan
puerto
puertu
puki
pukiay
pukpuk
pukuh
pul
pulake
pulan
pulanten
pule
pulecuhan
puler
puli
pulre
pulu
pululen
pulun
pulung
pulungamin
pulungan
pulungay
pulungen
pulunghan
pulunnie
puluung
pun
puna
punan
punctuation
punelay
pung
pungkang
pungpungkangan
punkang
punu
puo
puose
pupu
pur
purge
purposes
pus
puseku
pusku
pusong
pusun
pusung
pusungay
pusungku
put
putah
putahay
putal
putaw
putawya
putin
puting
putiput
putuma
putun
putunan
putut
puu
puw
puyu
puyuma
pval
pwakih
pwo
px
pyanan
pyasan
pycnonotus
pye
pyu
q
qaboos
qalang
qaljecim
qapu
qapuciu
qaqqayaman
qara
qatar
qatu
qehuy
qi
qiandong
qid
qmocyan
qnau
qnragan
qnumber
qolu
qowgan
qoyaw
qphay
qrahu
qramay
qu
quadrata
qual
qualid
qualifier
qualifierid
qualifiers
quals
quang
quantity
que
quechua
quichua
quotes
quri
qus
quwis
quzi
qv
qval
qwayux
qyuws
r
ra
rabbit
radev
rafael
rafer
ragnarok
rahaw
rahmon
rahu
rai
rajapaksa
raka
ralph
ram
rama
ramaphosa
ran
ranchanruy
random
randy
rangay
range
ranges
rank
ranks
raponda
rapunzel
rasulzoda
rather
ratio
rau
raw
ray
raymond
raysinay
rd
re
reach
reason
rebelo
received
recep
record
red
redefinition
redirect
redundant
ref
reference
references
refparts
regex
region
regions
registered
regular
related
released
remove
removeblanks
removeidx
ren
render
rendersnak
rendertrackingcategories
rep
repeat
replace
replacement
representing
repu
republic
republika
reqranks
requested
require
required
rer
res
resian
respiratory
result
ret
retired
return
returned
returns
reuven
rhine
rhs
ri
rica
richard
rick
rico
riga
right
rinahem
rio
river
rivers
rivlin
rl
rm
rname
ro
roa
robert
roble
roc
roch
rock
rockets
roger
roglai
role
roles
roma
roman
romance
romani
romania
romanian
romanization
romansh
ron
rong
rongwei
rookie
roosevelt
root
rosa
rose
rougui
rouhani
round
roundto
row
rowargs
rowclass
rows
rowstyle
roxb
royal
royals
rozaj
rquez
rr
rsl
rtl
ru
ruak
ruba
rubiaceae
ruisui
rukai
rukay
ruke
rul
rumen
run
rup
rus
russia
russian
rutaceae
rutte
ruy
rw
rwanda
ryan
rʉhlʉcʉ
s
sa
saa
saaca
saacawaan
saacawaen
saadeddine
saadidi
saadidiay
saadidingay
saading
saadingan
saahebal
saahebalay
saahemawen
saakuti
saamis
saamisa
saamisan
saamisanay
saamisay
saan
saangangan
saansa
saara
saasik
saasu
saatal
saayaw
saayaway
saayway
saba
sabaatay
sabaeketay
sabah
sabahel
sabak
sabal
sabalad
sabalakiay
sabalat
sabalucu
sabaluhay
sabama
sabana
sabang
sabangcal
sabangcalay
sabataday
sabatu
sabaw
sabaway
sabawcacay
sabeleng
sabeti
sabetil
sabul
sabun
sabuud
sabuut
sabw
saca
sacaay
sacabayan
sacabengan
sacacacay
sacacay
sacacayay
sacacaycacay
sacacayen
sacahamin
sacakat
sacakatay
sacepo
saci
sacrifice
sacucuk
sacukcuk
saculil
saculilan
saculu
sacumud
sacumudan
sacumut
sacunus
sadadiw
sadadiwan
sadaduy
sadak
sadakadakay
sadakadakayan
sadakaydakay
sadayday
sademiad
sademidemiad
sadep
sadi
sadicem
sadicemsa
sadikec
sadikud
sadikudan
sadikuday
sadimata
sadingsing
sadingsingan
sadinsin
sadipa
sadipasan
sadipongan
sadiput
sado
sadu
saedap
saedapay
saepi
saetim
saetip
saetipan
saetipyu
sah
sahara
sahenay
sahetu
sahican
sai
saicelang
saicelangay
saicelangen
saicelangi
said
saied
saigian
saiku
sailele
sainayi
saing
saint
saisian
saisiyat
saiten
sak
saka
sakaamisan
sakaaumay
sakabi
sakacaay
sakacacay
sakacacayay
sakacakat
sakacaluway
sakacaw
sakacay
sakacumelak
sakadahi
sakadihian
sakaenem
sakaetiman
sakahemekan
sakahenulan
sakahenulanay
sakahida
sakahini
sakaicelang
sakaidaw
sakaihekal
sakainayi
sakaizaay
sakaizaway
sakakaay
sakakapah
sakakawaw
sakakawawan
sakakawawen
sakakay
sakaku
sakakuay
sakakumced
sakala
sakalabi
sakalah
sakalaheci
sakalahitay
sakalalebu
sakalaluman
sakalamkam
sakalaniyazu
sakalat
sakalawpes
sakalecad
sakalepacaw
sakalihalay
sakalihalayan
sakalikat
sakalima
sakalimulakan
sakalingatu
sakalisiwan
sakalu
sakaluk
sakalukan
sakalulu
sakalus
sakamu
sakamuan
sakamuay
sakamuen
sakamuhan
sakamun
sakamusa
sakamusatu
sakamuwan
sakamuwen
sakan
sakanamuh
sakanamuhan
sakanamuhay
sakanawlan
sakangaay
sakangay
sakapah
sakapahan
sakapahay
sakapahen
sakapahi
sakapalaw
sakapatay
sakapet
sakapitu
sakapu
sakaput
sakaputan
sakaputay
sakasa
sakasaan
sakasabaw
sakasamata
sakasan
sakasasedsed
sakasenengan
sakasepat
sakasi
sakasikadan
sakasikalisiw
sakasilacul
sakasilaculan
sakasingangan
sakasitangah
sakasitungus
sakasiwa
sakasiwantan
sakata
sakatabuyu
sakatahekal
sakatahkal
sakatalawan
sakatalawanay
sakataluma
sakatanektek
sakatatungus
sakatatusa
sakatawaan
sakatayda
sakatayni
sakatayza
sakatelelay
sakatimu
sakatimulan
sakatinacay
sakatineng
sakatinengan
sakatinulu
sakatinusa
sakatizeng
sakatukuh
sakatulu
sakatuluay
sakatuluway
sakatusa
sakatusaay
sakatuud
sakatuuday
sakaudip
sakaudipan
sakauip
sakauzip
sakawalu
sakawaw
sakawawan
sakay
sakayadah
sakayadahay
sakayakay
sakaydih
sakaydihan
sakayhekal
sakaytini
sake
sakelec
saketun
saki
sakidaya
sakihekal
sakikalisiw
sakikalisiwan
sakikawaw
sakilemelen
sakilima
sakilisin
sakilul
sakina
sakinacacay
sakinatusa
sakipangipangi
sakipuces
sakipudas
sakita
sakitatilengan
sakizaya
sakizayaan
sakizayaay
sakizya
saku
sakuayaw
sakubad
sakubal
sakubat
sakucuhan
sakuhan
sakuhawen
sakuizaway
sakukamu
sakul
sakula
sakulay
sakunida
sakunu
sakur
sakusaan
sakuwan
sakyai
sakyami
sal
sala
salabi
salacul
salaculan
salaecusay
salaedan
salais
salama
salami
salamian
salang
salangatan
salangawan
salangec
salar
salasalaw
salaw
salaylay
salenga
salengac
salengacay
salengcay
sali
salih
salihalay
salikaka
salikatay
salikit
salil
salingatu
salining
salinliw
salipahak
salipahakay
saliput
salisin
salisinan
salisinay
salisinaya
salitung
saliwliw
saliyut
sall
salman
salngacay
salu
salubaw
salucud
salukiyaw
salukyw
salul
saluma
salumaan
salunga
salungan
salunganay
salungayan
salungayay
salupiku
salusalus
salusalusan
saluyalu
saluyaluy
salva
salvador
sam
sama
samataan
samba
same
samengmeng
sametek
sami
samia
samihmihcan
samin
samo
samoa
sampi
samtek
samuhmuh
samukun
samulmul
san
sana
sanad
sanai
sanamin
sananal
sananay
sanay
sanbansya
sancan
sandbox
sandboxtitle
sandeb
sandimen
sanek
saneken
saneng
sanenk
sang
sanga
sangaan
sangaay
sangaen
sangaleb
sangaleben
sangalep
sangalepan
sangalepen
sangan
sangasiben
sangasipen
sangaw
sangayaw
sangelacay
sangelu
sangkaku
sanglac
sanglacay
sanglan
sangucud
sangulan
sangutuc
sani
sanisani
sanmite
sanna
sanpaw
sanpi
sansa
sansandeb
sansandep
sansanni
sansaru
sansevieria
sanskrit
santa
santi
santiago
santimen
santo
santokhi
santos
sanu
sanuglan
sanyadu
sao
sapa
sapaaca
sapaadih
sapaazih
sapabangsi
sapabangsis
sapabeli
sapacakay
sapacamul
sapacelian
sapacelilan
sapacucu
sapacukat
sapaculi
sapaculil
sapaculu
sapad
sapadadan
sapadadiw
sapadaesu
sapadamek
sapadamsu
sapadan
sapadateng
sapaday
sapadec
sapadutuc
sapahabay
sapahalhal
sapahanhan
sapahecek
sapaini
sapaisin
sapaiu
sapaiyu
sapaiyuan
sapaiyuen
sapaka
sapakaen
sapakan
sapakapah
sapakatineng
sapakatukuh
sapakay
sapakengay
sapakengtu
sapakilul
sapakungku
sapakuyucay
sapal
sapalahad
sapalahat
sapalalen
sapalamel
sapalangaw
sapalawpes
sapalekal
sapalekalaw
sapaluma
sapalumaan
sapamat
sapamata
sapamataan
sapananum
sapancahay
sapangangan
sapapili
sapapising
sapasubana
sapat
sapatahekal
sapatahka
sapatahkal
sapatalaw
sapatata
sapatay
sapatayda
sapatideng
sapatinaku
sapatizen
sapatizeng
sapatudu
sapatudud
sapatungus
sapaudad
sapauzip
sapawsa
sapayu
sapayuan
sapi
sapiadih
sapiadup
sapiala
sapiatep
sapibalakas
sapibanaw
sapibetik
sapibitelakay
sapibuting
sapibuwah
sapica
sapicakay
sapicudad
sapicudadan
sapiculu
sapicunus
sapidemec
sapidiput
sapidiputaw
sapiedap
sapihanhan
sapihica
sapihpih
sapihulak
sapikawaw
sapikayakay
sapikelec
sapiketun
sapikining
sapikpik
sapikuwan
sapilacul
sapilasawad
sapilaylay
sapililuc
sapilisin
sapiliyas
sapilunguc
sapimaan
sapinanam
sapindales
sapingaay
sapingay
sapingayaw
sapipadang
sapipana
sapipatay
sapisaaam
sapisalisin
sapisaluma
sapisang
sapisanga
sapisausi
sapisipu
sapisiwbay
sapisiwtuk
sapisuayaw
sapisulit
sapitabu
sapitahab
sapitahpu
sapitanam
sapitanged
sapitena
sapitulik
sapitulun
sapuelac
sapuhpuh
sapul
sapulju
sapupu
sapuyaay
sapuyu
sapuyuay
sara
sarad
sarcandra
sardinian
sari
sariwsiw
sarksyan
sarraj
sars
saruc
sas
sasa
sasaaamen
sasaan
sasaay
sasabaay
sasadakayan
sasaedeb
sasaetim
sasahicaan
sasahican
sasakamu
sasakamuan
sasakamuen
sasakamun
sasakamuwan
sasakawawen
sasalamaan
sasalami
sasalilan
sasalisidan
sasalisin
sasalisinan
sasanga
sasangaan
sasangan
sasapaiyuan
sasapaiyuen
sasapaiyuwan
sasapalan
sasapayuan
sasapayuen
sasapayuwan
sasapedian
sasasedsed
sasasezeman
sasasuayawan
sasaupuan
sasausian
sasawacan
sasayaway
sasaydan
sasaydang
sasekel
saselal
sasemaan
sasepat
sasepatay
sasepiya
sasi
sasikawaw
sasimalan
sasin
sasing
sasingalan
sasinganganay
sasiti
sasitudung
sasitungus
sasitungusan
sasitungusay
sasiwbayan
sassou
sasuayawan
sasubana
sasubin
sasukamu
sasukapah
sasukapahay
sasuke
sasula
sasulaecus
sasulidan
sasulit
sasulitan
sasulul
sasumidang
sasungaay
sasuwal
sat
sata
satabaki
satabakiay
satabakiaya
satabakiya
satabakiyay
satabalay
satabu
satakus
satalakaw
satalakaway
satalakawayay
satanaya
satanayaay
satanayu
satanayusa
satanengay
satanengen
satangahan
satapes
satatungusan
satebuc
satebul
satedep
satefo
sateked
satekesay
satelec
satenesay
satepi
sateptep
satezep
satezephan
satiban
satiidan
satimul
satimulan
satimulanay
satimulay
satinengay
satip
satipa
satipan
satipanay
satipi
satu
satudud
satukaku
satukal
satukalan
satukami
satuktuk
satuku
satusa
satuuday
satuway
sau
saudi
sauli
saungay
saungayay
saupu
saupuan
saupuen
sausauwacan
sausi
sausian
sausien
sautangay
sauwac
sauwacan
sauwacay
savarin
saviki
saw
sawa
sawac
sawacan
sawacuan
sawada
sawali
sawalian
sawalianay
sawaliay
sawaliyan
sawaliyna
sawanengan
sawi
sawmah
sawni
sawsawni
saxon
say
sayadah
sayadahay
sayan
sayawa
sayaway
saycan
saydan
saydang
sayhan
sayie
sayiun
saysia
saysiat
saysit
saysiyat
sayuen
sayun
sayunan
saza
sazakaya
sazikec
sazikuday
sazikuz
sazikuzan
sazikuzay
sazipa
sazuma
sazumaay
sbalay
sbunaw
sc
scale
scandens
school
scope
scotland
scott
scottish
script
scripts
se
sea
sean
search
season
seattle
seay
sebastia
sebat
sebengay
sebu
seci
secian
second
secretary
sect
section
seday
sedeng
see
seed
seediq
seen
sefu
seg
sehu
sei
sejek
sekuo
sela
selal
selangawan
selected
selep
self
selfref
selsi
sema
semi
semilaway
sen
sena
senegal
senegel
seng
sengan
sengedsengedan
sengelen
sengg
senna
senoufo
sense
senyung
sep
sepa
sepad
sepaday
separ
separate
separated
separator
sepat
sepatay
sepet
sepi
september
ser
serbia
serbian
serendipity
sergei
sergio
serial
serialcomma
series
serra
served
set
setan
setaria
sete
setmetatable
setranks
sets
setset
setting
settings
seuy
seven
seveng
several
severe
sewa
sey
sg
sha
shadow
shan
shanchuan
shang
shared
shark
sharma
shau
shavkat
she
sheikh
shen
sheng
shi
shitan
short
shortcut
shortcutboxplain
shortcutheading
shortcutlist
shortcuts
shortname
shou
shoufeng
should
show
showerrors
showid
showinvalidtypeerror
shown
shrub
shu
shuh
shusha
si
sia
siacaay
siacawa
siacawaay
siacawaw
siadidi
siakay
sian
siang
siangg
siapaluway
siasu
siaw
siay
sibabayuh
sibabayuhay
sibacuay
sibadahung
sibadahungay
sibadidiw
sibadidiway
sibakah
sibali
sibaliay
sibalu
sibaluay
sibalucu
sibalucuan
sibanuh
sibanuhay
siberia
siberria
sibili
sibiliay
sibiyaw
sibu
sibutulay
sicabay
sicamul
sicedam
sicedamay
siceka
sicekaay
sicesicedaman
sichuan
sici
sicica
sicilekay
sickle
sicunus
sida
sidait
sidamek
sidamekay
sidamo
sidayit
sidi
sidiay
sidibu
sidikuc
siduku
sidukuay
siduma
sie
siekuan
sien
sienaw
sienaway
sierra
siey
sifu
siging
sign
signes
signs
sihamoni
siheci
siheciay
sihedek
sihu
sii
siicelang
siida
siidaay
siidang
siiluc
siimelang
siimelangay
sika
sikaadih
sikaala
sikacaay
sikad
sikadih
sikahini
sikahtik
sikaicelang
sikaidaw
sikainayi
sikala
sikalaheci
sikalalacal
sikalawpes
sikalcad
sikalecad
sikalingatu
sikalisiw
sikalisiway
sikalitemuh
sikaliyuhan
sikamu
sikanamuhan
sikangaay
sikapahay
sikapatay
sikapawan
sikapulung
sikasenengan
sikatalawan
sikataluma
sikatayda
sikatayni
sikatepa
sikatineng
sikatinengan
sikatukuh
sikatukuhan
sikaudip
sikausay
sikawasay
sikawaw
sikawaway
sikay
sikayda
sikaydaan
sikaydih
sikaydihan
sikaz
siked
siket
siketen
siki
sikihiki
sikikalisiw
sikining
siku
sikul
sikulen
sikulitay
sikupaay
sikuwang
sil
sila
silaad
silac
silacul
silaculan
silaculay
siladay
silaed
silaheci
silal
silala
silalangawan
silamalay
silamit
silangaw
silangkong
silawad
silaya
silecaday
siledek
siledekay
silet
siliel
sililasay
sililinay
silin
silingaan
silingan
silisin
siliwan
siljevavav
silong
silsil
silsilan
silsilen
siluma
silumaay
silumeni
silumeniay
silupatun
silusa
silusi
silut
silver
sim
sima
simal
simalay
simba
siminciw
simon
simpa
simpi
simple
simplified
simply
simsim
simsiman
simuku
simung
sin
sinaama
sinan
sinanum
sinanumay
sinapalan
sinayasay
sinayasayan
sinbun
sinbung
since
sincen
sinci
sinciw
sinciya
sincu
sinensis
sinevaudjan
sinfa
sing
singaen
singalih
singanga
singangan
singanganay
singapore
singaw
singawa
singbun
singbung
singciyang
singer
singgu
singing
singipenay
singkiw
singko
singku
single
singsiya
sinhala
sinhe
sinhua
sini
sinikaala
sinikapet
sinina
sining
sinipaluma
sinmung
sinotaia
sinpa
sinpeise
sinpi
sinpiay
sinpitu
sinpun
sinqumi
sinsim
sinsin
sintian
sinyue
sinza
sinzia
sinziya
sipa
sipaadih
sipabeli
sipabelien
sipabinawlan
sipacakay
sipacamul
sipacumud
sipahanhan
sipakay
sipakayda
sipakayni
sipakayza
sipakutay
sipala
sipalangay
sipalecad
sipaliyun
sipaluma
sipan
sipanganga
sipangangan
sipanya
sipapah
sipasubana
sipasumad
sipasumaden
sipataayaw
sipatahkal
sipatayda
sipataydaen
sipaw
sipazi
sipi
sipialul
sipibahbah
sipibakah
sipil
sipildac
sipipelacay
sipisanga
sipitadem
sipiwait
sipunu
sipunuay
sirakesay
sisa
sisabansisa
sisapikpikay
sise
sisepat
sisetyimo
sisi
sisimal
sisimalay
sisimpi
sisu
sisuledaay
sisulit
sisuni
sitabakiay
sitanang
sitaneng
sitangahay
sitatudungay
sitatungus
sitatungusay
site
siteked
sitelink
siti
sitiekuk
sitinengay
sitinpahku
situdung
situdungay
situlu
situngus
situngusa
situngusay
situpelay
situsa
siu
siukakiay
siulang
siung
siuy
siw
siwa
siwaay
siwada
siwantan
siwaw
siwawa
siwawatu
siway
siwbay
siwkay
siwkulan
siwng
siwsiw
siwsiwan
siwsiwwan
siy
siya
siyakay
siyakayay
siyaku
siyan
siyang
siyankelila
siyaw
siye
siyen
siyeng
siykay
siyun
size
sizi
sizikuc
sizimi
sizuma
sizumaay
sk
skaru
skerrit
skin
skip
sl
slamaw
slavic
slavonic
slink
slovakia
slovenia
slovenija
sm
small
smangus
smith
sms
sn
snak
snake
snaks
snaktype
snazi
sniiw
sno
snow
snu
snuwing
so
socen
software
sogavare
solanum
solberg
soli
solid
solidago
solomon
somali
somalia
somaliland
somanahay
some
something
sometimes
song
songhai
songs
sorbian
sorghum
sort
sortable
sortday
sortkey
sotho
sou
soufeng
sound
source
sourced
sousa
south
southeast
southeastern
southern
southwest
southwestern
soviet
sow
spa
space
spacer
spacerside
spaces
spacing
spain
span
spanish
spec
special
species
specific
specified
specify
speedy
spell
spelling
sphecodina
splat
split
spurs
spwan
sq
sqbwh
sqiy
sqoyaw
square
sr
sri
ss
ssss
st
stacey
stage
stak
stalin
standard
stanis
star
stark
starr
starred
stars
start
starting
state
statements
states
stats
std
stefan
stems
step
steve
still
ston
stored
storm
story
str
strange
string
strings
strip
striptonil
strout
study
style
su
suan
suay
suayaw
sub
suba
subal
subalan
subalay
subana
subanen
subankaw
subasubalan
subayu
subcostata
subgroup
subheader
subject
subjectspace
subpage
subpages
subtag
subtags
subuk
success
such
sudadatan
sudan
sudu
sue
suemet
suemetay
suened
suey
suffix
suga
sugar
sui
suilt
suiy
suke
sukiti
suku
sukudad
sukun
sukuy
sul
sulda
sulecad
suleda
sulesuledaan
suli
sulian
sulid
sulit
sulitan
sulitay
sulitbacu
suliten
sulu
suluhu
sulul
sululen
sulungan
sum
sumad
sumadan
sumaden
sumama
sumamad
sumamadan
sumamaday
sumanah
sumanahay
sumasumanahan
sumei
sumilaw
sumilaway
summary
summer
sun
suna
sunflower
sunfu
sung
sungaay
suni
suns
sunuk
suo
suodu
supa
suped
supeden
supersonics
supplementary
supplied
supported
suppressed
sur
surangel
sure
surface
suriname
suru
suruw
sus
susanna
suspension
suta
sutukudi
suw
suwan
suy
sv
svg
sw
swahili
swasal
swaziland
sweden
swedish
sweet
swiss
switch
switzerland
sya
syabutay
syahuy
syakay
syang
sye
syehuy
syen
syifu
synonym
syracuse
syria
syriac
system
syubay
sʉhlʉnganʉ
t
ta
taal
taamis
taan
taayaw
taazihan
tab
taba
tababaw
tabaki
tabakiay
tabakiaya
tabakiayay
tabakibaki
tabakitu
tabakiya
tabakiyay
tabaku
tabakuay
tabal
taban
tabang
tabasco
tabayal
tabayu
tabesiw
tabilas
table
tables
tabletools
tabu
tabuen
tabuk
tabukan
tabukud
tabuyu
tabuyuay
taciwlalaw
tacuwa
tacuwacuwa
tada
tadaadidi
tadaakuti
tadacu
tadah
tadakamu
tadamaan
tadamaanay
tadamaw
tadangangan
tadaw
tadayadah
tadeamaw
tadeamw
tadebaw
tadem
tadema
tademaw
tademawan
tademaway
tademen
tademw
tadenga
tadengaay
tadetademaw
tadikud
tadisawak
tadu
taduk
tae
taepic
tafugan
tag
tagbanwa
tags
tah
tahadauc
tahak
tahakay
tahdauc
tahek
tahekal
tahekalan
tahekalay
tahepu
tahkal
tahkalay
tahmahini
tai
taichung
tail
taimali
taing
taipei
taitung
taiwan
taiwanese
taiwu
tajikistan
tak
takal
takalan
takalaw
takalaway
takamimura
takan
takanua
takas
takaw
takaway
takay
takbanauz
take
takec
takelal
takelalay
takelian
takelulu
takes
taki
takidis
takili
takiludun
takini
takinilan
takkei
taku
takubu
takubuan
takubuwa
takubuwan
takuku
takulaw
takuliaway
takuliway
takuliyaway
takulyaway
takumuwan
takun
takunan
takupuwan
takus
takusen
takutakuan
takuwa
takuwan
takuwanan
tal
tala
talaayaw
talabayu
talabu
talabuyu
talah
talahaday
talahekal
talakaw
talakawan
talakaway
talalusa
talamangawan
talampo
talastas
talatuas
talaw
talawadaw
tale
taleacawaan
tali
talibahalay
taliban
taling
talk
talkpagetitle
talktext
talktitle
tall
tallis
talon
talu
taluay
taludu
taluku
talul
talulung
taluma
talumaay
tam
tama
tamaan
tamaay
tamahu
tamalakaw
tamali
tamang
tamasaydan
tamayo
tamazight
tamazuan
tamdaw
tamedaw
tamelac
tamelacay
tamil
tamim
tamiyan
tamiyanan
tampya
tamtamdaw
tamulak
tamusi
tamuwan
tamuwanan
tan
tana
tanan
tanang
tanaya
tanayaay
tanayu
tanayuan
tanayuay
tanayuhan
tandaw
tanektek
tanektekay
tanen
taneng
tanengan
tanengay
tanengtu
tanestes
tang
tanga
tangabulan
tangabulanay
tangah
tangahang
tangahay
tangan
tanganyika
tangasa
tangbulanay
tangen
tangil
tangila
tangku
tangsul
tanguhla
tangut
tani
taniktik
taniktikay
tanilis
tanpayce
tansul
tansuy
tantin
tantuwa
tanu
tanucan
tanunamuh
tanutipan
tanutuwa
tanzania
tao
taolesi
taoyuan
taoyuen
tapa
tapabaw
tapabawsa
tapal
tapalan
tapalen
tapalong
tapalung
tapan
tapang
tapangan
tapangay
tapangʉ
tapelik
tapiingan
tapiingay
tapila
tapioca
tapowaray
tapu
tapuhan
tapuku
tapukuan
tapukuay
tapukuwan
tapukuwanay
tapukuway
taputah
tara
taracan
tarahumara
target
tariri
taroko
taruku
tarzan
tasa
tasasa
tase
tasepian
tashkent
tasi
tasutasunan
tat
tata
tatabaki
tatacuwa
tatademaw
tatak
tatama
tatamaan
tatamaay
tatami
tatana
tatanay
tatanga
tatangahan
tatapangan
tatar
tatay
tataydaan
tatayma
tatayna
tataynaan
tataynaay
tataynan
tataynau
tataytay
tataytayay
tatebanan
tatekuh
tatelecan
tatelungan
tatemaw
tateng
tatenga
tatengaay
tatengan
tatengay
tatengilan
tatidengan
tatiih
tatiku
tatimul
tatimulan
tatimulen
tatipeluk
tatizengan
tatoba
tatong
tatu
tatucekan
tatudu
tatudung
tatudungay
tatukian
tatukiyan
tatuktukan
tatukus
tatukusan
tatulu
tatuluay
tatuluway
tatung
tatungduh
tatungus
tatungusan
tatungusay
tatuni
tatusa
tatusaay
tau
tauay
taukak
taumah
taur
taw
tawa
tawan
taway
tawiw
tawki
tawpaw
tawu
tawya
tawyaay
tay
tayal
tayalu
tayan
tayayu
taybak
tayciw
tayda
taydaan
taydaay
taydaen
taydan
taydasatu
tayi
taylin
tayling
tayliwku
tayliyuk
taymali
taymen
taymu
tayna
taynaan
taynan
tayni
taynian
tayniay
taynien
taynin
taynitu
tayniyan
tayniyay
taypak
taypakay
taypan
taypi
taypin
taypingyang
taypinyang
taypinyung
taypuolayta
taytayna
taytu
taytung
tayu
taywan
taywanan
taywanay
taywen
tayyip
tayza
tayzaan
tayzaay
tayzatu
tayzin
taza
tazikuz
tbl
tbulan
tc
tcm
td
tdemaw
tdlu
te
tea
team
tean
tebal
teban
tebanan
tebanay
tebang
tebanteban
tebateban
tebboune
tebu
tebun
tebus
tedemaw
tedep
tedus
teka
teke
teked
tekelay
tekelian
teki
tekiteki
tektek
tekuo
tel
tela
telatela
telay
teldreka
telek
teleklal
television
telilic
telis
telo
telu
teluc
teluhu
telung
telungay
tempil
template
templatecategory
templateerrorcategory
templates
templatetitle
ten
tena
tenes
tenesay
teng
tengaan
tengil
tengilan
tengilen
tengteng
teodoro
tepa
tepad
tepaday
tepadtepadan
tepal
tepalay
tepan
tepanay
tepehua
tepehuan
tepi
terei
teresa
term
terms
terra
tesek
tesri
test
testcases
testcaseslink
testcasestitle
testing
texas
text
textcell
textcellspan
textoptions
textstyle
tey
tez
tfuya
tg
tgbin
tgleq
th
tha
thac
thai
thailand
than
thani
thao
tharu
that
thau
the
theh
their
them
themba
then
there
these
they
thgahan
things
this
thomas
those
though
three
through
throughout
throw
thu
thumb
thumbelina
thunb
ti
tia
tian
tianti
tiay
tibeni
tibetan
ticung
ticunghay
tida
tidaan
tidaay
tidatida
tideng
tiding
tidyval
tie
tieku
tiekuk
tien
tieng
tigami
tika
tiku
tikuk
tikulac
tikulacan
tikuo
tilibi
tilibiay
tiliyung
tim
tima
timan
timay
time
times
timestamp
timezone
timor
timu
timul
timulan
timulay
timulbayu
timur
timyo
tin
tina
tinacay
tinakawawan
tinaku
tinayi
tineng
tinengan
ting
tinga
tingalaw
tingalaway
tinghuy
tingnaw
tingsikiw
tingsukiw
tingting
tini
tiniay
tiniyan
tiniyay
tins
tinsert
tinsikiw
tinsu
tinsukiw
tinulu
tinusa
tip
tipala
tipan
tipanay
tipay
tipid
tipp
tipus
tisilan
tisuwa
tisuwan
tisuwanan
titaan
titanan
titi
titian
titic
title
titlecell
titlecolspan
titleformats
titleobj
titlestyle
titv
tiwa
tiway
tiya
tiyan
tiyin
tiyn
tiyntiyn
tiyun
tiyung
tiza
tizaay
tizeng
tjacupu
tjalja
tjana
tjavualji
tjuamanges
tjuaqau
tjuavanaq
tjukuvulj
tjuvecekadan
tjuwaqau
tk
tkasan
tkijig
tl
tlapanec
tmbox
tmcid
tmunan
tn
tno
tnt
to
toba
tobago
tobo
toda
todo
together
togo
toko
tokoy
tolan
tom
tome
ton
tong
tonga
tongan
tonumber
tony
top
topic
topimage
tora
toro
toronto
tostring
totonac
tou
touade
tour
tout
tow
tower
town
township
tp
tpuqu
tqwiy
tr
tra
tracking
traditional
trail
trailing
tranan
transcluded
transl
translate
translateparameters
translation
translit
transliteration
transwiki
trapping
travel
traveller
trayan
tre
tree
trees
trevor
tri
tribe
trichodesma
tricyrtis
trifasciata
trim
trimmed
trinidad
triqan
triqui
tropical
true
truku
trump
truwan
try
ts
tsai
tshering
tshisekedi
tsou
tt
ttir
tu
tua
tuamin
tuan
tuapun
tuas
tuay
tub
tuba
tubah
tubali
tubang
tuberosa
tubtub
tubul
tubulan
tucek
tuci
tucila
tuculen
tuda
tudawa
tudi
tudu
tuduh
tuduhan
tuduhen
tuduma
tudung
tudungay
tuen
tufuga
tuhenian
tuheniyan
tuhniyan
tui
tuilaepa
tuk
tukaku
tukal
tukalisiu
tukamu
tukang
tukawaw
tukay
tukayan
tukayay
tuki
tukiay
tukita
tuktuk
tuktukan
tuku
tukud
tukuh
tukuhan
tukun
tukus
tukusan
tukusay
tukutukusan
tukya
tul
tula
tulaku
tulakuk
tulakukay
tulalusidan
tulami
tulayic
tulcek
tule
tulik
tulin
tulis
tulisen
tulu
tuluay
tuluku
tuluma
tulumi
tulun
tulutulu
tuluway
tum
tumak
tumay
tumayay
tumesay
tumihmihcaan
tumu
tumuk
tumunaw
tun
tuna
tunan
tunbasan
tunduh
tunebo
tung
tungan
tungangan
tungaw
tungawan
tungawen
tungay
tungduh
tunghua
tungpu
tungus
tungusa
tungusay
tuni
tunian
tunida
tunika
tunikahetik
tunipi
tunisia
tunisian
tuniyan
tunu
tunuc
tunuhenian
tununamuh
tunuz
tunyadu
tuo
tupah
tupel
turkey
turkish
turkmenistan
tus
tusa
tusaan
tusaay
tusabataan
tusan
tusay
tuse
tuseay
tusi
tusu
tusuz
tut
tutang
tutuud
tutuy
tuu
tuud
tuudan
tuuday
tuudip
tuudtuud
tuumah
tuutuud
tuvalu
tuw
tuwa
tuwaca
tuwamin
tuwan
tuwapun
tuwawa
tuway
tuy
tuya
tuyda
tuyni
tuynian
tuyniyan
tuyu
tuyza
tuyzaan
tuzu
tuzuma
tv
tw
twaca
twaku
twalu
twamin
twan
twi
two
twtrees
txtlang
ty
tya
tyaw
tyen
type
typedata
types
typically
tzyy
u
ua
uabbr
uan
uang
uay
ucacanan
ucanan
ucayali
ucayay
ucepei
uchiha
uci
ucia
uciha
uciya
ucna
ucul
ucya
ud
uda
udad
udadan
udang
udangan
udaudadan
udiih
udip
udipan
udipay
udiptu
udipudipan
udiudipan
udu
uduma
ug
uga
uganda
uh
uhan
uhekal
uheni
uk
ukak
ukakay
ukamu
ukang
ukapahay
uke
ukraine
uku
ul
ula
ulad
ulami
ulang
ulangan
ulangdaay
ulasaka
ulat
ulaulangan
ulay
ules
uli
ulic
ulican
ulicay
uling
ulu
uma
umah
umahan
umahay
umahiniay
umahumahan
umaumahan
umbelliferae
umeduk
umi
umima
un
una
unanam
und
under
undu
undukay
ung
ungal
ungay
ungcung
ungsi
ungsin
ungsing
uni
unian
unicode
unified
unika
uning
unini
union
unique
unit
united
university
uniyan
unknown
unless
unnamed
unpack
unrecognized
unsing
until
untu
unu
unuc
unuheni
uo
up
upah
upalaway
upapah
upel
upiz
upload
upper
upright
upu
ur
ura
uraw
uri
url
uru
uruguay
uruw
us
usa
usage
usakasa
use
usecollapsibletextfields
used
useplainlinksparam
user
userbox
uses
usi
using
ustring
usual
usually
ut
uta
utademaw
utang
utbah
utiih
utu
utubay
utux
uul
uuy
uw
uwa
uwac
uwak
uwawa
uway
uwi
uwy
ux
uy
uya
uyaan
uyaanay
uyan
uycanan
uyda
uydaan
uydasa
uyi
uyiniyan
uyna
uyni
uynian
uynianay
uyniay
uynihan
uyniyaca
uyniyan
uysin
uyuni
uyza
uyzaan
uyzaanay
uyzasa
uyzasatu
uz
uzama
uzamaay
uzang
uzasa
uzasaka
uzbek
uzbekistan
uzip
uzipan
uzipay
uzipuzipan
uzuma
uzumaay
v
va
vajiralongkorn
vakangan
val
valana
valau
vale
valid
validate
valjulu
valkyrie
valley
vals
value
valuefunc
values
van
vanir
vanuatu
var
variant
variants
variety
various
variste
vatan
vavulengan
vaz
vcd
ve
vecekadan
vella
venetian
venezuela
venice
verbenaceae
verde
version
vertical
vi
viaf
viburnum
vic
victoria
viet
vietnam
view
vikings
viktor
villa
villanova
vin
vinai
vine
viphavanh
virgaurea
virginia
viri
viti
vives
vivian
vladimir
vo
volapu
volodymyr
von
vorachith
vqualifiersv
vro
vstr
vu
vuc
vudai
vungalid
vungavung
w
wa
wac
waca
wacah
wacu
wacuan
wada
wadaen
wade
wadi
wadiwawa
wadu
wadwad
waha
wak
waku
wal
wala
walak
walay
wali
walian
walianay
waliay
walibayu
walitimulan
waliyan
waliyu
wally
walo
walt
walter
walu
waluay
waluway
walwalen
wama
wamin
wamisan
wan
wanay
wancaw
waneng
wang
wangchuck
wanglu
waniken
wankuo
wanna
wanse
want
wantan
wantmixture
waqa
war
warning
warriors
was
wasao
washington
wat
wata
watan
watch
water
watut
wau
waw
wawa
wawaan
wawaaw
wawaay
wawama
wawana
wawaw
waway
wawelwel
way
wayway
waywayan
we
web
webplantdetail
websites
weekes
wei
weight
weilei
weiling
weiyuanhuy
weiyuenhuy
well
welsh
wen
wenihusin
were
west
westelo
western
wey
weykipayke
weystelo
weyuanhuy
what
when
where
whether
which
while
whipps
white
whitelist
whitelisting
whitespace
who
whose
wi
wica
wichi
wida
widasa
wide
widely
widi
widodo
width
wik
wiki
wikibase
wikidata
wikidataib
wikidataurl
wikilink
wikimedia
wikipayke
wikipedia
wikipitiya
wikitext
wild
will
william
win
wina
winai
wind
wini
winian
winis
winisa
winiyan
winiyanay
winter
wipsay
witamin
with
within
without
wiy
wiyen
wiyena
wiza
wizaan
wizards
wo
wolf
wom
won
wonderland
wong
word
words
work
working
world
worlds
would
wp
wrapper
wrappers
written
ws
wt
wu
wuen
wufeng
wujie
wukak
wulai
wulun
wun
wuncun
wunsin
wuo
wutai
wutay
wutubay
wuy
wuya
www
wy
wyli
wyni
wyniyan
wyza
x
xal
xavier
xayun
xbb
xi
xian
xiang
xiao
xin
xing
xue
xvi
xx
y
ya
yaan
yaanay
yaay
yaca
yaci
yaco
yacoay
yacu
yada
yadah
yadahan
yadahay
yadahen
yadahtu
yadahyadah
yadatu
yah
yahya
yai
yaka
yakiw
yakuba
yala
yali
yalisanta
yama
yamalyilu
yamapalaway
yameen
yami
yamin
yamso
yan
yancumin
yanev
yang
yangci
yangum
yani
yanping
yao
yap
yase
yasi
yassin
yasu
yata
yatauyungana
yau
yaw
yawkuay
yay
yayo
yd
ye
year
years
yei
yellow
yemen
yen
yes
yesno
yet
yey
yi
yia
yiay
yicumin
yicumincu
yida
yiddish
yien
yih
yik
yilan
yin
yincumim
yincumin
yincuminay
yincumincu
yindu
ying
yingcumin
yingguo
yingu
yinhe
yintu
yise
yiselie
yiseng
yit
yitali
yiyang
yiyu
ym
ymd
ymwd
yo
yohae
york
yoshihide
you
young
your
youting
youtube
yoweri
yu
yuadidi
yuan
yuancumin
yuancuminay
yuancumincu
yuangcumin
yuanminhuy
yubang
yubayub
yubin
yuciya
yud
yue
yugoslavia
yuh
yuing
yuku
yulang
yuli
yuluw
yumahida
yumahiza
yun
yuncumin
yung
yungcumin
yunminhuy
yupik
yusinu
yutak
yutiancaw
yutiyncaw
yuwantan
yuwatan
yuwhbun
yux
yuy
z
za
zahkez
zai
zais
zakep
zakes
zam
zama
zambia
zan
zang
zanthoxylum
zapotec
zateng
zatengan
zatengen
zaw
zay
zayed
zayhan
zayliw
zayliyaw
zaysa
zaysan
zaysang
zaza
zazan
zazanan
zazanay
zdravko
ze
zealand
zekuzan
zelensky
zeman
zen
zeng
zenmin
zero
zeu
zew
zh
zhang
zheng
zhi
zhin
zho
zhong
zhongguo
zhou
zhu
zhuang
zhuoxi
zi
zicem
ziday
zidayan
zihing
zikuc
zikuz
zikuza
zikuzan
zikuzanay
zikuzay
zimbabwa
zimbabwe
zin
zingiber
zinum
zinzya
zip
zipun
zitay
zitayan
ziyazu
zo
zong
zoo
zoque
zosi
zou
zu
zuay
zuela
zuku
zul
zulu
zuma
zumaan
zumaay
zumasa
zumasatu
zumay
zumazuma
zun
zung
zuni
zuo
zuw
zuy
zuyla
zuzana
{
|
}
~


§
«
°
±
²
´
·
»
½
×
ħ
ɕ
ɡ
ɣ
ɬ
ɮ
ʃ
ʑ
ʒ
ʔ
ʕ
ʲ
ʲʼ
ʷ
ʷʼ
ʻ
ʼ
ʾ
ʿ
ˁ
ˇ
ˈ
ˊ
ˋ
ː
˙
̀
́
̂
̃
̄
̆
̇
̈
̊
̌
̍
̔
̣
̤
̦
̧
̯
̱
͘
͡
α
δημοκρατι
ε
κυπριακη
μ
ν
ρ
в
н
эдирне
ְ
ִ
ֶ
ַ
ָ
ּ
ב
ט
י
ל
נ
פ
ת
ا
ب
بن
ة
د
ر
س
ش
ع
عبد
ق
ل
ي
َ
ُ
ِ
ّ
ْ
ٓ
ٔ
ٕ
߬
क
ग
ज
ड
द
न
प
फ
ब
भ
म
य
र
ल
व
श
ा
ि
ी
े
ो
्
ক
খ
জ
ত
দ
ন
ম
ল
শ
ষ
স
হ
়
া
ি
ী
ু
ে
্
ગ
ત
દ
ન
પ
મ
ર
લ
ા
િ
ી
ુ
ે
ો
્
க
ட
த
ந
ன
ர
ஷ
ஸ
ா
ி
ே
்
ೆ
പ
്
ග
ඨ
ද
න
ර
ෂ
්
ා
ි
ෙ
ງ
ດ
ນ
ບ
ພ
ວ
ັ
ິ
ຸ
ົ
ໍ
་
ག
ང
བ
ཚ
ར
ས
ི
ེ
ོ
ྲ
ླ
ီ
김고은
무궁화
ជ
ណ
ព
រ
ា
ី
ុ
េ
ះ
្
​
‎
–
—
―
‘
’
“
”
„
•
…
‧
‬
‭
′
※
⁄
₃
₄
℃
⅓
⅔
ⅲ
←
↑
→
↓
↔
↖
↗
↘
↙
↵
↷
↹
⇧
⇪
−
∘
≣
⊞
⋯
⌘
⌥
③
④
⑦
─
■
►
○
●
☉
☾
⺀
⺄
⺆
⺈
⺊
⺌
⺕
⺝
⺸
⺼
⿰
⿱
⿲
⿳
⿴
⿵
⿶
⿷
⿸
⿹
⿺
⿻
、
。
〈
〉
《
》
「
」
『
』
【
】
〜
〝
〞
〢
あ
い
う
え
お
か
き
く
け
こ
さ
し
す
せ
そ
た
ち
っ
つ
て
と
な
に
ね
の
は
ひ
ふ
へ
ほ
ま
み
む
め
も
ゃ
や
ゅ
ゆ
ょ
よ
ら
り
る
れ
ろ
わ
を
ん
゙
゚
ァ
ア
ィ
イ
ゥ
ウ
ェ
エ
ォ
オ
カ
キ
ク
ケ
コ
サ
シ
ス
セ
ソ
タ
チ
ッ
ツ
テ
ト
ナ
ニ
ヌ
ネ
ノ
ハ
ヒ
フ
ヘ
ホ
マ
ミ
ム
メ
モ
ャ
ヤ
ュ
ユ
ョ
ヨ
ラ
リ
ル
レ
ロ
ワ
ン
・
ー
ㄅ
ㄈ
ㄌ
ㄓ
ㄖ
ㄛ
ㄢ
ㄣ
ㄥ
ㄧ
㇁
㇂
㇄
㇇
㇈
㇉
㇓
㐁
㐄
㐅
㐌
㐫
㐬
㐭
㐮
㐱
㑒
㒵
㒸
㒼
㓁
㓞
㔾
㕛
㕣
㖾
㘝
㚅
㚇
㚔
㚘
㝉
㝡
㝴
㝵
㞋
㞢
㞷
㠩
㠭
㠯
㡀
㡭
㡿
㢲
㢴
㣇
㣺
㥯
㪅
㫄
㫐
㫒
㫺
㬅
㬎
㬥
㬰
㲋
㳄
㷠
㸒
㸚
㸦
㼌
㼲
㽞
㿟
䀠
䂞
䍃
䎃
䏍
䒑
䖍
䖒
䖝
䖵
䘃
䙴
䚻
䜌
䝿
䡛
䧹
䪞
一
丁
丂
七
丄
丅
丆
万
丈
三
上
下
丌
不
与
丏
丐
丑
专
且
丕
世
丘
丙
业
东
丞
丟
両
丢
丣
两
严
並
丨
丩
个
丫
丬
中
丮
丰
丱
串
丵
丶
丷
丸
丹
为
主
丽
举
丿
乀
乂
乃
久
乆
乇
么
义
之
乌
乍
乎
乏
乐
乑
乔
乖
乗
乘
乙
乚
乛
乜
九
乞
也
习
乡
书
乳
乾
亀
亂
亅
了
亇
予
争
事
二
亍
于
亏
亐
云
互
亓
五
井
亘
亙
亚
些
亜
亞
亟
亠
亡
亢
交
亥
亦
产
亨
亩
享
京
亭
亮
亯
亰
亲
亳
亶
亷
人
亻
亼
亾
什
仁
仅
仇
今
介
仌
仍
从
仐
仑
仒
仓
仔
仕
他
仗
付
仙
仝
代
令
以
们
仰
仲
件
任
仼
份
仿
企
伊
伍
伎
伏
伐
休
众
伙
会
伝
伟
伦
伯
估
伴
伶
伸
伺
似
伽
但
佇
佈
位
低
住
佐
佑
体
佔
何
佗
佘
余
佛
作
你
佥
佩
佬
佰
佳
併
佼
使
來
侈
例
侌
侍
侑
侖
供
依
侧
侯
侵
侶
便
係
促
俄
俊
俏
俐
俗
俘
保
俞
俠
信
修
俯
俱
俳
俸
俾
倆
倉
個
倍
們
倒
倖
倘
候
倚
借
倠
倡
倦
倫
倭
值
假
偉
偏
偕
做
停
健
側
偵
偶
偷
偽
傀
傅
傍
傑
傘
備
傢
傣
催
傭
傲
傳
債
傷
傻
傾
僅
僉
像
僑
僕
僚
僥
僧
僱
僵
價
僻
儀
儂
億
儆
儉
儒
儘
償
儡
優
儲
儷
儼
儿
兀
允
兂
元
兄
充
兆
兇
先
光
兊
克
兌
免
兑
兒
兓
兔
党
兜
兟
入
內
全
兩
兪
八
公
六
兮
兰
共
关
兴
兵
其
具
典
兹
兼
冀
冂
冃
冄
内
円
冇
冈
冉
冊
冋
册
再
冎
冏
冐
冒
冓
冕
冖
冗
冘
写
军
农
冝
冠
冡
冤
冥
冫
冬
冰
冲
冶
冷
冽
准
凈
凋
凌
凍
凜
凝
几
凡
凢
凰
凱
凵
凶
凷
凸
凹
出
击
函
凾
刀
刁
刂
刃
刄
刅
分
切
刊
刍
刑
划
刕
刖
列
刘
则
创
初
判
別
刨
利
刪
别
刮
到
制
刷
券
刺
刻
剃
則
削
剌
前
剖
剛
剝
剡
剧
剩
剪
剮
副
割
創
剽
剿
劃
劇
劈
劉
劍
劑
力
办
功
加
劣
劦
动
助
努
劫
劳
劵
勁
勃
勇
勉
勒
動
勘
務
勝
勞
募
勢
勤
勳
勵
勸
勹
勺
勻
勾
勿
匀
匂
包
匆
匈
匊
匋
匍
匏
匐
匕
化
北
匙
匚
匝
匠
匡
匪
匯
匱
匸
匹
区
医
匽
匿
區
十
卂
千
卄
卅
卆
升
午
卉
半
卌
华
卑
卒
卓
協
单
卖
南
単
博
卜
卝
卞
占
卡
卢
卣
卤
卦
卩
卪
卬
卯
印
危
即
却
卵
卷
卸
卻
卽
卿
厂
厃
厄
历
厈
厉
厌
厓
厘
厚
厝
原
厤
厥
厨
厭
厲
厶
厷
厸
去
厼
厽
叀
参
參
叅
又
叉
及
友
双
反
叐
发
叒
叔
叕
取
受
变
叚
叛
叜
叟
叢
口
古
句
另
叨
叩
只
叫
召
叭
叮
可
台
叱
史
右
叵
号
司
叹
叻
吂
吃
各
吅
合
吉
吊
吋
同
名
后
吏
吐
向
吕
君
吝
吞
吟
吠
否
吧
含
启
吳
吴
吵
吶
吸
吹
吻
吼
吾
呀
呂
呆
呈
告
呎
员
呙
呢
周
呱
味
呵
呼
命
咀
咄
咅
咆
和
咎
咒
咔
咕
咖
咠
咢
咨
咪
咫
咬
咯
咱
咲
咳
咸
咼
咽
哀
品
哆
哇
哈
哉
員
哥
哦
哨
哩
哪
哭
哮
哲
哺
唆
唇
唉
唐
唧
售
唯
唱
唷
唸
唾
啄
商
啇
啊
問
啚
啜
啞
啟
啡
啤
啥
啦
啬
啻
啾
喀
善
喆
喇
喉
喊
喋
喔
喘
喙
喚
喜
喝
喧
喨
喪
喫
喬
單
喱
喳
喻
喿
嗅
嗇
嗉
嗎
嗓
嗖
嗚
嗜
嗝
嗡
嗣
嗩
嗹
嗽
嘀
嘆
嘉
嘎
嘔
嘗
嘛
嘟
嘮
嘯
嘲
嘴
嘶
嘹
嘻
噁
噝
噢
器
噩
噪
噬
噯
噴
噶
噸
噹
嚇
嚎
嚏
嚐
嚓
嚕
嚙
嚥
嚨
嚮
嚴
嚼
囂
囉
囊
囑
囒
囓
囗
囘
囙
囚
四
回
囟
因
团
団
囧
囬
困
囱
囷
固
国
图
圂
圃
圅
圈
國
圍
圏
園
圓
圖
團
土
圡
圣
圥
在
圭
圮
地
圳
圶
场
圼
圾
址
坂
均
坊
坌
坍
坎
坐
坑
坒
块
坚
坡
坤
坦
坨
坪
坴
坵
垂
垃
型
垔
垚
埀
埂
埃
埋
城
埔
域
埠
埡
埤
埶
執
培
基
埼
堂
堅
堆
堇
堊
堡
堤
堪
堯
報
場
堵
堺
塊
塌
塑
塔
塗
塘
塚
塞
塢
塩
填
塱
塵
塹
境
墅
墊
墓
墜
增
墨
墩
墬
墮
墳
墾
壁
壇
壑
壓
壘
壞
壟
壠
壢
壤
壩
士
壬
壯
声
壳
壴
壹
壺
壽
夂
处
夅
夆
备
変
夊
夋
夌
复
夏
夒
夕
外
夗
夘
多
夜
够
夠
夢
夥
大
夨
天
太
夫
夬
夭
央
失
夲
头
夷
夸
夹
夻
夾
奂
奄
奇
奈
奉
奎
奏
奐
契
奓
奔
奕
套
奚
奞
奠
奢
奥
奧
奪
奬
奭
奮
女
奴
奶
奸
她
奻
好
如
妃
妄
妊
妍
妒
妓
妖
妙
妝
妞
妟
妥
妨
妮
妳
妹
妻
妾
姆
姊
始
姐
姑
姓
委
姚
姜
姦
姨
姫
姬
姻
姿
威
娃
娄
娑
娓
娘
娛
娜
娟
娠
娩
娶
娼
婁
婆
婉
婕
婚
婦
婪
婭
婴
婷
婻
婿
媒
媚
媧
媲
媳
媼
媽
嫁
嫂
嫉
嫌
嫘
嫩
嫰
嫻
嬉
嬌
嬤
嬰
嬴
嬸
孀
孃
子
孑
孔
孕
孖
字
存
孚
孛
孝
孟
孢
季
孤
学
孩
孫
孰
孱
孳
孵
學
宀
宁
宂
它
宅
宇
守
安
宋
完
宏
宓
宕
宗
官
宙
定
宛
宜
宝
实
実
客
宣
室
宮
宰
害
宴
宵
家
容
宾
宿
寂
寄
寅
密
寇
富
寐
寒
寓
寞
察
寡
寢
實
寧
寨
審
寫
寬
寮
寰
寵
寶
寸
对
寺
寻
寽
対
寿
封
尃
射
将
將
專
尉
尊
尋
尌
對
導
小
少
尒
尓
尔
尖
尗
尚
尞
尢
尣
尤
尧
尨
尭
就
尸
尹
尺
尻
尼
尽
尾
尿
局
屁
居
屆
屈
屋
屍
屎
屏
屐
屑
展
屖
屚
属
屠
屡
屢
層
履
屬
屮
屯
屰
山
屵
屹
屾
岁
岂
岐
岑
岔
岡
岩
岬
岱
岳
岸
峙
峨
峭
峯
峰
峴
島
峻
峽
崁
崇
崎
崐
崑
崔
崖
崗
崙
崛
崢
崩
崮
崽
嵇
嵌
嵙
嵬
嶄
嶇
嶲
嶺
嶼
嶽
巂
巍
巒
巔
巖
巛
川
州
巟
巠
巡
巢
巤
工
左
巧
巨
巩
巫
差
己
已
巳
巴
巷
巸
巻
巽
巾
巿
帀
市
布
帆
希
帕
帖
帚
帛
帝
帥
带
師
席
帳
帶
常
帽
幅
幕
幗
幟
幢
幣
幫
干
平
年
幵
并
幷
幸
幹
幺
幻
幼
幽
幾
广
広
庄
庇
床
序
应
底
店
庚
府
度
座
庫
庭
庶
康
庸
廁
廂
廈
廉
廊
廌
廓
廖
廚
廛
廟
廠
廢
廣
廨
廩
廬
廳
廴
延
廷
建
廾
廿
开
弁
弃
弄
弇
弊
弋
式
弓
弔
引
弗
弘
弜
弟
弥
弦
弧
弱
張
強
强
弾
彈
彊
彌
彎
彐
彑
归
当
彔
录
彖
彗
彙
彡
形
彤
彥
彦
彧
彩
彬
彭
彰
影
彳
彷
役
彼
彿
往
征
待
很
徊
律
後
徏
徐
徑
徒
得
徘
徙
從
御
復
循
微
徵
德
徹
徽
心
忄
必
忆
忌
忍
忒
志
忘
忙
忝
忠
忩
快
念
忽
忿
怎
怒
怔
怕
怖
思
怠
怡
急
性
怨
怪
怯
怱
恆
恋
恍
恐
恒
恕
恢
恣
恥
恨
恩
恭
息
恰
恿
悄
悅
悉
悍
悔
悟
悠
患
悤
您
悲
悶
悸
悼
情
惑
惕
惜
惟
惠
惡
惢
惰
惱
想
惹
惺
愁
愈
愉
意
愚
愛
感
愧
慈
態
慌
慎
慕
慘
慢
慣
慧
慨
慫
慮
慰
慵
慶
慷
慾
憂
憎
憐
憑
憤
憨
憩
憫
憲
憶
憾
懂
懇
懈
應
懦
懲
懶
懷
懸
懼
懿
戀
戈
戉
戊
戋
戌
戍
戎
戏
成
我
戒
戔
或
戚
戟
戠
戢
戦
截
戮
戰
戲
戳
戴
戶
户
戹
戼
戾
房
所
扁
扇
手
扌
才
扎
打
扔
托
扛
扞
扣
扦
执
扭
扮
扯
扶
批
扼
找
承
技
抄
把
抑
抓
投
抖
抗
折
抛
报
披
抬
抱
抵
抹
押
抽
拂
拆
拇
拉
拋
拌
拍
拏
拐
拒
拓
拔
拖
拗
拘
拚
招
拜
括
拭
拯
拱
拳
拴
拼
拾
拿
持
指
按
挑
挖
挨
挪
挫
振
挹
挺
挽
挾
捆
捉
捍
捐
捕
换
捧
捨
捩
据
捲
捷
掀
掃
掇
授
掉
掌
排
掘
掙
掛
掠
採
探
接
控
推
掩
措
揉
描
提
插
揚
換
握
揪
揭
揮
援
揹
損
搏
搓
搖
搗
搜
搞
搬
搭
搶
摁
摔
摘
摧
摩
摯
摸
摺
摻
撈
撐
撒
撓
撕
撞
撣
撤
撥
撩
撫
播
撮
撰
撲
撼
撿
擁
擂
擄
擅
擇
擊
擋
操
擎
擔
據
擠
擦
擬
擱
擲
擴
擺
擾
攀
攔
攘
攜
攝
攣
攤
攪
攫
攬
支
攴
攵
收
攸
改
攻
放
政
敄
故
效
敌
敎
敏
救
敕
敖
敗
敘
教
敝
敞
敢
散
敦
敫
敬
数
敲
整
敵
敷
數
斂
斃
文
斉
斊
斌
斐
斑
斕
斗
料
斜
斟
斡
斤
斥
斧
斩
斬
斯
新
斷
方
於
施
斿
旁
旃
旅
旋
族
旗
无
旡
既
旣
日
旦
旧
旨
早
旬
旭
旮
旱
旲
旳
时
旺
旻
旾
昂
昆
昇
昌
昍
明
昏
易
昔
昗
昜
星
映
春
昧
昨
昬
昭
是
昱
昴
昶
昷
显
時
晃
晉
晋
晏
晒
晚
晝
晤
晦
晨
普
景
晰
晴
晶
智
晾
暄
暈
暑
暖
暗
暢
暨
暫
暮
暱
暴
暹
曆
曇
曉
曙
曝
曠
曩
曬
曰
曲
曳
更
曷
書
曹
曼
曾
替
最
朁
會
月
有
朋
服
朔
朕
朗
望
朝
期
朦
朧
木
朩
未
末
本
札
朮
术
朱
朴
朵
朶
机
朽
朿
杀
杆
杇
杈
杉
李
杏
材
村
杓
杖
杜
杞
束
条
来
杭
杯
杰
東
杲
杳
杵
杷
松
板
枇
枋
析
枕
林
枚
果
枝
枯
枲
架
枸
枼
柃
柄
柏
某
柑
染
柔
柚
柢
查
柩
柬
柯
柰
柱
柳
柴
柵
柿
标
栓
栗
校
栢
株
核
根
格
栽
桀
桂
桃
桄
桅
框
案
桌
桐
桑
桔
桕
桶
桼
桿
梁
梅
梆
梓
梗
條
梟
梢
梧
梨
梭
梯
械
梳
梵
检
棃
棄
棉
棋
棍
棒
棕
棘
棚
棟
棠
棥
棧
森
棱
棲
棵
棺
椅
植
椎
椒
椪
椰
椴
椹
椿
楊
楓
楔
楕
楚
楝
楠
楤
楨
楬
業
楯
極
楷
楸
楽
概
榆
榔
榕
榜
榨
榮
榴
榷
構
槌
槍
槐
槓
様
槳
槽
槿
樁
樂
樊
樑
樓
標
樞
樟
模
樣
樨
権
樸
樹
樺
橄
橇
橈
橋
橘
橙
機
橡
橢
橫
檀
檄
檐
檔
檗
檜
檢
檬
檯
檳
檸
櫃
櫓
櫚
櫟
櫥
櫸
櫻
欄
權
欖
欠
次
欢
欣
欧
欮
欲
欶
欺
欽
款
歆
歇
歉
歌
歎
歐
歛
歡
止
正
此
步
武
歧
歨
歪
歮
歯
歰
歲
歳
歴
歷
歸
歹
歺
死
殆
殉
殊
殖
殘
殲
殳
段
殷
殸
殹
殺
殻
殼
殿
毀
毅
毋
毌
母
每
毐
毒
比
毕
毗
毚
毛
毫
毯
毳
氈
氏
氐
民
氓
气
気
氛
氣
氧
氨
氫
氮
氰
水
氵
氶
氷
永
氹
氺
氾
汀
汁
求
汎
汐
汕
汗
汙
汝
汞
江
池
污
汨
汩
汪
汰
汲
汶
決
汽
沁
沃
沈
沉
沐
沒
沓
沖
沙
沛
沝
没
沫
沮
河
沸
油
治
沼
沾
沿
況
泄
泉
泊
泌
法
泛
泡
波
泣
泥
注
泰
泳
洄
洋
洗
洛
洞
津
洩
洪
洲
洶
活
洼
洽
派
流
浙
浦
浩
浪
浮
浴
海
浸
涂
涅
消
涉
涎
涕
涯
液
涵
涸
涼
淆
淇
淋
淑
淒
淖
淘
淚
淡
淤
淨
淪
淫
淮
深
淳
淵
混
淹
淺
添
清
渚
減
渝
渠
渡
渣
渤
渥
渦
温
測
港
渴
游
渾
湄
湊
湖
湘
湛
湧
湮
湯
湳
湾
溉
源
準
溜
溝
溢
溪
溫
溯
溶
溺
溼
滂
滄
滅
滇
滋
滑
滕
满
滯
滲
滴
滷
滾
滿
漁
漂
漆
漏
演
漠
漢
漣
漫
漬
漲
漳
漸
漿
潑
潔
潘
潛
潟
潢
潤
潦
潭
潮
潰
潺
澀
澄
澆
澇
澈
澎
澡
澤
澱
澳
澹
激
濁
濂
濃
濕
濘
濟
濤
濫
濱
瀉
瀏
瀑
瀕
瀚
瀛
瀝
瀟
瀧
瀰
瀾
灌
灑
灘
灣
火
灬
灭
灰
灵
灷
灼
災
炅
炊
炎
炏
炒
炗
炙
炫
炭
炮
炳
炸
点
為
烈
烏
烘
烝
烤
烯
烷
烹
烽
焉
焙
焚
無
焦
焰
焱
然
煉
煌
煎
煙
煜
煞
煤
煥
照
煩
煮
煲
煺
熄
熊
熏
熒
熔
熙
熟
熬
熱
熾
燃
燈
燉
燒
燕
燙
營
燥
燦
燬
燭
燮
燼
爆
爍
爐
爛
爪
爫
爬
爭
爯
爰
爱
爲
爵
父
爸
爺
爻
爽
爾
爿
牆
片
版
牌
牙
牚
牛
牜
牟
牠
牡
牢
牧
物
牪
牯
牲
特
牻
牽
犀
犁
犛
犢
犧
犬
犭
犮
犯
状
狀
狂
狄
狊
狍
狎
狐
狒
狗
狠
狡
狩
独
狸
狹
狺
狼
猋
猒
猖
猛
猜
猝
猩
猪
献
猴
猶
猷
猾
猿
獄
獅
獎
獐
獗
獠
獨
獲
獵
獸
獺
獻
獼
玄
率
玉
王
玎
玟
玨
玩
玫
现
玲
玻
珀
珊
珍
珎
珠
班
珮
現
球
琅
理
琉
琢
琥
琦
琪
琳
琴
瑄
瑋
瑕
瑙
瑚
瑜
瑞
瑟
瑣
瑤
瑩
瑪
瑯
瑰
璀
璃
璉
璜
璞
璟
璦
璧
璨
璫
環
瓊
瓏
瓜
瓢
瓣
瓦
瓶
瓷
甕
甘
甚
甜
生
產
産
甥
甦
用
甩
甫
甬
田
由
甲
申
电
甶
男
甸
甹
町
画
甾
畀
界
畏
畐
畔
留
畜
畝
畟
畢
略
畦
畧
畨
番
畫
畬
異
畱
當
畸
畺
畾
疆
疇
疊
疋
疌
疏
疑
疒
疔
疙
疚
疝
疣
疤
疥
疫
疬
疲
疳
疵
疸
疹
疼
疽
疾
痂
病
症
痊
痍
痔
痕
痙
痛
痞
痢
痣
痰
痴
痹
痺
痼
瘀
瘋
瘍
瘓
瘙
瘟
瘠
瘡
瘤
瘦
瘧
瘰
瘴
癀
療
癌
癒
癜
癢
癤
癧
癩
癪
癬
癮
癰
癱
癶
癸
癹
登
發
白
百
皀
皂
皃
的
皆
皇
皈
皋
皐
皕
皚
皮
皰
皷
皺
皿
盃
盆
盇
盈
益
盍
盎
监
盒
盔
盖
盛
盜
盞
盟
盡
監
盤
盧
盪
目
盯
盲
直
相
盹
盼
盾
省
眇
眉
看
県
眔
眞
真
眠
眨
眩
眶
眷
眺
眼
眾
着
睏
睘
睛
睜
睞
睡
督
睦
睪
睹
睽
睿
瞎
瞏
瞢
瞥
瞪
瞬
瞭
瞰
瞳
瞼
瞿
矍
矗
矚
矛
矞
矢
矣
知
矦
矩
短
矮
矯
石
码
砂
砌
砍
研
砰
砲
破
砷
硝
硫
硬
确
硰
碉
碌
碎
碑
碗
碟
碧
碩
碰
碳
確
碼
碾
磁
磅
磊
磚
磨
磯
磷
磺
礁
礎
礑
礙
礦
礫
礬
示
礻
礼
社
祀
祂
祆
祇
祈
祉
祐
祕
祖
祗
祚
祛
祝
神
祟
祠
祢
祥
票
祭
祿
禀
禁
禍
福
禦
禧
禪
禮
禱
禸
禹
禺
离
禽
禾
禿
秀
私
秃
秉
秋
科
秒
秘
秝
租
秦
秧
秩
称
移
稀
稅
程
稍
稔
稚
稜
稟
稠
種
稱
稷
稻
稽
稿
穀
穆
穌
積
穎
穗
穢
穩
穫
穴
究
穷
穹
空
穿
突
窄
窒
窓
窖
窗
窟
窩
窪
窮
窺
竄
竊
立
竒
站
竜
竝
竟
章
竣
童
竭
端
競
竹
竿
笆
笈
笑
笛
笠
符
笨
第
筆
等
筋
筍
筏
筐
筒
答
策
筠
箕
算
管
箭
箱
箴
節
範
篇
築
篡
篤
篦
篩
篭
篷
簇
簍
簑
簡
簧
簷
簽
簾
簿
籃
籌
籍
籐
籠
籤
籬
籲
米
类
籽
粉
粒
粗
粘
粛
粟
粤
粥
粦
粱
粲
粵
粹
粼
粽
精
粿
糊
糍
糕
糖
糙
糞
糟
糠
糧
糬
糯
糰
糸
糹
系
糾
紀
約
紅
紋
納
紐
純
紗
紙
級
紛
素
紡
索
紫
紮
累
細
紳
紵
紹
終
組
絆
結
絕
絜
絞
絡
絢
給
絨
絫
絮
統
絲
絶
綁
經
綜
綠
綢
綫
維
綱
網
綴
綸
綺
綻
綽
綾
綿
緊
緋
総
緑
緒
線
緝
緞
締
緣
編
緩
緬
緯
緱
練
緻
縁
縄
縛
縣
縫
縮
縱
總
績
繁
繆
繇
織
繖
繚
繞
繡
繩
繪
繫
繭
繳
繹
繼
繽
纂
續
纍
纏
纓
纖
纟
红
约
纲
纳
绍
经
结
给
统
继
续
维
编
缶
缸
缺
罐
网
罒
罔
罕
罗
罙
罠
罡
罢
罨
罩
罪
置
罰
署
罵
罷
罹
羅
羈
羊
羌
羍
美
羔
羕
羗
羚
羞
羡
羣
群
羨
義
羲
羶
羸
羹
羽
羿
翁
翅
翌
翎
翏
習
翔
翕
翟
翠
翡
翩
翰
翹
翻
翼
耀
老
耂
考
者
耆
而
耍
耎
耐
耑
耒
耕
耗
耘
耙
耳
耴
耶
耷
聂
聆
聊
职
聖
聘
聚
聞
聯
聰
聲
聳
聶
職
聽
聾
聿
肀
肃
肅
肆
肉
肋
肌
肖
肘
肙
肚
肛
肝
股
肢
肥
肩
肪
肯
育
肴
肺
胃
背
胎
胖
胚
胞
胡
胥
胱
胳
胸
胺
能
脂
脅
脆
脇
脈
脊
脖
脘
脛
脣
脩
脫
脱
脷
脹
脾
腋
腎
腐
腑
腓
腔
腕
腥
腦
腫
腮
腰
腱
腳
腴
腸
腹
腺
腾
腿
膀
膊
膏
膚
膛
膜
膝
膠
膨
膩
膳
膽
膾
膿
臀
臂
臉
臍
臓
臘
臟
臣
臤
臥
臧
臨
自
臬
臭
臯
臱
至
致
臺
臼
臽
臾
臿
舀
舂
舄
舅
與
興
舉
舊
舌
舍
舐
舒
舔
舖
舛
舜
舞
舟
舢
舨
航
般
舰
舶
船
舺
艇
艋
艘
艙
艦
艮
良
艱
色
艷
艸
艹
艺
艾
芋
芎
芒
芔
芙
芝
芥
芫
芬
芭
芮
花
芳
芸
芹
芺
芻
芽
苓
苔
苗
苛
苞
苟
苡
苣
若
苦
苧
苯
英
苳
苴
苷
苺
茂
范
茄
茅
茉
茎
茜
茨
茫
茱
茲
茴
茵
茶
茸
茼
荀
荅
草
荊
荒
荔
荖
荣
荳
荷
荻
荼
荽
莆
莉
莊
莎
莓
莖
莘
莛
莠
莢
莧
莫
莱
获
莽
莿
菀
菁
菅
菆
菇
菊
菌
菐
菖
菜
菝
菠
菩
華
菱
菲
菸
菹
萁
萃
萄
萊
萌
萍
萎
萜
萧
萬
萱
萵
萸
萼
落
葆
葇
葉
葖
著
葚
葛
葡
董
葦
葫
葬
葯
葵
葶
蒂
蒐
蒙
蒜
蒞
蒦
蒲
蒴
蒸
蒺
蒼
蒾
蒿
蓁
蓄
蓆
蓇
蓉
蓊
蓋
蓑
蓖
蓬
蓮
蓺
蓼
蔏
蔑
蔓
蔔
蔗
蔘
蔚
蔡
蔣
蔥
蔬
蔭
蔯
蔻
蔽
蕁
蕃
蕉
蕊
蕗
蕘
蕙
蕞
蕨
蕩
蕪
蕭
蕺
蕾
薄
薇
薈
薊
薏
薑
薔
薛
薦
薩
薪
薬
薯
薰
薺
薾
藉
藍
藏
藕
藜
藝
藤
藥
藪
藷
藻
藿
蘄
蘆
蘇
蘊
蘋
蘚
蘭
蘹
蘿
虍
虎
虐
虒
虔
處
虖
虗
虘
虚
虛
虜
虞
號
虧
虫
虹
虽
蚊
蚌
蚓
蚜
蚣
蚤
蚩
蚯
蚱
蚶
蚺
蛀
蛇
蛋
蛐
蛔
蛙
蛛
蛞
蛤
蛭
蛹
蛻
蛾
蜀
蜂
蜇
蜈
蜍
蜒
蜓
蜘
蜙
蜚
蜜
蜢
蜥
蜴
蜻
蜿
蝉
蝓
蝕
蝗
蝙
蝠
蝦
蝨
蝮
蝴
蝶
蝸
螂
螃
螄
融
螘
螞
螢
螫
螯
螳
螺
螽
蟀
蟄
蟆
蟋
蟑
蟒
蟙
蟥
蟬
蟯
蟲
蟳
蟹
蟻
蟾
蠅
蠊
蠓
蠕
蠟
蠡
蠢
蠶
蠹
蠻
血
行
衍
術
街
衛
衝
衞
衡
衣
衤
表
衫
衮
衰
衷
衹
袁
袋
袍
袒
袖
袞
袪
被
袱
裁
裂
装
裏
裔
裕
裘
裙
補
裝
裡
裨
裳
裴
裸
裹
製
複
褐
褒
褪
褭
褱
褲
褶
襄
襖
襟
襯
襲
襾
西
覀
要
覃
覆
見
規
覓
視
覧
親
観
覺
覽
觀
见
规
角
解
觸
言
訁
訂
訇
計
訊
訌
討
訓
託
記
訛
訝
訟
訣
訥
訪
設
許
訴
診
註
詐
評
詛
詞
詠
詢
試
詩
詭
詮
話
該
詳
詹
詼
誇
誌
認
誓
誕
誘
語
誠
誡
誤
誦
誨
誩
說
説
誰
課
誼
調
談
請
諒
論
諛
諜
諧
諮
諱
諷
諸
諺
諾
謀
謂
謊
謔
謙
講
謝
謠
謬
謹
證
譎
譏
識
譚
譜
警
譯
議
譴
護
譽
讀
變
讓
讚
讞
讠
计
认
讨
让
记
讲
许
论
设
识
词
诗
该
语
误
说
请
调
谟
谣
谦
谷
豁
豆
豈
豉
豊
豌
豎
豐
豔
豕
豖
豙
豚
象
豢
豦
豩
豪
豫
豬
豸
豹
貇
貌
貍
貓
貝
貞
貟
負
財
貢
貧
貨
販
貪
貫
責
貯
貳
貴
貶
買
貸
費
貼
貿
賀
賁
資
賈
賊
賏
賓
賔
賛
賜
賞
賡
賢
賣
賤
賦
質
賭
賴
賺
購
賽
贅
贈
贊
贏
贓
贖
贛
贝
贡
责
质
贯
贲
贵
费
赖
赞
赤
赦
赫
走
赴
赵
起
趁
超
越
趕
趙
趟
趣
趨
足
趴
趾
跋
跌
跑
跖
跗
距
跟
跡
跨
跪
路
跳
跺
踏
踐
踞
踢
踩
蹄
蹇
蹈
蹟
蹤
蹲
蹶
蹺
躁
躇
躊
躋
躍
身
躬
躲
躺
軀
車
軋
軌
軍
軎
軒
軛
軟
転
軸
軼
軾
較
載
輔
輕
輛
輝
輦
輩
輪
輯
輸
輻
輾
輿
轄
轆
轉
轟
轤
车
轩
辑
输
辛
辜
辟
辣
辥
辦
辨
辭
辯
辰
辱
農
辵
辶
边
达
迄
迅
过
迎
近
返
这
进
连
迦
迪
迫
迭
述
迴
迷
迹
迺
追
退
送
适
逃
逅
逆
逍
透
逐
途
逕
逗
這
通
逛
逝
逞
速
造
逢
連
逮
週
進
逸
逼
逾
遀
遂
遇
遊
運
遍
過
遐
道
達
違
遗
遙
遛
遜
遞
遠
遣
適
遭
遮
遲
遴
遵
遶
遷
選
遺
遼
遽
避
邀
邁
邂
邃
還
邇
邊
邏
邑
邕
那
邦
邨
邪
邯
邱
邵
邸
郁
郊
郎
郡
郤
部
郭
郵
郷
都
鄂
鄉
鄒
鄧
鄭
鄰
鄲
酆
酉
酋
配
酒
酓
酗
酚
酢
酣
酥
酪
酬
酯
酵
酶
酷
酸
醃
醇
醉
醋
醒
醚
醛
醜
醣
醫
醬
釀
釆
采
釋
里
重
野
量
釐
金
釒
釘
針
釣
鈉
鈍
鈔
鈣
鈴
鈷
鈾
鉀
鉄
鉅
鉛
鉤
銀
銃
銅
銓
銘
銜
銳
銷
銹
銻
鋁
鋅
鋏
鋒
鋤
鋪
鋸
鋼
錀
錄
錐
錕
錘
錠
錢
錦
錩
錫
錮
錯
録
錳
錶
鍊
鍋
鍛
鍥
鍬
鍵
鍾
鎂
鎊
鎌
鎖
鎗
鎚
鎢
鎬
鎮
鏈
鏟
鏡
鏢
鏽
鐘
鐡
鐮
鐵
鐸
鐺
鑄
鑑
鑒
鑛
鑰
鑲
鑼
鑽
鑾
鑿
钅
针
链
错
長
镸
长
門
閃
閉
開
閏
閑
閒
間
閔
閘
閣
閩
閱
閵
閻
闆
闊
闌
闖
關
闢
门
间
闷
闻
阑
阜
阝
队
阡
阪
阮
阯
阱
防
阻
阿
陀
陂
附
陋
陌
降
限
陛
陝
陡
院
陣
除
陪
陰
陳
陵
陶
陷
陸
陽
隅
隆
隊
隋
階
隔
隘
隙
際
障
隠
隡
隧
隨
險
隱
隶
隸
隹
隺
隻
隼
隽
难
雀
雁
雄
雅
集
雇
雈
雉
雋
雌
雍
雐
雔
雕
雖
雙
雚
雛
雜
雝
雞
離
難
雨
雩
雪
雯
雲
零
雷
電
需
霆
震
霍
霖
霜
霝
霞
霧
露
霸
霹
靂
靈
靑
青
靖
静
靚
靛
靜
非
靠
靡
面
靣
靨
革
靴
靶
靼
鞋
鞍
鞏
鞘
鞠
鞦
鞭
韃
韆
韋
韌
韓
韦
韭
韯
韱
音
韵
韶
韻
響
頁
頂
頃
項
順
須
頌
預
頑
頒
頓
頗
領
頜
頡
頤
頦
頭
頰
頷
頸
頹
頻
顆
題
額
顎
顏
顔
願
顛
類
顧
顫
顯
顱
顳
页
项
题
额
風
颱
颶
飄
飆
风
飛
飞
食
飠
飢
飪
飯
飲
飼
飽
飾
餅
餉
養
餌
餐
餒
餓
餘
餚
餞
餡
館
餵
饅
饑
饒
饗
饣
首
馗
馘
香
馨
馬
馮
馱
馳
馴
駁
駐
駕
駛
駝
駦
駱
駿
騎
騙
騫
騮
騰
騷
騾
驅
驕
驗
驚
驟
驢
马
骨
骷
骸
骼
髏
髒
髓
體
高
髟
髦
髮
髻
鬆
鬍
鬚
鬣
鬥
鬧
鬮
鬯
鬱
鬲
鬼
魁
魂
魄
魅
魈
魏
魔
魚
魟
魨
魯
魴
鮑
鮪
鮭
鮮
鯉
鯊
鯨
鯪
鯰
鰍
鰓
鰗
鰡
鰭
鰻
鱈
鱉
鱔
鱗
鱧
鱷
鱼
鲁
鲜
鳥
鳩
鳯
鳳
鳴
鳶
鳽
鴉
鴛
鴞
鴣
鴦
鴨
鴰
鴻
鴿
鵑
鵜
鵝
鵟
鵡
鵪
鵬
鵯
鵰
鵲
鶉
鶏
鶩
鶴
鶺
鷓
鷗
鷚
鷥
鷲
鷴
鷹
鷺
鸓
鸚
鸛
鸞
鸟
鹵
鹹
鹼
鹽
鹿
麂
麃
麒
麓
麗
麝
麟
麥
麦
麴
麵
麻
麼
麽
黃
黄
黇
黍
黎
黏
黑
黒
默
黛
黜
黝
點
黠
黨
黴
黹
黽
黾
鼎
鼓
鼠
鼬
鼯
鼴
鼷
鼻
鼾
齊
齋
齐
齒
齡
齣
齦
齧
齶
齿
龄
龍
龐
龙
龜
龟
龠
龰
龱
龴
龵
龶
龷
龸
龹

者
艹
︰
︱
﹐
﹗
﹙
﹚
﹝
﹞
﹪
﻿
！
＂
％
＇
（
）
＋
，
－
．
／
０
２
３
４
６
：
；
？
［
］
＿
ａ
ｍ
ｑ
｜
～
｣
�
𐌰
𐌹
𒀝
𒅗
🆗
🎆
𠀁
𠀃
𠀆
𠀉
𠀎
𠀐
𠁁
𠁣
𠂆
𠂇
𠂈
𠂉
𠂊
𠂋
𠂎
𠂒
𠂔
𠂛
𠂡
𠂢
𠂤
𠂬
𠂭
𠂹
𠃊
𠃋
𠃌
𠃍
𠃎
𠃑
𠃓
𠃔
𠃜
𠄌
𠄎
𠄠
𠄢
𠆢
𠆥
𠇍
𠈌
𠌵
𠓜
𠔉
𠔥
𠔼
𠔽
𠔿
𠕀
𠕁
𠕋
𠘧
𠘨
𠙻
𠙼
𠚏
𠚒
𠚤
𠚪
𠣏
𠤎
𠤕
𠥓
𠦄
𠦑
𠦝
𠧒
𠧗
𠧪
𠩺
𠪚
𠫓
𠫔
𠫤
𠬛
𠬝
𠬞
𠬢
𠬤
𠬶
𠮛
𠮦
𠮷
𠯑
𠱠
𠳮
𠷎
𡈼
𡉀
𡉵
𡌥
𡍮
𡏳
𡕒
𡕩
𡕰
𡖅
𡗗
𡗜
𡘆
𡘤
𡧱
𡨄
𡩧
𡬠
𡭽
𡰣
𡰥
𡰪
𡰯
𡰱
𡷈
𡸁
𡿨
𡿩
𡿪
𡿺
𢀖
𢀛
𢀩
𢁙
𢆉
𢆰
𢆶
𢇁
𢇇
𢉖
𢌬
𢌿
𢏚
𢑑
𢑚
𢖻
𢙣
𢛳
𢦏
𢦒
𢧵
𢼄
𢾕
𣁋
𣄼
𣅀
𣅽
𣍘
𣎳
𣎵
𣏋
𣏼
𣗥
𣥂
𣥖
𣦵
𣦼
𣧄
𣪊
𣪠
𣬉
𣳾
𣶒
𤇾
𤊽
𤐫
𤓰
𤔔
𤕨
𤣩
𤰇
𤰔
𤰞
𤴓
𤴔
𤽄
𥁑
𥁕
𥃦
𥃩
𥃭
𥇡
𥑟
𥘅
𥘈
𥝢
𥫗
𥱡
𦈢
𦉪
𦉬
𦉼
𦍌
𦍒
𦎧
𦐇
𦓔
𦔮
𦘒
𦙃
𦚏
𦣝
𦣞
𦣻
𦥑
𦥔
𦥯
𦨉
𦭝
𦰩
𧆞
𧈧
𧘇
𧰨
𧴪
𧴮
𧵩
𧾷
𨸏
𨾴
𩙿
𩠐
𩫏
𩵋
𪉷
𪜀
𪟽
𪠲
𪩲
𫇦
𫔭
𫜸
𫝀
𫠣
𫠩
𫢉
𫥞
𫩏
𫩠
𫪡
𫲽
𫶧
𬀷
𬐘
𬗌
𬙙
𬛸
𬜯
𬟩
𬯁
𬴘
𬺻
𬼉
𬼖
𭀰
𭁈
𭁨
𭅰
𭑈
𭕄
𭗼
𭤨
𭥫
𭻾
𮅕
𮊿
𮍌
𮍏
𮓗
𮥼
𮧮
廾
𰀁
𰀄
𰀈
𰀉
𰀕
𰀠
𰀡
𰀢
𰀪
𰁜
𰃮
𰆊
𰆘
𰋙
𰕎
𰢴
𰧭
𰯲
00--
01--
05--
07--
09--
14--
18--
31--
51--
53--
5390--
54--
67--
68--
76--
81--
82--
83--
97--
98--
99--
a--
aa--
ab--
abu--
ac--
aca--
acce--
accu--
aci--
acti--
ad--
ada--
add--
ade--
adi--
adu--
ae--
ael--
af--
ag--
aga--
agu--
ah--
ahe--
ahi--
ai--
aimel--
ain--
air--
ak--
aka--
akak--
aku--
al--
ala--
ale--
alek--
ali--
all--
alt--
alu--
am--
ama--
amala--
ami--
amicu--
amis--
amisa--
amu--
an--
ana--
and--
ang--
ani--
anika--
anipi--
ant--
anu--
ao--
ap--
apa--
api--
appea--
appl--
apu--
ar--
ara--
archi--
arg--
args--
ari--
aru--
as--
asa--
ash--
asi--
asp--
astr--
asu--
at--
ata--
ate--
ati--
atu--
au--
auto--
aux--
av--
aw--
ay--
aya--
az--
b--
ba--
baba--
babuy--
bad--
bae--
bag--
bah--
bai--
bal--
bala--
bali--
ball--
balu--
ban--
bang--
bar--
bas--
bat--
bau--
baw--
bay--
bayu--
be--
beha--
bei--
bel--
below--
ben--
ber--
bh--
bi--
bid--
bih--
bil--
bin--
bir--
biri--
bis--
bit--
biya--
bla--
ble--
bn--
bo--
bol--
bom--
bon--
bor--
bos--
boud--
bow--
br--
brig--
bro--
bs--
bu--
buc--
buil--
buk--
bukebu--
bul--
bun--
bur--
burm--
bwa--
bwi--
by--
byzan--
c--
ca--
caay--
caayka--
caca--
cai--
caka--
cal--
camp--
can--
cang--
capi--
car--
cat--
cauca--
caw--
cay--
cayka--
cc--
ce--
cel--
cen--
ceng--
cer--
cfg--
ch--
cha--
che--
check--
chi--
chin--
cho--
chu--
ci--
cia--
cik--
cika--
cila--
ciluk--
cin--
cing--
cis--
ciu--
ciw--
cize--
cla--
claim--
claims--
cle--
clip--
clo--
co--
col--
com--
con--
consi--
coperni--
cor--
cp--
cra--
cre--
cri--
cu--
cuda--
cui--
cul--
cun--
cuo--
cur--
cus--
cy--
cya--
d--
da--
dada--
dadi--
dah--
dan--
dar--
data--
date--
daw--
day--
de--
dec--
decla--
del--
dem--
den--
des--
dhi--
dho--
di--
din--
dip--
dis--
disam--
div--
do--
doc--
docu--
dom--
dong--
dor--
dr--
dra--
dre--
dru--
du--
duo--
e--
ec--
econ--
ed--
ede--
edit--
ef--
eg--
ei--
el--
elec--
elem--
em--
emi--
en--
end--
eng--
ent--
ep--
er--
es--
escape--
estab--
et--
eu--
euro--
ever--
ex--
exc--
expl--
ext--
ey--
f--
fa--
fan--
fe--
feder--
fei--
fi--
file--
find--
flo--
fo--
folo--
for--
fr--
fu--
func--
fuo--
fur--
fy--
g--
ga--
gad--
gal--
gar--
ge--
gem--
ger--
get--
gha--
gho--
gi--
gin--
gl--
glo--
go--
gow--
gra--
gradu--
gram--
gran--
gri--
group--
gu--
guade--
gui--
gun--
h--
ha--
had--
haga--
hah--
hai--
hak--
hal--
hali--
halu--
han--
hani--
hanu--
har--
has--
haw--
hay--
he--
hei--
hel--
help--
hen--
hey--
hi--
hina--
hk--
ho--
hol--
holl--
hor--
hu--
hua--
hudhu--
hui--
hul--
hum--
hun--
huwa--
huy--
hy--
i--
ia--
iay--
ic--
ica--
ici--
id--
ida--
idaw--
ident--
idi--
ie--
if--
ig--
ii--
ik--
ika--
il--
ila--
ili--
illy--
ima--
image--
img--
imi--
imp--
impro--
in--
ina--
inc--
info--
ing--
ini--
inika--
inst--
int--
inter--
inu--
ip--
ipa--
is--
isa--
ise--
isi--
isu--
it--
ita--
itay--
ite--
iti--
iu--
iv--
iva--
ix--
iy--
iz--
iza--
izi--
j--
ja--
jam--
jau--
je--
ji--
jo--
ju--
k--
ka--
kaay--
kaba--
kaca--
kaci--
kada--
kadi--
kadung--
kahe--
kahen--
kai--
kaka--
kake--
kaki--
kaku--
kal--
kala--
kalas--
kale--
kali--
kalimu--
kalin--
kalu--
kam--
kama--
kami--
kamu--
kan--
kana--
kang--
kao--
kap--
kapa--
kape--
kapi--
kapu--
kar--
kara--
kari--
kasa--
kasasu--
kase--
kasi--
kasu--
kata--
kate--
kati--
katu--
kau--
kaw--
kawa--
kay--
kayi--
kazi--
kb--
ke--
keleke--
keluo--
ken--
ker--
ket--
key--
kha--
khe--
ki--
kia--
kida--
kika--
kila--
kilu--
kim--
kin--
kina--
kita--
kiu--
kiw--
kiy--
kk--
kn--
ko--
koi--
kol--
kom--
kon--
kong--
kow--
kpa--
kra--
ku--
kua--
kucu--
kud--
kuh--
kui--
kuka--
kul--
kula--
kule--
kuli--
kulu--
kum--
kuma--
kumi--
kumu--
kun--
kuna--
kung--
kuni--
kunipa--
kunipi--
kunu--
kuo--
kupa--
kur--
kus--
kusa--
kusi--
kut--
kuti--
kuw--
kuy--
kw--
kwa--
ky--
kya--
kyu--
l--
la--
laa--
lab--
labu--
lac--
lah--
lak--
lala--
lale--
lali--
lalu--
lam--
lan--
lang--
lao--
lar--
las--
lat--
lau--
law--
lay--
le--
lei--
len--
lh--
li--
libe--
libun--
lig--
light--
lih--
like--
lilis--
lim--
lima--
lin--
line--
ling--
link--
lip--
lis--
list--
liu--
liw--
liy--
ll--
lo--
lp--
lt--
lu--
lua--
lub--
luc--
lul--
lum--
luma--
lumelu--
lun--
luo--
lusi--
luw--
luy--
ly--
lye--
m--
ma--
maa--
maba--
mabel--
mabi--
mabu--
mabul--
mac--
maca--
macebe--
maci--
macu--
mad--
mada--
made--
madi--
mae--
mag--
mah--
mahata--
mahka--
mai--
main--
maj--
mak--
maka--
makay--
make--
maku--
mal--
mala--
male--
mali--
malu--
malusapi--
mam--
mama--
mami--
mamu--
man--
mana--
maneng--
mang--
map--
mapa--
mar--
mas--
masa--
masang--
masasu--
mase--
masi--
masu--
mat--
mata--
matches--
mate--
mati--
matu--
mau--
maw--
mawas--
may--
maya--
maza--
mba--
mbe--
mbu--
me--
mea--
mei--
mel--
men--
mer--
mero--
mg--
mi--
mia--
miba--
mica--
micae--
mical--
mice--
mici--
micu--
mid--
mida--
mie--
mih--
miha--
mihe--
mihu--
mii--
mik--
mika--
miki--
miku--
mikung--
mil--
mila--
mile--
mili--
milu--
mim--
min--
mina--
mipa--
mipah--
mipan--
mipi--
mirror--
mis--
misa--
misi--
misu--
mit--
mita--
mite--
miteng--
mitu--
miung--
miw--
miy--
miza--
mizaw--
mk--
ml--
mm--
mo--
mok--
mon--
mor--
ms--
msg--
mu--
mue--
muh--
muk--
muki--
mul--
mula--
muli--
mulu--
mum--
mun--
mung--
muo--
mupaw--
mur--
musa--
muse--
muta--
mute--
muti--
mw--
my--
n--
na--
naba--
nadi--
nag--
nai--
naka--
nama--
namaka--
namala--
nami--
namu--
nan--
nana--
nani--
nanu--
nasa--
nasi--
nau--
naw--
nay--
nayi--
nd--
ndo--
ne--
neg--
new--
ng--
nga--
ngan--
ngo--
ni--
nia--
nic--
nice--
nida--
nika--
nikala--
nikasa--
nikasi--
nikay--
niki--
niking--
niku--
nil--
nila--
nile--
nili--
nin--
nina--
nipa--
nipaha--
nipi--
nisa--
nisi--
nita--
nitu--
niu--
niw--
niy--
niya--
nl--
nn--
no--
nor--
ns--
nu--
nudi--
nui--
nuka--
num--
numa--
numi--
numuk--
nun--
nusi--
nuu--
ny--
nya--
nyi--
o--
ob--
oc--
occu--
od--
ok--
ol--
olu--
olym--
om--
on--
op--
or--
org--
orien--
orig--
os--
ou--
ow--
p--
pa--
pabi--
paca--
pace--
paci--
pacu--
pada--
padi--
padu--
pae--
page--
pah--
pahud--
pai--
pak--
paka--
pakay--
pakina--
paku--
pal--
pala--
pale--
palec--
pales--
pali--
palu--
pam--
pan--
pana--
pang--
papa--
pape--
papi--
par--
pas--
pasa--
pase--
pasin--
pasu--
pata--
pate--
pati--
patt--
pau--
paw--
paway--
pay--
pazi--
pe--
pei--
pen--
per--
ph--
phrag--
pi--
pia--
pic--
pid--
pide--
pih--
pii--
pika--
pikia--
pila--
pili--
piliw--
pin--
pina--
ping--
pis--
pisa--
pise--
pite--
pitu--
piw--
piy--
pl--
ple--
plu--
pn--
po--
pon--
pop--
poro--
pra--
pre--
pri--
princi--
print--
pro--
ps--
psilo--
pu--
puc--
pue--
pul--
pulay--
pun--
puo--
pur--
pus--
put--
puw--
py--
pye--
q--
qi--
qu--
quo--
r--
ra--
rai--
re--
red--
ree--
ref--
remo--
ren--
render--
rep--
res--
respub--
rg--
rho--
ri--
ro--
ru--
s--
sa--
saa--
saba--
sabi--
saca--
saci--
sacul--
sadi--
sae--
sah--
sahen--
sai--
sak--
saka--
sakaca--
sakakiw--
sakala--
sakaliy--
sakasi--
sakata--
sakay--
saki--
saku--
sal--
sala--
sali--
salu--
salui--
sam--
sama--
sami--
san--
sana--
sandbox--
sang--
sani--
sanu--
sapa--
sapat--
sapi--
sapise--
sapu--
sara--
sas--
sasa--
sase--
sasi--
sasu--
sasuma--
sat--
sata--
sate--
sati--
satu--
sau--
saw--
sawan--
say--
sayaw--
sc--
sciu--
se--
selec--
sen--
seng--
sep--
ser--
set--
sey--
sha--
shi--
sho--
shoo--
show--
si--
sia--
sibu--
sice--
sici--
sida--
sie--
sii--
sika--
sikala--
sil--
siles--
sili--
silid--
silike--
sim--
sima--
sin--
sing--
sini--
sipa--
sipi--
sisa--
sisu--
site--
siti--
siu--
siw--
siwa--
six--
sk--
sl--
slo--
sm--
small--
sn--
so--
spi--
spo--
ss--
st--
str--
su--
sub--
subst--
sue--
sul--
sum--
sun--
sung--
suo--
sup--
suppress--
sur--
sus--
suy--
svg--
sw--
sy--
sya--
sye--
syll--
t--
ta--
taay--
tab--
tabaki--
tad--
tada--
tadi--
tae--
tag--
tah--
tai--
tak--
taki--
taku--
tala--
tale--
tali--
talu--
tam--
tama--
tan--
tang--
tanu--
tapa--
tapi--
tapiy--
tar--
tara--
tari--
tasa--
tast--
tat--
tata--
tatu--
tau--
taw--
tawa--
tay--
tc--
te--
temp--
ten--
tepa--
ter--
terr--
text--
th--
tha--
thou--
thu--
ti--
tida--
tih--
tin--
tina--
tini--
tip--
title--
tiya--
tiza--
tja--
tju--
tl--
tlaco--
to--
tom--
ton--
tr--
tra--
tracking--
trans--
tre--
tri--
trim--
ts--
tsu--
tt--
tu--
tua--
tub--
tui--
tuk--
tuku--
tul--
tula--
tum--
tumahi--
tun--
tuna--
tuni--
tunika--
tunipi--
tunu--
tuo--
tur--
tus--
tusa--
tut--
tuy--
tw--
twy--
ty--
u--
ua--
uc--
ud--
uda--
udip--
ug--
uh--
uk--
ukak--
ul--
ula--
uli--
ulu--
um--
uma--
umi--
umu--
un--
una--
ung--
uni--
unu--
uo--
up--
ur--
us--
usa--
use--
uses--
usi--
ut--
uta--
utu--
uwa--
uy--
uyza--
uz--
v--
va--
vag--
val--
valen--
van--
var--
ve--
vi--
vin--
vir--
vo--
vu--
w--
wa--
wah--
wak--
wal--
wama--
wan--
wang--
want--
war--
was--
wawa--
way--
we--
web--
wei--
wer--
wi--
wiki--
wil--
wild--
win--
wiy--
wo--
wri--
wu--
wun--
wy--
x--
xi--
xin--
y--
ya--
yada--
yah--
yama--
yami--
yan--
yani--
yap--
yata--
yaw--
yay--
ye--
yen--
yi--
yin--
yo--
yon--
yong--
yu--
yue--
yun--
z--
za--
zay--
ze--
zen--
zh--
zhi--
zi--
zike--
ziw--
zo--
zoo--
zu--
ا--
ال--
س--
ع--
--0
--00
--1
--2
--3
--4
--40
--5
--6
--7
--70
--8
--9
--a
--aa
--aan
--aay
--ab
--aba
--abang
--abay
--ably
--ac
--aca
--acan
--acawa
--acay
--aceae
--ach
--ad
--ada
--adaan
--adah
--adan
--aday
--adih
--ado
--ads
--ae
--aen
--ag
--age
--ah
--aha
--ahan
--ahay
--ahua
--ahuy
--ai
--ait
--ak
--aka
--aki
--aku
--al
--ala
--alal
--alan
--alay
--alen
--ali
--ally
--alu
--am
--ama
--ame
--amin
--an
--ana
--anay
--ane
--anen
--ang
--anga
--angan
--angay
--anin
--ano
--anon
--ans
--ansa
--antu
--anum
--any
--ao
--ap
--apa
--aq
--ar
--arg
--argname
--args
--ari
--ary
--as
--asa
--asak
--asay
--asu
--at
--ata
--atan
--atay
--ati
--ation
--atlat
--atu
--aty
--au
--avi
--aw
--awa
--awan
--away
--awen
--ax
--ay
--aya
--ayan
--ayaw
--ayay
--ayen
--ayi
--aylu
--az
--azih
--b
--ba
--bades
--bai
--bak
--bal
--ban
--bang
--bangan
--bangay
--bas
--bau
--baw
--bawan
--baway
--bay
--bayan
--bayay
--be
--bec
--bed
--bek
--bekan
--belec
--beli
--belid
--ben
--ber
--bes
--bet
--betil
--bi
--biay
--bic
--bin
--bit
--blank
--ble
--blurb
--bo
--box
--bu
--buan
--buay
--bud
--busa
--bwa
--bylang
--c
--ca
--caay
--cabay
--cacay
--cad
--cadan
--cak
--cal
--calan
--caliw
--camul
--can
--capaay
--capu
--capuan
--cat
--caw
--cay
--cco
--ce
--ceae
--cebis
--ced
--cek
--cekil
--cel
--cell
--cen
--cep
--cepcep
--cepcepan
--cepcepay
--cer
--ces
--ch
--cha
--chi
--chu
--ci
--cia
--cikcik
--cil
--cila
--cin
--cio
--ciw
--ck
--clic
--co
--colon
--cos
--craft
--ct
--cted
--cu
--cubelis
--cuh
--cuk
--cukaymas
--cukel
--cul
--culcul
--culi
--cum
--cumu
--cuna
--cunus
--cuo
--cus
--cuwa
--cuy
--cuyan
--cuzuh
--cy
--d
--da
--daan
--daay
--dabu
--dac
--dacay
--dad
--dadum
--dae
--dah
--dahan
--dahay
--dak
--dal
--dam
--dama
--dan
--das
--dasay
--data
--daw
--day
--dayan
--dayit
--dayli
--de
--deb
--ded
--deh
--dek
--dem
--deman
--demaw
--den
--dep
--depit
--des
--dh
--dhi
--di
--did
--dih
--dihi
--diku
--dikud
--dimel
--dimud
--dip
--dis
--display
--diw
--diway
--do
--don
--dra
--ds
--du
--duay
--duc
--dud
--duh
--duhan
--duhay
--duk
--dum
--duma
--dun
--dup
--dus
--duy
--dy
--e
--ea
--eae
--eaf
--ean
--ebu
--ebud
--ebut
--ec
--eca
--ecad
--ecan
--ecaw
--ecd
--ecen
--eci
--ect
--ecu
--ecuh
--ecus
--ecusay
--ed
--edan
--edap
--ede
--edem
--edes
--edit
--ee
--eg
--eh
--ei
--ek
--eka
--ekal
--ekay
--ekec
--eked
--eket
--eku
--el
--ela
--elak
--elal
--elay
--ele
--elec
--elek
--elen
--eli
--ell
--elu
--eluk
--em
--eman
--emec
--emed
--emel
--emhem
--emu
--emul
--en
--ena
--enan
--enay
--ence
--ene
--enes
--eng
--engan
--engaw
--engen
--eni
--eniay
--ens
--ensis
--ent
--eo
--ep
--epay
--epec
--epi
--epit
--epun
--er
--era
--ere
--ered
--erence
--eri
--ero
--ers
--ery
--es
--esak
--esay
--ese
--ess
--est
--et
--etak
--etan
--etay
--ete
--etek
--etep
--etik
--ets
--etu
--etus
--eu
--ever
--ew
--ey
--ez
--f
--fa
--ff
--ffe
--fi
--fill
--fix
--fo
--ft
--fu
--ful
--g
--ga
--gaan
--gaay
--gan
--gar
--gard
--gatu
--gaw
--gay
--gayaw
--gayawan
--ge
--ged
--gel
--gen
--ger
--gh
--gi
--gian
--gna
--gnan
--gnay
--go
--gos
--gs
--gu
--gua
--gue
--gul
--gus
--h
--ha
--hab
--had
--hal
--ham
--han
--hap
--haw
--hay
--hbal
--hbih
--hca
--hcaan
--hcan
--hci
--he
--hed
--hel
--hem
--hen
--henay
--hi
--hiay
--hica
--hid
--hida
--hil
--hing
--hini
--hiu
--hiw
--hka
--hkal
--hm
--ho
--ht
--htuh
--hu
--hua
--hud
--hun
--hut
--huy
--hwa
--hy
--i
--ia
--ial
--ian
--ias
--iay
--ic
--ica
--icay
--ich
--ick
--ico
--ics
--id
--ida
--idaan
--idaw
--idcat
--ide
--iden
--ie
--iel
--ien
--ies
--ifies
--ify
--iga
--igi
--igiay
--igo
--ih
--iha
--ii
--ik
--iki
--ikiay
--il
--ilan
--ilaw
--ilay
--ilid
--illa
--im
--ima
--imet
--imo
--in
--ina
--inated
--inay
--ine
--ineng
--ines
--ing
--inga
--inges
--ini
--ink
--ino
--ins
--io
--ion
--ions
--ip
--ipi
--ipu
--ir
--is
--isan
--isay
--ise
--ish
--isi
--ist
--isu
--it
--ita
--itan
--itay
--ite
--itemuh
--iten
--ito
--itt
--itu
--ity
--iu
--ium
--ius
--ive
--iw
--iwa
--iwan
--iwasak
--iway
--iwngiw
--iy
--iya
--iyan
--iyas
--iyay
--iyu
--iza
--j
--ja
--jar
--je
--ji
--jin
--jo
--join
--ju
--k
--ka
--kaay
--kac
--kad
--kah
--kahan
--kak
--kaku
--kal
--kam
--kamu
--kan
--kapet
--kas
--kat
--kau
--kaw
--kawsan
--kay
--kayni
--kbek
--kcik
--ke
--kec
--kecan
--ked
--kel
--kelec
--kem
--ken
--kep
--kepan
--ker
--kes
--kese
--ket
--key
--kh
--kha
--ki
--kian
--kiay
--kil
--kilu
--kilul
--king
--kis
--kisu
--kit
--kiu
--kiw
--kiwan
--klak
--ko
--kor
--kpek
--ks
--ktuk
--ku
--kuay
--kuc
--kud
--kudan
--kuday
--kuh
--kui
--kul
--kun
--kuo
--kus
--kut
--kutay
--kuwit
--kuwyt
--kuy
--kuyd
--kuyt
--ky
--kya
--kyu
--l
--la
--laan
--laay
--laayaw
--laba
--labu
--lac
--lacal
--lacan
--lacay
--lad
--ladlad
--lai
--lak
--lakan
--lakaw
--lakawan
--lal
--lamelay
--lan
--lanan
--lar
--las
--lasul
--lat
--latan
--latay
--lau
--law
--lay
--lc
--lcabay
--lcad
--ld
--lds
--le
--lebu
--lec
--leca
--lecad
--lecalecad
--led
--leh
--lek
--leku
--lem
--len
--lep
--les
--less
--li
--lia
--lic
--licay
--lid
--lidan
--liday
--lih
--lihan
--lik
--lil
--lilan
--lilay
--lilucan
--lim
--lima
--limet
--lin
--ling
--link
--links
--lio
--lis
--lisiw
--lisiway
--list
--lit
--litin
--liu
--liw
--liway
--liyas
--liyud
--liyun
--liyunan
--liyusan
--liyut
--lk
--ll
--lla
--lle
--lly
--lm
--lo
--lon
--lpacaw
--ls
--lsil
--ltu
--lu
--luc
--lucan
--lucu
--lud
--ludan
--luduh
--luh
--luhay
--luk
--lukan
--lul
--lulan
--lum
--luma
--lun
--lungan
--lup
--lus
--lut
--luung
--luway
--ly
--m
--ma
--maan
--maay
--mad
--madan
--mal
--man
--mas
--maw
--may
--mba
--mbi
--mble
--mbu
--me
--mec
--med
--mek
--mekan
--mel
--melac
--melan
--melen
--men
--meni
--menian
--ment
--mes
--met
--mi
--mic
--min
--mis
--mlam
--mo
--ms
--mt
--mtek
--mtim
--mu
--mud
--muday
--muh
--mul
--mulu
--mus
--mut
--my
--n
--na
--nac
--nad
--nae
--nah
--nahay
--nal
--nam
--name
--namin
--nan
--nas
--naw
--nay
--nayu
--nca
--nce
--nci
--ncu
--nd
--nda
--ndi
--ndo
--ne
--ned
--neg
--nek
--nekan
--nel
--nem
--nen
--ner
--nes
--nese
--ng
--nga
--ngaan
--ngaay
--ngad
--ngah
--ngahay
--ngal
--ngaliw
--ngan
--ngat
--ngatan
--ngay
--ngc
--ngduh
--nge
--ngec
--ngen
--nges
--nget
--nggu
--ngi
--ngil
--ngiu
--ngiw
--ngku
--ngo
--ngsi
--ngu
--ngulan
--ngus
--ni
--nia
--nian
--nida
--nie
--nik
--nil
--nip
--nis
--nka
--nkiwan
--nng
--nngan
--no
--non
--ns
--nse
--nsu
--nt
--nta
--ntan
--ntu
--nu
--nuay
--nuc
--nuh
--num
--nums
--nus
--nut
--nuy
--ny
--o
--oa
--oc
--od
--oe
--oh
--oi
--ok
--oka
--ol
--ola
--ole
--ology
--om
--oma
--ombo
--on
--ona
--ong
--oni
--only
--ons
--oo
--ook
--op
--or
--ora
--ori
--ors
--ort
--ory
--os
--osa
--ose
--ot
--ota
--ou
--ow
--ows
--oy
--p
--pa
--paan
--paay
--pabaw
--page
--pages
--pah
--pahen
--pal
--pan
--pat
--patay
--paw
--pay
--pe
--pec
--peci
--ped
--pel
--pen
--penec
--pes
--pet
--petan
--pi
--piay
--pida
--pin
--pina
--pipi
--pis
--pit
--po
--prot
--ps
--pt
--pu
--puan
--puay
--puc
--pudan
--puday
--puhpuh
--pun
--put
--putay
--puu
--puud
--puyaku
--q
--qid
--que
--r
--ra
--ral
--ran
--ras
--rd
--rdi
--re
--rel
--ress
--ri
--ria
--rian
--ric
--rie
--rin
--ring
--ris
--rk
--rki
--rl
--rmi
--rn
--rna
--ro
--row
--rowclass
--rpa
--rra
--rs
--rt
--ru
--rum
--ry
--s
--sa
--saan
--saay
--saksak
--san
--sapen
--sar
--sasa
--satu
--saw
--say
--se
--sed
--sedsed
--sek
--selic
--sem
--sen
--seneng
--sengi
--ses
--setul
--sh
--shi
--si
--sia
--sic
--sicen
--sik
--simed
--simet
--sin
--sing
--singan
--sion
--sip
--sis
--sit
--siu
--siw
--size
--sk
--ski
--sn
--so
--son
--ss
--st
--sta
--ste
--ster
--str
--sts
--style
--su
--sukas
--sul
--sulan
--sulit
--sun
--supet
--suy
--suyan
--sy
--t
--ta
--taay
--table
--tad
--tag
--tahaw
--tak
--tal
--tan
--tang
--tapi
--tary
--taw
--tawid
--tawit
--tay
--te
--teco
--ted
--tei
--tek
--temec
--temuh
--ten
--teng
--tep
--tepa
--tepec
--ter
--tes
--tese
--text
--tezep
--th
--thi
--thumb
--thus
--ti
--tic
--tica
--tid
--tiden
--ties
--tiik
--tik
--til
--timan
--tin
--tion
--title
--tive
--tkit
--tkutan
--tla
--tlat
--tlatan
--tle
--tly
--to
--ton
--tor
--town
--ts
--tta
--tti
--tu
--tubeli
--tuc
--tuh
--tuk
--tukan
--tukuh
--tul
--tulu
--tun
--tung
--tural
--tus
--tusa
--ty
--tyle
--u
--ua
--uaca
--ual
--uan
--uate
--uay
--ubu
--uc
--ucan
--ucekan
--ucu
--ud
--udan
--uday
--uden
--udip
--ue
--uen
--uh
--uhay
--ui
--uin
--uk
--uka
--ukan
--ukas
--ukay
--ukaymas
--uku
--ul
--ulam
--ulan
--ulay
--ule
--uli
--ulu
--um
--ums
--umud
--un
--ung
--ungan
--unguc
--uo
--up
--upu
--upuan
--upuwan
--ur
--url
--us
--usa
--usi
--ut
--uta
--utan
--utay
--ute
--utek
--uu
--uud
--uw
--uwa
--uwan
--uwas
--uy
--uz
--v
--va
--val
--value
--ve
--ved
--ver
--ves
--vi
--via
--ville
--vis
--vu
--vung
--w
--wa
--waan
--waay
--wad
--wah
--wai
--wal
--wali
--wam
--wamay
--wan
--wasak
--wat
--waw
--way
--wayay
--wazay
--wduk
--we
--wen
--wi
--wid
--wih
--wilaw
--wit
--wiw
--wkay
--wla
--wlah
--wlan
--wlaw
--wlawan
--wmah
--wn
--wni
--wo
--wpes
--ws
--wse
--wu
--wya
--x
--xa
--xo
--y
--ya
--yac
--yadah
--yadu
--yaku
--yalaw
--yalu
--yam
--yan
--yas
--yat
--yaw
--yawan
--yaway
--yay
--yazu
--yda
--ydaan
--ydan
--ydih
--ye
--yen
--yi
--yin
--yla
--ylay
--yli
--yn
--yni
--yo
--yse
--yti
--ytu
--yu
--yuc
--yud
--yuh
--yuk
--yul
--yuman
--yun
--yza
--yzaan
--z
--za
--zaan
--zaay
--zan
--zation
--zau
--zay
--ze
--zek
--zi
--zia
--zih
--ziza
--zizaw
--zo
--zu
--zuh
--zuma
--а
--ич
--د
--ن
--ي
