!
"
#
##0
##1
##10
##11
##12
##13
##14
##15
##16
##17
##18
##19
##2
##20
##21
##22
##23
##24
##25
##26
##27
##28
##29
##3
##30
##31
##32
##33
##34
##35
##36
##37
##38
##39
##4
##40
##41
##42
##43
##44
##45
##46
##47
##48
##49
##5
##50
##51
##52
##53
##54
##55
##56
##57
##58
##59
##6
##60
##61
##62
##63
##64
##65
##66
##67
##68
##69
##7
##70
##71
##72
##73
##74
##75
##76
##77
##78
##79
##8
##80
##81
##82
##83
##84
##85
##86
##87
##88
##89
##9
##90
##91
##92
##93
##94
##95
##96
##97
##98
##99
$
%
&
'
(
)
*
+
,
-
.
/
0
00
000
001
002
003
004
005
008
009
01
01112007
012
013
014
015
016
02
020
022
023
025
029
03
031
033
034
036
037
04
040
04230
045
048
05
055
06
060
064
07
07102007
075
077
08
080
08092007
083
087
089
09
090
095
096
1
10
100
1000
10000
1001
1002
1003
1004
1005
1006
1007
1008
1009
101
1010
1011
1012
1013
1014
1015
1016
1017
1018
1019
102
1020
1021
1022
1023
1024
1025
1026
1027
1028
1029
103
1030
1031
1032
1033
1034
1035
1036
1037
1038
1039
104
1040
1041
1042
1043
1044
1045
1046
1047
1048
1049
105
1050
1051
1052
1053
1054
1055
1056
1057
1058
1059
106
1060
1061
1062
1063
1064
1065
1066
1067
1068
1069
107
1070
1071
1072
1073
1074
1075
1076
1077
1078
1079
108
1080
1081
1082
1083
1084
1085
1086
1087
1088
1089
109
1090
1091
1092
1093
1094
1095
10953
1096
1097
1098
1099
11
110
1100
11000
1101
1102
1103
1104
1105
1106
1107
1108
1109
111
1110
1111
1112
1113
1114
1115
1116
1117
1118
1119
112
1120
1121
1122
1123
1124
1125
1126
1127
1128
1129
113
1130
1131
1132
1133
1134
1135
1136
1137
1138
1139
114
1140
1141
1142
1143
1144
1145
1146
1147
1148
1149
115
1150
1151
1152
1153
1154
1155
1156
1157
1158
1159
116
1160
1161
1162
1163
1164
1165
1166
1167
1168
1169
117
1170
1171
1172
1173
1174
1175
1176
1177
1178
1179
118
1180
1181
1182
1183
1184
1185
1186
1187
1188
1189
119
1190
1191
1192
1193
1194
1195
1196
1197
1198
1199
12
120
1200
1201
1202
1203
1204
1205
1206
1207
1208
1209
121
1210
1211
1212
1213
1214
1215
1216
1217
1218
1219
122
1220
1221
1222
1223
1224
1225
1226
1227
1228
1229
123
1230
1231
1232
1233
1234
1235
1236
1237
1238
1239
124
1240
1241
1242
1243
1244
1245
1246
1247
1248
1249
125
1250
1251
1252
1253
1254
1255
1256
1257
1258
1259
126
1260
1261
1262
1263
1264
1265
1266
1267
1268
1269
127
1270
1271
1272
1273
1274
1275
1276
1277
1278
1279
128
1280
1281
1282
1283
1284
1285
1286
1287
1288
1289
129
1290
1291
1292
1293
1294
1295
1296
1297
1298
1299
13
130
1300
1301
1302
1303
1304
1305
1306
1307
1308
1309
131
1310
13102007
1311
1312
1313
1314
1315
1316
1317
1318
1319
132
1320
1321
1322
1323
1324
1325
1326
1327
1328
1329
133
1330
1331
1332
1333
1334
1335
1336
1337
1338
1339
134
1340
1341
1342
1343
1344
1345
1346
1347
1348
1349
135
1350
1351
1352
1353
1354
1355
1356
1357
1358
1359
136
1360
1361
1362
1363
1364
1365
1366
1367
1368
1369
137
1370
1371
1372
1373
1374
1375
1376
1377
1378
1379
138
1380
1381
1382
1383
1384
1385
1386
1387
1388
1389
139
1390
1391
1392
1393
1394
1395
1396
1397
1398
1399
14
140
1400
1401
1402
1403
1404
1405
1406
1407
14072007
1408
1409
141
1410
1411
1412
1413
1414
1415
14159
1416
1417
1418
1419
142
1420
1421
1422
1423
1424
1425
1426
1427
1428
1429
143
1430
1431
1432
1433
1434
1435
1436
1437
1438
1439
144
1440
1441
1442
1443
1444
1445
1446
1447
1448
1449
145
1450
1451
1452
1453
1454
1455
1456
1457
1458
1459
146
1460
1461
1462
1463
1464
1465
1466
1467
1468
1469
147
1470
1471
1472
1473
1474
1475
1476
1477
1478
1479
148
1480
1481
1482
1483
1484
1485
1486
1487
1488
1489
149
1490
1491
1492
1493
1494
1495
1496
1497
1498
1499
15
150
1500
1501
1502
1503
1504
1505
1506
1507
1508
1509
151
1510
1511
1512
1513
1514
1515
1516
1517
1518
1519
152
1520
1521
1522
1523
1524
1525
1526
1527
1528
1529
153
1530
1531
1532
1533
1534
1535
1536
1537
1538
1539
154
1540
1541
1542
1543
1544
1545
1546
1547
1548
1549
155
1550
1551
1552
1553
1554
1555
1556
1557
1558
1559
156
1560
1561
1562
1563
1564
1565
1566
1567
1568
1569
157
1570
1571
1572
1573
1574
1575
1576
1577
1578
1579
158
1580
1581
1582
1583
1584
1585
1586
1587
1588
1589
159
1590
1591
1592
1593
1594
1595
1596
1597
1598
1599
16
160
1600
1601
1602
1603
1604
1605
1606
1607
1608
1609
161
1610
1611
1612
1613
1614
1615
1616
1617
1618
1619
162
1620
1621
1622
1623
1624
1625
1626
1627
1628
1629
163
1630
1631
1632
1633
1634
1635
1636
1637
1638
1639
164
1640
1641
1642
1643
1644
1645
1646
1647
1648
1649
165
1650
1651
1652
1653
1654
1655
1656
1657
1658
1659
166
1660
1661
1662
1663
1664
1665
1666
1667
1668
1669
167
1670
1671
1672
1673
1674
1675
1676
1677
1678
1679
168
1680
1681
1682
1683
1684
1685
1686
1687
1688
1689
169
1690
1691
1692
1693
1694
1695
1696
1697
1698
1699
17
170
1700
1701
1702
1703
1704
1705
1706
1707
1708
1709
171
1710
1711
1712
1713
1714
1715
1716
1717
1718
1719
172
1720
1721
1722
1723
1724
1725
1726
1727
1728
1729
173
1730
1731
1732
1733
1734
1735
1736
1737
1738
1739
174
1740
1741
1742
1743
1744
1745
1746
1747
1748
1749
175
1750
1751
1752
1753
1754
1755
1756
1757
1758
1759
176
1760
1761
1762
1763
1764
1765
1766
1767
1768
1769
177
1770
1771
1772
1773
1774
1775
1776
1777
1778
1779
178
1780
1781
1782
1783
1784
1785
1786
1787
1788
1789
179
1790
1791
1792
1793
1794
1795
1796
1797
1798
1799
18
180
1800
1801
1802
1803
1804
1805
1806
1807
1808
1809
181
1810
1811
1812
1813
1814
1815
1816
1817
1818
1819
182
1820
1821
1822
1823
1824
1825
1826
1827
1828
1829
183
1830
1831
1832
1833
1834
1835
1836
1837
1838
1839
184
1840
1841
1842
1843
1844
1845
1846
1847
1848
1849
185
1850
1851
1852
1853
1854
1855
1856
1857
1858
1859
186
1860
1861
1862
1863
1864
1865
1866
1867
1868
1869
187
1870
1871
1872
1873
1874
1875
1876
1877
1878
1879
188
1880
1881
1882
1883
1884
1885
1886
1887
1888
1889
189
1890
1891
1892
1893
1894
1895
1896
1897
1898
1899
19
190
1900
1901
1902
1903
1904
1905
1906
1907
1908
1909
191
1910
1911
1912
1913
1914
1915
1916
1917
1918
1919
192
1920
1921
1922
1923
1924
1925
1926
1927
1928
1929
193
1930
1931
1932
1933
1934
1935
1936
1937
1938
1939
194
1940
1941
1942
1943
1944
1945
1946
1947
1948
1949
195
1950
1951
1952
1953
1954
1955
1956
1957
1958
1959
196
1960
1961
1962
1963
1964
1965
1966
1967
1968
1969
197
1970
1971
1972
1973
1974
1975
1976
1977
1978
1979
198
1980
1981
1982
1983
1984
1985
1986
1987
1988
1989
199
1990
1991
1992
1993
1994
1995
1996
1997
1998
1999
2
20
200
2000
2001
2002
2003
2004
2005
2006
2007
20072007
2008
2009
201
2010
2011
2012
2013
2014
2015
2016
2017
2018
2019
202
2020
2021
2022
2025
2026
2028
203
2039
204
2040
2041
2043
2045
2046
2047
205
2050
2051
206
2064
207
2070
2072
2075
2076
208
2080
2081
2086
2089
209
2093
2094
21
210
2100
2103
211
2112
2113
2114
2118
2119
212
2125
2128
213
2130
2131
214
2141
2143
215
2150
2151
2157
216
2162
217
2170
2175
218
2180
2188
219
2194
22
220
2200
2204
221
2217
222
2220
223
224
225
226
227
228
229
23
230
231
232
233
234
235
236
237
238
239
24
240
24062007
241
242
243
244
2443
245
246
247
248
249
25
250
2500
251
252
253
254
255
256
257
258
259
26
260
261
262
263
264
265
266
267
268
2680
269
2698
27
270
2700
271
272
273
274
275
276
2762
277
278
2780
279
2794
28
280
281
282
283
2830
284
285
2856
286
2864
287
288
289
29
290
291
292
293
294
295
296
297
298
299
3
30
300
3000
301
302
303
304
3045
305
306
307
308
309
31
310
3100
311
3111
312
313
314
315
316
3166
317
3171
318
319
32
320
3200
321
322
323
324
325
326
327
328
329
33
330
3300
331
332
333
334
335
336
337
338
339
34
340
3400
341
342
343
3431
344
345
346
347
348
349
35
350
351
352
353
354
355
356
357
358
359
36
360
361
362
363
364
365
366
367
368
369
37
370
371
372
373
374
375
376
377
378
379
38
380
381
382
383
384
385
386
387
388
389
39
390
391
392
393
394
395
396
397
398
399
4
40
400
4000
401
402
403
404
405
406
407
408
409
41
410
411
4110
412
4120
413
414
4142
4144
415
416
417
418
419
42
420
421
422
423
424
425
426
427
428
429
43
430
431
432
433
4336
434
435
436
437
4379
438
439
44
440
441
442
4426
443
444
445
446
447
448
449
45
450
451
452
453
454
455
456
457
458
459
46
460
461
4614
462
463
464
465
466
467
468
469
47
470
471
472
473
474
475
4756
476
477
478
479
48
480
481
482
483
484
485
486
487
488
489
49
490
491
492
493
494
495
496
497
498
499
5
50
500
5000
501
502
503
504
505
506
507
508
509
51
510
511
512
513
514
515
516
517
518
5187
519
52
520
521
522
523
524
5243320
525
526
527
528
529
53
530
5300
531
532
533
534
535
536
537
538
539
54
540
5400
541
542
543
544
545
546
547
548
549
55
550
551
552
553
554
555
556
557
558
559
56
560
561
562
563
564
565
566
567
568
569
57
570
571
572
573
574
575
576
577
578
579
58
580
581
582
583
584
585
586
587
588
589
59
590
591
592
593
594
595
596
597
598
599
5994
6
60
600
6000
601
602
6026
603
604
605
606
607
608
609
61
610
611
612
613
614
615
616
617
618
619
62
620
621
622
623
624
625
626
627
628
629
63
630
631
632
633
634
635
636
637
638
639
64
640
641
642
643
644
645
646
647
648
649
65
650
651
652
653
654
655
656
657
658
659
66
660
661
662
663
664
665
666
667
668
669
67
670
671
672
673
674
675
676
677
678
679
68
680
681
682
683
684
685
686
687
688
689
69
690
691
692
693
694
6947
695
696
697
698
699
7
70
700
7000
701
702
703
704
705
706
707
708
709
71
710
711
712
713
714
715
716
717
718
719
72
720
721
722
723
724
725
726
727
728
729
73
730
731
7310
732
733
734
735
7355
736
737
738
739
74
740
741
742
743
744
7448
745
746
747
748
749
75
750
751
752
753
754
755
756
757
758
759
76
760
761
762
763
764
765
766
767
768
769
77
770
771
772
773
774
775
776
777
778
779
78
780
781
782
783
784
785
786
787
788
789
79
790
791
792
793
794
795
796
797
798
7983
799
8
80
800
8000
801
802
803
804
805
806
807
808
809
81
810
811
812
813
814
815
816
8168
817
818
819
82
820
821
822
823
824
825
826
827
828
829
83
830
831
832
833
834
835
836
837
838
839
84
840
841
842
843
844
845
846
847
848
849
85
850
851
852
853
854
855
856
857
858
859
86
860
861
862
863
864
865
866
867
868
869
87
870
871
872
873
874
875
876
877
878
879
88
880
881
882
883
884
885
886
887
888
889
89
890
891
892
893
894
895
896
897
898
899
9
90
900
9000
901
902
903
904
905
906
907
908
909
91
910
911
912
913
914
915
916
917
918
919
92
920
921
922
923
924
925
926
927
928
929
93
930
931
932
933
934
935
936
937
938
939
94
940
941
942
943
944
945
946
947
948
949
95
950
951
952
953
954
955
956
957
958
959
96
960
961
962
963
964
965
966
967
968
969
97
970
971
972
973
974
975
976
977
978
979
98
980
981
982
983
984
985
986
987
988
989
99
990
991
992
993
994
995
996
997
998
999
:
;
<
=
>
?
@
\
^
_
`
a
aa
ab
aba
abandona
abat
abatiment
abazie
abbas
abdel
abdicazion
abeba
abel
abelian
abete
abilita
abilitazion
abissinie
abita
abitade
abitadis
abitans
abitant
abitants
abitazion
abitazions
abitualmentri
abitudin
aboc
aboli
abolizion
abondance
abondantis
aboriginal
aborigjenis
about
abram
abreviazion
abruc
absalom
abside
abu
abur
ac
acade
academia
academic
academiche
academie
academiis
academiuta
academy
acadiments
acaie
acampament
accademia
access
accessed
accuse
ace
acedi
acelerade
acelerazion
acent
acentrament
acents
acer
acet
aceta
acetabil
acetade
acetarin
acetazion
acete
acetin
acezion
acezions
ach
achel
acheus
achi
achil
achille
acierta
acit
acits
acjade
acjadiment
acjadiments
acjadu
acje
acompagna
acompagnament
aconcagua
acqua
acqueo
acronim
across
actio
acuardi
acuardis
acuart
acuarts
acuile
acuilee
acuilis
acuiside
acuist
acurade
acusa
acusado
acuse
acusis
acustiche
acustichis
ad
ada
adalt
adam
adamello
adams
adat
adata
adatament
adataments
adatave
adatis
addio
addis
ade
adegua
adelaide
adelante
adelfo
adempiment
aderents
adestrament
adi
adieti
adige
adis
adizions
admosfere
ado
adolessentis
adolf
adolphe
adora
adorado
adorazion
adore
adota
adotade
adote
adozion
adria
adrian
adriano
adriatic
adriatiche
adriatico
adriatische
adue
adulteri
adulteris
adults
adun
aduris
advisory
ae
aequo
aereos
aeronautiche
aeroplan
aeropuart
aeropuarts
aerostat
aes
af
afa
aferma
afermade
afermant
afermazion
afermazions
aferme
afermin
affaires
affreschi
afganistan
afghanistan
afida
afidade
afiet
afieto
afiets
afluent
afluents
afrani
afresc
afrescs
africa
africade
african
africane
africanis
africans
afriche
afritz
afro
afrodite
ag
aga
agace
again
agamenon
agenda
agent
aghe
aghis
aghite
agjent
agjenzie
agjenziis
agjeti
agji
aglomera
agn
agne
agnel
agnorums
agns
agnui
agnul
agostin
agostini
agostino
agosto
agradi
agrarie
agregazion
agression
agricola
agricole
agricolto
agricoltura
agricolture
agricui
agricul
agricule
agriculis
agriculture
agronims
agronomie
aguila
ah
ai
aiar
aiars
aich
aida
aide
aids
aiello
aier
aigen
aigns
aiko
ain
ains
aio
aip
air
aires
aitor
aiu
ajar
ajax
aje
akhenaton
akihito
akishino
al
ala
alabame
alacant
alade
alan
alasche
alaska
alba
albane
albanie
albe
albeck
albergo
alberschwende
albert
alberte
alberti
alberto
albinoni
albinus
albo
alboi
album
albums
alc
alcalin
alcalins
alceu
alcibiat
alcides
alcolichis
alcul
alcun
alcuni
alcunis
alcuns
aldo
ale
alea
aleade
aleadis
aleance
alearin
alegoriche
alegorie
aleixandre
aleksander
alemans
alena
alenado
alenament
alenaments
aleph
alesandri
alessandra
alessandri
alessandrie
alessandrine
alessandrins
alessandro
alessi
alessia
alessio
alevament
alexander
alexandre
alfa
alfabet
alfabetic
alfabets
alfanumeriche
alfons
alfonso
alfred
alfredo
alghere
alghero
algjebre
algjebric
algjebriche
algjebrics
algoritmi
algoritmis
algovie
ali
alias
alice
alighieri
align
alignbars
aliment
alimenta
alimentade
alimentazion
alis
aliterazions
alizi
all
alla
allah
alle
allegri
allen
allerheiligen
allmusic
alm
alma
almancul
alme
alnus
alogjens
aloi
alois
alore
alpe
alpha
alpin
alpina
alpine
alpini
alpinis
alpiniscj
alpinist
alpins
alps
als
alsazie
alster
alt
alta
altan
altaussee
altavilla
alte
altece
altenmarkt
alterati
alterazion
altere
alternati
alternative
alternativis
alternis
altichero
altimetric
altiplan
altis
altitudin
alto
altplan
altre
altri
altrile
altris
altro
alts
alture
alturis
alumini
aluvions
alviero
alvise
alzette
am
ama
amade
amadeus
amado
amalteo
amalteu
amancul
amant
amante
amare
amari
amariana
amaro
amato
amatoria
amave
amba
ambassade
ambassado
amberg
ambi
ambient
ambienta
ambientade
ambientadis
ambientazion
ambientazions
ambiente
ambients
ambiguis
ambit
ambits
ambizion
ambre
ambro
ambrosius
amburc
ame
amedeo
amen
ament
amenz
american
americane
americanis
americans
americhe
americhis
amerigo
amerindis
amerino
amet
ametin
ametude
ami
amici
amicizie
amie
amiis
amilcare
amin
aministra
aministrado
aministrati
aministrative
aministrativis
aministrazion
aministrazions
aminoacits
amira
amirado
amista
amministrative
amministrazion
amnistie
amo
amon
amont
amor
amore
amores
amoro
amortizato
amos
amour
ampe
ampere
ampezan
ampezzo
amplece
ampli
amplia
amplie
amplificazion
amplis
amsterdam
amu
amundsen
an
ana
anabatiscj
anabolisim
anade
analisi
analitiche
analiza
analogjie
analogjiis
anarchics
anarchie
anarchist
anas
anassagore
anatolie
anatomie
anche
anchi
anchor
ancien
ancje
ancjemo
ancjetant
ancjie
ancjimo
ancjmo
ancona
ancone
anconi
ancora
and
andament
ande
andechs
andelsbuch
andere
andersen
anderson
andes
andis
andore
andra
andre
andrea
andreas
andree
andreis
andreja
andreola
andreuzzi
andrew
androni
andronicus
anduins
ane
anei
anel
anema
anemone
anemul
anesion
anession
anete
anetu
anetude
aneu
anfiteatri
anfote
angel
angela
angeles
angeli
angelo
anger
angern
angjeliche
angle
anglie
anglomerecans
angstrom
angui
angul
ani
anibal
anidride
anim
anima
animado
animai
animasogni
animazion
anime
animis
anis
anita
aniversari
ankara
anna
annaeus
annales
annan
anne
anneo
anni
anno
annunzio
anonim
another
ans
anse
anselm
ant
antagonist
antartic
antartide
ante
antena
anteprime
anterio
anthology
anthony
anti
antibiotics
antic
antiche
antichis
antichita
anticipe
antics
antighe
antighis
antighita
antilis
antipatie
antipatri
antisemitisim
antisimetriche
anto
antognan
antoine
antologia
anton
antonelli
antoni
antoniete
antonini
antonio
antonomasie
antropolic
antropolics
antropologjie
anua
anula
anulament
anuncie
anunziade
anunziazion
anverse
anwar
anzians
anzio
anzit
aonedis
aosta
aoste
apache
apalts
apara
aparent
aparizion
aparizions
apartament
apartaments
aparte
apartegnin
aparten
apartignince
apassiona
apel
apelati
apene
apenins
apezello
aplica
aplicade
aplicadis
aplicati
aplicazion
aplicazions
apliche
aplichin
apocali
apocalis
apocrifs
apol
apollo
apollodoro
apoloni
apont
apostolic
apostoliche
app
appert
appi
apple
applied
appule
appuntamento
appunti
aprec
aprendi
aprendiment
aprile
aprilie
aprofondi
aprofondiment
apropriazion
aprossima
aprossimazions
aprova
aprovade
aprovave
aprovazion
aprove
apuarts
apueste
apuestui
apuestul
aquae
aquila
aquile
aquilee
aquileia
aquileie
aquileiese
aquileiesis
aquisgrane
ar
ara
arabe
arabie
arabis
aragon
aragone
araldiche
aramaic
aran
arap
araps
arbe
arbeiterpartei
arbitri
arbui
arbul
arc
arcagnul
arcaic
arcaiche
arcaichis
arcaisims
archeo
archeolic
archeologie
archeologjic
archeologjichis
archeologjics
archeologjie
archimede
architet
architetonic
architetoniche
architetonichis
architets
architeture
architra
archive
archivi
archivio
archivis
arcidiocesi
arciduca
arciduche
arciduchesse
arcipelac
arcipelacs
arcivescova
arcivescui
arcivescul
arcivescuvi
arcjan
arcje
arcs
ardi
ardint
ardit
ardito
are
aree
areis
ares
arest
aresta
arezzo
argagn
argagns
argjentin
argjentine
argoment
argomentazions
argoments
argonautica
argovie
argument
arguments
arhat
ari
aria
ariane
arie
ariel
ariis
arin
arint
ariosto
aris
aristide
aristocratic
aristocratiche
aristocratics
aristocrazie
aristotil
aritmetiche
aritmetichis
arizone
arkansas
arle
arlef
arles
arlevament
arma
armade
armadis
armaghedon
armaments
armando
armate
arme
armen
armenie
armi
armir
armis
armistizi
armonic
armoniche
armonico
armonie
armonio
arms
arn
arnaldo
arnold
arnoldstein
arola
aromai
aronco
arp
arpin
arqua
arriach
arrigo
arrivederci
ars
art
arte
artemide
artes
artesana
artesanis
artesans
arthur
arti
artic
artichis
articoladis
articui
articul
artificia
artificis
artifizia
artifizis
artigjana
artigjans
artiliarie
artilierie
artiscj
artist
artiste
artistic
artistiche
artistichis
artistics
arts
arturo
arvenis
arvignan
arzile
arzin
as
asalts
asburc
asburcs
asburgic
asburgjic
asburgjiche
asburgo
aschaffenburg
ascoli
asdrubal
ase
asegna
asemblee
asi
asia
asiago
asian
asianisim
asiatic
asie
asin
asini
asins
asme
asociazion
aspetti
aspiet
aspiets
aspirazion
aspx
asquini
assach
assaigs
assalt
assalts
asse
assedi
assediade
assedin
assegna
assegnade
assegnazion
assegne
assemblea
assemblee
assembleis
assence
assenso
assesso
assetiche
assi
assia
assie
assimila
assiomatiche
assiome
assiomis
assis
assisi
assistent
associa
associade
association
associative
associazion
associazione
associazions
assolu
assolude
assolutamente
assolutism
assorbi
assorbiment
assum
assumi
assums
assumu
assunte
asteroit
asteroits
asti
astra
astrate
astratis
astrats
astrazion
astrologjie
astronom
astronomiae
astronomic
astronomiche
astronomichis
astronomie
astronoms
asturiana
asturiis
at
ata
atac
atacama
atache
atacs
atanasi
ategjaments
ateiscj
atelane
aten
atene
ateneo
atent
atenta
atente
atents
atenzion
ateste
ati
atic
aticisim
atigni
atile
atimis
atinidis
atis
ative
ativis
ativita
atlant
atlante
atlantic
atlantiche
atmosfere
atmosferic
atmosferiche
atmosferics
ato
atom
atomic
atomiche
atomichis
atomics
atoms
aton
ator
atore
atrazion
atre
atri
atribu
atribui
atribuide
atribuidis
atris
ats
attems
attergau
attersee
attivita
attraverso
attual
atua
atuade
atualita
atualmentri
atuazion
au
audio
audiovisivo
auen
auerbach
auf
augsburg
augur
august
augusta
augustane
auguste
augustin
augusto
augustul
augustus
aule
aulis
aulo
aument
aumenta
aumente
aupe
aur
aura
aureli
aurelio
aurora
aurore
ausa
auschwitz
ausgleich
ausilia
ausse
aussee
austra
australia
australian
australiane
australie
australis
austri
austria
austriac
austriache
austriachis
austriacs
austrie
austro
autentic
auto
autobiografie
autobus
autoctonis
autoctons
automatic
automobil
automobilistic
automobilistiche
automuseum
autonom
autonome
autonomia
autonomie
autonomiis
autonomis
autonomist
autonomo
autoproduzion
autore
autorita
autoritrat
autoriza
autorizadis
autostrada
autostrade
autostradis
autun
ava
avale
avampuest
avane
avanti
avanza
avanzade
avanzadis
avanzi
avars
ave
aven
aveniment
aveniments
avent
aventure
aventuris
aversari
aversaris
avertiment
avertiments
avezzano
avf
avgus
avi
avian
aviato
aviazion
aviers
aviersa
avigni
avigniments
avignon
avignude
avili
avin
avion
avions
avo
avoca
avocat
avoda
avodade
avoledo
avoltri
avon
avonde
avost
avri
avril
avua
avualita
avvenire
award
awards
away
axe
axum
az
azande
azeri
azi
azienda
aziende
aziendis
azim
azion
azione
azions
aziz
aznar
azo
azotade
b
ba
babele
babilone
babilonie
bac
bacco
bach
bachet
bacin
bacins
back
backgroundcolors
bad
baden
badi
badia
badie
badilla
badiot
badoglio
baghdad
baghdadiya
bagn
bagna
bagnade
bagnarie
bagne
bahamas
bahia
bahn
bai
baje
bakan
bakhtale
bal
bala
balarins
balave
balboa
balcaniche
balcans
balcon
balcons
baldassarie
baldini
baldissera
baldramsdorf
bale
balea
balearis
balecuarde
balet
balin
balis
ballata
balon
baloni
balotac
baltea
baltic
baltics
balute
bamberghe
bambin
bambino
bambinute
ban
banach
bancari
banche
banchet
banchi
bancjari
bancjarie
bancje
bancjis
bancjs
bancnotes
bancs
band
bandcamp
bande
bandi
bandiera
bandiere
bandieris
bandis
bando
bandon
bandona
bandonade
bandonant
bandone
bandonin
bang
bangkok
bangladesh
banja
banks
bant
baptiste
bar
baracca
barache
barack
barat
baratta
barbados
barbar
barbara
barbare
barbarichis
barbaro
barbars
barbe
barbi
barbo
barboni
barca
barcelona
barcelone
barcino
barcis
barcje
barcjis
barcjs
barco
barcon
barcons
bardata
bardus
bare
bargello
bari
barid
barids
bariju
barlete
barngarla
barngarlidhi
baro
baroc
baroche
barocs
baron
barra
barry
bars
barset
bartholoma
bartolini
bartolomeo
bartolomiu
baruch
barufa
barufe
barufis
bas
basa
basade
basadis
basaldella
basament
basandiele
basantsi
basc
basche
baschis
bascs
base
baseball
basic
basilee
basili
basilian
basilica
basiliche
basilichis
basin
basis
basket
basketball
basque
basrile
bass
bassa
bassano
basse
basshunter
bassi
bassis
bassist
basso
basta
baste
bastien
bastilie
baston
bastone
bastons
bat
batae
bataia
bataie
bataiis
bataion
bataions
batais
batajon
batajons
batarie
batariis
bate
bateri
baterie
bateris
bateve
bati
batia
batiado
batie
batiin
batin
batint
batisi
batisim
batisima
batisims
batista
batiste
batisteri
battaglia
battaglione
battista
battisti
battiston
batu
batude
bau
baumgarten
bausa
bautzen
bavare
bavarese
bavarie
bavars
baviere
bay
bayern
bayreuth
bb
bbc
be
bea
beade
bearzot
beast
beat
beatles
beats
beautiful
bec
beca
bechenntnis
becs
been
beethoven
befane
begin
bei
beijing
beiva
bel
bela
belair
belanc
belance
belanci
belen
belga
belgjiche
belgjio
belgjo
belgra
belin
beline
beljak
bell
bella
bellavitis
bellezza
belli
bellina
bellini
bello
bellum
belluno
belo
below
beltram
beltramhttp
belun
belune
belza
bembo
ben
benandant
benandants
benede
benedet
benedete
benedetto
benedi
benedict
benedizion
beneficis
beniculturali
benito
benny
benon
bens
bensta
benvenuti
benvignu
benz
beorn
berackern
berchtesgaden
berdei
berdeis
berengari
berg
bergham
berghem
bergl
berili
bering
berkeley
berlin
bernard
bernardin
bernardini
bernardo
bernart
berne
bernhard
berni
bersali
bertha
bertiu
bertolt
bertossi
bertrand
bertrant
besso
bessole
best
bestie
bestiis
bestis
beta
bete
betsabee
bettembourg
betulie
betzdorf
bevande
bevandis
bevi
bezirke
bgld
bi
bia
biade
biagio
biamortizadis
bianca
bianchini
bianco
bianconeri
biasutti
bibie
bibion
bible
biblic
bibliche
biblichis
biblics
biblie
bibliografia
bibliografic
bibliografie
biblioteca
bibliotecari
biblioteche
bibliotechis
bicamera
bici
biciclete
bicicletis
bicinins
bicis
bideschini
biei
biel
biele
bielece
bielestele
bielis
biella
bielon
bielorus
bielorussie
bielza
biena
big
bigatis
biggl
biggr
bigl
bigr
bike
bilatera
bilbo
bildstein
bilenga
bilibilis
biliet
biliets
bilinguisim
bill
binari
binarie
binaris
bindi
bing
binh
binomio
bio
biochimiche
biodiviersita
biograf
biografic
biografico
biografie
biografiis
biologjic
biologjiche
biologjichis
biologjics
biologjie
biomoleculis
bios
biosfere
bira
birds
bire
birkfeld
birman
birmans
birmingham
bis
biscaglie
bisescj
bisest
bisia
bisiac
bisiacarie
bistrica
bisugn
bisugnara
bisugne
bit
bite
bitinie
bitkeeper
bits
biunivoche
bivare
biwer
bizantin
bizantine
bizantins
bizau
bk
bl
bla
black
blanc
blancje
blancjis
blancs
blank
blarn
blason
blau
blave
bleiberg
bleiburg
bleu
bleuclair
bloc
bloca
blocade
blocadis
blog
blu
bludenz
blue
blues
bming
bmw
bo
boas
bob
boccaccio
bocht
bocje
bocons
boden
bodhicitta
boemie
bogliasco
bogna
bogns
bogota
boigns
bol
bolc
bole
boli
bolidure
bolivie
bologna
bologne
bolscevics
bolsevics
bolzan
bolzano
bombarda
bombardaments
bombay
bombe
bombi
bombig
bompiani
bon
bona
bonaldo
bonaparte
bonazza
boncu
bondance
bonifacio
bonifica
bonifiche
bonifichis
bonn
bonnevoie
bons
bonta
bonus
bonvivi
boogie
book
books
boole
boom
boozy
borassus
borbon
borc
borcs
bordan
border
bordo
bore
borea
borgade
borgadis
borghe
borghese
borghesie
borgia
borgo
boris
bormann
borneo
borse
borsuk
borwein
bos
bosa
bosc
bosco
boscs
bosgne
bosna
bosnia
bosniac
bosnie
boston
bot
botanic
botaniche
boto
boton
botons
bottecchia
botticelli
bottom
bovins
bowl
box
boxe
boxing
boy
br
bra
brabant
brac
braca
brahe
brai
braide
bramant
brame
branc
brancs
brand
brandeburc
brandis
branduardi
brasi
brasil
brasilia
brasilian
brasiliane
brasilianis
brassens
braunau
braure
bravece
bravure
brazza
brazzacco
brazzaville
bre
break
brec
breg
bregenz
breme
brenta
brescie
bressane
bresse
bretagne
breton
bretonofons
bretons
breve
brevet
brevets
brevita
brezje
brian
briciole
bricito
bridge
brien
brienne
brigade
brigadis
brigate
brilant
brindisi
bring
britanic
britaniche
britanichis
britanics
britanie
britannica
british
bro
broade
broili
brollo
bronc
bronchia
bronislaw
bronisław
brown
browser
broz
bru
bruce
bruck
brugnere
brugnula
brun
brunn
bruno
brunswick
brusa
brusade
brusant
bruse
brusini
brussel
brussels
brut
brute
brutis
brutus
bruxelles
bu
bubola
buch
buchholz
bucoliche
bucolichis
buddha
budisim
budoie
buenos
buie
buine
buinis
buinore
buisson
buje
bulgar
bulgarie
bulo
bundesla
bundesland
bundesrat
bundestag
bunker
bunnies
buonarroti
bur
burascjo
burckhardt
bureau
burel
burello
burgenland
burgess
burgkirchen
buri
buride
buris
burlac
burmese
burnett
burning
bus
buse
bush
busis
bussa
bussade
busse
bust
buta
butade
butadis
butant
butave
bute
buteghe
buteghis
butin
bwoy
bwv
by
byte
bz
c
ca
cabernet
cabia
cadavar
cadel
caderis
cadore
cadoresi
caecilium
caesar
cafe
cafeine
cage
cagliari
cagneta
cahiers
cai
caimo
cainero
cairo
caius
cal
cala
calabria
calabrie
calade
calamita
calasanz
calc
calca
calci
calcio
calcola
calcolade
calcolado
calcolant
calcolave
calcole
calcoli
calcui
calcul
caldeos
cale
caledonie
calendari
calendaris
californi
california
californie
caligule
calimac
calligaris
calling
calm
calme
calo
calonne
caloriche
calpurni
calvetti
calvin
calviniscj
cambi
cambia
cambiade
cambiadis
cambiament
cambiaments
cambiant
cambie
cambiin
cambio
cambogie
cambrai
cambridge
camera
camillo
camin
camion
campa
campade
campagne
campagnie
campagnis
campanie
campanotto
campion
campiona
campions
campo
campobasso
can
cana
canada
canade
canadese
canadesis
canadiens
canai
canal
canale
canariis
canaris
cancan
cancele
canceli
canciani
candida
candido
candolini
candussio
cane
canin
canne
canon
canone
canonic
canonici
canonics
canons
canova
canta
cantante
cantanti
cantarutti
canti
cantin
cantiones
canto
cantone
cantus
canul
canussio
canvas
canzian
canzone
canzoni
canzoniere
caorle
cap
capacita
caparezza
cape
capele
capelis
capellaris
capellen
capello
capi
capide
capis
capita
capital
capitale
capitalisim
capitaliste
capitan
capitani
capite
capito
capitolo
capo
capodistria
capolavo
caporiacco
cappelli
cappello
caprere
caprese
caprive
caps
capucin
caput
caracas
caraibiche
caraips
carantan
caratar
carataristichis
caratars
carater
carateristic
carateristiche
carateristichis
carateristics
carateriza
caraterizade
caraterizadis
caravele
carbonera
carboni
carboniche
carburant
cardina
cardinalita
carducci
care
carestiis
carghe
caric
carica
cariche
cariere
carighe
carintiane
carintie
carinziane
carinzians
carinzie
carita
carl
carla
carletti
carli
carliman
carlo
carlos
carlotte
carlutti
carmen
carmina
carnera
carneva
carnia
carnic
carnicats
carniche
carnico
carnicum
caroce
carolina
caroline
carols
carosone
caroya
carozzo
carpenter
carpenters
carrara
carrare
carreteras
carrozzo
carso
carta
cartagine
cartagjin
cartagjine
cartagjne
cartei
cartel
cartes
cartesian
cartier
cartograf
carton
cartons
cartufulis
cas
casa
casanova
casarsa
cascina
case
casera
caserme
casi
casino
caso
caspi
casse
cassis
castel
castellani
castelle
castelli
castello
castelo
castelvecchio
castilian
castiliane
castilie
castillo
castita
castro
casu
casua
catabolisim
catala
catalan
catalana
catalane
catalanist
catalans
catalic
catalogne
catalogo
catalugne
catalunya
catanie
catarine
catastic
cate
catecumens
catedra
catedre
categorie
categoriis
category
caterima
caterina
caterine
catherine
catholic
catilinam
catilinarie
catiline
catine
cato
catolic
catoliche
catolichis
catolicisim
catolics
caton
catone
cattedrale
cattolica
catul
catura
cature
caucas
caucasiche
cauchy
causa
causade
cause
causiona
causis
cavalarescs
cavalarie
cavalerie
cavali
cavalli
cavazzo
cave
cavedalis
cavour
cc
ccc
cd
cdot
ce
cec
ceche
cechie
cecili
cecilia
cecilie
ceconi
cecoslovachie
cecotti
cecs
cedarcjis
cede
cedi
cedilie
cedri
cedu
ceesa
cei
cela
cele
celebra
celebrade
celebrate
celebrazion
celebrazions
celebre
celebri
celebrita
celest
celeste
celi
celina
celine
cella
celona
celovec
cels
celsius
celso
celtic
celtiche
celtichis
celtics
celts
celula
celule
celulis
celulose
cemu
cence
cene
ceneda
cengla
censiment
censiments
censo
censura
censure
cent
centa
centauros
cente
centedischi
centena
centenari
center
centesim
centesime
centesims
centimetri
centimetris
centimetros
cento
centra
centradis
central
centrale
centraliza
centre
centri
centrin
centris
centro
ceramiche
cerchio
cercja
cercje
cercli
cerclis
cerea
cereai
ceremoniis
cergneu
cerimonia
cerimonie
cerimoniis
cerneglons
cerneli
cerroni
cert
certe
certifica
certificazions
certis
certosine
cerviel
cervino
cervus
cesar
cesare
cesareo
cesari
cesaricidi
cesaricidis
ceschia
cescje
cesclans
cesene
cesi
cessa
cessazion
cession
cetancj
cetant
cetantis
cetinski
cetra
cf
ch
cha
chaco
chalanda
chambre
champions
change
channel
chapter
charles
charter
chase
chavale
che
checo
chei
chel
chelsea
chenti
cheope
cherokee
ches
chescj
chest
cheste
chestis
chesto
chests
chi
chiandetti
chiara
chicago
chiedi
chiesa
chiese
chieti
chilogram
chilometri
chilometris
chilos
chimic
chimiche
chimichis
chimics
china
chisc
chist
chiste
chistis
chitare
chiurlo
chivasso
cho
choi
choir
chopin
chorographia
chris
christian
christmas
christofberg
christoph
chromatius
chst
chu
chubut
churchill
ci
ciampi
ciani
ciappelli
ciasa
cic
ciceron
cicli
ciclis
cicliscj
ciclisim
ciclist
ciclop
ciclopi
cidino
cidulis
ciel
cielo
cierf
cierfs
ciert
cierte
ciertis
cierts
ciertun
cifra
cifre
cifris
cile
cilen
cilicie
cilina
ciline
cima
cimabue
cimbris
cime
ciment
cimis
cimitieri
cimolais
cimoliane
cinausero
cinc
cinccent
cincuante
cincuantesim
cine
cinema
cinematografics
cines
cinese
cinise
cinisis
cinna
cint
cinture
cinturie
cinzie
cio
ciotti
cipri
ciprian
cipriani
cipro
circ
cirche
circle
circola
circolasion
circolazion
circolo
circoncision
circonda
circondade
circondari
circondaris
circonference
circonfle
circonfles
circonvalazion
circoscrizions
circostancis
circui
circuit
circuits
circul
circula
circulaire
circular
ciri
cirilic
cirilla
cirin
cirint
cirive
cirivin
cirivis
cirkno
ciru
cisalpine
cisilino
cisleitanie
cisterna
cisza
cita
citade
citadele
citadin
citadinance
citadine
citadins
citant
citat
citazion
citazioni
citazions
citis
citta
city
ciutat
civi
civic
civica
civiche
civics
civida
cividale
civil
civile
civili
civilizazion
civilta
civole
cj
cja
cjabie
cjac
cjacara
cjacarant
cjacare
cjacarin
cjacaris
cjace
cjadene
cjadenis
cjadin
cjadovri
cjadovrin
cjadree
cjadreis
cjadude
cjadugnee
cjaf
cjagnon
cjala
cjalade
cjalait
cjalant
cjalave
cjalc
cjalcja
cjalcje
cjalcjut
cjalde
cjalderie
cjaldis
cjale
cjali
cjalis
cjalt
cjalunis
cjalzumi
cjama
cjamare
cjamaris
cjame
cjamese
cjamin
cjamina
cjamoc
cjamp
cjampagne
cjampane
cjampanili
cjampanis
cjamparos
cjampfuarmit
cjampion
cjamplunc
cjamps
cjamput
cjan
cjana
cjanc
cjandelis
cjandelore
cjanine
cjans
cjant
cjanta
cjantade
cjantadis
cjantant
cjantante
cjantantis
cjantants
cjantauto
cjantautore
cjantave
cjantavin
cjante
cjanteauto
cjantin
cjantis
cjanto
cjanton
cjantona
cjantons
cjantorie
cjants
cjapa
cjapade
cjapadis
cjapant
cjapara
cjaparin
cjapave
cjapavin
cjape
cjapiel
cjapin
cjapitani
cjapitanis
cjapitui
cjapitul
cjar
cjaradorie
cjarbon
cjargna
cjargne
cjargnei
cjargnel
cjargnele
cjargnelis
cjaria
cjarie
cjariesa
cjarisa
cjaristie
cjarlins
cjarna
cjarnics
cjars
cjarso
cjarte
cjartis
cjas
cjasa
cjasade
cjasarse
cjase
cjasegnove
cjasis
cjaso
cjassa
cjasteons
cjasti
cjastia
cjastiel
cjastina
cjastinis
cjastra
cjata
cjatade
cjatadis
cjatant
cjatara
cjatarin
cjatave
cjatavin
cjate
cjati
cjatin
cjaudistre
cjaudistrie
cjaulu
cjaure
cjauria
cjaurlis
cjava
cjavac
cjavai
cjaval
cjavei
cjavris
cjecslovac
cjiscjei
cjiscjel
cjistiei
cjistiel
cjo
cjoc
cjocolate
cjol
cjoli
cjolt
cjolte
cjonc
cjopris
cjscjel
cke
cken
ckl
cklabruck
ckt
cl
cla
clama
clamade
clamadis
clamara
clamarin
clamave
clamavin
clame
clami
clamin
clamorose
clandestin
clanfurt
clans
clap
clape
clapis
claps
clara
clare
clarementri
claris
clark
clas
clasiche
classe
classic
classiche
classichis
classics
classifica
classificazion
classifiche
classifiches
classifichis
classis
claude
claudi
claudii
claudio
claudis
clauian
clause
claut
clavaias
clavaiis
clavicembal
clavicembaliste
clavutis
clelia
clement
cleopatre
cleric
clerica
clericuzio
clerk
clermont
clero
cleve
clevis
clients
climate
climatic
climatichis
clime
clitic
clitics
clodi
clodie
clodius
close
club
clubs
clyde
cm
cn
cni
co
coalizion
cobain
cobalt
cobar
cobiss
coc
coca
coce
coche
cocola
cocolin
cod
codarin
code
codic
codifica
codificazion
codifiche
codis
codogna
codroip
coerence
coerent
coglians
cognac
cogniti
cogno
cognon
cognons
cognos
cognosince
cognosse
cognosserin
cognosseve
cognossevin
cognossi
cognossilu
cognossin
cognossince
cognossincis
cognossint
cognossu
cognossude
cognossudis
cognossut
cohen
cohiba
coi
coinci
coincidence
coincidi
coine
coinvoltis
cojaniz
col
cola
colabora
colaborado
colaborazion
colaborazions
colabore
colaborin
colade
coladis
colant
colave
cole
colec
colega
colegade
colegadis
colegament
colegaments
colegavin
coleghe
coleghin
coleghio
coleghis
colere
colete
coleti
coletive
coletivita
colezion
colezions
colians
colin
colina
collabora
colle
collega
collegaments
college
collegio
collegium
collezione
collodi
colloredo
colm
colo
coloca
colocade
colocazion
colomberis
colombie
colombo
colomp
colone
colonel
coloni
colonia
colonics
colonie
coloniis
colonis
coloniza
colonizado
colonizazion
colonna
colonos
color
colora
colorade
colorado
colorat
colore
colors
colosse
colossets
colp
colpa
colpe
colpevul
colpi
colps
colt
colta
coltiva
coltivadis
coltivazion
coltivazions
coltive
columbie
columbus
columele
colus
colussi
colvare
com
coma
comand
comanda
comandade
comandadis
comandaments
comandant
comandants
comandave
comande
comandin
comando
comant
comants
comaris
combate
combatent
combatents
combaterin
combati
combatiment
combatiments
combatint
combats
combatu
combatude
combina
combinadis
combinazion
combinazions
combustibil
combustion
come
comeda
comede
comedie
comediis
comelians
comelico
comelli
comenc
comence
comencin
comenda
coment
comenta
comentaris
comerci
comercia
comerciant
comete
cometi
cometis
comic
comics
comin
comisions
comissari
comission
comissiona
comissionade
comissions
comita
comitat
comitive
command
comme
commentarii
commercio
commission
commissione
committee
commodore
commons
commonwealth
community
como
comodita
compagn
compagna
compagnade
compagne
compagnia
compagnie
compagniis
compagnis
compagno
compagns
companie
companiis
company
comparade
comparati
comparative
comparazion
compari
comparissin
comparive
compartimento
compendio
compensa
compensazion
competence
competencis
competent
competivita
competizion
compi
compilations
compiment
compit
compits
comple
complement
complementa
complesse
complessi
complessis
complessita
complet
completa
completament
completamentri
complete
completece
completementri
completes
complets
compli
complica
complicade
complicadis
compliments
complotancj
complotants
compon
compone
component
components
componeve
componevin
componi
componiment
componiments
componin
componu
componude
componudis
comportament
composcj
composido
composit
composito
composizion
composizions
compost
composte
compostela
compra
compre
comprendeve
comprendi
comprendu
comprendude
comprendudis
comprension
comprensori
comprent
compression
comprin
comprindeve
comprindi
comprindu
comprindude
comprindudis
comprint
comprome
compromes
compton
compuarta
compuartament
compuartaments
compuarte
compuartin
computaziona
computer
comte
comu
comugne
comun
comuna
comune
comunementri
comuni
comunica
comunicative
comunicazion
comunicazions
comuniche
comunion
comunis
comuniscj
comunisim
comunism
comunist
comuniste
comunistis
comunita
comunitarie
comunque
comuns
comutati
comutative
comuzzi
con
concedeve
concedi
concedu
concedude
concei
concentra
concentrade
concentrament
concentramento
concentrazion
concentre
concentrin
concepcio
concept
concert
concerto
concerts
concession
concet
concets
concetto
concezion
concezions
conciert
concierts
concili
concje
conclu
conclusion
conclusions
concordia
concordie
concorence
concorince
concors
concrete
concretis
concretiza
concuardie
concuista
concuistade
concuistado
concuistant
concuistarin
concuiste
concuistin
concuistis
condana
condane
condiplui
condita
condivi
condividu
condividude
condizion
condiziona
condizionade
condizions
condo
condomini
condominia
condote
condoti
conducibilita
condusu
conduto
conean
conegliano
confartigiana
confederazion
conference
conferencis
conferi
conferide
conferma
confermade
conferme
confermin
confession
confessioni
confessions
confesso
configurazion
confin
confina
confinant
confinants
confine
confinin
confins
confisca
conflit
conflits
confluence
confondi
confondu
confondude
conformazion
confraternite
confront
confronta
confronte
confronts
confuart
confuarta
confuci
confucianisim
confusion
congnossude
congo
congre
congregac
congregazion
congregazions
coni
coniadis
coniugazion
coniugazions
connecticut
conotazion
conquistadores
conquiste
conra
consacra
consacrazion
consacre
consea
consecuence
consee
consegna
consegne
conseguence
conseguencis
consei
conseis
consens
conserva
conservade
conservadis
conservado
conservazion
conserve
considera
considerade
consideradis
considerant
considerave
considerazion
considerazions
considere
consideri
considerin
consiglio
consili
consinti
consintiment
consist
consistence
consistent
consistentis
consistents
consola
consolatio
consolazion
consolida
consonant
consonante
consonantic
consonants
consorzi
consui
consul
consulatu
consulence
consulta
consultazion
consum
consumado
consume
consunti
cont
conta
contact
contade
contadin
contadinance
contadine
contadinis
contadins
contadis
contaminazion
contant
contarini
contat
contats
contave
conte
contee
contees
contegni
contegnin
conteis
contemplative
contemplazion
contemporanea
contemporanee
contemporanei
contemporanie
contemporanis
conten
content
contenta
contents
contescj
contese
contesse
contest
contesta
contestazions
contests
conti
contigni
contignive
contignu
contignude
contignudis
contin
continent
continenta
continents
contingjent
continua
continuamentri
continuant
continuarin
continuave
continuavin
continuazion
continue
continui
continuin
continuis
continuita
contis
conto
contornade
contra
contrade
contradizions
contraposizion
contrari
contrariamentri
contrarie
contrariis
contraris
contrascj
contrast
contrasta
contrastants
contrat
contrats
contratua
contrazion
contri
contribu
contribui
contributori
contributors
contribuzion
contro
controi
control
controla
controlade
controlave
controlavin
controle
controversie
conts
conven
convenient
convent
convenzion
convenziona
convenzions
converc
convergjence
convergjente
conversion
converti
convicinis
convinc
convince
convinci
convinciment
convint
convinzion
convinzions
convivence
convoca
convocazion
convulsive
conzura
conzure
cook
coop
cooperative
cooperazion
coordena
coordenade
coordenadis
coordene
coordinadis
coordinament
copa
copade
copament
copant
copari
coparie
coparin
copasse
cope
copernicanae
copertine
copia
copie
copiis
copin
copis
cops
copyright
cor
cora
corac
coragjo
coran
corazon
corbin
cordenons
cordevole
cordoba
cordova
cordove
core
corea
corean
coreanis
coreans
coree
corela
coreladis
coret
coretece
coreto
coreve
corezi
corezions
corfu
corgnali
cori
corido
corieris
corin
corint
corinti
corinto
corints
coriolano
coriolanus
corispeti
corispondence
corispondencis
corispondent
corispondents
corispuindeve
corispuindin
corispuindint
corispuint
cormo
cormons
cornaro
corneli
cornelio
cornelius
corner
cornu
coro
corografia
corona
corone
coronis
coros
corosion
corot
corpo
corporation
corporazion
corporazions
corpus
corrado
corrente
correr
corriere
cors
corsa
corse
corsi
corsiche
corsis
cort
corte
cortile
cortina
cortine
corto
coruzion
corvat
cos
cosa
coscj
cose
cosean
coseanet
coseano
coses
cosh
cosi
cosim
cosmic
cossio
cossovo
cost
costa
costalago
costance
costant
costante
costantin
costantini
costantino
costantinopoli
costantis
costants
costanze
coste
costelazion
costelazions
costiere
costin
costituent
costituente
costitui
costituide
costituidis
costituint
costituirin
costituissin
costituive
costitutiones
costituzion
costituziona
costret
costrets
costrinzu
costrinzude
costrui
costruide
costruidis
costruissin
costrut
costruto
costruzion
costruzions
costum
costuma
costums
cote
cottrer
coulomb
country
cour
courmayeur
court
covalent
coventa
coventave
coventavin
covente
coventin
cover
covid
cp
cpu
cr
crac
cracovie
cragn
cragno
crama
cras
crash
crate
crauazie
crav
cravo
cravuat
cravuate
cravuatis
cravuats
cravuazie
crazy
cre
crea
creade
creadis
creant
creata
creati
creative
creativita
creato
creature
creaturis
creave
creazion
credince
credit
credito
cree
creme
cremone
crepuscul
cres
crescent
cresime
cressi
cressin
cressint
cressinte
cressite
cressu
cressude
cret
crete
cretis
crets
creva
creziendo
cri
criche
cridule
crimee
crimin
crimina
crimins
cripta
cripte
crise
criseide
crisi
crisogon
crist
crista
cristai
cristal
cristaline
cristian
cristiana
cristiane
cristianesim
cristianis
cristianisim
cristianita
cristiano
cristians
cristina
cristo
cristofoli
cristofori
cristoforo
cristoful
crite
criteri
criteris
critic
critica
criticade
criticave
critiche
critiches
critichis
critics
criure
crkva
cro
croc
croce
crocetti
crociate
crode
crodeve
crodevin
crodi
crodin
crodince
crodincis
crodint
crodints
crodu
crom
cromazi
cromosome
cromosomis
cron
cronache
cronachis
croniche
cronichis
cronologie
cronologjic
cronologjie
crosade
crosadis
crosere
cross
croste
crostis
crot
croton
crotone
crots
croz
cru
crucifi
crucifission
crucis
crude
crudel
cruiskeen
cruz
cruzie
cs
csir
css
cu
cua
cuadra
cuadrade
cuadradis
cuadre
cuadri
cuadrilatar
cuadrilenga
cuadrilie
cuadris
cuai
cual
cualchi
cualchidun
cualchidune
cualchit
cuale
cualifica
cualificati
cualis
cualita
cualsisedi
cualsisei
cuan
cuancj
cuant
cuantita
cuantitati
cuar
cuarante
cuarde
cuardis
cuarlp
cuarna
cuarnap
cuarnete
cuarp
cuarps
cuars
cuart
cuarte
cuartets
cuarti
cuasi
cuasit
cuatri
cuatricent
cuatris
cuba
cuban
cubane
cube
cubi
cubic
cubiche
cubie
cubiis
cuc
cucane
cuculo
cudumars
cuei
cuel
cuesta
cueste
cuestion
cuestions
cuestis
cuesto
cuet
cuete
cugnade
cui
cuicussei
cuiet
cuieta
cuiete
cuietece
cuinc
cuindi
cuindis
cuint
cuinte
cuintri
cuintriaereoplans
cuintribandi
cuintricjars
cuintricriscj
cuintricrist
cuintripont
cuintristorie
cuints
cuista
cuiste
cuistion
cuistions
cul
cule
culi
culina
culine
culinis
culis
cult
culte
cultiva
cultive
cultura
cultural
culturale
culturalmentri
culture
cultures
culturis
cumbina
cumbinatori
cumbinazion
cumierc
cumo
cumpli
cumplissin
cumun
cun
cundifat
cundiplui
cundizion
cundizions
cundut
cuneense
cuneo
cunfi
cunfin
cunfine
cunfins
cungio
cunningham
cunt
cuntent
cuntri
cuntun
cuntune
cunvigne
cunvinci
cuore
cuote
cuotidian
cuotidiane
cup
cupido
cupule
cur
cura
curac
curade
curado
curant
curcul
curdelis
cure
curi
curial
curint
curio
curioseta
curiosita
curitiba
curni
cursus
curt
curte
curti
curtis
curtmetrac
curts
curvis
curzi
cusan
cusano
cusi
cusin
cusine
cusins
cussi
cussience
cussigna
custums
cutuardis
cuu
cuvierc
cuviert
cuvierte
cuvierzi
cuvierzin
d
da
dabon
dachau
dachstein
dacuardi
dade
dadis
dado
dae
dael
dai
daimler
daj
dakar
dakota
dal
dala
dale
dali
dalila
dalis
dalkey
dall
dalla
dallas
dalle
dalmazie
dam
dama
dame
dams
damu
dan
dana
danau
dance
dancehall
dancing
dandul
dane
dani
daniel
daniele
danilo
danimarche
danimarcje
dano
danon
dans
dant
dante
danze
danziche
daou
dapardut
dapatas
dapi
dar
dara
daran
darbe
darcjan
dario
dark
darkgrey
darling
darmstadt
darte
dartigne
darwin
darzin
das
daspo
data
datade
datazion
date
dateformat
dates
dati
datis
datrebande
dats
dau
dauphine
daur
daurman
dava
davasta
dave
davegnin
davian
david
davide
davin
davis
davo
davosa
davuelc
davuelze
davuelzi
davuelziment
davuelzin
davuelzu
day
days
dc
ddtr
ddts
de
dea
dead
deaf
dean
death
debil
debile
debilmentri
debit
debito
debits
debui
debul
debule
decade
decadimento
decapitazion
decembar
deceni
decenis
deci
decide
decidi
decidin
decidu
decidude
decidudis
decim
decima
decimade
decime
decision
decisions
decjadence
decjadiment
decjadince
declara
declarant
declarazion
declare
declinazion
declinazions
decora
decorade
decorazion
decorazions
decre
decret
decreta
decretade
decrete
decrets
dedekind
dedica
dedicade
dedicadis
dedicated
dedicazion
dedicazions
dediche
dedin
dedizion
dedusi
deduzion
dee
def
defense
deficit
define
defini
definide
definidis
definis
definissin
definiti
definitivamentri
definitive
definitivementri
definizion
definizions
degan
deganutti
degjenera
degli
degne
degra
degradazion
dei
deia
deimos
deita
dek
del
delaware
delega
deleghe
delfi
delhi
deli
delibare
delibaris
delibera
deliberazion
deliberazions
delibere
deliberis
delica
delicade
delimita
delimitade
dell
della
dellach
delle
dello
deludu
delusion
deluxe
demo
democratic
democratiche
democratics
democrazie
demografic
demografiche
demografie
demoni
demosten
den
dena
denant
dene
denis
denominade
denominazion
denominazions
dense
densita
denta
dentela
dentesano
denti
dentramp
dentri
dentrivie
dentro
deo
deponu
deportazions
deposizion
deposizione
depression
depuarta
deputa
deputazione
der
deraliado
derin
derit
deriva
derivabil
derivade
derivadis
derivavin
derivazion
derivazions
derive
derivi
derivin
des
descartes
descri
descrit
descrite
descritive
descrivi
descrizion
descrizions
desene
desenis
desert
deserts
desideri
desideris
design
designa
designgraf
desinence
desinis
desio
desmentea
desnuda
desolazion
dest
destin
destina
destinade
destinadis
destinazion
destinazions
destino
destra
destre
det
detai
detaia
detais
detenzion
determina
determinade
determinant
determinati
determinazion
determine
detrato
dets
detto
detulis
deus
deuteri
deuteronomi
deutsch
deutsche
deutschlands
deutschlandsberg
devant
devasta
devastarin
deve
development
deventa
deventade
deventadis
deventant
deventara
deventarin
deventave
deventavin
devente
deventedi
deventin
devi
devin
devotis
devozion
dewahl
dfrac
dh
dharmakaya
di
dia
diacon
diacono
diacritics
diacun
diademe
diagona
dialectes
dialet
dialeta
dialetiche
dialetologjie
dialets
dialetti
dialettologia
dialic
dialics
dialogus
diamagnetico
diamanta
diametri
diamond
diamonds
diana
diane
diari
diaul
diaz
dibant
dibatit
dibisugne
diccionari
dicembar
dicembre
dick
dickinson
dictionary
didascalic
didatic
didatiche
didatics
didentri
die
diec
dieci
diego
dies
dieschitz
diesel
dieses
diesim
diesime
diestre
diete
diex
difarence
difarencis
difarent
difarente
difarentis
difarents
difat
difensive
difensivis
difenso
diference
diferencis
diferencj
diferent
diferente
diferentis
diferents
diferenzia
diferenziabil
diferenziade
diferenzie
diferenziin
difese
differdange
different
diffuso
dificii
dificil
dificile
dificilis
dificolta
difiets
difindeve
difindi
difindile
difindisi
difindu
difint
difondi
difondin
difondu
difondude
difondudis
difont
difu
difusion
dighe
digita
digits
digjita
dignan
dignita
digram
digrams
diis
dila
dilunc
dilung
diluvi
dimension
dimensions
diminuti
diminuzion
dimore
dimostra
dimostrazion
dimostrazions
dimostre
dimostrin
dimpec
dimponc
din
dinamiche
dinamite
dinastiche
dinastie
dinastiis
dincj
dinea
dinee
dinei
dinein
dino
dint
dio
diocesi
diocesis
dioclezian
dion
dioni
dionis
diossit
dipartiment
dipartimento
dipendence
dipendencis
dipendents
dipendeve
dipendin
dipent
dipiazza
dipint
diploma
diplomatic
diplomazie
diplome
dira
diramazion
dire
diret
diretamentri
direte
diretementri
direti
diretis
diretive
direto
direts
direzi
direzin
direzion
direzions
direzu
direzude
diri
dirigi
dirigjent
dirigjents
dirit
dirits
diritti
dirompent
dis
disabii
disabita
disarma
disastri
disastro
disastrose
disavualita
disc
discjadena
discjadudis
discjama
discjamadis
discognossude
discografia
discografiche
discografichis
discografie
discolc
discontent
discors
discos
discret
discrete
discretis
discs
discurs
discussion
discussions
discut
discuti
discutu
discuviert
discuvierte
discuviertis
discuvierze
disdruma
dise
disecuilibri
disegna
disen
disens
disenu
diserto
disesiet
diseve
disevin
disevot
disfa
disfade
disfate
disfatis
disfe
disfide
disfurtunis
disgracie
disi
disin
disint
disipline
dismentea
dismenteadis
disnatura
disneyland
disocupazion
disore
disot
dispari
disparita
dispatria
dispe
dispensa
dispes
dispiet
dispon
dispone
disponibii
disponibil
disponibile
disponibilita
disponu
disponudis
dispopolament
dispositi
disposizion
disposizions
dispreseave
dispute
dissen
dissendence
dissendent
dissendents
dissens
dissepui
dissepul
dissiplina
dissipline
dissiplinis
dissoluzion
distac
distaca
distance
distancehistory
distancesfrom
distancis
distant
distermina
distingui
distinguin
distint
distinte
distintis
distints
distinzion
distinzions
distire
distret
distrets
distribui
distributive
distribuzion
distribuzions
distriga
distrut
distruzi
distruzion
distuda
disturba
disu
disvilup
disvilupa
disvilupade
disvilupe
disvilups
disvueda
dit
ditado
ditadure
ditato
ditature
dite
ditis
ditonc
ditoncs
dits
diu
dius
divegnin
diven
diventa
diventade
diventant
divente
diversis
diverti
divertiment
divi
diviars
diviarsis
divideve
dividi
dividin
dividint
dividu
dividude
dividudis
dividut
diviers
divierse
diviersis
diviersita
divigni
divignince
divignu
divignude
divin
divinatio
divine
divinis
divinita
diviodi
divise
divisibil
division
divisions
divorzi
divorzia
divulga
divulgazion
diwan
dizionari
dizionario
dizionaris
dj
djeks
dl
dlh
dm
dna
dnitz
do
dobardo
dobje
dobrava
doc
docent
document
documenta
documentade
documentari
documentaris
documentazion
documents
dodi
dodis
dof
dogane
dogi
dogma
dogmis
dogne
doi
doimil
dolar
dolars
dolc
dolce
dolcis
dole
dolegne
dolfin
dolina
dolinc
dolnja
dolo
dolomie
dolomitan
dolomiti
dolomitic
dolomitics
dolomitis
dolorose
dom
doman
domanda
domandant
domandarin
domandave
domandavin
domande
domandin
domandis
domanins
dome
domeni
domenica
domenico
domenie
domestic
domestica
domina
dominade
dominant
dominante
dominazion
dominazions
domine
domingo
domini
dominicane
dominiche
dominis
domino
domizi
domizian
domo
domov
domus
don
dona
donado
donald
donatello
donati
donato
donau
donazion
done
dong
dongje
doni
donna
donne
dons
dontri
doomo
doors
dople
dopli
doplis
dopo
dopovuere
dopra
doprade
dopradis
dopran
doprant
doprarin
doprat
doprave
dopravin
dopre
dopredin
doprin
dora
dorado
dore
doren
doretti
dorf
dorino
doris
doro
dorotee
dos
dose
dot
dota
dotade
doto
dotrine
dotrinis
dots
douglas
dov
dovare
dovaressin
dove
doveve
dovevin
dovi
dovie
dovu
dovude
down
downhill
dozzina
dp
dpr
dr
dra
dragon
drake
dram
drama
dramatic
dramatiche
dramaturc
drame
drams
drap
drau
drautal
drava
drave
dravidichis
dream
drec
dree
drencje
drenthe
drenti
dresde
dret
drete
drets
dreture
dreyfus
droghis
dromensa
drum
dsc
dt
dte
dter
dtirol
du
dua
dualistiche
duar
dub
dubhe
dubis
dublin
duc
duca
duce
duche
duchis
ducj
due
duel
dugoni
duin
dula
dulache
dulcis
dule
duli
dulintor
dumiesti
dumlo
duncje
dune
duomo
dura
durade
duranno
durant
durante
durara
dure
durece
duri
durin
duris
durium
durkheim
durmi
dusinte
dut
dutca
dute
dutes
dutil
dutis
dutrine
dutrinis
dutun
dvd
dvor
dvorec
dy
dylan
dz
dzisiaj
e
eaj
east
eben
ebenthal
eberndorf
eberstein
ebraic
ebraiche
ebraichis
ebraisim
ebreos
ebreu
ebreus
ec
ecc
ecce
ecelence
ecezion
eceziona
ecezions
echternach
ecidi
eclesiastic
ecli
eclisse
eclitic
eclitiche
eco
ecologjie
economi
economic
economiche
economichis
economics
economie
economiis
economiscj
economist
economiste
ecosistemis
ecuador
ecuato
ecuatoria
ecuazion
ecuazions
ecuilibrade
ecuilibri
ecuinozi
ecuinozis
ecuipac
ecuiva
ecuivalent
ecuivalente
ecumenic
ed
edad
eden
edge
edi
edicicloeditore
edicions
edificade
edifici
edificis
edilizie
edinburgh
edirne
edit
edita
edition
edito
editor
editore
editori
editorial
editoriale
editorie
editrice
edizion
edizione
edizioni
edizions
edling
edoardo
edolo
edt
eduart
educado
educati
education
educative
educativis
educazion
edward
eeprom
ef
eferding
efesins
efeso
efeti
efetivementri
efiet
efiets
egeo
egg
eggen
eggenberg
egholm
egizians
egjemonie
egjinart
egjit
egjizian
egjiziane
egjizians
egjizie
egjzian
egloghe
egloghis
ei
eibelhof
eichenberg
ein
einaudi
eino
einstein
eis
eisenach
eisenkappel
eisenstadt
eixendorf
eje
ek
el
elabora
elaborade
elaborazion
elabore
elastic
elbe
elde
ele
electa
electronic
electronics
elegance
elegant
elegante
elegiis
elegjie
elemencj
element
elementa
elementi
elements
elena
elenc
elenca
elencadis
eleniscj
elenisim
elenistic
elenistiche
elenistichis
elet
eleto
eletora
eletric
eletriche
eletrichis
eletricita
eletrics
eletromagnetiche
eletromagnetichis
eletromagnetics
eletron
eletronegativita
eletronic
eletroniche
eletronics
eletrons
eletrotecniche
elets
eleva
elevade
elevadis
elevazion
elezion
elezions
elezu
elfs
eli
elicotar
elie
elimina
eliminara
eliminazion
eline
elinor
elio
elipuart
elisa
elisabete
elitiche
elitichis
elizabeth
eljko
ellero
elocuence
elocui
els
elsa
elvetiche
elvio
em
email
emana
emancipazion
emanue
emanuel
emanuele
emargjina
embleme
emergjence
emerit
emi
emigra
emigrants
emigrazion
emigrazions
emile
emili
emilia
emilian
emiliano
emilie
emilio
eminem
emisferi
emission
emitent
emitents
emivite
emma
emmanuel
emmersdorf
emoglobine
emozion
emozions
empiriche
emptyset
en
encicliche
enciclopedia
enciclopedico
enciclopedie
encje
encyclopedia
end
enduro
ene
enea
enee
eneide
enemonc
energia
energje
energjetic
energjetichis
energjie
energjietic
energjiis
engadine
engelbach
engels
engineering
english
eni
enknach
ennio
enns
enorme
enrichment
enrico
ensci
ensemble
ent
entalpie
entita
entjakob
entomologjie
entra
entrade
entre
entri
entrin
ents
entusiasim
enuncia
enunzia
enzims
enzo
ep
epatite
epi
epic
epicentri
epiche
epics
epicu
epicureane
epicuree
epicureisim
epidemie
epidemiis
epifanie
epigrafe
epigrams
episcopa
episodi
episodis
epistolae
epistolari
epistolario
epistulae
epistulis
epitome
epo
epoca
epoche
epochis
epopee
epoque
eppenstein
eprom
eps
epsilon
er
era
eraldiche
erano
erasme
erba
ercolan
ercole
ercul
ere
erede
eredita
ereditari
ereditarie
eren
eri
eric
ericsson
erin
eritropoietine
erlach
ermacora
ermacore
ermanno
ermes
ermolai
ernest
ernesto
ernst
ero
erode
erodot
erodoto
eroe
eroga
eroi
eroiche
erois
eroisim
erosion
erotic
erts
erudizion
eruzion
eruzions
erzegovine
es
esa
esagona
esalta
esam
esametris
esatamentri
esatementri
escarre
esch
escludu
esclusi
esclusion
esclusive
esclusivementri
esculapi
ese
esecuti
esecuto
esecuzion
esegui
eseguide
esempi
esempio
esempla
esempli
esemplis
eserci
esercit
esercita
esercitazion
esercite
esercito
esercits
esercizi
esercizis
esgaroth
esi
esibizion
esibizions
esigjence
esili
esilia
esim
esime
esiodi
esist
esiste
esistence
esisteve
esistevin
esisti
esistin
esistu
esit
eso
esodi
esop
esortazions
esorte
espace
espan
espansion
espansions
esperanto
esperience
esperiencis
esperienza
esperiments
espert
esperts
espiazion
esplica
espliche
esplicitementri
esplora
esplorado
esplorazion
esplorazions
esplosi
esplosion
espon
esponent
esponents
esponi
esponu
esponude
esposizion
espresion
espressi
espression
espressions
espressive
esprim
esprimi
esprimin
esprimu
esprimude
espropriazion
espulsion
esse
essenzia
essere
essi
est
esta
estate
este
estension
ester
esterio
esterne
esterni
esternis
esterns
estetiche
esti
estienne
estinzion
estive
estonie
estrazion
estrem
estreme
estremita
estrems
estri
estro
et
eta
etar
etars
etc
ete
eterne
eterni
eternita
ethnologue
etiche
etichete
etilic
etimologia
etimologie
etimologjic
etimologjie
etiopie
etis
etna
etniche
etnichis
etniis
etnografic
etnografie
etrurie
etrusc
etrusche
etruscs
ettore
etymologicum
eu
eucarestie
eucaristie
euclide
euclidee
euclideis
eud
eufemie
eugenio
euler
eur
eurafrasie
eurasie
euripit
euro
europe
european
europeane
europeanis
europeans
europee
europei
europeis
europeo
euros
eurostar
eurostat
eurozone
eusebi
euskal
eustachi
evan
evangeli
evangeliche
evangelista
evangjelic
evangjelics
evangjeliscj
evangjelist
evans
evaporazion
eve
event
events
eventua
evic
evidence
evident
evidente
evidentementri
evidentis
evidents
evita
evolu
evolude
evoluzion
evoluzions
ex
exec
expositur
exposituren
express
extra
eyes
ez
ezechie
ezio
f
fa
fabbro
fabi
fabian
fabiano
fabio
fabrica
fabricazion
fabriche
fabrichis
fabris
fabrizio
fac
faccia
facebook
fachin
faci
facii
facil
facile
facilis
facilita
facilmentri
facolta
facta
fade
fadie
fadiis
fadis
faedis
faf
faggin
fagus
fahrenheit
fai
faia
faidutti
faja
fal
fala
falade
fale
fali
faliment
falis
falkland
falliment
fals
false
falsis
falstaff
falu
fam
fame
famee
famei
fameis
famiglia
familia
familiya
family
famo
famose
famosis
famous
fan
fana
fane
fanna
fantarie
fantasie
fantasience
fantastic
fantat
fantate
fantatis
fantats
fantini
fanton
fantoni
fants
fantuzzi
fanzine
far
fara
faraon
faraons
farc
fare
farewell
fari
farie
farine
farmacie
farnese
faroeis
farsa
farse
fas
fasara
fasaran
fasci
fascista
fase
faserin
faseve
fasevin
fasi
fasin
fasint
fasintlu
fasis
fasoi
fassa
fassan
fasse
fassicui
fassis
fassiscj
fassisim
fassist
fassiste
fastidi
fastidis
fastu
fasulo
fat
fata
fate
fatis
fato
fatoriis
fats
fatta
fatto
fature
faulis
faune
faustin
faustino
fausto
favele
favetti
favo
favorevui
favorevulis
favori
favoride
favoridis
favui
fazions
fc
fcent
fe
feagne
feat
fece
fede
fedei
fedele
fedeli
fedelta
federa
federai
federal
federaliscj
federalisim
federation
federazion
federica
federico
fedora
fedri
fedriga
fedro
feicht
feira
feistritz
feld
feldbach
feldkirch
feldkirchen
fele
feletis
felic
felice
felicita
felix
fella
felsen
feltre
feltrinelli
femine
femini
feminin
feminine
femininis
feminins
feminis
femme
fen
fenestrelle
fenici
fenicis
fenomen
fenomeni
fenomenis
fenomeno
fenomens
fenomin
fente
fenty
fer
fera
ferade
feradis
ferare
ferbint
ferdinand
ferdinando
ferdinant
feri
feridis
ferigo
feriis
ferma
fermade
fermadis
fermami
fermarin
ferme
fermentazion
ferments
fermi
fermin
fernando
ferndorf
feroviari
feroviarie
feroviaris
ferovie
feroviis
ferrare
ferrari
ferraro
ferrau
ferrer
ferro
ferroni
ferrovie
ferruccio
fers
fersorie
fertaie
fertil
fertilis
fertilita
fertilizants
feruglio
fervo
festezade
festeze
festintenda
festival
fet
feuda
feudai
feut
fevela
fevelade
feveladis
fevelant
fevelants
fevelave
fevelavin
fevele
feveli
fevelin
fevelis
fevra
fevrar
ff
ffern
fi
fia
fiabe
fiandris
fiar
fiat
fibre
fibris
fiction
fida
fidave
fide
fidel
fidri
fiducie
fie
field
fier
fiere
fiermagnetic
fiesta
fieste
fiestis
figa
fighting
figlie
figlio
figura
figurant
figurave
figuravin
figure
figurin
figuris
fii
fiis
fil
file
filemon
filepath
files
fili
filia
filip
filipets
filipinis
filipos
filippi
filippo
fillmannsbach
film
filmografie
films
filo
filobus
filoimperia
filolic
filolics
filologica
filologjiche
filologjie
filosof
filosofic
filosofichis
filosofie
filosofiis
filosofs
filtri
fin
fina
final
finale
finalita
finalmentri
finance
financis
finanzia
finanziament
finanziaments
finanziari
finanziarie
finanziariis
finanziaris
finco
fine
finece
finecis
fini
finide
finidis
finiment
finira
finirin
finis
finissin
finita
finive
finkenstein
finlande
finlandie
fins
fint
finto
fintramai
fintremai
finu
finude
fiolance
fiorella
firefox
firenze
firma
firmade
firmatus
firme
firmian
firmin
first
fis
fisca
fiscade
fischin
fisher
fisic
fisiche
fisichementri
fisichis
fisics
fisiologjie
fiss
fissa
fissade
fisse
fissis
fiume
fk
fla
flabe
flabellifer
flabis
flac
flacco
flaccus
flag
flaiban
flambri
flambruc
flame
flamis
flanc
flancs
flann
flap
flash
flat
flatschach
flattach
flauto
flavi
flavio
flavis
flession
fling
flk
flo
flora
flore
florean
florence
florentin
florentine
florentins
flores
florian
florida
floride
floridure
floris
florit
flote
flottiglia
flu
flum
flumisel
flums
flun
fluo
flus
fluvia
fm
fo
fobos
fodom
foggia
foggie
fogo
fogola
foi
foian
folclo
folk
folkest
foncs
fonda
fondade
fondadis
fondado
fondament
fondamenta
fondamentai
fondamental
fondaments
fondant
fondarin
fondato
fondazion
fonde
fondi
fondiarie
fondin
fondis
fondo
fondu
foneme
fonetic
fonetiche
foni
fonologjie
fons
font
fontana
fontane
fontanefrede
fontanini
fontinormative
fonts
fontsize
football
for
forade
forall
foran
forcele
forcelis
forcje
ford
forescj
forest
foresta
foreste
forestis
forgjarie
forijulii
forin
forli
forma
formade
formadi
formadis
formalmentri
formant
format
formazion
formazions
forme
forment
formie
formin
formis
formula
formulazion
formule
formulis
fornarine
forni
fornicazion
fors
forsi
forsit
fortaleza
forte
fortifica
fortificade
fortificazions
fortuna
fortunazian
fortune
forum
forza
forzis
fos
foscari
foscje
fosfar
fossalte
fossii
fossin
foto
fotograf
fotografe
fotografiche
fotografics
fotografie
fotografiis
fotos
found
foundation
fox
fozzati
fr
fra
frac
fracadis
fraccaro
fradi
fradis
fraham
frameless
framencj
frament
framiec
franc
franca
france
frances
francesc
francesca
francescato
francesco
francescon
francese
francesis
francfuart
francfurt
franche
francia
francis
francisco
franciszek
francja
francje
franco
francombat
franconie
francs
frangipane
frank
frankfurt
franking
franklin
frant
franti
frantschach
franz
frari
fraris
frase
fraser
frasis
frate
fratello
frater
fratrem
frattempo
frattis
frau
frauenstein
frazer
frazion
fraziona
frazione
frazions
fre
frece
frecis
frecuence
frecuent
frecuenta
frecuentade
frecuente
frecuents
fred
freddie
frede
fredrich
free
freedom
freeride
freestyle
fregul
freistadt
frejus
fren
frena
frenetic
frenos
frente
frequenta
fresach
fresc
frescja
frescjade
frescje
frescs
freud
freudenberg
friaul
frico
friedlach
friedrich
frisanc
fritz
friu
friul
friulana
friulane
friulani
friulano
friuli
friulian
frivul
from
front
fronta
fronte
frontiere
frontieris
frontin
frozen
fruc
fruch
fruia
frumento
frus
frut
frute
fruti
frutin
frutins
frutis
fruts
frutut
fs
ftp
fu
fuarce
fuarcis
fuart
fuarte
fuartece
fuartis
fuartone
fuarts
fuc
fuee
fueis
fuesse
fughe
fughis
fui
fuiace
fuji
full
fulvi
fulvio
fum
fumate
fumets
fumetto
fumut
fumuts
funera
funerari
funeraris
funivie
funk
funzion
funziona
funzionament
funzionari
funzionaris
funzione
funzions
fur
furc
furi
furio
furioso
furla
furlan
furlana
furlane
furlaneta
furlanie
furlanija
furlanis
furlanist
furlanofon
furlanofone
furlans
furni
furnide
furniment
fusi
fusila
fusilazions
fusine
fusion
fust
fusui
futu
future
futuris
fux
fußach
fvg
fx
g
ga
gaber
gabon
gabriel
gabriele
gabriella
gacjis
gaeilge
gaelic
gaeliche
gaeltacht
gaetan
gaetano
gaete
gai
gaia
gail
gailtal
gaio
gaius
gaißau
gal
galanda
galantarie
galarie
galariis
galassie
galassiis
galatiche
galazie
gale
galere
gales
galete
galicie
galicija
galie
galilee
galilei
galileo
galizian
galiziane
galizie
gallen
gallenkirch
gallico
gallie
gallizien
gallo
gallus
galo
galois
galon
galons
gals
galuppi
galvani
gambara
gambia
gambiade
gambiament
gambiaments
gambiant
gambie
game
gamma
gams
ganch
gandalf
gandhi
gandolf
gangemi
gap
gapiscj
garanti
garantide
garanzie
garbe
garbi
garci
garcia
garde
garden
gardena
gardene
gardiscje
gare
garganic
garibaldi
garibaldin
garibaldins
garis
garlatti
garoful
garp
gas
gaschurn
gaspare
gaspari
gasparo
gassman
gasso
gatti
gaudete
gauss
gazete
gazzetta
gazzettino
gb
gcopaleen
gd
gdan
gdp
gdzie
ge
gegend
gei
geis
geistliche
geldof
gelem
gelmini
gem
gemeinden
gemona
gen
gena
genar
genars
genera
general
generale
generalitat
generation
genga
geni
genie
genio
gennep
genoa
gens
gente
gentiluomo
geoffrey
geografia
geografica
geografico
geografie
georg
george
georgen
georges
georgetown
georgia
georgian
georgichis
georgie
ger
gerais
gerber
geretsberg
gergolet
germain
germanico
germany
gern
gerold
gertraud
gestapo
gesu
get
gfdl
ggers
gherde
ghet
ghibelins
ghil
ghins
ghirbe
ghitare
ghitaris
ghitarist
ghz
gi
gia
giacca
giacinto
giacomelli
giacomini
giacomo
giai
giambattista
giampaolo
gian
giancarlo
gianfranco
giang
gianluca
gianni
giavitto
gica
gigi
gil
gilberto
gilez
gilgenberg
gime
ginevre
gino
giobatta
gioia
giolitti
giordano
giorgio
giornale
giornalista
giorni
giorno
giosue
giotto
giovanna
giovanni
gioventu
girl
giro
girolamo
girotondo
git
gitschtal
giudeo
giugno
giulia
giuliana
giuliano
giulianova
giulio
giurami
giure
giuseppe
giustinian
giustizia
giusto
gj
gjai
gjal
gjalats
gjalie
gjaline
gjamaiche
gjambe
gjambis
gjandusse
gjapon
gjapone
gjaponeses
gjaponesis
gjat
gjava
gjavade
gjavadis
gjavant
gjave
gjavis
gje
gjee
gjelo
gjeloc
gjelosie
gjen
gjenar
gjenars
gjenera
gjenerai
gjeneralizazion
gjeneralmentri
gjenerazion
gjenerazions
gjeneric
gjeneriche
gjenero
gjenerosita
gjenesi
gjenetic
gjenetiche
gjeni
gjenito
gjenome
gjenove
gjenovefe
gjens
gjenue
gjeofisiche
gjeograf
gjeografic
gjeografiche
gjeografichis
gjeografics
gjeografie
gjeografs
gjeolic
gjeologjiche
gjeologjics
gjeologjie
gjeometriche
gjeometrichis
gjeometrie
gjeometriis
gjeometris
gjeorgjians
gjeri
gjermani
gjermanic
gjermaniche
gjermanichis
gjermanics
gjermanie
gjermanofonis
gjeronimo
gjerusalem
gjespui
gjesti
gjestion
gjesu
gjesuits
gjilbert
gjinevre
gjir
gjiviane
gjolde
gjoldi
gjoldin
gjolt
gjontis
gjorna
gjornaliscj
gjornalisim
gjornalist
gjornaliste
gjude
gjuliani
gjulie
gjulin
gjviano
glac
glace
glacia
gladegne
glan
glandulis
glanegg
glanz
glasgow
glauco
gleisie
glemona
glemone
glerie
gleseu
gleseute
glesia
glesie
glesiis
glesis
gli
glo
globa
globalizazion
globasnica
globasnitz
globui
gloria
glorie
gloriose
glotolic
gm
gmt
gmunden
gn
gne
gnece
gnerf
gnervin
gnervo
gnesau
gnese
gnespola
gnesutta
gneu
gni
gno
gnoc
gnocis
gnognosaurs
gnognowood
gnosticisim
gnot
gnots
gnove
gnovis
gnu
gnuf
go
goccia
godal
goes
goia
gol
golaine
goldberg
golden
goldoni
gole
golf
golfs
golico
golie
golpe
golpes
gols
gome
gomis
gomita
gona
gonars
gone
gonfalon
gonfaloni
gonna
gonza
good
google
gora
gordon
gori
goric
gorica
goritschach
gorizia
gorje
gortan
gortani
gospel
gotart
gotha
gotic
gotiche
gotichis
gotis
gottfried
gottlieb
gousk
governa
governado
governati
governativis
governato
governe
governi
governo
gp
gr
gra
graben
grabensee
grabfeld
grac
gracie
graciis
grad
gradec
gradenigo
gradis
gradisca
gradiscje
grado
gradu
gradua
grafeme
grafenstein
grafic
grafiche
grafichis
grafie
grafiis
graisan
gram
gramatic
gramatica
gramatiche
gramatichis
grame
grammatica
grampa
grams
gramsci
gran
grana
granade
granc
grancj
grand
grande
grandece
grandecis
grandi
grandio
grandis
grandon
grandone
grandonis
grandonon
grandonone
grandonons
granduca
granduche
granele
granero
grans
grant
grants
grappa
gras
grasie
grass
grassa
grasse
grassi
grati
gratis
grau
grave
gravis
gravita
gravitas
gravity
gravo
gray
graz
graziadio
grazie
graziis
gre
great
grec
greca
grece
greche
grechis
grecie
grecita
greco
grecs
gredei
grediscje
greek
greenwich
greghe
greghis
gregor
gregori
gregorian
gregoriane
gregoricchio
gregorio
gregory
greifenburg
greis
grenade
grene
grenoble
grepie
greuth
grevenmacher
gri
gricui
gridcolor
gries
grieskirchen
griffen
grigions
grillemajor
grilleminor
grima
grimani
grimming
grinte
gris
grisat
grischun
grise
grison
grisons
grisostomo
grivo
gro
groenlande
groenlandie
grop
grops
gros
grote
group
großso
gru
grua
gruaro
grue
grues
gruesse
gruessis
grum
grund
grundlsee
grunge
grup
gruppo
grups
grutschen
gruyter
gschwandt
gu
guam
guangxi
guanine
guants
guarani
guarient
guarnidure
guart
guastado
guatemala
gubane
gue
guere
guerra
guetta
guez
guggenberg
guglielmo
guida
guide
guido
guilin
guillaume
guinee
gundersdorf
guriciz
gurisatti
gurizan
gurizane
gurize
gurk
gurktal
gust
gusta
gustav
gustave
gusto
gutemberg
gutenberg
guttaring
guvia
guvie
guvier
guvierna
guvierne
guviers
guyana
guyane
gv
gyi
h
ha
haag
habe
habla
hai
haibach
haidach
haider
hair
haiti
hall
hallein
halo
hamas
hamburg
hamferð
hamlet
hammer
hammersmith
hampshire
han
handel
handenberg
hanno
hanoi
hans
hapkido
hard
hardtail
harold
harris
hart
hartberg
hartkirchen
harvey
haslach
hasta
hau
haus
hausruck
haute
hauts
have
hawai
hawaii
haydn
haza
haß
haßberge
hcv
he
heart
heaven
heavy
hebrew
hegel
height
heilbronn
heiligenstadt
heimatland
heinemann
heinrich
help
helsinki
hemingway
henri
henrik
henry
herald
herbert
hercegovina
here
hermagor
hermann
hernando
herria
herzegovina
hex
hf
hg
hi
hieflau
high
hilbert
himmelberg
hindenburg
hindi
hindu
hinterberg
hinzenbach
hip
hira
hirschbach
histo
historia
historiae
history
histria
hitler
hittisau
hl
hlbach
hldorf
hlkreis
hmen
hnhart
ho
hobby
hobbys
hobit
hochburg
hochegg
hochrindl
hockey
hof
hofburg
hofer
hofkirchen
hohenthurn
hohenweiler
hol
holbrook
hollywood
holstein
holten
holz
holzstrasse
home
homo
honduras
hong
honolulu
honorum
honsell
hook
hop
horizon
horizonte
horst
hotel
houdek
howard
hribi
htm
html
http
https
hu
huang
hub
hudson
hue
hugo
hull
hum
hundsdorf
hussein
hutchinson
hyksos
i
ia
iberiche
iberichis
ibm
ibridis
ic
ice
ich
icone
iconografiche
iconografie
id
ida
idaho
ide
idea
ideade
idee
ideis
identifica
identificade
identificazion
identifiche
identifichin
identita
ideologie
ideologjie
ideologjis
idiom
idioms
idiu
idraulichis
idri
idrocarbu
idrogjen
idrografie
ie
ieee
ienfri
ientre
iere
ieri
ies
iesou
iessi
if
ignora
ignorance
igor
ihpolje
ii
iia
iii
iiia
ikurrin
il
ilari
ilega
iliade
iliescu
ilimita
ilirie
ilirisim
ill
illinois
illustrata
illustrazioni
iluminiscj
iluminisim
ilusion
ilustra
ilustrado
ilustrazion
ilustrazions
im
image
images
imagesize
imagjin
imagjina
imagjinari
imagjinarie
imagjinazion
imagjine
imagjinis
imagjins
imbalsamazion
imbarcazion
imberdea
imberdeade
imberdei
imbroi
imbroia
imbroio
imdb
imedia
imediade
imens
imigra
imigrazion
imita
imitado
imitave
imitazion
immagine
imni
imnis
imora
imorta
imortalita
imp
impac
impadronantisi
impara
imparade
imparadis
imparat
impare
imparin
impast
impasta
impastanade
impat
impedi
impegn
impegna
impegnade
impegnantsi
impegnin
impegns
impen
imperado
imperadore
imperato
imperatore
imperfet
imperi
imperia
imperial
imperialisim
imperis
imperturbabilita
impia
implant
implanta
implants
implea
implei
implena
implicadis
implicazions
impliche
impon
imponent
imponi
imponude
important
importantis
importants
imposizion
impostazion
imprendito
imprenditoria
impresari
imprescj
imprese
impresis
impresona
impression
impressiona
impressionant
impressions
imprest
imprin
improibi
improibizion
improvisazion
improvviso
impuarta
impuartance
impuartancj
impuartant
impuartante
impuartantis
impuartants
impuest
impuestis
impuls
impurita
impussibil
imputazions
imunitari
in
ina
inacuarc
inacuarzeve
inalore
inaltro
inamora
inamore
inant
inaugura
inauguracion
inaugurade
inaugurazion
inaugure
inc
inca
incapacita
incarga
incarghe
incaric
incas
incendi
incendia
incensa
incense
inchieste
incident
incisions
incisivis
incita
incite
incjaria
incjarie
incjarna
incjaroi
inclina
inclinazion
inclu
includeve
includin
includu
includude
includudis
inclusion
incolo
incolpa
incomplet
incontri
incontro
incoragja
incoragjament
incoragje
incorona
incoronazion
incorpora
increment
incressi
incressite
incrosa
incrosadis
incrosado
incuadrin
incuardadure
incuinament
incuintre
incuintri
incuintrin
incuintris
incuisizion
inculurit
incursions
ind
indagacions
indau
indebiliment
indenant
indentation
indeta
indeterminati
indevant
index
indi
indian
indiana
indiane
indianis
indians
indic
indica
indicade
indicado
indicant
indicati
indicave
indicazion
indicazions
indiche
indichin
indie
indigjene
indigjens
indiis
indipendence
indipendent
indipendente
indipendentis
indipendentist
indipendents
indis
indispensabil
individua
individualisim
individualita
individuazion
individui
individuis
individuo
indo
indoeuropean
indoeuropeane
indoeuropeanis
indoman
indonesia
indonesie
indotora
indrec
indri
indu
induisim
indula
indurance
indurant
industria
industriale
industrializa
industrializazion
industrie
industriis
industrio
inedit
inedite
inevitabile
infanti
infanzie
infatti
infedelta
inferio
inferiorita
inferiormentri
inferno
infet
infeta
infezion
infezions
infier
infin
infini
infinide
infinidis
infinitesima
infinito
inflessibil
influ
influenc
influence
influencis
influent
influents
influenza
influi
infogade
informa
informati
informatic
informatiche
informatics
informazio
informazion
informazions
infossa
infrastruturis
infratant
infty
infu
ingaia
ingegni
inghiltere
ingjan
inglac
ingle
inglese
inglesis
ingletiere
inglobade
ingo
ingolosi
ingranac
ingrandi
ingre
ingredei
ingres
ingropadis
ingruma
ingrumavin
inhabitant
inicuita
inie
iniment
inizi
inizia
inizialmentri
iniziative
iniziativis
inizis
inju
inma
inmagins
inmala
inmanea
inmaneade
inmanee
inmo
inn
innamorato
innea
innerbraz
innere
innkreis
inno
innocente
innomena
innomenade
innomenadis
innomine
innsbruck
inocenc
inom
inondazions
inorganiche
inorganics
inovado
inovative
inovativis
inovazion
inovazions
inprin
inquadrade
inricji
insalvadea
inscrit
inseda
insedia
insediament
insediaments
insegna
insegnament
insegnaments
insegnance
insegnant
insegnants
insegnave
insegne
insegnin
insegnis
inseguiment
inseri
inseriment
inset
insets
insieme
insiemi
insiemis
insiemistiche
insiemit
insin
insiora
insium
insolit
insom
insome
insomp
insot
inspira
inspirade
inspiradis
inspirave
inspirazion
instala
instaladis
instancabil
instaurazion
inste
instes
institu
institui
institut
institute
instituto
instituziona
instituzions
instrada
instruments
insula
insumia
insurezion
int
inta
intai
intaia
intal
intant
inte
integra
integrade
integrazion
integrita
inteletua
inteligjence
intellectual
inten
intense
intensificant
intensita
intensive
intent
intenzion
intenzions
inter
interazion
interazions
intercala
intercity
interdinta
interdipartimenta
intere
interes
interessa
interessant
interessante
interessantis
interessants
interessave
interesse
interfacis
interie
interiis
interio
interiorita
interlingua
interlocuto
intermedis
interna
internacional
internament
international
internaziona
internazionale
internazionalist
interne
internet
interni
internis
interno
interogati
interogativis
interot
interpreta
interpretade
interpretazion
interpretazions
intersezion
interstela
interuzion
intervai
interval
interven
intervent
intervents
intervenzion
interview
intervigni
intervista
interviste
intervistis
intes
intese
inti
intiere
intim
intindeve
intindi
intindiment
intindin
intindu
intindude
intint
intire
intitula
intitulade
into
intor
intransigent
intratant
intrateniment
introdot
introdote
introdots
introdu
introdusi
introdusin
introdusint
introdusu
introdusude
introduzion
intuitive
intun
intune
inuit
inuktitut
inutile
inva
invade
invadi
invadin
invadu
invadude
invasion
invasions
invaso
invecit
invelenament
inventa
inventade
inventadis
inventari
invente
inventi
invento
invenzion
invenzions
inverna
inverti
invesit
investigato
investigazion
investiments
inveze
invezi
invezit
invi
invia
inviade
inviament
invida
invidie
invidio
invie
invier
inviers
invit
invita
invoche
invuluc
inzegnerie
inzegni
inzenogla
inzirli
inzorna
io
ion
ionizazion
ionizzazione
ios
iowa
ip
ipa
ipertestua
ipolit
ipolito
ipotesi
ipotesis
ipotetic
ipotizadis
ipotize
ippolito
iprage
ir
ira
irachen
irachens
iran
iranian
iraq
iraqi
iraziona
ire
iredentisim
iredentist
iregola
irene
iridi
irish
irko
irlande
irlandese
iroche
iron
ironiche
ironie
irovnica
irschen
is
isaac
isabel
isabele
isac
isaia
isaie
isal
isbn
iscri
iscrit
iscrite
iscrits
iscrizion
iscrizions
ise
iseo
iseran
isi
isidoro
islam
islamic
islamiche
islamics
island
islande
islands
iso
isola
isolade
isoladis
isolament
isole
isonzo
isotop
isotops
ispeto
ispira
ispirade
ispiradis
ispirazion
ispire
israe
israel
israeli
israelian
israelitis
israelits
issues
ist
ista
istambul
istanbul
istance
istantanee
istat
iste
istes
istesse
istint
istitu
istitui
istituide
istitut
istitutladinfurlan
istituto
istituzion
istituziona
istituzions
istmi
istorie
istoriis
istriane
istrie
istroments
istrui
istruments
istruzion
istruzions
isule
isulis
it
ita
italia
italian
italiana
italiane
italiani
italianita
italianizazion
italiano
italic
italiche
italics
italie
italo
italy
itara
iter
iti
itinerari
itite
itri
its
itunes
iu
iulia
iulii
iulium
iupac
iuris
iuvavum
iv
iva
ivan
ivano
ivo
ivrea
iwo
ix
iz
j
ja
jack
jackson
jacob
jacop
jacopo
jacques
jacum
jacuma
jadransko
jae
jahrbuch
jahve
jainisim
jak
jako
jakob
jal
jam
james
jan
jane
janeiro
japanese
japon
jaroni
jason
jauntal
jay
jazz
je
jealousy
jean
jeans
jedi
jefferson
jehova
jempla
jemple
jenfri
jenner
jennersdorf
jenny
jentra
jentrade
jentradis
jentrant
jentrarin
jentrave
jentre
jentri
jentrin
jeova
jeovi
jerbe
jerberave
jerbis
jere
jeremie
jeri
jerin
jeroglific
jeroni
jersey
jerusalem
jes
jessi
jessin
jessint
jessisi
jessu
jessude
jessudis
jest
jestem
jesu
jesus
jet
jets
jeva
jevade
jeve
jewish
jez
jezerce
jezeru
ji
jima
jimmy
jingle
jitsu
jiva
jkd
jo
joachim
joachin
joan
jodi
joe
joh
johan
johann
johannes
johannesen
john
johnson
joi
joibe
joksimovic
jolly
jonathan
jone
jones
joni
jonizazion
jonokogno
jonokognos
jons
jop
jordan
jorge
jose
joseba
josef
josep
joseph
josephine
josephson
josif
josip
josue
jote
jouf
joule
journal
journalist
joz
jpg
jr
ju
juan
juana
juda
judade
judaic
judaiche
jude
judee
judenburg
judeos
judeus
judic
judica
judici
judin
judis
judite
judith
judizi
judiziari
judizio
judiziose
judizis
judori
judri
juglans
jugn
jugosla
jugoslave
jugoslavie
jugoslavis
jules
juli
julia
julian
julie
juliis
julius
jumada
jump
jumping
juni
junio
junon
junzion
jupitar
jupiter
juridic
juridiche
juridichis
juridics
jurie
jurisdizion
jurisdizions
jurisprudence
jus
juscj
just
justa
juste
justifica
justify
justinian
justis
justizia
justizie
jutori
jutsu
juventus
k
ka
kaczynski
kai
kaindorf
kainisch
kali
kaltenberg
kami
kampf
kansas
kant
kanye
kanzian
kappa
kappah
kappavu
kappel
karate
karl
karlsruhe
karma
karol
katar
katas
katedrala
kathrein
kaunas
kazakistan
kazimierz
kde
ke
keewatin
kein
kej
kelvin
kemal
kempo
kendall
kennedy
kennelbach
kenpo
kentucky
kenze
kepler
kernel
kerschdorf
kersevan
keutschach
kg
kheirar
khufu
khuong
ki
kick
kidnapped
kien
kiev
kilimanjaro
kim
kin
kind
king
kinte
kioto
kirchbach
kirchberg
kirchdorf
kirche
kirchham
kirghizistan
kissingen
kitzingen
kj
klagenfurt
klaus
kleblach
klein
kleindorf
kleinkirchheim
kleinso
klimt
klo
klopeiner
km
kmq
knittelfeld
know
ko
koc
kocijan
kofi
kofic
kogl
koine
kolbe
komi
kon
konarski
kong
konrad
konzerte
koper
koreng
kosakenland
kosovni
kosovo
kossuth
kot
kr
krainberg
krappfeld
kras
krasnodar
kraßnitz
krems
kreuth
kreuzberg
krimi
krn
kro
krobathen
krottendorf
krumbach
krumpendorf
ku
kuban
kulm
kunta
kuratowski
kuro
kurpfalz
kurt
kuwait
kv
kwatta
kyo
kyodan
kyushu
l
la
laas
labia
laboratori
laboratoris
laboratory
labour
labrador
lac
lacrosse
lad
lade
ladenburg
ladin
ladina
ladine
ladini
ladinia
ladinie
ladinis
ladino
ladins
ladis
lady
lafnitz
lagnul
lago
lagrimis
laguna
lagune
lai
lait
lajos
lalli
lam
lambach
lambica
lampa
lamuela
lana
lance
lancia
lancu
land
landeshauptmann
landeshauptstadt
landkreis
landkreise
landrace
landtag
lane
lang
langen
langobarde
langobardis
langobardorum
langobart
langobarts
language
languages
lant
lantanoidis
lao
lapii
lara
larc
larcs
lare
large
largje
largjece
largjis
larin
laris
larry
larson
larus
las
lassa
lassach
lassade
lassadis
lassant
lassarin
lassave
lasse
lassendorf
lassi
lassin
lastre
lat
latarie
late
latera
lateran
laterns
laterza
latin
latina
latine
latinis
latins
latitante
latitudin
latschach
lauc
lauda
laude
laudis
laur
laura
laure
laurea
lauree
laurenc
laurenzi
laurin
laurinc
lauro
laut
lauzi
lava
lavamu
lavande
lavanttal
lavarian
lave
lavi
lavin
lavinis
lavis
lavo
lavora
lavorado
lavorant
lavoranzie
lavorarin
lavorati
lavorativis
lavorato
lavorave
lavoravin
lavorazion
lavore
lavori
lavorin
lawn
lawrence
lazar
lazer
lazi
lazio
lazzara
lazzarini
lazzaro
laßnitz
lb
lbling
lc
ld
le
lea
leade
leader
leadis
league
leam
leamis
leams
lear
leat
lebesgue
lec
lech
ledi
ledre
ledringhem
ledro
leducq
lee
left
leftrightarrow
lega
legal
legalita
legalmentri
legge
leggende
leggi
leghe
leghis
leghissa
legions
legislati
legislation
legislazion
legiya
legjislati
legjislative
legjislature
legjislazion
legjon
legjons
legnam
legno
legris
lei
leibnitz
leibniz
leiende
leif
leifling
lein
leint
leitha
leithen
lelo
leme
lemis
len
lena
lenart
lendava
lendorf
lendva
lenga
lengac
lenghe
lenghis
lenghistic
lenghistiche
lenghistichis
lenghistics
lengua
lenin
leningra
lens
lent
lenzon
leo
leoben
leon
leona
leonard
leonardo
leonart
leone
leonhard
leons
leopardi
leopold
leopoldo
leopolt
lepanto
lepit
lepre
leria
lerin
les
lesachtal
lessach
lessic
lessica
lessicografie
lessons
let
letare
letares
letaris
letera
leteradure
leteralmentri
leterari
leterarie
leterariis
leteraris
leterature
leteraturis
lethwei
leto
letonie
lets
letteraria
letteratura
letterature
lettere
leture
leturis
lev
levan
leve
levi
levin
levitic
lewis
lex
lexical
lexview
lez
lezioni
lezions
li
lia
liba
liban
libar
libare
libaris
libars
libe
liber
libera
liberade
liberado
liberal
liberarin
liberazion
liberementri
liberie
liberiste
libero
libert
liberta
libertaris
liberty
libie
library
libre
librerie
libret
libri
libris
libro
libroii
librut
libruts
licence
licencis
license
licenzia
liceu
licini
lico
licuide
licuit
licuits
lidri
lie
liebe
liebenfels
liechtenstein
lien
liende
liendis
lienz
liet
liezen
life
light
lightgrey
lignan
ligure
ligurie
like
lille
lim
lima
limba
limberg
limburc
limina
limit
limita
limitade
limitadis
limits
limon
limpide
lin
lina
lincoln
lind
linda
line
linea
lineamenti
linear
linee
linegrey
lingenau
lingu
lingua
lingue
linguis
linguiscj
linguist
linguistic
linguistica
linguistiche
linguistichis
linguistici
linguistics
lini
linie
liniis
link
lino
lints
linus
linussio
linux
linz
lio
lionel
lionello
lipa
lipica
lipsie
liquido
lire
liriche
lirics
lis
lisbone
lise
lissa
lissabon
lissandri
list
lista
liste
listis
listize
lisuntin
litera
literatura
literature
liti
litora
litoral
litosfere
litri
lituan
lituanie
liturgjie
liu
liussu
liuta
live
livel
livence
liverani
liverpool
livi
livinale
livinallongo
livio
livius
livre
livri
liwe
lize
lizere
lizermentri
lj
lk
lkermarkt
lktal
ll
llach
llan
lle
llegenda
llengua
ller
llibres
lling
llnern
ln
lo
lobez
lobie
loc
loca
locai
locali
localis
localita
localizazion
localizazionborder
localmentri
loch
lochau
loco
locomotive
locri
locula
loculi
locuzion
lodi
lodre
lodris
lofer
loga
logade
logadis
logaments
logjic
logjiche
logjistic
logjstic
logo
logos
logy
lombarde
lombardie
lombardo
lombart
lombarts
london
londra
londre
long
longa
longaron
longjitudin
longobarde
lontan
lontanance
lontane
lontanis
lontano
look
lopa
lor
lord
lore
loredan
lorene
lorenzen
lorenzenberg
lorenzo
loris
loro
loru
los
lost
lote
lotis
lotta
lotti
lou
loud
louis
louvre
lovarie
love
lovisoni
low
lower
loze
lp
lps
lr
ls
lsøe
lt
lta
ltris
lu
lubiane
lublin
luc
luca
lucan
lucanie
lucanus
lucca
luche
luchini
luci
lucia
luciano
lucili
lucini
lucio
lucit
lucius
lucrezi
ludario
ludmannsdorf
ludovi
ludovica
ludovico
ludovicus
ludui
ludus
ludwig
lugdunum
luglio
lugo
lui
luigi
luis
luisa
luise
luisiane
luj
luka
lukasiewicz
lumie
lumiei
lumigna
luminose
luminosita
luna
lunari
lunaris
lunc
luncmetrac
luncs
lune
lunga
lungau
lunghece
lungje
lungjece
lungjecis
lungjis
lungo
lungone
lunis
luoghi
luogo
lurinc
lus
lusazie
luse
lusemburc
lusemburghes
lusevare
lusinc
lusint
luso
lussemburc
lussemburghe
lussemburghese
lussurie
lustri
lutazi
lute
luter
luteran
luterane
luteranesim
luteranisim
luterans
lutero
lutezi
luther
lutignint
lutra
luvie
luviee
luxembourg
luzi
luzian
luzie
luzzatto
lvov
lynx
lz
m
ma
maastricht
mac
macbeth
macedonie
machine
machinis
machland
macmillan
macor
madagascar
madalene
maddalena
made
madone
madrac
madri
madrid
madure
maduri
maestre
maestro
maffeo
mag
magari
magazen
magazens
magazine
magdalensberg
magenta
maggio
maggiore
magia
magic
magical
maginot
magistradure
magjic
magjichis
magjie
magjorance
magjos
magjstra
magme
magn
magna
magnan
magnanimita
magnetic
magnetisim
magnitudin
magno
magnus
magre
magreis
maha
mai
maiale
maian
maiden
maie
maieron
mail
main
mainardis
maine
mainframe
mainframes
maio
maior
maiorance
maiorant
maiorants
maiorche
maiorum
maiuscul
maiuscule
maiusculis
majo
major
makako
making
mal
mala
maladilem
malatie
malatiis
malborghe
malborghet
malcontent
malepasche
malfats
malghe
malghis
malignani
maline
malinowski
malisane
mallnitz
mallorca
malo
malsta
malta
malte
malus
mambella
mambo
mame
mamifar
mamifars
man
manariis
manchester
mancja
mancjade
mancjance
mancjave
mancje
mancjin
mancul
manda
mandade
mandadis
mandament
mandant
mandate
mandave
mandavin
mande
mandela
mandi
mandin
mandola
mane
maneton
mangart
mangja
mangjative
mangjave
mangjavin
mangje
mangjin
mani
mania
maniacco
maniere
manieris
manifest
manifesta
manifestants
manifestazion
manifestazions
manifeste
manifesto
manila
manili
manin
manitoba
manlio
manlius
mannheim
mannoia
manoo
manoscrit
manovre
mans
mansa
mansionaris
mansions
mantegniment
mantegnin
manten
manteniment
mantica
mantigni
mantigniment
mantignint
mantignu
mantignude
mantova
mantue
manua
manuale
manuel
manuela
manufats
manuscri
manuscrits
manutenzion
manuvri
manx
manzan
manzano
manzoni
maomet
map
mapa
mape
mapis
maplandia
mar
marais
maran
maranc
marangon
maratone
maraveis
maraveo
maraveosis
marazzini
marc
marca
marcade
marcadis
marcato
marce
marcel
marcello
march
marche
marchet
marchetta
marchetti
marchi
marchis
marcie
marcinelle
marcja
marcjadant
marcjadants
marcjade
marcjant
marcjanziis
marcje
marco
marcomans
marconi
marcos
marcus
mare
mareban
maree
marein
mareis
maressial
margaret
margareten
margarethen
margarite
marghera
margherite
margjina
margo
mari
maria
marian
mariane
marianis
mariano
marida
maridade
maride
marie
marienkirchen
marilenghe
marin
marina
marinare
marine
marinelli
mariner
marines
marinis
marino
marinoni
mario
maris
maritim
maritime
marius
mariute
marjeta
mark
market
marketing
markt
marktgemeinden
marktl
marmolada
marmora
marmote
marmul
maroc
maron
marquart
mars
mart
marta
martar
martare
martars
marte
marteen
marti
martiel
martigna
martin
martina
martini
martino
martiri
martueri
marvin
marx
marxiscj
marxisim
marxist
marxiste
mary
maryland
marzia
marziano
marzio
marzo
mas
masaccio
mascare
mascaris
maschio
mascjo
mascjos
mascli
mascotte
masculin
masculine
masculinis
masculins
maseriis
masime
masina
massachusetts
massacri
masse
massenzi
massi
massic
massim
massime
massimementri
massimilian
massimiliano
massimis
massimo
massims
massis
massmedia
mastaba
master
masters
mastrocinque
mat
matajur
matalon
match
matec
matematic
matematica
matematiche
matematichis
matematics
mater
materia
materialisim
materie
materiis
materne
mateu
math
mathbb
mathbf
mathcal
mathrm
matie
matieu
matine
matrimoni
mattarella
matteo
matteotti
matter
mattersburg
matthias
mattia
mattiac
mattighofen
maturita
matzelsdorf
mau
mauer
maur
maurensig
mauri
maurizi
maurizio
mauro
mausoleu
mausoleus
mauss
mauthen
max
maxime
maxwell
may
maya
mazurche
mazzini
mbox
mc
mccartney
md
me
mead
measure
mecanic
mecaniche
mecanichis
mecanics
mecanisim
mecanizazion
mecca
mecena
mecenat
meche
med
medae
medaie
medaiis
medais
medea
medgorje
medi
media
mediamente
median
mediane
mediant
mediato
mediawiki
mediazion
mediche
medichis
medici
medicina
medie
medieva
medieval
mediis
medio
medisine
meditazion
mediterani
meets
megafono
meghiddo
meglio
mein
mekong
mela
melanesie
melbourne
melchior
mele
mellau
melodic
melodichis
melodie
melodrams
meloni
membri
membris
membros
memore
memorea
memoreave
memoreazion
memoree
memorein
memoria
memorie
memories
memoriis
memoriza
memorizazion
memory
men
mena
menac
menace
menade
menalche
menandri
menave
menc
mendeleev
mene
meneghello
meni
menin
meningite
menipeis
menis
meno
menocchio
menot
menphi
mensi
ment
menta
mentalita
mentri
ments
mentsh
menu
menzon
menzona
meracul
merak
meran
merania
mercalli
mercedes
merci
mercier
mercis
mercja
mercjadants
mercuri
mercury
mercy
mere
merecan
merecane
merecanis
merecans
merengue
meridian
meridianis
meridion
meridiona
merit
merlot
meroi
mersch
mes
mese
meseda
mesi
mesolitic
mesopotamie
messa
messac
messaggero
messaggeroveneto
messale
messaline
messe
messeda
messedade
messedament
messedant
messedarin
messedave
messede
messedin
messic
messican
messico
messie
messine
messis
mestre
mestri
mestris
mesures
met
meta
metabolisim
metai
metal
metalic
metalli
metalmecanic
metaloits
metamorfosis
metara
mete
metei
metel
meteorologjic
meteorologjie
meterin
meteve
metevin
meti
metiju
metin
metint
metintlu
metisi
metnitz
metodi
metodis
metodo
metodologjie
metri
metric
metriche
metris
metrologjie
metropoli
metropolitane
metros
metrots
metu
metude
metudis
mev
mezane
mezanis
mezans
mezza
mezzo
mff
mg
mi
mia
michael
michaelerberg
miche
michel
michelagnul
michelangelo
micheldorf
michele
michelet
michelotti
michelsta
michelstaedter
michieli
michigan
micje
mickiewicz
micoli
micro
micrometri
micronesie
microordenado
microprocesso
microsoft
micura
middle
midi
midiant
midiesim
midisine
midun
midune
mie
miec
miedi
miedis
miei
miej
mieli
miercus
miesdi
mieze
miezegnot
mig
migjee
migliore
migliorini
mignet
migra
migratoris
migrazion
migrazions
mihel
miis
mike
mil
mila
milan
milane
milano
mile
mileni
milenis
milesim
milesima
milesime
milesims
miliart
miliarts
milimetri
milimetris
milion
milions
miliseconts
milita
militant
militar
militare
militarisim
militarmentri
milizia
milizie
mille
miller
million
millstatt
milly
milo
milos
milou
miltenberg
miluc
mimica
min
minado
minaj
minas
mind
minera
minh
mini
miniatura
minieris
minigutti
minim
minime
mining
minis
ministeri
ministeris
ministrati
ministrazion
ministri
ministris
minix
minnesota
mino
minor
minorance
minorancis
minorant
minorants
minoritarie
minoritariis
minoritaris
minorizadis
mint
mintri
minu
minuscole
minuscul
minuscule
minusculis
minuti
minuts
mio
mion
miora
miorament
mir
miracolo
miracui
mirandola
mirbeau
mire
miriam
mirko
mis
misclic
misdi
misericordie
miserie
mishima
misincinis
miss
misse
missii
missio
mission
missionari
missionaris
mississippi
missouri
missus
misteri
misterio
misteriose
misti
mistiche
misticisim
mistirants
misto
mistura
misture
misura
misurade
misurazion
misurazions
misure
misuris
mit
mita
mitchell
mites
miti
mitili
mito
mitologje
mitologjie
mitri
mittelberg
mitteleuropa
mitteleurope
mittelfest
mitterberg
mitterdorf
mitterndorf
mitu
mitude
mitudis
mix
mixes
mixtape
mixxtape
mizar
mizzau
mm
mn
mo
mobil
mobile
mobilita
moc
moda
modalita
mode
modei
model
modele
modera
moderade
moderazion
modern
moderna
moderne
moderni
modernis
modernita
moderniza
modernizazion
moderno
modest
modifica
modificade
modificazions
modifiche
modifichis
modine
modo
modon
modons
modotti
modul
modulazion
moena
moggio
moise
mol
mola
molade
moldavie
mole
molecola
molecule
moleculis
moli
molibden
molie
moliere
molis
molise
moll
moltiplica
moltiplicazion
moltiplicazions
moluscs
momencj
moment
momenti
moments
mon
monaco
monai
monarchie
monarchiis
monarcje
monasteris
monastiche
mond
mondadori
mondan
mondia
mondial
mondiale
mondo
mondovi
monedarie
monede
monedes
monedis
monetarie
monetine
monfalcon
monografie
monopoli
monoteiste
monoteistichis
monsigno
mont
monta
montade
montadure
montafin
montafon
montagna
montagne
montagnis
montagno
montagnose
montagnosis
montalban
montana
montanaja
montanari
montane
monte
montello
montena
montenegro
montereale
monteviarte
montevideo
monthly
monti
montin
montneri
montre
montrea
montreal
monts
montserrat
montuosis
monument
monumenta
monuments
monzo
moon
moore
moos
moosburg
moosdorf
mora
moralmentri
morandini
morassi
morat
moravie
morbegno
morddeich
more
morelli
morenichis
moretti
morfologjie
morgan
morlupin
morning
moro
moron
morpurgo
morrison
morsan
morta
mortalita
morte
mortean
morti
moru
mos
mosaic
mosaiche
mosaici
mosaics
mosca
mosche
moschee
mose
moseley
moses
mosse
most
mostra
mostrant
mostrave
mostre
mostri
mostrin
mostris
mostro
mot
mother
moti
motivade
motivazion
motivazions
moto
motobarcje
motociclist
motoriza
motorwagen
mots
motu
mountain
mouth
mouton
movi
moviment
movimento
moviments
movin
movisi
movu
moz
mozart
mozilla
mp
mq
mr
ms
mt
mtb
mu
mua
muart
muarte
muarts
muay
muc
much
muda
mudade
mudament
mude
muec
muele
muerin
muerta
mugle
muimans
muina
muini
muinis
muiu
mulin
mulino
mulins
multietnic
multilatera
multilenga
multilinguisim
multimedia
multiplis
mumbai
munderfing
mundi
munic
municipi
municipio
munics
munisti
munizions
munizipi
muntazer
mur
mura
murado
muraie
murara
muraran
murau
muri
murin
murint
murira
muririn
muris
muru
mus
muse
musei
museo
museu
museum
museus
musi
music
musica
musicai
musical
musicale
musiche
musichis
musiciscj
musicist
musiciste
musicologjie
musicoterapie
musil
musique
musis
musl
mussolini
mussulmane
mustafa
musulman
musulmans
mut
muta
mute
muti
mutila
muzi
mw
my
myles
myo
myricae
myspace
mystery
n
na
nabucco
nabucodonosor
nacional
nada
nadison
nadisonian
naie
nam
name
nancje
nang
nanning
nanometri
nanometris
nanui
nanul
naone
nape
napier
napine
napoleon
napoleonic
napoleoniche
napoleonichis
napoletan
napoletane
napoli
napul
naranc
narati
narative
narazion
nardin
narrative
naruhito
narvenis
narvesa
nas
nasa
nasave
nascimbeni
nasciu
nassara
nassau
nasse
nasserin
nasseve
nassevin
nassi
nassin
nassince
nassite
nassu
nassude
nassudis
nastris
nasut
nasze
nata
natale
natalis
natalizi
nati
nation
national
natisone
natisse
native
nativita
nato
natura
naturales
naturalis
naturalist
naturalistic
naturaliza
naturalmentri
nature
nau
nava
navade
navadis
navarons
navarre
nave
navid
naviga
navigabil
navigado
navigazion
navighe
nazareno
nazaret
nazareth
nazifassiscj
nazion
naziona
nazional
nazionale
nazionaliscj
nazionalisim
nazionalismo
nazionalist
nazionaliste
nazionalita
nazionalsocialist
nazionalsocialiste
nazions
naziscj
nazist
naziste
nazistis
nazzi
nb
nba
nberg
nburg
nchen
ncia
nd
nder
ndez
ndi
ndo
ne
neare
nebraska
nebrija
necessari
necessarie
necessariementri
necessariis
necessaris
necessita
necker
necuito
neerlande
negati
negative
negli
negozi
negozia
negozis
negri
negro
negrons
nei
neke
nel
nell
nella
nelle
nello
nelson
nema
nemi
neolatine
neolatinis
neolitic
neolitiche
neologisims
neologjisim
neologjisims
neon
neoterics
neozelande
nepo
nera
nere
nereo
neri
neris
nerlandes
nero
neron
nert
nes
ness
nessuno
nestre
nestri
nestris
net
neta
nete
netscape
netun
network
neudorf
neuhaus
neuhofen
neukirchen
neumarkt
neusiedl
neustift
neutra
neutralita
neutri
neutris
neutron
neutrons
neva
nevada
neveade
nevee
never
nevermind
nevi
nevo
new
news
newton
next
ng
ngsee
ngstro
ngua
nguyen
nha
ni
nia
nic
nica
niccolo
nice
nicee
nicefor
nichel
nicht
nick
nicki
nico
nicola
nicolas
nicolau
nicole
nicolo
niculau
nie
niebie
niebo
niederdorf
niedero
niels
niemo
nievo
nig
niger
night
nika
nikolai
nimi
nimis
nin
nina
nine
ninine
nino
nio
nirva
nirvana
nisan
nissun
nissune
nitroglicerine
nivei
nivel
nixon
nize
nje
nm
nn
no
noa
noaltris
nobel
nobeli
nobi
nobii
nobil
nobile
nobilia
nobilio
nobilis
nobilom
nobilta
nocate
noce
nocent
noda
noe
noemi
nogara
nogaro
nogla
noi
noia
noir
nol
nole
noli
nolis
nom
nome
nomee
nomena
nomenade
nomenadis
nomencladure
nomene
nomi
nomina
nomine
noms
non
none
nono
nonostant
nonostante
nons
nord
nordamerican
nordamericans
nordic
nordiche
nordovest
noric
norimberghe
norma
normai
normale
normaliza
normalizade
normalizazion
normalmentri
normane
normans
normative
norme
normis
nort
north
northern
norvegie
norvegje
norvegjie
nos
nosc
nost
noster
nostra
nostre
nostri
nostro
not
nota
notabilita
notazion
note
notes
notevul
notevule
nothing
notis
notizie
notiziis
noto
notorieta
notte
nottingham
nova
novante
novara
novare
nove
novelis
novella
novelle
novelli
novembar
novembre
novesim
novesime
novi
novita
novo
now
nozion
nozions
np
npld
nr
ns
nserberg
nsito
nster
nt
nte
nts
nu
nubie
nuclea
nuclei
nucleotidis
nucli
nuclis
nudi
nudri
nudriment
nuer
nueva
nufcent
nui
nuie
nuje
nul
num
numa
numar
numars
numbers
numer
numera
numerabii
numerazion
numeri
numeric
numeriche
numerics
numero
numerose
numerosis
numidie
nun
nunavut
nunciel
nunsiade
nunzia
nuoro
nuova
nuove
nuovi
nuovo
nus
nusei
nutrizion
nuvole
nußberg
nx
ny
nyc
nylon
o
ob
obama
obedience
oben
oberdo
oberdorf
oberdrauburg
obere
obermillstatt
oberndorf
obero
oberpfalz
obert
obertraun
obervellach
oberwo
obieti
obiets
obituary
oblea
obleade
oblee
oblic
obligatori
obligatorie
oboe
obres
oc
oca
ocasion
ocasions
occhi
occidenta
occidentale
ocean
oceania
oceanic
oceaniche
oceanie
oceans
ocident
ocidenta
ocitan
ocitane
ocitanis
ocje
ocjis
oclaome
octave
ocui
ocula
ocupa
ocupade
ocupadis
ocupant
ocupants
ocuparin
ocupave
ocupavin
ocupazion
ocupe
ocupin
oder
odi
odia
odio
odissee
odisseu
odo
odorico
odpadki
of
ofen
ofensive
ofese
off
offenbach
official
ofiart
oficia
oficial
oggi
ogjet
ogjets
ogm
ogni
ognidun
ognidune
ognissanti
ogniune
ognun
oh
ohio
ohlsdorf
ohm
oi
oil
ois
ol
ola
olande
olandese
olandesis
old
olee
oleotto
olf
olimpiade
olimpiadis
olimpic
olimpiche
olimpics
olinto
olivo
olmi
olmis
olof
oloferne
oltre
oltri
om
omac
omaggio
omar
ombrene
ome
omega
omino
omnia
omonim
omonime
omosessua
omp
omps
oms
on
ona
onade
oncja
oncolan
ondade
onde
ondis
one
onesim
onest
ong
ongaro
ongjare
ongjarese
ongjaresis
ongjaric
ongjariche
ongjarie
ongjars
ongulis
oni
onipotent
online
only
ono
onora
onore
ons
ont
ontagnan
ontario
onu
op
opare
oparis
opec
opeda
open
openoffice
opera
operado
operari
operarie
operaris
operati
operating
operative
operazion
operazions
opere
operis
opicine
opinion
opinions
oponeve
oponu
oportunita
oposito
oposizion
oposizions
oposta
opression
opu
opuest
opueste
opule
opur
opus
opzion
or
ora
oracul
orange
orari
oraris
orato
oratore
oratori
oratoribus
oratorie
orazi
orazion
orazions
orbite
orbitin
orbitis
orchestra
orchestre
orcui
orcul
ordena
ordenade
ordenadis
ordenado
ordenament
ordenance
ordenant
ordenari
ordene
ordin
ordina
ordinament
ordins
ore
oreb
oregon
oresin
oreste
org
organ
organic
organiche
organichis
organics
organisim
organisims
organist
organiste
organiza
organizade
organizadis
organizado
organizant
organizati
organization
organizazio
organizazion
organizazions
organize
organo
organs
orghin
orghins
orgnani
ori
orient
orienta
orientale
orientalis
orientament
orientation
origin
origina
originale
origins
origjin
origjina
origjinalita
origjinari
origjinarie
origjinaris
origjine
origjinis
origjins
origjn
origjna
origjne
orioli
oris
orizont
orizonta
orlandi
orlando
orlant
orloi
orlois
ormai
ormon
orna
ornament
ornamenta
oro
ors
ort
orta
ortal
ortaurmbica
ortensi
ortensiis
ortodosse
ortodossie
ortografic
ortografie
orut
os
oscar
osche
osimo
oslavie
oslo
oso
osovane
osovans
ospeda
ospedalet
ospit
ospita
ospitalita
ospite
ospits
ossari
osserva
osservade
osservado
osservatori
osservazion
osservazions
ossiach
ossiachberg
ossiacher
ossidazion
ossigjen
ostac
ostarie
osti
ostilita
ostrogo
ostrogots
osualdo
osvaldo
oswald
ot
ota
otagona
otante
otave
otavian
otegni
otegnin
otel
otello
oten
other
otic
otiche
otichis
otics
otigni
otigniment
otignint
otignu
otignude
otims
otium
otmar
otobre
otok
otoman
otomans
oton
ottana
ottaviano
ottavio
ottawa
otto
ottobre
otubar
otzana
ou
ouest
our
out
ova
ovc
over
overline
ovest
ovidi
ovidio
ovvero
oxford
p
pa
pablo
pace
pacelli
pachelbel
pacheose
pachis
pacific
pacifiche
pacifichis
pacifico
pacifist
pacuvi
padane
padova
padre
padue
pae
paesac
paese
pag
pagan
pagane
paganisim
pagans
page
pagg
pagine
pagjina
pagjine
pagjinis
pagjne
pagna
pagnucco
pahor
pai
paia
paiament
paiaments
paian
paie
pais
paisac
paisan
paisans
paisut
paisuts
paja
pakistan
pal
pala
palac
paladin
palafitis
palata
palatin
palatina
palazzo
palc
pale
paleocristiane
paleolitic
paleontologjie
palermo
palesa
palese
palestine
palestre
palete
palgrave
pali
palis
palladio
pallavolo
palma
palmare
palme
palmis
palting
palu
paluce
pampa
pan
panama
paname
panciera
pandi
pandolfi
pandu
pandude
pandudis
panei
panel
pani
panic
panonie
panorama
panorame
panoramiche
pant
pantaleon
pantan
pantera
panze
pao
paola
paoli
paoline
paolo
paoloni
papa
papadopoulos
papaveri
papaya
pape
papi
papis
par
para
paracadutiscj
parade
paradi
parafangos
paragon
paragona
paragraf
paraguay
parale
paralelis
paraltri
paramagnetic
paramenti
parametris
paramore
parana
parant
paranza
paratore
parave
parc
parce
parceche
parcs
parcussion
pardabon
pardut
pare
parenc
parentesis
parepet
pareto
pareve
parfin
pari
paricidi
paride
parie
parin
parincj
parint
parinta
paris
parisi
parita
park
parker
parl
parlament
parlamenta
parle
parme
parndorf
paro
parochia
parochie
parochiis
parocja
parodie
parola
parole
paron
parona
paronance
parone
parons
pars
parsec
parsore
part
parta
partant
parte
partecipa
partecipant
partecipavin
partecipazion
partecipe
partecipin
partegnin
partei
partence
partesans
parteselis
parti
particele
particelis
participa
particola
particolar
particolare
particolarita
particolarmentri
particula
particulare
particularita
particularmentri
partide
partidis
partigjan
partigjane
partigjanis
partigjans
partint
partir
partis
partissin
partistagn
partit
partito
partizion
parts
parturi
parvie
parzia
parzialmentri
pas
pasa
pasada
pasc
pasca
pasche
paschini
pascoli
pascutti
pase
pasian
paskha
pasolini
pasquale
pasqualino
passa
passac
passade
passadis
passant
passarian
passariano
passarin
passat
passau
passave
passavie
passe
passi
passin
passion
passiona
passione
passions
passo
passon
passona
passons
passu
passude
past
pastana
paste
pasteur
pasto
pastora
pasubio
pat
patagonie
patate
patatis
patent
pater
paternion
patetic
patetics
patetisim
pati
patiment
patiments
patint
patoc
patria
patriae
patriarca
patriarche
patriarcja
patriarcje
patriarcjis
patrie
patrimoni
patrimonis
patriot
patriote
patriotic
patriots
patrizi
patrizia
patrizis
patron
patrons
pats
patui
paul
paula
paule
pauli
paulin
pauling
paulo
paura
paurose
pave
pavee
pavie
paviment
pavos
pb
pc
pci
pd
pdf
pe
pec
pechin
pecile
pecja
pecjado
peculiarita
peda
pedagogjie
pedai
pedala
pedalade
pedarc
pedemontane
pedro
pel
pelagre
pelegrin
pelegrinac
pelegrins
pelerins
pelice
pelicule
pelle
pellegrinaggio
pellegrino
pellico
pellis
pelopone
pen
pena
penc
penco
pendence
pene
penetrante
penetrazion
peninsula
penisole
penisule
penitince
penn
pensa
pensade
pensado
pensant
pensave
pensavin
pense
pensi
pensilvanie
pensin
pension
pensions
penso
pensylvania
pentateuc
pentateuco
pentecosta
pentecostalisim
pentecostis
penze
peonis
people
pepe
per
pera
peralba
peralbe
perati
peraule
peraulis
percentua
percezion
perche
percors
percorude
percoto
percu
percude
percussions
perdere
perdon
perdona
perdone
perduti
pere
pereson
peresson
perfect
perfete
perfette
perfezion
perg
pericolo
pericui
pericul
periculo
periferichis
periferie
perifrasi
period
periodi
periodic
periodiche
periodics
periodis
periodo
periot
perioto
perizie
perm
permanence
permanent
permanente
perme
permes
permet
permete
permeterin
permeteve
permeti
permetin
permetint
permetu
permetudis
permian
permitu
perni
pero
peron
perotto
perpendicola
perpetue
perpetui
pers
persecuzion
persecuzions
perseguita
perselli
persi
persian
persians
persic
persie
persona
personac
personal
personale
personalita
personalmentri
persone
personis
perspetive
persuasion
persut
perteade
peru
perucchetti
perwang
pes
pesa
pesant
pesante
pesants
pesar
pesaria
pesariis
pesarine
pesaro
pesave
pescara
pescjado
pescjare
pescje
pese
pesis
pessoa
pesta
peste
pestilence
pet
peta
petai
petec
peter
petracco
petrarca
petrarche
petris
petroli
petrolio
petroni
petterle
pevar
peyton
pfaffendorf
pfaffing
pfaffsta
pfarrkirche
pfs
pg
phantoms
pharsalia
philip
philipp
philippe
philippicae
phoenix
photo
php
phu
pi
pia
pianist
piano
pianoforte
pianos
pianure
piardite
piardu
piardude
piart
piave
piazza
pic
pica
piccola
piche
pichl
picinin
picinine
picja
picjade
pico
picolit
picotti
pics
pidade
pidadis
pie
piec
piece
piedim
piel
piemont
piemonte
pier
piera
pierbach
pierc
pierde
pierdevin
pierdi
pierdin
pierdite
pierditis
pierdu
pierdude
pierdudis
piere
pieri
pieris
pierluigi
piero
pierpaolo
pierre
piert
pieta
pietra
pietro
pieve
pighin
pigments
pignaru
pil
pilastris
piller
pillinini
pilota
pilote
pinacoteche
pinc
pindo
pinel
pinerolo
pineru
pinochet
pinot
pins
pinsdorf
pinsi
pinsiro
pinte
pinti
pintore
pinzeve
pinzgau
pio
pioni
piora
piore
pioris
pipe
pipin
pipins
pir
piramida
piramide
piramidis
piran
piratis
pireneus
pirk
pirona
pirone
piruc
pisani
pischeldorf
pischelsdorf
pise
pison
pisons
pispisa
pissine
piste
pistis
pistoie
pistole
pitagore
pitin
pito
pitograms
pitost
pittana
pitti
pittini
pittino
pittore
pitura
piturade
pituradis
piture
pituris
piu
pius
piutti
pivot
pizzul
pl
pla
plac
place
placerean
plachetis
plachis
placis
plan
planc
plane
planet
planetaris
planete
planets
planificazion
planis
plans
planta
plante
plantis
plantutis
planure
plase
plaseve
plasevin
plasin
plasme
plastiche
plasu
plat
plata
platade
platadis
plate
platin
platon
plats
plaut
play
playa
plaza
plazis
ple
plea
please
plebe
plebeu
plebeus
plee
pleiku
pleis
plekanec
plen
plene
plenis
plens
pleva
plevan
plevans
pliberku
plini
plinio
plinius
ploe
ploie
ploiis
ploio
plois
plomb
plomba
plomp
plotarea
plotdata
ploton
plovisine
plui
pluitost
plume
plumis
plura
plurilenga
plurilenghisim
plurita
pluso
plusvalo
plutarc
pluton
pm
pn
png
pnv
po
poc
poca
poche
pochis
pocis
pocje
pocjis
poclen
podara
podaran
podare
podaressin
podari
podaspo
pode
podedi
podedin
podei
poden
poderin
podestarie
podeve
podevin
podgora
podgrad
podi
podin
podint
podjuni
podopo
podrecca
podu
poe
poem
poeme
poemetto
poemis
poems
poemut
poemuts
poenicum
poesi
poesia
poesiave
poesie
poesiis
poet
poeta
poetae
poetave
poete
poeti
poetic
poetiche
poetichis
poetis
poggersdorf
pogni
poi
poia
poiade
poids
poie
pol
pola
polac
polache
polacs
polarizazion
polcenic
polche
pole
polea
polemiche
polemichis
polente
poli
polibi
policeman
polifonie
poligona
polinesie
polinomia
polion
polisportiva
polisportive
politi
politic
politica
politiche
politichementri
politichis
politics
politische
polizai
poliziano
polizie
polling
polo
polonie
polpe
polsa
polse
polsin
polska
polvar
polvars
poma
pome
pomis
pompei
pompeo
pompeu
pompili
pompilio
pomponi
pomponio
pon
pongau
pont
pontadis
pontaibe
ponte
pontebane
pontebba
pontebe
pontefic
ponteibe
pontinia
pontis
ponto
ponts
pop
popola
popolade
popoladis
popolar
popolare
popolari
popolarita
popolazio
popolazion
popolazions
popolo
popon
popone
poppo
popui
popul
popula
population
por
porcelane
pordenon
pordenone
pore
porpe
porphyrio
port
porta
portelis
porti
porto
portogal
portoghe
portogruaro
portrait
portugal
portughe
portughese
porzion
pos
posada
pose
poseidon
posibilita
positi
positive
positivis
posizion
posiziona
posizions
posse
possediment
possediments
possent
possession
possibil
possibilita
possidents
post
posta
postazion
posterio
postponi
postumie
postumis
potassi
potence
potencis
potent
potentissim
potents
potenzia
potenziale
potenziament
potesta
pound
pour
power
poz
pozo
pozzo
pp
pr
pra
praclu
pradaman
praetura
praghe
pragmatisim
pram
pramaio
prambachkirchen
prampar
pramuel
prate
pratica
praticade
praticadis
praticamentri
praticants
pratiche
pratichis
pratics
prato
prayer
pre
prea
prealpine
prealps
preambul
prece
precedence
precedent
precedente
precedentementri
precedentis
precedents
precets
preci
precioseta
precipitazions
precisa
precise
precisementri
precision
precisis
precurso
predapi
prede
predecesso
predefini
predele
predi
predia
predica
predicazion
predicja
predicjade
predicjado
predicjant
predicjave
predicje
predil
predinastic
predis
predisponu
pree
preesistent
prefazion
prefazione
preferencis
preferi
preferide
preferint
preferissin
preferive
prefet
prefi
prefis
preiere
preieris
preistorics
preistorie
preitenegg
prejudizis
prelimina
preludi
premadure
premaria
premessa
premi
premia
premiade
premio
premis
premure
preocupa
preon
prepara
preparade
preparazion
prepare
preposizions
prepot
pres
presbiteri
prese
presea
preseade
preseadis
preseament
preseave
presence
present
presenta
presentade
presentant
presentave
presentazion
presente
presentin
presepi
presi
preside
presidence
president
presidente
presidents
presidenzia
presidi
presince
presinciste
presint
presinte
presintis
presints
presit
presits
preson
presoni
presonie
press
pressac
pressacco
pressapo
pressegger
pression
pressions
presso
prest
presta
prestaments
prestazions
prestic
prestigiose
prestigjo
prestit
prestits
presumibilmente
presumibilmentri
presupon
prete
pretesis
pretest
preti
pretint
preto
pretori
preunegg
prevalence
prevalentementri
preventi
prevenzion
previgni
previodin
previodu
previodude
prevision
previsions
prezio
preziose
pri
priam
prim
prima
primari
primarie
primariis
primaris
primavere
prime
primevere
primi
primis
primiti
primitive
primitivis
primo
prims
prin
prince
princeps
princess
princip
principa
principai
principal
principalis
principalmentri
principesse
principi
principis
princips
prins
prio
prionte
priorita
prisint
prisoni
prissinins
pritchard
priva
privade
privadis
privilec
privilegja
privilegjos
pro
probabil
probabile
probabilita
probabilmentri
probabilmentrimetalic
probatiche
problem
problematichis
probleme
problemi
problemis
problems
proce
procedi
procediment
procediments
procedure
proces
processa
procession
processo
proclama
proclamade
proclamazion
proclame
proconsul
procura
prodot
prodots
produ
produsi
produsin
produsu
produti
produtive
produtivis
produto
produzion
produzione
produzions
proemi
prof
proferi
profesion
profesiona
profesionistichis
profeso
professa
profession
professiona
professional
professioniscj
professionist
professionistiche
professo
professor
profete
profetis
profezie
profeziis
profi
profilo
profit
profita
profitant
profite
profonde
profondita
profont
profonts
progje
progjet
progjeta
progjetade
progjetazion
progjete
progjets
program
programa
programadis
programazion
programe
programma
programs
progre
progressi
progressive
proibi
proibide
proibizion
proibizionisim
proiezion
project
proletari
proletaria
proliferazion
prom
promesse
promessis
promet
prometeve
prometu
prometude
promo
promontori
promoto
promove
promovi
promovu
promovude
promozion
promoziona
pronon
pronons
pront
pronta
prontant
pronte
prontece
pronts
pronunc
pronuncia
pronunciade
pronuncie
pronunciis
pronuncin
pronunzia
pronunziade
pronunziadis
pronunzie
propagande
propagazion
property
properzi
propi
propie
propieta
propietariis
propis
propit
propite
propiziatori
propon
propone
proponevin
proponi
proponin
proponu
proponude
proponudis
proporzion
proporziona
proposit
propp
propreto
propri
proprie
propriementri
proprieta
proprietari
proprietaris
propriis
proprio
propris
propueste
propuestis
prorastar
proscrizion
prose
prosis
prosperita
prospetive
prospetivis
prospettive
prossim
prossime
protagoniscj
protagonist
protagoniste
prote
protec
proteinis
protesta
protestant
protestante
protestantesim
protestantis
protestants
protestazions
proteste
protestis
protetis
proteto
protets
protezi
protezion
protezu
protezude
proto
protocoi
protocol
proton
protons
protostorie
prototip
prova
provarin
prove
provediment
provegnin
provenc
provence
provenza
proverbis
provesan
provi
providence
province
provincia
provincie
provincies
provinciis
provincis
provio
proviodara
proviodeve
proviodi
proviodin
proviodu
proviodude
proviodudis
provis
provision
provisori
provisoriementri
provoca
provocarin
provoche
prudela
prudence
pruggern
prunus
prussie
ps
psaicopat
pseudonim
psicolic
psicologic
psicologjie
psyche
pt
pu
pua
puar
puare
puareta
puaris
puars
puart
puarta
puartade
puartadis
puartant
puartantsi
puartara
puartaran
puartarin
puartave
puartavin
puarte
puartevo
puarti
puartin
puartis
puarts
pubblica
pubblicati
publi
public
publica
publicade
publicadis
publicamentri
publicant
publicazio
publicazion
publicazions
publiche
publichis
publicita
publiciza
publics
publio
publius
puc
puccini
puch
pucinie
pue
puedi
puedin
puedis
puerto
pues
puescj
puest
pueste
pugila
pugjil
pugjila
pugn
pugns
pui
puint
puints
puintut
puitost
pulfar
pulie
pulpit
puni
puniche
punizion
punk
punt
puntadis
punto
pupe
puppo
pur
purc
purci
purcit
purcita
purcite
purcits
purcitut
pure
purece
purifica
purificazion
purita
purpu
purtrop
pus
push
pusibil
pussibii
pussibil
pussibile
pussibilis
pussibilita
pusteria
pusterie
pusticis
pustots
putin
putropis
putrops
putsch
puławy
px
q
qa
qarabag
qatar
qia
qin
ql
qquad
qu
qua
quadri
quadrivium
quaestiones
qual
qualche
qualchi
qualcuno
quan
quanc
quando
quang
quant
quari
quarin
quarte
quarti
quarto
quasi
quatre
quatri
quattro
que
quebec
queen
quel
quella
quelli
quello
querini
questa
question
questione
questo
qui
quinctio
quindi
quint
quinti
quintilian
quinto
quintum
quintus
quinzi
quipu
quito
quiz
quo
quoc
quoque
quotidiano
qwerty
r
ra
raab
rab
rabi
rabie
rabli
racconti
raccontini
rachele
rachide
racolte
racomande
racontas
racuelte
racueltis
radcliffe
rade
radegund
radi
radiazion
radiazions
radica
radio
radiofoniche
radios
radkersburg
radon
rafae
rafael
raffaele
raffaello
rafigura
rafigurazion
rafina
ragazzi
raggae
raggal
ragjos
ragrume
ragrupame
rai
raimondo
raimont
rain
rainalt
rais
raistoria
ralentament
ram
ramac
ramace
ramacul
ramadure
ramesse
ramon
rams
ramsau
ramses
ran
ranc
randeck
random
rangersdorf
rantisi
rap
rapac
rapide
rapidita
rapiment
rapine
rapper
rappers
rapresenta
rapresentade
rapresentadis
rapresentance
rapresentant
rapresentants
rapresentave
rapresentavin
rapresentazion
rapresentazions
rapresente
rapresentin
rapuart
rapuarts
rare
raris
rason
rassegna
rassegnadis
rassegne
rat
rated
rathaus
ratifica
ratisbone
raul
rauth
ravascle
ravel
ravene
raviei
ravines
raymond
raze
razia
raziona
razis
razisim
razistis
rb
rbisch
rbranz
rca
rcst
rding
re
rea
read
real
realisim
realistichis
realiza
realizade
realizadis
realizazion
realta
ream
reams
reana
reane
reatin
reato
reazion
reazionari
reazions
recension
recensions
recent
recente
recents
receto
recipe
recipis
reciproche
recita
recite
reclamation
reconcuiste
record
recording
records
recuelte
recuie
recuisi
recupera
recuperant
recuperazion
red
redato
redazion
reddarmy
reddkaa
redento
redenzion
redipue
redipulie
reed
reedition
referencis
referendum
reforme
refu
refuda
refudavin
refude
refudin
rega
regala
regalade
regale
reggae
reggimento
reggio
regia
regin
regina
reginald
regio
region
regional
regione
registrazio
regj
regje
regjie
regjim
regjine
regjion
regjist
regjistra
regjistradis
regjistrazion
regjistrazions
regjistri
regjistrin
regjistris
regjne
regjon
regjona
regjons
reglamento
regn
regna
regne
regnin
regno
regnum
regola
regolade
regoladis
regolament
regolamenta
regolamenti
regolaments
regolarita
regolarmentri
regolazion
regole
regolin
regression
regule
regulis
reich
reichenau
reichenfels
reichsrat
reichstag
reintegra
reisach
reith
reivers
reiwa
relati
relative
relativementri
relativis
relativita
relazion
relaziona
relazions
release
relega
relicuiis
religion
religjion
religjo
religjon
religjons
religjose
religjosis
religjosita
remanza
remi
remich
remigio
remix
rems
ren
renan
renane
renanie
renato
rendite
rene
rennweg
renzo
repart
reparts
repertori
reperts
replay
reporter
repression
repressivis
repubblica
republica
republican
republicane
republicanis
republiche
republichis
republika
reputa
requiem
rerum
res
rescj
rese
resian
residence
resident
residents
residenzia
resie
resint
resinte
resintis
resints
resistence
resistent
resisti
resiute
resolution
reson
resona
resonade
resonadis
resonament
resonaments
resons
respira
responsabii
responsabil
responsabilis
responsabilita
rest
resta
restade
restadis
restant
restara
restaran
restarin
restaur
restaura
restaurade
restaurado
restaurazion
restaurs
restave
restavin
reste
restera
resti
restin
restis
restituzion
resulta
resurezion
resuri
resurrezione
ret
retangola
rete
retine
reto
retor
retoriche
retorics
retoromanichis
retoromanzis
retrotabula
retrovuardie
rettori
reunion
reunions
reuthe
review
revision
reviso
revivalistics
revolution
revoluzion
revolvar
rex
rez
rezi
reziment
rezimenta
rezimental
reziments
rezin
rezzonico
rfl
rg
rgb
rh
rhead
rho
rhode
ri
ria
riach
riario
riassumi
ribaltade
ribei
ribel
ribelion
ribis
ribuele
ributarin
ric
rica
ricardo
ricart
riccardo
rice
ricerca
ricerche
ricercja
ricercjado
ricercje
ricercjis
ricet
riceve
ricevevin
ricevi
ricevido
ricevint
ricevu
richard
richieste
richiestis
richinvelde
richter
ricje
ricjece
ricjecis
ricjercje
riclam
riclama
riclame
riclams
riclu
rico
ricogno
ricognosse
ricognosseve
ricognossi
ricognossiment
ricognossiments
ricognossin
ricognossu
ricognossude
ricognossudis
ricolte
ricompensa
ricompense
ricorda
ricorderai
ricordi
ricorence
ricori
ricors
ricostitui
ricostrui
ricostruzion
ricrea
rics
ricuadri
ricuadris
ricuarda
ricuardade
ricuardant
ricuardave
ricuarde
ricuardi
ricuardin
ricuart
ricuarts
rida
ride
ridi
ridolfi
ridondantis
ridot
ridote
ridusi
ridusu
ridusude
riduzion
rie
ried
riedo
riefensberg
riegersburg
rielaborat
riemann
rientre
rienzi
ries
rievocazion
rifa
riferi
riferiment
riferiments
riferirin
riferis
riferissin
riferive
rifle
rifles
riflesion
riflessions
riflessive
riforma
riformado
riformato
riforme
riformis
right
rightarrow
rigjava
rigjide
rigjit
rigjno
rigo
rigolet
rigoro
rigorose
riguardave
rigula
riguladot
rihanna
riis
rilassa
rilassade
rile
rilevance
rilevant
rilevazion
rimane
rimbaud
rime
rimi
rimini
rimis
rimits
rimonte
rimontin
rimpinado
rimplac
rin
rinaldi
rinalt
rinassi
rinassiment
rinassimenta
rinassince
rinassite
rinderin
rindi
rindicont
rindilu
rindin
rindint
rindisi
rindu
rindude
rinfuarc
rinfuarce
ring
ringen
ringerberg
rino
rinovament
rinovazion
rint
rinuncie
rinunzia
rio
riot
ripa
riparti
ripartizion
ripet
ripetizion
ripetu
ripetude
ripia
riprese
ripristina
riprodusi
riproduzion
ripuarta
ripuartade
ripuartin
riquadrato
ris
risali
risalt
risalte
risan
risano
riscat
riscjaldament
riscje
riscuvierte
rise
riserva
riservade
riservis
risierva
risiervade
risoluzion
risolvi
risonance
risorgiment
risorse
risorsis
risorziment
rispeti
rispetivementri
rispiet
rispieta
rispietant
rispiete
rispieti
rispieto
risposte
rispueste
rispuinde
rispuindi
ristabili
ristabilide
ristori
ristret
ristruturade
ristruturazion
risulta
risulte
risultin
risultive
risultives
risultivis
risuri
risuriment
rita
ritart
ritegnin
ritegnu
riten
ritigni
ritignive
ritignu
ritignudis
ritira
ritirade
ritmi
ritmic
ritmiche
ritmo
rito
ritorno
ritra
ritrat
ritrats
ritrovaments
ritua
riu
riui
riul
rium
riuni
riunificazion
riunion
riunions
rius
riva
rivade
rivadis
rivalita
rivant
rivara
rivarin
rivave
rivavin
rive
rivedi
rivedin
rivela
rivelazion
rivelazions
rivendicazion
rivendicazions
river
rivers
riversaris
riviei
riviel
riviere
rivignan
rivin
rivis
rivista
riviste
rivisti
rivistis
rivolc
rivolt
rivolta
rivolte
rivoltis
rivoluzion
rivoluzionari
rivoluzionarie
rivoluzionaris
rivoluzione
rivoluzions
rivolzi
rivuarde
rivuardin
rivuart
riz
rizzi
rizzolati
rizzolatti
rizzoli
rk
rl
rm
rman
rn
rna
rnfeld
rnico
rnten
ro
road
roald
roatta
roba
robe
robert
roberta
roberti
roberto
robis
robutis
roc
rocco
rock
rodean
rodi
rodile
rodoalt
rodolf
rodolfo
rodri
rodui
rodul
rogazions
roger
rogers
rohr
rohrbach
rohrmoos
roia
roiis
roitham
roja
rojale
rojos
roland
rolant
roll
rom
roma
romagn
romagna
romagne
romale
roman
romanc
romane
romani
romania
romanic
romaniche
romanichis
romanie
romanis
romano
romans
romantic
romantiche
romanticisim
romantics
romanze
romanzis
romanzo
romboedrica
rome
romensa
romeo
romp
rompi
roms
romul
ronald
roncalli
ronchi
roncjis
roncole
roncs
roosevelt
ros
rosa
rosacee
rosacis
rosada
rosari
roscio
rose
rosea
rosean
roseano
rosegg
rosenheim
rosental
rosis
ross
rosse
rosseau
rossi
rossini
rossis
rossitti
rosso
rossonoemi
rot
rotazion
rote
rotis
rototom
rottenstein
rotterdam
roture
roubaix
rouge
rougeclair
roumanie
round
roundhouse
rous
rovere
rovigo
roxanne
roy
royal
roz
roßbach
rs
rserberg
rstenfeld
rt
rth
rther
rthersee
rtschach
rttemberg
ru
rualp
rubadub
rubbia
rubriche
ruda
rude
ruden
rudinac
rudolf
ruede
ruedis
ruggeri
ruggiero
rugje
rumantsch
rumen
rumo
rumore
run
runic
runis
rupert
ruprecht
rura
rus
rush
rusignu
rusin
ruspie
russe
russel
russia
russie
russis
rustica
rusticus
rut
rute
ruth
rutherford
rutte
ruvi
ruvigne
ruvina
ruvinade
ruvinadis
ruvinis
ruz
rv
rvide
ry
ryu
rz
rzburg
rztal
s
sa
saager
saal
sabaudia
sabaut
sabide
sabine
sabins
sabotac
sac
sacchis
sacerdot
sacerdozi
sachete
sachsenburg
saci
sacra
sacrament
sacrari
sacre
sacri
sacrifica
sacrifici
sacrificis
sacrilegji
sacris
sacro
sacs
sadat
saddam
saf
saggi
saggio
sagjist
sagjistiche
sagjistichis
sagjstiche
sagra
sagre
sagris
sagristie
sahara
sai
saigon
saint
sal
sala
salaco
salacor
salade
salam
salari
salde
saldece
sale
salerno
sales
salide
salieri
salinado
saliro
salis
salisburc
salisburghe
salizzoni
salms
salo
salomon
salon
salot
salsa
salt
salta
salte
salts
salu
saluda
salusti
saluzzo
salva
salvadi
salvadie
salvadiis
salvadis
salvado
salvador
salvament
salvatore
salvazion
salve
salvece
salvi
salvini
salvioni
salzburg
sam
sambe
samblee
samea
sameave
samee
samein
samo
samoa
samue
samuel
samvat
san
sanc
sand
sandi
sandl
sandri
sandro
sandwich
saneta
sangallo
sanghins
sangro
sangue
sanita
sanitari
sanitarie
sankt
sanremo
sans
sanscrit
sansoni
sansovino
sant
santa
santana
sante
santi
santiago
santifica
santificazion
santifiche
santine
santissim
santissime
santita
santo
santorini
sants
santuari
santul
sapade
sapadi
sapadin
sapere
sapience
sapuarta
sara
sarajevo
saran
sarcofac
sarda
sarde
sardegna
sardegne
sardegnu
sardegnule
sardo
sare
sares
saressin
sarpint
sarrionandia
sarse
sarto
sartori
saskatchewan
sassari
sassin
sassina
sassinament
sassins
sasso
sassone
sassonie
satane
sataris
satelit
satelits
satire
satiric
satiris
sattel
saturni
saualpe
saudite
saul
sauran
saurane
sauri
sauris
sava
savalon
save
saveve
savevin
savi
savie
savieta
savint
savis
savo
savogne
savoia
savoie
savonarola
savorgnan
savu
sb
sbalc
sbaliade
sbanda
sbandi
sbara
sbaraia
sbaraie
sbarcja
sbassa
sbelea
sbrissa
sbroca
sbrui
sburt
sburta
sburtadis
sburtavin
sburte
sbusa
sc
sca
scala
scale
scalemajor
scaleminor
scali
scambi
scambia
scambiin
scambis
scana
scancela
scanceladis
scancelant
scancele
scandai
scandinave
scandinavie
scandul
scarampi
scarlatti
scarpa
scarpe
scarpis
scartament
scendente
scene
scenis
scent
scha
schalchen
scharten
schattseite
sche
schede
scheidt
scheifling
schema
schemblin
scheme
schemis
schene
schengen
scherc
schi
schiado
schiavi
schiefling
schirie
schis
schisme
schladming
schloss
schmid
schmidt
schneidermann
schnepfau
scho
school
schopenhauer
schoppernau
schro
schu
schwabegg
schwand
schwarzach
schwarzautal
schwarze
schwarzenberg
schweinfurt
sciaffuse
sciardis
science
sciencis
scienze
scienzis
scipio
scipionis
scja
scjadenara
scjafoia
scjalda
scjale
scjali
scjalin
scjalinade
scjalis
scjalon
scjampa
scjampade
scjampant
scjampe
scjampin
scjars
scjarse
scjarseta
scjarsis
scjate
scjefin
scla
sclari
sclariment
sclavanie
sclave
sclavis
sclavitu
sclavitut
sclavons
sclet
sclete
scletece
sclibis
sclizza
sclop
sclopa
sclopade
sclope
sclopeta
sclopit
scluse
sco
scognossu
scognossude
scolastic
scolastiche
scolops
scolta
scoltadis
scoltado
scoltant
scoltavin
scolte
scombate
scombatevin
scombati
scombatiment
scombatu
scomenc
scomence
scomencin
scomenza
scomunica
sconfi
sconfit
sconfite
sconfitta
scopo
scor
scoreve
scori
scorre
scorsade
scorsadis
scossa
scossis
scott
scove
scoze
scozie
screa
screade
scri
scrit
scrite
scritis
scrito
scritore
scrits
scritti
scrittore
scriture
scrituris
scrive
scriveve
scrivevin
scrivi
scriviju
scrivile
scrivin
scrivint
scroca
scrosoppi
scrovegni
scrupui
scrutina
scu
scuadre
scuadris
scuadriscj
scuasi
scuasit
scudet
scudets
scudiele
scudos
scuegnin
scuela
scuele
scuelis
scuen
scufe
scugne
scugni
scugnin
scugnirin
scugnive
scugnu
scuindude
scuintri
scuintris
sculto
sculture
sculturis
scune
scuola
scuole
scure
scuri
scuro
scurtade
scurte
scuse
scusse
scuviart
scuviarte
scuvierc
scuviert
scuvierte
scuviertis
scuvierts
scuvierzi
sdramassa
sdrondene
sdruma
sdrumade
sdrumarin
sdrume
se
sea
search
seattle
sebastian
sebastiano
sec
secja
secje
secol
secola
secoli
secolo
second
seconda
secondari
secondarie
secondariis
seconde
secondo
seconds
secont
seconts
secret
secretari
secuals
secuence
secuencis
secui
secul
secunda
secundarie
sed
sede
sedean
sedi
sedin
sedis
sedon
sedons
sedude
seduzions
see
seebach
seeboden
segjos
segn
segna
segnade
segnai
segnala
segnalazion
segnaletiche
segnalin
segnant
segnarin
segnave
segne
segni
segnin
segns
segont
segovia
segra
segregazion
segret
segretari
segretaris
segrete
segu
seguac
seguent
seguents
segui
seguide
seguint
seguintis
seguis
seguissin
seguit
seguita
seguite
seguiti
seguitive
seguitivementri
seguitivis
sei
seian
sein
seis
sel
sele
selecta
selezion
seleziona
sello
selo
selva
semafar
semeave
semee
semena
semence
semencis
semi
semicircola
semicircula
semiconduto
seminari
semiotiche
semite
semitic
semitiche
semplic
semplice
semplicementri
semplicis
semplicita
semplificazion
sempre
sen
sena
senado
senat
senato
sence
sene
seneca
seneche
senegjature
senegjaturis
senis
sens
sensazion
sensazions
sense
sensibil
sensibile
sensibilita
sensibiliza
sensibilizazion
sensoria
sensua
sent
senta
sentade
sentadis
sente
sentence
sentiment
sentimenti
sentin
senyera
senza
seonde
seont
separa
separade
separadis
separado
separazion
separe
separin
sepe
sepis
septimius
sepulcri
sepuli
sequoyah
sera
serafini
serbie
sercha
sere
seregno
seren
serene
serenisime
serenissima
serenissime
serenita
serf
sergio
seri
seria
serie
seriis
serling
sermon
sermons
serp
serps
server
servi
service
servide
servido
servissin
servitu
servive
servizi
servizis
ses
sesela
sespa
sessante
session
sessua
sessualita
sest
seste
sesto
set
setante
setemana
setemane
setemanis
setembar
setentrion
setentriona
setim
setime
setis
setminus
seto
setors
sette
settecento
settembre
severe
severita
severus
sevi
sezion
sezions
sfanta
sfere
sfesis
sfilade
sflando
sflori
sfloridure
sfola
sfondera
sfondo
sfont
sfrancja
sfrancje
sfruta
sfrutament
sfuarc
sfuei
sfueis
sganc
sgarfa
sgarfado
sgarfant
sgja
sgjava
sgjavadis
sglonf
sgnape
sgorlon
sgrifis
shades
shaffer
shakespeare
sharing
sheffield
sherwood
shi
shift
shimano
shiula
short
show
shuttle
si
sia
siara
sibe
siben
sibilant
sibille
sibiu
sibratsgfa
siche
sicheduncje
siciliane
sicilians
sicilie
siciliensi
sicu
sicurece
side
sidera
sidoti
sie
siegfried
siei
sielc
siele
sielis
sielt
sielte
sieltis
sielze
sielzevin
sielzi
sielzint
sielzu
sielzude
siemens
siempre
sience
siencia
siencis
siene
sientific
sientifiche
sientifichis
sientifics
sienzia
siera
sierade
sieradis
sierantlu
siere
siespis
siest
siet
sietcent
sietim
sievole
sieye
sig
sighiet
sigjeart
sigji
sigle
sigmund
sign
signa
significa
significance
significati
significative
significativis
significave
significhe
signis
signo
signori
signorie
signoriis
sigu
sigura
siguramentri
sigure
sigurece
sigurementri
siguris
sii
siits
sikhisim
sikorsky
silabari
silabe
silabis
silbertal
sile
sili
silici
silvan
silvestri
silvia
silvio
sima
simbolic
simboliche
simbolisim
simbui
simbul
simeon
simii
simil
simile
similis
simitieri
simo
simon
simone
simonetta
simoni
simpatiche
simpatie
simpatiis
simpri
simprivert
simulazion
sin
sinai
sincere
sinclair
sindacalist
sindic
sindics
sine
sinfonie
sing
singer
singola
singoli
sings
singui
singul
singula
singule
singulis
sinis
siniscola
sinist
sinistra
sinistre
sino
sinonim
sinonims
sint
sinta
sintassi
sintesi
sintetic
sintetiche
sintetiza
sinti
sintiment
sintiments
sintin
sintive
sintivin
sintoisim
sintremai
sintu
sintude
sintudis
sio
siore
siorons
sipion
sipions
siprage
sir
siracuse
sirhan
sirie
sirnitz
siron
sis
sisene
sisilute
sismografs
sistem
sistema
sistematic
sistematiche
sistemazion
sisteme
sistemi
sistemis
sister
sistine
site
sito
sitta
sittersdorf
situa
situade
situazion
situazione
situazions
sium
sivian
sivila
sivilie
sivilotti
sivori
sj
sji
sk
ska
skeet
skerrit
skowola
skubin
sky
sl
sla
slac
slambri
slanc
slargja
slargjade
slargjament
slargje
slargjin
slave
slavia
slavis
slavra
slc
sleep
slesian
slesiane
slesie
slisse
slontana
slontane
slov
slovac
slovachie
sloven
slovene
slovenia
slovenie
slovenis
slovens
slovenski
slungja
slungje
slusigna
sm
smartphone
smascarant
smaug
smire
smistament
smith
smole
sn
snait
snia
so
sobre
soc
soci
socia
sociai
social
socialdemocrazie
sociale
sociali
socialis
socialiscj
socialisim
socialist
socialiste
socialistis
socie
societa
society
socio
sociocultura
sociolic
sociolics
sociologjie
sociology
socis
socle
socotra
socrat
socrate
sodisfa
sodisfatis
sodisfazion
sodisfin
soference
soferencis
sofit
sofla
sofle
sofocli
software
sogjet
sogjete
sogjets
sogjorna
soi
sol
sola
solari
solaris
solda
soldati
sole
solene
solenita
solfar
soli
solide
solimberc
solis
solist
soliste
solit
solitari
solits
solo
solsburc
solstizi
soluzion
soluzions
somari
some
somea
someancis
someantis
someants
someare
someave
someda
somee
somein
sometu
somma
sommarti
somnium
somp
somvile
son
sonadis
sonde
sondow
sonets
song
sonnberg
sonnseite
sonntag
sono
sonore
sonorita
sons
sophia
sopognets
sopran
sopresion
sopression
soprintendenza
soprintendenzastoricoartistica
sopuarta
sorabe
sorap
soraps
sorde
sore
soredu
soredut
soreli
sorella
sorenatura
sorenaziona
sorenomena
sorenon
soreplui
soresere
sorestante
sorestants
sorevi
sorevivence
sorevivi
sorevivu
soria
sormonta
soror
sorprese
sorprindints
sors
sort
sorte
sorts
sorzint
sos
sospension
sospensions
sospeta
sosta
sostance
sostancis
sostanti
sostegn
sostegnin
sosten
sostenido
sostentament
sostigni
sostignido
sostignint
sostignive
sostignu
sostignude
sostignudis
sostitui
sostituide
sostituidis
sostituzion
sot
sotan
sotanance
sotans
sote
sotera
soterani
sotet
sotinsiemi
sotinsiemis
sotmarin
sotmultiplis
soto
sotrazion
sotrazions
sottenent
sottile
sotto
sotuficia
soul
source
south
soviet
sovietic
sovietiche
sovietics
sovran
sovrane
sovranita
sovrans
soy
sozialdemokratische
space
spada
spade
spadon
spagne
spagnola
spagnole
spagnolis
spagnu
spagnule
spain
spalis
spam
spande
spandint
spandu
sparagna
spari
sparide
sparidis
sparnic
sparsi
sparti
spartizion
spauri
spaventa
spaventose
spazi
spazia
spaziis
spazis
spd
speaking
specia
special
speciale
specialita
specializa
specializade
specializadis
specialmentri
specie
species
specific
specifica
specifiche
specifichis
specifics
speciis
specis
speculazion
spedi
spedizion
spedizions
spell
spencer
spera
sperance
sperancis
sperant
sperave
speravin
sperimenta
sperin
spes
spese
spesi
spesis
spessart
spessea
spesso
spetacui
spetacul
spetato
spetra
spetri
spezie
speziis
spi
spic
spice
spie
spiega
spiegazion
spiegazions
spieghe
spieli
spieta
spietadis
spietave
spiete
spietin
spilimberc
spilimberche
spin
spina
spindi
spinning
spinoza
spinte
spira
spirit
spirito
spirits
spiritua
spiritualita
spiritussant
spiron
spirt
spirts
spirtua
spirtussant
spittal
spleadis
splendo
spo
spodnja
spodnje
spolert
spongje
sporc
sporca
sport
sportel
sporti
sportiva
sportive
sportivis
sportivo
sports
sposa
spose
sposta
spostade
spostament
spostarin
sposte
spot
spring
sproc
spuinde
sqrt
squadris
sr
sreje
sri
srl
ss
ssenberg
ssing
ssj
ssy
st
sta
stabii
stabil
stabile
stabili
stabilide
stabiliment
stabiliments
stabilis
stabilissin
stabilita
stabiliza
stablezimient
stache
stada
stadacona
stade
stadi
stadis
stadl
stadt
stafete
stage
stagioni
stagjon
stagjona
stagjons
stai
staiar
stainz
stale
stali
stalin
stalis
stall
stallehr
stallhofen
stallman
stamp
stampa
stampade
stampadis
stampe
stan
stand
standard
standardiza
standardizade
standardizazion
standards
stanislau
stanislaw
stanisław
stanley
stant
stanza
stanziade
stanzie
star
staranzan
stargate
staroffice
start
stas
stasion
stat
stata
state
states
static
staticita
station
statist
statistic
statistiche
statistichis
statistics
statistik
statiunitens
stato
stats
statu
statue
statuis
statunitens
statunitense
status
statutarie
statutariis
statutarsta
statutarstadt
statuti
stave
stavin
stay
stazi
stazion
stazions
ste
stedi
stefan
stefania
stefano
stefanutti
steiermark
stein
steinbach
steinberg
steindorf
steinfeld
steinhaus
steinwand
stela
stele
stelis
stella
stelle
stellini
stelute
stelutis
stelvio
steme
stemis
stenland
stepe
stephanskrone
stephen
ster
stereotips
sterle
sterline
sterling
stermini
sternberg
sterp
sterreich
sterreichische
sterreichs
stes
stesse
stessis
steuerberg
steve
stevin
steyr
sti
stic
stick
stiefin
stiele
stierc
stift
stil
stilistiche
stima
stimave
stime
stimis
stimola
stimul
stin
stipula
stirie
stivell
sto
stoccolme
stockenboi
stocker
stocolme
stocs
stoic
stoiche
stoicisim
stoics
stomea
stomi
stop
storia
storic
storiche
storichementri
storichis
storici
storico
storics
storie
stories
storiis
storiografie
storis
stoy
stra
strabon
strabuinis
strac
strada
stradai
stradalte
strade
stradele
straden
stradis
straight
stramanda
stramuda
stramudant
strani
straniere
stranis
straordenari
straordenarie
straordenaris
strasburc
strassoldo
strassolt
strategjic
strategjiche
strategjie
strategjiis
stratford
straulino
strauss
straviade
straß
streaming
street
stregne
strenc
strent
stret
strete
strichis
stride
strie
striis
strindberg
stringher
strion
strions
strissina
strizzolo
strofe
strofis
stroheim
stroili
strolic
strolics
stromboli
stroments
struc
strument
strumenta
struments
strumi
strupia
strutura
struturade
struture
struturis
stu
stuart
stuc
stucarde
stude
studena
studene
student
students
studi
studia
studiade
studiadis
studiant
studiants
studie
studies
studiin
studiis
studio
studiobeat
studios
studis
stupi
stura
sturken
stuttern
su
sua
suald
suase
suaze
sub
subi
subieti
subirin
subit
subite
submarine
subordina
subset
subseteq
suburban
suce
sucede
sucedeve
sucedi
sucedin
sucedu
sucedude
sucedudis
suces
sucessi
sucession
sucessive
sucessivis
sucesso
sud
sudafriche
sudan
suddivision
sudividude
sudivision
sudivisions
sudo
sudorienta
sudri
sue
suetoni
suez
sufi
suficient
sufri
sugeri
sugjeri
suha
sui
suia
suicide
suicidi
suingando
suins
suite
suites
sul
sule
sulis
sull
sulla
sulle
sulmona
sulmone
sulpici
sulz
sulzberg
sum
sumant
sume
sumission
sun
suna
sunade
sunadis
sunado
sunant
sunave
sunavin
sune
sung
sunin
sunnits
suno
suns
sunsplash
suntun
suntune
suo
suoi
sup
supa
supave
supe
super
supera
superament
supere
superficia
superficie
superficiis
superin
superio
superior
superiore
superiori
superiorita
superiormentri
superiors
superlati
supernova
superstizion
suplement
suplementa
suplicant
suppa
suppliciis
suprem
supremazie
supset
supuart
supuarts
sur
suri
surie
suriname
sursilvan
sus
susa
susane
susans
suse
susino
suspended
suspiet
suspieta
sussistence
suste
sustigni
sustignint
sustis
susy
sut
sute
suti
sutilis
suzanne
sv
svan
svaria
svariadis
svariin
svastica
svea
svede
svedese
svelt
svelte
svelts
sveta
svetoni
svevie
svevo
svezie
svg
svicina
svicine
svicinin
svilup
svilupa
svilupade
svilupadis
svilupant
svilupave
svilupe
svilupin
svilups
svindic
svindica
svoi
svola
svole
svolte
svualt
svuinca
svuizar
svuizare
swim
switzerland
sydney
syllabary
sylvius
system
systems
szczecin
t
ta
taba
tabac
tabaia
tabaie
tabele
tabelis
table
tableau
tablet
tac
taca
tacade
tacadis
tacament
tacant
tacarin
tacat
tacave
tace
tache
tachin
tacit
taddei
tae
taekwondo
tafanie
tag
tagliamento
tai
taia
taiade
taie
tailande
tailandie
taipane
taiwan
taja
tajment
tak
take
tal
talar
tale
talent
tali
talia
talian
talianadis
taliane
talianis
talians
talis
talk
talmadge
talmassons
tam
tamai
tamau
tamave
tamburo
tami
tamigi
tammuz
tampieste
tan
tanaie
tanche
tancj
tangere
tangjent
tangjenzia
tango
tanj
tant
tantche
tante
tantetant
tantis
tao
taoisim
tap
tape
tapis
tapoian
tapon
tapone
taramot
taramots
tarant
taranto
tarcint
tarcisio
tard
tarde
taresie
targhe
targhis
tarifazion
taronde
taronts
tarsdorf
tart
tartar
tarvis
tarvisian
tarvisio
tarvos
tas
tassazion
tassis
tast
tastiere
tastierin
tastieris
tatiche
tatichis
tatics
tau
tauern
taule
tauletis
taulis
taurinense
taurs
tavagna
tavan
taviele
tay
taylor
tb
tc
td
te
teatra
teatrai
teatri
teatris
teatro
tebe
teche
techelsberg
technology
technotitla
teck
tecle
tecnezi
tecni
tecnic
tecnica
tecniche
tecnichis
tecnics
tecnologjiche
tecnologjie
tecnologjiis
tedesco
teghis
tegni
tegnin
tei
teil
teis
tel
tela
tele
telecomunicazion
telecomunicazions
telefon
telefonic
telefonics
telefonie
telefriuli
televisi
television
televisions
televisive
televisivis
telin
telis
tell
tellini
tellurika
tematiche
tematichis
teme
temin
temis
temp
tempera
temperadis
temperadure
temperaduris
temperament
tempi
templa
templi
templis
tempo
tempora
temporaneamentri
temps
ten
tenar
tenco
tendence
tendencis
tendis
tenent
tennessee
teno
tension
tensions
tenta
tentati
tentazion
tenzu
teo
teocrit
teodo
teodori
teodoriane
teodosi
teolic
teologjie
teoreme
teoremis
teori
teoria
teoric
teoriche
teorics
teorie
teoriis
tequixquiac
ter
tera
teren
terena
terens
terentius
terenzi
teresa
terese
terestre
terestri
terestris
teribil
teritori
teritoria
teritoris
terme
termiche
termin
termina
terminade
terminazion
termine
termini
terminin
terminologjie
termins
termis
termodinamiche
terni
tero
terorisim
terra
territori
territoriale
territorio
terziari
terziarie
tes
tesaur
tescj
tesi
tesis
tesori
tessalonice
tessaloniche
tessaris
tessil
tessile
tessitori
test
testade
testament
testemonea
testemoneance
testemoneancis
testemonein
testemoni
testemonie
testemonis
testi
testo
tet
tetragonale
tets
tetum
teutoburc
texas
text
textcolor
textdata
tg
tgnove
th
thai
thailande
thal
than
that
the
theater
their
then
theodor
theodore
theory
there
therese
they
thie
thiene
thiniscole
third
this
tho
thomas
thompson
thomson
thorin
thu
thumb
thumbnail
ti
tia
tiara
tiarc
tiarce
tiare
tiaris
tibar
tiberi
tiberio
tibie
tibul
tic
tica
ticin
tiepolo
tierc
tierce
tiere
tieregnove
tieris
tiermin
tiermins
tiermit
tiermits
tiero
tiessidure
tiessu
tif
tigni
tignince
tignint
tignissin
tignive
tignivin
tignu
tignude
tignudis
til
tilde
tiliment
till
tim
tima
timau
timave
time
timeaxis
times
timon
timor
timoteu
timp
timps
tin
tina
tindi
tindince
tinise
tinissima
tinna
tintin
tintoretto
tip
tipic
tipiche
tipichementri
tipichis
tipics
tipo
tipografia
tipologjie
tipologjiis
tipos
tips
tir
tira
tirade
tiradis
tiradure
tirano
tirans
tirant
tirave
tiravin
tire
tiren
tirin
tiro
tirol
tirole
tis
tisane
titani
titins
titir
tito
titola
titui
titul
titula
titus
tiu
tizian
tiziano
tl
tm
tn
tnf
to
toasting
tobie
toc
tocai
toce
tocja
tocjade
tocjadis
tocjave
tocje
tocjin
tocs
tocuts
tod
todesc
todescje
todescjis
todescs
tof
toffanin
toffoli
toffolo
togadis
together
toghe
tokyo
tolazzi
toledo
tolkien
tolmezzo
tolomeu
tolose
tom
toma
tomadini
tomaz
tomba
tombaugh
tombe
tombis
tomis
tommaso
ton
tonant
tondo
toneladis
toni
tonic
toniche
tonini
tony
too
top
topograf
topografiche
topografie
topologjiche
topologjie
toponim
toponims
toponomastica
toponomastiche
toponomastichis
toponomastico
tor
torah
torate
tordesillas
torean
torent
torian
torians
torin
torino
torment
tormenta
tormentade
torna
tornade
tornadis
tornant
tornara
tornaran
tornarin
tornave
torne
torneaments
torneio
torni
tornin
toro
toronto
torototela
torre
torres
torretto
tors
torsion
torsten
torture
torvalds
toscan
toscane
tosolini
tota
totalita
totalitari
totalmentri
toti
totis
tour
touring
tourne
tower
town
tr
tra
tracce
track
tracks
tract
tradi
tradiment
traditional
tradizion
tradiziona
tradizionalis
tradizionalmentri
tradizioni
tradizions
tradusu
traduto
traduzion
traduzions
trafic
trafics
trafo
tragedie
tragediis
traghet
tragiche
tragjedie
tragjediis
tragjics
trai
traian
trailer
tram
trama
tramai
tramanda
tramandade
trame
tramis
tramonc
tramont
tramontan
tramontane
trams
trancuilita
trang
tranquillo
trans
transalpine
transilvanie
transisto
transistors
transit
transitive
transizion
transpuarts
trapani
trasaghis
trascrivi
trascrizion
trascurabil
trasere
trasferi
trasferide
trasferiment
trasferiments
trasfigurazion
trasforma
trasformant
trasformazion
trasformazions
trasforme
trasfusions
trasibul
trasmet
trasmeti
trasmetido
trasmetin
trasmetu
trasmission
trasmissions
trasmitude
traspuart
traspuarta
traspuarte
traspuarts
trastolons
trasversa
trat
trata
tratament
tratant
tratativis
tratave
tratavin
trate
tratin
trats
tratta
tratten
trattnach
tratto
traun
traunkreis
trave
traviarse
traviers
traviersa
traviersade
traviersant
travierse
travuarda
trazion
tre
trebesing
trebie
treccani
tredis
treffelsdorf
treffen
trei
trekking
tremende
tremitis
tren
trenitalia
treno
trenos
trens
trent
trente
trentin
trep
tres
tresemane
tresesin
tresinte
trevi
treviri
treviso
trg
tri
triangola
triangul
tribu
tribun
tribuna
tribune
tribuns
tributari
tricesimo
tricolo
tridentina
tridimensiona
triest
trieste
triestin
trigram
trilenga
trilogjie
trinceis
trinidad
trinita
trio
trionfs
tripodi
tris
triscj
trist
tristan
triste
tristia
triumphi
triumvira
trivignan
trivium
tro
trobado
troe
troi
troians
troie
trois
troll
trombe
tron
tronc
tronco
trono
trop
tropica
troppo
trops
trot
trovatore
truc
truculents
true
trung
trupe
trupis
ts
tsarensa
tsch
tschach
tschagguns
tsche
tschiel
tsi
tsu
tt
tten
ttenberg
tting
ttir
ttmannsdorf
tu
tua
tualis
tuareg
tube
tubet
tubul
tudo
tuli
tullio
tulmin
tumen
tumiec
tun
tune
tungsten
tuo
turc
turchetti
turchie
turchin
turchine
turco
turcs
turello
turgot
turgovie
turia
turin
turing
turingje
turint
turiscj
turisim
turism
turismo
turistic
turistiche
turistichis
turistics
turið
turni
turoldo
tuscul
tutela
tutele
tutta
tutte
tutti
tutto
tuum
tv
twist
twitter
two
tylor
type
tyrants
tz
tzen
tzu
tɕ
tʃ
u
ua
uanis
ubidi
ubidience
uc
uccellis
uce
ucei
uciei
uciel
ucrain
ucraine
ucs
ucul
ud
ude
udin
udine
udinese
udinesi
udis
udistrie
ue
uere
uet
uf
ufficial
ufficiale
ufici
uficia
uficial
uficialmentri
ufiert
ufierte
ufiertis
ufizi
ufizia
ufizialmentri
ufizis
ufri
ufrissin
ufs
ugent
ugnui
ugnul
ugnulis
ugo
ugonots
ugovize
ugua
ui
uk
ul
ulam
uldari
ulderica
uldide
ule
uli
ulis
ulisse
ulri
ulrich
ulterio
ulteriormentri
ultim
ultime
ultimi
ultimis
ultimo
ultims
ultin
ultins
uma
uman
umane
umanis
umanisim
umanistichis
umanita
umans
umbert
umberto
umbri
umbrie
umgebung
umidita
umii
umilta
umits
umo
un
una
unapologetic
und
under
underground
undis
une
unesco
unevore
unfier
uni
unic
uniche
unichis
unicode
unics
unide
unidis
unifica
unificazion
unifiche
uniformita
unigjenit
uninomina
unio
union
unit
unita
unitari
unitat
united
unito
units
uniud
universa
universale
universalmentri
universidad
universidade
universita
universitari
universitaria
universitaris
university
univiers
univoche
unix
uno
uns
unsere
unt
unterbergen
unterfranken
unterhaus
unterholz
untertal
untertauern
unterweitersdorf
ununhexium
ununpentium
ununquadium
ununtrium
unvia
unvie
unvier
uomini
uomo
uork
up
upojenie
upper
upright
ur
uran
urani
urban
urbana
urbane
urbani
urbanis
urbanistic
urbanistiche
urbanizazion
urbe
urbin
urc
urfahr
uri
urine
url
urquidez
urs
ursa
urss
urtio
uruguai
uruguay
uruk
urviel
us
usa
usade
usance
usancis
usave
usavin
usb
use
user
usmis
usti
ustina
usua
ut
utah
utan
utc
ute
utent
utents
utet
uti
uticens
utii
util
utile
utilita
utiliza
utilizade
utilizadis
utilizazion
utopie
uvint
v
va
vabek
vacant
vacine
vacje
vacjis
vacuita
vadi
vadin
vai
vain
vaint
vaiont
vaive
vajont
val
valade
valadis
valantin
valbrune
valcareggi
valcellina
valcjalda
valcjalde
valcjana
valdajer
valdolce
vale
valencia
valenciana
valencians
valentin
valentina
valentinis
valentino
valenzian
valenzians
valenzie
valeri
valerian
valerio
valerius
valide
validis
validita
valin
valisela
valit
valits
vallader
valle
vallenato
valles
valo
valois
valor
valoriza
valorizazion
valoro
vals
valtellina
valter
valude
value
valussi
valutazion
valutazions
valzer
van
vanadi
vandans
vander
vanita
vanseli
vanta
vantac
vantagjo
vanuatu
vanzei
vanzelets
vanzeli
vanzelis
vapo
vaporizazion
var
vara
varaita
varan
vare
vares
varessin
varessino
vari
varia
variabii
variabil
variabile
variant
variante
variantis
variants
variazion
variazioni
variazions
varie
varieta
variis
varin
varis
variu
varon
varro
varsavie
varutti
vas
vasari
vascje
vasco
vasinis
vassal
vassi
vassy
vast
vaste
vastis
vatican
vaticans
ve
vec
vecje
vecjis
vecjo
vecjos
vecjus
vede
vedi
vedin
vedronze
vedue
vee
vegjeta
vegjetazion
vegle
veglece
veglia
vegn
vegna
vegne
vegni
vegnin
vegnive
vegnivin
veicui
veicul
veis
veit
velade
velden
vele
velen
velena
veleno
velikovec
velis
vellach
velocita
velu
ven
venanzi
venasta
venc
vendeme
vendete
vendevin
vendi
vendin
vendite
venditis
vendito
vendrame
vendu
vendude
vendudis
vene
venera
venerade
venerazion
venere
venerin
veneta
venete
venetia
venetis
veneto
venetofone
venezia
venezian
veneziane
venezians
venezuela
venga
vengnin
veni
venier
venis
venit
venite
venitis
venits
venive
venose
vens
vent
venti
vento
ventuno
venus
venuti
ver
vera
verba
verbo
vercelli
verde
verdi
verdis
verduc
vere
verementri
vereta
vergjin
vergjine
vergjinis
vergjins
vergjne
vergogne
veri
verifica
verifiche
veris
verita
verlag
vermont
vero
verona
verone
veronese
verp
verps
verrem
vers
versailles
versant
verset
versets
version
versione
versions
verso
vert
vertic
vertica
vertical
vertigini
verts
verzegnis
verzela
ves
vescovo
vescui
vescul
vespasian
vespucci
vestfalie
vestibul
vestizion
vestone
vesuvi
vesuvio
veterans
veterinarie
veto
vetoria
veure
veve
vevi
vevin
vi
via
viabilita
viac
viaggio
viarc
viars
viarte
viatge
viatores
viaza
viazado
viaze
vic
vicario
vice
vicence
vicende
vicendis
vicense
vicente
vicentini
vicenza
vicenze
vichincs
vichinghe
vichipedie
vicin
vicinance
vicinancis
vicine
vicinis
vicins
vico
victor
victoria
vida
vide
video
videoclip
videos
vie
vieli
vielis
vielm
viene
vierc
viere
vieri
vieris
viers
viert
vierte
viertidure
viertiduris
viertis
vierts
vierze
vierzi
vierzint
vietnam
vif
vigji
vignara
vignaran
vignedi
vignerin
vignesians
vignesie
vignete
vigni
vignint
vignirin
vignis
vignive
vignivin
vignu
vignude
vignudis
vigo
vigoro
vigorose
vii
viia
viii
viiia
viis
viktor
vila
vilac
vilalte
vildivar
vile
vilegjature
vilegnove
vilfredo
vilie
vilis
villa
villach
villaggio
villalta
villas
ville
vilnius
vilote
vilotis
vilst
vin
vinare
vinars
vinc
vince
vincent
vincenzo
vinci
vincido
vincidore
vincin
vincint
vincj
vincjecinc
vincjecuatri
vincjedo
vincjedoi
vincjenu
vincjesiet
vincjesim
vincjesime
vincjeun
vincjevot
vincui
vinh
vini
vinifera
vinizian
viniziane
vinland
vino
vins
vint
vints
vio
viodara
viodari
viode
vioderin
viodeve
viodevin
viodi
viodiju
viodile
viodin
viodint
viodis
viodisi
viodu
viodude
viodudis
viola
viole
violence
violencis
violent
violente
violentis
violetta
violin
violiniscj
violinist
violiniste
violins
violis
vipau
vipiten
virgili
virgilio
virginie
virgjin
virtu
virtua
virtuo
virus
vis
visa
visc
viscon
viscosa
vise
visepente
visi
visibii
visibil
visibile
visibilis
visibilita
visintin
visintine
vision
visions
visita
visitade
visitadis
visitado
visitazion
visite
visitis
viso
vista
viste
visti
visto
vistu
visua
vit
vita
vitale
vitamine
vitant
vite
vitime
vitimis
vitis
vito
vitori
vitorie
vitoriis
vitorio
vittorino
vittorio
viva
vivaldi
vivara
vivaro
vive
vivent
vivents
viveve
vivevin
vivi
vivin
vivint
vivu
vizi
vizis
vj
vjo
vladimir
vo
voaltris
voca
vocabolari
vocabolario
vocabui
vocals
vocazion
voce
voci
voe
voghe
voi
voice
voices
voie
voitsberg
voivoda
voivodine
vol
vola
voladi
volaie
volant
volantins
volants
volara
volare
volares
volatil
volchi
vole
voleson
voleve
volevin
volga
voli
volint
volis
volkspartei
voll
volo
volonta
volontari
volontaria
volontarie
volontariementri
volontariis
volontaris
volri
volt
volta
voltac
voltade
voltadis
voltampere
voltave
volte
volterra
volti
voltis
voltri
volts
volturara
volu
volude
volum
volume
volums
von
vonde
vons
vorarlberg
vore
voris
vorrei
vos
vot
vota
votazion
votazions
votcent
vote
voto
votos
vots
vous
vp
vr
vrata
vrba
vrbskem
vres
vrh
vs
vu
vuadagn
vuadagna
vuarda
vuardi
vuardie
vuari
vuarp
vuarzine
vuasta
vuastado
vude
vue
vuei
vueide
vueit
vueits
vueli
vuelin
vuelis
vuere
vueri
vuerilie
vueris
vues
vuezis
vuida
vuidade
vuide
vuisina
vukovic
vul
vulcan
vulcaniche
vulcanichis
vulcanologje
vulcanologjie
vulcans
vulgaris
vulinti
vuluc
vunak
vuoto
vv
vy
vyot
w
wa
waals
waasen
wagner
wait
wald
waldburg
walde
wales
walesa
wallersee
walter
walther
want
war
ward
wartberg
warth
washington
wat
watch
watt
wave
way
we
web
weber
website
webwww
weiden
weilhart
weimar
weinberg
weinek
weinstraße
weiss
weitensfeld
weiz
weißenbach
weißenstein
well
wels
welsch
weng
wernberg
werner
west
western
westminster
weston
what
when
white
who
wide
width
wie
wien
wies
wiesbaden
wiesen
wiesing
wiki
wikimedia
wikipedia
wikisign
wild
wilhelm
will
william
williams
willibald
wilson
wiltz
wimitz
wind
windisch
windows
windsor
winkl
winklern
winston
winter
wisconsin
with
without
wittgenstein
wka
wo
wolfgang
wolfsberg
woman
woodard
woogie
work
world
worldcat
worms
wto
wu
wutschein
wwf
www
wyoming
x
xaver
xavier
xc
xe
xecutioner
xi
xianfan
xic
xii
xiii
xiv
xix
xl
xml
xmllex
xose
xp
xs
xv
xvi
xvii
xviii
xx
xxi
xxii
xxiii
xxix
xxv
xxvi
xxx
xxxii
y
ya
yang
yb
year
years
yellow
yes
yhwh
yo
york
yorkshire
you
young
your
youtube
yu
yuga
yukio
yukon
yyyy
z
za
zablate
zaccaron
zagorje
zaidi
zal
zale
zalis
zamboni
zamero
zampa
zamparo
zanelli
zanfagnini
zanier
zannier
zanon
zapata
zar
zara
zarde
zardin
zardinac
zardini
zardins
zare
zarnic
zaza
ze
zedlitzdorf
zef
zei
zeit
zelande
zelig
zell
zen
zena
zenar
zeno
zenochi
zenoi
zenti
zermois
zermule
zero
zeus
zevio
zgornja
zgornje
zhuang
zi
ziders
zielo
zigaina
zigantis
zigants
zimul
zimula
zimulade
zingars
zio
zion
zira
zire
zirin
zirons
ziruca
zn
zo
zof
zoff
zoncolan
zone
zonis
zonta
zontade
zontadis
zontant
zonte
zontin
zontis
zontraviers
zoo
zoologjie
zorc
zornade
zornadi
zornadis
zorz
zorzenon
zorzi
zova
zovani
zove
zoventu
zovenut
zovin
zovine
zovinece
zovinis
zovins
zr
zu
zua
zuado
zuan
zuc
zucar
zuckermann
zuf
zugatui
zui
zuia
zuiade
zuiado
zuiant
zuie
zuign
zuin
zuino
zuja
zur
zura
zuric
zurigo
zurnade
zuviel
zuzzi
zy
{
|
}
~
¡
£
§
¨
©
ª
«
®
°
±
²
³
´
µ
·
¸
¹
º
»
½
¾
¿
×
ß
ðsta
þ
đa
đo
ħ
ł
łobez
łobzie
ſ
ƨ
ɡ
ʂ
ʃ
ʒ
ʲ
ʿ
ˈ
ˌ
ː
ˑ
̀
́
̂
̃
̄
̆
̇
̈
̉
̊
̋
̌
̓
̔
̛
̣
̦
̧
̨
̯
͂
ͅ
͡
α
αβ
αε
β
ββ
γ
γος
δ
ε
εα
εβ
ζ
η
ι
λο
μ
ν
ο
π
ρ
ς
τε
υ
ω
б
г
д
и
ָ
ֹ
ּ
ה
ו
ר
ת
ا
الا
جمادى
ربيع
ش
ع
ك
ل
م
ي
يوم
َ
ُ
ِ
ّ
ْ
ٓ
ٔ
ٕ
ی
ं
द
म
ल
ि
ी
ु
्
ਂ
ਦ
ਲ
ਿ
ੀ
ੱ
ᚩ
ᛖ
᛫
‎
‏
–
—
‘
’
“
”
„
†
•
…
‪
‬
′
″
€
ⅰ
ⅲ
→
↔
↷
−
∫
⌀
③
④
⑦
☉
☾
☿
♀
♁
♂
♃
♄
♅
♆
♇
⚳
⛢
⯓
⯰
⺀
⺄
⺆
⺈
⺊
⺌
⺕
⺝
⺸
⺼
⿰
⿱
⿲
⿳
⿴
⿵
⿶
⿷
⿸
⿹
⿺
⿻
〢
コ
ユ
㇁
㇂
㇄
㇇
㇈
㇉
㇓
㐁
㐄
㐅
㐌
㐫
㐬
㐭
㐮
㐱
㑒
㒵
㒸
㒼
㓁
㓞
㔾
㕛
㕣
㖾
㘝
㚅
㚇
㚔
㚘
㝉
㝡
㝴
㝵
㞋
㞢
㞷
㠩
㠭
㠯
㡀
㡭
㡿
㢲
㢴
㣇
㣺
㥯
㪅
㫄
㫐
㫒
㫺
㬅
㬎
㬥
㬰
㲋
㳄
㷠
㸒
㸚
㸦
㼌
㼲
㽞
㿟
䀠
䂞
䍃
䏍
䒑
䖍
䖒
䖝
䖵
䙴
䚻
䜌
䝿
䡛
䧹
䪞
一
丁
丂
七
丄
丅
丆
万
丈
三
上
下
丌
不
与
丏
丐
丑
专
且
丕
世
丘
丙
业
东
丞
丢
丣
两
严
並
丨
丩
个
丫
丬
中
丮
丰
丱
串
丵
丶
丷
丸
丹
为
主
丽
丿
乀
乂
乃
久
乆
乇
么
义
之
乌
乍
乎
乏
乐
乑
乔
乖
乗
乘
乙
乚
乛
乜
九
乞
也
习
乡
乳
乾
亀
亅
了
亇
予
争
事
二
亍
于
亏
亐
云
互
亓
五
井
亘
亚
亜
亞
亟
亠
亡
亢
交
亥
亦
产
亨
亩
享
京
亭
亮
亯
亰
亲
亳
亶
亷
人
亻
亼
亾
仁
今
介
仌
从
仐
仑
仒
仓
仕
他
付
仝
代
令
以
任
企
伊
伏
伐
休
会
伯
但
位
何
佘
余
作
佥
使
來
侈
侌
侖
侯
侵
便
保
俞
信
修
倉
倍
候
倠
備
僉
僕
儿
兀
允
兂
元
兄
充
兆
兇
先
光
兊
克
兌
免
兑
兒
兓
兔
党
兜
兟
入
全
兩
兪
八
公
六
兮
兰
共
关
兵
其
具
典
兹
兼
冀
冂
冃
冄
内
冈
冉
冊
冋
册
再
冎
冏
冐
冒
冓
冖
冗
冘
军
农
冝
冡
冥
冫
冬
冷
几
凡
凢
凵
凶
凷
凸
凹
出
函
凾
刀
刁
刂
刃
刄
刅
分
切
刍
刑
刕
刖
列
刘
则
初
別
利
别
到
制
刺
則
削
剌
前
剡
剽
劉
力
功
加
劦
助
劫
劳
劵
勃
勇
勉
勒
動
務
勞
勤
勹
勺
勻
勾
勿
匀
匂
包
匆
匈
匊
匋
匍
匕
化
北
匚
匝
匡
匪
匱
匸
匹
区
医
匽
匿
區
十
卂
千
卄
卅
卆
升
午
卉
半
卌
华
卑
卒
卓
单
卖
南
卜
卝
卞
占
卡
卢
卣
卤
卦
卩
卪
卬
卯
印
危
即
却
卵
卷
卸
卻
厂
厃
厄
历
厈
厉
厌
厓
厘
厚
原
厤
厥
厨
厭
厲
厶
厷
厸
去
厼
厽
叀
参
參
叅
又
叉
及
友
双
反
叐
发
叒
叔
叕
取
受
叚
叜
叟
口
古
句
另
叩
只
召
可
台
叱
史
右
叵
号
司
叹
吂
各
吅
合
吉
吊
吋
同
名
后
吏
向
吕
君
吝
吞
否
含
启
吳
吴
吹
吾
呂
呆
呈
告
员
呙
周
命
咅
和
咎
咠
咢
咨
咸
咼
哀
品
哉
員
哥
哲
唐
商
啇
問
啚
啬
啻
善
喜
喬
單
喿
嗇
噩
嚴
囊
囗
囘
囙
囚
四
回
囟
因
囧
囬
困
囱
囷
固
国
圂
圅
國
圍
圓
土
圡
圣
圥
在
圭
地
圶
圼
坐
坒
坚
坴
垂
垔
垚
埀
埋
埶
執
基
堂
堅
堆
堇
堯
塞
墨
壘
士
壬
壯
声
壳
壴
壹
壺
壽
夂
处
夅
夆
备
夊
夋
夌
复
夏
夒
夕
外
夗
夘
多
夜
夢
大
夨
天
太
夫
夬
夭
央
失
夲
头
夷
夸
夹
夻
夾
奂
奄
奇
奈
奉
奎
奏
奐
契
奓
奔
奚
奞
奠
奢
奥
奭
女
奴
奻
好
如
妄
妙
妟
妥
妻
妾
始
姑
委
姜
威
娄
婁
婴
嬰
嬴
子
孑
孔
孕
孖
字
存
孚
孛
孝
孟
季
孤
学
孫
孱
學
宀
宁
宂
它
宅
宇
守
安
宋
完
宏
宓
宗
官
定
宛
宜
宝
客
宣
室
宮
宰
害
家
容
宾
宿
寄
寅
密
富
寒
察
寧
審
寫
寬
寮
寸
对
寺
寻
寽
対
寿
封
尃
射
将
將
專
尉
尊
尋
尌
對
小
少
尒
尓
尔
尖
尗
尚
尞
尢
尣
尤
尧
尨
尭
就
尸
尹
尺
尻
尼
尽
尾
尿
局
居
屈
屋
屎
屏
屑
展
屖
屚
属
屠
屡
屬
屮
屯
屰
山
屵
屾
岁
岂
岑
岡
岩
岳
岸
峯
島
崇
崑
崔
崖
崙
崩
嵬
嶲
巂
巛
川
州
巟
巠
巢
巤
工
左
巧
巨
巩
巫
差
己
已
巳
巴
巷
巸
巽
巾
巿
帀
市
布
希
帚
帛
帝
带
師
席
帶
常
干
平
年
幵
并
幷
幸
幺
幻
幼
幽
幾
广
広
庄
床
底
店
庚
府
度
庫
庭
庶
康
庸
廉
廌
廛
廣
廩
廴
延
廷
建
廾
廿
开
弁
弃
弄
弇
弋
式
弓
弔
引
弗
弘
弜
弟
弥
弦
弱
張
強
强
彊
彌
彎
彐
彑
当
彔
录
彖
彗
彡
形
彥
彦
彧
彭
彳
役
彼
往
待
律
徒
得
徙
從
復
微
徳
徵
心
忄
必
忌
忍
志
忝
忠
忩
快
念
忽
忿
思
怠
急
怱
恆
恒
恩
恭
息
悉
患
悤
悲
悶
惠
惡
惢
愁
愈
意
愛
感
慈
慧
慮
憂
憲
應
戀
戈
戉
戊
戋
戌
戍
戎
成
我
戒
戔
或
戚
戠
戢
截
戲
戶
户
戹
戼
戾
房
所
扁
扇
手
扌
才
打
托
执
承
折
拉
拜
拳
拿
掌
推
提
摩
支
攴
攵
收
攸
改
放
政
敄
敏
敕
敖
敗
教
敝
敞
敢
散
敦
敫
敬
数
敷
數
斂
文
斉
斊
斗
斤
斥
斩
斬
斯
新
方
於
施
斿
旁
旋
族
无
旡
既
旣
日
旦
旧
旨
早
旬
旱
旲
时
旾
昆
昇
昌
昍
明
昏
易
昔
昗
昜
星
春
昬
是
昱
昴
昷
時
晃
晋
晏
普
景
晶
智
暑
暴
曇
曩
曰
曲
曳
更
曷
書
曹
曼
曾
替
最
朁
會
月
有
朋
服
朔
朕
朗
望
朝
木
朩
未
末
本
札
朮
术
朱
朵
朶
朿
杀
杏
杜
束
条
来
東
杲
杳
松
析
林
枚
果
枝
枲
枼
某
柔
查
柬
柰
柴
栗
桀
桑
桼
梁
條
梟
梨
棘
棠
棥
森
楚
業
楽
榮
樂
樊
欠
次
欣
欮
欲
欶
欽
款
歆
歇
歛
止
正
此
步
武
歨
歪
歮
歯
歰
歲
歴
歷
歸
歹
歺
死
殳
段
殷
殸
殹
殺
殻
殿
毋
毌
母
每
毒
比
毕
毚
毛
毳
氏
氐
民
气
氣
水
氵
氶
氷
永
氺
氾
求
汝
汞
江
沃
沓
沙
沝
泉
法
波
泣
泥
泰
洛
洪
活
派
流
浦
浪
浮
淡
淮
清
渚
渠
港
湯
滿
漢
漸
火
灬
灭
灰
灵
灷
炅
炎
炏
炗
炙
炭
為
烈
烏
烝
焉
無
焦
焱
然
煞
熊
熏
燕
營
燮
爪
爫
爭
爯
爰
爱
爲
爵
父
爻
爽
爾
爿
片
牙
牚
牛
牜
牟
牢
牧
牪
牽
犀
犬
犭
犮
狂
狄
狊
独
狺
猋
猒
猪
献
獻
玄
率
玉
王
玟
玨
珎
班
琴
瑟
瑩
瓜
瓦
甘
甚
生
産
用
甫
甬
田
由
甲
申
电
甶
男
甸
甹
画
甾
畀
界
畏
畐
留
畜
畟
畢
畧
畨
番
畫
異
畱
當
畺
畾
疊
疋
疌
疑
疒
疾
癶
癸
癹
登
發
白
百
皀
皃
的
皆
皇
皋
皐
皕
皮
皷
皿
盃
盆
盇
盈
益
盍
盎
监
盒
盖
盛
盡
監
盤
盧
目
直
相
盾
省
眇
眉
看
眔
眞
真
眷
眼
眾
着
睘
睪
睿
瞏
瞢
瞿
矍
矛
矞
矢
矣
知
矦
短
石
破
碎
磊
磨
示
礻
礼
祟
票
祭
禀
禁
禸
禹
禺
离
禽
禾
禿
秀
秃
秉
秋
科
秝
秦
移
稟
穀
穌
穴
究
穹
空
穿
突
窄
窒
立
竒
竜
竝
竟
章
童
竹
笑
笠
筆
等
答
箕
算
箴
節
篤
篭
米
粉
粛
粟
粤
粦
粲
糞
糸
糹
系
約
納
素
索
紫
累
細
絜
絫
絲
維
綿
縣
繇
纍
纟
缶
网
罒
罔
罕
罗
罙
罡
罢
罪
署
罷
羅
羊
羌
羍
美
羔
羕
羗
羞
羡
羣
群
義
羲
羸
羽
翁
翏
習
翕
翟
翠
翼
老
耂
考
者
耆
而
耎
耑
耒
耳
耴
耶
耷
聂
聊
聖
聚
聶
聿
肀
肃
肅
肉
肖
肙
肥
肩
肯
育
肴
胃
背
胡
胥
能
脊
脩
膚
臣
臤
臧
自
臬
臭
臯
臱
至
致
臺
臼
臽
臾
臿
舀
舂
舄
與
興
舉
舌
舍
舛
舜
舞
舟
般
艮
良
色
艸
艹
艾
芒
芔
芬
芮
花
芳
芺
芻
苔
苗
苟
若
苦
英
茶
茸
荅
草
荒
荣
荼
莆
莧
莫
莽
菆
菊
菐
華
萬
落
葉
著
葛
董
葵
蒙
蒦
蒼
蓋
蓬
蓺
蔑
蔡
蕉
蕭
薄
薛
薦
薰
藍
藏
藥
蘭
虍
虎
虐
虒
虔
處
虖
虗
虘
虚
虛
虜
虞
虫
虽
蚤
蚩
蜀
蜜
蟲
蠡
血
行
衍
衛
衣
衤
表
衮
衰
袁
袞
褭
褱
襄
襾
西
覀
要
覃
見
規
覓
覧
親
覽
见
角
解
言
訁
訇
計
記
詹
誩
談
諸
讠
谈
谷
豆
豈
豊
豐
豕
豖
豙
象
豦
豩
豪
豸
貇
貝
貞
貟
負
貢
貧
貪
貫
責
貳
貴
買
費
賁
資
賈
賏
賓
賔
賛
賞
賢
賣
賦
質
賴
贊
贝
贡
责
贯
贲
贵
赖
赞
赤
赦
走
越
足
跆
路
蹇
身
躬
車
軍
軎
軟
輦
车
辛
辜
辟
辥
辰
辱
農
辵
辶
边
达
迁
过
近
连
迷
追
退
送
逆
逐
通
速
造
逢
連
逮
進
遀
遂
過
道
達
遣
適
遷
遺
邊
邑
邕
那
邦
邪
郎
部
郭
都
鄉
酉
酋
配
酓
釆
采
里
重
野
量
金
釒
錢
钅
長
镸
长
門
閃
閉
開
閏
閑
閒
間
閔
閵
閻
闌
门
间
闷
闻
阑
阜
阝
阿
降
陳
隆
隊
隋
隡
隨
隱
隶
隹
隺
隻
隼
隽
难
雀
雁
集
雈
雋
雍
雐
雔
雙
雚
雜
雝
離
難
雨
雩
雪
雲
零
雷
需
霍
霜
霝
霞
霸
靈
靑
青
非
靡
面
靣
革
韋
韦
韭
韯
韱
音
頁
頃
項
須
頗
頡
頻
顛
页
题
風
风
飛
飞
食
飠
養
饣
首
香
馬
馮
駦
马
骨
高
髟
鬥
鬯
鬲
鬼
魚
魯
鮮
鱼
鲁
鳥
鳳
鸟
鹵
鹿
麃
麗
麥
麦
麻
黃
黄
黍
黎
黑
黒
黨
黹
黽
黾
鼎
鼓
鼠
鼻
齊
齋
齐
齒
齿
龍
龙
龜
龟
龠
龰
龱
龴
龵
龶
龷
龸
龹
ꮅ
ꮎ
ꮝ
ꮡ
ꮣ
ꮧ
ꮷ
者
艹
ﻣ
ﻷ
ﻻ
？
🜨
𠀁
𠀃
𠀆
𠀉
𠀎
𠀐
𠁁
𠁣
𠂆
𠂇
𠂈
𠂉
𠂊
𠂋
𠂎
𠂒
𠂔
𠂛
𠂡
𠂢
𠂤
𠂬
𠂭
𠂹
𠃊
𠃋
𠃌
𠃍
𠃎
𠃑
𠃓
𠃔
𠃜
𠄌
𠄎
𠄠
𠄢
𠆢
𠆥
𠇍
𠈌
𠌵
𠓜
𠔉
𠔥
𠔼
𠔽
𠔿
𠕀
𠕁
𠕋
𠘧
𠘨
𠙻
𠙼
𠚏
𠚒
𠚤
𠚪
𠣏
𠤎
𠤕
𠥓
𠦄
𠦑
𠦝
𠧒
𠧗
𠧪
𠩺
𠪚
𠫓
𠫔
𠫤
𠬛
𠬝
𠬞
𠬢
𠬤
𠬶
𠮛
𠮦
𠮷
𠯑
𠱠
𠳮
𠷎
𡈼
𡉀
𡉵
𡌥
𡍮
𡏳
𡕒
𡕩
𡕰
𡖅
𡗗
𡗜
𡘆
𡘤
𡧱
𡨄
𡩧
𡬠
𡭽
𡰣
𡰥
𡰪
𡰯
𡰱
𡷈
𡸁
𡿨
𡿩
𡿪
𡿺
𢀖
𢀛
𢀩
𢁙
𢆉
𢆰
𢆶
𢇁
𢇇
𢉖
𢌬
𢌿
𢏚
𢑑
𢑚
𢖻
𢙣
𢛳
𢦏
𢦒
𢧵
𢼄
𢾕
𣁋
𣄼
𣅀
𣅽
𣍘
𣎳
𣎵
𣏋
𣏼
𣗥
𣥂
𣥖
𣦵
𣦼
𣧄
𣪊
𣪠
𣬉
𣳾
𣶒
𤇾
𤊽
𤐫
𤓰
𤔔
𤕨
𤣩
𤰇
𤰔
𤰞
𤴓
𤴔
𤽄
𥁑
𥁕
𥃦
𥃩
𥃭
𥇡
𥑟
𥘅
𥘈
𥝢
𥫗
𥱡
𦈢
𦉪
𦉬
𦉼
𦍌
𦍒
𦎧
𦐇
𦓔
𦔮
𦘒
𦙃
𦚏
𦣝
𦣞
𦣻
𦥑
𦥔
𦥯
𦨉
𦭝
𦰩
𧆞
𧈧
𧘇
𧰨
𧴪
𧴮
𧵩
𧾷
𨸏
𨾴
𩙿
𩠐
𩫏
𩵋
𪉷
𪜀
𪟽
𪠲
𪩲
𫇦
𫔭
𫜸
𫝀
𫠣
𫠩
𫢉
𫥞
𫩏
𫩠
𫪡
𫲽
𫶧
𬀷
𬐘
𬗌
𬙙
𬛸
𬜯
𬟩
𬯁
𬴘
𬺻
𬼉
𬼖
𭀰
𭁈
𭁨
𭅰
𭑈
𭕄
𭗼
𭤨
𭥫
𭻾
𮅕
𮊿
𮍌
𮍏
𮓗
𮥼
𮧮
廾
𰀁
𰀄
𰀈
𰀉
𰀕
𰀠
𰀡
𰀢
𰀪
𰁜
𰃮
𰆊
𰆘
𰋙
𰕎
𰢴
𰧭
𰯲
00--
000--
01--
02--
03--
04--
05--
060--
08--
978--
97801998--
a--
aa--
ab--
aba--
abori--
ac--
accett--
acci--
acco--
ach--
acol--
acomp--
acti--
ad--
ade--
adi--
ado--
adoles--
adul--
ae--
af--
afro--
ag--
agra--
agri--
agro--
ah--
ai--
aj--
aki--
al--
ala--
alchi--
alcol--
ale--
alex--
all--
alt--
alte--
altit--
alus--
am--
ama--
amazo--
ame--
amfo--
ami--
an--
ana--
analy--
anar--
and--
ang--
angli--
anglo--
anna--
annunci--
ans--
ante--
anti--
antro--
aper--
aph--
app--
apri--
aqui--
ar--
ara--
arc--
archi--
argen--
ari--
arma--
arn--
arom--
art--
arte--
aru--
as--
ase--
asi--
assi--
astro--
at--
ata--
ategj--
atra--
atten--
au--
audio--
auf--
austro--
auto--
av--
ava--
ave--
avi--
avv--
ay--
az--
b--
ba--
bac--
back--
bad--
bai--
bal--
ban--
bar--
bas--
bass--
bat--
be--
bel--
belgi--
ben--
bentivo--
beo--
ber--
berk--
bern--
berna--
bers--
bert--
bi--
biblio--
biel--
bio--
bis--
bl--
bla--
blu--
bo--
bocc--
boh--
bol--
bom--
bombar--
bon--
bor--
borov--
bort--
bos--
boz--
br--
bra--
brah--
bre--
breiten--
bri--
bro--
bru--
bu--
buch--
bud--
buli--
bur--
burg--
bus--
by--
c--
ca--
cal--
calo--
cambo--
came--
camm--
camp--
campe--
campido--
can--
cap--
cape--
capo--
car--
cara--
carat--
carb--
caris--
carn--
caro--
carpi--
cas--
casa--
cata--
catt--
cc--
ce--
cec--
centri--
cer--
cerv--
cervi--
ch--
cha--
che--
chi--
chilo--
chioc--
ci--
cias--
cic--
cien--
cint--
cj--
cja--
cjan--
cjapi--
cjas--
cjis--
cl--
cla--
claus--
cle--
co--
coc--
coin--
col--
com--
combat--
compl--
con--
conet--
conozi--
const--
constitu--
cor--
cori--
cos--
cose--
cosmo--
cospir--
cott--
cr--
cra--
cre--
cri--
cro--
crom--
cu--
cua--
cuadri--
cuc--
cui--
cuintri--
cul--
cum--
cump--
cun--
cur--
cy--
cym--
d--
da--
dach--
dai--
dal--
danu--
dar--
das--
dau--
davu--
dc--
de--
deca--
def--
deins--
del--
demo--
den--
deossiri--
depos--
der--
des--
det--
dh--
di--
dia--
dibati--
die--
difen--
diff--
difi--
diletanti--
dili--
din--
dio--
dioce--
dipen--
dipi--
diri--
dirot--
dis--
discip--
discon--
discor--
discu--
dit--
dj--
do--
dolo--
dom--
dor--
dorm--
dorn--
dr--
dra--
drasen--
draß--
drei--
du--
dub--
dun--
dura--
durn--
dwo--
dy--
dz--
e--
ebe--
eben--
ebers--
ec--
ecc--
eco--
ed--
edels--
edi--
ef--
efic--
egi--
egizi--
ego--
ehren--
ei--
eich--
ein--
eis--
ek--
el--
ele--
elegi--
elet--
eli--
elo--
em--
emi--
empir--
en--
end--
eng--
ent--
ep--
epi--
er--
ere--
eri--
ero--
es--
esa--
esch--
escur--
esi--
eso--
espl--
espo--
est--
et--
ete--
etero--
eth--
etim--
eu--
eucaris--
euro--
eve--
evi--
ex--
extra--
ez--
f--
fa--
fabb--
fac--
fal--
fan--
far--
fas--
fat--
fau--
fave--
fe--
fen--
fer--
fi--
fie--
fil--
filo--
fin--
fisiocr--
fla--
fle--
flo--
flu--
fo--
fog--
folk--
for--
foro--
fos--
foto--
fr--
fra--
franco--
frauen--
fre--
frei--
fri--
fric--
fries--
fu--
fue--
fum--
fund--
fune--
fur--
g--
ga--
gail--
gal--
gam--
gar--
garg--
garz--
gas--
ge--
gem--
gen--
geo--
geographi--
geome--
ger--
ghi--
gi--
gia--
giacc--
gian--
gigant--
gil--
gio--
gior--
girar--
giur--
gj--
gje--
gji--
gjie--
gjiga--
gla--
glan--
gle--
gli--
glo--
gloss--
gn--
gno--
go--
gol--
gor--
gos--
gott--
gr--
gra--
grafen--
gre--
grenz--
gri--
gro--
groß--
gry--
gsch--
gu--
gue--
guz--
gwe--
h--
ha--
hacken--
hafen--
har--
hard--
hay--
he--
heili--
heiligen--
hel--
hell--
her--
herm--
hi--
hinte--
hiro--
hirs--
his--
hl--
ho--
hoch--
hof--
hohe--
hohen--
hol--
holle--
hollers--
holz--
hu--
hum--
hy--
hyb--
hypothe--
i--
ia--
ibe--
ic--
icono--
id--
idea--
ident--
idro--
ie--
ient--
igjie--
ign--
il--
ilir--
illu--
illus--
ilu--
ilumin--
ilus--
im--
imag--
imagjna--
imbar--
imer--
imis--
immag--
imp--
imper--
impro--
impur--
in--
ina--
inc--
incom--
incont--
incostitu--
ind--
inde--
indi--
indo--
indu--
info--
ingu--
inn--
inner--
inoc--
inschi--
inscri--
insis--
int--
inter--
intui--
inves--
io--
ip--
iper--
ipot--
ir--
ire--
irred--
is--
iso--
ist--
it--
ita--
italie--
iti--
iu--
iv--
iz--
j--
ja--
jar--
je--
jer--
jez--
ji--
jo--
joi--
ju--
k--
ka--
kai--
kalten--
kamp--
kan--
kart--
kath--
katsch--
ke--
key--
kh--
ki--
kle--
klein--
ko--
kolo--
kon--
kot--
kous--
kr--
krain--
kreu--
kreuz--
krie--
kro--
kry--
ku--
l--
la--
labi--
labo--
lac--
lai--
lam--
lan--
larg--
las--
lat--
lau--
ld--
ldemoc--
le--
lea--
lec--
legi--
legisla--
legj--
lei--
lem--
len--
leo--
les--
let--
lez--
leß--
li--
lia--
libi--
licen--
lich--
lie--
lig--
lin--
lio--
lipi--
lis--
litu--
liturgji--
liz--
lju--
ll--
lle--
lo--
loca--
loga--
logi--
lon--
longob--
los--
lt--
lu--
luc--
lumn--
lus--
luse--
ly--
m--
ma--
mac--
maced--
macro--
mag--
magde--
mai--
mal--
mala--
man--
mandr--
mani--
mar--
mas--
mat--
mathem--
mau--
maz--
mc--
mcm--
md--
mdc--
mdcc--
mdccc--
mdcccl--
mdccl--
mdccxc--
mdccxl--
mdcxc--
me--
med--
medi--
mem--
memo--
men--
mer--
merca--
merce--
merk--
mert--
mes--
met--
meta--
mi--
micro--
mid--
mie--
mig--
mik--
mil--
min--
mini--
mir--
mis--
mit--
mito--
mittel--
mitter--
mix--
mm--
mo--
moc--
moha--
mol--
mon--
mono--
monoc--
monof--
monot--
mont--
monte--
moos--
mor--
mora--
morfo--
morfolo--
mos--
moz--
mu--
mug--
mult--
multil--
mur--
mus--
muta--
my--
n--
na--
nar--
nas--
nau--
nazi--
nci--
nd--
ne--
nec--
nen--
neo--
neot--
neu--
neus--
new--
ng--
ni--
nic--
nie--
nieder--
nig--
niko--
nn--
no--
nom--
non--
nord--
nou--
ns--
nt--
nu--
num--
numis--
nuß--
ny--
nz--
o--
ob--
ober--
obera--
oc--
odp--
of--
off--
ogj--
oi--
ol--
om--
ome--
omni--
omo--
on--
ong--
ono--
op--
or--
ora--
ore--
ori--
oro--
ort--
os--
oserva--
oso--
ossi--
ot--
otten--
out--
ozi--
p--
pa--
padr--
pae--
pag--
pal--
pan--
par--
para--
parus--
pas--
pat--
paz--
pazi--
pe--
pec--
peio--
pel--
pen--
penin--
per--
peregri--
perg--
perif--
personifica--
pes--
pet--
pez--
pfaffen--
pha--
phi--
pi--
pia--
piar--
pic--
pie--
pili--
pin--
pino--
pio--
pir--
pirk--
pitag--
pitt--
piz--
pl--
pla--
plate--
ple--
pleona--
plo--
plu--
pluri--
po--
pobla--
pod--
podl--
pog--
poi--
pol--
poli--
pon--
pop--
por--
pos--
post--
pr--
pra--
prac--
pre--
preca--
pri--
pro--
prof--
pros--
proto--
prus--
przy--
ps--
psic--
psichia--
psicologj--
pu--
pubbli--
pui--
punc--
pur--
pus--
px--
py--
qa--
qua--
qui--
r--
ra--
raben--
racc--
rad--
radio--
rag--
ragi--
rai--
rain--
ram--
ran--
rap--
ras--
rat--
raz--
rb--
re--
rec--
rech--
reclut--
recup--
red--
redempt--
reg--
regi--
regj--
reli--
ren--
repl--
res--
ret--
rg--
ri--
ribal--
ric--
rico--
ricon--
ridi--
ridu--
rie--
rigu--
riguar--
rimoz--
rimp--
rin--
rinas--
ring--
riorg--
ripro--
ris--
risol--
ristiel--
ritt--
rl--
rm--
rn--
ro--
ron--
ros--
rot--
rs--
rt--
ru--
ruders--
ruj--
run--
rus--
rv--
rz--
s--
sa--
saal--
sac--
sagit--
saha--
sai--
sal--
sam--
san--
sanga--
sar--
satt--
saur--
sb--
sbag--
sbal--
sbro--
sc--
sca--
scar--
sch--
scha--
schi--
schl--
schnei--
schre--
schwa--
scie--
scja--
sclisi--
sco--
scomp--
scon--
scri--
scu--
scuai--
scuel--
sdr--
se--
sea--
sec--
see--
sel--
sem--
seman--
semi--
semp--
semplifi--
sene--
ser--
serg--
ses--
set--
setem--
sex--
sfo--
sfre--
sg--
sgri--
sgu--
sha--
she--
shi--
sho--
si--
sici--
sie--
sieben--
sig--
sil--
silu--
sim--
simp--
sin--
sio--
sir--
sis--
sk--
sku--
sky--
sl--
sla--
slo--
slus--
sm--
sn--
so--
sobi--
soc--
social--
socio--
sof--
sofr--
sol--
sole--
son--
sonn--
sor--
sora--
sore--
sorg--
sos--
sot--
soto--
sozi--
spa--
spag--
spe--
specul--
spet--
speta--
spezi--
spi--
spo--
spont--
sprofon--
spu--
sr--
ss--
st--
sta--
staats--
stam--
stanzi--
ste--
step--
sti--
sto--
stori--
stra--
stria--
stris--
stro--
stu--
su--
sub--
succ--
sud--
sue--
sul--
sup--
super--
supli--
sur--
sus--
sut--
sv--
sviz--
svol--
sw--
swe--
sy--
syl--
sze--
t--
ta--
tag--
taje--
tal--
tam--
tan--
tar--
taro--
tas--
tau--
te--
tech--
tecn--
tel--
tele--
temp--
ten--
teo--
ter--
tera--
tes--
teut--
th--
the--
thi--
thu--
ti--
tia--
tim--
tin--
tipic--
tipo--
tir--
tis--
to--
tom--
ton--
tor--
tortu--
torze--
toten--
tr--
tra--
tran--
trans--
tras--
trascu--
trasliter--
traun--
tre--
tri--
trigo--
tris--
tro--
trom--
tsch--
tt--
tten--
tu--
tua--
tun--
tur--
tvo--
ty--
tz--
u--
ua--
uc--
ue--
uf--
uga--
uk--
ul--
ultra--
um--
umo--
un--
uni--
unt--
unter--
up--
ur--
us--
usa--
usur--
ut--
uti--
utop--
utten--
v--
va--
vaci--
vai--
val--
valca--
van--
var--
vas--
ve--
vec--
ven--
ver--
vera--
verna--
vero--
ves--
vi--
via--
vibra--
vice--
video--
vign--
vigne--
virg--
vit--
vo--
vog--
vol--
vor--
vorder--
vr--
vu--
vuar--
w--
wa--
wach--
wald--
war--
was--
wasser--
wat--
we--
weihnachts--
weil--
wein--
weit--
weiß--
weißen--
wer--
wern--
wey--
whi--
wie--
wiki--
wim--
win--
wind--
wir--
wis--
wit--
wo--
wol--
wolfs--
wri--
wu--
xe--
xl--
xxx--
y--
ya--
yo--
yu--
z--
za--
zacc--
zam--
zani--
ze--
zem--
zen--
zgo--
zi--
zins--
zo--
zoll--
zoo--
zu--
zuc--
zwe--
zwis--
zɔ--
ł--
łuk--
α--
μ--
ο--
π--
πε--
ا--
--0
--00
--07
--1
--2
--26
--3
--30
--38
--4
--5
--50
--6
--60
--65
--7
--70
--8
--9
--917232
--a
--abile
--abilis
--ac
--ach
--aco
--ad
--ade
--adis
--ado
--ae
--ag
--ah
--ai
--ais
--aj
--aja
--ak
--al
--ald
--ali
--almentri
--als
--am
--amenti
--amentri
--amo
--an
--ana
--anae
--ance
--ancis
--and
--ane
--ang
--ange
--ani
--anis
--ano
--ans
--ant
--anza
--anzi
--ao
--ap
--ar
--ara
--ard
--are
--ari
--arie
--ariis
--arin
--aris
--aro
--aru
--ary
--as
--asi
--at
--ata
--ath
--ati
--ation
--ato
--atra
--ature
--au
--ave
--avin
--awa
--ay
--azion
--b
--ba
--bach
--bar
--be
--ber
--berg
--bert
--berto
--bet
--betta
--bi
--bica
--bichl
--bide
--bii
--bil
--bile
--bilis
--bilita
--bin
--bird
--bl
--ble
--bo
--bor
--born
--brasi
--bri
--bru
--bs
--bu
--burc
--burg
--by
--c
--ca
--cally
--cars
--cchi
--ccio
--cco
--ce
--cee
--cepi
--cer
--ces
--cf
--ch
--chach
--che
--chen
--chin
--chis
--chl
--cht
--chte
--ci
--cia
--cie
--cin
--cini
--cio
--cis
--cite
--cius
--cj
--cja
--cje
--cjis
--ck
--cle
--cli
--co
--cs
--ct
--ction
--cts
--ctus
--cu
--cul
--cula
--cule
--cus
--cy
--d
--da
--dal
--dare
--de
--dea
--den
--dence
--dent
--der
--deve
--devin
--di
--dia
--dic
--dice
--dide
--die
--din
--ding
--dis
--dita
--dive
--do
--doi
--dom
--don
--dore
--dorf
--dorie
--dos
--dre
--dri
--drie
--ds
--dt
--du
--dude
--dul
--dum
--dun
--dure
--dusi
--dy
--e
--ea
--eao
--ec
--eca
--ece
--eck
--ed
--eda
--edis
--edo
--edu
--ee
--egg
--egn
--ei
--ek
--el
--ele
--elis
--ella
--elli
--em
--ema
--ementri
--en
--ena
--enau
--enbach
--enberg
--enc
--ence
--encis
--endo
--endorf
--ene
--ens
--ent
--enthal
--ents
--enze
--enzia
--enzis
--eo
--er
--era
--erding
--ere
--erg
--eri
--erie
--eris
--erl
--ern
--erne
--ero
--ers
--ersberg
--ert
--erto
--es
--escj
--escje
--ese
--esi
--esim
--esime
--esio
--ess
--esse
--est
--et
--eta
--eto
--ets
--etta
--ette
--etti
--etto
--eu
--eum
--ev
--eva
--eve
--ey
--ez
--f
--fa
--fau
--fe
--fels
--ference
--ff
--fi
--fia
--fica
--fiche
--fichin
--fo
--fone
--fs
--ft
--fu
--g
--ga
--gade
--gana
--gant
--gassen
--gau
--gberg
--ge
--gebirge
--gen
--ger
--ges
--gg
--ggen
--ggi
--ggio
--gh
--ghe
--ghi
--ghin
--ght
--gi
--giani
--gic
--gie
--gin
--gio
--giu
--gj
--gja
--gje
--gji
--gjic
--gjics
--gjie
--gjin
--gjio
--gjo
--gjos
--gl
--gle
--gn
--gna
--gnano
--gni
--gnince
--gnive
--gnivin
--gnu
--go
--gon
--gons
--gor
--gra
--graf
--grafs
--gs
--gu
--gui
--gule
--gus
--gy
--h
--ha
--ham
--he
--heim
--hen
--her
--het
--heta
--hete
--hets
--hey
--hi
--hia
--hic
--hie
--hin
--hina
--hini
--his
--hl
--hlag
--hn
--ho
--hof
--hofen
--horn
--hr
--ht
--https
--hu
--hy
--i
--ia
--iadis
--ian
--iana
--iani
--iano
--ians
--ibi
--ibii
--ibile
--ible
--ic
--ica
--ice
--ich
--iche
--ichis
--iciis
--icio
--ick
--ico
--ics
--id
--ide
--idi
--idis
--ido
--ids
--idt
--ie
--ien
--ier
--ies
--if
--ifi
--ific
--ifica
--ifiche
--ig
--ighe
--igno
--igo
--ii
--iis
--ija
--ije
--ik
--il
--ile
--ili
--ilie
--ilis
--im
--ime
--iment
--imi
--imilian
--ims
--in
--ina
--ine
--iner
--ing
--ini
--inis
--ino
--inose
--ins
--int
--inus
--io
--iol
--ion
--ions
--ior
--iose
--ira
--ire
--iro
--is
--isch
--iscj
--ise
--isi
--isim
--ism
--ismo
--iso
--issin
--ist
--iste
--istic
--istiche
--istichis
--istics
--it
--ita
--itat
--ite
--ith
--iti
--ito
--its
--itt
--itu
--ity
--itz
--itzen
--iu
--ium
--ius
--iute
--iv
--ive
--ivin
--ivis
--ix
--iz
--iza
--izade
--izazion
--ize
--izi
--izin
--izza
--izzazion
--j
--ja
--jac
--jach
--jan
--jarie
--je
--jei
--ji
--jiane
--jiis
--jin
--jis
--jn
--jne
--jo
--jor
--js
--ju
--k
--ka
--kan
--kar
--ke
--kel
--ken
--ker
--ket
--ki
--ko
--kovy
--kreis
--kreuz
--ks
--ku
--ky
--l
--la
--lab
--lach
--lae
--lan
--lana
--land
--lano
--lans
--lao
--lari
--lat
--lau
--lav
--law
--lberg
--lc
--ld
--lda
--lde
--ldon
--le
--lece
--leiten
--lem
--ler
--lern
--les
--ley
--lf
--lfi
--lham
--li
--lia
--lic
--lica
--lice
--liche
--lin
--ling
--lio
--lis
--liscj
--lisim
--listiche
--lita
--liza
--lizazion
--lizi
--ll
--lla
--lle
--lli
--llis
--llo
--lly
--lm
--lmenti
--lmentri
--lo
--logi
--logie
--logjie
--lon
--lone
--lot
--lp
--lpe
--ls
--lt
--lte
--lu
--luc
--lus
--lut
--lv
--lvi
--ly
--lz
--lze
--m
--ma
--man
--mann
--mar
--mbe
--me
--mencj
--ment
--mente
--menti
--mento
--mentri
--ments
--mer
--mera
--mi
--mic
--mie
--mil
--mma
--mme
--mna
--mo
--mp
--ms
--mu
--my
--n
--na
--naba
--nac
--nach
--nade
--nae
--nant
--nard
--nari
--naris
--nau
--nbach
--nc
--nce
--nces
--nci
--ncis
--ncj
--ncje
--nco
--nd
--nda
--nde
--ndi
--ndis
--ndo
--ndorf
--ndri
--ndude
--ndui
--ne
--nea
--nee
--negg
--nelis
--nen
--neo
--ner
--nero
--ney
--ng
--nge
--ngs
--nheim
--ni
--nia
--nie
--nien
--nig
--niis
--nik
--nim
--nin
--nis
--nita
--nitz
--nius
--nja
--nko
--nna
--nne
--nner
--nno
--no
--non
--nova
--ns
--nse
--nsen
--nsi
--nsis
--nt
--nta
--ntade
--nte
--nti
--ntia
--ntin
--ntis
--ntju
--ntle
--ntlu
--nto
--ntra
--ntri
--nts
--ntsi
--num
--nus
--nute
--ny
--nz
--nza
--nze
--nzi
--nzia
--nziane
--nzie
--nzio
--nzo
--o
--oc
--od
--ods
--oe
--of
--og
--oghe
--ogi
--ogie
--ogjic
--ogjics
--ogjie
--ogjis
--ok
--ol
--ola
--ole
--oli
--olic
--olo
--ologie
--ologjic
--ologjie
--ologjiis
--olu
--om
--on
--ona
--one
--oni
--onie
--ons
--oos
--or
--ore
--orf
--ori
--ors
--orum
--os
--osa
--ose
--osi
--osis
--ot
--ou
--ov
--ovic
--ow
--ows
--oz
--p
--pa
--pac
--pe
--phein
--phy
--pi
--pie
--pis
--pli
--plui
--po
--poli
--ps
--pt
--pul
--q
--que
--r
--ra
--rac
--rah
--ran
--rato
--rava
--rave
--rberg
--rc
--rcia
--rd
--rda
--rde
--rdi
--rdia
--rdo
--rds
--re
--rec
--ree
--relli
--rem
--rence
--res
--ret
--rf
--rgi
--ri
--ria
--rian
--ric
--riche
--rie
--riis
--rin
--rine
--rini
--rio
--ris
--risim
--ristiche
--ristichis
--rizions
--rja
--rje
--rk
--rkt
--rlo
--rm
--rn
--rne
--ro
--roe
--rof
--ron
--rone
--ros
--rosa
--rpe
--rra
--rs
--rsa
--rse
--rsi
--rt
--rta
--rte
--rto
--rts
--ru
--rum
--rva
--rve
--ry
--rz
--rzi
--rzu
--s
--sa
--sade
--san
--sane
--sans
--sara
--sari
--sat
--sau
--sbach
--sberg
--sc
--sce
--sch
--sche
--schlag
--scj
--scopi
--scs
--sdorf
--se
--see
--seethnologue
--sele
--sen
--ser
--serin
--seve
--sh
--shed
--sheim
--shut
--si
--sia
--sibii
--sibil
--sie
--siis
--sim
--sime
--simi
--sin
--sio
--sion
--siona
--sions
--sis
--sissin
--sit
--sk
--ska
--sky
--smo
--so
--son
--ss
--ssa
--ssade
--ssalto
--sse
--ssen
--ssi
--ssin
--ssis
--sso
--st
--sta
--ste
--stein
--sti
--stis
--stre
--sts
--stu
--su
--sweg
--sz
--t
--ta
--tade
--tadt
--tal
--tan
--tari
--tarie
--taris
--tas
--te
--tea
--tece
--ted
--tein
--tel
--ten
--tern
--tes
--tesim
--tevin
--th
--tha
--thal
--ti
--tia
--tic
--tiche
--tichis
--tics
--tin
--tine
--tio
--tion
--tiones
--tis
--tisi
--tisim
--tius
--tive
--tivis
--tl
--tle
--to
--ton
--tone
--tons
--tor
--tore
--tori
--toriis
--toris
--tos
--tot
--town
--tra
--tre
--tri
--trice
--trie
--tros
--ts
--tsham
--tsi
--tsk
--tsky
--tt
--tta
--tte
--tti
--tto
--tu
--tum
--tur
--tura
--ture
--tus
--ty
--tz
--tza
--tzing
--u
--ua
--uari
--uc
--ucci
--uch
--ud
--uda
--ude
--udis
--ue
--uf
--uga
--ugh
--ught
--ui
--uin
--ul
--ula
--ulas
--ule
--um
--un
--unc
--une
--ung
--uo
--up
--ur
--ura
--ure
--uri
--uris
--urn
--uro
--us
--usi
--ussi
--ust
--ut
--uta
--ute
--utis
--uto
--uts
--utti
--ux
--uz
--uzzi
--v
--va
--vac
--vamentri
--vano
--vato
--vc
--ve
--vel
--vi
--via
--vian
--vin
--vis
--visi
--vita
--vlje
--vn
--vo
--von
--vre
--vri
--vu
--vui
--vul
--vule
--vulis
--w
--wa
--wang
--weg
--witz
--wo
--wski
--wy
--x
--xa
--xi
--xis
--y
--ya
--yn
--ys
--z
--za
--zac
--zach
--zade
--zadis
--zan
--zanis
--zant
--zave
--zazion
--ze
--zel
--zen
--zero
--zetti
--zi
--zia
--zie
--ziis
--zin
--zine
--zing
--zio
--zion
--zione
--zions
--zis
--znica
--zo
--zu
--zza
--zze
--zzi
--zzo
--ß
--ßnitz
--ɔ
--α
--ι
--ν
--ο
--ος
--ς
--υ
--ء
