!
"
#
##0
##1
##10
##11
##12
##13
##14
##15
##16
##17
##18
##19
##2
##20
##21
##22
##23
##24
##25
##26
##27
##28
##29
##3
##30
##31
##32
##33
##34
##35
##36
##37
##38
##39
##4
##40
##41
##42
##43
##44
##45
##46
##47
##48
##49
##5
##50
##51
##52
##53
##54
##55
##56
##57
##58
##59
##6
##60
##61
##62
##63
##64
##65
##66
##67
##68
##69
##7
##70
##71
##72
##73
##74
##75
##76
##77
##78
##79
##8
##80
##81
##82
##83
##84
##85
##86
##87
##88
##89
##9
##90
##91
##92
##93
##94
##95
##96
##97
##98
##99
$
%
&
'
(
)
*
+
,
-
.
/
0
00
000
01
02
03
0378
04
05
06
07
07268608508599335
08
09
1
10
100
1000
1004
1006
1007
101
1012
1016
102
103
1031
104
1045
105
106
1060
107
1075
10760
108
1080
1088
1089
109
11
110
1100
1108
111
112
1122
113
1137
1139189
114
115
1153
116
1160
1169
117
118
1180
1187
119
1191
12
120
1200
1206
121
1211
122
1223
1225
1226
123
124
1244
125
126
127
128
1289000
129
1296
13
130
1300
131
1314
1316
132
1322
1328
133
134
1345
1349
135
1356
136
1364
137
138
1380
139
14
140
141
1419
142
1423
1426
143
1430
144
145
146
147
1475
148
1480
1498
15
150
1500
151
1515
152
1522
1524
1526
153
1530
1537
154
1545
155
1552
1557
1560
1561
157
1571
1572
1574
1577
1578
158
1588
1589
159
1598
1599
16
160
1600
1604
1607
161
1610471
1613
1615
162
163
1630
1634
1636
164
1641
1643
165
1656
166
1663
167
168
1680
169
1699
17
170
1702
1707
171
1710
1715
172
1726
1727
1732707
1735
174
175
1757
1758
1759
176
1760
1774
1779
178
1781
1785
179
1795
1799
18
180
1800
181
1810
1811
1815
1816
1817
1818
1819
182
1820
1821
1822
1823
1824
1825
1828
1830
1831
1832
1833
1835
1836
1837
1838
1839
1840
1841
1842
1845
1846
1847
1848
1849
185
1850
1851
1853
1854
1856
1857
1858
1859
186
1861
1862
1863
1864
1865
1867
1868
1869
187
1870
1871
1872
1873
1874
1875
1876
1877
1878
1879
188
1880
1881
1883
1884
1885
1886
1887
1889
189
1890
1891
1892
1893
1894
1895
1896
1897
1899
19
190
1900
1901
1902
1903
1904
1905
1906
1907
1908
1909
191
1910
1911
1912
1913
1914
1915
1916
1917
1918
1919
192
1920
1921
1922
1923
1924
1925
1926
1927
1928
1929
193
1930
1931
1932
1933
1934
1935
1936
1937
1938
1939
194
1940
1941
1942
1943
1944
1945
1946
1947
1948
1949
195
1950
1951
1952
1953
1954
1955
1956
1957
1958
1959
196
1960
1961
1962
1963
1964
1965
1966
1967
1968
1969
197
1970
1971
1972
1973
1974
1975
1976
1977
1978
1979
1980
1981
1982
1983
1984
1985
1986
1987
1988
1989
199
1990
1991
1992
1993
1994
1995
1996
1997
1998
1999
2
20
200
2000
2001
2002
2003
2004
2005
2006
2007
2008
2009
2010
2011
2012
2013
20130318072856
2014
2015
2016
2017
20170710073311
2018
2019
202
2020
2021
2022
2023
2024
2025
2026
2027
2028
2029
203
2030
2031
2032
2033
2034
2035
2036
2037
2038
2039
2040
2041
2042
2043
2044
2045
2046
2047
2048
2049
205
2050
2051
2052
2053
2054
2055
2056
2057
2058
2059
206
2060
2061
2062
2063
2064
2065
2067
2068
207
2071
2072
208
209
21
210
2107
213
214
215
216
217
218
219
22
220
221
222
223
224
225
226
227
228
229
23
230
231
233
234
235
237
238
239
24
240
242
244
245
246
248
249
25
250
251
253
255
256
258
26
260
261
262
263
264
265
266
267
269
27
270
272
273
274
275
276
277
278
28
280
2800
282
283
285
286
287
288
289
29
290
292
294
295
296
297
298
3
30
300
301
303
306
31
311
312
313
315
316
319
32
320
321
322
323
324
326
327
328
329
33
330
331
333
334
335
336
337
34
340
341
342
344
347
349
35
350
352
355
356
357
36
360
362
363
365
366
369
37
370
372
374
376
377
38
380
381
382
384
388
39
392
393
394
395
398
399
4
40
400
402
403
404
409
41
410
414788
415
417
4177
419
42
420
422000
424
425
42622
429
43
435
438
439
44
440
443
444
446
45
450
451
455
456
458
46
462
463
47
470
473
475
476
48
480
48000
481
486
49
490
492
494
495
49563
5
50
500
5000
503
504
506
507
51
510
513
514
518
519
52
520
521
526
53
532
533
534
537
538
54
540
543
545
55
550
553
559
56
564
565
57
570
571
572
573
58
580
581
584
585
59
599
6
60
600
6000
608
61
610
612
614
615
617
618
62
622
624
625
628
63
631
632
634
63400
636
637
638
639
64
644
648
65
650
6500
652
653
656
66
661
666
669
67
670
672
673
679
68
680
684
685
69
691
693
7
70
700
704
71
710
711
72
720
723
73
738
74
741
742
745
746
75
750
756
76
762
765
766
767
77
770
771
775
78
780
79
792
795
799
8
80
800
803
804
805
807
81
810
811
815
82
820
822
83
830
831
832
834
836
838
84
840
847
848
85
850
852
853
85883
86
862
864
865
87
875
879
88
880
882
886
89
890
891
892
895
9
90
900
9067650748
9067650749
908
909
91
911
915
92
927
93
930
932
935
938
94
948
95
96
960
962
966
97
970
973
974
976
978
9780858835061
979
98
980
982
986
987
988
99
991
993
996
999
:
;
<
=
>
?
@
\
^
_
`
a
ab
ababil
abad
abah
abba
abbas
abbr
abbrn
abc
abda
abdah
abdi
abdul
abdullah
abdurrahman
abdus
abe
abee
abeh
abeujad
abeuk
abi
abidin
abjad
ablo
ablon
ablona
ablono
abo
abong
about
above
abovestyle
abrahah
absolutely
abu
abul
abuya
ac
academy
acara
accepts
access
accessed
accord
account
accueil
ace
aceh
acehblogger
acehbooks
acehnese
acehprov
acessado
acheh
achieve
across
act
action
actor
actress
actual
ad
ada
adaan
adab
adah
adak
adalah
adam
adan
adana
adang
adat
add
added
adding
addition
additional
additionally
adds
ade
aden
adipisicing
administrasi
administrasijih
administratif
administratifjih
administration
adnan
ado
adoe
adriatik
adue
adulyadej
advanced
adygea
adz
adıyaman
aegea
aek
aerial
aethaloperca
af
affan
affects
affinis
afghanistan
africa
afrika
after
ag
agadir
again
against
agam
agama
agar
age
agen
agency
agnes
agnetha
agong
agreement
agresi
agui
aguila
agung
agusan
agustus
ah
ahad
ahadun
ahal
ahli
ahlus
ahlussunah
ahlussunnah
ahmad
ahmed
ahqaf
ahzab
ai
aib
aichi
aid
aidul
aim
aimag
ain
ainu
air
airbase
aires
airlines
airport
airways
aise
aisyah
ajaran
aje
aju
ak
akai
akal
akan
akay
akbar
akeule
akhe
akheulak
akhir
akhirah
akhirat
aki
akibat
akibatjih
akita
akkad
akkra
akmola
ako
akses
aktif
aktivis
aktor
aktris
aku
akul
al
ala
alah
alaidin
alaidinsyah
alaih
alaihi
alam
alamat
alami
alamnyoe
alamnyoepakiban
alang
alapan
alas
alasan
alaska
alat
alauddin
alba
albani
albania
albert
albeum
albimarginata
album
aldi
ale
alegre
aleppo
aleran
aleue
aleuh
aleuhad
alexander
alexandria
alga
alge
ali
alias
alice
alif
alifu
align
alignbars
alike
alim
alimun
aliqua
aliquip
aliran
aliyah
aljazair
all
allah
allahu
allamah
allen
allow
allowed
allows
almanak
almarhum
almaty
almost
almukarram
alo
alone
along
alonso
alor
alos
alqur
already
also
alt
altai
alternate
alternatif
alternative
alternativemap
although
altivelis
altogether
alue
alumni
alur
alus
always
am
amai
amal
amalan
aman
amay
amazon
ambassis
ambo
ambon
ame
america
american
amerika
amet
amigos
amin
aminah
amir
amirika
amm
amman
amnat
among
amor
amore
amorphophallus
ampo
amsterdam
amur
an
ana
analisis
anastacia
anatar
anatolia
anatomi
anatuth
anbiya
anco
and
anda
andalusia
andam
andaman
andes
andorra
andrew
android
aneu
aneue
aneuek
aneuh
aneuk
aneukgeuh
aneukjih
anfal
ang
ange
angeles
angen
angers
anggap
angge
anggeeta
anggo
anggota
anggun
angka
angkatan
angke
angko
angkup
angola
angus
anhui
ani
ania
anim
animal
anjeuet
anju
ankabut
ankara
anna
anni
anniversary
announcement
annual
annunzio
anoe
anos
another
anou
anshar
antalya
antar
antara
antarajih
antartika
anthony
anthropology
antigua
antillen
antilles
antique
antonio
antsiferov
anu
anwar
any
anyar
anyperodon
anything
ao
aomori
aou
aoyama
ap
apa
apabila
apapun
apha
api
apiaceae
aplikasi
apo
appear
appears
applicable
applications
applied
applies
apply
april
apui
apuy
aqabah
aqidah
aqs
aqsha
aquitaine
ar
ara
arab
arabia
arad
arafah
aragaki
arah
arakawa
arang
arca
architecture
archive
archived
arctic
are
area
areolatus
areuta
areuti
areutijih
argenteus
argentina
arges
argus
ari
arif
ariy
ariyah
arkeologi
arkhangai
arkhangelsk
arktik
armada
arme
armenia
arms
aro
aroih
aron
arongan
around
arrif
arrival
arsenal
arsitektur
art
arthur
arti
article
articles
artijih
artik
artikel
artileri
artis
artists
arul
arun
as
asa
asahan
asahi
asai
asaijih
asal
asam
asan
asap
asay
ase
asean
aseuka
aseuli
asfi
ash
asha
ashabul
ashida
ashita
asia
asian
aska
asli
asmara
asoe
asoejih
aspect
assad
assalamu
astana
astrakhan
astronomi
astudillo
asuransi
aswad
asy
asyi
asyiy
asyura
at
ata
atas
atau
ataupun
atawa
ate
ater
ateue
ateueh
ateuh
ateuk
ath
atje
atjeh
atlantik
atlas
atlasov
atlet
ato
atol
atong
atot
atra
attahiriah
attribute
attributes
attribution
atu
atwa
atyrau
au
auf
august
aulia
aun
aurat
aurora
aus
australasia
australia
australian
austria
austronesia
aute
author
authority
auto
autocollapse
autoconfirmed
automated
automatic
automatically
autotrof
available
avril
awa
awai
awak
awaknyan
awal
awam
awan
award
awards
away
awe
aweue
aweueh
awwal
ay
ayah
ayahjih
ayam
ayat
ayatjih
aye
ayeuen
ayeyarwady
ayo
ayu
ayun
ayutthaya
ayyub
ayyubi
az
aze
azerbaijan
azeub
azilal
aziz
aziziyah
b
ba
bab
babah
babul
babur
babussalam
baca
bace
back
background
backpacker
backpacking
bacut
bad
bada
badak
badan
badanjih
badar
bade
badeue
badi
badr
badung
bae
baet
bagah
baghdad
bagi
bagian
baginda
bago
bagoe
bagok
bah
baha
bahagia
bahama
bahan
baharu
bahasa
bahgie
bahia
bahkan
bahpih
bahrain
bahri
bahsa
bahthat
bahwa
bahwasajih
bahya
bai
baidha
baih
baik
baikal
baikonur
baitul
baiturrahman
baitussalam
baja
baje
bak
bakar
bakat
bakau
bakjih
bako
bakong
bakongan
bakteri
bakti
baktiya
baku
bala
balad
balaghah
balai
balang
balasan
balbek
bale
balee
bali
balian
balkan
balkar
balue
bambang
bambel
ban
band
banda
bandajih
bandar
bandara
bandaraya
bande
bandi
bandua
bandum
bandung
banduwa
bangai
banggalang
banggali
bangka
bangke
bangkok
bangladesh
bango
bangon
bangsa
bangsar
bangsawan
bangun
bangunan
bani
banja
banjar
banjarmasin
banjarnegara
bank
banmandum
bansa
banta
bantayan
bante
banten
bantu
bantuan
banuwa
banyak
bapak
baplue
baplueng
baqa
baqarah
bar
bara
barang
baranggasoe
barat
baratjih
barbar
barbuda
barcelona
bare
barieh
baris
barisan
barker
baro
baroe
baroh
baru
basa
basah
base
based
basestyle
bashar
bashirun
bashkortostan
basho
bashrah
basic
basis
baso
bass
bata
batah
bataih
batak
batalion
batang
batavia
bate
batee
bateue
bateueng
bathat
bathutah
batjoet
batken
bator
batu
batumo
baung
bawah
bayan
bayang
bayankhongor
bayern
bayeue
bayeuen
bayeun
baytul
bayu
bd
be
beasa
beatles
beaufort
beberapa
bebesen
because
beda
been
before
beg
begawan
begin
beginning
behar
behaves
beijing
being
bek
belait
belakang
belanda
belgia
beliau
belitung
belize
bella
bellona
belo
below
belowstyle
belum
ben
bencana
benda
bendahara
benediktus
bener
benggali
bengkulu
bening
benjamin
bennington
bentuk
benua
berada
beras
berawang
berbeda
bercak
berdasarkan
berduri
berguna
berikut
bering
berita
berjaya
berkaitan
berkas
berkehendak
berlaku
berlin
bernadotte
bernama
bernard
berperang
bersahabat
bersama
bersangkutan
bersejarah
berusia
besar
beserta
besi
best
between
beu
beude
beudoh
beue
beuet
beujeue
beujeut
beukah
beukai
beukaih
beulanda
beulanja
beuleue
beulio
beuluka
beuna
beunagi
beunalah
beunantu
beunayeue
beunda
beundahara
beuneuri
beunge
beungga
beungoh
beunileue
beunileueng
beunoe
beunot
beunteue
beunto
beuntuk
beunua
beunuwa
beurandang
beurande
beurawang
beureu
beureueh
beureuh
beureujue
beureukah
beureukaih
beureukat
beureuleue
beureuto
beurhala
beuringe
beusa
beusoe
beut
beuthat
beuto
beutong
bhah
bhaih
bhan
bharat
bhasa
bho
bhom
bhumibol
bhutan
bi
biak
biara
biasa
biasajih
biasanya
biaya
bibeue
bibeueh
bibi
bibliografi
bicah
bicara
bida
bidang
bidari
bideue
bideueng
bideung
bidok
bie
biek
bien
bieng
bies
biet
big
bije
bijeh
biji
bijian
biksu
bila
bile
bileu
bileue
bili
bilie
biluy
bima
bin
bina
binafsih
binafsihi
binasa
binatang
bine
bineh
bingo
binjai
binoe
bintah
bintang
binte
binti
biodiversity
biogah
biografi
biography
biologi
bipak
bir
bira
birah
birem
bireue
bireuen
bireum
bireun
biro
biru
bisa
bishkek
bismi
bisnis
bissau
bistrit
bisu
bit
bius
bivak
bixa
biyasa
bizantium
bk
bla
black
blacklist
blacklisted
blade
blah
blahdeh
blaih
blanda
blang
blank
bleeker
bleu
blica
blight
bloe
blog
blogger
blok
blue
bluek
blythii
bn
bo
board
body
bodyclass
bodystyle
boenak
boga
bogd
bogor
boh
bohai
bohjih
boilerplate
bokutachi
bola
bold
bolded
bolivia
bolshevik
bolsonaro
bom
bonan
bonaparte
book
books
border
borderless
borneo
bosch
bosna
bosnia
bosphorus
bot
botani
both
botos
botswana
bottom
bou
bought
bounaparte
bourg
box
boxes
bp
bppd
bps
br
bra
braces
brackets
brang
bras
brasil
brat
brazil
bre
break
breaking
breue
breueh
breuh
bri
bridge
brienne
brill
brinche
britain
britania
britannica
british
bro
broadcasting
broutona
browsebar
browsers
bruce
bruchum
brunai
brunei
bryansk
bt
bu
bua
buah
bubalis
bube
bubiri
bubo
bubon
bubur
bucue
budaya
buddha
bude
budha
budhisme
budi
bue
buena
bueng
buenos
buet
buffalo
buffon
buga
bugak
buge
bugeng
bugis
bui
bujang
bujdur
bujok
buju
bujur
buka
bukan
buke
buket
bukhari
bukit
bukon
bukti
buku
bulai
bulan
bulat
bule
bulen
buleue
buleuen
buleun
bulgan
bulgaria
bullets
bullgallery
bulman
bulo
buloh
bulu
bulue
buluen
buluh
bumi
bumoe
bunda
bung
bunga
bungko
bungo
bungong
bungongjih
bungsberg
buni
bunin
bunkyo
bunoe
bunot
bunta
buntul
bunyamin
buon
bupati
bur
buraq
burdur
buri
buriram
burkina
burni
burnley
buro
buruj
burundi
burung
buryat
buryatia
busan
bush
business
bustanul
busu
busuk
but
buta
butik
button
buy
buya
buyei
buza
by
c
ca
cabang
cabe
cabeue
cabeueng
cabinet
cache
caci
cadre
cah
cahaya
cahya
cai
cakra
calais
calang
calendar
california
calitra
call
called
calligraphy
calling
calls
calon
calong
calotropis
calvin
cam
camarines
camat
cambodia
cambridge
campa
campaign
campli
can
canada
canc
canden
canggue
cani
canton
cao
capa
caption
car
cara
caranx
caras
care
cari
carl
carlos
caro
carong
carpenter
carpenters
carter
carvalho
casablanca
cascade
case
cases
cat
catan
catatan
categories
categorization
categorize
categorizes
category
cathay
cathedral
cause
causes
caye
cc
ccccff
cd
ce
cefet
celala
cell
cells
cemparam
cendawan
census
center
centered
centers
central
centre
centro
centuries
cephalopholis
cerita
cermin
certain
cet
ceu
ceubeue
ceubre
ceubrek
ceudah
ceudaih
ceudra
ceue
ceukok
ceumeukam
ceumpeudak
ceunamprong
ceunatat
ceunate
ceupe
ceuraceu
ceureulo
ceureume
ceurih
ceurita
ch
cha
chachoengsao
chaiyaphum
cham
chamic
champa
chan
chance
changchun
change
changed
changing
channel
chanthaburi
character
characters
charles
charoen
chechen
check
chelyabinsk
chen
chengdu
cherkess
chester
chi
chiang
chiba
chicago
chieti
chik
child
chile
chili
china
chinese
chirinkotan
chirpoy
chishima
chit
chiyoda
chocolate
choibalsan
chola
chongqing
chosen
chowk
chris
christiaan
christmas
christopher
chronicle
chu
chubu
chugoku
chui
chumphon
church
chuvash
chuy
ci
cia
cicak
cice
cicem
cidra
cikampek
cillum
cina
cingkam
cinta
circumstances
ciriek
cirih
cit
cithakan
cities
city
cius
clara
class
classes
classification
clean
clear
climate
clinton
close
club
cluj
cm
co
cobar
cocoon
cocos
code
coded
codelist
coeruleopunctatus
coioides
cok
coklat
col
collapse
collapsed
collapsible
collectie
colnfooter
colnheader
colnwidth
colonial
color
colors
cols
colt
columbia
column
columns
colwidth
com
combined
come
comments
commission
commodo
common
commonly
commons
commonwealth
community
compagnie
company
complete
complex
con
conan
concepcio
concert
congress
conjunction
consectetur
consequat
consistency
constant
contain
contained
container
containing
content
contents
contenu
context
continental
conto
contoh
contohnya
control
convert
coor
coord
coordinate
copying
corbin
cordoba
corinthians
coritiba
corn
cornelis
corner
corporate
corporation
correa
correctly
corresponding
cortez
cot
could
council
count
country
county
covers
cre
create
creative
crianc
cromileptes
cropped
crowe
crown
cruz
crystal
cs
css
cuaca
cuco
cucoe
cui
cuko
cukop
cukup
culpa
culture
cuma
cunda
cunto
cupidatat
cura
curak
curitiba
current
currently
curry
cusano
cut
cv
cx
cylindrophiidae
cyprinidae
d
da
daalen
daar
dabeue
dabeueh
dabeuh
dabo
dada
dadek
daendels
daerah
daftar
daga
dagang
dagestan
dah
dahulu
dai
daily
dairah
dairi
dak
daka
dakwah
dalam
dalamjih
dale
dali
dalil
dalo
daltrey
dama
damai
damar
damaskus
dame
damee
damon
damsyik
dan
dana
danau
dance
dang
daniel
danube
dapat
dapeuta
dar
dara
darah
darat
daratan
dari
daripada
darkhan
darmono
daro
daroh
darul
darurat
darussa
darussalam
das
dasa
dasar
dat
data
database
datang
datar
date
dateformat
dates
dato
datok
datu
datuk
daud
daughter
dauh
daulat
dausa
davao
david
dawo
dawson
dawuan
day
daya
dayah
dayan
days
db
dc
ddddff
de
dead
dean
decapterus
december
decide
decontrol
default
defaults
defaultsort
defined
definisi
degli
dekat
del
deleng
delhi
deli
delima
delimiter
della
delsogamba
delung
demak
demala
demam
demi
demikian
demografi
demokrasi
demokratik
demolevel
demonstrate
demonstration
demospace
den
deng
dengan
dengo
dengon
denmark
denpasar
densha
departemen
department
dependent
depending
deprecated
der
deral
deraljih
derasi
des
described
description
descriptions
desember
deserunt
designed
desired
deskripsi
desktop
desky
destinasi
detail
details
determines
detik
deudap
deue
deuh
deungan
deungo
deungon
deureuham
deurjat
devayan
development
dewan
dewantara
dewi
dhaalu
dhabi
dhekunu
dhie
dhien
dho
dhoe
di
dia
diakses
dialek
dianjurkan
diantara
diateue
diawali
dibakar
dibanda
diberikan
dibuat
dicari
dicok
dictionary
did
didalam
didefinisikan
dido
die
diego
diemaco
dien
dientrikan
different
diftong
digos
digunakan
dihapus
diisi
dijadikan
dijak
dijih
dikenal
diketahui
dikeue
dikheun
dilakukan
dile
dilee
diletakkan
dili
dilib
dimaknai
dimana
dimanfaatkan
dimasukkan
dimeuyub
dimuat
dimulai
din
dina
dinanggroe
dinas
dinasti
dingin
dipanen
dipanggang
dipasarkan
dipeuhana
direbus
direct
directly
dirundeng
disabled
disables
disampe
disappear
disarankan
disaster
discuss
discussion
disease
disebut
disertasi
diseulingka
diside
disinan
disino
disinoe
diskografi
display
displayed
displaying
displays
dispute
distribution
district
distrik
dit
ditambahkan
ditampilkan
ditemukan
diterania
diteupeu
ditimu
ditiro
divehi
diversity
divisi
diviyan
diwa
diwan
dixon
diyub
djam
djenne
djibouti
dki
dkk
dll
dms
do
doa
dobrila
doc
docnz
document
documentary
documentation
does
doesn
doha
doi
doktor
dokumen
dokumentasi
dokumenter
dolar
dollar
dolok
dolor
dolore
dom
domain
domestik
domestikasi
dominan
don
donald
done
dong
dongguan
dongxiang
donia
donya
doors
dordenma
dornod
dornogovi
dos
dosen
double
dove
dpr
dpw
dr
dra
drah
drama
dream
drie
drien
dro
droe
droegeuh
droejih
droeneuh
droeneuhnyan
drop
drosophila
drs
druk
drukrij
dsb
du
dua
duablah
dubai
dudo
dudoe
due
duek
duet
duis
duka
dukhan
dukkalah
duko
dulu
dum
dumna
duncan
duncker
dundgovi
dunia
dur
durian
durie
duso
duson
dutch
duwa
duwaplo
dvd
dylan
dzahab
dzong
dzulhijjah
dzulka
e
ea
each
early
earthquake
ease
easily
east
easter
easy
ebalang
economic
ecuador
ed
edara
edarajih
edirne
edisi
edit
editing
edition
editors
eds
educac
edward
edłoga
edłoha
effect
efisien
eh
ehime
either
eiusmod
ejaan
ejih
ek
ekarma
ekonomi
ekosistem
eksekutif
ekspedisi
ekspor
ekuador
el
elamu
elat
elba
elements
eleume
eleumee
elit
elizabeth
elliott
else
elvis
em
embassy
emirat
emirates
empat
empeuk
empire
empty
en
enables
encyclopaedia
encyclopedia
encyclopædia
end
endatu
energi
enerji
eng
english
enim
ensiklopedia
ensure
enter
entered
entire
enyan
eo
ep
epidermis
epinephelus
episode
equal
equals
equatorial
equipped
equus
er
eratosthe
eritrea
eropa
eros
error
erumei
erythrina
es
esa
eseulam
espan
esse
est
estado
estaing
estiano
eswatini
esya
et
eta
etc
ethiopia
etnis
eu
eue
eugene
eumpe
eumpee
eumpeue
eumpueng
eumpung
eun
euncit
eungko
eungkot
eunte
eurasia
euro
europa
europe
european
eut
even
evenodd
evenstyle
ever
everest
everett
everything
ex
exactly
example
examples
except
excepteur
exceptional
exceptions
exercitation
exist
existing
expanded
expiry
explain
explanation
extend
extra
f
fa
facebook
facility
fact
factbook
fadhilat
fadli
faham
faidah
faidahjih
fail
fairuz
faja
fajar
fakhri
fakhriati
fakta
fakultas
falah
falaq
falkland
falsafah
false
fam
famagusta
famili
familia
family
familycolor
fana
faraby
fardhu
farmasi
faroe
fas
fasciatus
fase
faso
fat
fata
fathimah
fatihah
fatimah
fauzi
fc
fd
fdfdfd
fe
feature
februaari
februari
february
fed
federal
federasi
federation
feed
feeding
feira
feliz
fellow
ferdinand
fernando
ferrari
ferris
festival
fez
ff
fi
field
fiji
fikih
fil
file
filem
filipina
fill
film
filmography
filsafat
final
find
finlandia
fiorella
fiqah
fiqh
fiqih
fir
firdaus
firman
first
fish
fishes
fisik
fisika
fithrah
fitrah
fitri
fits
fitur
fix
flag
flamengo
flavocaeruleus
flensburg
float
floem
flora
flores
florida
flower
flows
fm
fn
fo
followed
following
follows
fonseca
font
fontsize
football
footer
for
forbes
force
forced
foreign
forest
foris
form
format
formatted
formosa
forms
formula
forth
forum
fosfat
fosfor
fosil
foto
fotosintesis
found
foundation
fox
fr
frameless
franc
france
francis
francisco
francois
frank
frankfurt
franz
fred
frederick
free
freedom
freshwater
frid
friday
frisia
from
front
fugiat
fuji
fujian
fukui
fukuoka
fukushima
full
fullwidth
fumec
functionality
functions
fungi
fungsi
furqan
further
furu
fuscoguttatus
futuna
g
ga
gaafu
gab
gabo
gabriele
gabue
gabuek
gabungan
gada
gade
gadeng
gading
gado
gadoh
gadung
gaeseong
gah
gaharu
gaib
gaih
gajah
gaki
gala
galak
galat
galeri
galilia
gallery
galo
galong
galue
gam
gama
gamba
gambar
gambaran
gambia
game
gampo
gampong
ganda
gandapura
gando
ganganagar
ganggang
gani
gansu
gantang
ganteng
gantheuep
ganti
gantoe
gantung
gapi
gapu
gapui
gapuy
garand
gare
gareh
garo
garot
garuda
gas
gasa
gase
gaseu
gata
gate
gateway
gaya
gayam
gayo
gaza
gazi
ge
gedung
gegarang
gele
gelombang
gempa
gen
gene
general
generally
generated
generation
generic
genetik
genghis
genting
genus
geo
geografi
geografis
geographic
geological
geomagnetik
geomatika
geonames
geopelia
george
georgia
gepeu
ger
gerais
gerakan
gerard
gerardus
gerbang
gereja
get
geu
geuako
geuakses
geuangke
geuangkee
geuanut
geuato
geuba
geubaca
geubagi
geubangon
geubangun
geubantu
geubayeue
geubeudoh
geubeue
geubeuet
geubi
geubie
geubileue
geubloe
geubo
geuboh
geubri
geubuka
geucalitra
geucatat
geuchik
geucitak
geucok
geudeubang
geudeue
geudeunge
geudeungo
geudo
geudong
geudraih
geudrop
geudubang
geudue
geuduek
geuduk
geuduko
geue
geugantoe
geugla
geuh
geuharap
geuhareutoe
geuhei
geuhey
geuhidang
geuhiro
geuho
geuhon
geuhubo
geuiko
geuingat
geujaga
geujak
geujala
geujo
geujok
geukaji
geukalo
geukalon
geukarang
geukawai
geukeubah
geukeumang
geukeumeung
geukeuneuk
geukeupo
geukeurija
geukheuen
geukheun
geukira
geukire
geuklaim
geukubu
geukue
geukunjo
geukuwasa
geula
geulake
geulanggang
geulanteue
geulawan
geulayang
geulembong
geulima
geulindo
geulinggang
geulingkeue
geulinyue
geulinyueng
geulumbang
geulumpang
geumarit
geumase
geumat
geume
geumeu
geumeudong
geumeudue
geumeugatib
geumeukat
geumeukawe
geumeukeusud
geumeupakat
geumeuprang
geumeuripe
geumeurumpok
geumeurunoe
geumeututo
geuminah
geumita
geumpa
geumpang
geumumat
geunabue
geunantoe
geunap
geunare
geunase
geuneuk
geungui
geunguy
geunie
geunte
geunteut
geuo
geupajo
geupakat
geupake
geupakek
geupakoe
geupare
geupasoe
geupate
geupeu
geupeuase
geupeubaro
geupeubeudoh
geupeubeue
geupeubloe
geupeubue
geupeubuet
geupeucaya
geupeudakwa
geupeudeuh
geupeudiyeung
geupeudo
geupeudong
geupeudue
geupeugah
geupeugalak
geupeugantoe
geupeuge
geupeuget
geupeugo
geupeugot
geupeuguna
geupeuhah
geupeuhana
geupeuhanco
geupeuhareum
geupeuhubo
geupeuingat
geupeujeue
geupeujeuet
geupeujeut
geupeujo
geupeukeumang
geupeukira
geupeukle
geupeukong
geupeulaku
geupeulara
geupeuleumah
geupeulheue
geupeulheuh
geupeuluwah
geupeumaklumat
geupeumeukle
geupeumeunang
geupeumulia
geupeuna
geupeunan
geupeunyata
geupeupaneuk
geupeupho
geupeurayek
geupeure
geupeuresmi
geupeureule
geupeurintah
geupeuriwang
geupeuro
geupeurunoe
geupeusabab
geupeusaban
geupeusaboh
geupeusah
geupeusaho
geupeusapat
geupeuseudiya
geupeuseulamat
geupeuseuleusoe
geupeutalo
geupeutamat
geupeutamo
geupeutamong
geupeuteubie
geupeuteubiet
geupeuteubit
geupeuteunte
geupeuteutap
geupeutheun
geupeutimang
geupeutrang
geupeutro
geupeutubie
geupeutubiet
geupeutubit
geupeutunyok
geupeuturi
geupeuwaje
geupile
geupimpe
geupimpin
geupinah
geupisah
geupiyo
geuplah
geuploh
geuplue
geuplueng
geupoh
geupre
geupuasa
geupubloe
geupubue
geupubuet
geupudue
geupuga
geupujoe
geupula
geupupho
geurakam
geurakan
geurancang
geurape
geurasa
geuraseumi
geurasi
geurawo
geureubak
geureubang
geureubo
geureudo
geureumpok
geurija
geurila
geurilla
geuritan
geuriwayat
geurubhak
geurugok
geurunto
geusak
geusalo
geusambo
geusambong
geusampo
geusangka
geusatoh
geusaweue
geusebut
geuseu
geuseubo
geuseubut
geuseudia
geuseumayang
geuseumiyup
geuseumurat
geuseurang
geuseuto
geusie
geusingkat
geuso
geusurat
geususo
geutague
geutaguen
geutah
geutakse
geutamah
geutamo
geutamong
geutanyo
geutanyoe
geutanyong
geutare
geute
geuteubiet
geuteugah
geuteujeumah
geuteuka
geuteuliti
geuteumanyong
geuteume
geuteumeung
geuteumule
geuteupeu
geuteurimo
geuteurimong
geutham
geuthe
geutheun
geuti
geutimbak
geutinggai
geuto
geutrimo
geutro
geutubie
geutule
geutume
geutunyok
geutunyum
geuturi
geuubah
geuuko
geuuto
geuwe
geuweue
geuweuek
geuwoe
geuyakin
geuyue
gha
ghaffar
ghana
gharb
ghost
gia
giang
gibraltar
gica
gif
gifu
gigantea
gigantic
giovanni
girang
gire
girek
gisa
giscard
giurgiu
giurtelecu
giuseppe
give
given
gives
gizi
gje
gla
glah
glanggang
glap
gle
glee
glie
global
gloro
glossary
glueh
glumbang
glumpang
go
gob
gobi
gobierno
gobnyan
gobnyankeuh
god
goh
gohlom
goia
gole
golom
golomna
golongan
gombak
gone
good
google
googlebot
gop
gopnyan
gorbachev
gordon
gorontalo
gosho
gosiasi
gosong
got
gothik
gouvernement
gov
government
govi
govina
govisu
gps
gr
gradient
grah
grak
gramedia
grammatical
grand
grande
grandiflora
grandparent
grant
gravado
gray
great
greater
greece
greenland
gregorian
gridcolor
gro
groet
grong
groningen
grossmu
group
grouper
groupn
groupnstyle
grouppadding
groups
groupstyle
groupwidth
grup
gu
gua
guam
guangdong
guangxi
guangzhou
guatemala
gubernur
guci
gudang
gue
guedra
guglielmo
gugo
guha
guide
guillermo
guinea
guizhou
gujarat
guke
gule
gullick
gulma
gun
guna
gunakan
gunci
gunma
gunong
gunongan
gunung
gura
gurah
gure
gureb
guro
guru
guthrie
guy
guyana
guyui
gyeonggi
h
ha
haa
haba
habe
habeh
habib
habitat
habomai
habsyi
hadiah
hadid
hadih
hadir
hadis
hadist
hadith
hadits
haeju
hafiz
hagu
hai
haid
haikal
hainan
hajar
hajat
haji
hajj
hak
hakhapen
hakikat
hakim
hakodate
hal
halaman
haleuba
haleue
halia
halimon
hall
halo
haloban
ham
hama
hamba
hambali
hambaliy
hamgyong
hamid
hamilton
hampa
hamra
hamza
hamzah
han
hana
hanafi
hanafiah
hanafiy
hanco
hand
handbook
handle
hangzhou
hani
hanjeue
hanjeuet
hanjeut
hankyu
hanoi
hans
hantom
hanya
hape
happy
hapus
hara
harah
haraih
haram
harapan
harbi
harbin
hard
hare
hareue
hareuem
hareukat
hareuta
hareutoe
hareutoejih
harga
hari
harian
harmen
haro
harok
harold
harry
hart
harta
harun
harus
has
hasan
hasanah
hasballah
hasbi
hase
hasil
hasjmy
hassan
hasye
hasyim
hat
hatay
hate
hati
hatiku
hattin
haul
hauz
have
having
hawa
hawadist
hawaii
hay
hayah
hayat
hayatu
hayeu
hayeue
hayyun
hcard
he
header
headers
heading
headings
heart
hebei
hei
height
heijden
heilongjiang
heinrich
hejden
hektar
helaian
helena
helgoland
help
helps
helsinki
henan
hendrik
hendrix
henri
henry
hepatitis
her
herald
herbert
hercegovina
here
heritage
herman
hermansyah
herre
herzegovina
het
heut
heutsz
hewan
hgeuh
hi
hibat
hibrida
hiburan
hidden
hide
hides
hidup
highly
hijaz
hijeurah
hijo
hijr
hijrah
hijriah
hijriyah
hikayat
hikeumah
hikmah
hilal
hilir
himalaya
himbe
himne
hinan
hind
hindi
hindia
hindu
hingga
hint
hireuen
hiroshima
his
hisab
histo
historical
history
hitam
hiweue
hiweuen
hj
hjih
hka
hler
hlist
ho
hoa
hohhot
hoi
hokkaido
holbrook
holland
holstein
holy
home
homo
honda
honduras
hong
hongaria
honolulu
honorific
honshu
hooge
horizontal
horizonte
hot
hotel
house
houtman
how
however
hp
hr
hran
hsb
html
htmlhttp
http
https
hu
huang
hubei
hubo
hubong
hud
huda
hude
hue
hugo
hui
hujan
hujurat
huko
hukom
hukum
hul
hulu
human
hunan
hundreds
hunedoara
hunt
hurgronje
huruf
hus
husaimah
husain
huse
husen
huso
husrev
hussain
hussein
hwai
hwanghae
hybrid
hyderabad
hyesan
hyogo
i
ia
iain
ian
ias
iata
ibadah
ibadat
ibaraki
ibarat
iberia
iblih
ibn
ibnu
ibo
iboih
ibrahim
ibtidaiyah
ibu
ic
icao
icaonya
icon
icons
id
idah
idang
iddah
ide
ideal
idem
identitas
ideologi
idi
idin
idris
idul
ie
iem
iep
ierah
ierupa
iet
if
iftitah
ih
ihram
ihsan
ii
iii
ija
ijaan
ijih
ijmak
ijo
ikan
ikat
ikatan
ikeulim
ikh
ikhlas
ikhlash
iki
ikle
iklim
iko
iku
il
ila
ilahi
ilang
ile
iles
ileume
ilie
illinois
illustrated
illustration
ilmiah
ilmu
ilmun
iloilo
ilyas
image
imageleft
imageleftn
imageleftstyle
imagen
imageright
images
imagesize
imagestyle
imam
iman
imarah
imarat
imbi
imeum
img
immediate
important
imran
imsak
imuem
imum
in
inai
inan
inania
inauguracion
inayatillah
inc
incheon
incididunt
included
including
incorrect
increment
ind
indah
indatu
indef
independen
independence
independent
index
india
indian
indic
indica
indicating
indiche
indicus
indie
indies
indische
indo
indone
indonesia
indonesian
indra
indrapuri
indus
industri
ine
infeksi
info
infoboks
infobox
infografik
infoizingamba
informasi
information
ing
ingat
inggre
inggreh
inggris
ingin
ingushetia
inherit
ini
inilah
initial
initially
inline
innen
inner
ino
inong
input
insan
insensitive
inserted
inseue
inside
instance
instances
instead
institut
institute
instituto
instituut
instructions
insya
intan
intang
intellectual
intended
internal
internally
internasional
international
interne
internet
interwiki
inti
into
introduction
ionia
ipa
ipb
iprage
ipsum
ir
iradah
irah
irak
irama
iran
ire
ireland
iriansyah
irigasi
irkutsk
irlandia
irure
irwandi
is
isa
isabela
isbn
ise
iseulam
isfahan
ish
ishak
ishaq
ishikawa
isi
iskandar
islam
islamic
islamiyah
island
islandia
isma
ismail
iso
isra
israe
israel
israil
issn
issue
issyk
istambul
istana
istanbul
istilah
istimewa
istiqamatuddin
isya
isyarat
it
itali
italia
itam
itamong
ite
itek
item
items
itikeud
itikeue
its
itself
itu
iturup
iucn
iv
ivan
ivanovo
ivoire
ivory
ix
iy
iyah
izin
j
ja
jabal
jabatan
jabi
jackson
jade
jadi
jadid
jaga
jago
jagong
jahal
jahan
jahe
jahiliyah
jai
jaja
jajahan
jak
jakarta
jakeue
jakeuet
jakob
jalal
jalalain
jalaluddin
jalan
jalil
jalo
jalur
jama
jamal
jambe
jambi
jambo
jambu
jambyl
jame
jamek
james
jameue
jameuen
jameun
jami
jamik
jaminan
jammu
jamur
jan
janda
jane
janeiro
janeng
jang
jangan
jangeun
janggo
jangka
janji
jannatul
jantang
jantho
janthoe
januari
january
japan
japanese
jarak
jareue
jareueng
jareung
jaringan
jaroe
jasa
jason
jatoe
java
javanica
jawa
jawatan
jaweue
jawi
jawoe
jay
jaya
jayasuriya
jazirah
jazz
je
jean
jeddah
jeff
jefferson
jeffrey
jeget
jeh
jejak
jeju
jelas
jenderal
jendral
jenis
jepang
jerango
jerat
jeremy
jerman
jernih
jeroh
jersey
jerusalem
jessica
jeu
jeue
jeued
jeuem
jeuet
jeuheue
jeuheut
jeulaih
jeulajah
jeulanga
jeulikat
jeuma
jeumala
jeumeu
jeumeujak
jeumeulah
jeumeurang
jeumpa
jeumulah
jeuname
jeunaweue
jeundral
jeundran
jeune
jeuneh
jeunieb
jeupang
jeupun
jeura
jeurat
jeureuman
jeureune
jeureungeh
jeureungge
jeut
jewelpet
ji
jiako
jiangke
jiangsu
jiangxi
jiba
jibagi
jibantu
jibayeue
jibeuo
jibloe
jibo
jiboh
jibri
jibril
jicok
jidapeuta
jideungo
jidrop
jidue
jiduek
jiduko
jie
jigalak
jigantoe
jigisa
jih
jihad
jihoreumat
jijaga
jijajah
jijak
jijo
jika
jikalon
jikeubah
jikeuneuk
jikeupo
jikeurija
jikheun
jikira
jikire
jikrah
jikuasa
jikuro
jikuwasa
jilake
jilawan
jilid
jilin
jilindo
jilingka
jilingkeue
jilo
jim
jimarit
jimat
jime
jimeu
jimeuaneuk
jimeudue
jimeukat
jimeukeusud
jimeunyeurah
jimeuprang
jimeurunoe
jimeututo
jimita
jimmie
jimmy
jin
jinan
jinayah
jingui
jinguy
jinie
jino
jinoe
jinping
jio
jioh
jipajo
jipajoh
jipate
jipeu
jipeuanco
jipeubue
jipeubuet
jipeudame
jipeudong
jipeudue
jipeugah
jipeuge
jipeuget
jipeugo
jipeugot
jipeuguna
jipeuhah
jipeuhanco
jipeukaru
jipeulaku
jipeuleumah
jipeuluwah
jipeumeukle
jipeuna
jipeunan
jipeunyata
jipeupanyang
jipeupho
jipeureule
jipeurintah
jipeusaho
jipeusapat
jipeuseuleusoe
jipeutaklok
jipeutalo
jipeutamong
jipeuteubie
jipeuteubiet
jipeutheun
jipeuturi
jipile
jipimpe
jipimpin
jipisah
jipiyo
jipo
jipoh
jiprang
jipuasa
jipubloe
jipubuet
jipuga
jipula
jipulang
jiputa
jipuwoe
jirakam
jiran
jirasi
jirat
jireubo
jirhom
jis
jiseubo
jiseumah
jiseurang
jiseutot
jisuro
jitako
jitamo
jitamong
jite
jitet
jiteubie
jiteubiet
jiteuka
jiteume
jiteumee
jiteumeung
jiteuntang
jiteupeue
jiteurimong
jithe
jithee
jitheun
jitimbak
jitimoh
jito
jitop
jitren
jitro
jitule
jitunyok
jituri
jiubah
jiude
jiwa
jiwe
jiwoe
jiyue
jizat
jmpl
jo
joan
joannes
joe
jogjakarta
johan
johann
johannes
john
johnson
johor
jok
jon
jonathan
jones
jong
jorge
jose
joseph
journal
jp
jpg
jr
jrat
jroh
jrue
jruek
js
jstor
ju
jua
juan
juang
juara
judet
judul
juga
juj
juli
julia
julo
julok
july
jum
jumadal
jumadil
jumeu
jumeulah
jumlah
jun
june
juni
juraj
jurchen
jurnal
jurnalis
juro
jurong
jurusan
just
juta
juve
juz
jv
k
ka
kab
kabardino
kabat
kabine
kabinet
kabisat
kabong
kabu
kabupate
kabupaten
kacang
kachin
kacho
kadang
kadeuh
kadra
kadus
kaen
kaeo
kafarah
kafilah
kafirun
kagawa
kagoshima
kah
kahar
kahfi
kahne
kahwa
kairo
kaisar
kajeue
kajeung
kajeut
kajhu
kajian
kaju
kakap
kakeuh
kaki
kala
kalam
kalasin
kalau
kale
kaledonia
kalee
kalender
kaleuh
kalheue
kalheuh
kaligrafi
kalimah
kalimantan
kalimat
kaliningrad
kalium
kalmykia
kalo
kalon
kaluga
kamal
kamboja
kambuek
kamchatka
kame
kamil
kamo
kamoe
kamp
kampa
kamphaeng
kampo
kampong
kampuih
kampung
kampus
kamuih
kamus
kan
kana
kanada
kanagawa
kanan
kanchanaburi
kandang
kande
kandran
kandungan
kanji
kanon
kanot
kansai
kanto
kanun
kaoru
kapai
kapal
kape
kaphe
kapi
kapita
kara
karab
karabin
karachay
karagandy
karak
karam
karang
karap
karat
karawang
karbohidrat
kare
karel
karelia
karena
kareng
kareue
kareueng
kareuna
kareung
karibia
karie
karieng
karier
karim
karimata
karo
kartografi
karu
karya
kas
kase
kasey
kashgar
kashmir
kaspia
kasus
kat
kata
katalog
katchal
katedra
katedral
kategori
kathmandu
katholik
katolik
katsushika
kaukasus
kaup
kaur
kautsar
kavaleri
kawa
kawan
kawasan
kaway
kawe
kawo
kawom
kaya
kayah
kayap
kaye
kayee
kayem
kayin
kayu
kazakh
kazakhstan
kazan
kb
ke
keadaan
keadilan
keagamaan
keagungan
kebanyakan
kebayakan
kebijakan
kebudayaan
kebun
kecamatan
kecil
kecuali
kedah
kedai
kedokteran
kedua
keep
kegiatan
keguruan
kehutanan
keislaman
keisuke
keith
kejuruan
kekaisaran
kekal
kekhalifahan
kekurangan
kelahiran
kelantan
kelapa
kelipah
keliya
kelly
kelobot
kelompok
keluarga
kelurahan
kematian
kembali
kembang
kementerian
kemerovo
kemili
kemiri
kemudian
kemukiman
kemuneng
kemuning
ken
kenawat
kepada
kepala
kepresidenan
kepulauan
kera
kerajaan
kerala
keramat
kering
kerkhof
kerobokan
keruh
kerukunan
kesehatan
kesultanan
kesusasteraan
kesusastraan
ket
ketambe
ketapang
keterangan
ketiga
ketika
ketol
ketua
keturunan
keu
keuadaan
keubah
keubeu
keubeue
keubiri
keubit
keubo
keucamatan
keucuali
keucuwali
keude
keudee
keudeh
keudoktoran
keudroe
keudua
keuduwa
keue
keugata
keuh
keujadian
keukai
keulabe
keulayi
keulhe
keulibeut
keulile
keulompok
keuluarga
keulurahan
keuluwarga
keumala
keumalahayati
keumalo
keumalon
keumamah
keumang
keumangan
keumawe
keumbeue
keumeuntrian
keumong
keumude
keumumu
keumune
keumuneng
keuna
keunalon
keunan
keunarang
keundali
keundran
keune
keuneu
keuneubah
keuneuk
keuneulheue
keuneulheueh
keuneulheuh
keunggulan
keunira
keunire
keuno
keunoe
keunong
keupala
keupho
keuphon
keupo
keupula
keurajeue
keurajeuen
keurajeun
keuramat
keurani
keureubeuen
keureuja
keureuma
keureuna
keureuse
keureutah
keureutoe
keurija
keusaboh
keuso
keusultanan
keutapang
keutrangan
keutuha
keutumbu
keuturo
keuwasa
kevin
kewajiban
kg
kh
kha
khabar
khabarovsk
khabomai
khadijah
khai
khaih
khakassia
khalid
khalifah
khalkha
khan
khanduri
kharimkotan
khartoum
khas
khattab
khatulistiwa
khazraj
khbaatar
khentii
kheue
kheuet
kheun
kheutiyeu
khilafah
khiri
kho
khon
khorloogiin
khot
khovd
khu
khue
khulafa
khulafaur
khulasah
khuong
khurafat
khusuih
khusuihjih
khusus
khutbah
khutubah
ki
kia
kiamat
kiban
kiblat
kien
kiev
kifayah
kilang
kilangan
kilimanjaro
kilomete
kilometer
kim
kimia
kinanah
kind
kinetik
king
kingdom
kinoshita
kira
kirajih
kiran
kirche
kire
kirgiztan
kiri
kiribati
kirov
kisah
kisam
kistan
kita
kitab
kitts
kiyamat
kjih
kl
klah
klaim
klang
klasifikasi
klasik
klcc
kle
kleng
kleue
klia
klieng
kliet
klo
klok
klub
klue
kluet
km
knga
knil
know
knowledge
known
ko
kobe
kochi
kock
kode
koh
kohler
koleksi
kolom
kolombia
kolonel
koloni
kolonial
komando
komi
komik
komoditi
kompas
kompi
komplek
kompleks
komposit
komputer
komun
komune
komunikasi
komunis
komunitas
kon
konfederasi
konferensi
konflik
kong
kongo
koninklijk
konomi
konse
konsep
konstantinopel
konstitusi
konstitusional
konstruksi
konstruksinya
konsulat
konsultan
konversi
koordinat
koordinator
kopelma
kopenhagen
kore
korea
korean
korps
korsika
kosovo
kosta
kostanay
kostroma
kota
kotak
kotamadya
koto
kra
krab
krabi
krai
krak
krako
krasnodar
krasnoyarsk
kre
krek
kremlin
krenitsyn
kreue
kreuzung
kri
kristal
kriste
kristen
kritik
kro
kroasia
kru
krue
krueng
kruet
krung
ksa
kseumawe
ksi
ksiko
ksuko
ktif
ktor
kturk
ku
kua
kuador
kuah
kuala
kuali
kuasa
kuba
kubah
kubra
kubu
kudin
kue
kufah
kufi
kuil
kul
kula
kulah
kulam
kulat
kule
kulet
kuli
kuliah
kulit
kulmim
kultivar
kulu
kumamoto
kumba
kumbang
kumer
kumot
kumpulan
kunashir
kunci
kune
kuneng
kuning
kunjo
kunye
kunyet
kupa
kupang
kupi
kupiah
kupiyah
kupula
kurdi
kurdistan
kure
kureu
kureubeue
kureue
kureueng
kureuma
kureung
kurgan
kurikulum
kuril
kurma
kursi
kursk
kuru
kurubeuen
kurueng
kushiro
kusuih
kusuihjih
kuta
kutablang
kutacane
kutaraja
kute
kuto
kuwah
kuwait
kuwala
kuwasa
kuwasajih
kuweu
kuwini
kuyun
ky
kyoto
kyrgyzstan
kyushu
kyzylorda
kıbrıs
l
la
laamu
laba
label
labi
labore
laboris
laborum
labu
labuhan
labuhanbatu
labui
lada
ladang
lado
ladom
lae
laen
lafai
lagak
lagan
lagang
lage
lagee
lageue
lagi
lago
lagu
laguna
lah
lahab
lahe
lahee
lahi
lahir
lahu
lai
lail
lailatul
lain
lainnya
laj
laju
lak
lakab
lake
lakoe
laksamana
lakseumana
laku
lakuwirah
lala
laloe
lam
lama
laman
lambada
lambale
lambang
lambaro
lambhuk
lambideng
lambri
lambunot
lamdaya
lamgeu
lamie
lamiet
lamjih
lamkuta
lamlagang
lamlhom
lamme
lamno
lamnyong
lampahan
lampanah
lampang
lampeudue
lamphu
lamphun
lampisang
lampo
lampoh
lampu
lampung
lampuuk
lampuyang
lamte
lamtui
lamuri
lan
lanang
lancang
lancie
lanco
lancok
lancong
land
landasan
landschap
landsdrukkerij
lang
langa
lange
langet
langgeue
langgoe
langit
langkah
langkahan
lango
langsa
langsat
langso
langsong
langsung
language
languages
lanjut
lanka
lanso
lanun
lanzhou
lao
laos
laot
lapan
lapang
lapangan
lape
lapeh
laphai
large
larusia
laskar
lasso
last
lat
latar
late
latihan
latin
latitude
latong
latvia
lau
laura
laut
lavigne
lawan
lawang
lawanjih
lawas
lawe
lawet
laweung
lay
laya
layan
layer
layeue
laylatul
laze
lb
lc
lcea
le
leaf
least
leave
lebih
lee
lefkos
left
leger
legislatif
leicester
leiden
lembaga
lembah
leme
lempeng
leni
leningrad
leo
les
lesotho
lesser
leste
lesung
let
leti
letjen
letnan
letter
leu
leube
leubeh
leubeue
leubiem
leubo
leubok
leubu
leucogrammicus
leue
leueme
leuen
leuh
leuhnyan
leuhob
leuhop
leukat
leuki
leuleu
leumah
leumak
leumbaga
leumbah
leumboi
leume
leumee
leumie
leumiek
leumo
leumoh
leungka
leungkap
leungko
leuntie
leupah
leupe
leupeuem
leupie
leupu
leupue
leupung
leuser
leutan
level
lezgi
lg
lgia
lgii
lham
lhang
lhasa
lhat
lhe
lhee
lheu
lheue
lheueh
lheuh
lho
lhok
lhokseumawe
lhoksukon
lhong
lhueh
lhuh
li
lia
liaoning
liar
libanon
library
libya
license
lidah
lie
liechtenstein
lien
life
lifetime
liga
ligan
light
lihat
like
liko
likok
likot
lil
lima
lime
limit
limo
limong
lincah
lincoln
lindo
line
linear
linegrey
lines
linge
lingka
lingkajih
lingkungan
lingua
linguist
linguistic
linguistics
linguistik
link
linkin
links
linot
lintaih
lintang
linteue
linteueng
linteung
linto
linung
linux
lipah
lipat
lipetsk
liputan
lisbon
lise
lisensi
lissabon
list
listclass
listed
listn
listnstyle
listpadding
lists
liststyle
literature
lithuania
little
liu
live
liverpool
living
ll
lm
lo
load
loba
local
localisation
location
loei
logo
logogram
loire
loka
lokal
lokasi
lom
lombok
lon
london
long
longispinis
longkib
loning
look
looks
lop
lorem
los
lot
louang
louis
louti
lovato
love
loy
loyang
lsinki
lt
ltskog
lu
lua
luah
luang
luar
luas
lubnan
lubo
lubok
lubuk
lue
lueng
lues
lugat
lugo
luho
luka
lukluk
lukman
lukse
lulo
lumat
lumbo
lumpat
lumpur
lumut
lunce
lungke
lungkie
luntie
luqman
lurus
lusignan
lut
lutan
luth
lutjanus
luwa
luwah
luwahjih
luwaih
luwaihjih
ly
lyngstad
m
ma
maa
macam
macan
macau
madagaskar
madaniyah
madat
made
madeuhab
madi
madika
madinah
madinatuddiniyah
madrasah
madrid
madum
madura
madzeuhab
madzhab
mae
maf
magadan
maghreb
maghribi
magic
magna
mague
magway
maha
mahadi
mahal
maharaja
mahasiswa
mahathir
mahkamah
mahmud
mahseer
mai
main
maine
maintain
maize
maizena
maja
majapahit
majelis
majemuk
majeulih
maju
mak
maka
makajih
makam
makanan
makanrushi
makassar
make
maken
makes
makheuluk
makhluk
making
makkah
makkiyah
maklumat
makmu
makmur
makna
maktab
maktoum
makuta
mal
malabaricus
maladewa
malahayati
malai
malaikat
malaka
malam
malawi
malay
malaya
malayo
malaysia
malcolm
maldives
male
malee
malem
malgrat
mali
malik
maliki
malikiy
malikussale
malikussaleh
mall
malo
malopolska
malta
maluku
mama
mamalia
mamas
mame
mameh
mamlakah
mamluk
mammals
mamplam
mampre
mampree
man
mana
manado
manaf
manami
manasuka
mancang
manchu
manchuria
mandalay
mandarin
mandatory
mandiraja
mando
mandum
mane
manfa
manga
mangat
manggie
mangifera
mangkat
mangki
mango
mangystau
manila
manis
manjang
mannoia
mannyang
mano
manoe
manok
manokwari
manosia
mansur
mante
manteng
manto
mantong
manual
manually
manuscripts
manusia
manusiya
manuskrip
many
manyak
manyang
manyangjih
manye
map
mapesa
maplandia
maps
maputo
mar
marc
march
marco
marconi
mare
maret
margin
marhaban
mari
maria
marie
marino
marit
marjorie
mark
markaz
marked
marks
markup
marmara
maroko
marrakech
marrakesh
mars
marsha
marshall
marsose
martin
maru
marumo
mary
maryam
marzuki
mas
masa
masah
masak
masalah
masam
masbate
mase
masehi
masen
maseng
maseuhi
maseukape
masih
masjid
masjidil
maskapai
massa
master
masuk
masyarakat
mat
mata
mataie
matan
matang
mataram
matauroe
match
matches
mate
mathi
mato
matsuo
matsuyama
matt
matter
matthew
matua
maturidi
maturidiyah
mau
mauritania
max
may
maya
mayang
maydis
mayjen
mayor
mays
mazeuhab
mb
mbakhu
mbang
mbelang
mber
mbulan
mburg
mccartney
mccawley
mcclelland
mcgraw
mclynn
me
means
mecca
med
medan
medhu
media
mediawiki
medina
mediterania
mediterranea
mee
megawati
mei
mekah
mekar
mekkah
meksiko
melaka
melalui
melanesia
melawan
melayu
melayuonline
melihat
melintang
melissa
meluem
memang
membangun
memberikan
membuat
memenuhi
memerlukan
memey
memiliki
memorial
memperlihatkan
memphis
memutuskan
menambahkan
menampilkan
menan
menciptakan
mendapat
mengambil
mengembalikan
mengenai
mengganti
menggantikan
menggunakan
menghapus
menghasilkan
menginformasikan
mengingatkan
mengisi
mengurangi
meninggai
meninggal
menjadi
menon
mentawai
menteri
menurut
menyampaikan
menyo
menyusun
merah
merbo
mercator
mercusuar
merdeka
mereka
meriah
merra
merupa
merupakan
mesidah
mesir
mesjid
mesofil
mesopotamia
message
meta
metal
mete
meter
meteumeung
metric
metropolitan
meu
meuagama
meuakhe
meuakibat
meuaneuk
meuapuy
meuareuti
meuasai
meuasoe
meuato
meubaca
meubacut
meubagoe
meubah
meubahgia
meubahsa
meubak
meubale
meubande
meubanja
meubansa
meubaro
meubatah
meubataih
meube
meubentuk
meubeudoh
meubeue
meubeulanja
meubeunteue
meubeunteueng
meubida
meubileue
meubinte
meubloe
meubri
meubuju
meubuke
meubule
meubungong
meuca
meucakarat
meucat
meucatat
meucawoe
meuce
meuceu
meuceue
meuceuhu
meuchuhu
meucok
meucre
meucurak
meuda
meudagang
meudang
meudarah
meude
meudeuhab
meudeungo
meudo
meudong
meudue
meuduko
meue
meugabo
meugah
meugaki
meugang
meugantoe
meugantung
meugit
meugoe
meugrak
meugreb
meuguna
meugunong
meuguro
meuh
meuhad
meuhai
meuhalak
meuhareukat
meuhareutoe
meuhase
meuhat
meuheut
meuhi
meuhie
meuhubo
meuhubong
meuih
meuiko
meuiman
meujaga
meujak
meujama
meujampu
meujan
meujangeun
meujangeunasai
meujanji
meujaya
meujumeulah
meukah
meukalon
meukarat
meukareuna
meukat
meukawan
meukawe
meukawen
meuke
meukek
meukeu
meukeubo
meukeue
meukeujadian
meukeumang
meukeumat
meukeunong
meukeurija
meukeusud
meukeusudjih
meukhanduri
meukheuluk
meukhianat
meukkah
meukle
meuko
meukro
meukureue
meukuro
meukuseud
meukusud
meukuta
meukuwasa
meula
meulabo
meulaboh
meulae
meulagu
meulahe
meulake
meulao
meulatang
meulawan
meulayeue
meulayo
meulayu
meule
meuligoe
meulindo
meulingge
meulingka
meulingkeue
meulinteung
meuluwah
meuma
meumacam
meumakna
meumuso
meunan
meunang
meunankeuh
meunara
meunasah
meunatang
meune
meuneu
meuneugoe
meuneukat
meuneumat
meung
meungandung
meungui
meuniaga
meunikah
meuninggai
meunje
meuntro
meuntroe
meununto
meununtut
meunuro
meunurot
meunye
meunyeurah
meunyo
meunyoe
meunyum
meupadang
meupadum
meupakat
meupake
meupangkat
meupat
meupawo
meupeungaro
meupho
meupisah
meuplah
meuprang
meupulitek
meupulo
meupusat
meuputa
meurah
meurak
meurakan
meuraksa
meurame
meuramie
meurande
meurandeh
meurante
meurasa
meurata
meurde
meurdeka
meureubo
meureudu
meureuho
meureukaih
meureumpo
meureumpok
meureunoe
meureuto
meuri
meuria
meuriam
meuribe
meurimueng
meurinya
meuriwang
meuro
meurumpo
meurumpok
meurunoe
meurupa
meurupah
meusabab
meusaban
meusaboh
meusaho
meusajan
meusalju
meusambo
meusampoe
meusaneut
meusangko
meusapat
meuse
meusep
meuseubab
meuseubo
meuseudeukah
meuseujarah
meuseujid
meuseukat
meuseuki
meuseulise
meuseuneulheuh
meuseunipat
meuseunjata
meuseuraya
meuseureuta
meusidroe
meusifeue
meusigo
meusikula
meusikutu
meusipreue
meusipreuek
meusitre
meusjid
meusuci
meusuebab
meusurat
meususo
meususon
meusye
meusyeuhu
meutamah
meutanggo
meutapi
meutare
meuteume
meuteumeung
meuteumpat
meuteunte
meuteurimo
meutheun
meutho
meutia
meutimoh
meutingkat
meuto
meutuah
meutuboeh
meutugaih
meutujuan
meutuka
meutule
meutume
meutumpo
meututo
meutuwah
meuubah
meuude
meuuke
meuulang
meuumu
meuwareuna
meuwate
meuyub
meuyum
meuyup
meuzina
mexico
mg
mgeuh
mi
mia
miao
michael
microdon
microformat
microformats
microsoft
microsystem
mid
midan
middle
middot
mideue
mideun
mie
miet
might
mihrab
mike
mikhail
miki
miknas
miko
mikronesia
mil
mila
miliar
milite
militer
milton
milyar
mim
mimbar
min
mina
minah
minang
minangkabau
minas
mine
ming
minggu
minh
minim
minimum
minin
minister
minnesota
mintaqah
minun
minyak
minyeuk
miqot
mirah
mirahpati
mirat
misalnya
misamis
miseu
miseue
miseuejih
miseujih
mishima
misi
miss
missing
mission
mississippi
mita
mitigasi
miu
miyagi
miyazaki
miyub
miyup
mj
mjih
mk
ml
mm
mneuh
mnicu
mno
mo
mobil
mobile
moc
mode
model
moderen
modern
mohamed
mohammad
mohammed
moharriadi
mohd
moldova
mollit
molo
mon
monako
monarki
mongol
mongolia
monitoring
monologue
monopoli
montasik
monte
monument
moor
moore
mordovia
more
moreno
mori
morocco
morrison
morroch
mort
moschee
moskow
mosque
most
mother
moto
mou
move
moved
movie
moz
mozambik
mp
mpd
mpu
mr
ms
mtskheta
mtv
mu
muakkadah
muamalah
muammar
muang
muangthai
muara
mubagoe
mubida
mubtadin
mubuet
mubungong
muda
mudah
mudawali
mude
mudi
muen
mufakat
muge
mughal
mughayat
mugo
muhadharah
muhafazah
muhafazhah
muhajirin
muhammad
muharram
mujadid
mujahidin
muka
mukaddimah
mukarramah
mukdahan
mukhalafatuhu
mukim
mukmin
muko
mukti
mul
mula
mulai
mulayi
muli
mulia
mulie
mulieng
mulo
multimedia
multiple
mumacam
mumat
mumbai
munafe
munakahat
munawwarah
muncul
mundo
mungkar
mungke
mungken
mungkin
mungkur
munich
municipality
munisipalitas
muntah
muprang
murah
mures
mureu
murid
muridun
murni
muro
murong
murrakush
murrakusy
murtad
musa
musafir
musang
musara
muse
musem
museum
musibah
music
musik
musim
musium
musle
muslim
muslimin
muslims
muso
must
mustafa
musyawarah
musyre
musyrikin
mutakalimun
mutakallimun
mutasyabihat
muththalib
mutia
mutiara
mutlak
muwareuna
muzakir
my
myanmar
myers
n
na
nabawi
nabi
nacit
nad
nafakah
nafsu
naga
nagan
nagano
nagasaki
naggroe
nagoya
nah
naha
nahl
nahu
nahwu
najah
najih
nak
nakeu
nakeuh
nakhon
nakueh
nale
naleue
naleueng
naleung
nam
nama
namanya
name
named
names
namespace
namespaces
namgyal
namibia
namie
namplo
namtha
namun
nan
nancowry
nang
nangeuh
nanggro
nanggroe
nanggroejih
nangroe
nanjih
nanjing
nap
napo
napole
napoli
nara
narathiwat
narit
narita
naru
naryn
nasa
nasab
nascar
nase
naseukah
nasi
nasihat
nasional
nasionalisme
naskah
naskahnyan
nasrani
nat
natal
nation
national
nations
natural
nauru
navbar
navbox
navboxes
navigasi
navigation
navigational
nawawi
nayok
naypyidaw
nazar
naziritor
ncavo
nchen
ncia
nd
nda
ndatu
ndo
ndum
ne
neamt
necessary
nederlands
nederlandsch
need
needed
needs
negara
negeri
negros
nekeuh
nelson
nements
neolissochilus
neolithik
nepal
ner
nessen
nest
nested
nesting
net
netherlands
netral
network
neu
neuandam
neuato
neuba
neubanci
neubeue
neubeuet
neubo
neubri
neubue
neubuet
neubut
neucalitra
neucok
neudeungo
neudue
neuduek
neuduko
neugalak
neugara
neugisa
neuh
neuheun
neuhijrah
neuhnyan
neuhubong
neuingat
neujaga
neujak
neujamin
neujo
neuk
neukalo
neukalon
neukeubah
neukeurija
neukheun
neukire
neukuwasa
neulake
neulangkah
neulop
neumarit
neumat
neume
neumeudeungo
neumeujanji
neumeurunoe
neumeusifeut
neuneuk
neungui
neunguy
neupare
neupeuanco
neupeubue
neupeudong
neupeugah
neupeuget
neupeugo
neupeugot
neupeuhah
neupeuingat
neupeujeue
neupeujeuet
neupeujeut
neupeumeu
neupeuna
neupeunan
neupeunyata
neupeupho
neupeurunoe
neupeutamo
neupeuteunte
neupeutrang
neupeutro
neupile
neupimpe
neupinah
neupiyo
neuplah
neupubuet
neupuga
neupulang
neuraka
neuriwang
neuriwayat
neuro
neusatoh
neuseu
neuseubo
neusuro
neutamah
neutamong
neute
neuteugah
neuteumanyo
neuteume
neuteumule
neuteupeu
neuteupeue
neuteupue
neuteurimo
neutham
neutule
neutupeue
neuubah
neuujoe
neuwafeue
neuwe
neuweue
neuweuek
neuwoe
neuyakin
neuyue
never
nevis
new
newcomer
news
next
ng
nga
ngan
ngat
ngen
ngeun
ngjih
ngke
ngn
ngo
ngoen
ngom
ngon
ngui
nguy
nguyen
ngzu
nh
nha
nhat
nhk
nhon
ni
nia
niaga
nias
niba
nibak
nibaknyan
nibo
nibong
nica
nicah
niccolo
nicholas
nicosia
nidhamul
nie
nieh
niet
nigella
niger
nigeria
night
nigritus
niigata
nikah
nikaragua
nikkan
nikmat
nikobar
nikosia
nikozja
nil
nilai
nilam
ningxia
ninh
nipah
nippon
nire
nis
nisa
nisam
nisan
nisi
nistan
nitrogen
nizhny
nja
njih
nk
nl
nmark
nn
nnnnnn
nnyang
no
nocat
noe
noeditsection
noemi
noh
nokia
nol
nolan
nomad
nomor
non
none
nong
nonthaburi
norfolk
normally
norte
north
northern
northwest
norway
norwe
norwegia
nosar
nostrud
not
notation
note
notice
notoc
notre
nova
novel
november
novgorod
novosibirsk
now
nseumah
nsi
nsiklope
nsil
nster
ntah
ntahan
nte
nth
ntv
nu
nueva
nuh
null
nulla
number
numbered
numbers
numbo
nunang
nur
nuraka
nurhaliza
nuruddin
nurul
nurussalam
nusa
nusantara
nuwi
nya
nyak
nyakni
nyan
nyang
nyangkeuh
nyankeuh
nyata
nyataaken
nyaw
nyawo
nyawong
nyo
nyoe
nyoekeuh
nyong
nyum
nyumjih
o
oara
oasis
oaxaca
oblast
ocasio
occaecat
occidental
occitan
ocean
october
odd
oddstyle
of
off
office
officia
official
oficial
often
oghuz
ografi
oguz
oh
oil
ois
oita
okayama
okhotsk
okinawa
okite
okseø
okseøerne
oktober
olah
old
oleh
olimpiade
oman
omar
omitted
omsk
on
once
one
onekotan
ong
online
only
ont
ontario
oostindische
open
opened
opens
openstreetmap
opera
operasi
operating
oposisi
opsional
option
optional
optionally
or
ora
orang
order
ordo
orenburg
org
organik
organisasi
organisme
oriental
orientation
original
orkhon
orozco
orthodox
oryol
os
osaka
ose
oseania
oseuha
osh
oslo
ossetia
osteochilus
ostrinia
ot
other
others
otherwise
othman
otomatis
otonom
otonomi
otoritas
ottawa
ou
oude
out
outer
output
ov
over
overheid
overridden
overrides
own
oxford
p
pa
pabre
pacific
pada
padahai
padang
padat
padding
pade
padi
padlock
padri
paduka
padum
page
pagename
pages
pagoda
pagodinho
pah
pahang
pahla
pahlawan
paih
pajak
pajan
pajar
pajo
pajoh
pakan
pakat
pake
pakiban
pakistan
pako
pakon
pakpak
pakri
pakriban
paksa
pakta
paku
pala
palace
palais
palang
palau
pale
palem
palembang
paleng
paleolithik
palermo
palestina
palestine
paling
palo
palsu
pamare
pamiri
panah
panama
pancong
pancu
pandak
pandan
pandangan
pande
pandrah
pane
panel
paneuk
pang
panga
pangan
pange
pangeran
pangge
panggong
pangkai
pangkal
pangkat
panglima
pango
pangsa
pangwa
panitia
panjang
panji
panjoe
pannyang
panorama
pantan
pantang
pante
pantee
panto
panton
panyang
panyangjih
papers
papeue
papeuen
papeun
papua
par
para
paraguay
paramaribo
parameter
parameters
paramushir
parang
parasit
pare
parent
pari
pariatur
paris
parisi
pariwisata
park
parlemen
paroe
parole
parsi
part
partai
particular
parts
paru
parupeneus
pas
pasai
pasang
pasangan
pasar
pasaran
pasca
pase
paseh
pasha
pasi
pasie
pasifik
pasir
pass
passive
pasti
pasukan
pat
patahan
pate
patek
pathom
pathum
pati
pato
patra
patrick
pattani
pauh
paul
pauline
paulinho
paulista
paulo
paulus
paus
pautan
pavlodar
pawang
pawo
pawoh
paya
payah
paye
payo
payong
payung
pbb
pdb
pdf
pe
pea
peace
pedro
peel
pegasing
pegunungan
pekan
pekanbaru
pekon
pelabuhan
pelajar
pelle
pemakaian
pematang
pembalap
pembangunan
pembicaraan
pembinaan
pembuka
pembuluh
pembungkus
pemerintah
pemerintahan
pemilu
pemuda
pemuka
penanda
penang
penanggalan
penanggulangan
pendidikan
penduduk
penelitian
penerbangan
penerbit
peng
pengalihan
pengaruh
pengawasan
pengembangan
pengembara
pengetahuan
penggerek
pengguna
penggunaan
penggunaannya
pengurus
pengurutan
penh
penn
penosan
penting
penuh
penulis
penutur
penyaket
penyanyi
penyiaran
penza
people
pepanji
pepanyi
peparik
per
peradaban
perairan
perak
perancis
perang
perapat
percentage
perdamaian
perdana
perempuan
performance
perguruan
perhatian
perhitungan
period
periode
periophthalmus
peristiwa
perjuangan
perkara
perkasa
perkebunan
perkiraan
perlak
perlu
perm
permaisuri
permata
permintaan
permulaan
pernah
persekutuan
persero
persia
person
personal
pertama
pertamina
pertanian
pertuan
pertumbuhan
peru
perubahan
perusahaan
perwakilan
perya
pesam
pesantren
peseluk
pesisir
peso
peta
petaling
petarukan
pete
peter
peters
petersburg
petronas
petuh
peu
peuanco
peuangke
peubangke
peubateue
peubeudoh
peubida
peubileue
peubinasa
peubloe
peubue
peubuet
peucaya
peucheue
peucut
peudada
peudana
peudawa
peudaya
peudeuh
peudo
peudong
peudue
peue
peuet
peugah
peuge
peuget
peugeut
peuglah
peugle
peugo
peugot
peuguna
peuhah
peuhana
peuhanco
peuhase
peuhubo
peuingat
peuja
peujabat
peujak
peujeue
peujeuet
peujeulaih
peujeut
peuji
peujuang
peujuangan
peukakaih
peukan
peukara
peukateue
peukateuen
peukayan
peukeumang
peulabo
peulahra
peulajaran
peulakan
peulando
peulawanan
peulawi
peuleumah
peuleupeuk
peulhara
peulimbang
peulindo
peulisi
peulitek
peulumat
peuluwah
peuluweue
peumandangan
peumate
peumere
peumerintah
peumeukle
peumeurde
peumeure
peumeurentah
peumeurentahan
peumeurintah
peumeurintahan
peumimpe
peumimpin
peumurah
peuna
peunadat
peunajo
peunajoh
peunalom
peunan
peunaron
peunasihat
peunasoe
peunawo
peundang
peundapat
peundide
peundidikan
peundita
peunegah
peuneudong
peuneugah
peuneugo
peuneugot
peuneujeue
peuneujeuet
peuneujeut
peuneulah
peuneulitian
peuneuyum
peungalaman
peungaro
peungeuh
peunile
peuniyo
peunjajah
peunjara
peuno
peunoh
peunte
peunteng
peunula
peunuman
peunuto
peunutoh
peunyake
peunyaket
peunyata
peupaih
peupinah
peupisah
peuraho
peurancih
peurancis
peurangeui
peuratah
peurayeuk
peurdana
peure
peurentah
peureude
peureulak
peureule
peureulee
peureumeuen
peureunah
peureute
peuringgi
peurintah
peuristiwa
peurlak
peurtahanan
peurte
peurumoh
peurumping
peurunoe
peurusahaan
peusake
peusan
peusangan
peusapat
peusawat
peuseulamat
peuseunang
peusie
peusipe
peut
peuta
peutako
peutamo
peutamong
peuteubie
peuteubiet
peuteunte
peuteutap
peutheue
peutheun
peutimang
peutjut
peutrang
peutro
peutubiet
peutuge
peutunyok
peuturi
peyasan
ph
pham
phan
phang
phanom
phatthalung
phayao
phet
phetchabun
phetchaburi
phichit
phil
philippe
philippine
phillip
phine
phitsanulok
phnom
pho
phoen
phoenicia
phon
phongsali
php
phra
phrae
phrase
phu
phui
phuket
phuy
pi
piala
piano
piasan
picture
pidana
pidie
piet
pieter
pigmen
pih
pihak
pike
pile
pilem
pilihan
pilok
pimpe
pimpin
pimpinan
pinah
pinang
pineung
pingan
pintas
pinto
pintu
pinyin
pipa
pipefishes
pirak
piramid
piranshahr
pires
pisang
pisika
pius
piyeueng
piyo
pj
pjih
pka
pks
pl
place
placed
places
plah
plain
plan
plane
plant
plantae
plantilla
plastik
plaza
please
pleiku
pleung
plie
plo
ploh
plotarea
plotdata
plueng
plus
png
pnyan
po
poaceae
pocut
poemusic
poeta
poh
pohroh
pokhisen
pokhkisen
pokok
pola
polandia
pole
poli
polimer
polinesia
polite
politeknik
politik
politikus
polo
polyphekadion
pondok
pontevedra
pontianak
pop
populasi
populer
porfirio
poroh
port
portal
porto
portrait
portugal
portuge
pos
posisi
possible
post
posteriori
pot
potala
potallah
potd
potensial
poteu
pour
power
pp
pr
pra
prachuap
pradesh
prakan
pramuka
pranala
prancih
prancis
prang
praseujarah
pre
preceded
predefinic
predloga
predloz
prefektur
preferably
prefix
prefixed
preh
preload
premier
preprocessing
preside
presiden
presidency
president
presidential
presley
press
prevent
prevents
pribadi
prima
primata
prime
primorsky
princess
princeton
prix
problem
problems
prodi
produced
produk
produksi
prof
profesor
profil
profile
program
proident
project
projet
promised
proper
properly
prophet
propinsi
proportional
proposal
prosea
proses
prote
protected
protection
protein
protestan
proto
provide
provided
provides
province
provinsi
proye
proyek
prue
pruet
ps
psettodes
pskov
pt
pterocarpus
pu
puasa
public
publications
publik
publique
published
publisher
pubue
pubuet
puco
pucok
pudong
pue
puga
pujangga
pujoe
pukat
puklat
pukok
pula
pulang
pulau
pule
puli
pulijudam
pulite
pulitek
pulo
pulonas
puluhan
punah
punca
puncak
pungo
punoh
punteuet
punti
puntius
punto
puntong
pupanji
pupo
pupu
pupuk
pura
purba
purcell
purge
puri
purple
purpose
purposes
pus
pusaka
pusat
puso
pusong
pustaka
puta
pute
puteh
putih
putin
puto
putra
putrajaya
putro
putroe
putu
puuk
px
pyeongyang
pyongan
q
qadar
qadha
qadhi
qadirun
qadr
qaf
qahirah
qalam
qamar
qanun
qari
qashash
qasim
qatar
qiblat
qidam
qin
qing
qinghai
qiyamah
qiyamuhu
qs
qu
qua
quang
qub
quba
qudrah
que
quechua
queen
queensland
questions
qui
quick
quintanilla
quis
qul
quoc
qur
qura
quraisy
quran
qure
quy
r
ra
rab
rabat
rabi
rabithah
rabiul
rabo
rabu
rach
rachmat
racing
raden
radiatus
raf
rafael
rafah
raffles
rafly
raga
rah
rahim
rahimi
rahmah
rahman
rahmani
rahmat
rahsia
rai
raikoke
rain
raj
raja
rajab
rajasthan
rajawali
raka
rakan
rakhine
rakjat
rakyat
ralph
ramadhan
ramah
ramasamy
ramasan
rambayan
rambeue
rambideuen
rambo
rambong
rambot
rambung
rame
ramee
rampak
ran
rancangan
rang
range
rangkaian
rangkang
ranh
raniry
ranong
rantau
rante
ranto
ranub
rap
rapa
rapat
rapper
ras
rasa
raseuki
raseumi
rashid
rasian
rasul
rasullalahi
rasulullah
rasyid
rasyidin
rat
rata
ratchaburi
ratchasima
ratchathani
rate
rather
ratu
raudhatul
rauh
rauner
raw
rawa
ray
raya
raye
rayek
rayeu
rayeue
rayeuek
rayeuk
raymond
raynald
rayong
rbaijan
rbia
rd
re
read
reader
readers
ready
reagan
reaksi
real
reason
reasons
receive
recife
reco
recommended
reconstruction
record
red
redelong
redirect
ree
reference
references
referensi
reformasi
region
regional
regnum
regular
reid
reine
reje
rektor
related
relating
relations
relatively
relief
religious
remain
remember
remove
removed
rencana
rendah
replace
report
reprehenderit
repu
republic
republik
republika
require
required
requires
res
research
resmi
resources
respectively
rest
result
results
ret
retrieved
return
returns
reu
reuba
reubana
reubo
reuda
reudeue
reudeuep
reudeup
reuhat
reuleuet
reuleung
reuleut
reuling
reuloh
reumo
reumpah
reuna
reuncana
reung
reunion
reuntang
reusam
reut
reutoh
reversed
review
revolusi
revolution
rez
rgb
rgu
rhe
rheng
rhet
rheue
rheum
rhie
rho
ri
ria
riau
riayat
riba
ribbonized
ribe
ribee
rich
richard
richter
ricklefs
ride
rides
ridwan
rifah
rifqah
right
rights
rijang
rika
rikit
rimba
rime
rimue
rimueng
rinco
rindu
ring
rinon
rio
ripe
risalah
rise
riseh
riset
river
riwayat
riyadh
riyo
rizal
rj
rk
rkhangai
rm
rna
ro
road
robert
roberts
robots
rock
rod
rogaa
roger
rogers
roh
roi
rolling
rom
roma
roman
romanov
romawi
romblon
ronald
ronda
rookie
room
roosevelt
roots
ropa
ros
rosie
rossonoemi
rostov
rot
rote
roubaix
rouran
row
rows
royal
rp
rr
rrc
rs
ru
ruang
rubah
rube
rubek
rubiah
ruda
rudolf
rue
ruek
rueng
rugoe
ruhue
ruhul
ruhung
ruja
rukam
ruko
rukok
rukun
rules
rum
rumah
rumania
rumawi
rumen
rumi
rumo
rumoh
rumpe
rumpong
rumpue
rumpun
rumusan
runde
rundeng
runto
rupa
rupajih
rupia
rusa
rusia
rusip
ruslan
rusok
russia
ruweue
ruweueng
rvasi
rwanda
ry
ryazan
ryukyu
rze
s
sa
saat
saba
sabab
sabah
saban
sabang
sabaoh
sabe
sabee
sabi
sabil
sabilillah
sablon
sabo
saboeh
saboh
sadum
safiatuddin
saga
sagai
sagaing
sagay
sago
sagoe
sagu
sah
sahabat
sahaliyan
sahara
sahbat
sahe
saho
sains
saint
saipan
saitama
saja
sajadah
sajak
sajan
sajdah
saka
sake
saket
sakha
sakhalin
sakhalinsk
sakhon
sakon
saksi
sakti
sakura
sala
saladin
salafiyah
salah
salahuddin
salak
salang
salar
salat
salavan
sale
saleh
saleue
salib
salih
salim
salimiyah
sallalahu
salur
salvador
salyr
sam
sama
samad
samadua
samalanga
saman
samar
samara
samarah
samarinda
samarkand
samarqand
samatiga
sambo
same
sami
samoa
sampai
sampe
sampo
sampoe
sampoiniet
samsul
samsung
samudera
samudra
samut
samuti
san
sandbox
sanders
sane
sang
sangat
sanggeue
sanggo
sanggop
sanggup
sangka
sangkar
sangkat
sangkira
sango
santa
santana
santeue
santeut
santiago
sao
sapek
sapeue
sapporo
sapue
saqiyah
sara
saraburi
sarah
sarajevo
sarakata
sarakham
sarana
saratov
sarawak
sare
sareng
sari
saril
saripati
sariwon
sarjana
sarok
sarta
sasakura
sastera
sastra
sastroamidjojo
sate
satelit
sateulit
sativa
sato
satoh
satu
satun
saturday
saud
saudi
sava
savannakhet
saw
sawa
sawah
sawan
sawang
saweub
saweue
saweueb
sawu
say
saya
sayang
sayatan
sayeung
sayonara
sayur
sayyid
sayyidina
sc
scad
scalemajor
scaptodrosophila
scaptomyza
schabloun
schils
schleswig
school
schumacher
science
scott
screen
script
sd
se
sea
sean
search
searchscope
sebab
sebagai
sebagaimana
sebago
sebagoe
sebastian
sebelah
sebelum
seberang
sebuah
sebut
secara
second
section
sections
secuiesc
secunda
sed
sedangkan
sederhana
sedia
see
seed
segohlom
sehingga
seine
seiran
sejahtera
sejak
sejarah
sejuk
sekaligus
sekarang
sekejap
sekitar
sekolah
sekretaris
sel
selama
selamat
selangor
selar
selat
selatan
selected
selena
selenge
selor
seluruh
semadam
semarang
sembuang
semenanjung
semi
sempre
sempurna
semua
senator
sendai
sendiri
seni
senjata
senna
sensus
sentang
sentosa
sentuh
seorang
seoul
sep
sepakat
sepang
separate
separatis
separatisme
separator
seperti
september
septembre
serambi
serang
serbajadi
serbia
serdang
seri
seribu
serie
series
serigala
serikat
serranidae
serta
seruway
services
sesuai
set
setelah
setia
setiap
sets
setting
settings
settlements
setuju
setup
seu
seubab
seubabnyan
seubago
seubagoe
seubeuto
seubeutoijih
seubo
seubun
seucara
seudang
seudati
seudeukah
seue
seugohlom
seugolom
seugolomjih
seugolomnyan
seuha
seuhingga
seujarah
seujati
seukanda
seuke
seula
seulae
seulako
seulaku
seulam
seulamat
seulandia
seulanga
seulat
seulatan
seulawah
seuleumak
seuleusoe
seulimeum
seulimum
seulingka
seulise
seulop
seumah
seumangat
seumantok
seumanyang
seumatang
seumate
seumaw
seumayang
seumbahyang
seumenanjo
seumenanjung
seumentara
seumeubeue
seumeubeuet
seumeubeut
seumeunanjo
seumeunanjung
seumeungeut
seumeureung
seumideuen
seumike
seumira
seumot
seumupoh
seumurat
seunagan
seunaleuek
seunamaki
seunaman
seunambo
seunang
seuneubeuet
seuneubo
seuneubok
seuneulheue
seuneulheueh
seuneungui
seungaja
seungap
seunipat
seunjata
seuno
seunong
seuntang
seunuddon
seunukat
seunurat
seunyata
seupanyo
seupe
seupeng
seupeung
seupo
seurang
seurangan
seurapo
seureng
seureuta
seuribe
seuride
seurukan
seurune
seusat
seutasio
seutia
seutot
seutui
several
severin
sevilla
sexmaculata
sexo
sgm
sh
sha
shaanxi
shad
shadiq
shafar
shaffat
shah
shahab
shalahuddin
shalat
shaleh
shamadiyah
shan
shandong
shanghai
shania
shanxi
sharaf
share
shaum
shawi
shawirah
she
shenyang
shi
shiashkotan
shiddiq
shift
shiga
shijiazhuang
shikoku
shikotan
shimane
shinjuku
shizuoka
shogakkukan
short
should
shouldn
show
shown
shows
shuhuf
shumshu
shumushu
si
sia
sialang
sialit
siam
siap
sibagoe
sibak
sibansa
sibaranggasoe
siberia
sibeunajih
sibilla
sibiu
siblah
siblaih
sibo
sibre
sibuleue
sica
siceue
sichuan
sidadu
side
sident
sidodadi
sidom
sidro
sidroe
sie
siem
sierra
sies
sifeue
sifeut
sig
sigala
siganus
sigli
sigo
sigoe
sigohlom
sigolom
sigom
sigra
sigulai
sijeune
sijeuneh
sikap
sikhan
sikin
siklus
sikula
sikureue
sikureueng
sikutu
sila
silih
silingka
silingkajih
silsilah
siluweue
simacam
simak
simbol
simeulue
simeutaran
similar
siminggu
simleului
simon
simpan
simpang
simple
simplicity
simply
simpo
simpur
sinabang
sinai
sinan
sinankeuh
sinar
sinbad
since
sinengoh
sinetron
sing
singapore
singapura
singgah
singkat
singke
singkil
singkohor
single
singoh
sinja
sinoe
sint
sintaks
sinuiju
sipak
sipakat
sipanyang
sipat
sipeue
sipheue
sipheuet
sipil
siplo
sipot
siprage
siprus
siquijor
sir
sira
siradjuddin
sirajuddin
sirajul
sire
sireuto
siribe
siro
siron
sirosis
sirul
sisat
sise
sistem
sister
sit
site
siteungo
sitho
siti
situih
situs
siulah
siuroe
siwah
siya
siyasah
siyasat
size
sjabloon
sk
skabelon
skala
skandinavia
skema
skopje
sl
slamet
slavia
slims
slovenia
slowakia
sm
small
smartphone
smilax
smith
smolensk
smong
snouck
snuggly
so
social
society
soe
soeharto
soekarno
soft
sogo
soh
sol
solanum
solo
solomon
solor
somalia
some
somecat
something
son
song
songkhla
songkhram
sonnerati
sonny
sono
sonora
sopan
sopmod
sopo
sort
sos
sosial
sosialis
sot
soundtrack
sous
south
southeast
southern
soviet
sovye
sp
space
spaces
span
spanyol
spe
speakers
special
species
specific
specified
specifies
specify
specifying
specimen
speciosa
spesies
spesifik
sphyraena
sports
spotting
spp
spratly
square
sr
srang
sri
srilanka
srinde
sriwijaya
srpska
ssp
st
stabil
stable
stadio
stadion
staf
stain
stalin
stamford
standalone
standar
standard
standardization
stanford
stanton
star
start
state
staten
states
statistik
status
stavropol
stay
sten
stepa
stepantsminda
stephen
steve
steven
stevens
stigma
still
stina
stockholm
stone
stonia
stop
story
str
strait
strange
strategi
stream
street
striata
string
stripes
striping
struktur
struktural
studi
studies
studio
study
sturm
style
styles
su
suak
suara
suasana
suatu
sub
subang
subfamili
subgroup
subgroups
subhalaman
subje
subject
subjek
suboh
subpage
subpages
subst
subtemplat
subtropis
subulussalam
suceava
such
suci
sudah
sudan
sudangkan
sue
suez
suffice
suffix
sufi
sufyan
sugohlom
suhu
suka
sukajaya
sukakarya
sukamakmur
sukarame
suke
sukee
sukhothai
suklat
suko
sukon
suku
sul
sulaiman
sulawe
sulawesi
sule
suleras
sulla
sulo
sultan
sulu
sum
sumatera
sumatra
sumatraensis
sumba
sumbangan
sumbawa
sumber
sumboe
sumedang
sumida
summary
summer
summit
sumpah
sumur
sun
sunah
sunat
sunda
sundak
sung
sungai
sunggo
sunnah
sunnat
sunni
sunniy
sunniyah
sunrisesunset
sunt
sunti
supaya
super
suphanburi
supo
supplied
supplying
support
supporting
supports
suppression
sur
sura
surabaya
surah
surat
sure
suria
suriah
surigao
surin
suriname
suriyah
surname
suro
survey
sus
suso
susu
sutra
sutradara
suum
suvarnabhumi
suwah
suwak
suzuki
sv
svalbard
sverdlovsk
svg
swallow
swamp
swap
swe
swedia
sweets
swieten
swiss
swt
sy
sya
syafari
syafi
syah
syahbanda
syahid
syahir
syaikh
syaitan
syam
syams
syamsuar
syamtalira
syara
syarah
syarardah
syarat
syari
syariah
syarif
syarikat
syarqiyah
syarqiyyah
syarri
syarwan
syawal
syawiyah
syawwal
sye
syedara
syeikh
syekh
syeuruga
syi
syiah
syifa
syit
syits
sykes
symbian
syn
syntax
syria
system
syu
syuhada
syura
syuruga
szablon
t
ta
taal
tabaca
tabeue
tabi
table
tables
tabloe
tabo
tabuk
tacok
tadeungo
tadlah
tafilalt
tafsir
tag
taghabun
tags
tah
tahap
taher
tahrim
tahun
taiga
taim
taipei
taiwan
taj
tajaga
tajak
tajam
tajeuwid
tajhizi
tajik
tajikistan
tajwid
tak
takaatsur
takalo
takalon
take
takengon
takes
takeubi
takheue
takheun
tako
takson
taksonomi
taktik
talas
talcahuano
taleue
taleuek
tali
talk
talkpage
tallinn
talo
taloe
tam
tamado
tamadun
tamah
taman
tambahan
tambahkan
tambang
tambo
tambon
tambov
tameumat
tamiang
tamil
tamo
tamon
tamong
tamping
tampu
tampur
tamse
tan
tanah
tanaman
tanda
tandajaroe
tang
tangan
tangga
tanggai
tanggal
tanggay
tanggo
tangke
tangkueng
tangkulo
tangse
tani
taninthayi
tanjo
tanjong
tanjung
tano
tanoh
tanohjih
tanpa
tansift
tanyo
tanyoe
tanzania
taoyuan
tapajo
tapajoh
tapak
tapaktuan
tapanuli
tapasoe
tapate
tape
tapeugah
tapeulahra
tapeusapat
tapham
tapi
tapuasa
tapubue
tapula
taqrib
tarbiyah
tare
tareh
tareumpok
tari
tarian
tarikh
tariq
tarlac
tarnovo
tarok
tarum
tasawo
tasawuf
tase
tasek
taseumayang
taseure
tashkent
tashre
tasie
tasiek
tasik
tastrup
tasyuko
tatar
tatari
tatarstan
tateume
tatinggay
tatuleh
tatupeue
taturi
tau
taubah
taubat
taufik
tauhid
taunat
taurat
tautan
tawar
tawhid
tawi
taxa
taxobox
taxon
taxonomy
tayang
taylor
taywan
tazah
tbilisi
tbs
te
team
technical
technically
tecnolo
tecnologia
ted
teh
teknik
teknologi
teks
telaga
telah
telege
television
telong
teluk
tembok
temburong
tempat
templat
template
templatedata
templates
tempo
tempor
tenang
tenda
tenembak
tengah
tenggara
tenggulun
tengku
tengoh
tenis
tentang
tentara
teologi
teori
tepi
terakhir
terbesar
terbuka
terdaftar
terdiri
terengganu
teressa
terhadap
teritori
terjadi
terjemahan
terjemahannya
terjemahnya
terletak
term
termasuk
terminal
terminalia
ternate
terpadu
territories
territory
tersebut
terserang
tertentu
terusan
terutama
terutung
test
testing
tetap
tetapi
teu
teuba
teubagi
teubai
teubang
teube
teubee
teubie
teubiet
teudapeuta
teudo
teudong
teudue
teuduek
teue
teuga
teugah
teugajih
teuh
teuhah
teujadi
teujeumah
teuk
teuka
teukeubi
teukeudi
teukeujo
teukeuse
teukhe
teuku
teulah
teuleube
teuleue
teuma
teumado
teumadon
teumanyo
teume
teumeureuho
teumie
teumimbak
teumpat
teumpeun
teumule
teumuleh
teumurui
teunaga
teunague
teunaguen
teunamah
teunaman
teunamon
teuneugah
teuneungoh
teuneurang
teunggara
teungku
teungo
teungoh
teunimoh
teuninggai
teuningkat
teunom
teunong
teuntang
teunte
teuntra
teuntrageuh
teuntrajih
teunubo
teunule
teunuleh
teunulo
teupah
teupat
teupe
teupeu
teupeue
teupileh
teupin
teuplah
teupo
teupong
teurawe
teureubang
teurimong
teutap
teutapi
teutop
teutra
text
textcolor
texts
tgeuh
tgk
th
tha
thaha
thai
thailand
thalaq
thalib
thaliban
thalibin
thammarat
than
thanh
thani
thanjah
thank
that
thatcher
the
their
them
then
theodore
theory
thep
there
these
theun
they
thie
thiet
thimphu
thing
things
this
thn
tho
thoe
thoen
thom
thomas
thompson
thon
thong
those
though
three
through
thu
thua
thumb
thunnus
thuo
thuot
thursina
thus
ti
tian
tianjin
tiap
tiba
tibang
tibe
tiberia
tibet
tidak
tidung
tidy
tie
tiep
tiga
tige
tii
tiji
tika
tikeue
tiko
tikrit
till
tim
tima
timah
timang
timbak
time
timeaxis
times
timis
timoh
timon
timor
timphan
timplak
timu
timue
timur
tin
tina
tincu
tindakan
tinggai
tinggay
tinggi
tingkap
tingkat
tingkem
tingkeuem
tingkeum
tingo
tio
tiongkok
tipe
tire
tiro
tite
titek
titeue
tithuan
titi
titiwangsa
title
titlebar
titleclass
titlegroup
titlestyle
tivi
tjih
tjoet
tl
tmnr
tnam
tni
to
toc
tochigi
tocright
today
tode
toe
together
togo
toh
toha
tohoku
tok
tokoh
tokushima
tokyo
tom
tome
tomodachi
tompi
tomsk
ton
tong
tonga
tongkol
tongkolnya
tonkin
tony
too
tool
tooltip
top
topic
topik
toquinho
tor
torren
total
totaljih
tottori
tour
tourism
towards
tower
town
towns
townshend
toyama
tr
tra
trade
tradisi
tradisional
train
trang
trans
transcluding
transgenik
transliterasi
transparent
transport
transportasi
trat
travel
tre
treaty
tree
trep
treuk
treunggile
tri
tribunnews
trie
trieng
trienggade
trigona
tripa
tripoli
tro
troh
trok
tropenmuseum
tropika
tropis
trouper
true
trujillo
trumon
trump
trung
trust
tsamud
tsanawiyah
tsar
tsat
tsunami
tu
tua
tualang
tuan
tuanku
tubai
tubie
tubiet
tubo
tuboh
tue
tufah
tugaih
tugaihgeuh
tugu
tuha
tuhan
tujia
tujo
tujoh
tujuan
tujuh
tukang
tula
tulcea
tule
tulesan
tuleueng
tulisan
tulo
tumbuhan
tume
tumin
tumpi
tumpo
tun
tunang
tundo
tundra
tunggara
tungge
tungkeue
tungkie
tungko
tungkop
tungus
tunisia
tunisian
tunjak
tuno
tunong
tunyang
tupeue
tureuki
turi
turki
turkme
turkmen
turkmenistan
turnu
turo
turuki
tus
tusam
tuto
tutong
tutta
tutue
tutut
tuva
tuvalu
tuwan
tuwanku
tuwi
tuwo
tuy
tv
tver
twain
twitter
two
txantiloi
txt
type
types
typical
typically
tyumen
u
uap
ubah
ubak
ubat
ubay
ube
ubeuet
ubeut
ubi
ubiet
ubin
ubit
ubon
ud
udara
ude
udep
udeue
udeung
udmurt
udon
ue
uea
ueb
ueh
ufg
ufmg
ugama
uganda
uh
uhud
ui
uii
ujeue
ujeuen
uji
ujo
ujoe
ujong
ujung
uk
uke
ukeu
ukeue
ukheue
uko
ukraina
ul
ula
ulaanbaatar
ulaangom
ulah
ulama
ulan
ulang
ular
ulat
ule
ulee
uleh
uleue
uliastai
ulim
ullamco
ulo
ultimatum
ulu
ulue
ulum
um
uma
umang
umar
umat
umatgeuh
umayyad
umayyah
umm
ummat
ummi
ummu
ummul
umom
umomjih
umpama
umpung
umu
umue
umujih
umum
umumjih
umumnya
umur
un
unbar
uncollapsed
und
undang
undefined
under
understand
understands
une
unesco
uneun
unga
ungern
unggas
uni
unimal
uning
union
unit
united
units
univeresitas
universal
universidade
universita
universitaih
universitas
university
unless
unnamed
unoe
unported
unreferenced
unsur
unsyiah
unta
unto
untok
untuk
up
upah
upat
update
upright
ur
ural
uram
urat
urban
urdu
urdun
urea
ureue
ureueng
ureung
url
uro
uroe
uroebuleuen
urue
urueng
uruguay
urumqi
urup
urutan
us
usa
usage
usagi
usaha
usahakan
use
used
useful
user
userbox
username
users
uses
useuha
ushul
usi
usia
using
usitanyo
usman
ustadz
usual
usually
usulan
ut
utama
utang
utara
uteue
uteuen
uteun
uthai
uthuru
uto
utsman
utsmani
utsmaniyah
utsul
uttaradit
utue
utuh
uu
uul
uvs
uyghur
uyun
uzbe
uzbekistan
v
va
vale
valenciennes
valletta
valley
value
values
van
vandal
vandalisme
vang
vanuatu
varangia
variasi
varicella
varietas
variola
various
vaslui
vatikan
vcard
ve
veliko
velit
venezuela
veniam
vereenigde
verhandelingen
versi
version
vertical
very
vi
via
vickers
victoria
vida
vie
vientiane
vietnam
view
vii
viii
villa
villages
vincent
vinh
vini
vinicius
viola
virgin
virtual
virus
visi
visible
visit
visitors
visual
vita
vittatus
vivo
vladimir
vo
voc
voice
vol
volga
volgograd
volkenkunde
vologda
volume
voluptate
volusi
vom
von
voor
vorlage
voronezh
votre
voulez
vous
vowels
voyage
vs
vsgo
vu
vulkanik
vung
w
wa
wab
wadi
wafeue
wafeuet
wafeut
wah
wahab
wahdaniah
wahdaniyah
wahe
wahidigamba
wahyu
waido
waje
wakayama
wakeue
waki
wakie
wakil
wakkanai
wakte
waktu
wal
wales
wali
walid
walikota
walker
wallis
walt
walter
waly
wang
wangsa
wanita
want
war
warabo
wardighah
ware
wareuna
wareunajih
warga
warna
warner
warning
warsawa
wartawan
was
wasalam
wase
washington
wat
wate
watee
water
waterloo
way
wb
we
web
weber
webkit
website
weh
weimar
welcome
were
west
western
westminster
weu
weue
what
whatever
when
where
whether
which
while
white
whitley
who
whole
whose
why
wib
wick
wickiana
wide
width
widths
wie
wien
wih
wihni
wijck
wiki
wikidata
wikilink
wikilinks
wikimedia
wikipe
wikipedia
wikiproject
wikiquote
wikis
wilayah
wilayahjih
will
willem
william
williams
wilson
wilyah
windows
wis
wisata
wish
with
within
without
witir
woe
woman
wong
wonsan
woodard
word
wordpress
words
work
working
works
world
wort
would
woyla
wp
written
wrong
wu
wuhan
wujud
wustha
www
x
xfd
xi
xian
xianfan
xii
xiii
xilem
xining
xinjiang
xiongnu
xiv
xunhua
xv
xvi
xvii
xxiii
y
ya
yah
yahudi
yahya
yaitu
yakin
yakni
yakutia
yala
yamagata
yamaguchi
yaman
yamanashi
yang
yangon
yap
yaqin
yarmen
yaroslavl
yasan
yasin
yasothon
yat
yatim
yatsrib
yaumul
yayasan
yazid
ye
year
yellow
yen
yerevan
yerusalem
yerussalem
yes
yesterday
yi
yiruma
ymark
yo
yogyakarta
yoh
yohanes
yordan
yordania
york
you
youchien
your
youtube
yu
yuan
yub
yue
yugoslavia
yui
yukio
yul
yum
yunani
yunnan
yunnanensis
yunus
yup
yusuf
yuta
yuzhno
yyyy
z
za
zabaykalsky
zaid
zainab
zainal
zainuddin
zakaria
zale
zaman
zambia
zamboanga
zammur
zamzami
zat
zavkhan
zawiyah
zaye
zaza
zazaki
ze
zea
zebra
zeca
zentralbibliothek
zh
zhejiang
zhou
zhuang
ziarah
ziyad
zona
zone
zoo
zoster
zu
zubair
zue
zulhijjah
zumar
zurich
zutto
{
|
}
~
¤
©
«
¬
®
°
±
²
´
¶
·
»
¼
×
đi
đo
łobez
łobzie
ŋ
ʲ
ʻ
ʼ
ʾ
ʿ
ˈ
ˌ
ː
̀
́
̂
̃
̄
̆
̇
̈
̉
̊
̋
̌
̓
̛
̣
̦
̧
̨
̯
α
μ
ς
τ
без
в
з
и
инфокутија
н
п
росіи
у
х
ч
шабле
шаблон
ь
є
ְ
ִ
ֵ
ַ
ָ
ׂ
א
ד
י
ל
מ
ר
ש
ת
תבנית
،
ؕ
؟
ء
ا
اء
اب
ابو
اة
احد
احمد
اس
اسمعيل
اش
اط
اع
اكبر
ال
الا
البخاري
الت
الدين
الر
الص
العربية
الل
الله
المسجد
المملكة
الن
النبي
اله
الي
الگو
ام
امام
ان
انتق
اوله
اي
اچيه
ب
باب
باتڠ
برتمفت
بليو
بن
ة
ت
تانه
ترسبت
تكو
تله
توحيد
تڠكو
تڠکو
تڠݢل
ث
ج
جاوي
جبريل
جمله
ح
حا
حج
حديث
حسن
خ
خان
خرجه
د
دالم
دان
دكوتبلڠ
دڠن
ذ
ر
رسول
رضي
ز
س
ساي
سفاي
سورة
سڠكر
ش
ص
صحيح
صلى
ض
ط
ظ
ع
عبد
على
علي
عليه
عن
غ
غزوة
ف
فرمنتاءن
في
ق
قال
قالب
ك
كتاب
كفال
كفد
كلاڤ
كوتا
كوتبلڠ
كيت
ل
لا
لام
لة
له
م
ما
محمد
محمود
مدينة
مسجد
مسلم
مشاورة
مصرف
مفعل
ممنوهي
من
موحد
ميتر
ن
ه
هاري
هرݢا
و
وا
ود
ور
وس
وسلم
ول
وم
ون
ى
ي
يا
يد
يعقوب
يل
يم
ين
يڠ
ً
ٌ
ٍ
َ
ُ
ِ
ّ
ْ
ٓ
ٔ
ٕ
١
١١
١٩٧٦
٢
٣
٤
٥
٦
٧
ٰ
ٱل
ڤ
ڤنتيا
ۚ
ۡ
ۤ
۱
۲
۳
ݢ
ނ
ބ
އ
މ
ޕ
ަ
ި
ެ
ޮ
ँ
ं
इ
ओ
क
ग
च
छ
ट
ढ
त
थ
द
न
फ
ब
भ
य
र
ल
श
स
़
ा
ि
ु
ू
े
ॉ
ो
्
ং
ট
দ
ব
ল
শ
া
ে
্
ਅ
ਕ
ਦ
ਨ
ਯ
ਸ
਼
ਾ
ਿ
ੂ
ੇ
ੰ
ં
ખ
ચ
જ
ડ
ઢ
ન
ર
ળ
વ
સ
ા
ી
ો
્
ଚ
ଛ
ଞ
ା
୍
க
ங
ச
ட
ப
ர
ி
ு
ூ
்
మ
స
ూ
ಂ
ಟ
ಪ
ಲ
ು
ೆ
್
ೕ
ം
പ
ഫലക
മ
ല
ാ
ി
െ
്
ක
ත
ප
ල
ස
්
ැ
ි
ී
ෙ
ข
ง
ต
ภ
ิ
ุ
ู
แบบ
แม
็
่
้
ည
တ
န
ပ
မ
ာ
ု
္
်
ြ
თარგი
틀
‌
‍
‎
–
—
‘
’
“
”
†
•
…
′
″
€
™
←
→
↔
↷
↻
∃
−
∞
③
④
⑦
█
▲
♀
♂
⟨
⟩
ⴰ
ⴳ
ⴷ
ⴻ
ⴼ
ⵉ
ⵎ
ⵏ
ⵓ
ⵔ
ⵖ
ⵜ
ⵟ
ⵢ
ⵣ
⺀
⺄
⺆
⺈
⺊
⺌
⺕
⺝
⺸
⺼
⿰
⿱
⿲
⿳
⿴
⿵
⿶
⿷
⿸
⿹
⿺
⿻
〢
う
と
の
ふ
も
り
ろ
ん
゙
゚
ァ
ア
ゥ
エ
オ
カ
キ
ク
コ
サ
シ
ス
タ
ッ
ツ
ト
ネ
ハ
ヒ
フ
ホ
マ
モ
ユ
ラ
リ
ル
レ
ロ
ワ
ン
・
ー
㇁
㇂
㇄
㇇
㇈
㇉
㇓
㐁
㐄
㐅
㐌
㐫
㐬
㐭
㐮
㐱
㑒
㒵
㒸
㒼
㓁
㓞
㔾
㕛
㕣
㖾
㘝
㚅
㚇
㚔
㚘
㝉
㝡
㝴
㝵
㞋
㞢
㞷
㠩
㠭
㠯
㡀
㡭
㡿
㢲
㢴
㣇
㣺
㥯
㪅
㫄
㫐
㫒
㫺
㬅
㬎
㬥
㬰
㲋
㳄
㷠
㸒
㸚
㸦
㼌
㼲
㽞
㿟
䀠
䂞
䍃
䏍
䒑
䖍
䖒
䖝
䖵
䙴
䚻
䜌
䝿
䡛
䧹
䪞
一
丁
丂
七
丄
丅
丆
万
丈
三
上
下
丌
不
与
丏
丐
丑
专
且
丕
世
丘
丙
业
东
丞
丢
丣
两
严
並
丨
丩
个
丫
丬
中
丮
丰
丱
串
丵
丶
丷
丸
丹
为
主
丽
丿
乀
乂
乃
久
乆
乇
么
义
之
乌
乍
乎
乏
乐
乑
乔
乖
乗
乘
乙
乚
乛
乜
九
乞
也
习
乡
乳
乾
亀
亅
了
亇
予
争
事
二
亍
于
亏
亐
云
互
亓
五
井
亘
亚
亜
亞
亟
亠
亡
亢
交
亥
亦
产
亨
亩
享
京
亭
亮
亯
亰
亲
亳
亶
亷
人
亻
亼
亾
仁
今
介
仌
从
仐
仑
仒
仓
仕
他
付
仝
代
令
以
任
企
伊
伏
伐
休
会
伯
但
位
何
佘
余
作
佥
使
來
侈
侌
侖
侗
依
侯
侵
便
保
俞
信
修
倉
倍
候
倠
備
僉
僕
儿
兀
允
兂
元
兄
充
兆
兇
先
光
兊
克
兌
免
兑
兒
兓
兔
党
兜
兟
入
全
兩
兪
八
公
六
兮
兰
共
关
兵
其
具
典
兹
兼
冀
冂
冃
冄
内
冈
冉
冊
冋
册
再
冎
冏
冐
冒
冓
冖
冗
冘
军
农
冝
冡
冥
冫
冬
冷
几
凡
凢
処
凵
凶
凷
凸
凹
出
函
凾
刀
刁
刂
刃
刄
刅
分
切
刍
刑
刕
刖
列
刘
则
初
別
利
别
到
制
刺
則
削
剌
前
剡
剽
劉
力
功
加
劦
助
劫
劳
劵
勃
勇
勉
勒
動
勘
務
勞
勤
勹
勺
勻
勾
勿
匀
匂
包
匆
匈
匊
匋
匍
匕
化
北
匚
匝
匡
匪
匱
匸
匹
区
医
匽
匿
區
十
卂
千
卄
卅
卆
升
午
卉
半
卌
华
卑
卒
卓
单
卖
南
卜
卝
卞
占
卡
卢
卣
卤
卦
卩
卪
卬
卯
印
危
即
却
卵
卷
卸
卻
厂
厃
厄
历
厈
厉
厌
厓
厘
厚
原
厤
厥
厨
厭
厲
厶
厷
厸
去
厼
厽
叀
参
參
叅
又
叉
及
友
双
反
叐
发
叒
叔
叕
取
受
叚
叜
叟
口
古
句
另
叩
只
召
可
台
叱
史
右
叵
号
司
叹
吂
各
吅
合
吉
吊
吋
同
名
后
吏
吐
向
吕
君
吝
吞
否
含
启
吳
吴
吹
吾
呂
呆
呈
告
员
呙
周
命
咅
和
咎
咠
咢
咨
咸
咼
哀
品
哈
哉
員
哥
哲
唐
商
啇
問
啚
啬
啻
善
喜
喬
單
喿
嗇
噩
嚴
囊
囗
囘
囙
囚
四
回
囟
因
囧
囬
困
囱
囷
固
国
圂
圅
國
圍
園
圓
土
圡
圣
圥
在
圭
地
圶
圼
坐
坒
坚
坡
坴
垂
垔
垚
埀
埋
埶
執
基
堂
堅
堆
堇
堯
塔
塞
墨
壘
士
壬
壮
壯
声
壳
壴
壹
壺
壽
夂
处
夅
夆
备
夊
夋
夌
复
夏
夒
夕
外
夗
夘
多
夜
夢
大
夨
天
太
夫
夬
夭
央
失
夲
头
夷
夸
夹
夻
夾
奂
奄
奇
奈
奉
奎
奏
奐
契
奓
奔
奚
奞
奠
奢
奥
奭
女
奴
奻
好
如
妄
妙
妟
妥
妻
妾
始
姑
委
姜
威
娄
婁
婴
嬰
嬴
子
孑
孔
孕
孖
字
存
孚
孛
孝
孟
季
孤
学
孫
孱
學
宀
宁
宂
它
宅
宇
守
安
宋
完
宏
宓
宗
官
定
宛
宜
宝
客
宣
室
宮
宰
害
家
容
宾
宿
寄
寅
密
富
寒
察
寧
審
寫
寬
寮
寸
对
寺
寻
寽
対
寿
封
尃
射
将
將
專
尉
尊
尋
尌
對
小
少
尒
尓
尔
尖
尗
尚
尞
尢
尣
尤
尧
尨
尭
就
尸
尹
尺
尻
尼
尽
尾
尿
局
居
屈
屋
屎
屏
屑
展
屖
屚
属
屠
屡
屬
屮
屯
屰
山
屵
屾
岁
岂
岑
岡
岩
岳
岸
峯
島
崇
崑
崔
崖
崙
崩
嵬
嶲
嶺
巂
巛
川
州
巟
巠
巢
巤
工
左
巧
巨
巩
巫
差
己
已
巳
巴
巷
巸
巽
巾
巿
帀
市
布
希
帚
帛
帝
带
師
席
帶
常
幌
干
平
年
幵
并
幷
幸
幺
幻
幼
幽
幾
广
広
庄
床
库
底
店
庚
府
度
庫
庭
庶
康
庸
廉
廌
廛
廣
廩
廴
延
廷
建
廾
廿
开
弁
弃
弄
弇
弋
式
弓
弔
引
弗
弘
弜
弟
弥
弦
弱
張
強
强
彊
彌
彎
彐
彑
当
彔
录
彖
彗
彡
形
彥
彦
彧
彭
彳
役
彼
往
待
律
後
徒
得
徙
從
復
循
微
徵
心
忄
必
忌
忍
志
忝
忠
忩
快
念
忽
忿
思
怠
急
怱
恆
恒
恩
恭
息
悉
患
悤
悲
悶
惠
惡
惢
愁
愈
意
愛
感
慈
慧
慮
憂
憲
應
戀
戈
戉
戊
戋
戌
戍
戎
成
我
戒
戔
或
戚
戠
戢
截
戲
戶
户
戹
戼
戾
房
所
扁
扇
手
扌
才
打
托
执
承
折
択
拉
拜
拿
捉
捨
掌
推
提
摩
撒
撫
支
攴
攵
收
攸
改
放
政
敄
敏
敕
敖
敗
敝
敞
敢
散
敦
敫
敬
数
敷
數
斂
文
斉
斊
斗
斤
斥
斩
斬
斯
新
方
於
施
斿
旁
旋
族
无
旡
既
旣
日
旦
旧
旨
早
旬
旱
旲
时
旾
昆
昇
昌
昍
明
昏
易
昔
昗
昜
星
春
昬
是
昱
昴
昷
時
晃
晋
晏
普
景
晶
智
暑
暴
曇
曩
曰
曲
曳
更
曷
書
曹
曼
曾
替
最
朁
會
月
有
朋
服
朔
朕
朗
望
朝
木
朩
未
末
本
札
朮
术
朱
朵
朶
朿
杀
杏
杜
束
条
来
東
杲
杳
松
板
析
林
枚
果
枝
枲
枼
某
柔
查
柬
柰
柴
栗
桀
桑
桼
梁
條
梟
梨
棘
棠
棥
森
楚
楠
業
楽
榮
樂
樊
模
樺
欠
次
欣
欮
欲
欶
欽
款
歆
歇
歛
止
正
此
步
武
歨
歪
歮
歯
歰
歲
歴
歷
歸
歹
歺
死
殳
段
殷
殸
殹
殺
殻
殿
毋
毌
母
每
毒
比
毕
毚
毛
毳
氏
氐
民
气
氣
水
氵
氶
氷
永
氺
氾
求
汝
汞
江
沃
沓
沙
沝
治
泉
法
波
泣
泥
泰
洛
洪
活
派
流
浦
浪
浮
海
淡
淮
清
渇
渚
渠
温
港
湯
滿
漸
灣
火
灬
灭
灰
灵
灷
炅
炎
炏
炗
炙
炭
為
烈
烏
烝
焉
無
焦
焱
然
煞
熊
熏
燕
營
燮
爪
爫
爭
爯
爰
爱
爲
爵
父
爻
爽
爾
爿
片
牙
牚
牛
牜
牟
牢
牧
牪
特
牽
犀
犁
犬
犭
犮
狂
狄
狊
独
狺
猋
猒
猪
献
獻
玄
率
玉
王
玟
玨
现
珎
班
現
理
琴
瑟
瑩
璠
瓜
瓦
甘
甚
生
産
用
甫
甬
田
由
甲
申
电
甶
男
甸
甹
画
甾
畀
界
畏
畐
留
畜
畟
畢
畧
畨
番
畫
異
畱
當
畺
畾
疊
疋
疌
疑
疒
疾
癶
癸
癹
発
登
發
白
百
皀
皃
的
皆
皇
皋
皐
皕
皮
皷
皿
盃
盆
盇
盈
益
盍
盎
监
盒
盖
盛
盡
監
盤
盧
目
直
相
盾
省
眇
眉
看
眔
眞
真
眷
眼
眾
着
睘
睪
睿
瞏
瞢
瞿
矍
矛
矞
矢
矣
知
矦
短
石
破
碎
磊
磨
示
礻
礼
祟
票
祭
禀
禁
禰
禸
禹
禺
离
禽
禾
禿
秀
秃
秉
秋
科
秝
秦
移
稟
穀
穌
積
穴
究
穹
空
穿
突
窄
窒
立
竒
竜
竝
竟
章
童
竹
笑
笠
筆
等
答
筵
箕
算
箴
節
篤
篭
米
粉
粛
粟
粤
粦
粲
糞
糸
糹
系
約
納
素
索
紫
累
細
絜
絫
絲
維
綿
縣
繇
纍
纟
缶
网
罒
罔
罕
罗
罙
罡
罢
罪
署
罷
羅
羊
羌
羍
美
羔
羕
羗
羞
羡
羣
群
義
羲
羸
羽
翁
翏
習
翕
翟
翠
翼
老
耂
考
者
耆
而
耎
耑
耒
耳
耴
耶
耷
聂
聊
聖
聚
聶
聿
肀
肃
肅
肉
肖
肙
肥
肩
肯
育
肴
胃
背
胡
胥
能
脊
脩
膚
臣
臤
臧
自
臬
臭
臯
臱
至
致
臺
臼
臽
臾
臿
舀
舂
舄
與
興
舉
舌
舍
舛
舜
舞
舟
般
艮
良
色
艸
艹
艾
芒
芔
芬
芮
花
芳
芷
芺
芻
苅
苔
苗
苟
若
苦
英
茶
茸
荅
草
荒
荣
荼
莆
莧
莫
莽
菆
菊
菐
華
萨
萬
落
葉
著
葛
董
葵
蒙
蒦
蒼
蓋
蓬
蓺
蔑
蔡
蕉
蕭
薄
薛
薦
薩
薰
藍
藏
藥
蘭
虍
虎
虐
虒
虔
處
虖
虗
虘
虚
虛
虜
虞
虫
虽
蚤
蚩
蜀
蜜
蟲
蠡
血
行
衍
衛
衣
衤
表
衮
衰
袁
袞
褭
褱
襄
襾
西
覀
要
覃
見
規
覓
覧
親
覽
见
角
解
言
訁
訇
計
記
詹
語
誩
請
諸
讠
语
谷
豆
豈
豊
豐
豕
豖
豙
象
豦
豩
豪
豸
貇
貝
貞
貟
負
貢
貧
貪
貫
責
貳
貴
買
費
賁
資
賈
賏
賓
賔
賛
賞
賢
賣
質
賴
贊
贏
贝
贡
责
贯
贲
贵
赖
赞
赤
赦
走
越
足
路
蹇
身
躬
車
軍
軎
軟
輦
輪
车
辛
辜
辟
辥
辰
辱
農
辵
辶
边
达
过
近
连
迷
追
退
送
逆
逐
通
速
造
逢
連
逮
進
遀
遂
過
道
達
遣
適
遷
遺
邊
邑
邕
那
邦
邪
郎
部
郭
都
鄉
酉
酋
配
酓
釆
采
里
重
野
量
金
釒
錢
鎮
钅
長
镸
长
門
閃
閉
開
閏
閑
閒
間
閔
関
閵
閻
闌
门
间
闷
阑
阜
阝
阿
降
陳
隆
隊
隋
隡
隨
隱
隶
隹
隺
隻
隼
隽
难
雀
雁
集
雈
雋
雍
雐
雔
雙
雚
雜
雝
離
難
雨
雩
雪
雲
零
雷
需
霍
霜
霝
霞
霸
靈
靑
青
靖
非
靡
面
靣
革
韋
韦
韭
韯
韱
音
頁
頃
項
須
頓
頗
頡
頻
頼
顛
页
風
风
飛
飞
食
飠
養
饣
首
香
馬
馮
駦
马
骨
高
髟
鬥
鬯
鬲
鬼
魚
魯
鮮
鱼
鲁
鳥
鳳
鸟
鹵
鹿
麃
麗
麥
麦
麻
黃
黄
黍
黎
黑
黒
黔
黨
黹
黽
黾
鼎
鼓
鼠
鼻
齊
齋
齐
齒
齿
龍
龙
龜
龟
龠
龰
龱
龴
龵
龶
龷
龸
龹
ꦁ
ꦏ
ꦕ
ꦗ
ꦠ
ꦢ
ꦤ
ꦩ
ꦪ
ꦫ
ꦮ
ꦴ
ꦶ
ꦺ
ꦼ
꧀
者
艹
﴾
﴿
﹫
ﺀ
ﺁ
ﺃ
ﺄ
ﺇ
ﺈ
ﺋ
ﺍ
ﺎ
ﺏ
ﺐ
ﺑ
ﺒ
ﺓ
ﺔ
ﺕ
ﺖ
ﺗ
ﺘ
ﺜ
ﺝ
ﺟ
ﺠ
ﺡ
ﺢ
ﺣ
ﺤ
ﺧ
ﺩ
ﺪ
ﺫ
ﺬ
ﺭ
ﺮ
ﺰ
ﺱ
ﺲ
ﺳ
ﺴ
ﺵ
ﺶ
ﺷ
ﺸ
ﺺ
ﺻ
ﺼ
ﺽ
ﺿ
ﻀ
ﻂ
ﻃ
ﻄ
ﻇ
ﻈ
ﻊ
ﻋ
ﻌ
ﻏ
ﻒ
ﻓ
ﻔ
ﻕ
ﻖ
ﻗ
ﻘ
ﻚ
ﻛ
ﻜ
ﻝ
ﻞ
ﻟ
ﻠ
ﻡ
ﻢ
ﻣ
ﻤ
ﻥ
ﻦ
ﻧ
ﻨ
ﻩ
ﻪ
ﻫ
ﻬ
ﻭ
ﻮ
ﻯ
ﻰ
ﻱ
ﻲ
ﻳ
ﻴ
ﻷ
ﻼ
﻿
（
）
：
？
🜨
𠀁
𠀃
𠀆
𠀉
𠀎
𠀐
𠁁
𠁣
𠂆
𠂇
𠂈
𠂉
𠂊
𠂋
𠂎
𠂒
𠂔
𠂛
𠂡
𠂢
𠂤
𠂬
𠂭
𠂹
𠃊
𠃋
𠃌
𠃍
𠃎
𠃑
𠃓
𠃔
𠃜
𠄌
𠄎
𠄠
𠄢
𠆢
𠆥
𠇍
𠈌
𠌵
𠓜
𠔉
𠔥
𠔼
𠔽
𠔿
𠕀
𠕁
𠕋
𠘧
𠘨
𠙻
𠙼
𠚏
𠚒
𠚤
𠚪
𠣏
𠤎
𠤕
𠥓
𠦄
𠦑
𠦝
𠧒
𠧗
𠧪
𠩺
𠪚
𠫓
𠫔
𠫤
𠬛
𠬝
𠬞
𠬢
𠬤
𠬶
𠮛
𠮦
𠮷
𠯑
𠱠
𠳮
𠷎
𡈼
𡉀
𡉵
𡌥
𡍮
𡏳
𡕒
𡕩
𡕰
𡖅
𡗗
𡗜
𡘆
𡘤
𡧱
𡨄
𡩧
𡬠
𡭽
𡰣
𡰥
𡰪
𡰯
𡰱
𡷈
𡸁
𡿨
𡿩
𡿪
𡿺
𢀖
𢀛
𢀩
𢁙
𢆉
𢆰
𢆶
𢇁
𢇇
𢉖
𢌬
𢌿
𢏚
𢑑
𢑚
𢖻
𢙣
𢛳
𢦏
𢦒
𢧵
𢼄
𢾕
𣁋
𣄼
𣅀
𣅽
𣍘
𣎳
𣎵
𣏋
𣏼
𣗥
𣥂
𣥖
𣦵
𣦼
𣧄
𣪊
𣪠
𣬉
𣳾
𣶒
𤇾
𤊽
𤐫
𤓰
𤔔
𤕨
𤣩
𤰇
𤰔
𤰞
𤴓
𤴔
𤽄
𥁑
𥁕
𥃦
𥃩
𥃭
𥇡
𥑟
𥘅
𥘈
𥝢
𥫗
𥱡
𦈢
𦉪
𦉬
𦉼
𦍌
𦍒
𦎧
𦐇
𦓔
𦔮
𦘒
𦙃
𦚏
𦣝
𦣞
𦣻
𦥑
𦥔
𦥯
𦨉
𦭝
𦰩
𧆞
𧈧
𧘇
𧰨
𧴪
𧴮
𧵩
𧾷
𨸏
𨾴
𩙿
𩠐
𩫏
𩵋
𪉷
𪜀
𪟽
𪠲
𪩲
𫇦
𫔭
𫜸
𫝀
𫠣
𫠩
𫢉
𫥞
𫩏
𫩠
𫪡
𫲽
𫶧
𬀷
𬐘
𬗌
𬙙
𬛸
𬜯
𬟩
𬯁
𬴘
𬺻
𬼉
𬼖
𭀰
𭁈
𭁨
𭅰
𭑈
𭕄
𭗼
𭤨
𭥫
𭻾
𮅕
𮊿
𮍌
𮍏
𮓗
𮥼
𮧮
廾
𰀁
𰀄
𰀈
𰀉
𰀕
𰀠
𰀡
𰀢
𰀪
𰁜
𰃮
𰆊
𰆘
𰋙
𰕎
𰢴
𰧭
𰯲
03--
08--
1000--
14--
15--
17--
18--
21--
23--
24--
25--
60--
60039--
73--
75--
80--
a--
ab--
abu--
ac--
acan--
aceh--
ach--
ad--
add--
adminis--
aer--
af--
ag--
ah--
ai--
aj--
ak--
al--
ala--
albi--
ale--
alex--
alter--
alur--
am--
an--
and--
ang--
annu--
ano--
anu--
ap--
apa--
api--
appro--
aq--
aqua--
ar--
ari--
aru--
as--
ash--
aste--
at--
ata--
au--
aus--
ave--
avi--
avo--
aw--
ay--
az--
b--
ba--
baby--
bag--
bah--
bai--
bal--
balo--
bamb--
ban--
bang--
bar--
bat--
batu--
be--
ben--
beng--
ber--
berd--
beri--
berk--
berkem--
berm--
bers--
beu--
bha--
bi--
bin--
bio--
bisc--
blu--
bo--
bon--
bos--
bou--
boy--
bp--
br--
bra--
bri--
bro--
bu--
bua--
bun--
bundes--
bur--
c--
ca--
caba--
cale--
cam--
can--
capi--
car--
cas--
cat--
cauca--
ce--
cel--
ceu--
ch--
cha--
che--
cho--
ci--
cin--
cinn--
circ--
cla--
clavi--
co--
col--
collec--
com--
commer--
commu--
con--
consi--
conve--
conven--
coo--
cor--
cory--
cri--
cro--
cu--
cuc--
cul--
cum--
cumhu--
cur--
curvi--
cy--
d--
da--
dae--
dama--
dar--
das--
data--
de--
deci--
def--
defi--
del--
den--
der--
des--
deun--
dhe--
di--
dia--
did--
diff--
dime--
din--
diper--
dipeu--
diplo--
dis--
disc--
dist--
distr--
dit--
diteu--
do--
dom--
dors--
dou--
dr--
du--
dub--
dum--
dur--
e--
ed--
edu--
eff--
ek--
el--
ele--
elec--
elek--
elli--
em--
en--
end--
envi--
ep--
er--
eri--
ero--
es--
et--
eu--
ex--
f--
fa--
fan--
fe--
fi--
fil--
fisi--
fla--
flavi--
flu--
fo--
for--
fr--
fu--
ful--
fum--
fus--
fusci--
fusco--
g--
ga--
gali--
gam--
gan--
gar--
gas--
ge--
geo--
geome--
ger--
geu--
geuja--
geumeu--
geun--
geund--
geupe--
geupeu--
geupu--
geuseu--
gha--
ghe--
gi--
gib--
gibbe--
gil--
gin--
gla--
glo--
glu--
go--
goh--
gol--
gomp--
gr--
gra--
grac--
gre--
gu--
gua--
guil--
gump--
gun--
h--
ha--
hal--
han--
has--
he--
hec--
heli--
hemi--
het--
hexasti--
hi--
hir--
hispa--
ho--
hu--
hy--
i--
ia--
ibe--
id--
ie--
if--
il--
image--
imp--
in--
indy--
inf--
innu--
ino--
inst--
inte--
inter--
intri--
ir--
is--
isti--
it--
iv--
iz--
j--
ja--
jac--
jak--
jan--
jaya--
je--
jemb--
jeoll--
jeu--
ji--
jic--
jig--
jih--
jikeu--
jimeu--
jin--
jipeu--
jipu--
jis--
jiseu--
jo--
ju--
jum--
k--
ka--
kab--
kal--
kala--
kali--
kar--
kat--
kay--
ke--
kele--
kema--
keme--
ken--
kepe--
ker--
kera--
ket--
keu--
keusi--
kh--
kha--
khan--
khu--
ki--
kin--
kis--
kl--
ko--
komp--
kon--
konve--
kor--
kra--
ku--
kun--
ky--
l--
la--
lad--
lak--
lam--
lan--
lang--
lat--
law--
le--
lemb--
len--
leo--
lepi--
les--
letak--
leu--
ley--
li--
libe--
lig--
limb--
lin--
ling--
lite--
lo--
loc--
lom--
lt--
lu--
luxem--
ly--
m--
ma--
mac--
macro--
macul--
mad--
mag--
mah--
maj--
mak--
mal--
man--
mang--
mani--
map--
mar--
mas--
masa--
mat--
matang--
mau--
mb--
mc--
me--
med--
medio--
mee--
mega--
mei--
mek--
meli--
memb--
men--
meng--
menga--
menu--
mer--
meri--
meu--
meujeu--
meun--
meupeu--
mexi--
mi--
mic--
micro--
mil--
milit--
min--
mit--
mo--
modi--
mon--
mono--
mor--
mou--
mp--
mu--
mug--
muk--
multi--
mun--
muq--
murs--
mus--
mutta--
my--
n--
na--
nak--
nam--
nan--
nap--
nat--
nd--
ne--
neder--
neo--
neoli--
neu--
neupeu--
neuseu--
ng--
ni--
nigr--
nigro--
no--
nor--
not--
nti--
nu--
nur--
ny--
o--
ob--
obsc--
obscur--
occ--
och--
ochro--
odo--
officin--
oh--
on--
or--
orel--
org--
os--
ot--
ou--
out--
over--
p--
pa--
pad--
pall--
pan--
pang--
pano--
par--
para--
pari--
pas--
pe--
pec--
pele--
pemb--
pen--
pend--
penda--
peng--
penye--
penyun--
per--
peri--
perki--
peu--
peuneu--
peung--
peunu--
ph--
phy--
phyllan--
pi--
pic--
pin--
pit--
pix--
pl--
plat--
po--
pod--
pol--
poly--
pop--
pot--
pp--
pr--
pra--
pre--
princ--
pro--
produc--
pros--
prov--
pt--
ptero--
pto--
pu--
pub--
publi--
pun--
puncta--
pur--
pus--
pyo--
q--
qay--
qian--
qiy--
qu--
qua--
quadr--
r--
ra--
rab--
rah--
ran--
rang--
ras--
rat--
re--
red--
ree--
refere--
reg--
ren--
res--
ret--
reu--
rhi--
rho--
ri--
rid--
rin--
ro--
roh--
ros--
rot--
ru--
rus--
rw--
ry--
s--
sa--
sal--
sam--
san--
sas--
say--
sc--
sch--
sco--
se--
sea--
sed--
sel--
semb--
semi--
semp--
sen--
sep--
ser--
serr--
set--
seu--
seuna--
seuneu--
seung--
seuri--
sh--
sha--
she--
sheng--
shi--
shy--
si--
sia--
sido--
sig--
sij--
sika--
sil--
silve--
sin--
sing--
siph--
sit--
sk--
sl--
slo--
sm--
so--
soe--
sol--
some--
sp--
spe--
spha--
spo--
sr--
sri--
st--
stat--
ste--
str--
stri--
stu--
su--
sub--
succ--
suk--
suka--
sum--
supp--
sv--
sy--
syco--
sye--
t--
ta--
tah--
tai--
tak--
tam--
tameu--
tan--
tape--
tar--
tase--
te--
tek--
tele--
temp--
ten--
teng--
ter--
terj--
terk--
terr--
teu--
th--
tha--
tho--
ti--
ting--
to--
tok--
ton--
top--
tor--
tou--
tr--
tra--
tri--
tsu--
tu--
tun--
tung--
tur--
ty--
u--
ud--
ue--
uk--
ul--
um--
un--
ung--
uni--
up--
uq--
ur--
us--
usu--
ut--
util--
v--
va--
val--
ve--
ven--
ver--
vet--
vi--
vic--
vill--
vis--
vit--
vo--
vu--
vv--
w--
wa--
wad--
wah--
wal--
wali--
waqq--
war--
was--
wat--
we--
wen--
whe--
whit--
wib--
wiki--
wil--
wiza--
wo--
wri--
wu--
x--
xan--
xi--
y--
ya--
yah--
yi--
yo--
yu--
yum--
z--
za--
ze--
zen--
zh--
zu--
zul--
đ--
мо--
ا--
اد--
ال--
الط--
اي--
ب--
با--
بر--
به--
بو--
ت--
تا--
تڠ--
ث--
ج--
جا--
جع--
جم--
ح--
د--
ذ--
ر--
س--
سب--
ش--
ص--
صد--
ط--
طا--
ع--
عب--
ف--
فر--
فم--
ق--
ك--
كب--
كر--
كچ--
ل--
م--
مق--
مم--
ن--
ه--
و--
وال--
ول--
ي--
يم--
يو--
--0
--00
--02
--1
--2
--3
--4
--5
--6
--69
--7
--8
--9
--a
--aan
--ab
--aba
--abad
--aby
--ac
--aca
--aceh
--achi
--ad
--adu
--ae
--agi
--ah
--ai
--aih
--ail
--ais
--aja
--ajat
--ak
--aka
--aks
--al
--ala
--ald
--am
--ama
--ami
--an
--ana
--anan
--anensis
--ang
--ans
--ant
--ao
--ap
--apex
--aphy
--aq
--ar
--ara
--ary
--as
--asi
--asse
--at
--ata
--atan
--ation
--ations
--atus
--au
--ay
--aya
--b
--ba
--bab
--bal
--ban
--bat
--bay
--baya
--be
--berg
--bert
--bes
--bi
--bia
--ble
--bo
--bok
--bs
--buk
--bul
--bun
--bus
--c
--ca
--cal
--cana
--cang
--ce
--cea
--ceae
--cens
--ces
--ch
--che
--chi
--ci
--cies
--ck
--cks
--co
--colspan
--cs
--ct
--cta
--cts
--cu
--cuba
--cum
--cut
--cy
--d
--da
--dae
--dak
--dall
--dame
--dao
--de
--dea
--ded
--di
--diningrat
--dir
--do
--dor
--ds
--du
--duk
--dung
--dus
--dy
--e
--ea
--eau
--eb
--ect
--ed
--ee
--ef
--egara
--eh
--ei
--ein
--eira
--eiro
--ejo
--ek
--el
--eli
--ell
--ella
--ellata
--em
--en
--ena
--eng
--eni
--ens
--ensi
--ensis
--ent
--eon
--er
--era
--eri
--ern
--ero
--ers
--es
--escens
--et
--eta
--etik
--eu
--eue
--eugah
--euh
--euk
--eup
--eura
--eut
--ev
--ey
--ez
--f
--fa
--fah
--ff
--fi
--fic
--frons
--fs
--ful
--fy
--g
--ga
--gai
--gal
--gamba
--gan
--gang
--ganggu
--gar
--gat
--ge
--ger
--geuh
--gg
--ggai
--ggang
--gh
--gi
--gitans
--gke
--gki
--gku
--gle
--go
--goe
--gom
--gon
--gona
--grak
--gre
--gri
--gs
--gu
--guchi
--gui
--gul
--h
--ha
--han
--hase
--hat
--he
--hed
--hi
--hid
--hill
--hina
--hir
--hito
--hjih
--hn
--ho
--hrix
--hta
--hthys
--http
--hu
--i
--ia
--iae
--iah
--ial
--ian
--ib
--ic
--ica
--ical
--ico
--ics
--id
--ida
--idae
--ido
--ie
--ien
--ier
--ieri
--ies
--if
--ifera
--ifrons
--ight
--ih
--ii
--ik
--ika
--il
--ilis
--ilya
--im
--ima
--imah
--iman
--in
--ina
--ine
--ing
--inus
--inya
--io
--ion
--ip
--ipe
--ipes
--ir
--ira
--iri
--iriy
--iro
--is
--isasi
--ism
--isme
--issima
--ist
--it
--ita
--itary
--itas
--ition
--ito
--ium
--iun
--ius
--ive
--iwa
--ix
--iy
--iya
--iyah
--iyyah
--j
--ja
--jah
--jak
--je
--ji
--jid
--jih
--jk
--jo
--jro
--ju
--juk
--k
--ka
--kab
--kae
--kak
--kan
--kap
--kapan
--kapat
--kar
--karta
--kat
--kawen
--ke
--ked
--kel
--ker
--keuh
--key
--kh
--khe
--ki
--kie
--kih
--kin
--kir
--ko
--kok
--kom
--kou
--ks
--ku
--kung
--kus
--kutu
--l
--la
--lah
--lahra
--lan
--lar
--lara
--ld
--le
--len
--ler
--leri
--ley
--lf
--lh
--li
--lia
--lid
--lide
--lidota
--lin
--ling
--lis
--lisa
--list
--ll
--lla
--llah
--lle
--llo
--lm
--lo
--logi
--lqa
--ls
--lu
--lui
--lung
--lus
--ly
--m
--ma
--mah
--majo
--man
--mba
--mbo
--mbok
--me
--men
--ment
--mi
--migrasi
--mik
--mika
--mo
--morf
--mot
--mpe
--mpo
--mu
--mue
--my
--n
--na
--nae
--nai
--nal
--nan
--nang
--nata
--nce
--nci
--nd
--nde
--nds
--nduk
--ne
--nea
--ned
--nel
--nell
--ner
--nes
--neuh
--news
--ng
--nga
--ngamba
--ngga
--ngo
--ngue
--nguy
--ni
--nia
--nik
--ning
--ninggay
--nn
--nna
--nne
--nnis
--no
--nom
--notus
--ns
--nsa
--nsis
--nsky
--nt
--nta
--ntah
--ntar
--ntata
--nti
--ntik
--ntly
--nto
--nts
--ntu
--nu
--nue
--nus
--ny
--nya
--nyan
--nye
--nyok
--o
--oc
--od
--ody
--oe
--ogi
--ogne
--ogy
--oh
--oi
--oides
--ok
--oka
--ol
--ola
--oli
--om
--oma
--on
--onal
--ong
--oni
--ons
--op
--optera
--or
--os
--osa
--ot
--ota
--otus
--our
--ova
--ow
--oy
--p
--pa
--pak
--pan
--pare
--pe
--pes
--pet
--phe
--phyta
--pi
--pih
--pil
--pina
--ping
--pis
--po
--poh
--pok
--pon
--pong
--ps
--psi
--pta
--ptasi
--ptera
--pu
--pun
--pur
--pus
--q
--qa
--qaq
--qi
--qun
--r
--ra
--rade
--rae
--rah
--ral
--ralis
--ram
--ramoe
--ran
--rang
--rca
--rd
--re
--ren
--reum
--rg
--ri
--ria
--rie
--ries
--rigona
--rik
--rim
--rina
--ris
--rjah
--rl
--rn
--rne
--ro
--rons
--rontak
--rp
--rri
--rs
--rse
--rt
--rta
--rto
--ru
--rul
--run
--rus
--rut
--ry
--s
--sa
--sah
--sak
--saltans
--san
--se
--sen
--ser
--ses
--seue
--sfe
--sh
--shi
--si
--sia
--sin
--sis
--sk
--skan
--sna
--so
--som
--son
--ss
--ssa
--st
--sta
--stan
--ster
--style
--su
--sy
--t
--ta
--tae
--tail
--tal
--tan
--tar
--tara
--tas
--tasi
--tata
--tawo
--te
--ted
--ten
--teng
--ter
--tes
--th
--the
--ti
--tia
--tica
--tical
--tics
--tif
--tik
--til
--tion
--tions
--tis
--to
--tol
--tola
--ton
--tor
--tos
--ts
--tt
--tta
--ttata
--tty
--tu
--tuju
--tul
--tum
--tup
--tur
--tuto
--ty
--tyle
--tz
--u
--ua
--uan
--ub
--ube
--uc
--ucap
--uda
--uddin
--ude
--udin
--ue
--uek
--uel
--ueng
--uf
--ug
--ugh
--ugo
--uh
--uha
--ui
--uk
--uka
--ul
--ullah
--ulo
--um
--ume
--umeun
--un
--una
--ung
--up
--upa
--upu
--ur
--ura
--uri
--us
--ussa
--ut
--uta
--ute
--uti
--ution
--ux
--uy
--v
--va
--ve
--ved
--ver
--vic
--vin
--vis
--vittata
--vum
--w
--wa
--waki
--wan
--we
--wet
--wi
--wiki
--wn
--wo
--woe
--wok
--wot
--ws
--wut
--x
--xa
--y
--ya
--yah
--yam
--yan
--yang
--ye
--yer
--yeue
--yi
--ying
--yo
--yon
--ys
--yu
--yyah
--z
--za
--zar
--zation
--zi
--zia
--zir
--zo
--ı
--а
--ا
--ار
--اس
--او
--ب
--ة
--ت
--تن
--ح
--د
--ر
--را
--ري
--س
--ع
--ف
--ق
--ك
--كة
--كن
--كي
--ل
--م
--ن
--ه
--ها
--و
--وڠ
--ى
--ي
--ية
--ين
--ڠ
--ی
