!
"
#
##0
##1
##10
##11
##12
##13
##14
##15
##16
##17
##18
##19
##2
##20
##21
##22
##23
##24
##25
##26
##27
##28
##29
##3
##30
##31
##32
##33
##34
##35
##36
##37
##38
##39
##4
##40
##41
##42
##43
##44
##45
##46
##47
##48
##49
##5
##50
##51
##52
##53
##54
##55
##56
##57
##58
##59
##6
##60
##61
##62
##63
##64
##65
##66
##67
##68
##69
##7
##70
##71
##72
##73
##74
##75
##76
##77
##78
##79
##8
##80
##81
##82
##83
##84
##85
##86
##87
##88
##89
##9
##90
##91
##92
##93
##94
##95
##96
##97
##98
##99
$
%
&
'
(
)
*
+
,
-
.
/
0
00
000
001
002
003
004
005
006
007
008
009
01
010
011
012
013
014
015
016
017
018
019
02
020
021
022
023
024
025
026
027
028
029
03
030
031
032
033
034
035
036
037
038
039
04
040
041
042
043
044
045
046
047
048
049
05
050
051
052
053
054
055
056
057
058
059
06
060
061
062
063
064
065
066
067
068
069
07
070
071
072
073
074
075
076
077
078
079
08
080
081
082
083
084
085
086
087
088
089
09
090
091
092
093
094
095
096
097
098
099
1
10
100
1000
10000
101
102
103
104
105
106
107
108
109
11
110
111
112
113
114
115
116
117
118
119
12
120
1200
12000
121
122
123
124
12410
125
126
127
128
129
13
130
131
132
133
134
135
136
137
138
139
14
140
1400
141
142
143
144
145
146
147
148
1483
149
1492
15
150
15000
151
1510
1514
1519
152
153
154
1547
155
156
1564
157
158
159
16
160
1600
1601
161
1616
162
163
164
1640
1642
165
166
167
168
1685
169
17
170
1707
171
172
173
174
175
1750
1759
176
1760
177
1770
1777
1778
1779
178
1783
1785
1788
179
1790
1791
1797
1799
18
180
1800
18000
1801
1802
1803
1804
1805
1809
181
1810
1811
1812
1813
1814
1818
182
1820
1821
1822
1824
1827
1828
1829
183
1830
1831
1833
1834
1835
1837
1838
1839
184
1840
1841
1842
1844
1845
1847
1848
1849
185
1850
1851
1852
1853
1854
1855
1856
1857
1858
1859
186
1860
1861
1862
1863
1864
1865
1866
1867
1868
1869
187
1870
1871
1872
1873
1874
1875
1876
1877
1878
1879
188
1880
1881
1882
1883
1884
1885
1886
1887
1888
1889
189
1890
1891
1892
1893
1894
1895
1896
1897
1898
1899
19
190
1900
1901
1902
1903
1904
1905
1906
1907
1908
1909
191
1910
1911
1912
1913
1914
1915
1916
1917
1918
1919
192
1920
1921
1922
1923
1924
1925
1926
1927
1928
1929
193
1930
1931
1932
1933
1934
1935
1936
1937
1938
1939
194
1940
1941
1942
1943
1944
1945
1946
1947
1948
1949
195
1950
1951
1952
1953
1954
1955
1956
1957
1958
1959
196
1960
1961
1962
1963
1964
1965
1966
1967
1968
1969
197
1970
1971
1972
1973
1974
1975
1976
1977
1978
1979
198
1980
1981
1982
1983
1984
1985
1986
1987
1988
1989
199
1990
1991
1992
1993
1994
1995
1996
1997
1998
1999
2
20
200
2000
2001
2002
2003
2004
2005
2006
2007
2008
2009
201
2010
2011
2012
2013
2014
2015
2016
2017
2018
2019
202
2020
2021
2022
2023
203
204
205
206
207
208
209
21
210
211
212
213
214
215
216
217
218
219
22
220
221
222
223
224
225
226
227
228
229
23
230
231
232
233
234
235
236
237
238
239
24
240
241
242
243
244
245
246
247
248
249
25
250
251
252
253
254
255
256
257
258
259
26
260
261
262
263
264
265
266
267
268
269
27
270
271
272
273
274
275
276
277
278
279
28
280
281
282
283
284
285
286
287
288
289
29
290
291
292
293
294
295
296
297
298
299
3
30
300
301
302
303
304
305
306
307
308
309
31
310
311
312
313
314
315
316
317
318
319
32
320
321
322
323
324
325
326
327
328
329
33
330
331
332
333
334
335
336
337
338
339
34
340
341
342
343
344
345
346
347
348
349
35
350
351
352
353
354
355
356
357
358
359
36
360
361
362
363
364
365
366
367
368
369
37
370
371
372
373
374
375
376
377
378
379
38
380
381
382
383
384
385
386
387
388
389
39
390
391
392
393
394
395
396
397
398
399
4
40
400
401
402
403
404
405
406
407
408
409
41
410
411
412
413
414
415
416
417
418
419
42
420
421
422
423
424
425
426
427
428
429
43
430
431
432
433
434
435
436
437
438
439
44
440
441
442
443
444
445
446
447
448
449
45
450
451
452
453
454
455
456
457
458
459
46
460
461
462
463
464
465
466
467
468
469
47
470
471
472
473
474
475
476
477
478
479
48
480
481
482
483
484
485
486
487
488
489
49
490
491
492
493
494
495
496
497
498
499
5
50
500
5000
500000
501
502
503
504
505
506
507
508
509
51
510
511
512
513
514
515
516
517
518
519
52
520
521
522
523
524
525
526
527
528
529
53
530
531
532
533
534
535
536
537
538
539
54
540
541
542
543
544
545
546
547
548
549
55
550
551
552
553
554
555
556
557
558
559
56
560
561
562
563
564
565
566
567
568
569
57
570
571
572
573
574
575
576
577
578
579
58
580
581
582
583
584
585
586
587
588
589
59
590
591
592
593
594
595
596
597
598
599
6
60
600
6000
601
602
603
604
605
606
607
608
609
61
610
611
612
613
614
615
616
617
618
619
62
620
621
622
623
624
625
626
627
628
629
63
630
631
632
633
634
635
636
637
638
639
64
640
641
642
643
644
645
646
647
648
649
65
650
651
652
653
654
655
656
657
658
659
66
660
661
662
663
664
665
666
667
668
669
67
670
671
672
673
674
675
676
677
678
679
68
680
681
682
683
684
685
686
687
688
689
69
690
691
692
693
694
695
696
697
698
699
7
70
700
701
702
703
704
705
706
707
708
709
71
710
711
712
713
714
715
716
717
718
719
72
720
721
722
723
724
725
726
727
728
729
73
730
731
732
733
734
735
736
737
738
739
74
740
741
742
743
744
745
746
747
748
749
75
750
751
752
753
754
755
756
757
758
759
76
760
761
762
763
764
765
766
767
768
769
77
770
771
772
773
774
775
776
777
778
779
78
780
781
782
783
784
785
786
787
788
789
79
790
791
792
793
794
795
796
797
798
799
8
80
800
801
802
803
804
805
806
807
808
809
81
810
811
812
813
814
815
816
817
818
819
82
820
821
822
823
824
825
826
827
828
829
83
830
831
832
833
834
835
836
837
838
839
84
840
841
842
843
844
845
846
847
848
849
85
850
851
852
853
854
855
856
857
858
859
86
860
8601
861
862
863
864
865
866
867
868
869
87
870
871
872
873
874
875
876
877
878
879
88
880
881
882
883
884
885
886
887
888
889
89
890
891
892
893
894
895
896
897
898
899
9
90
900
901
902
903
904
905
906
907
908
909
91
910
911
912
913
914
915
916
917
918
919
92
920
921
922
923
924
925
926
927
928
929
93
930
931
932
933
934
935
936
937
938
939
94
940
941
942
943
944
945
946
947
948
949
95
950
951
952
953
954
955
956
957
958
959
96
960
961
962
963
964
965
966
967
968
969
97
970
971
972
973
974
975
976
977
978
979
98
980
981
982
983
984
985
986
987
988
989
99
990
991
992
993
994
995
996
997
998
999
:
;
<
=
>
?
@
\
^
_
`
a
aachen
aalborg
aalst
aan
aaron
ab
aba
abbe
abbeville
abbey
abbotsford
abc
abdul
abel
abelisauridae
aberdeen
abi
abidjan
abilene
ability
able
aboriginal
about
above
abraham
abreu
abridged
abruzzo
abstract
abu
ac
academia
academic
academy
acarau
accepted
accepting
access
accessible
according
account
accounts
aci
acquaviva
acre
acres
across
action
actions
active
activities
activity
acton
actor
actress
actually
acu
ad
ada
adam
adamczyk
adams
adas
add
adda
added
adding
addison
addition
additional
address
ade
adel
adelaide
adelo
adige
admin
administrator
administrators
admins
adolf
adour
adria
adrian
adriana
adu
adult
advance
advanced
af
affect
affected
affecting
affiliate
affiliates
afonso
africa
afs
after
afterwards
ag
again
against
agata
agde
age
aged
agnes
agnieszka
agnosphitys
ago
agram
agree
agua
agujaceratops
ahead
ai
aiello
aignan
aigues
aime
ain
aiplu
air
aire
aires
ais
aise
aisne
aix
aj
ajaccio
ajax
ak
akadapu
akademie
akira
akron
akvip
al
alabama
alagoas
alain
alameda
alamo
alamos
alan
alba
alban
albano
albans
albany
albert
alberta
alberto
albertville
alberweiler
albin
albion
albon
albrecht
album
alca
alcobac
aldelik
aldeliko
ale
alegre
alejandro
aleksander
aleksandr
aleksandra
aleksandrovic
aleksey
alekseyevic
alentejo
alessandria
alessandro
alex
alexander
alexandr
alexandra
alexandria
alexis
alfons
alfonso
alfred
alfredo
algarve
ali
alias
alice
alicja
align
alignbars
alik
alina
all
alla
allan
alle
allegheny
allen
allentown
allga
alliance
allier
allmovie
allmusic
allocine
allonnes
allosauridae
allosaurus
allow
alma
almanach
almeirim
almost
almulik
alo
alois
along
aloysius
alpes
alpha
alphabet
alpine
already
als
alsace
alseimik
also
alt
alta
altamont
altavilla
altdorf
altenburg
altenkirchen
altenstadt
alter
alto
alton
altoona
altos
alvarezsauridae
alves
alvin
always
am
amand
amapa
amarante
amazonas
ambassadors
ambe
amber
amboise
ame
america
american
americus
ames
amesbury
amherst
amiskwia
amo
among
amor
amour
amoy
amsterdam
amu
an
ana
anaheim
anai
analysis
anans
anastasia
anastasiya
anatoliy
anatolyevic
anchorage
ancien
ancienne
ancona
and
anders
andersen
anderson
andover
andra
andre
andrea
andreas
andrei
andrew
andrews
andrey
andreyevic
android
andrzej
andy
angaturama
angel
angela
angeles
angelina
angelo
angers
angra
ani
anik
anikna
aniks
animal
anita
anja
anka
ankara
ankylosauria
ankylosauridae
ann
anna
annapolis
anne
annelidae
anni
annie
announce
announced
announcement
announces
announcing
annual
anoka
another
ans
answer
antelope
anthony
antioch
antioquia
anto
antoine
anton
antonescu
antoni
antonino
antonio
antonov
antwerpen
anu
anuik
any
anyone
anything
aosta
apache
aparecida
apex
apofis
apologies
apologize
appeal
appear
appearance
apple
appleton
application
applications
apply
appreciate
appreciated
approach
appropriate
april
aquinas
aquitaine
ar
ara
arabic
arac
araguaia
arbeiterpartei
arbresle
arc
arcadia
archaeopteryx
archer
archive
archives
arco
arcola
arcos
arda
arde
arden
ardenne
ardennes
ardmore
are
area
areas
areia
aren
arena
argens
argentina
arie
ariel
aristoteles
arizona
arkansas
arkimedes
arles
arlington
armando
armas
armor
armstrong
arnhem
arno
arnold
around
arquette
arras
arroyo
ars
art
artesia
arthur
article
articles
artist
arts
artur
aruku
arundel
as
asa
ash
ashby
ashford
ashland
ashley
asia
asian
ask
asked
asking
aspects
assemble
assis
associate
association
assomption
asti
astrodon
at
athens
athol
ati
atim
atimik
atimo
atina
atkinson
atlanta
atlantic
atlantique
atlantiques
atle
atos
atosi
ats
attend
attended
attention
attimo
au
aube
aubin
auburn
aucasaurus
auckland
aude
audrey
auf
aug
auge
augsburg
august
augusta
auguste
augustine
augustinus
augusto
auray
aurora
aus
austin
australia
author
authors
auto
automatic
automatically
auvergne
aux
av
available
avec
aveiro
average
aveyron
avignon
aviv
avn
avnawards
avon
avondale
award
awards
aware
away
axel
ay
ayer
az
azhdarchidae
azul
azur
azzano
b
ba
babelio
babu
baby
babylon
bach
back
background
bacon
bad
bada
baden
badia
badik
badminton
bagaf
bagdad
bagni
bagnolo
bahia
bai
baia
baile
bailey
bainbridge
bains
baixo
bajo
bajor
baker
bakersfield
bakker
bakı
bal
bala
balaf
balan
balat
balatam
balatama
baldwin
bali
balid
balidan
balidministeran
balidnaedo
balido
balidvo
balik
balion
balions
balmil
balna
baltimore
balu
balugik
balugiko
bamberg
ban
band
banffia
bang
bangkok
bangladeja
bangor
bank
banner
baptiste
bar
bara
barbara
barbosa
barcelona
barcelos
bari
barnes
barnstable
baron
barra
barraba
barras
barre
barrett
barrow
barry
bartje
bartlett
bartolomeo
barton
bartosz
bartow
bartłomiej
baryonyx
bas
baseball
based
basel
basic
basilicata
baska
basketball
bassano
basse
bastia
bastien
basto
bat
bataille
batalha
batavia
bateman
bath
batista
bato
baton
batons
bats
battaglia
battle
bauer
baxter
bay
baya
bayer
bayern
bayeux
bayonne
bbc
bdfa
bdfutbol
be
beach
beachwood
bear
beatles
beatrice
beatty
beaumont
beaune
beauty
beauvoir
beaver
beaverton
bec
because
beck
becker
beckett
become
bedford
bedfordshire
beds
been
beethoven
before
begin
beginning
begun
behalf
behavior
behind
bei
beijing
being
beira
beja
bel
bela
belafonte
belberg
bele
belem
beleta
belfort
belga
bell
bella
bellaire
belle
bellefontaine
belleville
bellevue
bellflower
bellingham
bellmore
belluno
belmont
belmonte
belo
beloit
below
bels
belton
belvedere
ben
bend
bender
bene
benedetto
benedito
benina
benito
benjamin
bennett
benning
bennington
beno
benodistu
benorepu
benosek
benoseki
benosekik
benosekiko
benosekiku
bento
benton
bentonville
benz
beograd
bepenam
bepenami
bepeno
bepenom
bepenon
bepenons
ber
berea
berg
bergamo
bergen
berger
bergheim
bergisch
bergman
bergmann
berkeley
berkley
berkshire
berlin
berlingen
bern
bernalillo
bernard
bernardino
bernardo
bernd
bernhard
bernstein
berry
bertrand
beru
berwick
bes
bespik
bespikabu
bespikom
bessemer
best
beta
betawiki
bethany
bethel
bethesda
bethlehem
better
betty
between
beverly
bevobo
bevobots
bevu
beycing
beyond
bi
biagio
bianco
biała
białystok
bib
bibik
bibliographic
bibliographie
bid
bida
bidanem
bidas
bidi
bidos
bids
bielefeld
bielsko
bieta
big
bigik
bijop
bik
bilbao
bill
billings
billy
bims
bin
bina
binets
bingen
bingo
bino
binob
binod
binodi
binodis
binof
binom
binoms
binon
binono
binons
binos
binu
bio
biography
biomagodem
biomagodema
biomagodemas
biomagodemidilekan
biomagodemilautan
biomagodemilautans
biomagodemiprodan
biomagodemiprodans
biomagodems
bioskopik
bioskopografan
bioskopografans
bird
birdy
birmingham
bis
bisarik
bisch
bishop
bismarck
bixby
bk
bla
black
blackburn
blaine
blair
blaise
blake
blanc
blandford
blandiana
blebom
blebon
blefik
blefiku
blegik
bleibom
blekingia
bleu
blibom
blibon
bliga
blik
blika
bliks
blinon
bliss
blo
block
blocker
blod
blods
blog
blois
blok
blood
bloomfield
bloomingdale
bloomington
blu
blud
blue
blues
bluff
bluffs
bluffton
bner
bo
boa
board
boardman
bob
boca
bocholt
bochum
bodensee
body
bof
bofete
bofik
bofikafs
bofiks
bogdan
bogota
bogusław
bohdan
bohosiewicz
bois
bolak
bolesław
boli
bolit
bolitan
bolitana
bolitans
bolitik
boliva
bollack
bologna
bolton
bom
bomas
bomem
bomema
bomems
boms
bon
bonaparte
bond
bonet
bonifacio
bonita
bonito
bonn
bonnie
bono
bons
book
booker
books
boone
bora
borba
bordeaux
border
borges
borgo
boris
borisov
borisovic
boron
borowski
boru
borys
bos
bosco
bosi
bosilo
bosna
boso
boston
bot
both
botnia
bots
botticelli
bottom
boucher
bouches
bouille
boulder
bouloc
boulogne
bound
bourg
bourgogne
bourne
bow
bowie
bowling
box
boxford
boy
boyd
boys
boz
br
bra
braba
brabant
brad
bradenton
bradford
bradley
brads
braga
braganc
braganca
bragg
brahe
brahms
brain
braintree
brampton
branca
branch
branco
branda
brandenburg
brando
brandon
brandt
branford
bras
brasi
brasil
brasila
brassempouy
brat
bratislava
braun
braunschweig
bray
braye
bre
break
brecht
breda
brefabu
brefik
brefod
brefu
brein
breisgau
brekots
bremen
brenner
brent
brenta
brentwood
brescia
breslau
brest
bretagne
breuer
breuil
brewster
brian
brianza
brice
bridge
bridgeport
bridgeton
bridgetown
bridgewater
brie
brigham
brighton
brigitte
bring
brisbane
bristol
brita
britain
britannica
british
brittany
brittney
brno
broadon
broadway
brod
broken
bronisław
brook
brookfield
brookhaven
brookings
brookline
brooklyn
brooks
brookside
brou
broward
brown
brownsville
browser
browska
bru
bruce
bruckner
bruno
brunswick
brussel
bryan
bryn
bs
bsc
bu
buc
buch
buchhandlung
buchholz
buckinghamshire
buckland
bucures
bucyrus
budapest
bude
budweis
buena
buenos
buffalo
buffetaut
bug
bugs
buikumo
build
building
buk
buka
bukas
bukaso
bukem
bukeman
buki
bukil
bukis
buks
bulgara
bulgaria
bulletin
bumav
bumavan
bumavans
bumo
bumot
bumots
bundanons
buon
burbank
bureau
bureaucrat
buren
burg
burgenland
burgess
buritis
burke
burkina
burlington
burnham
burnsville
burton
bury
bush
business
busto
but
butler
butte
button
buttons
buu
buzek
bw
by
bydgoszcz
byron
bytes
c
ca
caballero
cabo
cabofrio
cac
cache
cachoeira
cadore
caenagnathasia
caete
calabria
calabro
calais
calan
calcio
caldas
caldwell
caledonia
calendar
calhoun
cali
california
californosaurus
calik
call
callaway
called
calo
calofik
calumet
calvados
calvi
calvo
calw
camboriu
cambridge
cambridgeshire
camden
camekea
cameron
camille
camp
campagna
campaign
campania
campanian
campbell
campo
campos
camptosaurus
camuno
camus
can
canaan
canadian
canavese
canby
cancer
candidate
candidates
candido
candy
cannot
cantal
canterbury
canton
cantor
canyon
capa
capao
cape
capela
capella
capim
capita
capital
capo
capri
car
caracas
caraco
caradoc
caraman
carcharodontosauridae
carcharodontosaurus
card
cardiodon
cards
care
carl
carlisle
carlo
carlos
carlsbad
carmel
carmen
carmichael
carmo
carney
carnosauria
carnotaurus
carol
carolina
caroline
carpenter
carrie
carroll
carrollton
carson
carter
carteret
carthage
carver
cary
casa
casal
casale
cascade
cascavel
casco
case
caselle
caspar
casper
cassano
castel
castelfranco
castell
castella
castellammare
castellana
castellar
castello
castelnau
castelnovo
castelnuovo
castelo
castiglion
castiglione
castilla
castle
castlewood
castro
catala
catalana
catalina
catalunya
catania
catarina
categories
category
caterina
cathedral
catherine
catholic
cattolica
caux
cava
caxias
cay
caykovskiy
cd
ce
ceara
ceaus
cecil
cecina
ced
cedar
cedi
cedom
cedon
cedons
cedoy
ceds
cedu
cehov
celina
celle
cemamusigalef
cenon
census
centauri
center
centerville
central
centralia
centre
centreville
centro
century
cerapoda
ceratopsia
ceratosauria
ceratosauridae
ceratosaurus
ceres
cerreto
cerrito
cerro
cervantes
ces
cesson
ceti
cetiosaurus
cezary
cf
ch
cha
challenge
chambly
champ
champagne
champaign
champigny
champion
championship
chan
chance
chandler
change
changed
changes
changing
channel
chantal
chantilly
chapel
chapelle
chaplin
character
characters
charente
charentes
charite
charles
charleston
charleville
charlie
charlotte
charter
chartres
chase
chateau
chatham
chattanooga
chaumont
chauvigny
chaux
chaves
chc
che
check
cheers
chef
chelmsford
chelsea
chemnitz
chen
cher
chesapeake
cheshire
chester
chesterfield
cheverny
cheyenne
chi
chiana
chianti
chicago
chico
chiemsee
chiesa
chiesanuova
chilantaisaurus
chile
chillicothe
chilton
chin
china
chinese
chino
chipping
chis
chiusa
choice
choose
chopin
chr
chris
christ
christchurch
christian
christina
christine
christmas
christoph
christophe
christopher
chronicle
chu
chuandongocoelurus
church
chure
ci
cia
cicero
cie
cies
cif
cifadilo
cifal
cifala
cifals
cifamu
cifapad
cifaroul
cifazif
cifazifa
cifazifs
cifik
cil
cila
cilas
cilis
cils
cilu
cin
cina
cincinnati
cinema
cio
cipriano
circleville
citation
citations
cite
cities
citoid
citrus
citta
city
ciudad
ciutat
cividate
civitella
ck
cka
cken
cki
ckoerner
cl
cla
clackamas
clair
claire
clara
claremont
clark
clarke
clarksburg
clarksdale
clarksville
claro
classical
claude
claudia
claudio
clay
clayton
cle
clear
clearfield
clearwater
clement
clemente
clermont
cleveland
cliath
clichy
click
clicking
clifton
clinton
clintonville
clive
clocher
close
cloud
clovis
club
cluj
cluses
cnn
co
coast
coatesville
coburg
cocoa
code
cody
coelophysoidea
coelurosauria
coeur
cog
cohasset
cohen
coimbra
col
colchester
cole
coleman
colin
collaboration
collaborative
colle
collected
collection
collections
college
collins
collinsville
colo
colombes
colombo
colonia
colonial
color
colorado
colors
colton
columbia
columbus
column
columns
com
come
comiclopedia
coming
comment
comments
commerce
commerciale
commission
committee
common
commons
communication
communities
community
como
compact
company
compass
competition
complete
completed
completes
complex
composer
compostela
compsosuchus
compton
comte
con
conceic
conceicao
concepcio
concerns
concerto
concord
concordia
conde
conduct
conference
conflict
conflicts
congress
connecticut
connor
conrad
consensus
consider
consideration
consistent
constant
constructed
consultation
consultations
contact
conte
content
contents
contest
context
continue
contra
contribute
contributions
contributors
conversation
conversations
converse
conway
cook
coolidge
cooper
coordinate
coordinator
cope
copernicus
copy
corac
coral
cordova
core
corey
corinth
cormeilles
cornelis
cornelius
cornell
corner
corners
corning
cornwall
corona
coronavirus
coronel
corpus
corre
correct
corrientes
corriere
corse
corte
cosmoglotta
costa
costalago
cottage
cottbus
cottonwood
could
council
countries
country
county
courcelles
couronne
cours
course
court
courtenay
cove
coventry
covid
covina
covington
cranbrook
cre
create
created
creating
creation
creek
cremasco
crest
crestwood
cretaceous
creuse
creve
cristal
cristo
criteria
critical
croce
crofton
croix
cromwell
cross
crosse
crowley
crown
cruz
cruzeiro
crystal
cs
css
ctor
cu
cudahy
cultural
culture
cumberland
cumbria
cunault
cunha
cup
curie
curitiba
current
currently
currie
curry
cursor
curtis
cusano
custom
cutler
cuyahoga
cycling
cymbospondylus
cypress
cyr
cz
cze
czerwin
czesław
d
da
dab
dabidir
dabin
dabina
dabinav
dabini
dabino
dabinoms
dabinon
dabinons
dabu
dabuk
dabuki
dabuks
dacia
dade
dadeadam
dadeadamajenot
dadeadons
dadila
dadilo
dafrika
dagetan
dageto
dagetom
dahn
dail
daila
daily
daisy
daja
dakepia
dakipia
dakipo
daklub
dakluba
daklubs
dako
dakota
dal
dala
dalaban
dalabon
dalarnia
dale
dalebu
dalef
dalekas
daleks
dali
dalim
dalims
dallas
dalofu
dalon
dalton
dam
damascus
dame
dami
damie
dan
dana
danadensit
danas
danbury
dance
danef
danefa
dani
daniel
daniels
danis
danny
dano
danolavs
dans
dantas
dante
danu
danunans
danuta
danvers
danville
daphne
dapomera
dapu
dare
darien
darina
darius
dariusz
dark
darlington
darmstadt
dartmouth
darwin
darya
das
dasbuk
daseva
dasevi
daslavik
daso
daspletosaurus
dastok
dat
data
database
date
dateformat
datikom
datuv
datuval
datuvala
datuvan
datuvanas
datuvans
datuvom
datuvots
dau
daughter
daut
dauti
dav
dava
davan
davans
dave
daved
davedi
davedon
davedons
davedu
davenport
davesu
davi
david
davies
davik
davis
davison
davo
dawson
dax
day
daya
days
daytime
dayton
daytona
daza
dbu
de
dead
deadam
deadama
deadams
deadik
deadline
deado
deadof
deadom
dean
death
debu
decatur
december
decide
decision
dedham
dedietom
dee
deep
deer
deerfield
def
default
defiance
deg
degbalid
degid
degjo
degkilid
degli
deglul
deglulid
degma
degtel
degtelid
degvelid
degyel
degyels
degzu
dei
deinonychosauria
deinonychus
dek
dekalb
deko
dekul
del
dela
delabuks
delano
delaware
delete
deleted
delfins
delgada
delhi
delis
delivered
delivery
dell
della
delle
dello
delouze
dels
delta
dem
dema
demi
deming
demis
demo
democrat
demokratik
demons
dems
demu
den
denis
denison
dennis
denton
dentro
denver
departamento
department
deployed
deployment
deportivo
depu
der
derby
derbyshire
derek
dermanla
derrick
des
descartes
describing
description
descriptions
desert
design
desin
desiri
desktop
desoto
dessau
det
details
determined
detik
detroit
dettelbach
deuta
deutsch
deutsche
deutschen
deutschland
deux
devant
develop
developed
developers
development
devices
devon
devrient
di
dia
diaba
dialog
diamante
diamet
diana
diano
dias
diba
dibo
dick
dickinson
dickson
dictionary
dictionnaire
did
didier
didra
die
died
diego
dientifu
dieppe
dies
dieter
dietrich
dieupentale
diff
different
diffs
difik
difon
difons
digital
dijonan
dijonans
dik
dika
dikam
dikans
dikas
diki
dikis
dikna
diko
dikom
dikon
dikons
dikos
dikosi
diks
diku
dikum
dikums
dil
dila
dilam
dilas
dilekan
dilekana
dilekanefa
dilekans
dileku
diletam
dilets
dili
dilis
dilo
dils
dim
dima
dimik
dimorphodon
din
dina
dinas
dingolfing
dinis
diniti
dinits
dino
dinodata
dinoruss
dinosaur
dinosaura
dinosaurabid
dinosauragrups
dinosauras
dinosaurasikloped
dinosauria
dinosauris
dinosaurs
dins
dio
diogenes
dipan
dipans
diplomi
dir
direction
directly
director
directory
dirichlet
dis
discogs
discovery
discuss
discussion
discussions
disevans
disin
disinan
disinans
disney
display
displayed
disruption
dissel
dissemination
distik
disto
diston
distributed
distribution
distu
diverse
diversity
dixon
dk
dmitriy
dmitriyevic
do
doat
doatis
doats
dobik
dobrowolska
dobu
doctor
document
documentation
dodge
dodson
does
doesn
dof
dog
doi
doing
dois
dokan
dokana
dokans
doki
doku
dol
dolce
dolo
dolton
dom
domenico
domingo
domingos
dominique
doms
domu
don
dona
donaja
donald
donamaxu
donation
donato
donau
donazila
done
donezk
dong
donik
donio
donna
dono
dons
donu
door
dora
dorado
dorchester
dordogne
doris
dorota
dorothea
dorset
dortmund
dos
dot
dota
doti
dotik
dotis
dots
douaumont
double
doubs
douglas
douro
dover
down
downey
doħrakapu
dr
dra
drachten
draconis
dracorex
draft
drafting
dragon
drak
drake
drama
dramat
dramatan
dramatana
dramatanas
dramatans
dramatavan
dramatavans
dramatis
dramats
draper
dream
drei
drenthe
dresden
drew
drexel
drims
dro
dromaeosauridae
dromaeosaurus
drop
dropped
druid
drummond
ds
dscf
dsyuba
dtirol
du
duarte
dub
duba
dubium
dublin
dudelange
dudley
due
duga
dugan
dugo
dugom
dugon
dugons
dugot
duinom
duisburg
dulon
duluth
dumas
dumont
dun
duncan
dundee
dunedin
dunis
duno
dunom
dunon
dunons
dunstable
dupage
durand
durango
durant
durham
during
dustod
dustodik
dutch
duto
duton
dutons
dvd
dyer
dyk
dylan
dz
død
e
each
eagle
earl
early
earth
easier
easily
east
eastern
eastlake
easton
easy
eau
eaux
ebinom
ebinon
ebo
ec
eccleston
ed
edadeado
edavedon
eddie
edeado
eden
edgar
edge
edgewater
edgewood
edicions
edinburg
edinburgh
edison
edit
edited
editing
edition
editions
editor
editors
edits
edmond
edmonton
edmontonia
edmund
eds
edu
eduard
eduardo
education
edward
edwardsville
edwin
ee
eeden
een
efe
egafd
egg
eglise
eh
ehfc
ehrenfest
eichinger
ein
eindhoven
eine
einem
einer
einstein
eisenach
eisleben
either
ek
eko
el
ela
elaf
elafa
elafas
elafs
elaine
elamu
elanas
elaphrosaurus
elas
elautom
elbe
eldorado
ele
election
elections
elements
elena
elgin
eli
elia
elias
eligible
eliot
elis
elisabeth
elitre
elizabeth
elizabethtown
elk
elkhart
elko
elkton
elle
ellen
ellington
elliot
elliott
ellis
elmhurst
elmira
elmwood
elo
elopteryx
els
elsa
else
elvis
elyria
elz
em
email
embu
emden
emerson
emi
emil
emilia
emilie
emma
emmanuel
emmanuelle
emobons
emporia
empty
en
ena
enable
enabled
enabling
enclos
encourage
encouraged
encyclopaedia
encyclopedia
encyclopædia
end
enfield
enforcement
eng
engagement
engineer
engineering
england
englert
englewood
english
enna
ennepe
ennis
enrico
enterprise
entre
entries
entry
environment
environments
enza
eo
eoraptor
epanterias
epfenbach
ephraim
epladom
epsilon
er
era
erde
erfurt
ergue
eric
erich
eridani
erie
erik
erika
erlernung
ernest
ernesto
ernst
error
errors
erste
ersten
erwin
es
esa
escambia
escaut
esch
escondido
escu
esp
espan
especially
esperanc
esperanca
esperanto
espi
espn
espncricinfo
essen
essential
essex
essonne
est
esta
estas
estates
este
estelle
estero
estremadura
et
etc
etflanu
ethnologue
ettimik
ettimo
eu
euclid
euclides
euge
eugen
eugene
eugenio
eugeniusz
eukleides
euler
eunice
eure
eureka
euro
eurohandball
europa
europe
european
eustis
eustreptospondylus
eva
evans
evanston
evansville
evedon
evedons
even
evening
event
events
eventually
ever
everett
evertype
every
everyone
everything
evic
evil
evolution
ewa
ex
examen
example
examples
excelsior
except
exeter
existing
expand
expect
expected
experience
experienced
explorer
exsudo
extension
extensions
external
ez
ezra
f
fa
faber
fabian
face
facebook
fagot
fagotu
fair
fairfax
fairfield
fairland
fairmont
fairview
falims
fall
fallon
falls
falmouth
fam
fame
famik
famikom
famikon
famiku
familia
family
famu
fan
fana
fano
fans
fantasy
faq
far
fara
faraday
fargo
farm
farmersville
farmington
farms
farnham
faro
fas
fashion
fasoliad
faster
fat
fata
fatan
father
faulkner
fav
favorite
fayetteville
fc
fdc
fe
fealota
feature
featured
features
feb
february
febul
fed
feda
fedala
federal
federico
fedik
fedorowicz
feedback
feel
feels
fefik
feje
fel
felice
feliks
felipe
felix
feltria
feminism
femur
fer
ferdinand
ferdinando
ferguson
fermat
fermo
ferna
fernando
ferndale
ferranti
ferraz
ferreira
ferrer
ferretti
ferry
festival
festlibro
festschrift
few
feyel
ff
fff
fi
fiba
fiction
fid
fida
fidi
fido
fidon
fidons
fidot
fiedik
field
fields
fiesch
fiesso
fifa
figaro
fight
figurasketan
figurasketans
figure
fik
fikam
fikama
fikas
fiki
fikis
fiko
fikons
fiks
fiku
fikulik
fikum
file
files
filho
filip
filipua
fill
filled
fillmore
film
filma
filmadilekan
filmadramatan
filmot
filmots
filmpolski
filmportal
films
filmweb
filosop
filosopa
filosopan
filosopana
filosopanas
filosopans
filosopi
filosopik
filter
fima
fimik
fin
fina
final
find
finhan
fini
finik
finiko
finikon
finiste
finland
fino
finon
finot
finu
fio
fiorentino
fire
firenze
first
fis
fischer
fisher
fit
fitafomik
fitchburg
fitis
fits
fitz
five
fix
fixed
fixing
fizir
fk
flag
flagon
flags
flan
flana
flans
flanu
flapamusigo
flat
flauto
flen
flenas
flenef
flens
flensburg
fletcher
fleury
flint
flita
flito
flo
flor
flora
florence
florent
flores
floresta
florian
floriano
florida
floro
flors
floru
flow
floyd
fluku
flumed
flumeda
flumeds
flumon
flun
fluni
flunilabik
flunilabiku
fluno
flunom
flunon
flunons
flut
flynn
fo
fob
focus
focused
fodo
fogina
foginik
fol
folid
folk
folklore
follow
following
fols
folsom
folu
fom
foma
fomam
fomas
fomaxu
fomi
fomis
fomo
fomon
fomons
foms
fomu
fon
fona
fond
fonda
fonds
fons
fontaine
fontaines
fontana
fontenay
fontevraud
fonun
football
footballdatabase
footballers
foothills
for
forbach
forbes
force
ford
fore
forest
forestville
forges
fork
forks
forli
form
formal
format
formation
formatted
formatting
former
formosa
formoso
formula
forrest
forrester
forst
fort
forte
fortuna
forum
forward
fossil
foster
fot
foti
fotografan
fotografans
fotografot
fotografots
fotografs
fots
foucault
found
foundation
founder
fountain
four
fourier
fovik
fovo
fovon
fowler
fox
foy
foyu
foz
fr
fra
frac
frameless
franc
franca
francavilla
france
frances
francesco
franche
francis
francisco
franciszek
franco
frank
frankfort
frankfurt
franklin
franko
frans
fransa
franz
franziska
fre
fred
freda
fredadramatan
fredadramatans
frederick
fredericksburg
frederik
free
freedom
freehold
freeman
freeport
freetown
freiberg
freiburg
freire
freitas
fremont
french
frey
frida
friday
friedberg
friedr
friedrich
friedrichshafen
friendly
frikop
frikopa
frikopapu
frikopik
frisa
frisco
fritsch
fritz
friuli
fro
from
front
frost
frut
frutik
frycz
fs
fsn
ftisid
fu
fugs
fulda
full
fullerton
fulton
fulu
funchal
function
functionality
functions
funding
fundraising
funds
funigs
funon
further
fussballdaten
fut
futaglo
futs
future
fyodor
fyodorovic
g
ga
gabriel
gabuna
gad
gadgets
gadramat
gadramatan
gadsden
gaeno
gaenon
gafotas
gainesville
gala
galesburg
galileo
gallatin
gallen
galleries
gallery
galt
galton
galveston
gam
gambiya
game
gamma
gan
gana
ganims
gans
gantt
gap
garci
gard
garda
garden
gardens
gardner
gardone
garenne
garfield
garidech
garland
garlicki
garmisch
garner
garonne
gary
gas
gased
gaseda
gasedem
gasedi
gasedil
gasediman
gasedimans
gaseds
gasosaurus
gastel
gaston
gate
gauss
gautier
gavan
gay
gayeroticvideoindex
gdan
gdynia
ge
geb
geban
gebans
gebi
gebo
gebom
gebon
gebons
geboy
gebs
geburtstag
gedichte
geilik
geiloti
geilotu
geko
gel
gelderland
gelsenkirchen
gemini
gen
gender
gene
genera
general
generated
genest
geneva
genik
genis
gennadiy
genova
gent
genus
genyodectes
genzano
geo
geoffrey
geological
geomet
geometik
georg
georga
george
georges
georgetown
georgia
georgiy
georgiyevic
ger
gera
gerais
gerald
geraldine
gerard
gerardm
gerhard
germa
germain
german
germantown
germany
germik
gers
gertrud
geschichte
gestorben
get
geta
geto
getof
getom
geton
getons
getting
geva
gevo
gevom
gevon
gge
ghent
ghica
ghil
gi
giacomo
gianagretik
giant
gibraltarik
gien
gießen
gif
giganotosaurus
gigi
gijo
gik
giko
gil
gilbert
giles
gilles
gineya
ginneken
gioia
gioiosa
gion
giorgio
giovanni
girard
girardeau
girl
girls
gironde
gis
gisela
git
gita
gitafilosop
gitaran
gitarans
gitavan
gitavans
giulia
giuliano
giuseppe
giusto
give
given
givo
givom
givon
givu
gje
gl
gladatima
gladbach
gladstone
glamat
glasgow
glass
glastonbury
gleipo
glen
glendale
glendora
glenn
glenview
glet
glidis
glin
glise
gliwice
glo
global
globe
glofo
glofon
glofons
gloria
gloucester
gloucestershire
glu
glun
gnu
go
goal
god
goda
godas
godav
godava
godavan
godavans
godavi
godo
gods
goes
goethe
gogh
gohelle
goia
goiania
goias
going
gold
goldberg
golden
goldfuss
goldik
goldsboro
golo
golom
golon
gom
gon
gonc
goncalo
gondwanop
gonesse
gons
gontier
gonza
gonzaga
good
google
gordon
gos
goshen
gospul
gotla
gott
gottfried
gottlieb
gould
gouveia
gov
governance
goya
gra
grabowski
grace
graf
grafa
grafton
graham
gramat
gramata
gramati
gramatik
grammaire
grammar
grammatica
grammatik
gran
granada
granby
grand
grande
grandview
grange
granger
granite
grant
granted
grants
granville
graphs
grappa
gravatai
grave
gravenhage
gray
graz
gre
great
greater
greatest
greda
greeley
green
greencastle
greendale
greenfield
greensboro
greensburg
greenville
greenwich
greenwood
greer
greetings
gregorio
gregorius
gregory
greifswald
grenada
grenade
gresham
greta
gretadilo
gretik
gretikis
gretiks
gretiku
gretikum
gretikums
gretna
gretot
gretota
gretu
griffin
grigoriy
grigoryevic
grika
gro
groningen
gross
grosseto
grosso
groton
grotte
group
groups
grove
groveton
growth
gru
grunau
grup
grupa
grupas
grupi
grups
grusiya
grzegorz
gs
gu
gua
guac
guadalajara
guai
guarantee
guararapes
guarda
guardian
guaruja
guayaquil
guban
gubans
gud
gudik
gudiko
gudiku
gudikum
gudikumo
gudu
guez
guide
guidelines
guiler
guilford
guillaume
guillermo
guimara
guimiliau
gulf
gulfport
gustav
gustavo
gustaw
gustul
gutenberg
guttenberg
guvan
guverik
guy
guð
gvaya
gyo
h
ha
haag
haar
haarlem
haas
habana
hachette
hackensack
had
hadley
hadrosauridae
haeckel
hagen
hail
hainaut
haitiya
halberstadt
half
halfway
halifax
halina
hall
halla
halle
halstead
ham
hamburg
hamilton
hamm
hammond
hampden
hampshire
hampstead
hampton
han
hancock
hand
handling
hanna
hannibal
hannover
hanns
hanover
hans
hansen
happen
happening
happens
happy
har
harald
harassment
harbor
hard
hardy
hari
harju
harkiv
harlan
harlingen
harmony
harold
harper
harris
harrisburg
harrison
harrisonburg
harry
hart
hartford
hartmann
hartnell
harvard
harvey
harwich
harz
has
hastings
hat
hatfield
hattiesburg
haumont
haupenthal
haupt
hausdorff
haut
haute
hautes
hauts
havayua
have
havel
haven
haverhill
having
havre
hawkins
hawley
hawthorne
haydn
hayesville
haylo
hays
hayward
hazleton
he
head
health
hear
heart
heather
hebrew
hebreyapu
hedwig
hegel
heidegger
heidelberg
height
heights
heilbronn
heiligen
heinrich
heintzeler
heinz
held
helen
helena
helene
helga
hell
hello
helmut
help
helped
helpful
helping
helsinki
hemet
hempstead
henderson
hendersonville
hendrik
hendrix
henley
hennepin
henri
henriette
henrik
henry
henryk
heptasteornis
her
herald
herbert
here
hereford
herefordshire
herman
hermann
hermitage
herna
herndon
herne
herodotos
herrmann
herrn
herrstein
hertford
hertfordshire
hertha
hesa
het
heterodontosaurus
hewitt
hi
hialeah
hiba
hibolitan
hicil
hidalgo
hidden
hidramatan
hiel
hiela
hielas
hiele
hieli
hiels
hieroglif
hierusalem
hifutaglo
high
highland
highlands
highlight
highlighting
higladahokiyan
hikanitan
hikrika
hilaire
hilary
hildesheim
hill
hillary
hillgentleman
hilliard
hills
hillsboro
hillsborough
hillsdale
hilltop
hilpoltstein
hilton
him
himatan
himusigan
hindiy
hingham
hinsdale
hipledan
his
historia
history
hitchcock
hitler
hitu
hl
hlingen
hne
ho
hobart
hobbes
hobbs
hof
hoffman
hoffmann
hola
holbrook
holden
holiday
holland
hollander
hollister
holly
hollywood
holm
holmes
holoubek
holsta
holstein
holtz
holyoke
homburg
home
homer
homestead
homewood
homme
hondura
honed
honedi
honedilabik
hongkong
honkea
honolulu
honor
hope
hopedale
hopewell
hopkins
hopkinton
hoppe
horizontal
horizonte
horn
hornbach
horsham
horst
hospital
host
hosted
hot
hotel
hour
hours
house
houston
hove
how
howard
however
hr
hrer
hrujevsku
hrung
htm
html
htmlhttp
htmlhttps
http
https
hu
hua
huber
hubert
hudson
huene
hugh
hugman
hugo
hulke
hull
human
humanities
humboldt
hunt
huntington
huntsville
hurley
huron
hurst
hutchinson
hutt
i
ia
iafd
ian
ias
iauliai
iba
ibinom
ibn
ibo
ibsen
ic
ice
ich
ichthyopterygia
ichthyosauria
ichthyosaurus
ico
icon
icons
id
ida
idaho
idea
ideas
idiom
ido
if
ifi
ig
igarape
igivom
ignacy
ignaz
igo
igor
igorevic
iguac
iguacu
iguanodon
iguanodontia
ii
iii
ijenot
ijenots
ijzeren
ik
iko
ikumo
il
ila
ili
iliescu
ill
ille
illinois
iltis
im
image
images
imagesize
imdb
immanuel
impact
imperial
implementation
implications
important
impr
improve
improved
improvements
improving
in
ina
inactive
inactivity
inc
include
includes
including
increased
increment
independence
index
india
indian
indiana
indianapolis
indianola
individual
individuals
indre
ine
inem
inferiore
info
infoboxes
inform
information
informed
infraordo
infrastructure
ingeborg
inglewood
ingolstadt
ingrid
inhabitants
ini
initial
initiative
inn
innsbruck
input
ins
insert
inserted
inserter
inserting
inside
instagram
instead
instructions
inter
interested
interface
interieur
interlaken
interlingua
interlingue
intermezzo
internacia
internacional
international
internationale
internationalen
internet
interview
interviews
interwiki
into
introduction
inverness
invisible
invitation
invite
invited
involved
inwonertal
ion
iona
ionica
iowa
iparraguirre
ipswich
ipu
ipv
ir
irc
irena
irina
irondale
ironton
irpino
irritator
irvine
irving
is
isa
isaac
isabel
isaku
isbn
ischia
ise
isisaurus
island
isle
islip
ismail
isn
iso
isola
isonzo
israel
israeli
issn
issue
issues
ist
istria
it
ita
itabaiana
itabapoana
italia
italian
italiano
itambe
itaporanga
item
items
itf
ithaca
ito
itreigik
its
itself
itu
iuj
iv
iva
ivan
ivanovic
ivanovna
ives
ix
iz
izabela
izabella
j
ja
jacek
jacinto
jack
jackie
jackson
jacksonville
jacob
jacobs
jacques
jadwiga
jaf
jafa
jafam
jafan
jafhusa
jafo
jafom
jafon
jafons
jafu
jahrgang
jahrzehnt
jakarta
jake
jakob
jakub
jalgpall
james
jamestown
jamie
jan
jane
janeiro
janet
janina
jansen
january
janusz
japanese
japik
jaragua
jardim
jardin
jarosław
jason
jasper
javascript
javier
jay
jazz
jcerbu
jcik
je
jean
jeannette
jeff
jefferson
jeffersonville
jeffrey
jeik
jeikik
jelodan
jelodo
jelodom
jena
jenav
jenava
jenavan
jenavans
jenavik
jenet
jenets
jennifer
jennings
jeno
jenon
jenons
jenot
jenotas
jenotem
jenotema
jenotemi
jenotemipenav
jenots
jens
jensen
jenu
jeremy
jerome
jerry
jersay
jersey
jerzy
jesi
jespersen
jessica
jest
jesu
jesus
jevcenko
jevod
jeziorna
ji
jidramatan
jidramatana
jiel
jiela
jilautan
jim
jimatan
jime
jimmy
jin
jinepuedan
jiniko
jinon
jinos
jivolapu
jlesa
jlesviga
jleyer
jmb
jo
joa
joachim
joan
joanna
joao
joaquim
joaquin
joe
joel
joey
joh
johan
johann
johanna
johannes
johannesburg
john
johnny
johns
johnson
johnston
johnstown
join
joining
jol
jolanta
joli
joliet
jols
jon
jonas
jonathan
jones
jonesboro
jong
jono
jonom
jonon
jonons
jonu
joplin
jordan
jorge
jos
jose
josef
joseph
josh
joshua
journal
journals
journey
joy
joyce
jpg
jr
js
ju
jua
juan
juanma
judith
judo
jujuy
jul
jula
jules
julia
julian
julie
julien
julio
julius
juliusz
juls
july
jun
junction
june
juneau
jura
jurassic
just
justify
justin
jutta
jveiza
jviza
k
ka
kabled
kabom
kabova
kada
kadare
kaed
kaenal
kaenalav
kaenav
kaenava
kaenavik
kaenik
kafa
kafilosop
kagased
kagaseda
kagaseds
kaiser
kaiserslautern
kaj
kajenav
kaklub
kakluba
kaklubas
kaklubi
kaklubs
kakongred
kal
kalad
kaladi
kaladik
kalads
kalamazoo
kaled
kaleda
kaleod
kaliforna
kaliningrad
kalisz
kalkul
kalkulam
kalkulav
kallaste
kalmaria
kam
kama
kamala
kamas
kambrium
kambriuma
kambriumik
kameruna
kami
kamik
kamil
kamin
kamp
kams
kamu
kamuf
kamufa
kamufi
kan
kana
kanada
kanas
kane
kanef
kanefa
kanis
kanitan
kanitana
kanitans
kanitilautan
kanitilautans
kanits
kankakee
kanom
kanon
kanono
kanons
kanoy
kans
kansas
kant
kantat
kanton
kantons
kap
kapi
kapor
karel
karen
karier
kariera
karieri
karin
karl
karla
karlsruhe
karolina
kas
kasaka
kased
kassel
kastanienallee
kasted
kat
kata
katalona
katarzyna
kate
katharina
kathedrale
katherine
katowice
katulik
kaufmann
kaunas
kausch
kav
kavan
kavans
kavi
kavik
kavol
kazan
kazeton
kazimierz
ke
keblu
keegan
keene
keep
keeping
keil
keith
keizer
kel
kela
kelas
kele
keli
kelik
kelis
keller
kellner
kellogg
kelly
kelos
kelosi
kels
kelso
kemal
ken
kendall
keninu
kenmore
kennedy
kenneth
kenosha
kent
kentucky
kenya
kepler
kerckhoffs
kettering
kevin
kevoban
kevobom
key
keyboard
keynes
keystone
kg
khan
khayya
ki
kian
kiel
kielce
kiemav
kiemavan
kiemavans
kiemavik
kik
kiko
kikodo
kil
kildeg
kilid
kilna
kiltum
kilu
kim
kimberly
kimmeridgian
kind
king
kingman
kingston
kingstown
kingsville
kinik
kino
kinshasa
kinski
kinston
kio
kion
kiped
kipedik
kipeds
kirchberg
kirche
kirchhoff
kirgida
kirilik
kirill
kirk
kirkland
kirkwood
kis
kisi
kisten
kit
kla
klad
klada
kladabim
klads
klagenfurt
klaipe
klara
klarina
klata
klaus
kleilik
kleilu
klein
kleines
kleinmachnow
klemom
klera
klifs
klimat
klino
klinu
klo
kloks
kloster
kloten
klu
klub
kluba
klubik
kludo
kluo
kluv
km
knab
kniele
knight
know
knowledge
known
knoxville
ko
koap
koapa
koapi
koba
kobikam
koblenz
kobo
kobolo
koboyu
kobu
koch
kod
koda
kodas
kodi
kodon
kodons
kods
kodu
koedon
kof
kohtla
kok
kol
kola
koldik
kolkata
kolko
kolovrat
kolumba
kolun
koluna
kom
koma
komip
komipan
komipans
komipinoganu
komitetan
komitetanef
komiy
komiya
komiyanas
komm
komorua
komot
komota
komotabalatam
komotanef
komotanefa
komotanefs
komotas
komotazila
komots
kompad
kompena
kompeno
kompenof
kompenom
kompenon
komplitik
koms
komunik
kon
kona
kondo
kondrat
kondratiuk
koned
koneds
konflit
konfrontacja
kongoa
kongred
konlet
konletateor
konleto
konlets
kono
konot
konota
konots
konrad
kons
konsa
konstancin
konstantin
konstantinovic
konstanz
kontina
konzedan
konzedans
koordinats
kop
kor
korean
koreya
kornido
kors
korsikea
korte
kos
kosa
kosmopolan
kosova
kostarika
kostas
kot
kota
kotenu
koterski
kots
koupon
kov
kova
kowalski
kp
kr
kra
krako
kramer
kran
krana
krani
krause
kravcuk
kred
kredom
kredons
kredoy
krefeld
kreis
kretat
kretata
kretatik
krig
kriga
krigik
krika
kristina
kristus
krit
kritid
kritik
kro
kroasa
kru
krystyna
krzysztof
krzyz
ks
kt
ktik
kto
ktronik
ktu
ku
kubea
kubrick
kuliv
kuliva
kulivik
kultan
kultans
kumar
kumo
kumom
kumon
kun
kundera
kuopio
kuprin
kura
kuradu
kuratik
kuratiko
kuratikumo
kurda
kurmanciy
kurt
kurze
kusatif
kuznezov
kvadamilmets
kveatora
kvip
kyle
kz
københavn
l
la
labastide
label
labo
labob
labof
labom
laboms
labon
labons
labots
labu
labun
labuns
lac
lacroix
lad
lada
ladel
ladels
ladva
lady
laf
lafab
lafaba
lafabetik
lafabs
lafayette
lafganista
lafik
lafs
laga
lago
lagoa
lagoas
lagos
lagrange
laguna
laidu
lailifons
lair
laje
lajos
lak
lakdaria
lake
lakeland
lakes
lakeside
lakeville
lakewood
laks
lalaska
lalbana
lalef
lalefa
lalegs
lalgebrad
lalgorit
laliterata
laljera
lam
lama
lamar
lambert
lambiek
lambro
lamerika
lamont
lampertheim
lampo
lan
lana
lanas
lanav
lanavan
lancashire
lancaster
land
landau
landes
landora
lane
lanem
lang
lange
langen
langley
language
languages
langue
languedoc
langues
lanhalta
lani
lanka
lans
lansdowne
lansing
lanta
lapa
lapena
lapenza
lapu
lara
laraba
larabik
larga
largaua
large
largentik
largest
largo
lario
larisa
larkspur
larmeniya
larry
lars
lartig
lartu
las
lasa
lasbed
last
lasu
lasumom
lasumon
lat
late
later
latest
lati
latikumo
latin
latina
latinans
latini
latinik
latino
latlantean
latviya
lauderdale
launched
laura
lauragais
laurasiyop
laureana
laurel
lauren
laurent
lauro
laustrala
lautan
lautana
lautanas
lautanis
lautans
lauterbourg
lauto
lautom
lauton
lautot
lautotas
lautotis
lautots
laval
lavey
lavogan
lavogans
lavoir
lawn
lawrence
lawrenceburg
lawrenceville
lawson
lawton
layer
lazio
lazorua
lbu
ldik
ldiku
ldikum
ldot
ldoti
ldotu
le
lea
lead
leader
leadership
league
leandro
learn
learning
least
leave
leavenworth
lebanon
leben
lebu
lebuk
lebuka
lebukas
lebuki
lebukis
lebuks
lecce
leced
lecedas
lecedi
lecedis
lecedom
lecedon
lecedons
leceds
lech
led
lederer
ledino
lee
leeds
leesburg
leeuwarden
lefamu
left
legacy
legad
legal
legend
legik
leglu
legretik
legudik
lehigh
lehrbuch
leibnitz
leibniz
leicester
leiden
leiga
leigh
leigo
leigod
leigodu
leigon
leigu
leipzig
leiria
leisure
leitmeritz
lejeno
leka
lekaled
lekan
lekana
lekanan
lekananas
lekanans
lekanas
lekanik
lekans
lekomip
lekoned
lekoneda
lekonedas
lekonedis
lekoneds
lekontina
lekvadora
lelo
lelogom
lelogon
lelogons
lembach
lemesed
lemesedi
lemira
lemo
len
lenan
lenclos
lengua
lenik
leningrad
lenla
leno
lenola
lens
lent
leo
leodu
leominster
leon
leonard
leonardo
leonhard
leonid
leonidovic
leontovu
leopold
leopoldo
lepa
lepleds
leps
lerotik
les
lesag
lesagom
lesagon
lesagons
lesags
leset
lesets
lesien
lesil
lesley
leslie
lespad
less
lestiya
leszczyn
leszek
let
leta
letaf
letafs
letan
letans
letik
leto
letruska
lets
letter
letters
leu
lev
leval
levala
levemo
leverkusen
levittown
levolut
levoluta
levolutan
levolutans
levoluti
levolutik
lewis
lewisburg
lewiston
lewisville
lexington
lez
leza
lezenodik
lfb
lfo
lfom
lfon
li
lia
liam
liaoning
lib
libalifik
libana
libera
liberal
liberla
liberty
libik
librairie
library
libre
libro
licin
licina
licini
licinon
licinons
lid
lida
lidia
lids
lie
liebe
lieder
liegik
lien
lieno
liens
lietuva
lieu
lif
lifa
lifafomas
lifafoms
lifajena
lifamod
lifav
lifavan
lifavans
lifavik
lifayelas
lifayels
life
lifi
lifik
lifo
lifom
lifon
lifons
lifu
light
ligta
ligueil
ligure
liguria
lijst
lik
like
likely
liko
likom
likowski
liks
liktiosaur
liktiosauras
liktiosaurs
lil
lila
lille
lim
lima
limaf
limafs
liman
limanas
limanis
limans
limatat
limatats
limburg
limburga
limited
limousin
lin
linas
lincoln
lincolnshire
linda
linden
lindenhurst
lindiyans
line
linedata
lingla
lingu
lingua
lingvo
link
linked
links
linn
linnaeus
lins
lintelek
lintelekamalu
linz
lio
lira
liraka
lireya
liri
lis
lisa
lisboa
lised
lisedi
liseds
lisladea
lisle
list
lista
liste
listed
lists
lit
litaliya
litav
litayels
litchfield
literat
literata
literatav
literati
literatik
literatura
literature
litoral
litte
little
littleton
liva
live
livenza
livermore
liverpool
livingston
livorno
livu
lix
liza
ljubljana
lker
ll
lla
ller
lloyd
ln
lo
local
localisation
localised
localising
location
loches
locke
lockhart
lockport
lodi
lodigiano
lodik
lof
lofu
log
loga
logan
logged
logis
logo
logod
logolo
logs
loing
loir
loire
loiret
lolo
lom
loma
lomagne
lomanef
lomanefa
lomanefas
lomanefs
lombardia
lombardo
lon
lona
london
long
longer
longiceps
longmeadow
longview
lono
lons
look
looking
loos
lop
lopa
lopez
lopik
lops
lorain
lord
lordovig
lordovigik
lorenz
lorenzo
loreto
loretz
lorraine
los
losfeld
lost
lot
lota
lothar
lotido
lotograf
lots
lou
louis
louisa
louise
louisiana
louisville
loup
lourenc
lourenco
lourinha
louvemont
love
lovecraft
loveland
lovelogam
loves
low
lowell
lower
loxin
loxita
loy
loze
ls
lsejo
lska
lt
ltspra
ltum
lu
lua
lubbock
lublin
luc
luca
lucania
lucas
lucca
luce
lucie
lucy
ludlow
ludwig
ludwigshafen
ludwik
lufamu
lugandaya
lugano
lugo
lui
luigi
luis
luiz
luka
luke
lukraya
lul
lulid
luls
lulu
lum
luna
lund
lunel
lunenburg
lunet
lunetu
lunik
luniku
lunikum
lunomiko
lunot
lunota
lunoti
lunotu
lunu
lupsalia
lurala
luray
lurduvo
lurood
lurooda
luruguya
lusbeka
lutapof
lutz
luveratik
luveratiko
luxa
luxembourg
luxemburg
luz
luzern
luzia
lva
lvarez
lvestrov
lviv
lvovic
lyatoju
lydia
lyme
lynchburg
lynn
lynnwood
lynwood
lyon
lys
lyubov
lyudmila
m
ma
maanen
maastricht
maastrichtian
macara
macau
macerata
machado
machalica
machiavelli
machine
machulski
maciej
maciejewski
macleod
macomb
macon
mactutor
mada
madagaskarea
maddaloni
made
madison
madisonville
madonna
madrid
mafam
mafo
mafra
maga
magalha
magazine
magdalena
magdeburg
mage
maggiore
magic
magliano
magna
magnetik
magnetim
magnolia
magny
magod
magodan
magods
magot
magyar
maher
mai
maidla
maier
maifu
mail
mailing
main
maine
mainstream
maintain
mainz
maior
maire
mairie
maisons
maja
major
make
makedona
makedoniya
makes
making
maksim
mal
mala
malabry
malafaya
malas
malat
malaysiya
malcolm
malden
male
mali
malibu
malik
maliya
mallorca
malo
malon
mals
maltea
malu
mam
mamalu
man
mana
manager
manas
manassas
manche
manchester
mandy
manfred
manga
manhattan
mani
manie
maniraptora
manis
manitoba
mankato
mann
mannheim
manolito
manor
mans
mansfield
mantova
mantua
manual
manuel
manville
many
mapframe
maple
mapleds
maplewood
maprograms
maps
mar
mara
maranha
maranhao
marano
marathon
marblehead
marc
marcel
marcellin
march
marche
marcin
marco
marcos
marcus
mare
marek
margaret
margarete
margaretha
margarita
margate
margherita
marguerite
mari
maria
marian
mariana
marianne
mariano
maricopa
marie
marietta
marijampole
marilyn
marin
marina
marino
marinus
mario
marion
maritime
maritimes
marittima
marius
mariusz
mariya
mark
marked
market
markham
marko
marks
markus
marlborough
marlene
marly
marne
maroka
marolles
marquette
mars
marsan
marseille
marsh
marshall
marshfield
marsi
marta
martha
marti
martigues
martill
martin
martina
martinez
martinikea
martino
martinsburg
martinsville
martu
marvin
marx
mary
maryland
marys
marysville
maryville
mas
masat
mascheroni
masi
masiakasaurus
mason
mass
massa
massachusetts
massapequa
mastan
mastani
master
mastroianni
mat
mata
matans
matemat
matemata
matematan
matematanas
matematans
matemati
matematik
matenot
matenoti
mateo
matera
materials
mateus
mateusz
mathematical
mathematics
mathias
mathurin
matikof
matikom
mato
matt
matthew
matthews
matthias
mau
maur
maurice
maurizio
mauro
mav
mava
mavan
mavans
mavik
mavo
max
maximilian
maxu
maxwell
may
mayenne
mayer
mayfield
maynard
mayo
mayr
mays
mayul
maywood
mazowiecki
małgorzata
mbol
mburga
mccoy
mcdonald
mchenry
mclean
mcminnville
me
meadow
meadows
meadville
means
mebaston
mechanicsville
med
meda
medford
media
mediawiki
medical
medina
medo
medon
medu
medway
meet
meeting
meetings
megalosauridae
megalosauroidea
megalosaurus
meina
meine
meiningen
mek
mekavapu
mekavik
meko
mel
mela
melara
melbourne
melik
melle
melrose
mels
mem
member
members
memorial
memoriam
memphis
men
mena
menade
menas
menav
mendelssohn
mendes
mendon
mendoza
menef
menefa
menefe
menik
menis
menlo
meno
menodabik
mens
ment
mentor
menu
menus
mer
mercato
merced
mercedes
mercer
meriden
meridian
merop
meropa
meropik
merrill
merrimack
meru
merunka
merville
mes
mesa
mesnil
mesopota
mesquite
message
messages
met
meta
metafu
metal
metas
metod
metoda
metodas
metodi
metodis
metods
mets
metsaku
metz
meurthe
meuse
mexico
meyer
mez
mfon
mfoni
mfonik
mfons
mi
mia
miami
mianmara
michael
michał
michel
michelangelo
michele
michelle
michigan
mick
mickey
microraptor
mid
middle
middleburg
middlefield
middlesex
middleton
middletown
midgley
midi
midland
midlands
midnight
midvale
mie
mieczysław
mied
miedet
miedetom
miedeton
miedis
miedon
mieds
miedu
mies
might
miguel
mihai
mihail
mihailovic
mihaylovic
mik
mika
mike
miki
miko
miks
miku
mikum
mil
mila
milan
milanese
milano
mile
miles
milford
milgramas
milgrams
milig
milit
milita
military
militello
militik
mill
millbrook
millcreek
milledgeville
miller
millington
million
mills
millville
milmets
milton
milwaukee
milyel
min
minas
mind
minden
mines
minho
minister
ministeran
minmi
minneapolis
minnesota
minot
mins
minsk
mint
minutes
mir
mira
mirabel
mirage
miranda
mirim
mirosław
mis
mission
mississippi
missouri
mit
mitchell
mitifidaf
mitifidafs
mitifidik
mitifido
mixosaurus
mkrtchyan
mm
mma
mme
mna
mnad
mo
mob
mobile
mobo
mobob
mobom
mobon
mobons
mobs
mod
mode
model
models
modena
modern
modesto
modi
mods
moffat
mogi
mogliano
mohamed
mohammad
mohave
mohr
moines
mojo
moldava
moldavia
moleku
molie
molik
molina
moline
molise
moll
molog
mom
mon
mona
monaco
monaka
monc
monde
mondo
monferrato
mongola
mongolia
monica
monika
monmouth
monroe
monroeville
monrovia
mons
mont
montabaur
montagne
montagny
montague
montalto
montana
montano
montauban
montclair
monte
montebello
montecalvo
montecchio
montenegra
monterey
monterosso
monterrey
montes
montevideo
montgomery
month
monthly
months
montigny
montpelier
montpellier
montrabe
montre
montreuil
montrose
monts
montville
monument
moon
moore
mooresville
moorhead
mor
morbihan
more
moreno
morgan
morgantown
moriell
morita
moritz
morning
moro
morrinhos
morris
morrison
morristown
morrisville
morro
mort
morte
mortimer
morto
morton
morts
mos
mosasaurs
moscow
moselle
moses
moskav
moskva
moss
most
mostar
mosyenko
mot
mota
motani
moted
motedans
motedo
moteds
moto
motof
motom
mots
motta
motte
mou
mount
mountain
moura
mouskouri
move
movement
movie
movies
mozart
mp
mpik
mr
ms
msg
mt
mtla
mu
much
mud
muf
mufa
mufi
mufon
mufovik
mufs
muhammad
muiderman
muik
mul
mulhouse
mulik
muls
multi
multilingual
multiple
mun
muna
mundo
municipality
munster
munzinger
mur
mure
murfreesboro
muri
murray
muse
mused
museda
museum
musiał
music
musical
musig
musiga
musigakada
musigalef
musigan
musiganef
musiganefa
musiganefas
musiganefs
musigans
musigi
musigik
musigo
must
mustang
mutom
muton
mutons
mutoy
mw
my
myers
myrtle
n
na
naatom
nabo
nabokov
nach
nacional
nad
naedilo
naf
nafeda
nafo
nai
naish
nalifav
nam
nama
namaglo
namapena
name
named
namespace
namibiya
nams
namuf
namur
nan
nana
nanas
nancy
nanis
nans
nantes
nantucket
naoloveik
naoloveiko
naoloveikod
napa
naperville
naples
napoli
napu
narva
nas
nash
nashua
nashville
naskig
nassau
nat
nata
natajenava
natal
natalia
natalya
natapu
natavan
nateurs
natik
nation
national
nationalbibliothek
nationale
native
nato
natopa
natopad
natural
nature
nau
naumburg
nav
navajo
navarre
navayovo
navigation
naviglio
nazaire
nazare
nb
nba
nbnl
nburga
nchen
nchengladbach
nchez
ncia
nd
nde
nder
ndez
ndia
ndido
ndor
ne
nea
neai
nearly
nebraska
nebst
neburg
necessary
neckar
ned
neda
nedabinotik
nedeado
nederland
nedetik
nedibik
nedik
nedo
need
needed
needham
needs
nefinik
neflen
neflens
nefu
nego
negro
neil
neit
nejo
nek
neko
nel
nela
nell
nelson
nelsonville
nem
nema
nemi
nemo
nemom
nemon
nemons
nems
nemu
nen
nenberg
nendoto
nenfinik
nenfu
nentutik
neodons
neovenator
nepala
nepomuceno
nepub
nepubons
nes
nesekidik
nesekidiko
neseva
nestedo
net
neta
netahu
netas
netasoga
netik
neto
nets
network
neu
neuburg
neucha
neudik
neuilly
neumann
neumarkt
neunkirchen
neuque
neustadt
neutral
neuville
nevada
never
nevera
neves
new
newark
newberry
newburgh
newbury
newcastle
newcomers
newport
news
newsletter
newspaper
newspapers
newton
newtown
next
nez
nff
ng
ngala
ngel
nger
nh
nha
ni
nia
niagara
niak
nica
niccolo
nice
nicholas
nicholson
nick
nicola
nicolae
nicolas
nicole
nie
niedero
nietzsche
nif
nifu
nigera
nigeriya
night
nigsberg
nijmegen
nijniy
nik
nika
nikaraguva
niki
nikis
nikita
nikiya
niko
nikola
nikolay
nikolayevic
nikolayevna
nikon
niks
niku
nila
niles
nilik
niliku
nilo
nils
nilsson
nilu
nim
nima
nimas
nimav
nimik
nimis
nims
nimu
nin
nina
ninik
ninon
ninsadabled
ninu
nio
nioto
niotof
niotom
nioton
niotons
nis
nisa
nisul
nisulans
nisuls
nitan
nitans
niteda
nitedik
niver
nivera
niverik
nivers
nivod
nklad
nko
nl
nm
nn
no
noasaurus
noata
noateds
nobel
noble
nocera
nod
noda
nodatima
nodavesu
nodik
nodu
noe
noet
noets
nof
nog
nogan
noganu
nogaro
nogent
nogna
noisy
nol
nola
nolav
nolava
nolavafilosop
nolavan
nolavanas
nolavans
nolavas
nolavi
nolavik
nolaviks
nolavs
noli
nolik
nolu
nom
nomas
nomen
nomik
nomiko
nominate
nominated
nominatif
nominations
nominees
nomis
nomo
noms
nomu
non
none
nonik
nons
noon
nops
nora
norbert
nord
norell
norfolk
norga
norla
norma
normal
norman
normandie
norriton
norte
north
northampton
northamptonshire
northbrook
northfield
northport
northumberland
norton
norwalk
norwich
norwood
nos
nosde
nosi
nossa
nosse
nosu
not
nota
notas
notav
notavans
note
notes
noti
notice
notidik
notification
notifications
notify
notis
notodo
notre
nots
nottingham
nottinghamshire
notu
nous
nouvelle
nouvelles
nov
nova
novapads
novarese
novas
novelle
november
noventa
novgorod
novi
novial
novo
novos
novosibirsk
novul
now
nowak
nowe
nowy
nr
ns
nsapu
nsdap
nsku
nsta
nstanz
nster
nt
nta
nter
nther
nts
nu
nua
nuam
nuastrof
nuda
nueva
nuik
nula
nulifo
nulik
nuliku
nulikum
nulu
num
numa
numam
numas
numateor
numavo
number
numbers
numi
numis
numminen
nums
nun
nunal
nunom
nunon
nuns
nuon
nuova
nuovo
nupu
nur
nurme
nutimik
nutimo
ny
nya
nyctosaurus
nz
o
oak
oakdale
oakham
oakland
oakley
oaks
oakville
ob
oba
obas
obe
oberhausen
oberlauda
obero
oberpfalz
oberursel
obhlidal
obi
obidos
obik
obinon
obis
obispo
obituary
obres
obs
obsik
oc
ocaasi
occidental
ocean
oceanside
october
od
odd
oder
odesa
odessa
odi
odis
ods
odu
oeiras
oeste
of
ofa
ofe
off
offer
offered
office
official
offline
ofi
ofik
og
ogden
oglio
ohio
oil
ois
oise
oj
ok
oka
okas
oke
oki
okik
okiks
okis
oklahoma
okreigo
oksik
ol
ola
olaf
old
oldenburg
ole
oleg
olga
olgiate
oli
olik
oliveira
oliver
oliveto
olivia
olivier
olms
olmsted
olney
olona
olsen
olsztyn
olympedia
olympia
olympique
om
oma
omaha
omar
omas
ombudsperson
ome
omeisaurus
omi
omik
omiks
oms
omsik
omsk
on
ona
onalaska
onas
once
one
ones
oni
onik
onis
online
only
ons
onsik
ontario
oost
op
opabinia
open
opening
opera
operation
ophthalmosaurus
opinion
opinions
opportunities
opt
option
optional
options
or
ora
orange
orangeburg
orb
order
oregon
org
organized
organizing
orge
orientales
orientation
oriente
original
orlando
orle
orleans
ornans
orne
ornithischia
ornithopoda
oro
os
osa
oscar
osi
oskar
oslo
osmo
osnabru
ost
osteology
oswego
ot
otgenia
other
others
othniel
otosi
ottawa
otto
otu
ou
oud
ouen
ouest
our
ouro
out
outdated
outside
ov
ovce
over
overland
overleden
overview
oviedo
oviraptorosauria
owen
owl
own
oxford
oxfordshire
oxoniensis
oya
ozark
p
pa
pabevobons
pablo
pabu
pachycephalosauria
pacific
pad
padadila
paderborn
padila
padilon
pado
padova
padovana
pads
paduno
pafu
page
pagebo
pagebon
pagebons
pages
pagiku
pai
paide
paja
pajonon
pakam
pakista
pal
pala
palace
palacio
palaeontology
palais
palau
palazzo
palazzolo
pale
palecedo
palecedom
palecedon
palecedons
paleigodo
palelogo
palelogom
palelogon
palelogons
paleontology
paleozoig
paleozoiga
palermo
palestine
palet
paleta
paleti
palets
palidas
palisedons
palm
palma
palmar
palmares
palmas
palmeira
palmer
palmetto
palo
palogo
palos
pals
palza
pama
pamemom
pamiedetons
pampa
pamusigo
pan
panama
panaro
panemo
panemon
panemons
pang
panorama
paokalu
paolo
papa
papal
papeno
papenon
papers
papla
paplado
papladon
paplo
papu
par
para
paradise
paragva
parai
paraiso
paramaribo
parameter
parameters
parana
pardo
paris
park
parker
parkersburg
parkland
parkville
parma
parsons
part
partenkirchen
partial
participants
participate
participated
participating
participation
particular
particularly
partidul
partisipi
partners
partnerships
party
pas
pasadena
pascal
pasco
paset
pasetatim
pasevo
pasevon
pasifeana
paso
paspiko
paspikon
pass
passaic
passau
passed
passer
passes
passiria
passos
password
past
pat
pata
patagonia
pated
patedik
paterson
patik
patiko
patis
pato
patos
patricia
patrick
pats
patterson
patti
patuvo
patuvon
patuvons
pau
paul
paula
pauli
paulista
paulo
pavel
pavestigo
pavestigons
pavia
pavlovic
pavo
paweł
pawlikowski
pawłowski
paxton
payega
payne
pays
payson
paz
paza
pazura
pdf
pdt
pe
peabody
peace
peano
pearl
pebalo
pebepeno
pebepenon
pebloko
pebumon
ped
pedadila
pedakipo
pedatiko
pededieto
pedefomo
pedefomon
pedik
pedistuko
pedo
pedra
pedras
pedro
peds
pefipeno
pefu
pegebon
pegivu
peirce
pejafo
pekin
pekonleto
pekonsulton
pelasumon
pelauto
peleodu
pelham
pelo
pelovepolo
pelunu
pema
pembroke
pemeko
pemiedeto
pemobo
pemobon
pemobos
pemoto
pen
pena
penam
penan
pendleton
pened
peneds
penemo
penemon
penemons
peniche
penn
penne
pennsylvania
peno
penoata
penom
penon
penons
penot
pensacola
pensu
penuma
people
peoria
pepeno
pepero
pepper
pepu
per
percy
pereira
perevido
performance
performer
perik
period
perioda
periodapena
periods
perkins
pernambuco
pero
perom
perry
person
persons
perth
pertwee
peru
peruva
peschiera
peso
pestabo
pestabon
pet
pete
peter
peterburg
peters
petersburg
petersen
peterson
petit
petraduto
petraduton
petradutons
petro
petrovic
petrus
pets
petu
petuvedo
petuvo
petuvon
petuvons
peva
pez
pezepon
pfalz
pflaumer
pforzheim
phabricator
phane
phase
phi
phil
philadelphia
philip
philipp
philippe
philipps
phillips
phillipsburg
philosophy
phoenix
photos
php
phylogenetic
phylum
pi
pia
piacentino
pian
pianiko
piano
pianod
pianodakonsa
pianodan
pianodans
piaui
piave
piazza
picardie
picasso
piceno
pico
picture
pid
pieczyn
piemonte
pierce
piero
pierre
pieta
pieter
pietro
pieve
pifu
pik
pike
piko
piku
pikum
pila
pilot
piltdown
pima
pimoto
pin
pinal
pindare
pine
pinellas
pinerolo
pines
pineville
ping
pingia
pinhais
pinheiro
pins
pinto
pinumam
pinumamabu
pio
piosenki
piotr
pirai
pires
piria
pirmasens
pis
pitidel
pitidels
pittsburg
pittsburgh
pittsfield
pitu
pl
pla
plaa
place
plad
pladi
plado
pladon
pladons
pladotayels
plage
plagik
plain
plaine
plaines
plainfield
plains
plainview
plainville
plak
plan
planas
planav
planavan
planet
planeta
planetas
planets
planifidaf
planifidik
planifido
planis
planned
planning
plano
plans
plant
plantation
plao
plata
platform
platon
platte
play
player
players
ple
pleasant
pleasanton
pleasantville
please
pled
pledan
pledans
pledom
pledon
plej
pleno
plesiosaur
plessis
pli
plin
plina
plo
plotarea
plotdata
plovdiv
plu
pluamanum
pluamanumi
plucin
pluik
plum
plus
plymouth
pm
png
po
poa
poc
poco
pod
podlaski
pods
poe
poed
poedan
poedans
poedav
poedik
poedot
poedotas
poedotis
poedots
poemas
poesi
poggio
pognana
point
points
poissy
poitiers
poitou
poivre
pol
pola
poldan
polesine
poletti
poli
policy
polis
polk
polo
polu
polychaetes
pom
pombal
pomona
pompeu
pon
pons
pont
ponta
ponte
ponts
poole
pop
popa
popabled
pope
popiel
popper
popular
por
pordenone
porn
pornabioskopik
pornadramatan
pornafilmot
porno
port
porta
portage
portal
portalegre
portales
porte
portel
porter
portland
porto
portogruaro
portsmouth
portuga
portuguese
pos
posa
posik
position
poso
posse
possible
post
posted
posting
posts
potential
potenza
potomac
potsdam
potter
pound
pour
powell
power
powers
poyu
poznan
pozzi
pp
pr
pra
praha
praia
prairie
prata
prato
prattville
pre
prefer
preference
preferences
preferred
preluds
prem
prema
premi
premier
premio
premis
preondactylus
prepare
pres
presa
prescott
presenatim
present
presidal
presidals
presidan
presidana
president
presidente
presley
press
preston
preta
preto
preusa
preview
previews
previously
pri
price
priest
prilul
prim
prima
primanum
primanumaleset
primanumas
primanums
primary
prime
primik
primo
primof
primom
primon
primons
primu
prince
princeton
prinsip
prinsipis
prinsipo
print
prior
priorities
privacy
privatik
prix
prizes
pro
probably
problem
problems
proceedings
process
prodan
prodans
prodon
product
prof
profa
professor
program
progress
project
projects
pron
pronimag
prono
pronon
proof
propagation
propagid
propagido
property
proposal
proposals
propose
proposed
prosauropoda
prota
prototype
provence
provences
provide
provided
providence
provides
provin
provina
provinas
provinik
provins
proxima
proyeg
przeboje
ps
psams
pt
pta
pteranodon
pterodactyloidea
pterodactylus
pterodaustro
pterosaur
pterosauras
pterosauria
pterosaurs
ptolemaios
ptul
ptulas
ptuls
pu
pub
pubis
public
publications
published
publisher
publishing
publu
pubon
pubons
puch
pueblo
puente
puerto
puertorikea
puglia
pujkin
pullman
punakomipan
punakomipans
punta
purpose
put
pute
putnam
puy
puzzle
px
pyotr
pyre
pyroraptor
python
pywikibot
pywikipedia
q
qu
quality
quatre
que
queen
queens
queensland
queimadas
quentin
question
questions
quetzalcoatlus
qui
quick
quickly
quincy
quinto
quipe
quirico
quite
r
ra
raceland
rachel
racine
racing
radio
radionaparatik
radom
radosław
rafael
rafał
raffaele
ragiv
ragivs
rain
rainer
ral
raleigh
ralph
ramo
ramon
ramona
ramsey
ran
ranch
rancho
randolph
randy
range
rapid
rapids
rapla
rasch
rastatt
rathaus
rather
ratification
rau
rauhut
rault
ravenna
ravensburg
ray
raymond
rb
rba
rbara
rbis
rbs
rc
rd
rde
rdeland
rdoba
rdua
re
rea
reach
read
readers
reading
ready
real
really
rebecca
rebroia
receive
recent
recently
rechnitz
record
records
red
redakan
redakans
redako
redakom
redaku
redding
redenc
redik
redirect
redland
redmond
redon
redondo
reduce
reduced
reed
ref
reference
references
reg
rega
regarding
regards
regensburg
reggie
reggio
regik
regina
reginald
region
regions
regis
registered
rei
reid
reido
reidolo
reig
reiga
reiganef
reiganefa
rein
reinhard
reinhold
rel
rela
related
release
released
releases
relevant
reliable
religion
relik
rels
remaining
remember
removal
remove
removed
removing
ren
renata
renate
rene
reno
renton
replace
replaced
reply
report
reporter
reports
reptilia
repu
repubblica
republic
request
requested
requests
required
requirements
requires
rer
res
research
resende
resod
resodadelabukan
resodadelabukans
resodapad
resodapadem
resodatopa
resodatoped
resodik
resodo
resolution
resources
respond
rest
results
ret
rets
returns
retz
revel
revere
revid
revidi
revido
revidom
review
reviewing
reviews
revision
revisionslider
revista
revue
revuzku
rex
rey
reyes
reykjavi
reynders
rez
rfat
rfati
rfc
rg
rgen
rhabdodon
rhamphorhynchus
rhein
rheinfelden
rhin
rho
rhode
ri
ria
riacha
riachao
ribatejo
ribeira
ribeirao
ric
rica
ricardo
rice
rich
richard
richardson
richfield
richland
richmond
richter
rick
ricky
rico
rida
ridge
ridgefield
ridgeland
riding
rie
riemann
rieur
rieux
rig
riga
right
rights
rigi
rigik
rigiko
rik
rika
riley
rina
ring
ringwood
rio
rioja
rios
ris
riska
rita
rito
ritter
riva
rivadavia
river
rivera
riverdale
rivers
riverside
riverton
riverview
rivie
riviera
rivo
rivom
rivon
rivons
riya
rk
rka
rlat
rlitz
rm
rmik
rmla
rmu
rna
rnberg
rner
rno
rnom
rnten
rnu
ro
roadmap
roanoke
rob
robert
roberto
roberts
robertson
robin
robinson
rocca
rocco
rocha
roche
rochefort
rochelle
rochester
rock
rockford
rockingham
rockland
rockledge
rockport
rockville
rockwall
rocky
rodney
rodri
roger
rogers
roi
role
roles
rolf
roll
rolla
rolling
roma
romagna
romain
romakatulik
roman
romano
romans
romansads
romatik
romatima
rome
romenik
romero
romuald
ron
ronald
ronco
rondo
rondon
rood
rooda
rooney
roque
roraima
ros
rosa
rosario
rose
rosedale
roselle
rosemont
rosenberg
rosenberger
rosenheim
roses
roseville
ross
rossi
rossville
rostock
rostov
roswell
roth
rothenburg
rotterdam
rouen
rouge
rough
roul
rouli
rouls
round
rousseau
roussillon
route
rovigo
rovik
row
rowe
rowing
rows
roy
royal
roßlau
rquez
rr
rs
rsa
rt
rta
rter
rterbuch
rth
ru
ruanda
rube
ruda
rudolf
rudy
ruffert
rugby
ruhr
ruiz
rujenav
rujenavik
rula
ruma
rummu
run
running
rupert
rus
rusa
rusemitik
russ
russell
russellville
russian
ruth
rutherford
rutland
ruy
rva
rvi
rvig
rvigi
rvigik
ry
ryan
rye
ryen
ryeni
ryenik
ryszard
rzburg
rzea
rzegova
rzeszo
rður
s
sa
saarbru
saare
saarla
sabina
sacco
saco
sacramento
sad
safety
saga
saginaw
sago
sagom
sagons
sagoy
sahara
saharicus
saikulan
saikulans
sail
saint
sainte
sal
sala
salah
salamanca
sale
salem
sales
salina
salinas
salisbury
salmon
salt
salta
salto
salu
saluda
saludik
salvador
salvadora
salvatore
salvo
salzburg
sam
samara
same
sammlung
samo
samogneux
sams
samuel
san
sanan
sanav
sand
sandbox
sanders
sandomina
sands
sandusky
sandwich
sandy
sanford
sanger
sangro
sankt
sanmarina
sant
santa
santana
santander
santare
santbergen
santi
santiago
santo
santos
sao
sapa
sapucai
sar
sarah
sarajevo
sarasota
saratoga
saratov
sardegna
sardinea
sarthe
sartre
sasha
saskatchewan
sasso
satiran
satirans
saturday
saturnin
sauda
saulgau
sault
saumur
saun
saurischia
sauropod
sauropoda
sauropodomorpha
sauropterygia
sauveur
savage
save
savigny
savin
savoie
savoy
saw
saxa
say
says
sc
scale
scalemajor
scarborough
scene
schacherl
schedule
schemmerberg
schen
schleswig
schleyer
schloss
schloß
schlu
schmid
schmidt
schneider
schnell
scho
schola
scholarship
scholarships
school
schoy
schro
schu
schubert
schuetz
schultz
schumann
schwa
schwarz
schwerin
science
sciences
scientific
scott
scottish
scottsdale
scranton
screen
screenshot
scripts
scrivia
se
sea
seado
seal
sean
seanop
seans
search
seaside
seattle
sebastia
sebastian
sebastiao
seborga
secaucus
second
secondary
secondo
section
sections
security
sedalia
sedan
seditom
sedom
see
seeking
seelen
seen
segundo
seimik
seine
seivom
sejm
sek
seka
sekidon
sekis
sekretan
seks
seku
sekun
selbstverl
selea
select
selected
selection
seledik
selma
sem
semik
semikna
seminole
semitik
sen
sena
senador
send
senegala
senhora
senko
seno
sens
sent
sep
separate
september
sepu
ser
sereno
serge
sergey
sergeyevic
sergio
sergipe
series
serio
serra
serravalle
serta
serve
service
session
sessions
sesto
set
seta
setaglo
sets
setting
setu
setul
seurre
sev
seva
sevabo
sevateor
sevav
seveda
seven
several
severino
severn
sevikru
sevilla
sevo
sevom
sevoy
seward
seweryn
sex
seymour
sgrabarczuk
sh
shakespeare
shale
shane
shanghai
share
shared
sharon
shaw
shawnee
sheboygan
sheffield
shelburne
shelby
shelbyville
shelley
shelton
shenandoah
sherdog
sheridan
sherman
sherwood
shift
shiloh
shirley
shonisaurus
shore
shores
shorewood
short
should
show
showing
shown
shows
shreveport
shrewsbury
shropshire
si
sia
sibelius
sibiu
sich
sichuan
sicilia
sicula
sid
sidan
sidans
side
sidebar
sidney
sids
sie
siegen
siegfried
siena
sienam
sierra
sifal
sifik
sigma
sigmaringen
sigmund
sign
signups
sikilea
sikloped
sikora
sil
sila
silas
silav
silava
silavan
silavans
silavik
silik
siliko
silis
silo
sils
silur
silurik
silva
silver
silverdale
sim
similar
simon
simone
simple
simpler
sin
sinan
since
sine
sing
singapura
singer
single
sings
sinif
sinifi
sinifo
sinifon
sinifu
sinopterus
sinot
sinotan
sinotans
sinoti
sinotis
sinots
sinraptoridae
sint
sintra
sio
sionsharfe
sioux
siprea
sir
siracusa
sirius
sirkotu
sirku
sis
siso
sister
sit
site
sites
siti
sitik
sito
sits
siu
six
siyop
siyopans
siyopik
size
sizes
sk
ska
skandina
skania
ski
skills
skin
skins
sko
skopje
skoru
skota
skulturan
skulturans
sky
skye
slam
slamik
slav
slava
slavik
slenik
slet
sleta
slets
sleumer
slightly
slopan
slopans
slopikom
slovakiya
sloveniya
sludom
sluds
sm
smalik
smaliks
smaliku
smalikum
small
smaller
smeira
smith
smithfield
smo
smyrna
snek
snohomish
snorri
snud
snudi
snyder
so
soa
sobre
soccerbase
soccerway
soci
social
socie
society
socorro
sod
sodas
sodik
sodis
sodo
sods
soelo
sofia
software
soga
soik
sokrates
sol
sola
solasit
solasita
soldat
soldats
sole
solingen
solnhofen
solomonua
solon
soloturna
som
somala
some
someone
somers
somerset
somerton
somerville
something
sometimes
somewhere
somik
somme
son
sona
sonat
sonderegger
sonemik
song
songs
sonja
sonneberg
sons
soon
sophie
sopra
soran
sorana
sorans
sori
soria
soriano
sorrento
sorry
sosnowiec
sot
sotto
sotu
soudier
soul
soultz
sound
source
sources
soure
sous
south
southampton
southborough
southern
sovya
sp
spa
space
spad
spada
spadi
spain
spanish
spanya
sparks
speak
speaker
speaking
special
species
specific
speicher
spencer
sperantamuf
sperantamufi
sperantapu
sperima
spielmann
spika
spikans
spiko
spikons
spikot
spikoy
spinosauridae
spinosauroidea
spinosaurus
split
splod
splodu
spodo
spodom
spokane
sport
sporting
sports
spot
spotavabistiran
spotavabistirans
sprache
sprague
spread
sprenger
spring
springdale
springfield
springs
springville
spru
square
sr
sri
ss
ssel
sseldorf
st
sta
stab
staba
stabalona
stabalonik
stabi
stabik
stabis
stabo
stabon
stabs
stabu
stad
stade
stadi
stadt
staff
stafford
staffordshire
stage
stalin
stallman
stama
stamford
stan
stanbul
stand
standard
stanford
stanislaus
stanislav
stanislavovic
stanisław
stanisława
stanley
stano
stanton
stapledon
star
stark
starnberg
stars
start
started
starting
state
statement
statements
states
station
statitabu
statitav
stats
status
staunton
stay
ste
steda
stedo
steel
steenbergen
stefan
stefano
steiermark
steif
steifu
stein
steinbach
steiner
stel
stela
stelas
stelasit
stelav
stelavan
stelavans
stelavik
stelik
stels
step
stepan
stephan
stephen
steps
ster
stera
sterik
sterling
stern
sterreich
sterreichische
steve
steven
stevens
stewards
stewart
steyr
sti
stiga
still
stillwater
stimu
stinamusigalef
stipis
stira
stiravikanas
stiravikanis
stitod
stitoda
stmanla
sto
stochowa
stockbridge
stockholm
stockton
stoke
stokholmia
ston
stone
stoneham
stones
stonington
stop
stopped
store
stories
storm
stormy
story
stoughton
stow
str
strada
strasbourg
strategy
stratford
strato
strausberg
stravinskiy
stravinsky
stream
street
striptease
stromer
stu
stuart
stud
studan
studans
studi
studies
studio
studo
studof
studom
studon
studs
study
stuff
stuhr
stum
stums
stuttgart
styles
su
sua
subject
submission
submit
subpage
subsat
subscribe
subscription
successful
such
suchomimus
sud
suda
sudbury
suemo
suemod
suemoda
suemodas
suemodi
suemodis
suemods
suffolk
sugar
suggested
suggestions
sui
suicide
suk
suko
sukons
sul
sull
sulla
sullivan
sulphur
sulpice
sulu
suma
summary
summit
sumon
sumter
sun
suna
sund
sunderland
sung
sunnyside
suno
sunrise
suns
sunset
suomiya
super
superfamilia
superior
superiore
support
supported
supporting
sur
sure
surina
surprise
surrey
survey
sus
susa
susan
susanna
susanne
sussex
sutherland
sutton
suvik
suvo
suvu
sv
sveda
sven
sverdlovsk
svetlana
svg
svimo
svislando
swansea
sweetwater
switch
switching
switzerland
sy
sycamore
sydney
sylvania
sylvester
sylvia
sylwester
syntax
syracuse
sysop
system
systems
sza
szczecin
szczepanik
sztuk
szymon
søren
t
ta
taa
taal
tab
tabalatam
tabalatama
table
tables
tabs
tacoma
tadeusz
tago
taib
take
takes
taking
tal
tala
talav
talavik
taled
taledav
taledavik
tales
talheim
talik
talk
talking
tallinn
talmage
talusu
tam
tamara
tampa
tamworth
tan
tango
tanner
tans
tansana
tappen
tarabulusia
taras
tarbosaurus
tarepu
target
tarn
taro
tarrant
tartu
tas
task
tat
tata
tatak
tatas
tatik
tats
tatyana
tau
taua
taumik
taunton
taunus
taxet
taya
taylor
taylorsville
tayva
tbilisi
te
team
teams
teata
teatadramatan
teatidilekan
teatidilekans
teato
teatr
teatro
teau
teborg
tech
technical
technology
ted
tedan
tedelik
tedik
tef
tefa
tefas
tefik
tefis
tefo
tefon
tefons
tefs
tefu
tegon
tegons
tehran
teik
teiko
teil
teilamalu
teixeira
tel
tela
telat
teldeg
teldegbalid
teldegid
teldegs
teldegtelid
teldilakonot
telefono
televid
televida
televidadanunan
televidadramatan
televidalekoned
televidaso
televidik
telfutaf
telfutik
telid
telik
tell
telna
telpla
tels
telspikot
tem
template
templatedata
templates
temple
templeton
temporary
temps
ten
tennant
tennessee
teo
teodor
teor
teorik
teorod
teorodas
teorodi
teorodis
teorods
tequixquiac
ter
terence
teresa
term
terme
terms
terra
terrace
terre
terrell
terri
territoire
terry
tes
tesla
test
tested
testing
tetanurae
teu
texarkana
texas
text
th
tha
thagoras
thames
than
thank
thanks
that
the
theater
theatre
their
them
theme
themes
then
theo
theodor
theodore
theory
there
therialtoreport
therizinosauria
theropod
theropoda
thescelosaurus
these
they
thierry
thimphu
things
think
thinking
thionville
this
thogo
thomas
thomasville
thompson
thornton
those
though
thoughts
thousand
thread
three
through
thu
thumb
thumbnail
thursday
ti
tia
tica
ticino
tico
tid
tida
tidabuk
tidabuki
tidal
tidan
tidana
tidans
tidels
tido
tidodem
tidodemi
tidom
tie
tiele
tienne
tierra
tiete
tiffany
tik
tika
tikam
tikama
tikamagot
tikamagotis
tikamagots
tikan
tikanas
tikans
tikav
tikava
tikavi
tikavik
tiki
tiko
tikodu
tikoy
tiks
tiku
tikum
tikumo
til
till
tille
tim
tima
timapena
timav
time
timeaxis
timeline
times
timi
timis
timo
timothy
tims
timu
tina
tio
tiopa
tipot
tira
tirol
tis
tisbury
titanosauria
titanosauridae
tithonian
titjina
title
tituli
titusville
titz
tiverton
tivoli
tla
tmdb
to
toa
tobias
tobul
tocantins
todan
todans
today
todi
todo
together
togoa
tokyo
toledo
tolkien
tolland
tolstoy
tom
toma
tomas
tomasz
tome
tommasi
tommy
tomu
ton
tonat
tonata
tonatas
tonati
tonats
tonawanda
tong
tons
tony
too
tood
tool
toolbar
tools
top
topa
topam
topeka
topi
topic
topics
topik
topo
topon
topons
tops
torinese
torino
toronto
torre
torres
torun
toscana
tot
total
touch
toulon
toulouse
toum
toums
touns
tour
tournai
tours
tower
towers
town
towns
townsend
township
toy
tr
tra
tracks
tracy
trademark
tradutan
tradutans
tradutod
tradutodis
tradutods
tradutom
traduton
trail
trans
transfermarkt
transilva
translate
translated
translatewiki
translathon
translating
translation
translations
translators
trapani
trauer
trava
tre
treccani
trek
trent
trentino
trento
trenton
tres
trevignano
treviso
trevor
tria
triage
triat
triata
tribu
trier
triest
trieste
trinidad
trinidadea
trintignant
tronto
troodontidae
trostberg
troughton
troy
true
trumbull
trump
trust
trustees
try
ts
tse
tsyega
tsyego
tsyina
tt
tten
tter
ttingen
tu
tubepornclassic
tuckahoe
tucker
tucson
tucuma
tuesday
tula
tulare
tulsa
tum
tumo
tums
tumyel
tumyela
tumyels
tunis
tupuxuara
tur
turgaua
turing
turn
turner
turning
tustin
tut
tutas
tuti
tutis
tuts
tuttocalciatori
tuvedo
tuvo
tuvom
tuvon
tuvons
tuvoy
tv
twain
twin
twitter
twl
two
tycho
tyler
tyne
type
types
typing
tyrannosauridae
tyrannosauroidea
tyrannosaurus
tz
tze
tzebuerg
tzen
u
uba
ucoc
ud
udanoceratops
udine
udio
udo
ueberlingen
uefa
uelzecht
ufc
ui
uk
ukraine
ul
ulm
ulrich
uls
um
umberto
umbria
un
una
und
under
understand
understanding
une
unexpected
unfortunately
unia
uniao
unio
union
uniontown
unit
united
universal
universala
universalis
universalsprache
universelle
university
unless
unsubscribe
unter
until
unua
unwin
up
upchurch
upcoming
update
updated
updates
upland
upon
upper
uppsala
upright
upton
urbana
url
ursula
us
usa
usability
use
used
useful
user
users
uses
usik
using
ust
usual
usually
ut
uta
utah
utahraptor
utan
utanas
utans
utc
uti
utica
uto
utos
utosa
utosi
utrecht
uts
uwe
uz
uławski
v
va
vadim
val
vala
valains
valaka
valasotik
valdez
vale
valem
valemapu
valemik
valemo
valenc
valenca
valence
valencia
valenciennes
valentin
valentina
valentu
valeriy
valeryevic
valga
vali
valik
valikafs
valiks
valisa
valle
vallejo
valley
vallo
valo
valodik
valodo
valparai
valparaiso
valts
valu
value
values
vamik
van
vancouver
vandalia
vanessa
vanguard
vannes
vans
var
varennes
vargem
variety
various
varna
varsovio
varzea
vas
vasiliy
vasilyevic
vat
vati
vats
vaucluse
vaughan
vaughn
ve
vecchio
vector
vedo
vedof
vedom
vedon
vedons
veg
vega
vegas
vegom
veig
veitik
vel
vela
velay
velha
velho
velid
velociraptor
velsa
vemik
vemo
ven
vende
veneda
venesola
veneta
veneto
venezia
venice
ventu
ventura
venus
vera
verano
verat
verata
veratik
veraton
vercelli
verde
verdes
verdun
verfasst
verfeil
verkehrssprache
verl
verlag
vermilion
vermillion
vermont
verne
verneuil
vernon
vero
verona
veronese
veronica
versailles
version
versions
vert
vertebrate
very
vesfala
vestig
vestigam
vestigama
vestigams
vestigans
vestigo
vestigom
vestigon
vestigons
vesu
vetik
vetla
vetoti
vetotu
veturilo
veu
vi
via
viana
vic
vice
vicente
vicentina
vicentino
vicenza
vicenzo
vicifal
vicksburg
vico
vicosa
victor
victoria
vida
vidal
video
videtu
vie
vieira
viejo
vienna
vienne
vieta
vietans
vietik
vietnama
vieux
view
viewer
views
vifik
vifiko
vifiku
vifikumo
viga
vignes
vik
vikodom
viktor
viktorovic
vil
vila
vilag
vilagas
vilags
vilaine
viljandi
villa
villafranca
village
villandry
villar
ville
villefranche
villeneuve
villers
villiers
vilnius
vilo
vilob
vilof
vilom
vilons
vin
vincennes
vincent
vincenzo
vinci
vineland
vino
vio
violet
viorajola
vipabidir
vipabik
vipresidan
virebas
virebs
virgina
virginia
virginie
viru
viry
vis
visalia
viseu
visible
vision
visit
visitom
vista
visual
visualeditor
vita
vitaliy
vitalyevic
viterbo
vito
vitoria
vitry
vittoria
vittorio
viv
vivier
vkar
vlaanderen
vladimir
vladimirovic
vladimirovna
vladislav
vleborgia
vo
vob
voba
vobanefapalet
vobi
vobis
vobo
vobod
vobodi
vobof
vobom
vobot
vobotas
vobotem
vobotema
vobotis
vobots
vobs
voda
vof
voga
voice
voik
vojte
voka
vokat
vokatif
vol
vola
volakrig
volakriga
volapu
volapuk
volapuko
volf
volfam
volfama
volfami
volfo
volfons
voli
volleyball
vollsta
volodu
volta
voltaire
volunteer
volunteers
volusia
vom
vomas
voms
von
vons
voor
voorburg
vor
vora
vorarlberg
voronej
vortaro
vortrag
vos
vosges
votaflano
votanemu
votans
vote
voters
votik
votikami
votikams
votikans
votiko
votiks
voting
vots
votu
vp
vpa
vre
vres
vries
vs
vsevolod
vu
vua
vue
vyaceslav
vyaceslavovic
w
wa
wabash
waco
wacław
wade
wadsworth
wagner
wahl
wahren
wait
wake
wakefield
walcott
wald
waldemar
waldmohr
waldorf
wales
walk
walker
walki
walking
wall
walla
wallingford
walnut
walt
walter
waltham
walther
walton
wanda
wang
want
wanted
wants
war
ware
warner
warren
warrensburg
warrington
warriors
warsaw
warszawa
warwick
warwickshire
was
wasco
washington
watch
watchlist
watchlists
waterbury
waterford
waterloo
watertown
waterville
watson
waukesha
way
wayland
wayne
ways
we
wear
web
weber
website
webster
wednesday
week
weekly
weeks
wehrle
weiden
weil
weiler
weimar
weishampel
weiss
weißkirchen
welcome
well
welles
wellington
wells
welt
weltsprache
weltspracheverein
weltsprachliche
wenatchee
wenceslau
wendel
wendell
wenlock
went
werder
were
wereldtaal
werner
wert
wesley
west
westbrook
westchester
western
westfield
westgate
westlake
westminster
westmont
weston
westport
westwood
wethersfield
weymouth
what
whatamidoing
wheaton
wheeling
when
where
whether
which
while
whitaker
white
whitehall
whitehouse
whitewater
whitney
whittier
who
why
wichita
wide
wider
width
wie
wien
wiener
wiesbaden
wiesław
wight
wiki
wikibooks
wikidata
wikimania
wikimedia
wikimedians
wikipe
wikipedia
wikipedias
wikis
wikitext
wikiversity
wiktor
wild
wildwood
wilhelm
wilhelmshaven
will
willem
william
williams
williamsburg
williamson
williamsport
williamstown
williston
willoughby
willowbrook
willy
wilmington
wilson
wilsonville
wilton
wiltshire
winchester
windham
window
windsor
winek
winfield
wing
winner
winners
winning
winona
winslow
winston
winter
winthrop
winton
wir
wisconsin
wish
wishes
wishlist
with
within
without
witold
wittenberg
wittgenstein
wiwaxia
wmde
wmf
wna
wo
wojciech
wolcott
wolf
wolfe
wolfgang
wolter
women
won
wonderful
wood
woodbridge
woodburn
woodbury
woodland
woodlawn
woodmere
woods
woodstock
woodward
woordenboek
worcester
worcestershire
word
words
work
worked
workflow
working
works
world
worldfootball
worms
worth
worthington
would
wp
wright
write
writer
writing
written
wrocław
wrong
wtsb
wu
wuerzburg
wuhan
wuppertal
www
wyoming
władysław
włodzimierz
x
xasa
xavier
xbiz
xcritic
xenia
xeno
xeton
xets
xi
xico
xika
xilom
xiomik
xioms
xiomu
xprovin
xu
xxxx
y
ya
yafea
yag
yagafs
yago
yagon
yagons
yakima
yakovlevic
yana
yann
yanul
yaounde
yapa
yarmouth
ye
year
years
yeats
yega
yegas
yeged
yegedas
yegedi
yegedis
yegeds
yegs
yekaterina
yel
yela
yelabuk
yelas
yelasa
yelena
yelods
yels
yelu
yerevan
yes
yesus
yet
yevgeniy
yevgenyevic
yisraela
yiv
yna
yo
yoins
yokohama
yon
yonkers
yonne
yorda
york
yorkshire
you
young
youngstown
your
youtube
yrut
yu
yuba
yudanas
yudik
yuf
yufapu
yufo
yufom
yufon
yufons
yufu
yukon
yuliya
yulul
yuma
yumed
yun
yunaf
yunafs
yunan
yunik
yunu
yunul
yupita
yurat
yurata
yuratik
yuriy
yurop
yuropa
yuropan
yuropik
yuryevic
yvelines
yves
yvette
yyyy
z
za
zabrze
zach
zachary
zagreb
zamenhof
zamponi
zan
zanesville
zao
zaragoza
zbigniew
zdro
zdzisław
ze
zealand
zebalidvo
zef
zeil
zeili
zeils
zeit
zeitung
zelle
zenodik
zentra
zentralbu
zepo
zepon
zepons
zesu
zh
zhang
zi
zif
zifa
zifi
zifil
zifis
zifs
zila
zimbabiya
zimmetas
zimmets
zio
ziom
zion
zku
zo
zofia
zonik
zquez
zu
zuckermann
zul
zula
zum
zuo
zur
zvana
zwolle
zygmunt
{
|
}
~
¡
§
«
°
±
²
·
º
»
×
ß
æ
ð
ørsted
þu
đo
ı
ł
ła
łapin
ło
łoza
łukasz
œ
ʻ
ʼ
ʿ
ˈ
ː
̀
́
̂
̃
̄
̆
̇
̈
̉
̊
̋
̌
̓
̔
̛
̣
̦
̧
̨
͂
α
ε
η
θ
ι
κ
λ
μ
ν
ξ
ο
π
ρος
ς
σ
σαυ
τ
υ
φ
χ
ψ
ω
а
александр
александрович
алексеевич
алексеи
анатолии
анатольевич
андреевич
андреи
б
борис
борисов
борисович
в
валентин
валерии
валерьевич
василии
васильевич
виктор
викторович
витальевич
владимир
владимирович
владимировна
вячеслав
вячеславович
геннадии
георгиевич
георгии
григорьевич
дмитриевич
дмитрии
до
дор
дорович
евгении
евгеньевич
з
за
и
иван
иванович
ивановна
игоревич
игорь
к
кирилл
коми
константин
константинович
кузнецов
л
лев
леонид
леонидович
лович
львович
м
михаи
михаил
н
на
наталья
не
ни
николаевич
николаевна
николаи
о
ович
олег
п
павел
павлович
пе
петрович
р
республика
с
семе
сергеевич
сергеи
советская
социалистическая
станиславович
т
татьяна
тр
у
украі
фе
шлеи
ю
юрии
юрьевич
я
языка
яковлевич
і
։
ַ
ָ
ב
،
ا
ة
ر
ل
م
محمد
ن
و
ي
َ
ُ
ِ
ّ
ْ
ٓ
ٔ
ٕ
߬
ं
क
ज
ट
ड
ण
त
थ
द
न
प
ब
म
य
र
ल
व
श
स
ह
ा
ि
ी
ु
ू
े
ै
ो
ौ
्
ং
ক
গ
ট
ত
দ
ধ
ন
প
ব
ম
য
র
ল
শ
স
়
া
ি
ু
ে
্
ા
க
த
ன
ர
ா
ி
ே
்
ా
ಂ
ನ
ಿ
ು
ೆ
್
ං
ක
ත
න
ම
ර
ල
ස
්
ා
ි
ු
ෙ
อ
้
တ
ာ
ေ
္
​
‌
‎
‑
–
—
‘
’
‚
‛
“
”
„
†
•
…
′
″
‹
›
€
№
→
↔
↷
−
≥
⌘
③
④
⑦
☼
⟨
⟩
⸗
⺀
⺄
⺆
⺈
⺊
⺌
⺕
⺝
⺸
⺼
⿰
⿱
⿲
⿳
⿴
⿵
⿶
⿷
⿸
⿹
⿺
⿻
、
。
『
』
〢
あ
い
う
え
お
か
き
く
け
こ
さ
し
す
そ
た
ち
っ
つ
て
と
な
に
の
は
ま
み
め
も
や
よ
ら
り
る
れ
を
ん
゙
゚
ア
ィ
イ
ウ
エ
ォ
オ
カ
キ
ク
コ
シ
ス
タ
チ
ッ
ツ
テ
ト
ナ
ニ
ノ
ハ
ヒ
フ
ヘ
マ
ム
メ
モ
ヤ
ュ
ユ
ヨ
ラ
リ
ル
ロ
ワ
ン
・
ー
㇁
㇂
㇄
㇇
㇈
㇉
㇓
㐁
㐄
㐅
㐌
㐫
㐬
㐭
㐮
㐱
㑒
㒵
㒸
㒼
㓁
㓞
㔾
㕛
㕣
㖾
㘝
㚅
㚇
㚔
㚘
㝉
㝡
㝴
㝵
㞋
㞢
㞷
㠩
㠭
㠯
㡀
㡭
㡿
㢲
㢴
㣇
㣺
㥯
㪅
㫄
㫐
㫒
㫺
㬅
㬎
㬥
㬰
㲋
㳄
㷠
㸒
㸚
㸦
㼌
㼲
㽞
㿟
䀠
䂞
䍃
䏍
䒑
䖍
䖒
䖝
䖵
䙴
䚻
䜌
䝿
䡛
䧹
䪞
一
丁
丂
七
丄
丅
丆
万
丈
三
上
下
丌
不
与
丏
丐
丑
专
且
丕
世
丘
丙
业
东
丞
丢
丣
两
严
並
丨
丩
个
丫
丬
中
丮
丰
丱
串
丵
丶
丷
丸
丹
为
主
丽
丿
乀
乂
乃
久
乆
乇
么
义
之
乌
乍
乎
乏
乐
乑
乔
乖
乗
乘
乙
乚
乛
乜
九
乞
也
习
乡
乳
乾
亀
亅
了
亇
予
争
事
二
亍
于
亏
亐
云
互
亓
五
井
亘
亚
亜
亞
亟
亠
亡
亢
交
亥
亦
产
亨
亩
享
京
亭
亮
亯
亰
亲
亳
亶
亷
人
亻
亼
亾
仁
今
介
仌
从
仐
仑
仒
仓
仕
他
付
仝
代
令
以
任
企
伊
伏
伐
休
会
伯
但
位
何
佘
余
作
佥
使
來
侈
侌
侖
侯
侵
便
保
俞
信
修
倉
倍
候
倠
備
僉
僕
儿
兀
允
兂
元
兄
充
兆
兇
先
光
兊
克
兌
免
兑
兒
兓
兔
党
兜
兟
入
全
兩
兪
八
公
六
兮
兰
共
关
兵
其
具
典
兹
兼
冀
冂
冃
冄
内
冈
冉
冊
冋
册
再
冎
冏
冐
冒
冓
冖
冗
冘
军
农
冝
冠
冡
冥
冫
冬
冷
凌
几
凡
凢
凵
凶
凷
凸
凹
出
函
凾
刀
刁
刂
刃
刄
刅
分
切
刍
刑
刕
刖
列
刘
则
初
別
利
别
到
制
刺
則
削
剌
前
剡
創
剽
劉
力
功
加
劦
助
劫
劳
劵
勃
勇
勉
勒
動
務
勞
勤
勹
勺
勻
勾
勿
匀
匂
包
匆
匈
匊
匋
匍
匕
化
北
匚
匝
匡
匪
匱
匸
匹
区
医
匽
匿
區
十
卂
千
卄
卅
卆
升
午
卉
半
卌
华
卑
卒
卓
单
卖
南
卜
卝
卞
占
卡
卢
卣
卤
卦
卩
卪
卬
卯
印
危
即
却
卵
卷
卸
卻
厂
厃
厄
历
厈
厉
厌
厓
厘
厚
原
厤
厥
厨
厭
厲
厶
厷
厸
去
厼
厽
叀
参
參
叅
又
叉
及
友
双
反
叐
发
叒
叔
叕
取
受
叚
叜
叟
口
古
句
另
叩
只
召
可
台
叱
史
右
叵
号
司
叹
吂
各
吅
合
吉
吊
吋
同
名
后
吏
向
吕
君
吝
吞
否
含
启
吳
吴
吹
吾
呂
呆
呈
告
员
呙
周
命
咅
和
咎
咠
咢
咨
咸
咼
哀
品
哉
員
哥
哲
唐
商
啇
問
啚
啬
啻
善
喜
喬
單
喿
嗇
噩
嚴
囊
囗
囘
囙
囚
四
回
囟
因
囧
囬
困
囱
囷
固
国
圂
圅
國
圍
園
圓
土
圡
圣
圥
在
圭
地
圶
圼
坐
坒
坚
坴
垂
垔
垚
埀
埋
埶
執
基
堂
堅
堆
堇
堯
塞
墨
壘
士
壬
壯
声
壳
壴
壹
壺
壽
夂
处
夅
夆
备
夊
夋
夌
复
夏
夒
夕
外
夗
夘
多
夜
夢
大
夨
天
太
夫
夬
夭
央
失
夲
头
夷
夸
夹
夻
夾
奂
奄
奇
奈
奉
奎
奏
奐
契
奓
奔
奚
奞
奠
奢
奥
奭
女
奴
奻
好
如
妄
妙
妟
妥
妻
妾
姑
委
姜
威
娄
娜
婁
婴
嬰
嬴
子
孑
孔
孕
孖
字
存
孚
孛
孝
孟
季
孤
学
孫
孱
學
宀
宁
宂
它
宅
宇
守
安
宋
完
宏
宓
宗
官
定
宛
宜
宝
客
宣
室
宮
宰
害
家
容
宾
宿
寄
寅
密
富
寒
察
寧
審
寫
寬
寮
寶
寸
对
寺
寻
寽
対
寿
封
尃
射
将
將
專
尉
尊
尋
尌
對
導
小
少
尒
尓
尔
尖
尗
尚
尞
尢
尣
尤
尧
尨
尭
就
尸
尹
尺
尻
尼
尽
尾
尿
局
居
屈
屋
屎
屏
屑
展
屖
屚
属
屠
屡
屬
屮
屯
屰
山
屵
屾
岁
岂
岑
岡
岩
岳
岸
峯
島
崇
崑
崔
崖
崙
崩
嵬
嶋
嶲
巂
巛
川
州
巟
巠
巢
巤
工
左
巧
巨
巩
巫
差
己
已
巳
巴
巷
巸
巽
巾
巿
帀
市
布
师
希
帚
帛
帝
带
師
席
帶
常
干
平
年
幵
并
幷
幸
幺
幻
幼
幽
幾
广
広
庄
床
底
店
庚
府
度
庫
庭
庶
康
庸
廉
廌
廛
廣
廩
廴
延
廷
建
廾
廿
开
弁
弃
弄
弇
弋
式
弓
弔
引
弗
弘
弜
弟
张
弥
弦
弱
張
強
强
彊
彌
彎
彐
彑
当
彔
录
彖
彗
彡
形
彥
彦
彧
彭
影
彳
役
彼
往
待
律
徒
得
徙
從
復
微
徳
徵
心
忄
必
忌
忍
志
忝
忠
忩
快
念
忽
忿
思
怠
急
怱
恆
恒
恩
恭
息
悉
患
悤
悲
悶
惠
惡
惢
愁
愈
意
愛
感
慈
慧
慮
憂
憲
應
戀
戈
戉
戊
戋
戌
戍
戎
成
我
戒
戔
或
戚
戠
戢
截
戲
戶
户
戹
戼
戾
房
所
扁
扇
手
扌
才
打
托
执
承
折
拉
拜
拿
掌
推
提
換
摩
支
攴
攵
收
攸
改
放
政
敄
敏
敕
敖
敗
教
敝
敞
敢
散
敦
敫
敬
数
敷
數
斂
文
斉
斊
斗
斤
斥
斩
斬
斯
新
方
於
施
斿
旁
旋
旌
族
无
旡
既
旣
日
旦
旧
旨
早
旬
旱
旲
时
旾
昆
昇
昌
昍
明
昏
易
昔
昗
昜
星
春
昬
是
昱
昴
昷
時
晃
晋
晏
晓
普
景
晶
智
暑
暴
曇
曩
曰
曲
曳
更
曷
書
曹
曼
曾
替
最
朁
會
月
有
朋
服
朔
朕
朗
望
朝
木
朩
未
末
本
札
朮
术
朱
朵
朶
朿
杀
李
杏
村
杜
束
条
来
杨
東
杲
杳
松
析
林
枚
果
枝
枲
枼
某
染
柔
查
柬
柰
柴
栄
栗
桀
桑
桼
梁
條
梟
梨
棘
棠
棥
森
楚
楠
業
楽
榎
榮
樂
樊
樹
欠
次
欣
欮
欲
欶
欽
款
歆
歇
歛
止
正
此
步
武
歧
歨
歪
歮
歯
歰
歲
歴
歷
歸
歹
歺
死
殳
段
殷
殸
殹
殺
殻
殿
毋
毌
母
每
毒
比
毕
毚
毛
毳
氏
氐
民
气
氣
水
氵
氶
氷
永
氺
氾
求
汉
汝
汞
江
沃
沓
沙
沝
河
治
泉
法
波
泣
泥
泰
洋
洛
洪
活
派
流
浦
浪
浮
涂
消
淡
淮
清
渚
渠
渡
湖
湯
滿
演
漸
灣
火
灬
灭
灰
灵
灷
炅
炎
炏
炗
炙
炭
為
烈
烏
烝
焉
無
焦
焱
然
煞
熊
熏
燕
營
燮
爪
爫
爭
爯
爰
爱
爲
爵
父
爻
爽
爾
爿
片
版
牙
牚
牛
牜
牟
牢
牧
牪
牽
犀
犬
犭
犮
狂
狄
狊
独
狺
猋
猒
猪
献
獻
玄
率
玉
王
玟
玨
现
珎
班
現
理
琴
瑟
瑩
璠
瓜
瓦
甘
甚
生
産
用
甫
甬
田
由
甲
申
电
甶
男
甸
甹
画
甾
畀
界
畏
畐
留
畜
畟
畢
畧
畨
番
畫
異
畱
當
畺
畾
疊
疋
疌
疑
疒
疾
病
癶
癸
癹
発
登
發
白
百
皀
皃
的
皆
皇
皋
皐
皕
皮
皷
皿
盃
盆
盇
盈
益
盍
盎
监
盒
盖
盛
盡
監
盤
盧
目
直
相
盾
省
眇
眉
看
眔
眞
真
眷
眼
眾
着
睘
睪
睿
瞏
瞢
瞿
矍
矛
矞
矢
矣
知
矦
短
石
破
碎
磊
磨
示
礻
礼
神
祟
票
祭
禀
禁
福
禸
禹
禺
离
禽
禾
禿
秀
秃
秉
秋
科
秝
秦
移
稟
穀
穌
穴
究
穹
空
穿
突
窄
窒
立
竒
竜
竝
竟
章
童
竹
笑
笠
筆
等
答
箕
算
箴
節
篤
篭
米
粉
粛
粟
粤
粦
粲
糞
糸
糹
系
約
納
素
索
紫
累
細
結
絜
絫
絲
維
綿
編
縣
繇
纍
纟
红
缶
网
罒
罔
罕
罗
罙
罡
罢
罪
署
罷
羅
羊
羌
羍
美
羔
羕
羗
羞
羡
羣
群
義
羲
羸
羽
翁
翏
習
翕
翟
翠
翼
老
耂
考
者
耆
而
耎
耑
耒
耳
耴
耶
耷
聂
聊
聖
聚
聶
聿
肀
肃
肅
肉
肖
肙
肥
肩
肯
育
肴
肺
胃
背
胡
胥
能
脊
脩
膚
臣
臤
臧
自
臬
臭
臯
臱
至
致
臺
臼
臽
臾
臿
舀
舂
舄
與
興
舉
舌
舍
舛
舜
舞
舟
般
艮
良
色
艸
艹
艾
芒
芔
芬
芮
花
芳
芺
芻
苔
苗
苟
若
苦
英
茶
茸
荅
草
荒
荣
荼
莆
莧
莫
莽
菆
菊
菐
菜
華
萬
落
葉
著
葛
董
葵
蒙
蒦
蒼
蓋
蓬
蓺
蔑
蔡
蕉
蕭
薄
薛
薦
薰
藍
藏
藤
藥
蘭
虍
虎
虐
虒
虔
處
虖
虗
虘
虚
虛
虜
虞
虫
虽
蚤
蚩
蜀
蜜
蟲
蠡
血
行
衍
衛
衣
衤
表
衮
衰
袁
袞
褭
褱
襄
襾
西
覀
要
覃
見
規
覓
覧
親
覽
见
角
解
言
訁
訇
計
詹
誌
語
誩
諸
讠
话
谷
豆
豈
豊
豐
豕
豖
豙
象
豦
豩
豪
豸
貇
貝
貞
貟
負
貢
貧
貪
貫
責
貳
貴
買
費
賁
資
賈
賏
賓
賔
賛
賞
賢
賣
質
賴
贊
贝
贡
责
贯
贲
贵
赖
赞
赤
赦
走
越
足
路
蹇
身
躬
車
軍
軎
軟
輦
輯
车
辛
辜
辟
辥
辰
辱
農
辵
辶
边
辺
达
过
近
连
迷
追
退
送
逆
选
逐
通
逝
速
造
逢
連
逮
進
遀
遂
運
過
道
達
遣
適
遷
遺
邊
邑
邕
那
邦
邪
郎
部
郭
都
鄉
酉
酋
配
酓
釆
采
里
重
野
量
金
釒
錢
錦
钅
铜
铭
锦
長
镸
长
門
閃
閉
開
閏
閑
閒
間
閔
閵
閻
闌
门
间
闷
阑
阜
阝
阿
陈
降
院
陳
隆
隊
隋
階
際
隡
隨
隱
隶
隹
隺
隻
隼
隽
难
雀
雁
集
雈
雋
雍
雐
雑
雔
雙
雚
雜
雝
離
難
雨
雩
雪
雲
零
雷
需
霍
霜
霝
霞
霸
靈
靑
青
非
靡
面
靣
革
韋
韦
韭
韯
韱
音
頁
頃
項
須
頗
頡
頻
顛
页
風
风
飛
飞
食
飠
養
饣
首
香
馬
馮
駦
马
骨
高
髟
鬥
鬯
鬲
鬼
魔
魚
魯
鮮
鱼
鲁
鳥
鳳
鸟
鹵
鹿
麃
麗
麥
麦
麻
黃
黄
黍
黎
黑
黒
黨
黹
黽
黾
鼎
鼓
鼠
鼻
齊
齋
齐
齒
齿
龍
龙
龜
龟
龠
龰
龱
龴
龵
龶
龷
龸
龹
ꞛ
ꞝ
ꞟ
ꭹ
ꭿ
ꮃ
ꮳ
者
艹
，
？
📲
🚀
🜨
𠀁
𠀃
𠀆
𠀉
𠀎
𠀐
𠁁
𠁣
𠂆
𠂇
𠂈
𠂉
𠂊
𠂋
𠂎
𠂒
𠂔
𠂛
𠂡
𠂢
𠂤
𠂬
𠂭
𠂹
𠃊
𠃋
𠃌
𠃍
𠃎
𠃑
𠃓
𠃔
𠃜
𠄌
𠄎
𠄠
𠄢
𠆢
𠆥
𠇍
𠈌
𠌵
𠓜
𠔉
𠔥
𠔼
𠔽
𠔿
𠕀
𠕁
𠕋
𠘧
𠘨
𠙻
𠙼
𠚏
𠚒
𠚤
𠚪
𠣏
𠤎
𠤕
𠥓
𠦄
𠦑
𠦝
𠧒
𠧗
𠧪
𠩺
𠪚
𠫓
𠫔
𠫤
𠬛
𠬝
𠬞
𠬢
𠬤
𠬶
𠮛
𠮦
𠮷
𠯑
𠱠
𠳮
𠷎
𡈼
𡉀
𡉵
𡌥
𡍮
𡏳
𡕒
𡕩
𡕰
𡖅
𡗗
𡗜
𡘆
𡘤
𡧱
𡨄
𡩧
𡬠
𡭽
𡰣
𡰥
𡰪
𡰯
𡰱
𡷈
𡸁
𡿨
𡿩
𡿪
𡿺
𢀖
𢀛
𢀩
𢁙
𢆉
𢆰
𢆶
𢇁
𢇇
𢉖
𢌬
𢌿
𢏚
𢑑
𢑚
𢖻
𢙣
𢛳
𢦏
𢦒
𢧵
𢼄
𢾕
𣁋
𣄼
𣅀
𣅽
𣍘
𣎳
𣎵
𣏋
𣏼
𣗥
𣥂
𣥖
𣦵
𣦼
𣧄
𣪊
𣪠
𣬉
𣳾
𣶒
𤇾
𤊽
𤐫
𤓰
𤔔
𤕨
𤣩
𤰇
𤰔
𤰞
𤴓
𤴔
𤽄
𥁑
𥁕
𥃦
𥃩
𥃭
𥇡
𥑟
𥘅
𥘈
𥝢
𥫗
𥱡
𦈢
𦉪
𦉬
𦉼
𦍌
𦍒
𦎧
𦐇
𦓔
𦔮
𦘒
𦙃
𦚏
𦣝
𦣞
𦣻
𦥑
𦥔
𦥯
𦨉
𦭝
𦰩
𧆞
𧈧
𧘇
𧰨
𧴪
𧴮
𧵩
𧾷
𨸏
𨾴
𩙿
𩠐
𩫏
𩵋
𪉷
𪜀
𪟽
𪠲
𪩲
𫇦
𫔭
𫜸
𫝀
𫠣
𫠩
𫢉
𫥞
𫩏
𫩠
𫪡
𫲽
𫶧
𬀷
𬐘
𬗌
𬙙
𬛸
𬜯
𬟩
𬯁
𬴘
𬺻
𬼉
𬼖
𭀰
𭁈
𭁨
𭅰
𭑈
𭕄
𭗼
𭤨
𭥫
𭻾
𮅕
𮊿
𮍌
𮍏
𮓗
𮥼
𮧮
廾
𰀁
𰀄
𰀈
𰀉
𰀕
𰀠
𰀡
𰀢
𰀪
𰁜
𰃮
𰆊
𰆘
𰋙
𰕎
𰢴
𰧭
𰯲
000--
003--
004--
006--
010--
012--
013--
020--
021--
028--
029--
037--
038--
039--
041--
042--
047--
056--
067--
070--
076--
079--
082--
089--
096--
097--
100--
101--
102--
108--
109--
110--
112--
114--
116--
118--
119--
120--
123--
124--
129--
134--
135--
138--
139--
140--
142--
145--
146--
148--
155--
165--
166--
171--
174--
202--
203--
206--
211--
213--
216--
221--
225--
233--
236--
237--
244--
246--
247--
249--
259--
260--
266--
268--
270--
271--
275--
286--
289--
293--
295--
297--
304--
313--
314--
316--
325--
336--
341--
345--
346--
347--
356--
357--
365--
366--
391--
395--
399--
401--
410--
414--
416--
421--
433--
438--
455--
458--
459--
463--
468--
476--
484--
489--
503--
510--
511--
512--
516--
525--
528--
529--
536--
539--
542--
555--
569--
571--
580--
581--
582--
599--
609--
611--
612--
615--
616--
620--
626--
627--
631--
640--
641--
649--
651--
655--
658--
661--
662--
664--
675--
676--
678--
685--
694--
702--
703--
704--
708--
715--
723--
726--
731--
742--
744--
746--
750--
751--
757--
758--
759--
763--
765--
778--
788--
793--
796--
804--
807--
808--
818--
828--
838--
847--
849--
854--
855--
857--
858--
861--
862--
863--
871--
875--
877--
879--
883--
895--
897--
899--
901--
902--
904--
905--
906--
907--
912--
922--
923--
926--
927--
928--
931--
933--
955--
956--
961--
963--
964--
970--
972--
975--
978--
980--
983--
993--
994--
a--
aa--
aar--
ab--
abing--
ac--
acce--
ace--
acti--
ad--
af--
aff--
ag--
aga--
ago--
agu--
ah--
ahl--
ai--
aigu--
air--
aj--
ak--
al--
albuquer--
ale--
ali--
all--
allge--
alp--
alt--
alta--
altis--
aly--
am--
amar--
ame--
an--
ana--
and--
ander--
ang--
ani--
ann--
ans--
ant--
anth--
anti--
antr--
any--
apa--
api--
app--
appli--
ar--
ara--
arc--
arka--
art--
as--
ash--
at--
athl--
au--
auf--
aus--
auto--
aux--
av--
avel--
aven--
aves--
avig--
ax--
ay--
az--
azərbay--
b--
ba--
bad--
bag--
bai--
bal--
bam--
ban--
bar--
bargiełow--
bas--
bat--
bau--
baum--
bay--
be--
beau--
bec--
bei--
bel--
bela--
ben--
ber--
bern--
bes--
beson--
bett--
beuv--
bex--
bey--
bi--
bib--
bid--
bien--
big--
bil--
bill--
bio--
bir--
bis--
bisac--
bit--
bla--
ble--
blin--
blo--
blooms--
blu--
bly--
bo--
boa--
bob--
bog--
boga--
bol--
boll--
bolog--
bolu--
bom--
bon--
bonn--
bor--
borg--
boro--
borr--
bos--
bot--
bou--
boul--
bous--
bout--
boy--
br--
bra--
brac--
bre--
brem--
brig--
brin--
brit--
bro--
broad--
broc--
bros--
bru--
bruch--
brus--
bry--
bs--
bu--
buc--
buczkow--
buis--
bul--
bund--
bur--
buss--
but--
by--
błasz--
c--
ca--
cag--
caja--
cal--
cala--
cale--
calen--
calt--
cam--
can--
capi--
capis--
capo--
capp--
capt--
car--
carig--
carni--
casa--
casal--
casc--
cass--
catt--
cau--
cave--
cd--
ce--
cele--
cer--
cere--
ces--
ch--
cha--
cham--
char--
che--
chen--
chi--
chiara--
chig--
chil--
chmurkow--
cho--
chr--
chu--
ci--
cia--
cicl--
cie--
cif--
cila--
cin--
cio--
cis--
ck--
cl--
cla--
cle--
clo--
co--
cog--
col--
com--
compsog--
con--
connec--
conta--
copp--
cor--
corb--
corc--
corni--
cort--
cos--
cosmo--
cou--
coul--
cra--
cran--
cre--
cri--
cris--
cro--
cru--
cs--
cu--
cug--
cul--
cull--
curr--
cy--
cycl--
cz--
cze--
czy--
d--
da--
dab--
dag--
dal--
dalul--
dam--
dan--
dar--
das--
dat--
daw--
de--
def--
deg--
dei--
dek--
del--
dela--
den--
der--
des--
det--
dev--
dha--
di--
dia--
diabi--
difa--
dig--
dil--
din--
dis--
disam--
do--
dob--
dobr--
dol--
dom--
don--
dona--
dor--
dorm--
dos--
dot--
dou--
dr--
dra--
dre--
dro--
dromaeosau--
dru--
du--
dub--
dun--
dy--
dyms--
dz--
dzi--
dzie--
dłu--
e--
east--
eat--
eb--
ec--
ed--
eff--
egi--
egy--
eh--
ehr--
eich--
ein--
eise--
ek--
el--
ela--
ele--
eli--
elms--
els--
ely--
em--
en--
encin--
eng--
engel--
ent--
eo--
ephr--
epi--
epita--
epp--
equi--
er--
era--
erler--
es--
esc--
esp--
est--
et--
etu--
eu--
euhe--
ev--
eva--
ew--
ex--
excl--
exec--
ey--
ez--
eze--
f--
fa--
fabrosau--
fac--
facil--
fair--
faku--
fal--
fale--
falken--
fam--
fan--
far--
fas--
fasir--
fau--
fav--
fe--
fea--
fed--
feda--
fei--
fel--
feld--
feldk--
felic--
fer--
feu--
fey--
fi--
fid--
fijew--
fin--
fio--
fis--
fit--
fla--
fle--
flu--
fo--
fol--
fon--
foot--
for--
foss--
fou--
fr--
fra--
fre--
fred--
freda--
freien--
fres--
fri--
fried--
fro--
fu--
ful--
fundame--
g--
ga--
gab--
gad--
gag--
gal--
gall--
gam--
gan--
gar--
garg--
garr--
gas--
gaw--
gay--
gaz--
ge--
geb--
gel--
gen--
geo--
ger--
ghe--
ghi--
gi--
gian--
gif--
gil--
gita--
gl--
gle--
glo--
glora--
go--
god--
goff--
gol--
gold--
gon--
good--
gor--
gos--
gou--
gover--
gra--
grand--
gre--
gri--
gris--
gro--
groß--
gru--
gu--
gua--
guara--
guer--
gui--
guig--
guin--
gur--
gw--
h--
ha--
haber--
habs--
had--
hal--
ham--
han--
hand--
har--
has--
hau--
hay--
he--
heer--
hel--
hen--
henn--
her--
herrer--
het--
hey--
hi--
hib--
hil--
hill--
him--
hipa--
hipp--
hirs--
his--
histo--
hl--
hmer--
ho--
hoch--
hof--
hog--
hol--
holl--
holz--
hom--
houd--
hoy--
hr--
hu--
hua--
huis--
huss--
hy--
i--
ia--
ib--
ibi--
ic--
id--
ida--
iden--
if--
ig--
igu--
ik--
il--
ila--
ili--
ill--
ily--
im--
imple--
in--
inc--
indepen--
ing--
ini--
ins--
insti--
integra--
inten--
inter--
intr--
ipi--
ir--
iron--
is--
isa--
iser--
ist--
it--
ita--
itu--
iv--
iz--
j--
ja--
jan--
jankow--
jar--
jay--
je--
jed--
jeth--
jfa--
ji--
jo--
jon--
jou--
ju--
jula--
jun--
jung--
jy--
k--
ka--
kab--
kahraman--
kal--
kalten--
kam--
kan--
kap--
kar--
kara--
karb--
karl--
kars--
kas--
kat--
kata--
kath--
kauf--
kauk--
kay--
ke--
kel--
kemp--
ken--
ker--
kha--
ki--
kil--
kim--
king--
kings--
kirs--
kis--
kit--
kla--
kle--
klifa--
klin--
klo--
klota--
klu--
kno--
knu--
ko--
koapa--
kobio--
kobo--
koh--
koina--
kol--
kom--
kon--
kona--
konke--
konyu--
koor--
kor--
kos--
kosmo--
kou--
kowalew--
kr--
kra--
kras--
kre--
kreuz--
kriga--
krist--
kristian--
kro--
kru--
kry--
ks--
kt--
ku--
kuliva--
kur--
kura--
kuz--
kva--
kvan--
kvis--
kwiatkow--
ky--
kło--
l--
la--
lac--
lad--
laf--
lafas--
lai--
laida--
lak--
lal--
lam--
lama--
lan--
lang--
lani--
lans--
las--
lat--
lau--
lav--
law--
lay--
laza--
le--
lea--
lec--
led--
leg--
leh--
lei--
leich--
leje--
lekana--
leks--
lekt--
lektina--
lelat--
len--
leo--
les--
let--
leu--
lev--
ley--
li--
lib--
libav--
liber--
lich--
lichten--
lie--
lifa--
lig--
lil--
lim--
lin--
lis--
lit--
litag--
liv--
livra--
liz--
ll--
lla--
lle--
lo--
lob--
loc--
log--
loh--
loj--
lom--
lon--
long--
lou--
love--
ls--
lt--
lu--
luc--
lud--
ludo--
lul--
lum--
luz--
ly--
lynd--
lyu--
m--
ma--
mac--
mad--
mag--
magi--
mah--
mai--
maj--
maka--
mal--
man--
manage--
maner--
mar--
mara--
mas--
mass--
mat--
mathe--
maul--
may--
maz--
mc--
mca--
mcna--
me--
meba--
med--
medic--
meg--
mega--
meh--
mei--
mel--
mela--
mem--
men--
mena--
mens--
mer--
mes--
met--
metro--
mey--
mezzo--
mi--
micha--
mid--
mig--
mik--
mil--
mill--
min--
mir--
mis--
mit--
miteo--
mo--
mol--
mom--
mon--
mona--
mont--
monte--
moor--
mor--
mos--
mot--
mou--
moz--
mp--
ms--
mu--
muen--
mug--
mul--
multi--
mum--
mun--
munici--
mur--
musc--
muss--
my--
n--
na--
nad--
naj--
nan--
nar--
nas--
nat--
nata--
nau--
nazi--
nd--
ne--
nea--
neda--
nek--
nel--
nen--
nes--
nesu--
neta--
neu--
new--
ney--
ng--
ngu--
ni--
nie--
nieder--
nigs--
nik--
nim--
nima--
nis--
nn--
no--
noat--
noc--
nod--
noda--
nog--
nom--
non--
nor--
nord--
north--
nos--
nothosau--
nou--
ns--
nt--
nu--
nue--
nula--
nun--
ny--
nz--
o--
oak--
ob--
obe--
ober--
objec--
oc--
od--
of--
off--
offen--
og--
ok--
oka--
oksa--
ol--
ola--
old--
ole--
oli--
oly--
om--
on--
op--
or--
ora--
ord--
org--
ori--
ornith--
ornithomi--
oro--
os--
ost--
ot--
ou--
out--
ov--
ox--
ozi--
p--
pa--
pabe--
pad--
pade--
padek--
pag--
pai--
pal--
pala--
pale--
palo--
pan--
par--
para--
pare--
pas--
pasife--
pat--
pau--
pav--
pay--
pe--
ped--
pelleg--
pen--
per--
pesc--
pet--
pez--
pfaffen--
pfarrk--
phe--
pho--
phy--
physi--
pi--
pia--
pic--
pied--
piet--
pietra--
pig--
pin--
pine--
pio--
pira--
pis--
pl--
pla--
plan--
play--
ple--
pli--
plo--
plou--
ploum--
plu--
po--
pod--
podgo--
poe--
poinc--
pol--
poli--
poly--
pom--
pon--
pont--
pop--
popul--
por--
pos--
poul--
pous--
pow--
poz--
pozzo--
pp--
pr--
pra--
pre--
pri--
princi--
pro--
proge--
prud--
prze--
ps--
pt--
pu--
pub--
put--
puy--
py--
q--
qu--
quar--
que--
qui--
quix--
r--
ra--
rab--
rad--
rah--
raim--
ram--
rama--
ran--
rap--
rapp--
raw--
ray--
rb--
rc--
rd--
re--
rea--
recom--
red--
ref--
referen--
reg--
rei--
rela--
rem--
ren--
repu--
res--
ret--
revol--
rey--
rhe--
ri--
ric--
ridge--
rie--
riet--
rig--
ris--
riz--
rja--
rk--
rm--
rns--
ro--
rob--
roc--
rocca--
rod--
roga--
rom--
roma--
ron--
ros--
rose--
rou--
rouv--
row--
roy--
roz--
rr--
rs--
rsten--
rsze--
rt--
ru--
rubi--
run--
rus--
rut--
ry--
rze--
s--
sa--
sab--
sal--
salz--
sam--
san--
sangu--
sar--
sau--
savig--
saw--
say--
sc--
scand--
sch--
scha--
sche--
scher--
schi--
schl--
schle--
schr--
schu--
schwe--
sci--
scien--
se--
sea--
sed--
see--
sek--
sel--
sem--
sen--
sep--
ser--
sese--
set--
sev--
seva--
sey--
sh--
sha--
shastasau--
she--
sher--
shi--
shqi--
si--
sia--
sie--
sig--
sil--
sila--
silen--
sim--
sin--
sir--
sis--
sit--
sk--
ska--
ski--
sko--
skul--
sky--
sla--
sli--
slo--
slu--
sm--
smir--
smo--
sni--
so--
soa--
soc--
sol--
som--
son--
sou--
south--
sp--
spa--
spe--
spel--
speranta--
spi--
spin--
spir--
spo--
sr--
ss--
st--
sta--
staba--
stadt--
ste--
sti--
stima--
sto--
str--
straw--
stre--
struc--
stu--
stuni--
sty--
su--
sub--
suc--
sui--
sul--
summer--
sun--
sur--
sus--
susta--
sv--
sve--
svim--
swe--
sy--
symp--
sympho--
syn--
sz--
sza--
sze--
szo--
t--
ta--
tab--
taglia--
tai--
tal--
tam--
tan--
taquar--
tar--
tara--
tas--
tat--
tata--
tau--
tax--
te--
teana--
ted--
tegil--
tel--
tele--
tem--
ten--
ter--
teta--
teu--
th--
the--
thi--
thor--
thu--
ti--
tid--
tig--
til--
tim--
tima--
timber--
tipo--
tis--
titan--
tje--
to--
tol--
tom--
ton--
too--
topa--
tor--
torr--
tort--
tot--
tou--
toul--
tous--
tr--
tra--
tradi--
tradu--
tre--
treb--
trem--
tres--
tri--
trig--
trigo--
tro--
trom--
tron--
trot--
tru--
ts--
tt--
tu--
tum--
tun--
tur--
tusc--
tv--
twe--
ty--
tyran--
u--
uber--
ud--
uk--
ul--
ull--
um--
un--
una--
univ--
univer--
up--
ur--
urs--
uru--
us--
user--
ut--
uz--
v--
va--
val--
vala--
valda--
van--
var--
vas--
vat--
vau--
ve--
vec--
veita--
vel--
ven--
ver--
verb--
verg--
verm--
vero--
vers--
vey--
vi--
via--
vie--
vig--
vik--
viki--
vil--
villa--
vin--
vio--
vire--
virg--
vis--
viv--
viz--
vo--
voba--
vocabu--
vol--
vola--
volks--
voll--
vor--
vota--
votas--
vu--
vul--
w--
wa--
wal--
wals--
war--
was--
wat--
we--
web--
wein--
weins--
weit--
weißen--
wel--
west--
wester--
wey--
what--
whe--
whit--
wi--
wick--
wie--
wig--
wik--
wiki--
wil--
wild--
wim--
win--
wind--
wir--
wis--
wit--
wo--
wol--
wolfs--
wood--
work--
wu--
wy--
wyrzykow--
wyso--
x--
xet--
xi--
y--
ya--
yakov--
yan--
ye--
yev--
yo--
york--
yu--
yuf--
yve--
z--
za--
zam--
zau--
zawa--
ze--
zh--
zi--
zifa--
zo--
zu--
zwe--
zy--
ð--
þ--
ı--
ła--
α--
κ--
λ--
μ--
ν--
π--
σ--
τ--
φ--
а--
ан--
ар--
б--
ба--
бар--
бе--
в--
ве--
вит--
во--
вол--
га--
год--
грушевсь--
да--
де--
и--
к--
ка--
кар--
ко--
кра--
л--
ла--
ле--
лю--
м--
ма--
мак--
мик--
мо--
н--
нсь--
о--
п--
па--
пе--
по--
р--
ра--
ро--
рос--
ру--
рус--
с--
са--
св--
ск--
сл--
со--
ста--
т--
у--
ча--
юл--
я--
ا--
ال--
ب--
د--
م--
--0
--00
--01
--02
--03
--05
--08
--09
--1
--10
--11
--1111
--12
--15
--16
--19
--2
--20
--22
--23
--25
--26
--27
--3
--30
--3333
--4
--40
--4444
--46
--48
--49
--5
--50
--51
--53
--55
--56
--57
--58
--6
--61
--62
--63
--64
--67
--68
--7
--70
--72
--73
--74
--77
--78
--8
--80
--84
--85
--87
--88
--8889
--89
--9
--91
--92
--96
--97
--99
--a
--aa
--aar
--able
--abu
--ac
--aca
--acci
--ach
--acht
--aco
--ad
--ada
--adel
--ado
--ae
--af
--afa
--afom
--afs
--ag
--age
--agnac
--ago
--agrup
--ah
--ai
--aia
--ais
--aja
--ak
--aka
--ako
--al
--ala
--ale
--am
--ama
--ami
--ams
--an
--ana
--anas
--anc
--and
--ane
--anef
--ang
--ange
--ani
--anis
--ano
--ans
--ant
--ante
--ao
--ap
--apu
--ar
--ara
--ard
--are
--ari
--aria
--ario
--aro
--arolo
--ary
--as
--asca
--asco
--aso
--asse
--asu
--at
--ata
--ate
--ateor
--ath
--ati
--atic
--ation
--ations
--ato
--ator
--au
--aua
--aud
--aur
--auria
--aurus
--aux
--av
--ava
--avan
--avik
--avo
--aw
--ax
--ay
--aya
--aye
--az
--aza
--b
--ba
--bach
--bad
--bal
--bb
--bbe
--be
--beau
--bek
--bello
--berg
--bert
--bi
--bia
--biate
--bie
--bik
--biks
--blatt
--ble
--bleau
--bo
--bon
--bor
--borg
--born
--boro
--bot
--box
--bris
--bro
--broich
--bs
--bst
--bu
--buk
--burn
--by
--c
--ca
--cal
--cana
--cao
--cas
--cat
--cate
--cca
--cco
--ce
--cella
--cer
--cert
--cey
--ch
--chaft
--chaften
--chal
--che
--ches
--cho
--cht
--ci
--cia
--cial
--cio
--cita
--cito
--ck
--cka
--cke
--cki
--co
--corvino
--cq
--cs
--ct
--cu
--cus
--cut
--cy
--cz
--czyk
--czyn
--d
--da
--dad
--dae
--dakan
--dale
--dan
--dara
--das
--day
--db
--dd
--dda
--ddy
--de
--dea
--ded
--del
--den
--der
--des
--di
--dik
--dil
--dis
--dit
--dl
--do
--dom
--don
--dor
--dorf
--dre
--dres
--ds
--dt
--du
--dus
--dy
--e
--ea
--eau
--eb
--ec
--eca
--ece
--eck
--ect
--ed
--eda
--edi
--edik
--edo
--edon
--ee
--ef
--efa
--eg
--ega
--egg
--ego
--ei
--eil
--eim
--eira
--eiras
--ek
--ekik
--eks
--el
--ela
--elin
--ell
--ella
--elli
--ello
--eln
--ely
--em
--ema
--eman
--eme
--emo
--emon
--emont
--ems
--en
--ena
--enc
--ence
--end
--ene
--enfeld
--eni
--enik
--enko
--eno
--ens
--ensac
--ensis
--ent
--enta
--ente
--enti
--ento
--eo
--eor
--epo
--epu
--er
--era
--erd
--ere
--eren
--erg
--eri
--eria
--erly
--ern
--erno
--ero
--erode
--ers
--ersdorf
--ert
--ertino
--erus
--es
--ese
--esi
--esino
--eso
--esse
--essional
--et
--eta
--etan
--etas
--ete
--eti
--etik
--etis
--eto
--eton
--ets
--ett
--ette
--etto
--etz
--eu
--euil
--eur
--eux
--ev
--eve
--evna
--evo
--ewicz
--ewski
--ex
--ey
--ez
--ezia
--ezzo
--f
--fa
--faux
--fe
--fed
--feld
--fen
--fenberg
--ff
--ffen
--fi
--fied
--field
--fjo
--fleet
--fo
--fon
--fs
--ft
--fu
--ful
--furt
--g
--ga
--gaden
--gan
--gate
--gau
--ge
--gee
--gen
--ger
--ges
--gg
--ggio
--gh
--gham
--ght
--gi
--gia
--giano
--gik
--gin
--gio
--gla
--glia
--glio
--gna
--gnac
--gnano
--gne
--gno
--gny
--go
--gola
--grad
--graphy
--gren
--gro
--gs
--gt
--gu
--gua
--gue
--gueiras
--gues
--gui
--gus
--gy
--h
--ha
--hagen
--hal
--ham
--haus
--hausen
--hay
--he
--heim
--hen
--hes
--hi
--hieu
--hilde
--hin
--hl
--hm
--hn
--ho
--hoe
--hol
--hon
--hos
--ht
--https
--hus
--i
--ia
--iac
--iah
--iak
--ial
--iam
--ian
--iar
--ib
--ibe
--ible
--ic
--ica
--ical
--ice
--ich
--ici
--icia
--ick
--icka
--ico
--ics
--icz
--id
--ida
--idad
--ide
--ides
--idik
--idilekan
--idu
--ie
--iec
--ied
--iel
--ien
--ier
--ieres
--ieri
--iers
--ies
--ieu
--ieur
--ieux
--iewicz
--if
--iff
--ifo
--ifot
--ifu
--ig
--iga
--ige
--ight
--ignac
--igny
--igo
--ii
--ij
--ija
--ijo
--ik
--ika
--ikam
--ikan
--iki
--iko
--iks
--iku
--il
--ilautan
--ile
--ili
--illa
--illo
--illon
--illy
--ilo
--ils
--ilu
--ily
--im
--ima
--imik
--in
--ina
--ine
--ines
--ing
--inga
--ingen
--inger
--inges
--ings
--ington
--inha
--inho
--ini
--ino
--io
--ion
--ions
--ior
--ios
--ip
--ipe
--ipo
--ique
--ir
--ira
--iras
--ire
--ires
--iri
--iro
--irs
--is
--isaurus
--isch
--ische
--ise
--ish
--ising
--ism
--iss
--isse
--ist
--ista
--istic
--it
--ite
--iti
--itive
--ito
--ity
--itz
--iu
--ium
--ius
--ive
--ix
--iy
--iya
--iyop
--iz
--ization
--ize
--ized
--iß
--j
--ja
--jara
--je
--ji
--jko
--jn
--jo
--ju
--juba
--jui
--k
--ka
--kau
--ke
--keit
--ker
--kers
--kh
--ki
--kie
--kiewicz
--kik
--kin
--kirch
--kis
--kiy
--ko
--kon
--kov
--kow
--ks
--ksy
--ku
--kum
--ky
--l
--la
--laas
--labik
--lade
--lais
--lake
--lan
--land
--lar
--lard
--lav
--lay
--lco
--ld
--lda
--lde
--ldo
--le
--lec
--lem
--ler
--les
--let
--ley
--lf
--li
--lia
--lik
--lin
--line
--ling
--lis
--lk
--ll
--lla
--lle
--lles
--lli
--llino
--llo
--lly
--lm
--lo
--lob
--lock
--lois
--lon
--los
--lov
--ls
--lski
--lso
--lt
--lta
--lten
--lto
--lu
--lud
--lun
--lupo
--lus
--ly
--lyn
--lz
--m
--ma
--mado
--man
--mann
--mar
--mas
--mba
--mbo
--me
--mead
--mee
--men
--ment
--mer
--mi
--mik
--mio
--mm
--mo
--mod
--mola
--mold
--mor
--mort
--mov
--ms
--mu
--muere
--mus
--my
--n
--na
--nac
--nah
--nal
--nara
--nas
--nay
--nberg
--nburg
--nc
--nce
--ncy
--nd
--nda
--nde
--ndez
--ndi
--ndo
--ndro
--nds
--ne
--nec
--nee
--nef
--ner
--nero
--nes
--ness
--neuf
--ney
--ng
--nga
--nge
--ngen
--ngo
--ngua
--ngy
--nheim
--nho
--ni
--nia
--nico
--nier
--nik
--ning
--nis
--nium
--nja
--nk
--nka
--nko
--nn
--nna
--nne
--nnes
--nno
--no
--nor
--nov
--nova
--nque
--ns
--nse
--nsis
--nsk
--nskiy
--nso
--nt
--nta
--nte
--ntia
--ntin
--ntina
--ntino
--ntly
--nto
--nton
--nu
--nuo
--nus
--ny
--nz
--nza
--o
--oa
--ob
--oc
--oca
--ock
--od
--oda
--odas
--ode
--odon
--oe
--of
--off
--og
--oga
--ogne
--ogy
--oi
--oir
--oire
--ois
--oix
--oj
--ok
--ol
--ola
--olo
--ols
--olso
--om
--omo
--omon
--on
--one
--ong
--onne
--ono
--ons
--ont
--oo
--ope
--opolis
--or
--ord
--ore
--orf
--ori
--orn
--orno
--ors
--ory
--os
--osa
--osaurus
--osi
--ot
--ota
--otas
--oti
--otis
--ots
--ou
--ous
--ouse
--out
--oux
--ov
--ova
--ovic
--ovik
--ovna
--ovo
--ovu
--ow
--owicz
--owska
--owski
--oy
--oz
--p
--pa
--pad
--pe
--pei
--pel
--pes
--pf
--ph
--phical
--phies
--phone
--phy
--pi
--pie
--ply
--po
--polis
--pp
--ppe
--ps
--pson
--pt
--pterus
--ptor
--pu
--pur
--pus
--q
--qua
--que
--r
--ra
--rada
--rage
--rano
--rara
--rare
--ras
--rat
--rate
--rch
--rczyk
--rd
--rdo
--rds
--re
--reale
--res
--rf
--rg
--rge
--rgues
--ri
--ria
--rie
--rin
--rini
--rino
--rio
--rit
--rk
--rl
--rm
--rman
--rn
--rne
--rno
--ro
--rog
--rola
--rolo
--ron
--ror
--roux
--rov
--rra
--rre
--rs
--rsk
--rski
--rt
--rten
--ru
--rum
--rville
--ry
--rz
--rzyn
--s
--sa
--sac
--sano
--sation
--sau
--saurus
--sberg
--sboro
--sburg
--sca
--sch
--sco
--sdorf
--se
--sed
--see
--sel
--self
--sen
--ses
--sey
--sh
--sha
--sham
--shed
--sheim
--shi
--shire
--shut
--si
--sia
--side
--sik
--sio
--sis
--sit
--sita
--sive
--sk
--ska
--skala
--ski
--skiy
--sla
--sley
--sne
--so
--son
--sos
--ss
--ssa
--sse
--ssic
--sso
--ssol
--sson
--ssy
--st
--sta
--ston
--stone
--stu
--su
--sville
--swil
--sy
--sz
--szewski
--szta
--szyn
--t
--ta
--tad
--tado
--tadt
--tai
--tain
--tal
--tan
--tar
--tas
--tasit
--te
--tea
--ted
--tein
--tek
--tely
--ten
--ter
--tes
--tet
--th
--thal
--ti
--tia
--tiba
--tic
--tidan
--tigny
--tik
--tim
--tin
--tine
--ting
--tino
--tion
--tions
--tis
--tive
--tiy
--tka
--tl
--tle
--tner
--to
--tod
--tods
--toire
--toj
--tola
--ton
--tone
--tor
--torf
--tors
--tory
--tos
--tov
--town
--tree
--tri
--tro
--trol
--tron
--trop
--tru
--ts
--tt
--tta
--tte
--tti
--tto
--tu
--tuba
--tun
--tus
--ty
--tz
--u
--ua
--ub
--uc
--ucci
--uch
--uco
--ud
--ude
--ue
--ueil
--uen
--uer
--ues
--ueux
--uf
--ug
--uga
--ui
--uil
--uin
--uk
--uke
--ul
--ula
--ulan
--ular
--ule
--ulo
--ult
--um
--ume
--umes
--umi
--umo
--umon
--ums
--un
--und
--ung
--unga
--ungen
--uno
--unon
--up
--ur
--ura
--ure
--urg
--uri
--uria
--uro
--uroidea
--urs
--urt
--urus
--us
--usi
--usig
--ut
--uvo
--ux
--uy
--uze
--v
--va
--van
--ve
--ved
--veen
--ver
--ves
--vet
--vi
--vic
--view
--vik
--viks
--ville
--vn
--vna
--vo
--vry
--vsk
--vskiy
--vu
--vua
--w
--wa
--way
--wick
--wicz
--wijk
--wil
--win
--wn
--wo
--wold
--wood
--wort
--ws
--wska
--wski
--wyn
--x
--xa
--xi
--xia
--xx
--xy
--y
--ya
--yan
--yat
--ye
--yer
--yev
--yevic
--yi
--yik
--yk
--yl
--yn
--yo
--ys
--yu
--yug
--yx
--yz
--z
--za
--zac
--zago
--ze
--zeiro
--zek
--zen
--zer
--zers
--zes
--zi
--zia
--zig
--zik
--zil
--zin
--zinho
--zka
--zno
--zo
--zon
--zov
--zu
--zy
--zyk
--zyn
--zz
--zza
--zzi
--zzo
--ß
--ße
--ł
--ła
--łe
--α
--ι
--ν
--ς
--υ
--а
--ан
--в
--ва
--вич
--го
--д
--е
--ев
--енко
--ер
--и
--ии
--им
--ин
--ия
--к
--ка
--кии
--кин
--ко
--ков
--л
--ла
--лав
--лов
--м
--н
--ння
--нов
--о
--ов
--ова
--овна
--ои
--р
--ра
--ров
--с
--ская
--скии
--т
--та
--у
--х
--ы
--ь
--ья
--ю
--я
--і
--ة
--د
--ن
--ي
--ی
