!
"
#
##0
##1
##10
##11
##12
##13
##14
##15
##16
##17
##18
##19
##2
##20
##21
##22
##23
##24
##25
##26
##27
##28
##29
##3
##30
##31
##32
##33
##34
##35
##36
##37
##38
##39
##4
##40
##41
##42
##43
##44
##45
##46
##47
##48
##49
##5
##50
##51
##52
##53
##54
##55
##56
##57
##58
##59
##6
##60
##61
##62
##63
##64
##65
##66
##67
##68
##69
##7
##70
##71
##72
##73
##74
##75
##76
##77
##78
##79
##8
##80
##81
##82
##83
##84
##85
##86
##87
##88
##89
##9
##90
##91
##92
##93
##94
##95
##96
##97
##98
##99
$
%
&
'
(
)
*
+
,
-
.
/
0
000
002
003
01
02
03
04
05
07
08
09
1
10
100
102
11
112
12
123
127
13
14
15
16
17
18
180
19
1946
1949
1953
1956
1962
1963
1964
1965
1966
1967
1968
1972
1975
1976
1977
1980
1981
1982
1983
1987
1993
1994
1996
1998
2
20
200
2000
2001
2002
2003
2004
2005
2006
2007
2008
2009
2010
2011
2012
2013
2014
2015
2016
2017
2018
2019
2020
2021
2022
21
22
220
23
24
25
250
26
265
27
277
28
29
3
30
300
31
32
33
338
34
35
350
36
37
38
39
4
40
400
41
42
43
435
44
45
450
46
47
48
49
5
50
500
51
52
53
54
55
56
567
6
60
62
7
70
700
748
8
80
83
830
87
9
90
:
;
<
=
?
@
\
_
`
a
aa
aamir
ab
aba
ababa
ababaza
ababirigi
ababonye
ababwira
abafirisiti
abafise
abagabo
abaganwa
abagore
abaha
abahanuzi
abahanzi
abaheberi
abahereza
abahinga
abaho
abahori
abahungu
abahutu
abaja
abakanahani
abakasidimu
abakazana
abakenyezi
abakevyi
abakirisu
abakobwa
abakoresha
abakozi
abakuru
abakwe
abamakabe
abamarayika
abami
abana
abandi
abanje
abansi
abantu
abanyagihugu
abanyamahanga
abanyamerika
abanyamisiri
abanyarwanda
abanyekorenti
abanyetesaronika
abapfasoni
abapfuye
abarinzi
abarundi
abasavyi
abasentare
abaserukizi
abashingantahe
abasuku
abatasi
abatumwa
abatunzi
abatutsi
abatwa
abatware
abavandimwe
abavubikiro
abaza
abazungu
abdominea
abe
abenegihugu
abenshi
aberi
abigeme
abihereza
abimereki
abiri
abishura
abiwe
abo
abona
abonekera
abonye
aborozi
abungere
aburahamu
aburamu
abwira
aca
acampe
ace
acita
aciye
acquaviva
actress
actresses
adahi
adamu
adapazarı
adema
adolphe
aduga
adult
ae
afata
afatwa
afirika
afise
afita
afite
africa
african
afrika
agaciro
agaheza
agahinda
agakura
agana
aganza
agaragara
agasa
agashobora
agashusho
agasumo
agatete
agatiro
agenda
agerera
ageze
agira
agirira
agiye
agize
aguila
aguma
agwa
aha
ahagaze
ahamagara
ahamvya
ahandi
ahandiho
ahanini
ahantu
aharabana
ahari
ahejeje
ahereza
ahezagira
aheze
ahi
ahingura
ahitana
aho
aires
airport
aja
ajana
aje
ajya
aka
akaba
akabona
akahise
akaja
akama
akamangu
akamaro
akamoto
akamu
akanyama
akara
akaremera
akarorero
akenshi
akibona
akigira
akira
akiri
akiriho
ako
akomeye
akongera
akora
akubita
akuki
akura
akurikira
alazraqui
allah
along
also
ama
amababa
amababi
amabara
amabendera
amaboko
amabuye
amadini
amafaranga
amafeza
amafoto
amagara
amagarwe
amagi
amagunira
amahasa
amahembe
amahera
amahoro
amahundo
amaja
amajambo
amajana
amajwi
amakete
amaki
amakomine
amakungu
amakuru
amalelesi
amamuko
amanuka
amapfa
amara
amaraso
amariba
amasaha
amasanamu
amasezerano
amashami
amashikanwa
amasho
amashure
amashurwe
amashusho
amaso
amasuguru
amata
amategeko
amateka
amateke
amatongo
amatora
amatungo
amatwi
amavuta
amayaya
amaze
amazi
amazina
amenya
amenyo
amerika
ameze
amezi
amoko
amstel
amubaza
amubwira
amugwa
amuha
amuzanira
amwambika
amwishura
amwita
an
anahi
anastacia
anca
and
android
andır
ane
angeles
angelou
ankara
anniversary
antakya
anzac
apfa
appeared
april
araba
arababaza
arabona
aracariho
aracikana
araduga
aragenda
arahaguruka
araheza
arahunga
aramu
aramuhezagira
aramvura
aranka
aranywa
arapfa
araraba
araramura
ararira
arasama
arasohoka
araturikisha
aregera
arekura
arenga
argentine
ari
arico
ariho
ariko
arimwo
aririra
ariwo
ariyo
arizo
aronka
arota
arungika
arupakeshadi
arusha
aryamana
aryita
aryoheye
as
asa
asama
asanga
asanzwe
asenati
aseru
ashaje
ashaka
asheri
ashika
ashikana
ashinga
ashira
ashishikara
ashobora
asp
asubira
asubizayo
asuka
asumba
at
ata
ataco
atandatu
atandukanye
atanu
atari
atatu
ategeka
ategura
atemba
atera
ati
atora
atuma
atumako
atunze
atura
au
august
australia
australiya
av
ava
avuga
avugana
avuye
avuze
avyara
avyarira
avyarire
avyariye
avyuka
award
awards
ay
aya
ayandi
ayo
aza
azerbaijan
aziya
azoba
azoca
azotorana
azwi
b
ba
baba
babaha
babandirwa
babanje
babanza
babigira
babiri
babo
babona
babonye
babwira
babwirana
baca
bacita
bacu
bad
bafata
bafise
bafungura
bagabo
bagaca
bagaza
bagenda
bagera
bagere
bageze
bagira
bagiye
bagize
bagore
bahari
baheba
bahita
bahora
bahungu
baja
bajana
baje
bakaba
bakavuga
bake
bakinnyi
bakiri
bakiye
bakobwa
bakomeye
bakora
bakoresha
bakoresheje
baku
bakubita
bakunda
bakunze
bakurikira
bamara
bamaze
bambara
bamubaza
bamubwira
bamufuba
bamugirira
bamujana
bamwana
bamwe
bamwishura
bamwita
bamye
bande
bane
bangana
banje
bank
bantu
banyu
baptiste
barafungura
baraga
baragenda
barahaguruka
baraheza
baranywa
bararya
barashika
barashobora
baraza
barenga
bari
barigira
bariko
barimwo
barondera
baronke
barwaye
barya
basanga
based
basemati
basenga
bashika
bashitse
bashobo
bashobora
basubira
batamba
batandatu
batangura
batanguye
batanu
batatu
bategerezwa
bati
bato
batoza
batunze
batwa
batware
bava
bavuga
bavugana
bavuye
bavuza
bawe
baza
bazanye
bazoba
be
became
bemera
bene
benewabo
benewacu
benewanyu
bennett
benshi
benyamini
berahi
berisheba
berlin
bern
berry
best
beteri
betuweri
bi
biba
bibari
bibaye
bibaza
bibero
bibi
bibiliya
bibiri
bibiribibiri
bible
bibone
bica
bice
bici
biciye
bifise
bifite
biga
bigatuma
bige
bigenda
bigendanwa
bigize
biharuro
bihe
bihembe
biheze
bihimba
bihugu
bihumbi
bijanye
bikaba
bikoko
bikoresho
bikorwa
bikurikije
bikuru
bilariziyozi
bimaze
bimba
bimera
bimwe
bine
binini
bininibinini
binjira
bintu
binure
binyagara
binyuze
biraba
birashobora
bireha
biri
bisa
bisagara
bisanzwe
bishemeye
bishika
bishobora
bishura
bishwe
bita
bitabu
bitandukanye
bitanu
bitatu
bitayeko
bitazira
bitera
biti
bitis
bitobito
bitugu
bituma
bitungwa
biva
bivuga
biwe
blake
blue
bo
bogota
bohero
boliviya
bollywood
bompi
bongera
bongorera
bora
border
borgo
bose
bourg
brarudi
brasi
brasserie
brazil
bridge
brurundi
bruxelles
bu
bubanza
budakdog
budasanzwe
buenos
bufirika
bugaragwa
bugingo
buhinde
bujumbura
bukebuke
bukeye
bulgaria
bumanuko
bumaze
bumva
bune
bura
buraruko
buraya
burengero
burere
buri
buru
burumaniya
burundi
bururi
buryo
busaza
buseruko
bushira
busho
but
butandukanye
butatu
buto
buye
buyoya
buzima
buzo
bw
bwa
bwabo
bwaco
bwaguke
bwaho
bwami
bwanje
bwari
bwato
bwavyo
bwawe
bwi
bwinshi
bwirizwa
bwiwe
bwiza
bwo
bwoko
bwose
by
bya
byinshi
c
ca
cabo
cagutse
calendar
california
cambere
cami
camira
camp
canada
cane
canecane
canje
canke
cankuzo
caracas
career
cari
carlos
carson
castellaneta
cataphractus
category
catumye
cawe
cayo
cec
cegeranyo
cell
center
cephalophus
cephalotes
ceranda
chicago
chiesanuova
chile
chili
christina
christine
christmas
ci
cibitoke
cimg
citwa
city
ciwe
clark
close
cm
cndd
co
colombia
colombiana
com
comey
comme
commons
commonwealth
commune
congereza
congress
copy
cordata
cose
country
croacia
crocodylus
cropped
cu
cucurbita
cumi
curitiba
cy
cya
cyane
cyangwa
cyprien
d
da
dame
dan
danemark
dani
daniel
dans
data
databuja
dave
david
dawe
dd
de
debut
debuted
december
dedani
defassa
defence
demokarasi
des
di
die
dikirizwa
dina
disease
dishani
dishoni
domitien
domye
don
dondagura
dong
drymaria
du
duce
due
dufise
duhe
duheze
dukoni
during
dusanga
dwo
e
ebola
edirne
edomu
efurayimu
ego
ehe
ehir
eka
ellipsiprymnus
en
enoshi
enterineti
epfo
equinus
erega
eri
eric
erifazi
eroni
es
ese
esipanye
eskis
esl
esperanto
est
et
etseri
evariste
ezawu
f
farawoni
fdd
fe
fi
fiebrigii
file
filime
filipine
film
filmfare
films
finilande
fiorentino
first
flag
flickr
flower
for
franc
fred
from
g
ga
gadi
gaharu
gahinga
gaku
gamsakhurdia
garahadi
garira
garirazi
gasape
gastrochilus
gata
gatandatu
gatanu
gatatu
gato
gatumba
geme
genda
generation
georgia
gerari
gi
gice
gifasha
gifise
gihambaye
gihanga
gihe
gihere
gihese
gihu
gihugu
gikombe
gikoreshwa
gikorwa
gikuru
gilles
giri
giripe
gisa
gisagara
gisata
gishimu
gishingo
gishobora
gisozi
gitabo
gitanga
gitega
giti
gitondo
gitoyi
gituma
gje
go
golzar
gomora
google
gosheni
group
gryfice
gu
guca
gucika
gufasha
gufatwa
gufuba
guha
guhahamuka
guhakana
guhamagara
guhera
guhiga
guhindura
guhitamwo
guke
gukemura
gukina
gukora
gukorera
gukoreshwa
gukuramo
gupfa
gupta
gusa
gusaba
gusama
gusangira
gusenga
gushika
gusoma
gusuma
gusumba
guta
gutahura
gutanga
gute
gutenberg
gutera
gutuma
gutwara
gutyo
guverinoma
gwa
gwo
h
ha
haba
habe
habenaria
haboneke
haciye
hada
hadadi
hafi
haga
hagari
hagati
haguruka
haheze
hakaba
hakurikijwe
hama
hambavu
hambere
hamori
hamu
hamwe
hano
hanoki
hantu
hanyuma
hanze
haraba
harani
hari
hariho
harimo
harimwo
hariya
haruguru
hasanag
hasi
hasigaye
havayo
havira
haza
he
heberi
heburoni
hedeni
heferoni
hehe
hejuru
hepfo
her
heramu
heri
herman
heti
heva
heydarieh
heza
hi
highest
hinge
hippotragus
hise
hitana
ho
hoho
hoi
homonymie
honduras
honey
hose
hoseini
hosseini
hotel
house
http
https
hulk
hutsi
hwayi
i
iba
ibahari
ibanga
ibara
ibe
ibendera
ibi
ibibanza
ibibazo
ibice
ibifise
ibifungurwa
ibiganiro
ibiganza
ibigega
ibiguruka
ibiharage
ibiharuro
ibihe
ibihembo
ibihi
ibihimba
ibihugu
ibihumbi
ibiki
ibikoko
ibikoresho
ibikorwa
ibikugirira
ibimenyetso
ibimera
ibimuri
ibindi
ibingira
ibintu
ibinure
ibinyobwa
ibinyogomba
ibipfukamiro
ibirago
ibirenge
ibiri
ibiribwa
ibirometero
ibirometrometero
ibisanzwe
ibisiga
ibitabu
ibiti
ibitoke
ibitunguru
ibitungwa
ibiyaga
ibiyayura
ibohero
ibona
ibonekera
ibubamfu
iburyo
ibuye
ibwami
ibwira
ibwirizwa
ica
icabona
icaha
icegera
icegeranyo
icenda
ici
icicaro
icitiro
iciyumviro
iciza
ico
icon
icongereza
icuma
icumi
icupa
icyicaro
icyubahiro
idarapo
idini
idol
idols
ifeza
ifi
ifise
ifundo
igendanwa
igenekerezo
igere
igice
igicumuro
igicurarangisho
igifaransa
igifise
igiha
igiharuro
igihe
igihimba
igihu
igihugu
igihumbi
igikiriza
igiko
igikoko
igikombe
igikoresho
igikorwa
igira
igisabisho
igisagara
igisata
igisenge
igiswahili
igitabo
igitanda
igitereko
igitero
igiterwa
igiti
igitigiri
igitigu
igitoke
igitondo
igizwe
igomwe
igufa
iguma
igunira
ihana
iharanira
ihavuye
ihema
iherereye
iheze
ihindurwa
ihirikwa
ihiti
ihohoterwa
ihonyabwoko
ihwa
ii
ija
ijambo
ijana
ijisho
ijoro
ijuru
ijwi
ikaba
ikanzu
iki
ikiba
ikibanza
ikibazo
ikibero
ikibi
ikibuga
ikigabane
ikiganza
ikigo
ikigongwe
ikigoyi
ikihe
ikimasa
ikimenyetso
ikindi
ikinege
ikintu
ikinyarwanda
ikinyobwa
ikiraya
ikirere
ikiribwa
ikiringo
ikirundi
ikirusiya
ikivu
ikiyaga
ikiyaya
ikiyingiyingi
ikiza
ikomine
ikora
ikoraniro
ikoreshwa
ikuri
ikuzimu
illinois
ilova
image
imamba
imamfu
imana
imaze
imbabazi
imbata
imbazi
imbeho
imbere
imbibe
imbiga
imbohe
imburu
imbuto
imerero
imero
imfungugwa
imfungurwa
imfura
img
imico
imigani
imigenzo
imigera
imiguta
imigwi
imihezagiro
imikate
imikogote
imiliyoni
iminwe
imirima
imiringa
imiriyoni
imirongo
imiryango
imisi
imisozi
imitahe
imitavu
imitsi
imitumba
imizi
imiziki
imoko
impe
impembo
impene
impeta
impfizi
impongo
impundu
impuzu
imubwira
imvi
imvugo
imvura
imvyaro
imwe
imyaho
imyaka
imyigaragambyo
in
inabi
inama
inanga
inarume
inauguracion
incoreke
incuro
incuti
inda
indagano
indahiro
indaro
inde
indege
index
india
indimburo
indimi
indirimbo
indo
indogobwe
indoto
induru
industry
indwano
indwara
indwi
indya
ine
ingabo
ingaburo
ingahe
ingamiya
ingano
inge
ingege
ingene
ingereka
ingi
ingingo
ingo
ingoma
ingona
ingorane
ingoro
ingurube
inguvu
ingwa
ingwano
ingwara
inka
inke
inkenuzo
inkingi
inkomoko
inkona
inkoni
inkono
inkoro
inkoronko
inkota
inkuka
inkuru
inkwano
inkwi
ino
insago
insho
inshuti
insi
insiguro
inta
intahe
intama
intambara
intambo
intambwe
intara
intare
intebe
inteko
interahamwe
interineti
international
internet
intete
intu
intuguta
intumwa
intungane
intwari
intwaro
inuma
inyama
inyambukira
inyandiko
inyanja
inyenyeri
inyerere
inyi
inyigisho
inyishu
inyobwa
inyoni
inyuma
inzahabu
inzandiko
inzara
inzego
inzimano
inzira
inzoga
inzoka
inzovu
inzu
ipfunya
iprovense
ira
iraboneka
irafise
irahezagira
irakora
iran
irangi
irani
irasho
iratiro
irema
irembo
irenga
irepuburika
iri
iriba
iriko
irindi
irindwi
irivu
iruhande
iry
irya
iryo
is
isa
isahani
isakari
isarayeri
isegenya
isenga
isezerano
ishamba
ishami
ishari
ishavu
ishikanwa
ishinga
ishirahamwe
ishobora
ishu
ishule
ishure
isi
isiga
isilamu
isinzi
islamu
isoko
isonga
isumba
isumbuye
it
ita
itaba
itako
itandatu
itandukanye
itanga
itanu
itanure
itariki
itatu
itegeko
iteka
iteke
itera
iterambere
iterwa
iti
itiro
ito
itongo
itunga
iva
ivana
ivu
ivuga
ivuka
ivutu
ivy
ivya
ivyabaye
ivyahishuriwe
ivyambarwa
ivyamwa
ivyari
ivyatsi
ivyawe
ivyerekeye
ivyicaro
ivyigwa
ivyimburwa
ivyiwe
ivyiyumviro
ivyiza
ivyo
ivyokurya
iwabo
iwacu
iwanje
iwanyu
iwawe
iwe
iy
iyi
iyindi
iyo
iz
iza
izahaki
izi
izifa
izifise
izimwe
izina
izinandi
izindi
izisi
izo
izoba
izosi
izuba
izwi
j
jackson
jambo
james
janeiro
jannat
japanese
je
jean
jeff
jerusalem
jewe
jodhpur
john
joiceyana
joko
joro
jpg
jr
july
juru
k
ka
kaba
kabaza
kabiri
kabuza
kadahi
kadeshi
kahise
kaja
kama
kame
kamena
kameze
kaminuza
kampala
kana
kanada
kanahani
kanama
kandi
kane
kanzu
kare
karere
karonge
karuzi
karyenda
kavantara
kavukire
kayanza
kayini
ke
kedorerahomeri
ken
kenani
kenazi
kenshi
kera
kereza
kew
keza
khan
ki
kiba
kibanza
kibe
kibondo
kibuga
kigarama
kigeze
kigizwe
kigo
kikaba
kikagira
kilometero
kimaze
kimeze
kimwe
kimwekimwe
kinama
king
kingana
kinigi
kinini
kinjana
kintu
kinyobwa
kiranga
kirere
kiri
kirimba
kirimiro
kirimwo
kirometero
kiru
kirundo
kirya
kisilamu
kitagaba
kito
kivuga
kiyaga
kiyaya
kiye
kizigenza
kizito
kizokwerekana
km
ko
kobus
kocaali
kohereza
koko
kolesterole
komine
kongo
korahi
korani
kore
krako
krasnodar
kristo
ku
kuba
kubabara
kubaho
kubandanya
kubandwa
kube
kubera
kuberako
kubikoresho
kubiri
kubona
kuboneka
kubora
kubwira
kucivugo
kuge
kugera
kugerageza
kugeza
kugi
kugira
kugirango
kugiti
kuguma
kugurisha
kuja
kuka
kuki
kuko
kuleli
kumbure
kumenya
kumenyekana
kumugabane
kumuha
kumurongo
kumusanganira
kumwanka
kumwe
kunonora
kunywa
kuraba
kure
kuri
kuriro
kuro
kurondera
kurongora
kuronka
kurota
kurubuga
kurugero
kurusha
kuruta
kurya
kuryamana
kushi
kuva
kuvoma
kuvu
kuvuga
kuvugana
kuvyara
kuvyerekeye
kuwadarato
kuza
kuzana
kuzimu
kw
kwa
kwabo
kwadarato
kwakira
kwama
kwamamaza
kwamana
kwambaza
kwandika
kwari
kwe
kwezi
kwica
kwicara
kwiga
kwigisha
kwikukira
kwinjira
kwiraba
kwisigura
kwita
kwiwe
kwiyahura
kwubaka
kırklareli
l
la
label
lac
lake
lakes
lambert
lamprichthys
lancie
lande
las
le
left
les
leta
leucantha
lia
lisboa
lituania
location
logo
loire
long
lorentzii
los
loves
luxembourg
lycaon
m
ma
maboko
macra
maculata
maderoi
madi
madiyani
madrid
mafeza
maggiore
magorwa
magunira
maguru
mahanga
maharareri
mahoro
mahundo
mairie
maja
majambo
majwi
makamba
make
makepera
makeyi
maki
makomine
makungu
malapterurus
male
mamure
mana
manase
manda
mandonii
map
mara
maraso
march
maremare
mariko
marin
marina
mario
market
martin
mashasha
mashinga
mashure
maso
mata
matayo
matora
matoya
matthewsii
mavukiro
may
maze
mazi
mazuru
mba
mbanyi
mbega
mbere
mbi
mbiga
mbo
mbona
mbu
mbuga
mbwira
me
mecidiye
melchior
member
menshi
mera
merekisedeki
messenger
metero
metusherahi
meza
mfise
mfungurwa
mi
michael
michel
michigan
mico
micombero
mihigo
mikami
mikheil
mikuru
miliyoni
mimanda
minimiflora
minister
minsi
minwe
mireka
miremire
mirima
miriyoni
mirong
mirongo
mirya
miryango
misi
misiri
misore
misozi
mitsi
mitumba
mivu
mo
modifier
moko
momona
monte
montegiardino
montevideo
montsoreau
moscou
moshchena
mountain
mpa
mpagaze
mpanda
mpeze
mpfe
mpuzamakungu
mpuzu
mu
mubihugu
mubindi
mubiri
mubisagara
mubwiriza
mufise
muga
mugabo
mugamba
mugende
mugera
mugihe
mugihugu
mugiti
mugongo
mugore
mugoroba
mugwi
mugwire
muha
muhanyi
muheze
muhira
muhungu
mujyi
mukakaro
mukama
mukaza
mukinyarwanda
mukobwa
mukuru
mukuruwe
mukurwanje
mukuvuza
mukuza
multiflora
muma
mumatsinda
mumazi
mumpande
mumutwe
munini
munsi
muntara
muntu
munwa
munyeshule
munyonyo
muramvya
muremure
muri
murima
muro
murumunawe
murwa
muryango
musaza
musazanje
musazawe
museum
mushikanje
mushiki
mushikiwe
mushoboravyose
musi
musigati
musomoke
musongati
musophaga
musore
musozi
musuku
mutaga
mutambara
mutari
muteki
muti
mutima
mutoyi
mutwe
muvugwa
muyinga
muze
muzima
muzoba
mva
mvira
mvu
mw
mwaje
mwaka
mwana
mwananje
mwanya
mwaro
mwe
mwebwe
mwene
mwenewabo
mwenewacu
mwenewanyu
mweranda
mwigeme
mwinshi
mwiza
mwo
mwuzure
myaka
myandagaro
myinshi
n
na
nabi
nabo
nabonye
naco
nagize
nagukoreye
naho
nahori
naka
nakoze
nama
namba
namwe
nanje
nari
narose
nashinze
nassab
natwe
navyo
nawe
nawo
nayo
nazo
nca
ncoreke
ncu
nda
ndabasavye
ndadaye
ndaguhezagire
ndagusavye
ndahiro
ndamukiza
ndamuvyariye
ndasavye
ndava
ndayishimiye
ndayizeye
nde
ndende
nderera
ndetse
ndi
ndimi
ndirimbo
ndo
ndondera
ndondozi
ndoto
ndu
nduka
ndwara
ndye
ne
nebayoti
nefutari
negebu
nera
nervosa
nevada
nevs
new
newsectionlink
neza
ng
nga
ngaha
ngaho
ngamiya
nganya
nge
ngende
ngeze
ngi
ngira
ngire
ngiye
ngizo
ngo
ngoma
ngoro
ngozi
ngu
ngwara
ni
nibindi
nibo
nico
night
nihabe
niho
nije
niloticus
nimurondoke
ninaba
nini
nira
niri
niriza
niwaba
niwaja
niye
niyo
nje
nk
nka
nkaba
nkako
nke
nkeka
nkingi
nko
nkoma
nkombe
nkuru
nkurunziza
no
noe
nogira
noheli
none
noneho
north
notre
nouvelle
november
nowa
np
nsa
nshaje
nshi
nshimirimana
nshinga
nshingiro
nshize
nshusha
nsi
nster
nta
ntahangwa
ntahe
ntakiriho
ntama
ntambara
ntambo
ntambwe
ntantigiri
ntara
ntaryamira
ntaryo
ntata
nti
ntibantunganya
ntidupfe
ntimutinye
ntirikabe
ntiyaba
ntiyari
ntu
ntumwa
ntushavure
ntutinye
ntuze
ntwarante
ntwaro
nu
nueva
numa
numvise
nya
nyabarongo
nyakanga
nyakugira
nyamukuru
nyanza
nye
nyene
nyenyeri
nyi
nyina
nyinshi
nyo
nyuma
nyumviriza
nza
nze
nzero
nzira
nziza
nzoba
nzogaruka
nzogiha
nzoguha
nzogwiza
nzokugirira
nzokwunga
nzomugira
nzoyishuza
nzu
o
oceania
ochracea
of
ohoribama
ois
on
onani
one
oni
or
orchid
orchidaceae
ordu
oreochromis
oreotragus
org
ou
out
over
oya
p
pachyglossa
padani
padma
paleacea
panorama
panoramic
panoramio
papillosum
paris
park
paul
pe
pennsylvania
peregi
perezida
performing
petero
pfo
pfunye
photo
phyllanthus
pictus
pierre
pigazzano
pikori
pl
place
plaza
politike
pologne
polystachya
pop
popcorn
poritike
porogaramu
portugal
potifari
potifera
praemorsa
praemorsum
praemorsus
president
primus
proffer
project
province
px
python
q
r
ra
raba
rabani
rakeri
rameki
razi
rdc
re
reagan
reba
rebeka
record
red
redunca
reference
rehoboti
rehu
rehuweri
reine
reka
rekana
released
representative
republika
repubulika
repuburika
rero
reta
revi
reya
reyemwo
reza
ri
riba
ricci
rich
rickles
ridashobo
rifatira
rifise
rigene
rigere
right
rigida
rihwa
rike
rikora
rikore
rimaze
rimeze
rimwe
rindi
rio
rira
riri
ririra
rirwa
risiga
ritu
river
rivu
riwe
riye
rizoba
ro
rogers
rome
ronald
roport
rosei
roseville
rotani
roti
roubaix
route
ru
rubeni
rubiaceae
rubibe
ruca
rudasumbwa
rude
rudoviko
rue
rufati
rufise
rugazi
rugena
rugendo
rugero
rugo
rugombo
ruhafu
ruhanga
ruheshi
ruhimbi
ruhuhuma
ruka
rukaba
rukh
rukinzo
rukoreshwa
rukuru
rumonge
rumwe
rundi
rungane
runini
rural
ruravugwa
ruri
rurimi
rusangi
rusizi
ruta
rutana
ruto
rutonde
rutovu
rutugu
rutumbereye
ruva
ruvugwa
ruvyaro
ruyigi
ruzi
ruzizi
ruzongana
rw
rwa
rwabo
rwagasore
rwanda
rwanje
rwanyu
rwawe
rwiwe
rwo
rworohe
rwose
ry
rya
ryaba
ryabo
ryakorewe
ryanje
ryari
ryawe
rye
ryera
ryere
ryi
ryinshi
ryitwa
ryiwe
ryiza
ryo
ryose
ryu
s
sa
saakashvili
sabal
sabicea
saccolabium
sahwa
saint
sakarya
salem
salman
samuweri
san
santiago
santimetero
sara
saratov
sarayi
satu
se
second
sehiri
seine
selling
semu
sen
sentare
september
serivise
serivisi
serravalle
serugu
seti
sg
sha
shah
shamwo
she
sheba
shebuja
shera
sherahi
shi
shije
shineyari
shingiro
sho
shobari
shu
shuri
shuwa
shwa
si
sickle
side
sidimu
sidoni
sikemu
simeho
sinari
sindagitikiza
single
sinzosubira
sisitemu
ske
so
sodoma
sokuru
solanum
songa
sosiyete
soundcloud
south
special
spiranthoideae
spotify
st
stanbul
star
started
stary
states
street
strongyloidiasis
stub
subira
susanne
swiss
sylvestre
sylvie
t
ta
tamari
tanganicanus
tanganyika
tanye
tanzaniya
te
team
tegucigalpa
tekirdag
televiziyo
temani
terahi
terefone
tersbourg
tes
th
the
their
theplantlist
thumb
thumbnail
ti
times
timote
timuna
to
torbat
tour
tower
tpl
trilobulata
trojany
tseboyimu
tsibehoni
tsira
tsohari
tswe
tsweko
tu
tuba
tubari
tubiri
tubona
tucson
tugende
tugezi
tugiye
tuhasanga
tumeze
turere
turi
turkey
turukiya
turyamane
tuti
tuyoka
tw
twa
twari
twe
twebwe
twese
twishuye
two
twovuga
u
uba
ubamwo
ubanje
ube
ubivuze
ubona
ubu
ububabare
ububasha
ububirigi
ububisha
ubudagi
ubufaransa
ubuganda
ubugeni
ubuhinde
ubuhinga
ubuki
ubukirisu
ubukomezi
ubumanuko
ubumenyi
ubumwe
ubundi
ubuntu
uburaruko
uburaya
uburayi
uburebure
uburembo
uburemere
uburenganzira
uburengerazuba
uburimyi
uburinganire
uburinganite
uburu
uburundi
ubururu
uburusiya
uburyo
ubusa
ubuseruko
ubusho
ubuswisi
ubutariyano
ubutegetsi
ubutumwa
ubutunzi
ubuyapani
ubuzima
ubwa
ubwami
ubwato
ubwatsi
ubwedomu
ubwenegihugu
ubwenge
ubwitonzi
ubwiwe
ubwo
ubwoba
ubwoko
ubwongereza
ubwoya
ufise
ufite
ugende
ugira
ugufubamwo
uguma
ugushi
ugushyingo
ugutwi
uhagaze
uhagurukana
uhese
uheze
uhuringanire
ukaba
ukame
uko
ukomeye
ukora
ukoresheje
ukozwe
uku
ukuba
ukuboko
ukuboza
ukugaba
ukugaya
ukune
ukuntu
ukuri
ukurundana
ukuryo
ukuvuga
ukwa
ukwemera
ukwezi
ukwibutsa
ukwikukira
ukwo
umaze
umpe
umu
umuba
umubindi
umubiri
umubisha
umubwiriza
umuce
umuceri
umuco
umudiho
umuduri
umufasha
umuga
umugabane
umugabo
umuganuro
umuganwa
umugeni
umugera
umugina
umugirwa
umugisha
umugore
umugoroba
umugozi
umugumya
umugwa
umugwi
umuhabara
umuhanyi
umuhebereyi
umuhererezi
umuherezankuka
umuhero
umuheti
umuheto
umuhezagiro
umuhigi
umuhivi
umuhungu
umuhungwabo
umuhutu
umuja
umuji
umujyi
umukama
umukate
umukazana
umukinnyi
umukinyi
umuko
umukobwa
umukoto
umukundanya
umukungugu
umukuru
umukuza
umukwe
umumanda
umumarayika
umunani
umunezero
umuntu
umunwa
umunyamisiri
umunyamutahe
umunyeshure
umupfu
umuranzi
umurima
umurinzi
umuririmvyi
umuriro
umurisho
umurundi
umurwa
umurwi
umurya
umuryango
umusavyi
umusenyi
umusesekara
umusi
umusonga
umusore
umusozi
umusuku
umusururu
umutaga
umutahe
umutama
umutekano
umutima
umutoyi
umutumba
umututsi
umutware
umutwe
umutwenzi
umuvinyu
umuvu
umuyaga
umuyobozi
umuzabibu
umuziki
umuzo
umwa
umwagazi
umwaka
umwakirizi
umwami
umwana
umwanya
umwaramu
umwe
umwemori
umwigeme
umwigisha
umwijima
umwimbu
umwirondoro
umwitwikiro
umwuga
umwumwe
umwungere
un
und
under
une
union
university
uno
unze
upright
uraheza
uravye
uravyi
uretse
uri
uru
urubanza
urubibe
urubuga
urudome
urugendo
urugero
urugi
urugo
uruguay
uruha
uruharo
uruhigi
uruhimbi
urukoba
urundi
urupfu
urura
ururimi
urusangi
urusato
urutoke
urutonde
uruvyaro
uruzi
urwanda
urwego
urwo
urya
usa
usanga
ushobora
usumbura
utashe
uti
utu
utudomagu
utudorodonzi
utundi
utuntu
uturingoti
uturorero
utwo
utwokurya
uva
uvuga
uvuge
uvuye
uwo
uwu
uwuba
uwubandwa
uwumufasha
uwundi
uwuvu
uyo
uyu
uza
uze
uzoba
uzompa
uzwi
v
va
vanda
varsovie
ve
vegas
venezuela
verisiyo
videwo
vietnam
view
villa
ville
virus
visit
vladivostok
vue
vuza
vy
vya
vyabo
vyanda
vyanje
vyanyu
vyara
vyari
vyawe
vyayo
vyegeranyo
vyerekeye
vyi
vyifitiye
vyigwa
vyikubita
vyimburwa
vyinshi
vyirwa
vyiwe
vyiza
vyizavyiza
vyo
vyoba
vyose
vyuma
w
wa
wabo
wacitse
wacu
wagize
wanje
wanyu
wari
was
wavutse
wavuze
wawe
wayo
we
web
weddelliana
well
wenyene
wese
west
wewe
white
who
wick
wickiana
wicura
widodo
wightiana
wiki
witegereze
with
wiwe
wo
women
woodard
world
wose
wumwaka
wundi
www
x
y
ya
yaba
yabaye
yabigize
yabimutegetse
yabira
yabivuze
yabo
yabonye
yaca
yaciye
yaco
yacu
yafeti
yagenewe
yagira
yagiye
yagize
yagizwe
yaguma
yaguze
yahaye
yaho
yahora
yahumanye
yahumbiranye
yaja
yaje
yakira
yakobo
yakora
yakoze
yakunda
yakuye
yalova
yama
yamaze
yambara
yambaza
yambere
yambwiye
yampaye
yamuganiririje
yamye
yanje
yanyu
yapfuye
yarabaye
yaremye
yari
yariko
yarumbishijwe
yasamye
yashinze
yashinzwe
yashyizeho
yatangiye
yatanguye
yateguye
yatewe
yatorewe
yava
yavukiye
yavutse
yavuze
yavyariye
yavyaye
yawe
yayo
yazanye
yazo
ye
years
yefurata
yegera
yegukira
yehushi
yemera
yemerera
yera
yercaud
yeredi
yerekana
yeremiya
yes
yesu
yezu
yi
yibuka
yibwira
yiganira
yinjira
yinjiye
yinjiza
yiruka
yishemaheri
yishura
yisumbuye
yita
yitwa
yiwe
yo
yoba
yobabu
yobi
yohani
yohava
yokitani
yongera
york
yorodani
yose
yozefu
yu
yua
yubaka
yubakaho
yuda
yudita
yuko
yumva
yumvi
yumvise
yuri
yuzuye
z
za
zaba
zabo
zabukuru
zaburoni
zanje
zari
zavyo
zawe
ze
zentralbibliothek
zerahi
zi
ziba
zibiri
zifatiye
zifise
zifita
zigashika
zigize
zikaba
zikoreye
zimwe
zina
zindi
zingahe
zirenga
zirepa
ziri
ziriko
zirya
ziryoshe
zisa
zishobora
zita
zitambwa
zitandukanye
zitanga
zitatu
zivuga
zivyara
zivyibushe
ziwe
zizokurikirana
zo
zone
zose
zu
zubair
zunze
zurich
zuzuye
zviad
zwa
zz
{
|
}
«
´
·
»
×
ı
łobez
ˈ
̀
́
̂
̃
̄
̆
̇
̈
̌
̑
̛
̧
̨
а
боботи
о
с
у
х
ا
ال
الر
ب
ت
ح
د
ذ
ر
س
ص
ع
غ
ق
ك
ل
م
ن
ه
و
ي
يم
ين
َ
ُ
ِ
ّ
ْ
ٔ
ٕ
గ
ల
ి
ె
ည
န
ပ
မ
ာ
်
ြ
‎
–
—
‘
’
“
”
†
…
→
↔
↷
③
④
⑦
☾
♀
♂
⺀
⺄
⺆
⺈
⺊
⺌
⺕
⺝
⺸
⺼
⿰
⿱
⿲
⿳
⿴
⿵
⿶
⿷
⿸
⿹
⿺
⿻
〢
゙
コ
ホ
ユ
リ
ン
・
㇁
㇂
㇄
㇇
㇈
㇉
㇓
㐁
㐄
㐅
㐌
㐫
㐬
㐭
㐮
㐱
㑒
㒵
㒸
㒼
㓁
㓞
㔾
㕛
㕣
㖾
㘝
㚅
㚇
㚔
㚘
㝉
㝡
㝴
㝵
㞋
㞢
㞷
㠩
㠭
㠯
㡀
㡭
㡿
㢲
㢴
㣇
㣺
㥯
㪅
㫄
㫐
㫒
㫺
㬅
㬎
㬥
㬰
㲋
㳄
㷠
㸒
㸚
㸦
㼌
㼲
㽞
㿟
䀠
䂞
䍃
䏍
䒑
䖍
䖒
䖝
䖵
䙴
䚻
䜌
䝿
䡛
䧹
䪞
一
丁
丂
七
丄
丅
丆
万
丈
三
上
下
丌
不
与
丏
丐
丑
专
且
丕
世
丘
丙
业
东
丞
丢
丣
两
严
並
丨
丩
个
丫
丬
中
丮
丰
丱
串
丵
丶
丷
丸
丹
为
主
丽
丿
乀
乂
乃
久
乆
乇
么
义
之
乌
乍
乎
乏
乐
乑
乔
乖
乗
乘
乙
乚
乛
乜
九
乞
也
习
乡
乳
乾
亀
亅
了
亇
予
争
事
二
亍
于
亏
亐
云
互
亓
五
井
亘
亚
亜
亞
亟
亠
亡
亢
交
亥
亦
产
亨
亩
享
京
亭
亮
亯
亰
亲
亳
亶
亷
人
亻
亼
亾
仁
今
介
仌
从
仐
仑
仒
仓
仕
他
付
仝
代
令
以
任
企
伊
伏
伐
休
会
伯
但
位
何
佘
余
作
佥
使
來
侈
侌
侖
侯
侵
便
保
俞
信
修
倉
倍
候
倠
備
僉
僕
儿
兀
允
兂
元
兄
充
兆
兇
先
光
兊
克
兌
免
兑
兒
兓
兔
党
兜
兟
入
全
兩
兪
八
公
六
兮
兰
共
关
兵
其
具
典
兹
兼
冀
冂
冃
冄
内
冈
冉
冊
冋
册
再
冎
冏
冐
冒
冓
冖
冗
冘
军
农
冝
冡
冥
冫
冬
冷
几
凡
凢
凵
凶
凷
凸
凹
出
函
凾
刀
刁
刂
刃
刄
刅
分
切
刍
刑
刕
刖
列
刘
则
初
別
利
别
到
制
刺
則
削
剌
前
剡
剽
劉
力
功
加
劦
助
劫
劳
劵
勃
勇
勉
勒
動
務
勞
勤
勹
勺
勻
勾
勿
匀
匂
包
匆
匈
匊
匋
匍
匕
化
北
匚
匝
匡
匪
匱
匸
匹
区
医
匽
匿
區
十
卂
千
卄
卅
卆
升
午
卉
半
卌
华
卑
卒
卓
单
卖
南
卜
卝
卞
占
卡
卢
卣
卤
卦
卩
卪
卬
卯
印
危
即
却
卵
卷
卸
卻
厂
厃
厄
历
厈
厉
厌
厓
厘
厚
原
厤
厥
厨
厭
厲
厶
厷
厸
去
厼
厽
叀
参
參
叅
又
叉
及
友
双
反
叐
发
叒
叔
叕
取
受
叚
叜
叟
口
古
句
另
叩
只
召
可
台
叱
史
右
叵
号
司
叹
吂
各
吅
合
吉
吊
吋
同
名
后
吏
向
吕
君
吝
吞
否
含
启
吳
吴
吹
吾
呂
呆
呈
告
员
呙
周
命
咅
和
咎
咠
咢
咨
咸
咼
哀
品
哉
員
哥
哲
唐
商
啇
問
啚
啬
啻
善
喜
喬
單
喿
嗇
噩
嚴
囊
囗
囘
囙
囚
四
回
囟
因
囧
囬
困
囱
囷
固
国
圂
圅
國
圍
圓
土
圡
圣
圥
在
圭
地
圶
圼
坐
坒
坚
坴
垂
垔
垚
埀
埋
埶
執
基
堂
堅
堆
堇
堯
塞
墨
壘
士
壬
壯
声
壳
壴
壹
壺
壽
夂
处
夅
夆
备
夊
夋
夌
复
夏
夒
夕
外
夗
夘
多
夜
夢
大
夨
天
太
夫
夬
夭
央
失
夲
头
夷
夸
夹
夻
夾
奂
奄
奇
奈
奉
奎
奏
奐
契
奓
奔
奚
奞
奠
奢
奥
奭
女
奴
奻
好
如
妄
妙
妟
妥
妻
妾
姑
委
姜
威
娄
婁
婴
嬰
嬴
子
孑
孔
孕
孖
字
存
孚
孛
孝
孟
季
孤
学
孫
孱
學
宀
宁
宂
它
宅
宇
守
安
宋
完
宏
宓
宗
官
定
宛
宜
宝
客
宣
室
宮
宰
害
家
容
宾
宿
寄
寅
密
富
寒
察
寧
審
寫
寬
寮
寸
对
寺
寻
寽
対
寿
封
尃
射
将
將
專
尉
尊
尋
尌
對
小
少
尒
尓
尔
尖
尗
尚
尞
尢
尣
尤
尧
尨
尭
就
尸
尹
尺
尻
尼
尽
尾
尿
局
居
屈
屋
屎
屏
屑
展
屖
屚
属
屠
屡
屬
屮
屯
屰
山
屵
屾
岁
岂
岑
岡
岩
岳
岸
峯
島
崇
崑
崔
崖
崙
崩
嵬
嶲
巂
巛
川
州
巟
巠
巢
巤
工
左
巧
巨
巩
巫
差
己
已
巳
巴
巷
巸
巽
巾
巿
帀
市
布
希
帚
帛
帝
带
師
席
帶
常
干
平
年
幵
并
幷
幸
幺
幻
幼
幽
幾
广
広
庄
床
底
店
庚
府
度
庫
庭
庶
康
庸
廉
廌
廛
廣
廩
廴
延
廷
建
廾
廿
开
弁
弃
弄
弇
弋
式
弓
弔
引
弗
弘
弜
弟
弥
弦
弱
張
強
强
彊
彌
彎
彐
彑
当
彔
录
彖
彗
彡
形
彥
彦
彧
彭
彳
役
彼
往
待
律
徒
得
徙
從
復
微
徵
心
忄
必
忌
忍
志
忝
忠
忩
快
念
忽
忿
思
怠
急
怱
恆
恒
恩
恭
息
悉
悠
患
悤
悲
悶
惠
惡
惢
愁
愈
意
愛
感
慈
慧
慮
憂
憲
應
戀
戈
戉
戊
戋
戌
戍
戎
成
我
戒
戔
或
戚
戠
戢
截
戲
戶
户
戹
戼
戾
房
所
扁
扇
手
扌
才
打
托
执
承
折
拉
拜
拿
掌
推
提
摩
支
攴
攵
收
攸
改
放
政
敄
敏
敕
敖
敗
敝
敞
敢
散
敦
敫
敬
数
敷
數
斂
文
斉
斊
斗
斤
斥
斩
斬
斯
新
方
於
施
斿
旁
旋
族
无
旡
既
旣
日
旦
旧
旨
早
旬
旱
旲
时
旾
昆
昇
昌
昍
明
昏
易
昔
昗
昜
星
春
昬
是
昱
昴
昷
時
晃
晋
晏
普
景
晶
智
暑
暴
曇
曩
曰
曲
曳
更
曷
書
曹
曼
曾
替
最
朁
會
月
有
朋
服
朔
朕
朗
望
朝
木
朩
未
末
本
札
朮
术
朱
朵
朶
朿
杀
杏
杜
束
条
来
東
杲
杳
松
析
林
枚
果
枝
枲
枼
某
柔
查
柬
柰
柴
栗
桀
桃
桑
桼
梁
條
梟
梨
棘
棠
棥
森
楚
業
楽
榮
樂
樊
欠
次
欣
欮
欲
欶
欽
款
歆
歇
歛
止
正
此
步
武
歨
歪
歮
歯
歰
歲
歴
歷
歸
歹
歺
死
殳
段
殷
殸
殹
殺
殻
殿
毋
毌
母
每
毒
比
毕
毚
毛
毳
氏
氐
民
气
氣
水
氵
氶
氷
永
氺
氾
求
汝
汞
江
沃
沓
沙
沝
泉
法
波
泣
泥
泰
洛
洪
活
派
流
浦
浪
浮
淡
淮
清
渚
渠
湯
滿
漸
火
灬
灭
灰
灵
灷
炅
炎
炏
炗
炙
炭
為
烈
烏
烝
焉
無
焦
焱
然
煞
熊
熏
燕
營
燮
爪
爫
爭
爯
爰
爱
爲
爵
父
爻
爽
爾
爿
片
牙
牚
牛
牜
牟
牢
牧
牪
牽
犀
犬
犭
犮
狂
狄
狊
独
狺
猋
猒
猪
献
獻
玄
率
玉
王
玟
玨
珎
班
琴
瑟
瑩
瓜
瓦
甘
甚
生
産
用
甫
甬
田
由
甲
申
电
甶
男
甸
甹
画
甾
畀
界
畏
畐
留
畜
畟
畢
畧
畨
番
畫
異
畱
當
畺
畾
疊
疋
疌
疑
疒
疾
癶
癸
癹
登
發
白
百
皀
皃
的
皆
皇
皋
皐
皕
皮
皷
皿
盃
盆
盇
盈
益
盍
盎
监
盒
盖
盛
盡
監
盤
盧
目
直
相
盾
省
眇
眉
看
眔
眞
真
眷
眼
眾
着
睘
睪
睿
瞏
瞢
瞿
矍
矛
矞
矢
矣
知
矦
短
石
破
碎
磊
磨
示
礻
礼
祟
票
祭
禀
禁
禸
禹
禺
离
禽
禾
禿
秀
秃
秉
秋
科
秝
秦
移
稟
穀
穌
穴
究
穹
空
穿
突
窄
窒
立
竒
竜
竝
竟
章
童
竹
笑
笠
筆
等
答
箕
算
箴
節
篤
篭
米
粉
粛
粟
粤
粦
粲
糞
糸
糹
系
約
納
素
索
紫
累
細
絜
絫
絲
維
綿
縣
繇
纍
纟
缶
网
罒
罔
罕
罗
罙
罡
罢
罪
署
罷
羅
羊
羌
羍
美
羔
羕
羗
羞
羡
羣
群
義
羲
羸
羽
翁
翏
習
翕
翟
翠
翼
老
耂
考
者
耆
而
耎
耑
耒
耳
耴
耶
耷
聂
聊
聖
聚
聶
聿
肀
肃
肅
肉
肖
肙
肥
肩
肯
育
肴
胃
背
胡
胥
能
脊
脩
膚
臣
臤
臧
自
臬
臭
臯
臱
至
致
臺
臼
臽
臾
臿
舀
舂
舄
與
興
舉
舌
舍
舛
舜
舞
舟
般
艮
良
色
艸
艹
艾
芒
芔
芬
芮
花
芳
芺
芻
苔
苗
苟
若
苦
英
茶
茸
荅
草
荒
荣
荼
莆
莧
莫
莽
菆
菊
菐
菜
華
萬
落
葉
著
葛
董
葵
蒙
蒦
蒼
蓋
蓬
蓺
蔑
蔡
蕉
蕭
薄
薛
薦
薰
藍
藏
藥
蘭
虍
虎
虐
虒
虔
處
虖
虗
虘
虚
虛
虜
虞
虫
虽
蚤
蚩
蜀
蜜
蟲
蠡
血
行
衍
衛
衣
衤
表
衮
衰
袁
袞
褭
褱
襄
襾
西
覀
要
覃
見
規
覓
覧
親
覽
见
角
解
言
訁
訇
計
詹
誩
諸
讠
谷
豆
豈
豊
豐
豕
豖
豙
象
豦
豩
豪
豸
貇
貝
貞
貟
負
貢
貧
貪
貫
責
貳
貴
買
費
賁
資
賈
賏
賓
賔
賛
賞
賢
賣
質
賴
贊
贝
贡
责
贯
贲
贵
赖
赞
赤
赦
走
越
足
路
蹇
身
躬
車
軍
軎
軟
輦
车
辛
辜
辟
辥
辰
辱
農
辵
辶
边
达
过
近
连
迷
追
退
送
逆
逐
通
速
造
逢
連
逮
進
遀
遂
過
道
達
遣
適
遷
遺
邊
邑
邕
那
邦
邪
郎
部
郭
都
鄉
酉
酋
配
酓
釆
采
里
重
野
量
金
釒
錢
钅
長
镸
长
門
閃
閉
開
閏
閑
閒
間
閔
閵
閻
闌
门
间
闷
阑
阜
阝
阿
降
陳
隆
隊
隋
隡
隨
隱
隶
隹
隺
隻
隼
隽
难
雀
雁
集
雈
雋
雍
雐
雔
雙
雚
雜
雝
離
難
雨
雩
雪
雲
零
雷
需
霍
霜
霝
霞
霸
靈
靑
青
非
靡
面
靣
革
韋
韦
韭
韯
韱
音
頁
頃
項
須
頗
頡
頭
頻
顛
页
風
风
飛
飞
食
飠
養
饣
首
香
馬
馮
駦
马
骨
高
髟
鬥
鬯
鬲
鬼
魚
魯
鮮
鱼
鲁
鳥
鳳
鸟
鹵
鹿
麃
麗
麥
麦
麻
黃
黄
黍
黎
黑
黒
黨
黹
黽
黾
鼎
鼓
鼠
鼻
齊
齋
齐
齒
齿
龍
龙
龜
龟
龠
龰
龱
龴
龵
龶
龷
龸
龹
者
艹
？
🜨
𠀁
𠀃
𠀆
𠀉
𠀎
𠀐
𠁁
𠁣
𠂆
𠂇
𠂈
𠂉
𠂊
𠂋
𠂎
𠂒
𠂔
𠂛
𠂡
𠂢
𠂤
𠂬
𠂭
𠂹
𠃊
𠃋
𠃌
𠃍
𠃎
𠃑
𠃓
𠃔
𠃜
𠄌
𠄎
𠄠
𠄢
𠆢
𠆥
𠇍
𠈌
𠌵
𠓜
𠔉
𠔥
𠔼
𠔽
𠔿
𠕀
𠕁
𠕋
𠘧
𠘨
𠙻
𠙼
𠚏
𠚒
𠚤
𠚪
𠣏
𠤎
𠤕
𠥓
𠦄
𠦑
𠦝
𠧒
𠧗
𠧪
𠩺
𠪚
𠫓
𠫔
𠫤
𠬛
𠬝
𠬞
𠬢
𠬤
𠬶
𠮛
𠮦
𠮷
𠯑
𠱠
𠳮
𠷎
𡈼
𡉀
𡉵
𡌥
𡍮
𡏳
𡕒
𡕩
𡕰
𡖅
𡗗
𡗜
𡘆
𡘤
𡧱
𡨄
𡩧
𡬠
𡭽
𡰣
𡰥
𡰪
𡰯
𡰱
𡷈
𡸁
𡿨
𡿩
𡿪
𡿺
𢀖
𢀛
𢀩
𢁙
𢆉
𢆰
𢆶
𢇁
𢇇
𢉖
𢌬
𢌿
𢏚
𢑑
𢑚
𢖻
𢙣
𢛳
𢦏
𢦒
𢧵
𢼄
𢾕
𣁋
𣄼
𣅀
𣅽
𣍘
𣎳
𣎵
𣏋
𣏼
𣗥
𣥂
𣥖
𣦵
𣦼
𣧄
𣪊
𣪠
𣬉
𣳾
𣶒
𤇾
𤊽
𤐫
𤓰
𤔔
𤕨
𤣩
𤰇
𤰔
𤰞
𤴓
𤴔
𤽄
𥁑
𥁕
𥃦
𥃩
𥃭
𥇡
𥑟
𥘅
𥘈
𥝢
𥫗
𥱡
𦈢
𦉪
𦉬
𦉼
𦍌
𦍒
𦎧
𦐇
𦓔
𦔮
𦘒
𦙃
𦚏
𦣝
𦣞
𦣻
𦥑
𦥔
𦥯
𦨉
𦭝
𦰩
𧆞
𧈧
𧘇
𧰨
𧴪
𧴮
𧵩
𧾷
𨸏
𨾴
𩙿
𩠐
𩫏
𩵋
𪉷
𪜀
𪟽
𪠲
𪩲
𫇦
𫔭
𫜸
𫝀
𫠣
𫠩
𫢉
𫥞
𫩏
𫩠
𫪡
𫲽
𫶧
𬀷
𬐘
𬗌
𬙙
𬛸
𬜯
𬟩
𬯁
𬴘
𬺻
𬼉
𬼖
𭀰
𭁈
𭁨
𭅰
𭑈
𭕄
𭗼
𭤨
𭥫
𭻾
𮅕
𮊿
𮍌
𮍏
𮓗
𮥼
𮧮
廾
𰀁
𰀄
𰀈
𰀉
𰀕
𰀠
𰀡
𰀢
𰀪
𰁜
𰃮
𰆊
𰆘
𰋙
𰕎
𰢴
𰧭
𰯲
0--
13--
14--
15--
16--
18--
19--
32168--
37--
5--
52--
6--
7--
8--
9--
a--
ab--
aba--
abaga--
abakura--
abanya--
abaru--
abavu--
abi--
abuzu--
ac--
acu--
ada--
ae--
af--
aga--
agaf--
agahi--
agate--
agen--
agi--
ago--
agu--
aguri--
ah--
aha--
ahi--
ahita--
ahun--
aja--
aka--
akamw--
aki--
akore--
aku--
al--
ama--
amu--
amushi--
amusu--
an--
any--
ar--
ara--
arabi--
araga--
aramw--
aramwu--
arara--
arase--
archi--
are--
ari--
aro--
aru--
as--
ashi--
asi--
aso--
asu--
at--
ata--
ate--
atu--
atun--
au--
av--
ay--
aya--
ayi--
ayisu--
aza--
azi--
azo--
b--
ba--
babi--
bad--
bafungu--
baga--
bagi--
bagu--
bah--
baha--
bahe--
bahi--
baka--
baki--
bako--
bama--
bamu--
bara--
bararo--
bararu--
bare--
baru--
bashi--
basu--
bata--
bate--
batu--
batw--
bavu--
baw--
bayi--
bazi--
bazo--
be--
bi--
bif--
bihe--
bihi--
bika--
binj--
bira--
bire--
biro--
bishi--
bishu--
bisi--
bivu--
bizo--
bl--
bo--
boro--
bu--
buga--
buhu--
buki--
bur--
bure--
but--
buyo--
bw--
bwa--
bwi--
by--
c--
ca--
cap--
car--
cara--
cata--
ce--
cent--
ch--
cha--
chu--
ci--
cla--
co--
col--
colo--
com--
coro--
cu--
d--
da--
de--
di--
domag--
down--
du--
e--
ec--
ed--
en--
eng--
eshe--
euro--
eze--
f--
fa--
fe--
fi--
fu--
g--
ga--
gahe--
ge--
gen--
geona--
gere--
gi--
gicu--
gif--
giko--
gite--
gitu--
go--
gu--
guf--
guh--
guhi--
guku--
gukw--
gup--
guse--
gushi--
guso--
gusu--
guta--
guti--
gutu--
gutwe--
h--
ha--
har--
havu--
he--
hen--
hi--
ho--
hu--
i--
iba--
ibi--
ibih--
ibo--
ibu--
ica--
icu--
ida--
if--
iga--
igi--
igitu--
igu--
ih--
iha--
ihi--
ihu--
ika--
iki--
ikire--
ikiru--
iko--
iku--
ikw--
im--
ima--
imi--
imiga--
impa--
imu--
imw--
imya--
imyu--
in--
inga--
ingu--
inya--
ira--
iraba--
iro--
irw--
is--
isa--
ish--
ishe--
ishi--
isho--
isu--
ita--
ite--
itu--
ivyi--
iw--
izi--
izo--
j--
ja--
je--
jo--
k--
ka--
kan--
kara--
kayo--
ke--
ki--
kibu--
kiga--
kinya--
kira--
kire--
kita--
kizo--
ko--
ku--
kuba--
kubi--
kubu--
kuga--
kum--
kume--
kumu--
kumw--
kunk--
kura--
kuta--
kuyi--
kuzi--
kw--
kwa--
kwe--
kwi--
l--
la--
lar--
le--
li--
lo--
lu--
m--
ma--
maha--
mar--
mase--
masha--
mc--
me--
men--
mer--
mf--
mi--
mic--
mige--
mini--
mo--
mont--
mp--
mpe--
mu--
mubi--
mubu--
mugi--
mugu--
muka--
muku--
mumi--
mumu--
munya--
mura--
muru--
musa--
muvu--
muya--
muzo--
mw--
mwa--
mwu--
n--
na--
naba--
nagu--
naj--
naku--
namu--
nara--
nd--
nda--
ndaba--
ndamu--
ndu--
ngi--
ni--
nic--
nimu--
nina--
niya--
nk--
nke--
no--
nta--
nti--
ntimuzo--
ntiya--
ntu--
nu--
ny--
nya--
nyeni--
nzo--
nzogu--
o--
of--
ori--
p--
pa--
pan--
papil--
para--
pas--
pat--
pe--
per--
pha--
phila--
pl--
pol--
pols--
pou--
princ--
pro--
pu--
q--
que--
r--
ra--
raha--
re--
repre--
ri--
rif--
riko--
ripfund--
ro--
ru--
ruba--
ruci--
ruf--
ruko--
rura--
rus--
ruvu--
rw--
rwa--
rwe--
rya--
s--
sa--
sar--
se--
she--
si--
sin--
so--
sof--
st--
su--
t--
ta--
tay--
te--
ten--
ter--
th--
ti--
tit--
to--
tu--
tubi--
tuka--
tur--
tura--
turo--
tuzo--
tw--
twa--
twi--
u--
uba--
ubi--
ubu--
ubwa--
uda--
udu--
uga--
ugi--
ugu--
uha--
uka--
uku--
ukw--
ukwa--
ukwi--
um--
ume--
umu--
umuhi--
umuro--
umwu--
un--
ura--
uro--
uru--
urwa--
usi--
uta--
uto--
utu--
uwa--
uwu--
uzi--
uzo--
v--
va--
vi--
vio--
vis--
vy--
vya--
vye--
vyegera--
vyi--
vyo--
w--
wa--
wara--
watu--
we--
wi--
wil--
wo--
wu--
ya--
yabi--
yadu--
yaf--
yaga--
yaguri--
yahi--
yaki--
yako--
yaku--
yame--
yampe--
yamu--
yara--
yarata--
yare--
yaro--
yaru--
yash--
yat--
yata--
yati--
yatu--
yavu--
ye--
yeme--
yi--
yimi--
yite--
yo--
yu--
yuba--
za--
zaha--
zaso--
zata--
zi--
ziga--
zihi--
zika--
ziko--
zira--
zo--
ا--
ل--
و--
ي--
--0
--00
--01
--1
--2
--3
--4
--5
--6
--7
--77
--8
--84
--85
--88
--9
--95
--a
--ach
--age
--al
--an
--ana
--ar
--as
--b
--ba
--baye
--baza
--be
--bera
--bere
--beya
--bi
--bira
--birsk
--bizi
--bo
--boka
--bona
--bora
--boye
--bu
--buka
--bure
--buza
--bwa
--bwe
--bwira
--c
--ca
--cal
--ce
--ceae
--ch
--ci
--ciye
--ck
--co
--cu
--cwa
--d
--da
--dagi
--daza
--de
--dede
--di
--duga
--duka
--e
--ea
--ed
--el
--ena
--er
--ereye
--erezi
--es
--ewe
--eye
--eza
--eze
--f
--fa
--fasha
--fi
--fise
--fo
--g
--ga
--gara
--garwa
--gaye
--gaza
--gazi
--ge
--gendera
--genzi
--gera
--gere
--gero
--getse
--geye
--geza
--geze
--gi
--gije
--gira
--gire
--girwa
--girwe
--giwe
--giye
--giza
--gize
--go
--gu
--gue
--gumbira
--gura
--gure
--guru
--guwe
--gwa
--h
--ha
--haha
--hava
--haye
--he
--heye
--hi
--hije
--hira
--hiriza
--ho
--hora
--hu
--hura
--hwa
--hwe
--i
--ia
--ie
--ii
--il
--in
--ing
--ire
--it
--iye
--ja
--janye
--je
--jejwe
--ji
--jije
--jwe
--jwi
--k
--ka
--kana
--kanwa
--kara
--karama
--kashatsi
--kazi
--ke
--keje
--kere
--keye
--ki
--kije
--kira
--kire
--kiwe
--kiya
--kiza
--kize
--ko
--kora
--koroni
--ku
--kura
--kwa
--l
--la
--land
--le
--li
--lika
--ll
--lle
--llow
--lly
--lo
--ly
--m
--ma
--mamare
--mba
--mbe
--mbero
--mbi
--mbo
--mbwe
--me
--mer
--mereye
--mero
--mfu
--mi
--mira
--miye
--mo
--moka
--mpi
--ms
--mu
--muka
--mura
--mvye
--mwa
--mwo
--mye
--n
--na
--nal
--nce
--nch
--nd
--nda
--ndanya
--nde
--ndera
--ndi
--ndo
--ndora
--ndwa
--ndwi
--ne
--neka
--ng
--nga
--ngana
--nge
--ngera
--ngije
--ngo
--nguka
--ngura
--ngutse
--ngwa
--ni
--nia
--nie
--nijwe
--nira
--nire
--nje
--nji
--njika
--njo
--nki
--nn
--no
--ns
--nse
--nt
--ntha
--nto
--nuka
--nura
--nuro
--nwa
--nwe
--nya
--nye
--nyi
--nyu
--nywa
--nywe
--nza
--nze
--nzi
--nzire
--nzo
--nzwe
--o
--od
--ol
--on
--onal
--p
--perizi
--pfa
--que
--r
--ra
--rage
--raho
--rako
--ral
--ramu
--rana
--rane
--rano
--rara
--rayo
--rd
--re
--rema
--rera
--rere
--res
--reye
--rg
--ri
--riho
--rije
--rika
--rire
--riro
--riye
--riza
--rizaho
--rl
--rn
--ro
--roma
--rozi
--rs
--rt
--ru
--rukira
--rura
--ruza
--rwa
--rwe
--ry
--s
--sa
--sagara
--sazi
--se
--seko
--sh
--sha
--she
--shika
--shura
--shwa
--shwe
--si
--siga
--sigaye
--so
--ss
--su
--sunga
--swe
--sı
--t
--ta
--tabo
--tal
--tare
--tari
--tatu
--te
--ted
--tegura
--teje
--teka
--ter
--tera
--thumb
--ti
--tion
--to
--ts
--tsa
--tse
--tseko
--tsi
--tso
--tt
--tu
--tuka
--tumye
--tura
--tus
--tuzo
--u
--ue
--uka
--um
--ur
--ure
--us
--utse
--uye
--va
--ve
--vu
--vuga
--vuge
--vye
--w
--wa
--we
--wi
--wn
--wo
--x
--y
--ya
--yaga
--ye
--yeho
--yeko
--yemwo
--yeri
--yi
--ylis
--yo
--yoboke
--yoka
--z
--za
--ze
--zi
--zira
--zo
--zoba
--zova
--zwa
--zwe
--zwi
--ı
--د
--م
