!
"
#
##0
##1
##10
##11
##12
##13
##14
##15
##16
##17
##18
##19
##2
##20
##21
##22
##23
##24
##25
##26
##27
##28
##29
##3
##30
##31
##32
##33
##34
##35
##36
##37
##38
##39
##4
##40
##41
##42
##43
##44
##45
##46
##47
##48
##49
##5
##50
##51
##52
##53
##54
##55
##56
##57
##58
##59
##6
##60
##61
##62
##63
##64
##65
##66
##67
##68
##69
##7
##70
##71
##72
##73
##74
##75
##76
##77
##78
##79
##8
##80
##81
##82
##83
##84
##85
##86
##87
##88
##89
##9
##90
##91
##92
##93
##94
##95
##96
##97
##98
##99
$
%
&
'
(
)
*
+
,
-
.
/
0
00
000
001
003
01
02
03
04
05
06
07
08
09
1
10
100
1000
101
102
1023
102398
103
104
106
1066
11
12
120
1200
125
127
13
1315
1332
135
14
140
1452
1495
15
150
1500
1505
1510
1521
1533
1538
1539
1541
1552
1556
1557
1560
1564
1571
1572
1575
1581
1583
1587
1588
1590
1596
16
1600
1602
1605
1610
1613
1616
1617
1619
1620
1621
1622
1624
1625
1627
1628
1629
1630
1632
1638
164
1640
1642
1643
1648
1650
1653
1654
1655
1656
1658
1660
1662
1666
1670
1671
1672
1673
1674
1675
1677
1679
168
1680
1682
1683
1685
1686
1687
1688
1690
1691
1692
1693
1694
1695
1696
1697
1699
17
170
1700
1701
1703
1704
1705
1707
1710
1712
1713
1714
1715
1716
1717
1719
1721
1722
1723
1724
1725
1727
1728
1729
1730
1731
1732
1734
1735
1736
1737
1741
1742
1743
1745
1746
1747
1748
1750
1751
1752
1754
1755
1756
1757
1758
1759
1760
1761
1762
1763
1764
1765
1766
1767
1768
1770
1771
1773
1774
1775
1776
1777
1778
1779
1780
1781
1782
1783
1784
1785
1786
1787
1788
1789
1790
1791
1792
1793
1794
1795
1796
1797
1798
1799
18
180
1800
1801
1802
1803
1804
1805
1806
1807
1808
1809
1810
1811
1812
1813
1814
1815
1816
1817
1818
1819
182
1820
1821
1822
1823
1824
1825
1826
1827
1828
1829
183
1830
1831
1832
1833
1834
1835
1836
1837
1838
1839
184
1840
1841
1842
1843
1844
1845
1846
1847
1848
1849
1850
1851
1852
1853
1854
1855
1856
1857
1858
1859
1860
1861
1862
1863
1864
1865
1866
1867
1868
1869
1870
1871
1872
1873
1874
1875
1876
1877
1878
1879
1880
1881
1882
1883
1884
1885
1886
1887
1888
1889
1890
1891
1892
1893
1894
1895
1896
1897
1898
1899
19
190
1900
1901
1902
1903
1904
1905
1906
1907
1908
1909
1910
1911
1912
1913
1914
1915
1916
1917
1918
1919
192
1920
1921
1922
1923
1924
1925
1926
1927
1928
1929
193
1930
1931
1932
1933
1934
1935
1936
1937
1938
1939
194
1940
1941
1942
1943
1944
1945
1946
1947
1948
1949
195
1950
1951
1952
1953
1954
1955
1956
1957
1958
1959
196
1960
1961
1962
1963
1964
1965
1966
1967
1968
1969
1970
1971
1972
1973
1974
1975
1976
1977
1978
1979
198
1980
1981
1982
1983
1984
1985
1986
1987
1988
1989
199
1990
1991
1992
1993
1994
1995
1996
1997
1998
1999
2
20
200
2000
2001
2002
2003
2004
2005
2006
2007
2008
2009
201
2010
2011
2012
2013
2014
2015
2016
2017
2018
2019
2020
2021
2022
2023
21
210
219
22
220
23
230
231
232
234
238
24
240
241
245
25
250
255
258
259
26
262
264
268
27
270
272
28
280
2800
29
3
30
300
3000
31
311
32
320
33
34
35
350
36
363
365
367
37
38
380
39
4
40
400
41
42
425
43
44
440
45
46
47
48
482
486
49
5
50
500
5000
501
503
51
52
53
53049
54
55
550
56
57
58
59
6
60
600
61
62
63
630
64
65
66
67
68
685
69
7
70
700
70425
71
72
73
74
747
75
752
76
77
78
79
790
8
80
800
81
818
82
83
84
85
850
86
8601
867
87
88
9
90
900
91
92
94
95
95696
96
98
98085
99
999
:
;
<
=
>
?
@
\
^
_
a
aaron
abbe
abbott
abc
abe
ability
able
abo
aboriginal
about
above
aboveclass
abovestyle
abra
abraham
abreu
abstract
abu
abubyab
abufy
abumoi
abuse
abusefilter
abusefilters
abuselog
ac
academic
academy
accept
acceptable
accepted
accepting
access
accessed
accessibility
accessible
accident
accidentally
according
accordingly
account
accounted
accounts
accused
ace
achieve
achieved
achievements
ackles
across
act
action
actions
activate
active
activeusers
activists
activities
activity
acto
actor
actual
actually
acu
ad
ada
adam
adams
adapt
adaptability
adapted
add
added
adding
addition
additional
additionally
address
addresses
adds
ade
adis
adjust
adler
admin
admine
administration
administrative
administrator
administrators
admins
adolf
adolfo
adolphe
adrian
adrianople
adrien
adrienne
adu
advance
advanced
advancedsearch
advantages
adventures
advice
advised
advocate
affairs
affect
affected
affecting
affects
affiliate
affiliates
africa
african
afrikaans
after
afterwards
afyganis
afyganistan
ag
aga
again
against
agar
age
agenda
agent
agents
aggregator
agnes
ago
agr
agrarian
agree
agreed
agri
agricultural
agriculture
aguila
agusti
ahead
ahn
ahnert
ai
aiba
aidan
aids
aime
aiming
aims
ainctain
air
airland
ais
aisak
ait
aitis
aizono
aj
ajax
ak
aka
akabane
akane
akhmadulina
aki
akina
akira
akishino
akita
akrotiris
aksioma
akuilias
al
alain
alan
alaska
alba
albert
alberta
alberti
alberto
albertson
albio
alcala
aldo
alec
alejandra
alejandro
aleks
aleksandr
aleksandros
aleksei
alektus
alekzender
alert
alessandro
alex
alexander
alexandra
alexandre
alexandru
alexej
alexis
alfabeta
alfonso
alfred
alfredo
algorithm
ali
alias
aliases
alice
alicia
align
alike
alison
alistair
all
alla
allan
alleborgobot
allen
allison
allocate
allow
allowed
allowing
allows
ally
alma
almal
almost
almudena
along
alongside
alonso
alpha
alphabet
alps
already
als
also
alstroemeria
alt
alter
alternative
although
altig
alvin
always
alxebra
alybamas
alyson
alzaitu
am
amad
amadeus
amamiya
amanda
amazonas
ambassador
ambassadors
amber
ambox
ambrose
ame
amemori
amendment
america
american
americans
americas
ames
ami
amicia
amis
amonan
among
amongst
amos
amount
amsterdam
amy
an
ana
anai
analysis
analyzed
anas
anatoly
anchors
and
andersch
andersen
anderson
andes
andoras
andre
andrea
andreas
andrei
andrew
andrews
android
andrus
andrzej
andy
anes
ange
angel
angela
angelo
angilys
angol
angolas
anguilla
angus
ani
animal
animalia
animals
animated
animation
anita
anitas
ankle
anmyris
ann
anna
anne
annette
annie
annotations
announce
announced
announcement
announcements
announces
announcing
annual
anonymous
another
anouk
ansen
answer
answers
ant
anthony
anti
antigua
antiguas
antilen
antilles
antioxei
antioxeias
antiquity
antoine
anton
antonin
antoninus
antonio
antonis
anus
any
anymore
anyone
anything
anyway
anywhere
apes
apex
api
apis
apl
apollo
apologies
apologize
apostata
app
appeal
appear
appearance
appeared
appears
apple
appleton
applicable
applicants
application
applications
applied
applies
apply
appointed
appreciate
appreciated
approach
appropriate
approval
approved
approximately
apps
april
apsnis
aquinas
aquino
ar
ara
arab
arabic
aragon
aramaic
aras
arbitrary
arbuckle
arc
arch
archaea
archer
archibald
architecture
archive
archived
archives
arcinia
arctos
ardekto
arden
ardından
are
area
areas
aren
arfi
argau
argentina
argue
argument
arguments
ari
arielle
aristoteles
arizona
arj
ark
arkin
arkubli
arlen
arlinsi
arliss
arm
armand
armenda
armenian
armin
armstrong
army
arne
arnold
aroi
around
arp
arquette
arrange
arrive
arrow
ars
arseldu
art
artei
arthur
article
articles
artik
artists
arts
artur
arturo
arturos
aruba
arubas
arvelski
as
asahina
asai
asension
ashford
ashley
ashton
asi
asia
asian
ask
asked
asking
asks
aspects
asperger
aspx
assamese
assign
assigned
assist
assistance
assisted
associate
associated
association
astin
asuka
at
atenas
athletes
athletics
atkins
atlantik
atm
atom
atomic
attack
attacks
attempt
attempts
attend
attended
attending
attention
attribute
atutra
au
audience
audiences
audio
audios
audrey
auerbach
auf
august
augusta
auguste
augustin
augustus
auitas
aulen
aurelius
auskalerik
austin
australia
authentication
author
authorities
authority
authors
autism
autistics
auto
autofill
automagical
automate
automated
automatic
automatically
autonomous
autopatrolled
autovalue
autowikibrowser
autumn
ava
availability
available
avanluna
average
avery
avgusto
avitus
avoid
avram
avril
avu
award
awarded
aware
awareness
away
awb
axel
ayres
az
azerbaidjan
azerbaijan
azerbaijani
azuchi
azura
b
ba
babcock
babel
babis
babu
bach
bachchan
back
background
backlog
backup
backus
backward
baco
bacon
bacru
bad
badalamenti
baden
badenvirtemberg
badgai
badgau
badge
badges
badiou
badna
badri
badydi
baer
bag
bagdad
baha
bahamas
bai
baikal
bailey
bajra
baker
baklanme
bakma
bakni
bakri
baku
bakygu
balance
balavoine
balcu
baldwin
balfipmabru
balin
balkan
balkis
ball
ballard
balni
balrai
balre
baltik
balvi
bambusa
ban
banana
bancroft
bancu
band
banderas
bandu
bandwidth
banfi
bangritaliano
bangrkalabri
bangrmadjiaro
bangrmalti
bangrputonxua
bangrslovenia
bangrsuomi
bangrtceska
bangu
bank
banking
banks
banlanzu
banli
banner
banners
banro
bans
banske
banskepre
bansna
banta
banxa
banzu
bapli
baptiste
bar
barain
barat
barbados
barbara
barbaras
barber
barbuda
barbudas
barda
bardem
bare
bargu
bargyc
barja
barker
barlow
barna
barnes
barnett
barney
barnis
barraque
barrett
barrie
barrier
barriers
barry
barrymore
bars
barth
bartokomous
bartu
bas
based
baseline
basic
basil
basilio
basis
basna
bassel
basshunter
bassianus
basti
basygau
bateman
bates
batke
battista
battle
bau
bauer
bauske
bavla
bavlamdei
bavlamna
bavmi
bawolff
bax
baxso
baxter
bay
bayer
baylor
baz
bazi
baziku
bazin
bazuku
bc
be
beach
bean
bear
beaumont
bebna
became
because
beck
beckett
beckinsale
become
becoming
becquerel
been
befa
befalo
befelo
befi
befile
befilo
befo
before
began
begin
beginning
begins
begley
begun
begygu
behalf
behan
behavior
behavioral
behaviour
behind
bei
beiker
being
beiris
beitoven
bel
bela
belaus
beldjym
bele
belei
belgium
beliefs
believe
belinda
belis
beliz
beljik
bell
bella
belle
belmond
belo
below
belrus
belushi
beme
bemjoitco
bemro
bemtu
ben
benbi
benchley
bende
bendjamen
bendrpraitoriu
bene
benedict
benefit
benesuel
benet
benficysi
bengali
bengo
benin
benjamin
benji
benn
bennett
benny
benois
benson
bentley
benton
bera
bercribe
berdo
berg
bergu
berkeley
berle
berlin
berman
bermudas
bernard
bernardo
bernd
bernie
bernstein
berpau
berries
berry
berryman
bersa
berstici
berti
bertolucci
bertram
bertrand
beryl
besarabya
besna
bessarabia
bessarabian
bessarabians
bessie
best
bet
beta
betawiki
betfu
beth
betri
bette
better
betty
between
beverley
beverly
bevri
beyonce
bg
bhatta
bhattacharjee
bi
bibliographic
bidgu
bifce
big
bigger
biggest
biggs
bigourdan
bil
bilga
bill
billie
billingsley
billion
billy
bilma
bilni
bimast
bimoi
bin
bindo
binjinkle
binjinpoi
binxo
biografia
biographies
biork
biot
bir
birch
birgit
birje
birka
birlig
birth
birthday
birti
bishop
bisli
bisygu
bit
bitmu
bivma
bivyplin
bjo
blabak
blabi
blabruk
blaci
black
blacklist
blackmore
blackwell
blade
blair
blake
blakely
blanc
bland
blank
blanu
blica
bliku
blind
blindness
blobe
block
blocked
blocker
blocking
blocks
blog
blogs
blood
bloom
bloomfield
bloomsbury
bloti
blue
blues
blum
blunt
blythe
bn
bo
board
bob
bobas
bobby
bobet
bodies
body
bodyclass
bodystyle
bog
bogaevsky
bogart
bogjinme
bogotas
bohr
boi
boil
boiler
bokma
bolan
bolci
bold
bolgaro
bolivar
bolivia
bolivias
bolshevik
bolsheviks
bonano
bond
bongu
bonnie
bonnivier
bono
book
bookmark
books
boone
bora
border
boris
borisovich
borjigin
bos
bose
bosna
bosnan
bosnas
bosnia
bosnias
bot
both
botmultichill
botpi
bots
botsuanas
bottle
bottom
bouguereau
boult
bouterse
bovas
bowen
bowles
box
boxes
boxfo
boxna
boy
boyd
boyer
boyle
bpy
br
brad
bradford
bradi
bradley
brady
braga
brahman
brai
braille
brain
bramau
brambell
branch
brand
brandon
branimre
braplu
brarai
bratu
braun
braxamsi
brazbani
brazil
brazilian
brazo
bread
break
breaking
breaks
bredi
bree
brenda
brendan
brendon
brent
bret
breton
brett
brewster
brian
bridge
bridges
bridget
bridgette
bridi
brief
briefly
brien
brife
briggs
bright
brighter
brigitte
briju
bring
bringing
brings
brion
britanias
british
brito
britt
brittany
britton
brivla
broad
broda
brode
broderick
brodo
brody
brogi
brogu
brojda
brojdaflacku
broke
broken
brolin
bronson
bronte
brook
brooke
brooklyn
brooks
bropijgi
brori
brought
brown
browne
browning
browse
browser
browsers
bruce
brun
bruna
bruneis
bruno
brus
brusel
brust
brutally
bryan
bryant
bryce
bs
bst
bu
buc
buchanan
bucharest
bucket
buckley
bud
buddy
budget
budjak
budjo
buenosaires
bug
bugs
bugzilla
build
building
built
bukovina
bukpu
bulgar
bulgaria
bulgarian
bulgarians
bulgarias
bull
bullock
bundy
bunre
burbank
burch
bureaucrat
bureaucrats
burger
burgundy
burke
burkinas
burna
burnett
burnette
burns
burroughs
burrows
burt
burton
burundis
busch
busey
bush
business
buster
but
butler
butter
butterfly
button
buttons
buxbaum
by
byfy
byrd
byrne
byrns
byron
byzantine
c
ca
cabdei
cabin
cabna
cabot
cabra
cabycedra
caca
cache
cached
cacklu
cacra
cada
cadzu
caesar
cafne
cage
cagney
cagyske
cairn
caitlin
cakcurnu
caktapla
caku
calabro
caldero
caldwell
cale
calendar
calhoun
california
calku
call
called
callen
calloway
calls
caltaicmaci
calvin
camarena
cambridge
came
camelopardalis
cameron
camgu
camgusmis
camille
cammy
campaign
campbell
camrokygu
can
canada
canadian
cancel
canci
cancmu
candidacy
candidate
candidates
cangan
cange
canja
canko
canlu
cannon
cannot
canti
cantor
canxais
canyon
capacity
cape
capital
captain
captcha
captchas
caption
captions
captionstyle
cara
carce
card
cards
care
carey
carl
carla
carlin
carlo
carlos
carlson
carlton
carly
carmen
carmi
carmine
carna
carol
carole
carolina
caroline
carolyn
carpenter
carr
carradine
carre
carrie
carried
carrier
carroll
carson
carter
cartu
cartwright
caruso
carvi
cary
case
casella
cases
casey
cash
casnu
cass
cassady
cassel
cassidy
cassini
castel
castelnuovo
castile
castle
castro
cat
catalan
categories
category
catherine
catholic
cathy
catke
catlu
catni
catnrkaisare
catnrkonsule
catnrpraifektu
catnrsenatore
catra
cau
caudetri
cauginbi
caulfield
caurceisi
caursumne
caurvu
cause
caused
causes
causing
causka
cauviska
cavafy
cavendish
caxmati
caxno
cazi
cc
ce
ceb
cecillia
cecla
cecmu
cedgau
cedra
cedran
cedric
cedyxu
cei
ceikspir
ceiling
cekspir
celebration
celgunta
cell
cello
cells
celma
celxa
cemtrusi
cenba
censa
censorship
census
center
centers
central
centralauth
centralnotice
centre
centuries
century
ceramic
cerda
ceremonies
ceremony
cermurse
cerni
certain
certificate
certu
cervantes
cervi
cespre
cest
cesycku
cesyvu
cetatea
cevn
cevni
cfagau
cfari
cfasanji
cfika
cfila
cfine
cfipu
ch
cha
chad
chae
chaika
chair
challenge
chalmers
chalumnae
chamberlain
chambers
chamfort
chan
chance
chances
chandler
chandra
chang
change
changed
changes
changing
channel
channels
channing
chantal
chaos
chapin
chapman
character
characters
charles
charlie
charlotte
charly
charpentier
charter
charts
chat
chats
che
check
checkbox
checkboxes
checked
checking
checkpage
checks
checkuser
checkusers
cheers
chelsea
chemical
chemistry
chen
cheney
cherie
cherry
cheryl
chesney
chester
cheung
chicago
chief
chigusa
chihiro
chiho
children
chile
chima
china
chinami
chinese
ching
chis
chitose
chner
chocolate
choice
cholera
choose
choosing
chosen
choudhary
chow
chris
christensen
christian
christie
christina
christine
christmas
christoph
christopher
christou
christy
chrome
chronicle
chuck
chung
church
churches
churchill
ci
ciara
cibimoi
ciblu
cibma
cibmeikijno
cicimoi
cicna
cicti
cidja
cidni
cidro
cifnu
ciftoldi
cigla
ciki
cikre
ciksi
cilce
cile
ciljongau
cilmo
cilre
cilta
ciltytai
cilzbaka
cimai
cimast
cimde
cimei
cimni
cimoi
cinba
cindy
cinfo
cinfyma
cinki
cinla
cinmo
cino
cinomoi
cinonoki
cinri
cinse
cinta
cintylarcu
cintypre
cio
cionmau
cipamoi
cipni
cipra
ciprage
circaetus
circre
ciremoi
cirgau
cirko
cirla
cirrussearch
cirvei
ciska
ciskacategory
ciski
cisma
ciste
citation
citations
cite
cities
citka
citno
citoid
citri
citrus
citsi
city
civas
civil
civilization
civomoi
cixamoi
cizemoi
cizra
ckabu
ckafi
ckaji
ckana
ckape
ckasu
ckeji
ckiipyris
ckiku
ckini
ckipyris
ckire
ckiseltcidu
ckoerner
ckufi
ckule
ckunu
ckupau
ckupra
cl
cladakyxa
clade
cladu
clagaldi
claire
clancy
clandestine
clani
clara
clarence
clarity
clark
clarke
clarkson
class
classes
classical
classn
claude
claudia
claudio
claudius
claxu
clay
clayton
cle
cleaire
clean
cleaner
cleanup
clear
clearer
clearly
clemence
clemens
cleo
cleveland
click
clicked
clicking
clicks
clients
cliff
clifford
clifton
clika
climate
cline
clinoi
clint
clinton
clira
cliva
clive
clock
close
closed
closely
closer
closes
closeup
closing
closure
clothes
cloud
clupa
cluster
clyde
cm
cmaci
cmacrteorema
cmacygau
cmacyjimte
cmacypre
cmalu
cmama
cmana
cmaplini
cmarai
cmatca
cmavo
cmd
cmedu
cmene
cmevla
cmevlafa
cmibi
cmila
cmima
cmoni
cn
cnano
cnebo
cnemu
cnici
cnino
cnisa
cnita
cnobinjinkle
cnobinjinpoi
co
coa
coates
cobar
cobb
cochran
cochrane
cocoon
code
codeeditor
codemirror
codes
coding
coffee
cog
cohen
cohn
coi
cokcu
cole
coleman
colin
collaborate
collaboration
collaborative
collapsed
collard
collect
collected
collecting
collection
collections
collective
collects
collins
colm
colman
colon
colonization
colony
color
colorblind
colors
colour
colours
colspan
columbia
columbus
column
columns
colvin
com
combinations
combine
combined
come
comes
comfortable
comics
coming
command
comment
commenting
comments
commission
commit
committee
committees
common
commons
commonwealth
communicate
communication
communism
communist
communities
community
compact
companies
company
compare
compared
compass
compassrose
compat
compatibility
competition
complaint
complaints
complete
completed
completely
completion
complex
computer
comte
concepcio
concepts
conceptual
concerns
concluded
concorde
condi
conditions
conduct
conducted
confederates
conference
config
configuration
configure
configured
confirm
confirmation
confirmed
confirming
conflict
conflicting
conflicts
confucianism
confusing
confusion
congratulations
conifer
connect
connected
connecting
connell
connelly
connery
connie
connor
conrad
consciousness
consensus
consequence
consider
consideration
considered
considering
considers
consistency
consistent
consistently
console
constance
constantin
constantine
constituted
constitution
constraints
constructive
consultation
consultations
consumer
contact
contain
containing
contains
conte
contemporary
content
contents
contenttranslation
contest
contests
context
conti
continuacio
continue
continued
continues
contribs
contribute
contributing
contributions
contributor
contributors
control
controlled
convention
conventions
conversation
conversations
conversion
convert
converted
converter
conway
coogan
cook
cooke
cookie
coolest
coolidge
cooney
cooper
cooperation
coordinate
coordinated
coordinating
coordinator
copenhagen
copernicus
copied
copy
copying
copyright
corbett
corbin
corbino
cord
core
corey
corinne
corman
cornelia
cornell
corps
correct
corrected
corrections
correctly
corresponding
corrupt
corruption
corte
cortu
cosby
costa
cot
cotton
could
couldn
council
count
counted
counter
counties
counting
countries
country
countryside
counts
county
couple
course
court
courtenay
courtney
cover
covering
cow
cox
cpacu
cpana
cpare
cpedu
cpesku
cputci
crabbe
cradi
craig
crane
crashed
crawford
crc
create
created
creates
creating
creation
creations
creative
credit
credo
cree
creed
creka
crepu
cribe
crida
crimson
crino
cripu
crisa
criteria
critical
critu
croce
croft
cropped
crops
crosby
cross
crothers
cruz
crystal
cs
css
ctebi
cteduncitsi
ctemidju
ctile
ctino
ctona
ctrl
ctuca
ctugau
ctuske
cu
cuba
cube
cudu
cuisine
cukla
cukmakyvelvei
cukpu
cukta
cullen
cully
culp
cultural
culture
cultures
cuman
cumhuriyeti
cumki
cummings
cunmi
cunningham
cunso
cuntu
cupra
curitiba
curmi
current
currently
currie
cursor
cursoring
curtis
curve
cusack
cusick
cusku
custom
customize
customizing
customs
cut
cutci
cutne
cuxfau
cuxna
cws
cy
cylinder
cynthia
cyril
czech
d
da
dacian
dacians
dacti
dadjo
daglik
dai
daily
dakfu
dakli
dakota
dakunias
dale
dalida
dallas
dalske
dalton
daly
damage
damaging
damba
dame
damon
damri
dan
dana
danas
dance
dancers
dances
dandu
dane
danfu
danger
dani
daniel
danielle
daniels
daniil
danis
danlu
danmark
danmo
danny
dano
danre
danseke
dansu
dansygau
danti
danube
danyld
dapl
daplu
dar
dargu
darius
dark
darlene
darlu
darno
darren
darrow
darsygau
daruin
darvey
darwin
darxi
daryl
das
dash
dashboard
daski
dasni
daspo
dasri
dassin
data
database
databases
datan
dataset
datasets
datastyle
date
dates
datka
datni
datnyvei
dau
daumast
daurgau
dauson
dave
davenport
david
davidson
davies
davintcis
davis
dawn
dawson
dax
day
days
dc
dd
de
dead
deadline
deafness
dean
deanna
dear
death
debbie
debian
debidebi
debiru
deborah
debra
debralee
debt
debts
debye
dec
decade
december
dechko
decide
decided
decides
decision
decisions
declaration
declared
declined
decmbero
decrease
decreased
decreases
dedicated
dee
deer
default
define
defined
definition
definitions
degda
degji
degree
degruyter
dehumidifier
dei
deived
deives
dejavu
dekart
dekelias
dekna
del
delano
delany
delay
delayed
delete
deleted
deleting
deletion
delgado
delius
delivered
delivery
delta
democracy
democratic
demographics
demokratik
demonstrate
demri
denci
deniel
denis
denise
denmark
denmi
dennis
denny
denpa
depardieu
department
depend
depending
depicts
deploy
deployed
deploying
deployment
deployments
deprecated
depression
depth
depuis
deputies
der
derek
derem
dern
dertu
derxi
des
describe
described
describing
description
descriptions
design
designed
designers
designs
desired
desktop
desku
desmond
despite
desygau
detail
detailed
details
detci
detect
determine
determined
detri
detriment
deus
deutsch
deutschland
develop
developed
developer
developers
developing
development
device
devices
devine
devon
devs
dewaere
dhirendra
di
dia
diacritics
diadumenianus
dialog
dialogs
diamond
diana
diane
dianne
dick
dicka
dickson
dicmakseldi
dicra
dicratni
dictionary
did
didjlet
didn
die
diego
dietrich
diff
difference
different
differently
difficult
difficulties
diffs
digital
dijyske
dikca
diklo
dikni
dilcu
dilcyna
dillard
dillon
dilnu
dimitrios
dimitris
dimna
din
dina
dinah
dinju
dinko
dinning
dino
dinosaur
dinsauru
dinske
dinskepre
dinyester
diokletianus
dion
dir
dirba
dirce
direct
directed
direction
directional
directly
director
dirgo
dirk
dis
disable
disabled
disagree
disambig
disambiguation
disambiguator
disappear
disappeared
disaster
discourse
discovery
discuss
discussed
discussing
discussion
discussions
discussiontools
diseases
display
displayed
displays
disruption
dissemination
dissolution
distance
distorted
distribute
distributed
distributes
distribution
district
div
diverse
diversity
divine
division
divuar
dizgug
dizlo
djabeipre
djacu
djak
djakis
djakson
djamaikas
djan
djanatan
djanson
djedi
djefris
djeims
djeimyz
djein
djeis
djeison
djem
djenefer
djerald
djeremis
djeris
djesis
djetei
djibutis
djica
djin
djine
djirafa
djo
djogas
djogu
djois
djon
djons
djordj
djorg
djorj
djos
djosef
djulio
djunio
djuno
dmitri
dmitry
dmoz
dniester
do
dobrichovice
dobson
doc
document
documentation
documented
documents
dodd
doe
does
doesn
dog
doherty
doi
doing
dola
dollars
dolph
domain
domestic
dominic
dominik
dominikan
dominique
domnas
don
donahue
donald
donaldson
donation
donations
done
donlevy
donna
donnell
donors
donovan
donri
dooley
door
dores
dorian
doris
dorle
dormijbalvi
dorothy
dorris
dorsey
dotco
doteli
dotybau
dotygu
douard
double
doubled
doug
douglas
douglass
dow
dowd
down
downey
downing
download
doyle
dozen
dozens
dr
draci
dracyka
draft
drafting
drafts
drag
dragging
drake
drakone
drani
drasu
drata
draws
drew
drink
driscoll
driven
drop
dropdown
dropped
dropping
drudi
drukiul
drupepa
dryer
dsc
dt
du
duane
dubjavmau
dubois
duca
dudley
due
duff
dugri
duhamel
dujbi
dujro
duke
dukongos
dukse
dukti
dumas
dumont
dumps
dunbar
duncan
dunda
dungodung
dunja
dunku
dunli
dunn
dunne
dunra
dunsi
durand
during
dustin
dutch
dutta
dutydikca
dwight
dy
dygol
dylan
dynamed
dynasty
dys
dysentery
dytc
dzena
dzenon
dzipo
e
each
eagle
earl
earlier
early
earth
earthquake
easier
easily
easing
east
easter
easton
eastwood
easy
ebabo
ebo
ebook
ebooks
ebsco
ebu
ebucy
ecfa
echo
economic
economical
economy
ecpe
ed
edai
eddie
eddy
ede
eden
edgar
edi
edie
edildi
edirne
edison
edit
editathon
edited
edith
editing
edition
editions
editor
editors
edits
edmond
edmund
edna
edouard
edt
eduard
eduardo
eduardogobi
education
educational
edward
edwards
edwin
effect
effective
effects
efficient
effort
efforts
efrem
eg
egan
ehess
ei
eichhorn
eiffel
eileen
eimis
einar
eine
einer
einstein
eisenhower
either
ejda
eje
ek
eku
ekuador
ekuatorial
el
elaine
elasticsearch
elbow
eldridge
eleanor
elected
election
elections
electric
electricity
electron
elektras
element
elements
elen
elena
elenas
eli
eligibility
eligible
elinor
eliogabalus
elipha
elira
elisabeth
elise
elisha
elitre
eliza
elizabeth
ellen
ellie
ellington
elliott
ellis
ellison
else
elsevier
elsewhere
elton
elu
elvet
elvetias
em
email
emails
emanuel
emas
embed
embryo
emergency
emerson
emesas
emigration
emil
emile
emilia
emily
emma
emmanuel
emmanuelle
emmett
empire
employees
empty
en
ena
enable
enabled
enables
enabling
enai
enclosed
encounter
encourage
encouraged
encyclopedia
encyclopedias
end
ende
ended
ending
endpoint
ends
energy
enforce
enforceable
enforcement
engage
engagement
engine
engineer
engineering
engineers
engines
english
enhance
enhanced
enjoy
enlightenment
enough
enriching
enrico
enrique
ensure
enter
enterprise
enterprises
entire
entirely
entities
entity
entrepreneurs
entries
entry
environment
environments
epi
equal
equipment
equity
er
era
eran
erancar
erek
erfi
erfusra
eric
erica
erich
erickson
erik
erika
erin
eris
erkenen
erna
ernan
ernest
ernesto
ernie
ernst
ero
eroi
erpau
error
errors
erskine
ertras
erze
es
esa
escritoras
esi
eske
eskegau
eskepre
esle
espan
especially
esperant
esperanto
esperantos
essence
essential
est
esta
established
establishment
este
estelle
estimated
estis
estraix
et
etc
etext
ethan
ethel
etherpad
ethnic
etienne
etiopias
etna
eu
eubie
euge
eugen
eugene
euklides
euler
europa
europe
european
eva
evaluate
evaluated
evaluation
evans
eve
evelyn
even
evening
evens
event
events
eventstreams
eventually
ever
everett
every
everybody
everyone
everything
everywhere
evgeny
evla
ex
exact
exactly
example
examples
except
exceptions
exchange
excited
excluded
executive
exist
existent
existentialism
existing
exists
exo
expand
expanded
expanding
expansion
expansions
expect
expected
expects
expenses
expensive
experience
experienced
experiences
experiment
experimental
experiments
expertise
experts
expiry
explain
explaining
explains
explanation
explicitly
explorer
export
exporting
exports
expressed
expression
expressions
expropriation
ext
extend
extended
extension
extensions
extensive
extensively
external
extra
eye
eyes
ez
ezo
f
fa
faan
fac
face
faced
facilitating
facilitators
facilities
facki
fact
factor
factories
factors
facts
faculty
fadni
fagri
fai
fail
failed
failures
faint
fair
fairgau
fairy
faith
fakci
fake
falco
fall
fallback
falnu
falplini
false
falsely
famgau
familiar
families
family
famti
famyma
fan
fancu
fange
fanmo
fanny
fanri
fanta
fanva
fanza
fapro
faq
far
farah
farlu
farm
farmer
farming
farms
farna
farngi
farrell
farrow
farsi
farvi
fasnu
fasos
faspolgu
faspre
fast
faster
fastest
fasybau
fasygu
fasygug
fasyja
fat
fatci
father
fatne
fatri
fats
fau
faustinas
favgau
favmapti
favorite
faye
fdc
fe
feature
featured
features
feb
februari
february
febvi
federation
federico
feed
feedback
feel
feels
fees
feimast
fel
feldman
fele
feleps
felice
felicity
felidae
feliks
felipe
felix
fell
fellow
fellowship
felo
female
feminism
fender
fendi
fengu
fenki
fenra
fenso
fepri
ferde
ferdinand
ferguson
fernand
fernandel
fernando
feros
ferrari
ferrer
ferti
festi
festivals
fetcei
fetnolraitru
fetsi
fetspe
few
fewer
fez
ff
fi
ficybi
ficysi
field
fielding
fields
fiennes
fight
fighters
figure
figures
fila
file
fileexporter
fileimporter
filename
filenu
files
filip
fill
filled
fillmore
films
filo
filter
filtered
filtering
filters
final
finalization
finalized
finally
finana
financial
find
finding
findings
finger
finish
finished
finland
finlay
finn
finnish
finpe
finpre
finprkoilakanto
finselkai
finti
fipma
firefogg
firefox
fireplace
first
firth
fischer
fish
fisher
fiske
fisygu
fit
fitzgerald
five
fix
fixed
fixes
fixing
fla
flack
flacmu
flag
flagged
flaggedrevisions
flalu
flanders
flani
flannery
flapro
flaselci
flaume
flavius
flecu
flek
fleming
flen
fletcher
fliba
flickr
flipo
flira
floating
flood
flora
florence
flores
floridas
flow
flowers
floyd
flu
fluta
flying
flynn
fo
focus
focused
fok
fold
folders
foldi
fole
folk
folklore
follow
followed
following
follows
folo
fomymledi
fon
fonda
font
fonts
fonxa
foo
food
footer
footnote
footnotes
for
forbes
force
forced
forces
ford
foreign
foresee
forest
forget
fork
form
formal
forman
format
formats
formatted
formatting
former
formerly
forms
formula
formulas
formulæ
forrester
fort
forum
forward
foster
foucault
found
foundation
fountain
four
fourth
fox
foy
fr
fra
frac
fraiburg
frame
frameless
framework
frampton
fran
franc
france
frances
francesca
francesco
francis
francisco
franco
frank
franke
frankie
franklin
frans
franz
fraser
fraso
frati
frawley
fraxu
frazer
fre
frebruari
fred
freddie
freddy
frederick
frederik
free
freedom
freely
freeman
freenode
freezes
freink
freinklyn
frejutsi
french
frequent
frequently
frey
frica
friday
fridrix
friedman
friedrich
friendly
friko
frikytu
frili
frinu
friti
fritz
fro
frog
frogman
from
front
frost
fru
fruit
fruits
fu
fuchs
fuji
fukpi
fukyzifpo
fulfill
full
fully
fulo
fulta
fulton
fumi
fumino
fun
funca
function
functionality
functions
fund
fundamental
fundamentalism
funding
fundraiser
fundraising
funds
furen
further
fushimi
fusra
futunas
future
fuwa
fuyuki
fuzme
fy
fyodor
g
ga
gabal
gabby
gable
gabon
gabriel
gabrielle
gackle
gacri
gadget
gadgets
gadri
gagarin
gagauz
gai
gail
gailge
gaimast
gainsbourg
gaku
gakuen
gal
gale
galerius
galfi
galias
galicia
galilei
galileis
galileo
galileos
gallagher
galleries
gallery
gallicus
gallo
galtu
galus
galxe
gam
game
gamers
games
ganai
ganas
gancuktai
gangau
ganius
ganlo
ganra
ganse
gansyjimca
ganti
ganvi
ganxo
ganz
ganzu
gaon
gap
gapci
gapru
gar
gara
garber
garcia
garden
gardner
gareth
garfield
garin
garland
garna
garner
garrett
garry
garth
gary
gasnu
gaspard
gasta
gaston
gates
gather
gatyl
gau
gaus
gautamas
gauvla
gave
gavin
gay
gaye
gayle
gb
gd
ge
geary
gedyl
geer
gei
geibel
geiger
geits
gelombang
gen
gender
gendra
gene
general
generally
generate
generated
genja
genlalske
gento
genzuki
geo
geoff
geoffrey
geography
geology
georg
george
georges
georgi
georgia
geoshapes
ger
geraint
gerald
gerard
gerardm
gerhard
geris
gerku
germa
german
germans
germany
gerna
gernezis
gernlikaone
gerrit
gerry
gertrude
get
gets
getting
gettingstarted
getygu
gevaras
gharakhanyan
gheorghe
gi
giacomo
gian
giancarlo
giannis
giant
gibraltar
gibson
gidva
gidygau
gif
gigdo
gigi
gil
gilbert
gilberto
giles
gill
gillette
gillian
gilzaren
gina
ginai
ginbi
gineas
ginebisos
ginka
gino
ginske
giorgio
giorgos
giovanni
girl
girzu
gish
gismu
gismucategory
git
giuseppe
give
given
gives
giving
gje
glagau
glanejni
glare
glas
glaser
glass
gleki
glen
glenn
gletu
gliban
glibau
glicme
glico
gligu
global
globally
globe
gloria
glover
gmm
gnome
gnus
go
goal
goals
god
goddard
goes
gogol
goi
going
gold
goldstein
golovin
gombesa
gonai
gone
gonza
good
goode
goodman
goods
goodwin
google
goras
gordon
gordyn
gorplis
got
gottlieb
gottschalk
gould
governance
governing
government
gra
grace
gradu
gradually
grady
graf
graham
grahame
grains
grake
grammar
grana
grand
grant
granted
granth
grants
graph
graphs
grasse
grasu
grateful
graves
gray
great
greater
greatest
greatly
greco
gredile
greece
greek
green
greenberg
greene
greenwood
greer
greetings
greg
gregg
gregor
gregori
gregoria
gregoris
gregorius
gregory
gregson
greke
greku
grem
grenadas
grenadinz
greta
gretchen
grey
grfc
grid
gridcolor
griffin
griffith
grigory
grijutsi
grimitsi
grivas
grizgi
gro
grofe
gross
group
grouped
grouping
groups
grover
grow
grown
growth
grusi
grute
gu
gua
guarantee
guatemal
gubgau
gubni
gubyca
gubyseltru
gubytrusi
gudjanas
gudjrati
guerra
guess
guest
gugde
gugdrnorge
gugdrsu
gugdrxelvo
gugja
gugrxesti
gugycmi
gugykoi
gugypau
guidance
guide
guided
guideline
guidelines
guido
guilbert
guillaume
guillermo
guinness
guitar
gumgu
gundi
gundo
gungunma
gunka
gunma
gunnar
gunro
gunta
gunther
gurin
gurni
guru
gus
gusni
gustav
gustave
gustavo
gutenberg
guthrie
guy
gwelu
gwen
gy
gynus
gypsy
h
ha
haasan
hackathon
hackett
had
hada
hadley
hagen
haggard
hagood
hahn
hailey
hair
haiti
hajime
hakase
hal
halan
hale
haley
half
hall
halsall
hamer
hamilton
hamm
hammer
hammond
hampshire
han
hana
hanabatake
hancock
hand
handle
handling
hands
handy
hangout
hank
hanks
hanna
hannah
hans
hansen
hanson
happen
happened
happening
happens
happy
hara
harald
haramaung
harassment
hard
harding
hardware
hardwicke
hardy
hare
hari
harlow
harold
harper
harriet
harrington
harris
harrison
harry
hart
hartley
hartman
hartmann
haru
haruka
harusaki
harvesting
harvey
hary
has
hat
hatton
have
haven
having
hawke
hawkins
hay
hayama
hayase
hayden
haydn
hayes
hayley
hayward
haywood
he
head
header
headern
headerstyle
heading
headings
health
healthy
hear
heard
hearing
heart
heater
heather
heating
heavily
heavy
hebrew
hecht
hectares
hector
hedwig
heidi
height
heinonline
heinrich
heinz
held
helen
helena
helesta
heliogabalus
hello
helms
helmut
helmuth
help
helped
helpful
helping
helps
henderson
hendricks
hendrix
hendry
henri
henrik
henry
hensley
hepburn
her
herbert
here
hereby
heritage
hermann
hernandez
heroes
herve
herzegovina
hess
hexum
hey
hg
hhvm
hi
hickey
hidden
hide
hides
higgins
higginson
high
highbeam
higher
highest
highlight
highlighted
highlighting
highlights
highly
highways
higuchi
hilbert
hill
hilton
him
himawari
hina
hinders
hindi
hines
hiroki
hiroyuki
hirsch
his
historia
historian
historians
historical
historically
histories
historiography
history
hisui
hitchcock
hitomi
hk
hler
hm
hn
ho
hobson
hodges
hoffman
hoffmann
holbrook
hold
holden
holders
holding
holiday
holidays
holland
holliday
holly
holm
holmes
holt
holton
holy
home
homo
honda
honma
hood
hook
hope
hopefully
hopkins
hopper
horace
horn
horse
horsell
horst
horton
hoshikawa
host
hosted
hosting
hosts
hour
hours
house
household
households
houtermans
hoven
hover
hovercards
how
howard
however
hr
hrer
hrung
html
http
https
hu
huang
hub
hubert
hubs
hudson
huge
hugh
hughes
hugo
hui
hull
human
humanities
humbly
hume
humphrey
hundred
hungarian
hunnicutt
hunt
hunter
hunting
hurt
hussein
hussell
hutton
huxley
hyde
hyland
hyman
i
ia
iamaikas
iaman
ian
ianvari
iargau
ias
ibabo
ibai
ibazabo
ibn
ibo
ibrahim
ibu
ic
icebo
ichi
ichigo
icloud
icon
icons
icu
id
ida
idea
idealab
ideally
ideas
identified
identifiers
identify
identifying
identity
ideological
ids
ie
iecuax
iefskis
ieg
ienaga
ieng
ierokles
if
igau
iglesias
ignored
ignotas
igor
ii
iii
ija
ije
ijebabo
ijec
ijeku
iji
ijijnu
ika
iki
iku
ilan
ile
ilezabet
ili
illegal
image
imageclass
images
imagestyle
imagine
imbruglia
imei
imes
imf
img
immanuel
immediate
immediately
immense
impact
impacted
impacts
implementation
implemented
implementing
implements
import
importance
important
imported
imposed
impossible
improve
improved
improvement
improvements
improves
improving
imu
in
ina
inactive
inactivity
inaja
inauguracion
incident
incidents
include
included
includes
including
inclusion
inclusive
incorrect
incorrectly
increase
increased
increases
increasing
increment
incubator
independence
independent
index
indexes
india
indian
indic
indicate
indicates
individual
individually
individuals
indonesia
indonesian
indu
indus
industrial
industries
industry
influenced
info
infobox
infoboxes
inform
information
informed
infrastructure
infty
ingalls
inger
ingram
ingrid
inhabitants
inhabited
ini
initial
initially
initiative
initiatives
input
insee
insert
inserted
inserter
inserting
inside
inspector
inspire
install
installed
instance
instead
institute
institutional
instructions
int
intact
integrated
integration
intend
intended
intent
intention
interact
interactive
interest
interested
interesting
interests
interface
interfaces
interference
interlanguage
internal
international
internationalisation
internationalization
internet
interpretation
interviews
interwar
interwiki
into
introduce
introduced
introducing
introduction
intuitive
inui
inuiktus
invalid
investigates
investigation
investigations
invisible
invitation
invite
invited
invites
inviting
involve
involved
involvement
io
ion
iork
ios
iosef
iouianus
ip
ipa
ipas
iphone
ipli
iprage
ips
ipv
iran
iranian
irc
ire
ireland
irene
irgau
iris
irje
irlarcu
iroi
iroiku
ironing
irsi
irtei
irving
irwin
is
isaac
isabel
isabelle
isbn
isbns
iseki
isemu
iseni
isi
islamic
island
islant
ismail
isn
iso
israel
issue
issued
issues
ist
istanbul
istlant
it
ital
italian
italias
italics
italy
item
items
itiopias
ito
itrusi
its
itself
itu
iu
iulianus
iulias
iulius
iupiter
iv
iva
ivan
ivanovich
ivla
ivo
ixru
izumo
j
ja
jabo
jack
jacke
jackie
jackson
jacob
jacobs
jacqueline
jacques
jade
jadgau
jadni
jaffe
jai
jaime
jajygau
jak
jake
jakies
jakis
jakne
jakob
jaktu
jalge
jalra
james
jamfu
jamie
jamle
jamna
jan
jana
janak
janbe
janco
jane
janet
janis
janli
janssen
jansu
january
japan
japanese
jarco
jared
jarki
jarvis
jasmine
jason
jasper
jaspu
jatna
jaurbei
jaurbeima
javascript
javier
javni
jawlensky
jay
jaya
jayne
jbama
jbari
jbecme
jbedetnunsla
jbena
jbera
jbijinkle
jbijinme
jbini
jbirai
jbo
jbobau
jbonobo
jbopre
jbotcan
jda
jdaca
jdacku
jdaka
jdali
jdari
jdazifcru
jdice
jdika
jdikygau
jdima
jdini
je
jean
jeanette
jeanne
jeannie
jebo
jecta
jectypau
jecyga
jed
jedji
jeff
jefferson
jeffrey
jeftu
jegvon
jei
jeke
jelca
jemja
jemna
jenai
jendu
jenefyr
jeni
jenifer
jenkins
jenmi
jenna
jennifer
jennings
jenny
jensen
jeremy
jerna
jerome
jerry
jersey
jersi
jerxo
jesni
jesse
jessica
jessie
jesus
jetce
jethrobt
jetnu
jewel
jews
jexygu
jgalu
jgana
jganu
jgari
jgena
jgenanba
jgina
jgira
jgita
ji
jibni
jibri
jicla
jicmu
jijyjutsi
jikca
jilka
jill
jim
jimca
jime
jimmie
jimmy
jimpe
jimte
jimxre
jinci
jinga
jinkle
jinku
jinmapku
jinme
jinminra
jinmrmalume
jinmrtitani
jinmrvurani
jinru
jinsa
jinto
jinvi
jinxre
jinzi
jipno
jirna
jisra
jitfa
jitro
jivbu
jivna
jiyu
jmaji
jmemei
jmina
jmive
jo
joachim
joan
joanna
joanne
joaqui
job
jobs
joe
joel
joely
joey
johan
johann
johanna
johannes
johansen
johansson
john
johnnie
johnny
johnson
johnston
joi
joibu
joigi
joik
join
joined
joining
joins
jol
jon
jonai
jonas
jonathan
jones
jongau
jonny
jordan
jordana
jordo
jorge
jorgu
jorne
jose
josef
joseph
josephine
josh
joshua
journal
journals
joy
joyce
jp
jpeg
jpg
jquery
jr
js
jsmessage
json
jst
jstor
ju
juan
jubme
judd
judge
judith
judri
judy
jufra
jugbau
jugygu
jugygug
juhan
juice
jukni
jukpa
jules
julfa
julia
julian
julie
juliet
juliette
julio
julius
julra
july
jump
jumped
jumping
jun
jundi
june
jungau
jungo
junior
junla
junri
junta
jurme
jursa
just
justin
jutmorsi
jutre
jutsi
jvinu
jy
jørgen
k
ka
kaboverdes
kabyt
kacma
kacmyxra
kacna
kadno
kadnygu
kado
kaede
kagni
kai
kaida
kaikos
kaisar
kakeru
kakne
kakpa
kalabrien
kalci
kaledon
kaliabrias
kaliforniias
kalri
kalsa
kalte
kamerun
kamfarvi
kamgla
kamjikyzi
kamju
kamjyterbo
kamni
kampindi
kampu
kamputceas
kamsampu
kamsanji
kana
kanae
kanba
kanbyma
kancu
kanda
kandi
kane
kanguru
kanji
kanla
kanro
kansa
kansas
kansi
kant
kantone
kantor
kantu
kanzys
kapadokias
kapoor
karabak
karachi
karakaluas
karbi
karce
karcher
karda
karel
karen
kargau
kargu
kari
karib
karibes
karin
karina
karl
karlheinz
karli
karn
karni
karol
karsna
karter
kartographer
karuta
karyn
kasios
kasumi
kat
katar
kataribe
kate
katharine
katherine
kathleen
kathryn
kathy
katie
katlana
katmakrofan
katna
katrina
katy
kau
kaulven
kaurcolnai
kaurpo
kavbu
kay
kaye
kazaki
kazakstan
kazax
ke
keaton
kecti
kedua
keegan
keempat
keep
keeping
kei
keikei
keiko
keiku
keiman
keinritli
keirta
keisuke
keith
kelci
keldai
kelima
kelis
kelka
keller
kellerman
kelley
kelli
kellie
kelly
kelsey
kelsi
kelsos
kelvo
ken
kenedis
kenias
kenji
kenmochi
kennedy
kenneth
kenny
kenra
kensa
kentucky
kenva
kept
kerfa
kerk
kerlo
kerr
kerri
kerry
kershaw
kesyske
kesyskegau
kesyskepre
ketco
ketiga
ketlete
kettle
ketytu
keven
kevin
kevna
kevzu
key
keyboard
keys
kg
khan
ki
kibro
kibypapri
kidney
kiefer
kievica
kijfra
kijno
kijyfra
kijytcini
killed
kim
kimball
kimberly
kind
kindly
king
kingdom
kingsley
kingston
kingyozaka
kinli
kinpau
kinrenka
kinrxanime
kinsella
kirame
kirby
kiribas
kiril
kirk
kirshner
kirsten
kiru
kisto
kisygu
kit
kitakoji
kits
kitty
kizuku
klacpe
klad
klaipedas
klaji
klaku
klalit
klama
klamburi
klani
klark
klaudius
klaus
klauzevits
kleford
kleiber
klein
kleine
klejutpau
klejutsi
klenton
klepu
klesi
klina
kliru
klirukle
kliti
klodikca
klupe
klutiksi
km
knee
knife
knight
know
knowledge
known
knox
ko
koch
kohaku
koizumi
kojna
kokoro
kokos
kol
kolme
kolomb
kolombias
kolorados
komazdon
komcytai
komfo
komoros
kon
konchalovsky
kondrashin
kong
kongos
konju
konsepsion
konstans
konstantin
konstantinoupolis
konstantinupolis
konstantinus
konstantius
kooning
korbi
korcu
korea
korean
korman
kortes
kosovas
kostarikas
kostas
kot
kou
krali
krasi
krati
krause
krefu
kreg
kres
krestofer
krici
kricnas
krili
krilisu
krilytabno
krinu
krishna
krishnamurti
kristen
kristian
kristin
kristina
krixa
krogarna
kromag
kru
kruca
krug
kruvi
krzysztof
ksh
ku
kuait
kubas
kuce
kucli
kudo
kufra
kuin
kujoi
kuk
kukis
kukl
kuku
kuledg
kulnu
kumar
kumfa
kumte
kunra
kunrxilmene
kunti
kupr
kurchatov
kurfa
kurier
kuritcibas
kurjga
kurji
kuroi
kursle
kurt
kurusu
kuspe
kusru
kuttner
kutytu
kuzuha
kwan
ky
kybunon
kyle
kyoko
kyrg
kyrgyz
l
la
label
labeled
labeln
labels
labelstyle
labjme
labno
labor
labs
lack
lackey
lacpu
lacri
lacroix
ladd
ladru
lafti
lagged
lai
laid
laine
lake
lakne
lakse
lalku
lalo
lalxu
lam
lamas
lambert
lambeti
lamji
lamli
lana
lanbi
lancaster
lance
lanci
land
landless
landowners
lane
lanford
lang
lange
language
languages
lanka
lanli
lanma
lanme
lanplu
lanxe
lanzu
laos
lapaglia
lapointe
lara
laras
larcu
larcygau
laren
large
largely
larger
largest
larran
larry
larson
las
lasna
last
lasted
lasting
lasts
lastu
lat
late
lately
later
latest
latex
latimeria
latin
latmo
latmrbizanto
latoya
latter
latyv
lau
launch
launched
laura
lauren
laurence
laurens
laurent
laurie
lauries
lavoisier
law
lawford
lawrence
laws
lawson
layer
layla
layout
lazar
laznynavni
lazyjutsi
le
lea
lead
leaders
leadership
leading
leaf
league
learn
learned
learning
least
leatherhead
leave
leaves
leaving
lebedev
leblanc
lebna
lech
led
ledi
ledu
lee
left
legacy
legal
legality
legitimation
lego
lei
leif
leigh
leighton
lein
leiris
leka
lem
lemay
lemon
lemu
len
lena
length
leni
lenin
lenjo
lenku
lennon
lenny
lenu
lenz
leo
leon
leonard
leonardo
leonardos
leontyne
leopold
leprosy
lepu
lera
lerci
lerfu
leri
leris
lerner
leroy
les
lesas
lesi
lesley
leslie
less
lester
lesutus
let
letimr
lets
letsyburg
letter
letters
leung
lev
level
levels
levi
levine
levitt
lewis
lex
lez
leza
lezu
lge
lgeyi
li
lia
liaison
liber
liberace
liberation
libgu
libjo
library
libygu
license
licensed
licenses
lida
lidgusyjinme
lidne
lietuvas
life
lifri
light
lighter
lightnin
ligykle
ligytedyskegau
lijda
lijdrdjaina
like
likely
likrokfle
lil
lila
lili
limgau
limit
limitations
limited
limits
limna
lin
lina
lincoln
linda
lindi
lindo
lindsay
lindsey
line
linegrey
lines
lingua
linji
link
linked
linking
links
linsi
linter
linto
linuks
linus
linux
linys
lion
lionel
liquidthreads
lire
liryraixa
lis
lisa
lisboa
lise
lises
lisri
list
liste
listed
listing
liston
lists
litce
literature
litki
litrokfle
litru
little
liu
live
lively
livestock
livga
living
livingston
lix
lixtenctain
lixtynctain
liz
liza
lize
ll
ller
lloyd
lo
load
loaded
loader
loading
local
localisation
localisations
localisationupdate
localise
localised
localising
localization
localize
locally
locals
locate
located
location
lockwood
lodu
log
logan
logged
logging
logical
login
logji
loglan
logo
logobot
logos
logs
loi
loire
lois
lojban
lojbangirz
lojbau
lojbo
lojdra
lojycpa
lojypre
loka
loko
lola
loldi
lombard
london
long
longer
longfellow
loni
lonu
look
looked
looking
looks
lopez
lopu
lord
lorenzo
loretta
lori
loris
lorne
lorraine
los
lose
losedu
lost
lot
lots
lou
louis
louise
louison
louvre
love
lovecraft
lovelock
loves
low
lowe
lowell
lower
lowery
loza
lt
lu
lua
luaos
lubno
luc
lucas
lucia
luciana
lucille
lucio
lucy
ludvig
ludwig
luigi
luis
lujvo
luka
luke
luksymbyrg
lulu
lumci
lunbe
lunra
lunsa
lupe
lustario
luter
luther
lv
ly
lydia
lyle
lyman
lymon
lynch
lynda
lyndon
lynn
lynne
lynx
lyon
lyons
m
ma
mabru
mac
macarthur
macchia
macdonald
macedonian
machine
machita
macht
mack
mackenzie
maclean
macpherson
macrae
macs
madagaskar
madame
made
madeleine
madge
madiarorsag
madison
madjan
madjiar
madjio
madonna
madox
madrid
mae
mag
magazine
magazines
maggie
magic
magis
magnus
mahal
mahalia
maher
mahiro
mai
maikel
maikrosaft
mail
mailing
mails
maimoto
main
maine
mainly
maintain
maintainers
maintenance
maiot
mairtcini
maisas
majga
major
majority
mak
makaino
makau
makaus
makax
makcu
make
makedon
makes
makfa
makfartci
making
mako
makrinus
maks
maksi
makyji
makykai
malachite
malafaya
malamud
malaria
malauis
malayalam
malaysia
malcolm
maldives
male
malik
malis
mallory
malnutrition
malone
malsi
maltas
maltcu
mama
mamaias
mamta
mamymamta
man
manage
managed
management
manager
manages
manami
manatus
manchester
manci
mandel
mandy
manet
manfo
manfred
mango
manhal
manila
manilias
manin
manku
mann
manning
manolis
manos
manri
mansa
manson
manti
manual
manually
manuel
many
mao
map
mapframe
mapku
maplandia
mapni
maps
mapti
maputces
mara
marathi
marbi
marc
marcal
marce
marcel
marcello
march
marcia
marco
marcus
marde
mardicka
mardikca
mardjoris
marek
margaret
margo
margu
marguerite
mari
maria
marian
mariana
marianne
marie
marilyn
marin
marina
mario
marion
maris
marisa
marissa
marji
marjorie
mark
marked
markelus
markers
market
markham
marking
marks
markup
markus
marlon
marna
marquis
mars
marsden
marsh
marsha
marshall
marta
marten
martha
marti
martin
martina
martinet
martinez
martio
marty
martyn
marvin
marx
marxati
mary
maryland
mas
masaru
mashiro
masno
mason
masonry
mass
massachusetts
massimo
massmessage
massmessages
masterson
masti
match
matches
matching
mater
material
materials
math
mathbb
mathbf
mathematical
mathematics
matheson
mathjax
mathml
matitia
matitiahu
matra
matsi
matsukai
matt
matter
matthew
matthews
matus
mau
maud
maura
maureen
maurice
mavji
max
maxim
maximilian
maximum
maxine
maxri
maxwell
may
maybe
mayer
maynard
mayo
mays
mayuzumi
mb
mc
mccarthy
mccartney
mcclain
mccormack
mccullough
mccune
mcdaniel
mcdc
mcdonald
mcfadden
mcgraw
mcintosh
mckeon
mckinley
mckinney
mclaughlin
mclean
mcmanus
mcnamara
mcqueen
mctell
mcwilliams
mdennis
me
mead
mean
meaning
meaningful
means
meant
meantime
meanwhile
measure
media
mediaviewer
mediawiki
medical
medication
mediteranian
medium
medranos
meet
meeting
meetings
meg
megan
megapixels
megas
megdo
megna
mei
meiji
meirian
meiro
mejgu
mekso
mel
melanie
melbi
meler
melinda
melissa
meljo
melody
member
members
men
mena
mencre
mendeleev
mendes
menli
mensi
menske
mention
mentioned
mentions
mentor
mentors
mentorship
mentu
menu
menus
mer
mercedes
mercury
meredith
merge
merged
mergu
merja
merko
merkurios
merle
merli
merrill
merritt
mess
message
messages
mestyr
met
meta
metadata
metawiki
method
methods
metrics
meurs
mexico
mexikos
mexno
mexygu
mexygug
meyer
mg
mi
mia
mianmar
micel
michael
michel
michelangelo
michele
michella
michelle
mickey
micygau
micyske
mid
middle
middleton
midi
midju
mifra
mifune
migel
might
migrate
migrating
migration
miguel
mijycedra
mijyfi
mijytu
mikce
mike
mikelon
mikhail
miki
mikoto
mikronesias
miksini
milburn
mildred
mile
miles
milestones
milhous
military
milk
mill
millard
millennium
miller
million
mills
milne
milo
milton
miltre
milxe
min
minato
minde
mindy
ming
minimize
minimum
minje
minji
minli
minnie
minor
minorities
minority
minra
mintu
minute
minutes
miou
mipos
mipri
mipypu
miranda
mirei
mirli
mirlyxarju
mirror
miscellaneous
mischa
misisipis
misno
misrai
misro
misrygu
miss
missing
mission
mistake
mistakes
mitch
mitchell
mitcinse
mitcmepre
mito
mitre
mitropoulos
mivmu
mivycitri
mivyfu
mivyske
mivyskeau
mivyskepre
mivytcuxu
mixre
miyako
miyamoto
miyu
ml
mlajukma
mlana
mlatu
mleca
mledi
mleske
mlijilkle
mliranti
mluni
mluske
mm
mn
mnadzikiewicz
mo
mobile
moces
mockups
mode
model
models
modern
modernization
modes
modifying
module
modules
moe
moeda
moffatt
mogadishu
moi
moira
mokca
moklu
mol
moldavia
moldavian
moldavians
moldova
moldovan
moldovans
moldovas
molina
molly
moment
momo
mon
monakos
monday
monet
monetary
money
mongol
mongolian
mongolo
monica
monitor
monitoring
monobook
mononobe
monospace
monotheism
monro
monroe
monserat
monsoro
mont
montague
monte
montemayor
montez
montgomery
month
monthly
months
montsoreau
moon
moore
mor
more
moreau
moreno
mores
moresnet
morgan
morgu
moriarty
morinaka
moris
moritz
morji
morley
morna
morris
morrison
morrissey
morrow
morse
morsi
mortality
morton
morvau
mosambik
moscow
moses
moskuas
mosra
most
mostly
motion
motsart
motte
mount
moura
mouse
move
moved
movement
moves
moving
mozambikes
mozart
mp
mr
mraigo
mraji
mrena
mrilu
mrob
mrobi
mrs
mruli
ms
msg
mt
mu
much
mucti
muddy
mudri
mueller
mugi
muhammad
muicerangas
mukherjee
mukti
mulgau
mulligan
mullins
mulna
mulno
mulpi
multi
multichill
multilingual
multimedia
multiple
mumai
mumast
mumoi
mumy
mumyma
munje
muno
munomoi
munro
mupli
murakami
muriel
muritan
murphy
murray
murse
murta
musa
muse
music
musical
musicians
muslo
must
musycesycku
musyjda
mutce
muti
mutki
muvdu
muvgau
muxamad
muybridge
muzga
mw
my
myers
mykartis
mylanguage
myles
mylett
myra
myriam
mythology
n
na
nabmi
nacmei
nacycmaci
nacykubli
nadia
nadya
nagao
nagel
nagi
nagisa
nai
naidjer
nail
naisni
najgenja
najnimre
nakcei
naked
nakni
naknolraitru
nalci
nalfadni
nalfatci
nalfendi
naljda
nalje
naljinkle
naljinme
naljunceisi
nalma
nalponse
nalrarna
nalre
nalsanji
nalvelganzu
namcu
name
named
names
namespace
namespaces
namib
namibias
naming
namsus
nan
nanba
nanca
nancy
nandu
nanfi
nanla
nanmu
nanstici
nanstuna
naoko
naples
napoleon
napoleonic
nara
naraka
narayam
nardilcyna
narge
nari
narju
narrow
naru
naruse
nasa
nash
nat
natalia
natalie
natalis
natasha
nate
nathan
nation
national
nations
native
natmi
natmrbritono
natmrfarsi
natmrlalamana
nato
natpenbau
natsume
natsyrat
natural
natziz
nau
naurus
nav
navigate
navigation
navni
navytre
naxle
nazbi
nazi
nchez
nchhausen
nd
nds
ne
neal
neale
near
nearby
nearly
nebja
necessarily
necessary
neck
nederland
nederlant
need
needed
needing
needs
negative
nei
neil
neill
nejni
nekson
nelci
nelij
nellie
nelson
nemo
nengla
nenri
nepal
neptun
neptune
neri
nerkla
net
netherlands
network
neurodiversity
neuton
neutral
never
nevertheless
nevil
neville
nevis
new
newcomers
newell
newer
newest
newly
newman
newpages
news
newsletter
newsletters
newspaper
newspaperarchive
newspapers
newton
next
ney
nez
ng
nger
ni
nia
nibli
nica
nicholas
nicholls
nichols
nicholson
nick
nicki
nicky
nicola
nicolas
nicolaus
nicole
nicte
niels
nielsen
nigel
nigeria
night
nijer
nijisanji
nikaias
nikaraguas
nikita
nikki
nikle
nikolaevich
nikolai
nikolas
nikolaus
nikolay
nikomedeias
nikos
nil
nilbra
nilce
nilcla
nilcno
nilganra
nilgla
nilmai
nils
nilsefta
nilsson
nilsutra
niltei
nilxa
nilzunti
nimre
nin
nina
nine
ninkle
ninmu
nino
nintendo
nintendos
ninynavni
nirna
nishizono
nitcu
nitzsche
niu
niues
niuiork
niuton
niven
nixerias
nixli
nixon
nl
no
noaa
noah
nobel
noble
nobli
noda
node
noel
noi
nolraitru
nolseltru
noltru
noltrunau
noltruni
noltrusi
noltruti
nomi
nominate
nominations
non
none
nonje
nonkansa
nonon
noon
noor
nora
norbert
noreg
norfuk
noriyuki
norma
normal
normally
norman
norms
noroi
norris
north
northern
norton
norway
norwegian
not
notable
notci
note
noted
notes
nothing
notice
noticed
notices
notification
notifications
notified
notify
notoc
notre
nov
novak
november
novikov
novmbero
now
np
nr
nu
nueva
nui
nukni
nuldikca
nultutra
number
numbered
numbering
numbers
numerical
numerous
nun
nunat
nunda
nunfarvi
nungle
nunjamna
nunji
nunkei
nunkelci
nunkelpau
nunkelpaugri
nunn
nunpe
nunsla
nuntoi
nupre
nurgau
nurma
nutli
nuzba
ny
nzst
nın
o
oakie
oauth
obau
oberon
object
objection
objections
objective
objects
observed
observing
obsolete
obtain
obu
oc
ocaasi
occupation
occupied
oceania
ocg
ociere
ocmaci
october
oda
odbenu
odessa
oecd
of
off
offer
offered
offers
office
officer
officers
official
officials
offline
often
ogdon
ogg
ogle
ogra
ogu
oh
ohio
oi
oidipus
oil
ois
oise
ojda
ojme
okcitano
oki
oklahoma
oktobero
oku
olaf
olan
olarak
old
older
ole
olga
olin
oliver
olivia
olivier
olku
olsen
olson
om
omar
ombuds
ombudsperson
omei
omen
ometepes
omi
omoi
omologos
on
onai
onaisai
onboarding
once
onduras
one
ones
ongoing
oni
onion
onkapi
online
only
onomachi
oojs
ooui
opa
open
opened
opener
opening
opens
opera
operating
operation
operations
operator
operators
opinion
opinions
oppenheimer
opportunities
opportunity
oppose
opre
opt
opted
option
optional
options
or
oradea
oraitru
orange
orbau
orcesycku
order
ore
oregon
ores
orest
org
organisation
organised
organization
organizations
organize
organized
organizers
organizing
orgau
orgu
origin
original
originally
orlando
ormau
orna
orpanzi
orsay
orsazgau
orso
ortega
orthographic
ortu
oru
orwell
orxi
orxruki
os
osborne
oscar
oskar
oske
osmanlı
osmond
osteichthyes
osteraix
oswald
otes
other
others
otherwise
othmar
otis
otoman
otre
otrs
ottavia
otto
ottoman
our
out
outdated
output
outreach
outside
over
overall
overlap
overlapped
overlay
oversight
oversighters
overview
owen
owl
own
owned
owner
owners
oxford
oxi
ozbekis
p
pa
pabimoi
pace
pacimoi
package
packer
pacna
pada
pagbu
page
pages
pageview
pageviews
pagre
paid
painting
paiton
pajni
pakistan
palais
palci
pale
palestine
palmer
pam
pamai
pamast
pambe
pambycpu
pamei
pamela
pamoi
pampe
pamumoi
pan
panamas
panci
panel
pano
panomoi
panono
panpi
panra
pante
panthera
panzi
paolo
pap
papa
papakonstantinou
papamoi
papaya
paper
papri
papuas
paragraph
paragraphs
paraguais
parallel
parameter
parameters
parbi
pare
paremoi
parikutin
paris
park
parker
parks
parliament
parrish
parse
parser
parsing
parsoid
parsons
part
partial
partially
participants
participate
participated
participating
participation
particle
particular
particularly
partner
partners
partnerships
parts
party
pascal
pasifik
paskal
paso
pasozenonanc
password
passwords
past
paste
pasting
pastu
pat
patfu
pathoschild
pathways
paton
patrek
patricia
patrick
patriotic
patrol
patrolled
patrolling
patsy
patten
pattern
patterson
patti
patton
patty
patxu
paul
paula
paulin
pauline
paumier
pavel
pavma
pavmei
pavmoi
pavnonma
pavo
pavos
pavrelma
pavterdi
pavycimdyna
pavypavma
pavzilcatra
pawn
paws
paxa
paxamoi
pay
payments
payne
payton
pazbersa
pazvau
pc
pdf
pdfs
pdt
pe
pearce
pearl
peasant
peasantry
peasants
peck
pedro
peebles
peel
peers
peggy
pekinpas
pelji
pell
pelnimre
pelxu
pemci
pemcrsenriu
pemcrxaiku
pemfi
pemgau
pen
penbi
pencil
pencu
pending
pendleton
pendo
pendora
penelope
penmi
penn
pennsylvania
penny
pensi
people
pepe
per
percentage
percival
percy
perfect
perform
performance
performed
perhaps
period
periods
perkins
perl
perlman
permission
permissions
perrin
perry
persian
person
personal
personnel
persons
perspective
perspectives
pertama
peru
perus
pete
peter
peters
petersen
petit
petnis
petra
petrovich
petrovsky
petrus
petyr
pez
pezli
pezyspa
pfeiffer
ph
phab
phabricator
phase
phases
phenomenon
phil
philip
philipp
philippe
philippines
phillip
phillips
phoenix
phone
phones
photographic
photography
photos
php
phyllis
pi
pia
pick
pickett
picture
pictures
pidjni
piece
pieces
pier
pierce
pierre
pieter
pietro
pifcpi
pijyske
pijyskegau
pijyskepre
pilipinas
pilji
pilka
pilno
pilot
pimlu
pimlytai
pin
pinca
pinchot
pinciotti
pinfu
ping
pinging
pinji
pink
pinka
pino
pinpedi
pinsi
pinta
pintscher
pinxe
pioneer
pipe
piper
pipno
piro
piso
pisu
piter
pitkern
pitki
pitney
pitt
pixels
pixra
pl
place
placed
places
plain
plajva
plan
plana
plane
planet
planned
planning
plans
plant
platform
platforms
platon
platt
platu
play
played
player
players
playing
plays
plaza
please
pleased
pleji
pleshette
plimpton
plini
plino
plipe
plise
ploka
ploke
plotdata
plots
pluaton
plug
plugri
pluja
pluka
plus
pluta
pluton
pmid
pmids
png
po
pocket
poe
poi
point
pointed
pointing
points
poitier
poke
pol
poland
policies
policy
polish
political
politics
polity
polje
polk
poll
polly
polno
polo
polsk
polskas
poltu
poly
polynd
polytheism
pompilius
pomu
pon
ponbau
pongu
ponja
ponjda
ponjo
ponse
poor
pop
popular
population
popup
popups
popygau
porpi
porsi
portal
porter
portman
porto
portuguese
position
positions
positive
possibilities
possible
post
posted
posting
postponed
posts
pot
potential
potter
potybau
potygu
poverty
powell
power
powerful
powers
poxiol
ppelberg
pracmu
practice
practices
praetorius
pragas
praiz
prali
prami
pranaja
prane
pratt
pre
preceding
precision
prediction
prefer
preference
preferences
preferential
preferred
prefsection
preja
prenu
preparation
prepare
prepared
preparing
presence
present
presentation
presentations
presented
president
preske
presley
press
pressing
preston
preti
prevent
prevented
preview
previews
previous
previously
prewar
price
pride
pridnestrovis
priest
prije
prilio
primarily
primary
prina
prince
princess
principles
prinsipes
print
prior
priorities
prioritize
priority
priscilla
prison
pritu
privacy
private
privileged
prize
prizes
pro
probably
problem
problematic
problems
proceed
process
processes
processing
proclaimed
produce
produced
producing
product
production
productive
productivity
products
professional
profile
profit
program
programming
programs
progress
progressive
proisen
project
projects
prokofiev
prolog
promote
prompt
prompted
proof
proofreadpage
proper
properly
properties
property
proportion
proposal
proposals
propose
proposed
prosperous
protect
protected
protection
protections
protist
proton
prototype
prototypes
provide
provided
provides
providing
province
provine
pruce
prucitri
pruni
prurai
prussian
prut
pruxi
pryor
ps
psf
pst
pt
ptolemaios
pu
public
publications
publique
publish
published
publisher
publishers
publishes
publishing
puca
puertorikos
pulce
pulji
pulni
pump
pumps
pun
punishment
punji
punli
purci
purdi
purging
puri
purla
purlamdei
purodha
purpose
purposes
push
put
puze
puzi
puzu
puzzle
px
py
pynchon
pyotr
python
pywikibot
pywikipedia
pywikipediabot
q
quaid
qualified
quality
quarry
quarter
quarterly
quartz
que
queen
queenie
queer
queries
query
questia
question
questions
queue
quick
quickly
quiddity
quincy
quinn
quotation
quotations
r
ra
rabenson
rabis
rabybau
rachael
rachel
racli
ractu
racyjdari
radha
radiator
radical
radio
radjer
radji
radjiman
rae
rafael
rafsi
ragve
rai
raids
rail
railway
rain
rainbow
rainpuff
raise
raised
rajtca
rajycla
rakso
raksygu
raktu
ralci
ralju
ralph
raltca
ralte
rama
ramirez
ramsay
ramsden
ran
ranbo
rand
randa
randall
randolph
randy
range
ranges
rango
ranji
ranmi
ransu
ranti
raphael
rapli
rarbau
rard
rare
rarna
rarsi
rarske
rat
ratcu
ratdi
rate
rates
rather
ratification
rational
ratlairau
ratna
ratnejni
ratni
rau
raubert
raubertas
rauberts
ravel
raw
ray
raymond
razgu
rc
rcstream
rd
rdfa
re
reach
reaction
read
readability
readable
reader
readers
reading
ready
reagan
real
really
realtime
rearrange
reason
reasons
rebecca
rebi
rebjukma
rebla
rebound
receive
received
receives
receiving
recent
recentchanges
recently
reci
recimoi
recognize
recommend
recommendations
recommended
reconnect
record
recorded
recording
records
recruiting
rectu
recurrent
red
redemption
redesigned
redgrave
redirect
redirected
redirects
redman
reduce
reduced
reed
reef
reese
reeves
refer
reference
references
referencing
referendum
reform
reformation
reforms
refresh
refreshed
refrigerator
refugees
regan
regarded
regarding
regardless
regards
regime
regina
reginald
region
regional
regions
register
registered
registration
reglas
regular
regularly
reid
reinhold
reis
reiser
rejected
rejykag
reki
related
relatedsites
relation
relations
relatively
relay
relcimdyna
release
released
releases
relevant
reliable
reliably
religion
religious
relkarsna
relma
relmeidegji
relpau
relsevzi
relxilma
rem
remai
remain
remained
remaining
remains
remak
remast
rembrant
remce
remei
remember
remex
reminder
remlai
remna
remoi
removal
remove
removed
removing
remske
remskegau
remumoi
rena
renaldo
rename
renamed
renamers
renames
renaming
rendering
rene
renessaince
reno
renono
renonomu
renonovo
renro
rental
renvi
repetitive
replace
replaced
replacement
replaces
replacing
replicas
reply
replying
report
reported
reporting
reports
repository
represent
representation
representatives
represented
reproduction
repu
republic
republik
republika
request
requested
requesting
requests
require
required
requirements
requires
rere
reroi
research
reset
reso
resolution
resolutions
resolve
resolved
resourceloader
resources
respa
respected
respond
responded
response
responsible
responsive
rest
restore
restored
restrictions
result
resulted
results
retain
retained
retcard
retention
return
returned
returns
reuse
revert
reverted
reverting
review
reviewed
reviewing
reviews
revised
revision
revisions
revisionslider
revolution
revolutionary
rewritten
rex
rexamoi
reyes
reynolds
rez
reza
reze
rezemoi
rfa
rfc
rg
rgb
rhea
rhodes
rhys
ri
ribbon
ric
rica
ricadi
riccardo
rice
ricfoi
ricfu
rich
richard
richards
richardson
richie
richmond
richter
rick
rickman
ricky
rie
rigby
riggs
right
rightarrow
rights
rii
riikichi
rijblabi
rijgrusi
rijno
rijska
rijyjinska
rijyska
rikmen
riksa
rikteropu
riley
rilti
rin
rinci
rindo
rindou
rine
ring
rings
rinju
rinka
rinsa
rio
rion
rique
rirbu
rirci
riri
ririmu
rirni
rirxe
risk
risks
rismi
risna
risto
rita
ritcard
ritchie
ritli
ritplu
ritsuki
ritter
ritygu
rivbi
river
rivera
rivers
riz
rk
rmers
rmspecials
rn
ro
roa
roache
road
roadmap
roads
roald
rob
robbie
robby
robert
roberta
roberto
roberts
robertson
robin
robinson
robson
robyn
roch
roci
rock
rocky
rod
roda
rodgers
rodney
rodriguez
rodz
roger
rogers
roguudis
roha
rohmer
roi
rois
rokci
roksodna
rokyvei
role
roles
rolf
rolka
roll
rollback
rollbacks
rolled
rolling
roltrusi
rom
roma
romai
roman
romania
romanian
romanians
romanias
romano
romanya
romas
romei
romero
romoi
ron
ronald
ronan
rongunma
ronnie
ronru
rontu
roosevelt
root
ropno
rorci
rore
roroi
rory
rosa
roscoe
rose
rosemary
rosemi
rosetta
roshan
rosmarus
ross
rossi
roth
rotsu
round
roundtable
rourke
roussel
row
rowland
rows
rowspan
roy
royal
rozen
rries
rtl
rttemberg
ru
ruandas
rubin
ruble
ruby
rudi
rudit
rudolf
rudolph
rue
rufsu
rufus
ruggles
rukybau
rukygu
rule
rules
rumyma
run
runa
runbau
runma
runme
running
runs
runta
rupert
rupnu
rural
rus
rush
rusheva
rusko
russ
russell
russia
russian
russians
russo
rusty
rut
ruth
rutherford
rutni
rutrkoko
rutrpaupau
ry
ryan
rybekys
ryder
rye
rymysy
rypynzyl
rysel
ryu
ryugu
ryushen
s
sa
sab
sabatini
sabines
sabji
sabrina
sacher
sachs
sackycmu
saclu
sadgunta
sadjo
sadler
saeguza
safari
safe
safety
sage
sagyfi
sagygau
sagypre
sahib
sai
said
saint
sainte
sakai
sakamoto
sakartulos
sakci
sakha
sakli
sakta
saku
sakura
salbador
salci
salinger
salisbury
sally
salmi
salni
salpo
salvador
sam
samantha
sambau
samcmu
same
samiu
sammy
samoas
sampla
samplabau
sampu
samselkei
samselpla
samseltcana
samske
samsmacu
samtci
samuel
san
sanbau
sance
sanchez
sandbox
sanders
sandra
sandrine
sands
sandy
sanga
sango
sangu
sangug
sanji
sankt
sanli
sanpaulos
sans
santiago
sapiens
sapme
saprai
sar
sara
sarah
sarar
sarcopterygii
sarcu
sarji
sarlu
sarxe
sasaki
sasha
saske
saskia
satci
satellite
sativa
saturday
saturn
savage
savas
save
saved
saving
saw
sawyer
say
saying
sayo
says
sazri
sazyci
scale
scaling
schafer
schedule
scheduled
schell
schema
scheme
schiavelli
schmid
schneider
scholarly
scholarship
scholarships
school
schools
schreker
schuman
schwartz
schwarzenegger
schwimmer
science
sciencedirect
sciences
scientific
scope
score
scores
scotland
scott
screen
screens
screenshot
scribunto
script
scripts
scroll
scrolling
se
sea
seamless
seamus
sean
search
searchbutton
searched
searches
searching
seats
seba
sebastian
secau
secel
second
secondary
seconds
secret
section
sections
sectors
secure
securely
securepoll
security
sedbo
sedgwick
sedu
see
seeds
seeing
seeking
seeks
seems
seen
seffyna
sefta
segal
sei
seint
seirgau
seja
sek
sekai
seki
sekstus
sektili
sela
selbacru
selbaise
selbangu
selbau
selbenji
selbri
selby
selcatra
selce
selci
selciska
selckafi
selckaji
selckape
selcku
selcme
selcmene
selcmi
selcmima
selcni
selcru
selcusku
seldi
seldunja
select
selected
selecting
selection
selections
selector
selectors
selen
self
selfa
selfagri
selfebvi
selfendi
selfi
selfinti
selfri
selfu
selga
selgalfi
selgu
selja
seljda
selji
seljibri
seljmina
selju
seljunta
selkai
selkavbu
selkei
selkelcrgo
selkra
selkrasi
selkri
selku
selma
selmarji
selme
selmlu
selmre
selmupli
selna
selpau
selpilno
selpinxe
selpla
selpli
selplijibri
selpliske
selpo
selpurdi
selratni
selri
selrirni
selru
selrunme
selsa
selsakli
selsau
selsi
selsitna
selski
selsku
selsmu
selsmuni
selsnu
selspo
selsru
selsruri
selstati
selstu
selsumji
seltadni
seltcana
seltcu
selte
selti
seltivni
seltru
selvasru
selxre
selxu
selxukmi
selylai
selyle
selyli
selylispre
selzba
selzbani
selzi
selzu
selzutkbinxkulnu
semi
semto
sen
senators
send
sending
senegal
seni
senkleir
senpi
sense
sent
senta
sentence
sentences
separate
separated
sepfa
sepi
sepli
sepsi
september
septembero
septimius
sequences
sera
seras
serbian
serbias
serbo
serge
sergei
sergey
sergeyevich
sergio
seri
series
serif
serious
serkin
serti
serve
server
servers
service
services
serving
session
sessionmanager
sessions
set
setca
seth
seto
setting
settings
settled
settlers
seueras
seuerus
seven
several
severe
sevzi
sewing
sexton
seymour
sezga
sezganlrspergera
sfasa
sfatul
sfe
sferies
sfubu
sfumabru
sgrabarczuk
sh
shadow
shane
shannon
share
shared
shares
sharing
sharkey
sharon
shaw
shawn
shea
shearer
shedden
sheen
sheep
sheet
sheffield
sheila
shelley
shellin
shepard
shepherd
shepperton
sheree
sheridan
sherman
sherwood
sheryl
shetty
shiba
shibuya
shields
shift
shiina
shin
shing
shirayuki
shirley
shiva
shizuka
shizuku
sho
shoban
shoichi
short
shortcut
shortcuts
shorter
shortly
shorty
should
shouldn
show
showcase
showed
showing
shown
shows
shut
si
siberias
sibyci
sicko
sicni
sicpau
sid
sidartas
sidbo
sidbrfaci
side
sidebar
sidju
sidney
siebot
siebrand
siegbert
siegfried
sienna
sieras
sierra
sign
signature
signatures
significant
significantly
signup
signups
sikhism
siko
silna
silva
similar
simlu
simmons
simon
simone
simple
simpler
simplified
simplify
simply
simpson
simsa
simxu
sinapur
since
sincerely
sinclair
sine
singer
singers
single
sinma
sinxa
sipna
siprage
sir
sirenia
sirji
sirli
sirxo
sirxygug
siska
sisku
sister
sisti
site
sites
sitewide
sitna
situation
situations
siu
sivni
six
sixth
sixygu
size
sized
sizes
sk
skaci
skalduna
skami
skapi
skari
skefi
skegau
skepre
ski
skicu
skills
skin
skina
skinner
skins
skori
skoselti
skot
skoto
skucripu
skvortsova
sky
sl
slabu
slaka
slakyfa
slakykra
slami
slanu
slasi
slavic
slessor
slider
sliders
slightly
sligu
slilu
slim
sliri
sloven
sloveni
slovenia
slovensk
slovino
slovo
slow
slower
slowly
sluji
sluni
smacu
smadi
smaji
small
smaller
smallest
smallpox
smani
smartphone
smartphones
smet
smiley
smit
smith
smoka
smooth
smuci
smuni
sn
snada
snanilsutra
snanu
snicmaci
snidu
snile
snime
snipa
snippet
snitz
snow
snuji
snura
snuti
so
soaimias
sobde
soccer
social
socialist
society
sodna
sodnakle
sodnrkali
sodva
softo
software
sofygu
sofyja
soi
sokrates
sol
solar
solgrixra
solid
solji
solminli
solnavni
solni
solomon
solri
solselmanri
solution
solutions
solve
solved
somal
somalias
somalis
somast
sombo
some
someone
somerville
something
sometimes
somewhere
sommers
somoi
son
sonci
soncrlegione
soncrpraifektupraitoriu
song
sonia
sonny
sonya
soon
sophia
sophie
sorahoshi
sorci
sorcu
sordaivla
sorgu
sorgugje
sornai
sornaibau
sornaitru
soroca
sorry
sort
sorted
sorting
sosygugje
soto
sou
sought
soul
sound
source
sources
south
southeast
southern
sovda
soviet
soviets
sovmabru
sovyetler
sozma
sozyplin
space
spaces
spacti
spain
spaji
spall
spam
span
spanish
spano
spaske
spaskegau
spati
spatrmeliace
speak
speakers
spears
spebi
special
specific
specifically
specifications
specify
speech
speed
speedy
spelling
spencer
speni
spent
sper
spesti
spike
spirit
spisa
spita
spleen
split
spoja
sports
spot
spread
springfield
spuda
sql
square
sr
sraji
sralo
sralygu
srana
srasu
srasyfoldi
srb
srera
srilynkas
srito
sroka
sruma
srumu
sruri
ssel
ssr
st
sta
stability
stabintyn
stable
stace
stacey
stacy
stae
staff
stafford
stage
stagi
stagnation
staku
stali
stalin
stan
standard
standards
stani
stanisław
stanley
stanton
stanyjge
star
stark
starrett
start
started
starting
starts
starvation
state
statement
statements
states
stathis
stati
static
station
statistics
stats
status
statygau
stavros
stay
stci
ste
steba
steci
stedu
steel
steele
steen
stefan
steito
stella
step
stephanie
stephen
steps
sterling
stern
steve
steven
stevens
stevenson
stevie
steward
stewards
stewart
stici
stick
sticky
stidi
stifynsemons
stigbot
stijl
stika
still
stiv
stivens
stizu
stocker
stodi
stogau
stokes
stona
stone
stop
stopped
stopselclub
stor
storage
store
stored
stories
storm
story
strait
straixe
strange
strassmann
strategic
strategy
straub
strauss
street
strickland
strict
strictly
string
strings
strodt
strong
structure
structured
strutione
stuart
stubbs
students
studied
studies
study
stuna
stura
sturge
stuzi
style
styles
styling
stylised
su
suatinis
sub
subheader
subheaderclass
subheaderstyle
subject
subjects
submission
submissions
submit
submitted
submitting
subpage
subpages
subscribe
subscribed
subscription
subseteq
substantially
subtitle
success
successful
successfully
such
sucta
sudan
sudga
sudytu
sue
sueriges
sufti
sugar
suggest
suggested
suggester
suggestion
suggestions
suggests
suha
suis
suitable
sukoya
suksa
sul
sullivan
sum
sumer
sumji
summaries
summarizes
summary
summer
summers
summit
sumne
sumti
sun
sungu
sunko
sunla
sunpau
sunrise
suo
suom
suomis
superprotect
support
supported
supporting
supports
supposed
suppress
suppressed
supreme
sur
sure
surgery
surinam
surla
survey
survival
susan
susanna
susannah
sustainability
sustainable
sutherland
sutra
sutrydjuspu
suveica
suzan
suzanne
suzuhara
suzuka
suzuki
suzuya
suzy
sv
svetlana
svg
svn
swan
swanson
sweden
swedish
sweet
swift
switch
switched
switches
switching
sword
sy
sydney
syky
sylvester
sylvia
sylvie
symbol
symbols
syn
sync
synced
syncing
syntax
system
systems
t
ta
tab
table
tableimage
tables
tablet
tablets
tabno
tabra
tabrelkijno
tabs
tadji
tadjikis
tadni
taft
tag
tagged
tagji
tags
tai
taicmaci
tais
taiwan
taj
taka
takako
takamiya
takashi
take
takei
taken
takes
takeuchi
taking
takizawa
tales
talk
talked
talking
talkpage
talmud
talno
tam
tamaki
tamara
tamas
tamcmaci
tamil
tamji
tammi
tammy
tamne
tampson
tamsmi
tan
tanbo
tance
tanner
tanru
tansi
tanxe
tanya
tanzan
tanzanias
tao
taoism
taoist
tap
tapla
tara
taran
taras
tarbi
tarbyvau
tarci
target
targeted
tariffs
tarla
tarmi
tarnovo
taro
tarrasch
tarti
task
taskforce
tasks
tatar
tate
tatru
tatsuki
tatum
tavla
tax
taxfu
taxobox
taylor
tcaci
tcad
tcadoki
tcadu
tcana
tcapau
tcarls
tcarlz
tcati
tcaus
tce
tcefra
tcena
tcepru
tces
tcesau
tcesk
tcica
tcidu
tcika
tcila
tciles
tcima
tcimpazi
tcingis
tcini
tcita
tcosyn
tcotu
tcyrtcil
te
teach
team
teams
teau
tech
technical
technically
technology
ted
teddy
tedesco
tedydesku
tedyjam
tedysfe
tedyske
tedyskegau
teilor
teksys
telephone
television
tell
tells
temci
template
templatedata
templates
templatestyles
templatewizard
temple
temporarily
temporary
ten
tenfa
tennessee
teodoras
tepi
terbe
tercange
terci
terctu
terdi
terdikni
terdjuno
terdu
terence
teresa
terfa
terfendi
tergu
terjbe
terjda
terji
terjo
terkancu
terkunra
terle
terlisri
term
termo
termonsi
terms
termu
terpa
terpemci
terpilno
terpli
terpra
terrell
terrence
territories
territory
terry
tersei
tersitna
terskina
tersku
tersu
terto
terve
teryratni
teryru
terzba
terzu
test
tested
testing
tests
testwiki
tetsuro
tex
texas
text
textile
tezu
tgr
th
thai
thames
than
thank
thanks
that
thayer
the
thea
their
theism
thelma
them
thematic
theme
themes
themselves
then
theodore
theory
there
therefore
theresa
theroux
these
they
thicke
thieme
thing
things
think
thinking
third
thirds
this
thomas
thompson
thomson
thor
thora
thorne
thornton
thorpe
those
though
thought
thoughts
thousand
thousands
thread
three
through
throughout
thumb
thumbnail
thumbnails
thursday
thus
ti
tibet
ticket
tidy
tied
tienne
tierney
tiff
tiffany
tig
tiger
tighina
tigni
tigris
tikpa
tiles
tilju
till
tim
time
timedmediahandler
timeline
times
timestamps
timezone
timing
timothy
timske
timur
tina
tinbe
tinci
tinsa
tiny
tip
tirna
tirse
tirxrleopardu
tirxu
tisna
titikakas
titla
title
titleclass
titles
titlestyle
titus
tivcitsi
tivni
tixnu
tl
tls
to
tobagos
tobias
toby
toc
today
todd
todo
todoroki
together
toggle
togos
toi
tojiro
tok
tokelaus
token
tokens
tokios
tokiponas
toko
tolba
tolbi
tolbrazbani
tolcanci
tolcfa
tolci
tolcimni
tolcitrai
tolcliva
tolcru
toldi
tolfrinu
toljaxpu
tolkien
tolmipri
tolprali
tolralju
tolsteci
tolstodi
toltu
tolvrude
tolyle
tolzi
tom
tomas
tombaugh
tomes
tomis
tommy
tomoe
tomorrow
tone
tonga
tongas
toni
tonio
tonis
tono
tony
too
took
tool
toolbar
toolbars
toole
toolforge
toolhub
tools
toolserver
tooltip
toomer
top
topic
topics
toras
tordu
torres
torvalds
torvoldz
total
touch
toulouse
tour
tours
towards
tower
townsend
toya
tr
tracey
traci
track
tracking
trackingcategories
tracks
tracy
trade
trademark
traditional
traffic
train
training
traji
trano
transclusion
transclusions
transcoding
transfer
transformations
transforming
transition
translatable
translate
translated
translates
translatewiki
translathon
translating
translation
translations
translator
translators
transylvania
trapezitsa
travel
travers
travis
tray
treat
treated
treatment
treaty
treci
trefi
trene
trevor
triage
trial
tribes
trichechus
tricu
tried
tries
trigger
triggered
trina
trinidad
triomphe
trisha
tristan
trixe
trixexo
trizek
troci
trois
trombone
tromizona
troneim
troops
tropical
trotskis
trouble
troughton
troy
truci
trucu
true
trugunma
truman
truseljmaji
trust
trusted
trustee
trustees
trutca
trutcadu
try
trying
trymp
tsali
tsani
tsaranov
tsarevets
tsiju
tsina
tsitsanis
tsrnas
tsukimi
tsukino
tsumugu
tsuyoshi
ttlikon
tu
tuberculosis
tubnu
tucker
tuesday
tuesdays
tugni
tuileries
tuinkysetis
tujli
tul
tumla
tumsfe
tumxra
tunba
tunis
tunka
tunta
tuple
turk
turkish
turkmenis
turks
turn
turned
turner
turni
turning
turnrgaugustu
turnrkaisare
turturro
tutci
tutorial
tutra
tutske
tuvalus
tw
twice
twinkacetti
twinkesetis
twinkle
twitter
twl
two
txt
ty
tyler
type
types
typically
typing
typography
typos
tyson
tyty
u
ua
uacintyn
uagner
uait
uakr
ualis
ualker
ualkr
ualter
uarius
ubo
ubt
ubu
uca
uci
ucoc
ucocproject
ucti
uda
udo
udu
ue
ueid
ueinrait
ueintraub
ueliam
ueliams
uen
uerus
ues
uestas
ufi
ugandas
ugri
ui
uientraub
uigyn
uiha
uikipedi
uikipedias
uikipidias
uilhelm
uiliam
uiliym
uin
uindoz
uitki
uitkipedi
uk
ukraine
ukrainian
ukrainians
ukrayna
ul
ulf
ulrich
uls
ultimate
ultimately
ulysses
uma
uman
umberto
umbrella
umei
un
una
unai
unavailable
unblock
unchanged
uncia
unclaimed
uncle
und
undelete
under
understand
understanding
undo
undone
unemployment
unesco
unexpected
unfortunately
unicode
unification
unified
uniform
uniks
union
unique
unit
united
universal
university
unknown
unless
unlikely
unmaintained
unnecessary
unread
unregistered
unstable
unsubscribe
until
unused
unwanted
up
upa
upanicad
upcoming
update
updated
updates
updating
upgrade
upgraded
upgrading
uplita
upload
uploaded
uploading
uploads
uploadwizard
upon
upper
upright
ups
uranos
urbixlanka
urdu
ure
urgent
url
urli
urls
urma
ursus
uruguais
us
usa
usability
usable
usage
usd
use
used
useful
user
username
usernames
users
uses
ushimi
using
usnidu
ussr
usteraij
usu
usual
usually
utah
utako
utc
utf
util
utm
uvo
uvu
uwe
uz
uzuki
uzunov
v
va
vacri
vacuum
vadim
vahe
vairsoi
vajni
vale
valentin
valentino
valerie
valley
valsi
valuable
value
values
vamji
van
vanbi
vance
vanci
vandalism
vander
vandross
vanessa
vanjba
vanju
vanuatus
var
varadinum
variable
variables
variants
variety
varik
various
varius
varnent
varnum
vasilis
vasily
vasru
vassilis
vast
vasxu
vatikanus
vau
vaughan
vaughn
vavilov
ve
vecnu
vector
vectormenu
vecu
vedas
vede
vega
vei
veidt
vektor
velbej
veldetri
velfarvi
velganzu
veliko
velikotrnovos
velji
veljmina
velmicfapsi
velmikce
velne
velsfa
velski
veltavla
veltu
vensa
vensent
venus
ver
vera
verba
verclibau
verne
vernon
vero
veronica
version
versions
very
vi
via
vibna
vic
vice
vicki
victor
victoria
vidal
video
videos
vidru
vietnam
vietnamese
view
viewer
viewing
views
vikingr
vikram
viktor
viktorias
village
viltrusi
vimcu
vin
vince
vincent
vindu
vinge
vinji
vinogradov
violations
violet
vipca
vipfrejutsi
vipsi
viptru
vipygu
virdu
virginia
virtual
visible
vision
visit
visiting
visitors
viska
visual
visualeditor
visualeditordid
visually
vitali
vitci
viterelli
vitis
vitke
vitno
vivien
vlaba
vladimir
vlakra
vlapoi
vlasrocku
vlaste
vlatai
vlile
vlipa
vo
vocimoi
vofli
voi
voice
voices
voiz
voksa
voksnaske
vol
volapuk
volmabru
volta
volter
volume
volunteer
volunteering
volunteers
vom
vomai
vomast
vomei
vomoi
von
voncimdyna
vonma
vonomoi
voodoo
vorme
vote
voted
voter
voters
votes
voting
vovomoi
vps
vraga
vrdjin
vreji
vreta
vrici
vricyjuncku
vrogai
vrude
vu
vue
vukro
vurgu
vy
vyacheslav
w
wade
wagner
wainwright
wait
waiting
waldemar
walker
wall
wallace
wallachia
wallop
wally
walser
walsh
walter
walters
walton
wambaugh
wan
wanda
wang
want
wanted
wanting
wants
war
warabeda
waray
ward
warmly
warn
warned
warner
warning
warningbox
warnings
warrakkk
warren
warriors
wars
warwick
was
washington
watanabe
watch
watching
watchlist
watchlists
water
waters
watkins
watson
watsuji
waugh
way
waylon
wayne
ways
wb
we
wear
weaver
weaving
web
webb
weber
webfonts
webm
website
websites
wednesday
wee
week
weekly
weeks
weil
weill
weird
weiss
welch
welcome
welcomed
welcoming
well
wells
welsh
welson
welty
wendy
went
were
werner
wes
wesley
west
western
wet
wg
wharton
what
whatamidoing
whatever
whatlinkshere
wheel
when
where
whether
which
whichever
while
whitaker
white
whitehead
whitehurst
whitelisted
whitley
whitman
whitney
whittaker
who
whole
why
wickham
wide
wider
widespread
width
widths
wiki
wikibase
wikibits
wikibooks
wikicode
wikidata
wikieditor
wikifunctions
wikilove
wikimania
wikimedia
wikimedians
wikinews
wikipe
wikipedia
wikipedians
wikipedias
wikiquote
wikis
wikisource
wikisources
wikispecies
wikitech
wikitext
wikiversity
wikivoyage
wikivoyages
wikt
wiktionaries
wiktionary
wil
wilcox
wild
wilde
wilder
wilfrid
wilhelm
wilkinson
will
willem
william
williams
williamson
willie
willing
willis
wills
willy
wilson
wim
win
wind
window
windows
windsor
wine
wing
winners
winning
winslow
winston
winter
winters
wirth
wisconsin
wish
wishes
wishlist
witch
witches
with
witherspoon
within
without
witnessed
wizard
wmde
wmf
wmflabs
wo
woking
wolf
wolfe
wolff
wolfgang
woman
women
won
wong
wood
woods
woodward
word
words
work
workboard
worked
worker
workers
workflow
workflows
working
worklist
works
workshops
world
worldwide
would
wp
wpwp
wray
wright
write
writers
writes
writing
written
wrong
wrote
wto
wu
www
wyatt
wylie
wyndham
wynette
wynne
x
xa
xabjinme
xabju
xabme
xabyboi
xabycurve
xadba
xadni
xadyclapau
xadyske
xadzo
xagri
xai
xaid
xaik
xajmi
xaksu
xalni
xalo
xamai
xamast
xamgau
xamgu
xamoi
xampo
xamsi
xan
xance
xanguk
xanka
xano
xanri
xanterjo
xanto
xarci
xarju
xarpre
xaskoi
xasli
xasyske
xatra
xavdei
xavier
xavma
xazdo
xe
xebni
xebro
xecto
xeiris
xejyzalvi
xekri
xelbenji
xelboxna
xeldraci
xelfla
xelsinkis
xelso
xendo
xeno
xenrek
xenru
xesybau
xesygu
xi
xinbau
xindo
xingu
xinjoiro
xinmo
xirma
xislu
xispo
xlali
xlamu
xli
xlima
xlorus
xlura
xo
xoi
xonkon
xorxes
xotli
xp
xrabo
xrani
xregau
xriso
xrukla
xruklacpe
xrula
xruti
xrvatsk
xrvatskas
xu
xuan
xukmi
xumfra
xumkai
xumrdauko
xumselkai
xumske
xumskegau
xumskepre
xumsle
xumxre
xunjme
xunre
xupiter
xurdo
xusra
xusyrl
xutla
xvi
xx
xy
xycy
xymoi
xyxy
xyxymoi
xyxyxymoi
y
ya
yaguruma
yahoo
yamagami
yana
yang
yas
yashiro
year
years
yelena
yellow
yes
yet
yevgeny
yields
ym
yo
yoko
york
yorumi
you
youko
young
younger
your
yourself
youtube
yrl
ys
yu
yuika
yuki
yukishiro
yumeoi
yun
yung
yuri
yuuhi
yuzuki
yves
yvette
yvonne
yyyy
z
za
zabna
zach
zacharias
zachary
zajba
zambias
zamyatin
zandt
zane
zanrai
zanru
zappa
zar
zara
zarci
zasni
zasti
zatsi
zbabu
zbagau
zbani
zbasu
zbepi
zbike
zdani
zdile
zdosible
zdotu
ze
zea
zealand
zei
zekri
zelma
zemai
zemast
zemoi
zenba
zercatra
zergau
zergausku
zero
zgagau
zgana
zgica
zgifi
zgigau
zgigri
zgike
zgiknroko
zgikrpunke
zginroknro
zgirjazu
zgirpopu
zgitci
zgiterbe
zgiterca
zgivei
zh
zhang
zhong
zi
zifre
zifyje
zimbabues
zimbalist
zimmer
zina
zinki
ziptu
zirpu
zis
zmadu
zmiku
zo
zodiac
zoe
zoi
zones
zoo
zoom
zoroaster
zoroastrianism
zotero
zu
zukte
zulus
zumri
zunle
zunsna
zunti
zupu
zutse
zvalbard
zvati
zy
{
|
}
~

«
­
°
³
·
»
×
ð
þo
ı
ın
ŋ
ə
ɡ
ɪ
ʰ
ʱ
ʲ
ʿ
ˈ
ˌ
ː
̀
́
̂
̃
̄
̆
̇
̈
̊
̋
̌
̓
̔
̛
̣
̥
̦
̧
̨
͂
͡
α
ε
ι
ν
ρ
ς
υ
ω
в
википедия
ж
и
л
на
о
х
ы
ְ
ִ
ֵ
ָ
ׂ
א
בן
י
יוסף
ל
מתתיהו
ר
ש
الا
الجمهورية
العربية
ّ
ٓ
ٔ
ٕ
ं
क
ज
जनक
ट
त
द
न
भ
भट
म
य
र
व
श
स
ह
ा
ि
ी
ु
्
ং
ক
গ
ট
ণ
ত
ন
ব
ম
য
র
ল
স
হ
়
া
ি
ী
ু
্
ங
ச
ப
ர
ி
ூ
்
ಂ
ಈ
ದ
ನ
ಲ
ಸ
ಿ
ು
ೆ
್
ೕ
ก
พ
ย
ว
อ
ิ
ี
่
้
ດ
ລ
ັ
ິ
ົ
້
་
ད
བ
ོ
​
‌
‍
‎
–
—
‘
’
“
”
•
″
‹
›
€
№
™
←
↑
→
↓
↔
↲
↷
−
≤
⌘
③
④
⑦
☀
★
☉
☾
☿
♀
♂
♃
♄
♆
♇
⛢
✍
⟨
⟩
⯓
⺀
⺄
⺆
⺈
⺊
⺌
⺕
⺝
⺸
⺼
⿰
⿱
⿲
⿳
⿴
⿵
⿶
⿷
⿸
⿹
⿺
⿻
、
。
〢
さ
し
と
に
ん
゙
゚
ィ
イ
オ
カ
キ
ク
ケ
コ
タ
ッ
ツ
テ
ト
ヒ
フ
ホ
ム
モ
ュ
ユ
ヨ
ラ
リ
レ
ワ
ン
ー
㇁
㇂
㇄
㇇
㇈
㇉
㇓
㐁
㐄
㐅
㐌
㐫
㐬
㐭
㐮
㐱
㑒
㒵
㒸
㒼
㓁
㓞
㔾
㕛
㕣
㖾
㘝
㚅
㚇
㚔
㚘
㝉
㝡
㝴
㝵
㞋
㞢
㞷
㠩
㠭
㠯
㡀
㡭
㡿
㢲
㢴
㣇
㣺
㥯
㪅
㫄
㫐
㫒
㫺
㬅
㬎
㬥
㬰
㲋
㳄
㷠
㸒
㸚
㸦
㼌
㼲
㽞
㿟
䀠
䂞
䍃
䏍
䒑
䖍
䖒
䖝
䖵
䙴
䚻
䜌
䝿
䡛
䧹
䪞
一
丁
丂
七
丄
丅
丆
万
丈
三
上
下
丌
不
与
丏
丐
丑
专
且
丕
世
丘
丙
业
东
丞
丢
丣
两
严
並
丨
丩
个
丫
丬
中
丮
丰
丱
串
丵
丶
丷
丸
丹
为
主
丽
丿
乀
乂
乃
久
乆
乇
么
义
之
乌
乍
乎
乏
乐
乑
乔
乖
乗
乘
乙
乚
乛
乜
九
乞
也
习
乡
乳
乾
亀
亅
了
亇
予
争
事
二
亍
于
亏
亐
云
互
亓
五
井
亘
亚
亜
亞
亟
亠
亡
亢
交
亥
亦
产
亨
亩
享
京
亭
亮
亯
亰
亲
亳
亶
亷
人
亻
亼
亾
仁
今
介
仌
从
仐
仑
仒
仓
仕
他
付
仝
代
令
以
任
企
伊
伏
伐
休
会
伯
伸
但
位
何
佘
余
作
佥
使
來
侈
侌
侖
侯
侵
便
保
俞
信
修
倉
倍
候
借
倠
備
僉
僕
儿
兀
允
兂
元
兄
充
兆
兇
先
光
兊
克
兌
免
兑
兒
兓
兔
党
兜
兟
入
全
兩
兪
八
公
六
兮
兰
共
关
兴
兵
其
具
典
兹
兼
冀
冂
冃
冄
内
冈
冉
冊
冋
册
再
冎
冏
冐
冒
冓
冖
冗
冘
写
军
农
冝
冡
冥
冫
冬
冷
几
凡
凢
凵
凶
凷
凸
凹
出
函
凾
刀
刁
刂
刃
刄
刅
分
切
刍
刑
刕
刖
列
刘
则
初
別
利
别
到
制
刺
則
削
剌
前
剡
剽
劉
力
功
加
劦
助
劫
劳
劵
勃
勇
勉
勒
動
務
勞
勤
勹
勺
勻
勾
勿
匀
匂
包
匆
匈
匊
匋
匍
匕
化
北
匚
匝
匡
匪
匱
匸
匹
区
医
匽
匿
區
十
卂
千
卄
卅
卆
升
午
卉
半
卌
华
卑
卒
卓
单
卖
南
卜
卝
卞
占
卡
卢
卣
卤
卦
卩
卪
卬
卯
印
危
即
却
卵
卷
卸
卻
厂
厃
厄
历
厈
厉
厌
厓
厘
厚
原
厤
厥
厨
厭
厲
厶
厷
厸
去
厼
厽
叀
参
參
叅
又
叉
及
友
双
反
叐
发
叒
叔
叕
取
受
叚
叜
叟
口
古
句
另
叩
只
召
可
台
叱
史
右
叵
号
司
叹
吂
各
吅
合
吉
吊
吋
同
名
后
吏
向
吕
君
吝
吞
否
含
启
吳
吴
吹
吾
呂
呆
呈
告
员
呙
周
命
咅
和
咎
咠
咢
咨
咸
咼
哀
品
哉
員
哥
哲
唐
商
啇
問
啚
啬
啻
善
喜
喬
單
喿
嗇
噩
嚴
囊
囗
囘
囙
囚
四
回
囟
因
囧
囬
困
囱
囲
围
囷
固
国
圂
圅
國
圍
園
圓
土
圡
圣
圥
在
圭
地
圶
圼
坐
坒
坚
坡
坴
垂
垔
垚
埀
埋
城
埔
埶
執
基
堂
堅
堆
堇
堯
塞
墨
壘
士
壬
壯
声
壳
壴
壹
壺
壽
夂
处
夅
夆
备
夊
夋
夌
复
夏
夒
夕
外
夗
夘
多
夜
夢
大
夨
天
太
夫
夬
夭
央
失
夲
头
夷
夸
夹
夻
夾
奂
奄
奇
奈
奉
奎
奏
奐
契
奓
奔
奚
奞
奠
奢
奥
奭
女
奴
奻
好
如
妄
妙
妟
妥
妻
妾
姑
委
姜
威
娄
婁
婴
嬰
嬴
子
孑
孔
孕
孖
字
存
孚
孛
孝
孟
季
孤
学
孫
孱
學
宀
宁
宂
它
宅
宇
守
安
宋
完
宏
宓
宗
官
定
宛
宜
宝
客
宣
室
宮
宰
害
家
容
宾
宿
寄
寅
密
富
寒
察
寧
審
寫
寬
寮
寸
对
寺
寻
寽
対
寿
封
尃
射
将
將
專
尉
尊
尋
尌
對
小
少
尒
尓
尔
尖
尗
尚
尞
尢
尣
尤
尧
尨
尭
就
尸
尹
尺
尻
尼
尽
尾
尿
局
居
屈
屋
屎
屏
屑
展
屖
屚
属
屠
屡
屬
屮
屯
屰
山
屵
屾
岁
岂
岑
岡
岩
岳
岸
峯
島
崇
崑
崔
崖
崙
崩
嵬
嶲
巂
巛
川
州
巟
巠
巢
巤
工
左
巧
巨
巩
巫
差
己
已
巳
巴
巷
巸
巽
巾
巿
帀
市
布
希
帚
帛
帝
带
師
席
帶
常
干
平
年
幵
并
幷
幸
幺
幻
幼
幽
幾
广
広
庄
床
底
店
庚
府
度
庫
庭
庶
康
庸
廉
廌
廛
廣
廩
廴
延
廷
建
廾
廿
开
弁
弃
弄
弇
弋
式
弓
弔
引
弗
弘
弜
弟
弥
弦
弱
張
強
强
彊
彌
彎
彐
彑
当
彔
录
彖
彗
彡
形
彥
彦
彧
彭
彳
役
彼
往
待
律
徒
得
徙
從
復
微
徵
心
忄
必
忌
忍
志
忘
忝
忠
忩
快
念
忽
忿
思
怠
急
怱
恆
恒
恩
恭
息
悉
患
悤
您
悪
悲
悶
惠
惡
惢
愁
愈
意
愛
感
慈
慧
慮
憂
憲
應
戀
戈
戉
戊
戋
戌
戍
戎
成
我
戒
戔
或
戚
戠
戢
截
戲
戶
户
戹
戼
戾
房
所
扁
扇
手
扌
才
打
托
执
承
折
拉
拜
拿
指
掌
推
提
摩
支
攴
攵
收
攸
改
放
政
敄
敏
敕
敖
敗
敝
敞
敢
散
敦
敫
敬
数
敷
數
斂
文
斉
斊
斗
斤
斥
斩
斬
斯
新
方
於
施
斿
旁
旋
族
无
旡
既
旣
日
旦
旧
旨
早
旬
旱
旲
时
旾
昆
昇
昌
昍
明
昏
易
昔
昗
昜
星
春
昬
是
昱
昴
昷
時
晃
晋
晏
普
景
晶
智
暑
暴
曇
曩
曰
曲
曳
更
曷
書
曹
曼
曾
替
最
朁
會
月
有
朋
服
朔
朕
朗
望
朝
木
朩
未
末
本
札
朮
术
朱
朵
朶
朿
杀
权
杏
杜
束
条
来
東
杲
杳
松
析
林
枚
果
枝
枲
枼
某
柔
查
柬
柰
柱
柴
栄
栗
株
桀
桑
桼
梁
條
梟
梨
棋
棘
棠
棥
森
楚
業
楽
榮
樂
樊
欠
次
欢
欣
欮
欲
欶
欽
款
歆
歇
歛
止
正
此
步
武
歨
歪
歮
歯
歰
歲
歴
歷
歸
歹
歺
死
殳
段
殷
殸
殹
殺
殻
殿
毋
毌
母
每
毒
比
毕
毚
毛
毳
氏
氐
民
气
氣
水
氵
氶
氷
永
氺
氾
求
汉
汝
汞
江
沃
沓
沙
沝
泉
法
波
泣
泥
泰
洛
洪
活
派
流
浦
浪
浮
海
淡
淮
清
渚
渠
湯
滿
漢
漸
火
灬
灭
灰
灵
灷
炅
炎
炏
炗
炙
炭
為
烈
烏
烝
焉
無
焦
焱
然
煞
熊
熏
燕
營
燮
爪
爫
爭
爯
爰
爱
爲
爵
父
爻
爽
爾
爿
片
版
牙
牚
牛
牜
牟
牢
牧
牪
牽
犀
犬
犭
犮
狂
狄
狊
独
狺
猋
猒
猪
献
獻
玄
率
玉
王
玟
玨
珎
班
琴
瑟
瑩
瓜
瓦
甘
甚
生
産
用
甫
甬
田
由
甲
申
电
甶
男
甸
甹
画
甾
畀
界
畏
畐
留
畜
畟
畢
畧
畨
番
畫
異
畱
當
畺
畾
疊
疋
疌
疑
疒
疾
癶
癸
癹
登
發
白
百
皀
皃
的
皆
皇
皋
皐
皕
皮
皷
皿
盃
盆
盇
盈
益
盍
盎
监
盒
盖
盛
盡
監
盤
盧
目
直
相
盾
省
眇
眉
看
眔
眞
真
眷
眼
眾
着
睘
睪
睿
瞏
瞢
瞿
矍
矛
矞
矢
矣
知
矦
短
石
破
碁
碎
磊
磨
示
礻
礼
社
祟
票
祭
禀
禁
禸
禹
禺
离
禽
禾
禿
秀
秃
秉
秋
科
秝
秦
移
稟
穀
穌
穴
究
穹
空
穿
突
窄
窒
立
竒
竜
竝
竟
章
童
竹
笑
笠
筆
等
答
签
简
箕
算
箴
節
篤
篭
米
粉
粛
粟
粤
粦
粲
糞
糸
糹
系
約
納
純
素
索
紫
累
細
絜
絫
絲
続
維
綿
縣
繁
繇
纍
纟
维
编
缶
网
罒
罔
罕
罗
罙
罡
罢
罪
署
罷
羅
羊
羌
羍
美
羔
羕
羗
羞
羡
羣
群
義
羲
羸
羽
翁
翏
習
翕
翟
翠
翼
老
耂
考
者
耆
而
耎
耑
耒
耳
耴
耶
耷
聂
聊
聖
聚
聯
聶
聿
肀
肃
肅
肉
肖
肙
肥
肩
肯
育
肴
胃
背
胡
胥
能
脊
脩
腹
膚
臣
臤
臧
自
臬
臭
臯
臱
至
致
臺
臼
臽
臾
臿
舀
舂
舄
與
興
舉
舌
舍
舛
舜
舞
舟
般
艮
良
色
艸
艹
艾
芒
芔
芬
芮
花
芳
芺
芻
苔
苗
苟
若
苦
英
茶
茸
荅
草
荒
荣
荼
莆
莧
莫
莽
菆
菊
菐
華
萬
落
葉
著
葛
董
葵
蒙
蒦
蒼
蓋
蓬
蓺
蔑
蔡
蕉
蕭
薄
薛
薦
薰
藍
藏
藥
蘭
虍
虎
虐
虒
虔
處
虖
虗
虘
虚
虛
虜
虞
虫
虽
蚤
蚩
蜀
蜜
蟲
蠡
血
行
衍
衛
衣
衤
表
衮
衰
袁
袞
褭
褱
襄
襾
西
覀
要
覃
見
規
覓
覧
親
覽
见
角
解
言
訁
訇
計
詹
語
誩
論
諸
讠
讨
论
话
语
请
读
谢
谷
豆
豈
豊
豐
豕
豖
豙
象
豦
豩
豪
豸
貇
貓
貝
貞
貟
負
貢
貧
貪
貫
責
貳
貴
買
費
賁
資
賈
賏
賓
賔
賛
賞
賢
賣
質
賴
贊
贝
贡
责
贯
贲
贵
赖
赞
赤
赦
走
越
趣
足
路
蹇
身
躬
車
軍
軎
軟
輦
輯
车
辑
输
辛
辜
辞
辟
辥
辰
辱
農
辵
辶
边
达
过
迎
近
这
连
迷
追
退
送
逆
逐
通
速
造
逢
連
逮
進
逻
遀
遂
運
過
道
達
遣
適
遷
遺
邊
邏
邑
邕
那
邦
邪
郎
部
郭
都
鄉
酉
酋
配
酓
釆
采
里
重
野
量
金
釒
錢
钅
長
镸
长
門
閃
閉
開
閏
閑
閒
間
閔
閵
閻
闌
门
问
间
闷
阅
阑
阜
阝
阿
降
除
陳
隆
隊
隋
隡
隨
隱
隶
隹
隺
隻
隼
隽
难
雀
雁
集
雈
雋
雍
雐
雔
雙
雚
雜
雝
離
難
雨
雩
雪
雲
零
雷
需
霍
霜
霝
霞
霸
靈
靑
青
非
靡
面
靣
革
韋
韦
韭
韯
韱
音
頁
頃
項
須
頗
頡
頻
顛
页
题
風
风
飛
飞
食
飠
養
饣
首
香
馬
馮
駦
马
骨
高
髟
鬥
鬯
鬲
鬼
魔
魚
魯
鮮
鱼
鲁
鳥
鳳
鸟
鹵
鹿
麃
麗
麥
麦
麻
黃
黄
黍
黎
黑
黒
黨
黹
黽
黾
鼎
鼓
鼠
鼻
齊
齋
齐
齒
齿
龍
龙
龜
龟
龠
龰
龱
龴
龵
龶
龷
龸
龹
者
艹
️
﻿
！
（
）
，
：
？
￼
𐑒
𐑓
𐑕
𐑖
𐑚
𐑝
𐑟
𐑠
𐑤
𐑧
𐑨
𐑩
𐑬
𐑮
𐑯
𐑴
𐑵
👩
📲
🚀
🜨
𠀁
𠀃
𠀆
𠀉
𠀎
𠀐
𠁁
𠁣
𠂆
𠂇
𠂈
𠂉
𠂊
𠂋
𠂎
𠂒
𠂔
𠂛
𠂡
𠂢
𠂤
𠂬
𠂭
𠂹
𠃊
𠃋
𠃌
𠃍
𠃎
𠃑
𠃓
𠃔
𠃜
𠄌
𠄎
𠄠
𠄢
𠆢
𠆥
𠇍
𠈌
𠌵
𠓜
𠔉
𠔥
𠔼
𠔽
𠔿
𠕀
𠕁
𠕋
𠘧
𠘨
𠙻
𠙼
𠚏
𠚒
𠚤
𠚪
𠣏
𠤎
𠤕
𠥓
𠦄
𠦑
𠦝
𠧒
𠧗
𠧪
𠩺
𠪚
𠫓
𠫔
𠫤
𠬛
𠬝
𠬞
𠬢
𠬤
𠬶
𠮛
𠮦
𠮷
𠯑
𠱠
𠳮
𠷎
𡈼
𡉀
𡉵
𡌥
𡍮
𡏳
𡕒
𡕩
𡕰
𡖅
𡗗
𡗜
𡘆
𡘤
𡧱
𡨄
𡩧
𡬠
𡭽
𡰣
𡰥
𡰪
𡰯
𡰱
𡷈
𡸁
𡿨
𡿩
𡿪
𡿺
𢀖
𢀛
𢀩
𢁙
𢆉
𢆰
𢆶
𢇁
𢇇
𢉖
𢌬
𢌿
𢏚
𢑑
𢑚
𢖻
𢙣
𢛳
𢦏
𢦒
𢧵
𢼄
𢾕
𣁋
𣄼
𣅀
𣅽
𣍘
𣎳
𣎵
𣏋
𣏼
𣗥
𣥂
𣥖
𣦵
𣦼
𣧄
𣪊
𣪠
𣬉
𣳾
𣶒
𤇾
𤊽
𤐫
𤓰
𤔔
𤕨
𤣩
𤰇
𤰔
𤰞
𤴓
𤴔
𤽄
𥁑
𥁕
𥃦
𥃩
𥃭
𥇡
𥑟
𥘅
𥘈
𥝢
𥫗
𥱡
𦈢
𦉪
𦉬
𦉼
𦍌
𦍒
𦎧
𦐇
𦓔
𦔮
𦘒
𦙃
𦚏
𦣝
𦣞
𦣻
𦥑
𦥔
𦥯
𦨉
𦭝
𦰩
𧆞
𧈧
𧘇
𧰨
𧴪
𧴮
𧵩
𧾷
𨸏
𨾴
𩙿
𩠐
𩫏
𩵋
𪉷
𪜀
𪟽
𪠲
𪩲
𫇦
𫔭
𫜸
𫝀
𫠣
𫠩
𫢉
𫥞
𫩏
𫩠
𫪡
𫲽
𫶧
𬀷
𬐘
𬗌
𬙙
𬛸
𬜯
𬟩
𬯁
𬴘
𬺻
𬼉
𬼖
𭀰
𭁈
𭁨
𭅰
𭑈
𭕄
𭗼
𭤨
𭥫
𭻾
𮅕
𮊿
𮍌
𮍏
𮓗
𮥼
𮧮
廾
𰀁
𰀄
𰀈
𰀉
𰀕
𰀠
𰀡
𰀢
𰀪
𰁜
𰃮
𰆊
𰆘
𰋙
𰕎
𰢴
𰧭
𰯲
00--
01--
02--
03--
04--
05--
06--
10--
11--
12--
13--
14--
15--
16--
17--
20--
21--
22--
27--
28--
29--
30--
31--
36--
44--
46--
47--
48--
49--
50--
51--
52--
53--
54--
60--
66--
67--
68--
69--
73--
8--
86--
9--
90--
91--
92--
95--
98--
a--
aa--
ab--
ac--
ad--
adel--
aeg--
aff--
afg--
ag--
ai--
ak--
al--
all--
alph--
alt--
am--
ame--
an--
anato--
anders--
ang--
anna--
ant--
app--
ar--
arc--
arri--
ars--
art--
as--
ash--
asse--
astu--
at--
au--
auto--
ave--
ax--
az--
b--
ba--
back--
bak--
bal--
bala--
ban--
bang--
bangr--
bar--
bas--
bat--
bau--
be--
bea--
beau--
bed--
bee--
bef--
bel--
ben--
ber--
berk--
bern--
bes--
bi--
bib--
bid--
bil--
bin--
bir--
bis--
bix--
bixy--
bla--
blo--
blu--
bo--
bob--
bog--
bois--
bol--
bon--
bona--
bor--
born--
bos--
bot--
bou--
br--
bra--
brad--
brain--
brak--
brat--
bre--
brec--
bri--
brit--
bro--
brow--
bru--
bu--
bubb--
buli--
bun--
bur--
burk--
by--
c--
ca--
caf--
cajy--
cak--
cal--
camp--
can--
car--
carn--
carto--
cas--
casa--
cat--
cau--
cava--
cc--
ce--
cedrn--
cele--
cen--
cer--
cfi--
ch--
cha--
char--
che--
chi--
chu--
ci--
cib--
cibytciny--
cik--
cil--
cin--
cir--
cisky--
cit--
cl--
cla--
clau--
cle--
clo--
cm--
cma--
cmac--
co--
col--
coll--
collabo--
colo--
com--
compa--
con--
cond--
cong--
conser--
const--
contr--
conve--
coor--
cop--
cor--
corn--
cos--
cou--
cough--
cra--
cre--
cren--
cri--
cris--
cru--
cte--
ctu--
cu--
cud--
cul--
cun--
cur--
cy--
d--
da--
dab--
dai--
dal--
dalma--
dar--
dasky--
dat--
datny--
de--
dec--
defe--
defi--
dek--
delete--
demonst--
den--
der--
des--
det--
dev--
di--
dia--
dicy--
dill--
dio--
dipl--
dis--
distr--
dit--
dja--
dje--
dji--
dju--
do--
don--
dor--
dot--
dou--
dr--
dra--
du--
dunk--
dupl--
dut--
dy--
dys--
dze--
dzi--
e--
eat--
eber--
ec--
eck--
eco--
ed--
edit--
efkli--
eg--
egy--
ehr--
ehren--
ei--
ek--
eki--
el--
ele--
elec--
eli--
em--
en--
eng--
ep--
er--
ero--
ersl--
es--
escu--
est--
et--
eu--
evi--
ex--
exe--
expl--
ez--
f--
fa--
facili--
fak--
fal--
far--
fasy--
fau--
favou--
fe--
fen--
fep--
fer--
fet--
ff--
fi--
fif--
fig--
fil--
fin--
fip--
fla--
fli--
flic--
flo--
fo--
for--
fr--
fre--
fred--
frie--
fu--
ful--
fur--
furn--
fy--
g--
ga--
gag--
gai--
gal--
gamb--
gan--
gany--
gar--
gas--
gat--
ge--
gen--
geo--
ger--
gesch--
gest--
ghi--
gi--
gig--
gil--
gin--
giul--
gla--
glad--
gli--
global--
go--
god--
gold--
gor--
got--
gra--
gre--
green--
gri--
gro--
gru--
gu--
gua--
guada--
gub--
gugdr--
gui--
gumy--
gun--
gut--
guz--
gy--
gymn--
h--
ha--
hac--
hag--
hal--
han--
hand--
har--
hat--
hau--
haw--
hay--
he--
head--
heb--
hec--
hed--
hei--
hel--
hen--
her--
hew--
hey--
hi--
hin--
hind--
his--
ho--
hoch--
hock--
hof--
hol--
holo--
hop--
hor--
hous--
hu--
hus--
hut--
hy--
i--
ia--
ibe--
ic--
id--
iden--
ie--
if--
igna--
igno--
il--
illit--
illustrat--
imm--
immi--
imp--
in--
inci--
ing--
inst--
int--
integ--
inter--
io--
ip--
ir--
is--
ishi--
iso--
it--
iu--
iv--
iw--
iza--
j--
ja--
jak--
jan--
jar--
jas--
jaur--
jbo--
jda--
je--
jec--
jecy--
jel--
jen--
jer--
jes--
ji--
jicmr--
jif--
jik--
jil--
jin--
jinmr--
jmi--
jo--
ju--
jug--
jul--
jun--
jut--
jva--
k--
ka--
kaf--
kaj--
kal--
kam--
kamc--
kamp--
kams--
kamsel--
kan--
kar--
kara--
kas--
kat--
kauf--
ke--
kee--
kel--
ken--
ker--
ket--
key--
kho--
ki--
kijy--
kik--
kil--
kin--
kir--
kirk--
kit--
kla--
kle--
klin--
klo--
klu--
kni--
ko--
kob--
kohlweiß--
kol--
kon--
kor--
korn--
kou--
kra--
kre--
kri--
ku--
kul--
kulnr--
kut--
kuz--
ky--
kı--
l--
la--
lak--
lal--
lam--
lan--
lands--
lang--
lap--
lar--
las--
lat--
laz--
le--
led--
legi--
lem--
ler--
lew--
lge--
li--
ligy--
lij--
lijdr--
lik--
liky--
lin--
lips--
list--
lite--
liv--
ll--
lo--
lob--
loc--
lod--
lore--
low--
lu--
lud--
ludo--
ly--
m--
ma--
mac--
mad--
mag--
mah--
mai--
main--
maj--
mal--
mali--
man--
map--
mar--
mas--
mat--
matsu--
mau--
max--
may--
mc--
mcc--
mccl--
mce--
mcke--
mcla--
me--
mec--
med--
mel--
men--
mer--
merge--
metal--
mexi--
mi--
mic--
mij--
mijy--
mik--
mil--
min--
mir--
mit--
miv--
miya--
ml--
mli--
mo--
modi--
moe--
mon--
mor--
mou--
mous--
mp--
mr--
mro--
mu--
mug--
muk--
mul--
mur--
mus--
mut--
muv--
my--
n--
na--
naka--
nal--
nalt--
nalv--
nan--
nar--
nard--
nat--
nd--
ne--
nebr--
nek--
nen--
ner--
nes--
neu--
new--
ng--
ni--
nie--
nil--
nin--
nir--
no--
nol--
non--
nor--
nord--
not--
nou--
now--
nu--
nun--
ny--
nz--
o--
ob--
oba--
obe--
obs--
obser--
obvio--
oc--
occur--
oce--
odi--
odo--
odu--
ok--
ol--
old--
om--
on--
onta--
op--
or--
ore--
org--
os--
out--
over--
p--
pa--
pab--
paf--
pag--
page--
pai--
pal--
pala--
pall--
pano--
par--
para--
pas--
pat--
pav--
pavy--
pax--
pay--
paze--
pe--
peder--
pel--
pemcr--
pen--
pep--
per--
pes--
pet--
petr--
pev--
ph--
phen--
pho--
pi--
pig--
pik--
pil--
pio--
pir--
pit--
pl--
pli--
plo--
plu--
po--
pof--
pol--
por--
portr--
poul--
pra--
pre--
pri--
primi--
pro--
pru--
ps--
psycho--
pu--
pub--
pur--
py--
q--
qu--
qua--
quan--
qui--
quig--
r--
ra--
rad--
rai--
raj--
ral--
rar--
rasy--
rat--
rau--
rd--
re--
reb--
rec--
red--
reg--
rei--
rej--
rel--
rem--
ren--
repe--
requi--
res--
resi--
respec--
rest--
ret--
rev--
rg--
rho--
ri--
rid--
rie--
ril--
rit--
rix--
ro--
rob--
roch--
rol--
rou--
rs--
ru--
rul--
rus--
ry--
s--
sa--
sab--
sac--
sal--
salen--
san--
sand--
sap--
sar--
saty--
sau--
savi--
sc--
scale--
scar--
sch--
schul--
schw--
scor--
se--
sea--
see--
seg--
sek--
sel--
selc--
seld--
selk--
sels--
selt--
selv--
sely--
selz--
sep--
ser--
sez--
sezy--
sfe--
sh--
sha--
she--
shi--
ship--
sho--
shu--
shul--
si--
sib--
sig--
sik--
sil--
silv--
silver--
sim--
sin--
singa--
siob--
sit--
site--
siz--
sk--
ske--
sl--
sla--
slo--
smo--
smu--
sn--
sna--
so--
sol--
sommer--
son--
sor--
sp--
spa--
spam--
spe--
spi--
spo--
sr--
st--
sta--
stan--
ste--
stein--
sto--
stoc--
stock--
stra--
strat--
stre--
streng--
stu--
su--
sub--
subst--
sum--
sun--
sup--
sur--
sus--
sut--
sv--
sw--
swe--
sy--
syn--
t--
ta--
tagp--
tal--
tan--
tap--
tar--
tarby--
tas--
tat--
tau--
tce--
tco--
te--
ted--
tei--
ten--
ter--
terc--
terg--
terk--
tern--
ters--
terv--
th--
theo--
thom--
thre--
ti--
tig--
til--
tim--
tir--
tis--
tl--
to--
tobe--
toc--
tol--
tolsel--
tolt--
tom--
tomo--
tool--
tor--
tos--
tow--
tr--
tran--
trans--
translit--
transn--
tre--
tri--
tric--
tro--
tru--
trun--
tsa--
tsu--
tu--
tul--
tur--
tw--
twe--
ty--
u--
ua--
ue--
ues--
ui--
uin--
uitki--
uk--
ul--
un--
under--
up--
upa--
ur--
us--
use--
user--
uz--
v--
va--
val--
van--
var--
vas--
ve--
vel--
vely--
ven--
ver--
vi--
vid--
view--
vik--
vil--
vip--
viz--
vla--
vo--
vok--
vol--
vom--
von--
vor--
vul--
vy--
w--
wa--
wal--
war--
was--
wat--
we--
weat--
wein--
weis--
west--
wg--
whe--
whi--
whit--
white--
wid--
wie--
wiki--
wil--
win--
wine--
wo--
wol--
won--
wood--
wool--
wor--
wp--
wrap--
wu--
wy--
x--
xa--
xab--
xady--
xag--
xal--
xar--
xasy--
xe--
xel--
xi--
xia--
xin--
xo--
xri--
xru--
xu--
xum--
xun--
xy--
y--
ya--
yag--
yan--
yar--
yas--
yeg--
ym--
yo--
yoshi--
you--
yu--
z--
za--
zag--
zan--
zat--
zazy--
ze--
zga--
zgi--
zgir--
zh--
zi--
zif--
zil--
zo--
zu--
zucker--
zuk--
zva--
ɪ--
проч--
с--
--0
--1
--16
--17
--2
--23
--27
--3
--4
--5
--54
--6
--7
--8
--89
--9
--93
--96
--97
--a
--able
--ably
--ac
--aca
--ach
--ack
--ad
--ade
--adji
--ado
--ae
--ael
--aev
--afa
--age
--agh
--aging
--ah
--ai
--ain
--ais
--ak
--aku
--al
--ala
--ales
--ally
--alt
--am
--ama
--an
--ana
--ance
--and
--ani
--ano
--ans
--ant
--anu
--any
--ao
--ap
--apa
--ar
--ard
--aries
--aro
--arro
--art
--ary
--as
--ashi
--at
--ata
--ate
--ated
--ath
--ati
--atic
--ating
--ation
--ative
--ato
--au
--aud
--aues
--aun
--av
--aw
--awa
--ay
--b
--ba
--bal
--bb
--be
--bee
--ber
--bert
--bi
--bie
--bis
--ble
--blik
--bly
--bo
--bon
--bot
--box
--bra
--bs
--burg
--burgh
--by
--c
--ca
--cal
--cci
--ce
--ces
--ch
--chi
--chka
--cho
--ci
--cia
--cie
--cing
--cis
--cism
--ck
--cka
--cked
--cki
--cks
--clu
--co
--craft
--cri
--cs
--ct
--cti
--ction
--ctor
--cu
--cus
--cy
--d
--da
--dal
--de
--ded
--den
--des
--dge
--di
--dic
--die
--dis
--dja
--dle
--do
--dor
--dorff
--dos
--dro
--ds
--dt
--du
--dy
--e
--ea
--eas
--eau
--eb
--ec
--echt
--eck
--ecki
--ed
--eda
--edit
--ee
--eev
--ef
--eger
--egorized
--ei
--ein
--ek
--el
--ell
--ella
--ello
--eman
--emes
--en
--enc
--ence
--ency
--ene
--eni
--enko
--ens
--ensis
--ent
--enta
--eo
--er
--ere
--erg
--eri
--ern
--ers
--ert
--ery
--es
--ese
--ess
--est
--et
--ets
--ett
--ette
--etti
--eu
--ev
--evi
--ew
--ey
--ez
--f
--fa
--ff
--ffe
--ffer
--fi
--ficial
--fier
--fis
--ft
--fu
--ful
--fy
--g
--ga
--gaard
--gan
--gas
--gau
--ge
--gel
--ger
--ges
--gg
--ggs
--gh
--ght
--ghton
--ghts
--gi
--ging
--gins
--gla
--gle
--gner
--gni
--go
--gow
--gri
--grikle
--gs
--gt
--gton
--gu
--h
--ha
--ham
--han
--haus
--he
--hed
--her
--hes
--hi
--hing
--hip
--hl
--ho
--hol
--hood
--hot
--hs
--i
--ia
--ial
--ian
--iana
--ias
--iating
--ible
--ic
--ica
--ical
--ice
--ich
--ick
--ico
--ics
--icz
--id
--ide
--idju
--ie
--ied
--iel
--ien
--ient
--ier
--ies
--ify
--ig
--igan
--ight
--ijn
--ik
--ikov
--il
--ild
--ile
--im
--ima
--imi
--in
--ina
--ine
--ing
--ings
--ington
--ini
--inn
--ino
--ins
--inson
--io
--ioka
--ion
--ions
--ir
--ira
--iro
--irs
--is
--ische
--ised
--ish
--isle
--ism
--ist
--ists
--it
--ita
--ite
--ities
--ition
--ity
--itz
--iu
--ium
--ius
--ive
--ivity
--ix
--iya
--iz
--ization
--izations
--ize
--ized
--izing
--j
--ja
--je
--jer
--jers
--ji
--jin
--jo
--ju
--k
--ka
--kan
--kar
--kas
--kawa
--ke
--ked
--kel
--kell
--ker
--kets
--kett
--kh
--ki
--kin
--kis
--kle
--kler
--ko
--kos
--kov
--kri
--ks
--ksi
--ku
--kus
--ky
--l
--la
--lace
--lan
--land
--lctu
--ld
--le
--lek
--ler
--les
--ley
--lfi
--li
--lic
--lie
--lik
--limo
--ling
--list
--lk
--lka
--ll
--lla
--lle
--lli
--lling
--llo
--lly
--lm
--lni
--lo
--lon
--lor
--ls
--lt
--lti
--lu
--lus
--lvi
--ly
--lyn
--lz
--m
--ma
--man
--mar
--mbo
--me
--mei
--men
--ment
--mer
--mi
--mir
--mium
--mm
--mo
--moi
--mos
--moto
--mp
--mre
--ms
--mu
--mund
--my
--myma
--n
--na
--nal
--nam
--nas
--nce
--ncy
--nd
--nda
--nder
--ne
--ned
--nees
--nell
--nelli
--nen
--ner
--nes
--ness
--ng
--nga
--ngas
--nheim
--ni
--nia
--nias
--nie
--nik
--nis
--nka
--nki
--nn
--nne
--no
--noki
--nor
--nos
--ns
--nse
--nsi
--nt
--nta
--nte
--nthal
--nti
--ntly
--nts
--ntu
--nu
--num
--nus
--nym
--nz
--nzu
--o
--oa
--och
--ock
--od
--of
--off
--og
--oi
--oka
--oko
--ol
--ola
--om
--on
--ono
--onov
--ons
--ood
--op
--opoulos
--or
--ora
--ori
--ors
--ory
--os
--osi
--ot
--oto
--ots
--ott
--ou
--ough
--ous
--out
--ov
--ova
--ove
--ovich
--ow
--oy
--oying
--p
--pa
--pai
--pal
--pard
--pau
--pe
--pf
--phy
--pi
--pli
--po
--pp
--pra
--pre
--ps
--pt
--pton
--pu
--py
--q
--r
--ra
--rak
--ral
--ran
--ras
--ration
--rc
--rd
--rdo
--re
--rea
--rell
--res
--ret
--rey
--rg
--rge
--ri
--ria
--ridge
--rigo
--rigues
--rik
--ris
--ritt
--rks
--rl
--rm
--rn
--rna
--ro
--room
--ros
--rov
--row
--rr
--rs
--rt
--rta
--rth
--ru
--rum
--rvo
--ry
--rz
--s
--sa
--sas
--schwa
--se
--sed
--sel
--sen
--ser
--ses
--sey
--sh
--shi
--si
--sing
--sis
--sk
--ska
--skaya
--ske
--sku
--slav
--slaw
--sle
--sm
--smi
--sni
--snu
--so
--son
--spa
--spe
--ss
--ssa
--sse
--ssy
--st
--sti
--stino
--sto
--ston
--stu
--styn
--su
--sy
--t
--ta
--tal
--tan
--tas
--tation
--tc
--tci
--te
--tebra
--ted
--teen
--ten
--ter
--ters
--tes
--th
--the
--ti
--tic
--tie
--tin
--tine
--ting
--tion
--tions
--tis
--tl
--tle
--tner
--to
--toja
--toli
--ton
--tone
--tor
--tory
--tos
--tra
--tre
--tri
--tro
--tru
--ts
--tsu
--tt
--tta
--tte
--tu
--tum
--tus
--ty
--tz
--u
--ua
--uak
--ual
--uan
--ub
--uc
--uchi
--ud
--ude
--ue
--ugh
--ui
--uil
--uja
--uk
--uko
--ul
--ult
--um
--ums
--un
--une
--up
--ur
--ura
--ure
--uri
--us
--usha
--usi
--ut
--utra
--uve
--ux
--v
--va
--val
--ve
--ved
--ven
--vi
--vie
--ville
--vis
--vla
--vo
--vora
--vost
--vsky
--vyn
--w
--wa
--wald
--way
--wn
--wood
--worth
--wyn
--x
--xa
--xra
--xu
--xy
--y
--ya
--yaev
--ybi
--yca
--yci
--yde
--ye
--yer
--ygu
--yi
--yl
--yn
--yr
--ys
--yske
--yz
--z
--za
--zation
--zba
--zda
--ze
--zed
--zen
--zgi
--zi
--zing
--zma
--zo
--zu
--zz
--zzo
--ð
--ı
--ıg
--ındaki
--ι
--ο
--а
--и
--н
--я
