!
"
#
##0
##1
##10
##11
##12
##13
##14
##15
##16
##17
##18
##19
##2
##20
##21
##22
##23
##24
##25
##26
##27
##28
##29
##3
##30
##31
##32
##33
##34
##35
##36
##37
##38
##39
##4
##40
##41
##42
##43
##44
##45
##46
##47
##48
##49
##5
##50
##51
##52
##53
##54
##55
##56
##57
##58
##59
##6
##60
##61
##62
##63
##64
##65
##66
##67
##68
##69
##7
##70
##71
##72
##73
##74
##75
##76
##77
##78
##79
##8
##80
##81
##82
##83
##84
##85
##86
##87
##88
##89
##9
##90
##91
##92
##93
##94
##95
##96
##97
##98
##99
$
%
&
'
(
)
*
+
,
-
.
/
0
00
000
01
02
026
03
04
05
06
07
070
08
09
1
10
100
1000
102
103
104
106
108
109
11
110
111
112
114
117
118
1185
12
120
1200
123
128
13
1341
136
14
140
1400
145
146
1492
1493
1494
15
150
1500
1503
1504
1509
1534
1550
1564
1566
1573
16
160
1600
1603
1616
1655
1657
1658
1660
1670
169
1692
17
170
1700
1739
1750
176
1760
1775
1776
1777
1778
1779
1783
1787
1789
1790
1791
1792
1793
1795
1796
1799
18
180
1800
1801
1804
1807
1809
1813
1815
1819
1820
1821
1822
1824
1827
1828
1830
1831
1832
1833
1834
1836
1837
1838
1840
1843
1845
1846
1848
1849
185
1850
1856
1857
1860
1862
1864
1865
1866
1867
1870
1871
1872
1874
1877
1878
1879
1881
1882
1883
1885
1889
1890
19
190
1900
1901
1903
1904
1905
1906
1907
1910
1911
1912
1914
1917
1918
1919
1920
1921
1922
1923
1924
1926
1928
1929
1930
1931
1932
1933
1934
1935
1936
1937
1938
1939
1940
1941
1942
1943
1944
1945
1946
1947
1948
1949
1950
1951
1952
1953
1954
1955
1956
1957
1958
1959
1960
1961
1962
1963
1964
1965
1966
1967
1968
1969
197
1970
1971
1972
1973
1974
1975
1976
1977
1978
1979
198
1980
1981
1982
1983
1984
1985
1986
1987
1988
1989
199
1990
1991
1992
1993
1994
1995
1996
1997
1998
1999
2
20
200
2000
2001
2002
2003
2004
2005
2006
2007
2008
2009
2010
2011
2012
2013
2014
2015
2016
2017
2018
2019
2020
2021
206
21
210
212
22
220
221
223
224
23
230
231
234
24
240
242
25
250
255
256
258
26
260
265
266
27
270
272
275
28
280
29
290
291
3
30
300
31
310
312
313
32
322
33
34
340
344
35
350
36
37
371
375
38
389
39
390
391
4
40
400
41
415
42
425
43
430
44
45
450
46
47
470
48
483
484
49
5
50
500
51
52
521
53
530
54
55
551
56
57
58
59
595
6
60
600
61
62
63
64
65
650
66
67
68
69
7
70
700
701
71
710
72
721
73
74
75
76
77
775
78
79
794
8
80
800
81
82
83
84
84736
85
86
87
88
89
9
90
900
92
93
94
95
96
97
978
98
99
:
;
=
>
?
@
\
^
_
a
aa
aaba
aabit
aabital
aach
aachbishop
aachipelago
aachitecha
aad
aada
aadiens
aadineri
aaditeri
aadli
aadneri
aaf
aafa
aafn
aafspring
aafwe
aagan
aaganaiz
aaganaizieshan
aaganizam
aaganizieshan
aaganizim
aaganizm
aagianik
aagiu
aagos
aajentiina
aakaiv
aakeschra
aakialaji
aakialajis
aakiek
aakitekcha
aaklan
aaktik
aal
aalduo
aalmuos
aalso
aalspais
aalsuo
aalwiez
aam
aamaada
aamani
aamaz
aamful
aami
aamiinia
aamiinian
aamschrang
aamuos
aamz
aan
aanda
aanis
aant
aar
aaran
aas
aash
aastierin
aat
aata
aatadax
aatadaxi
aatadem
aatanami
aatanamos
aataraiz
aatariti
aatbiit
aatentisiti
aatifak
aatifishal
aatik
aatikiuliet
aatikl
aatilari
aatimisinin
aatis
aatistik
aatom
aats
aavis
aazwie
ab
abaashan
abak
abalish
abalishan
abalishanis
abalishi
abbey
abc
abdaminal
abiliti
abitat
abjek
abjektiv
abjik
abligieshan
abnaamal
abni
aborijinal
abortion
about
abov
abraham
abrij
abriviet
absaluut
abschrak
absence
absens
absorption
abstikl
abu
abvios
abzaab
abzavieshan
abzboerg
abzoerv
abzoerva
abzoervachri
abzoervebl
academic
academy
access
accessed
accompong
achiiv
achiivment
achiivmentdem
achrakshan
achribiut
across
act
actor
ad
ada
adaels
adalf
adam
adap
adaptieshan
adawaiz
adawandem
adierent
adij
adishan
adishanal
adishanali
adisi
adminischrieshan
adminischrietiv
administa
admiral
admit
adolt
adoltud
advaans
advais
advans
advataizin
advent
advokesi
advoket
advokiet
af
afa
afek
afganistan
afi
afier
afilieshan
afiliet
afis
afisa
africa
african
afrika
afrikan
afrikandem
afrikanis
afrikanizim
afro
afta
aftamat
after
ag
against
age
agen
agilis
agiument
agnastik
agnastisizim
agnosticism
ago
agonie
agostos
agriculture
agriiment
agrikolcha
agrikolcharal
agrikolchral
aguila
ah
ahn
ai
aibiirian
aid
aida
aidentifai
aidentikal
aidentiti
aidia
aidialaji
aidie
aidiil
aidiilizim
aidiya
aids
aigl
aijrojen
aijrojin
aijros
aikan
aikuu
ail
ailait
ailan
ailandem
ailant
ailanz
ailet
aili
ainstain
aipatisis
airilan
airish
ais
aislan
aislant
aisolietid
aisotuop
ait
aitem
aivan
aiyan
aiyis
aizak
ajiesent
ajitiv
ajres
ak
akaad
akademik
akamadiet
akan
akchual
akchuali
aki
akiadimi
akiupai
akiupieshan
akiuret
akliem
akliis
aknalij
akompini
akomplish
akomplishment
akompni
akompniment
akompong
akount
akountin
aksep
akses
akshan
akta
aktievian
aktiom
aktiv
aktivis
aktiviti
aktivizim
aktuoba
akuaya
akwainas
akwaya
akyuut
akyuuz
al
alai
alaians
alain
alan
alang
alayans
albienia
alboert
albom
album
alcoa
alduo
alexander
alfabet
ali
alidie
alighieri
aligzanda
aliijans
alikaanasos
alji
aljibra
aljiiria
alkoal
all
allan
allen
allmusic
almaza
alminak
almuos
aloi
alone
alpha
also
alt
alta
altiniet
altoernitiv
alumina
aluon
alusinieshan
alzaimaz
alzwel
am
amadeus
amatior
amazan
amazona
ame
amenment
america
american
amerika
amerikan
amfibian
ammad
amoerka
amoerkan
amoerkaz
amok
amorka
amount
amsterdam
amtan
amundsen
an
ana
anaakis
anaakizam
analaiz
analisis
analitik
analysis
anarebl
anareri
anato
anatomi
anatuolia
anc
anchopalaji
ancient
and
anda
andago
andagradiet
andaniit
andastan
andastandin
andastanin
andere
anderson
andiiz
andisn
andrade
andre
andrew
anduora
andyuuras
aneda
anelti
anemplaiment
anex
ang
angeles
angels
angga
anggila
anggl
angglikan
angglo
angl
anglofuon
angzayati
ani
animal
animieshan
anjiliiz
anju
ankara
anlain
anles
ann
annals
anne
anodorhynchus
anof
anofishal
anongs
anplan
anres
ansa
ansaniteri
anseschri
anset
ansista
antaatika
antel
antem
antena
anthony
anti
antibayatik
antiiga
antikuiti
antikwiti
antilian
antiliiz
antimalierial
antisipiet
antuoni
anuon
anuova
any
anything
anyual
anz
ap
apaat
apaataid
apachuniti
apaint
aparentli
aparieshan
apariet
aparieta
apasl
apastalik
aphrodites
apier
apierans
apiil
apinis
apl
aplai
aplikieshan
apm
apozishan
apozit
applications
apra
apraximekli
apraximetli
april
apruoch
apruopriet
apruuv
apruuval
aptikal
aptimizim
aptix
ar
ara
arab
arabic
arabik
araiv
araival
araiz
aratinga
arawak
arawakan
arc
archimedes
archipelago
archive
archives
are
aredi
ares
ari
aria
ariebia
ariebian
arienj
arienjment
arijin
arijinal
arijinali
arijiniet
arinj
aris
arisn
aristakl
aritmetik
aritmitik
arjuna
arnaldo
arong
aroun
around
arself
art
arthur
aruuba
as
asaalt
asafa
asasinieshan
asasiniet
aschranama
aschranami
aschranamikal
aschria
aschrian
aschrielia
asembl
asembli
asen
ases
aset
ashiz
asia
asian
asid
asimilieshan
asis
asistans
asistant
askaadn
askraib
asoert
asosieshan
asosiet
asosietid
aspek
aspital
association
astail
astaraid
astm
asuosieshan
asuosiet
asuosietid
asyuum
at
ataal
atak
atam
ataman
atamik
atatork
atemp
aten
atenshan
atenz
ates
atheism
atheist
atien
atiinian
atityuud
atlanta
atlantic
atlantik
atletik
atletix
atliit
atliitdem
atmosferik
atmosfier
atom
atoman
auch
august
augustus
aulis
aurum
av
avaid
avalanch
avielebl
avielobl
avinyuu
avokaado
avrij
awaad
award
awarded
awayi
awe
awiernis
ax
axalarieshan
axep
axeptans
axes
axfad
axijen
axis
axtiel
aya
ayan
ayis
ayon
az
azabaijan
azwel
b
ba
baabiedoz
baabyuuda
baada
baadalain
baal
baan
baandie
baara
baaskitbaal
baat
baatelmi
bab
babikiu
babilan
babiluonian
babsled
bach
bachri
back
bad
badi
badidem
badili
badizatva
bagdad
baha
bai
baibl
bailajikal
bailajikali
bailey
bailoji
bain
bait
bak
baka
bakbuon
bakgrong
bakin
bakl
baklfiil
bakop
bakra
baktiiria
baktiirial
baktiiriom
bal
balans
bale
baltimore
ban
banaana
band
banggladesh
bangk
bangkin
bangla
banit
bantu
banz
baptaiz
baptis
baptist
baptiste
baptizam
barbara
baril
bartoloni
baruok
based
basilica
basilika
basis
baskitbaal
baskobel
bastan
batalian
batam
batani
batanis
battuta
baxa
baxait
baxin
bay
baya
bayagrafa
bayagrafi
bayas
baznia
bbc
bc
bce
be
beast
beatles
bebrij
because
bed
bedwad
beg
behind
being
belarus
belief
belisario
beljiom
belt
benggali
benidik
benifishal
benifit
benit
benjamin
benjamins
bennett
benop
beri
berial
berlin
bernie
bes
besis
best
bet
beta
betrugs
betrunken
between
bevali
bex
beyond
bhagavad
bi
bible
biblikal
bibliografi
bibliotheken
bie
biejing
bieli
bier
bierin
bies
biesik
biesis
biesn
bievia
bifuo
bifuor
big
biga
bigi
bigin
bigis
bignin
bigop
biif
biikl
biiklz
biim
biin
biini
biit
bikaa
bikaaz
bikaazn
bikom
bikomps
bikoms
bikomz
bil
bilang
bilangx
bilbuod
bildin
bili
bilian
biliib
biliif
biliifdem
biliiv
biliiz
bilop
biluo
bin
bing
biniz
binomio
binuon
biography
bishop
bit
bita
bitwiin
bitwix
biyain
biyan
biyevia
biyeviaral
bizantiin
bizies
bizniz
bk
bke
bki
bla
black
blackwell
blak
blake
blakman
blakwel
blenop
bles
blica
blied
bling
blod
bloom
blue
blues
bluu
bluumzberi
bluuz
bn
bob
bod
boerchel
boernin
boert
boertplies
bofalo
bohr
bokanier
bolb
bolivar
bolivia
bolk
bolt
bon
bond
bondong
bonds
bongjri
boni
booby
book
booker
books
born
bos
bosna
bosnia
bostamanti
boston
bot
botanikal
botany
boti
bou
boun
bounbruk
bounjri
bourg
bout
bouti
braad
braada
braadis
braadkyaas
braadli
brait
branch
branchdem
branz
bratwiet
braudel
brazil
brazilia
brazilian
brebrij
bred
breda
bredadem
bredfruut
breeds
brejrin
brent
bres
brian
bridge
brief
briek
briekchuu
brien
briich
briid
briidin
briif
brij
bring
bringi
britannica
british
britn
brock
brok
brokdong
brokfos
brokop
brokout
brong
broslz
broun
brown
bruklin
bruu
bucket
buda
budapest
buddha
buddhism
budis
budizim
bufo
built
buju
buk
buka
bukdem
bul
bulgieria
bunny
buod
buoda
buogl
buolt
buon
buonapaat
buoran
buot
burchell
burundi
bush
business
bustamante
but
buus
buutan
bwai
by
byuuti
bə
c
ca
caaz
cacatua
caesar
california
call
calling
cambridge
campbell
campo
can
canada
canadian
captive
caribbean
carl
carpenters
cassidy
cat
catalina
category
catholic
cattle
cause
cay
cays
cbs
celsius
center
central
centre
century
cervantes
cf
cha
chaaj
chaak
chaakuol
chaalz
chaat
chaata
chadishan
chadishanal
chail
chailud
chaina
chaini
chainiiz
chais
chakl
chalinj
challenge
chamberlain
champian
champianship
chang
change
chani
chanil
chansfaam
chansfor
chanspotieshan
chanspuot
chanspuotieshan
chanzmishan
chanzmit
chanzmitid
chapl
chapta
character
chariatier
charlemagne
charles
chat
chek
chekia
chelsea
cheri
ches
chicago
chieman
chiemba
chien
chienj
chienjop
chier
chierman
chiif
chiiz
chikaago
chikin
child
children
chile
chili
chiljren
china
chinese
chobl
choch
chochdem
chochil
chokcha
chompit
chos
chr
chrabl
chradishan
chradishanal
chradishanali
chradishanalis
chrafik
chrai
chraib
chraik
chrajidi
chrak
chrang
chrangga
chransfaam
chransfamieshan
chranslieshan
chransliet
chranzishan
chranzista
chranzlit
chrapikal
chratiji
chrayal
chrayanggl
chrech
chrechout
chren
chrench
chrent
chrentn
chret
chribiut
chried
chrieda
chriedn
chrien
chrienin
chries
chriet
chrii
chriit
chriiti
chriitment
chrikomuoniasis
chrilaani
chrilian
chring
chrinidad
chriniti
chrip
chris
christkind
christmas
christopher
chrokcha
chros
chruojan
chruu
chruup
chuojan
chuon
chuot
church
chuu
chuup
chuupdem
chuut
chuuz
city
civil
clarendon
clarke
classical
claude
cliff
climate
clinical
clint
club
co
coast
codex
coffea
cohen
cole
collaria
colombia
color
columbus
com
come
commerce
committee
community
companion
company
comparative
complete
con
concept
concert
conference
congress
conquest
conscious
consciousness
constitution
contemporary
context
copernicus
corn
costa
costalago
couleur
country
coverley
crall
creole
crescent
cristo
critical
cromwell
crosby
cross
crow
cudjoe
cultural
culture
d
da
daa
daade
daak
daama
daans
daata
dacosta
dad
dah
dahn
dai
daimenshan
dainamix
dainasti
dairek
dairekli
daivoers
daivoersiti
dak
dakchrin
dakiment
dakiumenchri
dakiument
dakiumentieshan
dakta
daktaret
dala
dali
damij
daminant
daminieshan
daminiet
daminiika
daminikan
dan
danal
dance
daniel
dans
dansaal
dark
darwin
das
dat
data
database
datde
date
david
davis
day
dayabiitis
dayagnastik
dayagnuosis
dayagnuoz
dayalag
dayalagdem
dayalek
dayanuosis
dayariya
dayaspora
dayat
dayaxaid
dayilekchik
dayuod
dc
de
dear
death
decaires
december
ded
dedikiet
dedlef
dedout
definishan
definition
dege
deh
dehn
dehself
deism
deked
dekied
deklarieshan
del
delawier
deli
delta
dem
demanschriet
demaya
demde
deme
demself
demya
den
denis
denise
denmaak
dennis
deno
densiti
dep
department
departments
depiuti
depo
der
derik
des
descartes
desimal
desnoes
deso
destinieshan
destiny
det
detlev
detwach
devanagari
development
dezat
dezignieshan
dezigniet
di
diabetes
dialects
dibiet
dictionaries
dictionary
did
dide
die
dieda
diego
dieli
dielijumieka
dienish
dienja
dier
dierfuo
dierfuor
dieri
diet
dieta
dietin
dievid
diez
difain
difen
difens
differences
difiit
difikolt
difikolti
difinishan
difisit
difrah
difrahn
difran
difrans
difrant
difrenshal
difrent
difrentdifrent
digital
digrii
dih
diikan
diil
diin
diip
diiyti
dijisel
dijit
dijital
diklain
diklarieshan
diklier
dikriis
dikshineri
diktieta
diktietaship
dilibaret
dilisa
diliva
dilivri
dimaan
dimakrasi
dimakratik
dimenshan
dimenshanal
dimentia
dimokratik
dina
dinaminieshan
dinar
dinuot
dio
dion
dipaacha
dipaatment
dipazit
dipen
dipendansi
dipendant
dipik
dipikshan
diplomatic
diplumasi
diplumat
diplumatik
dipluumasi
dipraiv
dipreshan
diraiv
direkli
direkshan
direkta
dis
disaada
disabiliti
disaid
disaipl
disapier
disaster
disaya
disbiliiv
dischaaj
dischibyuushan
dischokshan
dischrai
dischribiut
dischribiutiv
dischribyuushan
dischrik
dischrokshan
discover
discovery
discrimination
disease
disemba
diseminieshan
diseminiet
disen
disendant
disent
dish
disijan
disiplin
diskagrafi
diskos
diskoshan
diskova
diskovri
diskraib
diskriit
diskriminieshan
diskripshan
diskuos
disnchri
dispait
displie
dispyuut
distans
distant
distingguish
distingguishi
distingk
distingshan
disya
ditek
ditekshan
ditiel
ditoermin
divaid
divaidop
divain
divais
divelop
divelopin
divelopment
divijan
divilop
divine
diviniti
divuot
diyiti
dizain
dizaya
dizigniet
diziiz
dizoert
dj
dm
dna
do
dob
dobl
doch
dochi
doctrine
documents
doglas
dolni
domestik
domestikieshan
domestikietid
domien
dominggo
don
donald
dong
dongplie
dongtong
dos
dou
douglas
dout
dowizim
dr
draama
drama
dramolett
dream
du
due
duero
dunant
duo
duom
duona
during
dwaaf
dwiin
dying
dynasty
dysentery
dyuuti
e
earliest
early
earth
east
eastburn
eastern
eastwood
eba
ebi
ebm
ebmli
ebn
ebri
ebribadi
ebridie
ebriting
eccles
economic
economy
ed
eda
edga
edgar
edibl
ediek
edikieshan
edikieshanal
edikiet
edikieta
edikietid
edirne
edishan
edison
edit
edited
edition
editor
editors
edkwaata
edkwaataz
edli
edn
edo
eds
eduad
education
educational
edwad
edward
edwards
edwin
ee
ef
efat
efoert
egzail
egzak
egzakli
egzamin
egzampl
egzekiutiv
egzibit
egzis
egzistans
egzistenshalis
eh
ehn
eida
ein
eines
einfu
einstein
either
ej
eksep
ekspluora
ekuaduor
ekuitebl
el
elda
elenik
elenistik
elimenchri
eliment
elimentdem
eliot
elizabeth
elp
els
elswe
elt
elti
elvis
embaak
embadi
emfasaiz
emfasis
emigrieshan
emigriet
emisfier
emotion
empaiya
empara
empaya
emperor
empire
en
ena
enaji
enchri
encyclopaedia
encyclopedia
encyclopædia
energy
england
english
eni
enias
enibadi
eniting
eniwe
enlaitnment
enop
enri
enta
entapraiz
entatienment
entiti
environment
environmental
eos
ep
epataitis
epik
epos
era
eradem
eral
erediti
eric
erik
erika
eritij
ernest
eroduotos
es
ese
esechra
eskivel
eskobiich
eskuivel
esn
esoteric
espan
espeshal
espeshali
essays
esta
establish
establishment
estate
estetik
estetix
estiet
estimet
estimiet
estimietid
estuonia
et
etanal
etc
ethics
ethnologue
etikal
etimalaji
etix
etnik
etnikali
etnisiti
etymology
eu
euclid
europe
european
euthanasia
eva
evaluushan
events
every
everybody
evidens
evident
evolution
evri
evriting
ex
examita
example
exasaiz
exchienj
exchrak
exchrakshan
exchriim
exchriimli
exep
exepshan
exidos
exiid
exikyuushan
exikyuut
exilens
exilent
existence
exkiep
exkluud
exkluudn
exkluusiv
exodus
expachriet
expan
expanshan
expek
expel
experience
experiment
experimental
expidishan
expiirians
expiiriens
explien
explinieshan
explorieshan
expluor
expluora
expluorieshan
expluosiv
exponenshieshan
expres
expreshan
expression
expuoja
expuot
expuoz
extablish
extablishment
exten
extenshan
extensiv
extensivli
extent
extingk
extingshan
extoernal
eyes
eyre
ez
f
fa
faa
faada
faal
faam
faama
faamakalaji
faamal
faamali
faamasyuutikal
faamat
faambli
faamieshan
faamin
faamiula
faamiuliet
faar
faas
faasn
faatifikieshan
faawod
fab
fact
facto
fado
fagivnis
faib
fail
fain
fainal
fainali
fainis
fait
faitin
faiv
fak
fakchri
fakolti
fakta
fal
fala
falara
falaradem
falarin
falciparum
fall
falmot
false
fambili
fambli
fame
familia
family
famin
fantine
far
farenait
farin
faris
fashin
fashizim
fasiliti
fasilitiet
fasta
fat
fatiig
fax
faya
fayahaam
fe
febiweri
february
fedaral
fedarieshan
feminis
feminism
feminizim
festival
fi
fiar
fiction
fictional
fidem
fieba
fiel
field
fielia
fiem
fiemos
fier
fiernis
fiero
fies
fiet
fievarebl
fiez
fif
fifti
fiftiin
figa
figat
fihn
fii
fiicha
fiid
fiidn
fiih
fiil
fiilin
fiilinz
fiim
fiimiel
fiisiz
fiit
fiitos
fiiva
fijan
fikshan
fikshanal
filament
filasafa
filasafaiz
filasafi
filasafikal
filasifa
filasifi
file
filin
filipiinz
final
finamina
finans
finanshal
finaral
finish
finlan
first
firth
fish
fisikal
fiskal
fiti
fitnis
fiunaral
fiuu
fiuug
five
fiwi
fix
fiyu
fizikal
fiziks
fiziolajikal
fizishan
fizisis
fizix
flag
flai
flait
flarida
flat
flemin
fleming
flesh
flieva
flii
fliit
flim
flimmekin
flod
flodop
florence
florish
flowa
flowaz
fluid
fluo
fluor
fluorbuod
fluu
flynn
foerda
foerdamuo
foerdinan
folk
fon
fondamental
fondamentali
fonetix
fongdieshan
fonggos
fongkshan
fongshan
fongshanal
fonicha
fonz
food
for
fora
force
forda
fordis
foreign
forest
form
forms
fors
fort
fos
fostaim
foster
fotograaf
fotografi
foun
founda
foundation
foundations
foundieshan
foundin
four
frah
frahm
frahn
frai
frakshan
fram
frameless
fran
franc
francis
francisco
frangk
frangka
frank
franklin
frans
franz
fred
frederic
frederick
free
freedom
frejrik
fren
french
freud
fried
friedrich
friem
friemwok
friez
frii
friidam
friidom
friikuensi
friikuent
friikuentli
friimandem
friipuot
friiwie
friiz
fritaz
from
front
fronta
frontier
frs
fruut
ft
fu
ful
fulfil
fuli
full
fulop
fuo
fuok
fuokos
fuomuos
fuon
fuoni
fuoniim
fuos
fuosdem
fuosiz
fuot
fuotan
fuotiin
fut
futbaal
future
fuud
fuuji
fyuil
fyuu
fyuucha
fyuudal
fyuujan
g
ga
gaa
gaadn
gaan
gaana
gad
gades
gaid
gaidans
gaius
galang
games
ganariya
ganja
garden
gardens
gardner
garvey
gaspl
gat
gatfriid
gatik
gaul
gauss
gayana
gdp
ge
geber
geda
geddes
gediz
gender
general
generation
geneva
genghis
gens
georg
george
gerardo
gerila
germanic
germany
gervereau
geschlechterkampf
get
gi
giada
gial
gialari
gialaxi
gialiliyo
giandi
giang
gianja
giarantii
gias
gie
giem
giemz
gien
giet
giita
gil
gilboert
gilt
gilti
gini
girl
girls
gitaar
giwe
gizaada
gje
glaas
glan
gleaner
gliesia
gliina
global
gluob
gluobal
gluobalaiz
gluobalaizieshan
gluobali
go
gobament
goban
gobanin
gobna
god
godel
goethe
golden
golf
gon
good
google
gordon
gormaz
got
gotaama
gov
govament
government
gps
graas
grafik
grajali
grama
grammar
grammy
gran
grandi
grant
grantid
graset
graviti
gravitieshan
gravitieshanal
great
greatest
greek
green
greensleeves
greenwood
gregory
grenidiinz
grid
gried
grien
griep
gries
griet
grieta
grietis
griev
griguorian
grii
griik
griin
griinfiil
griinlan
griis
grinieda
grong
grongwok
grosse
grounz
group
gruo
gruos
gruot
gruoyn
gruup
gruupdem
gruupop
gsm
gu
guaava
guadiluup
guarani
guatimaala
gubak
gud
gudz
guide
gun
guo
guobi
guol
guolin
guot
gurmukhi
guru
guuru
gw
gwaan
gyaad
gyaadian
gyaadn
gyaalik
gyaavi
h
ha
haabit
haaganizim
haal
haalso
haalwiez
haam
haat
haatis
habjek
hachiib
had
hada
hadaels
hadishan
hafrika
hafrikan
hafro
hah
haiku
hailan
hair
hairish
haislan
haislandik
haitem
hakiupai
haktiviti
hakyupai
halbom
half
hall
hamfibian
hammurabi
han
hana
hanaz
hand
handbook
hanggl
hanimal
hans
hap
hapier
hapl
har
harbour
harder
harding
harijin
harijiniet
haro
harold
harper
harrison
hatamik
hatemp
hatlantik
have
hawaii
hax
haxalarieshan
hayan
haz
hazel
he
health
heart
heather
heavy
hebri
heg
hegel
hegzampl
heinrich
hej
heliment
hempaya
hen
henaji
heni
henri
henry
hepik
hera
herbert
heritage
heroes
herzegovina
hexchienj
hexplien
hexpres
hexten
hextent
hextoernal
hi
hiejiatik
hienshent
hier
hiet
higgs
high
hihn
hiijip
hiikual
hiis
hiistan
hiizi
hilekchik
hilekchikal
hilekchomagnetik
hill
hills
him
himij
himpiirial
himpruuv
himpuotieshan
hina
hindia
hindian
hindikiet
hindu
hinduism
hindus
hinfluens
hingglant
hingglish
hingkluud
hingkluudn
hingkriis
hinkluudn
hinlaitnment
hintanashinal
hintarakshan
hintasekshan
hintoernal
hinvalv
hinvenshan
hinvied
hip
his
histoire
historia
historian
historical
historically
history
hit
hitali
hitalian
hiv
hizrelait
hobson
hochzeitsmahl
hoerli
hoerlia
hoerlies
hoert
hofishal
homo
honggl
honour
honourable
hop
hopewell
hopkins
horace
horli
hort
hour
house
household
how
howa
hpv
hrung
html
http
https
huang
hugh
hughes
human
humanities
hunt
huol
huolis
hush
hɑ
i
ia
iab
ian
iast
iat
iazwel
ibaada
ibigin
ibn
icc
ide
ideas
identity
idifain
idishan
idivelopment
idon
ie
iebl
iebriam
iebriamik
ied
iegzamin
ieh
iej
ieja
iejan
iejensi
iejent
iejiz
iek
ieka
iem
ienchent
ienshent
iepril
ier
ierdem
ieria
ierin
ieriya
ierkraaf
ierlain
ierpuot
ierz
iet
ieti
ietiyis
ietiyizim
ievieshan
iez
iezha
if
ifaam
ifek
ifektiv
ifishensi
ifishent
ifos
iget
igien
ignarant
igor
igruo
iguaana
igz
ih
ihingkluud
ihm
ihn
ihself
ii
iibm
iibn
iibruu
iich
iida
iidonizim
iii
iijip
iijipshan
iikanami
iikanamik
iikanamiks
iikual
iilin
iiliom
iiliosenchrizim
iimiel
iin
iina
iip
iira
iiro
iiroz
iis
iistan
iiswud
iit
iitop
iityuopia
iityuopian
iivl
iivn
iizi
ijipshan
ikaal
ikaaz
ikalaji
ikaman
ikanami
ikanamik
ikanamikali
ikanamis
ikanamix
ikanek
ikanimi
ikansida
ikansis
ikantien
ikiah
ikiapital
ikiba
iklips
ikom
ikosistim
ikova
ikualiti
ikuipment
ikuivalent
ikwiejan
ikwieta
ikwivalent
il
ilebm
ilek
ilekchanik
ilekchik
ilekchikal
ilekchomagnetik
ilekchomagnetizim
ilekchran
ilekchranik
ilekchranix
ilekchrik
ilekchrikal
ilekchriksiti
ilekchrixiti
ilekchromagnetik
ilekchuod
ilekshan
iliad
iliit
iliptikal
ilis
ilizibet
illustrated
ilnis
ilokiet
iloschrieshan
iloschriet
iluujan
ilyich
im
imaatal
images
imaita
imajin
imajineri
imajinieshan
imansipieshan
imeja
imekop
imemba
imentien
imf
imidiet
imigrieshan
imiin
imij
imijin
imishan
imit
imoerj
imoerjensi
imoerjin
impak
imperium
impierment
impiirial
impiirialis
impiirializim
impirikal
implai
implaiment
impliment
impres
impreshan
impriznment
impruuv
impruuvment
impuot
impuotans
impuotant
impuotid
impuoz
imself
imuo
imuos
imuoshan
imuoshanal
imyuun
in
ina
inaa
inaagianik
inaagiuriet
inabit
inabitant
inadikuet
inans
inasent
inauguracion
inc
inchadokshan
inchajuus
inchres
indencha
independent
index
india
indian
indians
indies
indii
indiiz
indijinos
indikiet
indipendans
indipendant
indipendantli
indipendens
indipendent
indivijal
indivijual
indiz
indo
indoniija
indoschri
indoschrial
indoschrialaizieshan
inducted
induizim
indus
industry
induu
ine
inequality
inerit
ineritans
inexpensiv
infaamal
infamieshan
infanchri
infant
infek
infekshan
infekshos
infinet
inflek
inflieshan
influens
influenshal
influenza
influwens
information
infrachokcha
infrachokcharal
infrared
infuos
infuosment
ingglan
ingglish
ingiej
ingk
ingkaapariet
ingkluoz
ingkluud
ingkluudn
ingkom
ingkompas
ingkorij
ingkriis
ingkriisinli
ingkuizishan
ingkwairi
ingriidient
inhabitants
iniebl
iniem
inifektiv
inikualiti
inishal
inishali
inishiet
inishitiv
injai
injaiment
injin
injinier
injinierin
injri
injuus
inkiandesent
inkluud
inkluudn
inkom
inkompas
inkorij
inkriis
inlaitn
inlaitnment
inlan
inlis
inna
inner
ino
inof
inovieshan
insaida
insaiklopidia
insanity
inschok
inschrokshan
inschrument
inschument
insek
inshuor
insis
insiulin
inskripshan
insliev
insofishant
inspaya
instans
insted
institut
institute
instityuushan
instityuut
intagobamental
intaikl
intanashinal
intanashinali
intanet
intarak
intarakshan
intasex
intavyuu
intelijens
intelijent
inten
intens
intenshan
intenshanal
intensiti
intent
interest
international
interview
intestin
intiga
intigral
intigrieshan
intigrietid
intiiria
intilekchal
intilekchual
into
intoernal
intoerprit
intoerpritieshan
intopritieshan
intornal
introduction
invairament
invairamental
invairamentalis
invairamentalizim
invairanment
invait
invalv
invalvment
invenshan
invent
inventa
invesment
investa
investigieshan
investigiet
invied
inviejan
ip
ipa
ipac
ipcc
ipiik
ipisl
iplie
iprage
ipred
irak
iran
iranian
irashanal
irefa
irek
iriliet
iron
is
isaab
isaac
isasi
isbn
ischri
ischriagrafi
iself
isenshal
ishetdong
ishier
ishiu
ishu
isla
islam
islamic
island
islands
ismos
ispaniuola
ispanyuola
iss
issue
issues
istanbul
istarik
istarikal
istarikali
istuorian
it
itaat
itali
italian
italik
itek
itipikali
itla
iton
itornal
its
iv
ivalv
ivanjelikal
ivenchali
ivenchual
ivent
iventdem
ivoluushan
ivuok
iweh
iwehna
iwena
iwona
iwuda
iwuona
iyuujali
iyuuz
izabela
izlam
izlamik
izrel
j
ja
jaagrafi
jaagrafik
jaagrafikal
jaagrafikali
jaahra
jaaj
jaajian
jaalaji
jaalajikal
jaaloji
jaamechri
jaamechrik
jaamichri
jab
jackie
jackson
jacques
jah
jahra
jain
jainizim
jainop
jaint
jak
jamaica
jamaican
james
jamieka
jamiekan
jamin
jan
janet
jangkro
jani
janiweri
jansn
january
japan
japanese
japaniiz
jaz
jazz
jdf
jean
jenaral
jenariet
jenda
jenisis
jenital
jenkins
jersey
jesus
jet
jews
jibralta
jiego
jiemz
jiin
jiinos
jiinz
jiizas
jimi
jimmy
jinaral
jinaralaiz
jinarali
jinarieshan
jinariet
jinarieta
jinetik
jinetix
jingk
jingkin
jingx
jiniiva
jinja
jiotoermal
jis
jkf
jlp
jm
joan
joerk
joerman
joermani
joermanik
joernal
joernalis
joerni
jogz
johann
john
johnny
johns
johnson
joj
jojment
jones
jongshan
jorman
jormani
jormanik
jos
jose
joseph
jostifai
jostis
journal
joxtapuoz
jpg
jr
jraa
jraaf
jraama
jraayn
jrai
jraib
jraibin
jramatik
jrap
jrapout
jred
jres
jrien
jrif
jriim
jrog
jstor
juan
judisheri
julai
julius
july
jumieka
jumiekan
jumiekandem
june
junior
junius
juonz
juozif
jurisdikshan
jurispruudens
justice
juu
juudem
juudizam
juudizim
juudizm
juul
juulian
juulios
juun
juunia
juupita
juurin
juus
juuti
juuwish
juwish
jyuova
k
ka
kaa
kaaban
kaadiovaskiula
kaaf
kaafi
kaago
kaakasos
kaal
kaali
kaamdong
kaamii
kaan
kaana
kaanwal
kaaparieshan
kaaparietiv
kaapret
kaas
kaaven
kaaz
kaaza
kach
kagnishan
kagnitiv
kai
kain
kaina
kaiza
kakpit
kaktiel
kalalu
kalanaiz
kalanaizieshan
kalani
kalanidem
kalanis
kalanisdem
kalaps
kalara
kalek
kalekshan
kalektiv
kalektiviti
kalektivli
kalifet
kalij
kalom
kamakura
kaman
kamanli
kamanwelt
kambinieshan
kamedi
kamemariet
kamik
kamiunikieshan
kamiunis
kamiuniti
kamiunizam
kamoershal
kampitensi
kampitishan
kamplex
kampliment
kampozishan
kampriensiv
kamyuunian
kamyuuniti
kanagawa
kanchibiut
kanchibyuushan
kanchos
kanchosnis
kanchovoershal
kanchraas
kanchrak
kanchribiut
kanchribyuushan
kanchribyuut
kanchruol
kanchuol
kandem
kandens
kandishan
kandok
kandokta
kanek
kanekop
kanekshan
kanfedarieshan
kanfes
kanflik
kanfoerm
kanfrontieshan
kanfyuujan
kanfyuushanizim
kanfyuushos
kanfyuuz
kang
kanggo
kanggres
kanggrigieshan
kangka
kangkluud
kangkluujan
kangkues
kangkuistaduor
kangkwes
kangres
kanjongshan
kansavieshan
kanschok
kanschokshan
kanschrient
kanschrok
kanschrokshan
kansenchrieshan
kansensos
kansent
kansep
kansepshan
kanshans
kansida
kansidarieshan
kansikuens
kansis
kansistent
kansistentli
kansiuuma
kansoern
kansoernin
kansoert
kansoervativ
kansomshan
kanstabileri
kanstant
kanstantain
kanstantinuopl
kanstityuensi
kanstityuent
kanstityuushan
kanstityuushanal
kanstityuut
kansyuum
kansyuuma
kant
kantak
kantaminiet
kantempareri
kantemporeri
kantenda
kantenshan
kantent
kantes
kantex
kantien
kantiena
kantigyuos
kantinent
kantinental
kantinet
kantiniu
kantinyu
kantinyuiti
kantinyuos
kantruol
kanvenshan
kanvenshanal
kanvik
kanvoert
kapa
kapi
kaptik
karal
karier
karispan
karispandans
karispandin
karl
kartenhaus
kas
kasaava
kasta
kastyuum
kata
katalan
kathmandu
kaxuon
kaya
kazaxtan
kazmalaji
kazmopalitan
ke
kech
kechop
kelso
kemikal
kemischri
kenia
kennedy
kepla
kevin
key
kg
khaldu
khaldun
khan
khwa
ki
kia
kiabij
kiabinet
kiachrin
kiah
kiahn
kiakl
kiaklik
kiaklikizim
kialenda
kialinda
kialkiuliet
kialkiulieta
kialkiulos
kiamara
kiambl
kiamp
kiampien
kianabis
kianada
kianal
kianan
kiandi
kiandidet
kiangkro
kianiedian
kiansa
kiapasita
kiapasiti
kiapcha
kiapita
kiapital
kiapitalis
kiapitalizam
kiapitalizim
kiapo
kiaptin
kiarakta
kiaraktaraiz
kiaraktaristik
kiari
kiaria
kiarib
kiaribiyan
kiarier
kiarikom
kiarikta
kiasiino
kiastiil
kiat
kiata
kiatalag
kiatalis
kiatalisis
kiatigaraiz
kiatigari
kiatiijral
kiatikizim
kiba
kidni
kie
kiebl
kiek
kiekos
kieman
kiembrij
kien
kiepebiliti
kiepebl
kier
kiergistan
kieri
kies
kieta
kiev
kii
kiibuod
kil
kilaaf
kilamiita
kilamita
kilin
killer
killing
kilogram
kilomita
kim
kimikal
kimis
kimischri
kin
kind
kindom
kinetik
king
kingdam
kingdom
kingston
kinimatix
kinston
kip
kipa
kirche
kits
kiubik
kiyiv
klaak
klaas
klaaz
klaimit
klak
klamidia
klan
klaptan
klarindan
klasifai
klasifikieshan
klasik
klasikal
klie
kliem
klier
klif
kliin
klinikal
kliopachra
klob
kloud
kluodin
kluos
kluosli
kluoz
km
knowledge
known
ko
koaparieshan
koernel
koertis
koerv
koh
kojo
kola
kolad
koladem
kolcha
kolchadem
kolcharal
kolchral
kolineri
kolombia
kolombian
kolombos
kolonaiz
kolonaizieshan
koloni
kolorektal
kolt
koltivieshan
koltiviet
koluonial
kom
komaan
komaanda
kombain
kombat
kombinieshan
kombolo
komboshan
kombout
komiin
komin
komishan
komit
komiti
komitii
komiunian
komiunikieshan
komiunikiet
komiuniti
komoershal
komoershalaiz
komoros
kompak
kompas
kompier
kompiit
kompini
kompiutieshan
komplex
komplexiti
komplien
kompliit
kompliitli
komplikieshan
kompni
kompolshan
kompoun
kompozishan
kompraiz
kompuonent
kompuoz
kompuoza
kompyuuta
kompyuutin
komyuunian
komyuuniti
komyuuta
komz
konchri
konchridem
kong
kongsl
kop
kopl
koran
koransi
korant
korantli
korent
kori
koria
korian
korikiulom
kostam
kostamaz
kostom
kot
kotin
kou
koufut
kount
kounti
kova
kozn
kraaf
kraas
krai
kraim
krais
kraisis
kraitiiria
kramwel
kranalajikal
kranik
kranikl
krap
kredit
kriegl
krieshan
kriet
krieta
krietiv
kriim
krikit
krimi
kriminal
kriol
kris
krisent
krishna
krismos
kristal
kristalain
kristian
kristianiti
kristifa
kristiyan
kristiyaniti
kritiik
kritik
kritikal
kritikdem
kritisaiz
kritisizim
krixtifa
kros
kroun
kruomosuom
kruoyesha
kruu
kruushal
kruuz
kryuol
kualifai
kualiti
kuantiti
kuantom
kuari
kuda
kudn
kuestian
kuik
kuiktaim
kuiziin
kuk
kukin
kum
kumop
kumout
kuo
kuod
kuodifai
kuoknat
kuoko
kuol
kuoma
kuop
kuor
kuos
kuoslain
kuostal
kuot
kuovali
kurpfalz
kurzprosa
kuwiet
kwaadinet
kwaadiniet
kwaak
kwaaparieshan
kwaashi
kwaata
kwait
kwantom
kwiin
kwik
kyaa
kyaad
kyaah
kyaahn
kyaarat
kyahn
kyaklik
kyampien
kyan
kyapcha
kyapital
kyaptin
kyari
kyaribiyan
kyash
kyuor
kyuuba
l
la
laa
laad
laaj
laaja
laajis
laan
laanch
laanin
laas
laava
laaya
lab
labour
labrichri
labsta
laga
laibiiria
laibnits
laibri
laif
laifstail
laiftaim
laik
laikli
laimstuon
lain
lainop
laisn
lait
laita
laitous
laiv
laivstak
lajik
lajikal
lajishan
lajistix
lak
laka
lakdong
lam
lamp
lan
landan
landem
lanfaam
lang
langga
langgis
langgwij
langka
langsaid
langsaida
langtaim
language
languages
languij
languijdem
langwij
lanlain
lanlak
lanmas
lanskiep
lao
laozi
larans
larry
las
lasco
last
lat
lata
later
latin
latn
latvia
laurent
laus
law
laws
lax
layabiliti
le
lebanan
lebl
lee
lef
lefi
lefout
left
legacy
legal
legend
legisi
lego
leibniz
leif
lejin
lejisliecha
lejislieta
lejislietiv
lekcha
lenin
lent
lenti
leo
leonard
leonardo
les
lesa
leslie
lesn
let
leta
letaz
levant
levl
levy
lewis
lgbt
li
lib
libaral
libaralizim
libarieshan
libati
libm
libn
library
lichicha
lie
lieba
liebesgedichte
liebl
liek
lien
liet
lieta
lietaraan
lietli
lieya
life
lifop
liganii
light
liguanea
lii
liid
liida
liidadem
liidaship
liidn
liif
liig
liigal
liigali
liigalizieshan
liigalizim
liip
liita
liiva
liiwad
lik
like
likl
liklmuos
likuid
likwid
lime
limit
limited
limitid
limon
lincoln
lindo
line
linggua
lingguis
lingguistik
lingguistix
lingk
linguistic
linguistics
linia
linstid
lionaado
lirix
lis
lisn
lissabon
list
lit
litaji
litarali
litarari
litareri
literary
literature
little
lituyenia
liv
liva
live
livin
living
livinstan
lizad
lizban
lle
lloyd
lob
locke
logzimboerg
loire
lokieshan
lokiet
lokono
lomba
london
long
lord
los
lou
loud
louda
louis
louise
love
ltd
luciana
luk
luo
luod
luokal
luokali
luokiet
luon
luonwod
luowa
luu
luuk
luus
luusha
luusi
luusli
luuwi
luuz
luwiiz
luwis
lyuon
m
ma
maaakit
maabl
maach
maafalaji
maafiim
maagan
maak
maaka
maaket
maakin
maakit
maakitin
maako
maakos
maalan
maali
maaman
maamanizam
maanin
maarz
maashal
maasn
maasta
maastapiis
maatiniik
maatn
maax
maaxis
maaxizim
mab
macedon
machior
machte
machyuoriti
macmillan
mad
mada
madagiaska
madan
madanizim
madhyamaka
madison
madoern
madorn
maestre
magaziin
magazine
magl
maglin
magnetik
magnityuud
maha
mahayaana
mahayana
mahtah
mai
maiden
maigrieshan
maigriet
maikal
maiko
maikro
maikrowiev
maikruob
mail
main
maina
mainariti
mainin
mainos
maita
majariti
majik
major
majrid
makdanal
making
mal
male
malieja
malieria
malikyuul
malta
mamal
mammals
man
manaak
manaaki
manak
manaki
manako
manapoli
manchesta
manchester
mandarin
mandela
mandem
mandiet
mandivl
manggo
manggol
mangguolia
mangguolian
mangkala
mangkl
manifakchara
manifakchrin
manifes
manij
manija
manijment
manipiulieshan
manipiuliet
manita
maniteri
maniufakcharin
maniumental
maniuskrip
mankain
manley
manli
mans
mansarat
manshan
manteca
mantigo
mao
map
maplandia
marako
maral
maraya
march
marcus
margaret
mari
maria
marid
marie
mariino
mario
maritaim
mariwaana
mark
marley
maroons
marson
martin
maruun
maruundem
marx
mary
mas
masakraa
mashalaa
mashiin
mashiinri
masiduonia
masiv
masjid
mask
maskita
masko
maskou
mass
mata
matamatikal
matamatishan
matamatix
mataz
material
mathematica
matheus
matiirial
matiirialis
matimatikal
matimatishan
matimatix
mats
matter
mauer
mavis
max
maximaiz
maximom
may
mayami
mays
me
meaning
mechiz
mechopalitan
mechrik
mechropalitan
medal
medalis
media
medical
medicine
mediina
medikal
medikieshan
medisn
meditarienian
meditation
meditieshan
meditiet
meja
mejament
mek
meka
mekatelyu
meki
mekin
mekop
mekout
melanuoma
mellitus
melodi
memba
membadem
membaship
memory
memphis
memri
memuorial
men
mendeleev
menshan
mental
mentien
mentieni
mento
merika
merit
merriam
mesopotiemia
metabalik
metad
metadalaji
metafizikal
metafizix
metal
metathronos
metod
metodis
mexiko
mi
miami
mianmaa
michael
mid
middle
midia
midian
midiival
midiom
mie
mieja
miel
mien
mienlan
mienli
mienschriim
mientenans
mieri
migl
miglsex
miguel
miidia
miidiom
miil
miin
miinin
miinz
miit
miita
miitn
mikelanjelo
mikianikal
mikianix
mikianizim
mil
milan
mileniom
miles
milian
milichri
milisha
militchri
militeri
milk
milki
miller
million
mimuorial
mina
minaral
mind
minder
mine
minischri
minista
minit
mis
misa
mishan
mishineri
mishineridem
misn
miss
mit
mitalaji
mittelalter
miunisipaliti
mix
mixcha
ml
mo
mobail
moch
modern
moerchandaiz
moerchant
moerda
moerj
moerja
moerka
moerkan
moerkiuri
molduova
molekiula
molti
moltipl
moltiplai
moltiplikieshan
moltiseliula
moment
momentom
mona
monde
monggol
mongx
moni
monotiyistik
monotiyizim
mont
monte
montenegro
montreal
montsoreau
moral
moraliti
morant
morchant
morddeich
mordecai
more
morgan
morkan
morris
mos
mosgriev
mosi
mosl
most
mota
mother
motivieshan
motiviet
moto
moun
mount
mountn
mountndem
mout
movement
mozart
mozlim
mp
mu
muamid
muh
muhammad
muo
muobail
muod
muoment
muona
muonin
muor
muos
muoshan
muosli
muostaim
muotaim
muoto
muoziz
muqaddimah
muriel
museum
music
muud
muugal
muun
muuv
muuvebl
muuvi
muuvin
muuvment
muzlim
my
mystery
myuuchal
myuuchual
myuusik
myuuzik
myuuzikal
myuuziom
myuuzishan
n
na
naa
naadan
naaja
naam
naamal
naamali
naaman
naas
naat
naatiis
naatiistan
naatsi
naatwes
naav
naaval
naawie
naawiijan
nachral
nachrali
nachralis
nadan
nadoern
nagarjuna
nagorno
naida
naif
naija
naijiiria
nail
nailo
naim
nain
naint
naintiint
nait
nalij
name
named
naminal
nan
nanfikshan
nani
nanny
nanomiita
napuolian
nar
narain
nariet
narieta
naritiv
naro
naruhito
nasa
nasaa
nash
nashinal
nashinalizim
nastisizim
nat
nati
nation
national
nationalism
nations
native
nato
natsi
natural
naturalis
nature
navigieshan
navl
navldem
navlis
nayagra
nazaret
nd
ne
neba
neda
nedalan
nedalanz
negitiv
negro
neh
nehn
nehna
neighborhood
nelsn
nelson
nepal
nephew
neptyuun
nesiseri
nesta
net
netbaal
netwoerk
netwok
neva
new
news
newton
nex
ng
niam
niamin
nib
nicht
nichts
nicolaus
niebarin
niecha
niekid
niel
nieli
niem
niemdem
niemli
nier
nieshan
nieshandem
nieshanz
nietib
nietiv
nietzsche
nig
night
nightingale
nigoshieshan
nigril
niid
niivis
nikaragua
nikniem
nio
niolitik
niuu
niyilizim
nj
nnchensache
no
nobadi
nobel
noel
noervos
nof
nofis
noftaim
nomba
nombaz
nomo
non
nondiles
nong
nontaal
norman
north
norval
not
notn
notorious
nou
noun
nouveau
nov
novemba
november
now
nowadays
nowadiez
nowe
nueva
nuevo
nuit
number
nuo
nuobel
nuobl
nuon
nuoshan
nuot
nuotebl
nuotis
nuotobl
nuova
nuoz
nurse
nuwo
nyuu
nyuuchral
nyuuchran
nyuuchrient
nyuuchriino
nyuuchrishan
nyuukiasl
nyuuklian
nyuuklier
nyuukliik
nyuuklios
nyuumaral
nyuumuonia
nyuutan
nyuutn
nyuutuonian
nyuuz
nyuuzpiepa
o
ob
obeah
obi
obia
obiisiti
obisiti
obl
observer
obzorv
oceanic
october
oder
oecd
oed
oerb
oerbal
oerban
oerj
oerli
oern
oerpiiz
oert
oertkwiek
oerzigoviina
of
ofens
off
office
official
ofishal
ofishali
oh
ois
okiejan
okiejanal
okor
okorin
okro
old
olimpik
olimpix
oliver
olokaas
olsa
oltimet
oltimetli
om
omega
omit
omoch
omosexyualiti
on
once
one
onggari
onggl
onggri
ongl
onjrid
online
only
ont
ontalaji
ontario
onzbie
oo
op
opa
opec
opgried
opinian
opm
opn
opraizin
optel
opuonent
opuoz
opuozin
or
order
org
organisation
organization
orientieshan
origin
original
origins
orijinal
orijiniet
orikien
orlando
orleans
orli
orlies
oro
ort
os
osborne
osha
osma
ostionaid
otaman
otel
other
ou
oueba
oul
our
ous
ousomeba
ousuol
out
outa
outbriek
outkom
outlaa
outnomba
output
outsaid
outsaida
ouz
ouzin
over
ow
oxford
ozban
p
pa
paadna
paadnaship
paak
paakinsn
paakinsuonizim
paal
paalimenchri
paaliment
paam
paarat
paas
paasaan
paashal
paashali
paasn
paat
paati
paatikl
paatli
pablo
pachiz
pachri
page
pages
pah
pahn
pain
paint
paip
pairet
pak
pakij
pakistan
palaava
palgrave
palimat
palis
palisi
palisiedoz
palitikal
palitikali
palitishan
palitix
paluushan
pamela
pan
panama
panamaa
pandemik
pangkrias
pani
panil
panish
panishdem
pantiyizim
pap
papa
papers
papila
papilariti
papilieshan
papilos
papiula
papiularaiz
papiulieshan
papyula
papyulieshan
paragwai
paralel
parasait
parasitik
paris
parish
parishdem
park
parrot
part
party
pasebl
pashan
pasibiliti
pasibl
pasiero
pasifik
pasinja
pasiv
paskal
pasobl
past
pat
patan
patent
pati
patisipant
patisipieshan
patisipiet
patisn
patois
patrick
patwa
paul
pavati
pawa
pax
payanier
pazitiv
pbs
pc
pd
pe
peace
pedro
pelican
pempem
pen
penalti
penguin
peninsiula
peninsula
penjulom
penn
pennsylvania
penslvienia
pentikastal
people
pepa
per
peri
perish
perry
persnal
person
perspective
perspectives
peru
peruu
pet
peter
petersburg
petit
petroleum
pferd
ph
philadelphia
philip
philosophical
philosophy
phonemic
pi
pianis
piano
pich
picha
pichruoliom
pie
piechran
piechriaak
piechriatizim
piej
piel
pien
pient
pienta
pientin
piepa
piepal
pier
pierans
pierre
pieschri
pieshent
pieta
piev
pig
pigfut
piik
piikin
piipl
piipldem
piiplz
piiriad
piiriadik
piiriadizieshan
piiriyad
piis
piita
piiz
pijin
pik
pikni
pilgrimz
pillars
pimenta
pimento
pinyin
pioneer
pior
piramid
piriad
pirichual
pirichualiti
pirit
pisifik
pisin
pit
pitieto
pitishan
pitni
pitnidem
piubati
plaa
plaah
plaant
plaanta
plaantadem
place
plan
planin
planit
planiteri
plant
plantadem
plantieshan
plasmodium
plastik
plat
platuo
plaza
plazma
please
pleja
plie
plieg
plien
plierait
plies
pliet
plieto
plieya
plieyn
plimot
plinta
plom
plos
pluural
pluuto
pm
png
pnp
po
poblik
poblikieshan
poblish
poblisha
poblishin
poe
poer
poerchis
poerfek
poerjan
poermanent
poerpos
poersn
poersnal
poersyuu
poetry
pofaam
pofaama
pofaamans
pofaamin
poincare
point
pokomienia
pokoshan
policy
poliis
poliisin
political
politics
politikal
pols
pomp
pon
ponch
pong
pongkin
ponishebl
ponishment
popular
population
por
porjan
port
portland
portrait
porzhan
posent
posentij
posepshan
posiiv
pospektiv
potato
potenshal
potential
potienin
potikiula
pottery
pouda
powa
powaful
pozes
pozeshan
pozishan
pozishanin
pp
prababiliti
prablem
prabli
praca
practice
practices
pradiji
prafit
praid
praim
praimeri
praimerili
praimri
prais
praivit
praivitier
praiz
prajek
praktikal
praktis
praktishana
praminant
praminent
prapa
prapagianda
prapali
prapati
praps
prases
pratistant
pravins
praximiti
praya
prayariti
pred
predout
prefa
pregnansi
prejudice
prejudis
prentice
prentisship
pres
present
presha
president
presley
press
prevalent
prevention
prezans
prezant
prezavieshan
prezens
prezent
prezident
prezli
pri
priambl
pridaminant
pridik
pridikshan
pridisesa
priez
prignansi
prii
priich
priicha
priifix
priipie
priis
priischri
priistarik
priivios
priiviosli
priivos
priivosli
primary
primier
prince
princeton
princhipiya
principia
pring
prins
prinsipal
prinsipl
print
printin
priparieshan
pripier
prisiid
prisipitieshan
priti
privalens
privenshan
privent
priyischri
prizaab
prizent
prizident
prizn
prizna
problems
processes
prodok
prodokshan
prodoktiviti
products
proenza
profesa
profeshanal
profeshanalaiz
professors
profoun
program
proibit
project
projek
projuus
projuusa
projuusin
prokliem
prolang
promuot
pronongx
pronongxieshan
pronunciation
propuonent
propuoshan
propuoz
prosha
prosiid
prosiija
protek
protekshan
protektiv
protes
proto
provaid
provaida
providence
providencia
provijan
pruogram
pruogres
pruonoun
pruoses
pruosesin
pruotan
pruotes
pruotiin
pruotis
pruoto
pruoz
pruuf
pruuv
psychology
pu
public
publica
publications
published
publishers
publishing
pudong
punjab
punjabi
puo
puochret
puoichri
puoim
puok
puol
puolan
puolish
puolo
puop
puor
puos
puosha
puoshan
puosmadan
puosmadanizim
puosta
puostal
puot
puotebl
puotigal
puotigiis
puotigiiz
puotlan
puoto
puotsmot
puoychri
puoym
puoymdem
puoyt
pupaa
puppen
pus
push
put
puti
puul
px
pyfrom
pyongyang
pythogaras
pyuor
pyuupl
pyuuriti
q
qin
quarrie
quarterly
queen
quote
qur
r
ra
raa
raaf
raayal
rabat
raboert
rad
radikal
rafael
rai
raichos
raichuu
raim
raimin
rain
rais
rait
raita
raitdong
raitin
raitn
raitndem
raits
raival
raiz
raizin
raja
rak
raki
rakit
rakstedi
rakstuon
ralf
rali
ralph
rami
random
rang
rangk
rangkin
ranglin
rangx
ranked
rap
rapa
rapid
rapin
ras
rashanal
rasta
rastafaarian
rastafarai
rastaman
ratifai
ray
raya
rayal
rayalti
rayas
raymond
rayos
rd
re
reader
reagan
real
rebl
rechrik
rechtsfa
recipes
recorded
red
reda
redi
redieshan
ref
refa
refamieshan
reference
refers
reflections
refrans
refrens
rege
reggae
regiula
regiulieshan
regiuliet
regiulietari
regla
reid
reine
rejects
rejiment
rejista
rekaad
rekaadid
rekaadin
rekagnaiz
rekanaiz
rekanishan
relations
relative
religion
religions
religious
relitiv
relitiviti
relitivli
relivans
relivant
rem
renalz
renasaans
rendishan
rene
renesans
renewable
renminbi
repitieshan
report
reptail
repu
res
research
residence
restarant
restarieshan
retrieved
rev
revaluushan
revaluushanaiz
revaluushaneri
revealed
revelation
reverse
review
revilieshan
revinyuu
revolutionary
reynolds
rez
rezaluushan
rezanans
rezarek
rezidens
rezident
rhino
rhynchopsitta
ri
riak
riakshan
riakta
rialiti
rib
riba
ribelian
ribeliyan
ribil
rica
rice
rich
richad
richard
riches
richriiv
richual
ridemshan
ridim
ridmik
ridokshan
rie
ried
riedaar
riedian
riediant
riedio
riedioaktiv
riediokaaban
riel
rielwie
rien
rienj
riep
rier
rierli
ries
rieshal
riesho
riesizim
riet
rietin
rietinz
riez
riezop
rifa
rifaam
rifaama
rifain
riflek
right
rights
rigyaad
rigyaadin
rigyaadlis
riich
riid
riida
riif
riijan
riijanal
riika
riiko
riil
riilaiz
riili
riilizieshan
riilizim
riilli
riiniem
riisant
riisantli
riisent
riizn
rijek
rijekshan
rijid
rijmount
rijuus
rikaad
rikaadid
rikaadin
rikaadn
rikomen
rikount
rikova
rikovri
rikrieshan
rikuaya
rikuayament
rikues
rikwaya
ril
rilai
rilaps
rilie
rilieshan
rilieshanship
rilieshanshipdem
riliet
rilietid
riliis
rilijan
rilijos
rimembrans
rimien
rimienz
rimuot
rimuuv
ring
rinoun
rio
ripiit
riplies
ripliesi
ripliesment
ripoblik
ripoblikan
riprizent
riprizentieshan
riprizentitiv
riprodokshan
riprodoktiv
riprojuus
ripuot
ripuota
risaach
risaacha
rischrik
rischrikshan
rise
risepshan
risiiv
risiivin
rispan
rispans
rispansibiliti
rispek
rispektivli
ristorieshan
ristuor
rita
ritoern
riva
rivaival
rivaluushineri
river
rivier
riviil
rivoers
rivuolt
rivyuu
riwaadin
rix
rizaat
rizaid
rizain
rizembl
rizis
rizistans
rizmi
rizoerv
rizolt
rizuos
rizyuum
rna
ro
roba
robert
robin
robinet
robinson
rocha
rock
rofli
rogbi
roger
rogers
roland
roll
rolling
rom
roman
romans
romanum
ron
ronald
rondong
rong
ronin
ronwe
ronwie
room
roots
rosha
roshan
rotiet
rouge
roun
routledge
rowe
roy
royal
ruanda
rumi
ruod
ruodwie
ruodz
ruol
ruolin
ruom
ruoman
ruomandem
ruomans
ruomantik
ruomantisizim
ruos
ruoz
russian
ruul
ruula
ruulaship
ruuldem
ruulin
ruum
ruural
ruut
s
sa
saab
saaba
saabant
saabis
saach
saadi
saafwier
saal
saalfish
saalt
saamz
sabat
sachiz
sage
sah
sahib
sai
said
saida
saikalaji
saikalajikal
saikalajis
saikl
sail
sain
saint
saipros
sairos
sait
saiyans
saiyantifik
saiyantis
saiz
saizmik
sakrament
sakratiiz
sakratik
sakrifais
sakriment
salid
salt
saluushan
salv
salvador
salvaduor
salvieshan
salzborg
sam
samyuel
san
sanders
sang
sangchueri
sangshan
sangsta
sangster
sanit
saniti
sanitieshan
sanskrit
santa
santiago
santo
santyaago
sao
sapiens
sar
sasayatal
sasayati
satilait
satisfai
savrin
savrinti
savwa
saxon
sayabiin
sayans
sayantifik
sayantis
schneider
scholars
school
schraik
schraip
schraiv
schratiijik
schravinski
schreckens
schres
schrien
schriet
schriit
schrik
schrikli
schrogl
schrokcha
schrokcharal
schruok
schuu
schuudent
schuudentdem
schwarze
science
sciences
scientific
scott
scratch
se
sea
seacole
sean
search
sebm
sebmtiint
sebn
sebral
second
security
sed
see
sefaadi
seh
sekan
sekanderi
sekiula
sekl
sekla
seklment
sekriteri
sekshan
sekta
sel
sela
seldem
self
selibrieshan
selibriet
seliula
selsios
semi
semikandokta
sen
senchral
senchri
senet
senit
sens
sensitiv
sensitiviti
sensos
sensri
sent
senta
sentadem
sentans
sentiment
sentimiita
separieshan
separiet
sepret
septemba
september
series
serimoni
servants
service
set
setn
setop
seven
seventh
sex
sexism
sexist
sexizim
sexual
sexyual
sexyuali
sfier
shaap
shaare
shaat
shaatli
shaatud
shain
shak
shakuor
shalo
shalom
sharan
shat
shearer
sheda
sheet
sheila
shel
sherif
sherlock
shi
shiekspier
shiep
shier
shiera
shif
shinto
ship
shipin
shivarin
shokl
short
show
shub
shuda
shudn
shuga
shuo
shuopah
shuor
shuutin
si
siaga
sibl
siblaizieshan
siblizieshan
sidela
sidni
sieb
siebia
sief
siefiti
sieh
siehtaim
siek
sieka
siekrid
siel
siem
siempre
sient
siera
sierra
sifilis
signal
signifai
signifikans
signifikant
signifikantli
siguovia
sii
siid
siij
siik
siikizim
siiko
siikrit
siikuens
siikuol
siil
siim
siin
siinri
siipuot
siirial
siiriz
siiros
siit
siiza
siizn
siiznin
sik
sikhism
sikhs
sikioriti
siknis
silasi
silek
silekshan
silestial
silibl
silibriet
silikan
silinda
silva
silver
sima
simbal
simfani
simichri
simila
similariti
simit
simitik
simon
simone
simpl
simpli
simplifai
simpson
simsn
simtam
simtom
simtomdem
sin
sing
singa
singgapuor
singgl
singh
singin
singkuma
singl
singraita
sinigag
sinima
sinjruom
sino
sins
sint
sintetik
sinting
sintisis
sinuo
siol
siprage
sir
siramik
siria
sista
sistim
sistimatik
siti
sitidem
sitieshan
sitiet
sitizn
sitiznship
sitn
situation
sivier
sivierli
sivik
sivil
sivilaiz
sivilaizieshan
sivilian
sivilizieshan
sivl
six
sixt
sixtiin
sk
skai
skala
skalali
skalaship
skat
skatish
skatlan
skech
skejuul
skelian
skeptisizim
skia
skiel
skiim
skil
skin
skizim
skolpcha
skolpta
skr
skriin
skriinin
skrip
skripcha
skuash
skuata
skuop
skuor
skuorsiesi
skuosha
skuul
skuuldem
skwier
slaitli
slang
slave
slavery
slavik
slieb
sliebri
sliev
slievdem
slievri
sliip
slovakia
sloviinia
sluo
smaal
smaalpax
smadi
smith
smithsonian
smogl
so
sob
sobatamik
sobchakshan
sobdivaidop
sobdivijan
sobjek
sobjik
sobkantinent
sobkolcha
sobmariin
soboerban
sobsikuent
sobsikwent
sobskripshan
sobstans
sobstanshal
sobstanshali
soch
social
society
sociology
sodan
sodn
sodorn
soerbia
soerfis
soerjri
soerkit
soerkiula
soerkiuliet
soerkl
soerkomstans
soertn
soertnti
soervant
soervie
sofa
sofarin
sofishant
sofistikietid
sofrij
soh
sohn
sohtaim
sojes
sokses
soksesa
soksesful
soksesfuli
sokseshan
soksiid
solfa
som
soma
somaraiz
some
something
somtaim
somwe
son
song
songs
sophocles
soplai
sopliment
sopres
sopreshan
sopuot
sorenda
sorfis
sori
soria
sorka
sorong
soroun
sortn
sorvis
sosaiyati
sosayati
sospek
sostien
sostienebl
sotel
sou
soul
souls
soun
source
sources
sout
south
soutiis
soutwes
sovaiv
sovaival
sowa
soxesa
soxesful
soy
spairal
spais
spaita
span
spanish
spansa
spantienosli
speaking
special
spekchrom
spel
spen
spenin
speshal
speshalaiz
speshalti
spien
spies
spiesflait
spieskraaf
spiich
spiid
spiik
spiika
spiikin
spiishi
spiishiz
spinuoza
spisifik
spisifikali
split
spred
spring
springer
sprinta
spuot
spuots
sq
square
sri
ssr
st
staachi
staaf
staam
staar
staardem
staarin
staat
staatin
staatsschuld
stabiliti
stachiu
stage
stail
stak
stakuom
stalin
stamp
stan
standad
standard
stanford
star
state
states
statiu
staub
steda
stedi
steel
steffens
steit
stela
stem
step
stephen
sti
stiebl
stiediom
stiej
stiek
stieshan
stiet
stietdem
stietment
stietos
stiets
stietsman
stiil
stiim
stiivn
stiivnz
stil
stiles
stimiulos
stodi
stoerlin
stone
stony
stop
story
stravinsky
stuart
student
students
studies
study
stuon
stuor
stuov
styuat
styuudent
styuujo
su
subdivided
such
sudan
suez
suimz
suing
suisaid
suitsalan
suleiman
sumaal
sumaala
sumaalis
sumadi
sumail
summer
sumuok
suo
suod
suoja
suojadem
suol
suola
suolja
suolo
suonaar
suos
suoshal
suoshali
suoshalis
suoshalizam
suosialaji
suosialajis
suosio
suoso
suoviet
superior
supiiria
supported
supriim
supuot
supuotin
supuoz
surinam
susan
suudoischri
suun
suup
suupapowa
suut
suutebl
swayili
swiidish
swiidn
swiit
swiitdem
swing
syntax
syrian
system
syuupanachral
syuupavaiz
t
ta
taagit
taak
taakin
taat
taatin
taatuola
tai
taikl
tailan
taim
taimz
taino
taip
taipei
taiping
taiwan
taiz
tajikistan
taki
talarans
tale
tamas
tambrik
tamsn
tan
tanak
tandad
tanzania
tap
tapa
tapalaji
tapalajikal
tapanaaris
tapik
taranto
tarif
tarnovo
tatix
taumelt
tax
taxieshan
taxiz
taylor
tchaikovsky
te
tea
teacher
teachers
teaching
teau
techrapad
tek
teknalaji
teknalajikal
tekniik
teknikal
tekop
tekuoba
tekwe
tel
television
telifuon
telikomiunikieshan
teliskuop
telivijan
tell
tempa
tempareri
tempicha
templ
ten
tendansi
tenshan
tent
tera
terapi
terichri
terichridem
terien
teritori
terituorial
terms
terra
terry
tes
tesin
tesla
test
testament
testiment
tex
texbuk
texcha
texchal
texchual
texdem
text
textail
textbook
textbooks
texts
th
that
the
their
them
then
theory
there
they
third
this
tho
thomas
thompson
those
though
thought
three
through
thumb
thumbnail
tialaji
tibetan
tide
tiebl
tiek
tiekin
tiel
tiela
tiep
ties
tieta
tigeda
tii
tiich
tiicha
tiichi
tiichin
tiif
tiim
tiimatik
tiiretikal
tiiri
tik
til
tim
time
times
tin
ting
tingk
tingka
tingkin
tingz
tinsn
tiolajikal
tioluojan
tiorem
tioretikal
tiori
tioris
tip
tipikal
tipikali
tireschrial
tiroi
tishu
tivoli
tiyalaji
tiyizim
tiyori
to
toch
tod
today
todi
toerbain
toerd
toerki
toerkish
toerkl
toerm
toermal
toermdem
toerminal
toerminalaji
toermz
toernin
toertiin
toertiint
toerx
tof
tok
tolimi
tolimiek
tom
tomoch
tomok
ton
tong
toni
top
tord
toricheli
torkelt
torki
torm
toronto
totenmelodie
totenquintett
totentraum
toti
totiin
toun
tour
touzn
towa
towards
town
trade
tradition
traditional
traditions
transatlantic
trayomviret
tree
trevor
triitment
true
trust
tu
tubako
tubiego
tuelb
tuenti
tugeda
tugiada
tui
tuo
tuokio
tuon
tuor
tuora
tuori
tuoridem
tuoris
tuoritelin
tuorizim
tuotal
tupla
tuu
tuul
tuuris
tuurizam
tuusididiiz
tuwaad
tuwaadz
tuwadz
tv
twelb
twenti
twentiet
two
type
tyuub
tyuuma
tyuuring
tyuutadem
u
ud
uda
udn
uhuru
uk
uman
umandem
umgekehrt
umoch
umuch
un
una
und
under
understanding
unesco
unia
union
united
universal
university
unu
uo
uoal
uoba
uobachuo
uobasii
uobasiiz
uochi
uol
uola
uoldin
uoli
uolies
uoliip
uolinis
uolis
uolnis
uom
uoma
uon
uona
uonaship
uonian
uop
uopi
uoral
uorient
uos
uoshan
uoshania
uoshanik
uots
uova
uovalap
up
upanis
upanishad
upanishads
upright
ursula
us
usa
usain
use
used
ush
usually
uu
uufa
uwi
v
va
vaayj
vaibrieshan
vaikin
vailens
vairal
vairos
vais
vaital
vajrayaana
vakiom
vakyuom
vali
valid
valiebl
valiu
valiuntier
vallenato
valparaiyso
valyuu
valyuum
vamitin
van
varayati
various
vatikan
vaxiin
vaxinieshan
vaya
vayaliet
vayij
ve
veda
vedik
vega
vegas
vejitebl
vekta
velasiti
veliko
velmans
venables
venablz
venizuela
venyuu
veri
very
vesl
vi
via
vicente
victims
vidio
viega
vien
viena
viepa
vieri
vieriant
vieriebl
vierieshan
vierios
vieriosli
vietnam
view
vii
viikl
viinos
vijan
vijual
vikchri
viktim
vilem
vilij
villa
villar
vinchi
vinci
viniga
vinsn
virgil
virgin
virtual
vishi
visibl
visit
viskyuos
vizebl
vizit
vladimir
voerb
voerbal
voerchual
voerjan
voerjil
voerjin
voerjinia
voers
voertex
voertibret
voilens
voilent
vokiabileri
vol
volcha
volga
volkianik
volkieno
volume
von
vorbereitung
vorjan
vorjin
vorzhan
vou
vs
vuokal
vuot
vyuu
vyuupaint
w
wa
waa
waah
waahn
waak
waal
waalta
waan
waar
waarfier
waarin
waat
waata
waatari
wach
waga
wagna
wah
wahn
waid
waida
waidli
waidpred
waif
wail
wailer
wailers
wails
wain
waip
wait
waiza
wald
wall
walsh
walter
wamek
wan
wana
wananeda
wanda
wandem
waneda
wans
wansataim
wanself
want
wantaim
war
waria
warsaa
was
wash
washington
washintan
washn
wat
waters
way
waya
wayales
wayne
we
web
websait
website
webster
weda
wedn
weh
wehn
wehna
weihnachtsgedichte
weihnachtsmann
wel
welfier
well
welsh
welt
wen
wena
weneba
weni
wentaim
wepaat
wepan
were
wes
wesmolan
west
westan
western
westmoreland
wet
what
wheat
when
where
which
white
whitney
whn
who
wi
wich
wid
widi
widin
widout
widoutn
widoutni
wie
wiehert
wiek
wiela
wielaz
wielin
wier
wies
wiet
wiev
wievlent
wiik
wiikn
wiil
wiit
wiki
wikid
wikidnis
wikimedia
wikipedia
wiknis
wil
wiley
wilhelm
wiliam
wiliamz
william
williams
wilsn
wilson
win
wina
windalco
wing
winstan
winston
wint
winta
winter
winwad
wireless
wit
with
witjraa
witnis
wizdam
wizdom
wod
woddem
woerk
woerl
woership
wohn
wok
woka
wokdem
wokin
wol
wolfgang
wolvyuu
wolwaid
woman
women
wonderful
woodard
word
words
wori
workers
works
workshop
worl
world
worldcat
worlds
worship
wos
wosa
wosara
woship
wot
writers
wto
wud
wuda
wuol
wuola
wuoliip
wuona
wuun
wuundid
www
x
xaymaca
xi
xvi
y
ya
yaad
yaak
yaav
yai
yaidem
yale
yam
year
years
yela
yellow
yelo
yeria
yet
yier
yiil
yk
yon
yong
yongga
yonggis
york
you
young
your
youth
ys
yu
yuan
yugianda
yugoslavia
yuka
yunait
yunaitid
yunian
yunifai
yuniversiti
yunivoers
yunivoersal
yunivoersiti
yuoga
yurop
yuropian
yuropiyan
yuropiyandem
yurugwai
yuself
yusien
yutilaiz
yutiliti
yuu
yuujal
yuujali
yuukiaryuotik
yuuklidiyan
yuukrien
yuula
yuuman
yuumaniti
yuumanitiz
yuumanizim
yuumankain
yuuna
yuunait
yuunaitid
yuunian
yuunifaam
yuunifai
yuuniik
yuuniseliula
yuunit
yuuniti
yuunivoers
yuunivors
yuunivorsiti
yuural
yuurieja
yuuro
yuurop
yuuropian
yuuropiyan
yuus
yuusfi
yuusful
yuusij
yuustieshos
yuut
yuutiliti
yuuz
yuuza
yuuzin
z
zalta
zammarchi
zayan
zea
zeit
zen
zheng
zigi
ziilant
ziiro
zimbabue
ziro
zoo
zoroaschrian
zoroaschrianizim
zoroastrianism
zuon
zur
zuulaji
{
|
}
~
£
¥
°
²
´
·
¼
×
÷
ǂ
ǃ
ɑ
ə
ʰ
ʱ
ʲ
ʷ
ʻ
ʼ
ʾ
ʿ
ˈ
ː
ːˈ
̀
́
̂
̃
̄
̆
̇
̈
̊
̌
̓
̔
̣
̧
̨
̩
̪
̯
͂
ͅ
͜
α
β
ε
η
θ
ι
λ
λο
λογι
μ
ν
ο
οι
π
ρ
ς
στορι
υ
φ
χ
ω
к
ְ
ֲ
ִ
ֵ
ַ
ָ
ֹ
ּ
ה
י
ך
ם
מ
נ
ס
ף
ר
ת
ا
الله
ب
بن
بهاي
بو
ت
د
ر
ع
عبد
ل
محمد
ن
ه
و
ي
َ
ُ
ِ
ّ
ْ
ٓ
ٔ
ٕ
ی
ं
क
ग
ज
ण
त
थ
द
ध
न
म
य
र
ल
व
ष
स
ह
ा
ि
ी
ृ
े
ै
ौ
्
ং
ব
ল
া
ਖ
ਗ
ਜ
ਥ
ਪ
ਬ
ਰ
ਸ
ਹ
ਾ
ਿ
ੀ
ੁ
ੂ
੍
ੰ
ੱ
ં
ગ
દ
ધ
પ
બ
મ
સ
ા
ી
ુ
ો
‌
‎
–
—
―
‘
’
“
”
„
…
′
″
⁄
€
℔
↔
↷
−
√
∞
③
④
⑦
☉
☾
☿
♀
♂
♄
♆
♇
⛢
⯓
ⴰ
ⴱ
ⵉ
ⵍ
ⵎ
ⵔ
ⵖ
⺀
⺄
⺆
⺈
⺊
⺌
⺕
⺝
⺸
⺼
⿰
⿱
⿲
⿳
⿴
⿵
⿶
⿷
⿸
⿹
⿺
⿻
。
〢
゙
ク
コ
タ
ト
モ
ユ
ワ
ン
ー
㇁
㇂
㇄
㇇
㇈
㇉
㇓
㐁
㐄
㐅
㐌
㐫
㐬
㐭
㐮
㐱
㑒
㒵
㒸
㒼
㓁
㓞
㔾
㕛
㕣
㖾
㘝
㚅
㚇
㚔
㚘
㝉
㝡
㝴
㝵
㞋
㞢
㞷
㠩
㠭
㠯
㡀
㡭
㡿
㢲
㢴
㣇
㣺
㥯
㪅
㫄
㫐
㫒
㫺
㬅
㬎
㬥
㬰
㲋
㳄
㷠
㸒
㸚
㸦
㼌
㼲
㽞
㿟
䀠
䂞
䍃
䏍
䒑
䖍
䖒
䖝
䖵
䙴
䚻
䜌
䝿
䡛
䧹
䪞
一
丁
丂
七
丄
丅
丆
万
丈
三
上
下
丌
不
与
丏
丐
丑
专
且
丕
世
丘
丙
业
东
丞
丢
丣
两
严
並
丨
丩
个
丫
丬
中
丮
丰
丱
串
丵
丶
丷
丸
丹
为
主
丽
丿
乀
乂
乃
久
乆
乇
么
义
之
乌
乍
乎
乏
乐
乑
乔
乖
乗
乘
乙
乚
乛
乜
九
乞
也
习
乡
乳
乾
亀
亅
了
亇
予
争
事
二
亍
于
亏
亐
云
互
亓
五
井
亘
亚
亜
亞
亟
亠
亡
亢
交
亥
亦
产
亨
亩
享
京
亭
亮
亯
亰
亲
亳
亶
亷
人
亻
亼
亾
仁
今
介
仌
从
仐
仑
仒
仓
仕
他
付
仝
代
令
以
任
企
伊
伏
伐
休
会
伯
但
位
何
佘
余
作
佥
使
來
侈
侌
侖
侯
侵
便
保
俞
信
修
俳
倉
倍
候
倠
備
僉
僕
儿
兀
允
兂
元
兄
充
兆
兇
先
光
兊
克
兌
免
兑
兒
兓
兔
党
兜
兟
入
全
兩
兪
八
公
六
兮
兰
共
关
兵
其
具
典
兹
兼
冀
冂
冃
冄
内
円
冈
冉
冊
冋
册
再
冎
冏
冐
冒
冓
冖
冗
冘
军
农
冝
冡
冥
冫
冬
冷
几
凡
凢
凵
凶
凷
凸
凹
出
函
凾
刀
刁
刂
刃
刄
刅
分
切
刍
刑
刕
刖
列
刘
则
初
別
利
别
到
制
刺
則
削
剌
前
剡
剽
劉
力
功
加
劦
动
助
劫
劳
劵
勃
勇
勉
勒
動
務
勞
勤
勹
勺
勻
勾
勿
匀
匂
包
匆
匈
匊
匋
匍
匕
化
北
匚
匝
匡
匪
匱
匸
匹
区
医
匽
匿
區
十
卂
千
卄
卅
卆
升
午
卉
半
卌
华
卑
卒
卓
单
卖
南
卜
卝
卞
占
卡
卢
卣
卤
卦
卩
卪
卬
卯
印
危
即
却
卵
卷
卸
卻
厂
厃
厄
历
厈
厉
厌
厓
厘
厚
原
厤
厥
厨
厭
厲
厶
厷
厸
去
厼
厽
叀
参
參
叅
又
叉
及
友
双
反
叐
发
叒
叔
叕
取
受
叚
叜
叟
口
古
句
另
叩
只
召
可
台
叱
史
右
叵
号
司
叹
吂
各
吅
合
吉
吊
吋
同
名
后
吏
向
吕
君
吝
吞
否
含
启
吳
吴
吹
吾
呂
呆
呈
告
员
呙
周
命
咅
和
咎
咠
咢
咨
咸
咼
哀
品
哉
員
哥
哲
唐
商
啇
問
啚
啬
啻
善
喜
喬
單
喿
嗇
噩
嚴
囊
囗
囘
囙
囚
四
回
囟
因
囧
囬
困
囱
囷
固
国
圂
圅
圆
國
圍
園
圓
土
圡
圣
圥
在
圭
地
圶
圼
坐
坒
坚
坴
垂
垔
垚
埀
埋
埶
執
基
堂
堅
堆
堇
堯
塞
墨
壁
壘
士
壬
壯
声
壳
壴
壹
壺
壽
夂
处
夅
夆
备
夊
夋
夌
复
夏
夒
夕
外
夗
夘
多
夜
夢
大
夨
天
太
夫
夬
夭
央
失
夲
头
夷
夸
夹
夻
夾
奂
奄
奇
奈
奉
奎
奏
奐
契
奓
奔
奚
奞
奠
奢
奥
奭
女
奴
奻
好
如
妄
妙
妟
妥
妻
妾
姑
委
姜
威
娄
婁
婴
嬰
嬴
子
孑
孔
孕
孖
字
存
孚
孛
孝
孟
季
孤
学
孫
孱
學
宀
宁
宂
它
宅
宇
守
安
宋
完
宏
宓
宗
官
定
宛
宜
宝
客
宣
室
宮
宰
害
家
容
宾
宿
寄
寅
密
富
寒
察
寧
審
寫
寬
寮
寶
寸
对
寺
寻
寽
対
寿
封
尃
射
将
將
專
尉
尊
尋
尌
對
小
少
尒
尓
尔
尖
尗
尚
尞
尢
尣
尤
尧
尨
尭
就
尸
尹
尺
尻
尼
尽
尾
尿
局
居
屈
屋
屎
屏
屑
展
屖
屚
属
屠
屡
屬
屮
屯
屰
山
屵
屾
岁
岂
岑
岡
岩
岳
岸
峯
島
崇
崑
崔
崖
崙
崩
嵬
嶲
巂
巛
川
州
巟
巠
巢
巤
工
左
巧
巨
巩
巫
差
己
已
巳
巴
巷
巸
巽
巾
巿
帀
币
市
布
希
帚
帛
帝
带
師
席
帶
常
幣
干
平
年
幵
并
幷
幸
幺
幻
幼
幽
幾
广
広
庄
床
底
店
庚
府
度
庫
庭
庶
康
庸
廉
廌
廛
廣
廩
廴
延
廷
建
廾
廿
开
弁
弃
弄
弇
弋
式
弓
弔
引
弗
弘
弜
弟
弥
弦
弱
張
強
强
彊
彌
彎
彐
彑
当
彔
录
彖
彗
彡
形
彥
彦
彧
彭
彳
役
彼
往
待
律
徒
得
徙
從
復
微
徵
心
忄
必
忌
忍
志
忝
忠
忩
快
念
忽
忿
思
怠
急
怱
恆
恒
恩
恭
息
悉
患
悤
悲
悶
惠
惡
惢
愁
愈
意
愛
感
慈
慧
慮
憂
憲
應
戀
戈
戉
戊
戋
戌
戍
戎
成
我
戒
戔
或
戚
戠
戢
截
戲
戶
户
戹
戼
戾
房
所
扁
扇
手
扌
才
打
托
执
承
折
拉
拜
拿
掌
推
提
摩
支
攴
攵
收
攸
改
放
政
敄
敏
敕
敖
敗
敝
敞
敢
散
敦
敫
敬
数
敷
數
斂
文
斉
斊
斎
斗
斤
斥
斩
斬
斯
新
方
於
施
斿
旁
旋
族
无
旡
既
旣
日
旦
旧
旨
早
旬
旱
旲
时
旾
昆
昇
昌
昍
明
昏
易
昔
昗
昜
星
春
昬
是
昱
昴
昷
時
晃
晋
晏
普
景
晶
智
暑
暴
曇
曩
曰
曲
曳
更
曷
書
曹
曼
曾
替
最
朁
會
月
有
朋
服
朔
朕
朗
望
朝
木
朩
未
末
本
札
朮
术
朱
朵
朶
朿
杀
杏
杜
束
条
来
東
杲
杳
松
析
林
枚
果
枝
枲
枼
某
柔
查
柬
柰
柴
栗
桀
桑
桼
梁
條
梟
梨
棘
棠
棥
森
楚
業
楽
榮
樂
樊
欠
次
欣
欮
欲
欶
欽
款
歆
歇
歛
止
正
此
步
武
歨
歪
歮
歯
歰
歲
歴
歷
歸
歹
歺
死
殳
段
殷
殸
殹
殺
殻
殿
毋
毌
母
每
毒
比
毕
毚
毛
毳
氏
氐
民
气
氣
水
氵
氶
氷
永
氺
氾
求
汉
汝
汞
江
沃
沓
沙
沝
河
泉
法
波
泣
泥
泰
泽
洋
洛
津
洪
活
派
流
浦
浪
浮
淡
淮
清
渚
渠
港
湯
滿
漢
漸
澤
火
灬
灭
灰
灵
灷
炅
炎
炏
炗
炙
炭
為
烈
烏
烝
焉
無
焦
焱
然
煞
熊
熏
燕
營
燮
爪
爫
爭
爯
爰
爱
爲
爵
父
爻
爽
爾
爿
片
牙
牚
牛
牜
牟
牢
牧
牪
特
牽
犀
犬
犭
犮
狂
狄
狊
独
狺
猋
猒
猪
献
獻
玄
率
玉
王
玟
玨
珎
班
現
琴
瑟
瑩
瓜
瓦
甘
甚
生
産
用
甫
甬
田
由
甲
申
电
甶
男
甸
甹
画
甾
畀
界
畏
畐
留
畜
畟
畢
畧
畨
番
畫
異
畱
當
畺
畾
疊
疋
疌
疑
疒
疾
癶
癸
癹
登
發
白
百
皀
皃
的
皆
皇
皋
皐
皕
皮
皷
皿
盃
盆
盇
盈
益
盍
盎
监
盒
盖
盛
盡
監
盤
盧
目
直
相
盾
省
眇
眉
看
眔
眞
真
眷
眼
眾
着
睘
睪
睿
瞏
瞢
瞿
矍
矛
矞
矢
矣
知
矦
短
石
破
碎
磊
磨
示
礻
礼
神
祟
票
祭
禀
禁
禪
禸
禹
禺
离
禽
禾
禿
秀
秃
秉
秋
科
秝
秦
移
稟
穀
穌
穴
究
穹
空
穿
突
窄
窒
立
竒
竜
竝
竟
章
童
竹
笑
笠
筆
等
答
箕
算
箴
節
篤
篭
米
类
粉
粛
粟
粤
粦
粲
糞
糸
糹
系
約
納
素
索
紫
累
細
絜
絫
絲
維
綿
縣
繇
纍
纟
缶
网
罒
罔
罕
罗
罙
罡
罢
罪
署
罷
羅
羊
羌
羍
美
羔
羕
羗
羞
羡
羣
群
義
羲
羸
羽
翁
翏
習
翕
翟
翠
翼
老
耂
考
者
耆
而
耎
耑
耒
耳
耴
耶
耷
聂
聊
聖
聚
聶
聿
肀
肃
肅
肉
肖
肙
肥
肩
肯
育
肴
胃
背
胡
胥
能
脊
脩
膚
臣
臤
臧
自
臬
臭
臯
臱
至
致
臺
臼
臽
臾
臿
舀
舂
舄
與
興
舉
舌
舍
舛
舜
舞
舟
般
艮
良
色
艸
艹
艾
芒
芔
芬
芮
花
芳
芺
芻
苔
苗
苟
若
苦
英
茶
茸
荅
草
荒
荣
荼
莆
莧
莫
莽
菆
菊
菐
華
萬
落
葉
著
葛
董
葵
蒙
蒦
蒼
蓋
蓬
蓺
蔑
蔡
蕉
蕭
薄
薛
薦
薰
藍
藏
藥
蘭
虍
虎
虐
虒
虔
處
虖
虗
虘
虚
虛
虜
虞
虫
虽
蚤
蚩
蜀
蜜
蟲
蠡
血
行
衍
衛
衣
衤
表
衮
衰
袁
袞
褭
褱
襄
襾
西
覀
要
覃
見
規
覓
覧
親
覽
见
角
解
言
訁
訇
計
詹
語
誩
諸
讠
诌
语
谷
豆
豈
豊
豐
豕
豖
豙
象
豦
豩
豪
豸
貇
貝
貞
貟
負
貢
貧
貪
貫
責
貳
貴
買
費
賁
資
賈
賏
賓
賔
賛
賞
賢
賣
質
賴
贊
贝
贡
责
贯
贲
贵
赖
赞
赤
赦
走
越
足
路
蹇
身
躬
車
軍
軎
軟
輦
车
辛
辜
辟
辥
辰
辱
農
辵
辶
边
达
过
运
近
连
迷
追
退
送
逆
逐
通
速
造
逢
連
逮
進
遀
遂
運
過
道
達
遣
適
遷
遺
邊
邑
邕
那
邦
邪
郎
郑
部
郭
都
鄉
鄭
酉
酋
配
酓
釆
采
里
重
野
量
金
釒
錢
钅
長
镸
长
門
閃
閉
開
閏
閑
閒
間
閔
閵
閻
闌
门
间
闷
阑
阜
阝
阿
降
陳
隆
隊
隋
隡
隨
隱
隶
隹
隺
隻
隼
隽
难
雀
雁
集
雈
雋
雍
雐
雔
雙
雚
雜
雝
離
難
雨
雩
雪
雲
零
雷
需
霍
霜
霝
霞
霸
靈
靑
青
非
靡
面
靣
革
韋
韦
韭
韯
韱
音
頁
頃
項
須
頗
頡
頻
顛
页
風
风
飛
飞
食
飠
飾
養
饣
首
香
馬
馮
駦
马
骨
高
髟
鬥
鬯
鬲
鬼
魚
魯
鮮
鱼
鲁
鳥
鳳
鸟
鹵
鹿
麃
麗
麥
麦
麻
黃
黄
黍
黎
黑
黒
黨
黹
黽
黾
鼎
鼓
鼠
鼻
齊
齋
齐
齒
齿
龍
龙
龜
龟
龠
龰
龱
龴
龵
龶
龷
龸
龹
者
艹
？
🜨
𠀁
𠀃
𠀆
𠀉
𠀎
𠀐
𠁁
𠁣
𠂆
𠂇
𠂈
𠂉
𠂊
𠂋
𠂎
𠂒
𠂔
𠂛
𠂡
𠂢
𠂤
𠂬
𠂭
𠂹
𠃊
𠃋
𠃌
𠃍
𠃎
𠃑
𠃓
𠃔
𠃜
𠄌
𠄎
𠄠
𠄢
𠆢
𠆥
𠇍
𠈌
𠌵
𠓜
𠔉
𠔥
𠔼
𠔽
𠔿
𠕀
𠕁
𠕋
𠘧
𠘨
𠙻
𠙼
𠚏
𠚒
𠚤
𠚪
𠣏
𠤎
𠤕
𠥓
𠦄
𠦑
𠦝
𠧒
𠧗
𠧪
𠩺
𠪚
𠫓
𠫔
𠫤
𠬛
𠬝
𠬞
𠬢
𠬤
𠬶
𠮛
𠮦
𠮷
𠯑
𠱠
𠳮
𠷎
𡈼
𡉀
𡉵
𡌥
𡍮
𡏳
𡕒
𡕩
𡕰
𡖅
𡗗
𡗜
𡘆
𡘤
𡧱
𡨄
𡩧
𡬠
𡭽
𡰣
𡰥
𡰪
𡰯
𡰱
𡷈
𡸁
𡿨
𡿩
𡿪
𡿺
𢀖
𢀛
𢀩
𢁙
𢆉
𢆰
𢆶
𢇁
𢇇
𢉖
𢌬
𢌿
𢏚
𢑑
𢑚
𢖻
𢙣
𢛳
𢦏
𢦒
𢧵
𢼄
𢾕
𣁋
𣄼
𣅀
𣅽
𣍘
𣎳
𣎵
𣏋
𣏼
𣗥
𣥂
𣥖
𣦵
𣦼
𣧄
𣪊
𣪠
𣬉
𣳾
𣶒
𤇾
𤊽
𤐫
𤓰
𤔔
𤕨
𤣩
𤰇
𤰔
𤰞
𤴓
𤴔
𤽄
𥁑
𥁕
𥃦
𥃩
𥃭
𥇡
𥑟
𥘅
𥘈
𥝢
𥫗
𥱡
𦈢
𦉪
𦉬
𦉼
𦍌
𦍒
𦎧
𦐇
𦓔
𦔮
𦘒
𦙃
𦚏
𦣝
𦣞
𦣻
𦥑
𦥔
𦥯
𦨉
𦭝
𦰩
𧆞
𧈧
𧘇
𧰨
𧴪
𧴮
𧵩
𧾷
𨸏
𨾴
𩙿
𩠐
𩫏
𩵋
𪉷
𪜀
𪟽
𪠲
𪩲
𫇦
𫔭
𫜸
𫝀
𫠣
𫠩
𫢉
𫥞
𫩏
𫩠
𫪡
𫲽
𫶧
𬀷
𬐘
𬗌
𬙙
𬛸
𬜯
𬟩
𬯁
𬴘
𬺻
𬼉
𬼖
𭀰
𭁈
𭁨
𭅰
𭑈
𭕄
𭗼
𭤨
𭥫
𭻾
𮅕
𮊿
𮍌
𮍏
𮓗
𮥼
𮧮
廾
𰀁
𰀄
𰀈
𰀉
𰀕
𰀠
𰀡
𰀢
𰀪
𰁜
𰃮
𰆊
𰆘
𰋙
𰕎
𰢴
𰧭
𰯲
01--
05--
07--
10--
11--
12--
13--
14--
15--
16--
17--
18--
19--
20--
22--
30--
33--
41--
51--
57--
58--
63--
67--
71--
74--
78--
80--
81--
84--
85--
86--
87--
88--
89--
9--
96--
a--
aa--
aabi--
aad--
aag--
aal--
aam--
aas--
aat--
ab--
ac--
ad--
ado--
af--
ag--
ah--
ai--
aijr--
ais--
aiso--
aj--
ak--
aki--
akiu--
al--
algo--
ali--
all--
alo--
altu--
alz--
am--
amba--
an--
ana--
anc--
anda--
ang--
anin--
ans--
ansis--
anti--
anto--
ap--
apro--
ar--
ara--
arc--
ari--
as--
ash--
ast--
at--
att--
au--
aud--
auro--
aus--
av--
avis--
ax--
axi--
ay--
az--
b--
ba--
bai--
bak--
bal--
ban--
bar--
basi--
batt--
bayo--
be--
bed--
bel--
ben--
ber--
bi--
bie--
bin--
biy--
bl--
bo--
boer--
bor--
bot--
bow--
br--
bra--
braa--
bre--
bri--
bro--
bu--
bud--
buli--
buo--
bur--
by--
c--
ca--
cab--
cal--
car--
cari--
cat--
ce--
cer--
ch--
cha--
chanz--
chi--
chr--
chrans--
chranz--
ci--
cla--
co--
cock--
col--
com--
communi--
compo--
con--
coo--
cor--
court--
cra--
cre--
cri--
cru--
cu--
cur--
cyano--
d--
da--
dai--
day--
de--
deb--
ded--
defi--
deg--
deka--
dem--
demak--
des--
desim--
deutsc--
dez--
di--
die--
dif--
dimans--
dis--
div--
diz--
do--
don--
dor--
dr--
du--
dyu--
dyuu--
e--
ed--
edu--
egz--
ek--
eks--
el--
ele--
eli--
eliv--
elp--
em--
emb--
emer--
emi--
emp--
en--
eng--
enva--
ep--
epis--
episte--
epyl--
er--
eri--
ero--
es--
et--
ethno--
eu--
eva--
ex--
ext--
f--
fa--
fan--
far--
fe--
featu--
fer--
fi--
fii--
fil--
fili--
finiis--
fiz--
fl--
fo--
foer--
for--
foto--
fr--
fro--
fu--
fuen--
fuente--
functi--
fut--
g--
ga--
gab--
gad--
gar--
gau--
gay--
ge--
geog--
ger--
gi--
gial--
giascho--
gl--
go--
gol--
gon--
gott--
gov--
gra--
grace--
graju--
gri--
gu--
gya--
h--
ha--
haag--
had--
hai--
hak--
hakt--
hal--
han--
hap--
har--
has--
hay--
he--
hel--
hem--
hemp--
hen--
heni--
her--
hex--
hexp--
hexpii--
hi--
hil--
him--
himaj--
hin--
hind--
hindipen--
histo--
hiz--
ho--
hol--
hon--
hout--
hu--
hur--
hy--
i--
ia--
ic--
idi--
ie--
ies--
iex--
if--
ig--
ih--
ii--
iiko--
ikliiz--
ikom--
ikuiv--
il--
ilek--
ill--
im--
imag--
imi--
imp--
in--
ina--
inch--
indepen--
indi--
inf--
ing--
ingk--
ini--
ins--
inta--
ip--
irvi--
is--
isto--
it--
iv--
iw--
iz--
j--
ja--
jak--
je--
jiruu--
jo--
joh--
jom--
jon--
jr--
ju--
jud--
juo--
k--
ka--
kaa--
kalab--
kalabor--
kam--
kami--
kamp--
kan--
kanfi--
kanse--
kanv--
kar--
kara--
kaz--
ke--
kel--
ken--
ki--
kia--
kiu--
kl--
kla--
kle--
ko--
koer--
kom--
komp--
kot--
kov--
kra--
kri--
ku--
kuu--
kwa--
kya--
kyuu--
l--
la--
laga--
lak--
lan--
lang--
lar--
lau--
law--
le--
len--
lez--
li--
lib--
lii--
lijit--
lin--
lis--
lit--
lo--
lor--
lu--
lud--
m--
ma--
maaj--
mac--
mad--
mag--
magh--
mai--
maikro--
maj--
mak--
mal--
man--
manifak--
maniu--
mar--
mara--
mas--
mat--
max--
maz--
mc--
me--
mel--
mem--
men--
mer--
meri--
mes--
mi--
mic--
mid--
mie--
miin--
mik--
mil--
min--
mis--
mo--
moer--
mono--
mor--
moz--
mu--
mul--
muo--
muotiv--
my--
n--
na--
nan--
nankan--
napo--
nat--
navi--
ne--
neg--
ni--
nie--
nih--
nio--
no--
noer--
nor--
nu--
nyuu--
nyuuro--
o--
ob--
obser--
oc--
oer--
of--
oh--
ol--
om--
on--
ong--
op--
oppo--
or--
os--
ot--
ous--
out--
p--
pa--
pac--
pai--
pal--
pali--
palin--
pan--
papiu--
papu--
para--
pas--
pat--
pe--
peni--
pequ--
per--
pet--
ph--
phil--
pi--
pie--
pig--
pik--
pit--
pl--
plat--
plu--
po--
poer--
por--
pos--
post--
postyuu--
power--
pr--
pra--
prak--
pre--
prepa--
pri--
prisi--
priz--
pro--
prom--
prov--
pruo--
psychi--
pu--
pub--
pul--
puo--
q--
qu--
r--
ra--
rak--
ran--
re--
rec--
reg--
rek--
rem--
ren--
repub--
res--
rho--
ri--
riedyo--
rif--
rii--
ril--
rilo--
rimin--
rin--
rit--
riz--
ro--
rodri--
ru--
ruo--
ruot--
rus--
s--
sa--
sai--
saiko--
sal--
salam--
sc--
se--
secti--
sen--
ser--
ses--
settle--
sfe--
sh--
sha--
she--
shi--
shie--
sho--
si--
sidd--
sii--
sin--
sir--
siu--
siz--
sk--
skel--
sko--
skuul--
so--
sob--
soc--
soer--
sol--
son--
sor--
sox--
sp--
spec--
spek--
spi--
st--
stat--
ste--
stef--
sterio--
sti--
stimiu--
su--
sub--
suic--
sum--
sus--
sut--
sy--
syuupa--
t--
ta--
taim--
tal--
tan--
tap--
tax--
te--
tek--
temp--
ten--
ter--
th--
ti--
tiin--
to--
toers--
tok--
tol--
ton--
tor--
tran--
trans--
transc--
tre--
tru--
tu--
tur--
u--
ud--
un--
universi--
uo--
uoba--
uom--
up--
v--
va--
val--
ve--
ven--
ver--
vi--
vib--
vic--
vik--
vin--
vo--
vol--
w--
wa--
wal--
war--
we--
wel--
west--
wi--
wiki--
wil--
wis--
wish--
wor--
wri--
x--
xi--
y--
ya--
yo--
yu--
yun--
yuu--
z--
zi--
zip--
ɪ--
α--
β--
γ--
δ--
ελλ--
θ--
μ--
ν--
π--
ρ--
τ--
ωμ--
ا--
ال--
المغ--
--0
--1
--2
--3
--4
--5
--6
--7
--8
--9
--91
--a
--aa
--aal
--ach
--ad
--adem
--ado
--ae
--agrafi
--agua
--ah
--ai
--aib
--ail
--aim
--ain
--ait
--aiz
--aizieshan
--aji
--ak
--al
--alaji
--ali
--alis
--aliti
--am
--ama
--amita
--an
--andem
--ans
--ansi
--ant
--ao
--ar
--ari
--ariet
--aros
--ary
--as
--at
--ate
--ati
--atik
--ation
--ativ
--ax
--ay
--az
--b
--ba
--berg
--bi
--bia
--bil
--bl
--ble
--bo
--boerg
--bs
--by
--c
--ca
--cal
--ce
--cent
--ces
--ch
--cha
--chin
--cho
--chri
--chual
--cio
--ck
--cky
--co
--cology
--cs
--ct
--cted
--ction
--culum
--cy
--d
--da
--de
--dem
--di
--did
--die
--dik
--din
--ding
--dit
--dn
--do
--dong
--ds
--dy
--e
--east
--ebl
--ect
--ed
--ee
--ei
--ek
--el
--ela
--ell
--elyan
--em
--en
--ens
--ent
--ents
--er
--eri
--erian
--erk
--ern
--erniti
--ers
--ershal
--ert
--es
--eshan
--est
--et
--eta
--etik
--etiv
--eus
--ever
--ex
--ey
--ez
--f
--fa
--fai
--fi
--fia
--fo
--fod
--ful
--fulnis
--g
--ga
--gal
--gan
--ge
--gen
--ggal
--ggiula
--ggl
--gh
--gi
--gin
--gis
--giula
--gk
--gkl
--gl
--go
--grafi
--gs
--gua
--gx
--gy
--gyula
--h
--ha
--hal
--ham
--han
--her
--hi
--hic
--hiin
--hips
--hn
--ho
--hos
--hout
--hy
--i
--ia
--ial
--ian
--ias
--ibl
--ic
--ica
--ich
--icio
--ick
--ics
--id
--idi
--idli
--ie
--iel
--ies
--ieshan
--iet
--ifai
--ii
--iian
--iik
--iim
--iin
--iiz
--ij
--ik
--ika
--ikal
--ikali
--ikan
--ikl
--iks
--il
--ila
--iliti
--im
--imoni
--in
--ine
--ing
--inger
--ini
--inieshan
--iniet
--inz
--io
--iom
--ion
--ions
--ios
--ip
--ir
--ire
--is
--ise
--ish
--ishan
--ism
--ist
--istik
--istix
--ists
--it
--ita
--ite
--iti
--itib
--itiv
--ity
--iulieshan
--ius
--iv
--ive
--ix
--iya
--iyo
--iz
--iza
--izam
--ization
--izieshan
--izim
--izl
--izm
--izn
--j
--ja
--jek
--ji
--jibl
--jin
--jo
--k
--ka
--kal
--kan
--kanz
--kat
--ke
--ki
--kl
--kli
--ko
--kos
--ks
--l
--la
--lai
--laiz
--laji
--lan
--layin
--ld
--le
--lem
--lens
--ler
--les
--ley
--li
--lice
--lieshan
--lin
--ling
--lip
--lis
--lk
--ll
--lla
--lly
--lo
--logy
--look
--lp
--ls
--lt
--lu
--ly
--lz
--m
--ma
--man
--mbu
--me
--ment
--metli
--mi
--mia
--miet
--mik
--min
--ms
--my
--mz
--n
--na
--nal
--nce
--nch
--ncy
--nd
--ndem
--ne
--ned
--ner
--neri
--nes
--net
--ney
--ng
--ngs
--ni
--nia
--nial
--nik
--nika
--nin
--ning
--nis
--niti
--nizim
--nk
--no
--nos
--nout
--ns
--nsi
--nsl
--nt
--nte
--nteri
--nti
--num
--nus
--nz
--o
--oa
--ob
--obl
--ody
--oerm
--of
--ografi
--oi
--ok
--oksha
--oktiv
--ol
--ola
--ology
--om
--on
--ons
--op
--or
--os
--ot
--ous
--out
--owa
--oz
--p
--pa
--pai
--pe
--pin
--pl
--pn
--po
--ps
--q
--que
--ques
--r
--ra
--raal
--ral
--ralaji
--ran
--rance
--rati
--rbo
--rbs
--rch
--rd
--rds
--re
--rence
--rent
--ret
--rg
--ri
--ria
--rial
--rii
--riin
--rik
--rin
--ris
--rit
--riti
--rity
--rm
--rn
--ro
--rop
--ros
--rs
--rt
--ru
--rv
--ry
--rya
--s
--sa
--sal
--say
--se
--ser
--ses
--sh
--sha
--shan
--shos
--si
--sia
--sis
--siv
--sl
--sn
--so
--son
--ss
--st
--sta
--stain
--stik
--ston
--t
--ta
--tail
--tain
--tal
--tan
--tant
--taret
--tation
--tbi
--te
--tebl
--ted
--ter
--tes
--th
--ti
--tia
--tic
--tical
--tics
--tid
--tie
--tieshan
--tiin
--tij
--tik
--tin
--tine
--tion
--tis
--tiv
--tive
--tives
--tix
--tizim
--tli
--tn
--to
--too
--tos
--tra
--trik
--tro
--try
--ts
--tt
--tte
--ty
--tz
--u
--ua
--ual
--ud
--ue
--uel
--uent
--uer
--ugh
--ul
--ula
--uld
--ult
--um
--un
--uo
--uod
--uot
--ur
--ure
--us
--ut
--ution
--uun
--uus
--ux
--uz
--v
--va
--val
--ve
--vers
--vi
--viet
--vin
--vis
--vn
--vral
--w
--wa
--wad
--wal
--wan
--we
--west
--wie
--wier
--wn
--wok
--wood
--x
--xn
--y
--ya
--yan
--ye
--yebl
--yer
--yn
--yo
--ys
--yual
--yuor
--z
--za
--zakli
--zam
--zi
--zieshan
--zik
--zim
--zl
--zm
--zn
--zo
--ɛ
--ɪ
--ʊ
--α
--ει
--η
--ι
--ν
--ο
--ς
--ا
--ة
--ن
