!
"
#
##0
##1
##10
##11
##12
##13
##14
##15
##16
##17
##18
##19
##2
##20
##21
##22
##23
##24
##25
##26
##27
##28
##29
##3
##30
##31
##32
##33
##34
##35
##36
##37
##38
##39
##4
##40
##41
##42
##43
##44
##45
##46
##47
##48
##49
##5
##50
##51
##52
##53
##54
##55
##56
##57
##58
##59
##6
##60
##61
##62
##63
##64
##65
##66
##67
##68
##69
##7
##70
##71
##72
##73
##74
##75
##76
##77
##78
##79
##8
##80
##81
##82
##83
##84
##85
##86
##87
##88
##89
##9
##90
##91
##92
##93
##94
##95
##96
##97
##98
##99
$
%
&
'
(
)
*
+
,
-
.
/
0
00
000
01
02
03
036
04
05
06
07
08
09
1
10
100
1000
11
110
12
120
123
13
14
15
150
16
17
18
180
19
1960
1970
1980
1982
1983
1984
1985
1986
1987
1988
1989
1990
1991
1992
1993
1994
1995
1996
1997
1998
1999
2
20
200
2000
2001
2002
2003
2004
2005
2006
2007
2008
2009
2010
2011
2012
2013
2014
2015
2016
2017
2018
2019
2020
2021
2022
21
22
23
24
25
250
26
27
28
29
3
30
300
31
32
33
34
35
350
36
37
38
39
4
40
400
41
4163
42
43
44
45
46
47
48
49
5
50
500
51
52
53
54
55
56
57
58
59
6
60
600
61
63
639
64
66
7
70
72
75
8
80
81
82
83
85
87
88
9
90
92
93
95
96
97
978
98
99
:
;
<
=
>
?
@
\
^
_
`
a
aa
abbr
able
about
above
ac
access
according
account
accounts
acre
across
act
action
active
actual
ad
add
addclass
added
adding
addition
additional
address
adds
administration
adv
advanced
af
after
again
against
age
agency
air
airport
al
alias
aliases
align
all
allow
allowed
allows
almost
along
alpha
already
also
alt
alternative
although
always
am
american
among
amount
an
anat
anchor
ancient
and
animal
animals
another
any
anyone
anything
appear
appearance
appears
append
application
applied
apply
appropriate
april
ar
arabic
archive
archived
are
area
areas
arg
args
argument
arguments
around
array
art
article
articles
articleshow
as
asia
ask
associated
association
at
atlas
attempt
attention
attr
august
australia
author
authority
authorlink
authors
auto
automatic
automatically
available
avoid
award
away
b
ba
back
background
bad
banner
bar
barnstar
base
based
basic
bc
be
became
because
become
been
before
begin
beginning
being
belonging
below
best
better
between
beyond
bg
bi
big
birth
bl
black
blank
block
blood
blue
blurb
board
body
bold
bombay
book
books
boolean
border
born
bot
both
bots
bottom
box
boxes
break
bridge
bring
british
browser
browsers
buffer
build
building
business
but
button
by
c
ca
cache
calendar
call
called
can
candidates
cannot
caption
car
care
carry
case
cases
cat
categories
category
cause
cc
cell
cells
census
censusindia
center
central
centre
century
certain
cf
cfg
change
changed
changes
chapter
character
characters
charge
check
chem
chief
child
children
china
chinese
church
circle
cis
citation
citations
cite
city
civil
claim
class
classes
clear
click
climate
climategraphics
close
club
cm
cms
co
code
codes
coins
col
collapsed
collapsible
collection
college
colloq
color
colour
column
columns
com
combination
come
comma
comment
comments
committee
common
commons
communities
community
comp
company
complete
complex
computer
con
concat
condition
conduct
conference
config
configuration
consensus
consider
considered
consisting
consonant
constituency
contain
containing
contains
content
contents
contributions
control
conversion
convert
coordinates
copy
copyright
core
correct
corresponding
cost
could
count
countries
country
course
court
cover
create
created
creating
cricket
cross
cs
css
cubic
culture
cup
current
currently
custom
cut
d
da
data
datavalue
date
dates
day
days
dchb
dd
ddd
de
dead
death
december
decimal
decision
default
defaults
defined
definition
degree
deletion
delhi
delivery
density
department
depending
deprecated
der
described
description
descriptions
design
designation
designed
details
development
df
di
dictionary
did
diff
different
digit
digits
dim
direct
direction
directly
dis
disambiguation
discuss
discussion
disease
disid
display
displayed
displays
district
districts
districtsdetails
div
division
do
doc
document
documentation
does
doesn
doi
doing
domain
don
done
double
down
dr
draw
dst
du
due
during
dvn
e
each
early
earth
easily
east
eastern
easy
economic
ed
edit
edited
edithistory
editing
edition
editor
editors
edits
education
educational
effect
either
el
election
element
elements
elevator
else
elseif
em
empty
en
encyclopedia
end
energy
england
english
ensure
enter
entered
entire
entity
entry
env
environment
equal
equivalent
er
era
err
error
errors
es
esp
especially
established
et
etc
european
even
event
events
every
ex
example
examples
except
exist
existing
exists
expected
experience
express
expression
extended
extension
external
extra
eye
f
fa
face
fact
fair
fall
false
family
far
father
feature
featured
features
february
feedback
feel
feet
female
few
ff
fi
field
fields
fig
file
files
fill
film
films
final
find
fine
fire
first
fit
five
fix
fixed
flag
float
floor
fmt
follow
followed
following
follows
font
fontsize
food
foot
footnotes
for
force
foreign
form
format
formats
formatted
formatting
formed
forms
fort
forth
forward
found
foundation
four
fr
frac
frame
free
freedom
french
from
front
fruit
ft
full
fully
function
functions
further
future
g
ga
gal
game
gen
general
generally
generate
generated
ger
german
get
getargs
getelementbyid
getparent
girls
give
given
gives
giving
global
go
god
going
gold
good
google
got
gov
government
gr
gram
great
greek
green
ground
group
groups
growth
gsub
guide
guidelines
h
ha
had
half
hand
handler
hard
has
have
having
he
head
header
heading
health
heart
height
held
hello
help
hence
her
here
hi
hidden
hide
high
higher
him
hindi
hindu
his
history
hlist
hold
home
hope
horse
hour
house
how
however
htm
html
http
https
human
i
ic
icon
id
idea
ideas
identifier
if
ii
iii
ik
im
image
images
img
importance
important
improve
in
include
included
includes
including
incredibleindia
index
india
indian
indiatimes
indic
individual
industry
info
infobox
information
ing
initial
inline
input
insert
inside
instance
instead
institute
instrument
intended
interest
international
internet
interwiki
into
introduction
invalid
invoke
ip
ipairs
is
isbn
island
iso
issn
issue
issues
ist
it
italic
item
items
its
itself
ity
j
ja
january
japanese
john
join
journal
jpg
js
json
july
june
just
k
ka
keep
key
keyboard
keys
kg
kilojoule
kind
king
kingdom
km
know
knowledge
known
ko
kon
l
la
label
land
lang
language
languages
large
last
lat
late
later
latin
law
lay
layout
lb
le
lead
leading
learn
learning
least
leave
left
legal
len
length
less
let
letter
letters
level
li
library
license
licensed
licensing
life
light
like
limit
limited
line
lines
link
linked
links
list
listed
lists
lit
literature
little
live
living
ll
lo
load
local
location
log
logo
london
long
longer
look
lord
lot
love
low
lower
lt
lua
ly
m
ma
machine
made
magic
maharashtra
mahitgar
main
mainsnak
maintenance
major
make
makes
making
male
man
management
manner
manual
manually
many
map
mapsofindia
marathi
march
margin
mark
marker
markup
mask
mass
master
match
matches
material
math
mathbf
matter
max
may
me
mean
meaning
means
measure
med
media
mediawiki
meet
member
members
men
ment
message
messages
meta
method
metre
mh
mi
mid
middle
might
military
million
min
mind
minister
missing
ml
mm
mo
mobile
mode
modern
module
modules
money
month
months
moon
moral
more
most
mother
motion
move
moved
movement
mr
ms
msg
mt
mu
much
multiple
mumbai
museum
music
must
mw
my
n
na
name
named
names
namespace
namespaces
nation
national
native
natural
nature
navbar
navbox
nd
ne
near
necessary
need
needed
needs
negative
ness
net
never
new
news
newsletter
next
ni
nic
nil
nl
no
nocat
node
non
none
nor
normal
north
northern
not
note
notes
nothing
notice
november
now
ns
nu
null
num
number
numbered
numbers
numeric
o
obj
object
objects
obs
october
of
off
office
official
offset
often
ogg
ok
ol
old
omitted
on
once
one
online
only
op
open
opinion
opposed
opt
option
optional
options
or
order
org
origin
original
os
other
others
otherwise
our
out
output
outside
over
override
own
p
pa
padding
page
pagename
pages
pair
pairs
pakistan
palghar
pan
paper
par
param
parameter
parameters
params
parent
parms
part
partial
particular
parts
party
pass
passed
past
pattern
pay
pdf
pe
penalty
people
per
performance
perhaps
period
person
personal
persons
pertaining
pg
philosophy
photo
php
pi
piece
pipe
pl
place
placed
places
plain
plan
plant
plants
play
player
please
pm
png
point
points
policy
political
poly
pop
population
portal
portion
pos
position
possible
post
power
pp
pr
practice
pre
precision
prefix
preload
present
press
prevent
preview
previous
price
primary
print
private
pro
probably
problem
problems
process
produce
produced
produces
program
progress
project
projects
prop
proper
properly
properties
property
proposal
protected
protection
provide
provided
provides
pt
public
publication
published
publisher
pune
purpose
purposes
put
px
q
qid
quality
question
questions
quote
quotes
r
ra
race
rail
railway
range
rank
rate
rather
raw
rd
re
read
readers
reading
ready
real
reason
reasons
received
recent
recommended
record
red
redirect
redirects
ref
reference
references
regards
region
regular
related
relative
release
relief
religion
religious
remove
removed
render
rendered
replace
replaced
report
republic
request
require
required
requires
research
resources
respect
rest
result
results
ret
retrieved
return
returned
returns
review
ri
right
rights
river
ro
road
roman
room
root
round
row
rows
rs
ru
rule
rules
run
rural
s
sa
sabha
said
same
san
sandbox
sanskrit
save
say
scale
scheme
school
schools
science
scientific
script
se
sea
search
season
second
section
sections
security
see
seen
select
selected
self
semi
sense
sent
sep
separate
separated
separator
september
series
service
services
set
sets
setting
several
shakes
shall
share
she
shift
ship
short
shortcut
should
show
showing
shown
shows
shun
si
sid
side
sidebar
sign
similar
simple
simply
sin
since
single
site
size
sk
skills
skin
small
so
social
society
software
solid
some
something
sometimes
sort
sound
soundfile
source
sources
south
southern
sp
space
spaces
span
special
species
specific
specified
specifies
specify
speech
spirit
split
sq
square
sri
st
stage
stand
standard
star
start
started
state
statement
statements
states
station
status
step
still
stone
stop
story
str
string
strings
strip
strong
structure
students
studies
study
style
styles
sub
subdistrict
subject
subpage
subpages
success
such
suffix
suggested
summary
sun
supplied
support
supported
sure
surname
survey
svg
switch
symbol
symbols
syntax
system
systems
t
ta
tab
table
tables
tag
tags
take
taken
takes
taking
talk
tamil
target
task
td
te
team
technical
technology
template
templates
temple
ten
ter
term
terminus
terms
test
testcases
text
tf
th
than
thane
thanks
that
the
their
them
then
theory
there
therefore
thermal
these
they
thing
things
think
third
this
those
though
thought
three
through
thumb
thus
ti
till
time
times
tion
title
titles
to
toc
today
together
tonumber
too
took
tool
tools
tooltip
top
topic
topics
tostring
total
tourism
towards
tr
tracking
training
translate
translation
translations
translator
travel
tree
trim
true
try
turn
two
type
types
u
uk
un
undefined
under
understand
unicode
union
unit
united
units
university
unknown
unless
unnamed
unreviewed
until
up
update
upload
upon
upper
url
us
usage
use
used
useful
user
username
users
uses
using
ustring
usual
usually
utc
utype
v
va
val
valid
value
values
var
variable
various
ve
version
versions
vertical
very
vi
via
video
vidhan
view
viewed
village
villageinfo
visible
visitor
visual
voiceless
vol
volume
vote
vowel
vs
w
want
war
warning
was
watch
water
way
we
weather
web
website
week
weight
well
were
west
western
what
when
where
whether
which
while
white
who
whole
whose
why
wide
width
wiki
wikibase
wikidata
wikilink
wikimedia
wikipage
wikipedia
wikiproject
wikis
wikisource
wikitext
will
window
windows
wish
with
within
without
wmf
woman
women
won
wood
word
words
work
working
works
world
would
wp
write
writing
written
wrong
www
x
xi
y
year
years
yes
yesno
yet
york
you
young
your
youtube
z
zapotec
zero
zh
{
|
}
~

£
¥
§
©
«
¬
°
±
²
³
µ
·
»
½
×
÷
ø
ɛ
ɤ
ɪ
ɯ
ʷ
ʻ
ʼ
ˀ
ˈ
ː
ˑ
̀
́
̂
̃
̄
̅
̆
̇
̈
̉
̊
̋
̌
̓
̔
̛
̝
̞
̟
̠
̣
̧
̨
̪
̫
̿
͂
ͅ
͡
α
β
γ
δ
ε
η
θ
ι
μ
ο
π
ς
τ
ω
и
о
؟
ا
ب
د
س
م
ن
ه
و
ٓ
ٔ
ں
ی
۔
ܐ
ܕ
ܗ
ܚ
ܝ
ܟ
ܠ
ܢ
ܪ
ܶ
݂
ँ
ं
ः
अ
अक
अकबर
अकर
अकल
अकस
अख
अखत
अग
अगण
अगत
अगद
अगम
अगर
अगस
अघ
अच
अचल
अज
अजम
अजय
अजर
अझ
अट
अटक
अटल
अटळ
अठ
अठर
अड
अडक
अडकल
अडकव
अडचण
अडत
अडथळ
अडव
अढळ
अण
अत
अतर
अथ
अथर
अथव
अद
अदल
अध
अधम
अधर
अन
अनध
अनन
अनप
अनम
अनर
अप
अपक
अपघ
अपत
अपन
अपभ
अपम
अपयश
अपर
अपल
अपव
अपहरण
अफ
अफग
अब
अबद
अभ
अभय
अम
अमक
अमद
अमर
अमल
अय
अयन
अयशस
अर
अरच
अरण
अरब
अरव
अल
अलक
अलग
अलफ
अळ
अव
अवक
अवग
अवगत
अवघ
अवघड
अवच
अवचट
अवज
अवत
अवतरण
अवतरल
अवध
अवन
अवनत
अवम
अवयव
अवर
अवल
अवश
अवस
अवसर
अश
अशक
अशन
अष
अस
असण
असत
असन
असप
असपर
असम
असमर
असल
असह
अह
अहमद
अहमदनगर
अहमदप
अहर
अहल
अहव
आ
आइक
आई
आईच
आईन
आईब
आईल
आईवड
आईस
आक
आकड
आकर
आकलन
आकळ
आकस
आख
आखण
आखल
आग
आगग
आगम
आगमन
आगर
आगरकर
आगळ
आगष
आघ
आघव
आच
आचर
आचरण
आज
आजक
आजच
आजत
आजप
आजपर
आजम
आजवर
आजवरच
आजह
आझ
आट
आटप
आठ
आठव
आठवड
आठवण
आठवत
आठवल
आड
आडन
आडव
आढ
आढळ
आढळण
आढळत
आढळल
आण
आणख
आणण
आणत
आणल
आणव
आत
आतड
आतल
आथ
आद
आदम
आदर
आदरण
आदल
आध
आन
आप
आपआपल
आपच
आपट
आपण
आपणच
आपणह
आपत
आपल
आपस
आफ
आब
आभ
आम
आमच
आमट
आमद
आय
आयएमड
आयक
आयकर
आयट
आयड
आयत
आयन
आयप
आयर
आयल
आयस
आर
आरक
आरड
आरत
आरप
आरब
आरम
आरश
आरस
आल
आळ
आळव
आळश
आळस
आव
आवड
आवडण
आवडत
आवडल
आवर
आवरण
आवळ
आवश
आश
आशय
आष
आस
आसक
आसन
आसप
आसर
आह
आहत
इ
इक
इकड
इग
इगतप
इच
इचलकर
इज
इझ
इट
इटल
इड
इत
इतक
इतर
इतरत
इतरह
इथ
इथल
इद
इन
इनच
इनस
इप
इफ
इब
इम
इय
इयत
इयर
इर
इल
इव
इवल
इश
इष
इस
इसम
इसव
इह
इहल
ई
ईक
ईच
ईज
ईझ
ईट
ईड
ईत
ईद
ईन
ईप
ईपर
ईफ
ईब
ईम
ईर
ईल
ईलच
ईव
ईवर
ईश
ईस
ईसर
उ
उक
उकल
उकळ
उग
उगम
उगव
उगवण
उगवत
उगवल
उघड
उघडक
उघडच
उघडण
उघडत
उघडपण
उघडल
उच
उचल
उचलण
उचलत
उचलल
उज
उजळ
उजव
उझब
उट
उठ
उठण
उठत
उठल
उठव
उठवल
उड
उडण
उडत
उडव
उण
उत
उतर
उतरण
उतरत
उतरल
उतरव
उथ
उथळ
उद
उदक
उदग
उदय
उदर
उदरन
उध
उधळ
उन
उप
उपक
उपकरण
उपख
उपग
उपच
उपज
उपजत
उपजल
उपट
उपद
उपन
उपनगर
उपनद
उपप
उपपत
उपभ
उपम
उपय
उपर
उपलब
उपव
उपश
उपस
उपसर
उपह
उफ
उब
उभ
उभय
उभयत
उम
उमज
उमटत
उमटल
उमर
उमरख
उमरग
उर
उरण
उरत
उरल
उल
उलगड
उलट
उलटपक
उलथ
उळ
उव
उश
उष
उस
उसन
उसळ
ऊ
ऊक
ऊच
ऊत
ऊद
ऊन
ऊनच
ऊनह
ऊब
ऊर
ऊल
ऊळ
ऊस
ऊह
ऋ
ऋग
ऋच
ऋण
ऋत
ऋष
ऌ
ऍ
ऍक
ए
एअर
एक
एकक
एकच
एकज
एकट
एकत
एकतर
एकद
एकदम
एकन
एकप
एकपण
एकम
एकमत
एकर
एकल
एकव
एकश
एकस
एकह
एख
एग
एच
एचआयव
एचड
एज
एजन
एट
एटर
एड
एडवर
एत
एतद
एतन
एथ
एन
एनज
एनड
एनस
एप
एफ
एब
एम
एयर
एर
एरल
एरव
एल
एव
एवढ
एश
एशन
एशनच
एष
एस
एसट
ऐ
ऐक
ऐकण
ऐकत
ऐकल
ऐत
ऐन
ऐर
ऐवज
ऐश
ऐस
ऐह
ऑ
ऑक
ऑगस
ऑट
ऑड
ऑन
ऑनल
ऑप
ऑपर
ऑफ
ऑब
ऑर
ऑल
ऑस
ओ
ओक
ओग
ओघ
ओच
ओझ
ओट
ओठ
ओड
ओढ
ओढण
ओढत
ओढल
ओत
ओन
ओप
ओपन
ओब
ओम
ओर
ओरड
ओरडत
ओल
ओळ
ओळख
ओळखण
ओळखत
ओळखल
ओव
ओश
ओस
ओह
औ
औच
औद
औपच
और
औषध
औस
क
कइन
कक
ककथ
ककल
कग
कगण
कघर
कच
कचर
कज
कजण
कझ
कट
कटक
कटकट
कटच
कटत
कटर
कटल
कटव
कठ
कड
कडक
कडकड
कडच
कडव
कढ
कण
कणकवल
कणच
कणस
कत
कथ
कथन
कद
कदम
कध
कन
कनक
कप
कपट
कपड
कपण
कपत
कपर
कफ
कब
कबज
कबड
कबर
कभ
कम
कमक
कमज
कमत
कमतरत
कमध
कमर
कमल
कमळ
कय
कर
करक
करकर
करच
करड
करण
करणक
करणच
करत
करद
करन
करप
करम
करमण
करर
करल
करव
करवत
करश
करस
कल
कलक
कलकत
कलन
कलम
कलर
कलश
कलह
कळ
कळकळ
कळच
कळण
कळत
कळद
कळप
कळम
कळल
कळव
कळवण
कळवल
कळवळ
कळश
कळस
कव
कवच
कवट
कवठ
कवड
कवण
कवत
कवन
कवय
कवर
कवल
कवळ
कवस
कश
कष
कस
कसच
कसत
कसन
कसनश
कसब
कसभ
कसम
कसर
कसल
कह
ख
खक
खकर
खग
खच
खज
खट
खटपट
खटल
खड
खडक
खडतर
खण
खत
खद
खन
खनन
खनभ
खप
खपण
खपत
खबर
खबरद
खभ
खम
खमस
खय
खर
खरच
खरप
खल
खलन
खळ
खळग
खव
खवट
खवण
खवत
खवल
खश
खस
खह
ग
गक
गकर
गग
गगन
गच
गज
गजन
गजर
गजल
गजळ
गझ
गझल
गट
गठ
गड
गडकर
गडच
गडद
गडबड
गढ
गण
गणक
गणघ
गणत
गणन
गणपत
गणपतर
गणर
गणल
गणव
गत
गतस
गद
गदपत
गदर
गध
गन
गप
गपट
गपत
गपर
गब
गभ
गम
गमत
गमध
गमन
गमरवर
गय
गर
गरक
गरज
गरण
गरम
गरर
गरव
गरश
गल
गलक
गलत
गलबत
गलम
गळ
गळत
गळय
गळव
गव
गवई
गवड
गवण
गवत
गवतधर
गवर
गवल
गवळ
गश
गस
गह
गहन
घ
घक
घट
घटक
घटन
घटस
घड
घडण
घडत
घडल
घडव
घडवण
घडवल
घण
घत
घद
घन
घनत
घनद
घनम
घम
घर
घरक
घरग
घरच
घरट
घल
घव
घवन
घश
घस
ङ
ङमय
च
चक
चकचक
चकत
चकमक
चकर
चग
चच
चट
चटक
चटकन
चटण
चड
चढ
चढण
चढत
चढल
चढव
चढवण
चढवल
चण
चत
चद
चन
चप
चपट
चपल
चपळ
चब
चबर
चभ
चम
चमक
चमच
चमत
चमध
चमह
चय
चर
चरक
चरण
चरत
चरब
चरल
चल
चलच
चलत
चलन
चळ
चळवळ
चव
चवट
चवड
चवण
चवत
चवथ
चवद
चवर
चवल
चश
चष
चषक
चस
चह
छ
छक
छट
छत
छद
छन
छप
छब
छल
छळ
छव
ज
जक
जकड
जकत
जकन
जकर
जख
जखम
जग
जगज
जगड
जगण
जगत
जगद
जगन
जगप
जगभर
जगल
जघर
जच
जज
जट
जठर
जड
जडणघडण
जडत
जडल
जण
जत
जतन
जद
जध
जन
जनक
जनगणन
जनच
जनज
जनत
जनन
जनम
जनर
जनरल
जनव
जनश
जनस
जनसम
जनह
जप
जपच
जपण
जपत
जपतर
जपल
जब
जबर
जबरदस
जबलप
जभ
जभक
जम
जमण
जमत
जमध
जमन
जमल
जमव
जमश
जमह
जय
जयक
जयजयक
जयत
जयद
जयनगर
जयप
जयर
जयव
जयश
जयस
जर
जरचन
जल
जलद
जलप
जलम
जलव
जलस
जळ
जळग
जळण
जळत
जव
जवट
जवण
जवत
जवर
जवल
जवळ
जवळच
जवळजवळ
जवळप
जवस
जश
जस
जसजश
जसजस
जसत
जह
झ
झक
झग
झगड
झच
झट
झटक
झटल
झड
झडप
झण
झणज
झन
झप
झम
झर
झल
झलक
झळ
झळक
झव
झस
ञ
ञक
ञत
ञवल
ट
टक
टकक
टकच
टकर
टकळ
टकसर
टग
टच
टज
टड
टण
टणकर
टत
टद
टन
टनच
टनन
टनमध
टप
टपट
टपण
टफ
टब
टभ
टभट
टभर
टम
टमध
टय
टर
टरच
टरन
टरप
टरमध
टरल
टरवर
टरस
टरह
टल
टलच
टलमध
टलर
टळ
टव
टवड
टवर
टश
टस
टह
ठ
ठक
ठग
ठच
ठड
ठण
ठत
ठन
ठप
ठपण
ठबळ
ठभ
ठम
ठय
ठर
ठरण
ठरत
ठरल
ठरव
ठरवण
ठरवत
ठरवल
ठल
ठळक
ठळकपण
ठव
ठवण
ठवत
ठवल
ठश
ठस
ड
डक
डकर
डकरव
डख
डग
डघ
डच
डज
डण
डणगड
डत
डद
डदळ
डध
डन
डनच
डनमध
डनल
डप
डपण
डफ
डब
डम
डमच
डमध
डमन
डय
डर
डरच
डरन
डरल
डल
डळ
डव
डवण
डवत
डवर
डवल
डवलद
डवलश
डवळ
डश
डस
डह
ढ
ढकल
ढकलण
ढकलल
ढग
ढच
ढण
ढत
ढतच
ढद
ढन
ढय
ढर
ढरप
ढल
ढळ
ढव
ढवण
ढवत
ढवल
ढवळ
ण
णक
णकट
णकर
णख
णग
णघ
णच
णज
णण
णत
णद
णध
णधर
णन
णप
णपण
णपत
णपदक
णपर
णफलक
णब
णबत
णभ
णम
णमध
णय
णर
णल
णव
णवण
णवत
णवर
णवल
णश
णस
णह
त
तऐवज
तक
तकथ
तकम
तकर
तकल
तकव
तख
तग
तगत
तघ
तच
तचर
तज
तजन
तजम
तजव
तट
तटब
तटस
तड
तडक
तडज
तण
तत
तथ
तद
तदन
तदय
तदर
तध
तन
तनक
तनत
तनप
तप
तपक
तपण
तपत
तपद
तपर
तपश
तपस
तफ
तब
तबग
तबद
तबर
तबल
तभ
तम
तमज
तमत
तमध
तमपल
तमस
तय
तर
तरक
तरच
तरचन
तरज
तरण
तरत
तरद
तरप
तरब
तरभ
तरम
तरर
तरल
तरव
तरस
तरह
तल
तलव
तळ
तळट
तळमळ
तव
तवण
तवत
तवन
तवर
तवव
तश
तशत
तस
तसतश
तसतस
तसम
तसर
तसल
तह
तहक
तहस
थ
थक
थकर
थकल
थग
थच
थट
थड
थडग
थत
थद
थन
थप
थपण
थपर
थब
थम
थय
थर
थल
थळ
थव
थवर
थश
थस
थह
द
दक
दकत
दकर
दख
दखल
दग
दगड
दच
दज
दट
दड
दडप
दडपण
दण
दत
दद
दध
दन
दनक
दनखर
दनश
दप
दपण
दफ
दब
दभ
दम
दमट
दमण
दमध
दमय
दय
दयव
दयस
दर
दरक
दरच
दरड
दरन
दरब
दरम
दरमह
दरर
दरल
दरव
दरवर
दरस
दल
दलच
दलदल
दलव
दलह
दळ
दळण
दळणवळण
दळव
दव
दवड
दवण
दवत
दवर
दवल
दश
दशक
दशम
दशरथ
दशलक
दशह
दस
दसर
दह
दहन
दहशत
दहशतव
ध
धक
धग
धच
धज
धट
धड
धडक
धडपड
धण
धत
धतश
धद
धधर
धन
धनक
धनगर
धनर
धनल
धनव
धनस
धप
धपण
धब
धबधब
धभ
धम
धमक
धय
धर
धरण
धरत
धरल
धरवड
धल
धळ
धव
धवट
धवन
धवर
धश
धशतक
धस
धह
न
नई
नऊ
नक
नकड
नकर
नकल
नकळत
नख
नग
नगड
नगर
नगरच
नगरप
नगरस
नच
नज
नजर
नझ
नट
नटल
नड
नण
नत
नतर
नतळ
नथ
नद
नदर
नध
नधन
नधर
नन
नप
नपण
नपत
नपद
नपर
नफ
नब
नबर
नभ
नम
नमध
नमन
नमस
नय
नयन
नर
नरक
नरख
नरद
नरन
नरप
नरम
नरस
नरहर
नल
नलग
नळ
नव
नवग
नवज
नवट
नवण
नवत
नवन
नवनव
नवम
नवय
नवर
नवल
नवव
नवश
नवस
नश
नष
नस
नसण
नसत
नसन
नसभ
नसम
नसर
नसरक
नसल
नसश
नसह
नह
प
पक
पकड
पकडण
पकडल
पकत
पकर
पकल
पख
पग
पगड
पच
पचन
पचव
पछ
पज
पट
पटक
पटकथ
पटकन
पटण
पटत
पटल
पटव
पटवर
पठ
पठण
पड
पडण
पडत
पडद
पडपट
पडल
पढ
पण
पणज
पणत
पणन
पत
पतच
पतन
पतर
पतव
पथ
पथक
पद
पदक
पदच
पदर
पदव
पध
पन
पनव
पप
पपत
पपद
पब
पभ
पम
पमध
पय
पर
परक
परकर
परग
परगण
परच
परण
परत
परतत
परतल
परद
परधर
परन
परप
परफ
परब
परभ
परभण
परम
परमह
परर
परल
परळ
परव
परवड
परवडण
परश
परस
परह
पल
पलटण
पळ
पळग
पळण
पळत
पळव
पळस
पव
पवण
पवत
पवन
पवय
पवर
पवल
पश
पष
पस
पसम
पसर
पसरण
पसरत
पसरल
पह
फ
फक
फख
फच
फज
फट
फटक
फड
फडक
फडण
फडणव
फण
फणस
फत
फन
फर
फरक
फरन
फल
फलक
फलटण
फलद
फळ
फव
फस
फसल
फसव
फसवण
ब
बई
बईच
बईत
बईमध
बईल
बईस
बक
बकर
बख
बखर
बग
बगद
बघ
बघण
बघत
बच
बचत
बज
बट
बड
बडत
बडबड
बडव
बढ
बढत
बण
बत
बतच
बद
बदक
बदन
बदर
बदल
बदलण
बदलत
बदलल
बध
बन
बनण
बनत
बनल
बनव
बनवण
बनवत
बनवल
बप
बफ
बब
बम
बमध
बय
बर
बरख
बरच
बरठ
बरन
बरप
बरमध
बरल
बरव
बरस
बरह
बल
बलक
बलर
बलव
बळ
बळक
बळकट
बळव
बव
बवण
बवत
बवर
बवल
बश
बस
बसच
बसण
बसत
बसल
बसव
बसवण
बसवल
बसस
बह
बहर
बहल
भ
भक
भग
भगण
भगत
भगतस
भगव
भगवत
भगवद
भगवन
भज
भजत
भजन
भट
भटक
भटकत
भटज
भड
भडक
भण
भत
भद
भध
भन
भप
भम
भय
भर
भरण
भरत
भरप
भरभर
भरल
भरव
भरवण
भरवल
भरवस
भल
भलत
भळ
भव
भवण
भवत
भवन
भवर
भवल
भवव
भवस
भश
भस
म
मअल
मऊ
मक
मकत
मकथ
मकथन
मकर
मकरण
मख
मग
मगध
मगर
मघ
मच
मचर
मज
मजक
मजकड
मजप
मजब
मजल
मजवर
मजस
मट
मटल
मठ
मड
मडक
मडग
मढ
मण
मणज
मणण
मणत
मणन
मणर
मणव
मणश
मणस
मत
मतत
मतद
मतप
मतभ
मतलब
मथ
मथळ
मद
मदत
मदन
मदर
मध
मधम
मधल
मन
मनगर
मनच
मनद
मनन
मनप
मनम
मनर
मनव
मनस
मप
मपण
मपत
मपर
मफ
मब
मभ
मभर
मम
ममत
ममध
ममरण
मय
मयत
मर
मरण
मरत
मरस
मल
मलक
मलत
मलद
मलब
मलबज
मलम
मलय
मळ
मव
मवर
मश
मशह
मस
मसभ
मसलत
मह
महत
महद
महम
महर
महस
य
यअभ
यक
यकत
यकथ
यकर
यकल
यकव
यकश
यख
यग
यगड
यगत
यगर
यघटन
यच
यछट
यज
यजन
यजम
यझ
यट
यटक
यटन
यटनस
यड
यण
यणर
यत
यतक
यतन
यतश
यथ
यद
यदर
यदल
यदळ
यध
यधर
यन
यनच
यनन
यनम
यनर
यनल
यनश
यनस
यप
यपण
यपद
यपदक
यपर
यफ
यफल
यब
यबर
यबल
यबळ
यभ
यभट
यभर
यम
यमक
यमगत
यमच
यमत
यमद
यमध
यमन
यमप
यममध
यमय
यमर
यमल
यमवर
यमस
यय
ययन
यर
यरच
यरचन
यरत
यरफ
यरल
यरस
यल
यलच
यलढ
यव
यवत
यवतम
यवध
यवन
यवर
यवस
यवह
यश
यशव
यशस
यष
यस
यसत
यसन
यसपर
यसभ
यसम
यह
र
रक
रकट
रकड
रकत
रकम
रकर
रकरण
रकल
रकस
रख
रखम
रखर
रग
रगट
रगड
रगण
रगत
रगर
रगल
रघ
रघर
रच
रचक
रचण
रचन
रचल
रज
रजन
रजनन
रजप
रजस
रझ
रट
रठ
रड
रडण
रडत
रडल
रडव
रण
रणग
रणच
रणज
रणत
रणप
रणपण
रणभ
रणम
रणय
रणव
रणस
रणह
रत
रतक
रतच
रतन
रतभर
रतम
रतर
रतरत
रतल
रतव
रथ
रथम
रथमच
रथमत
रद
रदक
रदर
रध
रधन
रधर
रन
रनगर
रप
रपट
रपटग
रपटस
रपड
रपण
रपत
रपद
रपर
रफ
रफळ
रब
रबर
रबल
रबळ
रभ
रभद
रभर
रम
रमक
रमगड
रमच
रमज
रमण
रमणध
रमत
रमतव
रमद
रमध
रमन
रमप
रमम
रमय
रमर
रमल
रमव
रमश
रमस
रमह
रय
रयत
रयन
रयस
रर
ररक
रल
रलय
रळ
रळक
रळच
रळमध
रळय
रव
रवक
रवचन
रवठ
रवड
रवण
रवत
रवन
रवय
रवर
रवल
रवळ
रवस
रश
रशक
रशस
रष
रस
रसग
रसच
रसत
रसद
रसन
रसप
रसम
रसमज
रसर
रसरण
रसव
रसस
रह
रहण
रहद
रहम
रहर
रहल
रहस
ल
लई
लक
लकत
लकम
लकर
लकल
लकव
लख
लखत
लखन
लग
लगणन
लगत
लगतच
लघ
लघर
लघव
लच
लज
लझ
लट
लठ
लड
लढ
लढण
लढत
लढल
लढव
लढवल
लण
लत
लतत
लतर
लथ
लद
लध
लन
लप
लपट
लपण
लपत
लपर
लपल
लपव
लफ
लब
लबच
लबर
लभ
लभत
लभभ
लम
लमज
लमत
लमध
लय
लयच
लर
लरच
लल
लळ
लव
लवकर
लवकरच
लवच
लवट
लवण
लवत
लवर
लवल
लश
लष
लस
लसर
लह
लहर
ळ
ळक
ळकत
ळकर
ळख
ळग
ळगड
ळगण
ळगत
ळगल
ळघ
ळच
ळज
ळण
ळत
ळद
ळध
ळन
ळप
ळपट
ळपण
ळपर
ळब
ळभ
ळम
ळमध
ळय
ळर
ळल
ळव
ळवण
ळवत
ळवल
ळश
ळस
ळसर
ळह
व
वई
वक
वकर
वख
वग
वगड
वगत
वगर
वगळ
वगळण
वगळत
वगळल
वघ
वच
वचन
वचषक
वछत
वज
वजण
वजन
वजय
वट
वटच
वटपर
वटल
वठ
वड
वडक
वडग
वडण
वडत
वडर
वडल
वढ
वण
वणक
वणव
वत
वतच
वतत
वतन
वतनद
वतय
वतर
वथ
वद
वदत
वदन
वदर
वदल
वध
वधन
वधर
वन
वनक
वनग
वनगर
वनच
वनड
वनद
वनम
वनर
वनव
वनश
वनस
वनसत
वप
वपक
वपट
वपण
वपद
वपर
वफलक
वब
वबह
वभ
वभक
वम
वमत
वय
वयक
वयम
वयव
वयस
वर
वरक
वरकड
वरकर
वरग
वरच
वरण
वरत
वरद
वरन
वरप
वरम
वरमह
वरल
वरव
वरवर
वरस
वरह
वल
वलग
वलन
वलय
वळ
वळण
वळत
वळल
वळव
वळस
वव
ववत
ववर
वश
वशक
वष
वस
वसई
वसत
वसन
वसभर
वसम
वसल
वसव
वह
वहन
श
शक
शकण
शकत
शकर
शकल
शग
शच
शज
शत
शतक
शद
शन
शनच
शनन
शनम
शनमध
शनर
शनल
शनवर
शनस
शप
शपथ
शपर
शब
शबर
शभ
शभक
शभट
शभर
शम
शमध
शमन
शय
शयन
शर
शरच
शरण
शरद
शरम
शल
शलत
शव
शवत
शवर
शवल
शवस
शश
शस
शह
शहर
ष
षक
षग
षच
षज
षट
षटक
षड
षण
षणक
षणतज
षणभर
षणम
षणव
षणस
षणह
षत
षद
षध
षन
षप
षपण
षपद
षब
षभ
षभर
षम
षमत
षय
षयक
षयर
षयव
षयस
षर
षरत
षरश
षल
षव
षवर
षवल
षश
षष
षस
षह
स
सई
सक
सकट
सकड
सकत
सकर
सकल
सकळ
सख
सग
सगड
सगढ
सगळ
सघ
सङ
सच
सज
सजगत
सजव
सट
सड
सडक
सण
सत
सतत
सततच
सतर
सद
सदन
सदर
सदरह
सदस
सध
सधन
सन
सनक
सनच
सनद
सनन
सनस
सप
सपट
सपण
सपत
सपर
सफ
सफर
सफल
सब
सबब
सबर
सबळ
सबस
सभ
सम
समक
समग
समज
समजण
समजत
समजल
समत
समद
समध
समन
समभ
समय
समर
समरस
समल
समव
समश
समस
समसम
सय
सर
सरक
सरकत
सरच
सरण
सरत
सरद
सरन
सरप
सरल
सरळ
सरश
सरस
सरहद
सल
सलग
सलम
सळ
सळण
सळत
सळल
सव
सवड
सवत
सवय
सवर
सवलत
सश
सशक
सशस
सष
सस
सह
सहक
सहज
सहजच
सहजपण
सहद
सहन
सहप
सहभ
सहमत
सहय
सहल
सहव
सहस
ह
हक
हग
हगड
हच
हज
हजर
हजरत
हट
हटकर
हटल
हटव
हड
हण
हणज
हणण
हणत
हणन
हणल
हणव
हणस
हत
हतव
हद
हदग
हन
हनत
हप
हब
हभ
हम
हय
हर
हरकत
हरच
हरण
हरत
हरद
हरन
हरप
हरम
हरय
हरल
हरव
हरवल
हल
हलक
हलपम
हलव
हलवल
हळ
हळद
हव
हश
हस
हसण
हसत
हसन
हसल
हह
़
ऽ
ऽध
ऽन
ऽप
ऽस
ऽऽ
ा
ि
ी
ु
ू
ृ
ॄ
ॅ
ॆ
े
ै
ॉ
ॊ
ो
ौ
्
ॐ
॑
॒
ॠ
ॢ
ॣ
।
॥
०
००
०००
०१
०२
०३
०४
०५
०६
०७
०८
०९
१
१०
१००
१०००
१०१
१०२
१०३
१०४
१०५
१०५०
१०६
१०७
१०८
१०९
११
११०
१११
११२
११३
११४
११५
११६
११७
११८
११९
१२
१२०
१२००
१२१
१२२
१२३
१२४
१२५
१२५०
१२६
१२७
१२८
१२९
१३
१३०
१३००
१३१
१३२
१३३
१३४
१३५
१३६
१३७
१३८
१३९
१४
१४०
१४१
१४२
१४३
१४४
१४५
१४६
१४७
१४८
१४९
१५
१५०
१५००
१५१
१५२
१५३
१५४
१५५
१५६
१५७
१५८
१५९
१६
१६०
१६१
१६२
१६३
१६४
१६५
१६६
१६७
१६८
१६९
१७
१७०
१७१
१७२
१७३
१७४
१७५
१७५०
१७५४
१७५५
१७५७
१७५९
१७६
१७६०
१७६१
१७७
१७८
१७९
१८
१८०
१८००
१८१
१८१८
१८२
१८३
१८३०
१८४
१८४८
१८५
१८५०
१८५६
१८५७
१८६
१८६०
१८६१
१८६२
१८६४
१८६५
१८६७
१८६९
१८७
१८७०
१८७१
१८७२
१८७३
१८७४
१८७५
१८७६
१८७७
१८७८
१८७९
१८८
१८८०
१८८१
१८८२
१८८३
१८८४
१८८५
१८८६
१८८७
१८८८
१८८९
१८९
१८९०
१८९१
१८९२
१८९३
१८९४
१८९५
१८९६
१८९७
१८९८
१८९९
१९
१९०
१९००
१९०१
१९०२
१९०३
१९०४
१९०५
१९०६
१९०७
१९०८
१९०९
१९१
१९१०
१९११
१९१२
१९१३
१९१४
१९१५
१९१६
१९१७
१९१८
१९१९
१९२
१९२०
१९२१
१९२२
१९२३
१९२४
१९२५
१९२६
१९२७
१९२८
१९२९
१९३
१९३०
१९३१
१९३२
१९३३
१९३४
१९३५
१९३६
१९३७
१९३८
१९३९
१९४
१९४०
१९४१
१९४२
१९४३
१९४४
१९४५
१९४६
१९४७
१९४८
१९४९
१९५
१९५०
१९५१
१९५२
१९५३
१९५४
१९५५
१९५६
१९५७
१९५८
१९५९
१९६
१९६०
१९६१
१९६२
१९६३
१९६४
१९६५
१९६६
१९६७
१९६८
१९६९
१९७
१९७०
१९७१
१९७२
१९७३
१९७४
१९७५
१९७६
१९७७
१९७८
१९७९
१९८
१९८०
१९८१
१९८२
१९८३
१९८४
१९८५
१९८६
१९८७
१९८८
१९८९
१९९
१९९०
१९९१
१९९२
१९९३
१९९४
१९९५
१९९६
१९९७
१९९८
१९९९
२
२०
२००
२०००
२००१
२००२
२००३
२००४
२००५
२००६
२००७
२००८
२००९
२०१
२०१०
२०११
२०१२
२०१३
२०१४
२०१५
२०१६
२०१७
२०१८
२०१९
२०२
२०२०
२०२१
२०२२
२०३
२०४
२०५
२०६
२०७
२०८
२१
२१०
२११
२१२
२१३
२१४
२१५
२१६
२१७
२२
२२०
२२१
२२४
२२४०
२२५
२२६
२३
२३०
२३२
२४
२४०
२४५
२५
२५०
२६
२६०
२७
२७०
२८
२८०
२८८
२९
२९०
३
३०
३००
३०००
३१
३१०
३२
३२०
३३
३३०
३४
३४०
३५
३५०
३६
३६०
३६५
३७
३७०
३८
३८०
३९
४
४०
४००
४१
४२
४२०
४३
४४
४५
४५०
४६
४६०
४७
४७०
४८
४९
४९०
५
५०
५००
५०००
५१
५२
५३
५४
५४५
५५
५५०
५५५
५६
५६०
५७
५८
५९
६
६०
६००
६१
६१०
६२
६३
६४
६५
६६
६७
६८
६९
७
७०
७००
७१
७२
७२०
७३
७४
७५
७५०
७६
७६०
७७
७८
७८०
७९
८
८०
८००
८१
८२
८३
८४
८५
८५०
८६
८७
८८
८९
९
९०
९००
९१
९२
९३
९४
९५
९५०
९६
९७
९८
९८०
९८५
९९
९९०
९९५
॰
ॲ
ॲक
ॲड
ॲडम
ॲडव
ॲथल
ॲन
ॲप
ॲर
ॲल
ॲश
ॲस
ং
ই
ক
খ
গ
জ
ট
ত
থ
দ
ধ
ন
প
ব
ভ
ম
য
র
ল
শ
ষ
স
হ
়
া
ি
ী
ু
ূ
ে
্
ৰ
ਨ
ਸ
ਾ
ਿ
ੀ
ੇ
ੰ
ર
ા
િ
ી
ે
્
ା
୍
க
ச
ட
த
ன
ப
ம
ய
ர
ல
வ
ா
ி
ு
ெ
ே
ை
்
ం
క
న
ర
ా
ి
ు
ె
్
ಂ
ಕ
ಗ
ರ
ಾ
ಿ
ು
ೆ
್
ೕ
ം
ക
ത
ന
യ
ര
ല
ാ
ി
ു
്
්
ා
ิ
ี
่
་
།
ག
ད
ར
ས
ི
ུ
ེ
ོ
ိ
ု
း
်
​
‌
‍
‎
‏
–
—
―
‘
’
“
”
„
†
•
…
′
″
€
₹
←
↑
→
↔
↷
⇨
−
√
∴
③
④
⑦
─
■
▪
◆
●
★
☐
⟶
⺀
⺄
⺆
⺈
⺊
⺌
⺕
⺝
⺸
⺼
⿰
⿱
⿲
⿳
⿴
⿵
⿶
⿷
⿸
⿹
⿺
⿻
、
。
《
》
〢
き
く
て
と
の
゙
゚
エ
コ
ス
ッ
ヘ
マ
ユ
リ
ー
㇁
㇂
㇄
㇇
㇈
㇉
㇓
㐁
㐄
㐅
㐌
㐫
㐬
㐭
㐮
㐱
㑒
㒵
㒸
㒼
㓁
㓞
㔾
㕛
㕣
㖾
㘝
㚅
㚇
㚔
㚘
㝉
㝡
㝴
㝵
㞋
㞢
㞷
㠩
㠭
㠯
㡀
㡭
㡿
㢲
㢴
㣇
㣺
㥯
㪅
㫄
㫐
㫒
㫺
㬅
㬎
㬥
㬰
㲋
㳄
㷠
㸒
㸚
㸦
㼌
㼲
㽞
㿟
䀠
䂞
䍃
䏍
䒑
䖍
䖒
䖝
䖵
䙴
䚻
䜌
䝿
䡛
䧹
䪞
一
丁
丂
七
丄
丅
丆
万
丈
三
上
下
丌
不
与
丏
丐
丑
专
且
丕
世
丘
丙
业
东
丞
丢
丣
两
严
並
丨
丩
个
丫
丬
中
丮
丰
丱
串
丵
丶
丷
丸
丹
为
主
丽
丿
乀
乂
乃
久
乆
乇
么
义
之
乌
乍
乎
乏
乐
乑
乔
乖
乗
乘
乙
乚
乛
乜
九
乞
也
习
乡
乳
乾
亀
亅
了
亇
予
争
事
二
亍
于
亏
亐
云
互
亓
五
井
亘
亚
亜
亞
亟
亠
亡
亢
交
亥
亦
产
亨
亩
享
京
亭
亮
亯
亰
亲
亳
亶
亷
人
亻
亼
亾
仁
今
介
仌
从
仐
仑
仒
仓
仕
他
付
仝
代
令
以
任
企
伊
伏
伐
休
会
伯
但
位
何
佘
余
作
佥
使
來
侈
侌
侖
侯
侵
便
保
俞
信
修
倉
倍
候
倠
備
僉
僕
儿
兀
允
兂
元
兄
充
兆
兇
先
光
兊
克
兌
免
兑
兒
兓
兔
党
兜
兟
入
全
兩
兪
八
公
六
兮
兰
共
关
兵
其
具
典
兹
兼
冀
冂
冃
冄
内
冈
冉
冊
冋
册
再
冎
冏
冐
冒
冓
冖
冗
冘
军
农
冝
冡
冥
冫
冬
冷
几
凡
凢
凵
凶
凷
凸
凹
出
函
凾
刀
刁
刂
刃
刄
刅
分
切
刍
刑
刕
刖
列
刘
则
初
別
利
别
到
制
刺
則
削
剌
前
剡
剽
劉
力
功
加
劦
助
劫
劳
劵
勃
勇
勉
勒
動
務
勞
勤
勹
勺
勻
勾
勿
匀
匂
包
匆
匈
匊
匋
匍
匕
化
北
匚
匝
匡
匪
匱
匸
匹
区
医
匽
匿
區
十
卂
千
卄
卅
卆
升
午
卉
半
卌
华
卑
卒
卓
单
卖
南
卜
卝
卞
占
卡
卢
卣
卤
卦
卩
卪
卬
卯
印
危
即
却
卵
卷
卸
卻
厂
厃
厄
历
厈
厉
厌
厓
厘
厚
原
厤
厥
厨
厭
厲
厶
厷
厸
去
厼
厽
叀
参
參
叅
又
叉
及
友
双
反
叐
发
叒
叔
叕
取
受
叚
叜
叟
口
古
句
另
叩
只
召
可
台
叱
史
右
叵
号
司
叹
吂
各
吅
合
吉
吊
吋
同
名
后
吏
向
吕
君
吝
吞
否
含
启
吳
吴
吹
吾
呂
呆
呈
告
员
呙
周
命
咅
和
咎
咠
咢
咨
咸
咼
哀
品
哉
員
哥
哲
唐
商
啇
問
啚
啬
啻
善
喜
喬
單
喿
嗇
噩
嚴
囊
囗
囘
囙
囚
四
回
囟
因
囧
囬
困
囱
囷
固
国
圂
圅
國
圍
圓
土
圡
圣
圥
在
圭
地
圶
圼
坐
坒
坚
坴
垂
垔
垚
埀
埋
埶
執
基
堂
堅
堆
堇
堯
塞
墨
壘
士
壬
壯
声
壳
壴
壹
壺
壽
夂
处
夅
夆
备
夊
夋
夌
复
夏
夒
夕
外
夗
夘
多
夜
夢
大
夨
天
太
夫
夬
夭
央
失
夲
头
夷
夸
夹
夻
夾
奂
奄
奇
奈
奉
奎
奏
奐
契
奓
奔
奚
奞
奠
奢
奥
奭
女
奴
奻
好
如
妄
妙
妟
妥
妻
妾
姑
委
姜
威
娄
婁
婴
嬰
嬴
子
孑
孔
孕
孖
字
存
孚
孛
孝
孟
季
孤
学
孫
孱
學
宀
宁
宂
它
宅
宇
守
安
宋
完
宏
宓
宗
官
定
宛
宜
宝
客
宣
室
宮
宰
害
家
容
宾
宿
寄
寅
密
富
寒
察
寧
審
寫
寬
寮
寸
对
寺
寻
寽
対
寿
封
尃
射
将
將
專
尉
尊
尋
尌
對
小
少
尒
尓
尔
尖
尗
尚
尞
尢
尣
尤
尧
尨
尭
就
尸
尹
尺
尻
尼
尽
尾
尿
局
居
屈
屋
屎
屏
屑
展
屖
屚
属
屠
屡
屬
屮
屯
屰
山
屵
屾
岁
岂
岑
岡
岩
岳
岸
峯
島
崇
崑
崔
崖
崙
崩
嵬
嶲
巂
巛
川
州
巟
巠
巢
巤
工
左
巧
巨
巩
巫
差
己
已
巳
巴
巷
巸
巽
巾
巿
帀
市
布
希
帚
帛
帝
带
師
席
帶
常
干
平
年
幵
并
幷
幸
幺
幻
幼
幽
幾
广
広
庄
床
底
店
庚
府
度
庫
庭
庶
康
庸
廉
廌
廛
廣
廩
廴
延
廷
建
廾
廿
开
弁
弃
弄
弇
弋
式
弓
弔
引
弗
弘
弜
弟
弥
弦
弱
張
強
强
彊
彌
彎
彐
彑
当
彔
录
彖
彗
彡
形
彥
彦
彧
彭
彳
役
彼
往
待
律
徒
得
徙
從
復
微
徵
心
忄
必
忌
忍
志
忝
忠
忩
快
念
忽
忿
思
怠
急
怱
恆
恒
恩
恭
息
悉
患
悤
悲
悶
惠
惡
惢
愁
愈
意
愛
感
慈
慧
慮
憂
憲
應
戀
戈
戉
戊
戋
戌
戍
戎
成
我
戒
戔
或
戚
戠
戢
截
戲
戶
户
戹
戼
戾
房
所
扁
扇
手
扌
才
打
托
执
承
折
拉
拜
拿
掌
推
提
摩
支
攴
攵
收
攸
改
放
政
敄
敏
敕
敖
敗
敝
敞
敢
散
敦
敫
敬
数
敷
數
斂
文
斉
斊
斗
斤
斥
斩
斬
斯
新
方
於
施
斿
旁
旋
族
无
旡
既
旣
日
旦
旧
旨
早
旬
旱
旲
时
旾
昆
昇
昌
昍
明
昏
易
昔
昗
昜
星
春
昬
是
昱
昴
昷
時
晃
晋
晏
普
景
晶
智
暑
暴
曇
曩
曰
曲
曳
更
曷
書
曹
曼
曾
替
最
朁
會
月
有
朋
服
朔
朕
朗
望
朝
木
朩
未
末
本
札
朮
术
朱
朵
朶
朿
杀
杏
杜
束
条
来
東
杲
杳
松
析
林
枚
果
枝
枲
枼
某
柔
查
柬
柰
柴
栗
桀
桑
桼
梁
條
梟
梨
棘
棠
棥
森
楚
業
楽
榮
樂
樊
欠
次
欣
欮
欲
欶
欽
款
歆
歇
歛
止
正
此
步
武
歨
歪
歮
歯
歰
歲
歴
歷
歸
歹
歺
死
殳
段
殷
殸
殹
殺
殻
殿
毋
毌
母
每
毒
比
毕
毚
毛
毳
氏
氐
民
气
氣
水
氵
氶
氷
永
氺
氾
求
汝
汞
江
沃
沓
沙
沝
泉
法
波
泣
泥
泰
洛
洪
活
派
流
浦
浪
浮
淡
淮
清
渚
渠
湯
滿
漸
火
灬
灭
灰
灵
灷
炅
炎
炏
炗
炙
炭
為
烈
烏
烝
焉
無
焦
焱
然
煞
熊
熏
燕
營
燮
爪
爫
爭
爯
爰
爱
爲
爵
父
爻
爽
爾
爿
片
牙
牚
牛
牜
牟
牢
牧
牪
牽
犀
犬
犭
犮
狂
狄
狊
独
狺
猋
猒
猪
献
獻
玄
率
玉
王
玟
玨
珎
班
琴
瑟
瑩
瓜
瓦
甘
甚
生
産
用
甫
甬
田
由
甲
申
电
甶
男
甸
甹
画
甾
畀
界
畏
畐
留
畜
畟
畢
畧
畨
番
畫
異
畱
當
畺
畾
疊
疋
疌
疑
疒
疾
癶
癸
癹
登
發
白
百
皀
皃
的
皆
皇
皋
皐
皕
皮
皷
皿
盃
盆
盇
盈
益
盍
盎
监
盒
盖
盛
盡
監
盤
盧
目
直
相
盾
省
眇
眉
看
眔
眞
真
眷
眼
眾
着
睘
睪
睿
瞏
瞢
瞿
矍
矛
矞
矢
矣
知
矦
短
石
破
碎
磊
磨
示
礻
礼
祟
票
祭
禀
禁
禸
禹
禺
离
禽
禾
禿
秀
秃
秉
秋
科
秝
秦
移
稟
穀
穌
穴
究
穹
空
穿
突
窄
窒
立
竒
竜
竝
竟
章
童
竹
笑
笠
筆
等
答
箕
算
箴
節
篤
篭
米
粉
粛
粟
粤
粦
粲
糞
糸
糹
系
約
納
素
索
紫
累
細
絜
絫
絲
維
綿
縣
繇
纍
纟
缶
网
罒
罔
罕
罗
罙
罡
罢
罪
署
罷
羅
羊
羌
羍
美
羔
羕
羗
羞
羡
羣
群
義
羲
羸
羽
翁
翏
習
翕
翟
翠
翼
老
耂
考
者
耆
而
耎
耑
耒
耳
耴
耶
耷
聂
聊
聖
聚
聶
聿
肀
肃
肅
肉
肖
肙
肥
肩
肯
育
肴
胃
背
胡
胥
能
脊
脩
膚
臣
臤
臧
自
臬
臭
臯
臱
至
致
臺
臼
臽
臾
臿
舀
舂
舄
與
興
舉
舌
舍
舛
舜
舞
舟
般
艮
良
色
艸
艹
艾
芒
芔
芬
芮
花
芳
芺
芻
苔
苗
苟
若
苦
英
茶
茸
荅
草
荒
荣
荼
莆
莧
莫
莽
菆
菊
菐
華
萬
落
葉
著
葛
董
葵
蒙
蒦
蒼
蓋
蓬
蓺
蔑
蔡
蕉
蕭
薄
薛
薦
薰
藍
藏
藥
蘭
虍
虎
虐
虒
虔
處
虖
虗
虘
虚
虛
虜
虞
虫
虽
蚤
蚩
蜀
蜜
蟲
蠡
血
行
衍
衛
衣
衤
表
衮
衰
袁
袞
褭
褱
襄
襾
西
覀
要
覃
見
規
覓
覧
親
覽
见
角
解
言
訁
訇
計
詹
誩
諸
讠
谷
豆
豈
豊
豐
豕
豖
豙
象
豦
豩
豪
豸
貇
貝
貞
貟
負
貢
貧
貪
貫
責
貳
貴
買
費
賁
資
賈
賏
賓
賔
賛
賞
賢
賣
質
賴
贊
贝
贡
责
贯
贲
贵
赖
赞
赤
赦
走
越
足
路
蹇
身
躬
車
軍
軎
軟
輦
车
辛
辜
辟
辥
辰
辱
農
辵
辶
边
达
过
近
连
迷
追
退
送
逆
逐
通
速
造
逢
連
逮
進
遀
遂
過
道
達
遣
適
遷
遺
邊
邑
邕
那
邦
邪
郎
部
郭
都
鄉
酉
酋
配
酓
釆
采
里
重
野
量
金
釒
錢
钅
長
镸
长
門
閃
閉
開
閏
閑
閒
間
閔
閵
閻
闌
门
间
闷
阑
阜
阝
阿
降
陳
隆
隊
隋
隡
隨
隱
隶
隹
隺
隻
隼
隽
难
雀
雁
集
雈
雋
雍
雐
雔
雙
雚
雜
雝
離
難
雨
雩
雪
雲
零
雷
需
霍
霜
霝
霞
霸
靈
靑
青
非
靡
面
靣
革
韋
韦
韭
韯
韱
音
頁
頃
項
須
頗
頡
頻
顛
页
風
风
飛
飞
食
飠
養
饣
首
香
馬
馮
駦
马
骨
高
髟
鬥
鬯
鬲
鬼
魚
魯
鮮
鱼
鲁
鳥
鳳
鸟
鹵
鹿
麃
麗
麥
麦
麻
黃
黄
黍
黎
黑
黒
黨
黹
黽
黾
鼎
鼓
鼠
鼻
齊
齋
齐
齒
齿
龍
龙
龜
龟
龠
龰
龱
龴
龵
龶
龷
龸
龹
ꮵ
者
艹
️
﻿
？
💬
𠀁
𠀃
𠀆
𠀉
𠀎
𠀐
𠁁
𠁣
𠂆
𠂇
𠂈
𠂉
𠂊
𠂋
𠂎
𠂒
𠂔
𠂛
𠂡
𠂢
𠂤
𠂬
𠂭
𠂹
𠃊
𠃋
𠃌
𠃍
𠃎
𠃑
𠃓
𠃔
𠃜
𠄌
𠄎
𠄠
𠄢
𠆢
𠆥
𠇍
𠈌
𠌵
𠓜
𠔉
𠔥
𠔼
𠔽
𠔿
𠕀
𠕁
𠕋
𠘧
𠘨
𠙻
𠙼
𠚏
𠚒
𠚤
𠚪
𠣏
𠤎
𠤕
𠥓
𠦄
𠦑
𠦝
𠧒
𠧗
𠧪
𠩺
𠪚
𠫓
𠫔
𠫤
𠬛
𠬝
𠬞
𠬢
𠬤
𠬶
𠮛
𠮦
𠮷
𠯑
𠱠
𠳮
𠷎
𡈼
𡉀
𡉵
𡌥
𡍮
𡏳
𡕒
𡕩
𡕰
𡖅
𡗗
𡗜
𡘆
𡘤
𡧱
𡨄
𡩧
𡬠
𡭽
𡰣
𡰥
𡰪
𡰯
𡰱
𡷈
𡸁
𡿨
𡿩
𡿪
𡿺
𢀖
𢀛
𢀩
𢁙
𢆉
𢆰
𢆶
𢇁
𢇇
𢉖
𢌬
𢌿
𢏚
𢑑
𢑚
𢖻
𢙣
𢛳
𢦏
𢦒
𢧵
𢼄
𢾕
𣁋
𣄼
𣅀
𣅽
𣍘
𣎳
𣎵
𣏋
𣏼
𣗥
𣥂
𣥖
𣦵
𣦼
𣧄
𣪊
𣪠
𣬉
𣳾
𣶒
𤇾
𤊽
𤐫
𤓰
𤔔
𤕨
𤣩
𤰇
𤰔
𤰞
𤴓
𤴔
𤽄
𥁑
𥁕
𥃦
𥃩
𥃭
𥇡
𥑟
𥘅
𥘈
𥝢
𥫗
𥱡
𦈢
𦉪
𦉬
𦉼
𦍌
𦍒
𦎧
𦐇
𦓔
𦔮
𦘒
𦙃
𦚏
𦣝
𦣞
𦣻
𦥑
𦥔
𦥯
𦨉
𦭝
𦰩
𧆞
𧈧
𧘇
𧰨
𧴪
𧴮
𧵩
𧾷
𨸏
𨾴
𩙿
𩠐
𩫏
𩵋
𪉷
𪜀
𪟽
𪠲
𪩲
𫇦
𫔭
𫜸
𫝀
𫠣
𫠩
𫢉
𫥞
𫩏
𫩠
𫪡
𫲽
𫶧
𬀷
𬐘
𬗌
𬙙
𬛸
𬜯
𬟩
𬯁
𬴘
𬺻
𬼉
𬼖
𭀰
𭁈
𭁨
𭅰
𭑈
𭕄
𭗼
𭤨
𭥫
𭻾
𮅕
𮊿
𮍌
𮍏
𮓗
𮥼
𮧮
廾
𰀁
𰀄
𰀈
𰀉
𰀕
𰀠
𰀡
𰀢
𰀪
𰁜
𰃮
𰆊
𰆘
𰋙
𰕎
𰢴
𰧭
𰯲
00--
10--
11--
12--
13--
14--
15--
16--
17--
18--
19--
20--
21--
22--
23--
24--
25--
26--
31--
32--
33--
36--
37--
38--
39--
40--
41--
42--
43--
44--
45--
6--
7--
8--
9--
a--
aa--
ab--
ac--
acc--
acce--
ad--
add--
admin--
af--
affec--
agricu--
ah--
ak--
al--
am--
an--
ang--
ans--
app--
ar--
arc--
art--
as--
ash--
assu--
at--
au--
auto--
b--
ba--
ban--
bar--
be--
ben--
bene--
bha--
bi--
bio--
bl--
bo--
bra--
brack--
brah--
bre--
bri--
bro--
brok--
bu--
budd--
by--
c--
ca--
calcu--
cam--
can--
ch--
cha--
chan--
chang--
char--
che--
chi--
cho--
chri--
ci--
cin--
circu--
cla--
cle--
co--
col--
com--
commu--
con--
conf--
contr--
contri--
conven--
cor--
corpor--
cre--
cri--
cro--
cru--
cu--
cur--
d--
da--
data--
de--
dec--
def--
demo--
depe--
desc--
desi--
deva--
deve--
di--
dis--
distri--
do--
down--
dr--
dri--
du--
dyna--
e--
ear--
ed--
edit--
eff--
el--
elec--
em--
en--
end--
eng--
epi--
er--
es--
et--
evi--
ex--
exc--
exe--
exp--
expand--
expl--
f--
fa--
faci--
fav--
fe--
fel--
fi--
fo--
for--
fr--
fri--
fu--
g--
ga--
gad--
gar--
ge--
gen--
get--
gi--
go--
gr--
gra--
gu--
h--
ha--
haf--
har--
hat--
he--
hi--
high--
ho--
hol--
hon--
horiz--
hos--
hu--
hun--
i--
ic--
id--
iden--
ig--
illus--
im--
imp--
impl--
in--
inc--
incre--
inde--
inf--
influ--
inst--
institu--
instruc--
inte--
inter--
intro--
is--
it--
iu--
j--
ja--
java--
je--
jos--
ju--
k--
ka--
kan--
ke--
key--
ki--
ko--
ku--
l--
la--
lab--
lan--
lat--
le--
li--
link--
liqu--
list--
lit--
lo--
lok--
lu--
m--
ma--
mag--
make--
mal--
man--
mar--
marri--
max--
me--
meta--
mi--
mic--
micro--
min--
mis--
mix--
mo--
mon--
mor--
mou--
mu--
mult--
my--
n--
na--
nar--
nav--
naviga--
ne--
net--
new--
news--
ni--
no--
nu--
num--
o--
obta--
oc--
occ--
on--
op--
opera--
or--
ori--
os--
out--
over--
ox--
p--
pa--
page--
par--
pe--
per--
ph--
phi--
phra--
physi--
pi--
pictu--
pl--
ple--
plu--
po--
pol--
por--
pr--
pra--
pre--
pref--
pri--
princ--
pro--
produc--
proof--
pu--
pun--
q--
qu--
qual--
que--
r--
ra--
re--
rec--
recei--
recog--
ref--
reg--
regard--
resp--
revi--
ri--
ro--
rou--
row--
roy--
ru--
rus--
s--
sa--
sac--
sam--
sc--
sco--
scre--
se--
sec--
ser--
set--
sh--
sha--
shi--
si--
site--
situ--
sk--
ski--
smi--
sni--
so--
sol--
solu--
sp--
spe--
st--
stat--
ste--
stu--
su--
sub--
substitu--
suff--
sugg--
summ--
sun--
sup--
super--
sur--
sw--
swe--
sy--
t--
ta--
tax--
te--
tem--
text--
th--
thous--
ti--
to--
tr--
tra--
trad--
trai--
tran--
trans--
tre--
tri--
tru--
tu--
tw--
ty--
typi--
u--
un--
unive--
up--
ur--
us--
use--
ut--
uti--
v--
va--
ve--
ver--
ves--
vi--
vo--
voic--
w--
wa--
wal--
we--
wel--
wi--
wik--
wiki--
win--
wo--
wor--
wra--
x--
y--
ya--
z--
zo--
α--
ܢ--
अ--
अज--
अझ--
अड--
अन--
अप--
अफ--
अम--
अर--
अस--
आ--
आई--
आत--
आद--
आप--
आम--
आय--
आर--
इ--
इट--
ई--
ईट--
ईन--
उ--
उद--
उप--
उम--
ऊ--
ऋ--
ऍ--
ऎ--
ए--
एक--
एन--
एफ--
एम--
एर--
एल--
एस--
ऐ--
ऑ--
ओ--
ओढ--
औ--
क--
कट--
कण--
कम--
कर--
कळ--
कस--
ख--
खट--
खड--
खन--
खर--
खल--
खळ--
खव--
ग--
गज--
गड--
गत--
गन--
गर--
गल--
गळ--
गव--
घ--
घन--
घर--
घस--
ङ--
च--
चक--
चन--
चप--
चर--
छ--
ज--
जड--
जन--
जय--
जल--
जळ--
झ--
ञ--
ट--
टक--
टन--
टम--
टर--
ठ--
ड--
डग--
डर--
डळ--
ढ--
ण--
त--
तक--
तड--
तन--
तम--
तर--
तळ--
तव--
थ--
थर--
द--
दन--
दय--
दर--
दव--
दश--
ध--
धड--
धन--
धर--
धव--
न--
नट--
नम--
नर--
नव--
प--
पक--
पड--
पण--
पत--
पद--
पन--
पर--
फ--
फर--
ब--
बई--
बन--
बर--
बल--
बळ--
भ--
भय--
भर--
भव--
म--
मक--
मज--
मण--
मत--
मद--
मन--
मय--
मर--
मळ--
मस--
य--
यण--
यन--
यम--
यर--
यल--
यस--
र--
रक--
रघ--
रज--
रण--
रद--
रफ--
रब--
रर--
रव--
रस--
रह--
ल--
लक--
लग--
लट--
लय--
ळ--
व--
वट--
वड--
वत--
वन--
वर--
वल--
वळ--
वस--
श--
शक--
शत--
शन--
शव--
ष--
षक--
षण--
षय--
स--
सन--
सम--
सर--
सव--
सह--
ह--
हड--
हण--
हत--
हन--
हम--
हय--
हर--
हल--
हळ--
हस--
ऽ--
२३--
२४--
२५--
२६--
२७--
४१--
ॲ--
--0
--00
--1
--2
--3
--4
--5
--6
--62
--65
--67
--68
--69
--7
--71
--73
--74
--76
--77
--78
--79
--8
--9
--a
--ab
--able
--ad
--age
--ah
--ai
--ail
--ak
--al
--ally
--am
--an
--ance
--ant
--ap
--aphy
--ar
--args
--ary
--as
--ase
--at
--ate
--ated
--ates
--ation
--ations
--ator
--ature
--ay
--b
--ball
--bar
--be
--ble
--box
--c
--ca
--cal
--ce
--ced
--cent
--ces
--ch
--ched
--ck
--cks
--co
--cs
--ct
--cted
--cts
--cy
--d
--da
--data
--date
--de
--ded
--di
--ding
--ds
--dy
--e
--ea
--eak
--ec
--ed
--ee
--ef
--el
--ely
--em
--en
--ence
--ens
--ent
--ents
--ep
--er
--ere
--ered
--erence
--ers
--ery
--es
--ess
--est
--et
--ets
--eve
--ever
--ey
--f
--fe
--fect
--ft
--ful
--fy
--g
--ga
--ge
--ged
--ges
--gh
--ght
--go
--gs
--h
--ha
--he
--hed
--hes
--hi
--hing
--ht
--hua
--i
--ia
--ial
--ian
--iant
--ibute
--ic
--ica
--ical
--ice
--ics
--id
--ie
--ied
--ient
--ier
--ies
--ification
--ify
--ig
--ii
--il
--ily
--imum
--in
--ine
--ing
--ings
--io
--ion
--ional
--ions
--ior
--ique
--ir
--is
--ise
--ised
--ish
--ism
--it
--ite
--ities
--itive
--itude
--ity
--ium
--ive
--ively
--ivity
--ix
--ization
--ize
--ized
--j
--ji
--k
--ka
--kar
--ke
--key
--ki
--ks
--l
--la
--lapse
--ld
--le
--led
--les
--less
--ley
--li
--ling
--link
--list
--lk
--ll
--lly
--ls
--ly
--m
--ma
--me
--ment
--ments
--mission
--mit
--mp
--ms
--n
--na
--nal
--name
--nce
--nch
--ncy
--nd
--ne
--ned
--ner
--ness
--ng
--ngs
--ni
--nia
--ning
--nk
--no
--ns
--nt
--nts
--ny
--o
--obj
--ock
--od
--of
--og
--ogy
--ol
--ology
--om
--omy
--on
--one
--ons
--or
--ors
--ory
--os
--osed
--ot
--ou
--ough
--ous
--ow
--p
--page
--pe
--ped
--ping
--po
--ps
--pur
--q
--r
--ra
--ram
--rd
--re
--rgs
--ri
--ring
--rk
--rm
--rn
--rry
--rs
--rse
--rt
--ry
--s
--se
--sed
--selves
--ser
--sh
--sion
--sis
--son
--ss
--st
--t
--ta
--tal
--tance
--tb
--tch
--te
--ted
--tely
--tes
--text
--th
--tha
--ti
--tic
--ting
--tinue
--title
--tive
--tle
--tly
--to
--ton
--tor
--tr
--ts
--tt
--tta
--tu
--ty
--tyle
--type
--u
--ud
--ue
--ught
--ul
--ula
--ular
--um
--up
--ur
--ure
--ures
--url
--us
--ut
--ute
--utes
--v
--vant
--ve
--ved
--ving
--w
--wa
--wn
--x
--y
--ya
--z
--ई
--ए
--एस
--क
--कट
--कर
--ख
--ग
--गड
--गत
--गर
--घ
--ङ
--च
--चन
--छ
--ज
--झ
--ट
--ठ
--ड
--ढ
--ण
--त
--थ
--द
--दर
--ध
--न
--प
--पट
--पण
--पत
--पद
--पर
--फ
--ब
--भ
--म
--मध
--य
--यन
--र
--ल
--ळ
--व
--वण
--वर
--वल
--श
--शक
--ष
--स
--ह
--०
--००
--१
--२
--३
--४
--५
--६
--७
--८
--९
