!
"
#
##0
##1
##10
##11
##12
##13
##14
##15
##16
##17
##18
##19
##2
##20
##21
##22
##23
##24
##25
##26
##27
##28
##29
##3
##30
##31
##32
##33
##34
##35
##36
##37
##38
##39
##4
##40
##41
##42
##43
##44
##45
##46
##47
##48
##49
##5
##50
##51
##52
##53
##54
##55
##56
##57
##58
##59
##6
##60
##61
##62
##63
##64
##65
##66
##67
##68
##69
##7
##70
##71
##72
##73
##74
##75
##76
##77
##78
##79
##8
##80
##81
##82
##83
##84
##85
##86
##87
##88
##89
##9
##90
##91
##92
##93
##94
##95
##96
##97
##98
##99
$
%
&
'
(
)
*
+
,
-
.
/
0
00
000
01
02
04
06
07
08
09
1
10
100
101
1016
102
103
1035
104
105
106
1066
107
108
1087
11
110
1100
1106
111
1130
114
115
1154
117
118
1184
1185
1187
12
120
121
123
124
125
128
13
134
135
14
140
1410
1470
1483
1496
15
150
15212
1525
1527
1528
1529
1530
1536
154
1553
1554
156
1561
1567
1571
16
160
1603
1616
1644
1649
1650
1651
166
1660
16602
1663
1666
1669
1670
1671
1672
1679
168
1680
1681
1682
1683
1685
1688
1689
1690
1691
1692
1694
1695
1696
1698
17
1700
1702
1703
1704
1706
1707
1708
1709
1710
1711
1712
1713
1715
1716
1717
1718
1719
1720
1722
1723
1727
1728
1729
1731
1733
1734
1735
1737
1738
1740
1741
1742
1744
1745
1748
1749
1750
1751
1752
1753
1755
1756
1757
1758
1759
1760
1762
1763
1764
1766
1767
1769
1770
1772
1774
1775
1776
1777
1778
1779
1780
1781
1782
1783
1784
1785
1786
1787
1788
1789
1790
17901
1791
1792
1793
1794
1795
1796
1797
1798
1799
18
180
1800
1801
1803
1805
18051
1806
18062
1807
1808
1809
1810
1811
1812
1813
1814
1815
1816
1817
1818
1819
182
1820
1821
1822
1823
1824
1825
1826
1827
1828
1829
183
1830
1831
1832
1833
1834
1835
1836
1837
1838
1839
1840
1841
1842
1843
1844
1845
1846
1847
1848
1849
1850
1851
1852
1853
1854
1855
1856
1857
1858
1859
1860
1861
1862
1863
1864
1865
1866
1867
1868
1869
1870
1871
1872
1873
1874
1875
1876
1877
1878
1879
1880
1881
1882
1883
1884
1885
1886
1887
1888
1889
1890
1891
1892
1893
1894
1895
1896
1897
1898
1899
19
190
1900
1901
1902
1903
1904
1905
1906
1907
1908
1909
1910
1911
1912
1913
1914
1915
1916
1917
1918
1919
1920
1921
1922
1923
1924
1925
1926
1927
1928
1929
1930
1931
1932
1933
1934
1935
1936
1937
1938
1939
1940
1941
1942
1943
1944
1945
1946
1947
1948
1949
1950
1951
1952
19522
1953
19530
1954
1955
1956
1957
1958
1959
1960
1961
1962
1963
1964
1965
1966
1967
1968
1969
1970
1971
1972
1973
1974
1975
1976
1977
1978
1979
198
1980
1981
1982
1983
1984
1985
1986
1987
1988
1989
1990
1991
1992
1993
1994
1995
1996
1997
1998
1999
2
20
200
2000
2001
2002
2003
2004
2005
2006
2007
2008
2009
201
2010
2011
2012
2013
2014
2015
2016
2017
2018
2019
2020
2021
2022
203
204
206
21
211
213
214
215
22
220
222
223
225
23
230
231
232
234
237
24
240
247
25
250
254
256
26
267
27
270
271
28
280
287
29
299
3
30
300
3000
302
303
308
31
314
32
320
33
337
34
340
35
350
357
36
360
37
370
38
380
39
393
4
40
400
406
41
412
415
42
425
43
44
447
45
46
460
462
47
48
49
5
50
500
501
507
51
525
53
54
55
551
56
57
58
59
593
6
60
600
6026
61
610
62
63
64
65
650
659
67
676
68
69
7
70
700
71
717
72
74
75
76
77
8
80
800
81
814
82
83
85
850
86
87
8811
898
9
90
900
924
93
939
94
944
95
959
96
968
97
978
987
988
99
:
;
<
=
>
?
@
\
^
_
`
a
aa
aabinne
aablick
aach
aaditya
aadler
aafang
aafange
aag
aage
aageduh
aageh
aagfange
aagfiehrt
aagnumme
aagscht
aahenger
aakumme
aamarrickunge
aanfang
aangeh
aankomm
aarau
aarde
aardich
aardlich
aare
aargau
aarich
aarick
aarisch
aarm
aarmediener
aarmut
aaron
aart
ab
abajo
abba
abbadich
abbotsford
abd
abdeeling
aber
abgeleed
about
above
abraham
abrigose
abrigosebaam
abril
abrill
absolute
absolutely
academic
academy
account
ace
aces
ach
acht
achtris
acid
acker
acres
across
act
action
active
activities
actor
actress
adam
adams
addams
adder
addning
adelheid
adeliche
adeline
adler
adolf
advanced
adventures
aecker
aehnlich
aeltscht
aerbs
aerscht
affair
affis
afganischtaan
afrikaa
afrikaanisch
after
again
age
agfange
agnes
ago
aguila
aguilera
ah
ain
air
aires
akron
aktivist
al
alan
alaubt
albaani
albany
alben
albert
alberta
albrecht
album
albums
alburtis
alcubilla
ald
aldborough
alde
alder
aldes
aldi
alemannisch
alemannische
alexander
alf
alfred
ali
alice
alito
all
allan
alle
allee
allegany
allegebott
allelieweziel
allem
allen
allenschteddel
allentaun
allentown
aller
allerhand
allerlei
alles
alleweil
allgemeene
alli
alliance
allie
alliebber
alliwwer
allo
allweil
allzwee
almaza
alom
along
alphabet
als
alsace
alsdann
alsemol
alsfatt
also
alt
alte
alten
alter
alto
altoona
altschieri
alvin
always
alzey
am
amadeus
amanda
ame
amen
america
american
americana
amerika
amerikaa
amerikaanisch
amerikaanische
amerikaanischer
amerikaas
amerikanische
amerikanischer
ames
amherst
amies
amisch
amischbischof
amische
amischer
amischfraa
amischi
amischmann
amish
amisha
ammann
among
amos
amschel
amt
amts
an
anabaptist
anabaptists
anabel
anarchism
and
andere
anderson
andorra
andre
andreas
andrew
andy
angel
angela
angeles
angels
angesiedelt
angie
angkor
angola
animaniacs
ankemmlinge
ann
anna
annals
anne
annekdierd
annemme
anner
annere
anneri
anners
annerscht
annie
anno
annonymous
annre
annri
annville
another
ans
anschtatt
ansiedelung
anthem
anthology
anthony
aol
apart
appendix
april
arabia
arafat
arbeitsgemeinschaft
arbeitskreis
arbor
archie
architecture
archiv
archive
archives
ardickel
are
area
arebschaft
areostationary
areosynchronous
arewet
arg
argonauts
ariyets
arizona
arkansas
arliss
arm
arme
armee
armeni
army
arner
arni
arnie
around
arrested
arrewet
arrig
art
arthur
articles
artist
artists
arts
artschenti
arwet
as
asatru
ase
aserbaidschan
ashland
asie
ass
assembly
assessing
assistenzprofessor
associated
association
at
atatu
atlanta
atlantic
attlich
au
auch
audience
auf
augscht
auguschd
auguscht
august
augusta
aus
ausbund
auschdria
ausgab
ausgschtarrewe
auslenner
aussem
aussicht
australia
australie
austria
auswanderer
auswanderermuseum
auswannerer
auswannerung
auswenniche
automatic
automone
autosegmental
autseit
autumn
auß
auße
außerordentlicher
außfu
ave
avenue
avvah
aw
award
awards
away
awer
awwee
awwer
b
ba
baam
baamgaarde
baamscheer
baapscht
babier
babiere
bac
bach
back
backe
bad
badden
bade
baden
badger
baehm
baend
baer
baere
bahamas
bahn
bai
baile
bainbridge
bal
bald
baler
ball
ballad
balle
ballidicks
ballidische
ballidischener
ballidischeners
ballidischer
baltic
baltimore
band
bang
bangkok
bank
bann
banndeitsch
bannet
bannets
bar
barack
baral
barba
barbados
barbara
barbarossa
barefoot
baricks
barig
barigschtrooss
bariye
barney
barock
barricks
barriye
bart
base
based
basel
bass
basst
batdorf
bau
baue
bauer
bauere
bauerei
bauereie
baueres
bauersfraa
bauersleit
baumannsdarrif
baure
bausman
baut
bavaari
bavaria
baver
bawm
bay
bayerische
bayern
bayubas
bc
bd
be
beach
beachy
beam
bean
bear
beast
beastie
beatles
beautiful
beaver
bec
became
because
bechtel
beck
bed
bedeit
bedford
bedracht
bee
beecher
beed
beede
beeler
beem
bees
beesballe
beese
beet
befeschtigung
before
begehren
beginners
beginnt
begriff
beh
behavior
beherrsche
bei
beijing
beike
beiler
beim
being
beischpiel
beischpiele
beispiel
beissel
beka
bekannd
bekannt
bekannte
bekennt
bel
belgien
beliefs
belize
bell
bellen
belleville
bellis
belsm
belsnickel
belvedere
belznickel
ben
bena
bend
bender
benedict
benennt
benin
benjamin
benny
bens
benson
benz
ber
bereids
bereit
berg
berge
bergstrasse
bericht
berkeley
berks
berle
berlin
berliner
bern
bernard
bernd
berner
bernie
bernville
berry
bertha
beru
beschde
beschreibung
bescht
beschte
beschtimmt
besetzd
besitz
besonders
besonners
besser
best
betdaag
bethel
bethlehem
betroge
bett
between
beulah
beverly
bevo
bevor
beweging
bewegt
bewegunge
beweisunge
bewitched
bey
beyonce
beyond
bezaahle
bezahle
bezirksdaach
bhalde
bible
bibliographie
bibliothek
bicher
bichli
bichlin
bier
bierschtee
biet
biewel
big
bild
bill
billboard
billy
bimmen
bin
bingen
binh
binomio
bio
biobi
biography
bird
birds
birmelin
bis
bischli
bischof
bischop
bischt
bischuf
bishop
bisness
bissel
bistorf
biwel
biwwel
black
blackbird
blair
blank
blantze
blanze
blanzeheilkunscht
blaschder
blatt
blattdeitsch
blattdeitsche
blatz
blatznaame
bledder
bleech
bleed
bleen
bleibt
bleiwe
blendi
blessier
bletz
bletznaame
bleu
blick
blitz
blobarrickgrat
blog
bloh
blood
bloodhound
bloopers
blooss
blossom
blue
bluehe
bluffton
blug
blumm
blumme
blut
bo
board
boat
bob
bobbeli
bobbli
bockenheim
bockrem
bocuk
bodde
boddel
body
bofflo
boge
boggi
boggis
boie
boisclair
bojalwe
bolivien
bonaparte
boniswil
bonn
bontrager
bonus
book
books
boot
boots
boppeli
boquero
borat
bord
born
borough
bortsch
bosna
bosne
bosnia
bosnien
bosom
boss
boston
both
botschaft
botsuana
botswana
bottom
boundary
box
boy
boyer
boys
bra
brady
branch
brandenburg
branta
brasilia
brasilianische
brasilien
bratislava
brauch
brauche
braucher
braucherei
braun
braune
brazil
break
breakfast
brecknock
breddiche
breddicher
breddicherbuch
breddiches
breet
breinigsville
breininger
brendle
brenneman
bresident
brethren
breton
bretzel
brewster
brian
brick
bricke
briddische
bridge
bridges
bridget
brieder
brief
brigg
brigge
brillt
bringe
bringt
brintzenhoff
brisco
bristol
britain
britisch
britische
british
broad
brofesser
bronner
broogramming
brooks
broot
brot
brother
browiere
brown
bru
brubaker
bruce
bruder
brugg
brunne
brunner
brussels
bschteht
bsuche
bsucht
bsunne
bu
buch
buchanan
buckel
bucket
bucks
budapescht
buddies
budget
buedem
buenos
buffalo
buffington
buh
buhn
buhne
bukan
bulgarien
bull
bunch
bundel
bundeslenner
bundesliga
bungert
bunker
bunnes
bunnesbresident
bunnesland
bunneslenner
bunnesschtaat
burch
burn
burnett
burning
burns
busch
buschel
buschmelassich
bush
business
but
butch
buttons
butzemann
buwe
buwele
buzzard
by
bye
byler
bytom
c
ca
cabin
cabrejas
cackling
caernarvon
calgary
calhoun
calico
california
call
called
calling
calvacade
calvary
calvin
cam
cambridge
came
camera
campo
camps
campus
can
canada
canadensis
canadian
canadier
candid
cannon
canoe
canton
cape
capital
capitol
car
caracena
carbon
cardinal
carduelis
career
carl
carmen
carol
carolina
carpenter
carpenters
carrascosa
carroll
carrollton
carson
carter
cash
castilla
castle
castles
cat
catch
category
catharine
catharines
catherine
cats
cattanooga
cause
cc
cd
cds
cdu
cedar
census
center
central
centre
century
ceremonial
cfl
ch
cha
chachi
chaco
chad
chain
chair
chan
channel
chaotic
chapel
chaplin
chapter
charge
charles
charlie
charlotta
charm
charming
chaux
cheektowaga
cheers
cheney
chesley
chesney
chester
chestnut
chi
chicago
chico
children
chile
chili
chilliwack
chimney
china
chinese
ching
chipmunks
choice
chor
chorzo
chre
chris
christ
christen
christi
christian
christiana
christina
christmas
christoph
christopher
church
churches
churchtown
cincinnati
circle
circus
city
civil
ck
cke
cken
ckisch
cl
claire
clarence
clarissa
clark
class
classics
claus
clay
clinton
close
clothing
club
clubs
co
coach
coal
coast
cobar
cocaelico
cocaine
cocalico
code
codorus
cohen
cois
col
colinus
collection
college
collide
colombia
colonial
colony
color
colorado
columbia
columbus
com
comedian
comedies
comedy
comfort
commercial
committee
common
communication
communities
community
company
complex
comprehensive
computer
con
conan
concepcio
concert
condition
conemaugh
coneschtoga
coneshtoga
conestoga
conference
congo
congregation
connecticut
conrad
conservative
conservatives
considered
constraints
contact
contains
contemporary
contest
control
controller
controls
conversation
cooper
coopersburg
coptis
corbin
cordial
corner
corporation
cosby
coturnix
council
counties
country
county
couple
court
courtship
cove
cover
cow
cowboys
cpt
crane
crawford
creedence
creek
crefeld
cresheim
critic
crop
crops
cross
crossroads
crow
crypt
cuckoo
cultural
culture
cumberland
cummings
cunningham
curb
curieuse
curitiba
cusano
cut
cy
cybill
cyrus
d
da
daa
daach
daadi
daadum
daafer
daag
daage
daal
daaler
daan
daat
dabei
dach
dad
dadde
daddi
dads
dady
daed
daer
daere
daerich
daet
daffin
dag
daheem
dahin
dahl
daisies
daisy
dakota
dale
dallas
dame
damit
dan
daniel
dank
dann
danny
dans
danse
danville
dao
dar
darch
darich
dark
darmstadt
darreflin
darrich
darrichwax
dart
darvin
das
dass
dat
datei
dative
datschikischtaan
datt
dauere
dauert
daughter
daume
dauphin
dausand
dausend
daut
dave
david
davidsville
daviess
davis
dawg
day
days
daytime
dazu
daß
dc
dde
de
deacon
dead
dean
dear
death
debei
deceased
december
deckt
dee
deede
deel
deels
deep
deer
deet
deete
deheem
dehinner
dei
deich
deidschland
dein
deine
deities
deitliche
deitsch
deitsche
deitscher
deitscherei
deitsches
deitscheschteddel
deitschi
deitschie
deitschische
deitschland
deitschlenner
deitschlennische
deitsh
del
delaware
delong
delta
dem
demegraadisch
demm
demmegraad
demokratische
den
denemarrick
denk
denke
denkmal
denkt
denn
denne
dennis
density
denver
department
deputy
der
dere
derfe
derfer
derkem
derre
des
descendants
designing
dess
detweiler
deutsch
deutsche
deutschen
deutscher
deutschland
development
devil
devun
dezember
dezu
dhaler
dheel
dheer
dhet
dhu
dhun
dhut
di
dialect
dialects
dialekt
dialekte
dich
dichder
dichter
dick
dictionary
die
dieb
died
dief
dien
diener
dient
dier
diere
diese
diesel
diesem
diesen
dieser
dieweil
diff
difference
different
digav
digest
dihr
dina
dindebeer
ding
dinge
dinger
dings
dinn
dinosaurs
dinschdaag
dinschdaags
dion
dir
direct
director
disch
dischdelfink
discografy
discography
disember
disney
dissertation
distance
distelfink
district
districts
dixie
dna
do
doberan
dobie
doch
dochder
dochter
dockter
dod
dodd
dode
dodebei
dodefa
dodemit
dodezu
dodt
dog
dogs
doh
dokder
dokter
doky
dolbehock
dolly
dolpehock
dom
domitian
domols
don
donald
dong
donkey
donmoyer
donn
donna
donner
doo
doogie
doors
doot
dorch
dord
doris
dorothy
dorsch
dort
dossenheim
dot
dotgmacht
dottie
double
douglas
dover
dow
down
downingtown
downtown
dpak
dr
dra
draa
draage
draagt
draam
drama
drankopfer
draus
drauss
dream
dreamcatcher
dreck
dreen
drefft
drei
dreissich
drents
dresche
dridde
drin
drinke
drinkt
dritt
drive
driwwe
driwwer
drop
drowwe
druck
druckblatz
drucke
druckenbrod
drucker
druckt
druf
druff
drum
drumm
drummsaeg
drums
drunne
drunnel
drupp
druppe
druwwel
dry
dscha
dschent
du
dublin
duero
dugan
duh
duhn
duhne
duht
duich
duke
dum
dumm
dumme
dunkard
dunker
dunn
dunner
dunnerschdaag
dunnerschdaags
dunwich
durch
during
dutch
dutchman
dutchmen
dutt
dutzend
duwack
dyke
e
each
eagle
eagles
earl
early
earth
earthy
east
eastern
easthope
easton
easy
eat
eb
ebaut
ebbel
ebber
ebbes
eberbach
ebersol
ebersole
ebertsheim
ebmols
ebwohl
eby
echo
eck
economic
ecuador
ed
eddie
edelstol
eden
edgar
edirne
edited
edition
editor
edmund
edward
edwin
ee
eefach
eegne
eegner
eegni
eem
eemer
eemol
een
eener
eeni
eenich
eeniche
eens
eer
eerschd
eestereich
eestreich
efders
effentliche
efforts
effridaa
egsaempel
egypt
ehm
ehr
ehre
ehrlich
ei
eich
eicher
eier
eigesetzt
eighteenth
eigsetzt
eil
eiland
eile
eilenner
ein
eine
einem
einer
eines
einfu
eiropaa
eiropeeische
eis
eishockey
eisiedler
eisland
eiwannerer
eiwuhner
ekfrid
el
elam
elbedritsch
elbedritschlicher
elder
eldere
eldeschder
eldre
eldscht
electric
eli
elisabeth
elizabeth
elkhart
ellen
ellie
ellsdaun
elmira
els
elsa
elsass
elwedritsch
elwedritsche
elwedritschlicher
em
emanuel
eme
emichsburg
emigration
emil
emma
emmaus
emol
empire
empty
emu
en
enanner
encyclopedia
end
endli
endlich
ene
energie
engel
engella
england
engle
englisch
englische
englischer
english
enn
enner
ennere
ennich
enniche
ennichebber
ennihau
ens
ent
ente
entertainment
enthusiasm
entourage
entropi
entropie
entschtanne
entwedder
entwickelt
enunner
enyvales
ep
ephrata
episcopal
epmols
epp
eppelwei
epper
eppes
equinox
er
era
erb
erd
erde
erer
erfolge
erfolk
erfunne
erfweiler
ergebnis
erhalde
erie
erkla
erlaubt
erlees
erlo
ermuntert
ern
ernest
ernst
errichd
erricht
ersch
erschaffe
erschaffing
erschafft
erschd
erschde
erscht
erschte
erste
erwa
erza
es
eschdooni
eschelbronn
ess
essay
esse
essenheim
esst
established
establishment
esteban
eswatini
et
etc
ethics
ethnic
etliche
eu
euch
euro
europa
europe
european
evangelical
evangelisch
evangelische
evans
evaristus
eve
even
evening
event
ever
every
everybody
ew
ewe
ewich
ewicher
ewichkeit
ewig
ewigkeit
ewwe
ewwer
ewwerscht
ex
example
except
exclusive
execution
executive
expanded
explains
eye
eyes
eyton
ezra
f
fa
faahne
faahre
faahres
faahrt
faasnacht
faasnachtkuche
fabrication
facebook
fact
factory
facts
fadder
faddich
faekt
faerewe
fahre
faith
fakeovers
fal
falckner
fall
falle
falls
fallt
familie
familien
families
familiye
family
familye
famous
fang
fange
fangt
fannie
fanny
far
farce
fareb
faricht
farm
farmer
farmers
farming
farms
farmwald
farr
farwe
fascht
fast
father
fatt
faul
favorite
fc
fdp
fe
features
februar
february
federal
feel
feela
fehler
fehlt
fei
feier
feierheerd
feil
feld
felder
fellowship
fenach
fens
fenschter
fer
ferdinand
fers
ferschde
ferschdedum
fersommling
ferwas
feschde
fescht
feschtdaage
festival
fett
fetter
fiehl
fiehlt
fiehr
fiehrer
fiehrt
fiel
field
fiere
fiess
fifth
filadelfi
filadelfia
file
fille
filled
fillmore
film
fimf
fimft
find
finden
fine
finf
finger
fingerhut
fink
finland
finne
finnscht
finnt
finschternis
fir
fire
firma
first
fisch
fischbach
fische
fischer
fischerei
fish
fisher
fist
five
fla
flag
flax
fleesch
fleetwood
fleggel
fleiss
fliege
fliegende
fliesst
fliggel
flink
flint
floor
florence
florida
floridaa
flows
flughafe
fluss
flying
fo
fogelsville
fogerty
folgende
folk
folkband
folklife
folklore
folksongs
foll
fom
fon
foohn
fools
foot
football
footballe
for
force
forge
form
format
former
forrest
fort
fortune
forward
foster
found
founder
four
fourth
fox
fra
fraa
fraae
frac
fraede
fragt
frai
fraktur
frameless
franc
france
frances
francis
francisceum
francisco
francke
franckfurt
franconia
frank
franken
frankenthal
frankfurt
frankfurter
franklin
frankreich
franz
franzeesisch
franzeesische
franzesisch
franzo
franzose
frasier
frau
frauenbewegung
fraw
frederick
fredericksburg
free
freed
freedom
freenkisch
freht
frei
freiburg
freidaag
freie
freiheit
freind
freindlich
freindschaft
fremm
french
fresh
fresno
fresse
freunde
frey
freya
friday
fridays
fridde
friderico
friede
friedrich
frieh
frieher
friehere
friehyaahr
friends
friesland
frigg
frisch
fritsch
fritz
froese
frog
froge
frogt
froh
from
frommen
front
frosch
fru
frucht
fruchtbar
fruehyohr
fry
fu
fuder
fuhremennischde
fuhremennischte
fuhs
full
fum
fun
funck
funk
funn
funne
funniest
fusions
futurama
future
fux
fv
fwg
g
ga
gaar
gaarde
gab
gabora
gabun
gadget
gaelic
gaelickerei
gaerschde
gaesa
galaxy
gale
gallery
gallewoch
gallus
gambler
game
gameo
gang
gange
gangsta
gans
ganse
ganz
ganze
gap
gar
garcia
garden
garver
gary
gas
gaul
gaussian
ge
geauga
geb
gebaut
gebb
gebei
gebeier
gebet
gebiet
gebild
gebliwwe
gebore
geboren
gebottsblatz
gebrocht
gebrung
gebt
gebts
gedaaft
gedanke
gedder
gedderin
gedderinne
gedenkt
gedhu
gedichde
gedichder
gedicht
gedichte
gedichter
gedier
gediere
gedollisch
gedollische
gedrei
gedruckt
geduh
geegge
geeich
geel
geele
geelisch
geess
gefahr
gefu
gege
gegeben
gegend
gegende
geglaabt
gegliche
gegraawe
gegrind
gegrindet
gegrindt
gegrische
gegru
geguckt
geh
gehadd
gehatt
gehe
geheert
geheirad
gehich
gehl
gehling
gehman
gehn
gehne
geht
geil
geile
geili
geindresst
geischt
geischter
gekaaft
gekennd
gekennt
gela
gelacht
gelannt
geld
geldhewer
gelebt
gelegen
gelegge
gelehrt
gelernt
geloffe
geloßd
gema
gemachd
gemacht
gemee
gemeende
gemeene
gemeent
gemeh
gemeinde
gemeinden
gemeindezentrum
gemolt
gen
genaa
genannt
genau
genauso
gene
genennd
genennt
general
generation
generative
genetic
gens
gensblumm
gentlemen
genumme
genunk
geographische
geographischi
georg
george
georges
georgia
georgie
gepublisched
gepublischt
gepublished
gepublisht
gepubliziert
gerber
gereest
gerennt
german
germanische
germans
germansville
germantown
germany
gern
gerufe
geryville
gesagt
geschdorb
geschichde
geschicht
geschichte
geschpielt
geschribb
geschtaerewe
geschwetzt
geseet
gesellschaft
gesettelt
gesse
get
geteetscht
gettysburg
gewa
gewaihd
gewe
gewebb
gewebbblatt
gewebbgeleecher
gewebbgleecher
gewebblatt
gewebblinks
geweehnlich
gewese
gewest
gewiss
gewisse
gewisst
gewo
gewohnheide
gewohnt
gewuhnt
gewwe
geyuust
gezoge
gezogge
gezwitscher
gfaahre
gfaerebt
gfloge
gfrogt
gfroogt
gfunne
ghadde
ghalde
ghana
ghat
ghatt
gheere
gheert
gheese
gheesse
gheiert
gholfe
ghost
gi
giang
giant
gibt
gideon
gidget
gieb
gift
gilbert
gilligan
gillis
gilmore
gimme
ging
gings
gingt
ginn
girl
girls
gje
gkaaft
glaab
glaabt
glaawe
gladys
glannt
glas
glauben
gleason
glee
gleecher
gleeder
gleen
gleene
gleener
gleeni
glei
gleich
gleicha
gleiche
glick
glicklich
glied
glieder
glises
global
globbt
globe
glocke
gloischder
glory
glu
gmacht
gmee
gmeehaus
gmeeheiser
gmeene
gmeenerhand
gmeent
gmeeschafde
gmeeschaft
gmeeschafte
gmolt
gnage
gnannt
gnepp
gnie
gnippli
gnome
gnumme
go
goat
god
godal
godfather
goes
gold
goldbergs
golden
goldene
gone
gonz
gonzales
gonze
gonzi
good
goods
goodville
goodwill
google
goose
gordon
gordonville
gormaz
goschenhoppen
goshen
goshenhoppen
got
gott
gottes
gottesdienscht
gottheide
gottheit
gottlieb
gouf
gouvernehr
gov
government
governor
gowenier
gra
graabhof
graad
graas
grab
grabb
grace
gracie
grad
graduate
graeff
graeher
graf
grafe
graffenried
grafschaft
graizgewo
grammar
grand
grande
grandma
grank
grankheit
grant
gras
graut
grave
gray
great
greatest
grebel
greda
green
greenbriar
greenville
grees
greeschd
greeschde
greescht
greeschte
greesscht
greesser
greischt
greizweg
greizwegschtor
grense
grenst
grenz
grenze
grey
gribda
grick
gricke
grickt
gridcolor
grie
griechenlen
grieg
griege
griene
griffith
grimm
grind
grinde
grinder
grindt
grinnschdadd
grischde
grischdlicher
grischt
grischtdaag
groffdale
groose
grooss
groossdaadi
groosse
groosser
groossi
groossordich
grose
gross
grosse
grosser
grossfadder
grossi
group
grouse
grove
growing
grown
gru
grubb
grubbe
grube
grumbine
grummbeere
grund
grundsau
grundsaudaag
grundsei
grundsow
grupp
gruppe
gsaagt
gsaat
gschafft
gscharr
gschehe
gschicht
gschichte
gschickt
gschpielt
gschplitt
gschriwwe
gschtaerewe
gschtaerrewe
gschtaert
gschtaerwe
gschtarewe
gschtarrewe
gschterdt
gschtorwe
gschtudiert
gschwetzt
gschwind
gsegend
gsegnet
gsehe
gsehne
gsellschaft
gsettelt
gsetzt
gsezd
gsucht
gsunge
gtv
gu
guardian
guck
guckbax
gucke
guckt
gud
gude
guder
guelph
guide
guinea
guitar
guk
gukt
gustav
gut
gutbekannte
gute
guter
guth
gutknecht
guuck
guud
guude
guuder
guudi
guut
guy
guys
gweehnlich
gwehnlich
gwelle
gwesst
gwest
gwinner
gwisst
gwohnt
gwordde
gwuelle
gwuhnt
gwunne
gymnasium
gyuust
h
ha
haag
haahne
haaptman
haaptmann
haaptschtadt
haar
haardt
haardtgebirge
haas
hab
habe
haben
habsburg
hachi
had
hadd
hadding
haert
hai
haid
halb
halber
halde
half
halifax
hall
halle
hallich
hallichi
hals
halt
halte
halwer
hambacher
hambarrig
hamburg
hamilton
hammer
hampshire
han
hancock
hand
handlung
hangin
hanks
hann
hannes
hanning
hanoi
hanover
hans
hanson
happened
happening
happy
harbaugh
hard
harebscht
harfe
haring
harleysville
harmony
harold
harper
harrde
harriet
harrisbarrig
harrisburg
harrison
harrisonburg
harrsch
harry
hart
hartford
hartman
hartmann
hartz
hartzler
harvard
harvey
has
hasch
hasse
hat
hatt
hatz
haufe
haupt
haus
haut
have
havel
haven
haw
hawai
hawk
hawwe
hawwer
hawwich
hbo
he
head
headquarters
healing
heart
hearts
heaven
heavy
hebt
hee
heecher
heef
heeh
heem
heemat
heemelt
heemet
heemetblatt
heemetbledder
heemkomm
heemweh
heer
heerd
heere
heerscht
heert
heese
heess
heesse
heesst
heest
heffendrager
heh
heid
heidedaags
heidelberg
heidesdaags
heidichdaags
heidiche
heidische
heiere
heiert
heights
heil
heile
heilich
heilig
heilisch
heinrich
heinz
heire
heiser
heit
heitzudaags
helene
helfe
helfer
helft
hell
helmut
help
hemmer
hen
hend
hengt
henke
henn
henning
henry
her
herald
heraus
herbei
herbert
hercegovine
here
hereford
heritage
herkumme
herkummes
herman
hermany
hernach
heroes
heron
herr
herrlich
herrnhuter
hertz
hertzler
herum
herz
herzegovina
herzegowina
hess
hessche
hesse
hessen
hesston
het
hett
hewe
hex
hexezeeche
hi
hickerniss
hickory
hie
hier
hiet
high
highest
highlands
hij
hildebrand
hilf
hill
hillbillies
hills
hilton
him
himmel
hin
hinkel
hinkletown
hinne
hinner
hip
his
historian
historians
historic
historical
historie
historische
history
hits
hitz
hiwwe
hiwwel
hlt
hm
hmten
hnlich
ho
hoa
hoch
hochdeitsch
hochdeitsche
hochkant
hochlennisch
hochstetler
hock
hocke
hockey
hockt
hod
hodda
hodder
hods
hof
hoffman
hoffmann
hoffnung
hogan
hoi
hoiet
hol
hole
holfe
holland
holle
hollebeer
hollerbeer
hollerbeier
holly
holmes
hols
holstein
holt
holtzmann
holz
homburg
home
homeland
homely
hon
honeymooners
honolulu
honor
hoochdeitsch
hooley
hoover
hop
hope
hopkins
horch
horizon
horne
horning
horses
horst
hoscht
hosensack
hosse
hossesack
host
hostetler
hostettler
hot
hotel
hott
hound
hour
hours
house
houston
how
howard
howser
hr
hradschin
hredinge
hrlich
hrsg
hrt
hrung
http
https
hu
hudson
hue
humanitarian
humansville
hund
hunde
hundli
hundpack
hunger
hunnert
hunsru
hunt
hunter
huntingdon
huron
husband
hut
hutchinsii
hutlerei
hutt
hwd
hymnal
hymns
i
ia
iahra
ice
iceland
ich
id
idali
identity
iert
iesi
ieven
if
igel
igelse
ihm
ihn
ihne
ihr
ihre
ihrem
ihrer
ihrm
ihrne
ii
iian
iii
il
ill
illinois
im
image
imelda
imme
immer
immerfort
immigrants
immigration
important
improvement
in
inauguracion
inc
including
increment
independent
india
indian
indiana
indianapolis
indians
indien
indonesia
indressante
industrial
influence
info
infobaabledder
information
ingbert
ingolstadt
inn
ins
insche
inschebuwe
inschein
insching
inschtatts
insel
inside
inspector
institut
institute
intercourse
international
internet
interpretative
interstate
into
introduction
inzwische
iowa
ipa
iprage
iraek
iraen
iran
iraq
ireland
irisch
irish
irland
iron
is
isaac
isbn
isch
ische
island
islands
isle
islisberg
isoglosse
israel
iss
isse
isser
isses
ist
istanbul
it
ito
its
iv
ivory
iwer
iwwa
iwwer
iwweraal
iwwerall
iwwergewwe
iwwergsetzt
iwwerloss
iwwers
iwwersetzing
iwwersetzt
ixheim
j
ja
jaahr
jack
jackie
jackson
jacob
jacobina
jacobs
jacques
jae
jahr
jahre
jake
jakob
jam
james
jamesport
jan
jane
janeiro
janet
januar
january
japan
japanisch
jay
jazz
jean
jeannie
jedem
jedes
jeff
jefferson
jeffersons
jegliche
jegliches
jehovah
jennifer
jersey
jerusalem
jesse
jesus
jetzd
jill
jim
jo
joan
joanie
joe
joey
johann
johannes
johannesburg
john
johnny
johns
johnson
johnstown
johr
johre
johrhunnert
joker
jokes
joliette
jonas
jonathan
jones
josef
joseph
josh
joshua
josua
journal
journalist
joy
jpg
jr
ju
juan
judeo
jul
juley
juli
julia
julius
july
junction
june
jung
junge
juni
juno
jura
jury
juscht
juschtement
just
justice
justus
k
ka
kaaf
kaafe
kaaft
kaarde
kaardeschpiel
kaerber
kaerich
kaeriche
kaerichliedbichli
kaerper
kahoka
kaiser
kaiserreich
kaiserslautern
kalemn
kalemns
kalendar
kalenner
kalifornie
kall
kallschdadt
kallstadt
kalsberg
kalt
kammer
kamp
kanaal
kanadaa
kanadier
kanadische
kandidaat
kangaroo
kann
kannscht
kansas
kanscht
kanton
kanu
kanzler
kapiddel
kappe
karfreidaag
karich
karl
karreber
karrech
karrich
karriche
karriere
karte
kartografie
kassel
kate
katherine
katie
kattowitz
katz
katze
katzejammer
kauffman
kaundi
kaundis
kayak
kaysa
kaz
kazakhstan
ke
kee
keebeck
keen
keenich
keeniche
keenichin
keenichreich
keep
keeping
kees
keffer
keh
kein
keine
keith
keller
kelpius
kemal
kempton
ken
kenisch
kenmore
kenn
kenna
kennd
kennde
kenne
kenner
kenneth
kennt
kennte
kenny
kent
kepp
kerch
kerchhof
kern
kersch
keschte
kessler
ketchup
kevin
keynote
keystone
khuong
kich
kick
kicke
kickers
kid
kids
kieh
kien
kiesel
kill
kilometers
kim
kincardine
kind
kindheets
king
kingdom
kinner
kinnerbichli
kirche
kishacoquillas
kiss
kisse
kitchen
kitchener
kittatinny
kitzel
kiwwel
klee
kleene
kleener
kleenie
klein
kleinfeltersville
kleve
kline
kloschder
klotzkopp
km
kms
knecht
knopf
know
knowing
knowles
known
knows
knox
ko
koch
koche
kocherthal
kocherthaler
kocherthalern
kocherthals
kocht
koenig
kohl
kohle
koko
kollitsch
koloniee
koloring
kolumbien
kolumne
kolwe
komm
komme
kommt
komponist
koneschtoga
konferenz
kong
kongo
kongress
konrad
konstantinopel
kontakt
kopp
korea
kors
korz
koscher
koscht
kotter
kounty
kra
kraft
kraichgau
krefeld
krefelder
kreider
kreislich
kreutz
krick
kriege
kriegsheim
kriegt
kriesem
kriet
krimi
krischdag
krischkindel
krischtbaam
krishdawg
kroaati
ksawt
ku
kubaa
kuche
kuh
kulp
kultscher
kultur
kumm
kumme
kummt
kumpanie
kumpni
kunkel
kunscht
kurferschd
kurpa
kurpalz
kurpfalz
kurt
kurtz
kusel
kutzeschtettel
kutztown
kuwait
l
la
laa
laae
laafe
laaft
laat
label
lache
lacht
ladann
ladeinisch
ladienisch
ladino
lads
lady
lafayette
lagrange
lah
laid
lait
lake
lam
lambert
lancaster
land
landau
landcompagnie
landis
landisville
landkord
landkreis
landmark
lands
landschaft
lane
lang
lange
langer
langi
langin
langley
language
lanne
lanning
lannt
lantz
lao
laos
lapp
lapps
lark
larry
las
lass
lasse
last
lat
late
later
latt
latter
laudenslager
lauderbach
laugh
laura
laut
laverne
law
lawrence
lawson
layer
laysa
lb
lbe
le
leacock
lead
leader
leaders
leading
league
leamington
learning
leasa
leave
lebanon
leben
lebendiche
lebens
lebnen
lebt
lechaa
lechaw
leckschen
leddiche
ledschde
lee
leed
leer
leewe
left
leg
legend
legends
legt
lehigh
lehighton
lehne
lehnt
lehr
lehre
lehrer
leicht
leichte
leid
leie
lein
leinmann
leipzig
leis
leit
lenape
lenger
lengeschder
lengeschderkaundideitsch
lengeschter
lenhartsville
lenner
lenzing
leo
leola
leon
leonard
leonardo
leopold
lerne
leroy
les
lese
leser
lesser
lesson
lessons
let
letschde
letscht
letschte
letterman
letters
lettlond
letz
leut
levi
lewe
lewis
lewwe
lheim
liard
liberal
liberty
library
licht
lichter
lidderadur
lieb
lieblich
liechtenstein
lied
liedbichli
liedel
lieder
liedli
liedlin
liege
liegt
lieli
lien
lies
liewe
liewer
life
lifted
liga
light
like
likely
lima
lincoln
line
linegrey
lineman
lines
linguistics
link
links
lion
lisa
lischde
lischt
list
liste
litauen
litaun
literatur
literature
lititz
little
live
lived
living
lizzie
ll
llc
lle
ller
llewellyn
lloyd
ln
lo
lobe
local
located
location
loch
locust
lodge
lodsch
lodsche
logo
loire
london
long
look
lopez
lord
lordi
lorenz
lorraine
los
lose
loss
losse
losst
lost
lot
lothre
lothri
lothringen
lothringer
lothringisch
louden
louis
louise
louisiana
love
loves
low
lower
lowhill
lp
lu
lucius
lucy
ludderisch
ludderische
ludderischer
ludwig
ludwigshafen
luft
lukas
lunenburg
lusch
luscht
lutheran
lutheraner
lutherische
lutherischer
luthrische
luthy
lutterisch
lutz
luxemburg
lydia
lynn
lyon
lzer
lzerwald
lzisch
lzische
lzisches
m
ma
maag
mach
mache
machen
macher
machine
macht
mack
macmaster
macon
macungie
mad
madagascar
made
madenford
madison
mae
maem
maetsche
mag
magan
magazine
magdalena
magdalene
magic
magnatone
mahantongo
mahoning
mahwah
mai
maier
mail
mailand
main
maine
mainland
maintenance
mainz
major
majority
make
making
mal
malawi
malcolm
malinda
malta
mama
mammal
mammi
man
manager
manatawny
mancher
manchmol
manitoba
manitobaa
mann
mannheim
mannichmol
mannsleit
manor
many
mao
map
maplandia
maple
maps
marathon
march
marcos
maretyrer
margets
margie
mari
maria
marian
marie
marine
marion
mariye
mark
market
marketing
markham
marlborough
marriage
marrickwaddiche
married
marriye
mars
marshall
martha
martian
martin
martina
martinsburg
mary
maryets
maryie
maryland
maschien
maschiene
massachusetts
massacre
mast
masters
matt
matter
matters
mattie
matz
mau
maude
maul
maus
max
maxatawny
maxim
maxwell
may
maya
maybe
mayberry
mayor
mays
maz
mb
mcbride
mccaa
mccoys
mchale
mckillop
md
me
meant
mecht
mecklenburg
med
media
medieval
medinaceli
mee
meecht
meed
meedel
meedli
meeglich
meen
meene
meening
meeninge
meenscht
meenschte
meent
meenz
meer
meeschdens
meeschder
meescht
meeschter
meets
meh
mehl
mehner
mehnscht
mehr
mehrere
mehrt
mei
meil
meili
meim
mein
meine
meinem
meiner
meisterschwande
member
members
memm
memorial
memphis
men
menace
menner
mennischde
mennischder
mennischt
mennischte
mennlich
menno
mennonischde
mennonische
mennonischte
mennonite
mennonitebischof
mennoniten
mennonites
mennonitische
mennopedia
mensch
mensche
menscht
mer
mercer
merk
merkel
merlegash
merry
mertztown
merzeid
messina
metropolregion
metz
mexico
mexikaanischer
mexiko
mi
miami
mich
michael
michel
michigan
mick
microsoft
mid
midd
midde
middel
middelalder
middelpunktlich
middem
middlere
middlesex
middlschiff
mie
mieh
miehl
miehle
mier
mifflin
might
migration
mike
mile
miles
milford
milhous
military
milk
mill
millbach
millcreek
miller
millersville
millich
millione
milliun
mills
millwood
millyone
millyoon
milton
milverton
mim
min
minanner
minder
minderheit
mindy
mine
mines
minh
mini
miniatur
minister
ministry
minor
minudde
minute
minutes
mio
mir
misch
mischt
miss
misse
mission
missionary
missions
mississauga
mississippi
missouri
mister
mit
mitaus
mitdiener
mitenanner
mitgenumme
mitglied
mitglieder
mitleid
mitnanner
mitt
mitte
mittelalter
mittwoch
mittwochs
mjks
mn
mo
modern
mohammad
mohawk
mohl
moi
mol
molasses
mole
moler
molly
mommies
monastery
mond
money
monk
monkees
monnem
monnschaft
monroe
monster
mont
montana
montbe
monte
montenegro
montevideo
montgomery
montre
montreal
montsoreau
monumental
moon
moond
moonlight
moonlighting
moore
moravian
morddeich
more
morgan
morgantown
morge
moritz
mork
mormon
morning
morris
morrison
mosambik
mose
moselle
moses
mosi
mosie
most
mother
motion
moto
motor
motz
mount
mountain
mountains
movement
movie
mozart
mp
mpelgard
mr
mt
mu
much
mudder
mudderschprooch
muddy
muhlenberg
mulroney
multi
mum
mund
mundaag
mundart
mundartdichterwettstreit
mundarttage
munder
munet
munsters
muriel
murphy
muse
museum
museums
music
musical
musick
musiganter
musik
muss
mustafa
muth
mutter
muufment
muun
muundaag
muunraad
muß
my
myerstown
mystery
mythologie
mythology
myuusick
mz
n
na
naach
naad
naame
naas
nach
nachricht
nacht
nachts
nadd
nadde
naddlich
naddwescht
nadierlich
naduur
naett
nafziger
nafzinger
nah
nahe
nai
naie
naies
nam
name
named
namen
namibien
nancy
nang
nanner
nanny
nappanee
nard
nashville
nass
nassau
natalia
national
nationale
nationalpark
nations
natt
natur
nau
naus
nausgschitt
navy
nazareth
nchen
nd
ndb
nde
nder
ndische
ndischen
ndlicher
ne
near
neatt
nebraska
nebraskaa
nebst
neckar
neckarsteinach
ned
nedd
nee
neechscht
neegscht
neegschte
neehr
negscht
nei
neie
neier
neigunge
neiichkeede
nein
neine
nelson
nemm
nemme
nemmt
nenne
nennt
neopaganism
ner
neraat
nere
nescht
nest
net
nett
netz
neue
neuland
neustadt
nevada
never
new
newburgh
newe
newhart
newich
newmanstown
news
newsletter
newspaper
newsradio
newsroom
nfl
ng
nge
ngen
nger
ngin
nha
nhat
niagara
nicaragua
niccolo
nice
nich
nichol
nicholas
nicholson
nicht
nichts
nickel
nicolas
nidder
nie
nieder
niederlaendisch
niederlaendische
niederland
niedersachsen
niederwil
niedlothringisch
niemand
nig
night
nights
nigreich
nikolaus
nimme
nimmi
nimmie
nine
niro
nirvana
nit
niwwer
niwwerkumme
nix
nj
nken
nkisch
nn
nne
nner
no
noah
noble
noch
nochber
nochbere
nochberland
nochdem
nochemol
noda
nodel
noh
nohch
noht
nolt
nom
nome
nominated
nominee
non
none
noo
nooch
noom
nor
nord
nordamerika
norden
nordrhoi
normal
norman
north
northampton
northern
northkill
northumberland
northwest
norway
norwegen
not
notes
nothing
notoc
notre
nottawasaga
nova
november
now
nowember
ns
nster
nte
nu
nuch
nueva
nuf
nuff
number
numme
nummer
nummere
nun
nunner
nur
nz
nze
o
oak
oakland
ob
obama
ober
oberalben
oberwil
ocean
och
oconto
october
odd
odda
odder
oder
odewald
oehrling
of
off
offe
offenbach
office
official
offiziell
offizielle
oft
oftmols
oh
ohio
ohne
ohr
ohre
oi
oier
ois
oiwohner
oiyer
okay
oklahoma
oktober
oktower
oky
old
oldesloe
oley
olm
om
on
once
ondre
one
online
only
onq
ons
ontario
ontelaunee
oogfange
op
open
oper
opera
operation
opfer
optimality
or
oral
orbit
orchestral
order
oregon
org
organisation
organization
original
origins
oro
ort
orthodox
ortsgema
os
oscar
oschde
oschder
oscht
oschte
oschterhaas
oslo
osma
ost
oswego
ot
other
ottawa
otto
our
out
over
owe
owed
owen
owens
owet
owets
owl
own
owned
owwe
owwer
owwerichkeit
owwich
owwrigkeit
oxford
oyer
ozzie
p
pa
paad
paar
pacific
pacino
pack
paelzer
paelzisch
paelzische
paep
paerdi
paess
pages
paging
pains
pakistan
palatinate
palatine
palatines
palestine
palm
paltz
palz
pam
panama
panhandle
papier
paradise
paraguay
parallel
paramore
paris
pariser
park
parker
parlament
parliament
parody
parre
parrer
part
partei
parthenium
parti
parton
partridge
party
pascal
pass
passagiere
pastor
pastorius
patent
path
pathway
patrick
patty
paul
paulist
paulo
paw
paynes
pdf
peace
peachey
pearl
pech
pederli
peedersbarrig
peepers
pegs
pendleton
penn
pennilfaani
pennsburg
pennsilfaani
pennsilfaanisch
pennsilfaanische
pennsylfaanisch
pennsylfawnisch
pennsylfawnish
pennsylvaani
pennsylvaanisch
pennsylvania
pennsylvaniadeutsche
pennsylvanian
pennsylvanians
pennsylvanisch
pennsylvanische
pennsylvanischer
pennsylvanisches
pensilfaani
pensylvaniae
pentecostal
people
peoplehood
peppers
pequea
per
percent
perdix
perennis
perfect
performances
period
perkiomen
perkiomenville
perry
person
persone
persoon
perspective
perth
peru
pete
peter
peterli
petersburg
petticoat
pew
pewdiepie
pfa
pfalz
pforzheim
pg
pgs
ph
phan
pharaon
phares
phil
philadelphia
philip
philippi
philippines
phillip
phong
phonology
phu
phylum
pi
pickder
pickter
picture
pierce
pierre
piety
piewie
pig
pikder
pike
pine
pinecraft
pingschtfescht
pinnacle
pinto
pioneer
pisum
pittsbarig
pittsbarrig
pittsburgh
pizza
pl
pla
place
plain
plan
planet
plata
platinum
platt
plattdeitsch
platz
plautdietsch
plaza
pleasant
please
plees
pleiku
plotdata
plus
png
po
poem
poems
point
pointe
pole
polen
police
polidisch
politik
polk
polley
polly
pool
poor
pop
popular
population
por
port
portugal
poschde
possum
potentilla
potomac
potsdam
pottstown
pottsville
powder
power
pp
pra
prag
prairie
praise
pratical
prayer
prediger
prefer
preis
present
preservation
president
presidential
press
preston
pretoria
pretzel
previously
prime
prince
print
private
pro
productions
prof
professional
professor
prograem
program
progressive
project
projects
projekt
prospect
protests
providence
province
provinces
provintz
provinz
provinzen
pryv
public
publication
publications
publisher
publishing
publisht
publiziert
puerto
pulaski
pull
punk
punkt
punky
punt
purple
puslinch
px
pyramid
python
q
qc
quaeker
quail
quakers
quang
quarterback
que
quebec
queen
queens
quell
quelle
quest
quinter
quote
qwuelle
r
ra
raad
raber
rachel
radio
raetel
rafael
ragguune
rainbow
rajput
ral
ralph
rand
randall
randolph
randy
ranh
ranked
rap
rappelt
rathaus
raus
rausgewwe
rausgewwer
rausgschmisse
rauskumme
ray
raymond
rca
rd
rderkreis
rding
re
read
reader
readers
reading
readstown
reagan
real
reason
recht
rechte
rechter
rechts
record
recording
recordings
records
red
redd
reddin
reed
reedio
reemisch
reenheide
rees
reese
reform
reformed
reformiert
reformierte
rege
reggeboge
regierung
region
regional
rei
reich
reichard
reiche
reichenbach
reicher
reide
reidenbach
reifries
reifsnyder
reigart
rein
reinert
reinig
reinland
reischt
reit
reje
rejeboge
relations
release
religious
relitschion
relos
ren
rent
replaced
report
reprint
reprise
republic
republik
republika
republiken
request
rer
rescht
research
reserve
reservoir
restaurant
return
returns
reuben
rev
review
revised
revoluschen
revolution
rewoluzion
rewwer
reynolds
rgb
rhead
rhein
rheinhessen
rheinkreis
rheinland
rhin
rhoda
rhoi
rhoiland
rhyme
rhythm
ri
ria
rica
rich
richard
richardson
richder
richmond
richter
richtichkeet
rick
rida
rides
ridge
rie
rieha
riepubliken
riewe
riewedaag
rigel
right
riley
ring
ringers
rio
riot
ripuarisch
risa
rischderei
rise
rises
rising
rittenhaus
rittinger
river
riwwer
riwwerkumme
rk
rke
rken
rleicht
rm
rn
rnberg
ro
road
roads
roan
robert
roberts
robesonia
robin
roc
rock
rockhill
rocks
rockway
rocky
roger
rogers
roggy
rohrer
roland
roll
rollin
rollt
rom
roman
romance
romani
romanisch
romney
ron
ronald
rondthaler
ronnie
room
ropers
rosanna
rose
roseanne
roses
rosthern
rostock
rot
roth
rotterdam
rotteschwil
roubaix
rouen
round
roundhouse
route
rowan
royal
rs
rsch
rschde
rt
rttemberg
ru
rubrick
ruby
rudolf
rue
ruh
ruhich
ruhl
ruhls
ruhr
ruht
ruine
rum
rumeenie
rumpf
run
rund
runde
rung
runner
running
runs
runway
runways
ruprecht
rural
russel
russell
russia
russland
ruth
rz
s
sa
saache
saage
saagt
saar
saarbru
saarland
saarlothringisch
saat
sabrina
sach
sacha
sache
sachse
sachsen
sacht
sack
sackfoohn
sacramento
saenger
safe
sag
sage
sagen
sagt
sahara
said
saint
sainte
saints
sale
sales
salford
salisbury
salvadori
salz
salzburg
sam
sambia
same
sammel
sammelt
sammle
sammy
samschdaag
samschdag
samuel
san
sanders
sanford
sanft
santa
santiago
sara
sarah
sarajevo
sarasota
saskatchewan
satan
satellite
satire
sativum
satt
sattler
saturday
sau
saudi
sauer
sauergraut
saufe
saugerties
saut
sautoscht
saved
sch
scha
schadde
schaeffer
schaefferschteddel
schaefferstown
schaersi
schaff
schaffdaage
schaffe
schaffen
schafft
schalle
schand
schantz
schapp
scharf
schatz
schauspielerin
schba
schbaya
schbieler
schd
schdaat
schdadd
schdadt
schde
sche
schee
scheene
scheenes
scheib
scheier
scheiere
scheine
scheint
schicht
schickt
schieler
schier
schiesse
schiff
schiffe
schiffmeeschder
schissel
schla
schlang
schlecht
schleswig
schlidde
schlimm
schlof
schlofe
schloof
schloofe
schloss
schluss
schma
schmahl
schmalz
schmeisse
schmerz
schmid
schmucker
schnee
schneegans
schneider
schnell
schneller
schnitz
schnitzelbank
schnuppduch
scho
schoe
schoene
schoener
scholar
scholars
schoof
school
schoolly
schornschtee
schottland
schpaani
schpaanisch
schpaaren
schparret
schpass
schpaziere
schpeder
schpeeder
schpeedere
schpeeter
schpeicher
schpiel
schpiele
schpieler
schpielt
schpiggel
schpinnraad
schplitt
schpootyaahr
schpring
schpringe
schpringt
schproch
schprooch
schprooche
schproocheiland
schproocheilenner
schproochfamilye
schprunge
schpukt
schqueier
schreib
schreibt
schreiwe
schreiwer
schreiwerin
schreiwes
schriesheim
schrift
schrifte
schriftleiter
schriwwe
schrob
schrock
schropp
scht
schtaab
schtaade
schtaar
schtaart
schtaat
schtaate
schtadt
schtaert
schtall
schtammt
schtand
schtandard
schtanne
schtarewe
schtarrick
schtarricke
schtauffer
schteck
schtecke
schteddche
schteddel
schtedt
schtedtel
schtee
schteebruch
schteeg
schteets
schteffisbarrig
schteh
schtehn
schtehne
schteht
schteif
schtell
schtellt
schtengel
schterdt
schtettel
schtettli
schtettlin
schtick
schticker
schtill
schtille
schtimm
schtimme
schtink
schtinkgrick
schtiwwel
schtock
schtofft
schtolz
schtor
schtori
schtories
schtors
schtrenge
schtrimp
schtroh
schtrooss
schtroosse
schtrump
schtrumpwewer
schtudente
schtudiert
schtuhl
schtund
schtunn
schu
schuf
schuh
schuhl
schuhle
schuhlhaus
schuhlmeeschder
schuhmacher
schuhplattler
schul
schuld
schulde
schuldich
schule
schulhaus
schulmeeschter
schun
schunn
schunscht
schunt
schur
schuylkill
schwa
schwaben
schwadore
schwamm
schwanz
schwartz
schwartzendruber
schwarze
schwatz
schwatze
schwatzedruwwer
schweden
schweezerland
schweitzer
schweiz
schweizer
schwenkfelder
schwer
schwerin
schweschder
schweschdere
schwetz
schwetze
schwetzer
schwetzerei
schwetzt
schwetzte
schwimme
schwitzt
science
scotia
scott
scottdale
scoute
screen
scrubs
se
sea
sebastian
second
secondary
secretary
secular
see
seef
seeger
seel
seele
seem
seeme
seen
sege
seh
sehn
sehne
sehnscht
sehnt
sehr
seht
sei
seid
seifass
seim
sein
seine
seinem
seiner
seinfeld
seinre
seischwamm
seit
seiten
sell
selle
sellem
seller
sellerweg
sellewege
selli
sellmol
sellmols
sellschaft
selwe
selwer
selwert
seminary
sen
senator
seng
senior
sennari
seon
september
sergeants
series
served
service
ses
sesame
sessions
set
seth
sett
sette
settele
setter
settlement
settlements
settlers
sewing
sex
seymour
shade
shamokin
shanghai
share
shark
sharkey
sharon
shartlesville
shdedel
she
sheep
shelly
shenandoah
shetler
shift
shillington
shine
shipshewana
shirley
shoals
shock
shoemaker
shop
shopping
should
show
shtoodenta
shtorva
si
sibylla
sich
sicher
sicht
sidder
sident
sidney
sids
sie
sied
siedler
siedlich
siedlung
siedlunge
siedweschd
sieht
siempre
sierra
sies
siess
sigma
signals
signau
signs
silence
silver
silvers
silwer
simbabwe
simeon
simon
simons
simpson
simpsons
sin
sind
sing
singe
singer
singerin
singern
singh
singles
singt
sinn
sippschaft
siprage
sirius
sis
sisch
siss
sister
sisters
sitcom
site
sites
sitter
sitz
sitzt
siwwe
siwwezeh
six
sketch
skippack
skottische
slap
sledge
slowaaki
small
smart
smith
smithville
smoker
smucker
snake
snallygaster
snoopy
snyder
so
soap
soccer
social
society
sociology
soft
sogaa
soh
sohn
soi
solche
solcher
soll
solle
sollen
sollfard
sollt
solo
solomon
solzburg
somaali
some
somerset
something
sommerfelder
sommerhausen
sommershausen
son
sondern
song
songs
sons
soo
soon
soria
sorry
sort
souderton
source
south
southeast
southern
southside
southward
southwest
soweit
spades
span
spanish
spayd
spd
spe
speaker
speakers
speaking
special
speder
speyer
speyerer
spider
spin
spirit
spirituality
split
spogell
spongebob
spongell
spoons
sport
sporting
sports
sprache
spring
springs
sproch
sprooche
spy
squad
square
squarepants
sr
sseldorf
sserdeitsch
ssisch
ssische
st
sta
stadion
stadium
stadt
staffelbach
stallybrass
star
stars
start
started
stat
state
states
station
statistics
statue
staub
stauffer
ste
steel
stefan
steffisburg
steh
stehne
steht
steinbach
steinmann
stellenbosch
step
stephen
sterling
sterreich
steve
steven
sticker
still
stiller
stol
stoltzfus
stone
store
stories
storm
story
stowe
strange
strangers
strasbourg
strasburg
stream
street
stress
strokes
strong
studente
studies
studio
study
stumptown
stuttgart
stuttgarter
stutzman
style
su
such
suche
sucht
sudan
sudd
suddenly
suga
sugar
sugarcreek
suh
suicide
sul
sullivan
sumiswald
summer
summers
sumneytown
sun
sunday
sung
sunge
sunn
sunndaag
sunndaagschuhl
supreme
surface
surinaem
suriname
surrey
susan
susanna
susanne
susquehanna
susquehannock
suss
sutter
sv
swamp
swift
swiss
switzerland
sydney
sylvanus
system
t
ta
taal
taermin
tag
tailed
taiwan
take
tale
talent
tales
taliesin
talk
taller
tammy
tan
tanya
tapes
tattletales
tau
taun
taunschip
taunschips
taunship
tavern
tavistock
taxi
taylor
tazewell
te
teacher
team
teams
technologie
technology
ted
teddy
tee
teenage
teer
teil
teitonische
tel
telegraph
telekummyunikeeschions
telephone
television
tell
telner
temperatures
ten
tena
tennessee
termann
terminology
terraserver
terrell
terrier
terry
test
teutonic
teutsche
texas
text
th
thailand
than
that
the
theater
their
them
thema
then
theologie
theory
there
these
thesis
they
thierwechter
thiet
thing
things
third
this
thomas
thompson
thought
three
through
thu
thuis
thumb
thun
tien
tier
tietscher
tiger
till
tillis
time
timepiece
times
timothy
tina
title
titus
to
toast
tobin
toby
tod
today
toews
together
togo
tokyo
tom
tonawanda
tonight
tony
too
tool
toosi
top
topeka
topozone
topper
topton
tor
torkelsons
toronto
tourists
town
townies
township
townships
tr
tra
tracks
tradition
traditional
traditions
trage
trailer
train
trang
trans
transition
translated
translation
trash
travis
tree
treibt
trenton
tri
triangle
trier
trout
troyer
true
trump
truth
tschabb
tschameeki
tschann
tschecherei
tscheina
tscheine
tscheschter
tschibuti
tschulei
tschunn
tschuun
tschuuse
tsu
tsumugi
tt
ttingen
tu
tuckersmith
tunnel
turdus
turk
turke
turkie
turkisch
turkische
turks
turn
turner
tuscarawas
tuscarora
tv
twain
twenty
two
twp
twps
tyler
tyr
tz
u
ua
ucero
ueber
uefa
uf
ufer
uff
uffbaue
uffem
uffg
uffgebaut
uffgewarremt
uffgewaxe
uffgschriwwe
uffgschterdt
uffguckbichli
uffgucke
uffgwaxe
uffschdieg
ugfa
ugh
uhr
ukraine
ulrich
ultimate
um
umble
umg
umgegend
umgekehrt
umsta
un
uncle
und
under
undergraduate
unesco
ungarn
ungefa
unglick
union
unit
united
universal
universe
universideet
universita
universities
university
unless
unn
unna
unne
unnem
unner
unnerrock
unnerschiddliche
unnerschied
unnerschiedliche
unnerschitt
unnerschittlich
unnerschittliche
unnerschtitze
unni
unnich
unrecht
unreleased
uns
unsa
unser
unsere
unsre
unter
up
upon
upper
upright
urban
urbana
urglaawe
urglaawisch
urglaawischer
ursach
ursache
urschpringlich
uruffiehrung
uruguay
us
usa
uscht
use
used
v
va
vadda
vaddel
vaddelhinner
vadder
vadderland
vader
valentine
vallenato
valley
value
valuska
van
vancouver
vanne
varden
vas
vater
vatikan
vawwa
vayk
vazzeh
ve
vebandsgema
vedderbortsch
vedderscht
vedeeld
vee
vegel
veggel
veggl
veith
velilla
vella
velleicht
vellicher
veloss
veluws
vendu
venezuela
ver
verbandsgema
verbei
verdeelt
vereenichde
vereenichte
verein
verennert
vergesse
vergesst
vergewwe
vergleich
verkaafe
verkaaft
verlag
verleicht
verliere
verliert
verlore
verloss
verlosse
vermont
vermudlich
vernon
verona
veronica
versammling
versammlinge
versammlinghaus
versammlingshaus
verschpreche
verschtand
verschteh
verschwinne
version
versucht
versuchung
verwandschaft
verweser
very
verzehle
verzehlt
vfr
vi
vicar
vice
video
videos
viecher
vieh
viel
viele
vielleicht
vier
viert
vietnam
view
vii
village
villar
ville
villige
vincent
vinci
vineland
vir
virginia
virginianus
viroqua
virtual
vision
vleisch
vo
voah
voggel
voice
voices
vol
volk
volksaage
volksglaawe
volksgrupp
volksgruppe
volksliedel
voll
volume
vom
von
vor
vorderpalz
voreldere
voreldre
vorpommern
vorsinger
vorsitzer
vort
vosges
vote
voyage
vs
vu
vum
vumm
vumme
vun
vung
vunn
vunne
w
wa
waa
waahr
waar
waarde
waare
wadde
waddebuch
waddefresser
waelli
waer
waere
waerkzeichheit
wagge
wagon
wahl
wahle
wahrscheinlich
wald
waldfischbach
waldo
wall
walnut
walter
wammer
wan
wand
wandel
wanderschauspielern
wandersmann
wann
want
wappe
wappen
wappenkunde
war
warbler
ward
warden
ware
waren
warn
warre
warrick
warschau
wart
warum
was
wascht
washington
wass
wasser
wassmeloon
wat
watching
water
waterloo
watt
wattshaus
wavelet
waxe
waxt
way
wayne
waynesboro
we
weaver
weaverland
weavertown
web
webblatt
weber
webgleecher
weblinks
websaid
website
webster
weck
wedder
wee
weeg
weeich
week
weekly
wees
weescht
weess
weeze
weg
wege
wegge
weggli
weh
wehre
wehrlos
wei
weiblich
weibsleit
weibsmensch
weide
weider
weierhof
weil
weiler
wein
weinstraße
weint
weis
weise
weiser
weisheit
weiss
weisse
weist
weit
weiter
weitzel
wek
welche
welcome
weld
weldgrieg
well
welle
wellesley
welli
wellington
welsch
welschhinkel
welschkann
welt
weltdeel
weltgrieg
weltkulturerbe
weltlich
weltweit
weltzheimer
wem
wend
wenger
wenich
wenig
wenn
wennich
wennicher
wentz
wer
werbespot
werd
werdde
werden
were
werke
wern
werner
werre
werri
wert
werth
wesch
weschde
weschfraa
wescht
weschte
weschtlich
wese
wessfoale
west
western
westmosellothringisch
wett
wettbewerb
wetter
wetzel
wewerland
whale
what
wheel
when
where
which
white
whitney
who
why
wi
wichde
wichdich
widda
widder
widderdaafer
widderschtelle
wider
width
wie
wieder
wieg
wien
wiener
wies
wiesbadde
wiesbaden
wiescht
wieschte
wife
wikimapia
wikipedia
wild
wilde
wilhelm
will
wille
william
williams
williamschteddel
williamsport
wilmot
wimpfen
winchenbach
wind
windbump
winder
winderzeit
windsor
winfield
wings
winnder
winnipeg
winter
winterzeit
wir
wird
wirschini
wisconsin
wisdom
wisler
wislikofe
wiss
wissahickon
wisse
wissenschaft
wisseschaft
wisst
witch
with
witmarsum
witmer
witt
wittenberg
wittfraa
wkrp
wo
woare
woch
woche
wodan
wohl
wohle
wohleschwil
wohne
wohnt
woi
woischdroos
wol
wolf
wolfgang
wolk
wolke
woll
wolld
wolle
wollenweber
wollgraut
wollt
woman
women
wonder
wonderful
wonnet
woodard
woodbury
woodpecker
woods
woolwich
woolwicher
wor
word
worden
wordpress
work
works
world
worms
worn
worr
worre
wort
wott
would
wright
writer
writers
writings
wu
wuertemberg
wuhne
wuhnt
wunner
wunnerbaar
wurd
wurdd
wurde
wutzli
wwe
www
wynn
x
xiv
xtreme
xv
xx
y
ya
yaage
yaager
yaahr
yaahre
yaahrhunnert
yaakobschteddel
yaakobschtettel
yacht
yaehrlich
yahr
yanguas
yarick
yarmouth
yarrick
yasser
yawkobshdedel
year
years
yearwood
yede
yedem
yeder
yedes
yedoch
yedre
yeeger
yeesus
yellow
yenner
yerevan
yes
yetz
yetzt
yiddisch
yiddische
yn
yo
yoder
yohannesbrief
yohr
yohra
york
yoshihide
yost
you
young
your
youtube
youtuber
yudde
yuddischer
yuli
yung
yunge
yungi
yuni
yuscht
yusht
yuuhse
yuus
yuuscht
yuuse
yuust
z
zaah
zaahme
zaam
zaame
zaamegschlosse
zaamekumme
zaehlung
zagreb
zahl
zahle
zahlunge
zamme
zammekumme
zamora
zant
zart
zaza
zberg
ze
zee
zeeche
zeh
zehe
zehl
zehle
zehlt
zeiche
zeid
zeide
zeiding
zeidinge
zeige
zeigt
zeit
zeitraum
zeitung
zell
zent
zerick
zerrick
zieb
ziebin
ziegler
zieha
ziehge
ziel
ziewe
zimbabwe
zimmerman
zimmlich
zion
zippelkapp
zisa
ziu
zofige
zone
zook
zu
zucht
zucker
zudchina
zuerscht
zufridde
zug
zukunft
zum
zur
zurich
zurick
zusamme
zwa
zwanzich
zweck
zwedde
zwedder
zwee
zweebrigge
zweemol
zweibru
zweibrucken
zwelf
zwerge
zwett
zwette
zwische
zwischezeit
zwischich
zwitschere
{
|
}
~
«
­
°
²
´
¸
»
łobez
ɐ
ɑ
ɔ
ɛ
ʀ
ʃ
ʰ
ˈ
ː
̀
́
̂
̃
̄
̆
̇
̈
̊
̋
̌
̓
̔
̧
̨
̯
͂
α
ι
ς
σ
ִ
ַ
־
ֿ
ב
ג
ا
بن
ٔ
ٕ
–
—
‘
’
“
”
„
†
•
…
ⁿ
⅓
→
↔
↷
③
④
⑦
☉
♦
⺀
⺄
⺆
⺈
⺊
⺌
⺕
⺝
⺸
⺼
⿰
⿱
⿲
⿳
⿴
⿵
⿶
⿷
⿸
⿹
⿺
⿻
〢
う
け
こ
ゆ
ん
コ
チ
ハ
ユ
㇁
㇂
㇄
㇇
㇈
㇉
㇓
㐁
㐄
㐅
㐌
㐫
㐬
㐭
㐮
㐱
㑒
㒵
㒸
㒼
㓁
㓞
㔾
㕛
㕣
㖾
㘝
㚅
㚇
㚔
㚘
㝉
㝡
㝴
㝵
㞋
㞢
㞷
㠩
㠭
㠯
㡀
㡭
㡿
㢲
㢴
㣇
㣺
㥯
㪅
㫄
㫐
㫒
㫺
㬅
㬎
㬥
㬰
㲋
㳄
㷠
㸒
㸚
㸦
㼌
㼲
㽞
㿟
䀠
䂞
䍃
䏍
䒑
䖍
䖒
䖝
䖵
䙴
䚻
䜌
䝿
䡛
䧹
䪞
一
丁
丂
七
丄
丅
丆
万
丈
三
上
下
丌
不
与
丏
丐
丑
专
且
丕
世
丘
丙
业
东
丞
丢
丣
两
严
並
丨
丩
个
丫
丬
中
丮
丰
丱
串
丵
丶
丷
丸
丹
为
主
丽
丿
乀
乂
乃
久
乆
乇
么
义
之
乌
乍
乎
乏
乐
乑
乔
乖
乗
乘
乙
乚
乛
乜
九
乞
也
习
乡
乳
乾
亀
亅
了
亇
予
争
事
二
亍
于
亏
亐
云
互
亓
五
井
亘
亚
亜
亞
亟
亠
亡
亢
交
亥
亦
产
亨
亩
享
京
亭
亮
亯
亰
亲
亳
亶
亷
人
亻
亼
亾
仁
今
介
仌
从
仐
仑
仒
仓
仕
他
付
仝
代
令
以
任
企
伊
伏
伐
休
会
伯
但
位
佐
何
佘
余
作
佥
使
來
侈
侌
侖
侯
侵
便
保
俞
信
修
倉
倍
候
倠
偉
備
僉
僕
儿
兀
允
兂
元
兄
充
兆
兇
先
光
兊
克
兌
免
兑
兒
兓
兔
党
兜
兟
入
全
兩
兪
八
公
六
兮
兰
共
关
兵
其
具
典
兹
兼
冀
冂
冃
冄
内
冈
冉
冊
冋
册
再
冎
冏
冐
冒
冓
冖
冗
冘
军
农
冝
冡
冥
冫
冬
冷
几
凡
凢
凵
凶
凷
凸
凹
出
函
凾
刀
刁
刂
刃
刄
刅
分
切
刍
刑
刕
刖
列
刘
则
初
別
利
别
到
制
刺
則
削
剌
前
剡
剽
劉
力
功
加
劦
助
劫
劳
劵
勃
勇
勉
勒
動
務
勞
勤
勹
勺
勻
勾
勿
匀
匂
包
匆
匈
匊
匋
匍
匕
化
北
匚
匝
匡
匪
匱
匸
匹
区
医
匽
匿
區
十
卂
千
卄
卅
卆
升
午
卉
半
卌
华
卑
卒
卓
单
卖
南
卜
卝
卞
占
卡
卢
卣
卤
卦
卩
卪
卬
卯
印
危
即
却
卵
卷
卸
卻
厂
厃
厄
历
厈
厉
厌
厓
厘
厚
原
厤
厥
厨
厭
厲
厶
厷
厸
去
厼
厽
叀
参
參
叅
又
叉
及
友
双
反
叐
发
叒
叔
叕
取
受
叚
叜
叟
口
古
句
另
叩
只
召
可
台
叱
史
右
叵
号
司
叹
吂
各
吅
合
吉
吊
吋
同
名
后
吏
向
吕
君
吝
吞
否
含
启
吳
吴
吹
吾
呂
呆
呈
告
员
呙
周
命
咅
和
咎
咠
咢
咨
咸
咼
哀
品
哉
員
哥
哲
唐
商
啇
問
啚
啬
啻
善
喜
喬
單
喿
嗇
噩
嚴
囊
囗
囘
囙
囚
四
回
囟
因
囧
囬
困
囱
囷
固
国
圂
圅
國
圍
圓
土
圡
圣
圥
在
圭
地
圶
圼
坐
坒
坚
坴
垂
垔
垚
埀
埋
埶
執
基
堂
堅
堆
堇
堯
塞
墨
壘
士
壬
壯
声
壳
壴
壹
壺
壽
夂
处
夅
夆
备
夊
夋
夌
复
夏
夒
夕
外
夗
夘
多
夜
夢
大
夨
天
太
夫
夬
夭
央
失
夲
头
夷
夸
夹
夻
夾
奂
奄
奇
奈
奉
奎
奏
奐
契
奓
奔
奚
奞
奠
奢
奥
奭
女
奴
奻
好
如
妄
妙
妟
妥
妻
妾
姑
委
姜
威
娄
婁
婴
嬰
嬴
子
孑
孔
孕
孖
字
存
孚
孛
孝
孟
季
孤
学
孫
孱
學
宀
宁
宂
它
宅
宇
守
安
宋
完
宏
宓
宗
官
定
宛
宜
宝
客
宣
室
宮
宰
害
家
容
宾
宿
寄
寅
密
富
寒
察
寧
審
寫
寬
寮
寸
对
寺
寻
寽
対
寿
封
尃
射
将
將
專
尉
尊
尋
尌
對
小
少
尒
尓
尔
尖
尗
尚
尞
尢
尣
尤
尧
尨
尭
就
尸
尹
尺
尻
尼
尽
尾
尿
局
居
屈
屋
屎
屏
屑
展
屖
屚
属
屠
屡
屬
屮
屯
屰
山
屵
屾
岁
岂
岑
岡
岩
岳
岸
峯
島
崇
崑
崔
崖
崙
崩
嵬
嶲
巂
巛
川
州
巟
巠
巢
巤
工
左
巧
巨
巩
巫
差
己
已
巳
巴
巷
巸
巽
巾
巿
帀
市
布
希
帚
帛
帝
带
師
席
帶
常
干
平
年
幵
并
幷
幸
幺
幻
幼
幽
幾
广
広
庄
床
底
店
庚
府
度
庫
庭
庶
康
庸
廉
廌
廛
廣
廩
廴
延
廷
建
廾
廿
开
弁
弃
弄
弇
弋
式
弓
弔
引
弗
弘
弜
弟
弥
弦
弱
張
強
强
彊
彌
彎
彐
彑
当
彔
录
彖
彗
彡
形
彥
彦
彧
彭
彳
役
彼
往
待
律
徒
得
徙
從
復
微
徵
德
心
忄
必
忌
忍
志
忝
忠
忩
快
念
忽
忿
思
怠
急
怱
恆
恒
恩
恭
息
悉
患
悤
悲
悶
惠
惡
惢
愁
愈
意
愛
感
慈
慧
慮
憂
憲
應
戀
戈
戉
戊
戋
戌
戍
戎
成
我
戒
戔
或
戚
戠
戢
截
戲
戶
户
戹
戼
戾
房
所
扁
扇
手
扌
才
打
托
执
承
折
拉
拜
拿
掌
推
提
摩
支
攴
攵
收
攸
改
放
政
敄
敏
敕
敖
敗
敝
敞
敢
散
敦
敫
敬
数
敷
數
斂
文
斉
斊
斗
斤
斥
斩
斬
斯
新
方
於
施
斿
旁
旋
族
无
旡
既
旣
日
旦
旧
旨
早
旬
旱
旲
时
旾
昆
昇
昌
昍
明
昏
易
昔
昗
昜
星
春
昬
是
昱
昴
昷
時
晃
晋
晏
普
景
晶
智
暑
暴
曇
曩
曰
曲
曳
更
曷
書
曹
曼
曾
替
最
朁
會
月
有
朋
服
朔
朕
朗
望
朝
木
朩
未
末
本
札
朮
术
朱
朵
朶
朿
杀
杏
村
杜
束
条
来
東
杲
杳
松
析
林
枚
果
枝
枲
枼
某
柔
查
柬
柰
柴
栗
桀
桑
桼
梁
條
梟
梨
棘
棠
棥
森
楚
業
楽
榮
樂
樊
欠
次
欣
欮
欲
欶
欽
款
歆
歇
歛
止
正
此
步
武
歧
歨
歪
歮
歯
歰
歲
歳
歴
歷
歸
歹
歺
死
殳
段
殷
殸
殹
殺
殻
殿
毋
毌
母
每
毒
比
毕
毚
毛
毳
氏
氐
民
气
氣
水
氵
氶
氷
永
氺
氾
求
汝
汞
江
沃
沓
沙
沝
泉
法
波
泣
泥
泰
洛
洪
活
派
流
浦
浪
浮
消
淡
淮
清
渚
渠
湯
滿
漸
火
灬
灭
灰
灵
灷
炅
炎
炏
炗
炙
炭
為
烈
烏
烝
焉
無
焦
焱
然
煞
熊
熏
燕
營
燮
爪
爫
爭
爯
爰
爱
爲
爵
父
爻
爽
爾
爿
片
牙
牚
牛
牜
牟
牢
牧
牪
牽
犀
犬
犭
犮
狂
狄
狊
独
狺
猋
猒
猪
献
獻
玄
率
玉
王
玟
玨
珎
班
琴
瑟
瑩
瓜
瓦
甘
甚
生
産
用
甫
甬
田
由
甲
申
电
甶
男
甸
甹
画
甾
畀
界
畏
畐
留
畜
畟
畢
畧
畨
番
畫
異
畱
當
畺
畾
疊
疋
疌
疑
疒
疾
癶
癸
癹
登
發
白
百
皀
皃
的
皆
皇
皋
皐
皕
皮
皷
皿
盃
盆
盇
盈
益
盍
盎
监
盒
盖
盛
盡
監
盤
盧
目
直
相
盾
省
眇
眉
看
眔
眞
真
眷
眼
眾
着
睘
睪
睿
瞏
瞢
瞿
矍
矛
矞
矢
矣
知
矦
短
石
破
碎
磊
磨
示
礻
礼
祟
票
祭
禀
禁
福
禸
禹
禺
离
禽
禾
禿
秀
秃
秉
秋
科
秝
秦
移
稟
穀
穌
穴
究
穹
空
穿
突
窄
窒
立
竒
竜
竝
竟
章
童
竹
笑
笠
筆
等
答
箕
算
箴
節
篤
篭
米
粉
粛
粟
粤
粦
粲
糞
糸
糹
系
約
納
素
紡
索
紫
累
細
絜
絫
絲
維
綿
縣
繇
纍
纟
缶
网
罒
罔
罕
罗
罙
罡
罢
罪
署
罷
羅
羊
羌
羍
美
羔
羕
羗
羞
羡
羣
群
義
羲
羸
羽
翁
翏
習
翕
翟
翠
翼
老
耂
考
者
耆
而
耎
耑
耒
耳
耴
耶
耷
聂
聊
聖
聚
聶
聿
肀
肃
肅
肉
肖
肙
肥
肩
肯
育
肴
胃
背
胡
胥
能
脊
脩
膚
臣
臤
臧
自
臬
臭
臯
臱
至
致
臺
臼
臽
臾
臿
舀
舂
舄
與
興
舉
舌
舍
舛
舜
舞
舟
般
艮
良
色
艸
艹
艾
芒
芔
芬
芮
花
芳
芺
芻
苔
苗
苟
若
苦
英
茶
茸
荅
草
荒
荣
荼
莆
莧
莫
莽
菅
菆
菊
菐
華
萬
落
葉
著
葛
董
葵
蒙
蒦
蒼
蓋
蓬
蓺
蔑
蔡
蔣
蕉
蕭
薄
薛
薦
薰
藍
藏
藤
藥
蘭
虍
虎
虐
虒
虔
處
虖
虗
虘
虚
虛
虜
虞
虫
虽
蚤
蚩
蜀
蜜
蟲
蠡
血
行
衍
衛
衣
衤
表
衮
衰
袁
袞
褭
褱
襄
襾
西
覀
要
覃
見
規
覓
覧
親
覽
见
角
解
言
訁
訇
計
詹
誕
誩
諸
讠
谷
豆
豈
豊
豐
豕
豖
豙
象
豦
豩
豪
豸
貇
貝
貞
貟
負
貢
貧
貪
貫
責
貳
貴
買
費
賁
資
賈
賏
賓
賔
賛
賞
賢
賣
質
賴
贊
贝
贡
责
贯
贲
贵
赖
赞
赤
赦
走
越
足
路
蹇
身
躬
車
軍
軎
軟
輦
车
辛
辜
辟
辥
辰
辱
農
辵
辶
边
达
过
近
连
迷
追
退
送
逆
逐
通
速
造
逢
連
逮
進
遀
遂
過
道
達
遣
適
遷
遺
邊
邑
邕
那
邦
邪
郎
部
郭
都
鄉
酉
酋
配
酓
釆
采
里
重
野
量
金
釒
錢
钅
長
镸
长
門
閃
閉
開
閏
閑
閒
間
閔
閵
閻
闌
门
间
闷
阑
阜
阝
阿
降
陳
隆
隊
隋
隡
隨
隱
隶
隹
隺
隻
隼
隽
难
雀
雁
集
雈
雋
雍
雐
雔
雙
雚
雜
雝
離
難
雨
雩
雪
雲
零
雷
需
霍
霜
霝
霞
霸
靈
靑
青
非
靡
面
靣
革
韋
韦
韭
韯
韱
音
頁
頃
項
須
頗
頡
頻
顛
页
風
风
飛
飞
食
飠
養
饣
首
香
馬
馮
駦
马
骨
高
髟
鬥
鬯
鬲
鬼
魚
魯
鮮
鱼
鲁
鳥
鳳
鸟
鹵
鹿
麃
麗
麥
麦
麻
黃
黄
黍
黎
黑
黒
黨
黹
黽
黾
鼎
鼓
鼠
鼻
齊
齋
齐
齒
齿
龍
龙
龜
龟
龠
龰
龱
龴
龵
龶
龷
龸
龹
者
艹
？
🜨
𠀁
𠀃
𠀆
𠀉
𠀎
𠀐
𠁁
𠁣
𠂆
𠂇
𠂈
𠂉
𠂊
𠂋
𠂎
𠂒
𠂔
𠂛
𠂡
𠂢
𠂤
𠂬
𠂭
𠂹
𠃊
𠃋
𠃌
𠃍
𠃎
𠃑
𠃓
𠃔
𠃜
𠄌
𠄎
𠄠
𠄢
𠆢
𠆥
𠇍
𠈌
𠌵
𠓜
𠔉
𠔥
𠔼
𠔽
𠔿
𠕀
𠕁
𠕋
𠘧
𠘨
𠙻
𠙼
𠚏
𠚒
𠚤
𠚪
𠣏
𠤎
𠤕
𠥓
𠦄
𠦑
𠦝
𠧒
𠧗
𠧪
𠩺
𠪚
𠫓
𠫔
𠫤
𠬛
𠬝
𠬞
𠬢
𠬤
𠬶
𠮛
𠮦
𠮷
𠯑
𠱠
𠳮
𠷎
𡈼
𡉀
𡉵
𡌥
𡍮
𡏳
𡕒
𡕩
𡕰
𡖅
𡗗
𡗜
𡘆
𡘤
𡧱
𡨄
𡩧
𡬠
𡭽
𡰣
𡰥
𡰪
𡰯
𡰱
𡷈
𡸁
𡿨
𡿩
𡿪
𡿺
𢀖
𢀛
𢀩
𢁙
𢆉
𢆰
𢆶
𢇁
𢇇
𢉖
𢌬
𢌿
𢏚
𢑑
𢑚
𢖻
𢙣
𢛳
𢦏
𢦒
𢧵
𢼄
𢾕
𣁋
𣄼
𣅀
𣅽
𣍘
𣎳
𣎵
𣏋
𣏼
𣗥
𣥂
𣥖
𣦵
𣦼
𣧄
𣪊
𣪠
𣬉
𣳾
𣶒
𤇾
𤊽
𤐫
𤓰
𤔔
𤕨
𤣩
𤰇
𤰔
𤰞
𤴓
𤴔
𤽄
𥁑
𥁕
𥃦
𥃩
𥃭
𥇡
𥑟
𥘅
𥘈
𥝢
𥫗
𥱡
𦈢
𦉪
𦉬
𦉼
𦍌
𦍒
𦎧
𦐇
𦓔
𦔮
𦘒
𦙃
𦚏
𦣝
𦣞
𦣻
𦥑
𦥔
𦥯
𦨉
𦭝
𦰩
𧆞
𧈧
𧘇
𧰨
𧴪
𧴮
𧵩
𧾷
𨸏
𨾴
𩙿
𩠐
𩫏
𩵋
𪉷
𪜀
𪟽
𪠲
𪩲
𫇦
𫔭
𫜸
𫝀
𫠣
𫠩
𫢉
𫥞
𫩏
𫩠
𫪡
𫲽
𫶧
𬀷
𬐘
𬗌
𬙙
𬛸
𬜯
𬟩
𬯁
𬴘
𬺻
𬼉
𬼖
𭀰
𭁈
𭁨
𭅰
𭑈
𭕄
𭗼
𭤨
𭥫
𭻾
𮅕
𮊿
𮍌
𮍏
𮓗
𮥼
𮧮
廾
𰀁
𰀄
𰀈
𰀉
𰀕
𰀠
𰀡
𰀢
𰀪
𰁜
𰃮
𰆊
𰆘
𰋙
𰕎
𰢴
𰧭
𰯲
0--
10--
11--
12--
13--
14--
15--
16--
17--
20--
21--
23--
29--
32--
39--
41--
42--
43--
44--
47--
5--
51--
54--
6--
69--
7--
8--
82--
83--
87--
9--
97--
a--
aa--
aabinn--
aag--
aage--
aange--
ab--
abg--
abge--
abgeb--
absch--
aca--
acc--
accor--
activ--
ad--
aer--
af--
afghan--
ag--
air--
al--
ali--
all--
alle--
aller--
allge--
alt--
am--
ama--
amisch--
amtl--
an--
ang--
ange--
anne--
ant--
anti--
apo--
app--
appe--
ar--
ara--
arn--
arri--
ary--
as--
asch--
ash--
at--
au--
aucti--
auf--
aus--
ausg--
ausge--
ausgewa--
auth--
auto--
aw--
az--
b--
ba--
back--
bad--
bar--
bask--
bass--
bau--
be--
bed--
bedi--
bee--
bei--
beint--
bel--
ber--
berg--
bet--
bezirksverb--
bi--
bid--
biech--
bin--
bio--
bis--
bisskatze--
bit--
bitt--
bla--
blau--
blie--
blo--
block--
blumen--
bo--
bob--
boett--
bra--
bre--
bren--
bres--
bri--
brid--
bro--
brodesch--
brodeschdant--
bru--
bu--
buch--
buil--
bul--
bundes--
bur--
burg--
busch--
c--
ca--
cab--
cal--
cam--
can--
car--
cas--
cast--
cat--
cel--
cer--
ch--
chen--
cho--
ci--
cid--
circu--
cl--
cla--
co--
col--
com--
compi--
con--
cor--
corres--
cou--
cow--
cra--
cre--
cu--
cus--
d--
da--
dan--
de--
deel--
deg--
dei--
deitsch--
dela--
demo--
den--
der--
des--
desi--
det--
dhr--
di--
dis--
dispu--
do--
docum--
dos--
dr--
dra--
dre--
drei--
dri--
dro--
dru--
du--
dum--
dumm--
dun--
dy--
e--
earn--
eb--
eck--
ed--
edu--
ee--
eenz--
ef--
eff--
eg--
ehe--
ei--
eig--
eige--
eigentl--
ein--
eiropee--
eisch--
el--
ele--
em--
emi--
emmen--
en--
end--
ent--
ep--
equa--
er--
eraus--
erd--
ern--
erri--
es--
esch--
espe--
est--
et--
eu--
ever--
evi--
ex--
exem--
expo--
f--
fa--
faern--
fai--
fal--
far--
fas--
fasenacht--
fe--
featu--
feel--
fel--
felse--
fer--
fi--
fied--
fin--
fla--
fle--
flo--
flu--
fly--
fo--
for--
fre--
frei--
fres--
fri--
frie--
fro--
fu--
fun--
g--
ga--
gab--
gall--
gar--
gau--
ge--
geb--
gebotts--
ged--
gedenk--
gedr--
gef--
geg--
gege--
gegen--
geh--
gek--
gen--
geo--
gesch--
get--
gewe--
gi--
gil--
gl--
gla--
gle--
glinge--
glo--
go--
god--
gold--
gra--
gre--
greiz--
gri--
gro--
gross--
groß--
gsch--
gu--
gua--
gut--
gwi--
h--
ha--
haapt--
halb--
hand--
har--
haupt--
haus--
he--
heat--
hebre--
hee--
heeg--
heem--
hei--
heim--
heitze--
hel--
hen--
her--
herr--
het--
heu--
hi--
hie--
himml--
hin--
his--
hm--
ho--
hoch--
hoi--
hol--
hollaend--
hoo--
hope--
hor--
hos--
hr--
hu--
hudd--
hum--
humb--
hut--
hutter--
hy--
i--
ia--
id--
ig--
il--
im--
immi--
in--
indep--
ing--
inge--
inn--
insch--
inte--
ir--
iran--
is--
islam--
it--
iv--
iwwer--
j--
ja--
jahr--
je--
jed--
jeh--
jer--
jid--
jo--
ju--
k--
ka--
kaaf--
kaer--
kal--
kam--
kar--
katze--
ke--
kenn--
kid--
kla--
klass--
klin--
klo--
ko--
koll--
kolo--
kolonisations--
kons--
kri--
kro--
kru--
ku--
kua--
kul--
kur--
kurz--
l--
la--
lah--
lar--
latt--
lau--
lay--
le--
lec--
leck--
led--
lee--
lein--
lem--
let--
lett--
lewes--
lexi--
li--
lib--
lieb--
lied--
lim--
lin--
lingu--
lit--
lo--
long--
los--
love--
lu--
luc--
lud--
lus--
lutt--
ly--
m--
ma--
mad--
mae--
mai--
mal--
man--
mar--
marc--
mariye--
mate--
mc--
mcc--
md--
me--
mea--
med--
meen--
mei--
mel--
mell--
memo--
men--
menn--
mes--
mexi--
mi--
mid--
midd--
middel--
mie--
migra--
mil--
milit--
miller--
min--
mit--
mittel--
mo--
mor--
mos--
mu--
multi--
munic--
muu--
my--
myu--
n--
na--
nach--
nadd--
nar--
nati--
natt--
naus--
nd--
ndi--
ne--
neder--
nee--
nei--
neig--
neigier--
neiigkeete--
neu--
ng--
ni--
nidder--
nieder--
nim--
nn--
no--
noch--
noo--
nooch--
nor--
nord--
not--
ns--
nu--
o--
ob--
ober--
oc--
oft--
oi--
om--
on--
onta--
op--
or--
ordi--
orts--
os--
osch--
out--
over--
owet--
owwer--
oxekopp--
oy--
p--
pa--
paer--
pe--
ped--
pei--
pelz--
per--
perse--
pet--
pfar--
ph--
pho--
photo--
pi--
piet--
pl--
plu--
plum--
po--
polit--
por--
pre--
presbyte--
pri--
prie--
pro--
pu--
pul--
q--
qu--
qua--
quin--
r--
ra--
rac--
rahmen--
ran--
rau--
raus--
re--
rec--
recre--
reg--
reggel--
regi--
rehr--
rei--
reichs--
rein--
reli--
resi--
retr--
retri--
rez--
rhein--
ri--
rich--
rid--
riggel--
ro--
rob--
rot--
rou--
roy--
rt--
ru--
rub--
ruf--
rum--
rut--
rz--
s--
sa--
saar--
saeu--
sal--
sam--
san--
sand--
sar--
sau--
saut--
sax--
saxon--
say--
sc--
scale--
scan--
sch--
schdu--
schi--
schil--
schipp--
schleg--
schof--
schp--
scht--
schul--
schwe--
sci--
se--
sec--
sei--
sel--
selb--
sen--
ser--
sh--
sho--
shr--
shte--
shu--
shvet--
si--
sied--
sig--
sim--
sing--
slo--
sme--
smo--
so--
sol--
som--
son--
sor--
spa--
spi--
spo--
spro--
st--
staats--
stadt--
standard--
sti--
sto--
stock--
stru--
stu--
su--
sub--
sudd--
sun--
supp--
sur--
swe--
sy--
syl--
syn--
t--
ta--
tab--
tal--
tan--
tat--
te--
teet--
tele--
temp--
ter--
th--
theologi--
thi--
ti--
tin--
to--
tou--
tr--
trans--
tre--
tri--
tro--
tru--
tt--
tu--
tulpe--
ty--
tz--
u--
uf--
uff--
uffg--
uffzu--
uge--
um--
un--
unab--
unner--
up--
ur--
urschp--
ursp--
us--
v--
va--
val--
valde--
van--
ve--
ver--
verb--
vi--
vic--
vill--
vir--
vla--
vo--
volk--
volks--
voll--
vor--
vorge--
vul--
w--
wa--
wadde--
wag--
wal--
wat--
watt--
wax--
we--
web--
weck--
wee--
weg--
welt--
wes--
west--
whi--
wi--
wicht--
wie--
wil--
wild--
wit--
wo--
wodde--
wohn--
woi--
wu--
x--
y--
ya--
yaa--
ying--
yo--
yu--
z--
za--
zamme--
ze--
zeit--
zi--
zid--
zie--
zo--
zu--
zum--
zusetzl--
zwee--
zwi--
ß--
--0
--1
--2
--3
--4
--5
--6
--7
--73
--8
--88
--9
--91
--98
--a
--aa
--aag
--aal
--aan
--ab
--ach
--acle
--ad
--ado
--ae
--aert
--ag
--age
--agt
--ah
--ai
--ak
--al
--ale
--am
--ama
--an
--ana
--ance
--and
--ang
--ant
--ar
--ara
--ard
--arig
--arwe
--ary
--as
--at
--ata
--ate
--ation
--ations
--au
--aus
--awe
--ay
--b
--ba
--baam
--bach
--back
--band
--barig
--bb
--bbt
--be
--beem
--bi
--ble
--bly
--bo
--boro
--box
--bronn
--bs
--bt
--buch
--buh
--burg
--bury
--bus
--by
--c
--ca
--cast
--ce
--cea
--ch
--chd
--chda
--chde
--chdi
--che
--chen
--cher
--ches
--cht
--chteddel
--chter
--cio
--ck
--ckt
--co
--ct
--ction
--cy
--d
--da
--daag
--daal
--dale
--dd
--dde
--ddel
--de
--ded
--deel
--del
--dem
--den
--der
--di
--dlich
--dly
--do
--dog
--dom
--dor
--dorf
--dre
--ds
--dt
--dtirm
--du
--dum
--dy
--e
--ea
--eau
--ebarig
--ech
--ection
--ed
--edd
--ede
--eet
--ef
--eg
--egal
--egt
--eh
--ehe
--eht
--ei
--eid
--eign
--eil
--eit
--ejo
--ek
--el
--eland
--eld
--ele
--ell
--elt
--em
--en
--ena
--enburg
--ence
--end
--ende
--engt
--enheim
--ens
--er
--era
--ere
--erei
--erich
--ernt
--ers
--ert
--erung
--es
--ese
--est
--et
--ett
--etts
--ewle
--ey
--f
--fa
--fach
--fd
--fe
--feld
--fen
--fer
--ff
--ffe
--ffi
--fish
--fly
--fra
--ft
--g
--ga
--gal
--gass
--ge
--gebied
--gebiet
--gel
--ger
--gh
--gie
--gil
--gle
--gn
--go
--graut
--gs
--gt
--gton
--gu
--gy
--h
--ha
--haft
--hal
--hald
--ham
--haus
--hch
--hd
--he
--hed
--heed
--heet
--heim
--hi
--hip
--hl
--hlt
--hn
--hof
--horse
--house
--hr
--hs
--ht
--hu
--i
--ia
--ial
--ian
--iate
--ib
--ic
--ical
--ich
--iche
--iches
--ichi
--ichkeit
--icht
--ick
--icle
--ics
--id
--ide
--ie
--ied
--iede
--iel
--ien
--ier
--ierd
--iere
--ies
--ig
--ige
--iger
--igkeit
--ik
--ika
--iker
--il
--ila
--ile
--im
--immung
--in
--ina
--ine
--ines
--ing
--inge
--ings
--ington
--io
--ion
--ions
--ior
--ir
--ire
--iry
--is
--isch
--ische
--ish
--ism
--ismus
--ission
--ist
--it
--ited
--ities
--itt
--ity
--itz
--itze
--ium
--ius
--ive
--ix
--iz
--ization
--ja
--je
--jo
--k
--ka
--kap
--ke
--keet
--keit
--ker
--ki
--kind
--ks
--kt
--kunft
--l
--la
--land
--lar
--ld
--ldt
--le
--leit
--ler
--lers
--ley
--lf
--lg
--li
--lich
--liche
--lichen
--licher
--lichi
--lichkeit
--lick
--lie
--ligge
--lin
--ling
--lity
--lk
--ll
--lla
--lle
--llt
--llung
--lm
--lo
--log
--logy
--ls
--lt
--lty
--ly
--m
--ma
--man
--mann
--mar
--matrass
--me
--men
--ment
--mer
--mes
--met
--miehl
--ming
--mlung
--mm
--mmt
--mo
--mol
--mp
--mpt
--ms
--mus
--n
--na
--nau
--nc
--nce
--nd
--nde
--nding
--ndy
--ne
--nehme
--nel
--nen
--ner
--nes
--ness
--ney
--nft
--ng
--nge
--nheim
--ni
--nia
--nica
--nida
--ning
--nis
--nk
--nkt
--nn
--nnt
--no
--noh
--ns
--nsburg
--nsche
--nse
--nser
--nt
--nth
--nthal
--nts
--ny
--o
--ock
--od
--oe
--og
--ogow
--ogt
--ohn
--ok
--ol
--ols
--olt
--omm
--on
--one
--oo
--oppt
--or
--ora
--orf
--os
--osa
--ot
--ott
--ous
--out
--ow
--p
--pa
--palz
--pe
--ped
--ph
--phic
--phie
--phy
--ping
--pp
--ppe
--ppt
--ps
--pt
--py
--qua
--r
--ra
--raad
--rb
--rd
--re
--rechde
--reckt
--reech
--rei
--rer
--res
--ret
--rewe
--rf
--rg
--ri
--rie
--rief
--rifde
--rig
--rin
--risse
--rity
--rk
--rm
--rn
--ro
--rohrdorf
--ros
--rry
--rs
--rschaft
--rt
--rter
--rth
--ru
--ry
--rz
--s
--sa
--sam
--satz
--sburg
--sbury
--sch
--schaft
--scht
--schte
--sdaag
--se
--seit
--ser
--sh
--sha
--sheim
--sheiser
--sht
--sion
--sk
--ski
--sky
--sli
--son
--ss
--ssa
--sse
--ssli
--sst
--st
--stag
--stand
--stein
--ster
--ston
--stown
--strasse
--sts
--sum
--sville
--swil
--sy
--t
--ta
--taining
--tal
--te
--ted
--teddel
--tein
--ten
--ter
--tes
--tet
--th
--the
--ti
--tic
--tig
--tige
--time
--ting
--tion
--tl
--tle
--to
--ton
--town
--ts
--tt
--tta
--tte
--tum
--tung
--turm
--ty
--tz
--tzae
--tzburg
--tze
--u
--ual
--ub
--ubb
--ud
--ue
--uel
--uer
--ug
--ul
--ula
--uld
--uls
--um
--ung
--unge
--ungen
--ur
--ure
--urig
--us
--ut
--uth
--ution
--utzt
--uz
--v
--va
--ve
--ved
--verroin
--vi
--via
--view
--ville
--w
--wa
--watzel
--way
--we
--weg
--weh
--weis
--wel
--werk
--wich
--wil
--win
--wn
--wood
--worm
--ws
--wumme
--x
--xt
--y
--ya
--ye
--yer
--yie
--yra
--ys
--z
--za
--zd
--ze
--zeit
--zer
--zich
--zogge
--zoo
--zt
--zy
--ß
--ßd
--ße
