!
"
#
##0
##1
##10
##11
##12
##13
##14
##15
##16
##17
##18
##19
##2
##20
##21
##22
##23
##24
##25
##26
##27
##28
##29
##3
##30
##31
##32
##33
##34
##35
##36
##37
##38
##39
##4
##40
##41
##42
##43
##44
##45
##46
##47
##48
##49
##5
##50
##51
##52
##53
##54
##55
##56
##57
##58
##59
##6
##60
##61
##62
##63
##64
##65
##66
##67
##68
##69
##7
##70
##71
##72
##73
##74
##75
##76
##77
##78
##79
##8
##80
##81
##82
##83
##84
##85
##86
##87
##88
##89
##9
##90
##91
##92
##93
##94
##95
##96
##97
##98
##99
$
%
&
'
(
)
*
+
,
-
.
/
0
00
000
01
017
02
03
033
04
05
06
067
07
083
1
10
100
101
102
103
104
105
11
1120
117
12
13
133
134
14
15
150
1582
15919
16
160
167
17
1700
1752
18
180
19
1912
1923
1971
2
20
200
2000
2003
2004
2005
2006
2007
2010
2011
2013
2014
2015
2016
2017
2018
2019
2020
2021
2022
2023
21
217
22
220
23
233
24
25
250
26
267
28
283
29
3
30
300
31
317
33
333
35
350
365
367
383
4
40
400
417
433
45
467
483
5
50
500
517
52
533
55
56
567
583
59
6
60
617
633
639
65
667
680
683
7
70
717
733
75
767
783
8
80
817
828
833
85
86
867
883
9
90
917
933
95
967
968
97
98
99
:
;
<
=
>
?
@
\
^
_
`
a
able
about
above
academic
accepted
access
accesskey
account
accounts
across
action
active
add
addclass
added
adding
addition
additional
address
adds
admin
administrators
adopted
affiliate
affiliates
africa
african
after
again
ajnala
al
alegre
alias
aliases
aliasesp
align
all
allow
allowed
allows
along
alphabet
already
als
also
alt
alta
although
alto
always
am
ambox
american
amhahash
among
amphoe
amt
an
ancient
and
announced
announcement
another
answer
anto
any
anything
apologies
apologize
appear
applications
applies
apply
appropriate
april
ar
arabic
archive
are
area
arg
argkeys
args
argument
arguments
around
array
art
article
articles
as
asia
asian
ask
assamese
at
attr
attribute
august
author
auto
autofillprop
automatic
automatically
available
avoid
avos
b
ba
back
background
bandeira
bangla
bangladesh
banner
bar
baraha
barra
base
based
basic
bazar
be
because
become
been
before
begin
beginning
behalf
being
below
bengali
best
beta
better
between
bg
big
birth
bishnupriya
black
blacklist
blank
block
blocked
blocks
blue
blurb
bn
bo
boa
board
body
bold
bom
book
books
boolean
border
bot
both
bots
bottom
box
bpy
brackets
break
bridge
bring
british
browser
bs
bug
build
building
buri
but
button
buttons
by
c
ca
calendar
call
called
cameroon
campaign
campo
campos
can
candidates
cannot
caption
cards
case
cases
cat
categories
categorisation
category
categoryhandler
cctld
cdot
cell
center
central
centre
cfg
change
changed
changes
character
characters
charles
check
checktype
child
chin
china
chinese
choose
church
cis
cite
citeparams
city
cjk
claim
class
classes
classical
claude
clay
clear
click
close
cluttering
cmbox
co
code
codepoint
collapse
collapsible
collection
college
color
column
com
come
coming
command
comment
comments
committee
common
commons
communities
community
compact
compare
compareurl
compass
complete
complex
concat
conceic
conduct
conducted
conf
config
configuration
congo
consider
consultation
contact
contain
containing
contains
content
contents
contest
continue
contribute
contributions
contributors
control
conversation
conversations
coordinate
coordinates
copy
copyright
core
correct
corresponding
could
count
countries
country
county
create
created
creation
creole
cruz
csinha
css
csstext
culture
cur
current
currently
cyrillic
d
da
dali
das
data
database
dataset
datavalue
date
dates
day
days
dd
de
dear
death
december
default
defaults
define
defined
del
delete
deleted
delhi
delivered
delivery
democratic
department
depending
deprecated
description
descriptions
design
desktop
details
detect
development
dhaka
di
dialect
did
diff
difference
different
digits
direct
directly
disabled
disambiguation
disambiguous
discuss
discussion
discussions
display
displayed
dissemination
distributed
div
diversity
dm
dna
do
doc
docpage
doctitle
document
documentation
does
doesn
dogon
dom
don
donation
done
dontcategorize
dos
draft
drafting
dt
due
during
e
each
early
easier
east
easter
eastern
ed
edit
editing
edition
editor
editors
edits
education
einstein
either
el
election
elections
element
eligible
else
elseif
em
email
empire
empty
en
enable
enabled
encourage
encyclopedia
end
enforcement
engagement
english
ensure
entity
entityid
entry
env
envfuncs
environment
eo
equinox
er
era
erne
error
errors
es
et
etc
eur
europe
european
even
event
events
every
everyone
everything
evolution
example
examples
except
exist
existing
exists
expand
expanded
experience
experiment
explorer
extension
external
extra
f
fa
fact
false
family
faq
far
faridpur
fdc
fe
feature
features
february
feedback
feel
feminism
few
fi
field
fields
file
files
fill
filter
find
firefox
first
fix
flag
flags
float
floor
fmbox
focus
focused
folk
folklore
follow
followed
following
font
fonts
foo
footer
for
force
form
format
formatting
forward
fotw
found
foundation
four
fr
frac
frame
frameless
france
francisco
franklin
free
french
friday
from
full
fullurl
function
functions
funds
further
future
g
ga
gallery
gazipur
gender
general
generated
german
germany
get
getargs
getenvironment
getparent
gets
gif
give
given
gje
global
go
goal
goia
going
google
gopalganj
governance
government
grande
grant
grants
great
greek
greetings
gregorian
group
groups
gsub
gua
guide
guidelines
guinea
h
had
handler
happen
happy
has
hatnote
have
having
he
header
heading
health
hear
height
hello
help
here
hi
hide
high
himachal
his
history
hlist
hmong
hogarth
hook
hooks
hope
hour
hours
house
how
however
hr
html
http
https
hu
human
i
ia
iana
icon
id
idea
ideas
ideograph
ietf
if
ii
image
images
imbox
important
improve
improvements
improving
in
ina
include
includes
including
index
india
indian
indic
individual
indonesia
info
infobox
information
ingres
inherit
initial
inline
input
insert
inserted
inside
install
instead
interested
interface
international
internet
interwiki
into
invalid
invert
invite
invited
involved
ip
ipairs
is
isbn
island
islands
iso
issue
issues
it
italic
item
items
its
itself
j
ja
jackson
jamalpur
january
japanese
jefferson
jesus
joa
john
johr
join
jose
journal
journals
jpeg
jpg
js
julian
july
june
just
k
ka
kapurthala
key
keyboard
khu
king
kingdom
kishoreganj
know
knowledge
known
ko
kolkata
korea
l
la
label
lagoa
lake
lang
language
languages
large
last
later
latin
latn
launched
layout
le
leading
leap
learn
learning
least
leave
left
legal
len
length
less
let
letter
level
li
lia
library
license
life
like
lincoln
line
link
linked
links
list
listed
lists
live
ll
load
loaddata
local
location
log
logged
login
logo
london
long
longer
look
looking
love
loves
low
lower
lua
m
ma
macao
madaripur
made
madison
mahal
mail
mailing
main
maintenance
major
make
makes
makeurllink
makewikilink
making
malay
mandi
manet
manikganj
manipuri
manual
manually
many
map
mappings
maps
maranha
march
margin
mari
maria
marion
mark
markup
martin
mass
match
matches
materials
math
matisse
may
mbox
me
means
media
mediawiki
meet
meeting
members
menu
message
messagebox
messages
meta
miao
middle
might
miguel
million
min
minas
mini
minutes
mirror
missing
mixtec
mobile
mode
modern
module
modules
monet
monroe
monte
month
months
moon
moorish
more
mosque
most
move
moved
movement
msg
mshared
mt
multilingual
multiple
munshiganj
muse
museum
music
must
mw
my
mymensingh
n
na
naga
nagar
nahuatl
nakhon
name
named
names
namespace
namespaces
narayanganj
narshingdi
national
navbar
navbox
navchild
navframe
navigation
nd
ndia
necessary
need
needed
needs
nepal
netrakona
new
news
newsletter
next
nia
nigeria
nil
nio
nl
nn
no
nocat
node
noeditsection
noflip
non
none
normal
norte
north
northern
norway
not
notation
note
notes
notice
notoc
nova
november
novo
now
ns
num
number
numbers
o
obj
object
objects
oc
october
oeste
of
off
office
official
often
ogg
ol
old
ombox
on
once
one
online
only
open
opera
operator
opt
option
optional
options
or
order
org
organization
organizing
original
orthography
os
other
others
otherwise
our
out
output
outreach
over
override
owl
own
owned
p
pa
padding
page
pages
pagetype
pairs
papua
para
param
parameter
parameters
params
paramsaliasesp
parent
parish
parsedformat
part
participate
participation
particular
partnerships
parts
pass
passed
password
pattern
paulista
pdf
pe
pedro
people
per
period
periods
person
phase
philosophy
piaui
pl
place
placed
places
plain
plan
planned
please
pm
png
point
policy
polis
portal
porto
pos
position
possible
post
posted
posting
precision
preferences
preferred
prefix
prefixedtext
prefixes
preload
present
presidente
press
prevent
preview
previous
print
private
probably
problem
problems
process
processes
program
programming
project
projects
property
proposal
proposals
propose
proposed
protected
protection
proto
provide
provided
provides
province
pt
public
published
publisher
punjab
pur
purge
purpose
put
px
pywikipedia
q
qualifier
qualifiers
quality
quechua
query
question
questions
r
ra
range
rankpos
rather
raw
re
reach
read
readers
reading
ready
real
really
reason
receive
recent
recommended
red
redirect
redirects
reference
references
regarding
regards
region
regions
registered
regular
related
released
relevant
remember
remove
removed
replace
reply
report
reports
republic
request
requested
requests
require
required
research
resources
result
results
ret
retrieved
return
returned
returns
review
revision
rgb
ria
ribeira
right
rio
river
ro
roman
rosa
row
rows
rtl
ru
run
running
russia
s
sa
sadar
sahib
sainik
saint
salvador
same
sample
san
sandbox
sandboxtitle
sanskrit
santa
santana
santo
save
says
schedule
scholarship
scholarships
school
science
sciences
scientific
scientist
script
scripts
seal
search
seats
sebastia
second
section
sections
see
seen
select
selected
selection
self
send
sent
sep
separate
separator
separators
september
serra
server
service
session
set
settings
several
share
shared
shift
short
should
show
showing
shown
si
side
sign
signups
similar
simple
since
single
site
sites
size
sk
skills
skin
sl
small
so
social
software
solid
some
someone
something
sometimes
soon
sorry
sort
source
sources
south
southern
space
span
special
species
specific
specified
specify
split
square
sr
sri
st
standard
start
started
starting
state
statement
statements
states
status
stay
std
still
stop
str
strange
strategy
string
stub
stubs
study
style
styles
sub
subject
subjectspace
submit
subpage
subpages
subscribe
subtags
successful
such
sul
summary
sunday
superimpose
support
supported
suppressed
sure
survey
sv
svg
switch
syntax
sysop
system
t
ta
tab
table
tables
tag
tags
tai
taiwan
taj
take
talk
tangail
target
task
taxobox
td
te
team
teams
tech
technical
technology
template
templates
templatetitle
temple
term
terms
test
testcases
testcasestitle
testing
text
th
thai
than
thank
thanks
that
the
their
them
then
theory
there
these
they
things
think
this
those
three
through
thumb
thursday
till
time
times
tip
title
titleobj
tmbox
tnavbar
to
tocantins
today
todo
together
tonumber
tool
toolbar
tools
tooltip
top
topic
topics
toppdoma
tostring
total
town
tr
transcluded
transl
translate
translated
translating
translation
translations
translit
transliteration
tre
trim
true
trustees
try
turn
twl
two
type
types
u
ucoc
ui
uk
ul
undefined
under
understand
unicode
union
unit
united
universal
university
unknown
unless
until
up
upcoming
update
updated
updates
upload
uploaded
upon
upper
upright
url
us
usa
usage
use
used
useful
user
users
uses
using
usingha
ustring
usually
utc
v
va
val
valid
valley
value
values
valuesarray
van
var
variant
various
ve
vector
verde
version
versions
very
vi
via
victoria
video
view
viewer
viewing
vila
village
visit
vista
visual
visualeditor
volunteer
volunteers
vote
voters
voting
w
want
wants
war
warning
was
washington
watch
watchlist
way
ways
we
web
website
wednesday
week
weeks
welcome
well
were
west
western
what
when
where
whether
which
while
white
whitespace
who
whole
why
wide
width
wiki
wikibase
wikidata
wikilink
wikimania
wikimedia
wikimedians
wikipedia
wikipedias
wikiproject
wikis
wikisource
wikitext
will
william
wishes
wishlist
with
within
without
wmde
wmf
women
word
words
work
working
works
workshop
world
would
wp
wrapper
write
writing
written
wrong
www
x
xx
y
year
years
yes
yesno
yet
york
you
your
z
zapotec
zh
zila
{
|
}
~
£
¨
¬
°
²
¶
·
ø
ʼ
ʿ
̀
́
̂
̃
̄
̆
̇
̈
̉
̊
̌
̣
̧
̨
шаблон
ا
د
ر
ل
ٔ
ٕ
ް
ं
क
ग
च
ज
ट
ड
ण
त
थ
द
न
प
फ
ब
भ
म
य
र
ल
व
श
ष
स
ह
़
ा
ि
ी
ु
ू
ृ
े
ै
ो
ौ
्
।
ঁ
ং
ঃ
অ
অইত
অইল
অইলত
অউ
অউত
অক
অকর
অকরল
অগ
অঙ
অছ
অজ
অঞ
অত
অধ
অন
অনন
অপ
অপর
অপস
অফ
অব
অবদ
অবস
অভ
অভয
অম
অমদ
অমর
অয
অর
অরত
অল
অশ
অষ
অস
অসম
অসমর
অহ
আ
আই
আইএএনএ
আইএনএ
আইড
আইন
আইনস
আইভর
আইর
আইল
আইসল
আইৱ
আউর
আক
আকত
আখ
আগ
আগই
আগত
আগন
আগর
আগষ
আগস
আঙ
আচ
আছ
আজ
আজম
আজমগড
আঞ
আট
আটগড
আটল
আড
আত
আতপ
আথ
আদ
আদমদ
আদর
আধ
আন
আনগ
আনড
আনন
আপ
আপন
আফ
আফগ
আব
আবকচ
আবদ
আভ
আম
আমতল
আমপ
আমব
আমর
আমল
আয
আর
আরআরত
আরক
আরত
আরব
আল
আলক
আলগ
আলজ
আলট
আলপ
আলফ
আলব
আলভ
আলম
আলমড
আলমপ
আলৱ
আশ
আষ
আস
আসন
আসনহ
আসল
আসস
আহ
আহম
আহমদ
ই
ইআল
ইইউআর
ইউ
ইউক
ইউট
ইউন
ইউর
ইও
ইওম
ইক
ইকগ
ইকয
ইকর
ইখ
ইগ
ইঘ
ইঙ
ইচ
ইছ
ইছড
ইজ
ইট
ইটন
ইটহ
ইড
ইত
ইতই
ইথ
ইদ
ইদহ
ইন
ইনগ
ইনঘ
ইনড
ইনপ
ইনব
ইনর
ইনস
ইনহ
ইপ
ইপক
ইফ
ইব
ইভ
ইম
ইমচর
ইমব
ইয
ইর
ইরহ
ইল
ইলত
ইলয
ইলর
ইলহ
ইশ
ইস
ইসর
ইসল
ইহ
ইৱ
ঈ
ঈশ
উ
উই
উইক
উইন
উইর
উইল
উইসকনস
উক
উখ
উগ
উগর
উচ
উজ
উজব
উট
উটন
উঠ
উড
উত
উথ
উদ
উদক
উদপ
উদয
উন
উপ
উপজ
উপত
উপদ
উপন
উপপ
উপমহ
উপর
উফল
উব
উম
উমব
উমর
উয
উর
উল
উস
উহ
উৎপ
উৎপত
উৎস
উৎসব
ঊ
ঋ
এ
এই
এইচ
এইচড
এক
একক
এককর
একট
একর
এখ
এগ
এগত
এগর
এঙ
এছ
এট
এড
এডৱ
এত
এতহ
এন
এনগ
এপ
এফ
এব
এম
এমব
এর
এরন
এল
এশ
এস
এসট
এসপ
এহ
ঐ
ঐত
ও
ওএস
ওক
ওকল
ওগ
ওজ
ওট
ওড
ওত
ওন
ওনর
ওপ
ওপল
ওব
ওম
ওয
ওর
ওল
ওলহ
ওশ
ওস
ওসম
ওসল
ওহ
ঔ
ঔগ
ঔত
ঔয
ঔর
ঔস
ঔহ
ক
কইন
কউ
কক
ককর
কখ
কগ
কগঞ
কঙ
কচ
কছড
কজ
কট
কড
কণ
কত
কতহ
কথ
কদ
কদম
কন
কপ
কফ
কব
কভ
কম
কমলগঞ
কয
কর
করগ
করছ
করণ
করত
করন
করপ
করব
করল
কল
কলন
কলম
কশ
কশন
কস
কসব
কহ
খ
খণ
খত
খন
খয
খর
খল
খস
খৱ
গ
গই
গক
গগ
গঙ
গজ
গজর
গঞ
গঠন
গড
গণ
গণচ
গত
গদ
গন
গনত
গনতন
গনন
গনভ
গপ
গফরগ
গব
গভ
গম
গমগঞ
গয
গর
গরন
গরপ
গল
গলক
গলন
গলম
গস
গৱ
ঘ
ঘট
ঘটন
ঘন
ঘনহ
ঘর
ঘরর
ঘল
ঙ
ঙক
ঙকর
ঙখল
ঙজ
ঙত
ঙন
ঙপ
ঙর
ঙরহ
ঙল
ঙস
ঙহ
চ
চক
চগ
চগড
চট
চড
চণ
চত
চন
চনপ
চপ
চব
চম
চয
চর
চরক
চরফ
চল
চলগ
চলথ
চলর
চহ
ছ
ছড
ছত
ছব
ছর
জ
জআল
জউদ
জক
জগ
জগঞ
জগড
জগত
জগদ
জগন
জট
জড
জত
জতন
জদ
জধ
জন
জনগর
জনপ
জনস
জপ
জব
জবর
জবলপ
জম
জয
জর
জরম
জল
জলঢ
জলন
জলপ
জশ
জস
জহ
ঝ
ঞ
ট
টএস
টক
টকর
টখ
টগ
টঙ
টচ
টজ
টন
টনম
টপ
টফ
টম
টয
টর
টল
টস
টহ
ঠ
ড
ডক
ডগ
ডগল
ডন
ডফ
ডব
ডম
ডয
ডর
ডল
ডলফ
ডস
ঢ
ণ
ণগঞ
ণনগর
ণপ
ণব
ণম
ণর
ত
তই
তক
তগ
তঙ
তচ
তজ
তড
তত
তথ
তদ
তন
তনগর
তনর
তনহ
তপ
তফ
তব
তভ
তম
তমপ
তয
তর
তরর
তল
তলম
তলর
তস
তসর
তহ
থ
থক
থত
থন
থপ
থব
থম
থয
থর
থরঘ
থল
থস
থহ
দ
দক
দখ
দগ
দগঞ
দত
দন
দনগর
দনপ
দপ
দব
দম
দয
দর
দরগঞ
দরপ
দরব
দরবন
দরর
দল
দশ
দশম
দশহর
দস
দহ
দৱ
ধ
ধক
ধত
ধন
ধনস
ধবপ
ধম
ধর
ধল
ধহ
ন
নই
নউ
নউদ
নওগ
নক
নকয
নকর
নকল
নকশ
নকহ
নখ
নগ
নগঞ
নগড
নগর
নগরক
নগরম
নচ
নছড
নজ
নঝ
নট
নড
নত
নথ
নদ
নদহ
নন
নপ
নফ
নব
নবগ
নভ
নম
নয
নর
নরক
নরস
নরৱ
নল
নলছ
নশ
নশন
নষ
নস
নসন
নহ
নৎ
নৎহ
নৱ
প
পইল
পক
পকর
পগঞ
পগড
পচ
পঞ
পট
পটন
পড
পণ
পত
পথ
পদ
পদফ
পন
পনগর
পপ
পব
পম
পয
পর
পরগ
পরগণ
পরগন
পরবর
পরম
পরশ
পল
পশ
পস
পহ
ফ
ফক
ফজ
ফজল
ফট
ফত
ফপ
ফয
ফর
ফরনগর
ফল
ফসল
ব
বক
বকশ
বগ
বগঞ
বঙ
বচর
বছর
বজ
বট
বড
বত
বতল
বদ
বদরগঞ
বধ
বধল
বন
বনগ
বনগর
বননগর
বনম
বনর
বপ
বপকর
বপত
বব
বম
বয
বর
বরকল
বরগ
বরগঞ
বরণ
বরদ
বরনর
বরম
বল
বলম
বলর
বশ
বস
বসন
বসব
বসর
বসরর
বসরহ
বহ
বহন
ভ
ভক
ভদ
ভব
ভর
ভরপ
ভল
ম
মইরহ
মক
মকর
মগ
মগঞ
মগড
মগত
মঙ
মচ
মচন
মজ
মঞ
মট
মঠব
মড
মণ
মণপ
মণব
মত
মতপ
মতলব
মথ
মদ
মদন
মদপ
মধ
মন
মনগর
মনপ
মনর
মনস
মপ
মফ
মব
মবঙ
মবন
মভ
মম
ময
মর
মরক
মরগ
মরন
মল
মশ
মস
মহ
মহল
মহলছড
য
যউত
যক
যকল
যগ
যটন
যত
যতম
যথ
যদ
যন
যপ
যব
যবস
যবহ
যম
যয
যর
যশ
যস
যহ
র
রআলড
রক
রকর
রকল
রখ
রগ
রগঞ
রগড
রঘ
রঙ
রচ
রচন
রচর
রচল
রচলন
রজ
রজন
রট
রড
রণ
রণহ
রত
রতর
রথ
রথম
রদ
রধ
রন
রনগর
রনডন
রনদ
রপ
রপত
রফ
রব
রবণ
রবন
রভ
রম
রমন
রয
রর
ররম
রল
রশ
রশন
রষ
রস
রসন
রসভ
রসর
রহ
রহণ
রহম
রহর
রৱ
ল
লইকর
লক
লকর
লখ
লগ
লগঞ
লঘর
লঙ
লচর
লছড
লজ
লঝ
লট
লটন
লড
লত
লতখ
লতপ
লতল
লথ
লদ
লন
লনগর
লনর
লপ
লফ
লব
লভ
লম
লমন
লয
লর
লল
লশ
লস
লহ
লহঙ
লৱ
লৱর
শ
শএহ
শক
শখ
শগ
শঙ
শত
শন
শনর
শপ
শব
শবপ
শম
শর
শরর
শল
শহ
শহর
শহরগ
শহরর
শহরহ
ষ
ষক
ষণ
ষত
ষদ
ষদর
ষন
ষপ
ষমত
ষয
ষর
ষরত
স
সউস
সওরল
সক
সকত
সখ
সগ
সগড
সগর
সঙ
সচ
সট
সড
সত
সদ
সদর
সদরপ
সদরর
সদস
সন
সনর
সপ
সফ
সব
সভ
সম
সময
সমর
সমস
সয
সর
সরক
সল
সস
সহ
সৱ
হ
হওয
হক
হঙ
হঙকর
হঙস
হজ
হত
হদ
হন
হনগঞ
হনপ
হপ
হব
হভ
হম
হমব
হয
হর
হরদ
হরপ
হল
হলদ
হস
়
া
ি
ী
ু
ূ
ৃ
ে
ৈ
্
ৎ
ৎত
ৎস
ৗ
০
০০
০০০
০০১
০০২
০০৩
০০৪
০০৫
০০৬
০০৭
০০৮
০০৯
০১
০১০
০১১
০১২
০১৩
০১৪
০১৫
০১৬
০১৭
০১৮
০১৯
০২
০২০
০২১
০২২
০২৩
০২৪
০২৫
০২৬
০২৭
০২৮
০২৯
০৩
০৩০
০৩১
০৩২
০৩৩
০৩৪
০৩৫
০৩৬
০৩৭
০৩৮
০৩৯
০৪
০৪০
০৪১
০৪২
০৪৩
০৪৪
০৪৫
০৪৬
০৪৭
০৪৮
০৪৯
০৫
০৫০
০৫১
০৫২
০৫৩
০৫৪
০৫৫
০৫৬
০৫৭
০৫৮
০৫৯
০৬
০৬০
০৬১
০৬২
০৬৩
০৬৪
০৬৫
০৬৬
০৬৭
০৬৮
০৬৯
০৭
০৭০
০৭১
০৭২
০৭৩
০৭৪
০৭৫
০৭৬
০৭৭
০৭৮
০৭৯
০৮
০৮০
০৮১
০৮২
০৮৩
০৮৪
০৮৫
০৮৬
০৮৭
০৮৮
০৮৯
০৯
০৯০
০৯১
০৯২
০৯৩
০৯৪
০৯৫
০৯৬
০৯৭
০৯৮
০৯৯
১
১০
১০০
১০০০
১০০৩
১০০৭
১০১
১০১০
১০১৩
১০১৭
১০২
১০২০
১০২৩
১০২৬
১০৩
১০৪
১০৪৩
১০৫
১০৫৩
১০৫৯
১০৬
১০৬২
১০৬৬
১০৭
১০৭২
১০৭৪
১০৮
১০৯
১০৯২
১১
১১০
১১১
১১১৫
১১২
১১৩
১১৩১
১১৩৮
১১৪
১১৪৫
১১৫
১১৫৮
১১৬
১১৭
১১৮
১১৯
১১৯০
১১৯৭
১২
১২০
১২০০
১২১
১২১৭
১২১৯
১২২
১২২০
১২৩
১২৩০
১২৩৩
১২৩৬
১২৪
১২৫
১২৬
১২৬৯
১২৭
১২৭১
১২৮
১২৯
১৩
১৩০
১৩০২
১৩১
১৩১৫
১৩২
১৩২৮
১৩৩
১৩৩৮
১৩৪
১৩৪১
১৩৫
১৩৫৮
১৩৬
১৩৬৪
১৩৬৮
১৩৭
১৩৭১
১৩৮
১৩৯
১৪
১৪০
১৪০০
১৪০৪
১৪০৮
১৪১
১৪১৩
১৪২
১৪২০
১৪২৩
১৪৩
১৪৪
১৪৪০
১৪৪৩
১৪৫
১৪৫০
১৪৫৩
১৪৫৯
১৪৬
১৪৬৯
১৪৭
১৪৮
১৪৯
১৪৯৬
১৪৯৯
১৫
১৫০
১৫০০
১৫০২
১৫০৫
১৫১
১৫২
১৫৩
১৫৩৮
১৫৪
১৫৪৮
১৫৫
১৫৬
১৫৭
১৫৭১
১৫৭৪
১৫৮
১৫৮৭
১৫৯
১৬
১৬০
১৬০৭
১৬১
১৬১০
১৬২
১৬৩
১৬৪
১৬৪৬
১৬৫
১৬৫৬
১৬৬
১৬৭
১৬৮
১৬৮৯
১৬৯
১৬৯৭
১৭
১৭০
১৭১
১৭২
১৭৩
১৭৪
১৭৪৮
১৭৫
১৭৫৮
১৭৬
১৭৭
১৭৮
১৭৮১
১৭৯
১৭৯১
১৮
১৮০
১৮০১
১৮১
১৮২
১৮২০
১৮২১
১৮২২
১৮২৭
১৮৩
১৮৩৩
১৮৪
১৮৪০
১৮৪৪
১৮৪৭
১৮৫
১৮৫০
১৮৬
১৮৬০
১৮৬৬
১৮৬৯
১৮৭
১৮৭০
১৮৭১
১৮৭৬
১৮৭৯
১৮৮
১৮৮৩
১৮৮৯
১৮৯
১৮৯৬
১৯
১৯০
১৯০১
১৯০২
১৯০৩
১৯০৬
১৯০৯
১৯১
১৯১০
১৯১২
১৯১৬
১৯১৮
১৯১৯
১৯২
১৯২০
১৯২১
১৯২২
১৯২৫
১৯২৮
১৯২৯
১৯৩
১৯৩২
১৯৩৩
১৯৪
১৯৪২
১৯৪৪
১৯৪৫
১৯৪৬
১৯৪৭
১৯৪৮
১৯৪৯
১৯৫
১৯৫০
১৯৫২
১৯৫৪
১৯৫৫
১৯৫৬
১৯৫৭
১৯৫৮
১৯৬
১৯৬০
১৯৬১
১৯৬২
১৯৬৩
১৯৬৪
১৯৬৫
১৯৬৬
১৯৬৭
১৯৬৮
১৯৬৯
১৯৭
১৯৭০
১৯৭১
১৯৭২
১৯৭৩
১৯৭৪
১৯৭৫
১৯৭৬
১৯৭৭
১৯৭৮
১৯৭৯
১৯৮
১৯৮০
১৯৮১
১৯৮২
১৯৮৩
১৯৮৪
১৯৮৫
১৯৮৬
১৯৮৭
১৯৮৮
১৯৮৯
১৯৯
১৯৯০
১৯৯১
১৯৯২
১৯৯৩
১৯৯৪
১৯৯৫
১৯৯৬
১৯৯৮
১৯৯৯
২
২০
২০০
২০০০
২০০১
২০০২
২০০৩
২০০৪
২০০৫
২০০৬
২০০৭
২০০৮
২০০৯
২০১
২০১১
২০১২
২০১৩
২০১৪
২০১৫
২০১৬
২০১৭
২০১৮
২০১৯
২০২
২০২০
২০২১
২০২২
২০৩
২০৩০
২০৪
২০৫
২০৬
২০৭
২০৮
২০৯
২১
২১০
২১১
২১২
২১৩
২১৪
২১৫
২১৬
২১৭
২১৮
২১৯
২২
২২০
২২১
২২২
২২৩
২২৪
২২৫
২২৬
২২৭
২২৮
২২৯
২৩
২৩০
২৩১
২৩২
২৩৩
২৩৪
২৩৫
২৩৬
২৩৭
২৩৮
২৩৯
২৪
২৪০
২৪১
২৪২
২৪৩
২৪৪
২৪৫
২৪৬
২৪৭
২৪৮
২৪৯
২৫
২৫০
২৫১
২৫২
২৫৩
২৫৪
২৫৫
২৫৬
২৫৭
২৫৮
২৫৯
২৬
২৬০
২৬১
২৬২
২৬৩
২৬৪
২৬৫
২৬৬
২৬৭
২৬৮
২৬৯
২৭
২৭০
২৭১
২৭২
২৭৩
২৭৪
২৭৫
২৭৬
২৭৭
২৭৮
২৭৯
২৮
২৮০
২৮১
২৮২
২৮৩
২৮৪
২৮৫
২৮৬
২৮৭
২৮৮
২৮৯
২৮৯৬
২৯
২৯০
২৯১
২৯২
২৯৩
২৯৪
২৯৫
২৯৬
২৯৭
২৯৮
২৯৯
২৯৯৫
২৯৯৮
৩
৩০
৩০০
৩০০১
৩০১
৩০২
৩০৩
৩০৪
৩০৫
৩০৬
৩০৭
৩০৮
৩০৯
৩১
৩১০
৩১১
৩১২
৩১৩
৩১৪
৩১৫
৩১৬
৩১৭
৩১৮
৩১৯
৩২
৩২০
৩২১
৩২২
৩২৩
৩২৪
৩২৫
৩২৬
৩২৭
৩২৮
৩২৯
৩৩
৩৩০
৩৩১
৩৩২
৩৩৩
৩৩৪
৩৩৫
৩৩৬
৩৩৭
৩৩৮
৩৩৯
৩৪
৩৪০
৩৪১
৩৪২
৩৪৩
৩৪৪
৩৪৫
৩৪৬
৩৪৭
৩৪৮
৩৪৯
৩৫
৩৫০
৩৫১
৩৫২
৩৫৩
৩৫৪
৩৫৫
৩৫৬
৩৫৭
৩৫৮
৩৫৯
৩৬
৩৬০
৩৬১
৩৬২
৩৬৩
৩৬৪
৩৬৫
৩৬৬
৩৬৭
৩৬৮
৩৬৯
৩৭
৩৭০
৩৭১
৩৭২
৩৭৩
৩৭৪
৩৭৫
৩৭৬
৩৭৭
৩৭৮
৩৭৯
৩৮
৩৮০
৩৮১
৩৮২
৩৮৩
৩৮৪
৩৮৫
৩৮৬
৩৮৭
৩৮৮
৩৮৯
৩৯
৩৯০
৩৯১
৩৯২
৩৯৩
৩৯৪
৩৯৫
৩৯৬
৩৯৭
৩৯৮
৩৯৯
৪
৪০
৪০০
৪০১
৪০২
৪০৩
৪০৪
৪০৫
৪০৬
৪০৭
৪০৮
৪০৯
৪১
৪১০
৪১১
৪১২
৪১৩
৪১৪
৪১৫
৪১৬
৪১৭
৪১৮
৪১৯
৪২
৪২০
৪২১
৪২২
৪২৩
৪২৪
৪২৫
৪২৬
৪২৭
৪২৮
৪২৯
৪৩
৪৩০
৪৩১
৪৩২
৪৩৩
৪৩৪
৪৩৫
৪৩৬
৪৩৭
৪৩৮
৪৩৯
৪৪
৪৪০
৪৪১
৪৪২
৪৪৩
৪৪৪
৪৪৫
৪৪৬
৪৪৭
৪৪৮
৪৪৯
৪৫
৪৫০
৪৫১
৪৫২
৪৫৩
৪৫৪
৪৫৫
৪৫৬
৪৫৭
৪৫৮
৪৫৯
৪৬
৪৬০
৪৬১
৪৬২
৪৬৩
৪৬৪
৪৬৫
৪৬৬
৪৬৭
৪৬৮
৪৬৯
৪৭
৪৭০
৪৭১
৪৭২
৪৭৩
৪৭৪
৪৭৫
৪৭৬
৪৭৭
৪৭৮
৪৭৯
৪৮
৪৮০
৪৮১
৪৮২
৪৮৩
৪৮৪
৪৮৫
৪৮৬
৪৮৭
৪৮৮
৪৮৯
৪৯
৪৯০
৪৯১
৪৯২
৪৯৩
৪৯৪
৪৯৫
৪৯৬
৪৯৭
৪৯৮
৪৯৯
৫
৫০
৫০০
৫০১
৫০২
৫০৩
৫০৪
৫০৫
৫০৬
৫০৭
৫০৮
৫০৯
৫১
৫১০
৫১১
৫১২
৫১৩
৫১৪
৫১৫
৫১৬
৫১৭
৫১৮
৫১৯
৫২
৫২০
৫২১
৫২২
৫২৩
৫২৪
৫২৫
৫২৬
৫২৭
৫২৮
৫২৯
৫৩
৫৩০
৫৩১
৫৩২
৫৩৩
৫৩৪
৫৩৫
৫৩৬
৫৩৭
৫৩৮
৫৩৯
৫৪
৫৪০
৫৪১
৫৪২
৫৪৩
৫৪৪
৫৪৫
৫৪৬
৫৪৭
৫৪৮
৫৪৯
৫৫
৫৫০
৫৫১
৫৫২
৫৫৩
৫৫৪
৫৫৫
৫৫৬
৫৫৭
৫৫৮
৫৫৯
৫৬
৫৬০
৫৬১
৫৬২
৫৬৩
৫৬৪
৫৬৫
৫৬৬
৫৬৭
৫৬৮
৫৬৯
৫৭
৫৭০
৫৭১
৫৭২
৫৭৩
৫৭৪
৫৭৫
৫৭৬
৫৭৭
৫৭৮
৫৭৯
৫৮
৫৮০
৫৮১
৫৮২
৫৮৩
৫৮৪
৫৮৫
৫৮৬
৫৮৭
৫৮৮
৫৮৯
৫৯
৫৯০
৫৯১
৫৯২
৫৯৩
৫৯৪
৫৯৫
৫৯৬
৫৯৭
৫৯৮
৫৯৯
৬
৬০
৬০০
৬০১
৬০২
৬০৩
৬০৪
৬০৫
৬০৬
৬০৭
৬০৮
৬০৯
৬১
৬১০
৬১১
৬১২
৬১৩
৬১৪
৬১৫
৬১৬
৬১৭
৬১৮
৬১৯
৬২
৬২০
৬২১
৬২২
৬২৩
৬২৪
৬২৫
৬২৬
৬২৭
৬২৮
৬২৯
৬৩
৬৩০
৬৩১
৬৩২
৬৩৩
৬৩৪
৬৩৫
৬৩৬
৬৩৭
৬৩৮
৬৩৯
৬৪
৬৪০
৬৪১
৬৪২
৬৪৩
৬৪৪
৬৪৫
৬৪৬
৬৪৭
৬৪৮
৬৪৯
৬৫
৬৫০
৬৫১
৬৫২
৬৫৩
৬৫৪
৬৫৫
৬৫৬
৬৫৭
৬৫৮
৬৫৯
৬৬
৬৬০
৬৬১
৬৬২
৬৬৩
৬৬৪
৬৬৫
৬৬৬
৬৬৭
৬৬৮
৬৬৯
৬৭
৬৭০
৬৭১
৬৭২
৬৭৩
৬৭৪
৬৭৫
৬৭৬
৬৭৭
৬৭৮
৬৭৯
৬৮
৬৮০
৬৮১
৬৮২
৬৮৩
৬৮৪
৬৮৫
৬৮৬
৬৮৭
৬৮৮
৬৮৯
৬৯
৬৯০
৬৯১
৬৯২
৬৯৩
৬৯৪
৬৯৫
৬৯৬
৬৯৭
৬৯৮
৬৯৯
৭
৭০
৭০০
৭০১
৭০২
৭০৩
৭০৪
৭০৫
৭০৬
৭০৭
৭০৮
৭০৯
৭১
৭১০
৭১১
৭১২
৭১৩
৭১৪
৭১৫
৭১৬
৭১৭
৭১৮
৭১৯
৭২
৭২০
৭২১
৭২২
৭২৩
৭২৪
৭২৫
৭২৬
৭২৭
৭২৮
৭২৯
৭৩
৭৩০
৭৩১
৭৩২
৭৩৩
৭৩৪
৭৩৫
৭৩৬
৭৩৭
৭৩৮
৭৩৯
৭৪
৭৪০
৭৪১
৭৪২
৭৪৩
৭৪৪
৭৪৫
৭৪৬
৭৪৭
৭৪৮
৭৪৯
৭৫
৭৫০
৭৫১
৭৫২
৭৫৩
৭৫৪
৭৫৫
৭৫৬
৭৫৭
৭৫৮
৭৫৯
৭৬
৭৬০
৭৬১
৭৬২
৭৬৩
৭৬৪
৭৬৫
৭৬৬
৭৬৭
৭৬৮
৭৬৯
৭৭
৭৭০
৭৭১
৭৭২
৭৭৩
৭৭৪
৭৭৫
৭৭৬
৭৭৭
৭৭৮
৭৭৯
৭৮
৭৮০
৭৮১
৭৮২
৭৮৩
৭৮৪
৭৮৫
৭৮৬
৭৮৭
৭৮৮
৭৮৯
৭৯
৭৯০
৭৯১
৭৯২
৭৯৩
৭৯৪
৭৯৫
৭৯৬
৭৯৭
৭৯৮
৭৯৯
৮
৮০
৮০০
৮০১
৮০২
৮০৩
৮০৪
৮০৫
৮০৬
৮০৭
৮০৮
৮০৯
৮১
৮১০
৮১১
৮১২
৮১৩
৮১৪
৮১৫
৮১৬
৮১৭
৮১৮
৮১৯
৮২
৮২০
৮২১
৮২২
৮২৩
৮২৪
৮২৫
৮২৬
৮২৭
৮২৮
৮২৯
৮৩
৮৩০
৮৩১
৮৩২
৮৩৩
৮৩৪
৮৩৫
৮৩৬
৮৩৭
৮৩৮
৮৩৯
৮৪
৮৪০
৮৪১
৮৪২
৮৪৩
৮৪৪
৮৪৫
৮৪৬
৮৪৭
৮৪৮
৮৪৯
৮৫
৮৫০
৮৫১
৮৫২
৮৫৩
৮৫৪
৮৫৫
৮৫৬
৮৫৭
৮৫৮
৮৫৯
৮৬
৮৬০
৮৬১
৮৬২
৮৬৩
৮৬৪
৮৬৫
৮৬৬
৮৬৭
৮৬৮
৮৬৯
৮৭
৮৭০
৮৭১
৮৭২
৮৭৩
৮৭৪
৮৭৫
৮৭৬
৮৭৭
৮৭৮
৮৭৯
৮৮
৮৮০
৮৮১
৮৮২
৮৮৩
৮৮৪
৮৮৫
৮৮৬
৮৮৭
৮৮৮
৮৮৯
৮৯
৮৯০
৮৯১
৮৯২
৮৯৩
৮৯৪
৮৯৫
৮৯৬
৮৯৭
৮৯৮
৮৯৯
৯
৯০
৯০০
৯০১
৯০২
৯০৩
৯০৪
৯০৫
৯০৬
৯০৭
৯০৮
৯০৯
৯১
৯১০
৯১১
৯১২
৯১৩
৯১৪
৯১৫
৯১৬
৯১৭
৯১৮
৯১৯
৯২
৯২০
৯২১
৯২২
৯২৩
৯২৪
৯২৫
৯২৬
৯২৭
৯২৮
৯২৯
৯৩
৯৩০
৯৩১
৯৩২
৯৩৩
৯৩৪
৯৩৫
৯৩৬
৯৩৭
৯৩৮
৯৩৯
৯৪
৯৪০
৯৪১
৯৪২
৯৪৩
৯৪৪
৯৪৫
৯৪৬
৯৪৭
৯৪৮
৯৪৯
৯৫
৯৫০
৯৫১
৯৫২
৯৫৩
৯৫৪
৯৫৫
৯৫৬
৯৫৭
৯৫৮
৯৫৯
৯৬
৯৬০
৯৬১
৯৬২
৯৬৩
৯৬৪
৯৬৫
৯৬৬
৯৬৭
৯৬৮
৯৬৯
৯৭
৯৭০
৯৭১
৯৭২
৯৭৩
৯৭৪
৯৭৫
৯৭৬
৯৭৭
৯৭৮
৯৭৯
৯৮
৯৮০
৯৮১
৯৮২
৯৮৩
৯৮৪
৯৮৫
৯৮৬
৯৮৭
৯৮৮
৯৮৯
৯৯
৯৯০
৯৯১
৯৯২
৯৯৩
৯৯৪
৯৯৫
৯৯৬
৯৯৭
৯৯৮
৯৯৯
ৰ
ৱ
ৱড
ৱন
ৱলস
৳
৷
ਾ
ੀ
ੰ
લ
ા
િ
ે
ો
્
ା
ି
େ
க
த
ப
ர
வ
ா
ி
ு
ூ
்
్
ಂ
ಟ
ಲ
ಾ
ಿ
ು
ೆ
್
ೕ
ก
ข
ง
งหว
จ
ช
ญ
ด
ต
ท
น
บ
พ
ม
ย
ร
ว
ส
อ
อำเภอท
อำเภอบ
อำเภอว
อำเภอศร
อำเภอส
อำเภอเม
อำเภอแม
ั
า
ิ
ี
ึ
ื
ุ
ู
็
่
้
์
​
‌
‍
‎
–
—
‘
’
“
”
•
…
‰
′
″
₨
←
→
↔
↷
−
≥
③
④
⑦
◄
◾
⺀
⺄
⺆
⺈
⺊
⺌
⺕
⺝
⺸
⺼
⿰
⿱
⿲
⿳
⿴
⿵
⿶
⿷
⿸
⿹
⿺
⿻
〢
゙
コ
ユ
㇁
㇂
㇄
㇇
㇈
㇉
㇓
㐁
㐄
㐅
㐌
㐫
㐬
㐭
㐮
㐱
㑒
㒵
㒸
㒼
㓁
㓞
㔾
㕛
㕣
㖾
㘝
㚅
㚇
㚔
㚘
㝉
㝡
㝴
㝵
㞋
㞢
㞷
㠩
㠭
㠯
㡀
㡭
㡿
㢲
㢴
㣇
㣺
㥯
㪅
㫄
㫐
㫒
㫺
㬅
㬎
㬥
㬰
㲋
㳄
㷠
㸒
㸚
㸦
㼌
㼲
㽞
㿟
䀠
䂞
䍃
䏍
䒑
䖍
䖒
䖝
䖵
䙴
䚻
䜌
䝿
䡛
䧹
䪞
一
丁
丂
七
丄
丅
丆
万
丈
三
上
下
丌
不
与
丏
丐
丑
专
且
丕
世
丘
丙
业
东
丞
丢
丣
两
严
並
丨
丩
个
丫
丬
中
丮
丰
丱
串
丵
丶
丷
丸
丹
为
主
丽
丿
乀
乂
乃
久
乆
乇
么
义
之
乌
乍
乎
乏
乐
乑
乔
乖
乗
乘
乙
乚
乛
乜
九
乞
也
习
乡
乳
乾
亀
亅
了
亇
予
争
事
二
亍
于
亏
亐
云
互
亓
五
井
亘
亚
亜
亞
亟
亠
亡
亢
交
亥
亦
产
亨
亩
享
京
亭
亮
亯
亰
亲
亳
亶
亷
人
亻
亼
亾
仁
今
介
仌
从
仐
仑
仒
仓
仕
他
付
仝
代
令
以
任
企
伊
伏
伐
休
会
伯
但
位
何
佘
余
作
佥
使
來
侈
侌
侖
侯
侵
便
保
俞
信
修
倉
倍
候
倠
備
僉
僕
儿
兀
允
兂
元
兄
充
兆
兇
先
光
兊
克
兌
免
兑
兒
兓
兔
党
兜
兟
入
全
兩
兪
八
公
六
兮
兰
共
关
兵
其
具
典
兹
兼
冀
冂
冃
冄
内
冈
冉
冊
冋
册
再
冎
冏
冐
冒
冓
冖
冗
冘
军
农
冝
冡
冥
冫
冬
冷
几
凡
凢
凵
凶
凷
凸
凹
出
函
凾
刀
刁
刂
刃
刄
刅
分
切
刍
刑
刕
刖
列
刘
则
初
別
利
别
到
制
刺
則
削
剌
前
剡
剽
劉
力
功
加
劦
助
劫
劳
劵
勃
勇
勉
勒
動
務
勞
勤
勹
勺
勻
勾
勿
匀
匂
包
匆
匈
匊
匋
匍
匕
化
北
匚
匝
匡
匪
匱
匸
匹
区
医
匽
匿
區
十
卂
千
卄
卅
卆
升
午
卉
半
卌
华
卑
卒
卓
单
卖
南
卜
卝
卞
占
卡
卢
卣
卤
卦
卩
卪
卬
卯
印
危
即
却
卵
卷
卸
卻
厂
厃
厄
历
厈
厉
厌
厓
厘
厚
原
厤
厥
厨
厭
厲
厶
厷
厸
去
厼
厽
叀
参
參
叅
又
叉
及
友
双
反
叐
发
叒
叔
叕
取
受
叚
叜
叟
口
古
句
另
叩
只
召
可
台
叱
史
右
叵
号
司
叹
吂
各
吅
合
吉
吊
吋
同
名
后
吏
向
吕
君
吝
吞
否
含
启
吳
吴
吹
吾
呂
呆
呈
告
员
呙
周
命
咅
和
咎
咠
咢
咨
咸
咼
哀
品
哉
員
哥
哲
唐
商
啇
問
啚
啬
啻
善
喜
喬
單
喿
嗇
噩
嚴
囊
囗
囘
囙
囚
四
回
囟
因
囧
囬
困
囱
囷
固
国
圂
圅
國
圍
圓
土
圡
圣
圥
在
圭
地
圶
圼
坐
坒
坚
坴
垂
垔
垚
埀
埋
埶
執
基
堂
堅
堆
堇
堯
塞
墨
壘
士
壬
壯
声
壳
壴
壹
壺
壽
夂
处
夅
夆
备
夊
夋
夌
复
夏
夒
夕
外
夗
夘
多
夜
夢
大
夨
天
太
夫
夬
夭
央
失
夲
头
夷
夸
夹
夻
夾
奂
奄
奇
奈
奉
奎
奏
奐
契
奓
奔
奚
奞
奠
奢
奥
奭
女
奴
奻
好
如
妄
妙
妟
妥
妻
妾
姑
委
姜
威
娄
婁
婴
嬰
嬴
子
孑
孔
孕
孖
字
存
孚
孛
孝
孟
季
孤
学
孫
孱
學
宀
宁
宂
它
宅
宇
守
安
宋
完
宏
宓
宗
官
定
宛
宜
宝
客
宣
室
宮
宰
害
家
容
宾
宿
寄
寅
密
富
寒
察
寧
審
寫
寬
寮
寸
对
寺
寻
寽
対
寿
封
尃
射
将
將
專
尉
尊
尋
尌
對
小
少
尒
尓
尔
尖
尗
尚
尞
尢
尣
尤
尧
尨
尭
就
尸
尹
尺
尻
尼
尽
尾
尿
局
居
屈
屋
屎
屏
屑
展
屖
屚
属
屠
屡
屬
屮
屯
屰
山
屵
屾
岁
岂
岑
岡
岩
岳
岸
峯
島
崇
崑
崔
崖
崙
崩
嵬
嶲
巂
巛
川
州
巟
巠
巢
巤
工
左
巧
巨
巩
巫
差
己
已
巳
巴
巷
巸
巽
巾
巿
帀
市
布
希
帚
帛
帝
带
師
席
帶
常
干
平
年
幵
并
幷
幸
幺
幻
幼
幽
幾
广
広
庄
床
底
店
庚
府
度
庫
庭
庶
康
庸
廉
廌
廛
廣
廩
廴
延
廷
建
廾
廿
开
弁
弃
弄
弇
弋
式
弓
弔
引
弗
弘
弜
弟
弥
弦
弱
張
強
强
彊
彌
彎
彐
彑
当
彔
录
彖
彗
彡
形
彥
彦
彧
彭
彳
役
彼
往
待
律
徒
得
徙
從
復
微
徵
心
忄
必
忌
忍
志
忝
忠
忩
快
念
忽
忿
思
怠
急
怱
恆
恒
恩
恭
息
悉
患
悤
悲
悶
惠
惡
惢
愁
愈
意
愛
感
慈
慧
慮
憂
憲
應
戀
戈
戉
戊
戋
戌
戍
戎
成
我
戒
戔
或
戚
戠
戢
截
戲
戶
户
戹
戼
戾
房
所
扁
扇
手
扌
才
打
托
执
承
折
拉
拜
拿
掌
推
提
摩
支
攴
攵
收
攸
改
放
政
敄
敏
敕
敖
敗
敝
敞
敢
散
敦
敫
敬
数
敷
數
斂
文
斉
斊
斗
斤
斥
斩
斬
斯
新
方
於
施
斿
旁
旋
族
无
旡
既
旣
日
旦
旧
旨
早
旬
旱
旲
时
旾
昆
昇
昌
昍
明
昏
易
昔
昗
昜
星
春
昬
是
昱
昴
昷
時
晃
晋
晏
普
景
晶
智
暑
暴
曇
曩
曰
曲
曳
更
曷
書
曹
曼
曾
替
最
朁
會
月
有
朋
服
朔
朕
朗
望
朝
木
朩
未
末
本
札
朮
术
朱
朵
朶
朿
杀
杏
杜
束
条
来
東
杲
杳
松
析
林
枚
果
枝
枲
枼
某
柔
查
柬
柰
柴
栗
桀
桑
桼
梁
條
梟
梨
棘
棠
棥
森
楚
業
楽
榮
樂
樊
欠
次
欣
欮
欲
欶
欽
款
歆
歇
歛
止
正
此
步
武
歨
歪
歮
歯
歰
歲
歴
歷
歸
歹
歺
死
殳
段
殷
殸
殹
殺
殻
殿
毋
毌
母
每
毒
比
毕
毚
毛
毳
氏
氐
民
气
氣
水
氵
氶
氷
永
氺
氾
求
汝
汞
江
沃
沓
沙
沝
泉
法
波
泣
泥
泰
洛
洪
活
派
流
浦
浪
浮
淡
淮
清
渚
渠
湯
滿
漸
灣
火
灬
灭
灰
灵
灷
炅
炎
炏
炗
炙
炭
為
烈
烏
烝
焉
無
焦
焱
然
煞
熊
熏
燕
營
燮
爪
爫
爭
爯
爰
爱
爲
爵
父
爻
爽
爾
爿
片
牙
牚
牛
牜
牟
牢
牧
牪
牽
犀
犬
犭
犮
狂
狄
狊
独
狺
猋
猒
猪
献
獻
玄
率
玉
王
玟
玨
珎
班
琴
瑟
瑩
瓜
瓦
甘
甚
生
産
用
甫
甬
田
由
甲
申
电
甶
男
甸
甹
画
甾
畀
界
畏
畐
留
畜
畟
畢
畧
畨
番
畫
異
畱
當
畺
畾
疊
疋
疌
疑
疒
疾
癶
癸
癹
登
發
白
百
皀
皃
的
皆
皇
皋
皐
皕
皮
皷
皿
盃
盆
盇
盈
益
盍
盎
监
盒
盖
盛
盡
監
盤
盧
目
直
相
盾
省
眇
眉
看
眔
眞
真
眷
眼
眾
着
睘
睪
睿
瞏
瞢
瞿
矍
矛
矞
矢
矣
知
矦
短
石
破
碎
磊
磨
示
礻
礼
祟
票
祭
禀
禁
禸
禹
禺
离
禽
禾
禿
秀
秃
秉
秋
科
秝
秦
移
稟
穀
穌
穴
究
穹
空
穿
突
窄
窒
立
竒
竜
竝
竟
章
童
竹
笑
笠
筆
等
答
箕
算
箴
節
篤
篭
米
粉
粛
粟
粤
粦
粲
糞
糸
糹
系
約
納
素
索
紫
累
細
絜
絫
絲
維
綿
縣
繇
纍
纟
缶
网
罒
罔
罕
罗
罙
罡
罢
罪
署
罷
羅
羊
羌
羍
美
羔
羕
羗
羞
羡
羣
群
義
羲
羸
羽
翁
翏
習
翕
翟
翠
翼
老
耂
考
者
耆
而
耎
耑
耒
耳
耴
耶
耷
聂
聊
聖
聚
聶
聿
肀
肃
肅
肉
肖
肙
肥
肩
肯
育
肴
胃
背
胡
胥
能
脊
脩
膚
臣
臤
臧
自
臬
臭
臯
臱
至
致
臺
臼
臽
臾
臿
舀
舂
舄
與
興
舉
舌
舍
舛
舜
舞
舟
般
艮
良
色
艸
艹
艾
芒
芔
芬
芮
花
芳
芺
芻
苔
苗
苟
若
苦
英
茶
茸
荅
草
荒
荣
荼
莆
莧
莫
莽
菆
菊
菐
華
萬
落
葉
著
葛
董
葵
蒙
蒦
蒼
蓋
蓬
蓺
蔑
蔡
蕉
蕭
薄
薛
薦
薰
藍
藏
藥
蘭
虍
虎
虐
虒
虔
處
虖
虗
虘
虚
虛
虜
虞
虫
虽
蚤
蚩
蜀
蜜
蟲
蠡
血
行
衍
衛
衣
衤
表
衮
衰
袁
袞
褭
褱
襄
襾
西
覀
要
覃
見
規
覓
覧
親
覽
见
角
解
言
訁
訇
計
詹
誩
諸
讠
谷
豆
豈
豊
豐
豕
豖
豙
象
豦
豩
豪
豸
貇
貝
貞
貟
負
貢
貧
貪
貫
責
貳
貴
買
費
賁
資
賈
賏
賓
賔
賛
賞
賢
賣
質
賴
贊
贝
贡
责
贯
贲
贵
赖
赞
赤
赦
走
越
足
路
蹇
身
躬
車
軍
軎
軟
輦
车
辛
辜
辟
辥
辰
辱
農
辵
辶
边
达
过
近
连
迷
追
退
送
逆
逐
通
速
造
逢
連
逮
進
遀
遂
過
道
達
遣
適
遷
遺
邊
邑
邕
那
邦
邪
郎
部
郭
都
鄉
酉
酋
配
酓
釆
采
里
重
野
量
金
釒
錢
钅
長
镸
长
門
閃
閉
開
閏
閑
閒
間
閔
閵
閻
闌
门
间
闷
阑
阜
阝
阿
降
陳
隆
隊
隋
隡
隨
隱
隶
隹
隺
隻
隼
隽
难
雀
雁
集
雈
雋
雍
雐
雔
雙
雚
雜
雝
離
難
雨
雩
雪
雲
零
雷
需
霍
霜
霝
霞
霸
靈
靑
青
非
靡
面
靣
革
韋
韦
韭
韯
韱
音
頁
頃
項
須
頗
頡
頻
顛
页
風
风
飛
飞
食
飠
養
饣
首
香
馬
馮
駦
马
骨
高
髟
鬥
鬯
鬲
鬼
魚
魯
鮮
鱼
鲁
鳥
鳳
鸟
鹵
鹿
麃
麗
麥
麦
麻
黃
黄
黍
黎
黑
黒
黨
黹
黽
黾
鼎
鼓
鼠
鼻
齊
齋
齐
齒
齿
龍
龙
龜
龟
龠
龰
龱
龴
龵
龶
龷
龸
龹
者
艹
﻿
？
📲
𠀁
𠀃
𠀆
𠀉
𠀎
𠀐
𠁁
𠁣
𠂆
𠂇
𠂈
𠂉
𠂊
𠂋
𠂎
𠂒
𠂔
𠂛
𠂡
𠂢
𠂤
𠂬
𠂭
𠂹
𠃊
𠃋
𠃌
𠃍
𠃎
𠃑
𠃓
𠃔
𠃜
𠄌
𠄎
𠄠
𠄢
𠆢
𠆥
𠇍
𠈌
𠌵
𠓜
𠔉
𠔥
𠔼
𠔽
𠔿
𠕀
𠕁
𠕋
𠘧
𠘨
𠙻
𠙼
𠚏
𠚒
𠚤
𠚪
𠣏
𠤎
𠤕
𠥓
𠦄
𠦑
𠦝
𠧒
𠧗
𠧪
𠩺
𠪚
𠫓
𠫔
𠫤
𠬛
𠬝
𠬞
𠬢
𠬤
𠬶
𠮛
𠮦
𠮷
𠯑
𠱠
𠳮
𠷎
𡈼
𡉀
𡉵
𡌥
𡍮
𡏳
𡕒
𡕩
𡕰
𡖅
𡗗
𡗜
𡘆
𡘤
𡧱
𡨄
𡩧
𡬠
𡭽
𡰣
𡰥
𡰪
𡰯
𡰱
𡷈
𡸁
𡿨
𡿩
𡿪
𡿺
𢀖
𢀛
𢀩
𢁙
𢆉
𢆰
𢆶
𢇁
𢇇
𢉖
𢌬
𢌿
𢏚
𢑑
𢑚
𢖻
𢙣
𢛳
𢦏
𢦒
𢧵
𢼄
𢾕
𣁋
𣄼
𣅀
𣅽
𣍘
𣎳
𣎵
𣏋
𣏼
𣗥
𣥂
𣥖
𣦵
𣦼
𣧄
𣪊
𣪠
𣬉
𣳾
𣶒
𤇾
𤊽
𤐫
𤓰
𤔔
𤕨
𤣩
𤰇
𤰔
𤰞
𤴓
𤴔
𤽄
𥁑
𥁕
𥃦
𥃩
𥃭
𥇡
𥑟
𥘅
𥘈
𥝢
𥫗
𥱡
𦈢
𦉪
𦉬
𦉼
𦍌
𦍒
𦎧
𦐇
𦓔
𦔮
𦘒
𦙃
𦚏
𦣝
𦣞
𦣻
𦥑
𦥔
𦥯
𦨉
𦭝
𦰩
𧆞
𧈧
𧘇
𧰨
𧴪
𧴮
𧵩
𧾷
𨸏
𨾴
𩙿
𩠐
𩫏
𩵋
𪉷
𪜀
𪟽
𪠲
𪩲
𫇦
𫔭
𫜸
𫝀
𫠣
𫠩
𫢉
𫥞
𫩏
𫩠
𫪡
𫲽
𫶧
𬀷
𬐘
𬗌
𬙙
𬛸
𬜯
𬟩
𬯁
𬴘
𬺻
𬼉
𬼖
𭀰
𭁈
𭁨
𭅰
𭑈
𭕄
𭗼
𭤨
𭥫
𭻾
𮅕
𮊿
𮍌
𮍏
𮓗
𮥼
𮧮
廾
𰀁
𰀄
𰀈
𰀉
𰀕
𰀠
𰀡
𰀢
𰀪
𰁜
𰃮
𰆊
𰆘
𰋙
𰕎
𰢴
𰧭
𰯲
0--
11--
12--
14--
15--
16--
17--
18--
19--
2--
20--
22--
24--
3--
4--
5--
6--
7--
8--
9--
a--
ab--
abs--
ac--
accept--
accor--
actu--
ad--
add--
af--
ag--
ai--
al--
ala--
all--
am--
an--
ang--
any--
ap--
appli--
apprec--
appro--
approxi--
ar--
ara--
as--
ass--
assi--
assoc--
at--
au--
aus--
austr--
auto--
ave--
az--
b--
ba--
ban--
bar--
base--
be--
ben--
ber--
berg--
bh--
bi--
bo--
bon--
bos--
bra--
bran--
bu--
bureauc--
by--
c--
ca--
cam--
camp--
cap--
car--
celeb--
cer--
cfg--
ch--
cha--
chang--
che--
chi--
chr--
ci--
cit--
cl--
cla--
co--
col--
colla--
com--
communi--
con--
conc--
cons--
coor--
cor--
cre--
cu--
cus--
d--
da--
dan--
data--
de--
dec--
defin--
deg--
dem--
den--
desi--
develo--
dh--
di--
dig--
dis--
distri--
do--
doc--
dou--
dow--
du--
dum--
e--
ear--
ed--
edit--
ef--
el--
elec--
em--
en--
end--
eng--
enh--
equi--
es--
et--
ex--
exp--
f--
fa--
fe--
fer--
fi--
fl--
flor--
for--
format--
fr--
fri--
fu--
ful--
fundra--
g--
ga--
gad--
gar--
gen--
georg--
get--
gh--
gi--
go--
gr--
gra--
gre--
gu--
gui--
h--
ha--
ham--
han--
har--
he--
her--
hi--
ho--
hol--
horiz--
hos--
hu--
i--
id--
igno--
im--
image--
implem--
in--
inc--
incre--
influ--
inst--
inte--
inter--
invi--
ip--
is--
it--
ita--
j--
ja--
jar--
jas--
je--
ju--
k--
ka--
kan--
kar--
ke--
kh--
ki--
ko--
ku--
l--
la--
lat--
le--
li--
libe--
lim--
list--
lo--
loc--
lon--
lu--
ly--
m--
ma--
mac--
make--
mal--
man--
mar--
mat--
me--
mem--
meta--
mi--
micro--
mis--
mo--
mon--
mont--
mor--
mu--
my--
n--
na--
nati--
natu--
nav--
nc--
nd--
ne--
neg--
new--
ni--
nit--
no--
nor--
notifi--
ns--
nu--
ny--
o--
ob--
oc--
oce--
off--
ol--
on--
op--
opini--
or--
os--
out--
p--
pa--
page--
pal--
pan--
par--
pars--
pat--
pe--
ped--
per--
ph--
pho--
phy--
pi--
pictu--
pin--
pl--
plat--
po--
pol--
pon--
popul--
por--
pr--
pra--
pre--
pri--
princ--
pro--
produc--
pu--
q--
qu--
quo--
r--
ra--
raj--
ram--
re--
ref--
remo--
rend--
res--
rest--
ri--
ro--
ru--
s--
sa--
sal--
sam--
sau--
scre--
se--
sem--
ser--
sh--
sher--
shi--
si--
sil--
sim--
sin--
sk--
slo--
so--
some--
sou--
south--
sp--
spa--
spe--
st--
ste--
stu--
su--
sub--
sum--
sup--
swe--
sy--
sym--
t--
ta--
talk--
te--
text--
th--
tho--
ti--
to--
tr--
tra--
trans--
tu--
tur--
u--
ul--
un--
uni--
unifi--
uru--
use--
user--
v--
ve--
ver--
vi--
view--
vo--
w--
wa--
wal--
we--
wiki--
win--
wo--
x--
y--
ya--
your--
yu--
z--
ا--
অ--
আ--
আই--
আক--
আদ--
আল--
ই--
ইউ--
ঈ--
উ--
ঋ--
এ--
এই--
এক--
এম--
এস--
ঐ--
ও--
ঔ--
ক--
কন--
কম--
খ--
গ--
গন--
ঘ--
ঙ--
চ--
ছ--
জ--
জন--
ঝ--
ঞ--
ট--
ঠ--
ড--
ণ--
ত--
তম--
তর--
থ--
দ--
দর--
ধ--
ধর--
ন--
প--
ফ--
ব--
বদ--
বন--
ভ--
ম--
য--
র--
রত--
ল--
শ--
শত--
ষ--
স--
হ--
হর--
ৎ--
ৱ--
ง--
ด--
น--
ม--
ย--
ว--
อ--
อง--
อำเภ--
อำเภอ--
อำเภอหน--
อำเภอเ--
า--
--0
--1
--2
--3
--4
--5
--53
--6
--67
--7
--73
--8
--82
--83
--84
--9
--96
--a
--ab
--ac
--act
--ad
--ada
--agar
--age
--ai
--aic
--ain
--ak
--al
--ala
--am
--ama
--an
--ana
--ance
--ang
--anj
--ant
--ao
--ar
--ara
--arg
--ari
--ary
--as
--ase
--at
--ate
--ated
--ation
--ations
--au
--ay
--b
--ba
--bad
--bi
--bility
--ble
--bo
--bot
--box
--bu
--c
--ca
--cal
--ce
--ced
--cell
--ces
--ch
--cha
--cho
--ci
--ck
--co
--cs
--ct
--cts
--cy
--d
--da
--dal
--data
--date
--de
--dge
--di
--ding
--do
--dor
--ds
--du
--dy
--e
--ect
--ed
--ef
--ei
--el
--en
--ence
--ent
--ep
--er
--erence
--ers
--es
--ese
--ess
--est
--et
--ey
--f
--ful
--g
--ga
--ganj
--gar
--garh
--ge
--ged
--ger
--ght
--gi
--ging
--go
--gs
--gu
--gun
--h
--ha
--hi
--ho
--i
--ia
--ial
--ian
--ic
--ica
--ical
--ict
--id
--ie
--ied
--ies
--ify
--ig
--ik
--il
--ily
--im
--in
--ine
--ing
--ings
--ino
--io
--ion
--ions
--ir
--ira
--irm
--irmed
--iro
--is
--ish
--ism
--ities
--ity
--ive
--iya
--ization
--ized
--j
--ja
--ji
--jo
--k
--ka
--ke
--key
--ki
--ks
--l
--la
--land
--ld
--le
--les
--lho
--li
--ling
--link
--links
--list
--ll
--lle
--lly
--lm
--lo
--ls
--lt
--lu
--ly
--m
--ma
--me
--ment
--mi
--mil
--mission
--missions
--mo
--ms
--n
--na
--nam
--name
--nc
--nce
--nch
--nd
--nda
--nds
--ne
--ners
--ng
--nga
--nha
--ni
--ning
--nj
--nk
--nks
--nni
--no
--ns
--nt
--nta
--ntion
--nts
--o
--oa
--od
--og
--ogy
--ok
--om
--on
--ong
--or
--ore
--ory
--os
--ot
--ough
--ow
--oyment
--p
--pa
--pace
--page
--pe
--phy
--pi
--ps
--q
--r
--ra
--rai
--ram
--rd
--re
--ren
--rg
--rge
--rgs
--rh
--ri
--ring
--rk
--rm
--ro
--rs
--rse
--rt
--rted
--ry
--s
--sa
--se
--sed
--sh
--ship
--si
--sis
--son
--ss
--st
--t
--ta
--tal
--tan
--te
--ted
--tely
--tes
--text
--th
--ti
--tic
--ting
--tion
--tions
--title
--tive
--to
--ton
--ts
--tt
--tu
--ty
--tyle
--u
--ua
--ue
--ula
--um
--un
--ung
--up
--ur
--ura
--ure
--uri
--url
--us
--ut
--ute
--v
--va
--value
--ve
--w
--wa
--wi
--wn
--ws
--x
--y
--ya
--z
--za
--ze
--øy
--ই
--উ
--ও
--ক
--খ
--গ
--ঘ
--ঙ
--চ
--জ
--ঞ
--ট
--ঠ
--ড
--ণ
--ত
--থ
--দ
--ধ
--ন
--প
--ফ
--ব
--ভ
--ম
--য
--র
--ল
--শ
--স
--হ
--ৎ
--০
--০০
--০১
--০২
--০৩
--০৪
--০৫
--০৬
--০৭
--০৮
--০৯
--১
--১০
--১১
--১২
--১৩
--১৪
--১৫
--১৬
--১৭
--১৮
--১৯
--২
--২০
--২১
--২২
--২৩
--২৪
--২৫
--২৬
--২৭
--২৮
--২৯
--৩
--৩০
--৩১
--৩২
--৩৩
--৩৪
--৩৫
--৩৬
--৩৭
--৩৮
--৩৯
--৪
--৪০
--৪১
--৪২
--৪৩
--৪৪
--৪৫
--৪৬
--৪৭
--৪৮
--৪৯
--৫
--৫০
--৫১
--৫২
--৫৩
--৫৪
--৫৫
--৫৬
--৫৭
--৫৮
--৫৯
--৬
--৬০
--৬১
--৬২
--৬৩
--৬৪
--৬৫
--৬৬
--৬৭
--৬৮
--৬৯
--৭
--৭০
--৭১
--৭২
--৭৩
--৭৪
--৭৫
--৭৬
--৭৭
--৭৮
--৭৯
--৮
--৮০
--৮১
--৮২
--৮৩
--৮৪
--৮৫
--৮৬
--৮৭
--৮৮
--৮৯
--৯
--৯০
--৯১
--৯২
--৯৩
--৯৪
--৯৫
--৯৬
--৯৭
--৯৮
--৯৯
--ৱ
--ก
--ง
--ช
--ด
--น
--ภ
--ม
--ย
--ร
--ห
