!
"
#
##0
##1
##10
##11
##12
##13
##14
##15
##16
##17
##18
##19
##2
##20
##21
##22
##23
##24
##25
##26
##27
##28
##29
##3
##30
##31
##32
##33
##34
##35
##36
##37
##38
##39
##4
##40
##41
##42
##43
##44
##45
##46
##47
##48
##49
##5
##50
##51
##52
##53
##54
##55
##56
##57
##58
##59
##6
##60
##61
##62
##63
##64
##65
##66
##67
##68
##69
##7
##70
##71
##72
##73
##74
##75
##76
##77
##78
##79
##8
##80
##81
##82
##83
##84
##85
##86
##87
##88
##89
##9
##90
##91
##92
##93
##94
##95
##96
##97
##98
##99
$
%
&
'
(
)
*
+
,
-
.
/
0
00
000
001
01
02
03
04
042
06
07
08
09
094102474
1
10
100
1000
101
102
1028
103
104
105
106
107
108
109
1093
11
110
1100
115
116
12
1236
125
128
13
130
1339
135
136
14
140
1400
1487
1494
15
150
1500
1532
1534
1582
16
1606
1616
1620
1638
1640
1643
1645
1650
1655
1660
1665
1670
1680
1688
1693
1697
17
170
1707
1715
173
1770
1783
1788
1795
1796
18
180
1801
1803
1806
1808
1809
181
1814
1815
1817
1818
1820
1821
1824
1825
1828
1829
1830
1831
1833
1836
1837
1838
1846
1848
1850
1851
1853
1859
1860
1861
1864
1865
1866
1867
1873
1877
1884
1887
1888
1889
1890
1891
1893
1894
1895
1896
1899
19
190
1900
1901
1903
1908
1910
1911
1912
1913
1914
1918
1920
1921
1922
1924
1925
1927
1928
1929
1930
1931
1932
1933
1935
1936
1937
1938
1939
1940
1941
1942
1944
1945
1946
1947
1948
1949
195
1950
1951
1952
1953
1954
1955
1956
1957
1958
1959
1960
1961
1962
1963
1964
1966
1967
1968
1969
197
1970
1971
1973
1974
1975
1976
1977
1978
1979
1980
1981
1982
1983
1984
1985
1986
1987
1988
1989
1990
1991
1992
1993
1994
1995
1996
1997
1998
1999
2
20
200
2000
2001
2002
2003
2004
2005
2006
2007
2008
2009
2010
2011
20110609194255
2012
2013
2014
2015
2016
2017
2018
2019
202
2020
2021
2022
207
209
21
216
22
220
222
2244
2271
23
2321
2338
24
240
241
245
2478
25
250
256
26
260
2685
27
270
273
2760
28
280
2861
29
295
297
298
299
3
30
300
301
305
308
309
31
310
3100
312
316
32
320
3210
322
323
3237
324
3245
325
326
327
328
33
331
332
333
337
338
34
347
349
35
350
3528
3534
354
357
358
3581
36
360
3606
365
3666
3672
3673
3681
3699
37
370
3723
374
375
376
377
378
379
38
380
3801
381
382
383
3836
384
385
386
387
388
389
39
390
391
392
393
394
395
396
397
398
399
4
40
400
4000
41
417
42
420
424
43
44
446
45
450
456
46
47
48
49
5
50
500
505
51
52
53
5362
54
55
550
551
56
57
58
589
59
6
60
600
61
62
63
634
64
642
65
66
67
68
69
696
7
70
700
71
72
73
731
732
74
740
741
743
75
750
76
77
78
781
783
798
8
80
800
82
83
84
841
846
85
852
853
86
8601
88
885
89
895
9
90
900
902
910
912
913
92
93
931
97
970
9781573062992
98
99
:
;
<
=
>
?
@
_
`
a
aafia
aafiaga
aai
aali
aalia
aaliga
aalo
aaloalo
aalu
aano
aaoga
aaogaina
aapa
aau
aauau
above
absolutism
acatalan
accession
acolytes
act
action
activist
actor
actress
ad
adelaide
adib
adopted
advance
ae
aealani
aegean
aeleni
aemaise
afa
afafine
afai
afaina
afakanisitana
afanua
afar
afarani
afe
afeagaiga
afeleti
afelika
aferika
afeso
afetai
affairs
afi
afia
afiafi
afiafiaga
afiaga
afio
afioaga
afioga
afitauli
afonso
afouina
afraid
afrikaans
afu
afua
aga
agafesootai
agaga
agai
aganu
aganuu
agasala
agava
agavaa
agavale
age
agelo
agelu
agiagia
aguila
ahanikeri
ahmilleon
aholani
ai
aia
aiaiga
aialani
aiapani
aiga
aigoa
aigoaina
aikupito
aila
aili
ailoa
ailoaina
ailoga
aim
aina
ainitonesia
aioi
aiono
aired
aires
airport
aisa
aitalafu
aitema
aitiitia
aitiope
aititia
aitu
aiuga
akademii
akasaka
akerisiano
akolea
al
ala
alabama
alagaupu
alalaupapa
alamanuia
alapenia
alapi
alapito
alapotopotoga
alatele
alauiloa
alauiloaina
alautele
alauteleina
alavelave
albania
albert
ale
aleaga
aleagaga
aleagaina
aleatunu
aleipata
alele
alelei
aleleia
alelotu
aleluia
alesana
alesoifua
aletonu
aletulafono
alex
alfredo
algeria
ali
alia
aliali
aliance
align
alignbars
alii
aliliu
aliliuga
aliliuina
aliliutusi
all
allen
alo
aloa
aloaia
aloalii
alofa
alofatunoa
aloga
alogo
alogologo
also
alt
alu
alua
alualu
aluga
am
ama
amai
amalologa
amalosi
amalosia
amalu
amamaina
amana
amanaia
amanaiaina
amanatuga
amanatuina
amanuiaina
amaoni
amaonia
amaoniga
amasino
amasinoga
amasinoina
amasone
amata
amataga
amataina
amatala
amatalaga
amatalaina
amatalia
amatu
amau
amauina
amaumau
amaumauga
amautinoa
amautu
amazon
ame
amea
amelika
amenia
amepasa
america
american
amerika
amerindian
amilosaga
amio
amioga
amiotonu
amo
amoemoe
amosa
amu
amuia
amutaina
an
ana
anaheim
anamua
anapogi
anatomi
anatora
and
andaman
andean
andes
andini
andora
andre
ane
anetatika
angeles
anglo
angola
aniani
animalia
ann
anouei
antarctic
anteaters
anthem
anti
antigua
antilles
anto
anut
anzus
ao
aoao
aoaoga
aoaoina
aofa
aofai
aofaiga
aofia
aoga
aogaina
aoina
aokuso
aola
aolaga
aolaina
aolaola
aolataga
aonaponei
aopoopo
aotearoa
apa
ape
apea
apelila
apena
apera
aperaamo
aperesia
aperetania
aperila
api
apia
apipi
apisinisi
apitoa
apitonu
apolani
apoliki
apolima
apolofesa
apolokiki
aposetolo
apotopotoga
applied
apu
ar
arab
arabia
aram
arama
arapi
arara
archipelagos
archive
are
area
argentina
argentine
ario
arise
arisona
arizona
armenia
art
arthur
article
articles
artists
arts
arusia
as
asa
asad
asaga
asaienisi
asaina
asalaga
asalalau
asalalauga
asaleleaga
asamoa
asao
asaoina
asau
ashanti
asi
asia
asiasi
asieki
asino
asinomaga
asipaniolo
aso
asoa
asoaa
asoaga
asoasoani
asolo
asologa
asolopito
asolosolo
asolovak
assad
assemblies
assembly
association
asu
asuria
at
ata
ataga
atagaina
atagata
atagia
ataitaiga
atalani
atalanoaina
atali
atalii
atama
atamafaiina
atamai
atamamai
atanu
atanuu
atapula
atasi
atasia
atasiga
atassi
atatau
atau
atauaiga
ataunu
atautaia
atauva
atekinisi
atelani
atele
ateleina
atenai
atenimaka
atenitina
atia
atiina
atika
atili
atina
atinae
atinaeina
atino
atinoina
ato
atoa
atoaga
atoatoa
atofaina
atoms
atonu
atonuga
atonuina
atonutonu
atonutonuina
atp
attitude
atu
atua
atuatua
atuina
atulafonoina
atulaga
atulagaina
atumauga
atumotu
atumuina
atunu
atunuu
atupeina
atupu
atupuina
atupulaia
atusa
atusatusa
atusatusaina
atutuina
atuvasa
au
aua
auai
auala
auauna
auaunaga
auckland
aufa
aufaasa
aufaatasi
aufaigaluega
aufono
auga
augatupulaga
august
augustus
auiliiliga
auina
aukaraina
aukilani
aukuso
aulakapi
aulotu
aulufale
auma
aumai
aumaia
aumatia
aumau
aunoa
aunu
aupito
aupufai
aupuga
auro
ausetalia
ausia
austin
australasia
australia
australian
australians
autalavou
autasi
autau
auto
autonomous
autu
auupega
ava
avaai
avae
avaeina
avale
avanoa
avaomalo
avasega
avasegaga
avasegaina
avatu
avavau
ave
avea
aveavai
aveese
aveesea
avefe
avega
aveina
averesi
aviatename
aviv
awaray
awards
away
aws
azerbaijan
b
ba
baath
bach
back
badminton
bagui
bahamas
bahia
bahrain
balearic
bali
ball
baltic
banda
bandeirantes
bandirismo
bar
barbados
barbuda
barcelona
baroque
barre
bartolome
bashar
baugh
bc
be
bear
before
belarus
belgrade
ben
benjamin
berdzenishvili
best
between
bi
bibli
bidar
biden
big
bill
biotope
bisaya
bislama
bissau
black
boa
bob
bobby
body
bohemia
bokma
bonaparte
books
boom
born
bosna
bosnia
botswana
bottom
box
boy
br
bradshaw
brand
brandhoek
brasil
bravo
brazil
brazilian
bret
bridge
brisbane
british
broadcast
bronze
budapest
buddy
bueno
buenos
bulgaria
bun
bureau
burger
burgers
burkina
business
but
by
byzantine
c
ca
cable
cabo
cabral
cactus
caesar
cairo
calabria
california
calling
cambridge
canada
canberra
canoe
cape
capita
capitol
car
carding
cardiovascular
cardoso
caribbean
carl
carolina
caselle
cast
castile
cat
catago
catala
catarina
category
caucasus
celebrity
celtic
cemetery
cena
census
center
centi
central
centre
century
ceo
cetacea
chaco
chad
chamorro
champion
champions
championship
championships
channel
chavchavadze
chelsea
chi
chicago
chichakli
chile
chordata
chris
christ
christian
christopher
chuatoco
church
chyna
cinderela
cinque
city
climate
club
cm
co
coast
cobar
cocos
code
cold
collection
college
collor
colo
colon
colonel
colonial
color
colorado
colors
columbia
com
commentator
commission
commons
community
comoros
companies
company
concepcio
conduct
confederations
congo
connecticut
contract
cook
copa
coronel
corporation
corrientes
cossacks
council
country
cpanel
crab
cranial
craniosacral
cranirial
creators
crimea
croatia
croatian
cross
crown
cruzes
cst
cuba
cup
curitiba
curley
cwc
cypress
cyprus
d
da
daddy
dak
dan
danish
darkness
das
data
dateformat
david
day
de
deal
def
defend
defia
del
delaware
democratic
dennis
densely
deutsch
di
dia
diaspora
dictionary
diego
diemen
digital
diplomacy
district
dj
djibouti
do
does
dominica
don
doraemon
douglas
dr
drama
dreamer
drive
ds
du
duchy
duke
dziel
e
ea
earl
east
economy
ecw
ed
edgar
edge
edinburgh
edison
education
eesti
efeso
efi
eg
ega
egelani
ei
eina
eka
ekalesia
ekitina
ekuatoa
ekuatoria
ekueta
el
elau
ele
electronic
eleele
elefane
elemene
eleni
eletise
elisapeta
elliott
em
emae
emauga
emepaea
emeperoa
emeu
emperor
en
ena
encyclopedia
english
entertainment
epa
eperu
epikopo
episoke
equatorial
era
eria
eric
eritrea
ernst
es
ese
esea
eseese
eseesega
esega
eseta
esitonia
esoto
espan
esperanto
esteban
estonia
esu
etc
ete
eteuati
etymology
eu
eucalyptus
eur
eurasia
euro
europa
europe
european
eurozone
evagelia
event
every
ex
executive
expand
expansion
expectancy
extreme
ez
f
fa
faa
faaagafesootai
faaalia
faaaliga
faaalu
faaaluina
faaaoga
faaaogaina
faaauau
faaaunuua
faaauupegaina
faaesea
faafaafanua
faafaigaluega
faafanua
faafeagai
faafetai
faafiafiaga
faafitauli
faafitia
faafoe
faafoeina
faafoi
faafouina
faafuasei
faagaa
faagaoioia
faagasologa
faaigoa
faaigoaina
faailo
faailoa
faailoga
faailogaina
faaipoipo
faaipoipoga
faaitiitia
faaituau
faaitulagi
faaitumalo
faaiuga
faaiuina
faalagolago
faalapotopotoga
faalaugatasia
faalauiloa
faalauiloaina
faalautele
faalauteleina
faalavelave
faale
faaleagaga
faaleagaina
faaleaganuu
faaleleia
faalelotu
faalemalo
faalenatura
faaletausaga
faaletino
faaletulafono
faaleuo
faaliliu
faaliliuga
faaliliuina
faalilolilo
faalua
faaluaina
faama
faamaeaina
faamagaloina
faamai
faamalosi
faamalosia
faamalositino
faamama
faamamafa
faamamaina
faamamaluina
faamanatu
faamanatuga
faamanatuina
faamanuiaga
faamanuiaina
faamaoni
faamaonia
faamaoniga
faamaopoopoina
faamaoti
faamasani
faamasino
faamasinoga
faamatala
faamatalaga
faamatalaina
faamau
faamauina
faamaumauga
faamaumauina
faamautinoa
faamautu
faamavae
faamiliteli
faamoemoe
faamoemoega
faamuta
faanouei
faaola
faaopoopo
faaopoopoga
faaosofia
faapagota
faapea
faapei
faapena
faapipii
faapisinisi
faapitoa
faapolofesa
faapologaina
faapolokiki
faapotopoto
faapotopotoga
faapotukale
faapouliuli
faapuupuu
faasa
faasaga
faasaienisi
faasalaga
faasalalau
faasalalauga
faasalalauina
faasao
faasaoina
faasaolotoina
faase
faasee
faasiaosiana
faasino
faasinomaga
faasipaniolo
faasoa
faasologa
faasolopito
faasolosolo
faataamilo
faataamilosaga
faataapeapeina
faataapeina
faataatia
faatafafa
faatafatolu
faatafunaina
faatagaina
faataitai
faataitaiga
faatalanoaga
faatamaia
faatanoa
faatasi
faatasiga
faatatau
faatatauina
faatau
faatauina
faataunuuina
faateleina
faatemokalasi
faatemokarasi
faatino
faatinoga
faatinoina
faatoa
faatoaga
faatoilaloina
faatonu
faatonuina
faatonutonu
faatonutonuina
faatopetope
faatosina
faatosinaga
faatuatua
faatufugaga
faatuina
faatulagaga
faatulagaina
faatumauina
faatupulaia
faatusa
faatusatusa
faatusatusaga
faatutu
faaulu
faaumatia
faaumatiaina
faaumiumi
faaupufai
faaupuga
faautauta
faauu
faava
faavae
faavaeina
faavaomalo
faavasegaga
faavasegaina
faavavau
fabriciano
facebook
fafaga
fafati
fafau
fafauina
fafie
fafine
fafo
fag
faga
fagaloa
fagatogo
fagota
fai
faia
faiaiga
faiaoga
faifa
faifaatoaga
faife
faifeau
faiga
faigaluega
faigamalo
faigata
faigofie
faiina
faila
failauga
failautusi
faimai
faipule
fair
faitau
faitauina
faitele
faitino
faitioina
faitotoa
faitulafono
faitupu
faiuga
faiupu
faiva
faka
fakafonua
falala
falani
fale
faleaiga
faleaitu
falefa
falelei
falema
falemai
falemata
faleoloa
falepuipui
falesa
faletua
faletupe
faletusi
family
fananau
fanau
fanauga
fanua
faoa
faoga
faraile
farani
farao
farooq
fasefulu
fasi
fasia
fasioti
fasiotia
faso
fast
fatburger
fatu
fatuga
fatuina
fatupese
fau
faufau
fauna
fausaga
fausia
fausiaina
fautuaga
fautuaina
fe
fea
feagai
feagaiga
feagaluega
feai
feavea
febuali
federal
federated
federation
feeseeseaiga
feet
fefa
fefaatauaiga
fefe
fefiloi
fegalegaleai
fegalegaleaiga
felagolagomai
felauaiga
felelei
felis
femalagaa
femalagaaiga
femalagaiga
fenumiai
feoa
fepuari
fereni
fernando
fesili
feso
fesoasoani
fesootai
fesootaiga
fesuia
fesuiaiga
fetalai
fetalaia
fetalaiga
fetaui
fetaulaiga
fete
feteenaiga
feterale
feterisitete
fetu
fetuunai
feusuaiga
feutagaiga
fia
fiafia
fiafiaga
fie
field
fifa
fiji
file
filemu
fili
filifili
filifilia
filifiliga
filipaina
filipi
filipino
filipo
film
filosofia
finagalo
finau
finauga
finauina
finelani
finilani
fire
first
fisa
fish
fisiki
fitafita
fiti
fitu
fitugafulu
flag
flanders
flemish
flickr
florida
fo
foa
foafoaga
foafoaina
foaiina
foe
fofo
foga
fogaeleele
fogama
foi
fola
folafola
folafolaga
folafolaina
folau
foliga
foma
fomai
fomati
fomu
fono
fonotaga
fonotatalo
fonotele
fontsize
food
football
for
forces
foreign
former
fort
fou
found
foundation
fouvale
fouvalega
fox
fr
frameless
franc
franca
france
franchise
franchises
franco
franklin
frazier
frederick
free
freedom
french
friedrich
frisch
from
front
fruit
fsn
fu
fua
fuafua
fuafuaga
fuafuaina
fuaina
fuainumera
fuaitau
fuaiupu
fuala
fualaau
fuata
fuego
fufuluina
fuga
fuka
fulufulu
fusi
fusia
fusu
fusuaga
futebol
futu
futuna
future
g
ga
gabriel
gafatia
gafua
gaga
gagana
gaia
gaioiga
galii
galo
galu
galue
galuega
galulue
gamal
games
ganassi
gang
gangrel
gaoioiga
gaosi
gaosia
gaosiga
garden
gasegase
gasologa
gata
gataifale
gau
gdp
general
generation
genius
genus
geographic
geography
george
georgia
georgian
gerais
germain
germanic
get
ghana
gi
giant
gimn
gino
giorgi
girchi
gje
global
globe
globo
globoesporte
glosa
glp
glyph
go
god
gogo
goia
gold
golden
gomez
google
gose
goto
gov
granada
grand
grande
gray
grdp
great
greater
greenland
greg
grenada
grey
gridcolor
griffin
grigol
grosso
guam
guarani
guiana
guide
guinea
gulf
gulong
gutu
guyana
h
ha
hachem
hafez
haifa
haiti
hall
hamburger
hamburgers
hanikeri
hanover
hapoel
harbour
hardcore
hardy
harlem
hart
have
hawai
hawaii
hdi
he
health
heats
heavyweight
height
help
hendrick
henrique
henry
hermosa
herzegovina
highway
hillsong
himalaya
hindi
hinnani
hiri
his
historia
history
hit
ho
hoa
hockey
hogan
hoki
holani
homau
home
homes
honduras
hosea
hospital
hosting
house
how
htm
html
htmlhttps
http
https
hub
hulk
human
humanities
hunkin
hydrogen
i
ia
iai
iakopo
iala
ianuari
iapani
iberia
ibero
icelandnews
id
ido
ie
ierusalema
iesu
ifo
ifono
iga
igilisi
igitia
igoa
ihau
ii
iii
iina
iinei
il
ilagi
ilalo
ildefonso
ile
ili
ilia
iloa
iloagofie
iloaina
iloga
iloilo
iloiloga
iloiloina
image
imagesize
img
impact
in
ina
inauguracion
inc
increment
independent
index
india
indies
indo
indonesia
indus
inei
information
ingilisi
inisetiute
inisinia
initaneti
initia
initonesia
initoneti
instagram
institute
interlingua
interlingue
international
internet
intonisia
inu
ioane
ioc
ioka
ionic
ioritana
iosefa
iosua
ipl
iprage
ipu
ir
iraki
iran
irani
iraq
iron
is
isa
isaako
isaia
isalaeru
isaraelu
isbn
isi
isindebele
islamic
island
islanders
islandia
islands
islandzkiej
iso
israelis
isu
it
ita
itaga
italia
itasi
itea
itele
iti
itia
itiiti
ititi
ito
its
itu
ituaiga
itula
itulagi
itulau
itumalo
itupa
iu
iuanuali
iuga
iugafono
iukureini
iulai
iuliana
iunai
iunaite
iuni
iunite
iunivesete
iunivesite
iurukuei
iuta
iutaia
iv
iva
ivi
ivoire
ix
j
ja
jack
jackson
jae
jaguar
jakarta
jamaica
james
jan
janeiro
janszoon
january
japan
japaridze
java
je
jean
jeff
jericho
jersey
jess
jesse
jesuit
jim
jimmie
jimmy
joa
joe
john
johnson
jordan
jorge
jose
joseph
journey
joyful
jpg
jr
judo
julius
july
justin
k
ka
kaisara
kalama
kalapu
kalefonia
kalena
kaletonia
kali
kamupani
kanana
kanapisi
kanata
kane
kansas
kapeneta
kapeteni
kapinamalagi
karama
karcher
karepiane
karolaina
kasa
kasakisitana
kata
katalonia
katoliko
ke
keke
kelope
kemisi
kemupotia
ken
kenepera
kenese
kennedy
kentucky
kenya
kerenise
kerisiano
kerisimasi
keriso
kernewek
kesi
kevin
key
kg
khoiful
ki
kia
kilibati
kilokalama
kilomita
king
kingdom
kings
kini
kiona
kirche
kirikiti
kiripati
kitts
kiui
km
knight
knights
ko
koala
koe
kofe
koko
kolea
kolisi
kolomupia
kolone
kolorato
koluse
komepiuta
komisi
komiti
komunisi
konafesi
konekeresi
konetineta
kongo
konifeterasia
konitineta
kopusele
korea
korinito
kosovo
kosta
kovana
kristine
ku
kuata
kuatli
kuiniselani
kulimi
kuliti
kulupu
kumasi
kumpani
kumpini
kuperu
kurdish
kurekoria
kuwait
kygo
l
la
laasaga
laau
lafi
lafo
lafoa
lafoina
lafulemu
lafumanu
laga
lagi
lago
lagolago
lagolagoina
lagona
laina
laiti
laitiiti
laititi
lak
lakapi
lake
lala
lalata
lalau
lalelei
lalo
lalolagi
lalotoga
lamalama
lamalamaina
lamborghini
lana
land
landi
landmark
language
languages
lanka
lanu
lanumeamata
lanumoana
laos
lapo
lapoa
lapopoa
lapotopoto
larson
lashley
lata
latalata
late
latin
latina
latitude
lativia
latou
lau
laua
laueleele
laufanua
lauga
laugatasi
laugatogi
lauiloa
laulau
laumei
laumua
laupapa
lautele
lava
lavea
laveai
lavelave
law
lds
le
lea
leaga
league
leai
lefea
left
lega
legal
lei
leiloa
leitio
leki
lekto
lele
lelei
lelo
lemu
lena
lenei
leo
leoleo
leona
leone
lepanona
lepulika
lesi
lesitala
let
letio
leva
levant
lgbt
li
lia
library
libya
lie
liechtenstein
life
liga
like
liki
liliu
lima
limasefulu
lindswell
line
linegrey
lines
lingua
linikone
lio
lionel
lipoti
lipotia
lisbon
lisi
lisiina
list
lita
litas
literally
liua
liutino
live
lo
loa
location
locsin
logitu
logo
loka
lolo
lolosi
loloto
lomia
lomiga
lona
london
lonetona
long
loo
lope
los
losi
lota
loto
lotogatasi
lotoifale
lotonuu
lotu
lotuma
lou
louis
louisiana
love
lu
lua
luasefulu
lucia
luega
lufiana
lufilufi
luga
lui
luis
luisa
luka
lulu
lulue
luma
lumana
lumanai
lunaite
lupe
lusia
luteru
luxembourg
lvares
lynn
lyricstranslate
m
ma
mabel
maccabi
macquarie
macro
madagascar
madison
madrid
madryn
mae
maea
mafai
mafaitaulia
mafanafana
mafatia
mafaufau
mafolafola
mafua
mafuaaga
mafuli
mafutaga
mago
magyar
mai
maila
maile
maimoa
maina
mainmenu
maise
maitauina
make
maketi
maketonia
makisua
mal
mala
malae
malaga
malagasy
malamalama
malamalamaaga
malcolm
maldives
malie
maliega
malietoa
malilie
maliliu
maliu
malo
malolo
malologa
maloloina
malolosi
malosi
malosiaga
malu
maluana
malulu
malumalu
mama
mamafa
mamalu
mamanu
mamanuina
mamao
mamata
mamate
mamele
mamoe
mamona
man
mana
manager
manaia
manana
manao
manaoga
manaomia
manatu
manatua
mandiraja
manino
mankind
manono
manu
manua
manuel
manufelelei
manuia
manuki
manulele
manumalo
manuva
mao
maoa
maoae
maoli
maori
maota
map
maplandia
mar
mara
mareko
mari
maria
mariana
marino
mark
marshall
marshallese
marsupials
martim
martinez
masalo
masani
mascot
masimasi
masina
masini
masiofo
mata
mataaga
matafaga
matafaioi
matafao
mataga
matagaluega
matagi
matagofie
matai
mataina
mataio
mataituina
matala
matamata
matata
matauina
mataupu
match
mate
matele
matematika
mati
mativa
mato
matou
matt
matu
matua
matuia
matusasa
matusisifo
matutu
matutua
mau
maua
mauagofie
mauaina
maualalo
maualuga
maualuluga
mauga
maugamu
maui
maulalo
maunu
mauoa
mausali
mautauave
mautinoa
mautonu
mautu
mavae
max
may
mcmahon
me
mea
meaai
meaalofa
meafaigaluega
meai
means
meaola
meaole
meatotino
medel
media
medical
megiella
meititerane
mekasini
meke
mekisiko
melanisia
melayu
mele
meleniuma
melepone
meli
melita
memphis
men
mendoza
mene
mera
mercedes
meso
mesopotamia
messi
meta
metitirani
metotia
metropolitan
mexico
mi
michael
michaels
michigan
micronation
micronesia
micronisia
mideon
mike
mikheil
miliona
military
militeli
militeri
milkshakes
minas
minerale
minh
minisita
ministry
minorities
minute
misiona
misionare
misiones
misisipi
misuri
mita
mitamita
miti
mm
mmxv
mo
moa
moan
moana
mode
model
mogi
mogitolia
mohammed
moldova
molecule
molecules
moli
molia
moliaga
molimau
molimauina
molossia
monday
mondt
money
moni
monte
montenegro
montreal
monzo
moo
more
morocco
mosalemi
moscow
mose
motorsports
motu
motusia
mou
mount
mountain
movement
mr
mto
mtskheta
mtv
mu
mua
muai
muamua
mukhib
mulifanua
mulilua
mulimuli
mulimulitai
mulumuluina
mumu
mumua
mumusu
muraenidae
murillo
museum
music
musika
mustang
musu
musuia
muta
mutia
myanmar
n
na
nafa
nafanua
nai
naia
naila
nameri
namipia
nang
napoleon
napoleonic
naruhito
nasa
nascar
nasser
natelashvili
nati
natia
national
nations
nato
natura
natural
nature
naua
nauna
naunau
naunauta
nauru
nazi
ncipe
nd
ne
nei
neivi
nelson
neolithic
neotropical
nepal
net
netalani
netherlands
netipolo
network
nevada
nevis
new
newbery
news
neymar
ng
nga
ngo
nha
ni
nia
nick
nifo
niger
nika
nikaragua
nintendo
nio
nisi
nitro
niu
niue
niukasolo
niusila
no
noa
noataga
noatia
nobel
nofo
nofoa
nofoaafi
nofoaga
nofoaiga
nofoalii
nofoia
nofomau
nofosala
nono
nonofo
nopoki
norfolk
norfuk
norsk
north
not
noticia
nou
nouei
nova
novema
nu
nueva
numela
numera
nusipepa
nutumanu
nutuoro
nuturia
nuu
nwa
nylistasafnid
nynorsk
nz
o
oa
oblast
occidental
oceania
oe
oecd
of
ofa
ofaga
official
ofisa
ofoina
ofoofogia
ofu
oga
ogasami
ogatasi
ogatotonu
ohio
oi
oina
ok
okesene
oketopa
ol
ola
olaga
olaola
old
ole
oli
olimipeka
olioli
olo
oloa
olohega
olosega
oloto
olotoga
olympic
omaga
omai
oman
omia
on
ona
onai
one
oneone
only
ono
onosefulu
ontario
oo
oona
open
opera
or
org
organization
ori
oriental
orientation
orthodox
osasco
ose
oseania
oseteria
osi
oso
osofa
osofaia
osofaiga
osteopathy
ota
otaga
otaota
oti
oto
otoga
otometia
ottoman
otua
ou
our
out
outou
ova
oval
over
oxford
p
pa
paaga
pacific
paga
pagani
page
pago
pagopago
pagota
paia
paka
paketi
pakisitana
pala
palad
palagi
palameni
palapala
palate
palau
palauli
pale
palemene
palemia
paleni
palesitina
palma
palmas
palolo
palota
pampa
pampas
pan
panama
panorama
panthera
pao
paopao
papa
papalagi
papatiso
papatisoga
papatisoina
papatusi
papelonia
papua
paraguay
parakuei
parana
paranesi
paris
parisi
parity
park
parks
parliamentary
party
pascual
pasefika
paselona
pasene
pasese
pasi
pasia
pasiketipolo
pasila
pastor
patagonia
patagonian
pateni
pati
patino
pato
patryk
pau
pauga
paul
paulista
paulistas
paulo
pauu
pdf
pe
pea
pedro
pefu
pei
peita
peitai
pele
peleseni
peleseuma
pelesitaimi
peletania
pelisi
pellona
pen
penetekoso
penisilevania
penisula
pennsylvania
penta
people
pepa
pepe
pepelo
per
perelini
peresetene
peresia
peresitene
pereta
peretania
perez
period
perisipeni
perisitua
pernambuco
perofeta
persian
perth
peru
perusia
pese
peselegi
petelo
peter
peteriaka
peteru
phil
phillip
php
phylum
physiology
pi
pia
pictogram
pieknych
pii
pilatipusi
pileni
pili
piliona
pine
pinzo
piolo
pipili
piratininga
pisin
pisinisi
pito
pizza
plata
plateau
player
playstation
plaza
plotarea
plotdata
png
po
podgorica
pogai
pogisa
pokalame
pola
polagi
polani
polar
polenisia
polevia
politician
polo
poloa
poloaiga
polofesa
pologa
poloka
polokalama
polokalame
poloketi
polokiki
polomoke
polonia
polotalame
poloviki
polski
polynesia
pomu
ponaivi
poo
pope
poperinge
popo
popole
popoto
population
populous
porirua
porotesano
port
portugal
portuguese
post
postscript
poto
potu
potukale
pou
povi
power
prague
prastika
pratt
prefix
premier
president
press
pri
prince
pristina
prix
prize
pro
producer
production
professional
program
progressive
project
promotion
prosopis
pt
pu
pueina
puerto
pueto
puipui
puipuia
puipuiga
pule
pulea
puleaga
puleaina
pulega
pulepule
pulutalia
puma
puna
punaoa
punavai
punk
punou
pupu
purinisese
pusa
pusi
puta
puti
puupuu
pwc
px
q
qualify
que
queensland
quick
r
racing
radio
rafael
rainmaker
raise
ramin
randy
raphael
rate
raw
raymond
rdoba
read
reagan
red
regiao
region
regular
release
renaissance
rennell
reo
republic
republican
republika
resitala
restaurants
retrieved
rev
revolution
rgb
rhodes
ri
ria
rica
rich
richard
rick
rico
right
rika
ring
rio
ripapelika
river
ro
road
robert
rock
rocky
roderick
roger
rogers
roma
romania
ron
ronald
rosario
rose
rosmaniar
roster
rotuma
rousseff
roy
royal
rumble
rusia
russian
s
sa
saakashvili
sabu
sacramento
sad
safotulafai
saga
sagato
said
saienisi
saienitisi
saili
sailia
sailiga
sailiiliga
saina
saini
sainia
saint
saito
sakala
sakalameta
sakaria
sala
salafa
salalau
sale
salelologa
salome
salvador
samadashvili
samani
samar
samaria
samasama
sami
samita
samoa
samoahttps
samoan
samuelu
san
sanfourche
sanger
sani
santa
santista
santos
sao
saoasaoa
saofaga
saogalemu
saoloto
saolotoga
sapapali
sapati
sarajevo
sarney
sasa
sasae
satani
satauro
satelite
satilaiti
satupa
sau
saua
sauaga
sauaina
saudi
saulo
sauni
saunia
sauniga
sauniuniga
saute
sautesasa
sautesasae
savage
savai
savaii
savali
savana
savannas
scalahosting
scalemajor
scaleminor
schengen
school
science
screwjob
sct
se
sea
seasea
season
security
sefulu
sefulufa
sefuluiva
sefululua
sefuluono
sefulutasi
sefuluvalu
sei
seia
seisi
sela
selau
selena
semi
senate
sene
senegal
seneturi
senituri
sepania
september
serafa
serb
serbia
series
serra
sesame
sese
seselwa
sesi
sesotho
setema
setete
seti
seu
sevae
seychelles
sg
shaded
shamrock
shane
share
shawn
shift
shili
shoney
show
si
sia
siaki
siamani
siampini
siamupini
siaosi
siaosia
sieki
siekisolovakia
sifi
sigapoa
siitia
sika
sikaiana
sikoa
sikotilani
sikuea
sila
silafia
silasila
sili
silia
silisili
siliva
siloti
silva
simple
sina
sinafiti
sinai
sinasina
sing
singer
sini
sio
siomia
siosiomaga
sipaniolo
sipelaga
siprage
sir
sisi
sisifo
sitaili
sitete
siti
sitiseni
siva
sivili
skyline
slam
slavic
slovenia
smackdown
smith
snake
snr
so
soccer
socialist
society
soifua
soifuaga
soka
sola
solo
solofanua
soloia
solomon
solomona
solomuli
solovakia
solovenia
somalia
sona
sone
soo
sootaga
sosaiete
soso
sosola
sosolo
sosoo
sound
sousa
south
southwestern
soviet
soya
sp
spanel
spania
spaniolo
sparsely
speaker
spencer
spike
sports
spring
square
sri
st
staff
stamford
stars
start
state
states
statistics
steppes
steve
stone
store
strains
strait
studentow
studio
style
su
suafa
suau
suauu
suavai
sub
subequatorial
subtropical
sudan
suega
suesue
suesuega
suesueina
suetena
sueteselani
sufulu
sui
suia
suicide
suiga
suinauna
suiselani
suitiselani
suitulaga
suka
sul
suli
sullivan
sultan
sulufai
summer
sumpini
sung
sunia
suomi
super
surfing
suria
suriname
susu
susuga
susulu
sutherland
svenska
svg
swains
swan
sydney
syria
sztuk
t
ta
taaalo
taalo
taaloga
taamilomilo
taamilosaga
taatele
taavale
taeao
taekwondo
tafa
tafafao
tafao
tafaoga
tafatafa
tafola
tag
taga
tagai
tagaloa
tagata
tagatanuu
tagavai
tagi
tahiti
tai
taia
taialani
taika
taimi
taina
taipei
taitai
taitaia
taitaiau
taitaifono
taitaiga
taitaiina
taitasi
taiuani
tajikistan
take
takuu
tala
talaaga
talafa
talafaasolopito
talafatai
talafeagai
talalelei
talanoa
talanoaga
talanoaina
talatala
talatuu
talavou
taleni
tali
talia
taliaina
talimalo
talitonu
talitonuga
talofa
talosaga
taloti
talu
tam
tama
tamai
tamaitai
tamaiti
tamaitiiti
tamaititi
tamalii
tamaloa
tamaloloa
tamaoaiga
tamaseko
tamasese
tamata
tamilo
tamo
tampa
tanata
tane
tanumafili
tanumia
tanzania
taofi
taofia
taofiofia
taoto
taotoga
tapaa
tapua
tapuai
tapuaiga
tapulaa
tapuni
taputapu
tarnovo
tasi
tasimania
tasman
tasmania
tatala
tatalaina
tatalo
tatau
tatou
tau
taua
tauagavale
tauaofiaga
tauaveina
taufaamatau
taufai
taufetuli
taui
tauiviga
taula
taulaga
taulai
taumafa
taumafai
taumafaiga
taumafanafana
taumalulu
taumatau
taunu
taunuu
taunuuga
taupou
taupulega
tausaga
tausamiga
tausi
tausia
tausiga
tautai
tautala
tautalagia
tautalatala
tautatala
tautino
tautinoga
tauto
tautotogo
tautoulu
tautua
tautupe
tautupu
tauva
tauvaga
tavita
tazz
tbilisi
te
team
technion
ted
teena
tei
teine
tekinolosi
tekonolosi
tel
tele
telefoni
televave
televise
temokalasi
temple
tenesi
tenimaka
tenisi
tennessee
tennis
teo
terasitila
tereta
teritori
termo
teropika
terrestrial
terry
tesalonia
tesema
tet
tete
tetee
tetele
teu
teuga
teuina
teuteronome
teuteu
teuteuga
teuteuina
texas
text
th
thanh
that
the
them
then
there
thesz
they
this
thomas
those
thq
thumb
thumbnail
thunder
ti
tiana
tiara
tierra
tiete
tieti
tietie
tifaga
tifitifi
tiga
tigris
tikeri
tikitato
tikopia
till
tilotilo
time
timeaxis
times
timeslot
timor
timu
timuga
tina
tinamatua
tino
tipi
tito
tiute
tj
tlm
tna
tnawrestling
to
toa
toafa
toafitu
toaga
toaitiiti
toalua
toasted
toatele
toatolu
tobago
tocantins
toe
toeaina
toefaatulagaina
toega
toeitiiti
toetoe
toetu
tofe
tofi
tofia
tofiga
tofu
toga
togafiti
togafitiga
togalaau
togavao
togi
togiina
togo
toil
toilalo
tok
tokelau
tokyo
tolauapiga
toleniga
tolotolo
tolu
tolutasi
tomai
tome
tommy
tonga
tonu
toonai
top
torah
toronto
torres
tosina
total
totino
toto
totoe
totogi
totogiina
totoina
totonu
totonugalemu
tou
trang
trans
transjordan
tre
tri
triangle
trinidad
trio
triple
tropical
trous
trudeau
tse
tu
tua
tuaa
tuafafine
tuai
tuamasaga
tuanai
tuaoi
tuasivi
tuatemala
tubou
tufatufa
tui
tuifiti
tula
tulaa
tulafono
tulaga
tulagalua
tulai
tuli
tulia
tuliesea
tuliloa
tulimanu
tuma
tumaoti
tumau
tumu
tumutumu
tuna
tunisia
tupe
tupi
tupou
tupu
tupua
tupuaga
tupuga
tupulaga
tuputupu
turisi
turkey
turkish
turkmenistan
turks
turnbull
turner
tusa
tusi
tusia
tusiata
tusiga
tusigaigoa
tusisolo
tusitaiala
tusitala
tusitusi
tusitusia
tusitusiga
tuto
tutoatasi
tutotonu
tutu
tutuila
tutupu
tutusa
tuu
tuua
tuueseeseina
tuufaatasi
tuufaatasia
tuufaatasiga
tuuga
tuugamau
tuuina
tuusao
tuusaunoaga
tuuto
tuutuuga
tuvalu
tv
twisted
u
ua
uaea
uafu
uaina
uamea
uasigitone
ubuntu
uefa
uelese
ueligitone
uepisaite
ufa
ufitia
ufiufi
ufua
uga
uganda
ugulava
ui
uiga
uila
uina
uk
ukaraina
ukraine
ula
ulaula
uli
uliuli
ulopa
ultra
ulu
ulua
uluai
ulufale
ulumatua
ulutala
uma
umi
umia
un
una
under
undertaker
unesco
union
unit
unitary
united
university
unm
uo
uosigitone
up
upega
upolu
upou
upu
upufai
uputuu
uropa
uruguay
us
usa
usd
used
ushuaia
usi
uso
ussr
usu
usufono
uta
utc
utia
utino
uto
utu
uu
uumi
uunaia
uunaiga
uvea
uzbekistan
v
va
vaa
vaai
vaaia
vaaiga
vaaitau
vaalele
vaapiapi
vae
vaega
vaegaau
vaeluaga
vaeluaina
vaetolu
vaevae
vaevaega
vaevaeina
vagana
vai
vaiaso
vaiataimi
vailaau
vainu
vaipuna
vaitafe
vaitaimi
vaitami
vaitau
vaitausaga
vaituloto
vala
valaauina
vale
valenitina
valentine
vali
valley
valu
value
van
vaneina
vanu
vanuatu
vao
vaomatua
vargas
vasa
vasega
vatikana
vaueli
vavae
vavaeese
vavaeesega
vavalalata
vavau
vave
vavega
vc
ve
veape
vela
veliko
venesuela
ventura
verde
versailles
vertebrate
vertical
veto
vevela
vevesi
vi
viatename
vice
vicente
viceroyalty
victoria
video
vie
viena
vietnam
view
viewer
vii
viiga
viii
vila
viliamu
villa
vince
vincent
vine
viper
virgin
virginia
viscera
vitio
vitoria
vlamertinge
vo
volcano
volenitia
volipolo
von
vs
vung
w
wahl
wake
wales
wallis
wallonia
war
wars
washington
wave
waving
wcw
we
web
website
weipa
were
west
western
what
when
where
which
white
who
why
wian
wide
width
wii
wiki
wikimedia
wikipedia
wilhelm
wilk
wilkes
will
willem
william
williams
wind
wisconsin
with
women
woodard
words
work
world
wrestlemania
wrestling
ws
wwe
wwf
www
wwwf
wystawa
x
xbox
xiii
xiv
xvii
y
ya
yahoo
yaren
year
yemen
yerevan
york
you
your
youth
ypres
yugoslavia
yum
z
za
zaim
ze
zealand
zero
zimbabwe
zonda
zone
{
|
~
«
°
²
³
»
×
łobez
ŋ
ə
ɡ
ʲ
ʻ
ʼ
ˈ
ˌ
ː
̀
́
̂
̃
̄
̆
̇
̈
̊
̌
̓
̔
̛
̣
̤
̦
̧
̨
̭
̱
α
β
ε
ελληνικα
η
χ
адыгэбзэ
беларуская
братских
вековои
гордимся
данная
для
и
коми
мудрость
мы
н
на
нам
народная
народов
наша
наше
одна
отечество
предками
россия
русскии
свободное
славься
союз
страна
т
так
тобои
ты
у
украі
х
ִ
ا
اوزبیکچه
ة
س
شاہ
مکھی
ه
و
ي
َ
ُ
ِ
ّ
ٓ
ٔ
ހ
ވ
ދ
ި
ެ
ं
अ
क
ग
ज
ट
ठ
ड
त
थ
द
न
प
फ
ब
भ
म
य
र
ल
ळ
व
ष
स
ह
़
ा
ि
ी
ु
ू
ृ
े
ै
ो
्
ং
ঠ
ণ
দ
প
ব
য
র
ল
শ
ষ
়
া
ি
ী
ু
ে
্
ਖ
ਗ
ਜ
ਪ
ਬ
ਾ
ੀ
ੁ
ੰ
ગ
ત
ા
ી
ુ
ଆ
଼
ି
ழ
ி
்
గ
త
ల
ు
ె
ತ
ಳ
ು
್
ം
ള
ാ
ං
ස
ි
་
ཁ
ག
ང
ད
བ
ཡ
ར
ི
ོ
ྫ
တ
န
ဘ
မ
ယ
သ
ာ
း
်
ြ
ၢ
ၵ
ႂ
ႆ
ქართული
한국어
ᜈ
ᜊᜌ
ᜒ
᜔
ខ
ភ
ម
រ
ស
ា
ែ
្
ᨁ
ᨕ
ᨗ
ᨙ
ᬶ
ᮓ
ᮔ
ᮞ
ᮥ
᮪
​
‎
–
—
―
‘
’
“
”
•
…
′
″
⁽
⁾
€
↔
↷
③
④
⑦
☉
☾
☿
♀
♂
♃
♄
♆
♦
⛢
ⰲ
ⰽ
ⰾ
ⱀ
ⱁ
ⱄ
ⱏ
ⱐ
ⱑ
ⴰ
ⵉ
ⵎ
ⵖ
ⵜ
ⵣ
⺀
⺄
⺆
⺈
⺊
⺌
⺕
⺝
⺸
⺼
⿰
⿱
⿲
⿳
⿴
⿵
⿶
⿷
⿸
⿹
⿺
⿻
〢
え
か
も
ら
ん
゙
ア
カ
ク
コ
シ
ス
ッ
ト
ミ
ユ
ョ
ラ
ン
ー
㇁
㇂
㇄
㇇
㇈
㇉
㇓
㐁
㐄
㐅
㐌
㐫
㐬
㐭
㐮
㐱
㑒
㒵
㒸
㒼
㓁
㓞
㔾
㕛
㕣
㖾
㘝
㚅
㚇
㚔
㚘
㝉
㝡
㝴
㝵
㞋
㞢
㞷
㠩
㠭
㠯
㡀
㡭
㡿
㢲
㢴
㣇
㣺
㥯
㪅
㫄
㫐
㫒
㫺
㬅
㬎
㬥
㬰
㲋
㳄
㷠
㸒
㸚
㸦
㼌
㼲
㽞
㿟
䀠
䂞
䍃
䏍
䒑
䖍
䖒
䖝
䖵
䙴
䚻
䜌
䝿
䡛
䧹
䪞
一
丁
丂
七
丄
丅
丆
万
丈
三
上
下
丌
不
与
丏
丐
丑
专
且
丕
世
丘
丙
业
东
丞
丢
丣
两
严
並
丨
丩
个
丫
丬
中
丮
丰
丱
串
丵
丶
丷
丸
丹
为
主
丽
丿
乀
乂
乃
久
乆
乇
么
义
之
乌
乍
乎
乏
乐
乑
乔
乖
乗
乘
乙
乚
乛
乜
九
乞
也
习
乡
乳
乾
亀
亅
了
亇
予
争
事
二
亍
于
亏
亐
云
互
亓
五
井
亘
亚
亜
亞
亟
亠
亡
亢
交
亥
亦
产
亨
亩
享
京
亭
亮
亯
亰
亲
亳
亶
亷
人
亻
亼
亾
什
仁
今
介
仌
从
仐
仑
仒
仓
仕
他
付
仝
代
令
以
任
企
伊
伏
伐
休
会
伯
但
位
何
佘
余
作
佥
使
來
侈
侌
侖
侯
侵
便
保
俞
信
修
倉
倍
候
倠
備
僉
僕
僮
儿
兀
允
兂
元
兄
充
兆
兇
先
光
兊
克
兌
免
兑
兒
兓
兔
党
兜
兟
入
全
兩
兪
八
公
六
兮
兰
共
关
兵
其
具
典
兹
兼
冀
冂
冃
冄
内
冈
冉
冊
冋
册
再
冎
冏
冐
冒
冓
冖
冗
冘
军
农
冝
冡
冥
冫
冬
冷
几
凡
凢
凵
凶
凷
凸
凹
出
函
凾
刀
刁
刂
刃
刄
刅
分
切
刍
刑
刕
刖
列
刘
则
初
別
利
别
到
制
刺
則
削
剌
前
剡
剽
劉
力
功
加
劦
助
劫
劳
劵
勃
勇
勉
勒
動
務
勞
勤
勹
勺
勻
勾
勿
匀
匂
包
匆
匈
匊
匋
匍
匕
化
北
匚
匝
匡
匪
匱
匸
匹
区
医
匽
匿
區
十
卂
千
卄
卅
卆
升
午
卉
半
卌
华
卑
卒
卓
单
卖
南
卜
卝
卞
占
卡
卢
卣
卤
卦
卩
卪
卬
卯
印
危
即
却
卵
卷
卸
卻
厂
厃
厄
历
厈
厉
厌
厓
厘
厚
原
厤
厥
厨
厭
厲
厶
厷
厸
去
厼
厽
叀
参
參
叅
又
叉
及
友
双
反
叐
发
叒
叔
叕
取
受
叚
叜
叟
口
古
句
另
叩
只
召
可
台
叱
史
右
叵
号
司
叹
吂
各
吅
合
吉
吊
吋
同
名
后
吏
向
吕
君
吝
吞
否
含
启
吳
吴
吹
吾
呂
呆
呈
告
员
呙
周
命
咅
和
咎
咠
咢
咨
咸
咼
哀
品
哉
員
哥
哲
唐
商
啇
問
啚
啬
啻
善
喜
喬
單
喿
嗇
噩
嚴
囊
囗
囘
囙
囚
四
回
囟
因
囧
囬
困
囱
囷
固
国
圂
圅
國
圍
圓
土
圡
圣
圥
在
圭
地
圶
圼
坐
坒
坚
坴
垂
垔
垚
埀
埋
埶
執
基
堂
堅
堆
堇
堯
塞
墨
壘
士
壬
壯
声
壳
壴
壹
壺
壽
夂
处
夅
夆
备
夊
夋
夌
复
夏
夒
夕
外
夗
夘
多
夜
夢
大
夨
天
太
夫
夬
夭
央
失
夲
头
夷
夸
夹
夻
夾
奂
奄
奇
奈
奉
奎
奏
奐
契
奓
奔
奚
奞
奠
奢
奥
奭
女
奴
奻
好
如
妄
妙
妟
妥
妻
妾
姑
委
姜
威
娄
娟
婁
婴
嬰
嬴
子
孑
孔
孕
孖
字
存
孚
孛
孝
孟
季
孤
学
孫
孱
學
宀
宁
宂
它
宅
宇
守
安
宋
完
宏
宓
宗
官
定
宛
宜
宝
客
宣
室
宮
宰
害
家
容
宾
宿
寄
寅
密
富
寒
察
寧
審
寫
寬
寮
寸
对
寺
寻
寽
対
寿
封
尃
射
将
將
專
尉
尊
尋
尌
對
小
少
尒
尓
尔
尖
尗
尚
尞
尢
尣
尤
尧
尨
尭
就
尸
尹
尺
尻
尼
尽
尾
尿
局
居
屈
屋
屎
屏
屑
展
屖
屚
属
屠
屡
屬
屮
屯
屰
山
屵
屾
岁
岂
岑
岡
岩
岳
岸
峯
島
崇
崑
崔
崖
崙
崩
嵬
嶲
巂
巛
川
州
巟
巠
巢
巤
工
左
巧
巨
巩
巫
差
己
已
巳
巴
巷
巸
巽
巾
巿
帀
市
布
希
帚
帛
帝
带
師
席
帶
常
干
平
年
幵
并
幷
幸
幺
幻
幼
幽
幾
广
広
庄
床
底
店
庚
府
度
庫
庭
庶
康
庸
廉
廌
廛
廣
廩
廴
延
廷
建
廾
廿
开
弁
弃
弄
弇
弋
式
弓
弔
引
弗
弘
弜
弟
弥
弦
弱
張
強
强
彊
彌
彎
彐
彑
当
彔
录
彖
彗
彡
形
彥
彦
彧
彭
彳
役
彼
往
待
律
徒
得
徙
從
復
微
徵
心
忄
必
忌
忍
志
忝
忠
忩
快
念
忽
忿
思
怠
急
怱
恆
恒
恩
恭
息
悉
患
悤
悲
悶
惠
惡
惢
愁
愈
意
愛
感
慈
慧
慮
憂
憲
應
戀
戈
戉
戊
戋
戌
戍
戎
成
我
戒
戔
或
戚
戠
戢
截
戲
戶
户
戹
戼
戾
房
所
扁
扇
手
扌
才
打
托
执
承
折
拉
拜
拿
掌
推
提
摩
撒
支
攴
攵
收
攸
改
放
政
敄
敏
敕
敖
敗
敝
敞
敢
散
敦
敫
敬
数
敷
數
斂
文
斉
斊
斗
斤
斥
斩
斬
斯
新
方
於
施
斿
旁
旋
族
无
旡
既
旣
日
旦
旧
旨
早
旬
旱
旲
时
旾
昆
昇
昌
昍
明
昏
易
昔
昗
昜
星
春
昬
是
昱
昴
昷
時
晃
晋
晏
普
景
晶
智
暑
暴
曇
曩
曰
曲
曳
更
曷
書
曹
曼
曾
替
最
朁
會
月
有
朋
服
朔
朕
朗
望
朝
木
朩
未
末
本
札
朮
术
朱
朵
朶
朿
杀
杏
杜
束
条
来
東
杲
杳
松
析
林
枚
果
枝
枲
枼
某
柔
查
柬
柰
柴
栗
桀
桑
桼
梁
條
梟
梨
棘
棠
棥
森
楚
業
楽
榮
樂
樊
欠
次
欣
欮
欲
欶
欽
款
歆
歇
歛
止
正
此
步
武
歨
歪
歮
歯
歰
歲
歴
歷
歸
歹
歺
死
殳
段
殷
殸
殹
殺
殻
殿
毋
毌
母
每
毒
比
毕
毚
毛
毳
氏
氐
民
气
氣
水
氵
氶
氷
永
氺
氾
求
汝
汞
江
沃
沓
沙
沝
泉
法
波
泣
泥
泰
洛
洪
活
派
流
浦
浪
浮
淡
淮
清
渚
渠
湯
滿
漸
火
灬
灭
灰
灵
灷
炅
炎
炏
炗
炙
炭
為
烈
烏
烝
焉
無
焦
焱
然
煞
熊
熏
燕
營
燮
爪
爫
爭
爯
爰
爱
爲
爵
父
爻
爽
爾
爿
片
牙
牚
牛
牜
牟
牢
牧
牪
牽
犀
犬
犭
犮
狂
狄
狊
独
狺
猋
猒
猪
献
獻
玄
率
玉
王
玟
玨
珎
班
琴
瑟
瑩
瓜
瓦
甘
甚
生
産
用
甫
甬
田
由
甲
申
电
甶
男
甸
甹
画
甾
畀
界
畏
畐
留
畜
畟
畢
畧
畨
番
畫
異
畱
當
畺
畾
疊
疋
疌
疑
疒
疾
癶
癸
癹
登
發
白
百
皀
皃
的
皆
皇
皋
皐
皕
皮
皷
皿
盃
盆
盇
盈
益
盍
盎
监
盒
盖
盛
盡
監
盤
盧
目
直
相
盾
省
眇
眉
看
眔
眞
真
眷
眼
眾
着
睘
睪
睿
瞏
瞢
瞿
矍
矛
矞
矢
矣
知
矦
短
石
破
碎
磊
磨
示
礻
礼
祟
票
祭
禀
禁
禸
禹
禺
离
禽
禾
禿
秀
秃
秉
秋
科
秝
秦
移
稟
穀
穌
穴
究
穹
空
穿
突
窄
窒
立
竒
竜
竝
竟
章
童
竹
笑
笠
筆
等
答
箕
算
箴
節
篤
篭
米
粉
粛
粟
粤
粦
粲
粵
糞
糸
糹
系
約
納
素
索
紫
累
細
絜
絫
絲
維
綿
縣
繇
纍
纟
缶
网
罒
罔
罕
罗
罙
罡
罢
罪
署
罷
羅
羊
羌
羍
美
羔
羕
羗
羞
羡
羣
群
義
羲
羸
羽
翁
翏
習
翕
翟
翠
翼
老
耂
考
者
耆
而
耎
耑
耒
耳
耴
耶
耷
聂
聊
聖
聚
聶
聿
肀
肃
肅
肉
肖
肙
肥
肩
肯
育
肴
胃
背
胡
胥
能
脊
脩
膚
臣
臤
臧
自
臬
臭
臯
臱
至
致
臺
臼
臽
臾
臿
舀
舂
舄
與
興
舉
舌
舍
舛
舜
舞
舟
般
艮
良
色
艸
艹
艾
芒
芔
芬
芮
花
芳
芺
芻
苔
苗
苟
若
苦
英
茶
茸
荅
草
荒
荣
荼
莆
莧
莫
莱
莽
菆
菊
菐
華
萬
落
葉
著
葛
董
葵
蒙
蒦
蒼
蓋
蓬
蓺
蔑
蔡
蕉
蕭
薄
薛
薦
薰
藍
藏
藥
蘭
虍
虎
虐
虒
虔
處
虖
虗
虘
虚
虛
虜
虞
虫
虽
蚤
蚩
蜀
蜜
蟲
蠡
血
行
衍
衛
衣
衤
表
衮
衰
袁
袞
褭
褱
襄
襾
西
覀
要
覃
見
規
覓
覧
親
覽
见
角
解
言
訁
訇
計
話
詹
語
誩
諸
讠
语
谷
豆
豈
豊
豐
豕
豖
豙
象
豦
豩
豪
豸
貇
貝
貞
貟
負
貢
貧
貪
貫
責
貳
貴
買
費
賁
資
賈
賏
賓
賔
賛
賞
賢
賣
質
賴
贊
贛
贝
贡
责
贯
贲
贵
赖
赞
赤
赦
走
越
足
路
蹇
身
躬
車
軍
軎
軟
輦
车
辛
辜
辟
辥
辰
辱
農
辵
辶
边
达
过
近
连
迷
追
退
送
逆
逐
通
速
造
逢
連
逮
進
遀
遂
過
道
達
遣
適
遷
遺
邊
邑
邕
那
邦
邪
郎
部
郭
都
鄉
酉
酋
配
酓
釆
采
里
重
野
量
金
釒
錢
钅
長
镸
长
門
閃
閉
開
閏
閑
閒
間
閔
閩
閵
閻
闌
门
间
闷
闽
阑
阜
阝
阿
降
陳
隆
隊
隋
隡
隨
隱
隶
隹
隺
隻
隼
隽
难
雀
雁
雅
集
雈
雋
雍
雐
雔
雙
雚
雜
雝
離
難
雨
雩
雪
雲
零
雷
需
霍
霜
霝
霞
霸
靈
靑
青
非
靡
面
靣
革
韋
韓
韦
韭
韯
韱
音
頁
頃
項
須
頗
頡
頻
顛
页
風
风
飛
飞
食
飠
養
館
饣
首
香
馬
馮
駦
马
骨
高
髟
鬥
鬯
鬲
鬼
魚
魯
鮮
鱼
鲁
鳥
鳳
鸟
鹵
鹿
麃
麗
麥
麦
麻
黃
黄
黍
黎
黑
黒
黨
黹
黽
黾
鼎
鼓
鼠
鼻
齊
齋
齐
齒
齿
龍
龙
龜
龟
龠
龰
龱
龴
龵
龶
龷
龸
龹
ꆇ
ꉙ
ꦗ
ꦧ
ꦮ
ꦱ
ꭹ
ꮃ
ꮎ
ꮟ
ꮤ
ꮳ
ꯂ
ꯃ
ꯇ
ꯟ
ꯣ
ꯩ








者
艹
？
𐌲
𐌹
𐌺
𐌿
𐍃
𐍄
𞤢
𞤤
𞤨
𞤪
𞤵
😡
🜨
𠀁
𠀃
𠀆
𠀉
𠀎
𠀐
𠁁
𠁣
𠂆
𠂇
𠂈
𠂉
𠂊
𠂋
𠂎
𠂒
𠂔
𠂛
𠂡
𠂢
𠂤
𠂬
𠂭
𠂹
𠃊
𠃋
𠃌
𠃍
𠃎
𠃑
𠃓
𠃔
𠃜
𠄌
𠄎
𠄠
𠄢
𠆢
𠆥
𠇍
𠈌
𠌵
𠓜
𠔉
𠔥
𠔼
𠔽
𠔿
𠕀
𠕁
𠕋
𠘧
𠘨
𠙻
𠙼
𠚏
𠚒
𠚤
𠚪
𠣏
𠤎
𠤕
𠥓
𠦄
𠦑
𠦝
𠧒
𠧗
𠧪
𠩺
𠪚
𠫓
𠫔
𠫤
𠬛
𠬝
𠬞
𠬢
𠬤
𠬶
𠮛
𠮦
𠮷
𠯑
𠱠
𠳮
𠷎
𡈼
𡉀
𡉵
𡌥
𡍮
𡏳
𡕒
𡕩
𡕰
𡖅
𡗗
𡗜
𡘆
𡘤
𡧱
𡨄
𡩧
𡬠
𡭽
𡰣
𡰥
𡰪
𡰯
𡰱
𡷈
𡸁
𡿨
𡿩
𡿪
𡿺
𢀖
𢀛
𢀩
𢁙
𢆉
𢆰
𢆶
𢇁
𢇇
𢉖
𢌬
𢌿
𢏚
𢑑
𢑚
𢖻
𢙣
𢛳
𢦏
𢦒
𢧵
𢼄
𢾕
𣁋
𣄼
𣅀
𣅽
𣍘
𣎳
𣎵
𣏋
𣏼
𣗥
𣥂
𣥖
𣦵
𣦼
𣧄
𣪊
𣪠
𣬉
𣳾
𣶒
𤇾
𤊽
𤐫
𤓰
𤔔
𤕨
𤣩
𤰇
𤰔
𤰞
𤴓
𤴔
𤽄
𥁑
𥁕
𥃦
𥃩
𥃭
𥇡
𥑟
𥘅
𥘈
𥝢
𥫗
𥱡
𦈢
𦉪
𦉬
𦉼
𦍌
𦍒
𦎧
𦐇
𦓔
𦔮
𦘒
𦙃
𦚏
𦣝
𦣞
𦣻
𦥑
𦥔
𦥯
𦨉
𦭝
𦰩
𧆞
𧈧
𧘇
𧰨
𧴪
𧴮
𧵩
𧾷
𨸏
𨾴
𩙿
𩠐
𩫏
𩵋
𪉷
𪜀
𪟽
𪠲
𪩲
𫇦
𫔭
𫜸
𫝀
𫠣
𫠩
𫢉
𫥞
𫩏
𫩠
𫪡
𫲽
𫶧
𬀷
𬐘
𬗌
𬙙
𬛸
𬜯
𬟩
𬯁
𬴘
𬺻
𬼉
𬼖
𭀰
𭁈
𭁨
𭅰
𭑈
𭕄
𭗼
𭤨
𭥫
𭻾
𮅕
𮊿
𮍌
𮍏
𮓗
𮥼
𮧮
廾
𰀁
𰀄
𰀈
𰀉
𰀕
𰀠
𰀡
𰀢
𰀪
𰁜
𰃮
𰆊
𰆘
𰋙
𰕎
𰢴
𰧭
𰯲
0--
11--
12--
13--
14--
15--
16--
17--
18--
19--
24--
7--
8--
9--
a--
ab--
ac--
acc--
ad--
ae--
afai--
afe--
afri--
ag--
aga--
ai--
al--
ala--
ale--
alter--
am--
ama--
amau--
an--
ana--
ang--
ano--
ao--
apu--
ar--
ara--
arau--
arr--
as--
asa--
ase--
ash--
astu--
at--
atau--
atel--
atu--
au--
auami--
auili--
aus--
aust--
austr--
auth--
avi--
ay--
azer--
b--
ba--
bag--
bal--
ban--
band--
bas--
be--
bel--
ber--
bi--
bio--
biodi--
bis--
blu--
bo--
bon--
bor--
bou--
br--
bur--
by--
c--
ca--
cal--
cam--
can--
car--
cat--
cc--
ccc--
cel--
cer--
ch--
cha--
char--
che--
circ--
clas--
co--
con--
const--
cor--
cour--
cr--
cran--
crea--
d--
da--
dal--
dar--
de--
dec--
des--
di--
dis--
dist--
do--
domi--
dr--
du--
e--
eco--
ed--
ei--
el--
elver--
em--
en--
equi--
erne--
es--
esti--
eu--
ex--
exc--
f--
fa--
faa--
faale--
faga--
fai--
faiga--
fale--
far--
fatu--
fau--
fe--
feder--
fer--
ferna--
fesui--
fia--
fin--
fo--
foa--
fr--
fu--
fua--
fui--
fur--
g--
ga--
gal--
gam--
gau--
ger--
gi--
go--
gosu--
gr--
gre--
gro--
gu--
gua--
h--
ha--
har--
he--
hel--
her--
high--
ho--
hor--
hu--
hus--
hy--
i--
ia--
ie--
il--
im--
in--
ioa--
is--
itu--
iu--
j--
ja--
je--
jer--
ju--
jus--
k--
ka--
kar--
ke--
ker--
ki--
kil--
ko--
kon--
kr--
ku--
kw--
ky--
l--
la--
lau--
le--
leg--
les--
let--
li--
liber--
lo--
lor--
loto--
lu--
ly--
m--
ma--
mag--
mala--
man--
mao--
mar--
mas--
mata--
mau--
mc--
me--
mea--
mega--
mem--
memo--
mer--
mi--
mic--
mir--
mis--
mo--
mon--
mor--
mora--
mos--
moto--
mu--
mul--
mur--
mus--
my--
n--
na--
ne--
neder--
ni--
no--
nor--
nord--
nu--
o--
oc--
ofu--
oga--
ok--
olo--
or--
os--
oste--
ot--
out--
p--
pa--
paki--
par--
pas--
pe--
per--
pho--
pi--
pla--
po--
polo--
poto--
pou--
pr--
pra--
pre--
pres--
pri--
pro--
pu--
pub--
pule--
q--
r--
ra--
rac--
racon--
rad--
re--
refer--
reg--
rel--
res--
reu--
ri--
riy--
ro--
rus--
s--
sa--
sao--
sar--
sau--
scand--
scho--
se--
sec--
seces--
ser--
sh--
sha--
she--
si--
sic--
sigh--
siko--
sis--
ska--
so--
soo--
sp--
sq--
srps--
st--
ste--
str--
su--
sub--
sue--
sun--
sur--
sw--
syst--
t--
ta--
tab--
tafa--
tai--
tali--
tar--
tau--
taua--
te--
tech--
ter--
territo--
teu--
th--
ti--
tia--
tik--
to--
toa--
toe--
togo--
tourna--
tr--
tro--
ts--
tu--
tuu--
u--
ua--
un--
univer--
up--
ur--
uu--
v--
va--
vae--
vai--
val--
vao--
ve--
ver--
vi--
vic--
vil--
vo--
w--
we--
wil--
x--
y--
ya--
z--
za--
вел--
العرب--
به--
--0
--0000
--1
--2
--3
--4
--5
--53
--6
--7
--8
--87
--9
--91
--a
--aa
--ach
--ack
--ad
--ae
--aga
--ai
--aili
--al
--ald
--als
--an
--ani
--ano
--ar
--ard
--as
--ate
--au
--b
--ba
--bec
--ber
--bo
--c
--ca
--cal
--cally
--cation
--ce
--ces
--ch
--cher
--ci
--cia
--ck
--co
--cs
--ctor
--cy
--d
--da
--de
--di
--do
--ds
--du
--dy
--e
--ea
--ed
--ef
--ei
--el
--elle
--en
--ence
--ep
--er
--ern
--ers
--es
--ese
--esia
--est
--et
--ey
--f
--fa
--fe
--ff
--fi
--fts
--g
--ga
--ge
--ger
--gh
--ght
--gi
--gia
--gies
--gn
--go
--gofie
--gofieina
--graphy
--gs
--gu
--gy
--h
--ha
--hi
--ho
--hu
--hue
--i
--ia
--ian
--ic
--ice
--ics
--ie
--ied
--iel
--ies
--iga
--iina
--ik
--imi
--in
--ina
--ine
--ing
--ino
--ion
--ip
--ir
--ira
--is
--isco
--ise
--ism
--ist
--ite
--ium
--ive
--ization
--jo
--k
--ka
--ke
--ki
--ko
--ks
--ky
--l
--la
--lama
--lani
--ld
--le
--lem
--ler
--les
--less
--lf
--li
--lia
--ll
--lla
--lle
--lls
--lly
--lm
--lo
--loa
--lofi
--ls
--lu
--ly
--m
--ma
--mbo
--me
--mea
--mi
--mic
--mo
--mokalasi
--mp
--ms
--my
--n
--na
--nal
--nc
--nce
--nd
--nda
--ne
--nes
--ng
--nge
--nges
--ngs
--ni
--nia
--nie
--nk
--nks
--nn
--no
--noa
--ns
--nson
--nt
--nta
--nu
--ny
--o
--oa
--ola
--on
--op
--or
--os
--ot
--ota
--ots
--p
--pa
--pe
--pi
--po
--pp
--pra
--ps
--pu
--r
--ra
--ral
--rants
--ray
--rc
--rch
--rd
--rds
--re
--ree
--rer
--res
--rge
--ri
--rk
--rn
--rno
--ro
--ros
--rre
--rry
--rs
--rt
--ru
--ry
--s
--sa
--se
--ses
--sh
--ship
--shvili
--si
--sia
--sk
--ski
--sm
--so
--son
--sport
--ss
--st
--sta
--ster
--stic
--sur
--t
--ta
--taga
--tan
--tani
--tary
--tch
--te
--ter
--tes
--th
--thy
--ti
--tia
--tic
--ties
--ting
--tion
--tions
--tive
--to
--ton
--tonu
--toric
--tors
--tory
--tra
--try
--ts
--tt
--tty
--tu
--tus
--tusi
--tuu
--ty
--u
--ua
--ue
--um
--ur
--us
--v
--va
--ve
--ves
--vi
--via
--ville
--vision
--vo
--vor
--w
--wa
--way
--wn
--wo
--wood
--x
--y
--ya
--ye
--z
--za
--ze
--zi
--zo
--zon
--ι
--а
--е
--и
--ь
--я
--ا
--ة
--ن
--ध
