!
"
#
##0
##1
##10
##11
##12
##13
##14
##15
##16
##17
##18
##19
##2
##20
##21
##22
##23
##24
##25
##26
##27
##28
##29
##3
##30
##31
##32
##33
##34
##35
##36
##37
##38
##39
##4
##40
##41
##42
##43
##44
##45
##46
##47
##48
##49
##5
##50
##51
##52
##53
##54
##55
##56
##57
##58
##59
##6
##60
##61
##62
##63
##64
##65
##66
##67
##68
##69
##7
##70
##71
##72
##73
##74
##75
##76
##77
##78
##79
##8
##80
##81
##82
##83
##84
##85
##86
##87
##88
##89
##9
##90
##91
##92
##93
##94
##95
##96
##97
##98
##99
%
&
'
(
)
*
+
,
-
.
/
0
000
01
02
0498
06
069
1
10
100
103
10953
11
12
120
13
14
15
150
16
17
18
1800
1831
1836
1861
1895
19
1906
1922
1925
1930
1933
1939
1945
1946
1950
1957
1959
1960
1966
1970
1972
1980
1983
1984
1985
1988
1989
1990
1995
1996
1998
1999
2
20
200
2000
2001
2002
2003
2004
2005
2006
2007
2008
2009
201
2010
2011
2012
2013
2014
2015
2016
2017
2018
2019
2020
2021
2022
204
206
21
215
218
22
225
226
23
24
25
250
260
27
280
3
30
300
32
320
35
350
4
40
400
425
44
450
46
47
5
50
500
503
52
55
56
57
58
6
602
623
63
65
656
6871
7
72
757
8
80
800
9
95580
978
979
:
;
<
=
>
?
@
\
_
a
aba
abad
abbaye
abbe
abbu
abergement
abruzzo
abside
ac
acara
aceh
acy
ada
adalah
adan
addatuang
addatuangnge
ade
adlinsjah
adour
afrika
aga
agama
age
agglome
agglomeration
aglomerasi
agne
agnetha
aguila
agupena
agustus
ah
ahe
aignan
aigremont
aigues
ailly
ain
ainvelle
ais
aisne
aix
aixe
aja
ajanna
ajatappareng
ajol
aju
ajue
akit
akkajeng
akkarungeng
akkarungengnge
aktif
al
ala
alaincourt
alamasia
alang
alau
alban
albon
album
ale
alena
alibukeng
alitta
allier
alliri
allirinna
aloagen
alpes
alusu
alwi
am
amalan
amance
amand
ambe
ambo
ame
american
amerika
amie
amiens
amiruddin
an
ana
anak
anatoly
ancajingeng
ancre
and
anda
andaure
ande
andelot
andi
andre
ane
ang
angel
angers
anggota
anggotana
angka
angles
anjou
anne
annonay
anre
anreang
antara
antoine
antologi
antv
anu
aosta
apa
apollinaire
appakabburenna
appang
appanna
apremont
april
ara
arab
arbigny
arc
arce
archambault
arcizac
arcizans
arcy
arde
ardennes
are
argele
argenton
arie
arize
arles
armanc
armor
arnes
arnoult
aro
arras
arroman
ars
artikel
aru
arung
aruwa
asas
ase
asean
aseng
asengna
asenna
asia
asnie
asosiasi
aspres
asse
assicampurusenna
assiempekeng
assiempekenna
assomption
at
ata
atajangeng
atang
atangajana
atas
atau
ate
athies
atma
atong
atoni
atonie
attang
attigny
attoriolongnge
attoriolonna
atuo
au
auban
aube
aubenas
aubenton
aubigny
aubin
auge
augy
aujon
aulnay
aulnois
aumont
aure
aussonne
australia
austria
autels
authie
authon
autigny
autreville
autry
auvers
aux
availles
avant
avignon
avrainville
avrilly
awa
ay
aya
ayam
aŋgotana
b
ba
babuana
baca
bacukiki
badan
bage
bagiang
bagne
bagneux
bahasa
baiccu
baigneaux
bailly
baine
bains
baku
bala
balan
balanda
balandae
balangan
balannipa
bale
balendere
bali
ball
balme
balo
balona
ban
band
banda
bandar
bange
bangi
bangka
bangsa
banjarmasin
banjarnegara
bank
banten
banyuls
bar
barang
barat
barbazan
barbuise
bare
barenton
barges
barre
barsac
barse
barthe
baru
barville
barzy
bas
basa
basanna
basic
basse
bassigny
bastide
bata
bataille
batak
bate
bati
battowae
batu
baume
bawi
bay
bazoilles
bazus
bbc
bbu
be
beauce
beaucourt
beaufort
beaulieu
beaume
beaumont
beaune
beauregard
beauvilliers
beauvoir
beauvoisin
becquigny
beine
belgia
belitung
bellac
bellefontaine
bellegarde
belles
belleville
belloy
belmont
belo
belona
belval
bengkulu
benoi
benque
benua
berada
berbasis
berbuka
berg
beribu
berikut
berita
berkas
bernard
berny
berre
berrieux
berry
bersama
bersamaan
berue
besar
besbre
besse
bessie
bestari
bettuanna
beynost
biasa
biasana
bicara
bie
bigorre
billy
bimoli
binh
bintang
binuwang
biology
bira
bissue
blaise
blaisy
blanzy
ble
bleach
bleu
blin
bo
bocage
bogny
bois
boisse
boissie
boissy
bokma
bokona
bola
bolana
bompas
boncourt
bondigoux
bone
bonfays
bonnet
bonneval
bonrepos
bons
borane
border
bordes
borne
bosi
bosmont
bouches
bouchet
bouchoux
bouconville
bouloc
boulogne
bourbonnais
bourg
bourguignon
boy
brasil
brasile
braux
bray
braye
bre
bresle
bresse
bressolles
breuil
brianc
briance
brice
brie
brienne
brion
briord
brioude
brou
bru
brunei
bruye
bu
bua
bubur
bucy
budaya
budi
bue
bugey
buigny
buire
buku
bulae
bulan
buletin
bulgne
bulu
burane
bus
bussie
bussy
buxie
buzancy
c
ca
caa
cab
cabanac
cabang
cac
cad
caddi
cadours
cae
caf
caire
cal
calabria
cam
camilan
caml
campurusenna
can
canggi
canggoreng
canton
cao
cap
capital
caprais
car
cara
carana
cas
caste
castelginest
castelnau
castillon
cat
caumont
cav
cazaux
cc
ce
cedde
ceddi
cella
celle
celles
cempa
cenning
center
central
cernay
cerny
ceyze
cha
chalaronne
chalencon
chambe
chambon
champ
champagnac
champagne
champigny
champs
champsaur
chane
channel
chantelle
chanteloup
chantemerle
chapelle
chappes
charente
charmes
charmois
charny
charroux
chastel
chateau
chaumont
chausse
chavannes
chazey
che
chelle
chelles
chemilly
chemin
cher
chet
chevannes
chevry
cheylard
chi
chicago
chieti
chili
chilly
china
chome
christophe
chy
cibu
cierge
cinae
cinde
circourt
cirgues
cisse
city
clair
claude
cle
clermont
clocher
clock
cluse
co
cobar
code
coiron
cole
coligny
colombe
colombier
color
com
comminges
common
communaute
commune
communes
community
compa
comps
computer
comte
condamine
conde
contoh
coorma
coppo
cora
corbie
corbin
corcieux
corcy
corps
corre
coucy
coudray
coulanges
coulonges
cour
courc
courcelles
court
courtes
couserans
cre
crested
creuse
creuzier
croix
cros
cross
crouy
cruzie
cub
cuiry
cure
curitiba
cv
cy
cyr
d
da
dae
daerah
daftar
daftara
dalam
dalle
damas
dame
dames
damppulu
dan
dani
dapur
dara
dard
dare
dari
darney
darussalam
data
datu
datue
daun
daung
daux
daya
dde
ddi
de
debat
deepublish
definition
deinvillers
dels
demi
deneuille
dengan
dengang
denis
des
desa
desember
dessus
deux
devant
development
dewata
di
diakses
diam
dibata
dibentuk
dibuka
dicipta
dictionary
didier
die
dies
diesel
dieu
diluncurkan
dina
diois
diplomat
disember
distrik
diwujudkan
dizy
dll
do
doko
domart
dombasle
dombes
dombrot
dome
dommartin
dompierre
dong
donjon
doors
dordogne
doubs
doux
dragon
dram
dro
du
dua
dualimpoe
dunia
dunie
dunya
durban
durbion
durfort
duta
duwa
e
eaux
ed
eddi
eddie
eddina
ede
egana
eganna
eglise
ekonomi
eksplorasi
ele
elektron
elo
elok
embrun
emilia
en
encere
engi
engka
engkae
engkai
engkana
engkangenna
engkato
enon
ensiklopedi
ensiklopedia
entraunes
entre
eppa
era
eropah
es
escalquens
eso
esparron
esso
essoe
essonne
estre
et
eulalie
eure
even
evidence
eyrieux
ez
f
fa
fac
fada
fakultas
faucon
faux
faverolles
favie
fay
faye
fays
fe
februari
ferre
ferrie
ferte
filain
file
film
finiste
fisika
fle
fleurs
fleury
florence
fm
fokus
fole
fons
fontaine
fontaines
fontenay
fontenelle
fontenoy
food
football
for
fore
forest
forez
forge
forges
formans
fort
fosse
fosses
fouche
fr
franc
francheville
franqueville
fre
frenelle
fresnes
fresnoy
frida
from
fungsional
g
ga
gaillard
galung
gangkanna
ganra
ganteng
gard
garidech
garonne
gartempe
gau
gaukeng
gawu
ge
gemme
gene
genest
genevie
genie
genis
genre
gensac
georges
ger
gerakan
gerang
germain
germier
gers
gervais
ges
gilles
gion
girmont
gironde
gitara
gje
gl
glise
glises
global
gnier
gny
go
golla
gollae
gorontalo
gouaux
gourdon
government
gowa
gragnague
grand
grandchamp
grande
grandrupt
granges
gras
grasse
gratentour
gray
gre
grenade
gridcolor
grup
guadeloupe
gude
gue
gues
guinea
guise
gunarto
gur
guru
gut
guyencourt
h
ha
habibie
hal
halle
hallue
ham
hanana
harmoni
hary
has
hatta
haut
haute
hauterive
hautes
hauteville
hauts
haye
he
height
hello
hi
hiburan
hidayah
hidup
hiduplah
high
hiji
hilaire
hirup
hlm
hna
ho
hoa
hoi
hong
houe
http
hukum
hulu
i
ia
iakia
ialah
iana
ianae
ianaro
iarega
ibu
id
ie
ieu
if
ilmiah
ilmu
im
image
imdb
in
inappa
inauguracion
increment
india
indo
indoe
indone
indonesia
indonesian
indre
industri
informasi
information
ini
inovasi
integer
interieur
internasional
international
internet
inti
inungeng
irlandia
iruntu
is
isbn
isek
islah
islam
island
isle
issards
issarle
istimewa
ita
italia
itrend
iya
iyae
iyamaneng
iyana
iyanae
iyanare
iyanaritu
iyanaro
iyare
iyarega
iyaro
iye
iyya
iyye
izenave
j
ja
jabatan
jabu
jackson
jacques
jadoel
jagung
jakarta
jalan
jama
jamang
jamanna
jambi
jan
jangan
januari
jasmine
jaunac
java
jawa
jawae
jaya
je
jean
jejak
jelang
jeneponto
jenie
jenis
jenisi
jepang
jerman
jeune
jeure
jiwa
jmpl
john
jokka
jordanien
jori
joseph
joux
jouy
jpeg
jpg
juara
juga
juillac
julai
julia
julie
julien
jumella
jun
jura
jurnal
jurucakap
just
juta
k
ka
kabbu
kabe
kabupaten
kabupateng
kajuru
kakengngi
kale
kalimantan
kaluku
kaminang
kamisi
kampong
kamponna
kanada
kappala
kapusu
karae
kareba
karo
karoe
karung
kategori
kawan
kawas
ke
kebudayaan
kebutuhan
kecamatan
kecamatang
kegiatan
kekinian
kelahiran
kelas
kelompok
kelor
keluarga
kelurahan
kementerian
kepada
kepala
kepulauan
kerajaang
keren
ketua
kg
khas
ki
kiloro
kimia
kingdom
kira
kiri
kiya
kko
klen
km
ko
komite
komputer
komun
komune
komunikasi
komunitas
kong
kopi
korea
kota
ku
kua
kudara
kuliner
kultum
kune
kupang
kuta
l
la
labarthe
labastide
labbu
labe
labeaume
lac
lachamp
lachapelle
lafarre
lafauche
lagarde
lagorce
lagu
lahir
lahitte
lai
laina
lainana
laing
lainge
laingnge
laiyya
lakadaung
lakkainna
lalanne
laleng
lalenna
lamarche
lamba
lambert
lame
lamotte
lampa
lampung
lan
langi
langres
langsa
language
languages
lanrek
lansac
lansia
lanta
lantenay
lao
laon
laonnois
laos
lapeyrouse
lapi
lappa
larboust
lare
larra
lary
lau
launa
launac
launaguet
lauragais
laurent
laut
lautang
laval
lavalette
lavedan
laveline
layara
layon
le
lebbi
lebih
left
lembah
lemo
lemps
lemy
les
lesta
let
lettu
level
lez
libukeng
libukeŋ
lid
lie
liens
liffol
lignerolles
lignie
lignon
lihat
lili
lima
limappulo
linegrey
lines
linge
lingkungan
lingua
lino
linoe
lipu
lise
litere
liverpool
lix
llao
lle
lo
loci
loga
loges
logo
loi
loir
loire
lokal
lolo
lomba
lompo
long
longchamp
longueville
lontara
lopi
loppo
loubens
louis
loup
louroux
lovato
loyes
lp
ltskog
luar
luc
luce
luchon
lucy
lurcy
lurengang
lusigny
lussac
lussan
luwu
ly
m
ma
mabbaine
mabbola
mabbulu
mac
macau
macella
macoae
macommo
maconcourt
macora
macowae
madagascar
maddare
maddarupa
maddupa
maderri
madon
maduanna
mae
maega
maegae
magdelaine
magnoac
magny
mai
mailly
main
maine
maire
mairie
maison
maisons
maizie
majjama
maka
makanan
makantala
makassar
make
makemmu
makin
makkacoe
makkaikang
makkarung
makkarungi
makkaseseng
makkedai
makkokoe
makkotoparo
makkukkue
makkunrai
mala
malaincourt
malam
malampe
malaysia
malelak
mali
malicorne
mallakkai
mallayara
mallebbangngi
mallinrung
malomo
maloppo
maluku
malware
mancaji
manche
mandarin
mandiraja
mandres
mane
maneng
manga
mangkasa
mani
maniang
maniangpajo
manianna
mano
manorang
manorangna
manoraŋna
manre
manurungnge
manusa
map
mappade
mappake
mappammulai
mappasessu
mappattakaseng
mappoca
mappocak
mappunnai
mappunnangi
maprogram
mapute
marakkoe
marane
marbles
marcel
marchais
marche
marcillat
marcilly
mard
mare
marede
maret
mareuil
marguerite
marie
marignac
marigny
maritimes
marle
marnay
marne
marolles
mars
marsan
martial
martigny
martin
martory
marusu
mas
masahoroi
masahorong
masahorongngi
mascarville
masero
masigi
massa
massappa
massappo
masse
massikola
masyarakat
mata
matae
matase
mate
matematika
mateppe
materi
matinroe
matoae
matoro
mattama
mattaneng
mattola
mau
maubbengnge
mauges
maule
maulud
mauni
maurens
maurice
mauvezin
mayet
maze
mazie
me
media
mei
meillard
melalui
mendapatkan
meninggal
mennanro
menre
ment
menthon
menu
menulis
menuru
mer
mercy
merry
merupakan
merville
mery
mes
mesmin
mesnil
met
meto
meurthe
meuse
mev
mi
miboga
michael
michel
millennium
milli
millie
milly
milon
mines
minggu
minh
mirepoix
miribel
missy
mita
mitu
mnctv
mo
mode
modula
moe
molay
monceau
mondonville
mone
monestier
monro
monroe
monroi
mons
mont
montagne
montaigu
montastruc
montauban
montaut
montbavin
montceaux
montclar
monte
montesquieu
montfaucon
montfort
montgaillard
monthureux
montignac
montigny
montluc
montot
montpezat
montrabe
montre
montreuil
monts
monument
mopa
mortagne
morts
morville
moscow
moselle
motor
motte
moulin
moulins
mourens
moussey
moutiers
mouzon
moyencourt
mpo
mu
muanne
mula
muni
munri
mupa
mupi
mur
murat
muret
murs
museum
musi
musik
musu
muto
muttama
muzik
my
n
na
nabi
nabord
nac
nae
naebbu
nainappa
naiya
naiyasi
naiyya
najajiyang
najajiyangi
nalao
nale
nallakkai
nam
namana
nangurusie
nangurusiye
nanteuil
napa
napabbu
napawe
napobaine
napoji
nappa
nare
narekko
narimakkuannanaro
nart
nasaba
naseng
nasibawai
nasional
natalis
nate
natellai
national
naulle
naves
nay
naz
ne
negara
negeri
neira
neniya
neniyya
nennia
nenniaya
nenniya
neno
nes
nesle
neste
netron
neuf
neufcha
neuilly
neuve
neuveville
neuvic
neuville
neuvy
new
news
ng
nga
nge
ngiki
ngka
ngkalinga
ngnge
ngngi
nha
ni
nice
nicolas
nie
nil
ninh
niort
nizier
no
noe
nogent
nois
nomoro
nono
nord
norsk
north
norway
nos
notoc
notre
nouvelle
nouvion
november
noyant
noye
noyelles
noyers
nre
nrenge
nreŋe
nsi
nubatonis
nueil
nueva
nusa
nyae
o
object
objective
oblast
of
official
offroicourt
oge
ogi
ogos
oise
oki
okina
oktober
ol
ole
oleh
ollainville
olo
olona
on
onard
one
onrong
onronna
or
oradour
orang
organisasi
orge
orientales
origny
ormes
ormoy
orne
orowane
oslo
ota
othe
ouanne
ouen
ouest
ource
ourcq
oust
owungenna
oze
ozon
p
pa
pabbanua
pabbanuanna
pabbanuwae
pabbelo
pabbeloang
pabbereanna
pabbu
pabburana
pada
padang
padanna
pagi
paimeng
paizay
pajjoge
pakabbureng
pakistan
pakkate
pal
palais
palangka
pale
palestina
palili
paliŋ
palud
pamula
pancai
pandang
pandangnge
pangan
panges
panginringi
pangissengeng
panre
papeng
pappada
papua
para
parana
paray
pardoux
pare
paretema
parewa
parey
pargny
paroy
partement
parthenay
partikel
pascal
pasere
passicampurusenna
passulle
passy
pateddungi
patiroi
patrilineal
pau
paul
paulel
paulhac
paulo
pautan
pawale
pawe
pays
payzac
pe
pebruari
pechbonnieu
pejje
pejjena
pelakon
pella
pelleport
pemanfaatan
pembahagian
pemberdayaan
pemenuhan
pemilik
pemukiman
pendidikan
pendudukna
penerbit
pengembangan
penghargaan
pengurus
pentadbiran
penulis
penyanyi
peragawati
perancis
perancisi
periode
pernah
pertama
pertanian
perthes
petang
petit
petite
petta
pettang
peyrat
pgri
phe
picardy
pieds
pierre
pierrefitte
pierremont
pierrepont
pierreville
pigeonnier
pikeun
pin
pinang
pinay
pinisi
pins
pital
pitu
pituppulo
pl
pla
place
plagne
plaine
plaisance
plaisir
platform
plaza
ple
plessier
plessis
plotdata
plus
png
pobaine
poe
poinson
poitou
poix
polakkaiwi
poland
pole
politik
polo
pommiers
pong
pons
pont
pontavert
ponthieu
pontianak
pop
popular
population
porcien
porovensi
porseni
port
portal
portes
portet
poste
poterie
pothe
pouilly
pourc
pouy
prades
pramuka
pranala
prat
pre
presiden
prey
priest
prima
privat
prix
produk
profil
program
programming
prosiding
proton
provence
provenche
provinsi
prunet
pt
puasa
puisaye
puiseux
puisi
pulaweng
pulo
punggawa
punna
pura
purae
purani
puranna
pure
pusa
pusat
pustaka
pute
puy
px
py
pyre
python
q
quang
quatre
que
quentin
quesnoy
quincey
quincy
r
ra
rabaa
rac
race
rache
radegonde
radio
rahman
rajawali
rakaatna
raki
rakyat
ramadhan
ramecourt
ran
rance
rancourt
rand
rangka
raon
rapanna
raphae
rappeng
rat
ration
ratu
raung
ray
raya
re
read
referensi
reggio
religi
remiremont
remy
reng
renneville
renon
republik
res
resep
resmi
ret
reuil
revest
rey
reyssouze
rgb
rhin
rho
ri
riabbu
riabbureng
riaja
riala
riaseng
riasengnge
riasengngi
riat
riattang
riau
ribeloi
ricourt
ridi
rie
rieu
rieutord
rieux
rigading
right
rignat
rigny
rijang
rika
rikabbu
rilaingna
rilainna
rilalenna
rilau
rilly
rinasu
rinasui
riobbi
riolli
riolo
riolona
ripabbereangngi
ripajajiang
ripake
ripakkuro
ripancaji
ripannessai
ripasicampuru
ripattama
ripau
ripigau
ripileanna
ripolo
ris
risaliweŋ
riseseangngi
risicampurusi
risson
ritambai
ritambaipi
ritella
ritellai
ritellarie
ritellue
ritma
ritu
ritual
ritujunna
rives
rivie
riyase
riyaseng
riyasengi
riyasengnge
ro
robert
roche
rochefort
roches
rochette
rock
rocles
rognon
roh
roi
romagne
romain
romans
rome
romilly
ron
ronche
ronde
roquebrune
roquefort
rosie
rou
rouges
roure
rouvray
rouvres
rouvroy
roux
rouy
roye
rozie
rozoy
rtm
ru
rua
ruappulo
rujukan
rumigny
rupa
rupang
rupangngi
rupanna
rupat
rupt
ry
s
sa
saba
saban
sae
safa
sagala
sahur
sailly
sains
saint
sainte
saintonge
saints
saisa
sajati
sajinna
sala
salah
salasa
salat
sale
salies
saligny
saliweng
salle
salles
salo
salon
saluran
salweŋ
samarinda
sampurna
sanggenna
sans
santang
santerre
sao
sappo
sara
sari
sart
sarta
satu
saturnin
saulcy
saules
sault
saulx
saulxures
sauveterre
sauveur
sauvigny
sauville
save
savigny
savin
savoie
sawe
sawitto
sdn
se
sebagai
sec
seddi
seddie
seilh
seine
sejarah
sejarawan
sekaligus
sekarang
sekitar
sekretaris
selalunya
selatan
self
selleng
sellengnge
selles
selve
semarang
sembajang
seminar
senarai
sengkang
seni
senin
senones
sentenac
seorang
seppulo
september
serein
sergy
serikat
sernin
serre
serres
serrie
sertifikat
servais
servas
sesun
setiap
seuwa
shell
shift
show
si
sia
siagne
siaran
siare
sibale
sibawa
sibawang
sicampuru
sicedde
side
sie
signy
sikaju
sikira
sikola
silong
simbol
simbolo
simple
singapore
singapura
sining
sipak
sippulo
siratu
sire
siri
siseng
sisenna
sisinru
sisinruk
sistem
sistəm
site
situs
siyala
skyline
sleman
slogan
sloganna
sma
soa
society
sokko
solignac
somme
son
soncourt
song
soppe
sore
sornin
soto
soulaines
sous
south
spesial
sponsor
sr
sriwijaya
sso
start
stasiun
stasiunna
strokes
su
sub
subatomik
sud
sukoharjo
suku
sulawesi
sulpice
sumatera
sumber
suppa
sur
surakarta
suran
sure
susu
suzanne
sv
swedia
syamsul
sylvestre
symphorien
syndicat
t
ta
tabbage
tahana
tahun
tailly
taiwan
tamae
tamil
tamma
tana
tanae
tanana
tanappa
tane
taneng
tang
tangerang
tanggal
tanggala
tanjung
tanre
tanri
tape
tapi
tarn
tasi
tasie
tatta
tau
taue
taun
taung
tauwe
tawaro
tay
tcl
te
teau
teauneuf
teddung
tedong
tefonds
teknobiologi
teknologi
tel
telard
telet
televisi
televisina
televisyen
tellu
tellue
tenay
teng
tenga
tengah
tenggara
tengnga
tenois
tenre
tenri
tepi
tepung
terletak
terre
tes
text
th
thailand
thanh
the
theil
thermes
thie
thil
thines
this
thoiry
tholon
thonnance
thouarsais
thouet
thu
thumb
thumbnail
ti
tie
tienne
tif
tiga
tigne
tigny
till
tillon
tilly
time
timor
timoreng
timoro
timur
tine
tingkat
tiongkok
tive
to
toi
tokoh
tolai
tolosane
tomaming
tone
tong
toni
tonrawalie
topa
toraja
torcy
tosi
toulon
toulouse
tour
tr
tradisional
trang
tre
tres
trinite
trivier
trois
tropole
troyes
ts
tte
tuan
tujunna
tulungagung
tungke
tuo
tuongenna
turbo
turki
tv
type
u
ubella
ubellae
udara
ugi
uis
ujung
ulu
union
united
universitas
unsur
untari
untu
untuk
upacara
upright
urbain
urbaine
urowane
urville
usseau
ussel
utara
uwa
uwae
uzer
v
vacquiers
vair
val
valence
valle
valleroy
vallier
vallois
vallon
valois
vals
value
vanne
var
varennes
vauchelles
vaucluse
vaudes
vaux
vayres
ve
velay
velle
vence
venerque
vent
verdon
verfeil
vermandois
vernet
verneuil
vernon
vernoux
verrie
vert
ves
vesles
veyle
vic
vichy
vicq
victor
video
vie
vieil
vieille
viel
vielle
vienne
vietnam
vieu
vieux
view
vignes
vigneux
vigny
villar
villarie
villars
villaudric
ville
villedieu
villefranche
villelongue
villematier
villemur
villeneuve
villeret
villers
villes
villette
villiers
villy
vimeu
vincent
vineux
virieu
virus
viry
visual
vitry
vivarais
vives
vivie
vivier
viviers
vocance
voir
voivre
vokal
vologne
voluy
volvestre
vome
vosges
voux
vraine
vre
vres
vry
vue
w
wa
wae
wai
waji
wajo
wakil
walie
wanua
wanuana
wanuwa
wardani
wari
wariala
warialana
warsih
wasse
wattang
wawang
we
website
wedang
wedding
weddingngi
west
wettu
wettunna
width
wija
wijayanti
wiki
wikipedia
wikipediae
wiring
wong
world
www
x
xaintois
y
ya
yae
yaman
yamaneng
yanaritu
yang
yangnge
yarega
yaro
yase
yasengnge
yasser
ye
yero
yerodo
yogyakarta
yonne
yoon
york
you
yuk
yvelines
yvette
z
zac
zan
zat
ze
zelay
zert
zes
zie
zu
zulyani
zy
{
|
}
~
«
°
²
º
»
½
×
łobez
ə
ʼ
ˈ
ˌ
ː
̀
́
̂
̃
̆
̇
̈
̉
̊
̌
̛
̣
̧
̨
ح
د
م
ٌ
َ
ُ
ّ
ᨀ
ᨀᨀ
ᨀᨄ
ᨀᨅ
ᨀᨆ
ᨀᨆᨄ
ᨀᨇ
ᨀᨈ
ᨀᨊ
ᨀᨍ
ᨀᨑ
ᨀᨒ
ᨀᨔ
ᨀᨕ
ᨁ
ᨁᨁ
ᨁᨊ
ᨁᨐ
ᨁᨑ
ᨁᨕ
ᨂ
ᨃ
ᨃᨈ
ᨃᨊ
ᨃᨕ
ᨄ
ᨄᨀ
ᨄᨀᨔ
ᨄᨂ
ᨄᨂᨉ
ᨄᨂᨑ
ᨄᨅᨊ
ᨄᨈ
ᨄᨉ
ᨄᨉᨄᨉᨊ
ᨄᨉᨊ
ᨄᨊ
ᨄᨋ
ᨄᨑ
ᨄᨒᨕ
ᨄᨔ
ᨄᨕ
ᨄᨖ
ᨅ
ᨅᨁ
ᨅᨂ
ᨅᨈ
ᨅᨈᨀ
ᨅᨉ
ᨅᨉᨑ
ᨅᨊ
ᨅᨏ
ᨅᨑ
ᨅᨒ
ᨅᨓ
ᨅᨔ
ᨅᨕ
ᨅᨖᨔ
ᨅᨖᨔᨊ
ᨆ
ᨆᨀ
ᨆᨄ
ᨆᨄᨉ
ᨆᨅ
ᨆᨈ
ᨆᨈᨁ
ᨆᨈᨊ
ᨆᨉ
ᨆᨉᨑ
ᨆᨊ
ᨆᨌ
ᨆᨏᨍ
ᨆᨑ
ᨆᨑᨉ
ᨆᨒ
ᨆᨔ
ᨆᨔᨖ
ᨆᨕ
ᨇ
ᨈ
ᨈᨄ
ᨈᨅᨁ
ᨈᨆᨊ
ᨈᨊ
ᨈᨋ
ᨈᨑ
ᨈᨓᨓ
ᨈᨔ
ᨈᨕ
ᨉ
ᨉᨊ
ᨉᨐ
ᨉᨐᨆᨐᨑ
ᨉᨑ
ᨉᨑᨊ
ᨉᨒ
ᨉᨕ
ᨊ
ᨊᨁ
ᨊᨁᨊ
ᨊᨄ
ᨊᨄᨑ
ᨊᨅᨒ
ᨊᨈ
ᨊᨉ
ᨊᨋ
ᨊᨑ
ᨊᨔ
ᨊᨔᨀᨐ
ᨊᨔᨅ
ᨊᨕ
ᨊᨕᨔ
ᨋ
ᨋᨕ
ᨌ
ᨌᨆᨈᨊ
ᨌᨑ
ᨍ
ᨍᨅ
ᨍᨆ
ᨍᨆᨊ
ᨍᨓ
ᨍᨓᨕ
ᨎ
ᨏ
ᨏᨊ
ᨐ
ᨐᨆᨊ
ᨐᨊ
ᨐᨊᨑ
ᨐᨑ
ᨐᨓ
ᨐᨔ
ᨐᨕ
ᨑ
ᨑᨀ
ᨑᨄᨊ
ᨑᨅ
ᨑᨆ
ᨑᨊ
ᨑᨊᨒ
ᨑᨍ
ᨑᨓ
ᨑᨕ
ᨒ
ᨒᨂ
ᨒᨄ
ᨒᨆ
ᨒᨈ
ᨒᨉ
ᨒᨊ
ᨒᨏ
ᨒᨐ
ᨒᨒ
ᨒᨕ
ᨓ
ᨓᨅ
ᨓᨊ
ᨓᨑ
ᨓᨓ
ᨓᨓᨂ
ᨓᨔ
ᨓᨕ
ᨔ
ᨔᨄ
ᨔᨅ
ᨔᨈ
ᨔᨉ
ᨔᨊ
ᨔᨒ
ᨔᨕ
ᨕ
ᨕᨀ
ᨕᨁ
ᨕᨁᨆ
ᨕᨂ
ᨕᨄ
ᨕᨅ
ᨕᨅᨈ
ᨕᨆ
ᨕᨇ
ᨕᨈ
ᨕᨈᨕ
ᨕᨉ
ᨕᨊ
ᨕᨊᨀᨑ
ᨕᨊᨑ
ᨕᨋ
ᨕᨍ
ᨕᨏ
ᨕᨐ
ᨕᨑ
ᨕᨒ
ᨕᨒᨂ
ᨕᨒᨔ
ᨕᨔ
ᨕᨔᨊ
ᨕᨔᨍ
ᨕᨔᨒ
ᨕᨕ
ᨖ
ᨖᨑ
ᨗ
ᨘ
ᨙ
ᨚ
ᨛ
᨞
᨟
‎
–
—
‘
’
“
”
•
↔
↷
③
④
⑦
◌
☉
☾
⺀
⺄
⺆
⺈
⺊
⺌
⺕
⺝
⺸
⺼
⿰
⿱
⿲
⿳
⿴
⿵
⿶
⿷
⿸
⿹
⿺
⿻
、
〢
え
も
ん
゙
コ
ト
ユ
ラ
㇁
㇂
㇄
㇇
㇈
㇉
㇓
㐁
㐄
㐅
㐌
㐫
㐬
㐭
㐮
㐱
㑒
㒵
㒸
㒼
㓁
㓞
㔾
㕛
㕣
㖾
㘝
㚅
㚇
㚔
㚘
㝉
㝡
㝴
㝵
㞋
㞢
㞷
㠩
㠭
㠯
㡀
㡭
㡿
㢲
㢴
㣇
㣺
㥯
㪅
㫄
㫐
㫒
㫺
㬅
㬎
㬥
㬰
㲋
㳄
㷠
㸒
㸚
㸦
㼌
㼲
㽞
㿟
䀠
䂞
䍃
䏍
䒑
䖍
䖒
䖝
䖵
䙴
䚻
䜌
䝿
䡛
䧹
䪞
一
丁
丂
七
丄
丅
丆
万
丈
三
上
下
丌
不
与
丏
丐
丑
专
且
丕
世
丘
丙
业
东
丞
丢
丣
两
严
並
丨
丩
个
丫
丬
中
丮
丰
丱
串
丵
丶
丷
丸
丹
为
主
丽
丿
乀
乂
乃
久
乆
乇
么
义
之
乌
乍
乎
乏
乐
乑
乔
乖
乗
乘
乙
乚
乛
乜
九
乞
也
习
乡
乳
乾
亀
亅
了
亇
予
争
事
二
亍
于
亏
亐
云
互
亓
五
井
亘
亚
亜
亞
亟
亠
亡
亢
交
亥
亦
产
亨
亩
享
京
亭
亮
亯
亰
亲
亳
亶
亷
人
亻
亼
亾
仁
今
介
仌
从
仐
仑
仒
仓
仕
他
付
仝
代
令
以
任
企
伊
伏
伐
休
会
伯
但
位
何
佘
余
作
佥
使
來
侈
侌
侖
侯
侵
便
保
俞
信
修
倉
倍
候
倠
備
僉
僕
儿
兀
允
兂
元
兄
充
兆
兇
先
光
兊
克
兌
免
兑
兒
兓
兔
党
兜
兟
入
全
兩
兪
八
公
六
兮
兰
共
关
兵
其
具
典
兹
兼
冀
冂
冃
冄
内
冈
冉
冊
冋
册
再
冎
冏
冐
冒
冓
冖
冗
冘
军
农
冝
冡
冥
冫
冬
冷
几
凡
凢
凵
凶
凷
凸
凹
出
函
凾
刀
刁
刂
刃
刄
刅
分
切
刍
刑
刕
刖
列
刘
则
初
別
利
别
到
制
刺
則
削
剌
前
剡
剽
劉
力
功
加
劦
助
劫
劳
劵
勃
勇
勉
勒
動
務
勞
勤
勹
勺
勻
勾
勿
匀
匂
包
匆
匈
匊
匋
匍
匕
化
北
匚
匝
匡
匪
匱
匸
匹
区
医
匽
匿
區
十
卂
千
卄
卅
卆
升
午
卉
半
卌
华
卑
卒
卓
单
卖
南
卜
卝
卞
占
卡
卢
卣
卤
卦
卩
卪
卬
卯
印
危
即
却
卵
卷
卸
卻
厂
厃
厄
历
厈
厉
厌
厓
厘
厚
原
厤
厥
厨
厭
厲
厶
厷
厸
去
厼
厽
叀
参
參
叅
又
叉
及
友
双
反
叐
发
叒
叔
叕
取
受
叚
叜
叟
口
古
句
另
叩
只
召
可
台
叱
史
右
叵
号
司
叹
吂
各
吅
合
吉
吊
吋
同
名
后
吏
向
吕
君
吝
吞
否
含
启
吳
吴
吹
吾
呂
呆
呈
告
员
呙
周
命
咅
和
咎
咠
咢
咨
咸
咼
哀
品
哉
員
哥
哲
唐
商
啇
問
啚
啬
啻
善
喜
喬
單
喿
嗇
噩
嚴
囊
囗
囘
囙
囚
四
回
囟
因
囧
囬
困
囱
囷
固
国
圂
圅
國
圍
圓
土
圡
圣
圥
在
圭
地
圶
圼
坐
坒
坚
坴
垂
垔
垚
埀
埋
埶
執
基
堂
堅
堆
堇
堯
塞
墨
壘
士
壬
壯
声
壳
壴
壹
壺
壽
夂
处
夅
夆
备
夊
夋
夌
复
夏
夒
夕
外
夗
夘
多
夜
夢
大
夨
天
太
夫
夬
夭
央
失
夲
头
夷
夸
夹
夻
夾
奂
奄
奇
奈
奉
奎
奏
奐
契
奓
奔
奚
奞
奠
奢
奥
奭
女
奴
奻
好
如
妄
妙
妟
妥
妻
妾
姑
委
姜
威
娄
婁
婴
嬰
嬴
子
孑
孔
孕
孖
字
存
孚
孛
孝
孟
季
孤
学
孫
孱
學
宀
宁
宂
它
宅
宇
守
安
宋
完
宏
宓
宗
官
定
宛
宜
宝
客
宣
室
宮
宰
害
家
容
宾
宿
寄
寅
密
富
寒
察
寧
審
寫
寬
寮
寸
对
寺
寻
寽
対
寿
封
尃
射
将
將
專
尉
尊
尋
尌
對
小
少
尒
尓
尔
尖
尗
尚
尞
尢
尣
尤
尧
尨
尭
就
尸
尹
尺
尻
尼
尽
尾
尿
局
居
屈
屋
屎
屏
屑
展
屖
屚
属
屠
屡
屬
屮
屯
屰
山
屵
屾
岁
岂
岑
岡
岩
岳
岸
峯
島
崇
崑
崔
崖
崙
崩
嵬
嶲
巂
巛
川
州
巟
巠
巢
巤
工
左
巧
巨
巩
巫
差
己
已
巳
巴
巷
巸
巽
巾
巿
帀
市
布
希
帚
帛
帝
带
師
席
帶
常
干
平
年
幵
并
幷
幸
幺
幻
幼
幽
幾
广
広
庄
床
底
店
庚
府
度
庫
庭
庶
康
庸
廉
廌
廛
廣
廩
廴
延
廷
建
廾
廿
开
弁
弃
弄
弇
弋
式
弓
弔
引
弗
弘
弜
弟
弥
弦
弱
張
強
强
彊
彌
彎
彐
彑
当
彔
录
彖
彗
彡
形
彥
彦
彧
彭
彳
役
彼
往
待
律
徒
得
徙
從
復
微
徵
心
忄
必
忌
忍
志
忝
忠
忩
快
念
忽
忿
思
怠
急
怱
恆
恒
恩
恭
息
悉
患
悤
悲
悶
惠
惡
惢
愁
愈
意
愛
感
慈
慧
慮
憂
憲
應
戀
戈
戉
戊
戋
戌
戍
戎
成
我
戒
戔
或
戚
戠
戢
截
戲
戶
户
戹
戼
戾
房
所
扁
扇
手
扌
才
打
托
执
承
折
拉
拜
拿
掌
推
提
摩
支
攴
攵
收
攸
改
放
政
敄
敏
敕
敖
敗
敝
敞
敢
散
敦
敫
敬
数
敷
數
斂
文
斉
斊
斗
斤
斥
斩
斬
斯
新
方
於
施
斿
旁
旋
族
无
旡
既
旣
日
旦
旧
旨
早
旬
旱
旲
时
旾
昆
昇
昌
昍
明
昏
易
昔
昗
昜
星
春
昬
是
昱
昴
昷
時
晃
晋
晏
普
景
晶
智
暑
暴
曇
曩
曰
曲
曳
更
曷
書
曹
曼
曾
替
最
朁
會
月
有
朋
服
朔
朕
朗
望
朝
木
朩
未
末
本
札
朮
术
朱
朵
朶
朿
杀
杏
杜
束
条
来
東
杲
杳
松
析
林
枚
果
枝
枲
枼
某
柔
查
柬
柰
柴
栗
桀
桑
桼
梁
條
梟
梨
棘
棠
棥
森
楚
業
楽
榮
樂
樊
欠
次
欣
欮
欲
欶
欽
款
歆
歇
歛
止
正
此
步
武
歨
歪
歮
歯
歰
歲
歴
歷
歸
歹
歺
死
殳
段
殷
殸
殹
殺
殻
殿
毋
毌
母
每
毒
比
毕
毚
毛
毳
氏
氐
民
气
氣
水
氵
氶
氷
永
氺
氾
求
汝
汞
江
沃
沓
沙
沝
泉
法
波
泣
泥
泰
洛
洪
活
派
流
浦
浪
浮
淡
淮
清
渚
渠
港
湯
滿
漸
澳
灣
火
灬
灭
灰
灵
灷
炅
炎
炏
炗
炙
炭
為
烈
烏
烝
焉
無
焦
焱
然
煞
熊
熏
燕
營
燮
爪
爫
爭
爯
爰
爱
爲
爵
父
爻
爽
爾
爿
片
牙
牚
牛
牜
牟
牢
牧
牪
牽
犀
犬
犭
犮
狂
狄
狊
独
狺
猋
猒
猪
献
獻
玄
率
玉
王
玟
玨
珎
班
琴
瑟
瑩
瓜
瓦
甘
甚
生
産
用
甫
甬
田
由
甲
申
电
甶
男
甸
甹
画
甾
畀
界
畏
畐
留
畜
畟
畢
畧
畨
番
畫
異
畱
當
畺
畾
疊
疋
疌
疑
疒
疾
癶
癸
癹
登
發
白
百
皀
皃
的
皆
皇
皋
皐
皕
皮
皷
皿
盃
盆
盇
盈
益
盍
盎
监
盒
盖
盛
盡
監
盤
盧
目
直
相
盾
省
眇
眉
看
眔
眞
真
眷
眼
眾
着
睘
睪
睿
瞏
瞢
瞿
矍
矛
矞
矢
矣
知
矦
短
石
破
碎
磊
磨
示
礻
礼
祟
票
祭
禀
禁
禸
禹
禺
离
禽
禾
禿
秀
秃
秉
秋
科
秝
秦
移
稟
穀
穌
穴
究
穹
空
穿
突
窄
窒
立
竒
竜
竝
竟
章
童
竹
笑
笠
筆
等
答
箕
算
箴
節
篤
篭
米
粉
粛
粟
粤
粦
粲
糞
糸
糹
系
約
納
素
索
紫
累
細
絜
絫
絲
維
綿
縣
繇
纍
纟
缶
网
罒
罔
罕
罗
罙
罡
罢
罪
署
罷
羅
羊
羌
羍
美
羔
羕
羗
羞
羡
羣
群
義
羲
羸
羽
翁
翏
習
翕
翟
翠
翼
老
耂
考
者
耆
而
耎
耑
耒
耳
耴
耶
耷
聂
聊
聖
聚
聶
聿
肀
肃
肅
肉
肖
肙
肥
肩
肯
育
肴
胃
背
胡
胥
能
脊
脩
膚
臣
臤
臧
自
臬
臭
臯
臱
至
致
臺
臼
臽
臾
臿
舀
舂
舄
與
興
舉
舌
舍
舛
舜
舞
舟
般
艮
良
色
艸
艹
艾
芒
芔
芬
芮
花
芳
芺
芻
苔
苗
苟
若
苦
英
茶
茸
荅
草
荒
荣
荼
莆
莧
莫
莽
菆
菊
菐
華
萬
落
葉
著
葛
董
葵
蒙
蒦
蒼
蓋
蓬
蓺
蔑
蔡
蕉
蕭
薄
薛
薦
薰
藍
藏
藥
蘭
虍
虎
虐
虒
虔
處
虖
虗
虘
虚
虛
虜
虞
虫
虽
蚤
蚩
蜀
蜜
蟲
蠡
血
行
衍
衛
衣
衤
表
衮
衰
袁
袞
褭
褱
襄
襾
西
覀
要
覃
見
規
覓
覧
親
覽
见
角
解
言
訁
訇
計
詹
語
誩
諸
讠
议
谷
豆
豈
豊
豐
豕
豖
豙
象
豦
豩
豪
豸
貇
貝
貞
貟
負
貢
貧
貪
貫
責
貳
貴
買
費
賁
資
賈
賏
賓
賔
賛
賞
賢
賣
質
賴
贊
贝
贡
责
贯
贲
贵
赖
赞
赤
赦
走
越
足
路
蹇
身
躬
車
軍
軎
軟
輦
车
辛
辜
辟
辥
辰
辱
農
辵
辶
边
达
过
近
连
迷
追
退
送
逆
逐
通
速
造
逢
連
逮
進
遀
遂
過
道
達
遣
適
遷
遺
邊
邑
邕
那
邦
邪
郎
部
郭
都
鄉
酉
酋
配
酓
釆
采
里
重
野
量
金
釒
錢
钅
長
镸
长
門
閃
閉
開
閏
閑
閒
間
閔
閵
閻
闌
门
间
闷
阑
阜
阝
阿
降
陳
隆
隊
隋
隡
隨
隱
隶
隹
隺
隻
隼
隽
难
雀
雁
集
雈
雋
雍
雐
雔
雙
雚
雜
雝
離
難
雨
雩
雪
雲
零
雷
需
霍
霜
霝
霞
霸
靈
靑
青
非
靡
面
靣
革
韋
韦
韭
韯
韱
音
頁
頃
項
須
頗
頡
頻
顛
页
顺
風
风
飛
飞
食
飠
養
饣
首
香
馬
馮
駦
马
骨
高
髟
鬥
鬯
鬲
鬼
魚
魯
鮮
鱼
鲁
鳥
鳳
鸟
鹵
鹿
麃
麗
麥
麦
麻
黃
黄
黍
黎
黑
黒
黨
黹
黽
黾
鼎
鼓
鼠
鼻
齊
齋
齐
齒
齿
龍
龙
龜
龟
龠
龰
龱
龴
龵
龶
龷
龸
龹
者
艹
？
🜨
𠀁
𠀃
𠀆
𠀉
𠀎
𠀐
𠁁
𠁣
𠂆
𠂇
𠂈
𠂉
𠂊
𠂋
𠂎
𠂒
𠂔
𠂛
𠂡
𠂢
𠂤
𠂬
𠂭
𠂹
𠃊
𠃋
𠃌
𠃍
𠃎
𠃑
𠃓
𠃔
𠃜
𠄌
𠄎
𠄠
𠄢
𠆢
𠆥
𠇍
𠈌
𠌵
𠓜
𠔉
𠔥
𠔼
𠔽
𠔿
𠕀
𠕁
𠕋
𠘧
𠘨
𠙻
𠙼
𠚏
𠚒
𠚤
𠚪
𠣏
𠤎
𠤕
𠥓
𠦄
𠦑
𠦝
𠧒
𠧗
𠧪
𠩺
𠪚
𠫓
𠫔
𠫤
𠬛
𠬝
𠬞
𠬢
𠬤
𠬶
𠮛
𠮦
𠮷
𠯑
𠱠
𠳮
𠷎
𡈼
𡉀
𡉵
𡌥
𡍮
𡏳
𡕒
𡕩
𡕰
𡖅
𡗗
𡗜
𡘆
𡘤
𡧱
𡨄
𡩧
𡬠
𡭽
𡰣
𡰥
𡰪
𡰯
𡰱
𡷈
𡸁
𡿨
𡿩
𡿪
𡿺
𢀖
𢀛
𢀩
𢁙
𢆉
𢆰
𢆶
𢇁
𢇇
𢉖
𢌬
𢌿
𢏚
𢑑
𢑚
𢖻
𢙣
𢛳
𢦏
𢦒
𢧵
𢼄
𢾕
𣁋
𣄼
𣅀
𣅽
𣍘
𣎳
𣎵
𣏋
𣏼
𣗥
𣥂
𣥖
𣦵
𣦼
𣧄
𣪊
𣪠
𣬉
𣳾
𣶒
𤇾
𤊽
𤐫
𤓰
𤔔
𤕨
𤣩
𤰇
𤰔
𤰞
𤴓
𤴔
𤽄
𥁑
𥁕
𥃦
𥃩
𥃭
𥇡
𥑟
𥘅
𥘈
𥝢
𥫗
𥱡
𦈢
𦉪
𦉬
𦉼
𦍌
𦍒
𦎧
𦐇
𦓔
𦔮
𦘒
𦙃
𦚏
𦣝
𦣞
𦣻
𦥑
𦥔
𦥯
𦨉
𦭝
𦰩
𧆞
𧈧
𧘇
𧰨
𧴪
𧴮
𧵩
𧾷
𨸏
𨾴
𩙿
𩠐
𩫏
𩵋
𪉷
𪜀
𪟽
𪠲
𪩲
𫇦
𫔭
𫜸
𫝀
𫠣
𫠩
𫢉
𫥞
𫩏
𫩠
𫪡
𫲽
𫶧
𬀷
𬐘
𬗌
𬙙
𬛸
𬜯
𬟩
𬯁
𬴘
𬺻
𬼉
𬼖
𭀰
𭁈
𭁨
𭅰
𭑈
𭕄
𭗼
𭤨
𭥫
𭻾
𮅕
𮊿
𮍌
𮍏
𮓗
𮥼
𮧮
廾
𰀁
𰀄
𰀈
𰀉
𰀕
𰀠
𰀡
𰀢
𰀪
𰁜
𰃮
𰆊
𰆘
𰋙
𰕎
𰢴
𰧭
𰯲
0--
11--
16--
17--
18--
19--
2--
3--
4--
5--
6--
7--
73--
8--
88--
9--
a--
ab--
ac--
ad--
adi--
ag--
ai--
aigui--
aize--
ak--
al--
ala--
all--
alle--
allon--
am--
amb--
amba--
ami--
amu--
an--
ang--
ap--
apa--
appa--
ar--
ara--
arche--
argen--
arren--
arti--
as--
assi--
assisompu--
at--
ato--
atto--
au--
aub--
aubig--
aus--
auto--
av--
ay--
az--
b--
ba--
bac--
bah--
bai--
bal--
ban--
bar--
barbe--
bas--
bau--
baudre--
baul--
be--
beau--
bel--
belle--
belli--
ben--
ber--
berna--
bes--
bet--
beu--
beug--
bey--
bi--
bid--
bill--
bis--
biz--
bl--
bla--
blan--
blo--
bo--
bol--
bom--
bon--
bonne--
bos--
bot--
bou--
bouc--
bour--
bous--
bra--
bran--
bre--
bri--
bros--
bru--
bu--
bud--
bug--
bur--
bus--
c--
ca--
cab--
cad--
cakku--
cal--
cam--
can--
car--
cas--
cat--
cau--
caz--
caza--
caze--
cc--
ccp--
ce--
cen--
cer--
ces--
ch--
cha--
chabril--
chai--
cham--
champ--
chantr--
char--
chas--
chau--
chav--
chaze--
che--
chev--
chi--
cho--
chou--
chris--
ci--
cin--
civ--
cla--
co--
cog--
col--
com--
con--
cor--
cos--
cou--
cour--
cous--
coutu--
cro--
crou--
cru--
cu--
cultu--
cur--
cus--
d--
da--
dal--
dam--
dar--
de--
den--
des--
dev--
dey--
di--
dis--
do--
dom--
domi--
don--
donne--
dor--
dou--
dour--
dru--
du--
dur--
e--
eau--
el--
emo--
en--
entr--
ep--
er--
es--
espin--
esta--
et--
eu--
ex--
explo--
ey--
f--
fa--
fab--
fal--
far--
fau--
fe--
fer--
fes--
fi--
fig--
fin--
fir--
fla--
fleu--
fli--
flo--
fo--
fois--
fol--
fon--
for--
fou--
fouil--
four--
fr--
fran--
fre--
fri--
fro--
fron--
fu--
g--
ga--
gam--
gan--
gang--
gar--
gau--
ge--
gel--
gen--
genoui--
ger--
gi--
gig--
gil--
gili--
giron--
gl--
go--
gol--
gon--
gor--
gou--
gour--
gra--
grail--
grand--
gri--
grig--
gros--
gru--
gu--
gug--
gui--
guil--
h--
ha--
han--
har--
hen--
her--
hi--
ho--
hor--
hos--
hou--
hous--
hu--
hui--
hy--
i--
ibu--
ig--
il--
im--
in--
inter--
ira--
is--
it--
iz--
j--
ja--
jan--
jar--
jas--
jau--
jaya--
je--
jen--
jo--
jon--
jou--
jour--
ju--
jum--
jume--
juv--
k--
ka--
kal--
kan--
kar--
ke--
kem--
ken--
ki--
kka--
ko--
kom--
ku--
kuma--
kwar--
l--
la--
lab--
lac--
lafi--
lag--
lai--
lain--
lak--
lalou--
lam--
lamas--
lan--
laneu--
lap--
lar--
laro--
las--
lau--
lav--
lay--
le--
leig--
len--
ler--
les--
leu--
ley--
lh--
li--
lib--
lieu--
lig--
lim--
lin--
lis--
lo--
lom--
lomp--
long--
lor--
lou--
lour--
lu--
lub--
lus--
ly--
m--
ma--
mab--
mabi--
made--
mag--
mai--
maj--
mak--
makka--
makke--
makki--
makko--
makku--
mal--
malo--
mam--
man--
mang--
manu--
manz--
map--
mappa--
mar--
mara--
mari--
mas--
mat--
mau--
maure--
max--
may--
mazi--
me--
mel--
men--
mer--
mes--
mey--
mi--
mig--
mil--
mina--
mire--
mo--
mol--
mon--
mont--
mor--
mou--
mous--
mpuk--
mu--
mus--
n--
na--
nai--
nal--
nala--
nam--
nan--
nap--
napu--
nar--
nari--
nas--
natu--
ne--
neder--
neu--
neuf--
ni--
nis--
no--
nob--
non--
nor--
nou--
nu--
ny--
nya--
o--
ob--
oi--
ol--
oli--
on--
ope--
or--
os--
ou--
oul--
our--
p--
pa--
pab--
pabbe--
pag--
pail--
pak--
pakkase--
pal--
pallawa--
pam--
pan--
pang--
pano--
par--
pari--
pas--
pat--
pav--
pe--
pen--
per--
peru--
pes--
pey--
peyro--
pi--
pil--
piz--
pl--
pla--
plan--
plo--
po--
poi--
poil--
pol--
pols--
pom--
posi--
pou--
pra--
prade--
pran--
pres--
pri--
pro--
prov--
pru--
pu--
q--
qu--
quey--
qui--
quin--
r--
ra--
ram--
ramon--
rau--
re--
reg--
rei--
rem--
remi--
remo--
ren--
res--
rev--
rey--
ri--
riap--
ribe--
riche--
rig--
ril--
ripa--
ripam--
ris--
ro--
roin--
rol--
ron--
roque--
ros--
rou--
rouil--
ru--
rus--
s--
sa--
sab--
sac--
sai--
sail--
sal--
sali--
saliwen--
sam--
san--
sang--
sangg--
sar--
sas--
sau--
saul--
saus--
sauv--
savig--
scri--
se--
sen--
ser--
serau--
seri--
sey--
seys--
si--
sia--
sic--
sig--
sil--
sin--
sk--
so--
sof--
soft--
som--
sompa--
sor--
sou--
sp--
spec--
spi--
sta--
str--
stu--
su--
sul--
sum--
sur--
sus--
sw--
sy--
t--
ta--
taille--
tal--
tam--
tan--
tanim--
tap--
tar--
tas--
tau--
te--
teau--
tel--
tem--
ten--
ter--
th--
then--
thi--
tho--
thou--
thu--
ti--
tit--
to--
tod--
toma--
tor--
tos--
tou--
tr--
tra--
tre--
trei--
tri--
tro--
trou--
tru--
tu--
tuka--
tul--
u--
uku--
ul--
un--
ur--
us--
ut--
v--
va--
val--
vau--
vaud--
ve--
ven--
vend--
ver--
ves--
vey--
vi--
vid--
vien--
vig--
vigno--
vil--
villa--
ville--
vin--
vio--
vis--
vo--
vol--
von--
vou--
vre--
w--
wa--
war--
we--
wi--
wil--
wis--
x--
y--
ya--
yor--
z--
ze--
zen--
zil--
zin--
ᨀ--
ᨀᨌ--
ᨁ--
ᨂ--
ᨄ--
ᨅ--
ᨆ--
ᨆᨄ--
ᨇ--
ᨈ--
ᨉ--
ᨊ--
ᨌ--
ᨍ--
ᨎ--
ᨏ--
ᨐ--
ᨑ--
ᨒ--
ᨓ--
ᨔ--
ᨕ--
ᨖ--
--0
--05
--09
--1
--2
--26
--3
--31
--37
--39
--4
--41
--42
--43
--49
--5
--51
--54
--6
--62
--66
--69
--7
--71
--73
--74
--75
--76
--77
--79
--8
--81
--82
--86
--9
--91
--92
--93
--94
--96
--97
--99
--a
--ac
--ae
--ah
--ai
--ail
--aire
--ak
--al
--an
--ang
--angngi
--ania
--ant
--ar
--ard
--ari
--as
--ast
--at
--au
--aux
--ay
--aŋ
--b
--ba
--bach
--be
--bel
--bes
--bi
--bon
--c
--ca
--cault
--ce
--ces
--cet
--cey
--ch
--ci
--ck
--con
--court
--cq
--cs
--cus
--cy
--d
--da
--de
--di
--dia
--dian
--do
--don
--dray
--dry
--ds
--e
--eau
--ed
--eins
--eix
--el
--en
--eng
--enna
--ens
--er
--eron
--ers
--es
--et
--eux
--ey
--f
--fa
--ff
--ffe
--fi
--fond
--fs
--g
--ga
--gae
--gan
--ge
--genna
--gi
--gia
--gian
--gis
--gna
--gnan
--gnat
--gne
--gney
--gnge
--gngi
--gny
--gon
--gu
--gun
--gy
--h
--ha
--hac
--hah
--he
--heim
--hel
--hes
--hi
--hy
--i
--ia
--ic
--ich
--ide
--ie
--ien
--ier
--iers
--ieu
--if
--ign
--ignan
--ignat
--igne
--ik
--iki
--il
--illes
--illy
--in
--ina
--ine
--ines
--ing
--ins
--ion
--ir
--ire
--is
--isasi
--ise
--isse
--it
--iwi
--ix
--ize
--ja
--jac
--jai
--ji
--jo
--ju
--k
--ka
--kan
--kang
--ke
--keng
--kenna
--kep
--ki
--kiya
--ko
--ku
--l
--la
--lah
--lay
--ld
--le
--let
--ley
--lhac
--li
--lin
--ling
--lk
--ll
--lla
--lle
--lles
--lli
--llon
--llui
--lly
--lo
--lon
--lot
--ls
--lt
--lu
--ly
--m
--ma
--mad
--man
--mant
--mat
--mbia
--me
--men
--mi
--mo
--mon
--mond
--mont
--motier
--mpa
--mpe
--mpi
--mps
--ms
--mu
--n
--na
--nais
--nan
--nas
--nave
--nay
--nc
--nce
--ncy
--nd
--ndre
--ne
--nes
--net
--nex
--ng
--nge
--ngeng
--ngenna
--ngi
--ngnge
--ni
--nia
--nna
--nne
--nnes
--nni
--nnna
--no
--non
--nous
--noy
--ns
--nsan
--nt
--nta
--nte
--nto
--ntu
--ntua
--ntue
--nty
--ny
--nya
--nza
--o
--od
--ois
--oix
--ol
--omme
--ompae
--on
--onal
--ons
--ont
--or
--os
--ost
--ot
--ou
--ours
--ourt
--ous
--ousse
--oux
--oy
--p
--pa
--pan
--pas
--pe
--peau
--pi
--pot
--ppes
--pre
--ps
--pt
--pteuil
--py
--q
--quier
--r
--ra
--ral
--ras
--rc
--rce
--rcq
--rd
--rde
--rdy
--re
--rel
--reng
--renna
--ri
--ria
--riac
--rin
--rine
--rive
--rm
--rnas
--rno
--rny
--ro
--rolles
--rols
--ron
--ros
--rp
--rre
--rs
--rt
--ru
--runna
--ry
--s
--sa
--sac
--san
--sas
--sat
--sc
--script
--se
--seng
--set
--sey
--sh
--si
--sin
--sne
--so
--son
--ss
--ssac
--ssay
--sse
--sses
--ssi
--ssu
--ssy
--st
--stan
--ste
--su
--sy
--t
--ta
--taine
--tal
--tan
--tat
--te
--ten
--ti
--tik
--tin
--ting
--tion
--to
--ton
--tor
--ts
--tta
--tte
--tu
--tun
--ty
--tz
--u
--ua
--ube
--ud
--uds
--ue
--ues
--uf
--uil
--uilh
--ul
--ule
--ult
--um
--un
--ung
--upt
--ur
--ure
--urs
--uru
--us
--use
--usse
--ussy
--ut
--uve
--ux
--uy
--v
--va
--val
--vant
--vas
--ve
--vigne
--vois
--vy
--w
--wa
--wan
--way
--we
--wi
--wk
--wo
--x
--xey
--xy
--y
--ya
--ye
--yer
--yes
--yi
--yre
--ys
--z
--za
--zas
--zay
--ze
--zel
--zia
--zil
--zio
--zon
--zy
--ŋ
--ᨀ
--ᨁ
--ᨂ
--ᨄ
--ᨅ
--ᨆ
--ᨇ
--ᨈ
--ᨉ
--ᨊ
--ᨍ
--ᨐ
--ᨑ
--ᨒ
--ᨓ
--ᨔ
--ᨕ
