!
"
#
##0
##1
##10
##11
##12
##13
##14
##15
##16
##17
##18
##19
##2
##20
##21
##22
##23
##24
##25
##26
##27
##28
##29
##3
##30
##31
##32
##33
##34
##35
##36
##37
##38
##39
##4
##40
##41
##42
##43
##44
##45
##46
##47
##48
##49
##5
##50
##51
##52
##53
##54
##55
##56
##57
##58
##59
##6
##60
##61
##62
##63
##64
##65
##66
##67
##68
##69
##7
##70
##71
##72
##73
##74
##75
##76
##77
##78
##79
##8
##80
##81
##82
##83
##84
##85
##86
##87
##88
##89
##9
##90
##91
##92
##93
##94
##95
##96
##97
##98
##99
$
%
&
'
(
)
*
+
,
-
.
/
0
00
000
001
002
003
004
005
006
007
008
009
01
010
011
012
013
014
015
016
017
018
019
02
020
021
022
023
024
025
026
027
028
029
03
030
031
032
033
034
035
036
037
038
039
04
040
041
042
043
044
045
046
047
048
049
05
050
051
052
053
054
055
056
057
058
059
06
060
061
062
063
064
065
066
067
068
069
07
070
071
072
073
074
075
076
077
078
079
08
080
081
082
083
084
085
086
087
088
089
09
090
091
092
093
094
095
096
097
098
099
1
10
100
1000
1001
101
1012
1015
102
1024
103
1037
104
105
106
1060
107
108
1080
1085
109
1091
1095
1096
1097
1098
1099
11
110
1100
1101
1102
111
1111
1113
1118
112
1122
1127
113
1130
1133
1138
1139
114
1140
1141
1143
1147
115
1150
1152
1153
1155
116
1161
1162
1163
1164
1165
117
1172
1174
1177
1179
118
1187
1188
1189
119
1190
1191
1192
1193
1195
1196
1197
1198
1199
12
120
1200
1201
1202
1204
1207
1209
121
1212
1213
1216
1217
122
1220
1221
1222
1225
1226
1227
1228
1229
123
1233
1238
1239
124
1240
1241
1248
125
1250
1251
1253
1259
126
1260
1261
1262
1264
1265
1266
1267
127
1270
1271
1272
1276
1278
128
1280
1281
1282
1284
1285
1288
1289
129
1290
1291
1293
1294
1296
1297
1298
1299
13
130
1300
1301
1302
1303
1304
1306
1307
1308
1309
131
1310
1311
1313
1314
1315
1317
1318
132
1320
1321
1325
1326
1328
1329
133
1330
1335
1336
1337
1339
134
1340
1341
1342
1343
1344
1345
1346
1347
135
1350
1352
1353
1354
1356
1357
136
1362
1363
1365
1366
1367
1368
137
1370
1374
1375
1377
1378
1379
138
1380
1381
1383
1385
1386
1387
1389
139
1390
1393
1394
1395
1396
1397
1398
14
140
1400
1402
1403
1404
1405
141
1410
1411
1413
1415
1417
1418
142
1420
1421
1423
1424
1425
1427
1428
1429
143
1430
1431
1432
1433
1434
1435
1436
1437
1438
1439
144
1440
1441
1442
1443
1444
1445
1446
1447
1448
1449
145
1450
1451
1452
1453
1454
1455
1456
1457
1458
1459
146
1460
1461
1462
1464
1465
1466
1467
1469
147
1470
1471
1472
1473
1474
1475
1476
1477
1478
1479
148
1480
1481
1482
1483
1484
1485
1486
1487
1488
149
1490
1492
1493
1494
1495
1496
1497
1498
1499
15
150
1500
1501
1502
1503
1504
1505
1506
1507
1508
1509
151
1510
1511
1512
1513
1514
1515
1516
1517
1518
1519
152
1520
1521
1522
1523
1524
1525
1526
1527
1528
1529
153
1530
1531
1532
1533
1534
1535
1536
1537
1538
1539
154
1540
1541
1542
1543
1544
1545
1546
1547
1548
1549
155
1550
1551
1552
1553
1554
1555
1556
1557
1558
1559
156
1560
1561
1562
1563
1564
1565
1566
1567
1568
1569
157
1570
1571
1572
1573
1574
1575
1576
1577
1578
1579
158
1580
1581
1582
1583
1584
1585
1586
1587
1588
1589
159
1590
1591
1592
1593
1594
1595
1596
1597
1598
1599
16
160
1600
1601
1602
1603
1604
1605
1606
1607
1608
1609
161
1610
1611
1612
1613
1614
1615
1616
1617
1618
1619
162
1620
1621
1622
1623
1624
1625
1626
1627
1628
1629
163
1630
1631
1632
1633
1634
1635
1636
1637
1638
1639
164
1640
1641
1642
1643
1644
1645
1646
1647
1648
1649
165
1650
1651
1652
1653
1654
1655
1656
1657
1658
1659
166
1660
1661
1662
1663
1664
1665
1666
1667
1668
1669
167
1670
1671
1672
1673
1674
1675
1676
1677
1678
1679
168
1680
1682
1683
1684
1685
1686
1687
1688
1689
169
1690
1692
1693
1694
1695
1696
1697
1698
1699
17
170
1700
1701
1702
1703
1704
1705
1706
1707
1708
1709
171
1710
1711
1712
1713
1714
1715
1716
1717
1718
1719
172
1720
1721
1722
1723
1724
1725
1726
1727
1728
1729
173
1730
1731
1732
1733
1734
1735
1736
1737
1738
1739
174
1740
1741
1742
1743
1744
1745
1746
1747
1748
1749
175
1750
1751
1752
1753
1754
1755
1756
1757
1758
1759
176
1760
1761
1762
1763
1764
1765
1766
1767
1768
1769
177
1770
1771
1772
1773
1774
1775
1776
1777
1778
1779
178
1780
1781
1782
1783
1784
1785
1786
1787
1788
1789
179
1790
1791
1792
1793
1794
1795
1796
1797
1798
1799
18
180
1800
1801
1802
1803
1804
1805
1806
1807
1808
1809
181
1810
1811
1812
1813
1814
1815
1816
1817
1818
1819
182
1820
1821
1822
1823
1824
1825
1826
1827
1828
1829
183
1830
1831
1832
1833
1834
1835
1836
1837
1838
1839
184
1840
1841
1842
1843
1844
1845
1846
1847
1848
1849
185
1850
1851
1852
1853
1854
1855
1856
1857
1858
1859
186
1860
1861
1862
1863
1864
1865
1866
1867
1868
1869
187
1870
1871
1872
1873
1874
1875
1876
1877
1878
1879
188
1880
1881
1882
1883
1884
1885
1886
1887
1888
1889
189
1890
1891
1892
1893
1894
1895
1896
1897
1898
1899
19
190
1900
1901
1902
1903
1904
1905
1906
1907
1908
1909
191
1910
1911
1912
1913
1914
1915
1916
1917
1918
1919
192
1920
1921
1922
1923
1924
1925
1926
1927
1928
1929
193
1930
1931
1932
1933
1934
1935
1936
1937
1938
1939
194
1940
1941
1942
1943
1944
1945
1946
1947
1948
1949
195
1950
1951
1952
1953
1954
1955
1956
1957
1958
1959
196
1960
1961
1962
1963
1964
1965
1966
1967
1968
1969
197
1970
1971
1972
1973
1974
1975
1976
1977
1978
1979
1980
1981
1982
1983
1984
1985
1986
1987
1988
1989
199
1990
1991
1992
1993
1994
1995
1996
1997
1998
1999
2
20
200
2000
2001
2002
2003
2004
2005
2006
2007
2008
2009
201
2010
2011
2012
2013
2014
2015
2016
2017
2018
2019
2020
2021
2022
2023
203
204
205
206
207
208
209
21
210
211
212
213
214
215
216
217
218
22
220
221
222
223
225
226
227
228
229
23
230
231
232
233
235
236
237
238
239
24
240
241
242
243
244
245
246
247
248
249
25
250
251
252
253
254
255
257
258
259
26
260
261
262
263
264
265
266
267
268
269
27
270
271
272
273
274
275
276
278
279
28
280
281
282
283
284
285
286
287
289
29
290
291
292
293
294
296
297
298
299
3
30
300
3000
302
303
304
305
306
307
308
309
31
310
312
313
314
315
316
317
318
319
32
320
321
322
323
324
325
326
327
328
329
33
330
331
332
333
334
335
336
337
338
34
340
342
343
344
345
346
347
348
349
35
350
353
354
355
356
357
358
359
36
360
361
364
365
366
369
37
370
371
375
378
379
38
380
381
383
384
387
388
39
390
392
394
395
399
4
40
400
4000
401
402
404
40615
41
410
411
412
42
420
421
424
425
426
428
43
430
433
44
445
45
450
451
453
458
46
460
464
465
468
47
476
48
480
482
487
49
490
492
5
50
500
5000
506
508
509
51
518
52
520
521
525
53
531
535
537
54
540
541
546
55
550
56
560
562
564
568
569
57
570
58
580
582
585
586
59
590
594
596
6
60
600
6000
606
607
609
61
610
618
62
620
622
63
638
64
641
643
645
646
65
650
655
656
66
660
663
67
679
68
680
687
69
7
70
700
71
713
714
717
72
720
73
74
742
75
750
752
76
77
774
775
78
79
8
80
800
8000
801
804
809
81
811
814
82
83
84
842
843
85
850
852
854
86
860
87
88
888
889
89
891
9
90
900
91
914
92
928
93
935
94
940
95
950
958
959
96
967
97
970
973
978
979
98
980
99
990
993
999
:
;
<
=
>
?
@
\
^
_
`
a
aa
ab
aba
abac
abando
abandona
abandono
abandonæ
abandu
abanduna
abanduno
abao
abasi
abate
abba
abbandona
abbandonao
abbrac
abc
abe
abgar
abile
abilitæ
abilmente
abita
abitac
abitanti
abitasiu
abiti
abito
abitoa
abitu
abitudine
abitæ
abo
aboe
aboi
aboli
abolic
abonda
about
abr
abra
abrac
abraham
abreviac
abroga
abru
abrusso
abscide
abside
abu
abæn
ac
aca
acade
academia
academy
acapi
acapita
acapito
acase
acata
acato
acatto
accademia
accame
accatta
accatto
accenti
accento
access
acciappa
accidentale
accordi
accordio
accordo
accugeito
accuse
ace
acelerac
acento
acesci
acessu
aceta
aceto
acetæ
ache
achi
achille
aci
acianta
aciapa
acidi
acido
acipenseridae
acipenseriformes
aco
aconpagna
acordi
acordio
acqua
acquaro
acquaron
acquaviva
acque
acqui
acquista
acquisto
acquixic
acre
acri
acro
act
actinopterygii
action
actitis
acu
acuge
acugette
acumpagna
acura
acuza
acuzati
acuzo
ad
ada
adam
adammo
adata
adatame
adatta
adatto
adda
addio
ade
adegua
adelaide
adele
aderi
adesso
adeuvia
adeuvio
adeuviæ
adexo
adexon
adi
adixe
ado
adoc
adolf
adolfo
adorac
adorazione
adormi
adorna
adorni
adorno
adota
adotao
adoto
adotæ
adreitu
adria
adrian
adriano
adriatego
adu
adurnu
aduta
adœuvia
ae
aegithalos
aegua
aeiupo
aerea
aeree
aereo
aerial
aeronautica
aeroporto
aerospace
aerrei
afa
afacia
afacio
afe
aferma
afermac
afermo
afferma
affermac
affidao
affidæ
affluente
affreschi
affrica
affronta
affæ
affæto
afghanistan
afi
afia
afianca
afianco
afiao
afida
afido
afidæ
afloe
aflue
afluenti
afondæ
afr
afre
afresca
afreschi
afrescu
africa
african
africann
afroazia
afronta
afrunta
after
afæ
afæto
ag
aga
agata
age
agen
agenc
agency
agente
agenti
ageti
agge
aggian
aggio
aggiu
aggiutto
aghjaccinu
aghjacciu
agi
agiorna
agiorname
agios
agisce
agitac
agiu
agiurna
agiuta
agiuto
agiutta
agiutti
agiutto
agiutæ
agna
agne
agnelli
agni
agnime
agnolo
ago
agogna
agosti
agostin
agostino
agosto
agregac
agri
agricola
agricoltu
agricoltua
agricula
agricultu
agrigento
agrippa
agro
agru
agu
aguc
agugia
agustu
ah
ai
aia
aie
aiga
aigue
aime
aio
air
aires
airo
airole
airport
ais
aisci
aise
aiu
aiva
aivan
aix
aj
aja
ajasi
aje
ajetta
aju
al
ala
alabama
alaca
alain
alan
alanto
alarga
alargo
alaska
alassio
alau
alba
albane
albani
albania
albe
albellus
albenga
albergo
albero
albert
alberta
alberti
albertis
alberto
albertu
albingaunum
albini
albisola
albissola
albrecht
album
alcala
alcide
alco
alcune
alcuni
aldo
aldrovandi
alduin
ale
alea
alego
alegori
alenatoe
aleppo
alera
aleramica
aleramo
alescio
alessandra
alessandria
alessandro
alessi
alessio
alesti
alestimento
aleva
alevame
alexander
alexandre
aleæ
alfa
alfabe
alfabeto
alfonso
alfred
alfredo
algarotti
alge
algeri
algerin
ali
alia
alianc
alias
alicante
alice
alie
alien
alieno
aligned
alime
alimenta
alimentac
alimentari
alimentasion
alimenti
alimentæ
aliniæ
aliprando
aliyev
alize
aliæ
all
alla
allan
allarga
alle
allea
allenato
allevo
allia
allianc
alliao
alliæ
allo
alloa
allora
alme
almeri
aln
alo
aloa
alonghi
alontana
alontano
alpecian
alpes
alphonse
alpi
alpin
alpino
alps
als
alsa
also
alt
alta
altamura
altaraixi
altare
alte
alterac
alterna
alternati
alternativa
alternæ
altessa
altissimo
altitu
alto
altra
altre
altri
altro
altu
alu
aluvio
am
ama
amac
amadeo
amalfi
amalgama
amanca
amandoin
amante
amanti
amao
amar
amare
amasa
amasame
amaso
amasæ
amatori
amatoriale
amb
ambasciao
ambascioei
ambic
ambienta
ambiente
ambienti
ambito
ambrogio
ambrosiana
ambrœuxo
ame
amedeo
amegioa
amente
amento
amentu
america
american
americana
americann
americhe
americhen
amerma
amermo
amette
ami
amia
amiava
amici
amicis
amico
amie
amighevole
amigo
amigu
aminis
aministra
aministrac
aministrasiu
aministrasiun
aministrassio
aministrati
aministrativa
aministrato
aministratoi
aministratu
amintore
amio
amira
amirac
amirato
amish
amissi
amixi
amixic
amiæ
amma
ammassa
ammette
ammia
ammido
amministrac
amministrasiu
amministrati
amministrativa
ammisso
amo
amoi
amor
amore
amori
ampia
ampiamente
ampiec
ampio
amplia
ampliame
amsterdam
amt
amu
amugio
amundsen
an
ana
analisi
analixi
analiza
anallixi
anant
anarchica
anarchichi
anas
anatole
anatolia
anatomia
anbasciato
anbasciatoi
anbic
anbie
anbienta
anbiente
anbre
anc
anca
anch
anche
ancheu
ancien
ancient
ancio
anciue
anco
ancon
anconn
ancora
ancu
ancua
ancun
ancura
ancœu
and
anda
andalo
andando
andandu
andar
andare
andava
andavan
andaxe
ande
andersen
andes
andesse
andia
andio
ando
andon
andora
andre
andrea
andreini
andrew
andri
andria
andrieu
androni
andæ
andæta
andæti
andæto
ane
anelli
anello
anescio
anessa
anestetico
anfi
anfitia
angeles
angeli
angelico
angelo
angeo
angero
angio
angiou
anglo
ango
angola
angoli
angolo
anguilla
anguissola
ani
ania
anidride
anima
animac
animal
animali
animalia
animalium
animatoi
anime
animo
animæ
ankara
anna
annales
annali
annalista
anne
annescion
anni
annia
annie
annima
anno
annonc
annu
annua
annunzio
annus
annæ
ano
anoa
anonc
anonciac
anonima
anonimo
anpi
anpiame
anplia
anpliame
anplio
ans
ansa
ansado
ansaldo
anselmi
anselmo
ansi
ant
anta
antartego
antartide
ante
anteno
antenæ
anterio
anthony
anti
antibiotici
antic
antica
anticaro
antichi
antichita
antico
anticorpi
antifascisti
antiga
antigame
antigamente
antighe
antighi
antighitæ
antigo
antigu
antille
antio
antiochia
antioco
antipsara
antivirus
anto
antoa
antogno
antoine
antologia
anton
antonello
antoni
antonino
antonio
antoniotto
antoniu
antoon
antropologia
antuni
anu
anula
anunc
anversa
any
anze
anzio
anæta
anæto
ao
aoa
aogu
aogusto
aomanco
aome
aomenta
aomento
aora
aosta
aosti
aostin
aostri
aostria
aostriaca
aostriachi
aostriaco
aostro
aotentic
aotentica
aotentico
aoto
aotobiografia
aotoi
aotonomi
aotonomia
aotoritræto
aotoritæ
aotorizzac
aotostra
aotu
aotunno
ap
apa
apare
aparecchi
aparente
aparentemente
aparic
aparse
aparte
apartegne
apartegni
apartegninti
apartene
ape
apec
apen
apeni
aperta
api
apisu
aplica
aplicac
aplicæ
apo
apocalisse
apoggio
apollo
apologia
aponto
aposto
apostoi
apostoli
apostolica
apostolo
apostoro
appa
apparente
appartegne
appartegninte
appartenensa
appello
appen
appenn
appenni
appennin
appennino
apple
applica
applicac
applicæ
appoggio
apporto
appreuvo
appula
appunti
appunto
apr
apre
apresæ
apreuvo
aprexa
aprica
apricac
aprile
apro
aprofita
aprofondi
aproscimac
aprova
aprovac
aprovo
aprovæ
aprœuv
aprœuvo
apuntu
apus
apusto
aquest
aqui
aquila
aquileia
aquino
aquista
aquitania
ar
ara
araba
arabi
arabia
arabo
aragio
arago
aragon
aragona
aragone
aragoneixi
aragoneize
arainte
araki
aramaica
aramaiche
aran
aranca
arancio
arangio
arasce
arasci
arawak
arazzi
arba
arbe
arbenga
arbengane
arbenganese
arbenganesi
arbenganexi
arbi
arbise
arbisseua
arbo
arboia
arbu
arc
arca
arch
arche
archeologia
archeologico
archeulogicu
archi
archime
archimede
archiolo
archite
architeto
architetti
architetto
architettu
architettua
architettura
architetu
architra
archive
archives
archivi
archivio
archivvio
archontiki
arcipe
arcipelago
arco
arcoa
arcola
arcu
arcun
arcunn
ardesia
ardi
ardighe
ardito
ardo
arduinica
are
area
areche
arecuge
arecugeita
arecugeite
arecugeito
arecugette
arecœugge
aree
arego
aregorda
aregordao
aregordo
aregordæ
arembo
arena
arenaria
arenba
arenbæ
arensen
arente
arenzano
aresco
aresso
aresta
arestan
arestao
arestava
arestia
aresto
areston
arestæ
aretino
arezu
arfabe
arfabetico
arfea
arfo
arfonso
argagno
arge
argenti
argentin
argentina
argentinn
argento
argentu
arghe
argome
argomenti
argomento
argona
argonauti
ari
aria
arie
ariesce
ariesci
ariescii
ariescin
ariescio
ario
arionda
ariopla
ariopo
ariosto
aristide
aristo
aristocra
aristocrac
aristotele
aristottile
aritmetica
ariva
arivan
arivando
arive
arivia
arivo
arivu
arivæ
arkansas
arlicchi
arma
armamenti
armando
armao
armassa
armatoi
arme
armeli
armenia
armenu
armi
armiraggio
armisti
armistic
armo
armogni
armoni
armonia
arms
armstrong
armu
armugni
armæ
arna
arnaldo
arnasco
arnascu
arno
arnolfo
aro
aroi
arola
aroma
aroscia
arpa
arpe
arpi
arpin
arqua
arresta
arresto
arrestou
arri
arrigo
arrigoni
arriva
arrivan
arrivando
arrivo
arrivou
arrivæ
arro
arrondissement
arrondissements
arroscia
arsena
arsoi
art
arta
artagiaja
arte
artemisia
artessa
arthur
arti
artica
artiche
articles
articoli
articolo
articolæ
articulu
artific
artigiana
artista
artistego
artisti
artistica
artistico
arts
artu
arturo
artæ
arusci
arv
arve
arvi
as
asa
asbascia
asbri
asbrio
asbu
asburgo
asca
ascaixi
asce
asceiza
ascensio
ascenso
aschero
asci
ascia
asciddio
ascidia
ascidio
asciste
ascistenc
ascistensia
ascixi
asclepio
asco
ascoli
asconde
ascorda
ascu
ase
asean
asedia
asedio
asegna
asegnac
asegno
asegnæ
asegu
asegua
asemme
asenble
aseta
asetæ
ashley
asi
asia
asiento
asiu
asiun
asmara
aso
asociac
asocio
asociæ
asolu
asome
asonc
aspe
asperti
aspetti
aspetto
aspettu
aspia
aspiac
asprescia
asprescio
assa
assai
assaltu
asse
assedia
assedio
assediu
assegna
assegnac
assegno
assegnæ
assegua
assemblea
assembrea
assemme
assenc
assenso
assente
assisi
asso
assoc
associa
associac
associated
association
associazione
assolu
assolua
assoluo
assolutamente
assonse
assonto
assu
assumendo
assumme
assunta
assæ
astaire
aste
asteroide
asteroidi
asti
astinenc
astor
astrenze
astro
astrofixica
astronnomo
astrono
astronomi
astronomia
astronomica
astræta
astræto
astu
asturia
asturias
asu
asuciasiu
asuciasiun
asuncio
asæ
at
ata
ataca
atacca
atacchi
atacco
ataccu
ataco
atacæ
ate
atelier
aten
atena
atenc
atene
atenieixi
atenieize
atesta
atestao
ati
ativa
ativac
ativita
ativite
ativitæ
atla
atlanta
atlante
atlantego
atlantico
atle
atleta
atmosfea
ato
atoa
atoale
atoalme
atoalmente
atoi
atoiu
atomi
atomico
atomo
atono
atp
atra
atrac
atraca
atractosteus
atrave
atraversa
atraverso
atre
atresi
atreuva
atreuvan
atri
atriboc
atriboi
atribuc
atribui
atro
atrova
atrovava
atrovo
atrovæ
atru
atrœuva
attacca
attacchi
attacco
atteisa
attenc
attento
attesta
attezamento
attezzamento
atti
attilio
attiva
attivamente
attivi
attivita
attivitæ
attivo
atto
attoa
attoac
attoi
attore
attorno
attraversa
attraverso
attre
attreuva
attribui
attribuio
attrice
attrito
attrixe
attu
attua
attuale
attualmente
atu
atua
atualmente
aturnu
au
aua
auditorium
audrey
audu
augu
august
augusta
auguste
augusto
aula
aumenta
aumento
aura
aurata
auratus
aurea
aurelia
aurelio
aurellio
auria
aurora
aus
ausonio
austen
austra
australasia
australia
australian
austria
austru
austu
auta
auto
autoa
autobus
autoi
autonoma
autore
autorita
autoritratto
autoritræto
autostradda
autre
autri
autru
autu
autunno
autustradda
auve
auvergna
auvergnat
aux
auxeli
av
ava
avaina
avan
avanc
avann
avansa
avanti
avarda
avaro
ave
avec
avegne
avegni
avegnime
avegnimenti
avegnu
avegnua
avei
aveighe
aveiva
aveivan
aven
avendo
avenna
avente
aventi
avento
aventu
avere
aversa
aversai
aversaio
averta
averte
averti
averto
avertu
avertua
avessan
avesse
aveto
aveva
avexinamento
avi
avia
aviac
aviasiu
avicenna
avie
avieiva
avieivan
avieva
avifauna
avigno
avignon
avio
avistame
avistamentu
avixi
avixina
aviæ
avo
avoca
avogadro
avoxa
avoxo
avoxæ
avri
avu
avuo
avvegne
avvegni
avvegnimenti
avvegnua
avvenire
avventue
avversai
avvoltoi
avvoxæ
award
awards
awyu
axa
axe
axeva
axevan
axia
axo
ay
aymara
ayrton
aythya
az
azaretti
aze
azeglio
azerbaigia
azerbaijan
azi
azia
azie
azienda
aziende
azion
azione
aziun
azo
azonta
azonto
azonze
azoto
azov
azte
azu
azunze
azzonta
azzonze
b
ba
baa
babboleo
bac
baccio
bacco
bach
bache
baci
bacicia
bacigalupo
badara
badaracco
badaraccu
badda
baden
badi
badia
baestri
baga
baghdad
baghetta
bagna
bagnascu
bagni
bagno
bagnolo
bahamas
bahia
bahrain
baia
baistre
baker
baku
bal
bala
balbi
balbo
balca
balchen
bale
baleari
balenn
balestra
bali
balilla
balla
ballaneuo
ballata
ballet
balletto
ballin
ballo
ballon
balo
balon
balone
balsamo
baltico
baltimore
balu
balun
balzac
bambi
bambin
bambino
bana
banbi
banc
banca
banche
banchi
banchie
banchina
banchinn
banco
band
banda
bande
bandea
bandi
bandio
bangladesh
bano
baoccu
baptist
baptiste
bar
bara
barabi
barba
barbara
barbare
barbari
barbaro
barbarossa
barbatus
barbe
barbena
barboa
barbæschi
barc
barca
barcelona
barche
barchi
barco
barcoi
barcoin
barcon
barcone
barcu
bardene
bardi
bardine
bardoin
bardovi
baresciu
baresti
barestin
bargaggi
bargello
bari
barile
barilo
barletta
barma
baro
barocco
baroccu
baroin
barone
barrio
bartali
barto
bartoli
bartolome
bartolomeo
bartome
bas
basa
basci
base
basi
basilica
basilicata
basilico
basorilie
bassa
bassani
bassano
basse
bassi
basso
bassu
basta
basti
bastia
bastian
bastiani
bastiggia
basæ
bata
bataggia
bataille
bate
bateri
batesto
batexima
bateza
bati
batista
batiste
batito
bato
batta
battagge
battaggia
battaglia
battaia
battaja
batte
batteri
batterica
battesto
batteximo
battezzao
battiato
battista
battisti
battu
batu
batæximo
bau
baudelaire
bavaize
bavare
bavastro
bave
bavea
bavæn
baxa
baxaico
baxi
baxilica
bay
baza
bazar
baze
bazo
bazæ
bba
bben
bbi
bbio
bblica
bblico
bbo
bbri
bbrica
bbriche
bbro
be
bea
beata
beate
beati
beatles
beato
beauvoir
beaux
bec
beccaria
becco
beccu
beckett
been
beethoven
before
begin
begæ
bei
beic
beigua
beijing
beirut
beive
bel
bele
belga
belgio
belgrado
belgrano
beli
belin
bell
bella
belle
bellessa
belli
belliche
bellini
belliscima
bello
bellu
bellum
belo
belon
ben
bena
benardi
benardo
benardu
benben
benche
bene
benedeti
benedetti
benedetto
benedettu
benedic
benedictus
benedisiu
benefic
benefizio
beneiti
beneitin
beneito
benesta
benevento
beni
benigno
benito
benjamin
bensci
benso
beppe
ber
bera
berbexi
berbexin
bere
berengario
beretta
bergamasco
bergamo
bergeggi
bergman
beri
berio
berli
berlin
berlioz
berna
bernabe
bernard
bernardi
bernardin
bernardino
bernardo
bernordu
bero
berrio
berserk
berta
berte
berto
bertome
bertra
bertume
berze
berzezzi
berzo
besagno
besara
besche
beseugna
beso
bessarione
best
bestanddeelnr
bestia
bestiamme
bestie
bet
beta
bette
beu
beve
bevei
bevera
beverino
beza
bezagno
bezaudu
beze
bezeugna
bezeugno
bezo
bezzu
bezœugna
bezœugno
bhard
bhutan
bi
bia
biagio
bianca
bianchi
bianco
biao
biarmicus
bibbia
bibbie
bibl
bibliofi
bibliogra
bibliografi
bibliografia
bibliote
biblioteca
biblioteche
bibliothe
bibliugrafi
bibliute
bibliuteca
bica
bicci
bie
biella
biellese
bieloru
bieloruscia
biena
bienna
biennale
bieti
big
bige
bigeteri
bigetteria
bike
bila
bilabia
bilateria
bile
bili
bilitæ
bina
binari
binda
bine
binela
binella
binor
bio
biodiverscitæ
biografi
biografia
biolo
biologi
biologia
biot
bir
bird
birds
birma
birmania
bis
bisanti
bischetta
biscia
bismarck
bismu
bissau
bissolati
bite
biti
bito
bitu
biu
bixio
bizanc
bizanti
bizantin
bizesti
black
blaise
blanco
ble
bleu
blica
bliche
blichi
blichæ
blici
blico
blicu
blicæ
bliga
bligato
bligo
bligæ
blo
bloca
blocca
blocco
blu
blue
bmod
bne
bnf
bo
board
bob
bobby
boc
boca
bocane
bocca
boccada
boccane
boccaneigra
boche
bochi
boe
boecio
boemo
boggi
boggiasco
bogi
bogia
bogio
bogota
bohr
boi
boin
boiss
bola
bolan
bolano
bolchi
boldini
bole
boletus
boli
bolivia
bolla
bolle
bolo
bologna
bolsa
bolscevichi
bolzaneto
bombardamento
bon
bona
bonaiuto
bonapa
bonaparte
bonase
bonasse
bonbardame
bonesa
bonesaire
bongio
bongiorno
boni
bonifa
bonifac
bonifacio
bonn
bonna
bonne
bono
bontæ
bonum
book
bora
borbe
borbea
borbera
borbon
border
bordi
bordighe
bordighera
bordo
borea
borelli
borghe
borghese
borgheto
borghetto
borghexi
borghi
borgia
borgio
borgo
borgogna
borkinn
bormia
bormida
borromeo
borsa
borzi
borzon
borzonasca
bos
bosche
boschetto
boschi
bosco
bose
bosis
boston
bot
bota
botanica
botanico
boti
botswana
botta
botticelli
bovi
box
bozza
bozzetti
boæi
boæo
br
bra
brabham
brac
braghe
brahe
brahms
bramante
brami
branca
brancalion
brando
brani
brasi
brassica
braun
bravo
braxi
brazi
brazzaville
bre
brea
breda
bregadda
bregadde
bregl
brema
brera
brescia
brest
breta
bretagna
breui
breve
brevi
brey
bri
bria
brianza
bric
brica
bricchi
briccu
briche
brichi
brico
bricu
bridge
briga
brigas
brigasca
brigasco
brigascu
brigata
brigate
brigida
brigne
brignoe
brignole
brignæ
brila
brilla
brillante
brindisi
brio
briosco
brisbane
brisson
brita
britannega
britanneghe
britanneghi
britannego
britannica
britannico
british
bro
brocche
bronzo
brothers
brown
bru
brun
brunei
brunelleschi
bruno
brunswick
brunzu
bruto
bruxa
bruxelles
bruxo
bside
bu
bucarest
bucchero
budapest
buenos
buffalmacco
buffon
bugna
buighe
building
buinzan
buio
buisa
bulgari
bulgo
bulgoi
bulgu
bull
bun
bunaparte
bunifassiu
bunifazzin
bunifazziu
buona
buonarroti
buranello
burba
burbaia
bureau
burga
burgaja
burghe
burghettu
burghetu
burghi
burgo
burgoi
burgu
burmia
burrows
burundi
burzaco
busalla
bussu
bust
busto
but
buteo
butler
butte
buza
by
byron
bæ
bæga
bærnabe
bærtome
c
ca
caa
caba
cabanne
cabela
cabinet
cabrini
cac
caccia
caccio
cacia
cacio
caciæ
cada
cade
cadebo
caden
cadena
cadenn
cadenna
cado
cadorna
cadu
cae
caesar
cafa
cafe
caffa
caffao
caffaro
caffe
caffeinna
cagliari
cai
caicos
caigna
caignan
cairedin
cairo
cairoli
caissa
caistria
caistrie
caitæ
caius
cala
calabbria
calabria
calais
calatafimi
calca
calcio
calcola
calcolo
cale
calenda
calice
calidris
califo
california
caligola
calisa
calite
calle
calo
calocciu
caltanissetta
calve
calvi
calvino
calvoa
cam
cama
cambellotti
cambiaso
cambio
cambrai
cambridge
came
camera
cameri
cami
camilla
camille
camillo
camin
camina
cammia
cammin
camo
camoggi
campa
campagna
campagne
campana
campane
campani
campanile
campanin
campann
campannia
campanula
campetto
campi
campin
campioin
campion
campionati
campionato
campiuno
campo
campofregoso
campomo
campomon
camporosso
campu
campuge
campugexa
can
cana
canada
canade
canai
canaie
canale
canavese
canc
cancre
candalua
cande
candidates
candido
candidæ
candu
cane
canepa
cangia
cangiame
cangiamenti
cangiamento
cangiaxo
cangio
cangiu
cangiæ
canis
canna
cannabis
canne
cannes
cannone
cano
canoi
canoin
canon
canone
canonica
canonicum
canonnega
canonnego
canova
canpa
canpagna
canpani
canpi
canpio
canpiono
canpo
canpomo
canporo
canposa
canpu
canso
cansoi
cansoin
canson
cansu
cansun
canta
cantalo
cantalupo
cantaluvu
cantante
cantanti
cante
canteghi
cantego
canterini
canterville
canti
canto
cantoi
canton
cantone
cantoni
cantu
cantun
cantæ
canzone
canzoni
canæ
cao
caoca
caosa
caose
caoza
caozo
cap
capa
capac
capaxe
cape
capela
capele
capeletta
capeli
capella
capelle
capello
capi
capie
capillari
capisce
capita
capitagni
capitagno
capitale
capitan
capitana
capitani
capitannio
capite
capito
capitol
capitolac
capitoli
capitolin
capitolini
capitolinn
capitolo
capittolo
capitæ
capo
capoa
capoco
capodimonte
capole
capoleughi
capoleugo
capoli
cappadocia
cappe
cappella
cappello
cappi
cappo
cappole
capponi
capri
capric
caprioli
capu
capuana
capuc
capulo
car
cara
caraba
carabine
caracas
caraibi
carapa
carasco
carate
carateri
carateristica
carateristiche
carateristicu
carateriza
caraterizo
caraterizza
caraterizæ
carattere
caratteri
caratterista
caratteristega
caratteristeghe
caratteristica
caratteristiche
caratteristico
caratterizza
caratterizzao
carava
caravaggio
carbo
carbon
carbonati
carbone
carbonica
carbonio
carbonæa
carbu
carcare
carco
carcolo
cardena
cardenae
cardina
cardinale
cardinæ
carducci
care
carea
carega
careghe
carego
carenc
caresti
caretta
caretto
carettu
cari
carie
carisan
caristi
carizan
carl
carla
carlandi
carleva
carli
carlini
carlo
carlofo
carlomagno
carlos
carlu
carmagnola
carme
carmelite
carmen
carmine
carmo
carmu
carnavalet
carne
carni
carnivora
carnot
caro
caroggio
caroli
carolinn
carpaxe
carpena
carpi
carporu
carra
carracci
carrara
carrea
carrega
carreghe
carrego
carretto
carriera
carro
carta
cartagine
carte
cartellu
carteluni
cartexanismo
cartexio
carti
cartilagine
carto
cartoi
cartoli
caru
caruggi
caruggiu
caruso
cas
casa
casac
casaccia
casadda
casale
casamicciola
casano
casanova
casassa
casasse
casay
casca
casce
casci
cascia
cascina
casciu
case
casella
caselle
casellu
caserma
casi
casimir
casino
caso
caspio
cassa
cassano
cassine
casta
castagna
castagne
castagni
castagno
castarno
caste
castel
castela
castelani
castelbianco
castele
casteletto
castella
castellana
castellani
castelletto
castelli
castellin
castello
castellu
castelnuovo
castelvecchio
castergiancu
casti
castigatissimi
castiggia
castiglione
castitæ
castle
castregiancu
castreve
castrevegliu
castreveiju
castreveiu
castreveju
castro
castruccio
castrum
casu
cat
cata
catai
catala
catalan
catalana
catalann
catalans
catale
catallugu
catalo
catalogac
catalogna
catalogo
catalogue
catalunya
catanza
catari
catarina
catarismo
catastrofe
catechi
catedra
catedral
catedrale
categori
categoria
categorie
category
categui
categuri
categuria
catei
caterina
catherine
cato
catollica
catollichi
catollico
catsouras
catta
cattaneo
cattannio
cattedra
cattedrale
cattive
cattolica
cattolichi
cattolico
cattu
cattua
catturao
cattuæ
cattæn
catu
catullo
caturo
caturæ
catus
catæn
catænn
cau
caucaso
caudatus
causa
cause
cauza
cava
cavage
cavagei
cavaggei
cavalaja
cavalie
cavaliere
cavalieri
cavallaja
cavallermaggiore
cavalli
cavallini
cavallo
cavallu
cave
cavelli
cavi
cavige
cavigna
cavitæ
cavo
cavour
caxi
caxo
caxoi
caxon
caxona
caxono
caxonæ
caza
cazac
cazadda
cazame
cazane
cazare
cazassa
cazasse
caze
cazo
cazoa
cazu
cazze
cc
cca
ccaelese
ccaellu
ccane
ccd
cce
cche
cchi
cchia
cchie
cci
ccia
ccie
ccio
cciu
cco
ccolo
ccu
cd
ce
cea
ceca
cecchi
cecil
cecoslova
cecoslovacchia
cede
cedu
cega
ceghi
cego
cei
ceive
cele
celebra
celebrac
celebrasiu
celebre
celebro
celeste
celesti
cella
celle
cellini
cellula
cellule
cen
cena
cenge
censime
censimento
censu
cent
center
cento
centra
central
centrale
centralitæ
centraliza
centre
centri
centro
centru
centræ
century
cephalaspidomorphi
cepolla
cepollini
cer
cera
ceramica
ceranesi
cerca
ceremonies
cerjo
cerl
cerreto
cerro
certo
certozi
cervantes
cervo
cesa
cesare
cesarea
cescion
cesenn
cesio
cest
cet
cetra
ceuta
ceva
ceve
cevetta
cexi
cezare
cf
cfc
cfr
cgd
ch
cha
chagall
chamber
champagne
chapelle
charadrius
charles
charlois
charlotte
charter
chat
che
cheich
cheirogaleidae
cheirogaleoidea
cheita
cheite
cheiti
cheito
chel
chelu
chen
cher
cheu
cheullia
chi
chia
chiara
chiavari
chibcha
chicago
chie
chiesa
chigi
child
chile
chilo
chilometri
chilommetri
chimica
chimiche
chimici
chimico
chin
china
chine
chinn
chino
chinz
chinze
chio
chioggia
chios
chiromante
chiru
chis
chissa
chita
chitara
chiu
chive
cho
chondrostei
chordata
chp
chris
christ
christian
christmas
chronicles
chu
church
churchill
ci
cia
ciabrea
ciac
ciad
ciama
ciamao
ciamavan
ciamma
ciamman
ciammao
ciammava
ciammo
ciammou
ciammæ
ciamo
ciampi
ciamæ
cian
ciana
ciancu
ciane
ciani
cianin
ciann
cianta
ciantagallettu
ciante
cianto
cianu
cianze
ciao
ciape
ciappa
ciappe
ciapæa
ciaravalle
ciasa
ciaschedu
ciaschedun
ciascun
ciase
ciasetta
ciassa
ciavai
ciave
cicagna
cicero
ciche
cicherin
cichero
cicli
ciclista
ciclo
cida
cide
cidenta
cido
cie
ciel
cielo
cilca
cile
cili
cilindri
cilindro
cima
cimabue
cime
cimite
cin
cina
cinciallegra
cine
cineise
cineize
cinema
cinetica
cinn
cino
cinque
cinquetti
cinta
cio
cioca
cioe
ciongio
ciprian
cipro
circa
circle
circo
circoi
circola
circolac
circoli
circolo
circonda
circondo
circondæ
circonflesso
circonvalac
circoscric
circostanc
cirilli
cirixo
ciro
cirolla
cisano
ciste
cit
cita
citadella
cite
citrus
citta
cittara
citte
citti
cittæ
city
citæ
ciu
ciudad
ciufi
ciumi
ciumme
ciutat
ciuto
ciutosto
cives
civi
civico
civile
civili
civiltæ
civitas
civitatem
cixa
cixan
ciæa
ciæamente
ciæe
ciæi
ciæo
ciæti
ck
cl
cla
clam
clangula
clara
clarine
clarinet
clarineti
clark
clasci
clascica
clascichi
clascico
clascifica
clascificac
clascificasiu
clascificæ
clasi
clasifica
clasificac
clasifichæ
clasifico
classe
classi
classica
classificac
classifico
clatrati
claude
claudio
claves
clavesana
cle
cleme
clemente
cleo
cleopatra
clermont
clero
cleveland
cli
clidde
clima
climma
clinton
clo
clori
clu
club
cm
cme
cn
cnica
cniche
cnichi
cnico
co
coa
coalic
coat
coba
cobbia
cobele
coca
coci
cocteau
cod
code
codex
codexi
codexo
codic
codice
coe
coghe
cogniti
cogno
cogorno
coi
coinci
coincidde
coinvo
coio
col
cola
colabora
colaborac
colaborato
colaboro
cole
colec
colega
colegame
colegamenti
colegia
colegio
colego
colegæ
coleman
coli
colinn
coll
colla
collare
colle
collec
collection
collectis
collega
collegamento
college
collegio
collegium
collezione
colli
collier
collo
colloca
collocao
collodi
colmine
colo
colombano
colombia
colombiade
colombini
colombo
colone
colonello
colonia
coloniali
colonie
colonizac
coloniæ
colonna
colonne
colonnia
colonnie
color
colorac
colorado
colore
colori
coloro
coloræ
colpi
coltiva
coltivac
coltivo
coltivæ
colto
coltu
coltua
coltura
columbia
columbus
colæn
com
coma
comanda
comandante
comandanti
comandao
comandi
comando
comandæ
comban
combatte
combattimento
combattu
combi
combinac
combo
combu
combustion
come
comeddia
comeddie
comedia
comenc
comenio
comensa
comensia
comenso
comensæ
comerc
comercia
comercio
comesti
cometaio
comi
comiche
comisa
comiscio
comiscioi
comiscion
comita
comitato
comm
comme
commedia
commenc
commenti
commento
commerc
commercia
commerciale
commercio
commerciæ
commica
commiscion
commission
committee
commo
commons
commonwealth
commu
commun
commune
communis
community
communitæ
como
comonque
comore
compa
compact
compagna
compagni
compagnia
compagnie
compagno
company
comparsa
compass
compenso
competenc
competic
compi
compia
compie
compindo
compio
compito
comple
complesci
complescivo
complessa
complesse
complesso
completa
completamente
complete
completes
completo
compo
compon
componente
componenti
componimenti
comporta
comportamento
composcito
compost
composta
compostela
composti
composto
compoxic
compoxito
compreisa
compreiso
compreixi
compreize
compreizo
comprendan
comprende
comprendente
comprenscion
comprescion
compromisso
computer
comu
comui
comun
comuna
comunale
comune
comuneme
comunemente
comuni
comunica
comunicac
comunicasiui
comunista
comunita
comunitæ
comunque
con
conan
conba
conbate
conbatime
conbatu
conbina
conbinac
conbinæ
conc
conca
concatedra
conce
concec
concede
concentra
concentrac
concentrao
concentrasion
concentræ
concepcio
concepi
concepio
concerto
concescio
concescion
concesse
concesso
concetti
concetto
conci
concilio
concillio
conclu
concludde
concluse
concluze
conco
concorda
concore
concorso
concruxon
concruze
conda
condanna
condannao
condanno
condano
condanæ
conde
condensac
condic
condicione
condivi
condrite
condu
condue
condusse
conduta
condute
conduto
condutto
conduttrixe
conduxe
confao
confaone
confe
confederac
confederæ
confere
conferenc
conferi
conferma
confermao
confermo
confescioi
confescioin
confescion
confi
confin
confina
confinn
confli
conflito
conflitto
confluensa
confo
confonde
confrate
confro
confronta
confronti
confronto
confræ
confu
confusione
confuxo
confuxon
conge
congiua
congo
congre
congregac
congress
congresso
coni
conia
conica
coniche
coniggio
conio
coniogac
coniugac
coniæ
conlaboac
conlaboatoi
conli
conligame
conligamenti
conligamento
conligæ
connecticut
connescion
connesso
connettivo
cono
conobbe
conomia
conosce
conosceiva
conoscenc
conoscensa
conosciu
conosciua
conosciui
conosciuo
conpa
conpagni
conparac
conparati
conpari
conpati
conpete
conpetic
conpi
conple
conpleme
conpleta
conpletame
conpleto
conplica
conplico
conpo
conpone
conponime
conportame
conpositoe
conpoxic
conpoxito
conpre
conprende
conpromi
conputac
conqui
conquista
conquistao
conquistato
conquiste
conquisto
conquistæ
conrad
consacra
consacrac
conscenc
consci
conscidera
consciderac
consciderando
consciderao
consciderava
conscidere
conscidero
consciderou
conscideræ
consciste
conscistente
conse
consecuti
consege
conseggi
conseggia
conseggio
consegio
consegna
consegno
consegoe
consegue
conseguenc
conseguensa
conseguense
conseguente
consegui
consenso
consentan
consente
consenti
conserva
conservac
conservao
conservati
conservato
conservo
conservæ
consiglio
conso
consoi
consola
consolato
console
consoli
consolida
consolidac
consolidæ
consona
consonante
consonanti
consoægo
constante
constantin
constituc
constitui
constituie
constituio
constituisce
constreiti
constreito
construc
construe
construi
construio
construto
consu
consulta
consultac
consummo
conta
contadi
contadin
contaroina
contatti
contatto
contava
conte
contea
contegnan
contegne
contegni
contegninte
contegnu
contegnua
contegnui
contegnuo
contemplac
contempo
contempoannia
contemporanea
contemporanei
contemporaniamente
conten
contenplac
contenpora
contenporaniame
content
contessa
contest
contesta
contesto
conti
contine
continenta
continente
continenti
contingente
contingenti
continno
continnoa
continnoe
continnoi
continoa
continoac
continoando
continoia
continoitæ
continoo
continua
continuamente
continue
continuo
conto
contorno
contra
contraba
contraddic
contrai
contraio
contrapoxic
contrasta
contrasti
contrasto
contrataca
contratacchi
contratacco
contriboi
contribu
contribui
contributi
contributo
contro
controfensciva
controla
controlla
controllo
controlo
controlæ
controriforma
controve
contræto
contæ
conve
convegno
convenc
convenie
convento
conversac
conversations
converscio
converscion
converti
convi
convinc
convinto
convo
convoco
conzonc
conzonti
conzonzimento
conzu
conzua
coo
cook
cooper
cooperac
coordinæ
cope
copenaghen
coperac
copernican
copernico
copia
copio
copo
coppa
coppe
coppi
coppia
coppie
copu
copyright
cor
cora
corac
corado
coraggio
corcre
corda
corde
cordi
cordia
cordina
cordino
core
corea
corec
coreca
corelæ
corente
corfu
cori
coriacea
corido
corie
corispo
corisponde
corispondenc
corispondente
corna
cornaro
corne
cornelio
corni
cornige
cornixe
corno
coro
coron
corona
coronn
corpa
corpi
corpio
corpo
corporac
corpus
corrado
corre
correggio
correlæ
corrente
correnti
corriere
corrisponde
corrispondente
corsa
corsci
corse
corsega
corsi
corsica
corso
corsu
corsæ
corte
cortemi
cortes
corti
cortiva
corto
cortonn
cortua
coruc
corun
corve
cos
cosa
cosce
cosceria
cosci
coscidi
coscidita
coscidito
cose
cosi
cosimo
cosio
cosma
cosmo
cosmologia
cost
costa
costante
costanti
costantin
costantino
costantinopoli
costantinoppoli
costanzo
coste
costioin
costion
costitoe
costitoi
costituc
costitui
costituia
costituio
costituisce
costo
costre
costreita
costreiti
costreito
costrenze
costrinse
costroi
costru
costruc
costrui
costruio
costruto
costu
costume
costummi
cote
cotidian
coton
cotta
cou
couca
country
county
court
cousteau
cove
coverta
coverte
coverti
coverto
covertu
covertua
covid
coxi
coximo
coxin
coxo
coæ
cqui
cr
cra
cracovia
craieu
crate
cratei
crava
cravau
crave
cravæa
cre
crea
creac
creando
creao
creasiu
creatu
creatue
crecca
credde
crede
credeiva
credi
creditoi
credu
crema
cremasco
creme
cremente
cremona
cremonese
cremonn
crena
creo
cresce
crescente
crescia
crescita
cresciu
cresta
crestalli
crestallin
crestia
crestian
crestiane
crestianeximo
crestiann
crestie
crestien
creæ
cri
cria
cricket
crime
crimea
crimina
crio
cripta
crisi
crisis
crista
criste
cristeza
cristi
cristiane
cristianeximo
cristo
cristofano
cristoffa
cristoforo
cristu
crite
critei
criteio
critica
critiche
critico
crixi
cro
croa
croac
croce
crocifiscio
croix
crollo
cronaca
cronache
croni
cronista
cronisti
cronolo
cronologi
crop
cropped
cros
cross
crosta
crostacei
croton
crovi
croxa
croxao
croxe
croxefi
croxæ
cru
crudeltæ
crui
cruje
crula
cruvi
cruxa
cruxe
cruz
cræa
cræe
cs
csa
csi
cu
cua
cuande
cuattru
cuba
cubba
cucullatus
cudificasiu
cue
cuggia
cuggiæn
cugni
cugno
cui
cula
culaburasiu
cule
culega
culegama
culegame
culegamenti
culegamentu
culegau
culego
culetta
culi
culo
culonna
culonne
culpi
cultiva
cultivar
cultivasiu
culto
cultu
cultura
cultural
culturali
culu
culuca
culumbu
cum
cuma
cumanda
cumandante
cumandu
cume
cumenc
cumensa
cumensan
cumenso
cumerci
cumercia
cumerciu
cumita
cumme
cumpa
cumpagni
cumpagnia
cumpiu
cumple
cumplessu
cumpleta
cumpletame
cumpletu
cumpre
cumprende
cumprendente
cumprendeva
cumu
cumun
cumunicasiu
cumunita
cumunque
cun
cuncesciu
cunda
cundu
cuneo
cunfe
cunferma
cunfi
cunfin
cunfina
cunflittu
cunflui
cunfrate
cunfraternita
cunfraternite
cunfrunti
cunfurmasiu
cungregasiu
cungressu
cuni
cuniugasiu
cunpre
cunprende
cunquista
cunsacra
cunsce
cunscente
cunscide
cunscidea
cunscidera
cunsciste
cunse
cunsegue
cunsenti
cunserva
cunservasiu
cunserve
cunsi
cunsiyu
cunstru
cunta
cuntadi
cunte
cuntea
cuntegne
cuntegnu
cuntempuranea
cuntenpuranea
cunti
cuntinge
cuntinua
cuntr
cuntra
cuntro
cuntrollu
cuntrolu
cuntru
cuntrula
cuntrullu
cuntrulo
cuntu
cunusce
cunusciu
cunventu
cuo
cuoe
cuore
cupa
cupac
cupo
cupola
cupula
cupæ
cur
cura
curate
cure
curia
curie
curiere
curispunde
curispundensa
curispundente
curitiba
curo
cursa
curse
cursorius
cursu
curta
curte
curti
curtis
curto
curtua
curva
cus
cusci
custe
custitui
custitusiu
custode
custre
custrui
custruia
custruiu
custrusio
custrusiu
custrusiun
cuve
cuventu
cuvertu
cuvier
cuxe
cuxi
cuxin
cuxina
cuxinn
cv
cœu
d
da
daa
dae
daffini
dagghe
daghe
dagli
dai
daia
dakordiu
dakota
dal
dale
dali
dall
dalla
dalle
dalmazzo
damasco
dame
damerica
dames
damia
damian
damiano
damme
damæn
dan
danc
dance
dando
dandu
dane
danegia
daneixi
daneize
danema
danemarca
daneza
danezo
danezæ
dani
daniel
daniele
danilo
danima
danimarca
danna
danni
danno
dano
dans
dansa
dante
dao
dape
dapertu
dapeu
dapo
dappe
dappeu
dapples
daprimma
dapœu
dapœuscia
dar
dara
dare
dario
darmassi
darsena
darwin
das
dasedda
data
database
databile
datac
datetime
dati
dato
daturnu
datæ
dau
dava
davan
davanti
dave
davei
daverio
david
davide
davis
day
dc
dd
dda
ddan
ddd
dde
ddi
ddia
ddio
ddo
ddr
ddra
ddre
ddri
ddro
ddu
de
dea
death
debbole
debiti
debito
debole
debolec
debussy
debuta
dec
deca
decade
decadenc
decameron
decaocto
dece
decennio
deche
deci
decia
deciara
deciarac
deciaro
decidde
decidettan
decima
decimo
decise
deciso
decixiva
decixivo
decixo
decixoi
decixoin
decixon
deciza
decize
decizo
decli
declinac
deco
decora
decorac
decorato
decoro
decoræ
decre
decreto
decu
decurasiu
decurasiun
decuro
dedic
dedica
dedicao
dedicata
dedicatoia
dedicau
dediche
dedichæ
dedico
dedicou
dedicæ
deduc
dee
deepin
defini
definia
definic
definio
definire
definisce
definiti
definitiva
definitivamente
defoe
defæti
deg
degas
degenera
degli
degna
dego
dei
deiva
del
delaware
delega
delegac
delego
delegæ
delfino
deli
delibera
deliberac
delic
delica
delimita
delineatae
delinia
delitti
delivera
delivia
dell
della
delle
dello
delongo
delpech
dels
delta
dem
deman
dementre
demmo
demo
demoa
democra
democrac
democratego
democratica
democratico
demogra
demografi
demografica
demoli
demolic
demugra
demugrafica
demuli
den
dena
denanti
dene
denis
denominac
denonc
denscitæ
denta
dente
denti
dentinna
dentista
dentro
denuminasiu
deo
departamentu
departime
depento
depo
depoi
deponn
deportac
deposto
depoxic
depoxita
depoxiti
depoxito
depu
deputac
deputo
deputæ
der
dera
derby
dere
deri
deriva
derivac
derivan
derivante
derivanti
derivao
derivasiu
derivazione
derivo
derivou
derivæ
dermochelys
derna
derre
deru
derua
deruca
deruco
derucu
deruo
des
desca
descartes
descendenti
deschanel
desco
desconosciua
descove
descri
descric
descrisiu
descrisiun
descrita
descrive
descrizione
descrovi
deserto
desfa
desfæta
desfæto
desgra
desgrac
desgroppa
desgœugge
desiderio
design
desio
desktop
desmantela
desmi
despe
despesso
despia
despre
despæge
despægi
despægia
despægie
despægio
despæto
despœi
desse
desta
destaca
destacca
destaco
deste
desti
destin
destina
destinac
destinao
destino
destinæ
destra
destru
destruc
destrue
destruta
destruto
deta
detagia
detail
detegnu
determina
determinac
determinante
determinao
determino
determinæ
detroit
detta
dettaggi
dettaglio
dettan
dette
detto
deus
deuterostomia
deuvia
deuvio
deuviou
deuviæ
deux
dev
devan
devasta
devastac
deve
devegnua
development
deventa
deventera
devento
devia
deviac
devo
devoc
devota
devoto
dex
dexe
dexembre
dexen
dexenni
dexennio
dexide
dexidei
dexideio
dexidera
dexignao
dexima
deximo
dexine
deza
deze
dezenbre
dhaka
di
dia
diabete
diagnoxi
diagona
dial
diale
dialectales
dialeta
dialettale
dialetti
dialettica
dialetto
dialettu
dialetu
dialo
dialoghi
dialogo
diama
diamante
diametro
diametru
diammetro
dian
diana
diano
diao
diarchi
diario
diata
diaz
diba
dibattito
dic
dica
dicc
dicciu
dice
dicembre
diche
dichi
dici
dicia
diciara
diciarac
diciaro
diciaræ
dickens
dico
dictionnaire
didattica
didier
die
diego
dies
diesel
dieta
dietrich
dietro
difa
difatti
dife
difeisa
difeise
difeiza
difeize
difeizo
difende
difendise
difensciva
difenscivo
difensi
difenso
difensoi
difere
diferenc
diferensa
diferense
diferente
diferenti
diferi
difesa
difetti
difetto
diffe
differenc
differensa
differense
different
differente
differenti
differenza
diffic
difficoltæ
difficortæ
diffonde
diffu
diffusa
diffuxon
diffuza
diffuzo
difi
dific
dificoltæ
dificortæ
difo
difu
difuxo
difuxon
difuzi
difæti
diga
dige
diggo
dighe
digita
digital
digitale
digitaliza
digitalizac
digitalizæ
diglossi
dignitæ
digra
digramma
dilettante
dili
dimaggio
dimani
dime
dimenscio
dimenscioi
dimenscioin
dimenscion
dimensciu
diminuc
diminui
diminuisce
dimiscioin
dimo
dimostra
dimostrac
dimostro
din
dina
dinasti
dinastia
dindave
dine
dini
dino
dinæ
dio
diocesi
diocexi
dioceza
dioclec
diomedea
dion
dioni
diou
dipartime
dipartimento
dipartimentu
dipe
dipende
dipendenc
dipendensa
dipendente
dipi
dipinta
dipinti
dipinto
dipintu
diplo
diplodus
diploma
diplomac
diplomatica
diplomatico
dir
diramasiu
dire
direc
diresiu
diresse
diretame
direti
direto
diretoi
diretri
diretta
direttamente
dirette
diretti
diretto
direttore
direttu
diretu
diri
dirige
diriti
diritti
diritto
dirittu
dirizente
dirizze
dis
disabita
disabitæ
disc
disce
discende
discendenti
discepolo
dischi
discipli
disciplin
disciplina
discipline
disciprin
disco
discofolk
discogra
discografi
discografia
discorso
discu
discuscio
discuscioi
discuscioin
discuscion
discutte
dise
disease
disec
disegna
disegni
disegno
disegualiansa
disiuna
disna
disney
disneyland
disoluc
dispero
displaystyle
dispo
dispon
disponi
disponibile
disponibili
disponibilitæ
disposti
dispoxic
dispoxiti
dispoxitivo
dispunibbile
dispunibili
disputa
disputæ
disse
dissoluc
dista
distaccamenti
distaccamento
distanc
distansa
distanse
distante
disti
distinc
distingoe
distingue
distinse
distinte
distinti
distinto
distre
distreito
distriboc
distriboi
distribuc
distribui
distributo
distru
distruc
distrusiu
distu
dita
dite
diti
dito
ditta
dittato
dittatu
ditu
diu
diucesa
diuersis
diva
dive
divegne
divegni
divegnu
diventa
diventan
diventando
diventia
divento
diventæ
diversa
diversame
diversci
diverscitæ
diverse
diversi
diverso
divertimento
divertissement
diverzenc
divi
dividde
divide
divin
divina
divinitæ
divinn
divisa
divise
division
diviso
divixi
divixion
divixo
divixoi
divixoin
divixon
divixu
divixun
divize
divizu
divo
divoc
dixan
dixe
dixeiva
dixembre
dixenbre
dixendo
diza
dizastro
dizegno
dizionario
diziun
dizo
djvu
dl
dm
dna
do
doa
doardo
doc
doce
docg
docomenta
docomentac
docu
docume
documenta
documentac
documenti
documento
doe
doeuvia
dog
doge
doggia
doggio
dogliotti
doi
doia
doian
dolce
doli
dolo
dom
doma
domanda
domandava
domande
domando
domani
dome
domenega
domenegan
domenego
domenica
domenico
domennega
domennego
domestego
domestico
domi
domina
dominac
dominante
domingo
domini
dominica
dominicann
dominio
dominni
dominnio
domino
dominus
don
dona
donac
donald
donao
donato
donaver
donca
dond
donde
done
doni
donna
donne
dono
donque
donzella
doo
dopo
doppia
doppo
doppu
dopu
doria
dormi
dosa
dossi
dosso
dota
dotao
doto
dotoi
dotora
dotrei
dotri
dotrin
dotto
dotæ
douard
douglas
dov
dova
dove
dovei
doveiva
doveivan
dovesse
dovettan
dovette
dovia
dovie
doviæ
dovu
dovua
dovue
dovuo
dovve
downtown
doyle
doze
dozz
dozze
dr
dra
draco
drafin
dragon
dragut
drake
drama
dramma
dre
dreitua
drento
drentu
dresda
dresden
dri
dria
drink
drita
driti
drito
dro
drogueria
dru
drugolo
dscf
du
dua
duac
duame
dubbi
dubbio
dubita
dublin
duca
ducale
ducato
ducca
duccio
duchessa
duco
ducumenta
ducumentu
due
duello
duero
duga
dui
duia
duilio
duke
dumanda
dumas
dumbo
dume
dumenega
dumi
duminasiu
duminasiun
dumini
duminiu
duna
dunasiu
dunca
dund
dunde
duno
dunqua
dunque
duo
dur
dura
durac
durante
durium
dursa
dussaiga
duta
duu
duv
duve
duvea
duvera
duvr
duvu
dux
duxe
duxento
duxi
duxægo
duzze
duæ
dvd
dwarf
dyck
dæ
dæta
dæte
dæti
dæto
dœuvia
dœuviando
dœuviao
dœuvio
dœuviæ
e
ea
ean
eani
eania
eano
earth
east
eastern
ebban
ebbe
ebe
ebra
ebraica
ebraiche
ebraico
ebraiximo
ebre
ebrei
ec
eca
ecc
ecce
eccec
eccellenti
ecclesia
ecco
ece
ecec
ecele
ecelenti
ecesci
ecesiu
eclesia
eclesiasticame
eclexastega
eclexasteghi
eclexastego
eclezia
eclitti
eco
ecoado
econo
economi
economia
economica
economiche
economichi
economico
econommica
econommichi
econommico
ecs
ecuado
ecunomica
ecunomicu
ecunumi
ecunumia
ed
eddy
edente
edessa
edgar
edi
edic
edicions
edific
edifica
edifissi
edifissiu
ediggia
edimburgo
edison
edith
edition
edito
editoi
editore
editori
editoria
editoriale
editoriali
editrice
editto
edizione
edizioni
edmondo
edo
edoardo
edu
eduardo
educac
education
edulis
edward
ee
efe
efeti
efetoa
efetoo
efetti
efetto
effetti
effettiva
effettivamente
effettivi
effettivo
effetto
effettua
efficac
effigies
efice
eft
ega
ege
egemonia
egi
egic
egidio
egitto
egli
ego
egoalia
eh
ei
eia
eiffel
eimo
eimonia
ein
einaudi
einstein
eira
eise
eiva
eivan
eive
eivia
eixi
eize
eja
el
ela
elabora
elaborac
elaboro
elastica
elba
ele
elebra
elebran
elebre
elec
electa
election
elefante
elega
eleme
elementa
elementari
elementi
elemento
elementu
elena
elenca
elenchæ
elenco
elencu
elencæ
eleni
eleste
elesti
eletora
eletro
eletti
eletto
elettorale
elettrica
elettriche
elettrici
elettrico
elettroin
elettromagnetica
elettromotrice
elettron
eleva
elevo
elevæ
eleze
elezu
elezuo
eli
elia
elias
elimina
eliminac
elimino
elio
elisa
elisabetta
elizabeth
elizabetta
ella
elle
ellebre
elli
ellington
ello
ellonn
ellule
elmo
elo
elogijs
elogio
elon
elonn
els
eltico
elu
em
emana
emanac
emanc
emano
emanuele
emanæ
embriæghi
eme
emente
emerote
emerze
emette
emi
emigra
emigrac
emigranti
emigræ
emil
emilia
emilio
emira
emiscio
emiscion
emisfe
emisfeo
emite
emma
emmanuel
emmo
emo
emperor
empire
emys
en
ena
enble
enbre
enbri
enc
enciclopedi
enciclopedia
enciclopedico
end
ende
endexo
ene
enea
eneide
energi
energia
energie
enfaxi
england
english
eni
enigmatico
enko
enna
enne
ennie
ennio
eno
enorme
enrico
ensa
enso
ent
enta
entana
entanæa
ente
entella
entena
enterobacteria
entesca
entesco
enti
entimetri
entitæ
ento
entoa
entomi
entra
entrale
entre
entrena
entri
entrion
entro
entrotæra
entru
entrute
entu
enturio
entuxa
entuxiasmo
enu
enugastrunumi
enzo
eo
eocene
eoge
eoro
eorope
eorozo
eos
ep
epica
epidemi
episcopa
episodi
episodio
epistola
epitaffio
epizo
epizodio
epo
epoca
eppoca
epri
epria
epuca
equac
equatoria
equili
equilibbrio
equilibrio
equino
equipaggi
equipaggio
equipagia
equiv
equivale
equivalente
equus
er
era
eran
eratostene
erba
erbo
erboi
erc
erca
ercando
ercatoi
ercava
ercavan
erche
erchia
erciamento
ercio
erciæ
erco
ercole
ercou
ercæ
ere
erec
erede
eredi
eredita
eredito
ereditæ
eretichi
eretmochelys
erexia
erga
eri
eritrea
erli
ermanno
ermitage
ermo
erne
ernest
ernesto
ernia
ernst
ernu
ernuo
ero
erodoto
eroe
eroi
eros
erro
erso
ert
erta
erte
ertec
erti
ertidu
ertidun
erto
eru
erve
ervello
ervo
ervæa
erxe
es
esare
esattamente
esca
esce
esche
eschi
esci
esclu
escludde
escluxi
escluxivame
escluxivamente
escluxo
esco
escorial
escragnolles
escurscion
esdra
ese
esecuc
esecuti
esegui
esempi
esempio
esempiu
esemplare
esemplari
esemplæ
esenc
esendu
eserc
esercita
esercito
esercitu
esi
esise
eso
esopo
espa
espan
espanscio
espanscion
espe
espera
esperanto
esperie
esperienc
esperiensa
esperimenti
esperti
espi
esplic
esplora
esplorac
esplorato
esploxo
espo
espone
esponente
esponenti
esportac
esposte
espoxic
espre
esprescio
esprescioi
esprescioin
esprescion
espressamente
espresso
espri
esprimme
espulscio
essa
esse
essenc
essendo
essere
esso
est
esta
estas
estate
este
esteban
esteiza
esteize
estenc
estende
estenscio
estenscion
estensciu
ester
estera
esteri
esterna
esterne
esterni
esterno
esternu
estero
estetica
esti
estinc
estinta
estinto
esto
estoa
estra
estrac
estrae
estre
estremame
estremamente
estremi
estremitæ
estremma
estremmo
estremo
estræto
estæ
et
eta
etae
etao
etc
ete
eterna
eterno
eti
etica
etichetta
etico
etimologi
etimologia
etio
etiopia
etiopiche
etni
eto
etoi
etro
etron
etru
etrusco
etta
ette
etti
ettin
etto
ettore
etæ
eu
euge
eugene
eugenio
eugenolo
euggi
euggio
eugia
eukarya
eulemur
eumetazoa
euro
europa
europe
europea
european
europeana
europei
eurupe
euse
eutoc
eutto
euttoc
euva
euvia
ev
eva
evange
evangeli
evangelica
evangelista
evangeliu
eve
eventi
evento
eventoa
eventoalmente
eventu
eversa
evette
evi
evia
evide
evidenc
evidensa
evidente
evidenti
evita
evo
evolu
evoluc
evoluti
evolutiva
evu
evulusiu
evuo
ex
exempi
exempio
exerc
exi
exibic
exigenc
exilio
eximo
existan
existe
existeiva
existenc
existensa
existente
existenti
existi
exiti
exito
expectunusedcategory
extra
exupe
eyck
ez
eza
ezatame
eze
ezecuc
ezegoi
ezempio
ezenpla
ezerc
ezerci
ezercita
ezercito
ezi
ezige
ezo
f
fa
fabbrica
fabbricac
fabian
fabio
fabri
fabriano
fabric
fabrica
fabricac
fabriche
fabrico
fabrizio
fac
facce
faccia
facciata
face
facebook
faceva
facia
facie
facio
faciunt
facoltæ
facortæ
facta
facto
fadi
fadiga
fae
faeto
fago
fai
faia
faie
faina
faipoult
fait
faito
faitu
falange
falcone
fali
falime
falkenhayn
falkland
falli
fallimento
fallio
falo
fama
fame
fami
famia
famigge
famiggia
famiggie
famigia
famiglia
famiglie
familia
family
famma
famme
famne
famo
famosa
famose
famoso
famoxi
famoza
famozo
famu
famusa
famusu
fan
fana
fando
fanfani
fangio
fango
fanno
fanta
fantaja
fantasmi
fantaxi
fantaxima
fanteri
fanti
fantin
fantozzi
far
fara
faraday
faraom
farcon
fare
farfalla
farina
fario
farmaci
farneize
farnese
faro
farsa
farœ
fas
fasce
fasci
fascia
fasciatu
fascio
fascismo
fascista
fascisti
fasciœu
fase
faso
fasso
fasti
fata
fato
fatoi
fatori
fatta
fatti
fatto
fattu
fatu
fau
fauna
fausto
fava
favan
favo
favoeive
favoi
favolista
favore
favori
favu
favuri
faxe
faxeiva
faxeivan
faxendo
faxendu
faxente
faxeu
faxeva
faze
fc
fe
fea
feb
febbraio
fec
fede
fedele
fedeli
fedeltæ
federa
federac
federal
federazione
federi
federici
federico
federigo
federo
federæ
feghi
fegi
fego
fei
feipo
fejo
feldkamp
feli
felic
felice
felidae
felis
felix
felixe
femina
femine
femini
feminin
femmina
femmine
femminile
feni
feno
fenomeni
fenomeno
fenommeni
fenommeno
feoda
fer
fera
ferdinand
ferdinando
fere
feri
ferii
ferio
ferma
ferman
fermi
fermo
fermæ
ferna
fernanda
fernando
fero
ferovi
ferovia
ferr
ferrando
ferrania
ferrara
ferrari
ferraris
ferre
ferro
ferrovia
ferroviaria
ferrovie
ferrucci
ferruccio
ferruvia
ferræ
feruvi
feruvia
fervo
feræ
fes
fessan
fesse
festa
feste
festeza
festezza
festiva
festival
feta
feto
feu
feua
feuda
feudi
feudo
feudu
feugge
feugo
fever
fevra
ffa
ffe
ffi
ffic
ffo
ffono
fi
fia
fiami
fianchi
fianco
fiancu
fiandre
fiasella
fiat
fiaze
fibbre
fibre
fic
fica
fican
fice
fiche
fichi
fici
fico
ficu
fide
fidu
fiduccia
fiducia
fie
fieschi
fiesco
fiesole
figa
fige
figeu
figge
figgetta
figgeu
figgi
figgia
figgie
figgio
figgiu
figgiœu
figia
figij
figio
figioi
figiœu
figlio
figlioletto
figna
fignoletto
figo
figon
figu
figua
figue
figui
figure
fiji
fila
filastro
file
fili
filiberto
filip
filipi
filippin
filippinn
filippino
filippo
filipu
fillak
film
filo
filobus
filogene
filologi
filosofi
filosofia
filosofica
filosofico
filosofo
filozofi
filozofia
fin
fina
final
finale
finalese
finalitæ
finalmente
financ
finansia
finari
finarmente
finc
finche
find
fine
finestre
fini
finia
finin
finindo
finio
finisce
finiscian
finiu
finiva
finla
finlande
finlandia
finn
finna
finno
fino
fint
finta
finto
finæ
fio
fiore
fiorenti
fiorentin
fiorentino
fiorenzo
fioreti
fiori
fire
firenc
firens
firense
firenze
firma
firmafede
firmao
firmo
firpo
first
fisa
fisca
fischer
fischeri
fisiologia
fissa
fissao
fisse
fissipedia
fisso
fito
fitzgerald
fiu
fiume
five
fixica
fixiche
fixichi
fixico
fl
flag
flagelac
flaubert
flavio
fleming
fleurs
flexione
flickr
flo
flora
florence
florida
flotta
flotte
flower
flowers
flu
fluido
flusso
fm
fo
foa
focci
foccia
focciu
focea
foch
focus
foeste
foeugo
fogetta
foggetta
foggia
foi
foisan
foise
foisse
folclo
foligno
folk
folklore
folla
follo
folo
fonc
fonda
fondac
fondali
fondame
fondamenta
fondamentali
fondamentalme
fondamenti
fondamento
fondamentæ
fondao
fondato
fondatoi
fondazione
fondi
fondo
fondæ
fone
fonetica
fonetico
foni
fonit
fono
fonologi
fonta
fontaine
fontainebleau
fontan
fontana
fontann
fonte
fonti
fontibus
fonzi
fonzo
food
football
for
fora
foraminifei
forc
forco
ford
fore
forest
foresta
foreste
foresti
foresto
forgai
forli
forma
formac
formaggio
formaldeide
formalme
formalmente
forman
formando
formao
formati
formato
formatua
forme
formes
formia
formo
formula
formule
formæ
forna
forner
forni
fornio
fornisce
forno
fornæ
foro
forsa
forse
forso
fort
forte
fortec
forteme
fortemente
fortessa
forti
fortifica
fortificac
fortifico
fortu
fortun
fortuna
fortunato
forum
forza
foscia
fossa
fosse
fossu
foto
fotogra
fotografa
fotografi
fotografia
fotografica
fotografico
fotografie
found
foundation
four
fox
foxe
fr
fra
frac
frai
frame
frammenti
frammento
framu
frana
franc
franca
francavilla
france
francesca
francescho
francesco
francescu
francese
franchi
francia
francis
francisco
franco
francobo
francobolli
francoforte
frank
franklin
frans
fransa
franse
franseiji
franseise
fransesa
fransescu
fransese
franz
franza
franze
frascine
frase
frasio
frasiu
frasiui
frasiun
frasiuna
frassio
fratelli
fratello
fratempo
fratte
frattempo
fratti
fre
fred
frederick
frega
fregatta
frego
fregoso
fregoxi
fregozo
freida
freido
frena
french
freque
frequenta
frequente
frequenti
frequento
frequentæ
fresca
fresche
fresco
frescu
freud
freva
freve
fri
frica
friedrich
frio
fritz
friu
frixo
fro
from
fronta
fronte
frontespic
frontezza
fronti
froxino
fru
frugon
frunte
fruta
frute
fruto
fræ
fs
fu
fuga
fugassa
fugeti
fuggetta
fuit
fulcro
fule
fulvo
fume
fun
func
funda
fundamenta
fundasiu
fundasiun
fundau
fundo
fundu
funduvalle
fungi
funicola
funicolare
funicolari
funsion
funsiu
funsiun
funsiuna
funta
funtan
funtana
funtani
funte
funti
funzi
fuori
fur
fure
furma
furman
furmasiu
furme
furn
furni
furno
fursa
furtemente
furtessa
furtifica
furtificasiu
furtu
fusca
fussa
fusse
futu
futugrafi
futugrafia
futugrafie
futuo
fuxe
fuxi
fuxile
fuxo
fuxon
fuzo
fuzzi
fæ
fænn
færo
fæta
fæte
fæti
fæto
fætu
fœu
fœua
fœugge
fœuggi
fœuggio
fœugo
g
ga
gabi
gabriel
gabriele
gabriello
gabriælo
gaddi
gadoe
gae
gaeta
gaetano
gai
gaiba
gaibado
gaina
gaio
gaitan
gal
galante
galata
gale
galea
galeac
galeazzo
galee
galeri
galeria
galerie
gali
galia
galic
galile
galilei
galileo
galinæa
galioto
galla
gallaneo
galleria
gallerie
gallery
galles
gallia
gallica
gallie
gallo
gallua
galo
gama
gamba
gambe
gamenti
gamma
gan
gandhi
gandu
gane
gangemi
gap
gara
garanc
garanti
garave
garbagna
garbo
garci
garcia
garda
garde
gardel
gare
garello
gares
garesce
garesci
garessio
garganico
gariba
garibaldi
garibardi
garie
garlenda
gary
garzanti
gas
gascon
gasolio
gasperi
gassa
gastaldi
gaston
gastronomi
gata
gatta
gatti
gatto
gaudi
gauguin
gaulle
gave
gavenu
gavi
gavotti
gaza
gaze
gazetta
gazo
gazza
gazzetta
gazzo
gazzu
ge
gehlen
gei
geija
geis
geixa
geja
gel
gema
gen
gene
genealogia
genera
generac
general
generale
generali
generalitæ
generalme
generalmente
generati
generato
genere
generi
genero
generæ
genexi
genio
genito
genitoi
geniu
gennaio
gennere
gennio
geno
genoa
genocidio
genova
genovese
genovesi
gens
gente
genti
gentile
gentileschi
gentilo
genua
genuese
geo
geografi
geografia
geografica
geografico
geologi
geometria
georg
george
georges
georgetown
georgia
gera
gerais
gerarchi
gerarchia
gerard
gerardo
geremia
germa
german
germani
germania
germanico
germannia
germano
gerolamo
geronimo
gershwin
gerusale
gerusalemme
geruzale
geruzalemme
ges
gesner
gesti
gestio
gestion
gestisce
gestiu
gesto
gesu
get
getti
getto
getty
geugrafi
geugrafia
gexa
gexe
gexetta
gexia
gexo
gexoi
gexu
gg
gga
gge
gghe
ggi
ggia
ggian
ggie
ggine
ggio
ggiu
ggiæn
ggo
gh
ghana
ghe
gherra
ghi
ghia
ghiandole
ghibeli
ghibellin
ghiberti
ghige
ghigermo
ghiggermo
ghirlandaio
ghje
gi
gia
giac
giaccomo
giacinto
giacobi
giacomo
giacumu
giaeo
giaffa
giaieu
giaimo
giambatista
giambattista
gian
giana
gianbati
gianbatista
gianca
giancane
giancarlo
gianche
gianchi
gianchina
gianco
giancu
giando
giane
gianfranco
gianni
giano
gianseni
giapo
giapon
giapone
giappon
giapponeise
giapponeize
giardi
giardin
giardine
giassa
giastemma
giatoi
giaxo
giazo
gibele
gibiltæra
gibuti
gica
giche
gichi
gico
gie
gif
giga
gigante
gigliola
giglioli
gii
gijia
gilberto
giliu
gill
gin
gina
gine
ginevra
gini
gino
ginuva
ginuve
gio
gioa
gioacchino
gioan
gioani
giobatta
giobbe
giogra
gioia
gioie
giorda
giordan
giordano
giorgia
giorgio
giorna
giornale
giornali
giornalie
giornalista
giornata
giorni
giorno
giornæ
giosue
giotto
giova
giovan
giovane
giovani
giovanna
giovanni
giovannino
giove
gioxe
gioxeppe
gioxie
gira
girl
giro
girolamo
giru
girœummo
gita
giu
giua
giuanne
giuanni
giuda
giuddic
giude
giudeo
giudi
giudic
giudica
giuditta
giugno
giulia
giulian
giuliano
giulio
giuri
giurian
giuridica
giuridico
giurisdic
giurisdisiu
giurna
giurni
giurno
giurnu
giuseppe
giusta
giustexine
giusti
giustic
giustifica
giustificac
giustignan
giustin
giustinia
giustinian
giustiniani
giustinie
giustizia
giusto
giuvanni
giuxeppe
giæ
giæa
giœumo
gja
gje
gjo
gjæ
gl
gla
glareola
gli
glia
glio
gliu
glo
globa
global
globe
globuli
gloria
glott
gmt
gna
gnan
gnathostomata
gnd
gne
gni
gnia
gnidu
gno
gnoe
gnu
gnuri
go
goa
goagna
goagno
goal
goardia
goari
goarnixo
goc
gocce
godiva
goe
goffredo
gofre
goggi
gogh
gogia
goi
goida
goido
goidæ
goito
gola
golden
gole
golfo
gomma
gonzaga
google
gora
gorfo
gorzente
gota
goticu
gottfried
gou
gove
governa
governance
governao
governati
governato
governatoi
governi
governo
governæ
govi
govone
goya
goæi
goæra
goære
gr
gra
grac
graddi
graddo
gradi
gradoa
gradualmente
grafe
grafi
grafia
grafiche
grafo
graham
gram
grama
gramatica
grammatica
grammo
gramsci
gran
grana
granaieu
grand
grande
grandec
grandessa
grandi
grandu
granduca
grano
grant
granulociti
grao
grappa
grasie
grasse
grassi
grassie
grato
grave
gravellona
graveme
gravemente
gravi
gravitac
gravitæ
gray
grazia
grazie
gre
great
grec
greca
greci
grecia
greco
greek
green
greenwich
grega
greghe
greghi
grego
gregoria
gregorian
gregorio
gregu
gren
grende
grendi
grenoble
greta
gri
grifo
grifoi
grigheu
grigœu
grillo
grima
grimada
grimado
grimaldi
grita
grixa
grixo
grixu
gro
groenla
groenlandia
gropius
groppi
groppo
grosci
grossa
grosse
grosseto
grossi
grosso
grossu
grotta
grotte
group
gru
gruppi
gruppo
gruppu
gu
gua
guaagna
guagna
guagno
guam
guangxi
guarani
guarda
guardia
guareschi
guasoni
guastavino
guatemala
gubbio
gue
guera
guere
guerfi
guerra
guerre
guevara
guglielmo
gui
guida
guidda
guiddo
guide
guido
guidoni
guidæ
guilin
guillaume
guine
guinea
gumbu
guo
gur
gura
gurage
gure
guri
guria
gusta
gustav
gustave
gustavo
gusto
guverna
guvernu
guyana
guæi
guæra
guære
gælo
h
ha
habet
habitat
haematopus
hainan
haiti
hakusensha
hall
hamilton
hampshire
han
hanbury
hannover
hans
hansa
hardware
harold
harrison
harry
harvard
has
hasta
have
havei
haveiva
hawai
hawaii
haydn
he
hector
heim
heinrich
helena
help
helsinki
hemingway
hemo
henri
henrik
henry
hepatitis
hepburn
her
herbert
here
heritage
hermann
herpesvirus
het
hi
hic
hiddencat
high
hiligaynon
hill
hillary
hillyer
himalaya
himantopus
hindi
hirundo
his
hispa
hispaniolla
histoire
historia
historiae
historica
history
histrionicus
hitchcock
hitler
ho
hoc
hofmannsthal
hollywood
holy
home
homi
homilies
homme
hommes
homo
honduras
hong
hono
honore
hope
hora
hot
hotel
house
how
howard
hrer
htm
html
http
https
hu
hubble
hugo
human
huomini
huso
hyacinthe
hydrobates
hyemalis
hæ
i
ia
iac
iacopo
iai
iaia
iaio
iale
iali
ialina
ialista
ialitæ
ialme
ialmente
iam
iame
iamente
iamento
ian
iana
iando
iann
ianua
ianva
iao
iata
iati
iativa
iative
ibbo
ibe
iberica
ibi
ibid
ibn
ibsen
ic
ica
icci
iche
ichi
ici
icio
ico
icon
icones
iconfrate
iconografia
iconum
icu
id
ida
idaho
ide
idea
ideale
idee
identa
idente
identifica
identificac
identificao
identificato
identificatoi
identifico
identitæ
identæ
idi
idio
ido
idro
idrogeno
ie
ien
iente
ieri
ies
ieta
ietæ
ieu
if
ifico
iga
igalo
ige
ighe
igiene
igina
igine
iglesia
igna
ignazio
ignora
igor
igra
igre
igri
igro
igt
ii
iii
ij
ija
iji
iju
il
ila
ilaria
ile
ili
ilia
ilian
ilic
ilita
ilitæ
illia
illinois
illuminazione
illustration
illustre
illustri
ilme
ilmente
ilo
ilu
ilustri
im
ima
imacula
image
imagine
imagna
imbarcac
imbarco
imbo
imbri
imbricata
imbriægo
ime
imenti
imento
img
imita
imitac
imite
imiteio
imma
immaggine
immagine
immagini
immarœuza
imme
immediatamente
immerso
immi
immortalitæ
immu
imnu
imo
impadroni
imparti
impatto
impe
impedi
impegna
impegnao
impegni
impegno
impegnon
impegnæ
impei
impeia
impeo
imper
imperativo
imperato
imperatoi
imperatorvm
imperia
imperiale
imperiæ
impero
impeu
impi
impianti
impiantu
impiao
impiato
impiega
impiego
impiegæ
impon
imponente
importa
importanc
importansa
importante
importanti
imposcibile
imposcibilitæ
imposta
impostac
imposte
imposto
impoxic
impoze
impre
impreisa
impreiza
impreize
imprescion
impronta
improvista
impu
impunente
impurta
impurtansa
impurtante
impurtanti
in
ina
inandia
inandio
inandiæ
inaogura
inaogurac
inaoguro
inaugura
inauguro
inbriægo
inc
inca
incanta
incapac
incarega
incaregao
incarego
incarnac
incarrego
ince
incertæ
inchiesta
incho
inci
incia
inciago
incide
incio
inciostri
inciostro
incipit
incirca
incixoi
incizo
inclinac
inclinou
inclu
includde
includiintestazione
incluxo
inco
incobac
income
incomenc
incomensa
incomensia
incomenso
incomensou
incomensæ
incona
incondic
inconnue
incontra
incontri
incontro
incoonac
incoragi
incorona
incoronac
incorono
incorpora
incorporo
incorporæ
incrementa
incremento
incro
incroxa
incroxo
incu
incubac
incume
incuntra
incurscioi
incursciu
inda
indagine
inde
indeboli
indere
indeterminati
index
indi
india
indian
indiann
indic
indica
indicac
indican
indicao
indicati
indicativo
indicato
indicava
indice
indichia
indichæ
indico
indicæ
indie
indien
indigeni
indipende
indipendenc
indipendensa
indipendente
indipendentemente
indipendenti
indire
indiri
indispensabile
indivi
individdoi
individoa
individoao
individua
individuo
indo
indoa
indoario
indoeorope
indoeuropee
indonesia
indonexia
indoo
indrenta
indric
indu
industria
industriale
industrie
indærno
ine
ineia
ineja
inejia
inf
infa
infanc
infantaja
infante
infati
infatti
infe
infec
infectious
infeio
infeioi
infelic
inferio
inferiore
inferno
infesta
infeuda
infin
infini
infinia
infiniamente
infinio
infinitexima
inflesciu
infloe
infloensa
influ
influe
influenc
influensa
influense
influenso
influsso
info
informa
informac
informacio
informao
informatica
informatico
information
infra
infraclasse
infraordine
infraphylum
infrarosso
infrastrutu
infæti
inga
ingauna
ingauni
inghiltæra
ingiu
ingle
ingleise
ingleixi
ingleize
ingluba
ingmar
ingo
ingrandi
ingre
ingredie
ingredienti
ingreise
ingreixi
ingreize
ingresso
ingressu
ini
inic
inisialmente
inissi
inissialmente
inissio
inizio
inlumina
inluminac
inluxo
inluxon
inma
inmacola
inmaculada
inmaggine
inmagina
inmagine
inmagini
inmedia
inmediatamente
inmigræ
inn
inna
innalc
innamoro
inni
inno
innoc
innocenti
innocenzo
innovac
innoxenc
innsbruck
ino
inoce
inocenso
inoltre
inougura
inouguro
inovac
inovati
inpa
inparentæ
inpe
inpeato
inpeatu
inpedi
inpegna
inpegno
inpegnæ
inpeia
inperato
inperatu
inperia
inperie
inperu
inpi
inpia
inpianti
inpianto
inpie
inplementa
inplementac
inpo
inpone
inporta
inportac
inportante
inportanti
inposci
inpostac
inpre
inprescio
inprexono
inprinc
inprinsipiu
inpromi
inprovi
inpu
inpurta
inpurtansa
inpurtante
inpurtanti
inqu
inqua
inquant
inquanta
inque
inquec
inqueximo
inquiname
inquixic
inrichi
ins
insc
insce
insci
inscia
inscio
inscri
inscric
inse
insediame
insediamenti
insediamento
insediamentu
insegna
insegname
insegnamento
insegno
insei
inseme
insemme
inseri
insetti
insieme
insigniorum
inso
inspia
inspiac
inspiao
inspira
inspirac
inspiro
inspiræ
inspiæ
instabilitæ
instalac
instalo
institoi
institu
instituc
institut
institute
instituto
instruc
instrume
insu
insuccesso
insuffic
insuffixente
insula
insurec
insurrec
int
inta
intagio
intanto
intantu
intatto
inte
integra
integrac
integræ
inteisa
inteiso
inteiza
inteletoa
intelletto
intemelia
intenc
intende
intendeiva
intensa
intenscitæ
intensitæ
intenso
intento
inter
intera
interac
interamente
intercala
interdentale
intere
interesa
interesante
interesci
intereso
interessa
interessante
interessanti
interesse
interesso
interessæ
interesæ
interlingua
interlingue
interme
intermedia
interna
internac
intername
internasiuna
international
internationale
internazionale
interne
internet
interni
interno
internu
intero
interogati
interpreta
interpretac
interprete
interpreto
interrotta
intersca
interscangi
interuc
interva
intervalli
interve
intervegni
intervegnu
interventi
intervento
interventu
intervucalica
intestin
inti
intitola
intitolao
intitolo
intitolæ
intitula
into
intorno
intra
intrando
intrao
intrapre
intrapreize
intrava
intre
intrec
intrega
intregamente
intrego
intria
intro
introdu
introduc
introdusse
introduto
introduxe
intron
intræ
intu
intuic
inturnu
inu
inutilmente
inva
invadde
invaria
invaxo
invaxoi
invaxon
invaxu
invaze
invazoi
inve
invece
invenc
inventa
inventi
invento
inventou
inverna
invernale
inverno
inversa
inverscio
inverso
inverti
investi
investime
investimenti
investio
invexe
invexenda
invi
invia
inviao
invinc
invio
invita
invito
inviæ
invrea
inza
inzegne
inzegno
io
iogosla
ioi
ioin
ion
iona
ionai
ionaia
ionaio
ionale
ionali
ionalismo
ionalista
ionalitæ
ionalizac
ionalme
ionalmente
ioname
ionamento
ionao
ione
ioni
ionio
iono
ionou
ionæ
iosa
iose
ioxi
ioza
iozo
ipa
ipac
ipali
ipalitæ
ipalme
ipalmente
ipao
ipato
ipatu
ipava
ipe
ipi
ipia
ipio
ipita
ipitac
ipo
ipotexi
ipotiza
ipottexi
ippi
ippio
ippocrate
ippolito
ipro
ipsius
ipsum
ipæ
ir
ira
iran
iraq
irca
ircolac
ire
iregola
ireland
iri
irla
irlanda
irlande
irlandeize
iro
iru
is
isa
isaac
isabella
isaia
isbn
isce
iscri
iscric
ise
isi
isla
islam
island
islanda
islande
islands
ismo
isni
iso
isoa
isoe
isola
isole
isonc
ispira
israe
israele
isræ
issa
issael
ist
ista
istanbul
istat
isti
istitu
istituc
istitui
istitusiu
istituto
istmo
isto
istoria
istoriche
istri
istro
istruc
istrusiu
isua
isula
isule
isura
it
ita
itac
itade
itadi
itadin
itae
italia
italian
italiana
italiane
italiani
italiann
italianna
italiano
italica
italico
italie
italien
itallia
italo
italorum
italy
itamente
itan
itao
itava
ite
iten
iti
ito
itoi
its
itta
ittadin
ittadinanc
ittara
itten
ittoa
ittæ
itu
itutto
itæ
iu
iudu
iue
iugoslavia
iui
iuin
iun
iuna
iunale
iunali
iure
ius
iv
iva
ivan
ive
ivesco
ivescova
ivescovi
ivi
ivia
ivie
iviltæ
ivimo
ivo
ivrea
iwerks
ix
ixe
ixi
ixo
ixon
iza
izabe
ize
izego
izi
izo
izoa
izoe
izola
izolame
izolo
izolæ
izoo
izoæ
iæ
j
ja
jack
jackson
jacob
jacopo
jacques
james
jan
jane
janeiro
jannacci
janua
janue
januenses
jardin
java
javascript
jazz
je
jean
jeronimo
jersey
jerusalem
ji
jigen
jimmy
jin
jinping
jo
joachim
joan
joe
johann
johannes
john
johnny
johnson
jolly
jones
jorge
jori
jose
josep
joseph
journal
jpeg
jpg
jr
ju
juan
jujuy
jules
julia
julius
juniores
jus
juventus
jvilu
k
ka
kabul
kafka
kai
kal
kalac
kallikratis
kamchatka
kansai
kansas
kant
karajan
karl
kathmandu
kazakista
ke
keith
kennedy
kent
kentucky
kenya
keplero
kg
khan
khoisan
ki
kierkegaard
kiev
king
kingdom
klee
kletskaja
klimt
km
ko
kong
konrad
kordofania
kosovo
kravc
kritik
ku
kuala
kunsthistorisches
kuomintang
kuwait
kyo
l
la
laborato
labrador
lac
lacremo
ladi
lady
lae
laghettu
laghi
lago
lagrime
lagu
laichi
laico
lake
lama
lamba
lamboglia
lambro
lame
lamento
lamine
lampe
lampogas
lan
lanbre
lanc
lancia
land
lande
langhe
language
languages
langue
langues
lanka
lante
lanteri
lanterna
lao
laoa
laoac
laodice
lapide
laplace
larga
largame
largamente
larghe
larghec
larghessa
larghi
largo
lari
lario
larus
larve
las
lasagne
lasce
lascia
lascian
lasciando
lasciao
lasciava
lascio
lasciu
lasciæ
lasciæme
lassio
lastre
lat
lata
late
latera
laterane
lati
latin
latina
latine
latinn
latino
latinus
latitu
lato
latto
latu
laude
laugh
laura
laurea
laurence
laurent
lauro
lauzi
lava
lavagna
lavau
lavezzi
lavo
lavoisier
lavoratoi
lavoro
lawrence
laza
lazerne
lazio
lazzao
lazzaro
lbi
lbo
lbon
lbum
lc
lca
lccn
lche
lchi
lcolo
ld
ldegalerie
ldi
ldo
le
lea
leader
lebrun
lec
leca
lecce
lecco
leco
leda
lee
left
lega
legale
legali
lege
legenda
legerme
legermente
leges
legge
leggere
leggia
legi
legis
legislac
legislati
legislativa
legislativo
legislato
legittima
legna
legni
legno
legnu
lego
legu
lei
leibniz
leif
leipzig
leitu
lemur
lemuridae
lemuriformes
lemuroidea
lena
lenga
lengoa
lengoe
lengoi
lengoistega
lengoistego
lengua
lenguaggio
lengue
lengueia
lengui
lenguistega
lenin
lennon
lensa
lenta
lentamente
lenti
leo
leon
leonard
leonardo
leone
leonida
leopardi
lepanto
lepisosteidae
lepisosteus
leppanto
lerca
lercæ
lerici
lerma
lerrone
leru
lerun
lerze
les
lesbia
lescica
lesegno
lessico
leste
letera
leteralme
letia
letiaia
letiatu
letie
leto
letoi
lettera
letteratura
lettere
lettero
lettia
lettiaia
lettiaio
lettiatu
lettiatua
lettie
letto
lettres
lettu
lettua
letu
leucociti
leugo
leugotene
leva
levante
levantin
levanto
levao
leveru
levi
levo
levæ
lewis
leze
lezenda
lezendia
lezu
lezze
lezzendia
lezzi
lfi
lga
lgaro
lgio
li
lia
liaodong
liatre
liatri
liba
libano
libarna
libbera
libbri
libbro
libbru
libe
libei
liber
libera
liberac
liberamente
liberata
libere
liberi
libero
liberta
libertas
liberty
libertæ
liberu
liberæ
libia
libiac
libra
libraja
libraje
libraries
library
libre
libreria
libretto
libri
libro
libru
lic
lica
lice
licenc
liche
lichi
lici
lico
licu
lida
lide
lidi
lido
lie
liechtenstein
liegi
life
lig
liga
ligae
ligamme
ligammi
ligammo
ligao
ligatu
lighae
lighe
light
lighæ
ligna
ligne
ligo
ligu
ligure
liguri
liguria
ligæ
lii
lij
like
lili
lille
lima
limicoli
limita
limitac
limitao
limite
limiti
limito
limitæ
limmiti
limo
limon
limone
limu
limun
lin
lincoln
line
linea
linee
linfociti
lingotto
lingua
linguistica
linia
linie
link
links
linnaeus
linne
linneo
linnia
linnie
linux
lio
lioi
lion
liona
lione
liotri
lippi
liquidi
liquido
lire
lirica
lirico
lis
lisa
lisandria
lisbon
lisbonn
liscia
lisciandria
lisciandru
lisi
lisoclino
list
lista
liste
lite
litera
literatu
liti
lito
litoa
litografi
litografia
litro
litta
little
litu
lituania
litæ
liu
liv
live
livelli
livello
livellu
livingstone
livio
livo
livonnia
livorno
livre
livrea
lix
lixi
ll
lla
llae
llanito
lle
llengua
ller
lli
llia
llo
llu
lma
lo
loc
loca
local
locale
locali
localitæ
loco
locomoti
locomotive
locæ
lode
lodi
lodigiano
lodovico
loe
loei
loenc
loens
loenso
loggia
loghi
logica
logico
logistiche
logo
logoramento
logra
loi
loigi
lombardi
lombardia
lombardo
lomeli
lomelin
lomellin
lomellina
lonardo
lonba
lonbardi
london
londra
long
longa
longhe
longhec
longhessa
longhi
longhixe
longitu
longo
longoba
longobardi
longoma
longu
lonta
lontan
lophodytes
lor
lord
lore
loredana
loren
lorenzo
loreto
loritto
loro
los
lotta
lotte
lotto
lotus
lou
loua
loue
louis
louisia
louvre
love
low
lpa
lpj
ls
lsa
lsci
lse
lso
lsu
lta
ltan
lte
lti
ltica
ltiche
ltico
ltipli
ltiplo
lto
ltre
ltro
ltu
lu
luc
luca
lucale
lucali
lucalita
lucalite
lucalmente
lucca
lucciardi
lucco
luce
luchetto
luchi
lucia
luciano
lucio
lucius
lucky
luco
lucre
lucrec
lucrezia
ludendorff
ludovico
ludovigo
ludwig
lue
luensu
luftwaffe
luga
luggio
luglio
lugo
lui
luigi
luis
luisa
luli
luma
lumino
luminoxitæ
lumpur
lun
luna
lunai
lunaio
lunario
lunati
lunde
lune
lunedi
lunesdi
lunetta
lunfardo
lunga
lunghe
lunghessa
lunghi
lungo
lungu
luni
lunigia
lunigiann
lunn
luo
luogo
lupin
lupo
lupus
lure
luscemburgo
luscia
lusciandria
lusciandrin
lusciandro
lusenbu
lusenburghe
lusia
lute
lutera
lutero
luther
luti
luvegnu
luxe
luxemburg
luxi
lva
lve
lvi
lvizzi
lvo
lx
lxx
lycopersicum
lyon
læte
lœu
lœughi
lœugo
lœugodoo
lœugotenente
m
ma
maaspin
mac
maca
maccaia
macce
macchina
macchine
maccia
macciavello
maccie
mace
macedo
macedonia
machiavelli
machina
machine
machini
maciste
macontento
macro
macrofami
macron
mad
mada
madagascar
madale
madama
madame
maddalena
made
madeira
mado
madona
madone
madonna
madre
madri
madrid
madænn
mae
maestri
maestæ
maffei
maga
magara
magazi
magazin
magazine
mage
magellan
magenta
maggio
maggioi
maggior
maggioranc
maggioransa
maggiore
magi
magio
magioi
magiora
magister
magistra
magistrati
magistratu
magiu
magiura
magliano
magna
magnetico
magni
magnifica
magnifico
magno
mago
magra
magro
magrun
mahon
mai
maia
maiano
maie
maiezzo
maina
mainaja
maine
mainea
mainee
mainæ
maio
maira
maire
mais
maja
majo
major
mal
mala
malan
malaria
malaspina
malayo
malaysia
malche
male
malgraddo
malgrat
mali
malinverni
mallare
mallorca
malo
malta
malte
maltin
mama
mameli
mami
mamma
mammalia
mammifei
mammiferi
man
manae
manara
manca
mancan
mancanc
mancansa
manci
mancin
mancini
mancinn
manciu
manco
mancu
manda
mandao
mandari
mande
mandi
mandillo
mando
mandæ
mane
manena
manera
manet
maneuvra
manezzi
manfredi
manga
mangia
mangian
mangio
mani
manicheismo
manifatu
manife
manifesta
manifestac
manifestasio
manifestasiu
manifestasiui
manifestassio
manifesto
manima
maniman
manin
manitoba
manitæ
mann
mannega
mannego
mano
manoa
manoscri
manoscriti
manoscrito
manoælo
mante
mantegna
mantegne
mantegni
mantegnime
mantegnimento
mantegnu
mantoa
mantova
manuel
manutenc
manutensiu
manzo
manzoni
manœuvra
manœuvre
mao
maometto
maone
maori
maoric
maotia
maotie
map
mappa
mappe
mapuche
mar
mara
maragia
maragliano
marat
maratta
marc
marca
marcaieu
marcanto
marcatoi
marceau
marcel
marcello
march
marche
marcheiji
marcheize
marches
marchesa
marchesato
marchese
marchesi
marchetti
marchexa
marchexi
marchexu
marcheza
marchi
marcia
marco
marconi
marcu
marcus
marcæ
mare
marengo
marga
margai
margaita
margarita
margherita
marguare
marguareis
mari
maria
mariae
marian
marie
marila
marilyn
marin
marina
marineri
marines
marini
marinn
marino
marinus
mario
maris
maritima
marittima
marittime
marittimo
mark
marlene
marlon
marmao
marmela
marmeli
marmelin
marmo
marmora
marmu
marna
maro
marocchin
marocco
maronci
marotti
marotto
maroxello
mars
marsa
marse
marseggia
marseille
marshall
marso
marston
marsu
marta
marte
martedi
martha
marti
martii
martin
martinettu
martini
martinica
martino
martire
martiri
martirio
martiriu
martœuio
marx
mary
maryland
marzari
marzo
mas
masa
mascara
mascardi
mascci
masccio
masche
maschera
mascheræ
maschi
maschili
masci
mascima
mascimame
mascime
mascimi
mascimin
mascimo
mascimu
masciscio
mascoli
mascolin
mase
masi
massa
massachusetts
massacro
masse
massena
massimo
masso
masu
mata
mate
mategnu
mateia
mateie
matema
matematica
matematiche
matematichi
matematico
mateo
mater
materia
materiale
materiali
materiæ
materna
materno
matesdi
mathrm
mati
matia
matin
mato
matrimo
matrimonia
matrimonio
matrimonnio
matrixe
matte
mattei
matteo
matteotti
matteu
mattin
matto
maturac
maturitæ
mau
maurice
mauritania
mauritius
maurizio
mauro
max
maximilien
may
maya
mayor
mays
mazi
mazo
mazu
mazzin
mazzini
mazzo
mazzu
mb
mba
mbolo
mbre
mc
mclaren
mcmillan
me
mea
meca
mecani
mecanizao
meccanica
meccaniche
meccanico
meccanismi
meccanismo
meccanizao
meccanizæ
mecena
meda
medaggia
medagio
meddia
meddie
meddio
mede
media
mediac
mediamente
mediante
mediato
mediawiki
medici
medico
medie
medieva
medievale
medievo
medievæ
medio
medioe
medioevo
meditac
meditera
mediteranio
mediterannio
mediterra
mediterranea
mediterraneo
mediterranio
mediterrannio
mediu
mediuevo
mediuevu
mega
meghe
meghi
megio
megioa
megiu
meglio
megliu
mego
megollo
megu
mehmet
mei
meiji
meise
meistri
meistro
meito
meitæ
meixi
meixin
meixinna
meiza
meize
melanitta
melbourne
melilla
melitensis
mella
melo
melodi
melodramma
melogno
meloia
members
membri
membro
memo
memoia
memoie
memoria
memorie
men
mena
menac
menbri
menc
mendaiga
mende
mendoza
mengs
meni
menic
menko
menn
meno
menoi
mensciuna
mensona
mensono
mensonæ
mensunu
menta
mente
menti
mento
mentre
mentu
mentun
mentunascu
menu
menuti
meo
mer
mera
merc
merca
mercanc
mercante
mercanti
mercao
mercati
mercedes
merci
mercitalia
merckx
merco
mercoe
mercosur
mercu
mere
merganser
mergellus
mergini
mergus
meri
meria
meridia
meridio
meridiona
meridionale
meridionæ
meridiu
merisi
merito
mero
meru
merula
mes
mesa
mesccia
mescciu
mescciua
mescciæ
meschin
meschine
mesci
mescia
mescico
mescinn
mescio
mesco
mese
mesi
mesima
mesoi
mesopotamia
messa
message
messaggio
messe
messiavo
messina
messu
meste
met
meta
metafixica
metal
metalli
metallica
metallichi
metallico
metallo
metano
metastasio
metazoa
mete
meti
metodi
metodo
metr
metri
metro
metropolita
metropolitan
metropolitann
mette
metteiva
mettendo
metternich
mettodi
mettodo
meu
meucci
meue
mexico
mexima
meximo
meximu
mez
meza
mezan
mezane
meze
mezi
mezo
mezu
mezua
mezuac
mezue
mezzi
mezzo
mezzu
mg
mi
mia
miaco
miage
miagge
miagia
mica
micca
michael
miche
michel
michelangelo
michele
michi
michigan
mickey
mickiewicz
mico
micro
microfilm
micronac
micronesia
microsoft
mide
midi
mido
mie
miga
miggia
miggiæa
migia
migiæa
migl
miglia
migna
mignanego
migrac
migrato
migratoi
miguel
mike
mil
mila
milan
milane
milaneize
milanese
milano
mile
mili
milia
miliardi
milic
milio
milioi
milioin
milion
milita
militae
militare
militari
milito
militæ
miliu
mill
millante
mille
millennio
miller
millioi
millioin
mime
min
mina
minacia
minas
minatoi
minde
mine
minera
minerva
mineræ
minetta
ming
mini
miniato
miniatu
miniatue
miniatura
minimo
ministe
ministeio
ministri
ministro
minn
minnimo
mino
minoi
minor
minora
minoranc
minoranse
minore
minoscola
minoscolo
minsona
minsono
minsonæ
minu
minua
minuranse
minuta
minæ
mio
mioin
mion
mir
mira
miracolo
mirandola
miscio
miscioi
miscioin
miscion
misciona
misciscippi
mise
miseia
miserico
misericordia
miss
missa
misse
missi
mission
misso
missouri
missu
miste
misteio
mistic
mistica
mistral
mit
mita
mite
miti
mito
mitologi
mitologia
miura
mixe
mize
mizeico
mm
mma
mman
mmate
mme
mmi
mmio
mmo
mmu
mo
moa
moae
moasan
mobbile
mobile
mobili
moc
moco
modalitæ
moddi
moddo
moddu
mode
modelli
modello
modena
modera
modern
moderna
moderne
moderni
moderno
modero
modesto
modi
modifica
modificare
modifiche
modifico
modificæ
modigliani
modo
modugno
moe
moen
moenn
moge
mogge
mogo
moi
moia
moin
moinello
moizes
mola
molchat
molda
mole
molecola
molecolare
molecole
molfino
moli
moll
molle
mollissima
molo
molte
molti
moltiplica
molto
molu
mome
momenti
momento
mon
mona
monaco
monarca
monarchi
monarchia
monarchie
monastero
monbe
moncalieri
monda
mondadori
monde
mondi
mondia
mondiale
mondinn
mondo
mondovi
mone
monega
monegasca
monegasco
moneghe
moneghi
monego
moneste
monet
moneta
monetac
monfero
monferrato
mongo
moni
monic
monicelli
monici
monicipa
monnego
mono
monopollio
monroe
mons
monsa
monscigno
mont
monta
montado
montagna
montagne
montagno
montaldo
montale
montalto
montan
montana
montann
montao
monte
montegale
montelupo
montene
monteneigro
montenotte
montero
monterosso
montessori
monteverdi
montevideo
montexe
montgomery
monti
monto
montoggio
montserrat
montæ
montœuggio
monu
monume
monumenta
monumenti
monumento
monzo
monæa
monæe
mora
morale
morandi
more
morelli
moreno
moretta
moretti
morfe
morfolo
morfologi
morfologia
mori
moric
morini
morio
mormu
moro
morse
morta
morte
morti
mortio
morto
mortu
morula
moræ
mosaic
mosaico
mosca
mosche
moschea
mose
mosella
mosse
mostra
mostran
mostrando
mostrava
mostre
mostro
mostron
mostræ
mosulma
mosulme
mot
moti
motivac
motivi
motivo
moto
motore
motori
motoriza
motrice
motta
mottle
mou
mountain
mouse
mouti
moutia
mouttia
mouttie
movement
movime
movimenti
movimento
moza
mozart
moze
mozilla
moæ
mpi
mpo
mpre
mpu
mr
ms
msi
mu
mua
mude
muderna
mudernu
mudifica
mudifiche
muggio
mugil
mui
muin
mullus
mume
mumentu
munaste
mundia
mundiale
mundio
mundu
mundui
munduvi
munegasca
munegasche
munegascu
muneghi
munegu
muneste
mungiarde
mungioje
munic
munici
municipio
municipium
munisipiu
munta
muntagna
muntagne
muntana
munte
munteno
munti
munume
munumentu
mura
murat
muratori
mure
murge
murillo
murta
murte
murtimediæ
murturatu
musa
muse
musei
museo
museu
museum
museums
music
musica
musical
musicista
musso
mussolini
mussurman
mussurmoen
mustra
mustre
mutamenti
mutivasiu
mutti
muxica
muxici
muxicista
muxicisti
muxicæ
muza
muze
muzeo
muæ
my
myanmar
mæ
mæn
mænn
mæxima
mæxime
mæximi
mæximo
mœu
mœuve
n
na
nac
naca
nache
nacional
nada
nadar
nafta
nale
nali
nam
name
names
namibia
nan
nanning
nano
nanowar
nantes
nanti
napole
napoleo
napoleon
napoleone
napoli
napolio
napolion
napolita
napolitan
napolitano
nappoli
napuleo
napuleu
napuleun
napuli
nara
naro
narrac
narratione
naru
nasa
nasago
nasce
nascette
nasci
nascia
nascion
nascita
nasciu
nasciua
nasciuo
nasino
nasionale
nasiuna
naso
nat
nata
natale
natanælo
nati
national
nationale
nations
nativa
nativita
nativitæ
nativo
nato
natta
natu
natua
natura
naturae
naturale
naturali
naturalista
naturalme
naturalmente
nature
naturelle
naturæ
nau
nauru
nava
nave
navega
navegac
navegando
navegato
navi
naviglio
navo
navy
navæ
naxi
naxin
naz
naza
nazi
nazionale
nba
nbalo
nbe
nbia
nbito
nbo
nboli
nbolo
nbra
nbre
nbri
nbro
nc
nca
ncan
nce
nche
nchi
nci
ncia
ncie
ncio
ncipu
nciu
nco
ncoli
ncu
ncua
nculi
nd
nda
ndan
ndard
nde
ndego
ndel
ndez
ndi
ndia
ndica
ndican
ndice
ndichi
ndici
ndico
ndie
ndio
ndise
ndl
ndo
ndoa
ndoghe
ndola
ndolo
ndone
ndose
ndra
ndre
ndria
ndro
ndu
nduse
ne
nea
near
nebre
nebri
nec
necesa
necescitæ
necessai
necessaia
necessaiamente
necessaie
necessaio
nega
negac
negati
negativa
negative
negativi
negativo
neghe
neghi
negli
nego
negoc
negre
negri
negro
negron
negu
nei
neigra
neigre
neigri
neigro
neigropo
neigru
neill
neive
nel
nell
nella
nelle
nelson
nemi
nemiga
nemighe
nemigo
nemixi
nen
nendo
neo
neocla
neoli
neorolengoi
neotra
neotralitæ
nepal
nera
nere
neri
nero
neron
nervi
nervia
nervoso
nes
net
neta
neto
netta
nettamente
netto
network
neu
neutte
neuva
neuve
neuvec
neuvi
neuvo
neva
nevada
nevadda
neve
nevers
nevi
nevis
nevo
new
news
newsletter
newton
nexi
nfo
nfue
ng
nga
nge
ngei
ngeo
nghe
nghessa
nghi
ngi
ngia
ngian
ngio
ngioi
ngiou
ngiu
ngo
ngoa
ngoan
ngoe
ngoli
ngolo
ngu
ngua
ngue
ni
nia
niatri
nic
nica
nicac
nicaragua
nicasiu
nicassio
niccia
niccolo
nice
niche
nichi
nichio
nichioso
nichiozo
nici
nico
nicola
nicolas
nicolaus
nicolin
nicolino
nicolla
nicolo
nicu
niculu
nidi
nidifica
nidificac
nie
niels
niente
nietzsche
nievo
niger
nigeria
night
nightingale
nigra
nigsberg
nii
nikolaj
nilo
nima
nime
nimi
nimo
nimu
ninfe
nino
nint
ninte
nio
niorche
niotri
niovu
nira
nisciu
nisciun
nise
nissa
nista
nita
nite
nitschke
nitæ
niu
niue
niversa
niverscitæ
nixi
nl
nla
nm
nn
nna
nne
nni
nnia
nnio
nno
nnu
no
noa
noan
nobbile
nobbili
nobel
nobile
nobili
nobilia
nobiltæ
nobuyoshi
noc
noe
noeuva
noeuvo
noi
noia
noli
nologia
nom
noma
nome
nomi
nomia
nomiagio
nomina
nominao
nomino
nominæ
nomiose
nomioxi
nomme
nommi
nommina
nomo
noms
non
nona
nonc
nonche
none
nono
nonostante
nonsia
noo
nord
nori
norimberga
norma
normale
normalme
normalmente
norman
normandia
normanni
normati
normativa
norme
noro
north
northern
norve
norvege
norvegeixi
norveggia
norvegia
nos
nostra
nostre
nostri
nostro
nostru
nostræ
not
nota
notabile
notac
notari
note
noteive
noteivi
notevole
noti
notic
notizie
noto
notre
notta
notte
notto
notu
nou
nous
nov
nova
novanta
novara
novarese
novaro
nove
novecento
noveize
novella
novembre
novenbre
novi
novitæ
novo
novæa
now
noxe
nozze
npa
npe
npi
npia
npio
npiti
npito
nplice
nplici
npo
npre
npu
npæ
nque
nr
ns
nsa
nsan
nsce
nsci
nscio
nscrito
nse
nsi
nsia
nsie
nsl
nso
nsoi
nsole
nsoli
nsu
nt
nta
ntale
ntan
nte
nteresse
nternac
ntexi
ntgen
nti
ntica
ntiche
ntichi
ntico
ntl
nto
ntoa
ntr
ntra
ntran
ntre
ntri
ntro
ntru
ntu
ntulnu
nu
nua
nuc
nuclea
nuclei
nucleo
nucleu
nuevo
nuio
nulla
numa
number
nume
numera
numerac
numeri
numero
numerose
numeroxi
numi
numina
numioxi
numioze
numismatibus
numma
numme
nummero
nummi
nun
nunsia
nunustante
nuova
nuove
nuovo
nure
nuremberg
nureyev
nus
nustalgia
nuta
nuto
nutri
nuvaize
nuve
nuvembre
nuvenbre
nuvie
nuxei
nvece
nxi
nxito
nza
nzan
nze
nzi
nzo
næ
nœu
nœutte
nœuva
nœuve
nœuvi
nœuvo
o
oa
oato
obedienc
oberto
obiettivi
obiettivo
oblast
obliga
obres
obrighi
obrigo
oc
oca
ocaxon
occ
occaxion
occidenta
occidental
occidentale
occidente
occu
occupa
occupac
occupao
oceani
oceaniche
oceanici
oceano
ochin
oci
ocidenta
ocidente
ocidentæ
oclc
ocluxi
ocore
ocupa
ocupac
ocupao
ocupo
ocupon
ocupæ
oddi
ode
oder
odescalchi
odi
odia
odio
odo
odontoiatria
oe
oecd
oedemia
oersted
of
ofensciva
ofenscive
off
offenbach
offensciva
offic
office
offset
ofi
ofic
ogetti
ogetto
oggetti
oggetto
oggi
oggni
oglio
ogni
ognun
oh
ohio
oi
oigu
oin
ois
oiseau
oive
ok
okh
oklahoma
okrug
ol
ola
olanda
olande
olandeise
olandeixi
olandeize
olcese
old
ole
oleracea
olganu
oli
olim
olimpiade
olimpiche
oliva
olivari
olive
oliver
olivetta
olivetti
olivier
olivieri
olivin
olmi
olo
olona
olpi
oltre
oltrema
omaggio
ombra
ombre
ome
omero
omi
ommi
ommo
ommu
omnia
omo
omonima
omonimo
omu
on
ona
ond
onda
onde
one
ongio
online
onnu
ono
onoi
onorato
onore
ont
ontario
onu
oo
op
ope
open
openoffice
opera
operac
operaio
operativa
operativo
opere
opiac
opinion
opole
oportun
oportunitæ
opoxic
oppeln
oppidum
opposta
oppu
oppure
opu
opus
or
ora
orac
orale
oratoiu
oratorio
orazio
orba
orbetello
orbita
orbite
orc
orcagna
orchestra
orcid
orco
orcu
orde
ordena
ordenamento
ordeno
ordi
ordina
ordinaie
ordiname
ordinao
ordine
ordini
ordino
ordo
ore
oregon
oreste
org
organi
organica
organismi
organismo
organiximi
organiza
organizac
organizo
organizza
organizzac
organizzo
organizzæ
organo
organu
ori
oria
orienta
orientale
orientali
orientamento
oriente
orientæ
orietta
origanum
origgine
origina
originaia
originaiamente
originaio
originale
originalitæ
origine
origini
originæ
orio
orizzonta
orizzonte
orlando
orle
ormai
orme
ormea
ornithologica
ornitologia
ornitologico
oro
orpe
orsay
orso
orson
orto
ortodo
ortodossa
ortografia
ortopantomografia
oryctolagus
os
oscar
oscars
osce
osci
oscia
oscidi
oscigeno
oseria
oservac
osiglia
oslo
ospedale
ospita
ospite
osse
osserva
osservac
osservao
osservato
osservatoi
ossia
osso
ossæ
ostendit
osti
ostia
ostilitæ
ostinac
ostralegus
ostria
oswald
ot
ota
otaggio
ote
otello
other
oti
otis
oto
otobre
otr
otra
otrama
otrazo
otre
otri
ott
otta
ottanta
ottava
ottavian
ottavio
ottawa
otte
ottegne
ottegni
ottegnu
otto
ottobre
ottoman
otton
otu
ou
oua
ougu
oura
oure
ourense
ouro
oustra
oustralia
oustralie
oustri
oustro
oustronezia
out
outo
outoi
outomatizo
outonomi
outorita
outoritræto
outoritæ
outostra
outre
outu
ova
ove
ovest
oviedo
ovviamente
oxelli
oxello
oxellu
oxford
oza
p
pa
pablo
pac
pacciu
pace
pachi
paci
paciffigo
pacific
paciu
pada
padann
paddre
padigio
padoa
padova
padre
padro
padroi
padroin
padron
pae
paes
paesaggi
paesaggio
paesaggiu
paese
paesi
pag
paga
pagame
pagamenti
pagamento
pagan
pagani
paganin
paganini
pagano
page
pagellus
paggi
paggina
paggine
paghen
pagina
pagine
pagioæ
pago
pagæ
pai
painting
paire
pais
paise
paisi
paiva
paixi
paiza
paize
pakista
pakistan
pal
pala
palac
palace
palacio
palais
palanche
palassi
palassio
palassiu
palasso
palassu
palata
palatin
palatina
palavici
palazzo
pale
paleo
paleocene
paleologo
paleontologi
palermo
palesti
palestin
palestine
palestineise
palestinn
palestrina
paleuliticu
pali
paliu
palla
pallapugno
pallas
pallavicino
palma
palo
paltia
palu
pama
pamparau
pamphili
pan
panama
panc
pancado
pandemi
pane
panero
pani
panni
pano
panora
panorama
panoramio
panoramma
pansa
panta
pantalera
pantalin
panto
panua
panura
panurus
panzer
panzerkorps
pao
paola
paole
paoli
paolo
papa
papagallo
papato
pape
paploir
papoa
pappa
pappagallo
pappe
papua
papæ
par
para
paradi
paradiso
parago
paragon
paragona
paragu
paraguay
parai
parale
parallasse
parana
paranco
parasci
parc
parche
parchi
parco
parcosce
parcu
pare
pareiva
parente
parentexi
parenti
parete
pareto
pari
paria
paridae
pariggi
parigi
parini
paris
parisani
parise
paritæ
park
parla
parlame
parlamenta
parlamento
parlamentu
parlan
parlanti
parlao
parlau
parlava
parle
parlia
parlo
parloo
parlou
parlæ
parma
parme
parmæa
paro
parocchia
parocchie
parochia
parochiae
parodi
parodontale
parola
parole
parolla
parolle
parra
parro
parrocchia
parse
part
partan
parte
partec
partecipa
partecipac
partecipasiu
partenc
partensa
partexelle
parti
partia
partic
partice
particella
particelle
partico
particola
particolare
particolari
particolaritæ
particolarme
particolarmente
particolæ
particula
particulare
particulari
particularmente
particulo
partie
partigen
partigia
partigian
partigie
partii
partindo
partindu
partio
partiti
partito
partitu
partiva
partixelle
parto
paruchia
paruchiale
paruchio
parus
pas
pasa
pasage
pasaggio
pasando
pasandu
pascal
pascarella
pasci
pascia
pascio
pascioin
pascion
pascoli
pase
pasegia
paseo
pasha
pasi
pasia
pasiente
paso
pasou
pasqua
pasquale
pass
passa
passaggio
passaggiu
passan
passando
passandu
passano
passao
passava
passe
passeggia
passer
passi
passion
passo
passon
passou
passu
passæ
pasta
paste
pasto
pastoi
pastora
pastu
pastura
pasæ
pata
patagonia
patate
pate
paterno
pati
pato
patois
patologia
patologie
patri
patria
patriarca
patric
patrimo
patrimonio
patrimonnio
patrio
patro
patron
patruna
patti
patto
pattria
pau
paul
paulo
paulu
paulus
pav
pavel
pavese
pavi
pavia
pavime
pavimentu
pavon
pavone
paxe
paxiffego
paz
paziente
pazo
pc
pdf
pe
pea
peagallo
pec
peccao
peccæ
pechi
pechin
peco
pedemo
pedevilla
pedona
pedro
pei
peia
peighi
peigo
peio
peiso
peive
peizo
pela
pelagicus
pele
pelegri
pelegrina
peli
pelisa
pelle
pellegrin
pellegrino
pen
pena
pende
pendi
pendola
penetra
penetrac
peni
penisoa
penite
penitenc
penizoa
penna
pennavaire
pennsylvania
pennsylvannia
pensa
pensao
pensato
pensatoi
pensava
pensce
penscei
pensceo
pense
pensiero
penso
pensæ
pentecoste
pentwater
penu
penuti
peo
peoburgo
people
pepin
per
pera
perac
peragallo
perati
perc
percec
perche
percio
perco
percore
percori
percorindo
percorso
percose
percursu
percy
perde
perdere
perdette
perdi
perdia
perdie
perdigiurni
perdita
perdo
perdon
perdu
perdua
perdue
perduo
pere
perelazovskij
peretta
perfe
perfec
perfetta
perfettamente
perfetti
perfetto
perfic
peri
pericle
pericolo
perife
periferi
periferia
perihelion
perio
period
periodi
periodo
periudi
periudu
perla
perle
perli
permane
permanenc
permanente
perme
permessu
permete
permettan
permette
permi
permissan
permisse
permisso
pernambuco
perno
pero
perotto
perpe
perpendicola
persa
perscia
perscian
perse
persecuc
persego
persia
perso
persoglio
person
persona
personaggi
personaggio
personalite
personalitæ
personalmente
personn
personna
personne
personæ
persu
persunalitae
persunalite
persune
persunn
pertanto
perti
perticae
pertini
pertu
pertusio
peru
peruche
peruggia
perugino
pesa
pesante
pesanti
pesca
pesce
pescetto
pesche
pesci
pescio
pesciu
pesco
pescoe
pescou
pesi
pessi
pesta
peste
pesto
peter
petit
petm
peto
petracco
petrarca
petro
petroli
petrolio
petromyzontidae
petromyzontiformes
petrucci
petu
peu
peuan
peza
pezante
pezanti
pezo
phage
phalacrocorax
philadelphia
philip
philippe
phoenix
photo
php
phylum
pi
pia
piac
piaf
piaggio
pian
piana
piane
pianeta
pianeti
pianissimo
pianista
piano
pianofo
pianoforte
pianta
piante
piastro
piatafo
piatti
piatto
piave
piaxe
piaxei
piaxenc
piaxensa
piaxenti
piazza
piazzolla
pic
pica
picasso
picca
piccena
picceno
picchi
picci
piccin
piccinn
piccioni
picco
piccola
piccoli
piccolo
piceni
piche
pichi
pici
picin
picina
picine
picinn
pico
pictures
pide
pidgin
pidi
pido
pie
piemo
piemonte
piemonteise
piemonteixi
piemonteize
piemunte
piemuntese
piemuntexi
piena
pier
piero
pierre
pieta
pieter
pietra
pietre
pietro
pietæ
pieve
piffero
pig
piga
piggia
piggian
piggio
piggiou
piggiæ
pigia
pigiando
pigiao
pigio
pigion
pigiæ
pigna
pignasecca
pignaverde
pigne
pigneu
pigno
pignoe
pigo
pigs
pil
pila
pilastri
pilla
pilo
pilota
pin
pinacote
pinacoteca
pinc
pine
pinerolo
pingui
pinn
pino
pinocchiu
pinturicchio
pinyin
pio
piola
piombo
piovanello
pippo
pira
pirateri
pirati
pirenei
pirenæi
piro
piroscafo
pis
pisa
pisano
pisces
piscopo
pissu
pista
pisto
piston
pita
pitagora
piteto
piti
pito
pitoe
pitoi
pitti
pittin
pitto
pittori
pittu
pittua
pittura
pitu
pitua
pituæ
piu
pius
piza
pizan
pize
pizzi
pizzu
pl
pla
plac
placca
place
placentalia
placido
plan
plantae
plata
plato
platon
platonica
play
plaza
please
pli
plinio
plu
plura
plurale
plus
plusvalo
pluvialis
pm
pneumotorace
png
po
poc
poca
poche
pochi
poco
pocu
podesta
podiceps
poe
poei
poeiva
poeivan
poema
poemetto
poemo
poendo
poese
poesia
poesie
poesse
poeta
poeti
poetica
poetico
poettan
poette
poeu
poexi
poexia
poexie
poggi
poggio
poggiu
poi
poiche
poincare
poissons
poistæ
poitiers
pola
polacca
polacco
pole
polemica
poli
polic
policy
polinesia
polinesian
politego
politi
politica
politicame
politicamente
politiche
politichi
politici
politico
polittica
polittichi
polittico
pollaiolo
polli
polmon
polo
polonia
polte
polyodontidae
pomeran
pomerania
pomeriggio
pompe
pompeiana
pompeo
pompidou
pon
ponan
ponc
poncin
pone
ponen
ponendo
ponente
pons
pont
ponta
ponte
pontede
pontedeximo
pontefixe
pontevedra
ponti
pontifi
pontific
ponto
pontre
pooh
pop
pope
popola
popolac
popolare
popolari
popolaritæ
popolasio
popolasion
popolassio
popolassion
popoli
popolo
popolæ
poppa
poppins
poppoli
poppolo
por
pora
porc
porchetto
porci
porcus
poria
porie
porieiva
porieivan
poriæ
pormo
poro
porriæ
porsche
port
porta
portan
portando
portao
portava
portavan
porte
portegu
porti
portia
portian
porto
portoa
portoe
portofi
portofin
portoga
portogallo
portoghe
portogheixi
portogheize
porton
portou
portrait
portret
portu
portæ
pos
posa
posci
poscibbile
poscibbili
poscibile
poscibilitæ
poscide
posciu
posciuo
pose
posede
posedime
possa
possan
possanc
posse
possede
possedimenti
possente
possesci
possesso
possibile
posso
possu
post
posta
postac
poster
posterio
posterioi
posti
posto
postu
postumia
potascio
potato
pote
potenc
potensa
potensiale
potente
potenti
potestas
pou
poula
poule
poulo
pour
povei
poveri
povertæ
povia
povie
povo
powell
power
powers
poxic
poxicio
poxiti
poxitivi
poxitivo
poze
pozzi
pozzo
poæ
pp
ppa
ppan
ppe
ppi
ppio
ppiu
ppo
ppu
pr
pra
prado
prae
praga
pragma
prati
pratica
praticame
praticamente
pratico
prato
prattica
prattiche
pravexi
pravexin
pre
prea
prearpi
prec
precede
precedenc
precedente
precedenteme
precedentemente
precedenti
precedu
preci
precisamente
precise
precixo
precixon
preciza
precizamente
precize
precizo
predica
predicac
predico
predominio
prefac
prefazion
prefe
prefei
preferi
prefetto
prefetu
prefi
prega
preghe
preghea
pregia
pregiudi
prego
preisa
preisto
preiza
preize
preizo
prela
prelimina
premento
premi
premia
premier
preminenc
preminente
premio
premmio
prende
prensipiu
preoccupac
preocupa
preocupac
prepa
prepaa
prepara
preparac
preparao
preparasion
preparativi
preparo
preparæ
prepote
prepoxic
pres
presbite
presci
prescide
prescidente
prescinso
prescio
prescioi
prescioin
prescion
prescjedu
prese
presedente
presedentemente
presedenti
presempio
presenc
presensa
present
presenta
presentan
presente
presenten
presenti
presento
presenza
preserva
president
presidente
presidium
presiu
preso
press
presso
presta
prestiggio
prestigio
presto
prete
preteize
pretende
pretesto
preto
prevale
prevalentemente
prevarse
preve
prevedde
prevede
prevedeiva
prevegni
prevenc
previ
previsti
previsto
prexo
prexoi
prexon
prexone
prexoni
prez
preze
prezempio
prezenc
prezenpio
prezensa
prezenta
prezentac
prezentan
prezente
prezenti
prezento
prezu
pri
pria
prian
prie
prima
primaia
primates
primati
primato
primave
primaveia
primaveja
primavera
prime
primi
primis
primma
primmaveia
primme
primmea
primmi
primmo
primmogenito
primmu
primo
primu
princ
prince
principa
principale
principatu
principe
principi
principu
prinsipa
prinsipale
prinsipali
prinsipalme
prinsipalmente
prinsipiu
prinsipo
prio
prioi
priora
priori
priscis
prise
priva
privao
privile
privileggi
privilegi
privilegia
privilegio
privo
privæ
prix
pro
proa
proba
probabbile
probabile
probabilitæ
probabilme
probabilmente
probat
proble
problema
problemi
proboscidea
proc
proce
procede
procedimento
procedu
procesci
procescio
procescioi
procesciona
processi
processo
procla
proclama
proclamac
proclamao
proclamo
proco
procobera
procua
procuao
procuo
prodotta
prodotti
prodotto
produ
produc
produe
produsion
produsse
produta
produti
produto
produtoi
produxe
proei
prof
profe
profescio
profescion
profesciona
profeso
professo
profeta
profeti
profi
profo
profonda
profondamente
profonde
profondi
profonditæ
profondo
profu
proge
progeta
progetac
progeto
progetta
progetti
progetto
progra
programma
programmi
progre
progresci
progrescivame
progrescivamente
progrescivo
progresi
progresivame
progresso
proibi
project
projects
prolonga
prolongame
prome
promette
promi
promissa
promisse
promo
promoc
promonto
promoto
promulga
pron
prono
prononc
pronta
pronto
pronu
pronunc
propa
propaganda
prope
propheta
propia
propiamente
propie
propietæ
propio
propiu
propo
propon
proporc
propose
proposta
proposte
proposto
propoxic
propoxito
proppi
proppia
proppie
proppio
proppiu
propri
propria
proprie
proprieta
proprietæ
proprio
propriu
proscimitæ
proscimo
prose
prosegui
prosperitæ
prospero
prospeti
prospettiva
prospettive
protagoni
protagonista
protagonisti
prote
protec
protesta
protestante
protestanti
proteste
proteto
protetoi
protetora
protetto
proteze
proto
protoco
prototipo
proust
prova
prove
provedime
provedito
provegninte
provenc
provence
provenie
provenienc
provensa
proverbi
provi
provinc
province
provincia
provinsa
provinse
provizo
provo
provoca
provocando
provocao
provoco
proze
pru
prubabile
prubabilme
prubabilmente
prucesciu
prucesciuna
prudenc
prudo
prudu
prudusiu
prufesu
prufundita
pruge
prugeti
prugetti
prugettu
prun
prununsia
prunus
prupieta
pruprieta
pruscia
pruscian
prute
prutesiu
prutetu
pruve
pruvenc
pruvensa
pruvincia
pruvinsa
pruvinsale
præ
præve
prævi
prœuva
prœuve
prœuvo
psara
psiche
psicologia
psœu
pt
pta
pu
pua
puamente
pubblica
pubblico
pubbrica
pubbricac
pubbriche
pubbrichi
pubbrico
pubbricæ
public
publica
publicac
publichæ
publicitæ
publico
publicæ
publio
publique
publius
pubrica
pubricac
pubricao
pubrico
pubricou
pubricæ
puca
pucci
puccini
pudesta
pue
puero
puerto
puesie
pueta
puexi
puffinus
puggia
puglia
pui
puigdemont
pule
pulenta
puli
pulitica
puliticu
pulitzer
pulnos
pulo
pune
punente
puni
punisiu
punta
puntassu
punte
puntelungu
punti
punto
puntu
puo
puoi
pupulasio
pupulasiu
pupulasiui
pupulasiun
pur
pure
purgate
pursiun
purta
purtai
purtandu
purtau
purto
purtro
purtroppo
purtu
pus
pusci
puscibile
puscibili
pusedime
pusedimenti
pusisiu
pustasiu
pustu
pute
puzo
puzzo
puæ
px
python
pæ
pæge
pægi
pægia
pægie
pægio
pœ
pœi
pœu
pœuan
pœuscia
pœuxo
q
qandu
qartie
qatar
qin
qing
qo
qu
qua
quaddri
quaddro
quaddru
quadra
quae
quaexi
quai
qualche
quale
quali
qualifica
qualita
qualitæ
qualla
qualle
qualo
qualunque
qualzina
quam
quand
quande
quandi
quando
quandu
quant
quante
quanti
quantitativo
quantitæ
quanto
quantu
quara
quaranta
quarante
quaranti
quarche
quarchedu
quarchedun
quarco
quarcosa
quarcu
quarta
quarte
quarti
quarto
quartu
quasi
quato
quatorze
quatre
quatro
quatroc
quattorze
quattr
quattro
quattroc
quattru
quaxi
que
quebec
quechua
quedam
queen
queensland
quei
quel
quell
quella
quelle
quelli
quello
quellu
quendam
quest
questa
queste
questi
questio
questioi
questioim
questioin
question
questions
questo
questu
qui
quia
quibusdam
quida
quila
quiliano
quindi
quinta
quinto
quintus
quirinale
quito
quiœu
quo
quod
quodam
quoddr
quon
quota
quote
quottr
quæ
quæxi
r
ra
raba
rabbit
rabe
rabi
rabo
rac
raccolta
racconti
racconto
raco
radar
radiac
radica
radio
radiofo
radiografia
radiologia
radiu
rado
radu
radui
rafae
rafael
rafanelli
rafe
raffael
raffaele
raffaello
raffe
raffigu
raffigurac
rafforc
rafigu
rafigua
rafigurac
rafina
raforc
rafreidamento
raggi
raggia
raggio
ragropamento
ragrupa
ragrupame
ragrupæ
rai
raie
rail
railway
raimbaut
raimo
raimondo
rainer
rainie
ral
rale
ralenta
rali
ralmente
rame
ramma
ramme
rammo
ramo
ramon
rampante
ran
ranieri
ranpi
ransi
ransu
rante
rap
rapa
rapallo
raphael
rapi
rapida
rapidamente
rapiditæ
rapido
rapo
raporti
raporto
rappida
rappido
rappo
rapporti
rapporto
rappresenta
rappresentac
rappresentanti
rapr
rapresenta
rapresentac
rapresentan
rapresentante
rapresentasiu
rapresentasiun
rapresentæ
rapreze
raprezenta
raprezentac
raprezentante
raprezentanti
raprezento
raprezentæ
rara
rari
raro
ras
raste
rate
ratione
rattazzi
ratti
ratto
ratu
rau
rava
ravenna
ravio
raxo
raxoi
raxoin
raxon
ray
raymond
razo
razonsan
razonse
razonta
razonto
razonze
razonzendo
razunze
razunzibile
razza
razzunze
rba
rban
rbari
rbe
rbi
rbia
rbio
rbita
rbo
rboa
rboi
rbu
rc
rca
rcan
rche
rchi
rchica
rchico
rci
rcia
rcio
rciti
rcito
rco
rcole
rcolo
rcre
rcu
rd
rda
rdan
rde
rdena
rdi
rdia
rdico
rdie
rdine
rdini
rdio
rdo
rdoba
rdu
re
rea
reac
reading
reagan
reagi
real
reale
reales
reali
realisa
realisasiu
realismo
realiso
realisu
realiza
realizac
realizo
realizza
realizzac
realizzao
realizzo
realizzæ
realizæ
realta
realtæ
rebelli
rebellion
rebello
rebellæ
rebuffel
rec
reca
recanati
recane
recco
rece
recente
recentemente
recenti
recesta
receste
recesto
rechi
reci
recia
reciama
reciamma
reciammo
reco
reconoscimento
reconosciu
reconquista
record
records
recottua
recu
recugeita
recugeite
recupera
recupero
recustruia
recustrusiu
red
redac
redi
redo
redu
redue
reduta
ree
referenc
referendum
refio
refren
refu
refua
refugia
refuo
refæta
rega
regala
regalo
rege
reggio
reggola
reghe
reghi
regi
regia
regime
regimme
regin
regina
reginn
reginna
regio
regioi
regioin
region
regiona
regionale
regione
regionæ
regis
regista
registra
registrac
registro
registræ
regiu
regiun
regna
regnante
regni
regno
regnu
rego
regola
regolame
regolamento
regolare
regolaritæ
regole
regolite
regolæ
regorda
regula
regular
regurda
regurdo
rei
reich
reims
reisa
reiso
reixe
reiza
reize
reizo
relac
relati
relativa
relativame
relativamente
relative
relativi
relativitæ
relativo
relazione
rele
relento
relevo
reli
religio
religioi
religioin
religion
religiosa
religiose
religioso
religioxi
religioz
religioza
religioze
religiozo
religiu
religiusa
religiuse
religiusu
religuse
reliquia
reliquie
rembrandt
reme
remescia
remi
remo
remonta
remontan
remunta
ren
renale
renania
renascimenta
renascimento
renascita
renato
rendan
rende
rendeiva
rendeivan
rendie
rendise
rene
reni
renoir
renonc
renova
rense
rente
renzo
reo
repa
reparti
repe
reperti
reperto
repi
repiggia
repiggio
repigia
repigiao
repigio
replica
represcio
represcion
representatives
reprodu
repu
repubblica
repubbrica
repubbrican
repubbriche
republic
republica
republika
repubrica
reputac
rer
rerum
res
resa
resca
rescadamento
rescatto
rescide
rescidenc
rescidente
rescidenti
resciorve
rescistenc
rese
research
resentemente
resguardo
resoconto
respi
respia
respinse
respinto
respiratoio
responsa
responsabile
responsabilitæ
respublika
ressarc
resta
restan
restante
restaora
restaorac
restaoro
restaura
restaurai
restaurasiu
restauro
restauru
restava
reste
resti
restia
restitoi
restituc
restitui
resto
restruttu
restu
restæ
resurec
resusci
resuscito
reta
retangola
rete
reti
retia
retiadda
retio
reto
retorica
retorno
retouched
retrovie
retruvame
retræti
retræto
retta
rettili
reu
reunda
reusa
reve
revi
review
revista
reviste
revixo
revixon
revoluc
rew
rex
rexi
rexide
rexidensa
rexidenti
rexiste
rexistensa
rexisti
rez
rezente
rezu
reæ
rfe
rfi
rfo
rga
rgamo
rgani
rganiza
rganizac
rganizo
rganizæ
rgano
rge
rghe
rghi
rgia
rgica
rgine
rgini
rgo
rgu
rhode
rhodesia
ri
ria
riachuelo
rian
riasu
riba
ribadi
ribe
ribelio
ribelioi
ribelli
ribera
ric
rica
ricardo
ricava
ricca
riccardi
riccardo
ricchec
ricchessa
ricchi
ricci
ricco
riccu
rice
ricerca
richard
riche
richec
richelieu
richi
richie
richiede
richiesta
richmond
rici
rico
ricono
riconobbe
riconosce
riconoscime
riconoscimento
riconosciu
riconosciua
riconosciuo
riconquista
ricorda
ricordemmo
ricordi
ricordo
ricore
ricostroi
ricostruc
ricostrui
ricove
ricu
ricunusce
ricunusciu
ricupera
ricurda
ricustrusiu
rida
ride
ridi
ridimensciuna
rido
ridu
riduc
rie
rienta
rientra
riesce
riesci
rieti
rievucasiu
rifa
rife
rifeimento
riferi
riferime
riferimento
riferisce
rifini
rifle
riflesci
riflescion
rifo
riforma
riforme
riformo
riformæ
riforni
rifornimenti
rifornimento
rifu
rifugio
rifugiæ
rifæta
rifæto
riga
rigatu
rigaud
righe
righi
right
rights
rigina
rigine
rigo
rigoa
rigoarda
riguarda
riguardanti
riguardo
riguardu
rilascio
rilasciæ
rileva
rilevante
rilevao
rilevo
rilie
rima
rimando
rimane
rimaneza
rimaz
rimazo
rimazoe
rime
rimette
rimini
rimme
rimo
rimæ
rina
rinado
rinaldo
rinascime
rinascimenta
rinascimento
rinfo
rinforc
rinforsa
rinfursa
ring
ringrac
ringratiamento
rinova
rinovo
rinpiasa
rinpiaso
rins
rintracia
rinvegnu
rio
rionda
rioni
rionio
rionioi
riorganiza
ripa
ripalta
riparti
ripe
ripete
ripetue
ripetui
ripo
riporta
riportao
riporto
riportæ
ripre
ripristina
ripristino
riprodu
riproduc
riproduti
riqualificac
ris
risale
risalente
risca
rischi
rischio
riscontra
riscuntra
riscuntrabili
rise
riserva
riservao
riserve
riservo
riservæ
riseu
riso
risoluc
risolve
risorse
risparmia
risparmio
rispe
rispeta
rispeti
rispetivame
rispettivamente
rispettivi
rispetto
rispettu
rispo
risponde
risposta
risposte
rispoze
risso
ristabili
ristega
risti
ristora
ristrutura
ristruturac
ristruturo
risu
risultao
risultati
risurta
risurtæ
rita
ritardi
ritardo
rite
ritegnan
ritegne
ritegni
ritegniva
ritegnu
ritegnuo
riti
ritmo
rito
ritorna
ritorno
ritratti
ritratto
ritro
ritrova
ritrovame
ritrovo
ritrovæ
ritruva
ritræti
ritræto
riu
riuni
riunioi
riunioin
riunion
riusci
riva
rivalitæ
rivan
rivandu
rivarolo
rive
rivea
rivedde
rivee
rivela
rivelac
rivelo
rivelon
rivendica
rivendicac
rivendico
river
rivera
riverna
rivesti
riviera
rivista
rivo
rivoi
rivolta
rivolto
rivoluc
rivotta
riximo
rizale
rizalente
rizo
rizonta
rizu
rizulta
rizultæ
rizzoli
riæ
rka
rku
rla
rlan
rle
rli
rlo
rlu
rma
rman
rme
rmi
rmia
rmina
rmine
rmini
rmo
rmola
rmu
rmæ
rna
rnan
rne
rni
rnia
rnita
rnite
rno
rnu
ro
roa
roald
roba
robbia
robe
robert
roberta
roberti
roberto
robespierre
robinson
robu
roca
rocabru
rocca
roccaforte
rocce
rocchetta
roccia
rocco
roccu
roche
rocheta
rocio
rock
rococo
rodi
rodin
rodolfo
roe
roger
rogoredo
roi
roin
roja
rokossovskij
roll
rolli
rollo
roma
romagna
romagno
roman
romana
romanc
romane
romani
romania
romann
romano
romanorum
romanorvm
romanse
romanso
romanzo
rome
romen
romeo
romma
romoen
ron
ronald
ronco
rondaninn
rondelet
rondo
ronpi
roosevelt
ropa
ropea
ropee
ropei
ropeo
rosa
rosagni
rosario
rosci
rose
ross
rossa
rosse
rosselli
rossellino
rossi
rosso
rostan
rota
rotac
rotonda
rotta
rotterdam
rotto
rottua
rou
roubaix
rouen
rouge
rousseau
route
rovere
rovi
rovie
rovigo
rovine
rovinn
roy
roya
royal
roza
rozo
rpa
rpc
rpe
rpena
rpi
rpo
rra
rre
rrega
rri
rrie
rro
rs
rsa
rsan
rsce
rsci
rse
rsega
rsego
rsfs
rsfst
rsi
rsia
rso
rss
rsu
rt
rta
rtan
rte
rteghi
rtego
rti
rtico
rtidu
rtima
rtime
rtimi
rtimo
rtimu
rtire
rtiri
rtivene
rtner
rto
rtoa
rtofi
rtove
rttemberg
rtu
ru
ruanda
ruba
rubens
rubin
ruciu
rudolf
rue
ruffini
rughjun
ruiz
ruma
ruman
rumana
rumanicu
rumen
rumenta
rumma
rumo
rumoi
rundanin
rundu
rupia
rus
rusariu
rusci
ruscia
ruscio
russa
russia
russo
russu
rustico
rusticola
ruvi
ruvia
ruviaria
ruvina
ruvine
ruzzin
rva
rvan
rve
rvi
rvia
rvo
rvu
rxe
rxi
rxo
ry
rz
rze
rzi
rzo
rzoi
ræ
ræa
ræe
ræo
rœu
rœua
rœue
s
sa
saa
saarc
saba
sabatia
sabazi
sabbo
sabia
sabina
sabino
sabo
sac
sacca
saccarellu
sacchezzo
sacco
sacerdo
sacerdoc
sacerdota
sacerdote
sacerdoti
sache
sacheza
sachezæ
saciu
saciuo
sacra
sacrame
sacramenti
sacramento
sacre
sacri
sacrifi
sacrific
sacrifica
sacro
sacru
sae
sagep
saggi
saggista
sagra
sagro
sahara
saharia
sahariann
saia
saian
saie
saieiva
saieivan
saieva
saint
sainte
saio
saiv
saiva
saiæ
saje
sala
saladin
salamanca
salar
sale
salentino
salerno
sales
sali
saliceto
salinn
salita
salmo
salmon
salo
saloi
salome
salomo
salomon
salta
salu
saluc
salute
saluzzo
salvador
salvatore
salve
salviati
sam
samaritani
sami
samo
samoa
sampa
sampe
sampierdarena
samuel
samuele
samuælo
san
sana
sanc
sancisce
sancta
sancti
sanctis
sancto
sanctorum
sand
sanda
sando
sandrart
sandro
sang
sangallo
sangoe
sangoino
sangue
sanguigni
sanita
sanitæ
sann
sanna
sanpe
sanre
sanrema
sanremese
sanremmo
sanremmu
sanremo
sanremu
sans
sansoni
sant
santa
sante
santi
santiago
santiscima
santiscimu
santitæ
santo
santoa
santu
santua
santuaio
santuario
santuariu
sanzio
sanzorzo
sanæo
saolo
sapienc
sapiens
sapienza
sapir
sar
sara
saracena
saraceni
saraci
sarago
sarah
saran
saranu
sarco
sarda
sarde
sardegna
sardegno
sardi
sardo
sargus
sario
sarma
sarpo
sarto
sartorio
sartre
sarva
sarvato
sarve
sarvec
sarvo
sarvæga
sarvæghi
sarvægo
sarza
sarzan
sarzana
sasce
sascello
sasci
saskatchewan
saso
sassai
sassello
sasso
sassonia
satana
satellite
satelliti
sativa
saturno
saudi
save
savei
saveiva
savigliano
savigno
savignon
saviæ
savo
savoi
savoia
savon
savona
savone
savoneize
savu
savuna
savuneise
savuneize
savunese
saxon
sazzo
sba
sbarbaro
sbarca
sbarco
sbn
sbo
sc
sca
scaa
scacia
scaina
scala
scale
scalo
scampo
scancelo
scandi
scandina
scangi
scangia
scangio
scapa
scapo
scappa
scapu
scapæ
scara
scaravelli
scarega
scarp
scarpa
scarsa
scarse
scarso
scartame
scava
scavi
scc
scce
scci
sccia
scciafin
scciavi
scciavitu
sccio
sccioi
scciu
scciume
scciupa
scciupo
scciœuppo
sce
scelta
scena
scene
scensa
scensia
scenta
scenti
scento
scentæ
sche
schema
schemi
schen
schengen
schenn
schenon
scheua
scheuggio
schi
schiamento
schiera
schieramento
schieræ
schio
schiora
schiva
schleswig
scho
school
schubert
schumacher
schumann
schwarze
sci
scia
sciaca
sciacca
sciacæ
sciamma
sciammi
scian
scianchi
scianco
scibben
scibe
sciben
scibile
scica
scicche
sciche
scichi
scico
scicomme
scicumme
scidera
scido
scie
scienc
sciences
sciensa
sciense
scienti
scientiffica
scientifica
scientifichi
scientifico
scienze
scigi
scignifica
scignificao
scignificati
scignifico
scignificou
scigno
scignoa
scignori
scignoria
scignu
scignua
scignura
scigu
scile
scilenc
scilic
scillaba
scillixa
scima
scimboli
scimbolo
scimbulu
scime
scimi
scimile
scimili
scimilme
scimmile
scimmili
scimo
scimon
scimpatie
scimu
scin
scinboli
scinbolo
scindaca
scindicatoi
scindico
scindicu
scinfo
scinfoni
scingapo
scingola
scingole
scingoli
scingolo
scini
scinistra
scinistro
scinn
scinnodo
scino
scinta
scintesi
scintexi
scintomi
scio
scioi
sciorbi
sciorta
sciorte
sciorti
sciortia
sciortie
sciortio
scipa
scipio
scipion
scipione
sciria
sciscigno
sciste
scistema
scistemac
scistematica
scistemi
scistemma
scisto
scita
scite
sciti
scito
scitoa
scitoac
scitoo
scitoæ
scitu
scitua
scituac
scituo
sciu
sciuga
sciumme
sciummi
sciurbi
sciurti
sciuscia
sciusciatua
sciuscita
sco
scoc
scola
scoli
scolo
scolopax
scolpi
scomi
scommessa
sconfi
sconfisse
sconfita
sconfito
sconosciu
scontri
scontro
scopi
scopo
scori
scorpaena
scorpi
scorta
scott
scotti
scove
scoverta
scoverte
scoverto
scovi
scovo
scravaiu
scre
scri
scriptoribus
scrisse
scrita
scrite
scriti
scrito
scritoe
scritoi
scritto
scrittu
scritu
scritua
scritue
scritura
scriva
scrivan
scrive
scriveiva
scrivendo
scrivia
scro
scrovi
scto
scu
scude
scudetti
scudetto
scue
scuge
scugrafia
scui
sculto
scultori
scultu
scultura
scunsacra
scuntri
scuo
scuola
scurc
scure
scurto
scuvu
scuzæ
scæn
scœua
scœue
sde
se
sea
search
season
sebastia
sebastian
sebastiano
seborca
sec
secca
secce
secche
secco
seccoli
seccolo
secescion
seco
secola
secoli
secolo
secolæ
seconda
secondo
secue
seculi
seculu
secundu
sed
sede
sedimenti
sedo
sedu
see
seeniscimo
segge
seggian
seggie
segna
segnaca
segnala
segnalac
segnale
segni
segno
segnoi
segnoia
segnor
segnu
segnæ
sego
segoe
segoi
segonda
segonde
segondi
segondo
segre
segreta
segretaio
segretto
segu
segua
seguaxi
segue
seguec
seguendu
seguente
seguenti
segui
seguia
seguin
seguindo
seguio
seguito
seguitu
seguiva
segunda
segundo
segundu
seguo
sei
seia
seian
seic
seie
seine
seisentu
seja
sela
selebra
selec
self
sella
sema
sembra
sembrea
seme
semena
semi
semifina
semina
semionotiformes
semite
semitiche
semivoca
semmelweis
semmo
semper
semplic
semplice
semplicemente
semplixe
sempre
sen
sena
senarga
senato
senatoi
senc
sencia
sene
senegal
senei
senero
senn
senna
seno
senpliceme
senpre
sens
sensa
sensac
sensci
senscibbile
senscibile
senscibilitæ
sense
sensi
senso
sensu
sente
sentenc
senti
sentia
sentieri
sentime
sentimenta
sentimenti
sentimento
sentio
sentiva
sento
sentra
sentru
senza
seoul
sepa
separa
separac
separo
separæ
sepelio
sepo
seportu
seportua
seppe
sepu
sepultu
seque
ser
sera
serafimovic
serata
serava
seravalle
seravo
serbia
serbo
sere
sereni
serenissimo
sergio
seri
seria
seriate
serie
serio
sero
serpe
serpente
serra
serrator
serravalle
serrie
serro
serræ
serte
serti
serva
servac
servan
servato
serve
server
servi
servic
services
servio
servisio
servissi
servissiu
servito
servitoi
serviva
servixi
servizio
servo
servægo
seræ
ses
sescio
sesia
sesiu
sesso
sesta
seste
sesto
sestri
set
seta
sete
setec
setema
seteman
setemann
setembre
setenbre
setentrio
setentriona
setentriuna
seto
setoi
sett
setta
settanta
sette
settec
setteman
settemann
settembre
settentriona
settentrionale
settentrionæ
settepani
settesentu
settignano
settimo
setto
settoi
setu
seu
seva
seve
severino
severo
seviggia
sevilla
sex
seychelles
seze
sezione
sezz
sezze
sfavoeive
sfe
sfea
sfee
sfef
sfera
sferao
sferiste
sfi
sfm
sfo
sfonda
sfondamento
sfondo
sforc
sforsa
sforsci
sforza
sfru
sfruta
sfrutamento
sfumatu
sfundu
sganzi
sgobba
sgobbe
shakespeare
shanghai
shelley
shi
shift
shock
shoemaker
short
show
si
sia
siagne
siam
sibe
siberia
sibilla
sic
sica
sicardi
siche
sici
sicilia
sidney
sie
siena
sierra
sig
sighe
sigla
sigmund
sign
signal
significa
significato
signo
signor
signora
signore
signu
signui
sigundu
silensio
sili
silone
silvano
silvestro
silvestru
silvio
sima
simile
simili
simma
simon
simone
sin
sinatra
sincue
sine
sinfoni
sinistra
sino
sinque
sinquesentu
sint
sio
sion
sioux
sir
siracusa
sircunda
siro
sirviu
sis
sise
sistema
sistinn
sisto
sit
sita
sitadi
sitae
site
siti
sito
sitoi
situ
situa
situac
situasiu
situasiun
siu
sive
sivi
sivili
ska
skira
skyline
sla
slava
slave
slavi
slavo
slo
slova
slove
slovenia
slow
sm
sma
small
smalltalk
smalto
smassa
sme
smergo
smersa
smi
smith
smo
smrl
sncf
snia
so
soa
soc
soccorso
soci
socia
social
sociale
sociali
socialismo
socialista
socialisti
socie
societa
society
societæ
sociæ
socje
socjetæ
soco
socrate
sodio
sodisfa
sodisfac
sodisfæto
soe
sofi
sofo
sofonisba
software
soge
sogetti
sogetto
soggetti
soggetto
soggiorno
sogiorno
soi
soin
sol
sola
solamente
solanum
solare
solari
soldati
sole
solenitæ
solenne
soleva
solevac
solferi
soli
solido
soliman
solita
solitame
solitamente
solito
sollec
sollito
solo
solsti
soltanto
solu
soluc
som
soma
somalia
somateria
some
somegia
somitæ
somma
son
sona
sonda
sondrio
sone
sonetti
sonetto
song
sono
sonoritæ
sont
soo
sopo
soporta
sopra
soprann
soprano
sopravisciu
sopre
soprescio
sorda
sordatti
sordatto
sordi
sordo
sorfato
sorfo
sorgente
soria
sormonto
sormontæ
sorpre
sorpreiza
sorte
sorve
sorvegia
sorvenomina
sorvenomino
sorvettutto
sorvetu
sorvetutto
sorvevive
sorvia
sorviatu
sorviatutto
sospe
sospende
sospenscion
sosta
sostanc
sostansa
sostanse
sostanti
soste
sostegne
sostegni
sostegnindo
sostegnito
sostegno
sostegnu
sostegnue
sostegnuo
sostitoi
sostituc
sostitui
sostituio
soti
sotodiscipli
sotogru
sotome
sotomi
sotomiscio
sotopasa
sotopo
sotoscri
sotosta
sotote
sototene
sototæra
sotra
sott
sotta
sotti
sotto
sottoclasse
sottofamiggia
sottoliniao
sottomarin
sottopon
sottoposto
sottordine
sou
sound
source
sous
south
sovente
soventi
sovetskij
sovia
soviatu
soviatutto
sovie
soviet
sovietica
sovietiche
sovietichi
sovietico
soviettica
soviettiche
soviettichi
soviettico
sovra
sovran
sovranitæ
sovre
sovren
sp
spa
spac
space
spadolini
spagna
spagno
spagnoli
spagnolla
spagnolle
spagnolli
spagnollo
spagnollu
spalla
spalle
spantega
spanteghæ
spantego
spantegæ
spara
spare
spari
sparsci
sparti
spartic
sparus
spassio
spassiu
spavento
spazio
spazzoiin
spd
spe
spea
spec
specce
speccie
speci
specia
speciale
speciali
specialitæ
specializa
specializo
specializæ
specialme
specialmente
specie
species
specifica
specifico
spectabilis
speda
spedi
spedic
spedision
spegi
spegio
speize
spencer
spensley
spera
speranc
sperava
sperimenta
sperimentac
spero
spescimetro
spessa
spesso
spessu
speta
spetatoi
spettacolo
spezi
spezia
spezin
spezza
spi
spia
spiage
spiaggia
spianc
spiare
spie
spiega
spiegac
spiego
spigno
spiito
spiitua
spilo
spin
spina
spinello
spinn
spinnoa
spinnora
spino
spinola
spinse
spinta
spinto
spinze
spio
spira
spirito
spiritoa
spita
spitalitæ
spitan
spito
spitæ
splendo
spo
sponcia
sponcio
sponda
sponta
sport
sporti
sportiva
sportivo
sposa
sposo
sposta
spostame
spostamenti
sposto
spotorno
spoturnu
spoza
spozao
spozo
spozoe
spozoi
spozæ
spre
sprescia
sprito
spritoa
spu
spunda
spurti
spusa
spusta
spustamentu
spute
squa
squaddra
squaddre
squadra
squadriggia
squadrone
squatarola
squæxi
sr
sri
srl
ss
ssa
ssan
sse
ssea
sseldorf
ssi
ssia
ssie
ssio
ssion
ssiu
sso
ssola
ssrna
ssu
ssua
st
sta
stabile
stabili
stabilia
stabilime
stabilimento
stabilio
stabilisce
stabilita
stabilitæ
stac
stacca
stadio
stae
staeta
staeto
staetu
staff
stage
stagen
stagio
stagioi
stagion
stagiona
stagno
stai
staita
staitu
stalin
stalingraddo
stampa
stampaja
stampaje
stampao
stampe
stampo
stampu
stampæ
stan
stanc
stanca
stanco
standa
standard
standardizac
stanislao
stanley
stanpa
stanpo
stansia
star
start
stasiu
stasiui
stasiun
stassiun
stata
statale
state
statements
states
stati
statielli
station
stato
stattoa
stattu
stattua
statu
statua
statue
statunieize
statunitense
status
statuti
stau
stava
stavka
staxi
staz
stazione
ste
stefania
stefano
stega
stego
stela
stele
stella
stelle
stemma
stemmi
stendhal
stera
steria
sterilizzazion
sterna
stero
stessa
stesso
stessu
steta
steti
stetri
stetu
steva
steve
stewart
stexine
stezu
sti
stia
stibile
stica
stice
stiche
stichi
stici
stico
stie
stile
stili
stilisti
stilizzæ
stima
stimma
stimme
stimo
stimoli
stipendio
stipula
stito
sto
stoccarda
stocco
stoccolma
stoco
stoia
stoici
stoja
stoli
stolo
stone
stor
storia
storiapatriagenova
storica
storicame
storicamente
storiche
storichi
storici
storico
storicu
storie
storiografia
storione
storrico
stra
strada
stradda
stradde
strade
stradivaio
stramu
stramua
stramuo
stran
strange
strangea
straordena
straordina
strate
strateggica
strategia
strategica
strategico
strategy
strati
strato
strauss
stravinsky
strazordenaia
stre
strecker
street
strega
strego
streita
streitame
streitamente
streite
streiti
streito
strenze
strepsirrhini
streptopelia
stri
stria
strie
strisce
striscia
stro
strozzi
stru
strume
strumenti
strumento
struttu
struttua
struttue
strutu
strutua
strutura
stu
stucarda
studdi
studdio
stude
studenti
studi
studia
studio
studioxi
studiæ
stuicame
stupo
sturla
stæ
stæta
stæte
stæti
stæto
stætu
su
sua
sub
subbito
subi
subin
subio
subisce
subito
sublasse
subordinac
subphylum
subregno
subsp
subtropica
succede
succesci
succescion
succesciva
succescivamente
succescive
succescivi
succescivo
successi
successivamente
successo
suce
sucede
sucedu
sucesci
sucescio
sucescion
sucesciu
sucesciva
sucescivame
sucescivamente
sucescive
sucescivi
sucescivo
sucesi
sucesivame
suceso
sucessiva
sucessivi
sucessivu
sucesso
sucieta
sucu
sud
suda
sudafrica
sudamerica
sudan
sudditi
sudivi
sudivixo
sudivixoi
sue
suez
suffixente
sufi
sufittu
sugeri
sugerito
sui
suic
suicidio
suis
suite
sul
sula
sulame
sulamente
sull
sulla
sulle
sullivan
sulta
sulu
sume
sun
suna
sunau
sunetti
sunetto
suno
sunt
sunta
sunto
suo
suoi
suono
supe
supeio
supeioi
super
supera
superamento
superao
superba
superfami
superfamiggia
superfi
superfic
superficce
superficcie
superficie
superio
superioi
superiore
superioritæ
superiure
supero
superphylum
superpote
superregno
supervixon
supo
support
supporto
supra
supre
suprema
supremo
supresciu
sur
sura
surda
suriname
surli
surtan
surva
survatu
sus
susa
susanna
sustegnu
sustitui
suta
sute
sutt
sutta
suttu
suve
suvente
suvia
suviatu
suvo
suvra
suvrai
suvrasta
sv
sve
svec
svede
svedeize
sverna
svernan
svevo
svg
svi
svic
svilu
svilupa
svilupo
sviluppa
sviluppao
sviluppi
sviluppo
sviluppu
svilupæ
svisse
svissea
svissera
swindlers
sydney
symphony
system
systema
sæ
sæa
særa
særava
særavalle
sæximo
sœu
sœunno
sœuxoo
t
ta
taba
tabarca
tabarchi
tabarchin
tabari
tabarkin
tabe
tabelo
tabo
tabula
tac
taca
tacco
taco
taddeo
tade
taera
tagalog
taggia
taggiasche
taggio
tagia
tagiafi
tagikista
tagiæ
tai
taiga
tain
taipei
tait
taiwan
tal
tale
tali
talia
tallinn
tamagni
tambe
tamben
tambroni
tamil
tan
tanaxia
tanbu
tane
tang
tanganica
tango
tann
tant
tanta
tante
tanti
tantiscimi
tanto
tantu
tanzani
tanzania
tao
taoa
tappa
tappe
taraffo
taranto
tarda
tardi
tardo
tardu
targa
targhe
tari
tartaru
tas
tasca
tasce
tascereu
tasci
tascia
tascio
tasio
tasiu
tasiun
tasmania
tassi
tasso
tasta
taste
tattica
tau
tavia
tavola
tavoli
taxe
taxonavigac
taylor
taziun
te
tea
team
teatrale
teatro
teatru
teau
tec
tecnica
tecniche
tecnichi
tecnico
tecnolo
tecnologi
tecnologia
teco
ted
tede
tedesca
tedesche
tedeschi
tedesco
tedescu
tedra
tegnan
tegne
tegni
tegnia
tegnindo
tegniva
tegnu
tegnua
tegnui
tegnuo
tei
teio
teizo
tel
tela
tele
telefo
telefono
televixi
televixo
televixon
tema
temi
temminck
temminckii
temperatu
tempesta
tempeste
tempi
tempia
tempiatua
tempiatue
tempio
template
templæ
tempo
tempora
temporaniamente
temporæ
temps
tempu
ten
tena
tenaggia
tenco
tenda
tende
tendeiva
tendenc
tene
tenente
tennessee
tennis
teno
tenpe
tenperatu
tenperæ
tenpi
tenpio
tenpo
tenpora
tenporaniame
tenpu
tenscioi
tenscioin
tenscion
tensciun
tenta
tentac
tentao
tentati
tentativi
tentativo
tente
tenti
tento
teo
teodo
teologi
teologia
teorema
teori
teoria
teorica
teorichi
teorico
teorie
ter
tera
teramo
terapia
terapœu
terc
tere
teren
teresa
terestre
teri
terito
teritoi
teritoia
teritoio
teritoria
teritoriu
terituia
terme
termi
termica
termico
termina
terminac
terminal
termine
termini
termino
terra
terre
terren
terrestre
terrestri
terribile
territo
territoi
territoio
territori
territoria
territorio
territoriu
territory
terro
tersa
terso
terza
terzo
tes
tesa
tesciu
tesciui
tesla
teso
testa
testame
testamento
testane
teste
testegu
testi
testimo
testimonia
testimonianc
testimoniansa
testimonio
testimunia
testimuniansa
testimunianse
testo
testono
testu
teti
tetraedri
tetti
teu
teve
texas
texi
texo
text
tezo
tgv
th
thailandia
that
the
their
theodor
theodore
there
theria
thesaurus
these
they
this
thomam
thomas
thomassin
thomson
three
thumb
thumbnail
thunberg
ti
tia
tian
tiatra
tiatri
tiatro
tiatræ
tibeio
tibeta
tibetann
tic
tica
tiche
tichi
tici
ticino
tico
ticu
tie
tienne
tiepolo
tif
tifo
tigre
tigri
tigu
tigullio
tila
tilacin
tile
tili
till
tima
time
times
timezone
timi
timo
timor
tin
tine
tintoretto
tio
tiociana
tip
tipi
tipica
tipicame
tipicamente
tipiche
tipici
tipico
tipicu
tipo
tipografia
tipografica
tipologi
tipologia
tippica
tippico
tipu
tir
tira
tiranno
tire
tiro
tirren
tise
title
tito
titola
titoli
titolo
tittoli
tittolo
tittulu
tituli
titulu
tiu
tiva
tivoli
tivu
tiæ
tmo
tnica
to
toa
tobacco
tobia
tobre
toca
tocca
tocchi
tocco
toccu
toche
todesca
todesche
todeschi
todesco
todi
todo
toe
toga
togno
toi
toia
tokyo
toledo
tolera
toli
tollemeto
tolo
tolomeo
toloza
tom
toma
tomaxo
tomba
tombe
tome
tommaso
ton
tonalitæ
tonba
tondo
tone
tonga
toni
tonica
tonico
tonieta
tonno
tono
tonte
tontu
tony
too
top
topo
topoli
toponomastica
tora
torbe
tordo
tore
torente
tori
torinese
torino
torio
torme
tormenta
torna
tornao
torne
torneo
tornia
torno
tornæ
toronto
toros
torquato
torre
torrente
torres
torri
torriggia
torriglia
torta
torti
torto
tortona
tortora
tortu
tortue
tosca
toscan
toscana
toscanini
toscann
toso
tosto
tostu
tota
totale
totalitæ
totalmente
tou
tour
tours
tovo
tower
town
tpl
tr
tra
trac
tracce
traccia
tracia
tracio
trad
tradic
tradime
tradimento
tradisiu
tradisiun
tradisiuna
tradizione
tradu
traduc
traduta
traduto
traffeghi
traffego
traffegu
tragedia
traghe
tragico
trailer
train
traite
tralale
tram
trame
tramite
trammite
tramo
tramonto
tramways
tran
trani
tranne
tranqui
trans
transcaucasi
transcrive
transfei
transfeimento
transforma
transisiu
transporta
transtyberim
tranva
tranvai
tranviaia
tranxic
trap
trapa
trape
trappa
trascendenta
trascorse
trascri
trascric
trasferi
trasferime
trasfo
trasforma
trasformac
trasformo
trasfurma
traslitero
trasme
trasmette
trasmi
trasmiscio
trasmiscioi
trasmiscion
traspo
trasporta
trasporti
trasporto
trasportu
trasportæ
traspoxic
traspurta
trasse
trata
tratao
tratati
tratava
trategni
trati
trato
tratta
trattamenti
trattamento
trattao
trattative
trattato
trattava
tratte
tratti
tratto
trattu
trattæ
tratu
tratæ
trava
travaggi
travaggia
travaggio
travagia
travagio
travagli
travai
travaia
travaie
trave
traversa
traverso
travi
travo
tre
trebbia
trebia
trebizonda
treccani
treglia
tregoa
tregua
trei
trema
tren
treni
trenitalia
treno
trent
trenta
trenti
trentin
trento
trenu
trenza
tres
tresci
treta
treteru
treuva
treviso
trexe
trexento
treze
trezze
tri
tria
triangola
triangoli
triangolo
tribola
tribu
tribuna
tribuno
tribunæ
tributo
trica
triche
trichi
trico
trie
trieste
trifase
trilli
trime
trinidad
trinita
trinitæ
trio
trionfa
trionfo
triora
tripoli
tro
trobar
trofarello
trofe
tromelin
trono
tropica
troppo
troppu
tros
trova
trovando
trovao
trovava
trove
trovo
trovæ
tru
trua
trucioli
truite
truites
truppe
trusio
trust
trustees
trutta
trutu
truva
truvava
truvavan
truvo
træ
træta
træte
træti
træto
trœuva
trœuvan
trœva
tt
tta
ttan
ttaspe
tte
tti
ttia
ttica
ttie
tto
ttro
ttu
ttua
tu
tua
tuca
tucca
tucuma
tue
tufatri
tugni
tui
tuia
tullio
tulna
tuma
tundra
tunixi
tunnexi
tupi
tur
turca
turche
turchi
turchia
turco
ture
turente
turi
turiggia
turin
turing
turismo
turismu
turisti
turistici
turisticu
turiximo
turks
turna
turno
turpin
tursci
turto
turtur
tut
tuta
tute
tutela
tuti
tuto
tutt
tutta
tuttavia
tutte
tutti
tutto
tv
twain
two
tycho
tyrone
tze
tæ
tæra
tærasanta
tære
tærito
tœu
u
ua
uan
uato
ubaldo
ubi
ubidi
ubio
uc
ucaxiu
uccelli
uccello
ucidenta
ucra
ucrai
ucrain
ucrainn
ucu
ucupa
ucupasiu
udi
udie
udierna
udiernu
udio
udiovixi
udo
udu
ue
uffic
uffizi
ufic
ufisia
ufisialmente
uga
ugan
uganda
uge
ugettu
ugge
uggi
uggia
uggio
ughi
ugna
ugni
ugno
ugo
ugonotti
uguale
uguia
ui
uia
uigina
uin
uio
uistra
uite
uk
ukov
ula
ulan
ule
uli
ulia
ulisse
ulme
ulmea
ulmeta
ulmios
ulmioscu
ulo
ultima
ultimi
ultimo
ultraso
ultre
um
uma
umago
uman
umana
umani
umanista
umanitæ
umba
umberto
umbria
umide
umiditæ
umiltæ
umo
un
una
unao
und
unda
unde
under
une
unesco
ungai
ungaia
ungaja
ungari
unghere
ungheri
uni
unia
unica
unicamente
unico
unie
unifica
unificac
unifo
uniforma
uniforme
uniformitæ
unii
unio
union
unione
unisce
unita
united
uniti
unitæ
uniu
uniun
unive
universa
universal
universale
universalitæ
universalmente
universcita
universcitæ
universidade
universita
university
universitæ
universo
universæ
unix
unn
unna
unnica
unnico
unno
uno
unsu
unu
unze
uo
uomini
uomo
upe
uppa
uppo
uppsala
upright
ura
urali
uran
urania
urato
uratoriu
urba
urban
urbani
urbanizac
urbano
urbe
urbin
urbino
urdina
urdine
urea
urganisa
urganiza
uri
urigina
urigine
url
urma
urme
urmea
urmeascu
uro
urss
urteio
urtie
urtima
urtime
urtimi
urtimo
urtimu
urto
uru
uruguay
us
usa
usce
usci
use
user
ushuaia
uso
uspea
uspia
uspita
uspiæ
ustria
usu
ut
uta
utaguna
utah
utc
ute
utegni
utegnu
utenti
utile
utili
utilitæ
utiliza
utilizzo
uto
utobi
utra
utre
utrecht
utri
utta
utte
utti
utto
utu
utubre
utue
uva
uvan
uve
uvec
uverno
uvi
uvia
uvian
uvie
uvio
uviæ
uvo
uxe
uxi
uxo
uxoa
uxorem
uza
uze
uziun
uzo
uzzo
v
va
vaa
vaca
vacca
vaccin
vache
vada
vado
vaghe
vago
vagoi
vai
vairi
vaise
val
vala
valada
valde
valdinfernu
vale
valenc
valencia
valenciennes
valente
valenti
valentinian
valentino
valeri
valeria
valerio
validitæ
valla
valladda
valladolid
vallauris
valle
vallecrosia
valleggia
valletta
valley
valli
valo
valoi
valois
valore
valtellina
valu
valua
value
valutac
valutæ
vamenti
van
vandea
vanellus
vangeli
vangelista
vangelo
vanitæ
vanni
vano
vanta
vantaggi
vantaggio
vanto
vanuatu
vanzetti
vapo
vaqueiras
var
vara
varatella
varazze
varco
varecia
vareise
varese
vari
varia
variabile
variabilitæ
variac
variamente
variante
varianti
varie
varieta
variete
varietæ
varigoti
varigotti
varo
varri
varria
varrie
varsavia
varse
vas
vasa
vasari
vasca
vasce
vasilevskij
vaso
vassallo
vasta
vaste
vasti
vasto
vastu
vat
vatica
vatican
vaticann
vaticanus
vatichen
vatutin
vaxi
ve
vea
vecchio
vecellio
ved
vedde
veddi
veddo
veddri
veddro
veddræ
vede
vedi
vedie
vedra
vedrei
vedri
vedu
vee
vege
vegeta
vegetac
vegetasiu
vegetæ
veggan
vegghe
veggia
veggiu
veggo
vegi
vegia
vegio
veglia
vegna
vegnan
vegne
vegnen
vegni
vegnia
vegnindo
vegnindu
vegnisse
vegniva
vegnivan
vegnu
vegnua
vegnui
vegnuo
vego
vei
veia
veicolo
veitæ
veja
veju
vela
velarizac
veleno
vella
vellegu
vello
vellu
velo
veloc
velocitæ
velsu
velu
ven
vena
venan
venardi
vende
vendetta
vendia
vendica
vendita
vendo
vendone
vendu
vendun
venduo
vene
venec
venera
venerac
venerdi
venere
venerio
venesoe
venessia
veneta
veneto
venezia
venezuela
veni
venneto
veno
vente
ventemiglia
ventemigliusi
ventemigliusu
venti
ventimiggia
ventimiglia
ventimigliusu
vento
ventre
ventu
venus
veo
ver
vera
verba
verbi
verbo
verc
vercellese
vercelli
verde
verdexi
verdi
verdu
verdun
vere
veresso
verghe
vergine
veri
verifica
verita
verlaine
vermenti
vermi
vermont
verna
vernante
vernassa
vernazza
verne
vernixe
verno
vero
verona
veronese
veronica
veronn
verre
verrocchio
vers
versa
versagge
versailles
versante
versci
verscio
verscioi
verscioin
verscion
versciu
versciun
versi
versione
verso
versu
vert
verta
vertebrata
vertebræ
vertica
vertjac
veru
vesa
vesargu
veschi
vesco
vescovato
vescovi
vescovo
vescu
vescuvi
vese
veserxe
vessan
vest
veste
vesti
veto
vetreria
vetrerie
vetro
vettu
vetu
veu
vexenda
vexende
vexi
vexin
vexinanc
vexinn
vezzano
vi
via
viabilitæ
viado
viaf
viaggi
viaggia
viaggio
viagi
viagio
vian
viareggio
viatu
vic
vica
vicaio
vicaria
vice
vicende
vicere
vichinghi
vicino
vico
vicoforte
victor
victoria
vida
vidal
vidde
viddoa
vide
video
videoze
vie
vien
viene
vienna
vieta
vietnam
view
vigeximo
vigi
vigila
vigilia
vigne
vignivo
vigno
vignozo
vigo
vii
viii
vila
vilano
vile
vilezatu
vilfredo
villa
villafranca
villaggio
villano
villanova
villar
villastellone
ville
vilnius
vilu
vimo
vin
vina
vinc
vincent
vincenzo
vinci
vincia
vincito
vincitri
vinculi
vini
vino
vinse
vinsitu
vint
vinte
vinteximo
vinti
vintic
vintimi
vintimiggia
vintimigio
vintise
vinto
vio
viola
violac
viole
violenc
violenta
violenti
violin
viotri
viou
viove
viovetta
virgi
virgilio
virgin
virgine
virginia
virginis
virginnia
viro
virtu
virus
vis
visaya
visciu
visco
visconte
visconteo
visconti
viscunti
visse
vist
vista
viste
visti
visto
vistu
vita
vite
viterbo
viti
vito
vitoria
vitta
vitte
vittima
vittime
vitto
vittoia
vittoie
vittoio
vittore
vittoria
vittorio
viu
viuum
viva
vivadi
vivagna
vivagne
vivaldi
vivan
vivante
vive
viveiva
vivendo
vivente
viventi
vivere
vivi
viviani
vivo
vivum
vixi
vixibile
vixibili
vixigo
vixin
vixina
vixinanse
vixinn
vixita
vixitac
vixitasiu
vixitato
vixitatoi
vixite
vixito
vixitæ
vixo
vixon
viæ
viægi
viægio
vlc
vo
voca
vocabola
vocabolaio
vocabolario
vocac
vocale
vocali
voce
voci
voe
voei
voeiva
voentæ
voglio
voi
voia
voiæ
vol
vola
volapu
vole
volga
voli
volley
volo
volonta
volpedo
volskij
volt
volta
voltaire
volte
volterra
voltri
volu
volume
volumme
volummi
von
vorga
vorie
voriæ
vorrei
vorto
voscia
vosciu
vosciua
vosciuo
vosse
vostra
vostre
vostri
vostro
vota
votac
vote
voti
voto
votta
votte
vou
voxe
voze
voæ
vr
vra
vre
vs
vu
vuca
vue
vuio
vulca
vulcanica
vulgare
vulgaris
vulunta
vuoi
vuole
vusciu
vuxe
vv
væ
vœu
vœuo
w
wa
wagner
wales
walt
walter
walther
wars
was
washington
watch
water
we
wea
web
weber
weekly
wehrmacht
wei
weichs
well
wellcome
welles
werner
wernher
west
western
westminster
wga
what
when
which
white
who
wien
wiki
wikidata
wikimedia
wikipedia
wikisource
wikivivagna
wild
wilde
wilhelm
will
william
williams
wilson
windows
winnie
winston
with
witt
wmf
wolfgang
wonderland
woolf
world
worldcat
wto
wu
www
x
xa
xan
xe
xelli
xello
xeppe
xeua
xi
xia
xica
xiche
xicista
xicisti
xico
xignan
xii
xiii
xima
ximi
ximo
ximu
xin
xina
xine
xinjiang
xinn
xio
xion
xita
xite
xiti
xito
xitu
xitæ
xiu
xiv
xix
xo
xoa
xu
xv
xvi
xvii
xviii
xx
xxi
xxii
xxiii
xxiv
xxv
xxvi
xxvii
xxxi
xxxxviii
xœuo
y
ya
ye
year
years
yeats
yellow
yemen
yleme
york
you
youmath
young
your
youtube
yr
yu
yuan
yukon
yves
z
za
zabata
zabella
zaca
zacaja
zache
zan
zana
zanche
zane
zanetin
zanicchi
zanichelli
zanne
zanzibar
zar
zare
zart
zazun
ze
zea
zecca
zeit
zela
zelanda
zelo
zen
zena
zene
zeneise
zeneixi
zeneize
zenese
zenesi
zenexi
zeneze
zenezi
zenitivo
zenna
zeno
zenovi
zenzivite
zeppelin
zero
zeuga
zeugan
zeughi
zeugo
zevo
zgo
zh
zheng
zho
zhou
zhuang
zi
zia
ziche
zignægo
zimbabwe
zimma
zin
zitta
ziui
ziun
zo
zoa
zoe
zoena
zoene
zoenec
zoeni
zoeno
zoentu
zofi
zofo
zogio
zola
zona
zone
zonse
zonta
zonto
zonze
zonzeivan
zonzendo
zoo
zoologia
zoologico
zorzo
zorzu
zove
zovena
zovene
zoveni
zoveno
zoventu
zovo
zquez
zu
zua
zuame
zuamento
zuane
zuccarello
zue
zuga
zugao
zugno
zugo
zugoe
zugoei
zugou
zunta
zunze
zur
zuri
zus
zuvu
zuxe
zwingli
zza
zzan
zze
zzi
zziu
zzo
zzu
zœughi
zœugo
zœumoæ
{
|
}
~

¢
§
¨
©
ª
«
¬
°
±
²
³
´
¶
·
º
»
½
×
ß
æ
æghe
ægoa
ægoe
ægua
ægue
æn
ænn
ærbo
ærco
ærminni
ærminnia
ærminnio
ærta
ærto
÷
ø
ı
ŋ
œ
œu
œuggi
œuggio
œuio
œutto
œuttoc
œuvia
œuviao
œuvie
œuvieta
ſe
ſi
ƈ
ȼ
ɐ
ɑ
ɒ
ɔ
ə
ɛ
ɲ
ɹ
ɾ
ʃ
ʊ
ʌ
ʎ
ʒ
ʒa
ʒo
ʒu
ʒʒu
ʗ
ʤ
ʦ
ʧ
ʲ
ʻ
ʼ
ʽ
ʿ
ˆ
ˈ
ˊ
ˌ
ː
̀
́
̂
̃
̄
̅
̆
̇
̈
̉
̊
̋
̌
̍
̏
̑
̓
̔
̛
̣
̥
̦
̧
̨
̯
̱
̲
͂
ͅ
͡
α
αι
β
γ
δ
δε
ε
ει
η
θ
ι
και
λ
μ
ν
ξ
ο
ου
π
ρ
ρα
ς
σ
τ
τα
της
το
τω
υ
φ
χι
ψ
ω
а
в
д
е
и
н
о
республика
ц
ь
э
є
і
ӡ
ղ
ְ
ִ
ا
د
َ
ّ
ْ
ٔ
ٕ
ހ
ރ
އ
ޖ
ާ
ި
ު
ެ
ް
ं
क
ग
ज
द
न
प
य
र
ल
स
ा
ि
ी
े
ो
ौ
्
ং
গ
ত
ন
ব
র
ল
া
ি
ু
ে
্
ੀ
க
ச
ட
ப
ர
ா
ி
ு
ூ
ே
்
་
ག
ུ
ᚨ
ᴀ
ᴄ
ᴇ
ᴬ
ᵃ
ᵄ
ᶏ
ᶐ
ᶛ
ᶜ
ᶝ
ẚ
᾿
​
‎
–
—
‖
‘
’
‛
“
”
†
‡
•
…
‪
‬
‰
′
″
‹
⁄
₁
₂
ₐ
₠
₡
₢
€
₵
℃
ℎ
ℭ
ↄ
↑
→
↔
↷
−
∙
∿
≃
≈
③
④
⑦
▭
●
♀
♦
♭
♯
➔
⟨
⟩
ⱥ
ⲁ
ⲉ
ⲙ
⺀
⺄
⺆
⺈
⺊
⺌
⺕
⺝
⺸
⺼
⿰
⿱
⿲
⿳
⿴
⿵
⿶
⿷
⿸
⿹
⿺
⿻
〢
の
ひ
゙
゚
ア
カ
キ
ク
コ
シ
ス
セ
タ
テ
ト
ハ
ヘ
ユ
ラ
リ
ル
ン
・
ー
㇁
㇂
㇄
㇇
㇈
㇉
㇓
㐁
㐄
㐅
㐌
㐫
㐬
㐭
㐮
㐱
㑒
㒵
㒸
㒼
㓁
㓞
㔾
㕛
㕣
㖾
㘝
㚅
㚇
㚔
㚘
㝉
㝡
㝴
㝵
㞋
㞢
㞷
㠩
㠭
㠯
㡀
㡭
㡿
㢲
㢴
㣇
㣺
㥯
㪅
㫄
㫐
㫒
㫺
㬅
㬎
㬥
㬰
㲋
㳄
㷠
㸒
㸚
㸦
㼌
㼲
㽞
㿟
䀠
䂞
䍃
䏍
䒑
䖍
䖒
䖝
䖵
䙴
䚻
䜌
䝿
䡛
䧹
䪞
一
丁
丂
七
丄
丅
丆
万
丈
三
上
下
丌
不
与
丏
丐
丑
专
且
丕
世
丘
丙
业
东
丞
丢
丣
两
严
並
丨
丩
个
丫
丬
中
丮
丰
丱
串
丵
丶
丷
丸
丹
为
主
丽
丿
乀
乂
乃
久
乆
乇
么
义
之
乌
乍
乎
乏
乐
乑
乔
乖
乗
乘
乙
乚
乛
乜
九
乞
也
习
乡
乳
乾
亀
亅
了
亇
予
争
事
二
亍
于
亏
亐
云
互
亓
五
井
亘
亚
亜
亞
亟
亠
亡
亢
交
亥
亦
产
亨
亩
享
京
亭
亮
亯
亰
亲
亳
亶
亷
人
亻
亼
亾
仁
今
介
仌
从
仐
仑
仒
仓
仕
他
付
仝
代
令
以
任
企
伊
伏
伐
休
会
伝
伯
但
位
何
佘
余
作
佥
使
來
侈
侌
侖
侯
侵
便
保
俞
信
修
倉
倍
候
倠
偽
備
僉
僕
儿
兀
允
兂
元
兄
充
兆
兇
先
光
兊
克
兌
免
兑
兒
兓
兔
党
兜
兟
入
全
兩
兪
八
公
六
兮
兰
共
关
兵
其
具
典
兹
兼
冀
冂
冃
冄
内
冈
冉
冊
冋
册
再
冎
冏
冐
冒
冓
冖
冗
冘
军
农
冝
冡
冥
冫
冬
冷
几
凡
凢
凵
凶
凷
凸
凹
出
函
凾
刀
刁
刂
刃
刄
刅
分
切
刍
刑
刕
刖
列
刘
则
初
別
利
别
到
制
刺
則
削
剌
前
剡
剽
劉
力
功
加
劦
助
劫
劳
劵
勃
勇
勉
勒
動
務
勞
勤
勹
勺
勻
勾
勿
匀
匂
包
匆
匈
匊
匋
匍
匕
化
北
匚
匝
匡
匪
匱
匸
匹
区
医
匽
匿
區
十
卂
千
卄
卅
卆
升
午
卉
半
卌
华
卑
卒
卓
单
卖
南
卜
卝
卞
占
卡
卢
卣
卤
卦
卩
卪
卬
卯
印
危
即
却
卵
卷
卸
卻
厂
厃
厄
历
厈
厉
厌
厓
厘
厚
原
厤
厥
厨
厭
厲
厶
厷
厸
去
厼
厽
叀
参
參
叅
又
叉
及
友
双
反
叐
发
叒
叔
叕
取
受
叚
叜
叟
口
古
句
另
叩
只
召
可
台
叱
史
右
叵
号
司
叹
吂
各
吅
合
吉
吊
吋
同
名
后
吏
向
吕
君
吝
吞
否
含
启
吳
吴
吹
吾
呂
呆
呈
告
员
呙
周
命
咅
和
咎
咠
咢
咨
咸
咼
哀
品
哉
員
哥
哲
唐
商
啇
問
啚
啬
啻
善
喜
喬
單
喿
嗇
噩
嚴
囊
囗
囘
囙
囚
四
回
囟
因
囧
囬
困
囱
囷
固
国
圂
圅
國
圍
圓
土
圡
圣
圥
在
圭
地
圶
圼
坐
坒
坚
坡
坴
垂
垔
垚
埀
埋
城
埶
執
基
堂
堅
堆
堇
堯
塞
墨
壘
士
壬
壯
声
壳
壴
壹
壺
壽
夂
处
夅
夆
备
夊
夋
夌
复
夏
夒
夕
外
夗
夘
多
夜
夢
大
夨
天
太
夫
夬
夭
央
失
夲
头
夷
夸
夹
夻
夾
奂
奄
奇
奈
奉
奎
奏
奐
契
奓
奔
奚
奞
奠
奢
奥
奭
女
奴
奻
好
如
妄
妙
妟
妥
妻
妾
姑
委
姜
威
娄
婁
婴
嬰
嬴
子
孑
孔
孕
孖
字
存
孚
孛
孝
孟
季
孤
学
孫
孱
學
宀
宁
宂
它
宅
宇
守
安
宋
完
宏
宓
宗
官
定
宛
宜
宝
客
宣
室
宮
宰
害
家
容
宾
宿
寄
寅
密
富
寒
察
寧
審
寫
寬
寮
寸
对
寺
寻
寽
対
寿
封
尃
射
将
將
專
尉
尊
尋
尌
對
小
少
尒
尓
尔
尖
尗
尚
尞
尢
尣
尤
尧
尨
尭
就
尸
尹
尺
尻
尼
尽
尾
尿
局
居
屈
屋
屎
屏
屑
展
屖
屚
属
屠
屡
屬
屮
屯
屰
山
屵
屾
岁
岂
岑
岡
岩
岳
岸
峯
島
崇
崑
崔
崖
崙
崩
嵬
嶲
巂
巛
川
州
巟
巠
巢
巤
工
左
巧
巨
巩
巫
差
己
已
巳
巴
巷
巸
巽
巾
巿
帀
市
布
希
帚
帛
帝
带
師
席
帶
常
干
平
年
幵
并
幷
幸
幺
幻
幼
幽
幾
广
広
庄
床
底
店
庚
府
度
庫
庭
庶
康
庸
廉
廌
廛
廣
廩
廴
延
廷
建
廾
廿
开
弁
弃
弄
弇
弋
式
弓
弔
引
弗
弘
弜
弟
弥
弦
弱
張
強
强
彊
彌
彎
彐
彑
当
彔
录
彖
彗
彡
形
彥
彦
彧
彭
彳
役
彼
往
待
律
徒
得
徙
從
復
微
徵
心
忄
必
忌
忍
志
忝
忠
忩
快
念
忽
忿
思
怠
急
怱
恆
恒
恩
恭
息
悉
患
悤
悲
悶
惠
惡
惢
愁
愈
意
愛
感
慈
慧
慮
憂
憲
應
戀
戈
戉
戊
戋
戌
戍
戎
成
我
戒
戔
或
戚
戠
戢
截
戲
戶
户
戹
戼
戾
房
所
扁
扇
手
扌
才
打
托
执
承
折
拉
拜
拿
掌
推
提
摩
支
攴
攵
收
攸
改
放
政
敄
敏
敕
敖
敗
敝
敞
敢
散
敦
敫
敬
数
敷
數
斂
文
斉
斊
斗
斤
斥
斩
斬
斯
新
方
於
施
斿
旁
旋
族
无
旡
既
旣
日
旦
旧
旨
早
旬
旱
旲
时
旾
昆
昇
昌
昍
明
昏
易
昔
昗
昜
星
春
昬
是
昱
昴
昷
時
晃
晋
晏
普
景
晶
智
暑
暴
曇
曩
曰
曲
曳
更
曷
書
曹
曼
曾
替
最
朁
會
月
有
朋
服
朔
朕
朗
望
朝
期
木
朩
未
末
本
札
朮
术
朱
朵
朶
朿
杀
杏
杜
束
条
来
東
杲
杳
松
析
林
枚
果
枝
枲
枼
某
柔
查
柬
柰
柴
栗
桀
桑
桼
梁
條
梟
梨
棘
棠
棥
森
楚
業
楽
榮
樂
樊
欠
次
欣
欮
欲
欶
欽
款
歆
歇
歛
止
正
此
步
武
歨
歪
歮
歯
歰
歲
歴
歷
歸
歹
歺
死
殳
段
殷
殸
殹
殺
殻
殿
毋
毌
母
每
毒
比
毕
毚
毛
毳
氏
氐
民
气
氣
水
氵
氶
氷
永
氺
氾
求
汝
汞
江
沃
沓
沙
沝
泉
法
波
泣
泥
泰
洛
洪
活
派
流
浦
浪
浮
淡
淮
清
渚
渠
湯
滿
漸
火
灬
灭
灰
灵
灷
炅
炎
炏
炗
炙
炭
為
烈
烏
烝
焉
無
焦
焱
然
煞
熊
熏
燕
營
燮
爪
爫
爭
爯
爰
爱
爲
爵
父
爻
爽
爾
爿
片
牙
牚
牛
牜
牟
牢
牧
牪
特
牽
犀
犬
犭
犮
狂
狄
狊
独
狺
狼
猋
猒
猪
献
獻
玄
率
玉
王
玟
玨
珎
班
琴
瑟
瑩
瓜
瓦
甘
甚
生
産
用
甫
甬
田
由
甲
申
电
甶
男
甸
甹
画
甾
畀
界
畏
畐
留
畜
畟
畢
畧
畨
番
畫
異
畱
當
畺
畾
疊
疋
疌
疑
疒
疾
癶
癸
癹
登
發
白
百
皀
皃
的
皆
皇
皋
皐
皕
皮
皷
皿
盃
盆
盇
盈
益
盍
盎
监
盒
盖
盛
盡
監
盤
盧
目
直
相
盾
省
眇
眉
看
眔
眞
真
眷
眼
眾
着
睘
睪
睿
瞏
瞢
瞿
矍
矛
矞
矢
矣
知
矦
短
石
破
碎
磊
磨
示
礻
礼
祟
票
祭
禀
禁
禸
禹
禺
离
禽
禾
禿
秀
秃
秉
秋
科
秝
秦
移
稟
穀
穌
穴
究
穹
空
穿
突
窄
窒
立
竒
竜
竝
竟
章
童
竹
笑
笠
筆
等
答
箕
算
箴
節
篤
篭
米
粉
粛
粟
粤
粦
粲
糞
糸
糹
系
約
納
素
索
紫
累
細
絜
絫
絲
維
綿
縣
繇
纍
纟
缶
网
罒
罔
罕
罗
罙
罡
罢
罪
署
罷
羅
羊
羌
羍
美
羔
羕
羗
羞
羡
羣
群
義
羲
羸
羽
翁
翏
習
翕
翟
翠
翼
老
耂
考
者
耆
而
耎
耑
耒
耳
耴
耶
耷
聂
聊
聖
聚
聶
聿
肀
肃
肅
肉
肖
肙
肥
肩
肯
育
肴
胃
背
胡
胥
能
脊
脩
膚
臣
臤
臧
自
臬
臭
臯
臱
至
致
臺
臼
臽
臾
臿
舀
舂
舄
與
興
舉
舌
舍
舛
舜
舞
舟
般
艮
良
色
艸
艹
艾
芒
芔
芬
芮
花
芳
芺
芻
苔
苗
苟
若
苦
英
茶
茸
荅
草
荒
荣
荼
莆
莧
莫
莽
菆
菊
菐
華
萬
落
葉
著
葛
董
葵
蒙
蒦
蒼
蓋
蓬
蓺
蔑
蔡
蕉
蕭
薄
薛
薦
薰
藍
藏
藥
蘭
虍
虎
虐
虒
虔
處
虖
虗
虘
虚
虛
虜
虞
虫
虽
蚤
蚩
蜀
蜜
蟲
蠡
血
行
衍
衛
衣
衤
表
衮
衰
袁
袞
褭
褱
襄
襾
西
覀
要
覃
見
規
覓
覧
親
覽
见
角
解
言
訁
訇
計
記
話
詹
語
誩
諸
讠
话
谷
豆
豈
豊
豐
豕
豖
豙
象
豦
豩
豪
豸
貇
貝
貞
貟
負
貢
貧
貪
貫
責
貳
貴
買
費
賁
資
賈
賏
賓
賔
賛
賞
賢
賣
質
賴
贊
贝
贡
责
贯
贲
贵
赖
赞
赤
赦
走
越
足
路
蹇
身
躬
車
軍
軎
軟
輦
车
辛
辜
辟
辥
辰
辱
農
辵
辶
边
达
过
近
连
迷
追
退
送
逆
逐
通
速
造
逢
連
逮
進
遀
遂
過
道
達
遣
適
遷
遺
邊
邑
邕
那
邦
邪
郎
郑
部
郭
都
鄉
酉
酋
配
酓
釆
采
里
重
野
量
金
釒
錢
钅
長
镸
长
門
閃
閉
開
閏
閑
閒
間
閔
閵
閻
闌
门
间
闷
阑
阜
阝
阿
降
陳
隆
隊
隋
隡
隨
隱
隶
隹
隺
隻
隼
隽
难
雀
雁
集
雈
雋
雍
雐
雔
雙
雚
雜
雝
離
難
雨
雩
雪
雲
零
雷
需
霍
霜
霝
霞
霸
靈
靑
青
非
靡
面
靣
革
韋
韦
韭
韯
韱
音
頁
頃
項
須
頗
頡
頻
顛
页
風
风
飛
飞
食
飠
養
饣
首
香
馬
馮
駦
马
骨
高
髟
鬥
鬯
鬲
鬼
魚
魯
鮮
鱼
鲁
鳥
鳳
鸟
鹵
鹿
麃
麗
麥
麦
麻
黃
黄
黍
黎
黑
黒
黨
黹
黽
黾
鼎
鼓
鼠
鼻
齊
齋
齐
齒
齿
龍
龙
龜
龟
龠
龰
龱
龴
龵
龶
龷
龸
龹
ꜿ
ꞓ
ꞔ
者
艹
ﬁ
？
𐌀
𐌰
𐤀
𐤂
𠀁
𠀃
𠀆
𠀉
𠀎
𠀐
𠁁
𠁣
𠂆
𠂇
𠂈
𠂉
𠂊
𠂋
𠂎
𠂒
𠂔
𠂛
𠂡
𠂢
𠂤
𠂬
𠂭
𠂹
𠃊
𠃋
𠃌
𠃍
𠃎
𠃑
𠃓
𠃔
𠃜
𠄌
𠄎
𠄠
𠄢
𠆢
𠆥
𠇍
𠈌
𠌵
𠓜
𠔉
𠔥
𠔼
𠔽
𠔿
𠕀
𠕁
𠕋
𠘧
𠘨
𠙻
𠙼
𠚏
𠚒
𠚤
𠚪
𠣏
𠤎
𠤕
𠥓
𠦄
𠦑
𠦝
𠧒
𠧗
𠧪
𠩺
𠪚
𠫓
𠫔
𠫤
𠬛
𠬝
𠬞
𠬢
𠬤
𠬶
𠮛
𠮦
𠮷
𠯑
𠱠
𠳮
𠷎
𡈼
𡉀
𡉵
𡌥
𡍮
𡏳
𡕒
𡕩
𡕰
𡖅
𡗗
𡗜
𡘆
𡘤
𡧱
𡨄
𡩧
𡬠
𡭽
𡰣
𡰥
𡰪
𡰯
𡰱
𡷈
𡸁
𡿨
𡿩
𡿪
𡿺
𢀖
𢀛
𢀩
𢁙
𢆉
𢆰
𢆶
𢇁
𢇇
𢉖
𢌬
𢌿
𢏚
𢑑
𢑚
𢖻
𢙣
𢛳
𢦏
𢦒
𢧵
𢼄
𢾕
𣁋
𣄼
𣅀
𣅽
𣍘
𣎳
𣎵
𣏋
𣏼
𣗥
𣥂
𣥖
𣦵
𣦼
𣧄
𣪊
𣪠
𣬉
𣳾
𣶒
𤇾
𤊽
𤐫
𤓰
𤔔
𤕨
𤣩
𤰇
𤰔
𤰞
𤴓
𤴔
𤽄
𥁑
𥁕
𥃦
𥃩
𥃭
𥇡
𥑟
𥘅
𥘈
𥝢
𥫗
𥱡
𦈢
𦉪
𦉬
𦉼
𦍌
𦍒
𦎧
𦐇
𦓔
𦔮
𦘒
𦙃
𦚏
𦣝
𦣞
𦣻
𦥑
𦥔
𦥯
𦨉
𦭝
𦰩
𧆞
𧈧
𧘇
𧰨
𧴪
𧴮
𧵩
𧾷
𨸏
𨾴
𩙿
𩠐
𩫏
𩵋
𪉷
𪜀
𪟽
𪠲
𪩲
𫇦
𫔭
𫜸
𫝀
𫠣
𫠩
𫢉
𫥞
𫩏
𫩠
𫪡
𫲽
𫶧
𬀷
𬐘
𬗌
𬙙
𬛸
𬜯
𬟩
𬯁
𬴘
𬺻
𬼉
𬼖
𭀰
𭁈
𭁨
𭅰
𭑈
𭕄
𭗼
𭤨
𭥫
𭻾
𮅕
𮊿
𮍌
𮍏
𮓗
𮥼
𮧮
廾
𰀁
𰀄
𰀈
𰀉
𰀕
𰀠
𰀡
𰀢
𰀪
𰁜
𰃮
𰆊
𰆘
𰋙
𰕎
𰢴
𰧭
𰯲
000--
20--
41--
46--
50--
60--
62--
63--
69--
71--
72--
74--
76--
77--
78--
90--
93--
96--
a--
aa--
ab--
aba--
abba--
abbon--
abe--
abo--
abr--
abu--
ac--
aca--
acca--
accele--
accu--
accugge--
ace--
aci--
aco--
acom--
acre--
acro--
act--
acu--
ad--
ada--
ade--
adel--
adi--
admini--
ado--
adu--
ae--
aero--
af--
afe--
affa--
affe--
affi--
afi--
afr--
ag--
aga--
aggre--
agi--
agio--
ago--
agres--
agri--
agro--
agu--
ah--
ai--
aia--
aj--
aja--
ak--
al--
ala--
alba--
albe--
albi--
ale--
alek--
alexan--
alfo--
ali--
all--
allego--
allo--
alo--
alt--
alta--
alu--
am--
ama--
amb--
ambro--
ame--
ami--
amilo--
ammini--
amo--
ampli--
amu--
an--
ana--
analo--
analy--
anas--
and--
anda--
ane--
ani--
anni--
annu--
ano--
ans--
ant--
ante--
anti--
antro--
anu--
anæ--
ao--
aoto--
aoxi--
ap--
apa--
ape--
api--
apo--
apolo--
appa--
appo--
apr--
apro--
apæ--
ar--
ara--
arc--
arca--
are--
ari--
arlec--
armi--
aro--
arre--
arri--
art--
arte--
arti--
aru--
as--
asa--
asbu--
asce--
asci--
ascle--
ase--
asi--
aso--
assa--
asse--
asso--
assucia--
astra--
asu--
at--
ata--
ate--
ather--
ati--
atle--
atmo--
atmosfe--
ato--
atre--
atri--
atten--
attra--
au--
auda--
aus--
auto--
autu--
av--
ava--
avan--
ave--
avi--
avo--
avvista--
ay--
az--
aze--
azo--
azu--
b--
ba--
babilo--
bac--
baci--
bag--
bal--
bale--
ban--
bar--
bara--
barba--
bas--
bassu--
batti--
bay--
be--
bea--
bec--
bei--
bel--
belli--
ben--
bena--
bene--
ber--
bergo--
bet--
bi--
bia--
bie--
big--
bil--
bila--
bio--
bir--
bis--
biu--
bla--
ble--
bli--
blo--
blu--
bo--
bob--
boc--
boe--
bomb--
bomba--
bon--
bona--
boni--
borgo--
borro--
bos--
bot--
bou--
bow--
br--
bra--
brac--
bre--
bri--
bro--
bru--
bu--
buddi--
bun--
buon--
bur--
but--
by--
bæ--
c--
ca--
caba--
cac--
cae--
cai--
cal--
cala--
calc--
cald--
cali--
calli--
calo--
calva--
cam--
campe--
campo--
can--
canc--
candi--
cane--
cao--
cap--
capi--
capo--
car--
cara--
cari--
caro--
carto--
cartu--
cas--
casa--
casal--
castel--
cat--
cata--
cathe--
cato--
cau--
cava--
cavi--
cc--
cce--
ce--
cele--
cen--
cer--
cera--
cet--
ch--
cha--
che--
cher--
chi--
chia--
chiu--
cho--
ci--
cia--
cian--
cin--
cio--
circo--
circu--
cisal--
ciu--
cive--
ciæ--
cla--
cle--
cli--
clo--
clu--
co--
coa--
coca--
cod--
code--
codif--
coe--
coi--
col--
coll--
colle--
colo--
com--
coma--
combati--
come--
comi--
comm--
con--
conc--
condis--
condo--
conla--
cono--
consa--
consi--
consti--
contro--
coo--
coordi--
cor--
core--
cos--
cosmo--
costa--
cou--
cr--
cra--
cre--
cri--
cro--
croci--
cru--
cu--
cua--
cue--
cui--
cul--
cum--
cumis--
cumpe--
cun--
cunce--
cuni--
cunliga--
cunpl--
cur--
cus--
cxx--
cy--
cœu--
d--
da--
dai--
dal--
dan--
danne--
dar--
data--
dau--
de--
dec--
deca--
dece--
deci--
defe--
deg--
degra--
dei--
del--
deli--
demet--
demo--
demue--
den--
denomi--
denum--
depo--
der--
des--
desci--
desgu--
deta--
deut--
deute--
dev--
deve--
dex--
deza--
dezi--
dezo--
di--
dia--
die--
dife--
dile--
dime--
din--
dina--
dio--
diplu--
dipro--
diproma--
dir--
dire--
dis--
disc--
disper--
ditto--
diu--
dive--
diza--
dizo--
dm--
do--
doc--
doe--
dog--
dom--
dome--
don--
dopo--
doppo--
dra--
dre--
dri--
dro--
du--
dua--
dub--
due--
dui--
dume--
dumi--
dur--
dæ--
dœu--
e--
ea--
ec--
ecce--
ecclexa--
ecclexia--
ece--
eclexia--
eco--
ecuno--
ed--
edi--
edu--
ee--
efe--
effe--
egi--
egua--
ei--
el--
ela--
ele--
elep--
eletri--
elett--
elettro--
eli--
elio--
elle--
elo--
em--
embrio--
eme--
emi--
emo--
empi--
en--
enc--
ency--
end--
ende--
ene--
eni--
eno--
ente--
ento--
enu--
eo--
ep--
ephe--
epici--
epis--
epo--
equi--
er--
era--
ere--
eri--
ero--
eru--
es--
esc--
escur--
ese--
esi--
eso--
espe--
espo--
espu--
esse--
est--
este--
et--
ete--
etero--
eth--
eti--
etno--
etnu--
eu--
eucli--
euro--
eva--
eve--
evi--
evu--
ex--
exem--
exi--
exor--
expos--
extra--
ey--
eza--
eze--
ezo--
eſ--
f--
fa--
fac--
fai--
fan--
fanta--
far--
fas--
fau--
fazi--
fe--
fec--
fei--
feno--
fer--
fes--
fi--
fia--
fie--
fil--
fila--
filmo--
filo--
fin--
fini--
fio--
fisarmo--
fiu--
fl--
flesci--
flo--
flu--
fo--
fonde--
for--
foto--
fox--
fra--
frac--
fre--
fri--
fro--
fru--
fu--
ful--
fun--
funda--
fur--
fut--
fæ--
fœu--
g--
ga--
gai--
gal--
galle--
gallo--
gan--
gari--
gas--
gau--
gaus--
ge--
gel--
gen--
gene--
geno--
genue--
geo--
geof--
gerva--
ges--
gexin--
gey--
gg--
gh--
ghe--
ghi--
gi--
gia--
giac--
gian--
gie--
gil--
gine--
gio--
gioa--
giu--
giuri--
giusv--
gla--
gli--
glo--
gna--
go--
goa--
goe--
goi--
gol--
gon--
gondo--
gorgo--
gra--
gram--
gravi--
gre--
gri--
gro--
gru--
gu--
gua--
gue--
gui--
gun--
h--
ha--
habi--
han--
hart--
has--
he--
her--
hey--
hi--
his--
ho--
hol--
hu--
hux--
hy--
hydro--
i--
ia--
ibe--
ic--
ica--
id--
ide--
ido--
idro--
idru--
ie--
if--
il--
ili--
illu--
ilu--
im--
ima--
ime--
imma--
imme--
immi--
immu--
impi--
impleme--
impre--
impri--
improvv--
impu--
in--
ina--
inao--
inc--
inca--
ince--
inci--
inco--
incom--
incu--
inda--
inde--
indenti--
indi--
indo--
indu--
ine--
inevita--
inf--
infe--
infiam--
infra--
inga--
inge--
inghi--
ingu--
ini--
inlu--
inma--
inn--
ino--
ins--
inse--
inso--
int--
inta--
inte--
intelli--
inter--
inti--
into--
intra--
intu--
inu--
inva--
inve--
inze--
io--
ioni--
ip--
ipa--
ipe--
ipi--
ipo--
ipoti--
ir--
ira--
iri--
iro--
is--
isa--
iso--
it--
ita--
iti--
iu--
iv--
ive--
iz--
izo--
j--
ja--
je--
ji--
jo--
jou--
ju--
k--
ka--
kai--
kal--
kamu--
kat--
ke--
kha--
ki--
kins--
kle--
ko--
kri--
ku--
kurdi--
kwa--
l--
la--
lac--
lae--
lam--
lamb--
lan--
lanc--
lao--
lar--
las--
lat--
lau--
lavu--
lc--
le--
lea--
lec--
lei--
leo--
lepor--
les--
leti--
leuc--
leze--
li--
lib--
lie--
lig--
liga--
ligu--
lin--
lingui--
lio--
lis--
litte--
litu--
litur--
liv--
lla--
lle--
lli--
lo--
loc--
loco--
loe--
loi--
lor--
lou--
lov--
lu--
lub--
luc--
lun--
luxi--
lx--
lxx--
ly--
læ--
m--
ma--
maave--
mac--
macca--
mad--
mae--
mag--
magne--
mah--
mai--
maio--
mais--
mal--
mala--
man--
manda--
mane--
mani--
manti--
manu--
manus--
mao--
map--
mar--
mara--
mare--
mari--
marx--
mas--
mat--
math--
mathe--
matti--
mau--
max--
maxim--
mb--
mc--
md--
me--
mea--
meda--
mei--
mel--
melan--
memb--
men--
mer--
mera--
meravi--
meri--
mes--
met--
meta--
mez--
mi--
mia--
micro--
mil--
mili--
min--
mini--
minu--
mio--
mir--
mira--
mit--
mme--
mo--
moi--
mol--
mon--
mona--
mone--
mono--
mont--
monte--
mora--
mori--
mot--
moto--
mou--
mpi--
mpu--
mu--
mua--
mugu--
multi--
mun--
munte--
munto--
murti--
muta--
muvi--
my--
mæ--
n--
na--
nabu--
nan--
naof--
narra--
nau--
naz--
nco--
nd--
nda--
nde--
ne--
nea--
nec--
neces--
necro--
nei--
nen--
neo--
nes--
net--
neu--
neuvza--
new--
ng--
ngu--
ni--
nic--
nico--
nik--
nin--
nio--
no--
noc--
nom--
nomenc--
non--
nord--
nos--
not--
noti--
nou--
ns--
nse--
nta--
nte--
nu--
nuc--
nun--
nuti--
ny--
nya--
nyu--
nzi--
nœ--
o--
oa--
ob--
obe--
oc--
occ--
ode--
odo--
oe--
of--
ofen--
off--
oi--
ok--
ol--
ole--
oli--
oliga--
olim--
olo--
oly--
om--
omb--
omo--
on--
one--
ono--
op--
ope--
opi--
opus--
or--
ora--
orc--
ore--
org--
ori--
ornitholo--
oro--
orp--
orto--
os--
oser--
ot--
ota--
ote--
oto--
ott--
ottim--
otto--
ottu--
ou--
outo--
ove--
p--
pa--
pac--
pae--
pag--
pai--
pal--
pala--
pale--
paleo--
paleuc--
pam--
pan--
panc--
par--
para--
pare--
pari--
pas--
pasa--
pasi--
pato--
pau--
paul--
pav--
pay--
pc--
pe--
pec--
peda--
pei--
pela--
pelli--
pen--
penta--
per--
perc--
peri--
peu--
pha--
phi--
philo--
phy--
pi--
pia--
pian--
piatta--
pic--
pie--
pier--
pig--
pin--
pio--
pira--
pis--
pitago--
piu--
pl--
pla--
platea--
pleu--
pli--
plu--
po--
poe--
poi--
pol--
pola--
pole--
poli--
polo--
poly--
polypteri--
pon--
pop--
por--
porto--
pos--
pote--
poxi--
pozze--
ppo--
pr--
pra--
pre--
prec--
prepon--
pres--
prexi--
pri--
pria--
pro--
prodi--
proie--
prole--
proto--
provv--
provvedi--
pru--
pruce--
præ--
pseu--
psic--
psicoa--
psicolo--
pu--
pub--
pue--
pui--
puli--
pupu--
pur--
pus--
pyr--
pæ--
q--
qua--
que--
qui--
quoti--
r--
ra--
rac--
raco--
radio--
rai--
ral--
ram--
ramb--
ran--
rap--
ras--
ratif--
rava--
razzo--
razzu--
rbi--
rdi--
re--
rea--
reba--
rec--
reca--
rece--
reco--
recu--
red--
redu--
rei--
reme--
ren--
repu--
requi--
res--
resci--
respe--
resu--
reti--
retro--
reu--
reve--
revi--
revu--
rez--
rhe--
ri--
ria--
rian--
ric--
rice--
rico--
ricu--
ricun--
ride--
ridi--
rie--
rifasi--
rifassi--
rife--
rigo--
rin--
rio--
ripe--
ris--
riso--
risorgi--
ristru--
rit--
riu--
riva--
rivolu--
rivulu--
riy--
rna--
ro--
rocca--
rom--
ron--
rota--
rou--
rove--
rre--
rt--
rti--
rto--
ru--
rus--
ræ--
s--
sa--
saa--
sac--
sal--
sali--
salva--
salvi--
sam--
san--
sanguin--
sar--
sarva--
sba--
sbra--
sbri--
sc--
sca--
sce--
sch--
sche--
schi--
sci--
scia--
scin--
scio--
sciu--
sco--
scola--
scom--
scon--
scri--
scro--
scru--
scta--
scu--
scunfi--
se--
sea--
sec--
sed--
seg--
sei--
seles--
sem--
seme--
semi--
sempli--
sen--
senpli--
sequi--
ser--
ses--
set--
sete--
sette--
seu--
sfe--
sfi--
sfo--
sfu--
sgo--
sgu--
sha--
she--
sher--
shi--
sho--
shu--
si--
sic--
sie--
sig--
sile--
silve--
sim--
simpli--
sin--
sir--
sis--
ski--
skri--
sle--
sma--
sme--
smi--
smo--
so--
soc--
socra--
soffe--
soi--
sol--
sole--
soli--
solu--
som--
soma--
sommini--
son--
sor--
sorre--
sorve--
sorze--
soto--
sotto--
sp--
spa--
spe--
speci--
spetro--
spi--
sple--
spo--
spu--
spæ--
squi--
sr--
ss--
st--
sta--
stati--
ste--
stereo--
sti--
stimu--
sto--
stoio--
stor--
storio--
stra--
stre--
stri--
stro--
stu--
su--
sub--
succe--
sud--
sue--
sugge--
sul--
sume--
sun--
super--
supp--
supra--
sur--
surmu--
sus--
sustitu--
suttu--
sv--
sve--
svi--
sw--
swa--
sy--
sæ--
sœu--
t--
ta--
taberna--
tac--
tai--
tal--
tan--
tao--
tas--
tau--
taxo--
te--
tea--
tec--
tech--
ted--
tei--
tel--
tele--
tem--
ten--
teo--
ter--
tes--
th--
the--
ti--
tia--
tie--
tim--
tin--
tipo--
tir--
to--
tole--
tom--
ton--
top--
topo--
torra--
tou--
tour--
tr--
tra--
trad--
tradis--
trage--
tram--
tran--
trans--
tras--
trasfe--
tre--
tren--
tres--
trevi--
tri--
tro--
tru--
tt--
tta--
ttu--
tu--
tuber--
tui--
tur--
ty--
tæra--
u--
ua--
uc--
ue--
uffi--
uge--
ugo--
ui--
uk--
ul--
ulte--
um--
umo--
un--
uni--
upe--
ura--
uri--
urte--
us--
usu--
ut--
uta--
ute--
uvi--
uzbeki--
v--
va--
vai--
val--
valle--
van--
vanif--
var--
vari--
vas--
vau--
ve--
ved--
vede--
vei--
velle--
ven--
venta--
ver--
vergo--
vert--
vespa--
vest--
vetra--
veu--
vi--
via--
vic--
vice--
vie--
villa--
vin--
vinti--
violo--
vis--
visuali--
vita--
viti--
viu--
vo--
voe--
vol--
volu--
vu--
vul--
vœu--
w--
wa--
wah--
we--
web--
wiki--
wil--
wind--
wol--
wor--
wou--
x--
xa--
xcv--
xe--
xi--
xo--
xu--
xx--
y--
ya--
yan--
ye--
yu--
z--
za--
zaga--
zamb--
zan--
zar--
ze--
zen--
zeno--
zh--
zi--
zin--
zo--
zoa--
zu--
zur--
æ--
ægoa--
ı--
œ--
œu--
ſ--
ſau--
ſe--
α--
β--
γ--
δ--
ε--
κ--
λ--
μ--
ν--
νη--
νο--
ο--
π--
πε--
ρ--
σ--
σκο--
στ--
τ--
φ--
χ--
сов--
ال--
--0
--00
--06
--1
--2
--3
--4
--5
--6
--7
--8
--9
--a
--ac
--acco
--aco
--ad
--ada
--ade
--ae
--age
--agio
--agno
--ago
--ai
--aia
--aio
--ak
--al
--ale
--ali
--alitæ
--almente
--am
--ame
--amente
--amento
--an
--ana
--anc
--and
--ando
--ane
--ani
--ann
--ano
--ans
--ansa
--ante
--anti
--anus
--ao
--ar
--ara
--ard
--are
--ari
--aro
--as
--ase
--at
--ata
--ate
--ati
--ato
--atu
--au
--aux
--ava
--axe
--b
--ba
--ban
--bat
--bb
--bbe
--bbile
--bbili
--be
--berg
--bi
--bia
--bile
--bili
--bilitæ
--bin
--bio
--bita
--ble
--blik
--bo
--boa
--bon
--bona
--borg
--box
--br
--bra
--bre
--bri
--bru
--bræ
--bs
--bu
--bus
--bæ
--c
--ca
--cac
--came
--camente
--can
--cao
--cca
--cchi
--cchio
--cci
--ccio
--cco
--ccu
--ce
--cea
--ceae
--cebus
--celli
--cen
--ces
--ch
--che
--chen
--chi
--chæ
--ci
--cia
--cio
--ciocca
--cion
--cis
--cismo
--ciu
--ciæ
--cje
--ck
--cle
--co
--coa
--cola
--colo
--cri
--cric
--crito
--cro
--cs
--ct
--cta
--cte
--ction
--cto
--cts
--ctu
--cu
--cuc
--cum
--cus
--cy
--cæ
--d
--da
--dac
--dad
--dae
--dam
--dan
--dasce
--db
--dda
--ddan
--dde
--ddi
--ddio
--ddo
--de
--den
--denc
--dendo
--denæ
--di
--dia
--dic
--die
--din
--dine
--dio
--ditæ
--diæ
--dle
--do
--doc
--doi
--doo
--dor
--doro
--dos
--dose
--dra
--ds
--dt
--du
--dua
--dui
--dum
--dun
--dus
--dy
--dæ
--e
--ea
--eae
--eau
--ec
--ed
--ede
--edro
--ee
--ef
--ega
--eghi
--ego
--egu
--ei
--eio
--eise
--eiva
--eivi
--eixi
--ek
--el
--ela
--ele
--ella
--elli
--ello
--em
--en
--ena
--enaro
--enberg
--enc
--endo
--ene
--engo
--ens
--ense
--ente
--enti
--enza
--eo
--er
--era
--ere
--eri
--ern
--ero
--ers
--es
--ese
--et
--eta
--ete
--eto
--etta
--etti
--ettu
--etudine
--eu
--eus
--exi
--eximo
--ey
--ez
--f
--fa
--facia
--fe
--fen
--fere
--feri
--ff
--ffica
--ffiche
--ffico
--fi
--fic
--fica
--ficac
--fice
--fichæ
--fico
--ficu
--ficæ
--fo
--ft
--fu
--g
--ga
--gac
--game
--gando
--ganti
--gao
--gat
--ge
--gen
--ger
--ges
--gg
--gge
--ggeita
--ggi
--ggia
--ggiche
--ggico
--ggio
--ggion
--ggiu
--ggiæ
--gh
--ghe
--ghi
--ghju
--ght
--ghæ
--gi
--gia
--giatu
--gicu
--gie
--gio
--gion
--giu
--giæ
--gli
--glia
--gliano
--glie
--glio
--gma
--gn
--gna
--gnac
--gnan
--gnano
--gne
--gni
--gnino
--gno
--gnu
--gnæ
--go
--goi
--goime
--goli
--gon
--gona
--gone
--gono
--gou
--gra
--graph
--gri
--gro
--gs
--gu
--gua
--gue
--gui
--guo
--gæ
--h
--ha
--hai
--hal
--ham
--he
--hi
--hia
--hing
--hl
--hm
--ho
--hr
--ht
--https
--hæ
--i
--ia
--ial
--iale
--iame
--ian
--iano
--ic
--ica
--icac
--ice
--iche
--ichi
--ici
--ico
--icu
--ida
--idae
--ide
--idi
--ie
--iec
--ienti
--ier
--iera
--iero
--ies
--ieu
--ifica
--ificac
--igo
--ii
--ija
--ika
--il
--ile
--illa
--ille
--ima
--ime
--imi
--imio
--in
--ina
--ine
--ing
--ini
--inn
--inne
--ino
--inæ
--io
--ioi
--ion
--ior
--ioso
--ir
--ira
--ire
--irus
--is
--isa
--isce
--ise
--isi
--isio
--ismo
--iso
--ista
--isti
--isu
--it
--ita
--ite
--iti
--ito
--itu
--ity
--itæ
--iu
--ium
--iun
--ius
--iva
--ivan
--ive
--ivi
--ivo
--ix
--ixe
--ixi
--iximo
--iza
--ize
--izi
--izo
--iæ
--j
--ja
--jas
--je
--ji
--jia
--jie
--jiu
--jn
--jo
--ju
--k
--ka
--kan
--ke
--ken
--ker
--ket
--key
--kh
--ki
--kij
--kin
--ko
--kon
--kov
--ks
--ku
--ky
--l
--la
--lac
--lamo
--landia
--lani
--lao
--lar
--lare
--lato
--lba
--ld
--lde
--ldi
--ldo
--le
--lea
--len
--lente
--leo
--ler
--lero
--les
--less
--let
--ley
--lez
--lf
--lfo
--lge
--li
--lia
--lian
--lic
--lie
--lieri
--lin
--lina
--lini
--linn
--lino
--lio
--lis
--lismo
--lista
--lita
--litz
--litæ
--lius
--liza
--lizac
--lizo
--lizæ
--liæ
--lk
--ll
--lla
--llac
--llan
--lle
--lli
--llica
--llin
--llini
--llino
--llio
--llo
--llon
--llu
--llus
--lly
--llæ
--lme
--lmente
--lo
--logi
--logia
--lon
--los
--lou
--lov
--lph
--lpi
--ls
--lse
--lt
--lta
--lte
--lti
--lto
--ltz
--ltæ
--lu
--lum
--lus
--ly
--lz
--læ
--m
--ma
--mac
--magne
--man
--mao
--mar
--mba
--mbe
--mber
--mbi
--mbo
--me
--ment
--mente
--menti
--mento
--mentu
--metraggi
--mi
--mia
--mica
--mico
--min
--mina
--mio
--mista
--mitæ
--mm
--mma
--mme
--mmi
--mmia
--mmica
--mmiche
--mmo
--mn
--mo
--mon
--mopoxvirus
--morpha
--mp
--mpa
--mpe
--mps
--ms
--mu
--muo
--mus
--my
--mæ
--mæa
--mıs
--n
--na
--naba
--nac
--nace
--nae
--nago
--nai
--nale
--nao
--nari
--nas
--nau
--nbi
--nbu
--nburg
--nc
--nca
--nce
--nco
--nd
--nda
--ndan
--nde
--ndente
--ndi
--ndito
--ndo
--ndoghe
--ndola
--ndoli
--ndolo
--ndone
--ndose
--ndri
--ndro
--ndu
--ndum
--nduse
--ndæ
--ne
--nea
--neise
--neixi
--neize
--nente
--ner
--nes
--nesi
--netti
--neu
--ng
--nga
--ngelo
--nghi
--ngia
--ngo
--ngoi
--ngula
--nha
--nhard
--nhold
--ni
--nia
--nibus
--nica
--nico
--nide
--nie
--nin
--ning
--nini
--nio
--nis
--nismo
--nity
--nitæ
--niu
--nius
--niza
--niæ
--nk
--nko
--nn
--nna
--nne
--nni
--nnia
--nnica
--nniche
--nnico
--nnie
--nnio
--nno
--nnomi
--nnua
--no
--non
--nos
--nou
--nova
--nque
--ns
--nsa
--nsci
--nse
--nsi
--nsia
--nsio
--nsion
--nsis
--nsiu
--nso
--nstruc
--nsu
--nsæ
--nt
--nta
--ntac
--nte
--ntes
--nti
--ntia
--ntin
--ntino
--ntivo
--nto
--nts
--ntu
--ntæ
--nu
--nui
--num
--nus
--ny
--nz
--nza
--nze
--nzia
--nzu
--næ
--o
--oa
--obi
--oco
--od
--oe
--oi
--oin
--ol
--ola
--oli
--olo
--ologici
--olæ
--om
--on
--ona
--one
--oni
--onia
--ono
--ons
--oo
--or
--ora
--ore
--orno
--orum
--os
--osa
--ose
--oso
--ot
--otho
--ou
--ov
--oxi
--oza
--oze
--ozo
--p
--pa
--pan
--pe
--pea
--peræ
--pes
--ph
--phirhynchus
--phone
--phy
--phyta
--pi
--pia
--pie
--pio
--piæ
--ple
--plo
--po
--pol
--poli
--pon
--poste
--ppa
--ppao
--ppio
--ppo
--ppæ
--ps
--ption
--pu
--pæ
--q
--qua
--que
--ques
--qui
--r
--ra
--rac
--rada
--rae
--ral
--ran
--rando
--rano
--ranu
--rao
--ras
--rasiu
--rata
--rati
--ration
--rato
--rba
--rbi
--rc
--rca
--rce
--rco
--rd
--rda
--rde
--rdi
--rdia
--rdo
--rds
--rdæ
--re
--rea
--rec
--red
--regæ
--rella
--relli
--relæ
--rem
--ren
--renc
--res
--ret
--retto
--rf
--rg
--rge
--rgi
--ri
--ria
--riame
--ribus
--rie
--ries
--rietæ
--rii
--rile
--rin
--rini
--rino
--rio
--ris
--rit
--rita
--ritu
--ritæ
--riu
--rium
--rius
--riza
--rizac
--rizza
--riæ
--rk
--rlo
--rly
--rm
--rma
--rme
--rmente
--rmi
--rmo
--rmæ
--rn
--rna
--rne
--rni
--rno
--rnu
--rnæ
--ro
--rola
--rolo
--ron
--rone
--ros
--roso
--rou
--rough
--rov
--roxi
--rp
--rra
--rre
--rrin
--rs
--rsa
--rsci
--rse
--rsi
--rsion
--rso
--rsu
--rsæ
--rt
--rta
--rte
--rti
--rto
--rton
--rtu
--rtæ
--ru
--rum
--rus
--ruza
--rve
--rvo
--ry
--rz
--rza
--rzo
--ræ
--s
--sa
--samente
--san
--sano
--sau
--sburg
--sc
--sca
--sce
--sch
--sche
--schi
--sci
--scia
--scian
--scima
--scime
--scimi
--scimo
--scio
--scion
--scitæ
--sciu
--sco
--scu
--se
--sell
--sentu
--sh
--si
--sia
--sic
--sie
--simo
--sin
--sina
--sio
--sioi
--sioin
--sion
--sis
--siu
--siui
--siun
--sius
--sk
--sky
--sma
--smi
--smo
--smu
--so
--soi
--son
--sor
--spec
--spi
--sque
--ss
--ssa
--ssan
--sse
--ssen
--sseni
--ssi
--ssima
--ssimo
--ssio
--ssioin
--ssion
--ssiui
--ssiun
--sso
--ssoi
--ssu
--ssæ
--st
--sta
--stame
--stante
--ste
--stega
--steghe
--steghi
--stego
--steio
--ster
--sti
--stia
--stic
--stica
--stico
--stics
--stio
--sto
--ston
--stou
--stræ
--stu
--stæ
--su
--sy
--sæ
--t
--ta
--tac
--tae
--tai
--taio
--tame
--tan
--tando
--tao
--tar
--tard
--taro
--tarum
--tas
--tat
--tate
--tati
--tatis
--tato
--tatum
--tava
--te
--tec
--ted
--tega
--teghi
--tego
--tella
--tello
--tem
--ten
--tene
--ter
--tes
--teto
--th
--tha
--thy
--ti
--tia
--tic
--tica
--tiche
--tichi
--tico
--tie
--ties
--tin
--tina
--tino
--tio
--tion
--tione
--tionibus
--tions
--tis
--tismo
--titu
--tiu
--tiva
--tive
--tivi
--tivitæ
--tivo
--tiza
--tizac
--tizo
--tl
--tle
--to
--toi
--toio
--tola
--ton
--tor
--tore
--tori
--tos
--tov
--town
--tozo
--tr
--tra
--tre
--tri
--trice
--trixe
--tro
--ts
--tt
--tta
--ttan
--tte
--ttego
--tti
--ttica
--ttiche
--ttichi
--ttici
--ttico
--ttimi
--ttimo
--ttin
--ttino
--ttiva
--ttive
--ttivitæ
--ttivo
--tto
--ttoi
--ttrixe
--ttu
--ttæ
--tu
--tua
--tuddine
--tudine
--tudo
--tue
--tui
--tula
--tum
--tun
--tuo
--tur
--tura
--tus
--ty
--tz
--tæ
--u
--ua
--uc
--ucci
--ud
--uda
--udu
--ue
--ugo
--ugu
--ui
--uit
--uja
--ul
--ula
--ulo
--ult
--ulu
--ulus
--um
--umi
--un
--una
--une
--uno
--unu
--uo
--ur
--ura
--ure
--uri
--uro
--urs
--urt
--us
--use
--usiu
--ut
--uti
--uto
--uve
--ux
--v
--va
--vame
--vamente
--van
--vao
--ve
--ven
--ver
--ves
--vi
--via
--vie
--vio
--viridae
--vitæ
--vo
--voco
--volme
--vra
--vu
--vui
--vum
--vus
--vy
--væ
--w
--wa
--wan
--ward
--way
--we
--wi
--wn
--ws
--x
--xa
--xan
--xe
--xella
--xen
--xente
--xi
--xia
--xic
--xie
--ximo
--xin
--xio
--xision
--xitæ
--xivi
--xo
--xoin
--xon
--xona
--xou
--xu
--xæ
--y
--ya
--yan
--yd
--ye
--yi
--yn
--yo
--yon
--ys
--yu
--yyah
--z
--za
--zac
--zago
--zan
--zante
--zao
--ze
--zendo
--zette
--zetti
--zi
--zia
--zie
--zio
--zioin
--zion
--zione
--zioni
--ziu
--ziun
--zo
--zon
--zoni
--zu
--zza
--zzac
--zzao
--zzato
--zze
--zzi
--zziu
--zzo
--zzu
--zzæ
--zæ
--ß
--æ
--æa
--æghi
--ægo
--æle
--ælo
--æn
--œ
--œu
--ſa
--α
--ε
--η
--ι
--ις
--ν
--ο
--ον
--ος
--ς
--ω
--а
--го
--и
--я
--ія
--ن
