!
"
#
##0
##1
##10
##11
##12
##13
##14
##15
##16
##17
##18
##19
##2
##20
##21
##22
##23
##24
##25
##26
##27
##28
##29
##3
##30
##31
##32
##33
##34
##35
##36
##37
##38
##39
##4
##40
##41
##42
##43
##44
##45
##46
##47
##48
##49
##5
##50
##51
##52
##53
##54
##55
##56
##57
##58
##59
##6
##60
##61
##62
##63
##64
##65
##66
##67
##68
##69
##7
##70
##71
##72
##73
##74
##75
##76
##77
##78
##79
##8
##80
##81
##82
##83
##84
##85
##86
##87
##88
##89
##9
##90
##91
##92
##93
##94
##95
##96
##97
##98
##99
$
%
&
'
(
)
*
+
,
-
.
/
0
00
000
001
002
003
004
005
007
009
01
013
017
02
0203
021
026
03
035
036
04
046
05
05608
06
07
08
09
090
099
1
10
100
1000
10000
100000
101
1012
102
103
104
105
1050
105690470
106
107
108
109
11
110
1100
111
112
113
114
1146
115
116
1160
117
118
119
12
120
1200
1206
121
1210
1215
122
1227
123
1234
124
125
126
127
1271
128
129
13
130
131
132
133
1339
134
135
136
1368
137
1376
138
139
14
140
1400
141
142
143
1433
14331
144
1448
145
1453
146
1464
147
1476
148
149
1492
15
150
1500
1504
151
152
153
154
1545
155
1559
156
157
1571
158
1580
1582
159
15919
15924
16
160
162
163
1630
1636
1638
1640
1641
1642
1644
1645
1648
1650
1652
1657
166
1663
1665
1671
1672
168
1680
169
1690
1691
1696
1697
1698
1699
17
170
1700
1703
1705
1706
1707
1708
171
1710
1717
1719
172
1720
1721
1723
1724
1727
1729
173
1730
1734
1736
174
1740
1749
175
1750
1753
1755
1757
1758
176
1762
1765
1766
1767
177
1777
178
1780
1781
179
1793
1794
18
180
1800
1802
1805
1810
1812
1813
1815
182
1824
1825
1826
1827
183
1830
1831
1834
1837
1838
1839
184
1840
1841
1842
1846
1848
1849
185
1850
1851
1852
1853
1854
1855
1857
1859
186
1860
1861
1862
1863
1864
1865
1867
1868
187
1870
1872
1873
1874
1875
1876
1878
1879
188
1880
1881
1882
1884
1885
1886
1887
1888
1889
189
1890
1891
1892
1893
1894
1895
1896
1897
1898
1899
19
190
1900
1901
1902
1903
1904
1905
1906
1907
1908
1909
191
1910
1911
1912
1913
1914
1915
1916
1917
1918
1919
192
1920
1921
1922
1923
1924
1925
1926
1927
1928
1929
193
1930
1931
1932
1933
1934
1935
1936
1937
1938
1939
194
1940
1941
1942
1943
1944
1945
1946
1947
1948
1949
195
1950
1953
1954
1955
1956
1957
1958
1959
196
1960
1961
1962
1963
1964
1965
1966
1967
1968
1969
197
1970
1971
1972
1973
1974
1975
1976
1977
1978
1979
198
1980
1981
1982
1983
1984
1985
1986
1987
1988
1989
199
1990
1991
1992
1993
1994
1995
1996
1997
1998
1999
2
20
200
2000
2001
2002
2003
2004
2005
2006
2007
2008
2009
201
2010
2011
2012
2013
2014
2015
2016
20160312175750
2017
2018
2019
202
2020
2021
2022
203
204
2044
205
206
207
2070
208
209
2096
21
210
211
211274
212
213
214
215
216
217
218
219
22
220
221
222
223
224
225
226
227
228
229
23
230
231
232
233
234
235
236
237
23701
238
239
24
240
241
2415901
242
243
244
245
246
247
248
2481
249
249827
25
250
251
252
253
254
255
256
257
259
26
260
26000
261
262
263
264
265
266
267
268
269
27
270
271
272
273
274
275
276
277
278
279
28
280
2800
281
282
283
284
285
286
287
288
289
29
290
291
292
293
294
295
296
297
298
299
3
30
300
3008
301
302
303
304
305
306
307
308
309
31
310
311
312
313
314
315
316
31635
3166
317
318
319
32
320
321
322
323
324
325
326
327
328
329
33
330
331
332
333
334
335
336
337
3372
338
339
34
340
341
342
343
344
345
346
347
348
349
35
350
3500
351
352
353
354
355
356
357
358
359
36
360
3602
361
362
363
364
365
366
368
37
373
38
380
3831
39
390
4
40
400
4000
403
407
408
41
412
41304
414
419
42
424
43
433
44
444
45
456
46
468
47
472
473
478
48
49
493
5
50
500
5000
505
51
512
52
524
53
534
54
540
55
551
558
559
56
566
569
57
570
571
576
577
58
580
582
585
5851
59
5903833
6
60
600
61
62
625
626
629
63
639
64
65
66
666
67
68
685
69
7
70
700
7000
7098
71
718
72
720
721
73
7318
736
74
740
747
748
75
76
768
77
776
78
789
79
8
80
800
805
8051
808
81
82
820
823
83
834
84
85
850
85270
855
86
8601
87
88
89
9
90
900
900270
91
910
911
91877
92
93
94
95
953
957
958
96
97
972
978
98
985
99
990
991
995
999
9999
:
;
<
=
>
?
@
\
^
_
`
a
aa
aachen
ab
abandoned
abbr
abe
abendsonne
abkai
abkhazian
ablo
ablon
ablona
ablono
abo
about
above
aboveclass
abovestyle
abs
absent
absolute
abtei
abu
ac
academy
accepted
accepts
accessdate
accessed
according
accounts
ace
acinonyx
acp
acr
act
active
actm
actual
actualdateboundariesproperties
aculeata
acutus
ad
ada
adac
adansonia
add
addclass
added
additional
adds
adf
adi
adj
adjust
ae
aerial
aeshna
af
afar
afb
afghanistan
africa
african
africana
africano
africanus
afro
after
agama
age
ageimpl
agency
aghu
agilis
agra
agraulis
agriocnemis
agrius
agropy
agropyron
agta
ahom
ai
aiguille
ain
ainu
air
airbus
airport
aix
aizi
aja
ak
aka
akkadian
aklanon
ako
al
ala
alaska
alayhi
alba
albania
albanian
albarraci
albarradas
albiceps
album
albus
alcedo
alemania
aleut
alexander
alexandre
alfabeto
alg
algeria
algerian
algonquian
ali
alias
align
all
allclaims
allegra
allianz
allied
alligator
allium
allnames
allow
allowed
allows
allowtables
allpropertyclaims
allsnaks
alnum
alouatta
alpha
alphabet
alps
already
alsatian
also
alt
alta
altai
altaic
altaica
altar
altay
alter
alternative
alto
altstadt
alu
always
am
ama
amami
amanita
amber
america
american
amg
amk
amo
amongolian
amount
amphibius
amphiprion
amuzgo
an
ana
anas
anatolian
anatomy
anax
ancash
anchorencode
ancient
and
andorra
ane
anemone
anemonefish
anfiteatro
ang
angal
angkor
angle
anglo
angola
ani
animated
animation
anna
another
anse
anser
ansicht
ant
antarctica
antelope
anthophora
antigua
any
anyin
anything
ao
ap
apa
apache
apatura
api
apis
apollo
appended
appendimpl
appendproperty
appendqualifiers
appendsnaks
apple
applied
applies
apply
appropriate
apr
april
aqua
aquila
ar
ara
arab
arabia
arabian
arabic
aralam
aramaic
aran
aranes
araneus
arashiyama
arc
arch
archive
archives
arctic
arctos
ard
ardea
are
area
arena
arg
argentina
argiope
argname
argnumber
args
argsarg
argsi
argskey
argsname
argtables
argtableval
argument
arguments
argynnis
ari
aria
arizona
armenia
armenian
arms
army
aromanian
around
arpitan
arr
array
art
arte
artes
article
articles
artificialsnaks
arts
arvense
arvensis
arxiv
aryan
as
asante
asc
ascension
ascii
asclepias
ase
ashe
asia
asiatic
asmat
assembly
assert
assertnotnull
assign
assigned
associated
association
assume
asteraceae
asu
asv
at
ata
atacama
athabaskan
athene
athens
athletics
ati
atlantic
atlas
atlites
atta
attacus
atthis
attica
attr
attribute
attributes
attrstring
atur
au
audi
auf
aug
august
aurantiaca
aurata
auritus
aurora
aus
australia
australian
australis
austria
austrian
austro
author
authors
auto
autoheaders
automatically
automuseum
auvern
av
ava
available
avar
avena
avestan
avoid
awa
awards
awyu
ay
ayi
aymara
ayta
ayuntamiento
az
azerbaijan
azerbaijani
azerbaiya
aztecan
b
ba
baba
babel
baby
bac
bach
back
background
backtranslate
backward
backwards
bad
badius
badtwins
baga
bahamas
bahi
bai
bainouk
baiti
baku
bal
bald
baldus
bali
balinese
balkan
ball
ballet
balloon
balochi
balteatus
baltic
baltimore
bamberg
ban
banda
bangkok
bangla
bangladesh
bank
bantu
bar
barbados
barbuda
bare
bareli
bartz
basa
base
based
baseresult
basestyle
bashkir
basi
basic
basilica
basilika
basin
basque
bass
bassa
bat
batak
bati
bau
bay
bb
bce
bcl
bcp
be
beach
bear
bec
because
becomes
bee
beech
been
before
behaviour
bei
beijing
beilstein
being
beinn
belarus
belarusian
belfast
belfort
belgium
bell
bellied
bells
below
belowclass
belowstyle
bemba
ben
bend
beng
bengal
bengali
benin
benz
ber
berawan
berber
bergtocht
beringei
berkenzwam
berli
berlin
berliner
bernina
bertha
best
bete
betsimisaraka
betulinus
between
bfd
bg
bh
bhasa
bho
bhojpuri
bhoti
bhutan
bi
biao
biblical
bicolor
bicornis
bicycle
bidayuh
big
bikol
billed
bingen
biology
bird
bishnupriya
bison
bissau
bla
black
blank
blaue
blick
block
blockargs
blocks
bloem
blue
bm
bmongolian
bmw
bn
bnf
bo
boat
bodo
body
bodyclass
bodystyle
boeing
bog
bokma
bold
boletus
bolivia
bolivian
bom
bombus
bonasus
bondo
bonn
bontok
book
bookseries
bookseriesentity
bookseriesissue
bookseriesvolume
boolean
bopomofo
border
borealis
boris
boro
bos
bosna
bosnia
bot
bota
botanic
both
botsuana
botswana
bottom
bound
boundaries
box
boy
bozo
bprecision
bpy
br
brachypelma
brandenburger
brasil
brassicae
brazil
brazilian
break
breaks
bremen
bresson
breton
breve
bridge
brighton
britain
british
brooklyn
brown
bru
bruennichi
brunei
brussels
bryce
bs
bstructure
bt
btable
bu
bua
bubble
bubo
bucarest
buffalo
bufo
bug
buginese
builder
building
bukar
buldern
bulgaria
bulgarian
bullockoides
bung
bunker
bunu
burdwan
bureau
burg
buriat
burkina
burman
burmese
burundi
buryat
bush
business
but
buteo
butterfly
buyang
buzau
bvalue
bw
bwv
bxr
by
c
ca
cabo
cache
cached
cachename
caenorhabditis
caffer
calatayud
calculatedage
calendar
calendarmodel
calendula
calidris
california
call
callargs
calle
called
calling
calliphora
calls
calopteryx
cambodia
camboya
camelopardalis
camelus
cameroon
campidanese
can
canada
canadensis
canadian
canal
canis
cannot
canon
cant
canterbury
cantonese
canyon
cao
cap
cape
capital
capitalid
capitalization
capitalsnak
capitalsnaks
capitol
capofstate
capra
caption
captured
captures
car
carbo
cardinal
care
carex
carian
carib
caribbean
carina
carl
carolinensis
carrera
carrier
casa
case
cases
castillo
castle
cat
catalan
catambiguousgeochains
catedral
categories
categorization
categorize
categorizebyplace
category
categorynameprefix
categoryunknowndeathdate
catentityid
caterpillar
cathedral
catloopingeochains
catonly
catopsilia
cats
catsitelink
cattle
caucasian
cave
caveat
cc
ce
ceae
ceb
ceiling
cel
cell
celtic
census
cent
centaure
centaurea
center
centered
central
centre
centro
century
cerca
cercopis
ceriagrion
certain
cervus
cetonia
cf
cfg
ch
cha
chad
chagatai
chain
cham
chamaeleo
chameleon
championship
championships
change
changer
character
characters
charadrius
charaxes
charles
chateau
chatino
che
check
checker
checking
checks
checktype
cheetah
chelonia
chenoua
cherokee
cheyenne
chi
chicago
chichewa
chick
chicken
child
children
chile
chin
china
chinantec
chinensis
chinese
chiricahua
chn
cho
chobe
chocolate
choctaw
chondrilla
chontal
choose
chorasmian
chorraum
christ
christchurch
christmas
chrysomya
chs
chukotko
church
chy
ci
cia
cilindros
cinerea
cio
circumstances
cirsium
cisaup
citakan
citeref
citetype
citrus
city
ciudad
civil
cjk
ckb
cke
claim
claimid
claims
claimspropertyid
class
classes
classic
classical
clavier
clean
clear
clock
clone
cloneoptions
close
closeup
closing
clouds
clusiana
clytia
cm
cme
cmongolian
cmp
cn
co
coa
coalabel
coast
coatla
cobar
coccinella
cocopa
cocos
code
codepoint
codes
col
collapse
collective
college
cologne
colombia
colombian
color
colorado
colors
colspan
columbia
column
com
combo
comma
commands
commas
committee
common
commons
commonsmedia
commonwealth
community
comorian
compan
compare
compatibility
complete
composite
compresssparsearray
computerhotline
comu
con
concat
condition
cone
config
conflicting
congo
congress
conjunction
conjunctor
considered
constituent
constitution
contain
contained
containing
contains
content
contentlanguagecode
contents
context
contrast
control
controlled
controls
conversiontosiunit
convert
converted
convolvuli
convolvulus
cook
coord
coordinate
coordinates
coordinatespec
coords
copied
copper
coptic
copulation
copy
copyto
coral
corispermum
cornish
cornuta
coromandelianum
correct
corvus
corythornis
costa
could
count
countbythousands
counting
countries
country
countryentityid
countryentityorid
countryflags
countryoptions
county
couple
court
cover
covid
covo
cox
cp
cr
crash
crassula
crater
cream
create
cree
creek
creiss
creole
creoles
crepuscular
crh
cri
crimean
cristatum
cristatus
cristo
croacia
croatia
croatian
crocodylus
crop
cropped
cross
crossing
crowned
cruz
crystal
crystals
cs
csb
css
csstext
ct
cu
cub
cuba
cube
cucullatus
cucurbita
cucurbitaceae
cuneiform
cunicularia
cup
curac
curitiba
curonian
current
currententity
currentframe
currently
cushitic
custom
customtitle
cut
cv
cvn
cy
cya
cyanea
cyanus
cyathigerum
cycle
cygnus
cymbium
cyprus
cyrillic
cyrl
czech
d
da
dab
dactylorhiza
dai
daicing
daju
dallol
dam
dame
damselfly
dan
danaus
dance
dani
danish
dante
dar
dari
dark
darwin
data
databases
datacell
dataset
datastyle
datatype
datatypes
datavalue
date
datecat
dateclaims
dateofcreation
dateofpublication
datepart
dates
daur
david
daw
day
dc
dd
ddd
de
dead
death
dec
decat
decdeg
december
decimal
decimals
decode
deepcopy
default
defaultinfobox
defaults
defined
defining
definition
deg
degree
degrees
dei
del
delaware
deletion
delias
delicata
della
dem
democracy
democratic
demographic
demoleus
den
dendritic
dendrobates
dendrocygna
dene
deni
denmark
denoised
dep
department
depend
depending
dependvalue
deprecated
deprecatedsources
depuis
der
dera
des
descender
description
descriptions
desde
desert
desierto
desna
detail
detected
determine
deutsch
deutsche
deutsches
deva
development
device
dhivehi
dholuo
di
dia
diadematus
diaeresis
diagram
dialect
diamonds
dianthus
diceros
dida
die
diff
different
diffy
digit
digitata
digits
dili
diliff
dimli
din
dinghausen
dinka
diq
dir
dirce
direction
directly
disabled
disables
disambiguators
discovery
display
displaycount
distance
distancefromleft
district
div
diz
dje
djibouti
djk
dk
dm
dmongolian
dms
dna
do
doc
docs
documentation
documents
does
doesn
dogon
dogri
doi
doignore
dom
dome
domingo
dominica
dominican
dominulus
don
donan
done
donepairs
dong
dora
dore
dori
dorsal
dos
dot
dots
double
down
dprecision
dr
dravidian
drawing
dresden
dry
dsb
dsc
dstructure
dtable
dtm
du
duck
duisburg
dune
dunes
durango
during
dusk
dust
dusun
dutch
dv
dvalue
dz
dza
dze
e
each
eagle
early
earth
east
eastern
eating
ec
echinacea
echium
eclipse
ecser
ecuador
ed
ede
edit
edited
edition
editor
edo
edłoga
edłoha
ee
een
ef
eg
egret
egypt
egyptian
ehem
eiffel
eilean
ein
eines
either
el
elamite
elaphus
elba
election
elections
electrolytic
elegans
element
elements
else
elseif
elymnias
em
embankment
embera
emirates
emongolian
emperor
empty
emptywikidataentity
ems
emu
en
enable
enabled
enallagma
enba
encode
encodedvalue
end
endash
energy
enets
eng
engine
england
english
ensign
ensure
entities
entity
entityid
entityoptions
entrance
entriestolookupcategory
entry
enum
enumerator
eo
episyrphus
equal
equatorial
equus
er
era
erdenechimeg
eremopyrum
eristalinus
erithacus
ermita
err
error
errorprinter
errors
eruption
ery
erysimum
erythraea
erythrocephalus
erythropus
es
escape
escapepattern
esculenta
esculentus
ese
eskimo
eso
espan
especially
esperanto
esr
estados
estatal
estonia
estonian
eswatini
et
etc
eth
ethiopia
ethnic
etosha
etruscan
eu
eucharis
euro
europa
europe
european
eva
even
evening
evenodd
ever
every
everything
evolution
ewe
example
examples
except
exercise
exist
existing
exists
expandspecialsqualifiers
expandtemplate
expected
expects
express
expression
ext
extension
extensiontag
external
extinct
extra
extractcategory
eye
eyed
ez
f
fa
faba
facade
face
factbook
factor
factory
fagus
fair
falco
falcon
fali
falkland
fall
falls
false
famberhorst
family
fang
far
fargs
farm
fars
faso
fb
fe
feb
february
federal
federated
federation
feeding
felder
feldweg
felis
female
fenster
festival
few
ff
fg
fh
fi
field
fields
fighting
fiji
fijian
file
filedefaultsize
fill
film
filter
filtercapitalof
filtered
filteredclaims
fin
final
find
findclaimsbyvalue
finds
finish
finland
finnish
finno
fira
fire
firefox
fires
first
firstpostfix
fish
fishing
fit
five
fix
fixchildboxes
fixdouble
fj
flag
flagbegindate
flagclaims
flagimage
flagimagestatement
flaglabel
flags
flagstarttime
flavescens
flemish
flickr
flight
float
floor
flower
flowers
flu
fly
flying
fmongolian
fn
fo
fog
fon
font
fontsize
fontstyle
for
forall
forallimpl
force
forest
form
format
formatangle
formatcommonsmedia
formatdatavalue
formatentityid
formatexternalid
formatinlanguage
formation
formatmath
formatmessage
formatnum
formatproperty
formatpropertydefault
formatpropertywithmostrecentclaimandindicator
formatredlinkwithinfobox
formatrefs
formats
formatsnak
formatstatement
formatstatementdefault
formatted
formattedcaption
formattedclaims
formattedstatement
formatter
formatting
formaturlimpl
formaturlsingle
formaturlvalue
formatvaluedefault
formdate
formica
formula
fort
fortress
foto
found
foundation
fountain
four
fox
fr
fra
fract
fractal
fragaria
frame
frameless
frameonly
france
francisco
frankfurt
frankish
franklin
franzo
frauenkirche
free
freiburg
french
frica
frisian
fritillary
frog
from
front
frr
frs
fruit
fu
fuente
fulfulde
full
fullname
fulva
fun
func
funcname
function
functions
functiontocall
fur
futuna
fws
fy
g
ga
gaa
gabon
gaccha
gadaba
gaelic
gagauz
gala
galaxy
galericulata
galerie
gali
galiza
gallery
gallinago
gallo
gallurese
galushkin
galuzzi
gambia
gamma
gan
ganden
garden
gardens
garni
gas
gascon
gate
gaulish
gavia
gb
gbaya
gbe
gcodepoint
gd
ge
geba
gel
gelaltar
gelao
gem
gen
general
generally
generate
generated
generation
generic
genetic
genitivusmonthesnm
genitivusmonthesom
geo
geographic
geographical
geohack
george
georgia
georgian
german
germanic
germany
get
getabovebelowcolspan
getallstatements
getargnums
getargs
getbeststatements
getboolean
getcategory
getcategorybycode
getcode
getconfig
getcontentlanguage
getcurrentframe
getcurrenttitle
getdate
getelementlink
getentity
getentityidforcurrentpage
getentityobject
geterrormessage
getlabel
getlabelwithlang
getline
getmapparams
getmetatable
getparameters
getparent
getparentsinboundariessnakimpl
getpeopleaswikitext
getpersonnameaslabel
getpropertydatatype
getpropertyparams
gets
getsingle
getsinglestringqualifiervalue
getsitelink
getsourcingcircumstances
gettemplate
gettimeboundariesfromqualifier
gettitle
getuserfunction
gewo
gey
geyser
gg
gge
ghale
ghana
ghe
gi
giant
gif
giganteus
gikuyu
giraffa
girl
given
gje
gl
glaciar
glacier
glass
glo
global
globals
globe
glossary
glu
gmatch
gn
gnd
go
going
gold
golden
golesta
gondi
gone
gonepteryx
goo
good
goodflag
google
goose
gora
gorilla
goshawk
got
gothic
gov
government
govpubs
gp
gr
gran
grand
grandchild
grande
grant
grapsus
grass
grasshopper
grave
gray
grc
great
greater
grebo
greece
greek
green
greenland
greenlandic
gregorian
gremi
grenada
grenadines
grey
gridcolor
grk
group
groupcell
groupstyle
groupwidth
gs
gsub
gsw
gu
guarani
guard
guatemala
gue
guerne
guernsey
guerrero
guide
guinea
guiyang
gujarati
gujari
gujr
gula
gulf
gun
guru
gustave
guyana
gv
gyps
h
ha
haa
hafen
haida
haiti
haitian
hak
hakka
haliaeetus
hall
halocnemum
haltern
hamburg
han
hand
handle
handling
hangul
hani
hans
har
harbour
hard
has
hasadditionalqualifiers
hash
hasloop
hasnotdeprecated
haspreferred
haus
hausa
hausdu
havasupai
have
hawai
hawaii
hawaiian
hawk
haystack
hdr
he
head
headed
header
heart
hebr
hebrew
hecale
heide
height
heiligengrabe
heiliggrabkapelle
helena
helianthus
heliconius
helicopter
hello
help
helper
helsinki
hemerocallis
hemisphere
hepburn
her
herbert
herbst
here
herero
heritage
herodias
heron
herzegovina
hesperia
het
heteractis
hh
hi
hidalgo
hieroglyphs
high
highland
highlights
hill
hills
hindi
hindko
hippopotamus
hiragana
his
histo
historical
history
hittite
hle
hlist
hmong
hms
hnj
ho
hoan
hobgood
hohenschwangau
hokan
hole
holy
holzer
home
hommik
honduras
hong
hook
hopi
horizontal
horse
hortus
host
hostdelimeterposition
hoststartposition
hot
hotel
hour
hourmin
house
how
however
hp
hr
hrv
hsb
hst
ht
htm
html
http
https
hu
hua
huasca
huasteca
huave
hubble
hudum
hue
huishui
huitoto
human
hummingbird
hun
hung
hungarian
hungary
hunting
hut
hy
hybrid
hydrangea
hyemalis
hypermnestra
hz
i
ia
iana
ib
ibex
ic
ice
iceland
icelandic
icon
id
ida
idea
identical
ideograph
ideographic
idi
idiom
ids
idx
ie
ietf
if
ifugao
ig
iglesia
ignore
ignoreblank
ignored
ignoredtypes
iguana
ii
iii
iir
ijo
ik
ila
ile
ili
illinois
illustrated
ilo
im
image
imageargs
imageclass
imagediv
imageleft
imagemap
images
imagestyle
img
immature
imperator
imperial
implements
implied
important
imported
in
ina
inachis
inc
incarnata
include
included
includemetatable
including
inclusion
incorrect
incorrectly
increment
indent
independent
index
indexed
indexing
india
indian
indiana
indic
indicating
indices
indigo
individual
indo
indonesia
indonesian
indus
ine
info
infobox
infocardclass
infocardtemplate
information
inglaterra
inherit
inhib
inhibits
initcontext
initial
initpos
inline
innenhafen
innenraum
inner
input
insert
insertfromsnak
inside
inspects
instead
institute
integer
intended
interior
interlingua
intermedium
internal
international
interpreted
interwiki
intgr
into
inuktitut
invalid
invariant
inversed
inversion
invert
invoke
invoked
io
iof
iotified
ip
ipairs
iprage
ir
ira
iran
iranian
iranun
iraq
ireland
iris
irish
iro
iroquoian
is
isa
isbn
ischnura
iscountry
isdeprecated
isempty
isfaha
isgoodformat
ishkashimi
isinstanceof
isinversed
isla
island
islandia
islands
islas
isle
ismatchlanguage
ismatchunit
isn
isnew
isnotempty
iso
isolated
isqualifierfound
israel
isranked
isreferencedeprecated
iss
issn
issue
issues
istanbul
istestpage
isthmus
isu
isunion
isvalidrank
it
italian
italic
italics
italictitle
italie
italy
itc
item
items
itemstyle
iterator
itneg
its
iu
iv
ivanovo
ivoire
iyo
izhitsa
j
ja
jace
jacea
jaguar
jaipur
jak
jamaica
jamaican
james
jamo
jan
january
japan
japanese
jar
jardi
jas
java
javanese
jay
jbwr
je
jean
jersey
jerusalem
jewish
jezebel
ji
jo
johann
john
jor
jordan
joseph
journal
jpan
jpeg
jpg
json
ju
jua
juan
jubatus
judeo
julian
juliancomment
july
jump
jun
june
junonia
jurchen
just
juvenile
juǀ
jv
jyutping
k
ka
kaa
kaapor
kaba
kabuverdianu
kadavoor
kadazan
kaili
kakheti
kalaallisut
kalapuya
kalasha
kalinga
kallahan
kalmyk
kalmyks
kamchatkan
kan
kannada
kanum
kanuri
kaohsiung
kapampangan
kapelle
kara
karagas
karakalpak
kare
karelian
karen
karl
karo
karte
kas
kashan
kastanje
katakana
kategorie
kath
kathmandu
kawi
kayah
kayan
kazakh
kazakhstan
ke
kea
keep
kefermarkt
kei
keila
keilas
kenya
ket
key
keys
kg
kha
khalaj
kham
khmer
khoisan
khor
khoyt
khumi
ki
kid
kikuyu
kilometers
kim
kina
kinaray
king
kingdom
kingfisher
kinnauri
kirche
kirchspiel
kirghiz
kiribati
kirik
kitts
kiyomizu
kje
kk
kl
kleiner
kloster
km
kn
knda
know
known
knownflag
ko
kohistani
koi
kok
kol
kolami
koli
kom
komi
komodo
konda
kong
kongo
konkani
kono
kopenhagen
koraga
kordofanian
korea
korean
korfu
koro
kota
koy
kpelle
kr
kradai
krascheninnikovia
krc
kremlin
kreuz
kri
kriol
krit
krumen
ks
ksh
ksi
ku
kua
kui
kuku
kuo
kur
kurdish
kurumba
kuwait
kv
kven
kw
kwa
ky
kyoto
kyrenia
kyrgyz
kyrgyzstan
kz
l
la
label
labelclass
labeldiv
labelledby
labels
labelstyle
lacerta
ladies
lady
lag
lago
lagoon
laguna
lak
lake
lakota
lala
lalo
lama
lambis
lamu
lanata
land
landscape
landschaft
landschaftspark
lang
langcode
langentityid
lango
langrefcodeclaims
langrefentity
langrefs
language
languages
langue
lanka
lanzarote
lao
laos
large
larix
larus
las
last
lastheader
lat
late
later
latin
latitude
latn
latvia
latvian
launch
law
layout
laz
lb
lbe
lbs
lc
lcd
le
leading
leaf
lebanon
lector
left
leipzig
lele
lemosin
len
lengadoc
length
lengua
leo
leone
leopard
leptosia
les
lesotho
lesser
letter
letters
leucocephalus
level
lez
lg
lhamte
li
lia
lib
libellula
liberia
libraries
library
libraryutil
libya
lica
lichen
liechtenstein
life
lift
ligature
light
lighthouse
ligurian
lij
like
lilium
lim
lima
limburgan
limburgish
limit
line
linear
linegrey
lines
lingua
linguistic
link
links
linnaeus
lion
lions
lis
lisboa
lishana
list
listcell
listed
listforcheck
listnum
listnums
lists
liststyle
liststyletype
listtag
listtext
listtotext
listtype
lisu
lit
literary
lithuania
lithuanian
litoria
little
liturgical
liv
livida
lix
lje
lk
ll
lla
lle
lmen
ln
lo
loaddata
loaded
loader
loc
local
localcaption
locally
localvalue
located
locatie
location
loch
locomotive
lodo
log
logic
logobject
logudorese
lok
loma
lon
london
lone
long
longitude
loo
look
looking
lookup
loop
los
lot
lots
lotterie
lou
louis
louvre
love
low
lower
lowercase
lowland
loxodonta
lr
lro
lt
lticos
lu
lua
luaargs
luba
luc
luca
lucia
ludovicianus
luganda
lui
lum
luo
luri
luscinia
lut
lutea
luwian
luxembourg
lv
lvm
lycian
lydian
lynx
m
ma
macaca
macao
macedo
macedonia
macedonian
machaon
macro
macrolanguage
macrophylla
madagascar
made
madonna
mae
mag
magnifica
magnirostris
magno
magnolia
mahal
mai
maidu
mailto
maimboeuf
main
mainsnak
mainsnakdatavalue
mainsnakdatavaluevalue
mainsnakdatavaluevaluelanguage
mainsnakdatavaluevalueunit
maint
maintenance
maintext
maiwa
major
mak
makasar
make
makeinvokefunction
makelist
makes
maketext
makgadikgadi
makhuwa
mal
mala
malachite
malagasy
malawi
malay
malayalam
malayo
malaysia
malbork
maldives
male
malformed
mali
mall
mallard
malline
mallnitz
malta
maltese
mam
man
manchu
manda
mandaic
mandarin
mandaya
mande
manhattan
maninka
maninkakan
manipuri
mannheim
manobo
manor
mantis
manual
many
maori
map
mapa
mapdataname
maplandia
maplink
maps
mar
mara
marathi
marble
march
marcos
margarita
margin
mari
maria
marina
marino
maritimus
mark
marker
market
marksize
markup
marmoratus
maroon
marquesan
mars
marshall
martagon
marti
martin
marwari
mary
masela
mashan
mask
match
matched
matches
matchestitle
math
mathematical
mating
mator
mauritania
mauritius
mausoleo
max
maxauthors
maxima
maximus
maxnumber
maxnumberargs
may
maya
mayan
mayi
mayo
mazatec
mb
mbe
mbo
mc
mccme
me
mea
meadow
meaning
mechanism
med
media
mediawiki
medieval
meitei
mel
melampus
melanau
melanerpes
meleagris
melilo
melilotus
mellifera
melo
memoized
memorial
men
mende
menk
mer
mercedes
mercury
merfeld
mergeargs
mergedbottomrow
mergedrow
mergedtoprow
meroitic
merops
mescalero
message
messages
messier
met
meta
metaargs
metaargskey
metatable
method
metro
mexican
mexico
mezquita
mg
mgm
mh
mhnt
mhr
mi
miami
miao
michael
micronesia
mid
middle
midi
mie
mien
mig
miguel
mil
miles
milkweed
milky
mill
min
mina
minerva
minh
mini
minimize
minutes
mirounga
mis
miscellaneous
mishmi
missing
mission
mississippiensis
mist
misumena
mit
mitte
mitterbach
miwok
mix
mixe
mixed
mixtec
mixtepec
mk
ml
mlym
mm
mn
mnc
mnemonic
mnhn
mnong
mo
mod
mode
model
modern
module
modules
moduletitle
moduleurl
modulewikidata
mohegan
moi
moldavian
moldovan
molo
moment
mon
mona
monaco
monarch
monasterio
monastery
mong
mongol
mongolia
mongolian
mongolianscript
mongolic
monkey
mono
monolinguallangtemplate
monolingualtext
montbeliard
monte
montenegro
month
monthg
monthgm
monthgom
montreal
monument
moon
mor
morchella
more
moreargumentsexist
moritz
morning
moroccan
morocco
morrison
mos
moscow
moscu
mosque
most
moth
motorwagen
motu
mount
mountain
mountains
moz
mozambique
mozilla
mp
mr
mrj
mro
mrs
mru
ms
msg
msgkey
msgs
mt
mu
muc
mud
muji
mul
mulstatement
mult
multi
multilingual
multiple
multiplier
mum
mundari
munich
mural
muria
murut
muscaria
musee
museo
museum
music
muskogean
must
mustang
mute
mw
mww
my
myanmar
myatav
mycalesis
mycena
mydas
myv
mzn
n
na
naar
nacht
nachts
nacional
naga
nago
nahali
nahuatl
nai
nam
nama
name
namecode
named
names
namespace
namespaces
namib
namibia
nan
nap
nar
nara
narcissus
narod
nasa
nasirolmolk
national
native
natrix
natural
naukluft
nauru
nav
naval
navbar
navbox
navy
naxi
nazca
nazi
nb
nbg
nbsp
nd
nda
ndataset
nde
ndebele
ndefaultlanguage
nder
nds
ndyuka
ne
near
neas
nebel
nebula
necessary
neditors
need
needed
needle
negative
negro
neither
nelumbo
nembrotha
nen
neo
neon
neopithecops
nepal
nepali
nest
net
netherlands
neu
neuschwanstein
nevada
never
nevis
nevsky
new
newar
newari
newattributes
newclaim
newclaims
newfound
newindex
newline
newoptions
newparentsnaks
newplacesindex
newplacestr
news
next
nextlabel
nextwikitext
nez
nf
ng
nga
ngbaka
ngbandi
ngc
ngoni
nh
nia
nic
nicaragua
nicard
nich
nick
nico
nicobarese
nicola
niger
nigeria
nigerian
night
nigra
nihon
nikon
nil
nilargs
nilargskey
nilo
nils
nina
ninka
nirugu
nissue
nisu
njiva
nkieli
nkoo
nl
nm
nn
nner
nnumberofpages
no
nocat
nocoord
node
nolinks
nominativeyear
non
nondefault
none
nor
nord
norderney
norfolk
normal
normally
norman
normativetitle
norte
north
northeast
northeastern
northern
northwest
northwestern
norway
norwegian
not
notation
note
notempty
notes
nothing
notice
notoc
notre
noufo
nov
nova
novalue
november
now
nowikidataentity
nowrap
nowrapitems
np
npages
nr
nrf
ns
nso
nster
nte
ntirage
ntranslators
nu
nubian
nuco
nudibranch
nuestra
num
number
numberofpages
numbers
numeric
nums
nus
nv
nvolume
ny
nya
nyanja
nyc
nycticorax
nyi
nymphaea
nynorsk
nz
nzi
o
oaxaca
obama
obj
object
obl
oc
ocampo
occitan
occupied
ocean
ocellaris
och
oct
october
od
odd
oddeven
odham
odia
oe
of
off
office
offices
official
officina
officinalis
offset
often
ogg
oh
oirat
oj
ojibwa
okinawan
oko
ol
old
olive
olor
om
oman
omega
omit
omitted
on
once
one
ones
only
op
open
opera
oporto
optional
optionalarg
options
or
ora
orange
oranges
order
ordered
orders
org
orgel
ori
orientalis
orig
origargs
origargsargname
original
orion
oriya
oro
orobanche
oromo
orphancat
orthetrum
orthographic
orthography
ortogra
orya
os
osaka
ospizio
osprey
ossetian
ossetic
ot
other
others
otherwise
oto
otomi
ou
our
out
outk
output
outputs
outside
outtype
outvalue
ouvrage
over
override
overview
overwritten
owl
oxendict
oy
oyun
p
pa
pachygrapsus
pacific
pad
padding
pag
page
pagename
pages
pagos
pahari
paharia
pahawh
pahlavi
pai
painted
pair
pairs
paisaje
pakistan
paku
pal
palace
palacio
palais
palau
palaung
palawano
palm
palustris
pam
pame
pamukkale
pan
panama
panjabi
pano
panora
panorama
panoramic
pans
panthera
pao
papaver
paphia
papilio
papio
papua
papuan
par
para
paraguay
param
parameter
parameters
paramorder
params
parc
paren
parensize
parent
parententityids
parenthetical
parentid
parentoptions
parentsnak
parentsnaks
pargs
paris
park
parliament
paro
parque
parse
parseclaim
parsedataparameters
parsedec
parsedflagstarttime
parsedtime
parseiso
parserfunctions
parsetimefromsnak
part
parts
parturl
pasco
pashai
pashayi
pashto
pass
passage
passamaquoddy
passed
patent
path
pattern
patterni
patterns
paul
paulo
pavilion
pavo
pcall
pdf
pe
peahoone
peak
pearl
pears
pedro
pelecanus
pelophylax
pen
penguin
peninsula
pennsylvania
people
period
perse
persian
person
personname
personnametoauthorname
personnametoresponsiblename
perspective
peru
peter
pfarrkirche
pfennig
pfg
pfl
ph
pha
phaa
phab
phacochoerus
phalacrocorax
pheucticus
phi
philippine
philippines
phleum
phnx
phoenician
phoenicopterus
phonetic
photo
phowa
php
phu
physics
pi
pia
pic
pid
pidgin
pidgins
piece
pied
pier
pieris
pin
ping
pink
pinus
pinyin
pipe
pipetrick
piptoporus
piro
pitcairn
pitta
pk
pl
place
placeholder
placeid
places
plain
plaindata
plainlist
plains
plan
plane
plant
planta
plantago
plantilla
plantilya
plate
platyrhynchos
playing
plaza
please
plexippus
ploceus
plotdata
plum
plural
pm
pmid
pms
pnb
png
po
pod
poem
point
points
pol
poland
polar
policy
polis
polish
polistes
political
polonia
polynesian
polyommatus
polyporus
pomo
pont
ponte
popoloca
popoluca
populatedatafromclaims
populatesourcedataimpl
population
populus
por
porsche
port
porta
portal
porte
portland
porto
portrait
portugal
portuguese
pos
position
positional
positive
possible
possibleage
possiblebookseriesentityid
possibly
post
poster
postfix
postfixdelimeterposition
pot
potsdam
potwari
pow
power
pp
pr
pra
prado
prague
praha
prakrit
pratense
prc
prec
precision
predefinic
predloga
prefecture
prefer
preferids
preferred
prefix
prefixedtext
prefixes
prefixtable
preprocess
preprocessargs
preprocesssinglearg
present
preserve
preset
presets
president
presidential
prev
prevent
preview
previewed
prevlabel
prey
pri
pride
primary
principal
prismas
private
pro
probably
process
processing
processitem
produces
project
projects
projecttocheck
proper
properties
property
propertyclaims
propertyentity
propertyid
propertyids
propertyparams
propertyselector
prospects
proto
provenc
provide
provided
providedlabel
provides
province
prunus
prussian
ps
psi
pt
pubentity
public
publication
publications
publisher
pudelek
puebla
puente
puerto
pula
punan
punjabi
purge
purple
purpose
purpurea
pushto
put
pvc
pwo
px
pygmaea
pyrrhula
pyu
q
qa
qagan
qatar
qiandong
qid
qtl
qu
quadrifolia
qualconfig
qualifier
qualifierentityid
qualifierid
qualifierids
qualifierpropertyid
qualifiers
qualifiervalue
qualifiervalues
quant
quantity
que
quebec
quechua
quichua
quito
quote
r
ra
rabas
radius
radom
raftsundet
railway
rainbow
ralfr
rally
ramosus
rana
random
range
ranges
rangesindex
rank
rapae
rar
raszka
rathaus
rather
ratio
rault
raw
rawrule
rawrulepattern
ray
rays
rb
rca
rd
re
read
real
reason
recommended
record
records
red
redirect
redlink
reduced
redundant
reef
ref
refanchor
reference
references
reflection
reflections
reftext
regardless
regex
regexp
regexps
region
regional
regions
regular
reichstag
rejang
related
remove
removeblanks
removed
removes
render
renderaboverow
renderbelowrow
rendered
renderline
renderlist
rendernavbar
renderreferenceimpl
rendersource
rendertrackingcategories
rendervalue
rep
repetitions
replace
replaced
replacement
report
republic
require
required
res
rescue
reserva
resian
resolution
resource
responsible
rest
restitch
restoration
restored
result
resultclaims
resultlist
resultproperty
resultresultproperty
results
resultwikitext
ret
reticulata
return
returned
returning
returns
retval
rev
reverse
reverseorder
review
revised
revision
revived
rex
rez
rhagio
rhamni
rhb
rhein
ri
ria
riang
rica
richard
rico
riga
right
rings
rio
ripon
river
rk
rkc
rm
rmf
rn
rnste
ro
roa
road
robert
roc
rock
roglai
rom
roma
roman
romance
romani
romania
romanian
romanization
romansh
romany
rome
ron
roof
room
root
roppe
roquebrun
rosa
rosaceae
rose
rostam
rostock
rotate
rote
round
route
row
rowargs
rowcellstyle
rowclass
rownums
rows
rowstyle
royal
rozaj
rr
rriais
rs
rtl
ru
rubecula
rubus
rudis
rue
rufa
ruins
rule
rules
rumani
run
runic
rup
rus
rusia
russia
russian
russianfem
rusyn
rutaceae
rv
rve
rw
rwanda
ryu
s
sa
sabah
sablon
sachsen
sacred
sah
saharan
sahib
saint
sala
salar
salish
salishan
sallallahu
sallam
salt
salvador
salvatore
salzburg
sam
sama
samaritan
samba
same
sami
samo
samoa
samoyedic
samuel
san
sand
sandbox
sanglechi
sango
sanguisorba
sanitizedataset
sankt
sans
sanskrit
santa
santali
santiago
santo
santorin
santorini
santuario
sao
sara
saranam
sardinian
sari
sassarese
satellite
sativa
saturn
saudi
saurashtra
save
saxon
sc
scale
scene
scheme
schemedelimeterposition
schloss
schlossgarten
schwa
schweiz
schwetzingen
science
scientific
sciurus
sco
scolopaceus
scope
scotland
scots
scottish
screen
script
scripta
scripts
sculpture
sd
sdo
se
sea
search
sebastian
sec
second
secondmostrecentvalue
secondpostfix
seconds
section
see
seen
seg
segovia
select
selectclaims
selectedsnaks
selecting
selector
selectors
selectorsstring
self
selo
sem
semitic
sen
senegal
senegalensis
seniculus
senoufo
seo
sep
separate
separator
september
septentrionis
sequences
serbia
serbian
serengeti
service
set
setmetatable
sets
settings
setu
sevilla
seychelles
sg
sh
sha
shah
shakedown
shamakhi
shanghai
shared
shark
she
sheet
shell
shi
shift
shiki
shina
ship
shipibo
shiraz
sho
shona
short
shorter
should
show
shown
shownproperties
shuttle
si
siais
sibe
siconversion
side
sidney
siegessaeule
sierra
sig
sigfig
sign
signes
signing
signs
silent
silesian
silt
silver
silvestris
similar
simple
simplelabel
simum
sin
since
sindhi
singapore
single
sinh
sinitic
sint
siouan
siprage
sister
site
sitelink
sitelinks
sitta
six
size
sjabloon
sjo
sk
skabelon
skew
ski
skin
skip
skipper
skippropertyids
sko
skr
sky
skyline
sl
sla
slast
slavey
slavic
slavonic
slovakia
slovenc
slovene
slovenia
slovenian
sls
sm
small
smith
sn
snak
snake
snakpropertyid
snaks
snaktype
snakvalue
snow
so
sod
sofia
soft
sogdian
soi
sol
solar
soli
solid
solidago
solomon
somalia
some
something
sometimes
somevalue
songhay
sonnenaufgang
sonnenuntergang
sons
sora
sorbian
soria
sort
sorting
sortition
sossusvlei
sotho
sou
souq
source
sourceclaim
sourceentity
sourceid
sourcepropertyclaim
sourcepropertyentity
sourcepropertyid
sources
south
southeast
southeastern
southern
southwest
southwestern
soyuz
sp
space
spacecraft
spaces
spacing
spain
span
spancss
spanish
sparseconcat
sparts
spb
speaking
special
specific
specified
specifies
specify
speedway
spelling
spheniscus
sphinx
spider
spiral
spit
spiti
spitsyn
splat
split
splitline
sponge
spotted
spp
spring
spumans
sq
square
squirrel
sr
src
srcproperty
sri
ss
ssa
ssss
st
stadium
stage
stained
stamp
standard
standards
standing
star
start
startboundaries
startnum
state
statedas
statement
statements
statementvalue
states
station
statistical
statistics
statum
std
steinway
step
stift
stiftskirche
still
stockholm
stq
str
street
strike
string
strings
strip
striped
stripmarker
strix
strobilaceum
stroke
stromae
strpages
structure
strvalue
sts
study
stunde
style
styleratio
styles
su
sub
suba
subanen
subbox
subcells
subcellsk
subgroup
subheader
subheaderargs
subheaderrowclass
subheaderstyle
sublimed
subrule
subrules
substring
subtag
subtags
subtitle
subway
such
suda
sudan
suffix
sui
sukhoi
sula
sum
summer
sun
sundanese
sunflower
sunrise
sunset
suomi
sup
superjet
supplement
supplementary
supplied
support
supported
suppressed
supyire
sur
sure
suri
suricata
suricatta
surigaonon
surname
surrogates
suðurland
sv
sval
svalbard
svg
sw
swahili
swallow
swan
swati
sweden
swedish
swiss
switzerland
sydney
syllable
sylvatica
sympetrum
synagogue
syncerus
synonym
syriac
syrphidae
system
systems
szl
t
ta
tab
tabasco
table
tableargs
tablecode
tablelang
tables
tablescript
tabletools
tablevalue
tablevariant
tag
tagalog
tagbanwa
tagging
tags
tahitian
tai
tail
tailandia
tailed
taipei
taiwan
taj
tajik
take
taken
takes
talk
tallin
tam
tamang
tamazight
tamil
taml
tan
tangut
tanzania
taprobanis
tarahumara
tarantula
target
tarn
tarnovo
tasmanian
tat
tatar
tauerntal
tay
tbl
td
te
team
teatro
tehera
teke
telescope
telu
telugu
tem
templat
template
templatedata
templates
templatestyles
temple
templo
temporaria
ten
tenerife
tepehua
tepehuan
ter
ternary
teruel
test
tested
tests
tet
text
textcolor
textsareempty
textsi
tey
tf
tg
tgv
th
tha
thaa
thai
thailand
than
tharu
that
thatta
the
theatre
their
thekkady
them
then
there
thermopsis
these
they
this
thomas
those
three
through
throwerror
thu
thudufushi
thumb
thumbnail
ti
tibet
tibetan
tibeto
tidiedval
tidyval
tie
tiergarten
tif
tiflis
tig
tiger
tigris
till
time
times
timestamp
timor
tinnunculus
tip
tirage
tirumala
titan
title
titlecell
titleclass
titlecolspan
titledelimeterposition
titlegroup
titlerow
titlestyle
titletemplate
titletemplateq
titletext
titlewerepresent
tiv
tiwa
tk
tkl
tl
tlapanec
tma
tmp
tn
tnt
to
toba
tobago
toboolean
todo
together
togo
toinsert
tok
tokelau
tokenized
tokenizename
tokyo
tol
tomb
tome
tong
tonga
tongan
tongo
tonumber
too
tool
tools
top
topographic
toppdoma
tor
tornedalen
toro
toronto
torre
tostring
tostringsnak
totable
total
totextwithtip
toto
totonac
tourism
tourist
tourlsnak
towards
tower
towers
towikibaseentityidsnak
town
tp
tpi
tplargs
tr
tracking
trail
trailing
train
training
trans
transcription
transform
transit
transl
translate
translated
translatenext
translation
translator
translit
transliterated
transliteration
travel
traveller
tre
trebinje
tree
trees
tribal
trick
trier
trifolium
trim
trinidad
triplet
tripletpos
tripletstr
tripletunit
triqui
trithemis
triticeum
tron
true
truncate
truncated
try
ts
tsa
tsarskoe
tscript
tse
tstd
tt
tte
ttemplate
tu
tulip
tulipa
tulu
tunebo
tungusic
tunisian
tupi
tupian
turdus
turkey
turkic
turkish
turkmenistan
turns
turtle
tus
tuvalu
tv
tvl
tw
twi
twice
twin
two
txt
ty
type
typeid
types
typing
u
uboundary
ucayali
ucb
ucfirst
ue
ug
uganda
ugaritic
ugric
uighur
uk
ukraine
ukrainian
ul
ulaanbaatar
ulster
uma
ume
umeda
un
unbulleted
unclassified
uncoded
und
undefined
under
underside
understood
undetermined
undp
uni
unicef
unicode
unidos
unified
unignoredtypes
union
uniq
unit
united
unitentity
unitentityid
unitplural
units
universal
university
unknown
unnamed
unneeded
unpack
unrecognized
unset
up
upper
upperbound
uppercase
upright
ur
ura
uri
uricomponents
url
ursus
urticae
uru
uruguay
us
usa
usage
use
used
useful
user
uses
usewikidata
using
uss
ustring
usually
usug
utc
ute
utility
utils
uto
uyghur
uyuni
uz
uzbek
uzbekistan
v
va
vai
val
valencia
valencian
valid
validate
valle
valley
value
valuefunc
values
valuetofind
van
vanellus
vanillae
vanuatu
vao
var
variable
variables
variant
variation
various
vatia
vatican
ve
veidne
veliko
venezuela
venice
venus
ver
verde
vermont
versailles
version
vertical
very
vespula
vi
via
viaduc
viaf
viatour
victoria
video
vienna
viet
vietnam
vietnamese
view
viktor
villa
village
villas
vincent
vinci
vinn
virap
virgaurea
virgin
virginiana
virgo
viridis
viru
visbeck
vista
vitrail
vivaraup
vlei
vls
vo
vol
volapu
volcanes
volta
volume
vom
von
vorlage
vowel
vs
vulgare
vulgaris
vulnerata
vulpes
vv
w
wa
wadi
waima
walapai
wales
wall
walvis
want
war
waray
warning
warsaw
was
washington
wasp
wat
water
waterfront
waterworks
watut
wau
wave
way
wbstatus
wds
wdy
we
weather
weaver
web
webm
website
weibchen
weight
weimar
well
welsh
welt
were
werksverzeichnis
west
westdeutsche
western
westruper
whale
what
when
where
whether
which
while
white
whitespace
whole
wichi
wide
width
wien
wiese
wik
wiki
wikibase
wikidata
wikidataselectors
wikilink
wikimedia
wikinews
wikipedia
wikiquote
wikisource
wikitext
wikitionary
wiktionary
wild
wildpark
will
william
wind
wing
winged
winter
with
within
without
wka
wo
wolfgang
wolof
wom
woman
women
wood
wooden
word
work
world
would
wp
wrapinurl
wrapper
wrapperextraargs
wrappers
wrapqualifier
wraps
wrapsnak
wrapstatement
wrapvalue
write
writing
written
wroclaw
wslink
wu
www
x
xac
xal
xanyan
xe
xf
xfa
xh
xi
xico
xii
xiii
xiv
xix
xo
xvi
xvii
xviii
xx
xxx
xysticus
y
ya
yaka
yali
yan
yangum
yat
yau
yavapai
yawn
year
yearbook
yearform
yellow
yemen
yeni
yerevan
yeru
yes
yesno
yet
yi
yiddish
yipma
yir
yo
yom
york
yosemite
you
young
your
ypthima
yu
yucatec
yue
yuf
yugur
yukaghir
yuko
yupik
yus
yyyy
z
za
zalmora
zambia
zapotec
zaragoza
zay
zazaki
ze
zea
zealand
zentrale
zero
zeros
zh
zha
zhe
zhuang
zimbabue
zimbabwe
zm
znate
zoo
zoque
zu
zulu
zum
zur
zxx
{
|
}
~
§
©
«
­
°
±
²
²¹
³
³³
¶
·
¹
º
»
½
×
ß
æ
ł
łobez
ǂ
ə
ʻ
ʼ
ʿ
ˈ
̀
́
̂
̃
̄
̆
̇
̈
̉
̊
̌
̓
̣
̧
̨
̱
͡
α
β
γ
ε
ζ
κ
λ
μ
ν
ο
π
ρ
ς
τ
φ
χ
ϣ
ϥ
ϫ
ϲ
а
аавин
аад
аажмаар
аас
аатрулгадсан
аба
аббатства
абенаки
абинск
абрахам
аброн
абхазо
ав
авад
аварга
аварские
аварцы
авах
август
августа
авдаг
авдг
авдмн
авиа
авиашоу
авла
авлаһан
авн
авна
авсан
авсн
австралии
австралия
австралмудин
австрии
австрия
автобус
автомобиль
автоном
автономн
автопортрет
автосалоне
авх
авхар
авхин
авч
авын
авьяс
авьясмуд
авьяста
агаар
агентств
агулы
агуулга
ад
адам
ади
адил
адилгүи
адилхан
адиста
административн
администрации
администрация
адмирал
адриатын
адусна
адъгудин
адыгеи
адыги
аж
ажиглагддаг
ажиллагаа
ажиллагааг
ажиллагаагаа
ажиллаж
ажээ
азербаи
азермудин
ази
азид
азии
азин
азия
аи
академии
аканские
акваму
аквапим
аквариуме
акте
актриса
ал
алабама
алагир
алад
албан
албани
албании
алват
алвн
алвын
алвыт
алгебрин
алгонкины
алгские
алдар
алдл
алдр
але
александр
александра
ален
алинд
аллах
аллахаас
аллахад
аллахын
аллианц
алс
алт
алтаи
алтан
алтн
алтрһн
алтын
алфавит
аль
альберта
альман
альмана
альмн
альпах
альпы
аляска
алҗрмудин
ам
аман
амар
амарч
амбоно
амбунду
американская
американскии
америки
америкии
америкин
амжилт
амн
амнас
амр
амстердам
амттан
амулаң
амулң
амыг
амын
амьдардаг
амьдарч
амьдрах
амьтан
ан
анапа
анатолии
анатомия
ангел
ангела
ангелууд
анги
ангиас
ангии
ангилагддаг
ангилал
ангиуд
ангкор
англи
англии
англия
англь
анд
андии
андормудин
андорра
анимационное
анимация
анмудин
анна
анны
антигуд
антилопы
ану
анх
анхаардаг
анхальт
анхны
ань
анһлмудин
апачи
апганмудин
аполлона
апп
апрель
апреля
априкин
апшеронск
ар
ара
араб
арабаар
арабмудин
арабская
арабские
арабын
араваки
аравия
арагон
арад
араи
арал
арапахо
арата
арвдул
арвн
арвыдгеч
арвын
арвҗд
арвҗн
арга
аргентина
аргумент
аргументов
аргументс
аргументы
аргун
ард
ардаснь
ардатов
ардл
ардон
ардчилал
ардчиллын
ардчилсан
ардын
арена
аризона
арии
арин
ариун
арифметика
арифметикин
арка
аркадак
арл
арла
арлин
арлс
арлын
армавир
арменин
армения
армии
арнагудин
арсан
арслң
арсна
арх
архи
архитектур
арче
арчинцы
арһ
арһа
арһул
ас
асан
ассинибои
асср
астрахань
асхн
атабаски
атаев
атакама
атапаски
ататюрк
аткарск
атлантис
атом
атомин
афганистан
африка
африканская
африканскии
африканского
ах
ахвахцы
ахлач
ахлачиг
ахлачин
ахлачнь
ахнь
ахр
ахрар
аху
ахуи
ахун
ацтеки
ацтекские
ач
ачааллаас
ачааллыг
ачоли
ачта
аш
ашанти
ашиглаж
ашиглан
ашт
аэропорту
аю
аюл
аюлта
аюулгүи
аялал
аялгуу
аялгуунд
аялгуутаи
аян
аҗгилилһан
аң
аһу
аһунь
аһурсн
аһурснуд
аһша
аһшас
б
ба
баазр
баатар
баатр
баатруудын
баахн
бабоа
бабочка
бабочки
бабушкин
баварии
бавария
баг
бага
багамуд
баганад
багатаи
багла
багобо
багтаадаг
багулалы
багш
багше
багши
багшин
бадар
баден
бадм
бадма
базилика
базилики
баи
баклан
баксан
бал
бала
балаково
балашов
балвудин
балдн
бали
балкармудин
балт
балта
балтии
балын
балһс
балһсан
балһсд
балһсн
балһсна
балһснад
балһснас
балһснд
балһснь
бамб
бамелике
бангалор
бангкок
бангладеш
бандида
бандидан
банту
баоань
бар
бараа
бараг
баран
барбадосин
барбара
бари
баригдсан
барилга
барилгад
барилгын
барилт
баримтат
барин
барихгүи
барлгдв
барлна
барокко
барсан
барун
баруун
барууны
барьж
барьсаны
барьцааны
бас
басаңга
басуто
басң
бат
батаки
баталж
баталснаар
батлагдав
батлсн
батлҗ
батхн
бауырсақ
бауырсақтар
бах
баха
бахин
бахом
бахреи
баху
бацбии
башанта
башантан
башкирское
башни
башня
башр
баян
баяр
баһ
баһнь
баһчуд
бежтинцы
без
бекас
беларусь
белая
белг
белгин
белгород
белгорода
белгородас
белгородскои
белебеи
белка
белла
белоголовыи
белои
белорецк
белореченск
белорусского
белорусы
белсин
белыи
бельгии
бельгия
бельфор
бельҗмуд
бельҗмудин
бемба
бембә
бен
бенгал
бенгалмудин
бендә
бенинмудин
беотуки
бер
бере
берег
берегу
березин
берк
берлин
берлина
берлинд
берн
бессермяне
би
библии
библиотека
библиотеке
библиотеки
биг
бидн
бидын
бие
биеии
бии
билокси
билә
биләв
бини
бирдин
бирск
биса
бит
биткеев
бич
бичг
бичгии
бичгин
бичгт
бичгээр
бичиг
бичигдсэн
бичигин
бичигт
бичигәр
бичисман
бичисын
бичих
бичкин
бичкн
бичлиһан
бичлһн
бичлә
бичнә
бичсин
бичсмн
бичсн
бичсэн
бичсэнээр
бичхлә
бичхләг
бичҗ
бичә
бичәтә
бичәч
бичәчнр
бичәчнрин
биш
бишәр
благовещенск
благодаря
близ
блок
блэкфут
бнхау
бнчу
бо
бобан
богд
богдын
богино
богинохон
богоматери
богомол
богучар
бод
бодин
бодлого
бодь
бои
бол
болад
болв
болва
болвас
болве
болвы
болвычен
болгария
болгармудин
болгары
болгож
болгон
болгосон
болдв
болдг
болдог
болдыг
более
болж
болжана
болжээ
болзагат
болзгт
боливара
боливия
боливмудин
болла
болм
болн
болна
болно
боловсрол
боловсруулж
боловч
бологсод
бололтои
боломжтои
болон
болоод
болоте
болото
болох
болохоор
болсан
болсман
болсмн
болсн
болсноор
болсон
болтха
болх
болхала
болхии
болхла
болхов
болхола
болцхаҗ
болшго
болыи
болын
большая
большим
большинство
большого
большои
большом
болҗ
болҗана
болҗодв
болһан
болһн
болһна
болһҗ
бонток
боомг
боорцыг
бооцан
бор
борис
борисоглебск
босад
босмудин
боснии
босния
босоо
босҗ
ботаникд
ботаническии
ботаническом
ботлихцы
ботсвамудин
ботьта
бошигт
бразилии
бразилия
бразилмудин
бразиль
браи
бранденбург
бранденбургские
бремен
брест
британская
бритишин
брокгауза
бронзовая
бруклинскии
брунеи
брюссель
бряна
брянск
брянскас
брянскии
брянского
бу
буг
будапешт
буддизм
будсан
буи
букиднон
булгиг
бумажная
бумажнои
бундестагд
бундестагин
бурдван
буриад
буркина
буркинапасин
буру
буруд
бурудин
бурул
бурундин
бурхан
бурхн
бурхна
бурхнд
бурхндан
бурхни
бурхны
бурхына
буряад
бурядин
бус
бусад
бутан
бутанмудин
бутлаг
буудлагын
буудян
буулгасан
буулһавар
бууҗ
буцлт
буюу
бывшая
был
была
были
было
быть
бэлчээрии
бээжингии
бүгд
бүкл
бүл
бүлгии
бүлд
бүлдг
бүлин
бүлэг
бүр
бүрддэг
бүрдэнэ
бүрдээ
бүрдәлә
бүрдәц
бүрии
бүрэлдэхүүн
бүрэлдэхүүнд
бүрэлдэхүүнтэи
бүрэн
бүрәр
бүс
бүсии
бүслүүр
бүтции
бүтэн
бүтэц
бүтээгдэхүүн
бүтээгч
бүтээл
бүтү
бүх
бүхии
бүхнии
бүчин
бүүрлсн
бәдг
бәнә
бәрдмн
бәрнә
бәрсн
бәрҗ
бәрүлҗ
бәрәд
бәх
бәәдв
бәәдг
бәәдег
бәәдел
бәәдл
бәәдлиг
бәәдлин
бәәдәг
бәәж
бәәлһад
бәәлһан
бәәлһн
бәәлһнә
бәәлә
бәәнә
бәәнәв
бәәрн
бәәсмин
бәәсмн
бәәсмән
бәәсн
бәәх
бәәхлә
бәәцхәнә
бәәшго
бәәшң
бәәҗ
бәәҗи
бәәҗң
бөгөөд
бөктә
бөлг
бөмбөг
бөх
бөхчүүд
бөөгии
в
ва
важажа
ваи
вакаши
вал
валуи
ван
вани
ванин
вануату
вануһудин
вар
ват
ватикан
ватикана
ваточника
вашингтон
вашо
вблизи
вв
ввс
веб
веи
век
века
веке
велаят
великобритании
великобритания
вен
вена
венатчи
венгры
вене
венера
венесулмудин
венесуэла
венеции
вепсы
верде
верея
вероятно
верхнии
верхняя
вершина
вершины
вес
вестник
вестфалия
весь
ветров
ветряная
ветряные
вещает
взрослая
взрослыи
ви
виадуке
вид
вида
виде
виден
видна
видны
вижу
вии
викарии
вики
викиданные
викиданных
викимедиа
википеди
википедин
википедия
виктория
вильгельм
вильгельма
винил
виннебаго
винница
винсент
винчи
виолончели
виргиния
виру
висконсин
висмута
витраж
владикавказас
владимир
влак
влакым
вновь
внутреннеи
внутреннии
внутри
во
водои
водопад
водопада
воды
водь
водяная
военно
военного
военнои
возвращаем
возвращает
воздушного
воздушных
возле
возможно
возможность
возрастом
возрождения
вои
вокалист
волгоград
волжско
волк
волоколамск
вольск
вольфрам
вооружении
ворон
воронеж
воронежа
воронежас
воронежская
ворота
воскресенье
востока
восточная
восточнои
восточные
восточныи
впервые
впоследствии
времени
время
все
всего
всеи
всех
вск
вскоре
вснп
встречался
второи
ву
вулкан
вулкана
вход
входит
вчлан
вы
вывода
вызов
вызова
вызове
вызывает
вызывается
вып
высокое
высокую
высоты
выходит
вьетд
вьетдин
вьетнам
вэбсаи
вюртемберг
г
га
гаа
гааг
гаар
габонмудин
гава
гаваи
гавани
гавань
гагцхүү
гадаад
гадаадын
гадданы
гаджиев
гади
гадна
гадны
газа
газар
газарт
газартаи
газет
газета
газрын
гаи
гаити
гала
галактик
галактика
галактики
галдан
галереи
галерея
галигуд
галигүд
галии
галик
галисии
галисия
галлен
гамбия
гамбудин
гамбург
ганда
ганди
гандин
ганмудин
ганновера
ганц
ганҗур
гар
гаралтаи
гарах
гаргаж
гарсан
гаруи
гарц
гарцгүи
гарч
гарын
гафния
гаһитудин
гбе
гвардеи
гватемалмудин
гвинемудин
гвинея
гвинмудин
гг
гггг
где
гдр
ге
гевә
гегән
гегәнә
гегәтә
гегәһән
геи
гем
гемәс
генерал
генетические
генткин
генүләч
генүләчин
география
георг
георгиевск
георгия
гепард
гер
герб
гереро
герин
герл
герлд
герман
германии
германия
германь
германя
гертән
герцеговина
гессен
гетлхич
гетлһән
гешүд
гешүдин
гешүн
гея
ги
гив
гигантская
гидг
гидги
гидиг
гиж
гилберта
гин
гинә
гисн
гисын
гитарист
гихлә
гишүүд
гишүүн
гиҗ
гиһәд
гл
глава
главное
главныи
глобал
гмии
го
говии
говорящие
говь
гог
гого
год
года
годах
годоберинцы
годов
году
годы
годым
гол
голдуу
голова
голожаберныи
голубая
голубои
голчлон
гомес
гондурас
гонжа
гонконг
гонконга
гоор
гор
гора
горах
горе
горизонта
горная
горно
горном
горные
горныи
город
города
городе
городище
городов
городовиков
городовикова
городского
городскои
гору
горы
госсоветин
гост
государственн
государственнои
государственныи
государствин
государство
гравюра
граи
гран
гранд
границе
границы
граубюнден
греи
грекин
гренадин
гренадины
гренландия
греция
гриб
григорин
грисин
грозныи
грот
грузия
группа
группировки
группы
гс
гта
гуан
гуанахуато
губернии
губерния
губка
гунду
гунзибцы
гуни
гуравдугаар
гурван
гуроны
гусеница
гусь
гуулагджээ
гуулагдсан
гуулж
гууллага
гууллагын
гуулсан
гч
гче
гын
гыч
гэвч
гэдгии
гэдэг
гэж
гэнэ
гэр
гэрлэлт
гэрчилж
гэрээгээр
гэс
гэсэн
гэх
гэхдээ
гэхэд
гээр
гюстава
гүи
гүн
гүни
гүрнии
гүрнээс
гүрэн
гүрҗ
гүрҗмүд
гүрҗмүдин
гүрә
гүүв
гүүлгәд
гүүлгәнә
гүүн
гәәлгүдин
гөрнзин
гөө
д
да
даасан
даацын
дааҗ
даби
дава
давамгаи
даван
давида
давлении
давтхмн
даву
давхар
давхарга
давхр
давхрын
даг
дага
дагестана
дагестанские
дагестану
даго
дагуу
дагъсин
даже
даи
даки
дакота
дал
дала
далаи
далан
дамба
дамбин
дан
дания
данные
данных
данскгин
дар
дара
дараа
даран
дарангуи
дарани
дарата
дарга
даргинцы
даргыг
дару
дарук
дарукс
дарунь
дасдаг
дат
дата
датог
даты
дахад
дахии
дахин
дахуль
дахулҗ
дахь
дахҗ
даяанчлал
даяар
даңгин
два
две
двел
двигатель
двор
двора
дворе
дворец
дворца
дворце
двумя
двух
двэрии
дг
дд
де
девлет
девлетин
девочка
девсикар
девушка
девшн
девә
девән
дегд
дегтерин
дегтр
дегц
деед
деер
деерк
деернь
деерән
дееҗ
деи
декабре
декабрь
декабря
деке
декоративно
делавары
делгерлет
делгрлт
делгрлтин
делгрлттә
деле
дели
делкә
делкәд
делкән
деловои
демнечег
демократическ
демократическая
ден
дена
дендрическии
дене
дено
день
департамент
депо
депутат
депутатнр
депутатнрин
дер
дербент
дербет
дербетә
деревень
деревне
деревня
дерево
деревья
деревянная
десяточка
деталь
дете
детеи
дефанс
деч
деян
деятельности
джагга
джамбинова
джангар
джеи
джерси
джефферсона
джованни
джона
джорджа
джунгарского
ди
диаграмма
диаметр
дивизии
дивизия
диг
дигәр
диего
дизаи
дин
дингер
динка
дисч
длаар
длаас
длина
длинои
длину
длыг
длын
для
дмитрии
дмитровск
днб
днеи
дня
до
догриб
документы
дола
доладгеч
долан
должность
должны
долина
долине
долины
доломитовых
дольган
дом
дома
домашнии
доме
домен
домена
доминикин
домэи
дону
донус
доод
доорх
доп
дополненное
допустимые
дор
дора
дорд
доре
дорнод
дорнодын
дорога
дороги
дорои
дорсет
дорҗ
дорҗи
достопримечательности
дотоод
дотоодын
дотор
доторлогоо
доторлогооны
дотр
дотроо
дотур
дотуур
др
драи
дрезден
другие
других
другои
друзь
ду
дуала
дубаи
дубовик
дугаар
дуган
дугуи
дуд
дуи
дулааны
дум
дун
дунд
дундаж
дундас
дунджаар
дундын
дунсян
дурта
дуу
дуудад
дуулад
дуусгах
дуусн
дууч
дуучин
дууһан
дууһин
духовного
духовную
дуһарҗана
дын
дэвсгэр
дэвшүүлсэн
дэг
дэглэмт
дэд
дэлгэрч
дэлхии
дэмждэг
дэмжиж
дэх
дээд
дээр
дээрх
дээш
дю
дюны
дяги
дятьково
дү
дүгээр
дүнд
дүр
дүрнь
дүртә
дүүрэг
дәви
дәкҗ
дәкәд
дән
дәри
дәрк
дәркв
дәркин
дәәнд
дәәнә
дөрвен
дөрвлҗн
дөрвн
дөрвөд
дөрвөдгеч
дөрвөлжин
дөрвөлҗин
дөрвөн
дөң
дөңгән
е
евреи
евро
европ
европа
европд
европе
европеи
европин
европт
европы
европын
евәгч
евәл
евәлтә
евән
египет
его
егорьевск
ее
еи
екатеринбург
екатеринбургии
еллоустоун
еллоустоунском
емен
еменмудин
ему
емь
енны
ерверк
ердии
ертөнции
ертөнцөд
ерөнхии
если
ессентуки
естественнои
есть
есүс
ет
ефрона
еҥ
ж
жаба
жавзандамба
жам
жан
жапыште
жаргах
же
железнодорожнои
железнои
жена
женщин
женщина
женщины
животные
животных
жижян
жизни
жии
жил
жилд
жилии
жилин
жилүүдэд
жин
жирии
жирэмсэн
жишээ
жук
журнал
журнала
журчалка
жуулчлалын
жээ
жүүд
з
за
заавр
зааврар
заалт
заалтас
заалтс
заалһ
заалһуд
завод
заводе
завсар
завсрын
загат
заглаһан
заголовок
загреб
заднем
заж
заи
зака
закаменск
закана
закат
закате
закатом
закаһар
закон
зал
зала
залата
залвр
залврин
залгамжлагч
заливе
залу
залуу
залуучуудын
залыи
зальврн
залһлдата
зам
замбия
заменить
замка
замке
замок
замыг
зан
зангилаа
зандни
заншил
заншилтаи
заныг
запада
западная
западнои
западном
западные
западныи
записки
запись
заповедник
заповеднике
зараи
зарим
зарлан
зарлв
зарлсмн
зарубин
зарцуулагддаг
зарянка
засаг
засаглах
засах
засгии
заслуженного
затем
зать
зах
захд
захирагддаг
захирагдсан
захирагчтаи
захиргааны
захын
зая
заявлении
заячан
заһсн
звание
звания
зве
звезда
звезды
зд
здание
здании
здания
зевсг
зед
зеевә
зеергн
зекет
зеландии
зеландия
зеле
земли
земля
земш
зер
зера
зерлг
зимбабве
зимбабвудин
зимнии
зия
знак
знака
знание
значение
значении
значения
значит
зовлң
зовлңгас
зовох
зогдр
зогсоож
зокал
зокаста
золотои
золотые
зондом
зоопарк
зоопарке
зохиол
зохион
зочид
зуг
зуевск
зузаан
зул
зулан
зулусы
зулын
зун
зунд
зуни
зуны
зунын
зунь
зура
зураг
зург
зургуд
зурмн
зурһадгеч
зурһан
зуун
зуунаас
зуунд
зууны
зуурдын
зууһад
зуңква
зху
зэвсэгт
зэргии
зэрэг
зэрэгцээ
зэс
зээл
зээлии
зюнһара
зү
зүг
зүгт
зүгәр
зүи
зүн
зүсн
зүсын
зүүдн
зүүл
зүүлс
зүүн
зүүтә
зүүч
зүүҗәнә
зәрлг
зәрм
зәрмдән
зәңг
зәңгин
зөв
зөвиг
зөвин
зөвлөл
зөвлөлтии
зөвтә
зөвхөн
зөвәр
зөг
зөргәр
зөрүлҗ
зөрүүтэи
зөө
и
иаков
ибибио
иватаны
ивр
ивритын
ивуар
игбо
играть
играющии
игуана
игуаны
идальго
иддг
идм
идн
идрилһан
идрлһнә
идсн
идх
идээ
идҗ
идәд
иерусалим
ижилхэн
ижора
из
извержение
извержения
известия
известная
известныи
известным
известными
известных
изд
издание
издательство
изображение
изображением
изображения
изолированных
изоляты
изотопуд
израиль
изралмудин
ии
иигҗ
иим
ик
икдүлһан
ике
ики
икнкнь
иктә
икымше
икәр
ил
илгээсэн
или
иллинои
иллюстрация
илчлэл
илэрхии
илүү
илһлт
илһлҗ
им
имарат
имени
император
императорскии
имя
ин
ингерманландцы
ингл
инглишин
ингуши
ингэснээр
индеи
индии
индин
индира
индия
индонезии
индонезия
индьт
инеме
инженер
инибалои
иногда
инсар
инструментов
интернет
интернетии
интернетин
интерьер
информация
инфракрасном
инь
инҗин
иоанна
иоанну
иоганн
иоганна
иордан
иордания
ир
ирак
иракудин
иран
иранмудин
ирв
ирвәс
иргэн
ирдг
ирж
иркутск
ирландии
ирландия
ирлцәтәһәр
ирлә
ирнә
ирокезы
ирсмн
ирсн
ирсын
ирсэн
иртимҗин
иртмҗин
ирх
ирхин
ирхлә
ирҗ
ирәд
исаак
исдыгче
искусств
искусство
ислам
исламская
исламын
исландия
ислгудин
исн
иснә
испании
испания
исполнение
исполнением
исполнения
исполнялась
использование
использовать
используется
исправленное
иссык
ист
истории
историко
историческая
исторические
историческии
историческое
история
источники
истребитель
италии
италин
италия
италмудин
италмудн
италь
итальд
итальянск
итальянскии
итальянских
итгэдэг
итгэл
итгэлии
иткл
итклмү
иткмү
ифугао
их
ихгүи
ихтэи
ихэвчлэн
ихэнх
ихээхэн
иш
ишимбаи
ишмаел
иштгудин
иштәһәр
ищем
июля
июне
июнь
июня
иҗибдин
иңһушин
к
ка
кабардинцы
кабинет
кабо
кавалерии
кавардин
кадавоор
кадаи
каддо
каддоанские
каенг
каждое
каждыи
кажне
казаки
казах
казахстан
каи
как
календарю
календаря
калининск
калифорнии
калифорния
калм
калмыки
калмыкии
калмыцкая
калмыцкии
калмыцко
калуса
калып
каляев
камба
камбоджа
камбудин
камерудин
камерун
канада
канадин
канадын
канал
канарские
кандидатов
кандидатурт
канканаи
кантат
кантата
кантаты
кантон
кантоне
кантонын
канцлер
каньон
кап
капитал
капиталын
карамоджонг
каратинцы
карачаевск
карачев
карелы
карикатура
карл
карла
карлсруэ
кармель
карпаче
карриер
карт
карта
картина
карточка
карточке
карты
касимов
каспии
кассини
катаб
катар
категории
категория
кауилья
кафедральныи
качестве
кашубы
каюга
квакиутл
квартал
квартира
квебек
квены
кг
ке
кев
кевин
кевләр
кевтә
кевтән
кевәр
кедег
кедмн
кедү
кеер
кеерүлин
кезә
кезәнк
кезәнә
кезәнәс
кезәңк
кеи
кел
келв
келгчин
келдег
келиг
келмрч
келн
келнд
келнә
келнәс
келсн
келх
келхелә
келхлә
кельнед
кельнә
келҗ
келәд
келән
келәр
кемаль
кемр
кемҗән
кемҗәтә
кемҗәһәр
кемәнә
кенз
кенимудин
кения
кеннеди
кенә
керала
керг
керггә
кергет
кергетә
кергин
кергтә
кергүдин
керм
кертеш
керән
кесг
кесег
кесн
кесын
кет
кех
кечкәд
кечывалвел
кеҗ
кеһәд
ки
киги
кид
киевии
кизляр
киидин
киитн
киитә
кикуи
килнц
килнцин
килограм
километр
километрар
километрах
килһ
кино
кинонууд
киото
кипр
кипрудин
кир
киргиз
киргизия
киргизская
кирибадин
кирибати
кирилл
кирс
кирсан
кистинцы
кит
китаи
китд
китдин
китс
киче
кичиков
кишг
кл
клавесина
кладбище
кламат
класс
классов
клинцы
ключ
км
кн
кндр
книга
книге
книги
книжное
книиифэ
княжество
ко
кову
ковшов
когда
код
кодта
кодуд
кодудас
козе
кок
кокла
кокымшо
коламбудин
количество
колонна
колорадо
колумбия
кольца
командиром
команды
команчи
коми
комигуд
комиссь
комитет
комитетин
коммуна
коммуне
коммунист
коммунистическ
коммунистнир
комодо
комормудин
компании
компаниуд
комплексин
композитор
композитора
композиторов
конго
конгрессин
конституц
конституцас
конструкции
контекст
конфедерац
конференц
концерте
концертов
конһлмудин
координат
координаты
коптин
корабль
корабля
коран
коранд
кореи
корея
коридор
корно
королевскии
королевство
королевы
корпуса
корректно
корсункиев
коса
космическим
космического
космическои
космоса
коста
костано
костарикмудин
кот
котдивугармудин
которая
которои
которые
которыи
которых
коулун
кофе
кочими
кпк
кпсс
краб
краевед
краеведа
краеведческии
краи
кран
красная
красноармеи
красного
краснодар
краснодарас
краснодарин
краснои
краснослободск
красныи
красотка
кратер
краткии
крачан
края
крепости
крепость
крест
крестовик
кри
крики
кристалл
кристаллы
кроме
кроу
кру
круговая
крупным
крус
крызы
крым
крыму
кряквы
ку
куб
куба
кубанмудин
кубань
кубик
кувеи
кугу
кугыжаныш
кудин
кузнецк
кула
культура
культурин
культуры
куна
купол
кур
куран
курорта
курсан
курск
курска
курскас
курсн
кутенаи
куулин
кучин
кучылтмо
кучылтын
кушто
кызытсе
кэддо
кяхта
кү
күвүн
күмн
күмни
күн
күнд
күргсн
күргҗ
күрии
күртл
күртүл
күрч
күрче
күрчи
күрәд
күсл
күцуц
күцц
күцәгч
күцәнә
күцәх
күцәҗ
күцәҗәнә
күч
күчн
күчнд
күчтә
күчән
күчәр
күҗ
күңкә
күүг
күүкд
күүкдән
күүкн
күүкнә
күүнд
күүнә
күүтә
күүһәр
кәрәчәс
көвүг
көвүд
көвүн
көвүнь
көвәд
көглтин
көгҗмч
көдлмш
көдлмшин
көдлсмн
көдләд
көк
көл
көлсан
көмрг
көндөлөлһан
көрң
көрңгин
көшүр
л
ла
лабинск
лав
лагань
лагуна
лаи
лак
лакандоны
лакота
лакцы
лал
лам
лама
ламд
ламин
лампа
ламы
лан
ланка
лансароте
лаос
лаосин
лат
латвия
латдин
латин
лауреат
лахемаа
лбар
лгадаг
лголт
лд
лдан
лдвэр
лдвэрлэж
лдвэрлэл
лдвэрлэлд
лдвэрлэлии
лддэг
лддэггүи
ле
лебанмудин
лебедь
лев
ледник
ледника
лезгинские
лезгины
леи
лен
ленина
ленинск
ленинә
леонардо
леоне
лер
лес
леснои
лесотин
лесото
лесу
лет
летом
летопись
лж
ли
либерия
либермудин
либо
либудин
ливан
ливия
ливны
ливы
лигдэн
лии
лилия
лимба
лин
лингумин
линии
линия
липецка
лист
листе
листья
лит
литва
литд
литдин
литературин
литн
литовская
литография
лихтенштеи
лишь
лиҗ
ллаас
лов
ловскии
лодка
лодки
лози
ломов
лондон
лондоне
лос
лофотенские
лошади
лс
лтои
лтыи
лу
луангва
луба
луговои
лужичане
луи
луисеньо
лука
луо
лучи
лушмара
лхаса
лы
лын
ль
льн
льнскии
лээс
люксембург
люсия
лютеранскии
ля
лягушка
лҗн
лүксин
лүүд
лә
ләс
лөгч
лөгчии
м
ма
маа
маани
мааниг
маань
мабан
мавзолеи
маврикии
мавритания
маг
магасас
магинданао
магнификат
мадагаскар
мадагаскармудин
мадг
мадрид
мадхья
мажор
мазы
маи
мак
макао
маках
македония
македонмудин
македонцы
маконде
макуа
мал
малави
малавудин
малагасии
малаи
мали
малмуд
малоархангельск
малого
малтад
малтдин
малу
малудин
малын
мальдивмудин
мальдивы
мальта
мальтии
мальчик
ман
мана
манад
манаи
мангиан
мангские
манд
мандаи
мандан
манджикова
мане
манж
манжии
манзу
маниһән
манна
манобо
манси
мансууруулах
манхэттена
манын
мар
мара
маракаи
маранао
маргарита
маре
марии
маринмудин
марино
маритдин
мария
марка
маркс
марн
марокко
марс
марта
мартад
мартина
маршал
маршалловы
маршан
масаи
масидин
маска
массив
массиве
массои
масштаб
матвеев
математик
математика
математикин
материал
матфею
матч
мать
маунт
мах
маха
махаев
махачкала
махачкалас
махбуд
махн
мацаг
мацг
мачульскии
маш
маши
машинам
мая
маяк
маңна
мбал
мбоши
мгууд
мгуудыг
ме
медаль
медведев
меддг
медл
медлеһан
медлин
медлһн
меднә
медрел
медрл
медсн
медх
медҗ
медүлнә
межгорье
между
международнои
международном
меи
меккагии
меккад
мекленбург
меклә
мексика
мексиканскии
мексике
мексикудин
мел
мельница
мельницы
мемлекеттік
мемлекеттің
мемориал
мемориальная
менд
менделеевин
меномини
мер
меркурии
меря
месса
мессы
месте
местности
место
мет
метка
метки
методом
метр
метро
метров
механизм
механик
мечети
мечеть
мещера
ми
мивок
мигмр
миди
микмаки
микронезии
микронезин
микроскопе
миллионов
милуоки
мин
минго
мини
министр
министрмүдиг
министрмүдин
минор
минут
минь
мир
мира
мировои
миссури
митсого
михаи
михаила
миштеки
миңһ
миңһн
миңһун
миңһәд
млн
мм
мммм
многие
многими
много
мо
могавки
могаи
могикане
могила
мод
модели
модель
модн
модна
модод
модуле
модуль
модуля
может
можно
мозамбик
мозамбикудин
мокшане
молан
молат
молдавмудин
молибден
моллюск
моллюска
молн
моло
молодая
молодои
мом
момент
мон
монакин
монако
монарх
монастыре
монастырь
монастыря
монблан
монго
монгол
монголд
монголия
монголоос
монголчууд
монголчуудын
монголыг
монголын
моно
монраев
монтанье
монһл
монһлмудин
морави
моргеи
мордва
мордин
мордовия
море
морисин
моро
мороженои
морокин
морская
морского
морскои
моря
мосе
москва
москвас
москве
моско
москова
московскии
московского
московскои
мост
моста
мостом
мотрта
моң
моңһл
моңһлмуд
моңһлмудин
моңһол
моңһолд
моһа
мс
мса
му
мудин
муж
мужаас
мужская
мужтаи
музее
музеи
музея
музыка
музыкантов
музыканты
музыки
музыку
мукөвүн
мунда
муниев
муниципалитеты
муниципальн
мурома
мускоги
мускогские
мустафа
мусульман
муу
муухаи
муха
мухаммед
мухаммэд
мухи
мценск
мы
мызы
мыс
мыса
мытищи
мьянма
мьянмудин
мэдэл
мэдэх
мэдээллии
мэдээлэл
мэн
мэнд
мэт
мэтээр
мээс
мэө
мюльхаи
мюльхаузен
мюльхаузене
мюнстер
мюнхен
мюнхене
мюнхенскии
мянгаар
мясо
мєргєл
мәәдр
мәәдрин
мөн
мөнгөн
мөндр
мөнх
мөнхбаяр
мөнхии
мөр
мөргии
мөргмү
мөргҗ
мөргөдөг
мөргөл
мөргөх
мөрдүүлэхэд
мөрн
мөрнии
мөртә
мөрән
мөсөн
мөчн
мөңг
мөңгн
мөңгнә
н
на
наад
наадам
наадмын
наадн
наадна
нааран
набережная
набережнои
наблюдательнои
навахи
награжден
над
наду
название
названием
названия
назначен
наи
наиболее
накск
нальчикас
нам
намаг
намбр
намиб
намибия
намибмудин
намрин
намтр
намын
нанаи
нанас
нанд
нань
написал
направлении
например
нар
наран
нарас
нарии
нарн
нарна
наро
нарова
народ
народа
народная
народно
народов
народы
нарт
нарта
нас
насан
насандаа
насекомое
населе
наскапи
наслалт
наследие
насн
насна
наснь
наст
наста
настаи
настрои
наступление
нато
натчез
натчи
наук
наурмудин
науру
науч
научно
находился
находится
нахские
национального
национальнои
национальном
национальныи
национальных
начала
начальник
наших
ная
нгони
нгын
нд
не
небоскре
невада
неверен
невис
невского
невчк
нег
негдгч
негдегче
негин
негн
негнь
него
негән
недалеко
недерлендин
нез
независимое
неи
неизвестного
неизвестныи
некоторое
некоторые
нектар
нем
немецкии
немецких
немецкои
немлеһан
немлеһнә
немсн
немсән
немх
немш
немшин
немшәр
непал
нер
нерд
нерен
нерн
нернь
нертә
нерәдлеһтә
нерәдлһн
нерәднә
нерәдҗәлә
нерәдәд
нерән
нескольких
несколько
несмотря
нет
нефть
ни
нигер
нигерия
нигермудин
нигтәр
нидерландов
нидерланды
нидмә
нижнии
нижняя
нии
ниигүльгч
ниигүльгчд
ниилвр
ниилүлһан
ниитә
ниицән
ниицәнд
ниицәнә
ниицәтә
ник
никарагуа
никарагудин
никобарцы
никовои
никогда
николаевич
николаевск
николая
никольск
нилотские
нилчән
нилээд
ним
нимә
нин
нингша
них
нланд
нная
ннои
нные
нныи
но
ноа
ноах
новая
новгород
новозыбков
новои
новороссии
новоузенск
новыи
ногаи
ногдох
ногинск
ногоо
ногоон
ное
нои
нок
ном
номд
номер
номин
номнд
номхон
номшул
ноорскгин
норвегии
норвегия
норвежскии
носорога
ноха
ночнои
ночь
ночью
ноябре
ноября
ноһавтр
ноһан
ноһаномгудин
нт
нубии
нужно
нумерованные
нуно
нуным
нунын
нур
нурин
нурууны
нутаг
нутагт
нутагтаа
нутг
нутга
нутгд
нутгиг
нутгии
нутгин
нутгт
нутгуд
нутгуда
нутгудин
нутгудт
нутгудын
нутка
нутуг
нутуга
нутугин
нутугт
нутугта
нутугтан
нутугуд
нутугут
нуур
нуурин
нуурын
нуэр
нх
нхаас
нхоо
ны
ные
ныи
ным
ныш
нышем
нь
нью
ньямвези
нэвтрэн
нэг
нэгдсэн
нэгдэн
нэгдүгээр
нэгжүүдэд
нэгтгэж
нэгэн
нэгэнт
нэмж
нэмэр
нэр
нэрлэдэг
нэхмэл
нээлттэи
нүб
нүгэл
нүдвәр
нүдн
нүл
нүүдлә
нүүдэлчдии
нүүдэлчид
нүүдэлчин
нүүрс
нүүҗ
нә
нәр
нәәмдегче
нәәмн
нәәрән
нәәҗ
нөгөө
нөлөө
нөлөөнд
нөхцөл
нөхцөлд
о
оао
оаэ
об
обкома
обл
области
область
областьд
обложка
обои
обработчиков
образца
обсерватории
общеи
общеобразовательнои
общие
объе
объедине
объект
объектов
объемлющего
обыкновенная
обыкновенного
обыкновеннои
обыкновенныи
обычно
обязанностеи
обязанности
ов
ова
овад
овамбо
овдл
овдлас
овдлмуд
овла
овна
овнав
овог
овсан
овсн
овудла
овулх
овулһан
овх
овҗ
огни
огня
огонь
огтырһун
од
ода
одад
одв
одеш
оджибва
один
одинцовск
одн
одна
однав
однако
одними
одного
однои
одному
одоо
одоогии
одоогоор
одсн
оедол
озе
озера
озере
озеро
озур
ои
ок
окна
окно
около
окрестности
округ
округа
октябрин
октябрьскии
октября
окунь
окутс
ол
ола
олар
олаште
олд
олеи
олзлна
олзлсн
олзулсан
олзулһан
олимпии
олн
олна
олнин
олон
олсон
олын
ольмеки
олҗ
олҗин
ом
оман
оманин
оминг
омса
омуд
омудин
он
она
онд
ондурасин
оне
онеи
они
онин
онл
онлын
оннои
ономастика
оноос
онтарио
онуудад
онц
онцолдыг
ончта
оны
оньган
ооо
опера
операции
операция
оперы
описание
описания
ор
ора
орад
оратория
орб
орв
орган
организация
орд
ордена
ордог
ордос
оре
орехово
орж
ориона
ория
орк
оркад
орке
оркестр
оркестра
орла
орлова
орловская
орловского
орлодог
орлцна
орльма
орм
ормд
орн
орна
орнас
орнд
орно
орнуудад
орны
орныг
орнә
оролцуулаад
орон
оронд
орос
оростои
оросууд
оросын
орох
орс
орсар
орсин
орсн
орсон
оруба
орудия
орулад
орулв
орулсмн
орулхар
орулҗ
оруулалт
оруулж
орхон
орчим
орчин
орчлң
орчлңд
орчулсан
орчх
оршдог
оршиж
оршин
оршино
орших
орын
орҗ
орҗана
оса
осаж
осака
осаке
оседж
оседин
осемити
осиг
оскол
османы
осн
осна
основные
особо
особь
оср
оста
останки
остров
острова
островах
острове
островов
осы
от
отдельных
отель
открытках
открытыи
ото
отображения
оток
отражение
оттава
официальныи
оформления
оформленного
офорт
оху
очень
очерк
очерки
очиж
очир
очищенныи
ош
ошибка
ошибками
ошибочнои
оюун
оңдан
оһтурһун
п
павга
павильон
павлов
павловск
пагба
падма
паи
пакистан
паламудин
палат
палатас
палатд
палаты
палатыг
палатын
палау
пальчатокоренник
памятник
памятника
памятники
панама
панамудин
пандит
пандитар
панорама
панорамныи
папаго
папуа
папуһасин
пара
парагаи
парагваи
параметр
параметра
параметрах
параметре
параметров
параметры
параналь
париж
парижа
парижд
париже
парижскои
парк
парка
парке
парламент
парламентии
парламентин
парламенттаи
партиг
партии
партин
парть
партьс
партьсин
пассионы
паук
паука
паулу
пауни
паутине
пашам
пают
паюте
пе
певица
педи
пеи
пекине
пензас
пензенскои
пенса
пенсильвания
пенутии
пер
первои
первые
первыи
перевод
перед
передняя
период
периода
перламутровка
пермско
пермяки
персе
персона
персоналии
персоналиях
перу
перумудин
песчанки
песчаные
петербург
петербурге
петербургии
петин
петра
петровск
печать
пещеры
пи
пилипмудин
пима
пингвин
пиренеи
писал
пистолет
пистолетым
письмо
плакат
плане
пластика
плато
пле
племя
плотина
площади
площадь
пляж
пляже
пневмошина
по
победы
побережье
побережья
поверхности
под
подзаголовок
подмосковья
подножия
подпись
подробнее
подсказки
подстраницы
поезд
пожара
позвоночные
позиционные
позкарта
пои
покоманы
покомчи
пол
поле
полевого
политик
политическ
полк
полка
полностью
полуостров
получение
получения
полученные
получил
польскии
польш
польша
польшин
поля
поляки
померания
помо
поморы
помощи
помощью
поп
породы
портал
портрет
порту
португалия
португишин
посад
посадск
после
пособие
пост
потому
почеп
почеш
поэмс
пр
правил
правительств
правительствин
прага
прадеш
праздник
празднования
пранц
пранцд
пранцин
пранцс
пранцсин
пранцсын
предприятие
предприятьмүд
представление
представляют
президент
президента
президентин
премьер
пресс
префектур
при
прибалтии
приведе
прие
пример
примерно
принимает
принсипи
принсипин
природном
присвоено
проблемы
проведение
проверка
проверки
провинцд
провинции
провинция
произведении
произведения
произведениях
произошло
пролив
промиле
промышленн
промышленности
промышленностин
промышленность
противника
профсоюз
процент
процентнь
процесс
прусскои
псевдонимом
птицеед
птичьего
пу
пункты
пурвә
пурепеча
пустыне
путеводитель
пути
пушкино
пуэбло
пуэрто
пуҗи
пфальц
пциг
пцига
пциге
пчела
пчелы
пье
після
пө
р
ра
работ
работа
работника
работои
работу
работы
рабочии
рад
раджпуты
радио
радян
раз
развитие
развития
различные
разнои
разных
разрезе
разрушения
раи
раковина
раковины
ракурсов
рамазан
рамдах
ран
ранга
рангер
распарсить
рассвет
рассвете
растении
ратуша
рационал
рашаантаи
рашемдаш
рашид
рая
рдагче
рдад
рдгч
рдугаар
ре
ребе
револьвер
революц
революцин
ред
редакциеи
результат
реи
река
реке
реки
рекламныи
реку
республик
республика
республикд
республики
республикин
ретлен
решил
риг
рика
рим
римскии
римского
рин
ринмудн
рисунок
рладаг
рлаж
рло
рн
рного
рное
рны
рныи
ро
роберта
рог
рогт
рода
родина
рождения
рождественская
рождественское
роза
рок
роман
роозин
ропп
россии
россия
ростов
ростова
росы
рск
рта
ртаи
ртаһар
ртвые
ртвых
ртньыгорно
ру
руанда
руд
рузаевка
руины
румыния
русины
русские
русскии
русско
русского
руу
руш
руһандин
ры
рыба
рынке
рынок
рэг
рядом
ряжск
рязана
рязанскои
рязань
рязанәс
рәнни
с
са
саамд
саамы
сав
сагсан
сад
садан
садг
садовое
саду
садху
садь
садьнр
саи
саксония
саксонь
сала
салават
салад
саламе
салата
салбар
салбараа
салвадормудин
салиши
салливана
салхинаас
сальбер
сальвадор
салькн
самаль
самая
самбар
самец
самка
самоа
самозарядныи
самои
самоле
самомудин
самураи
самых
сан
сана
санал
саналаар
санан
сангии
санкт
санл
санскрит
санта
сантьяго
санхүүгии
санҗ
санҗи
сапотеки
сар
сара
саранск
саранскас
саратов
саратова
саратовас
саратовская
сарва
сард
сарин
саркози
сармуд
сарт
сарта
сартин
сарул
сарын
сарң
сасово
сатурна
саудин
саудовская
сахаптины
сахарские
сахлам
саюсло
сая
саң
саңһҗ
сборник
сбург
св
свази
сведин
сверхчистого
сверхчистыи
свете
светских
свис
свисин
свода
своеи
свои
своих
связанные
святая
святого
святои
сделан
сделана
сделанная
сделанныи
сделанных
сделано
се
себастьян
себастьяна
северная
северного
северное
севернои
северные
северныи
северо
севск
сеговии
сегодня
седкл
седклән
седкләр
сеи
секс
секунд
секәд
села
селвгчнрин
селвгәр
селена
село
сельмә
селәд
селән
селәнд
селәнә
семеи
семинолы
семын
семья
сен
сенатыг
сенвинсентин
сенегал
сенегалмудин
сенека
сент
сентябре
сентября
серая
сербии
сербия
сербмудин
сербы
сергиев
сергиево
сергхтн
сергәдг
сердобск
серенгети
серии
серого
серпудин
серро
сестра
сет
сету
сетубал
сеул
си
сибаи
сигнал
сидит
сиднеи
сии
сиксика
сильно
силья
син
сингапур
сингапурмудин
сингл
сине
сирия
сирмудин
систем
системы
системым
системәр
сити
сиу
сияние
ск
ска
скала
скалы
ская
сквер
скелет
скелета
ские
скии
ских
ско
скобки
ского
скои
ском
скопин
скорее
скульптор
скульптора
скульптура
сл
славяне
слева
следующем
слеи
словак
словаки
словакия
словакудин
словарь
словении
словения
словенмудин
словенцы
словинцы
слово
слол
слон
слоны
службы
слушателем
слэи
слэл
слэлии
см
сман
смерти
смогли
сможем
сн
снад
снд
снегу
снимок
сны
снято
со
собирает
собои
собор
собора
соборе
сова
совет
совета
советд
советин
советск
советская
современность
содружество
сое
соедине
созвездии
сои
солдат
солнечнои
солнца
соло
соломонин
соломоновы
солонгос
сольх
сольһна
солңһудин
сомалии
сонгодог
сонголт
сонгуулиар
сонгуулии
сонгууль
сонгуульд
сонгуульт
соньн
сообщения
соор
сопрано
сорбы
соревнования
соревнованиях
сорта
сосна
сосршг
сост
состав
состоит
состоялось
состояние
состязание
софи
соцветие
соцветии
социализмын
социалист
социалистическ
социалистическая
социгализмин
сочинения
сочинил
союз
союза
соңсачкад
спаривание
спасск
спб
спиральная
спортууд
справа
справочно
сравнения
среди
средневековые
сср
ссср
ссылка
ссылки
ссылку
ссылок
ставрополин
ставрополәс
стад
стадион
стали
стандарт
станции
станция
старая
стареи
старинных
старого
стародуб
старои
старыи
статистик
статуи
статуя
статье
статьи
статья
ства
ствии
ство
створки
стене
стены
стиле
стиль
стныи
стои
стокгольм
сторона
стороны
стр
стран
страницы
страсти
стрекоза
стрекозы
стрелка
стрелковая
стрелкового
стрелковои
строения
строительства
строки
строку
структура
структуры
су
сублимированно
субъект
суврульһан
суда
судалгааны
судан
суданмудин
судар
судлалын
суи
сукума
сул
сулдлһна
сулу
сумеречные
сумерках
сур
сураж
сурв
сургаалии
сургах
сургуулии
сургуулиуд
сургуулиудад
сургууль
сургуульд
суринам
суринамудин
сурна
сурсн
суртахуун
сурһулин
сурһуль
сурһульд
суудаг
суудал
суудалтаи
суудгв
сууна
суурин
суурь
суусн
суух
сууха
сууц
сууцны
существует
сущности
суңһврин
суңһла
суңһна
суңһугдана
суңһуна
суңһҗ
суһомудин
схема
сч
сша
сы
сыктывкар
сыктывкарс
сьералегонмудин
сьерра
сэдэвтэи
сэлэнгэ
сэн
сэргэж
сэтгэлии
сюр
ся
сяньби
сүк
сүл
сүлд
сүлжээ
сүм
сүмд
сүмии
сүү
сүүлии
сүүлчии
сүүр
сүүрәс
сәкүсн
сән
сәәнәр
сәәхн
сө
сөн
сөргхтн
т
та
таана
табасараны
таблицу
таван
тавдагче
тавдгч
тавдугаар
тавдыгче
тавн
тавцың
тавцң
тавын
тагилмудин
тагцы
таджикистан
тадн
таи
таиланд
так
така
также
тал
талаар
талаараа
талан
талбаи
талд
талдан
талданар
таллин
талын
тамас
тамбова
тамбовас
тамил
тамин
тамирчид
тамхи
тамҗд
тамҗдла
тамһ
тан
тана
танаи
танд
тандан
танзании
танзания
танзнмудин
таниг
танк
тано
таноанские
танхим
тарвһн
тариалан
тарн
тарус
тархсан
тарһн
тасмании
тасмания
татад
татары
татах
татвар
татварыг
татн
татун
татҗ
тауэр
таңһч
таңһчар
таңһчд
таңһче
таңһчин
таңһчла
таңһчт
тв
творении
тгэл
тд
тдээ
те
театр
тева
тег
тегш
тегәд
теден
тедн
тедни
теднә
теднәс
теегин
теегт
теи
текст
текста
текущим
теленгудин
телескопа
телескопом
телефон
телефона
темдг
темдглх
темдгнь
темдгтә
темдег
темдеглҗәнә
темдегтә
темдегәр
температура
темсн
темснә
темән
тен
тенд
тенерифе
тепанеки
тепловоз
тер
тергүүн
терминологическ
терминологическии
тернь
территории
территорию
теруэль
терүг
терүнә
теткүл
техник
технике
технологии
течение
теҗәл
теҗәлтнр
теҗәлтә
теңгр
теңгрин
тива
тигр
тигра
тигәд
тиде
тии
тиигхләнь
тиигҗ
тиигәд
тиим
тимбиша
тимор
тимормудин
тиморские
тин
тинг
тиндалы
тип
типа
тиражнь
тироль
титон
тлинкиты
тма
то
тобагмудин
тобаго
товршг
товчоо
тогнолыг
того
тогтагдла
тогтагч
тогтана
тогтасан
тогтасман
тогтац
тогтацин
тогтаҗана
тогтн
тогтна
тогтнож
тогтнол
тогтнолоо
тогтнолыг
тогтносон
тогтоох
тогтсн
тод
тодлҗ
тодо
тодорхои
тоды
тои
ток
токио
толгои
толь
только
толярлһн
толһа
толһан
толһана
толһата
толһач
толһачин
толһачнь
толһаһан
том
томах
томе
томилох
томин
томоохон
томпсон
томъяс
тонга
тонгва
тонь
тоньлһҗ
тонһлмудин
тоо
тоод
тоолгдна
тооллогоор
тооллоор
тоомсрнь
тооны
тоот
тоота
тооцогддог
тооһар
тооһас
тооһин
топографическая
торонто
тос
тослһн
тосн
тоста
тосхгдсн
тосхугдасын
тосҗ
тотонаки
тоха
тохиодог
тохиолдолд
тохмта
тоһлмудин
трамваи
транспорт
тре
третии
три
тринидад
тринидадин
трир
триумфальная
троллеи
трубчевск
тсвана
тсонга
ту
тува
тувалмудин
тувалу
тувин
туг
тугтун
тудо
тудын
туи
тул
тула
тулм
туман
туманности
туманность
тунадас
туника
тунисин
туньсяи
турецкая
туризм
туркгудин
турки
туркмения
турмен
турмент
турнира
турция
турш
туршарт
тус
тусад
тусгаар
тусгаи
туск
тускар
тусламж
тусламжтаи
туст
тустан
тут
тутамд
туула
туурсн
тууҗ
тууҗд
тууҗе
тууҗин
тууҗта
тухаи
тхо
ты
тыгаи
тыгак
тыге
тыквы
тын
тыс
тэд
тэднии
тэмдэг
тэмдэглэдэг
тэмцэл
тэн
тэнгис
тэнгисии
тэнгэр
тэнгэрии
тэр
тэргүүн
тэре
тэтгэх
тілі
түгээмэл
түгҗ
түдлуһнә
түдләһнә
түмнии
түнии
түрг
түргн
түргүдин
түрэг
түрэмгии
түрээсии
түрүн
түүк
түүнии
түүнчлэн
түүнээс
түүнә
түүх
түүхчид
түүхэн
түүхэндээ
түүҗ
тә
тәвв
тәвнә
тәвсн
тәвтәв
тәвәд
тәрн
тәрәлһнд
тәәрдг
тәәҗ
тө
төв
төвд
төвдии
төвдин
төведте
төвин
төгсгсн
төгсгөл
төгә
төгәлң
төлә
төлөх
төлөөллии
төлөөлөгчид
төлөөх
төмр
төр
төргеч
төрии
төрин
төрлии
төрлт
төрлүүд
төрмүд
төрмүдиг
төрскин
төрскн
төрсмн
төрсн
төрсын
төрсөн
төрт
төртә
төрх
төрөл
төрөлд
төрөлтии
төрөлх
төрөлхтнии
төрөн
төсл
у
уаве
уаи
уашо
убушаев
убыхи
увс
уг
уга
угав
уганда
угандин
угатя
угаһар
угин
угрские
угсаа
удаа
удаагии
удан
удины
удирдагдах
удирдлага
удл
удмурты
удэ
уезд
уезда
уездныи
ужаш
ужашыже
уже
узбекистан
узхин
уи
уильяма
уих
уичита
указали
украина
украинмудин
украинцы
ул
улаан
улаанбаатар
улаанбаатарт
уламжлалт
уламжлалтаи
улан
улас
улдв
улиралд
улица
улице
улм
улмаар
улс
улсад
улсин
улст
улста
улсыг
улсын
улус
улусин
улусын
умолчанию
умшдг
умшии
умшхла
универсальная
университет
университета
унҗ
управления
ур
уралдаан
уралын
уран
урвн
урвын
ургамал
ургахаас
урд
урдаснь
урдк
урднь
урлаг
урлагии
урн
урсгал
урсдаг
урт
урттаи
уругаи
уругваи
урһмл
урһмлин
урһмлмуд
урһмлмудын
ус
усар
усн
усна
уснас
уснд
успешно
установить
установки
установлена
устгагч
устрои
усть
ут
утасны
утверждение
утверждении
утверждения
утга
утгатаи
утии
утки
утларак
утлулх
утнь
утх
утхан
утхарн
утхта
ууган
ууд
уудин
уул
уулархаг
уулд
уулин
уулс
уур
уурхаи
уурын
уух
уфа
уфас
уха
ухаан
ухааны
ухалдг
ухан
ухани
учалы
участники
учебное
учир
учр
учрар
учрла
учрта
учрхин
уэльс
уңг
уһаҗ
ф
фаи
фанг
фанти
фасад
фасо
фатэ
фауна
фе
февраля
федеральн
федеральныи
федеративная
федеративные
федерации
федерацин
федерация
феи
фестивале
фестиваль
фехтованию
фиджи
физик
физика
филипп
филиппин
филиппинские
филиппины
финляндия
финны
финские
фипа
флаг
фламинго
флора
флорида
фокино
фоминск
фомы
фон
фоне
фонтан
форарльберг
формат
формате
форме
формирования
форои
форт
форта
форте
фортепиано
фортеця
фото
фотографии
фотография
фотографиях
фрагмент
франк
франко
франкфурт
франкфуртском
франс
франсуа
франц
францд
франции
франциска
франциско
франция
французская
французскии
французскои
французском
французы
фрг
фреска
фридеман
фридрих
фронта
фуг
функции
функция
х
ха
хаад
хаалга
хаалганы
хаалттаи
хаалһ
хаалһин
хаан
хаана
хаанад
хаани
хаант
хааны
хааяа
хаббл
хавар
хавр
хаврин
хаврын
хавсыр
хавтан
хавтангии
хавтгаи
хагас
хад
хадгалж
хадм
хадын
хаж
хазгуд
хаи
хакальтеки
халдашгүи
халж
халимаг
халиф
халун
халуун
халх
халхар
халхас
халхаснь
халхин
хальмг
хальмгуд
хальмгудын
хальмыгин
хамааран
хамаарна
хамаарч
хамаг
хамг
хамгаалах
хамгиг
хамгии
хамгин
хамгтан
хамдан
хамт
хамтаар
хамтарсан
хан
хана
хананы
ханатаи
хангаи
хандаж
ханин
ханс
ханства
ханты
ханын
хань
ханьд
ханҗанав
хар
харал
харан
харбор
харвах
харгалзан
харилцаа
харилцаанд
харилцан
харин
харчин
харъяат
харьцангуи
харьцуулахад
хасавюрт
хасгуд
хасгудин
хаслаһан
хату
хашимит
хаягаар
хаяд
хвалынск
хваршины
хгүи
хеи
хельсинки
хем
хемшудин
херцегудин
хехе
хии
хил
хилии
хиллэдэг
химба
хиналугцы
хинди
хо
ховд
ховор
хое
хоер
хои
хол
холбоо
холбооны
холбоос
холбоотои
холва
холвалһан
холвалһана
холван
холванд
холвлһн
холл
холма
хом
хомпад
хонг
хонгин
хонгт
хоол
хооллодог
хооллох
хоолын
хооран
хоорнд
хоорндан
хоорнод
хооронд
хоорондох
хоосн
хоосын
хопи
хор
хора
хоралов
хоран
хорас
хорватин
хорватия
хорваты
хорвоогии
хориг
хориглон
хорооны
хорошо
хорха
хорчин
хот
хотан
хотл
хотн
хотна
хотод
хотол
хотын
хотя
хошуд
хоюрн
хоңһр
храм
храма
христ
христа
христианск
хрома
хстаг
хуан
хубилаи
хуваагдана
хуваагддаг
хуваадаг
хуваарь
хувагдна
хувалл
хувалһан
хувалһна
хуванцар
хувии
хувцан
хувь
хувьд
хувьсгалын
хугацааны
худалдаа
худалдааны
худалдан
худам
художественные
художник
художника
хулд
хулдҗ
хулха
хулһан
хулһн
хун
хунгармудн
хунһармудин
хур
хурал
хуралд
хуралтаи
хуралын
хураңһу
хург
хургин
хурдан
хурдацтаи
хурл
хурлд
хурлын
хурул
хутагт
хуту
хуудас
хуулиа
хуулиар
хуулии
хууль
хуульд
хуучин
хуучн
хуучнаар
хучилт
хуҗрин
хэд
хэдии
хэдэн
хэл
хэлбэрии
хэлии
хэлнии
хэлнүүд
хэлээ
хэлээр
хэмжээ
хэмжээнд
хэмжээнии
хэмээгдсээр
хэмээн
хэмээх
хэнтии
хэрэв
хэрэглэгддэг
хэрэглэгдэж
хэрэглэдэг
хэрэглэнэ
хэрэглэх
хэрэм
хэсгии
хэсэг
хэсэгт
хээр
хязгаар
хязгааргүи
хязгаарт
хязгаарын
хятад
хятадын
хүв
хүвд
хүвлҗ
хүвлә
хүвнь
хүвс
хүвсхүл
хүвәр
хүи
хүлээн
хүмүүс
хүн
хүнд
хүндэтгэх
хүнии
хүннү
хүнснии
хүргэсэн
хүртэл
хүртэлх
хүрэл
хүрэн
хүрээ
хүрээнд
хүч
хүчин
хүчингүи
хүчирхэг
хүчтэи
хүү
хүүхдии
хүүхдүүд
хүүхэд
хәләдг
хәләтн
хәләтән
хәләхлә
хәләц
хәләҗ
хәрҗ
хәрү
хәрүлҗ
хәәрн
хәәҗ
хөвсгөл
хөгжиж
хөгжил
хөгжим
хөгжмии
хөгжүүлж
хөдлөх
хөдөлгөөн
хөдөө
хөлбөмбөг
хөн
хөрен
хөрн
хөрс
хөрөнгии
хөрөнгө
хөх
хөшигнии
хөөн
хөөсөн
ц
ца
цаас
цааҗн
цаг
цагаан
цагас
цагат
цагии
цагин
цагла
цагт
цагтан
цаи
цакцало
цанг
цапля
цар
царии
цария
царская
царскии
царских
царское
цас
цахар
цахиагии
цахим
цахуры
цацг
цацу
цаһан
цаһана
цаһанорсин
цаһаһан
цветка
цветке
цветная
цветок
цветущая
це
цевр
цег
цегләр
цезские
цельтали
центр
центра
центральноафриканская
центральнои
центральныи
центре
цепи
цер
цергт
цергә
церен
церкви
церквях
церковнои
церковь
цецг
цецгүдтә
цецен
цикл
цикла
цимлянск
цимшиан
цинь
цк
цокад
цоксн
цол
цомог
цоож
цорын
цоцили
цуг
цугкитдин
цуглаан
цуглрҗ
цугтан
цур
цутухили
цутхулаң
цуһар
цы
цэг
цэргии
цэргүүд
цэтгэдэг
цэтгэх
цә
цәәд
цәәһән
цөл
цөлии
цөөкн
цөөнх
ч
чад
чадаагүи
чадал
чадигин
чадна
чаи
чамалалы
чамд
чанартаи
чарахэ
час
часов
частеи
части
часто
часть
че
чеи
чекмудин
чел
человека
человеческого
чем
чемпионата
чемпионате
через
череп
черепаха
черепахи
черкесск
черкесскас
черкесы
черниговскои
черноголовка
черногория
черногорцы
чернозе
черноногие
чероки
чесс
честь
четыре
чех
чехи
чехии
чехия
чехословак
чеченмудин
чеченцы
чи
чигин
чигн
чик
чикаго
чикасо
чили
чилкотин
чилмудин
чилькотин
чиләд
чимбу
чин
чинад
чингис
чини
чинир
чино
чинр
чинриг
чинритә
чинртә
чинук
чипеваи
чипевьян
чиппева
чироки
число
чистого
чистота
чистоты
чистыи
чичимеки
чичәд
чкад
чкыдын
чои
чоктау
чокто
чоли
чолун
чонос
чонса
чонтали
чонҗд
чорти
чот
чоҥымо
чс
что
чтобы
чу
чудь
чукоткии
чулуу
чулуун
чумаш
чухал
чүүд
чәвәш
чөлөө
чөлөөт
чөлөөтэи
ш
шаблон
шаблона
шаблонов
шаблоны
шавалин
шагҗ
шаи
шал
шала
шали
шалны
шалтгаалан
шалтгаантаи
шалу
шандн
шанхаи
шапсуги
шар
шаттла
шатура
шауни
шаха
шаху
шаш
шашин
шашны
шаштир
шаштирууд
шая
шаҗн
шаҗна
шаҗнд
шаҗни
шаҗт
шванштаи
швеи
швеции
швеция
ше
шеи
шел
шелы
шеркс
шивә
шиг
шигбә
шии
шииднә
шикр
шил
шиллук
шим
шин
шинд
шиндү
шинж
шинжлэх
шинзелендин
шинрүлнә
шинук
шинэ
шинҗллһн
шинҗән
шинҗәнд
шинҗәнә
шинәс
шипун
ширия
широко
ширә
ших
шишка
шишлиң
шишлң
шке
шкода
школы
шо
шовуд
шовун
шовуна
шогышо
шона
шони
шор
шорһлҗн
шоссе
шоссеи
шотлалтеш
шотландии
шотландия
шотышто
шошоны
шре
шри
штаб
штат
штате
штаты
ште
штутгарт
шу
шуд
шуко
шулдыр
шулуһар
шунмһаһар
шусвап
шууд
шүлгч
шүлгүд
шүлгүдин
шүтдэг
шүтлэгии
шүтлэгтэи
шүтәнә
шүүстә
шүүхии
шүүҗ
щ
ъ
ы
ым
ын
ысе
ыш
ышке
ышта
ышташ
ыште
ыштен
ыштыме
ь
э
эв
эвд
эве
эвед
эврә
эврән
эврәнень
эврәннь
эвсэл
эгшг
эд
эдгээр
эдгээрии
эдии
эдл
эдн
эдниг
эднә
эдо
эзлэх
эзлҗ
эзлҗәнә
эзлҗәх
эзн
эзэлдэг
эзэлж
эзэмшдэггүи
эзэмших
эзэнт
эи
эк
эквадор
экватор
экваториальная
экз
экземпляр
экилнә
экильцад
экин
экипаж
эклнә
эклсн
эклҗ
экләд
экн
экономик
экономика
экономикин
экономическ
экономическии
эл
элбэг
элбэгдорж
элвг
элгн
элдәд
электричестве
электровоз
электродвигатель
электролитически
электрон
электронная
электронном
элемент
элемента
элементы
элиста
элисте
элистин
эллинмудн
элст
элч
элчллһнә
элчнр
элчнрин
эль
эм
эмгн
эмин
эмираты
эмиратыш
эмиссионная
эммануил
эмтн
эмч
эмэгтэи
эн
энгельс
энд
эндер
эндкг
эндонесин
эндр
эндү
энедигин
энергии
энетекгин
эннь
энциклопедическии
энциклопедия
энэ
энүг
энүгәр
энүнд
энүнә
энүнәс
эпизод
эр
эрвел
эргин
эргэлзээтэи
эргэн
эргҗ
эргү
эрдень
эрдм
эрднь
эрдэмтэн
эрдэнибаяр
эрзяне
эри
эрии
эритреи
эритрея
эрк
эрке
эро
эрс
эрт
эртнии
эртнээс
эрх
эрхии
эрхт
эрхтэи
эрхшээлд
эрхэлдэг
эрхээр
эрҗентудин
эрүл
эрүүл
эс
эсв
эсватини
эсватиниин
эсвин
эсвч
эсвэл
эспанмудин
эсргү
эсрегү
эсрэг
эссен
эстдин
эстонии
эстония
эстонцы
эта
этих
этническои
это
этои
этом
этот
этоша
этсако
эфик
эфиопия
эх
эхнии
эхэлжээ
эхэлсэн
эхэн
эхээр
эц
эцк
эцкнь
эцктән
эцкүрн
эцкән
эцс
эцэс
эцэст
эцүстән
эшлэл
ээд
ээлән
ээс
эяк
эң
эҥер
ю
юан
юго
южная
южно
южного
южнои
южные
южныи
юлин
юм
юма
юманские
юмн
юмна
юмнд
юмс
юн
юнгад
юнеско
юникодт
юпитер
юрок
ют
юта
юте
юто
я
явагддаг
явдал
является
являются
явуулах
яг
ядуучуудыг
яз
язгуурын
язык
языка
языках
языке
язьвинцы
яи
яими
як
яки
ялалт
ялангуяа
ялгаа
ялгаатаи
яма
ямаи
ямар
ямаран
ямн
ян
января
янда
янз
янзас
япон
япония
японы
японь
яригддаг
ярьдаг
яста
яшалта
яшалтан
ящерица
яһад
ђ
є
ѕ
і
ј
љ
њ
џ
ѻ
ҁ
ґ
җ
җавсанче
җалва
җамаи
җамбл
җаң
җаңһ
җаңһар
җи
җиврүшг
җигдн
җигтә
җил
җилд
җилде
җилдән
җилин
җилмүд
җилмүдт
җилә
җиләс
җимбә
җинҗ
җирн
җирһал
җирһл
җирһлд
җирһлин
җисән
җисәнд
җисәнә
җома
җомба
җордин
җува
җуукан
җҗ
җүҗигчин
ҡалып
ң
ҥ
ү
үвл
үвләс
үг
үгии
үгин
үгмүд
үгмүдт
үгс
үгсии
үгүи
үгәр
үд
үдә
үе
үед
үеии
үеэр
үеэс
үзг
үзгин
үзгт
үзгч
үзгүд
үзгүдлар
үзгүдтә
үзгүт
үзгә
үзгәр
үздэг
үздэггүи
үзсн
үзэж
үзэл
үзэх
үзүгүд
үзүртә
үзүүлж
үзәд
үи
үклә
үкр
үкҗәсн
үкәд
үл
үлгүр
үлгүрлухд
үлгүрмүд
үлгүрнь
үлгүрәр
үлдгсн
үлдсн
үлмҗ
үлмә
үлмәд
үлү
үнд
үндсэн
үндэснии
үндэстн
үндэстэн
үнн
үнр
үнэн
үнэндээ
үр
үргэлжилж
үрнә
үсгии
үсгээр
үсн
үсэг
үхрии
үүдн
үүдәвр
үүдәврмүд
үүл
үүлд
үүлдвр
үүлдесмен
үүлдудг
үүлдҗәнә
үүлдәч
үүлиг
үүнд
үүнии
үүнээс
үүргии
үүрмг
үүрэг
үүрәд
үүслээс
үүссэн
үүсэх
һ
һаза
һазад
һазадын
һазар
һазр
һазра
һазрат
һазрин
һазрнь
һазрт
һал
һалдан
һалта
һанцахан
һанцхн
һар
һарад
һаран
һарв
һардаг
һардач
һардг
һариг
һарига
һарин
һарна
һарсан
һарсн
һарт
һартан
һарх
һарч
һарчана
һарыи
һарһав
һарһадаг
һарһалһан
һарһдмн
һарһна
һарһҗ
һатарин
һаха
һо
һол
һолар
һоллгч
һололгеч
һолта
һолын
һонтг
һр
һуи
һурв
һурвадгеч
һурвдгч
һурвн
һурвыдгеч
һурвын
һучин
һучн
һәәхц
ӕ
ә
әд
әдл
әм
әмд
әмтен
әмтенә
әмтиг
әмтин
әмтн
әмтнә
әмтын
әмтә
әмтән
әмтәнә
ән
әр
әрлһүлгч
әрә
әрәсән
әңг
әңгелелгач
әңгелсман
әәтә
әәшл
әәшлд
ө
өвгиг
өвгн
өвгнәснь
өвгөн
өвгөнд
өвр
өвсн
өвчтэи
өвөл
өвөр
өгв
өгдг
өгдег
өгдмн
өглә
өглөг
өгнә
өгч
өгәд
өгөх
өдгә
өдр
өдриг
өдрин
өдрмүд
өдрнь
өдрт
өдрүүдэд
өдөр
өдөрт
өкәсн
өлгии
өлң
өмн
өмнк
өмннь
өмнәснь
өмнө
өмнөд
өмч
өнгө
өнгөнии
өндии
өндр
өндөр
өндөрт
өнчин
өр
өрг
өрген
өргсн
өргҗ
өргә
өргәр
өргөж
өргөл
өргөн
өрк
өркг
өрсөлдөөнтэи
өршән
өрәл
өрөө
өскәһәд
өстрмүдин
өсәд
өсөж
өсөлт
өңг
өңгрсн
өңгтә
өөдән
өөн
өөр
өөрд
өөрдин
өөрдн
өөрии
өөртөө
өөрчлөлтии
өөрөө
՜
ք
ִ
ָ
ֹ
ׁ
אינטרנט
המדינות
טבלת
ם
סיומות
סיומת
צ
ק
ש
תבנית
ײ
،
ا
العربية
الگو
قالب
ٔ
ٕ
ނ
ވ
ފ
ތ
ަ
ް
ँ
ं
क
ग
च
ट
ढ
त
द
ध
प
ब
म
र
व
ष
स
ा
ि
ी
ु
ू
ृ
े
ो
्
ঁ
ং
ক
চ
ট
ব
র
ল
স
া
ু
ে
্
ਾ
ં
ગ
ચ
ઢ
દ
ધ
મ
સ
ા
ો
ଚ
ଛ
ଞ
ା
୍
ப
ர
வ
ா
ு
்
మ
స
ూ
ಂ
ಟ
ಪ
ಲ
ು
ೆ
್
ೕ
ം
ട
പ
ഫലക
യ
ര
റ
ഷ
ാ
ൂ
േ
്
ක
ල
ස
්
ැ
ි
อ
ั
ิ
่
้
່
་
།
༏
ཀ
ག
ང
ཆ
ཏ
ད
ན
པ
ཕ
བ
བས
མ
མཆ
ཚ
འ
ཡ
ར
ལ
ཤ
ས
ཧ
ཨ
ཱ
ི
ུ
ེ
ོ
ྐ
ྒ
ྗ
ྟ
ྡ
ྣ
ྦ
ྱ
ྲ
ླ
ྷ
თარგი
틀
ሃ
ሠ
ទ
ព
រ
ូ
ំ
័
᠀
᠁
᠂
᠃
᠄
᠅
᠆
᠊
᠋
᠌
᠍
᠎
᠐
᠑
᠒
᠓
᠔
᠕
᠖
᠗
᠘
᠙
ᠠ
ᠡ
ᠢ
ᠣ
ᠤ
ᠥ
ᠦ
ᠧ
ᠨ
ᠩ
ᠪ
ᠫ
ᠬ
ᠭ
ᠮ
ᠯ
ᠰ
ᠱ
ᠲ
ᠳ
ᠴ
ᠵ
ᠶ
ᠷ
ᠸ
ᠹ
ᠺ
ᠻ
ᠼ
ᠽ
ᠾ
ᠿ
ᡀ
ᡁ
ᡂ
ᡃ
ᡄ
ᡅ
ᡆ
ᡇ
ᡈ
ᡉ
ᡊ
ᡋ
ᡌ
ᡍ
ᡎ
ᡏ
ᡐ
ᡑ
ᡒ
ᡓ
ᡔ
ᡕ
ᡖ
ᡗ
ᡘ
ᡙ
ᡚ
ᡛ
ᡜ
ᢀ
ᢁ
ᢂ
ᢃ
ᢄ
ᢅ
ᢆ
ᢇ
ᢈ
ᢉ
ᢊ
ᢋ
ᢌ
ᢍ
ᢎ
ᢏ
ᢐ
ᢑ
ᢒ
ᢓ
ᢔ
ᢕ
ᢖ
ᢗ
ᢘ
ᢙ
ᢦ
ᢧ
ᢩ
​
‍
‎
‑
–
—
‘
’
“
”
„
†
•
…
‰
′
″
›
⁄
№
←
→
↔
↷
−
≈
≥
③
④
⑦
▲
▼
☉
☿
♀
♂
♃
♄
✔
⺀
⺄
⺆
⺈
⺊
⺌
⺕
⺝
⺸
⺼
⿰
⿱
⿲
⿳
⿴
⿵
⿶
⿷
⿸
⿹
⿺
⿻
〢
゙
゚
イ
キ
コ
セ
タ
ッ
テ
ハ
ユ
ヨ
ラ
ロ
ン
ー
㇁
㇂
㇄
㇇
㇈
㇉
㇓
㐁
㐄
㐅
㐌
㐫
㐬
㐭
㐮
㐱
㑒
㒵
㒸
㒼
㓁
㓞
㔾
㕛
㕣
㖾
㘝
㚅
㚇
㚔
㚘
㝉
㝡
㝴
㝵
㞋
㞢
㞷
㠩
㠭
㠯
㡀
㡭
㡿
㢲
㢴
㣇
㣺
㥯
㪅
㫄
㫐
㫒
㫺
㬅
㬎
㬥
㬰
㲋
㳄
㷠
㸒
㸚
㸦
㼌
㼲
㽞
㿟
䀠
䂞
䍃
䏍
䒑
䖍
䖒
䖝
䖵
䙴
䚻
䜌
䝿
䡛
䧹
䪞
一
丁
丂
七
丄
丅
丆
万
丈
三
上
下
丌
不
与
丏
丐
丑
专
且
丕
世
丘
丙
业
东
丞
丢
丣
两
严
並
丨
丩
个
丫
丬
中
丮
丰
丱
串
丵
丶
丷
丸
丹
为
主
丽
丿
乀
乂
乃
久
乆
乇
么
义
之
乌
乍
乎
乏
乐
乑
乔
乖
乗
乘
乙
乚
乛
乜
九
乞
也
习
乡
乳
乾
亀
亅
了
亇
予
争
事
二
亍
于
亏
亐
云
互
亓
五
井
亘
亚
亜
亞
亟
亠
亡
亢
交
亥
亦
产
亨
亩
享
京
亭
亮
亯
亰
亲
亳
亶
亷
人
亻
亼
亾
仁
今
介
仌
从
仐
仑
仒
仓
仔
仕
他
付
仝
代
令
以
任
企
伊
伏
伐
休
会
伯
但
位
何
佘
余
作
佥
使
來
侈
侌
侖
侯
侵
便
保
俞
信
修
倉
倍
候
倠
備
僉
僕
儿
兀
允
兂
元
兄
充
兆
兇
先
光
兊
克
兌
免
兑
兒
兓
兔
党
兜
兟
入
全
兩
兪
八
公
六
兮
兰
共
关
兵
其
具
典
兹
兼
冀
冂
冃
冄
内
冈
冉
冊
冋
册
再
冎
冏
冐
冒
冓
冖
冗
冘
军
农
冝
冡
冥
冫
冬
冷
几
凡
凢
凵
凶
凷
凸
凹
出
函
凾
刀
刁
刂
刃
刄
刅
分
切
刍
刑
刕
刖
列
刘
则
初
別
利
别
到
制
刺
則
削
剌
前
剡
剽
劉
力
功
加
劦
助
劫
劳
劵
勃
勇
勉
勒
動
務
勞
勤
勹
勺
勻
勾
勿
匀
匂
包
匆
匈
匊
匋
匍
匕
化
北
匚
匝
匡
匪
匱
匸
匹
区
医
匽
匿
區
十
卂
千
卄
卅
卆
升
午
卉
半
卌
华
卐
卑
卒
卓
单
卖
南
卜
卝
卞
占
卡
卢
卣
卤
卦
卩
卪
卬
卯
印
危
即
却
卵
卷
卸
卻
厂
厃
厄
历
厈
厉
厌
厓
厘
厚
原
厤
厥
厨
厭
厲
厶
厷
厸
去
厼
厽
县
叀
参
參
叅
又
叉
及
友
双
反
叐
发
叒
叔
叕
取
受
叚
叜
叟
口
古
句
另
叩
只
召
可
台
叱
史
右
叵
号
司
叹
吂
各
吅
合
吉
吊
吋
同
名
后
吏
向
吕
君
吝
吞
否
含
启
吳
吴
吹
吾
呂
呆
呈
告
员
呙
周
命
咅
和
咎
咠
咢
咨
咸
咼
哀
品
哉
員
哥
哲
唐
商
啇
問
啚
啬
啻
善
喜
喬
單
喿
嗇
噩
嚴
囊
囗
囘
囙
囚
四
回
囟
因
囧
囬
困
囱
囷
固
国
圂
圅
國
圍
圓
圖
土
圡
圣
圥
在
圭
地
圶
圼
坐
坒
坚
坤
坴
垂
垔
垚
埀
埋
城
埶
執
基
堂
堅
堆
堇
堯
塞
墨
壘
士
壬
壯
声
壳
壴
壹
壺
壽
夂
处
夅
夆
备
夊
夋
夌
复
夏
夒
夕
外
夗
夘
多
夜
夢
大
夨
天
太
夫
夬
夭
央
失
夲
头
夷
夸
夹
夻
夾
奂
奄
奇
奈
奉
奎
奏
奐
契
奓
奔
奚
奞
奠
奢
奥
奭
女
奴
奻
好
如
妄
妙
妟
妥
妻
妾
始
姑
委
姜
威
娄
婁
婴
嬰
嬴
子
孑
孔
孕
孖
字
存
孚
孛
孜
孝
孟
季
孤
学
孫
孱
學
宀
宁
宂
它
宅
宇
守
安
宋
完
宏
宓
宗
官
定
宛
宜
宝
客
宣
室
宮
宰
害
家
容
宾
宿
寄
寅
密
富
寒
察
寧
審
寫
寬
寮
寸
对
寺
寻
寽
対
寿
封
尃
射
将
將
專
尉
尊
尋
尌
對
小
少
尒
尓
尔
尖
尗
尚
尞
尢
尣
尤
尧
尨
尭
就
尸
尹
尺
尻
尼
尽
尾
尿
局
居
屈
屋
屎
屏
屑
展
屖
屚
属
屠
屡
屬
屮
屯
屰
山
屵
屾
岁
岂
岑
岡
岩
岳
岸
峯
島
崇
崑
崔
崖
崙
崩
嵬
嶲
巂
巛
川
州
巟
巠
巢
巤
工
左
巧
巨
巩
巫
差
己
已
巳
巴
巷
巸
巽
巾
巿
帀
市
布
希
帚
帛
帝
带
師
席
帶
常
干
平
年
幵
并
幷
幸
幺
幻
幼
幽
幾
广
広
庄
庆
床
底
店
庚
府
度
庫
庭
庶
康
庸
廉
廌
廛
廣
廩
廴
延
廷
建
廾
廿
开
弁
弃
弄
弇
弋
式
弓
弔
引
弗
弘
弜
弟
弥
弦
弱
張
強
强
彊
彌
彎
彐
彑
当
彔
录
彖
彗
彡
形
彥
彦
彧
彭
彳
役
彼
往
待
律
徒
得
徙
從
復
微
徵
德
心
忄
必
忌
忍
志
忝
忠
忩
快
念
忽
忿
思
怠
急
怱
恆
恒
恩
恭
息
悉
患
悤
悲
悶
惠
惡
惢
愁
愈
意
愛
感
慈
慧
慮
憂
憲
應
戀
戈
戉
戊
戋
戌
戍
戎
成
我
戒
戔
或
戚
戠
戢
截
戲
戶
户
戹
戼
戾
房
所
扁
扇
手
扌
才
打
托
执
承
折
拉
拍
拜
拼
拿
掌
推
提
摩
支
攴
攵
收
攸
改
放
政
敄
敏
敕
敖
敗
敝
敞
敢
散
敦
敫
敬
数
敷
數
斂
文
斉
斊
斗
斤
斥
斩
斬
斯
新
方
於
施
斿
旁
旋
族
无
旡
既
旣
日
旦
旧
旨
早
旬
旱
旲
时
旾
昆
昇
昌
昍
明
昏
易
昔
昗
昜
星
春
昬
是
昱
昴
昷
時
晃
晉
晋
晏
普
景
晶
智
暑
暴
曇
曩
曰
曲
曳
更
曷
書
曹
曼
曾
替
最
朁
會
月
有
朋
服
朔
朕
朗
望
朝
木
朩
未
末
本
札
朮
术
朱
朵
朶
朿
杀
杏
杜
束
条
来
東
杲
杳
松
板
析
林
枚
果
枝
枲
枼
某
柔
查
柬
柰
柴
栗
桀
桑
桼
梁
條
梟
梨
棘
棠
棥
森
楚
業
楽
榮
樂
樊
模
欠
次
欣
欮
欲
欶
欽
款
歆
歇
歛
止
正
此
步
武
歨
歪
歮
歯
歰
歲
歴
歷
歸
歹
歺
死
殳
段
殷
殸
殹
殺
殻
殿
毋
毌
母
每
毒
比
毕
毚
毛
毳
氏
氐
民
气
氣
水
氵
氶
氷
永
氺
氾
求
汉
汝
汞
江
沃
沓
沙
沝
泉
法
波
泣
泥
泰
洛
洪
活
派
流
浦
浪
浮
海
淡
淮
清
渚
渠
港
湯
滿
漢
漸
灣
火
灬
灭
灰
灵
灷
炅
炎
炏
炗
炙
炭
為
烈
烏
烝
焉
無
焦
焱
然
煞
熊
熏
燕
營
燮
爪
爫
爭
爯
爰
爱
爲
爵
父
爻
爽
爾
爿
片
牙
牚
牛
牜
牟
牢
牧
牪
牽
犀
犬
犭
犮
狂
狄
狊
独
狺
猋
猒
猪
献
獻
玄
率
玉
王
玟
玨
珎
班
琴
瑟
瑩
瓜
瓦
甘
甚
生
産
用
甫
甬
田
由
甲
申
电
甶
男
甸
甹
画
甾
畀
界
畏
畐
留
畜
畟
畢
畧
畨
番
畫
異
畱
當
畺
畾
疊
疋
疌
疑
疒
疾
癶
癸
癹
登
發
白
百
皀
皃
的
皆
皇
皋
皐
皕
皮
皷
皿
盃
盆
盇
盈
益
盍
盎
监
盒
盖
盛
盡
監
盤
盧
目
直
相
盾
省
眇
眉
看
眔
眞
真
眷
眼
眾
着
睘
睪
睿
瞏
瞢
瞿
矍
矛
矞
矢
矣
知
矦
短
石
破
碎
磊
磨
示
礻
礼
祟
票
祭
禀
禁
福
禸
禹
禺
离
禽
禾
禿
秀
秃
秉
秋
科
秝
秦
移
稟
穀
穌
穴
究
穹
空
穿
突
窄
窒
窩
立
竒
竜
竝
竟
章
童
竹
笑
笠
第
筆
等
答
箕
算
箴
節
篤
篭
米
粉
粛
粟
粤
粦
粲
糞
糸
糹
系
約
納
素
索
紫
累
細
絜
絫
絲
維
綿
線
縣
繇
纍
纟
缶
网
罒
罔
罕
罗
罙
罡
罢
罪
署
罷
羅
羊
羌
羍
美
羔
羕
羗
羞
羡
羣
群
義
羲
羸
羽
翁
翏
習
翕
翟
翠
翼
老
耂
考
者
耆
而
耎
耑
耒
耳
耴
耶
耷
聂
聊
聖
聚
聶
聿
肀
肃
肅
肉
肖
肙
肥
肩
肯
育
肴
胃
背
胡
胥
能
脊
脩
膚
臣
臤
臧
自
臬
臭
臯
臱
至
致
臺
臼
臽
臾
臿
舀
舂
舄
與
興
舉
舌
舍
舛
舜
舞
舟
航
般
艮
良
色
艸
艹
艾
芒
芔
芬
芮
花
芳
芺
芻
苔
苗
苟
若
苦
英
茶
茸
荅
草
荒
荣
荼
莆
莧
莫
莽
菆
菊
菐
華
萩
萬
落
葉
著
葛
董
葵
蒙
蒦
蒼
蓋
蓬
蓺
蔑
蔡
蕉
蕭
薄
薛
薦
薩
薰
藍
藏
藥
蘭
虍
虎
虐
虒
虔
處
虖
虗
虘
虚
虛
虜
虞
虫
虽
蚤
蚩
蜀
蜜
蟲
蠡
血
行
衍
衛
衣
衤
表
衮
衰
袁
袞
褭
褱
襄
襾
西
覀
要
覃
見
規
覓
覧
親
覽
见
角
解
言
訁
訇
計
詹
語
誩
諸
讠
语
谷
豆
豈
豊
豐
豕
豖
豙
象
豦
豩
豪
豸
貇
貝
貞
貟
負
貢
貧
貪
貫
責
貳
貴
買
費
賁
資
賈
賏
賓
賔
賛
賞
賢
賣
質
賴
賽
贊
贝
贡
责
贯
贲
贵
赖
赞
赤
赦
走
越
趙
足
路
蹇
身
躬
車
軍
軎
軟
輦
輿
车
辛
辜
辟
辥
辰
辱
農
辵
辶
边
达
过
近
连
迷
追
退
送
逆
逐
通
速
造
逢
連
逮
進
遀
遂
過
道
達
遣
適
遷
遺
邊
邑
邕
那
邦
邪
郎
部
郭
都
鄉
鄞
酉
酋
配
酓
釆
采
里
重
野
量
金
釒
錢
錫
钅
長
镸
长
門
閃
閉
開
閏
閑
閒
間
閔
閵
閻
闌
门
间
闷
阑
阜
阝
阿
降
陳
隆
隊
隋
隡
隨
隱
隶
隹
隺
隻
隼
隽
难
雀
雁
雄
集
雈
雋
雍
雐
雔
雙
雚
雜
雝
離
難
雨
雩
雪
雲
零
雷
需
霍
霜
霝
霞
霸
靈
靑
青
非
靡
面
靣
革
韋
韦
韭
韯
韱
音
頁
頃
項
須
頗
頡
頻
顛
页
風
风
飛
飞
食
飠
養
饣
首
香
馬
馮
駦
马
骨
高
髟
鬥
鬯
鬲
鬼
魚
魯
鮮
鱼
鲁
鳥
鳳
鸟
鹵
鹿
麃
麗
麥
麦
麻
黃
黄
黍
黎
黑
黒
黨
黹
黽
黾
鼎
鼓
鼠
鼻
齊
齋
齐
齒
齿
龍
龙
龜
龟
龠
龰
龱
龴
龵
龶
龷
龸
龹
ꙁ
者
艹
﻿
（
）
？
𐌰
𐌳
𐌴
𐌶
𐌹
𐌻
𐌼
𐌽
𐌿
𐍂
𐍃
𐍆
𠀁
𠀃
𠀆
𠀉
𠀎
𠀐
𠁁
𠁣
𠂆
𠂇
𠂈
𠂉
𠂊
𠂋
𠂎
𠂒
𠂔
𠂛
𠂡
𠂢
𠂤
𠂬
𠂭
𠂹
𠃊
𠃋
𠃌
𠃍
𠃎
𠃑
𠃓
𠃔
𠃜
𠄌
𠄎
𠄠
𠄢
𠆢
𠆥
𠇍
𠈌
𠌵
𠓜
𠔉
𠔥
𠔼
𠔽
𠔿
𠕀
𠕁
𠕋
𠘧
𠘨
𠙻
𠙼
𠚏
𠚒
𠚤
𠚪
𠣏
𠤎
𠤕
𠥓
𠦄
𠦑
𠦝
𠧒
𠧗
𠧪
𠩺
𠪚
𠫓
𠫔
𠫤
𠬛
𠬝
𠬞
𠬢
𠬤
𠬶
𠮛
𠮦
𠮷
𠯑
𠱠
𠳮
𠷎
𡈼
𡉀
𡉵
𡌥
𡍮
𡏳
𡕒
𡕩
𡕰
𡖅
𡗗
𡗜
𡘆
𡘤
𡧱
𡨄
𡩧
𡬠
𡭽
𡰣
𡰥
𡰪
𡰯
𡰱
𡷈
𡸁
𡿨
𡿩
𡿪
𡿺
𢀖
𢀛
𢀩
𢁙
𢆉
𢆰
𢆶
𢇁
𢇇
𢉖
𢌬
𢌿
𢏚
𢑑
𢑚
𢖻
𢙣
𢛳
𢦏
𢦒
𢧵
𢼄
𢾕
𣁋
𣄼
𣅀
𣅽
𣍘
𣎳
𣎵
𣏋
𣏼
𣗥
𣥂
𣥖
𣦵
𣦼
𣧄
𣪊
𣪠
𣬉
𣳾
𣶒
𤇾
𤊽
𤐫
𤓰
𤔔
𤕨
𤣩
𤰇
𤰔
𤰞
𤴓
𤴔
𤽄
𥁑
𥁕
𥃦
𥃩
𥃭
𥇡
𥑟
𥘅
𥘈
𥝢
𥫗
𥱡
𦈢
𦉪
𦉬
𦉼
𦍌
𦍒
𦎧
𦐇
𦓔
𦔮
𦘒
𦙃
𦚏
𦣝
𦣞
𦣻
𦥑
𦥔
𦥯
𦨉
𦭝
𦰩
𧆞
𧈧
𧘇
𧰨
𧴪
𧴮
𧵩
𧾷
𨸏
𨾴
𩙿
𩠐
𩫏
𩵋
𪉷
𪜀
𪟽
𪠲
𪩲
𫇦
𫔭
𫜸
𫝀
𫠣
𫠩
𫢉
𫥞
𫩏
𫩠
𫪡
𫲽
𫶧
𬀷
𬐘
𬗌
𬙙
𬛸
𬜯
𬟩
𬯁
𬴘
𬺻
𬼉
𬼖
𭀰
𭁈
𭁨
𭅰
𭑈
𭕄
𭗼
𭤨
𭥫
𭻾
𮅕
𮊿
𮍌
𮍏
𮓗
𮥼
𮧮
廾
𰀁
𰀄
𰀈
𰀉
𰀕
𰀠
𰀡
𰀢
𰀪
𰁜
𰃮
𰆊
𰆘
𰋙
𰕎
𰢴
𰧭
𰯲
00--
001--
01--
02--
03--
04--
05--
06--
07--
08--
09--
140--
16--
18--
37--
38--
39--
40--
42--
43--
44--
45--
46--
47--
48--
49--
50--
51--
52--
53--
54--
55--
56--
59--
60--
61--
62--
63--
65--
66--
67--
68--
69--
70--
72--
73--
74--
75--
76--
77--
78--
79--
80--
81--
82--
83--
84--
85--
86--
87--
88--
90--
92--
93--
94--
96--
97--
98--
99--
a--
aa--
ab--
ac--
ad--
ada--
add--
ady--
ae--
aesc--
aethio--
af--
afge--
afri--
ag--
aga--
agr--
agu--
ah--
ai--
air--
ak--
al--
ala--
ale--
ali--
all--
alt--
alu--
am--
ama--
amphi--
an--
ana--
and--
ang--
angus--
ani--
ant--
antho--
anto--
anu--
ao--
ap--
apos--
append--
ar--
ara--
arg--
args--
ari--
aru--
as--
asc--
at--
atha--
au--
auto--
av--
aw--
awe--
ay--
az--
b--
ba--
bac--
bah--
bahr--
bai--
bal--
bamb--
ban--
bar--
bat--
bau--
bay--
be--
beau--
ben--
ber--
bh--
bi--
bibli--
bid--
bin--
bir--
biri--
blissy--
bo--
bol--
bon--
bos--
boul--
br--
bra--
brac--
brachy--
bro--
brow--
bru--
bu--
budd--
bull--
but--
bw--
by--
c--
ca--
cabi--
cala--
caloc--
calu--
camb--
camp--
can--
cap--
car--
cast--
cat--
cau--
ce--
cera--
ch--
cha--
char--
che--
chi--
cho--
chry--
chryso--
chu--
ci--
cien--
ciga--
cir--
cita--
cla--
clau--
clean--
cli--
clu--
co--
col--
colla--
com--
con--
cor--
corn--
corpor--
cr--
cri--
cry--
cu--
cucu--
cur--
cy--
cycla--
d--
da--
dam--
dar--
dark--
darkslate--
data--
daw--
de--
dec--
des--
dha--
dhu--
di--
dipl--
disc--
dist--
dji--
do--
doc--
dol--
dolo--
dr--
dra--
dre--
dros--
du--
dupl--
dur--
dy--
dz--
e--
eat--
ed--
ee--
ef--
eg--
eie--
eingangs--
eka--
el--
ele--
elec--
ely--
em--
en--
end--
epi--
er--
eryth--
es--
et--
eu--
eust--
ex--
exhib--
expand--
experi--
expl--
f--
fa--
fakeall--
fascicul--
fe--
fern--
fet--
fi--
fili--
filterby--
fire--
fla--
fle--
fli--
flo--
fo--
font--
for--
format--
fr--
fra--
fre--
frie--
fu--
fulg--
fy--
g--
ga--
gad--
gar--
gara--
gas--
gaw--
gb--
ge--
gem--
gen--
geo--
get--
gho--
gi--
gira--
giz--
gl--
glo--
gn--
go--
gol--
gor--
gow--
gr--
grap--
gro--
groß--
gru--
gu--
gun--
gurm--
gwa--
h--
ha--
hal--
har--
has--
he--
her--
herce--
hi--
hipp--
historicnames--
ho--
hoch--
hol--
hor--
hr--
hu--
hua--
hue--
hun--
hut--
hy--
hype--
i--
ia--
ib--
ic--
ice--
id--
ig--
ik--
il--
illu--
ilo--
im--
ima--
in--
ina--
infra--
inst--
inter--
inu--
invo--
io--
ip--
ir--
is--
it--
iu--
iv--
ix--
iz--
j--
ja--
jac--
jak--
je--
ji--
jo--
ju--
k--
ka--
kaik--
kala--
kamc--
kan--
kar--
kas--
kaste--
kat--
ke--
ken--
kh--
kha--
khi--
kho--
ki--
kil--
kir--
kl--
kn--
ko--
koen--
koi--
kom--
kon--
kor--
kow--
kpa--
kr--
kra--
kro--
ku--
kun--
kung--
kur--
kw--
kwa--
ky--
l--
la--
lamb--
lan--
lang--
lar--
lat--
lau--
lave--
le--
legi--
len--
leo--
les--
leu--
lew--
li--
light--
lis--
list--
lit--
lo--
lomb--
lot--
lu--
lut--
ly--
m--
ma--
maca--
macu--
mad--
magda--
magella--
mai--
mak--
make--
mal--
mam--
man--
map--
mar--
mari--
mark--
mas--
masi--
master--
max--
maza--
mb--
mbe--
mbo--
mc--
me--
mea--
mel--
men--
mer--
met--
mi--
micr--
mid--
min--
mira--
mit--
ml--
mo--
mol--
mon--
mono--
mor--
mos--
mp--
mu--
muen--
mul--
mun--
mur--
mush--
mw--
my--
myst--
n--
na--
nar--
nata--
nati--
nd--
ndo--
ne--
nec--
neu--
new--
ng--
nga--
ngu--
nh--
nie--
nik--
nim--
nin--
nis--
nn--
no--
nord--
ns--
nu--
num--
ny--
nya--
nz--
o--
obs--
observa--
oc--
occu--
oe--
of--
oh--
oj--
oka--
ol--
oly--
om--
oma--
on--
op--
or--
org--
os--
ot--
otto--
ou--
out--
over--
ovt--
ox--
oy--
p--
pa--
paarden--
pai--
pal--
pam--
pan--
papa--
papia--
par--
parsetime--
pe--
pen--
per--
perm--
petr--
pey--
ph--
phel--
phila--
phu--
phy--
phyll--
pi--
pic--
pl--
po--
poly--
pot--
pr--
pra--
pret--
pri--
pro--
ps--
pu--
pue--
pul--
pun--
puzz--
px--
py--
pyra--
q--
qa--
qu--
quad--
r--
ra--
rajas--
rapp--
raw--
rd--
re--
ref--
regi--
rele--
reli--
render--
rep--
ret--
rho--
ri--
rken--
rm--
rn--
ro--
roll--
round--
ru--
run--
s--
sa--
sali--
sam--
san--
saw--
sc--
scand--
scat--
sch--
schab--
schoen--
sco--
scute--
se--
sea--
see--
sem--
sen--
sep--
serr--
sh--
sha--
she--
shu--
si--
sin--
situ--
sk--
sky--
sl--
slate--
slo--
sm--
sn--
so--
sol--
sp--
spe--
spo--
squ--
sr--
st--
ste--
str--
stu--
su--
sub--
sum--
sun--
sup--
super--
sur--
sv--
sverd--
sw--
sy--
syn--
szab--
t--
ta--
tab--
tabas--
table--
tag--
tam--
tan--
tar--
tara--
tasm--
tat--
tau--
taw--
te--
tele--
tem--
ten--
ter--
terri--
th--
tha--
thra--
thu--
ti--
tidyval--
tigri--
tl--
tlac--
to--
tol--
tr--
trans--
tre--
trom--
trun--
ts--
tsa--
tsim--
tstd--
tsu--
tt--
tu--
tun--
tur--
turk--
tus--
tw--
ty--
u--
ug--
uk--
ul--
umb--
un--
uni--
up--
uploadan--
ur--
us--
usu--
v--
va--
vag--
val--
van--
var--
varie--
ve--
ven--
ver--
vest--
vi--
vine--
vir--
vla--
vo--
vol--
vor--
vul--
w--
wa--
wah--
wak--
wan--
war--
wat--
way--
we--
wee--
werk--
whe--
who--
wie--
wiki--
wil--
wilhel--
win--
wind--
wis--
wo--
wu--
x--
xe--
xi--
y--
ya--
yi--
yin--
yo--
yog--
yong--
yu--
z--
za--
zay--
ze--
zh--
zin--
zu--
zy--
đ--
ǁ--
а--
аб--
абазин--
абсол--
ав--
авдь--
авр--
авц--
авъя--
аг--
ага--
аги--
ад--
аж--
ажил--
аз--
ак--
ака--
акаде--
ал--
али--
алли--
алт--
аль--
алюм--
ам--
амер--
американ--
амрит--
амур--
амьдр--
ан--
анд--
андже--
ане--
ансамб--
ант--
антарктиче--
апп--
апре--
ар--
ара--
арв--
аргентин--
арм--
арнш--
ас--
астро--
ат--
атмос--
аф--
афр--
афроаме--
ах--
ахн--
ач--
аши--
аю--
аҗ--
аң--
б--
ба--
баг--
бага--
багта--
баз--
бак--
балһас--
бан--
бар--
бас--
бат--
батал--
баш--
бе--
бел--
белде--
бель--
бер--
бет--
би--
биел--
биз--
бизне--
бил--
билг--
бир--
бич--
бл--
бла--
бо--
боб--
бок--
бол--
боль--
бор--
бос--
бр--
бра--
бре--
брегенцер--
бри--
брит--
британ--
бро--
бронз--
бру--
бу--
буд--
бул--
буль--
бундес--
бур--
буря--
бурят--
бус--
буу--
бы--
быв--
бю--
бям--
бү--
бүр--
бүт--
бүүр--
бә--
бәр--
бәә--
бәәһ--
бө--
бөө--
в--
ва--
валл--
ван--
ве--
вели--
венгер--
вер--
версаль--
верто--
верх--
веры--
вестминстер--
вет--
вече--
вещ--
вз--
взя--
ви--
вик--
вил--
виль--
вин--
виноград--
виргин--
вла--
влади--
внутрен--
во--
воевод--
воз--
возв--
возд--
воздуш--
вок--
вока--
вол--
вос--
воскре--
восс--
восточ--
вояд--
вре--
време--
все--
всту--
вступите--
вто--
ву--
вы--
выби--
вып--
высту--
выш--
вь--
вэл--
г--
га--
газ--
гал--
гам--
ган--
гар--
гарга--
гвате--
гви--
ге--
гек--
геог--
географи--
географиче--
гер--
гетлһ--
ги--
гим--
гип--
гл--
гла--
глос--
глу--
го--
гол--
гон--
гор--
гос--
гот--
гр--
гра--
граф--
гре--
грече--
гринл--
гро--
гроб--
груз--
гу--
гудж--
гун--
гур--
гү--
гүр--
д--
да--
даав--
дав--
дагеро--
дал--
даль--
дам--
дамж--
дамҗ--
дан--
дар--
дах--
дви--
де--
дев--
дег--
дел--
делг--
делгр--
демокра--
демон--
депар--
дер--
дет--
дж--
джан--
джон--
ди--
диа--
длин--
до--
добы--
дов--
доз--
доку--
дол--
дос--
др--
дра--
дро--
ду--
дуб--
дур--
дуу--
дэл--
дэрг--
дю--
дү--
дә--
дәә--
дө--
дөрв--
е--
ев--
еженеде--
екатеринин--
ели--
епи--
ер--
ж--
жагса--
жан--
же--
желез--
железнодорож--
жен--
жи--
живо--
жу--
з--
за--
заа--
заверша--
заг--
зад--
зак--
зал--
залгам--
зальв--
зам--
зан--
зап--
запад--
зар--
зас--
зат--
зах--
заяв--
заһ--
зе--
зеб--
зем--
зим--
зо--
зов--
зогс--
зол--
золот--
зон--
зори--
зох--
зу--
зун--
зур--
зү--
зүр--
зүт--
зәр--
зөвш--
зөр--
и--
иг--
ид--
из--
извест--
изоб--
изящ--
ик--
ил--
илһ--
илһә--
им--
име--
ин--
индо--
инсти--
интер--
инф--
ио--
ир--
ирин--
ис--
исл--
исп--
испан--
использ--
исследо--
источ--
исфах--
ит--
ито--
их--
иш--
ию--
к--
ка--
кав--
кал--
калык--
каль--
кам--
камы--
кан--
канад--
канди--
кап--
капи--
кар--
кара--
каро--
катал--
като--
католиче--
каш--
ква--
ке--
кегд--
кел--
кен--
кер--
ки--
кии--
кин--
кино--
кир--
кл--
клав--
клавик--
ко--
коз--
кол--
колю--
ком--
комаров--
комо--
комп--
компь--
кон--
конг--
кониче--
конс--
констан--
концерт--
коп--
кор--
кораб--
коро--
королев--
кос--
космиче--
кот--
коте--
кош--
кра--
крапив--
красн--
красно--
красног--
крат--
кре--
крем--
кро--
круп--
кры--
ку--
кузне--
культу--
кучыл--
кх--
къ--
кэл--
кях--
кү--
күр--
күрг--
күң--
күү--
кө--
көг--
көд--
көк--
көт--
көтче--
л--
ла--
лап--
лат--
ле--
лем--
ленинг--
лер--
лет--
ли--
литов--
ло--
лок--
лот--
лс--
лу--
лухо--
луч--
лха--
лы--
ль--
лэ--
лю--
лютеран--
лютф--
лү--
м--
ма--
маг--
мак--
мал--
маль--
мальди--
мам--
ман--
манд--
мар--
мас--
мат--
мгл--
ме--
мед--
между--
мек--
мень--
мер--
мес--
мех--
меч--
ми--
микро--
мил--
милли--
мис--
млад--
млеч--
мо--
молд--
мон--
мор--
мордо--
мори--
мото--
мрамо--
му--
муж--
мунд--
мура--
мут--
мы--
мян--
мә--
мө--
мөң--
н--
на--
наблю--
наз--
нака--
нам--
нан--
напечатан--
напи--
натура--
национа--
нач--
нга--
нд--
не--
нев--
неи--
нем--
нен--
нер--
нефте--
ни--
ниг--
нидерланд--
ниж--
нис--
нно--
но--
ново--
норвеж--
норф--
ноч--
ну--
нуг--
нур--
нэ--
нэгд--
нэр--
ня--
нү--
нә--
нө--
о--
об--
обрабаты--
образ--
обсуж--
ов--
овуд--
ог--
огц--
од--
одес--
ок--
ол--
оле--
олз--
олзлгд--
олим--
ом--
он--
онь--
оп--
опре--
оптиче--
ор--
орде--
ори--
орк--
орл--
орлцҗ--
орн--
оро--
оролц--
орт--
ору--
орул--
орхи--
орч--
орчу--
ос--
освеще--
осн--
осо--
от--
отде--
откры--
отно--
офици--
оформ--
ох--
ошиб--
оң--
п--
па--
пав--
пад--
паде--
пак--
пал--
палес--
пан--
пар--
парти--
пас--
паш--
пе--
пел--
пен--
пер--
пере--
перене--
пет--
петро--
печат--
пеще--
пи--
пил--
пилотаж--
пир--
пит--
пифа--
пл--
плас--
по--
побе--
под--
подзем--
подсолнеч--
пое--
пож--
пок--
пока--
пол--
полу--
получе--
поль--
попереч--
пор--
посе--
потре--
похор--
поч--
пр--
пра--
прав--
право--
пре--
пред--
преды--
при--
природ--
приют--
про--
прог--
произ--
производ--
проис--
происхож--
прол--
профессиона--
прус--
прыж--
пти--
пу--
пур--
пурпу--
пус--
пусте--
пуш--
пы--
пя--
пят--
р--
ра--
рав--
рад--
раджаст--
раз--
различ--
рамен--
рап--
рас--
расш--
рат--
рафа--
ре--
реги--
рем--
рентгено--
реп--
рес--
рет--
рето--
ри--
рин--
рих--
рн--
ро--
роб--
рождествен--
роз--
рос--
рт--
ру--
рус--
руч--
рш--
ры--
рыб--
рю--
рязан--
с--
са--
сав--
саксон--
сам--
сан--
сахл--
св--
све--
свя--
се--
севе--
сед--
сез--
сек--
сел--
селг--
сен--
сер--
си--
сив--
сикхм--
симҗ--
синтетиче--
сиц--
ск--
ска--
скл--
скрип--
сл--
слав--
сле--
сли--
слож--
слу--
см--
сме--
сн--
сне--
сноу--
со--
соб--
совп--
совре--
совреме--
соглас--
сод--
сок--
сол--
солнеч--
сольв--
сом--
сон--
сонг--
сонь--
соотв--
соци--
соң--
соңс--
сп--
спари--
спи--
спира--
спу--
спут--
сра--
сред--
ст--
ста--
став--
стам--
стар--
сте--
степ--
стер--
сто--
сту--
су--
сув--
суврһ--
суд--
сул--
сун--
сур--
сфотографирова--
сх--
съе--
сы--
сэр--
сю--
сүх--
сә--
т--
та--
тааһ--
таб--
тав--
тал--
тан--
тар--
тата--
тах--
тач--
таң--
таңһ--
те--
тее--
теле--
тем--
тен--
теоретиче--
тер--
тет--
тех--
технологиче--
тең--
ти--
тиб--
тибет--
тив--
тим--
типич--
тир--
то--
тог--
тогт--
тогтолцо--
тол--
тон--
тоол--
тор--
торг--
торжеств--
тох--
тохир--
точ--
тр--
тра--
трав--
традици--
традицион--
три--
тро--
трои--
тру--
ту--
тул--
тулг--
тун--
тунг--
тунха--
тунхагл--
тур--
тус--
ты--
тэ--
тэмцэ--
тю--
тюр--
тюрк--
тя--
тян--
тү--
түвш--
түл--
түр--
тә--
тәв--
тө--
төгс--
төр--
у--
уг--
уд--
удир--
уж--
уз--
узбе--
уи--
ук--
ука--
указан--
укре--
ул--
ула--
улит--
улич--
улс--
ум--
умш--
ун--
унд--
упраж--
ур--
ури--
урхе--
урһу--
ус--
уст--
ут--
утрен--
уу--
уур--
ууһ--
ух--
уче--
учр--
учреж--
ушас--
уще--
уһ--
ф--
фа--
фаш--
фашист--
фе--
фер--
фиг--
физиче--
филь--
фин--
финан--
фл--
фото--
фр--
фро--
фу--
фун--
функц--
футу--
х--
ха--
хав--
хад--
халь--
хам--
хамаа--
хамц--
хан--
хар--
харьц--
хас--
хат--
хач--
хаһ--
хе--
хем--
хи--
хим--
химиче--
хл--
хо--
хоз--
хок--
хол--
холь--
хор--
хот--
хох--
хошад--
ху--
хув--
хува--
хуви--
хун--
хутг--
хэв--
хэвл--
хэл--
хэлб--
хэлэл--
хэрэ--
хя--
хүр--
хүрт--
хә--
хәр--
хәрл--
хәә--
хө--
хөгж--
хөр--
ц--
ца--
цаг--
цар--
цаһал--
цв--
цвет--
цветоч--
це--
церков--
цик--
цин--
цир--
цо--
цок--
цу--
цуг--
цэ--
цюр--
цүүг--
цә--
цәә--
цәәһ--
цө--
цөг--
ч--
ча--
чад--
чам--
чан--
че--
человече--
чен--
черн--
чеш--
чи--
чидлм--
чимэ--
чир--
чис--
чо--
чоҥ--
чу--
ш--
ша--
шалт--
шам--
шан--
шар--
шас--
шат--
шату--
шаф--
шах--
швед--
ше--
шекс--
шер--
шес--
ши--
шил--
шилж--
шин--
шир--
шко--
шо--
шов--
шот--
шт--
шу--
шук--
шү--
шүл--
шүт--
щ--
щур--
ы--
э--
эв--
эвр--
эг--
эд--
эду--
эз--
эк--
экл--
эклц--
эколо--
экс--
эксперимент--
эл--
электро--
элче--
элчин--
эм--
эмг--
эн--
энд--
энх--
энцикло--
эпи--
эпо--
эр--
эрг--
эрд--
эрде--
эрх--
эс--
эска--
эскимос--
эсп--
эстон--
этно--
эх--
эхл--
эң--
ю--
юм--
юн--
юс--
я--
яв--
яву--
яг--
як--
ял--
ян--
яна--
япон--
яр--
яш--
яшку--
җ--
җа--
җам--
җан--
җер--
җи--
җив--
җирһ--
җис--
җод--
җол--
җом--
җум--
ҥ--
ү--
үг--
үз--
үзв--
үзү--
үк--
үкҗ--
үл--
үлд--
үмс--
үн--
үр--
үс--
үү--
үүр--
үүс--
һ--
һад--
һар--
һо--
һооҗ--
һунд--
ә--
әм--
әмг--
әр--
әрлһ--
әәр--
ө--
өв--
өг--
өггд--
өглһ--
өгс--
өд--
өл--
өн--
өр--
өрнө--
өрш--
өс--
өө--
ག--
བ--
--0
--00
--06
--07
--08
--1
--2
--21
--3
--30
--35
--4
--47
--48
--5
--53
--59
--6
--60
--63
--7
--78
--8
--81
--9
--906
--91
--a
--aa
--aal
--able
--ac
--aca
--ach
--ack
--aco
--ad
--ade
--ado
--ae
--aea
--aey
--ag
--aga
--ah
--ahi
--ai
--aic
--aje
--ak
--aki
--al
--alis
--als
--am
--ama
--ami
--an
--ance
--ang
--ani
--ann
--ano
--ans
--anus
--ao
--ap
--aq
--ar
--arg
--args
--argus
--ari
--aru
--arum
--ary
--as
--at
--ata
--ate
--ated
--ater
--ation
--ators
--att
--atum
--au
--aw
--ay
--aya
--b
--ba
--bahn
--be
--bel
--berries
--bi
--bia
--bila
--ble
--blue
--bo
--bon
--bra
--bre
--bu
--bus
--bwa
--c
--ca
--cal
--ce
--cens
--ch
--chi
--ci
--cing
--cium
--ck
--class
--co
--ct
--ctus
--cula
--cus
--cy
--d
--da
--dae
--dal
--data
--date
--de
--den
--des
--dhi
--di
--dium
--dms
--do
--ds
--du
--dus
--dy
--e
--ea
--ean
--ec
--eca
--ed
--eda
--ee
--egus
--ei
--eil
--ek
--el
--ela
--ell
--elo
--els
--em
--ema
--en
--ena
--ence
--ene
--eno
--ens
--ensis
--ent
--eo
--ep
--epec
--er
--era
--ere
--eri
--erior
--ern
--ero
--ers
--es
--esa
--ese
--essa
--est
--et
--eta
--ete
--eter
--ets
--eus
--ev
--ey
--eye
--f
--fa
--fd
--fe
--fen
--fer
--fied
--ft
--ful
--g
--ga
--gadi
--gai
--gang
--gar
--ge
--ged
--ger
--gga
--gh
--ght
--gi
--gian
--ging
--gle
--gna
--go
--gon
--graph
--green
--gs
--gsa
--gu
--gus
--gwa
--h
--ha
--hae
--hai
--ham
--he
--hed
--hei
--hen
--hes
--hi
--hia
--hing
--ho
--hof
--horn
--hs
--ht
--hu
--hua
--hus
--i
--ia
--iai
--ial
--ian
--ias
--ibe
--ic
--ica
--ical
--ics
--icum
--id
--ides
--ie
--ier
--ies
--ified
--ii
--ik
--ika
--iki
--il
--ily
--im
--ima
--image
--imi
--in
--ina
--ine
--ing
--ini
--ino
--iny
--io
--ion
--ions
--ipa
--ir
--ire
--iri
--is
--isation
--ise
--ish
--ision
--iso
--ist
--it
--ite
--ition
--itor
--ity
--iu
--ium
--ius
--ive
--ively
--iwa
--iya
--ize
--ized
--j
--ja
--je
--ji
--jo
--k
--ka
--kal
--kali
--kar
--kat
--kau
--ke
--kel
--ken
--ker
--key
--kh
--ki
--kia
--kin
--kirche
--ko
--kov
--ks
--kt
--ku
--ky
--l
--la
--label
--lai
--lan
--land
--lani
--lar
--las
--lay
--ld
--le
--led
--left
--ler
--let
--ley
--lf
--li
--lia
--lies
--ling
--lis
--ll
--lm
--lne
--lo
--lor
--ls
--lt
--lu
--lue
--lus
--ly
--m
--ma
--maa
--map
--mas
--mba
--mbi
--me
--med
--meer
--mi
--mia
--mo
--ms
--mu
--mus
--my
--n
--na
--name
--nao
--nberg
--nc
--nca
--nce
--nces
--nd
--ndo
--ndu
--ne
--ned
--ner
--nes
--ness
--ng
--nga
--nge
--ngo
--nhua
--ni
--nian
--ning
--nis
--nium
--nk
--nka
--nn
--no
--non
--ns
--nse
--nsis
--nt
--nta
--ntal
--nting
--nto
--num
--nums
--nus
--ny
--nz
--o
--oa
--oan
--oat
--ob
--obe
--oc
--ock
--oda
--oe
--of
--og
--oi
--ois
--ok
--ol
--ola
--olia
--om
--oma
--ome
--omus
--on
--ona
--ong
--only
--ons
--oo
--oon
--oos
--opsis
--or
--ors
--orus
--os
--osa
--oss
--ot
--ota
--oti
--ov
--ow
--ows
--oyo
--p
--pa
--pan
--pe
--pec
--ped
--pel
--pera
--pho
--pi
--ple
--po
--pos
--ppe
--ps
--ptera
--pu
--pur
--pus
--py
--q
--r
--ra
--ras
--rat
--rd
--rdi
--rds
--re
--rea
--red
--ren
--rf
--rg
--rga
--ri
--ria
--rian
--ric
--rin
--ring
--ris
--rium
--rk
--rla
--rm
--rmi
--rn
--rne
--rno
--ro
--ros
--rot
--row
--rows
--rra
--rs
--rt
--rta
--ru
--rum
--ry
--s
--sa
--sat
--scan
--schaft
--se
--sed
--seite
--sel
--sey
--sh
--shi
--si
--sia
--sian
--sio
--sis
--sive
--sk
--ska
--so
--son
--ss
--sse
--st
--stan
--straße
--style
--su
--sus
--t
--ta
--tag
--tal
--tas
--te
--ted
--tein
--tepec
--tes
--text
--th
--thi
--ti
--tia
--tian
--tic
--tik
--ting
--tion
--tional
--tions
--tis
--title
--tka
--tla
--tle
--tmp
--to
--toma
--ton
--tor
--tra
--trum
--ts
--tsch
--tt
--tu
--tum
--ture
--tus
--ty
--type
--u
--ua
--uan
--uction
--uda
--udu
--ue
--uga
--ui
--uk
--uka
--uki
--uku
--ul
--ula
--ule
--uli
--ult
--ulu
--ulus
--um
--umba
--un
--una
--ung
--ungu
--uo
--up
--ur
--ure
--urm
--us
--ut
--ution
--uu
--ux
--uya
--v
--va
--value
--ve
--vi
--ving
--vo
--vsk
--vu
--w
--wa
--wai
--wak
--wali
--walk
--wan
--way
--we
--wi
--wo
--ws
--x
--xa
--xi
--xies
--y
--ya
--yam
--yar
--yd
--ye
--yi
--ym
--yo
--ys
--yu
--z
--za
--zani
--zar
--ze
--zed
--zi
--zia
--zil
--zo
--zon
--zy
--ο
--а
--аа
--ааны
--аар
--аас
--ав
--ава
--авия
--аг
--агдаж
--агддаг
--агии
--агт
--ад
--ада
--адаг
--аде
--аев
--ает
--аж
--аз
--азе
--аи
--ак
--ал
--ала
--алһан
--ам
--ама
--ами
--ан
--ана
--ане
--ани
--ания
--ано
--анта
--анцы
--аны
--ао
--ар
--араа
--аре
--арн
--арт
--ары
--ас
--аса
--асн
--ась
--ат
--ата
--атан
--атд
--атора
--ах
--ахла
--ации
--ач
--аш
--ающии
--ая
--аҗ
--б
--ба
--бд
--бе
--би
--бл
--бо
--бордаев
--бр
--бы
--бә
--в
--ва
--вая
--вг
--вд
--вдмн
--ве
--верал
--вец
--ви
--вик
--вин
--вка
--вки
--вн
--во
--вов
--вого
--вое
--вои
--вом
--вор
--вр
--вт
--ву
--вуд
--вч
--вы
--вые
--выи
--вых
--вь
--вҗ
--вң
--вә
--г
--га
--галт
--галы
--гальцы
--ган
--гана
--гас
--гат
--гау
--гах
--гач
--гд
--гдаж
--гдв
--гдг
--гдн
--гдна
--ге
--ген
--гена
--геч
--ги
--гиг
--гии
--гин
--гия
--гллт
--гн
--гнә
--го
--гои
--гон
--гр
--граф
--графа
--гсн
--гт
--гтн
--гу
--гуд
--гч
--гээ
--гҗ
--гүи
--гәд
--д
--да
--даа
--даг
--дад
--даев
--дам
--дан
--дас
--дв
--дг
--дго
--де
--дег
--дж
--джа
--джи
--ди
--дии
--дил
--дин
--дит
--диум
--дия
--дка
--дл
--дла
--дм
--дмн
--дн
--днь
--днә
--до
--дов
--дог
--дсн
--дт
--дта
--дтн
--дцать
--дцы
--ды
--дыг
--дын
--дь
--дьбы
--дэж
--дээ
--дҗ
--дҗана
--дүд
--дә
--дәг
--дәд
--дән
--е
--ев
--ева
--ед
--еда
--едән
--еи
--ек
--ел
--ель
--еля
--елә
--ем
--ен
--ена
--енг
--енде
--ензее
--ени
--ение
--ению
--ения
--енск
--ены
--ень
--ер
--ес
--ет
--ета
--ется
--етә
--ех
--ец
--еш
--ж
--жа
--же
--жи
--жиж
--жит
--з
--за
--зг
--зе
--зи
--зии
--зин
--зка
--зр
--зу
--зы
--зь
--и
--ив
--иг
--игт
--игу
--ид
--идг
--идн
--ие
--иеи
--ием
--изации
--изм
--ии
--иин
--ик
--ика
--ил
--илж
--илья
--им
--ин
--ина
--инка
--ино
--инцы
--ины
--инь
--ион
--ионн
--ип
--ир
--ирует
--ис
--ит
--ите
--итель
--ительно
--ить
--иум
--их
--иц
--ица
--ицу
--ицы
--ицыно
--ических
--ическои
--иш
--ию
--ия
--иях
--иүм
--к
--ка
--кан
--кая
--ке
--кер
--ки
--кие
--кии
--кин
--ко
--ков
--кова
--кого
--кои
--ком
--кр
--кс
--кса
--кт
--ку
--куд
--кым
--кҗ
--кә
--л
--ла
--лад
--лалт
--лан
--лась
--лах
--лаһан
--лв
--лвг
--лвр
--лврар
--лг
--лгаа
--лгдла
--лгч
--лдах
--лдг
--ле
--лж
--ли
--лись
--лкин
--лл
--лла
--ллһн
--лна
--лнә
--ло
--ловая
--лог
--лож
--лон
--лсан
--лся
--лт
--лу
--луулах
--лх
--лхд
--лхла
--лчкәд
--лы
--лыг
--ль
--лье
--льные
--льныи
--лэж
--лэх
--ля
--лҗ
--лҗана
--лң
--лһан
--лһиг
--лһн
--лһна
--лһнә
--лә
--ләд
--м
--ма
--маа
--ман
--мб
--мбе
--мбл
--мбр
--мгн
--мд
--ме
--мен
--мена
--ми
--мии
--мн
--мо
--мр
--мск
--му
--муд
--мудин
--мудн
--мудт
--мудыг
--мудын
--мцы
--мы
--мыг
--мүд
--мүдин
--мүдт
--мә
--н
--на
--ная
--нг
--нд
--нда
--не
--нее
--ни
--ние
--нием
--нии
--ниум
--ница
--нию
--ния
--нка
--нки
--нн
--нного
--нные
--нных
--но
--нов
--ного
--ное
--нои
--ном
--нр
--нс
--нск
--нскии
--нт
--ну
--нууд
--нф
--нца
--нцы
--ны
--ные
--ныи
--ных
--нь
--нье
--нэ
--ня
--нял
--нян
--нять
--няя
--нә
--о
--ов
--ова
--ове
--ович
--овка
--овник
--ово
--овои
--овск
--овцы
--овыи
--овых
--ог
--огии
--ого
--од
--оду
--оды
--ое
--ож
--оз
--ои
--ок
--оке
--око
--ол
--ом
--ому
--он
--она
--оо
--оос
--ор
--оро
--ос
--ости
--от
--отив
--ох
--п
--па
--пан
--пд
--пе
--пи
--пин
--писи
--по
--пп
--ппа
--пта
--пы
--р
--ра
--рата
--рв
--рг
--рд
--ре
--рен
--ри
--рии
--риум
--рия
--рл
--рм
--рмүд
--рн
--рная
--рнои
--ро
--рои
--рон
--рсн
--рт
--ру
--рх
--рцы
--рч
--ры
--рын
--рь
--ря
--ряд
--рҗ
--рә
--рәс
--с
--са
--сан
--сг
--сгч
--сдии
--се
--си
--сиг
--син
--сия
--ск
--ская
--ске
--ски
--ские
--скии
--скими
--ских
--ского
--ское
--скои
--ском
--смин
--смн
--сн
--снә
--со
--сов
--сон
--ср
--сс
--ссы
--ст
--ста
--ств
--ственно
--ствие
--сте
--сти
--стно
--сть
--сх
--сы
--сын
--сь
--ся
--сят
--сә
--сөн
--т
--та
--таи
--тан
--тау
--тд
--те
--тель
--теля
--теш
--ти
--тификатора
--тия
--тки
--тл
--тн
--тнр
--тны
--то
--тов
--тои
--тон
--тор
--тр
--тс
--тся
--тти
--ту
--тура
--тше
--ты
--тын
--тыш
--ть
--ться
--тэ
--тэи
--тҗ
--тә
--тән
--төн
--у
--уа
--ув
--уг
--уд
--удт
--уж
--узск
--узы
--ук
--уку
--укция
--ул
--улх
--ум
--ума
--ун
--уны
--упа
--ур
--уру
--ус
--ут
--уты
--уу
--ууд
--уудыг
--уудын
--уэ
--ую
--уҗ
--ф
--фа
--фии
--фия
--х
--ха
--хан
--хг
--хе
--хен
--хи
--хин
--хлә
--хмн
--хн
--хо
--хов
--ху
--хуи
--хыг
--ц
--ца
--цать
--цах
--цг
--це
--цев
--цеи
--циеи
--ции
--цин
--цию
--ция
--цк
--цкая
--цн
--цо
--цов
--цог
--цож
--цох
--цу
--цы
--ч
--ча
--чакад
--чане
--че
--чек
--чен
--ческ
--ческие
--чи
--чиг
--чид
--чии
--чка
--чкәд
--члах
--чм
--чн
--чно
--чнр
--чныи
--чнь
--чууд
--чь
--чээ
--ш
--ша
--шаа
--шг
--шго
--ше
--ши
--шиж
--шир
--шка
--шл
--шло
--шо
--шпитце
--шт
--ште
--щая
--ще
--щеи
--щение
--щии
--щик
--ъе
--ы
--ыг
--ые
--ыи
--ыл
--ым
--ыми
--ымын
--ын
--ыр
--ыт
--ых
--ыш
--ыше
--ыши
--ыште
--ыын
--ь
--ьба
--ьбе
--ьд
--ье
--ьн
--ьного
--ьные
--ьск
--ьскии
--ьт
--ьцы
--ью
--ья
--э
--эг
--эгдэж
--эгии
--эд
--эж
--эи
--эл
--элд
--эля
--эн
--эх
--ээ
--ээг
--ээр
--ээрээ
--ээс
--ю
--юрт
--ют
--ющаяся
--ющиеся
--ющии
--я
--ябрь
--яд
--яет
--як
--ям
--ями
--яр
--яс
--ятся
--ять
--ях
--ящая
--яя
--і
--җ
--җа
--җана
--җи
--җин
--җр
--җу
--җәнә
--җәх
--ң
--ңк
--ү
--үв
--үд
--үлх
--үм
--үн
--үр
--үрн
--үҗ
--үү
--үүд
--үүдэд
--һ
--һа
--һад
--һан
--һана
--һар
--һас
--һв
--һиг
--һн
--һна
--һнә
--һс
--һсн
--һу
--һх
--һҗ
--һән
--һәр
--ә
--әв
--әг
--әд
--ән
--әнә
--әнәв
--әр
--әрн
--әс
--әсн
--әх
--әч
--ө
--өг
--өд
--өн
--өр
--өтә
--өө
--ས
