!
"
#
##0
##1
##10
##11
##12
##13
##14
##15
##16
##17
##18
##19
##2
##20
##21
##22
##23
##24
##25
##26
##27
##28
##29
##3
##30
##31
##32
##33
##34
##35
##36
##37
##38
##39
##4
##40
##41
##42
##43
##44
##45
##46
##47
##48
##49
##5
##50
##51
##52
##53
##54
##55
##56
##57
##58
##59
##6
##60
##61
##62
##63
##64
##65
##66
##67
##68
##69
##7
##70
##71
##72
##73
##74
##75
##76
##77
##78
##79
##8
##80
##81
##82
##83
##84
##85
##86
##87
##88
##89
##9
##90
##91
##92
##93
##94
##95
##96
##97
##98
##99
%
&
'
(
)
*
+
,
-
.
/
0
00
000
001
002
01
02
03
04
05
06
07
08
09
1
10
100
1000
101
1011
102
103
104
105
106
107
108
109
11
110
111
112
113
114
115
116
117
118
119
12
120
121
122
123
124
125
126
1267
127
128
129
13
130
131
132
133
134
135
136
137
138
139
14
140
141
142
143
144
145
146
147
148
149
15
150
151
152
153
154
155
156
157
158
159
16
160
161
162
163
164
165
166
167
168
169
17
170
171
172
173
174
175
1753
1758
176
177
1775
178
179
18
180
1801
181
182
1821
1822
1823
1824
1825
1826
1828
1829
183
1830
1831
1832
1833
1834
1835
1836
1837
1838
1839
184
1840
1841
1842
1843
1844
1845
1846
1847
1848
1849
185
1850
1851
1852
1853
1854
1855
1856
1857
1858
1859
186
1860
1861
1862
1863
1864
1865
1866
1867
1868
1869
187
1870
1871
1872
1873
1874
1875
1876
1877
1878
1879
188
1880
1881
1882
1883
1884
1885
1886
1887
1888
1889
189
1890
1891
1892
1893
1894
1895
1896
1897
1898
1899
19
190
1900
1901
1902
1903
1904
1905
1906
1907
1908
1909
191
1910
1911
1912
1913
1914
1915
1916
1917
1918
1919
192
1920
1921
1922
1923
1924
1925
1926
1927
1928
1929
193
1930
1931
1932
1933
1934
1935
1936
1937
1938
1939
194
1940
1941
1942
1943
1944
1945
1946
1947
1948
1949
195
1950
1951
1952
1953
1954
1955
1956
1957
1958
1959
196
1960
1961
1962
1963
1964
1965
1966
1967
1968
1969
197
1970
1971
1972
1973
1974
1975
1976
1977
1978
1979
198
1980
1981
1982
1983
1984
1985
1986
1987
1988
1989
199
1990
1991
1992
1993
1994
1995
1996
1997
1998
1999
2
20
200
2000
2001
2002
2003
2004
2005
2006
2007
2008
2009
201
2010
2011
2012
2013
2014
2015
2016
2017
2018
2019
202
203
204
205
206
207
208
209
21
210
211
212
213
214
215
216
217
218
219
22
220
221
222
223
224
225
226
227
228
229
23
230
231
232
233
234
235
236
237
238
239
24
240
2405
241
242
243
244
245
246
247
248
249
25
250
251
252
253
254
255
256
257
259
26
260
261
262
263
264
265
267
269
27
270
271
272
273
274
275
276
277
279
28
280
281
282
283
284
285
287
288
289
29
291
293
295
296
297
298
299
3
30
300
3000
301
303
304
305
307
308
309
31
311
312
313
315
317
319
32
321
323
325
327
329
33
330
331
333
337
338
339
34
341
347
35
353
355
36
369
37
377
38
381
384
3897
39
393
395
4
40
400
4000
401
41
42
43
44
45
46
47
471
48
49
5
50
500
5000
51
52
52869
53
54
55
56
57
574
58
59
6
60
61
62
63
64
65
66
662
67
68
69
7
70
71
72
73
74
75
76
77
78
79
8
80
81
82
83
832
84
85
86
87
88
884
89
9
90
901
91
92
93
94
95
96
97
978
98
99
993
:
;
<
=
>
?
_
`
a
aa
aakka
ab
aba
ababa
abacetus
abad
abajo
abd
abda
abellini
abhandlungen
abitibi
about
abra
abril
abrs
abruzzo
abu
abuja
abungawg
aby
ac
acacia
acad
academia
academy
acalles
acalypha
acanthaceae
acari
acarina
accepted
access
aceh
achille
acmaeodera
acoelomorpha
acra
acre
acres
acrididae
acta
ad
ada
adam
adamaoua
adams
adansonia
addis
addison
additional
additions
adelaide
adh
adi
adige
adjacent
adlaw
administered
administratibo
administratibong
ado
adolf
adolph
adoretus
adrar
adrien
adtong
adunay
ae
aecidium
aedes
aegean
aek
af
afa
afar
affinis
afghano
afr
africa
african
africana
afrika
afrique
afrotropical
after
ag
agadez
agaricaceae
agaricus
agathidium
agdenes
agder
agelenidae
agency
agi
agianan
agosto
agra
agric
agricultural
agriculture
agrilus
agromyzidae
agua
aguacate
aguada
aguaje
aguas
aguascalientes
aguila
aguja
agusti
ah
ahmad
ahmed
ahos
ahr
ahrat
ahrens
ai
ain
air
aire
aires
airpark
airport
airstrip
airy
aise
aisne
aizoaceae
ajjah
ak
akad
akademie
akasya
ake
akershus
al
ala
alabama
alagoas
alam
alambrillo
alamo
alamos
alan
aland
alang
alasiwsiw
alaska
alba
albany
albanya
albert
alberta
alborz
alchemilla
alcides
alder
ale
alegre
alemanya
aleochara
aleocharinae
aleppo
aleutians
alexander
alexandre
aleyrodidae
alfred
algad
algiers
algoma
algyeriya
ali
alibangbang
alice
alihan
alindahaw
alkali
all
alla
allan
allen
allende
alligator
allium
alma
aloe
alonso
alpes
alphonse
alphonso
alpine
alt
alta
altamaha
altay
altayskiy
alternaria
alto
alue
aluhipan
alvarez
am
ama
amacuro
amanita
amara
amaranthaceae
amarillo
amaryllidaceae
amata
amazon
amazonas
amblyseius
ame
amer
america
american
americana
amerika
amerikanhong
ames
amhara
ami
amihanan
amihanang
amihang
amma
ammad
amman
amphibian
amphibians
amphipoda
amphoe
amra
amsterdam
amur
amurskaya
an
ana
anacroneuria
anak
anales
analysis
ananambo
anatolya
anay
anba
ancash
anchorage
and
andaluci
andaman
anders
anderson
andhra
andora
andorra
andre
andrea
andrena
andrenidae
andrew
andrews
andrey
andøy
ang
angel
angeles
anggola
angkasanan
angkon
angola
angostura
anhalt
anhianhi
anhui
ani
animalia
animas
anji
ankara
ann
anna
annales
annali
annals
anne
annelida
annette
annls
annonaceae
annonbase
annotated
annual
anolis
anomala
anopheles
anotylus
anse
ant
anta
antananarivo
antarctic
antarctica
antartika
antartiko
antelope
anthaxia
anthomyiidae
anthonomus
anthony
anthophora
anthrax
anthribidae
anthurium
antilles
antioquia
anto
antofagasta
antoine
anton
antonio
any
anzoa
ao
aomori
apache
apalachicola
apan
apanteles
apganistan
aphanisticus
aphid
aphididae
aphis
aphodiidae
apiaceae
apicalis
apidae
apil
apocynaceae
apoderus
apogonia
apple
apps
apr
aprika
aprikanhong
aprikano
aprostocetus
apure
apurimac
aqah
aqat
aquatic
aquila
aquitaine
ar
ara
arabiya
arabo
arabyang
araceae
arachnid
arachnida
arachnides
aragon
aragua
aral
araneae
araneidae
araneus
arauca
araucani
arba
arbi
arbor
arch
archipel
archipelago
archiv
arctic
arctiidae
ardabi
ardisia
are
area
areas
arecaceae
arena
arenal
arendal
arequipa
argentina
arges
argoviensis
arhelya
arhentina
ari
aristolochia
arizona
arkansas
arkhangel
arkiv
arkiyolohiyang
arko
arm
armenya
armstrong
arn
arnold
arnott
aroostook
arquivos
arriba
arroio
arrondissement
arrow
arrowhead
arroyo
art
artemisia
arten
arthropoda
arthur
artiko
artikulo
artois
arts
aru
aruna
as
asa
asan
ascher
ascidiacea
asco
ascochyta
ascomycetes
ascomycota
aserbaiyan
aserbayjan
ash
ashley
ashmead
asia
asilidae
asin
askvoll
asmara
asparagaceae
asparagos
aspen
aspergillus
asphodelaceae
asplenium
assam
assif
assing
associated
association
astana
astenus
asteraceae
asterina
asterinaceae
asteroidea
astragalus
asturias
asya
at
atacama
atan
ath
athens
atheta
atla
atlantic
atlantiko
atlas
atoll
atong
atrichopogon
attelabidae
attems
attica
au
auchenorrhyncha
auckland
auct
audnedal
auf
aug
august
augusta
auguste
augusto
augustus
aurdal
aure
aurivillius
aurland
aurora
aurskog
aus
aust
austin
austral
australasian
australia
australian
australis
austurland
authors
auto
autonoma
autonomous
auvergne
aux
available
avec
avenue
avi
avtonomnaya
avtonomnyy
aw
awa
awi
awstralya
awstriya
awtor
axel
ay
ayacucho
ayer
aymag
ayn
ayse
ayı
az
azerbaijan
azilal
azores
azu
azua
azul
azur
b
ba
baalbek
bab
baba
babae
baca
baccharis
bach
back
bactrocera
bad
badakhsha
baden
badger
baehr
bag
baghdad
baghla
bah
bahamas
bahi
bahia
bahin
bahr
bai
baie
baikal
bailey
bailly
baja
baji
bajo
bak
bakaybakay
baker
bakhti
baki
baku
bakukang
bakukangon
bal
bala
baladi
balangay
balas
balat
bald
baldwin
baldy
baleares
balears
bali
balili
balka
ball
ballangen
balochista
balsfjord
baltimore
baluchestan
bamako
bamber
ban
bana
banag
banaog
banay
banco
band
banda
bandaman
bandar
bandera
bandundu
bang
bangka
bangkok
bangladesh
bangui
bani
bank
banks
bansa
banten
baptiste
bar
bara
barajı
barangay
baranggay
barat
barbados
barbara
barber
barcelona
bardu
bare
bari
baridius
barinas
baris
barker
barnard
barnes
barnstable
baron
barr
barra
barrage
barranca
barranco
barrel
barren
barrio
barry
bartlett
bartolozzi
barton
bas
base
based
bashkortostan
basidiomycota
basihan
basilewsky
basin
bass
basse
bat
batang
bates
bath
batista
batman
bato
battle
batu
bauhinia
bavaria
baxter
bay
bayadh
bayan
baybayon
bayd
bayern
bayingbaying
bayou
be
beach
beacon
bean
bear
beasley
beaufort
beaver
beaverdam
beaverhead
bec
because
beccaloni
beck
becker
bedford
bee
beech
been
bees
beethoven
beetles
begonia
bei
beiarn
beier
beih
beijing
beirut
beitra
beitrag
beja
bekken
bel
bela
belarus
belaw
belaya
belge
belgique
belgrade
belhika
belize
bell
bella
bellamy
bellan
belle
belmont
belokobylskij
bembidion
ben
bench
bend
bengal
bengawan
bengo
benguela
beni
benin
benito
benjamin
bennett
benson
benth
bentham
benton
ber
berberis
berbice
berde
bere
berg
berga
berge
bergen
berget
bergspass
bergstopp
berkeley
berkshire
berlin
berliner
bermuda
bern
bernard
bernardino
bernardo
berne
bernhauer
berry
besar
bethel
betta
bezirk
bha
bhit
bhutan
bi
bibliography
bicol
bicolor
bie
big
bight
biha
bika
bil
bill
billy
bin
bindal
bingen
bingham
biobi
biodiversity
biogeography
bioko
biol
biologia
biological
biologie
biologische
biology
biota
birch
bird
birds
birgyin
birkenes
bisan
bisaw
bisby
bishkek
bishop
bismal
bismarck
bissau
bitin
bitter
bituonbituon
bivalves
bivalvia
biyelorusya
biyetnam
bizerte
bjerkreim
bjo
bjugn
bjørndalen
bl
bla
black
blackburn
blaine
blair
blake
blanc
blanca
blancas
blanchard
blanco
blattidae
bledius
blekinge
blick
blind
blount
blue
bluff
bluffs
blume
blumea
bo
boa
board
boat
bob
boca
bock
bodø
bog
bogan
boggy
bogota
boheman
bohol
bois
boise
boiss
boissier
bokana
bol
bola
boland
boli
bolibiya
bolivia
bolkan
bollettino
boloto
bolzano
bombyliidae
bon
bonanza
bond
bone
bong
bonita
bonito
bonner
boone
bor
bora
boraginaceae
bordo
bordoni
boreal
borealis
boris
borneo
borough
borowiec
bosnia
bosniya
boston
bot
botanical
botanique
botanischen
botany
botryosphaeriaceae
botswana
bottom
bou
boucek
bouchet
boulder
boulemane
boulenger
boundary
bourgogne
bourgoin
boury
bow
bowman
bowyer
box
boxshall
boy
boyaca
boyd
boyko
boz
br
bra
brabant
brachyceridae
brachycerus
brachyura
bracon
braconidae
bradford
bradley
brady
bradysia
braga
braganc
branch
branche
branco
branda
brandenburg
brantas
bras
brasi
brasil
brasileira
brasiliensis
brassicaceae
bratislava
bratta
braun
brava
bravo
bray
brazil
brazos
brazzaville
brdo
bre
breg
bremanger
brentidae
bretagne
breton
breuning
brevis
brewster
brian
bridge
brien
bright
bristol
brit
britain
british
britton
brittonia
broad
brock
brod
bromeliaceae
brook
brooks
brothers
brotherus
broun
brown
browns
broyer
bru
bruce
brunei
brunner
brunswick
brush
brushy
brussels
bruxelles
bryan
bryant
bryaxis
bryozoa
bryum
brønnøy
bu
bua
bucag
buchanan
bucharest
buck
buckeye
buckhorn
budapest
buena
buenavista
bueng
buenos
buffalo
bug
bugnaw
bugor
bugs
bujumbura
bukhta
bukid
bukit
bukto
bul
bulak
bulan
bulbophyllum
bulgaria
bulgarian
bulgariya
buli
bull
bulletin
bullock
bulu
bulud
bum
bungdo
bungtod
bungtoron
bunker
bunlaon
buntu
buprestidae
buprestides
bur
burg
buri
buriram
burke
burkina
burlington
burma
burmeister
burn
burnay
burnett
burni
burns
burnt
burnu
burr
burro
burton
burundi
buryatiya
busay
bush
bushehr
buskerud
butler
butte
butterfly
buttes
buttu
buyog
buyu
buza
buzzard
by
bygland
bykle
bø
bømlo
c
ca
caballo
caballos
cabec
cabeza
cabin
cabo
cabrera
cache
cachoeira
cacopsylla
cagayan
cai
caire
cairns
cajamarca
cajo
cal
calabarzon
calabria
calais
calamus
calandra
calaveras
caldas
caldwell
caledonia
calera
calf
calhoun
caliente
california
calvario
camaenidae
cambridge
camden
cameron
camp
campana
campania
campanula
campanulaceae
campbell
campeche
campo
camponotus
campos
can
canada
canadian
canal
canary
canberra
candelaria
candida
cane
caney
cannon
canoas
canoe
cantabria
cantera
canterbury
canto
canton
canyon
cao
cap
cape
capensis
capital
capitale
capo
capuli
caqueta
car
carabcat
carabidae
carabidarum
carabobo
carabus
caracas
caracol
caraga
carballo
carbon
carex
caribbean
caribou
carl
carlo
carlos
carlton
carlyle
carmen
carolina
carpelimus
carpenter
carr
carrizal
carrizo
carroll
carson
carter
carvalho
caryophyllaceae
casa
casanare
casas
cascade
case
casent
casey
cass
cassia
cassida
cassidinae
castan
castello
castelo
castiarina
castilho
castilla
castillo
castle
castor
castro
cat
catalina
catalog
catalogue
catalogueoflife
catalogus
catalunya
catamarca
catarina
catenulida
catfish
cathedral
catherine
catron
cattle
cauca
caucasus
cave
caves
cay
cayenne
cayman
cayo
cc
ccw
cd
ce
ceara
cecidomyiidae
cecil
cedar
cedro
ceiba
cemetery
census
centaurea
centennial
center
centipedes
central
centrale
centrali
centre
centro
cerambycidae
ceratopogonidae
cerceris
cercopidae
cercopoidea
cercospora
cerden
ceres
ceropegia
cerrito
cerro
cerros
ces
cesar
cestoda
cetoniidae
ceuthorrhynchus
ceylon
ch
cha
chaabat
chabet
chachoengsao
chaco
chad
chae
chagang
chaha
chai
chain
chaiyaphum
chak
chal
chalcididae
chalcidoidea
chalk
cham
chamberlin
chambers
champion
chan
chance
chandler
chang
changwat
channel
chanthaburi
chao
chaouia
chapel
chapelle
chapman
char
characters
charco
charente
charge
charles
charlotte
chase
chashmah
chatham
chatrou
chaudoir
chaung
chaves
che
check
checklist
checklists
cheilosia
chelan
chelif
chelonus
chelyabinskaya
chen
chena
cheng
cher
cherokee
cherry
cheshire
cheshmeh
chester
chestnut
chevillotte
chevrolat
chhatti
chi
chiang
chiapas
chica
chicago
chicken
chico
chief
chihuahua
chile
chilena
chilensis
chilobase
chilopoda
chimarra
chimney
chin
china
chinensis
chinese
ching
chino
chippewa
chiquito
chira
chiriqui
chironomidae
chironomus
chita
chittagong
chivo
chlaenius
chlef
chloropidae
cho
choco
chon
chong
chongqing
chopard
chorebus
chorro
christian
christmas
christoph
christopher
chrysobothris
chrysomelidae
chrysopidae
chrysosoma
chu
chubut
chukotskiy
chumphon
chungcheongbuk
chungcheongnam
chuquisaca
church
churchill
chute
ci
cicadellidae
cicadidae
cichlidae
cicindela
cicindelinae
cie
ciencias
cif
cigliano
cima
cinco
circle
cirsium
cites
citta
city
ciudad
civico
cixiidae
ck
cken
cl
clackamas
cladocera
claim
claims
clair
clara
clarence
clark
clarke
clarks
classification
clathria
claude
clay
clayton
clear
clearwater
clematis
cleonus
cleveland
cliff
clifford
cliffs
clinton
clitocybe
clivina
cloud
clover
club
clubiona
clutha
cn
co
coahuila
coal
coast
cobb
coccidae
coccoidea
cochabamba
cochise
cochrane
cockerell
cockroach
cocle
coco
coconino
code
coelioxys
coenosia
coffee
coiffait
cojedes
col
cold
cole
coleman
coleophora
coleoptera
coleopterists
coleopterorum
colfax
colima
coll
colle
collected
collection
collections
college
colletes
colletidae
colline
collins
colo
cololejeunea
colombia
colombo
colonia
color
colorada
colorado
columbia
columbus
com
comanche
combinations
common
commune
community
como
comoros
company
comparative
compendium
compilersreviewers
complete
complex
comte
comuna
comune
comunidad
comunitat
con
conakry
concepcio
conchbooks
condado
cone
congo
coniothyrium
connaught
connecticut
conoscenza
conotrachelus
conrad
conseho
conservation
constant
contarinia
contr
contra
contrib
contribution
contributions
contributo
conus
convolvulaceae
cook
cooke
cooks
cool
coon
cooper
coos
copeland
copelatus
copenhagen
copepoda
copepods
copper
copperbelt
coquimbo
cora
coral
corbari
cordeiro
cordillera
cordo
cordon
cordova
coreidae
coreoidea
coreoideasf
cornelis
corner
corona
corral
corregimiento
corrientes
corse
corte
cortinariaceae
cortinarius
corydalis
cossonus
costa
costello
cot
cotoneaster
cotton
cottonwood
cougar
coulee
council
country
county
cours
court
cousinia
cove
cow
cox
coyote
crab
crabronidae
craig
crambidae
cranberry
crane
craneflies
crater
crawford
cre
creek
crematogaster
crescent
cresson
crete
cribb
crickets
crimean
crique
cristo
crni
croix
crook
crooked
crosby
cross
crotalaria
croton
crous
crow
crown
cruces
crustacea
crustaceans
cruz
cryptorhynchus
crystal
cs
csiro
cu
cuanza
cuaro
cuatro
cub
cuba
cuchilla
cuervo
cuesta
cueva
cuevas
culebra
culex
culicidae
culicoides
cumacea
cumberland
cumbre
cundinamarca
cunningham
curculio
curculionidae
curculionoidea
curran
curry
curtis
cusco
custer
custodian
cut
cuvette
cuyuni
cyclocephala
cyperaceae
cyperus
cypress
cyprus
cyrtandra
czech
d
da
dactylispa
dactylogyrus
dade
daeng
daerah
dag
dagat
dagestan
daghagtiil
daghan
dagomkahoy
dagum
dagway
dah
dahr
dai
dakbayan
dake
dako
dakong
dakota
dal
dalama
dalan
dalarna
dale
dalen
dall
dallas
dalmatinska
dalog
dalton
daly
dam
dama
damascus
dame
damu
dan
dana
danau
daneliya
daniel
daniels
danismark
dans
danube
dao
dapawdapaw
dapit
dapita
dar
dara
darah
darfur
dark
darreh
darrehsi
darrel
darussalam
darya
das
dasch
dasht
dasineura
dasychira
dasyhelea
data
database
databases
datos
dauvin
davao
dave
david
davidson
davie
davis
dawhilahila
dawson
day
daykundi
dc
de
dead
deadman
dean
debelo
dec
decapoda
decock
dee
deeann
deem
deep
deer
defla
degli
deh
dei
dejean
dekalb
del
delaware
delgado
delhi
dell
della
dellape
delle
delong
delphacidae
delphinium
delta
dem
demerara
demokratikanhong
demokratiko
den
dendrobium
dengue
denis
denmark
dennis
dent
denton
departamento
department
der
dera
derbidae
dere
deresi
dermanlands
dermaptera
dermateaceae
derstro
des
desa
descamps
described
description
descriptions
descriptive
desert
desiyerto
detailed
detention
deuterostomia
deutsch
deutsche
deux
deuxie
devil
devils
dewalt
dewey
dghi
dha
dhabi
dhaka
dhama
dhi
dhora
di
diablo
diagnoses
diakonoff
diamond
dianthus
diaporthe
diaspididae
dibisyon
dichomeris
dick
dicranomyia
dictionary
didymellaceae
die
diego
diels
digital
diha
dike
dili
dimashq
din
dinamarka
ding
dios
dioscorea
diospyros
diplazium
diplodia
diplopoda
dipterorum
directory
direksyon
distant
distributariyo
distributary
distribution
district
distrikt
distrito
disyembre
ditch
diversion
diversity
divide
divisadero
division
dixie
dixon
diyarbakır
diyutay
djamena
djebel
djelfa
djibouti
djibuti
dkha
dmitriev
dnieper
do
doctor
dodge
dodoma
dodson
doe
dog
dognin
doha
dohrmann
doi
dol
dola
dolichopodidae
dolichopus
dolnos
dolok
dolores
dome
domingo
dominica
dominikanhong
dominikano
don
donald
dong
dongar
dongri
dorado
dorcadion
doro
dorsal
dos
dothideomycetes
douard
double
douglas
doukkala
douro
dov
downey
download
dr
dra
draa
draba
drain
drake
dramselva
drangedal
draw
drew
dripping
drosophila
drosophilidae
druce
dry
dryophthoridae
dryopteridaceae
dryopteris
du
dua
dublin
dubrovac
duchesne
duck
dulce
dunay
duncan
dunn
duolang
durango
durazno
durma
durowan
dusona
dutch
dutdot
dutula
dvina
dworakowska
dyar
dyer
dynastidae
dyrøy
dyscolus
dytiscidae
dzkie
dztwo
dønna
e
ea
eades
eagle
early
earth
east
eastern
eaton
eau
ebro
ech
echinoidea
echo
economic
ectobiidae
ecuador
ed
eda
edad
edaphus
eddy
eden
edgar
edinburgh
edition
editor
edmond
edmund
edoc
eds
eduard
edward
edwards
edwin
eel
eelurikkus
egg
egger
eglise
eh
ehipto
eid
eidskog
eigersund
eight
eilema
eine
einer
ej
ejido
ek
ekonomiko
eksakto
ekwatoryal
el
ela
elachista
elaeocarpus
elaphoglossum
elaphropus
elatostema
elbe
elbow
elder
electronic
elegans
elena
elephant
eleven
eli
elias
elix
elizabeth
elk
elkhorn
elko
elliott
ellis
ellsworth
elm
elmer
elmore
elongata
elongatus
elpt
elsalbador
elvdal
embrik
emerson
emery
emilia
emiliano
emilio
emiradang
emirato
empididae
empire
empis
empoasca
en
encyrtidae
end
enderlein
enero
engel
engerdal
engl
engler
english
eni
enicospilus
enmedio
ensenada
ent
entidad
entiminae
entoloma
entolomataceae
entomol
entomologia
entomologica
entomologicae
entomological
entomologicheskoe
entomologie
entomologique
entomologische
entomologischen
entomologist
entomology
entre
enum
enwiki
eparchi
ephemeroptera
ephydridae
epidendrum
epirus
equatoria
er
era
eragrostis
ergebnisse
eric
erica
ericaceae
erich
erichson
erie
erigeron
eriocaulon
eritreya
ernest
ernst
erse
ersogobina
erysiphe
es
escondida
esenbeck
esi
esklobakiya
esklobeniya
esky
eslobakya
eslobenya
esmeralda
esmeraldas
esnault
espan
espanya
espe
especies
esperanza
espesye
espi
espinosa
essequibo
essex
est
estado
estados
estates
estero
estokolmo
estonia
estoniya
estretso
eswatini
eswiki
et
ete
etela
etiopia
etne
etyopiya
eucalyptus
euconnus
eucosma
eudorylas
eugen
eugenia
eulechria
eulophidae
eumenidae
euphorbia
euphorbiaceae
euphrates
eupithecia
euproctis
eure
eureka
europa
europe
european
eurytoma
eurytomidae
eva
evac
evans
evich
evje
evo
evolution
ex
excluding
exclusive
exocentrus
exoprosopa
expedition
experiment
exploration
extremadura
ey
eyre
eystra
ez
f
fa
fabricius
fada
fagel
fah
fai
fairbanks
fairfield
fairmaire
fairview
falco
falkland
fall
fallax
falls
fam
families
famille
family
fan
fang
fao
far
fara
faranah
farm
farms
faro
fars
farsund
fas
fasc
fasciata
fascicule
fasheng
faso
fauchald
fauna
faune
fauske
faust
fauvel
favret
fayd
fayette
faz
fe
fear
feb
fecture
federal
federally
federation
felder
felipe
felix
female
feng
fenn
fennah
fer
ferdinand
ferguson
fern
ferna
fernando
ferns
ferry
festuca
fi
ficus
field
fieldiana
fields
fig
figs
figure
fiji
fil
fila
file
files
filho
filippinerna
filippo
filo
finland
finlandia
finnmark
fire
first
fis
fischer
fish
fishbase
fisher
fisheries
fishery
fishes
fishinfo
fishing
fissidens
fitzroy
five
fivemile
fja
fjaler
fjell
fjellet
fjord
fjordane
fl
fla
flag
flanders
flat
flatanger
flathead
flatidae
flats
flava
fleas
flekkefjord
fletcher
flickr
flies
flinders
flint
flora
flore
florence
flores
florida
flow
flower
floyd
flying
fo
foho
folia
folldal
fontaine
for
force
forcipomyia
ford
fore
forel
forest
fork
formica
formosa
forst
forster
fort
fosnes
fossen
fossil
foster
foundation
fountain
four
fourmile
fourth
fowler
fox
fr
fra
fraccionamiento
fraile
franc
france
franche
francis
francisco
franconia
frank
franklin
franz
fraser
fre
fred
frederick
fredrik
free
freeman
freetown
freiburg
fremont
french
freshwater
fresno
frey
fri
friedrich
fries
friesland
fritz
friuli
froese
frog
froland
from
fron
frost
frullania
frwiki
fræna
frøya
fu
fuego
fuente
fuerte
fujian
fukuoka
fulgoroidea
fulgoromorpha
full
fuller
fulton
fung
fungal
fungi
fungorum
fur
further
fusa
fusca
fylke
fyord
fyresdal
førde
g
ga
gabon
gabriel
gabrius
gal
gala
galapagos
galeriya
galgen
gali
galicia
galium
gallatin
gallen
gallo
gamay
gambia
gambiya
game
gan
gang
ganges
gangwon
gansu
gao
gap
gar
gara
garapata
garci
garcia
garcinia
gard
gardaneh
garden
gardens
gardner
garet
garfield
garonne
garrett
gart
gas
gasang
gasca
gaston
gastropoda
gastrotricha
gate
gates
gateway
gato
gatos
gattolliat
gattung
gattungen
gaular
gauld
gauldal
gauteng
gavila
gawa
gawas
gay
gaz
gaza
ge
geadephaga
gec
gel
gelderland
gelechiidae
gemeente
gen
gene
genera
general
generic
genova
genre
genres
gentiana
gentianaceae
genus
geobot
geographic
geographical
geometridae
geonames
georg
george
georges
georgetown
georgia
geostiba
ger
gerais
geranium
gerken
germain
german
germplasm
gernsiy
gertsch
ges
gesellschaft
gesneriaceae
get
geyorgya
geyser
gh
gha
ghana
ghar
gharbi
ghazal
ghazni
ghi
gho
ghu
ghund
gi
gia
giang
gibahinbahin
gibson
gielis
gihabogon
gihapon
gihatagan
gihulagway
giiniton
gikan
giklaseklase
gikopiya
gila
gilapdon
gilbert
gildeska
giles
gill
gineang
gingharian
gingsakopan
gini
gintang
gion
giordani
gios
giovanni
girault
gisborne
gitas
gittenberger
giulia
giv
gje
gjemnes
gjen
gjerstad
glacier
glade
glava
glavica
gle
glen
glenea
glise
global
globis
glomma
gloor
gloppen
gloria
glypta
gnaphosidae
go
goat
gobolka
gobyerno
goda
gogae
goia
gol
gola
gold
golden
golesta
goli
golo
gonomyia
gonza
good
goose
gor
gora
gorda
gordo
gordon
gorge
gorochov
gorontalo
gory
got
gottfried
gottlieb
gould
gouvernorat
govaerts
government
governorate
gra
graben
grabowski
gracilis
gracillariidae
grad
gradac
gradina
gradis
graf
grafton
graham
gran
granada
grand
grande
grandis
grane
granite
grant
grapevine
grass
grassy
graubu
grave
gravel
gravenhorst
graveyard
gray
grays
grayson
gre
great
greater
greda
greece
green
greene
greenland
greenlee
greenville
greenwood
gregory
grenada
grenland
gresya
grevillea
grey
griffin
griffiths
grijalva
grimaldi
grimstad
grindstone
grizzly
gro
grong
gros
grosso
ground
group
grouse
grove
großer
gru
grue
grund
gryllidae
gsd
gsds
gu
gua
guadalquivir
guadalupe
guadeloupe
guadiana
guaini
guajira
guam
guanajuato
guangdong
guangxi
guarda
guatemala
guayabo
guayas
guba
gudda
gudde
gue
guelb
guelmim
guene
guerra
guerrero
guez
guide
guides
guila
guilbert
guillaume
guinea
guizhou
gujara
gul
gulch
gulen
gulf
gull
gully
gulpo
gum
gumamela
gun
gunnison
gunong
gunung
gupta
gusenleitner
gustav
gut
gutta
guy
guyana
guyane
gyeonggi
gyeongsangbuk
gyeongsangnam
gyrodactylus
gyrophaena
gøy
h
ha
haas
habagat
habagatan
habagatang
habenaria
hackberry
hackenheim
hadfield
hadjer
hadsel
haematopota
hagborg
hagen
hai
hainan
haiti
hajdu
hak
halden
hale
half
halfway
haliclona
halictidae
hall
halls
halom
halsa
hama
hamada
hamarøy
hamburg
hamilton
hammaren
hammer
hammerfest
hammock
hammond
hamnam
hampshire
hampson
hampton
hamra
hamtong
hamubong
han
hana
hancock
hand
handbook
hang
hanoi
hans
hansen
hansford
hanson
haouz
hapit
hapon
happy
har
hara
haram
harare
harbor
harbour
hardin
harding
hardy
harlan
harmon
harney
harold
harpalus
harper
harris
harrison
harry
harstad
hart
hartford
hartman
hartmann
harvard
harvey
harya
hassler
hastings
hat
hataas
hatch
hattfjelldal
haugen
haut
haute
hautes
hauts
havana
have
haven
hawaii
hawaiian
hawk
hawke
hawkins
hay
hayden
hayes
hayiti
hayop
haystack
hayward
haywood
he
head
heart
heath
hebard
hebei
hebeloma
hed
hedmark
hedwigia
hegy
heia
heide
heights
heilongjiang
heinrich
helen
helena
helichrysum
helina
hell
heller
helmand
helsinki
hemiboreal
hemiptera
hemlock
hemne
hemnes
hen
henan
henderson
hendrik
hendrycks
henero
hennings
henri
henrik
henry
hepaticae
hera
herb
herbert
hercostomus
heritage
herman
hermann
hermel
hermosa
herrera
herzegovina
herøy
hesperiidae
hessen
heteroptera
hexatoma
heyograpiya
hi
hickman
hickory
hicks
hidalgo
hidden
hieracium
higgins
high
highland
highlands
hilabihan
hilara
hill
hills
hillsborough
hima
himalaya
himalayas
hin
hinagdang
hinapones
hine
hiniusang
hinnøya
hippolyte
hirah
hirsuta
hispaniola
hispinae
hist
histeridae
histeroidea
histoire
historic
historical
historico
history
hitra
hl
hlen
ho
hobbs
hoceima
hodh
hoeksema
hoffman
hog
hogback
hohe
hoher
hokkaido
hole
holland
hollow
holly
holme
holmen
holmes
holothuroidea
holstein
holt
holta
holz
hom
home
homestead
homoneura
homoptera
homs
honda
hondo
honduras
honey
hong
honiara
honolulu
honshu
hood
hooge
hook
hooker
hooper
hope
hopkins
hora
horak
hordaland
hordan
hordanya
hormozgan
horn
hornnes
horse
horseshoe
hort
horton
hos
hose
hospital
hosse
host
hot
houaphan
houay
house
houston
howard
howe
howell
hoya
hr
html
http
hu
hua
huai
huambo
huancavelica
huang
hubbard
hubei
huber
huckleberry
hudson
hue
hugh
hughes
hugo
huidu
huila
huizu
hukal
hulagway
hull
hulyo
humboldt
humilis
humphreys
hunan
hung
hungarica
hungarici
hunt
hunter
hunting
hunyo
hupas
hurricane
hustache
hutchinson
huye
hwanghae
hybotidae
hyde
hydraena
hydraenidae
hydrophilidae
hydroptila
hydrozoa
hyelo
hygrocybe
hylaeus
hym
hymenogastraceae
hymenoptera
hymis
hyo
hypericum
hægebostad
høga
høland
høyanger
høylandet
i
ia
ian
ibabaw
ibabwan
ibb
ibestad
ic
ica
ice
ichneumon
ichneumonidae
ichneumonides
ichneumonoidea
icon
id
ida
idaea
idaho
identification
idi
igarape
igir
ignacio
ignatz
igwador
igwadoryal
iho
ii
iii
ija
ika
ikalima
il
ila
ilaga
ilalum
ildis
ile
ilex
ilha
ili
illes
illinois
illizi
illustrated
illustrations
ilocos
im
ima
img
imp
impatiens
imperial
importance
impressum
in
ina
inarabigo
inc
incl
including
ind
independence
index
india
indian
indiana
indica
indicus
indies
indigofera
indio
indiya
indo
indonesia
indonesya
indre
indus
indya
indyan
ine
inebreo
inermis
information
inga
inglatera
ingon
inhambane
ining
ininggles
init
initalyano
inlet
inner
ino
inocybaceae
inocybe
insect
insecta
insectes
insectorum
insects
insekto
inseln
insignis
inst
institut
institute
insufficient
insufficiently
insularis
integrated
intermedia
intermedius
international
introduction
inventory
invertebrate
invertebrates
inyo
ioc
ionian
iowa
ipomoea
ir
ira
irak
iran
iraq
ireland
iridaceae
iris
irish
irkutskaya
irland
iron
irrawaddy
irwin
is
isaac
isabel
isbn
isda
isdangtunay
isfahan
isidro
isip
isl
isla
islamabad
island
islands
islandya
islas
isle
islet
islote
iso
isola
isopod
isopoda
isoptera
israel
issn
issue
istimewa
it
ita
italiana
italya
itarong
itis
ito
itom
its
iucn
iv
ivan
ive
iveland
ix
ixora
iyang
iz
izz
j
ja
jabal
jabali
jack
jacks
jackson
jacob
jacobs
jacobus
jacques
jadi
jae
jah
jahrb
jakarta
jalal
jalisco
jama
jamaica
jamayka
jambi
james
jammu
jan
janakpur
janeiro
japan
japanese
japonica
jar
jara
jard
jari
jasper
jastha
jaume
java
jawa
jawf
jay
jazdzewski
jazi
jbel
je
jean
jeannel
jebel
jeff
jefferson
jeh
jenkins
jensen
jeollabuk
jeollanam
jeram
jero
jersey
jesu
jesus
jewel
jezero
jezioro
jhal
ji
jiang
jiangsu
jiangxi
jiao
jiba
jihoc
jihomoravsky
jilin
jim
jima
jime
jin
jji
jo
joa
joaquin
job
joe
joensuu
johan
johann
johannes
john
johns
johnson
johnston
johor
jones
jonu
jordan
jorge
jos
jose
josef
joseph
josephine
jourbook
journ
journal
joya
jpeg
jpg
jr
ju
jua
juan
juba
jubba
judet
judicial
judith
jujuy
jul
jules
julia
julian
julius
jumping
jun
junction
juncus
juni
junior
juniper
jura
justicia
k
ka
kaayo
kaayong
kaayuhan
kabalayan
kabanay
kabisay
kaboberde
kabu
kabugangan
kabukiran
kabul
kabungtoran
kabupaten
kachin
kada
kadagatan
kadagatang
kaen
kaeo
kafr
kagaangan
kaginharian
kagoshima
kahaboga
kahanay
kahenera
kahutong
kai
kainuu
kairouan
kaiserlich
kaka
kakayuhan
kal
kala
kalabotan
kalapokan
kalapukan
kalasin
kale
kaledoniya
kalendaryong
kali
kalibonan
kalimantan
kaliningradskaya
kaliwatan
kalmar
kam
kama
kamadan
kamar
kambodiya
kamchatka
kamen
kamenka
kamerun
kamingawan
kampala
kamtchatski
kan
kanada
kanal
kanchanaburi
kand
kanda
kandaha
kandao
kanding
kane
kang
kangwo
kanhing
kankan
kano
kansas
kanton
kao
kap
kapanguhaan
kapitaan
kapital
kapos
kapuloan
kapunoang
kapupud
kar
kara
karang
karanovic
karas
karasjok
kareliya
kari
karjala
karl
karlsøy
karna
karny
karon
karoo
karpa
karsch
kas
kasadpan
kasadpang
kasagaran
kasagbotan
kasahistan
kasai
kasalupan
kasarangan
kasarangang
kashmi
kashmir
kassala
kassel
kastilyo
katanga
katar
kategoriya
katherine
kathmandu
kaumahan
kaur
kautokeino
kawa
kawm
kay
kayutaan
kayutaang
ke
kecamatan
kecil
kedah
kef
keith
kelantan
kelly
kelurahan
kemerovskaya
ken
kenai
kennedy
kenneth
kenntnis
kenora
kent
kentucky
kenya
kep
kepulauan
ker
kerala
kerma
kerman
kern
kerr
kerremans
keski
kettle
kevin
kew
key
keys
keystone
kh
kha
khabarovskiy
khad
khai
khali
khallet
kham
khan
khanty
khao
khar
khara
khartoum
khasakstan
khashm
khawr
khe
khel
khi
khiri
khlong
kho
khok
khola
khon
khor
khora
khoue
khrebet
khu
khuan
khulna
khun
khuzestan
khwa
khwar
khyber
ki
kic
kieffer
kiev
kigali
kilometro
kim
kin
kinabasaan
kinabugnawan
kinadak
kinadul
kinahabogang
kinainitan
kinaiyahan
kinaminosang
kinatibuk
kinatsila
kinaugahan
king
kingdom
kings
kingston
kinhason
kini
kinsay
kinshasa
kirby
kirgistan
kirk
kirovskaya
kitching
kivu
kka
kko
kladogram
klamath
klang
klase
klautau
klein
kleine
kleiner
klima
klong
klubben
klyuch
km
knight
knob
knoll
knowledge
known
knox
ko
koc
koch
kodra
kogae
koh
kohgi
kok
kol
kola
koleopterologische
kolombiya
komi
kommun
kommunhuvudort
komoe
komon
komyun
kon
konda
kondado
kong
konggo
kongsvinger
konrad
konrat
konseho
kontinente
kop
kopf
kordesta
kordofan
korea
korean
koreya
koro
kos
kosa
kosobo
kosovo
kostarika
kota
kotidaybor
kou
koudia
koudiat
koudiet
kouilou
kourou
koyukuk
kra
kraatz
krabi
kragerø
krai
kraj
krapp
krasnodarskiy
krasnoyarskiy
kray
kreek
krishna
kristiansand
kritikal
kro
kropf
kroupa
krowasya
krowatiya
krs
krueng
krus
krustaseo
kti
ku
kuala
kuba
kuh
kujalleq
kujawsko
kuk
kul
kula
kulam
kulle
kumamoto
kun
kunhod
kunth
kuntze
kuopio
kur
kura
kurgan
kurganskaya
kuril
kut
kvam
kvinesdal
kvinnherad
kviteseid
kvæfjord
kvænangen
kwadrado
kwakniton
kwanza
kwazulu
ky
kymenlaakso
kyo
kyushu
l
la
laa
labaw
labing
laboulbenia
laboulbeniaceae
labrador
lac
lace
lachesilla
lacio
lacs
lactarius
lady
lae
laem
lafayette
laghouat
lago
lagoa
lagoon
lagos
laguna
lagunas
lah
lahti
lai
lain
laing
laja
lajas
lak
lake
lakes
lalaki
lalawigan
lam
lamar
lamarck
lamb
lambayeque
lambert
lamesa
lamiaceae
lamo
lampang
lamphun
lampung
lampyridae
lan
lana
lanaudie
lanaw
lancaster
land
lander
landing
landkreis
lands
lane
lang
langa
langaw
lange
langer
langgam
langmyra
langub
lanka
lao
laos
laphides
laporte
lappi
lapyahan
lar
lara
larga
largo
larimer
larsen
larvik
las
lasang
lasioglossum
lassen
last
lat
latakia
latein
lateral
lathrobium
lato
latreille
latvia
latwiya
lauraceae
laurel
laurence
laurent
laurentides
lauva
lauxaniidae
lava
lawis
lawrel
lawrence
laya
lc
lcea
ldl
le
lea
leach
lead
leaf
lebanon
lebel
lebesby
lebia
lech
leconte
lecroy
ledge
ledges
lednik
lee
leeward
left
legumes
leh
leiden
leinster
leiodidae
leioproctus
leipzig
leita
lejeunea
lejeuneaceae
lek
leksvik
lemhi
lempa
len
lena
leningrad
leningradskaya
lenvik
leo
leon
leona
leonard
leone
lepanthes
lepidoptera
lepindex
lepiota
leptosphaeria
leptusa
ler
les
leslie
lesotho
lesser
lesund
let
levanger
levee
levi
levu
lewis
lexington
leyte
lez
li
lia
lian
liang
liaoning
lias
liaslight
liasnames
liban
libano
libaong
liberiya
libertad
libertador
liberty
liberya
libreville
libya
lic
lice
lichenized
lick
lie
lierne
life
ligid
liguria
lilla
lille
lillesand
lilongwe
lily
lim
lima
limburg
lime
limestone
limo
limoniidae
limonium
limpopo
lin
lincoln
linda
linden
lindesnes
lindley
lindsey
line
ling
lingin
link
linn
linnaea
linnaeus
linnavuori
linne
linnean
linyphiidae
linzer
lion
lions
liparis
liriomyza
liryo
lisboa
lisbon
lissonota
list
lists
litchfield
lithobius
litla
litle
litsea
little
litwanya
liu
live
living
livingston
livraison
lix
lixus
ljubljana
ll
llano
llave
ller
llet
lloyd
lo
loa
loaf
lobanov
lobelia
lobo
lobos
loch
lock
locust
lode
lodge
loei
loew
log
logan
lohrmann
loi
loir
loire
loko
lom
loma
lomas
lombardia
lombok
london
lone
long
longicornis
longipes
longyearbyen
lookout
loon
lop
lophotrochozoa
lor
lord
lorenz
lorenzo
loresta
loreto
los
lost
lot
lou
lough
louis
louise
louisiana
love
lovell
low
lower
lowry
lselv
lu
luanda
luang
luapula
lubelskie
lubuskie
lucanidae
lucas
luci
lucia
lucien
lucky
ludwig
luek
luer
lugsemburg
lugut
luigi
luis
luku
lumot
lumpur
lumulupyo
luna
lund
lunda
lungsod
luok
lupinus
lupot
lurøy
lusaka
luster
lutzomyia
luuk
luxembourg
luya
luz
luzon
lv
lven
lyal
lyangouzov
lycaenidae
lycophytes
lycosidae
lyetuwanya
lygaeidae
lygaeoidea
lyman
lymantriidae
lynch
lyngdal
lyngen
lynn
lyo
lyon
lyons
lødingen
m
ma
mac
macedonia
macedonian
machi
macho
mackenzie
macleay
macon
macquart
macromitrium
maculata
maculatus
mad
madagascar
madagaskar
madeira
madera
madero
madhya
madhyamanchal
madi
madison
madre
madrid
madutlan
mae
maehr
maenam
mag
magadanskaya
magallanes
magazine
magdalena
magill
magnolia
mah
maha
mai
main
maine
mairie
maja
major
mak
makedoniya
makita
makkah
mal
mala
malacca
maladera
malanje
malasya
malawi
malay
malaya
malaysia
malaysiya
maldibs
male
malheur
mali
malloch
mallophaga
malo
malta
maluku
malvaceae
malyy
mamipero
mammal
mammals
mamos
man
mana
management
managua
mananap
manawatu
mancha
manconi
mandal
manga
mangungutkut
manica
manicaland
manila
manipur
manitoba
mann
manning
manor
mans
mansiyskiy
mantodea
manuel
manuscript
mao
maong
maoy
map
maple
maputo
mar
mara
marais
maranha
marasmius
marble
marche
marcos
marcus
mardin
mare
margaret
marginata
marginellidae
mari
maria
mariana
maricopa
marie
mariehamn
marin
marina
marine
mario
marion
mariposa
maritime
mark
markazi
marker
marlborough
marnardal
marne
marpil
marquesas
marquette
marrakech
marsh
marshall
marso
mart
martha
marti
martin
martinez
martinique
martins
martius
maruwekos
mary
maryland
marys
marz
mas
mascara
masdevallia
masfjorden
mashonaland
masi
maslin
mason
massa
massachusetts
masvingo
mat
mata
matabeleland
matag
matagorda
matang
matanuska
mateo
math
mato
matod
matsumura
matthews
matud
maui
maule
maurice
mauricie
maurisyo
mauritania
max
maxillaria
maximilien
maxwell
may
mayana
maybukobuko
mayen
mayo
mayor
mayotte
maza
mazaruni
mazowieckie
mazur
mazurskie
małopolskie
mc
mcdonald
mcdowell
mcintosh
mckamey
mckenzie
mckinley
mclean
mcmurtry
me
meadow
meadows
mecklenburg
mecyclothorax
medetera
media
medicine
medina
medinilla
medio
mediteraneo
mediteranyo
medvedev
medyo
megachile
megachilidae
megalopinus
megaselia
megha
megye
mehiko
meidla
mekne
mekong
melaleuca
melanoplus
melastomataceae
melbourne
meldal
melhus
melichar
meliola
meliolaceae
mello
melolonthidae
meløy
mem
membracidae
membracoidea
memoirs
memorial
men
mendocino
mendoza
mer
mera
mercer
merely
meridionalis
merr
merrill
merrimack
merrin
mesa
mesochorus
meta
metaphycus
metro
metropolitana
metros
metta
mexican
mexicana
mexico
mexiko
meyer
meyrick
mez
mezquite
mg
mga
mi
miami
mibahad
mica
michael
michel
michigan
michoaca
miconia
microdon
micronesia
mid
middagshaugen
middle
middlesex
midlands
midtre
midway
mie
miguel
mihatag
mikania
mikkeli
milano
mile
miles
milimetro
mill
millard
miller
millibase
millpond
mills
milne
milton
mimaropa
mimosa
min
mina
minahan
minas
mindanao
mindanawng
mindoro
mine
minelli
mineral
mines
minh
minima
mink
minnesota
minor
minsk
mint
minturn
minuta
minutus
miquel
mira
mirabilis
mirador
miranda
miridae
mis
misaki
misc
miscamingue
misery
misiones
mission
mississippi
missouri
mit
mitchell
mites
mitt
mitteilungen
miyagi
miyanmar
mja
mli
mma
mnhn
mo
moc
modesta
modoc
moffat
mogadishu
mogote
moh
mohafazat
mohave
moires
mol
moldabya
molde
moldoba
molecular
molino
mollusc
mollusca
molluscabase
mollusks
molophilus
moluccas
molupyo
mon
monagas
monggoliya
mongolia
mono
monogenea
monogr
monograph
monographie
monographs
monroe
monrovia
mont
montagne
montagnes
montan
montana
montanus
monte
montenegro
monterey
montes
montevideo
montezuma
montgomery
monthly
monticola
montrose
monts
montserrat
monument
moon
moor
moore
moose
mopakigbahin
moquegua
mora
moraceae
moraes
morales
moraza
more
moreira
morelos
moreno
moresby
morgan
mori
morichal
moritz
morne
moro
moroko
morphology
morris
morrison
morro
morton
mosambik
moscow
moselle
moser
moses
mosquito
moss
mosses
most
mosunod
mot
mota
motschulsky
motte
mou
mound
mount
mountain
mountains
mowd
moxico
mozambique
mpumalanga
mr
mt
mta
mtlands
mu
muang
muara
mud
muddy
mueang
mueller
muerto
mug
muh
muhafazat
muir
mukdahan
mula
mule
mun
munawwarah
municipal
municipality
municipio
munisipyo
munster
mura
murag
muraghalas
muragkarpa
muragkigwa
muragwati
murcia
muricidae
muritaniya
muritiyus
murmanskaya
murphy
murray
murrill
mus
muscat
muscidae
muscorum
muse
musei
museo
museu
museum
museums
muslim
my
mya
mycena
mycerinopsis
mycetophila
mycetophilidae
mycol
mycologia
mycomya
mycosphaerella
mycosphaerellaceae
mycotaxon
myeon
myers
mymaridae
myo
myra
myran
myrcia
myrmeleontidae
myrtaceae
mys
møre
n
na
naapil
nabaa
nabati
nabigasyon
nac
nach
nacional
nad
nadi
nag
naga
nagar
nagasaki
nagkahiusang
naglangkob
naglibot
naglukop
nagsugod
nagtikapuo
nah
nahimutang
nahimutangan
nahiubos
nahr
nai
naididae
nairobi
nak
nakhon
nalista
nalukop
nam
namakwa
namdalseid
namdo
name
names
namibe
namibya
nampula
namsos
nan
nana
nang
nangarha
nanggroe
narai
naranjo
narcisse
narin
narita
narmada
narrows
narvik
naryn
nas
nash
nasod
nassau
nasud
nat
natal
natawo
nathaniel
national
nationalis
natl
natural
naturale
naturales
naturalis
nature
naturelle
naturelles
naturels
naturgeschichte
naturhistorischen
nauk
naustdal
nava
navajo
navarra
nawa
nay
naya
nayarit
nberg
nchez
ncia
nd
nda
nde
nden
ndez
ne
nearctic
nebraska
nebria
neck
nectriaceae
ned
nedre
needle
nees
nega
negeri
negra
negro
negros
neh
nehri
nel
nelson
nemertea
nemunas
nenetskiy
nentwig
neotropical
nepal
nephrotoma
nepticulidae
neretvanska
nero
nes
nesa
neset
nesna
ness
nesset
nest
net
netelia
netherlands
neu
neubert
neue
neuer
neuque
neuroptera
neuropterida
neva
nevada
nevado
neville
new
newfoundland
newman
newport
news
newton
nez
ng
nga
ngadto
ngalan
ngan
nghe
ngo
ngsa
ngsali
nh
nherr
nhm
ni
nia
niadtong
niamey
niassa
nica
nicaragua
nice
nicholas
nichols
nicobar
nicola
nicolas
nicolson
nicosia
nidagayday
nidariya
nie
niedero
nieukerken
niger
nigeria
niglichen
nigra
nigyer
nigyeriya
niini
niining
nik
nikarawa
nile
nilsson
nimo
nin
nine
ninemile
ning
ningxia
ninh
nio
niphargus
nipissing
nisi
nissedal
nitida
nixon
niya
nizhegorodskaya
nja
nko
nl
nne
no
nobiyembre
noble
noctuidae
nodc
noe
noi
noire
nok
nolidae
noma
nomada
nome
nomenclature
nomina
nomo
non
noname
nong
nono
noord
nord
nordic
nordland
nordre
nordreisa
nordrhein
norfolk
norge
normal
norman
normandie
norra
norrbotten
norrbottens
norris
norte
north
northeast
northern
northwest
norton
noruwega
norway
norwegian
norðurland
nos
not
note
notes
notodden
notodontidae
nouakchott
noume
nouveaux
nouvelle
nouvelles
nov
nova
novgorodskaya
novi
novitates
novo
novon
novoselova
novosibirskaya
now
noyes
nsha
ntem
nther
ntico
nu
nuaf
nuco
nueces
nueva
nuevas
nuevo
nugini
number
nunatak
nunavut
nuove
nusa
nuuk
nuytsia
nuzeland
nw
ny
nya
nye
nymphalidae
nyo
nyy
nzerekore
nærøy
o
oak
oakland
oaks
oaxaca
ob
obc
obenberger
obero
obispo
oblast
oblysy
obock
obozrenie
obscura
obscurus
obshtina
ocampo
occasional
occidental
occidentalis
occitanie
ocean
ochthebius
ocotea
oct
octocorallia
odal
odda
odden
odisha
odonata
odostomia
oecophoridae
oedichirus
of
off
ofwegen
og
ogooue
ohaus
ohio
ohkka
oil
ois
oise
ojo
ok
okanogan
oklahoma
oknoname
okraniya
okres
okrug
oktubre
ol
ola
olancho
olanda
olandres
olasiman
olat
old
ole
oligochaeta
olive
oliver
olivier
oman
omang
omskaya
on
oncidium
ondoras
one
oneida
ong
online
ontario
onthophagus
onwards
oonopidae
oosterbroek
open
ophiuroidea
opius
oppdal
oppland
ops
opte
or
orange
oras
orbigny
orchard
orchid
orchidaceae
order
orders
ore
oregon
orenburgskaya
org
organised
organisms
organizing
oribatida
oriental
orientale
orientalis
orinoco
orkdal
ormosia
ornata
oro
orobanchaceae
oromiya
orrell
ort
orthoptera
orthotylus
oruro
os
osage
osbekistan
osen
oseyaniya
osh
oskar
oslo
oso
osta
osterøy
ostracoda
ostralya
ostriya
ostrov
osu
oswald
ota
otago
otero
other
others
otiorhynchus
otiorrhynchus
ottawa
otte
otter
otto
ou
oua
ouadi
ouardigha
oue
oued
ouest
ouham
oulad
oum
outaouais
outlet
ouvrard
ov
oval
ovrag
owen
owens
ower
owl
owyhee
owz
oxalis
oxford
oxypoda
oxytropis
oya
oze
ozero
p
pa
pablo
pace
pacific
pacifica
pad
padre
paederinae
paederus
paepalanthus
pag
page
pages
paghimo
pagig
pagka
pagklaro
pago
pagsakop
pagtan
paha
pahang
paingon
pak
pakhtunkhwa
pakistan
pakti
paku
pala
palaearctic
palatinate
palau
palawan
palestine
palestinhon
palestinian
palibot
palicourea
palindi
pallida
palm
palma
palmar
palmas
palmer
palo
palomas
palos
paminta
pampa
pan
panahon
panama
pandanus
pando
pang
pangalan
pangmasang
pangpang
panicum
panther
pao
pap
pape
papeete
paper
papers
papua
par
para
paradise
paradoxosomatidae
paraguay
parai
parana
parasites
parasitic
parasitology
paraway
parc
parco
pardosa
parhost
paris
parish
park
parke
parker
parmeliaceae
parnai
parokya
parque
parry
pars
part
parte
partement
partie
parts
parva
parwa
pas
pasco
pascoe
pashchimanchal
pasipiko
pasir
paso
pass
passage
passalora
passe
passiflora
passo
pasture
pat
pata
patag
patatas
patch
patrick
patrimoines
patterson
patubig
paul
paulo
pauly
paussinae
paxton
pay
paya
payne
pays
paz
pbi
pdf
pe
peak
peaks
pear
pearl
pebrero
pec
peck
pederadong
pederal
pedicularis
pedra
pedro
pee
pegunungan
pelado
pelican
pelikula
pelo
peloponnese
pematang
pen
penev
peng
penh
penicillium
peninsula
pennington
pennsylvania
penobscot
peperomia
pepino
per
perak
perdita
pereval
perkins
perlidae
perm
pernambuco
perrier
perry
pershing
persiyano
persoonia
perth
peru
perugia
pete
peter
peters
petersburg
petersen
peterson
petit
petite
petrak
pez
pfalz
pg
pha
phai
phalangopsidae
phan
phangnga
phanom
phaonia
phasmida
phayao
pheidole
phetchabun
philadelphia
philip
philipp
philippe
philippi
philippine
philippines
phillips
philodendron
philonthus
philopteridae
phitsanulok
phlaeothripidae
phnom
phnum
pho
pholcidae
pholcus
pholiota
phoma
phomopsis
phoridae
phou
phra
phrae
phraya
phu
phyllachora
phyllanthaceae
phyllanthus
phyllonorycter
phyllophaga
phyllosticta
phyllostictaceae
phylogenetic
phylogeny
phylum
phytocoris
phytologia
phytomyza
phytoseiidae
phytoseiidbase
phytotax
phytotaxa
pi
piaui
pic
picacho
pichincha
pickard
picnic
pico
picton
pie
piedra
piedras
piemonte
pieni
pier
pierce
pierre
pieter
pietro
piga
pigeon
pike
pila
pilapil
pilea
pilipinas
piliw
pilot
pima
pin
pinadpad
pinakaduol
pinal
pinang
pinar
pine
pines
piney
ping
pings
pinnacle
pino
pinos
pinto
pinulongang
pioneer
piper
piperaceae
pirkanmaa
piscataquis
pisera
pit
pita
pitcairnia
pitkin
piton
pityophthorus
piura
pixley
piz
pizzo
pl
pla
place
placer
plagiochila
plain
plaine
plains
plan
planina
plant
plantaginaceae
plants
plata
plate
plateau
plates
platnick
platte
platygaster
platypalpus
platypus
playa
playground
plaza
pleasant
plecoptera
plectris
pleospora
pleurothallis
ploc
pls
plum
plumas
pluteus
plymouth
png
po
poa
pocock
podgorica
podkarpackie
podlaskie
poggio
pohjanmaa
pohjois
point
pointe
poison
polder
pole
polinesiya
polis
politischer
polk
polkinghorne
polonya
polskowa
polychaeta
polydrosus
polygala
polynesia
polypedilum
polypodiaceae
polyporaceae
polyrhachis
polystichum
pomerania
pomorskie
pompilidae
pompilus
pond
ponds
pong
ponta
ponte
pool
poore
pope
poplar
popular
populasyon
porcupine
pori
porifera
porma
pormasyon
porsanger
porsgrunn
port
portage
porter
portezuelo
portillo
portland
porto
portugal
portuguesa
porvenir
posisyon
post
pot
potato
potentilla
potok
potomac
potosi
potrero
potter
pottsville
pour
powder
powell
power
powiat
pozo
pp
pr
pra
pradesh
pragae
prague
praia
prairie
pranses
pransiya
pre
prefecture
preliminary
prepektura
presa
preserve
press
preston
pretoria
pri
price
prickley
prieta
prieto
prilep
primorskiy
primula
primulaceae
prinanses
prince
prins
prinsipe
pristimantis
pristina
pro
proc
proceedings
prod
prodr
production
progreso
project
prong
prospect
protaetia
proteaceae
prout
provence
provi
providence
providencia
providing
province
provincia
provincial
provincie
provinsi
prunus
psathyrella
pse
pselaphidae
pseudocercospora
pseudococcidae
pskovskaya
psocidae
psocodea
psocoptera
psychodidae
psychotria
psyl
psyllidae
psylloidea
pt
pterolophia
pteromalidae
pterophoridae
pterophoroidea
pterostichus
pu
pubescens
publ
public
publication
publications
published
publishing
puccinia
pucciniaceae
pucciniales
puebla
pueblo
puente
puerta
puerto
puglia
pul
pula
pulaski
pulau
pulawski
pulchella
pulchra
pulgas
pulo
pulong
pun
punctata
punjab
puno
punta
punto
pur
purtoriko
purwanchal
pushtah
pusilla
puthz
putnam
putumayo
puu
puy
px
pyi
pyongyang
pyralidae
pyramid
pyramidellidae
pyrausta
pyre
pınarı
q
qa
qaa
qaasuitsup
qafa
qal
qala
qalaat
qar
qara
qaraghandy
qarah
qarku
qarn
qas
qat
qazvi
qi
qimmat
qinghai
qo
qolleh
qornet
qu
qua
quarry
quartz
quateur
que
quebrada
quedius
queen
queens
queensland
quelques
quemado
quercus
quere
quindi
quinn
quintana
quito
r
ra
raaseporin
rabat
rabbit
raccoon
radiata
rafael
raffray
ragged
ragoubet
rah
rai
railroad
rainbow
rainer
rainy
rajang
rak
ram
ramawt
rambold
rami
ramo
ramos
ramsey
ramularia
ramus
ran
rana
ranch
rancho
randall
randolph
rang
range
ranunculaceae
ranunculus
rao
rapides
rapids
ras
rast
rat
ratchaburi
ratchasima
ratchathani
rattlesnake
raudal
rauma
rauno
raven
ravin
ravine
rawa
ray
raya
raymond
rayo
rayon
rayong
rayya
raz
rbara
rd
rden
rdenas
rdoba
re
reach
read
real
rebro
recent
rech
rechka
recommended
record
records
recreation
recueillis
red
redonda
redondo
redtenbacher
reed
reeder
reedy
reef
reefs
reeve
reference
refuge
refugio
reg
regierungsbezirk
regio
region
regional
regione
register
regni
reh
rehiyon
rehm
rehn
reichenbach
reichenbachia
reid
rein
reitter
reka
related
relationships
relisted
relizane
remarks
ren
rendalen
rene
rep
repert
report
reports
reptile
reptiles
republic
republika
republikang
res
research
reserbasyon
reservation
reserve
reservoir
resource
resources
respublika
results
ret
reticulata
rev
revetment
review
reviewers
revised
revision
revista
revue
rey
reyes
reykjavi
reynolds
rez
rga
rhabditophora
rhagovelia
rhamphomyia
rheinland
rhin
rhine
rho
rhode
rhodes
rhododendron
rhyacophila
rhynchaenus
rhynchites
rhyparochromidae
rhysodinae
rhytiphora
ri
ria
riacho
riau
rib
ribeira
ribeiro
rica
rice
rich
richard
richards
richardson
richland
richmond
rico
rid
rida
ridge
ridley
rie
right
riley
rim
rin
rinco
rincon
rindal
ringerike
ringuey
rinuso
rio
rioja
ripolyo
ris
risaralda
rissa
risør
rita
rito
rius
river
rivera
riverside
rivie
rivier
riya
riyadh
rka
rmlands
rmnh
rmos
rn
rnaya
rnberg
rnten
ro
road
roan
roanoke
roaring
rob
robert
roberto
roberts
robertson
robinson
robusta
robustus
roc
roca
rocha
roche
rocher
rock
rockhole
rockingham
rocks
rocky
rodeo
rodnik
rodri
rodrigues
rogaland
roger
rogers
rogue
roi
rola
roland
rolf
rom
roma
romagna
roman
romaniya
rome
romero
romsdal
ronald
rondo
rong
roo
roosevelt
roost
roper
roque
roraima
ros
rosa
rosaceae
rosario
rosas
rose
rosebud
rosenberg
roskov
ross
rossi
rostovskaya
roth
rothschild
rotifera
rotifers
rou
rouai
rouge
rough
round
roy
royal
royale
rre
rrego
rri
rs
rshei
rt
rterbuch
rtica
rttemberg
ru
rubiaceae
rubus
ruby
rudolf
rudolph
rufescens
ruggiero
ruisseau
ruiyu
ruiz
rujm
rumanya
run
rundhaugen
rundschau
rus
rush
russell
russia
russian
russula
russulaceae
rusya
rutaceae
rutelidae
ruth
ruvuma
rv
rvi
rwanda
ry
ryan
ryo
ryukyu
ryvarden
rz
rza
rødøy
røros
røyrvik
s
sa
saari
saarija
saba
sabah
sabana
sabine
sabkha
sabwag
sabz
saccardo
sacramento
saddle
safe
saga
sagaing
sagarma
sage
sagolsagol
saguache
saguenay
sah
sahara
sai
saint
sainte
sak
sakha
sakhalin
sakhalinskaya
saki
sakon
sakop
sal
sala
salada
salado
salah
salamanca
salangen
sale
salem
salicaceae
salinas
saline
salix
salmon
salo
salog
salt
salta
saltatoria
saltdal
salticidae
salto
salu
saluran
salvador
salvia
salween
salzburg
sam
sama
samanga
samar
sami
samoa
samowa
sampson
samuel
samut
san
sanaa
sanaag
sanaga
sanborn
sanctuary
sand
sandayong
sande
sanders
sandnes
sando
sandoval
sandy
sane
sang
sanga
sanits
sankt
sant
santa
santan
santana
santander
santee
santiago
santini
santo
santos
sao
saocat
sap
sapindaceae
sar
sara
sarajevo
saratovskaya
sarawak
sarcophaga
sarcophagidae
sardegna
sari
sars
sartori
saskatchewan
sassandra
satakunta
satu
sauce
saucito
saudinhong
saudita
saunders
saurauia
saussure
saussurea
savage
savanna
savannah
savannakhe
save
savo
savoie
savonia
savonlinna
sawa
sawan
sawmill
sawyer
saxifraga
saxony
say
saysay
sbekken
sc
scale
scalenet
scaphisoma
scarabaeidae
scarabs
scelionidae
scha
schaus
schedl
scheerpeltz
schefflera
scher
schickel
schilling
schleswig
schloß
schltr
schmid
schmidt
scho
school
schoolhouse
schoolmeesters
schotte
schuchert
schuh
schultz
schumann
sci
sciaridae
science
sciences
scientific
scientifique
scienze
scleractinia
scoble
scopaeus
scoparia
scopula
scorpion
scotia
scotland
scott
scotts
scrophulariaceae
scutellaria
scydmaenidae
scydmaeniden
scydmaenus
scythris
se
sea
seal
seaplane
seas
sebastia
sebou
seca
seccio
seco
second
section
secunda
sedum
see
seep
sefi
segers
segun
seh
seine
sel
selaginella
selangor
selatan
selbu
selected
selje
seljord
selka
selys
semara
sembilan
seme
semiothisa
semna
sen
senecio
senegal
senja
senjska
senna
sensu
sentral
sentro
sentrong
seoul
sep
sepik
septiyembre
septoria
ser
seral
serbiya
serbya
serejo
serica
serie
series
sermersooq
serra
serrani
server
service
seven
severnaya
sevier
seychelles
sf
sgarh
sh
sha
shaanxi
shabwah
shaft
shah
shama
shan
shandong
shannon
shanxi
sharp
sharqi
shasta
shat
shaw
shaya
shaykh
she
sheep
sheh
shehbaz
shehia
shekasteh
shelby
shell
shells
sheng
shenkar
sheridan
sherman
shet
shi
shikoku
shima
shingle
shire
sho
shoal
shoals
shoma
shooting
shore
short
shoshone
shoy
shoye
shtra
shu
shuiku
si
sia
siak
sibinia
sichuan
sicilia
sida
side
sidi
sidlakan
sidlakang
sidney
sierra
sierwald
sigdal
sigismund
signal
sikkim
sila
silene
silva
silver
silvestri
sima
simbahan
similis
simmons
simon
simonsen
simplex
simpson
simuliidae
simulium
sin
sinai
sinaloa
sinaw
since
sindh
sinensis
singapore
singapur
singer
singgapura
singh
singsing
sinica
sipit
sir
sirdal
siria
sirya
sisi
siskiyou
sistan
sister
sisters
sitaw
site
six
sixmile
siya
siyeprus
sja
sjo
sjælland
sk
ska
skagit
skaret
skaya
skeena
sket
ski
skie
skien
skikda
skiy
skja
skjervøy
sko
skopje
skull
skunk
sky
sla
slate
slawomir
slide
slope
slough
sm
sma
small
smaller
smetana
smith
smithsonian
smyra
smøla
sna
snails
snake
snillfjord
snow
snyder
so
soc
socie
sociedad
societa
societatis
societe
society
socken
socorro
socotra
soda
soest
sofala
sofia
sofla
sogn
sogndal
soika
soil
sokndal
sol
sola
solanaceae
solanum
soldier
soledad
solo
solomon
sols
solund
somalia
somaliya
some
somerset
somme
son
song
songdalen
songkhla
sonoma
sonora
sopka
sordariomycetes
sori
sorkh
sortland
soto
soulier
sound
sous
souss
south
southeast
southern
southland
southwest
souza
sowerby
sp
spain
spanish
sparassidae
spearman
spec
special
specie
species
specimens
spegazzini
spektrum
spelda
spencer
sphenoptera
spi
spiaggia
spider
spiders
spinnen
spinosa
spit
spitsbergen
spitskop
spitze
split
splitsko
sponges
sports
spring
springer
springs
spruce
spur
square
squaw
sra
sri
srpska
ssa
sssr
st
sta
stachys
standard
standley
stanley
staphbase
staphylinidae
staphyliniden
staphylinidenfauna
staphylinides
staphyliniformia
star
stara
stark
starr
state
states
station
statue
status
stavropol
ste
steamboat
stefan
steiermark
steigen
stein
steiner
steinkjer
stelis
stenoma
stenus
stephani
stephen
stephens
sterbottens
stergo
sterling
sternorrlands
sterreich
stettin
stettiner
stevens
stevenson
stewart
stiewe
stigmella
stillwater
stjørdal
sto
stock
stockholm
stockholms
stone
stony
stor
stora
store
storfjellet
storhaugen
storia
storlia
stormyra
str
stra
straight
strait
strand
stranda
stratiomyidae
strawberry
straz
stream
street
strepsiptera
strip
strobilanthes
structure
stryn
stuart
stud
studies
study
stueber
stump
stuttgart
su
sua
sub
suba
subdibisyon
subdistrito
subfamily
subgenus
subi
sublette
subtropikal
suc
sucker
sucre
sud
sudan
sudbury
sudur
suffolk
sugar
sugarloaf
suisse
suji
sukhaya
sukhothai
sul
sulawesi
sulayma
suldal
sullivan
sulog
sulom
sulphur
sulu
sumala
sumatera
sumatra
sumba
summary
summit
sumner
sumpmark
sumusunod
sun
sund
sunda
sung
sungai
sunndal
sunrise
sunset
sunshine
suo
suomi
superfamily
superior
suppl
supplement
supplementa
sur
surat
surinam
surkh
surnadal
surprise
survey
sus
susitna
susquehanna
sussex
sutton
suva
suwesya
suðurland
sv
sva
svalbard
svarta
svartberget
svenska
sverdlovskaya
sverige
sveti
svg
sw
swabia
swain
swakigtuyom
swalla
swamp
swamps
swan
sweden
sweet
sweetwater
swift
swisa
swiss
sycamore
syd
syddanmark
sydney
sydow
sydowia
syeralyone
syll
symb
symplocos
syn
synonymic
synopsis
syrphidae
syst
system
systema
systematic
systematics
systematik
syzygium
szepligeti
søndre
sør
søre
sørfold
søy
sırtı
t
ta
taas
tabanidae
tabanus
tabasco
tabi
table
tachinidae
tachysphex
tacna
tadjikistan
tadla
tafilalet
tagaytay
tagus
tah
tahiti
tahud
tai
tail
tailandya
taipei
taiti
taiwan
tak
taka
take
takht
takiya
tal
tala
talagsaon
talands
talbot
taliwala
tall
tallet
tallinn
tam
tamanrasset
tamarack
tamaulipas
tamil
tampere
tan
tana
tanaidacea
tanan
tandberg
tanete
tang
tangen
tanger
tangi
tangla
taninthayi
tanjong
tanjung
tank
tanom
tanque
tansaniya
tanytarsus
tanzania
tao
taounate
tapah
tappeh
tar
tara
taranaki
tarapaca
taraxacum
tardigrada
tarf
tarija
tarn
taro
tas
tasman
tasmania
tat
taung
tavakilian
tavastland
taw
tawo
taxa
taxapad
taxon
taxonomic
taxonomy
tayikistan
taylor
tayum
taza
tbilisi
te
tea
team
teau
technical
technology
tecolote
tegucigalpa
tegui
teh
tehama
tehra
teil
tel
telaga
telemark
teleostei
tell
teluk
temple
ten
tengah
tenggara
teniet
tenmile
tennessee
tensift
tenuis
tepe
tepesi
tephritidae
tephrosia
ter
terara
terengganu
teresa
tereyn
termitidae
terra
terrace
terre
terrestrial
territories
territory
terry
tervuren
tes
tete
teton
tetramorium
tetranychidae
tetrigidae
tettigoniidae
texas
th
tha
thai
thailand
tham
thammarat
than
thanh
thani
that
thaxter
thayland
the
thecla
their
theodor
theridiidae
theridion
thessaly
thi
thie
third
thirty
tho
thomas
thomisidae
thompson
thomson
thong
thorell
thornton
three
threemile
thripidae
thrips
thripswiki
thu
thumb
thunberg
thunder
thuringia
thurston
thuy
thysanoptera
ti
tiaret
tibba
tibet
tibialis
ticino
tie
tierra
tiger
tigkapulak
tigre
tigris
tigulang
tiilan
tiildawbungot
tiki
tiladtilad
till
tillaberi
tillandsia
timber
timm
timor
timur
tin
tina
tinaja
tinajas
tinakpan
tineidae
tingali
tingidae
tingvoll
tini
tinipong
tinn
tinubdan
tinukod
tip
tipula
tipulidae
tirana
tirol
tis
titan
titicaca
titip
tizi
tjeldsund
tlands
tlaxcala
to
tobago
tobias
tocantins
today
todd
togo
tok
tokke
tokrzyskie
tokyo
tol
toledo
tolga
tolima
tom
toma
tomas
tombouctou
tome
toms
tomskaya
ton
tong
tonga
top
topo
tor
torino
toro
toros
torre
torres
torrey
tortricidae
toscana
tou
touan
tour
tower
town
townes
townsend
township
tr
tra
tracheophyta
trachypachidae
trachys
trail
trans
transactions
transcaucasus
tranøy
trap
trat
tre
treasure
treated
treatise
trechus
tree
trematoda
trentino
trento
tres
tri
triangle
tribal
tribe
tribu
tricholoma
tricholomataceae
trichoptera
trigonidiidae
trinidad
trinity
trioza
tripoli
tristis
trois
troms
tromsø
trondheim
trop
tropical
tropicos
tropikal
trough
trout
trudy
trujillo
trypoxylon
trysil
trøndelag
ts
tsa
tsekya
tsile
tsina
tsipre
tta
tten
tu
tubig
tubiganan
tubu
tubud
tuburan
tucker
tucuma
tude
tudlo
tugpahanan
tuig
tukad
tulare
tule
tumba
tumbes
tumoy
tunas
tundra
tunga
tungang
tungason
tungaw
tunis
tunisia
tunnel
tuolumne
tur
turbellarian
turbellarians
turbonilla
turiault
turkana
turkey
turkeya
turkiya
turkmenistan
turner
turon
turtle
turunmaa
tutzing
tvedestrand
tverra
tverrfjellet
tverskaya
twelve
twenty
twin
two
tychius
tyler
tynset
type
typhlocybinae
typhlodromus
tysfjord
tyskland
tysnes
tysvær
tyumenskaya
tyva
tzler
u
uban
ubang
ubas
ubi
ubon
ubos
ucd
udde
ude
udon
udu
uetz
ufa
ug
uga
ugahon
uganda
uhmann
uhong
ui
ujung
uk
uka
ukab
ukranya
ukranyano
ul
ula
ulaanbaatar
ulan
ulayan
ullensvang
ulo
ulod
ulohan
ulohang
ulster
ulu
um
umbria
umm
umogon
un
una
unang
und
une
unesco
ungariya
unggriya
unicolor
unidos
unio
union
united
univ
universal
university
unpublished
unsa
unter
unterfranken
upanija
update
updated
upper
uppsala
urb
urban
uredo
uri
urmo
uromyces
uropa
urss
urticaceae
uruguay
urugway
uruzga
us
usa
usab
use
user
ushchel
ussr
ut
utah
utara
utlanan
utrecht
uttar
uttaradit
uttarakhand
uul
uusimaa
uva
uwe
uygur
v
va
vaasa
vaca
vacas
vaccinium
vacelet
vader
vaksdal
val
valais
vald
valdez
vale
valea
valenciana
valle
valley
valparai
van
vanua
vanuatu
vanylven
var
varanger
varden
vargas
vari
variabilis
varsinais
vas
vascular
vasil
vaud
vaupe
ve
vefsn
veg
vega
vel
vela
velenovsky
veliidae
velika
veliki
veliko
vella
venado
veneto
venezia
venezuela
vennesla
ventana
ventura
vera
veracruz
veraguas
verbascum
verdal
verde
vereins
verh
verhandlungen
verhoeff
vermont
vernon
verona
veronica
version
vespidae
vespoidea
vest
vestera
vestfirðir
vestfold
vestnes
vestra
vestre
vesturland
vestva
vetenskaps
veterans
vexillum
vi
vicente
vichada
victor
victoria
vieja
viejo
vienna
vientiane
vietnam
view
vii
viii
viitasaari
vik
vikna
vila
villa
village
ville
viloyati
vincent
vindafjord
vinje
viola
violaceae
virgen
virgin
virginia
viridis
vis
visayas
vision
vista
vitebsk
viti
viyetnam
vka
vladimir
vleborgs
vo
voblast
voda
vol
volca
volda
volga
volgogradskaya
volker
vologodskaya
vols
volta
volume
von
vonk
voogd
voor
vorarlberg
voss
voyage
vra
vrch
vre
vrelo
vrh
vri
vrs
vu
vuc
vysoc
w
wa
wadalup
wade
wadi
waduk
wae
wagner
wah
wai
waikato
wala
walay
wald
wales
walker
wall
wallace
wallonia
wallowa
walnut
walog
walsingham
walter
walton
wan
wanatu
wang
wanganui
war
ward
wardak
ware
warm
warmin
warner
warren
warsaw
warwick
wash
washington
washoe
watemala
water
waterfall
waterfowl
waterhole
waterhouse
waters
watershed
watling
watson
wattenwyl
wattle
watts
wayne
wayside
wcsp
we
weaver
web
webb
weber
website
webster
weevil
wei
wein
weir
well
wellington
wells
wen
werner
weser
west
western
westfalen
weston
westwood
wewa
whale
wheeler
whiskey
white
whiteflies
whites
whitney
wi
wide
wie
wielkopolskie
wien
wila
wilaya
wilcox
wild
wildcat
wildhorse
wildlife
wilhelm
wilkinson
will
willem
william
williams
williamson
willis
willow
wilson
windham
windhoek
windsor
windward
windy
wing
winston
winter
wirbellosen
wisconsin
wise
wiss
wissenschaften
with
without
wka
wo
wojewo
wolf
wolfgang
wolo
wong
wood
woodland
woods
worcester
world
worms
wp
wright
wsc
wtaxa
wu
www
wyoming
x
xa
xanthoparmelia
xi
xian
xiang
xico
xii
xinjiang
xu
xv
xylariaceae
xyleborus
xylocopa
xyris
xysticus
y
ya
yah
yai
yala
yama
yamalo
yamoussoukro
yan
yang
yangtze
yani
yao
yaounde
yaqui
yaracuy
yarvi
yat
yavapai
yazd
ye
years
yeh
yellow
yelo
yemen
yen
yenisei
yerevan
yevreyskaya
yi
yibuti
yin
yja
yla
yo
yogyakarta
yong
york
yorkshire
young
ytre
yu
yucata
yugoslavia
yugra
yukon
yunakov
yunit
yunnan
yuta
z
za
zabaykal
zacatecas
zachodniopomorskie
zae
zagreb
zah
zaire
zaki
zambe
zambezi
zambia
zambiya
zamboanga
zamora
zan
zandara
zanja
zanjo
zanzibar
zapata
zapote
zaragoza
zarazaga
zard
zaro
zarucchi
ze
zealand
zeeland
zeh
zeidler
zeitschrift
zeitung
zeller
zelotes
zemmour
zhang
zhao
zhejiang
zhen
zheng
zhou
zhu
zhuangzu
zi
zia
zimbabwe
zinder
zizhiqu
zobodat
zodariidae
zone
zoo
zookeys
zool
zoologi
zoologia
zoologica
zoological
zoologie
zoologiques
zoologisch
zoologische
zoologischen
zoology
zootaxa
zootaxonomica
zu
zuid
zulia
zur
zyras
zzzy
{
|
}
~
¦
ª
«
°
´
º
»
ø
øksnes
ørsta
østfold
østre
øvre
đa
đi
đo
ı
ło
ʻ
̀
́
̂
̃
̄
̆
̇
̈
̉
̊
̋
̌
̛
̣
̦
̧
̨
̱
̲
болото
гора
и
мыс
озеро
остров
،
ا
ب
باد
ة
ت
تل
ج
ح
خ
د
در
دره
ر
رودخانه
ز
س
ش
ع
ق
ك
كوه
ل
م
ن
نهر
ه
و
وادي
ي
َ
ُ
ِ
ّ
ْ
ٓ
ٔ
پ
چ
چشمه
کوه
گ
ی
ە
र
ल
ा
ि
्
া
ா
்
്
ก
ง
ด
น
บ
ภ
ม
ย
ร
ว
ห
อ
ั
า
ิ
ี
ึ
ื
ุ
ู
็
่
้
๊
์
‎
–
—
‘
’
“
”
†
↔
↷
③
④
⑦
⺀
⺄
⺆
⺈
⺊
⺌
⺕
⺝
⺸
⺼
⿰
⿱
⿲
⿳
⿴
⿵
⿶
⿷
⿸
⿹
⿺
⿻
〢
あ
い
う
お
か
き
く
け
こ
さ
し
た
ち
つ
と
な
の
は
ま
み
む
も
や
ょ
ら
り
わ
ん
゙
イ
ウ
オ
カ
キ
ク
コ
サ
シ
ス
タ
ツ
ト
ナ
ノ
ハ
マ
ム
ヤ
ユ
ラ
リ
ワ
ン
ヶ
ー
㇁
㇂
㇄
㇇
㇈
㇉
㇓
㐁
㐄
㐅
㐌
㐫
㐬
㐭
㐮
㐱
㑒
㒵
㒸
㒼
㓁
㓞
㔾
㕛
㕣
㖾
㘝
㚅
㚇
㚔
㚘
㝉
㝡
㝴
㝵
㞋
㞢
㞷
㠩
㠭
㠯
㡀
㡭
㡿
㢲
㢴
㣇
㣺
㥯
㪅
㫄
㫐
㫒
㫺
㬅
㬎
㬥
㬰
㲋
㳄
㷠
㸒
㸚
㸦
㼌
㼲
㽞
㿟
䀠
䂞
䍃
䏍
䒑
䖍
䖒
䖝
䖵
䙴
䚻
䜌
䝿
䡛
䧹
䪞
一
丁
丂
七
丄
丅
丆
万
丈
三
上
下
丌
不
与
丏
丐
丑
专
且
丕
世
丘
丙
业
东
丞
丢
丣
两
严
並
丨
丩
个
丫
丬
中
丮
丰
丱
串
丵
丶
丷
丸
丹
为
主
丽
丿
乀
乂
乃
久
乆
乇
么
义
之
乌
乍
乎
乏
乐
乑
乔
乖
乗
乘
乙
乚
乛
乜
九
乞
也
习
乡
乳
乾
亀
亅
了
亇
予
争
事
二
亍
于
亏
亐
云
互
亓
五
井
亘
亚
亜
亞
亟
亠
亡
亢
交
亥
亦
产
亨
亩
享
京
亭
亮
亯
亰
亲
亳
亶
亷
人
亻
亼
亾
仁
今
介
仌
从
仐
仑
仒
仓
仕
他
付
仝
代
令
以
任
企
伊
伏
伐
休
会
伯
但
位
何
佘
余
作
佥
使
來
侈
侌
侖
侯
侵
便
保
俞
信
修
倉
倍
候
倠
備
僉
僕
儿
兀
允
兂
元
兄
充
兆
兇
先
光
兊
克
兌
免
兑
兒
兓
兔
党
兜
兟
入
全
兩
兪
八
公
六
兮
兰
共
关
兴
兵
其
具
典
兹
兼
冀
冂
冃
冄
内
冈
冉
冊
冋
册
再
冎
冏
冐
冒
冓
冖
冗
冘
军
农
冝
冡
冥
冫
冬
冷
几
凡
凢
凵
凶
凷
凸
凹
出
函
凾
刀
刁
刂
刃
刄
刅
分
切
刍
刑
刕
刖
列
刘
则
初
別
利
别
到
制
刺
則
削
剌
前
剡
剽
劉
力
功
加
劦
助
劫
劳
劵
勃
勇
勉
勒
動
務
勞
勤
勹
勺
勻
勾
勿
匀
匂
包
匆
匈
匊
匋
匍
匕
化
北
匚
匝
匡
匪
匱
匸
匹
区
医
匽
匿
區
十
卂
千
卄
卅
卆
升
午
卉
半
卌
华
卑
卒
卓
单
卖
南
卜
卝
卞
占
卡
卢
卣
卤
卦
卩
卪
卬
卯
印
危
即
却
卵
卷
卸
卻
厂
厃
厄
历
厈
厉
厌
厓
厘
厚
原
厤
厥
厨
厭
厲
厶
厷
厸
去
厼
厽
县
叀
参
參
叅
又
叉
及
友
双
反
叐
发
叒
叔
叕
取
受
叚
叜
叟
口
古
句
另
叩
只
召
可
台
叱
史
右
叵
号
司
叹
吂
各
吅
合
吉
吊
吋
同
名
后
吏
向
吕
君
吝
吞
否
含
启
吳
吴
吹
吾
呂
呆
呈
告
员
呙
周
命
咅
和
咎
咠
咢
咨
咸
咼
哀
品
哉
員
哥
哲
唐
商
啇
問
啚
啬
啻
善
喜
喬
單
喿
嗇
噩
嚴
囊
囗
囘
囙
囚
四
回
囟
因
囧
囬
园
困
囱
囷
固
国
圂
圅
國
圍
圓
土
圡
圣
圥
在
圭
地
圶
场
圼
坐
坑
坒
坚
坝
坪
坴
垂
垔
垚
埀
埋
城
埶
執
基
堂
堅
堆
堇
堯
塔
塘
塞
墨
壘
士
壬
壯
声
壳
壴
壹
壺
壽
夂
处
夅
夆
备
夊
夋
夌
复
夏
夒
夕
外
夗
夘
多
夜
夢
大
夨
天
太
夫
夬
夭
央
失
夲
头
夷
夸
夹
夻
夾
奂
奄
奇
奈
奉
奎
奏
奐
契
奓
奔
奚
奞
奠
奢
奥
奭
女
奴
奻
好
如
妄
妙
妟
妥
妻
妾
姑
委
姜
威
娄
婁
婴
嬰
嬴
子
孑
孔
孕
孖
字
存
孚
孛
孝
孟
季
孤
学
孫
孱
學
宀
宁
宂
它
宅
宇
守
安
宋
完
宏
宓
宗
官
定
宛
宜
宝
客
宣
室
宮
宰
害
家
容
宾
宿
寄
寅
密
富
寒
察
寧
寨
審
寫
寬
寮
寸
对
寺
寻
寽
対
寿
封
尃
射
将
將
專
尉
尊
尋
尌
對
小
少
尒
尓
尔
尖
尗
尚
尞
尢
尣
尤
尧
尨
尭
就
尸
尹
尺
尻
尼
尽
尾
尿
局
居
屈
屋
屎
屏
屑
展
屖
屚
属
屠
屡
屬
屮
屯
屰
山
屵
屾
岁
岂
岑
岗
岛
岡
岩
岭
岳
岸
峯
峰
島
崇
崎
崑
崔
崖
崙
崩
嵬
嶲
巂
巛
川
州
巟
巠
巢
巤
工
左
巧
巨
巩
巫
差
己
已
巳
巴
巷
巸
巽
巾
巿
帀
市
布
希
帚
帛
帝
带
師
席
帶
常
干
平
年
幵
并
幷
幸
幺
幻
幼
幽
幾
广
広
庄
床
库
底
店
庙
庚
府
度
庫
庭
庶
康
庸
廉
廌
廛
廣
廩
廴
延
廷
建
廾
廿
开
弁
弃
弄
弇
弋
式
弓
弔
引
弗
弘
弜
弟
张
弥
弦
弱
張
強
强
彊
彌
彎
彐
彑
当
彔
录
彖
彗
彡
形
彥
彦
彧
彭
彳
役
彼
往
待
律
徒
得
徙
從
復
微
徵
德
心
忄
必
忌
忍
志
忝
忠
忩
快
念
忽
忿
思
怠
急
怱
恆
恒
恩
恭
息
悉
患
悤
悲
悶
惠
惡
惢
愁
愈
意
愛
感
慈
慧
慮
憂
憲
應
戀
戈
戉
戊
戋
戌
戍
戎
成
我
戒
戔
或
戚
戠
戢
截
戲
戶
户
戹
戼
戾
房
所
扁
扇
手
扌
才
打
托
执
承
折
拉
拜
拿
掌
推
提
摩
支
攴
攵
收
攸
改
放
政
敄
敏
敕
敖
敗
敝
敞
敢
散
敦
敫
敬
数
敷
數
斂
文
斉
斊
斗
斤
斥
斩
斬
斯
新
方
於
施
斿
旁
旋
族
无
旡
既
旣
日
旦
旧
旨
早
旬
旱
旲
时
旾
昆
昇
昌
昍
明
昏
易
昔
昗
昜
星
春
昬
是
昱
昴
昷
時
晃
晋
晏
普
景
晶
智
暑
暴
曇
曩
曰
曲
曳
更
曷
書
曹
曼
曾
替
最
朁
會
月
有
朋
服
朔
朕
朗
望
朝
木
朩
未
末
本
札
朮
术
朱
朵
朶
朿
杀
杏
村
杜
束
条
来
杨
東
杲
杳
松
析
林
枚
果
枝
枲
枼
某
柔
查
柬
柰
柴
栗
格
桀
桑
桥
桼
梁
條
梟
梨
棘
棠
棥
森
楚
業
楽
榮
樂
樊
欠
次
欣
欮
欲
欶
欽
款
歆
歇
歛
止
正
此
步
武
歨
歪
歮
歯
歰
歲
歴
歷
歸
歹
歺
死
殳
段
殷
殸
殹
殺
殻
殿
毋
毌
母
每
毒
比
毕
毚
毛
毳
氏
氐
民
气
氣
水
氵
氶
氷
永
氺
氾
求
汝
汞
江
沃
沓
沙
沝
沟
沢
河
泉
法
波
泣
泥
泰
洛
洪
洲
活
派
流
浦
浪
浮
海
淡
淮
清
渚
渠
港
湖
湯
湾
源
溪
滿
漸
火
灬
灭
灰
灵
灷
炅
炎
炏
炗
炙
炭
為
烈
烏
烝
焉
無
焦
焱
然
煞
熊
熏
燕
營
燮
爪
爫
爭
爯
爰
爱
爲
爵
父
爻
爽
爾
爿
片
牙
牚
牛
牜
牟
牢
牧
牪
牽
犀
犬
犭
犮
狂
狄
狊
独
狺
猋
猒
猪
献
獻
玄
率
玉
王
玟
玨
珎
班
琴
瑟
瑩
瓜
瓦
甘
甚
生
産
用
甫
甬
田
由
甲
申
电
甶
男
甸
甹
町
画
甾
畀
界
畏
畐
留
畜
畟
畢
畧
畨
番
畫
異
畱
當
畺
畾
疊
疋
疌
疑
疒
疾
癶
癸
癹
登
發
白
百
皀
皃
的
皆
皇
皋
皐
皕
皮
皷
皿
盃
盆
盇
盈
益
盍
盎
监
盒
盖
盛
盡
監
盤
盧
目
直
相
盾
省
眇
眉
看
眔
眞
真
眷
眼
眾
着
睘
睪
睿
瞏
瞢
瞿
矍
矛
矞
矢
矣
知
矦
短
石
破
碎
磊
磨
示
礻
礼
祟
票
祭
禀
禁
福
禸
禹
禺
离
禽
禾
禿
秀
秃
秉
秋
科
秝
秦
移
稟
穀
穌
穴
究
穹
空
穿
突
窄
窒
立
竒
竜
竝
竟
章
童
竹
笑
笠
筆
等
答
箕
算
箴
節
篤
篭
米
粉
粛
粟
粤
粦
粲
糞
糸
糹
系
約
納
素
索
紫
累
細
絜
絫
絲
維
綿
縣
繇
纍
纟
红
缶
网
罒
罔
罕
罗
罙
罡
罢
罪
署
罷
羅
羊
羌
羍
美
羔
羕
羗
羞
羡
羣
群
義
羲
羸
羽
翁
翏
習
翕
翟
翠
翼
老
耂
考
者
耆
而
耎
耑
耒
耳
耴
耶
耷
聂
聊
聖
聚
聶
聿
肀
肃
肅
肉
肖
肙
肥
肩
肯
育
肴
胃
背
胡
胥
能
脊
脩
膚
臣
臤
臧
自
臬
臭
臯
臱
至
致
臺
臼
臽
臾
臿
舀
舂
舄
與
興
舉
舌
舍
舛
舜
舞
舟
般
艮
良
色
艸
艹
艾
芒
芔
芬
芮
花
芳
芺
芻
苏
苔
苗
苟
若
苦
英
茶
茸
荅
草
荒
荣
荼
莆
莧
莫
莽
菆
菊
菐
華
营
萬
落
葉
著
葛
董
葵
蒙
蒦
蒼
蓋
蓬
蓺
蔑
蔡
蕉
蕭
薄
薛
薦
薰
藍
藏
藥
蘭
虍
虎
虐
虒
虔
處
虖
虗
虘
虚
虛
虜
虞
虫
虽
蚤
蚩
蜀
蜜
蟲
蠡
血
行
衍
街
衛
衣
衤
表
衮
衰
袁
袞
褭
褱
襄
襾
西
覀
要
覃
見
規
覓
覧
親
覽
见
角
解
言
訁
訇
計
詹
語
誩
諸
讠
谷
豆
豈
豊
豐
豕
豖
豙
象
豦
豩
豪
豸
貇
貝
貞
貟
負
貢
貧
貪
貫
責
貳
貴
買
費
賁
資
賈
賏
賓
賔
賛
賞
賢
賣
質
賴
贊
贝
贡
责
贯
贲
贵
赖
赞
赤
赦
走
越
足
路
蹇
身
躬
車
軍
軎
軟
輦
车
辛
辜
辟
辥
辰
辱
農
辵
辶
边
达
过
近
连
迷
追
退
送
逆
逐
通
速
造
逢
連
逮
進
遀
遂
過
道
達
遣
適
遷
遺
邊
邑
邕
那
邦
邪
郎
郡
部
郭
都
鄉
酉
酋
配
酓
釆
采
里
重
野
量
金
釒
錢
钅
镇
長
镸
长
門
閃
閉
開
閏
閑
閒
間
閔
閵
閻
闌
门
间
闷
阑
阜
阝
阳
阿
降
陳
隆
隊
隋
隡
隨
隱
隶
隹
隺
隻
隼
隽
难
雀
雁
集
雈
雋
雍
雐
雔
雙
雚
雜
雝
離
難
雨
雩
雪
雲
零
雷
需
霍
霜
霝
霞
霸
靈
靑
青
非
靡
面
靣
革
韋
韦
韭
韯
韱
音
頁
頃
項
須
頗
頡
頻
顛
页
風
风
飛
飞
食
飠
養
饣
首
香
馬
馮
駦
马
骨
高
髟
鬥
鬯
鬲
鬼
魚
魯
鮮
鱼
鲁
鳥
鳳
鸟
鹵
鹿
麃
麗
麥
麦
麻
黃
黄
黍
黎
黑
黒
黨
黹
黽
黾
鼎
鼓
鼠
鼻
齊
齋
齐
齒
齿
龍
龙
龜
龟
龠
龰
龱
龴
龵
龶
龷
龸
龹
者
艹
？
𠀁
𠀃
𠀆
𠀉
𠀎
𠀐
𠁁
𠁣
𠂆
𠂇
𠂈
𠂉
𠂊
𠂋
𠂎
𠂒
𠂔
𠂛
𠂡
𠂢
𠂤
𠂬
𠂭
𠂹
𠃊
𠃋
𠃌
𠃍
𠃎
𠃑
𠃓
𠃔
𠃜
𠄌
𠄎
𠄠
𠄢
𠆢
𠆥
𠇍
𠈌
𠌵
𠓜
𠔉
𠔥
𠔼
𠔽
𠔿
𠕀
𠕁
𠕋
𠘧
𠘨
𠙻
𠙼
𠚏
𠚒
𠚤
𠚪
𠣏
𠤎
𠤕
𠥓
𠦄
𠦑
𠦝
𠧒
𠧗
𠧪
𠩺
𠪚
𠫓
𠫔
𠫤
𠬛
𠬝
𠬞
𠬢
𠬤
𠬶
𠮛
𠮦
𠮷
𠯑
𠱠
𠳮
𠷎
𡈼
𡉀
𡉵
𡌥
𡍮
𡏳
𡕒
𡕩
𡕰
𡖅
𡗗
𡗜
𡘆
𡘤
𡧱
𡨄
𡩧
𡬠
𡭽
𡰣
𡰥
𡰪
𡰯
𡰱
𡷈
𡸁
𡿨
𡿩
𡿪
𡿺
𢀖
𢀛
𢀩
𢁙
𢆉
𢆰
𢆶
𢇁
𢇇
𢉖
𢌬
𢌿
𢏚
𢑑
𢑚
𢖻
𢙣
𢛳
𢦏
𢦒
𢧵
𢼄
𢾕
𣁋
𣄼
𣅀
𣅽
𣍘
𣎳
𣎵
𣏋
𣏼
𣗥
𣥂
𣥖
𣦵
𣦼
𣧄
𣪊
𣪠
𣬉
𣳾
𣶒
𤇾
𤊽
𤐫
𤓰
𤔔
𤕨
𤣩
𤰇
𤰔
𤰞
𤴓
𤴔
𤽄
𥁑
𥁕
𥃦
𥃩
𥃭
𥇡
𥑟
𥘅
𥘈
𥝢
𥫗
𥱡
𦈢
𦉪
𦉬
𦉼
𦍌
𦍒
𦎧
𦐇
𦓔
𦔮
𦘒
𦙃
𦚏
𦣝
𦣞
𦣻
𦥑
𦥔
𦥯
𦨉
𦭝
𦰩
𧆞
𧈧
𧘇
𧰨
𧴪
𧴮
𧵩
𧾷
𨸏
𨾴
𩙿
𩠐
𩫏
𩵋
𪉷
𪜀
𪟽
𪠲
𪩲
𫇦
𫔭
𫜸
𫝀
𫠣
𫠩
𫢉
𫥞
𫩏
𫩠
𫪡
𫲽
𫶧
𬀷
𬐘
𬗌
𬙙
𬛸
𬜯
𬟩
𬯁
𬴘
𬺻
𬼉
𬼖
𭀰
𭁈
𭁨
𭅰
𭑈
𭕄
𭗼
𭤨
𭥫
𭻾
𮅕
𮊿
𮍌
𮍏
𮓗
𮥼
𮧮
廾
𰀁
𰀄
𰀈
𰀉
𰀕
𰀠
𰀡
𰀢
𰀪
𰁜
𰃮
𰆊
𰆘
𰋙
𰕎
𰢴
𰧭
𰯲
00--
01--
02--
03--
05--
07--
08--
09--
34--
35--
36--
37--
38--
39--
40--
41--
a--
aa--
ab--
aba--
aber--
abys--
ac--
acant--
acantho--
achi--
acon--
acro--
acum--
acut--
ad--
adel--
adi--
ae--
aero--
af--
afr--
ag--
aga--
agari--
agh--
agon--
agri--
agro--
agros--
agu--
agui--
agy--
ah--
ai--
aigu--
air--
aj--
ak--
al--
ala--
albi--
albo--
ale--
alek--
ali--
all--
alle--
allo--
alme--
alo--
alt--
alta--
alter--
aly--
am--
ama--
amau--
ambly--
ame--
ami--
amo--
amp--
amphi--
ampl--
an--
ana--
ancy--
ancyroce--
and--
ane--
ang--
angus--
angusti--
ani--
aniso--
ann--
ano--
ant--
anti--
antil--
any--
ao--
ap--
apa--
apha--
aphe--
aphro--
api--
apl--
apo--
app--
appendic--
apt--
aq--
aqa--
aqu--
ar--
ara--
arach--
arachno--
arbei--
arc--
archi--
are--
argen--
argy--
argyro--
ari--
arm--
arn--
art--
arte--
arti--
aru--
as--
asa--
ash--
aspi--
aster--
at--
ath--
atkin--
ato--
atra--
atri--
aty--
au--
auri--
aus--
aust--
av--
ave--
aw--
axi--
ay--
az--
b--
ba--
bab--
bac--
back--
bad--
bag--
bah--
bai--
bak--
baken--
bal--
bam--
ban--
bar--
bary--
bas--
base--
bat--
batra--
bau--
bay--
baz--
be--
bear--
beau--
bec--
bed--
bei--
bel--
bem--
ben--
ber--
berg--
bes--
bet--
bez--
bha--
bi--
bick--
bie--
big--
bil--
bin--
bir--
bis--
bit--
bjø--
bjør--
bjørke--
bjørn--
bl--
bla--
black--
blan--
blat--
ble--
blo--
blue--
bo--
bob--
bog--
bol--
boli--
bom--
bomby--
bon--
boo--
boqu--
bor--
bos--
bot--
bou--
bougain--
bow--
boz--
br--
bra--
brachy--
brad--
brah--
brand--
brat--
bratt--
bre--
breid--
bren--
brenn--
brevi--
bri--
bris--
bro--
bron--
broo--
bru--
bry--
bryo--
bu--
buch--
bud--
bug--
buk--
bul--
bull--
bun--
bur--
bus--
but--
by--
bø--
c--
ca--
cad--
cae--
cai--
cal--
cali--
calli--
calo--
calva--
caly--
calypt--
cam--
came--
camp--
can--
cap--
car--
cara--
carol--
casc--
cast--
cat--
cau--
cay--
cc--
ce--
cel--
cele--
cen--
cepha--
cer--
cera--
cerat--
cerato--
cerithi--
ch--
cha--
chan--
chau--
che--
cheira--
chi--
chil--
chiqu--
chlor--
chloro--
cho--
chris--
christ--
chry--
chryso--
chu--
chy--
ci--
cica--
cie--
cin--
cinc--
cine--
cir--
cis--
ck--
cl--
cla--
clado--
claus--
clavi--
cle--
cler--
clif--
clo--
clus--
cly--
co--
cocc--
cocco--
coch--
cock--
coel--
coelo--
coelos--
cof--
cog--
coim--
col--
cole--
colpo--
colum--
com--
comme--
comp--
con--
coni--
coo--
cope--
copro--
copto--
cor--
cord--
corn--
coro--
corpo--
cors--
cort--
cory--
cos--
cosm--
cot--
cou--
coun--
cow--
cra--
cras--
craspe--
crassi--
crat--
cre--
cri--
cris--
cro--
cru--
crv--
cry--
crypt--
crypto--
cten--
cteno--
cu--
cucu--
cul--
cum--
cur--
curt--
curvi--
cuspi--
cut--
cy--
cycl--
cyclo--
cypho--
cyrto--
d--
da--
dab--
dacty--
dag--
dah--
dahl--
dal--
dam--
dan--
daph--
dar--
das--
dasy--
day--
de--
dead--
dec--
deci--
del--
dem--
demos--
den--
dendr--
dendro--
der--
des--
deu--
dha--
dho--
di--
dia--
diag--
diapho--
dias--
diat--
dic--
dicho--
dictyo--
didy--
die--
dif--
dig--
digi--
dimor--
din--
dino--
dio--
dipl--
diplo--
diplos--
dipt--
dis--
disc--
disco--
disp--
dist--
dje--
dju--
djup--
do--
dog--
dol--
dolic--
dom--
domin--
don--
dong--
dor--
dord--
dory--
dou--
dow--
dr--
dra--
dre--
drepan--
dres--
dro--
dros--
dry--
du--
dud--
dum--
dun--
dur--
dy--
dys--
dz--
e--
ea--
east--
ec--
ech--
echino--
eck--
ed--
edge--
ef--
eh--
ei--
eic--
eich--
eid--
ein--
eini--
eis--
ek--
el--
ela--
ele--
elec--
eleo--
eli--
ely--
em--
en--
encar--
enci--
ency--
end--
endo--
ent--
enter--
ento--
epi--
er--
era--
ere--
eri--
ery--
eryth--
es--
esco--
escu--
est--
estu--
et--
eu--
euce--
euch--
eug--
eulim--
eum--
eun--
eupel--
euplec--
eury--
eus--
eut--
ev--
eva--
eve--
ever--
evi--
ex--
exi--
exo--
ey--
ez--
f--
fa--
fager--
fair--
fal--
fam--
fan--
far--
fau--
fe--
fed--
fel--
fen--
fer--
ferre--
fest--
fi--
fif--
fil--
fili--
fimbr--
fin--
finn--
fir--
fis--
fit--
fitz--
fjell--
fl--
fla--
flat--
flavi--
flavo--
fle--
flo--
flor--
fo--
fol--
fon--
for--
fos--
foss--
fove--
fr--
fra--
fre--
fri--
fu--
fugle--
ful--
fulv--
fur--
furu--
fusci--
g--
ga--
gad--
gag--
gal--
galer--
gam--
gamma--
gan--
gar--
gas--
gau--
gaus--
gaz--
ge--
geis--
geit--
gel--
gem--
gen--
geo--
ger--
gh--
gha--
gi--
gia--
gib--
gif--
gigan--
gil--
gjes--
gjø--
gla--
glad--
gladi--
glau--
glen--
glo--
glom--
glu--
glypto--
gme--
gno--
go--
god--
gol--
gold--
gom--
gomp--
gon--
gong--
gonio--
gono--
gor--
gos--
got--
gou--
gra--
graci--
gran--
grandi--
gras--
gre--
green--
gri--
grif--
grin--
gris--
grise--
gro--
gru--
gry--
gryll--
grø--
grøn--
grønl--
gu--
gua--
guaya--
gue--
gui--
guil--
gul--
gum--
gun--
gur--
guz--
gy--
gym--
gymno--
h--
ha--
habr--
hacie--
had--
hae--
hag--
haga--
hai--
hak--
hal--
hali--
ham--
han--
hand--
hapl--
haplo--
har--
hard--
hart--
has--
hat--
hau--
haug--
hauk--
haus--
haw--
hay--
he--
hed--
heg--
hei--
heim--
hel--
helic--
helio--
helv--
hem--
hemi--
hen--
henne--
her--
hern--
hes--
hesp--
hest--
heste--
heter--
hetero--
hewi--
hexa--
hey--
hi--
hib--
hibi--
high--
higue--
hil--
hin--
hipp--
hippo--
hirs--
hirt--
hl--
ho--
hoch--
hod--
hof--
hog--
hol--
holm--
holot--
hom--
hon--
hopl--
hoplo--
hor--
hos--
hot--
hou--
hov--
how--
hr--
hu--
hua--
huan--
huay--
hue--
hul--
hum--
hund--
hut--
hy--
hya--
hyaloscy--
hybo--
hydr--
hydro--
hydrob--
hydropsy--
hygro--
hyll--
hymen--
hymeno--
hyp--
hyper--
hypo--
hø--
høg--
høge--
høy--
i--
ia--
ic--
ice--
ich--
id--
ig--
igle--
il--
ili--
illu--
im--
ima--
imp--
in--
ina--
inc--
incon--
ind--
inde--
indo--
infi--
ing--
ino--
inter--
iphi--
ir--
is--
isch--
ischno--
ishi--
iso--
it--
ita--
iv--
iwa--
ix--
ixo--
iz--
j--
ja--
jal--
jam--
jan--
japo--
jar--
jau--
je--
jen--
jer--
jerus--
jes--
ji--
jin--
jo--
jou--
ju--
jul--
jum--
jun--
k--
ka--
kabar--
kaf--
kai--
kal--
kalv--
kam--
kan--
kap--
kar--
kara--
kas--
kat--
kau--
kay--
ke--
keb--
kel--
kem--
ken--
ker--
keyser--
kh--
kha--
khe--
khi--
kho--
khu--
ki--
kil--
kill--
kim--
kin--
kir--
kirch--
kirk--
kirs--
kit--
kje--
kjerring--
kjø--
kla--
kle--
kleiv--
kli--
klo--
klu--
kna--
kni--
knu--
ko--
kob--
koh--
kok--
kol--
kom--
kon--
koo--
kop--
kor--
kors--
kos--
kot--
kou--
koz--
kra--
kre--
kreuz--
kri--
krin--
kristian--
kro--
krok--
kru--
krug--
kry--
ku--
kuh--
kuk--
kul--
kum--
kun--
kur--
kut--
kval--
kve--
kvern--
kvi--
kvit--
kwa--
ky--
kı--
l--
la--
lac--
lach--
lad--
lae--
lag--
lagun--
lah--
lak--
lake--
lam--
lamel--
lan--
lance--
lang--
lange--
lao--
lap--
lapp--
lar--
las--
lat--
lati--
lau--
lauv--
law--
le--
lea--
lee--
lef--
leg--
leh--
lei--
leio--
leir--
lek--
lem--
len--
leo--
lepi--
lepido--
lepidos--
lept--
lepto--
leptoce--
ler--
les--
let--
leu--
leuc--
leucan--
leuco--
ley--
li--
lia--
lib--
lic--
lie--
lig--
lille--
lim--
limno--
lin--
lind--
lio--
liolae--
lip--
lis--
lit--
litho--
litl--
litle--
lju--
ll--
lo--
lob--
lock--
log--
loh--
lok--
lom--
lon--
lone--
long--
longi--
loo--
lop--
lopho--
lor--
los--
lou--
low--
lu--
lud--
lum--
lun--
luo--
lv--
ly--
lyci--
lyco--
lyng--
lø--
m--
ma--
mac--
macro--
mad--
mae--
mag--
mah--
mai--
maj--
mak--
makedon--
mal--
mala--
malpi--
mam--
man--
mang--
map--
maq--
mar--
mara--
margi--
mars--
mas--
mat--
mata--
mau--
max--
maxim--
may--
maz--
mbo--
mc--
me--
med--
medi--
mega--
mei--
mel--
melan--
melano--
meli--
mell--
melo--
mem--
men--
mer--
mes--
meso--
met--
meta--
mete--
meu--
mey--
mez--
mg--
mi--
mic--
micran--
micro--
microgas--
micros--
mid--
midt--
mie--
mik--
mil--
mili--
mim--
min--
mir--
mis--
miscel--
mit--
mittel--
mix--
mo--
moh--
mojo--
mol--
mom--
mon--
mono--
mont--
monte--
mor--
mord--
morpho--
mot--
mou--
moul--
mr--
mt--
mu--
mud--
mug--
muh--
mul--
multi--
mun--
mur--
mus--
mut--
my--
myco--
myo--
myr--
myrme--
myrs--
mys--
n--
na--
nag--
nai--
nak--
nam--
nams--
nan--
nar--
nas--
nat--
natur--
naturwissen--
nau--
naus--
nd--
ne--
neb--
nec--
nel--
neo--
neob--
neos--
nes--
net--
neu--
new--
ng--
nga--
ngo--
ngu--
nh--
ni--
nia--
nie--
niel--
nig--
nigri--
nigro--
nik--
nim--
niti--
nizh--
nl--
no--
nom--
non--
nor--
nord--
not--
notho--
noto--
nou--
now--
nu--
nudi--
ny--
nya--
nym--
o--
oak--
ob--
ober--
obli--
obtu--
occ--
och--
oct--
octo--
ocu--
od--
odo--
odon--
odonto--
oen--
off--
og--
oh--
oji--
ok--
oka--
ol--
ola--
old--
ole--
oli--
oligo--
oliv--
olo--
om--
ompha--
on--
one--
oni--
op--
opa--
ophi--
ophio--
opi--
opo--
opol--
opp--
or--
ore--
oreo--
ori--
oro--
ort--
ortho--
orthot--
os--
osh--
oso--
ospe--
ot--
ota--
oter--
ou--
oua--
out--
ov--
over--
ow--
ox--
oxy--
oxyo--
oy--
p--
pa--
pach--
pachy--
pad--
pag--
pak--
pal--
pali--
pall--
palu--
pam--
pan--
pang--
pap--
papil--
par--
para--
paro--
parvi--
pas--
pat--
pau--
paus--
pav--
pave--
paw--
pe--
pec--
ped--
pedi--
pedre--
pego--
pel--
pem--
pen--
per--
pere--
peri--
peris--
pesc--
pet--
petr--
ph--
pha--
phaeno--
phaeo--
phaeos--
phanero--
phe--
phi--
philo--
philodro--
philop--
phleg--
phloeo--
pho--
phr--
phry--
phy--
phyll--
phyllo--
phyto--
pi--
pic--
pie--
pig--
pil--
pili--
pils--
pim--
pin--
pio--
pir--
pis--
pit--
pitts--
pl--
pla--
plan--
plat--
platy--
ple--
plec--
pleu--
pleuro--
plo--
po--
pod--
podo--
poe--
poeci--
pol--
poli--
poll--
poly--
polydes--
polygo--
polypo--
pom--
pon--
popi--
por--
porphy--
pos--
pot--
pou--
pp--
pr--
pra--
pre--
pri--
pro--
proto--
psam--
pse--
pseu--
pseuda--
pseudo--
pseudos--
psi--
psy--
pt--
pter--
ptero--
pto--
ptycho--
pu--
puke--
pul--
pun--
punc--
puncti--
pur--
pusi--
put--
py--
pycn--
pyg--
pyr--
q--
qa--
qer--
qez--
qi--
qing--
qo--
qu--
qua--
quadr--
quadri--
que--
qui--
quin--
r--
ra--
rab--
race--
rad--
radi--
raf--
rag--
rah--
rai--
rak--
ram--
ran--
ras--
rat--
rau--
raud--
rav--
raw--
ray--
raz--
rd--
re--
rec--
red--
reg--
reh--
rein--
rem--
ren--
rep--
res--
ret--
retic--
rev--
rha--
rham--
rhaphido--
rhe--
rhi--
rhizo--
rho--
rhodo--
rhy--
rhyn--
rhyncho--
rhytis--
ri--
rib--
ricc--
rie--
rim--
rin--
ring--
rio--
ris--
risso--
rit--
rivu--
rn--
ro--
rob--
rock--
rod--
roe--
rog--
roh--
ron--
ronde--
rooi--
ros--
rose--
rot--
rotu--
rou--
row--
rs--
rt--
ru--
rubr--
rud--
rufi--
rufo--
rugo--
rum--
run--
rund--
rus--
rut--
ruther--
rv--
ry--
rz--
rø--
rød--
røy--
s--
sa--
sacc--
saccharomyce--
saf--
sag--
sah--
sai--
sak--
sal--
salt--
sam--
san--
sand--
sandvik--
sap--
sar--
sara--
sas--
sat--
sau--
saw--
say--
sc--
sca--
scab--
scapto--
sch--
schi--
schizo--
schlech--
schne--
schr--
schu--
schwarz--
sci--
sclero--
sco--
scol--
scor--
scutel--
scy--
se--
sea--
secu--
sed--
see--
sei--
sel--
sem--
semi--
sen--
sencken--
sep--
ser--
ses--
set--
seter--
seto--
seve--
sex--
sey--
sf--
sh--
sha--
she--
shel--
sher--
shi--
sho--
shu--
si--
sia--
sibi--
sie--
sig--
sil--
sim--
sin--
sino--
sipa--
sipho--
sir--
sit--
sjø--
sk--
ska--
skar--
skard--
skarv--
skav--
ski--
skje--
skjell--
sko--
skog--
skred--
sky--
sla--
sle--
slet--
slett--
sli--
sm--
smic--
smy--
sni--
sno--
snow--
snø--
so--
sol--
som--
sombre--
son--
sor--
sord--
sos--
sou--
sp--
spar--
sper--
spha--
sphaer--
sphaero--
sphaeroce--
sphe--
spi--
spini--
spo--
sporo--
squ--
squa--
sred--
st--
sta--
stam--
stan--
staphy--
stau--
ste--
stein--
stell--
sten--
steno--
ster--
steyer--
sti--
stic--
stig--
stil--
still--
stin--
sto--
stor--
store--
str--
stri--
stro--
stu--
stur--
sty--
styli--
stø--
støl--
su--
sua--
sub--
sud--
sug--
sul--
sum--
summer--
sun--
sur--
sus--
sv--
sva--
svart--
sw--
swart--
sy--
sylv--
sym--
syn--
synony--
sz--
sze--
sæ--
sæter--
sør--
t--
ta--
tachy--
tafel--
tag--
tah--
tai--
tak--
tal--
tam--
tan--
tape--
tar--
tas--
tat--
tatar--
tau--
tay--
te--
tea--
tec--
tel--
tele--
tem--
ten--
tenui--
teo--
ter--
tere--
tes--
tetra--
tetrag--
teu--
tex--
th--
tha--
the--
thi--
tho--
thu--
thy--
ti--
tid--
tie--
tier--
tig--
tijd--
til--
tim--
tin--
tip--
tis--
tit--
tjørn--
to--
tok--
tol--
tom--
ton--
too--
top--
tor--
torv--
tory--
tou--
toxo--
tr--
tra--
trachy--
tre--
tri--
tricho--
trigo--
trin--
tro--
trog--
troll--
tru--
trun--
try--
trypho--
ts--
tsa--
tshi--
tsu--
tt--
tu--
tubercu--
tum--
tun--
tung--
tur--
tusc--
tve--
tverr--
ty--
tøm--
tømmer--
u--
uday--
ug--
ui--
uin--
uk--
ul--
um--
umat--
un--
unci--
und--
under--
ung--
uni--
univer--
up--
ur--
ura--
urd--
uro--
urs--
uru--
us--
ut--
uva--
uway--
v--
va--
vaal--
val--
vale--
van--
var--
vard--
vas--
vass--
vat--
ve--
vel--
ven--
venu--
ver--
verbe--
verkh--
vermi--
verru--
vers--
vert--
vervo--
ves--
vet--
vi--
vie--
vig--
vik--
vil--
vill--
villa--
vin--
vind--
vir--
vis--
vit--
vo--
vol--
vra--
vu--
vul--
vyso--
w--
wa--
wad--
wai--
wal--
wan--
war--
was--
wash--
wat--
watu--
we--
wed--
wei--
wein--
wel--
wen--
west--
wet--
whe--
whi--
whit--
white--
wi--
wie--
wig--
wil--
wild--
win--
wind--
wissen--
wit--
wo--
wol--
wollas--
wood--
wor--
wu--
wy--
x--
xa--
xan--
xantho--
xen--
xeno--
xi--
xiao--
xin--
xu--
xv--
xy--
y--
ya--
yam--
yan--
yar--
ye--
yer--
yi--
yo--
yt--
ytter--
yu--
yun--
yuzh--
z--
za--
zam--
zan--
zar--
ze--
zem--
zhi--
zhu--
zi--
zie--
zimmer--
zo--
zon--
zoo--
zor--
zov--
zu--
zy--
zyga--
ð--
ø--
ørn--
øy--
đ--
ı--
ł--
ا--
ال--
ب--
ت--
ج--
خ--
د--
ر--
ز--
س--
ش--
ع--
ق--
ل--
م--
ن--
پ--
چ--
گ--
คลอ--
ว--
วย--
อ--
า--
--0
--1
--2
--3
--4
--5
--6
--7
--8
--9
--a
--aa
--aan
--aari
--ab
--ac
--aca
--aceae
--ach
--acio
--ack
--aco
--ad
--ada
--ade
--adensis
--adero
--ado
--ae
--aea
--aei
--aeus
--ag
--aga
--age
--ago
--ague
--ah
--aha
--ahan
--ai
--ais
--aja
--ak
--aka
--aki
--ako
--al
--ala
--ald
--aldo
--ale
--alen
--alis
--alo
--am
--ama
--amba
--amo
--ampton
--an
--ana
--and
--ane
--aneh
--ang
--ango
--ani
--ann
--ano
--ans
--anum
--anus
--anza
--ao
--ap
--apa
--apo
--aq
--ar
--ara
--ard
--aren
--ari
--aria
--aris
--arius
--aro
--aroo
--arpa
--ary
--as
--ase
--asi
--aspis
--aste
--at
--ata
--atay
--ate
--ates
--ati
--ation
--ato
--ator
--atum
--atus
--au
--aud
--augen
--ava
--ave
--aw
--awa
--ax
--ay
--aya
--ayo
--az
--aza
--b
--ba
--back
--bal
--bb
--bba
--bbs
--be
--berg
--bes
--bi
--bia
--bis
--bius
--bl
--ble
--bo
--boro
--breen
--bs
--bu
--buda
--burg
--bury
--bus
--by
--c
--ca
--cae
--cas
--cata
--cco
--ccus
--ce
--cea
--ceae
--cee
--celis
--cella
--cens
--centrus
--ceps
--cer
--cera
--ceus
--cey
--ch
--cha
--che
--chi
--chia
--chne
--cht
--chus
--chya
--chys
--ci
--cia
--cial
--cias
--cidae
--cina
--cio
--cis
--cito
--cium
--ck
--cke
--cki
--cks
--cky
--co
--cocha
--cock
--cola
--cornis
--cos
--cs
--ct
--cta
--ctus
--ctylus
--cu
--cua
--cula
--culus
--cum
--cus
--cy
--cybe
--d
--da
--dab
--dactylus
--dae
--dai
--dal
--dale
--dan
--dd
--dden
--ddy
--de
--dea
--den
--der
--derma
--dero
--des
--det
--dge
--di
--dia
--didae
--dido
--dii
--dis
--dium
--dius
--dj
--dl
--dle
--do
--dom
--don
--dor
--dora
--dorf
--dou
--dra
--dre
--dria
--dron
--drum
--ds
--dt
--du
--duk
--dula
--dum
--dus
--dy
--dz
--døy
--e
--ea
--eae
--ean
--eana
--eau
--eb
--ec
--eca
--eck
--ecta
--ectus
--ed
--eda
--edo
--ee
--een
--eg
--ega
--eh
--ei
--eia
--eiro
--ejo
--ek
--el
--ela
--ele
--elia
--ell
--ella
--elle
--elli
--ellidae
--ello
--ellus
--elo
--els
--elus
--elva
--em
--ema
--emia
--emic
--emus
--emyr
--en
--ena
--ene
--enes
--eneset
--eng
--enga
--eni
--enia
--ennis
--eno
--ens
--ense
--ensis
--ental
--enus
--eo
--eon
--ep
--ephalus
--er
--era
--eras
--ere
--eri
--eria
--eriaceae
--eris
--ern
--ero
--eros
--ers
--ert
--erus
--ery
--es
--esa
--escens
--ese
--eset
--ess
--et
--eta
--eti
--etia
--etis
--eto
--eton
--ets
--ett
--etta
--ette
--ettia
--etto
--etus
--eu
--eum
--eur
--eura
--eus
--eux
--ev
--ew
--ex
--ey
--eys
--ez
--f
--fa
--fe
--feld
--fer
--ff
--ffe
--fi
--fia
--field
--fo
--foot
--ft
--ftliche
--fu
--g
--ga
--gai
--gan
--gata
--ge
--gei
--gen
--ger
--get
--gg
--gga
--ggi
--ggs
--gh
--gi
--gia
--gical
--gidae
--gii
--gilis
--gin
--gio
--gis
--gma
--gn
--gna
--gne
--go
--goa
--gon
--gona
--gos
--gou
--gr
--gs
--gte
--gton
--gu
--gua
--gui
--gus
--gy
--h
--ha
--haan
--haceae
--hal
--ham
--han
--hard
--hashi
--haug
--hausen
--he
--hea
--head
--hei
--heia
--heim
--hel
--hen
--her
--hes
--hi
--hia
--hidae
--hidium
--hila
--hilus
--his
--hka
--hli
--hn
--ho
--hoe
--holm
--hon
--hopper
--hoppers
--horn
--hova
--hra
--hrift
--hrips
--hrium
--hrum
--hrus
--ht
--hte
--hu
--hua
--hum
--hurst
--hus
--hwa
--hy
--hys
--høgda
--i
--ia
--iaceae
--iae
--ial
--ialis
--iam
--ian
--iana
--ianum
--ianus
--iard
--ias
--iata
--iatus
--ib
--iba
--ic
--ica
--icae
--ical
--ice
--iceps
--ich
--iche
--ici
--ick
--ico
--icola
--icollis
--icornis
--icta
--iculata
--icum
--icus
--id
--ida
--idaceae
--idae
--ide
--idea
--iden
--ides
--idge
--ididae
--idium
--ido
--idus
--ie
--ied
--iella
--ien
--iens
--iensis
--ier
--ieri
--iers
--ies
--if
--ig
--iga
--igh
--igma
--igne
--igo
--ii
--iidae
--iinae
--ik
--ike
--iki
--iko
--il
--ila
--ill
--illa
--ille
--illo
--ilus
--im
--ima
--imen
--imo
--imus
--in
--ina
--inae
--ine
--ines
--ing
--inger
--ings
--ington
--ini
--inia
--inidae
--ino
--ins
--inson
--inum
--inus
--io
--ioides
--iola
--ion
--ions
--iopsis
--ior
--iosa
--ip
--ipa
--ipennis
--ipes
--ir
--ira
--ire
--iri
--iro
--irus
--is
--isa
--ische
--ischen
--iscus
--ise
--ish
--isi
--issa
--ist
--ista
--it
--ita
--itas
--ite
--ites
--iti
--itla
--ito
--itos
--itt
--itung
--itus
--ity
--itz
--iu
--ium
--ius
--iva
--ivi
--ix
--iy
--iya
--iz
--iza
--j
--ja
--jac
--jak
--jas
--je
--jeunea
--ji
--jia
--jo
--joki
--ju
--k
--ka
--kag
--kan
--kaya
--ke
--kee
--kel
--ken
--kes
--ket
--kh
--kha
--ki
--kia
--kii
--kivi
--kiy
--kloof
--knuten
--ko
--kollen
--kop
--kov
--ks
--ku
--ky
--l
--la
--lan
--land
--lax
--lay
--lco
--ld
--lda
--lde
--le
--lea
--lei
--lem
--len
--lepis
--ler
--les
--let
--ley
--lg
--li
--lia
--lidae
--lids
--lie
--light
--lii
--lik
--lin
--lina
--lio
--lis
--lk
--lka
--ll
--lla
--llas
--lle
--llen
--lli
--llia
--llidae
--llis
--llo
--llon
--llos
--lls
--llus
--lly
--lm
--lma
--lmen
--lmus
--ln
--lo
--lon
--loo
--lp
--lpa
--lph
--lpus
--ls
--lt
--lta
--lty
--lu
--lui
--lum
--lung
--luoto
--lus
--lva
--ly
--lya
--lyn
--lz
--lı
--m
--ma
--maa
--man
--mann
--mans
--mar
--mb
--mba
--mbe
--mbi
--mbia
--mbo
--mbu
--me
--mea
--mel
--mella
--men
--ment
--mes
--mi
--mia
--midae
--mile
--minus
--mis
--mium
--mm
--mma
--mna
--mo
--moen
--mon
--mont
--morpha
--mp
--mpa
--ms
--mu
--mum
--mus
--my
--myces
--myia
--myr
--myra
--n
--na
--naceae
--nae
--nal
--nan
--nar
--naya
--nc
--nca
--nce
--nd
--nda
--ndi
--ndo
--ndon
--ndra
--ndt
--ndus
--ndy
--ne
--nea
--nean
--nee
--nei
--nen
--nensis
--ner
--nera
--nes
--ney
--ng
--nga
--nge
--ngen
--ngi
--ngo
--ngs
--ngu
--nha
--ni
--nia
--niaceae
--nicus
--nidae
--niella
--nii
--nillo
--ninus
--nis
--nischen
--nium
--nius
--niy
--nj
--nje
--nji
--nk
--nka
--nke
--nn
--nna
--nnen
--no
--nock
--non
--nong
--nopsis
--nor
--noye
--ns
--nse
--nsis
--nske
--nt
--nta
--nte
--nthus
--nti
--nto
--ntris
--nu
--num
--nus
--nuten
--ny
--nyx
--nyy
--nz
--nza
--nzo
--o
--oa
--oaivi
--oba
--obius
--oc
--occus
--ocera
--ocerus
--och
--ock
--ocybe
--od
--oda
--odes
--odia
--ods
--ody
--oe
--oemia
--oen
--oensis
--of
--og
--oga
--ogi
--ogica
--ogo
--ogy
--oh
--oi
--oidea
--oides
--oir
--oit
--ok
--oka
--oko
--ol
--ola
--oli
--olia
--ollis
--olo
--olor
--olus
--om
--oma
--omb
--ombe
--ombo
--ome
--omella
--omia
--omus
--omyces
--omyia
--on
--ona
--ond
--one
--ong
--oni
--onia
--onidae
--onius
--ons
--ont
--onus
--onyx
--oo
--ood
--oon
--oosa
--op
--opa
--ope
--ophila
--ophilus
--ophus
--ophylla
--ophyllum
--ophytum
--opidae
--opoda
--opodidae
--opogon
--ops
--opsis
--opus
--or
--ora
--ord
--orf
--ori
--oria
--orn
--ornia
--ornis
--orpa
--orpha
--ors
--orum
--orus
--os
--osa
--oso
--ospora
--oss
--osus
--ot
--ota
--ote
--oth
--otia
--oto
--otus
--ou
--oud
--ough
--our
--ous
--out
--ov
--ova
--ovac
--over
--ovi
--ovic
--ovich
--ovitsch
--ovka
--ovo
--ow
--ows
--ox
--oy
--oye
--oyi
--oz
--p
--pa
--palum
--pan
--pe
--pen
--pes
--pf
--ph
--phes
--phia
--phila
--philus
--phis
--phium
--phora
--phus
--phylla
--phyllum
--pi
--pia
--pidae
--pilus
--pis
--ple
--po
--pod
--poda
--pogon
--pon
--pora
--port
--pp
--ppa
--ppe
--ppen
--ps
--psis
--pta
--ptera
--pteris
--pterus
--pton
--ptus
--pu
--pum
--pur
--pus
--py
--q
--qa
--qi
--qiao
--que
--qui
--r
--ra
--raceae
--rae
--ral
--ran
--rax
--rc
--rca
--rd
--rda
--rdet
--rdi
--rdo
--rds
--re
--rea
--rei
--reis
--rejo
--rel
--rella
--rema
--ren
--res
--rey
--rf
--rg
--rhynchus
--ri
--ria
--riaceae
--riae
--riana
--ricia
--rii
--riidae
--rilla
--rina
--rio
--ris
--rit
--rium
--rix
--rk
--rks
--rl
--rley
--rly
--rm
--rma
--rn
--rna
--rnal
--rne
--rnis
--rno
--ro
--roa
--ron
--rona
--ropsis
--ros
--rote
--rous
--rov
--row
--rpa
--rpe
--rphus
--rr
--rra
--rro
--rry
--rs
--rsa
--rst
--rsus
--rt
--rta
--rte
--rth
--rty
--ru
--rua
--rum
--rura
--rus
--rva
--ry
--rygidae
--rys
--rysa
--ryx
--s
--sa
--sae
--san
--sar
--sburg
--sca
--scens
--sch
--sche
--sco
--scus
--sdorf
--se
--see
--selva
--sema
--sen
--ses
--set
--sey
--sh
--sha
--shaugen
--sheia
--shi
--ship
--shire
--shk
--shøgda
--si
--sia
--sica
--side
--sii
--sina
--sion
--sis
--sit
--sium
--sius
--sjo
--sjøen
--sk
--ska
--skardet
--ski
--skjeret
--skoye
--sky
--sla
--sley
--sli
--slia
--sma
--smus
--smyr
--so
--soma
--son
--sops
--sos
--spa
--sphaeria
--spis
--spora
--sporium
--ss
--ssa
--sse
--ssi
--sson
--st
--sta
--ster
--stes
--sti
--stichus
--stis
--stone
--stus
--su
--sum
--sus
--sville
--sy
--syk
--syon
--sı
--t
--ta
--taceae
--tae
--tail
--tal
--talis
--tan
--tas
--tau
--te
--ted
--teen
--ten
--ter
--tera
--tes
--tet
--tettix
--teus
--th
--tha
--thera
--thes
--thus
--thy
--ti
--tia
--tian
--tic
--tica
--ticus
--tidae
--tii
--tiko
--til
--tilis
--tima
--tinden
--tion
--tis
--tium
--tius
--tix
--tja
--tl
--tla
--tle
--tma
--tn
--tnet
--to
--tomum
--tomyia
--ton
--tone
--top
--topus
--tor
--tos
--totrichum
--town
--tr
--tra
--tris
--tro
--trum
--try
--ts
--tsch
--tt
--tta
--tte
--tti
--ttia
--ttix
--tto
--tty
--tu
--tua
--tula
--tulus
--tum
--tung
--tus
--tuva
--ty
--tylis
--tylus
--tys
--tz
--u
--ua
--ual
--uan
--uata
--ub
--uba
--uc
--uca
--uco
--ud
--uda
--udo
--ue
--uel
--uensis
--uer
--uf
--ug
--ugan
--ugane
--ugen
--uh
--ui
--uik
--uin
--uj
--uji
--uk
--ul
--ula
--ulata
--ule
--uli
--ulia
--ulidae
--ulis
--ulosa
--ulus
--um
--uma
--umba
--ume
--umna
--un
--una
--ung
--unga
--uni
--uno
--uo
--uoto
--up
--ur
--ura
--ure
--uro
--uru
--urus
--us
--usa
--usia
--uss
--usta
--ut
--uta
--uten
--utu
--ux
--uy
--uz
--v
--va
--vac
--var
--vation
--vatn
--vatnet
--vaya
--vda
--ve
--vec
--ven
--ver
--vers
--verse
--vert
--ves
--vescens
--vet
--vi
--via
--vic
--vica
--vicornis
--vier
--view
--ville
--vin
--vipes
--vo
--vs
--vu
--vue
--vula
--vulus
--vus
--vy
--vyy
--vær
--w
--wa
--way
--wd
--we
--wer
--wi
--wia
--wich
--wick
--win
--wini
--wl
--wn
--wns
--wo
--wood
--worth
--wr
--ws
--x
--xa
--xi
--xia
--xis
--xylum
--y
--ya
--yab
--yak
--yan
--yard
--ybia
--yceps
--yche
--yd
--ye
--yella
--yer
--yi
--yia
--yk
--ykh
--yl
--yle
--ylla
--ylus
--yma
--yn
--yna
--yne
--yns
--yo
--yoc
--yon
--ypus
--yr
--yra
--yrium
--ys
--yt
--ytus
--yu
--yuan
--yx
--yy
--yza
--z
--za
--zai
--zal
--zar
--zas
--ze
--zel
--zen
--zer
--zh
--zi
--zii
--zo
--zon
--zu
--zy
--zz
--zzo
--ß
--ø
--øy
--øya
--øyna
--ı
--łe
--и
--к
--на
--ца
--ا
--ان
--ب
--ة
--ت
--د
--ر
--ز
--ل
--م
--ن
--ه
--و
--ي
--ک
--گ
--ی
--ง
--น
