"
#
##0
##1
##10
##11
##12
##13
##14
##15
##16
##17
##18
##19
##2
##20
##21
##22
##23
##24
##25
##26
##27
##28
##29
##3
##30
##31
##32
##33
##34
##35
##36
##37
##38
##39
##4
##40
##41
##42
##43
##44
##45
##46
##47
##48
##49
##5
##50
##51
##52
##53
##54
##55
##56
##57
##58
##59
##6
##60
##61
##62
##63
##64
##65
##66
##67
##68
##69
##7
##70
##71
##72
##73
##74
##75
##76
##77
##78
##79
##8
##80
##81
##82
##83
##84
##85
##86
##87
##88
##89
##9
##90
##91
##92
##93
##94
##95
##96
##97
##98
##99
$
%
&
'
(
)
*
+
,
-
.
/
0
00
000
01
02
05
06
07
08
1
10
100
103
104
11
114
116
117
12
120
13
14
1400
15
150
155
1573
1592
16
1642
17
1774
1788
18
1814
1825
1855
1856
1859
186
1873
189
19
1916
1924
1929
1937
1939
1940
1942
1945
1946
1948
1950
1951
1954
1958
1960
1962
1966
1967
1971
1972
1974
1975
1979
1980
1982
1983
1984
1985
1986
1987
1988
1989
1990
1991
1992
1993
1994
1995
1996
1997
1998
1999
2
20
200
2000
2001
2002
2003
2004
2005
2006
2007
2008
2009
2010
2011
2012
2013
2014
2015
2016
2017
2018
2019
2020
2021
2022
21
22
220
23
235
24
240
25
250
253
255
256
26
260
261
265
27
270
278
28
280
284
29
296
297
299
3
30
300
302
306
307
309
31
319
32
33
330
332
333
337
34
347
348
35
350
355
36
38
4
40
400
407
44
45
452
47
49
5
50
500
52
522
55
58
586
6
69
7
72
8
800
864
9
900
:
;
=
>
?
^
_
a
aa
aafta
aajentiina
aarkitekchur
aarmanya
aarmanyan
aart
abaut
abdomen
abdominal
abdominopelvic
abel
abkasiya
abkasiyan
aborijinal
about
above
act
activist
adamstoen
adoelf
adriana
adventist
advokaiits
adwis
aeyaport
aeyaports
afganistaan
afor
afreka
africa
afrika
afrikaans
afta
against
agoe
aguila
ai
ailen
ailens
air
airea
airiland
airlines
airport
aiyen
akordin
aksepted
akseptiid
akshun
akt
akter
akters
aktress
al
ala
alaska
algeria
alice
alien
alis
all
alla
almos
alofa
alofi
also
alt
among
an
anamal
anamals
anastacia
anatomy
and
andalusia
andargamn
andem
angola
angry
anii
animism
ankara
anshunt
antarktida
antartica
anterus
anthem
antigua
ap
appeal
april
apya
ar
arab
arabia
aragon
araun
archive
archived
are
area
argyuu
arkipelago
arm
armistice
arroyo
artists
arzni
as
asya
at
atafu
atend
athens
atol
attak
auckland
august
auramaik
australia
avril
aw
awarua
awtoo
axilla
azov
azərbaycan
b
ba
baabakyuu
baawltik
back
bad
baffe
bahaamas
bai
bak
baku
ban
band
bangladash
bank
barain
barbados
barbuda
barcelona
barn
based
basiid
baueri
baunti
bay
be
beijing
beisd
belerus
beles
belgrade
beljum
ben
benin
benz
beograd
berds
berlin
bermuda
bern
best
bet
bi
bidy
big
biges
bii
biikam
biikaus
biikom
biin
biiolojii
biirth
biitwiin
bild
bilding
bildings
biliwe
bin
binh
births
bisau
bislama
bitwiin
blaadi
blessed
blomberg
bloody
bo
bobrov
bodii
bodiiguard
boet
bolivarian
boliwya
bora
bordas
border
born
bosnya
bosom
botenii
both
botswana
bounty
bout
bra
bradley
branch
bras
breast
breed
bresel
breselya
breselyan
bridge
bridj
briist
briists
brij
brijes
brisbin
british
brussels
bruunii
budapest
budism
buffett
bulgeriya
bullet
burkina
burns
burundi
but
buttocks
buuk
buuks
buuten
by
c
caesar
cairo
call
can
canberra
cantonese
cape
capparis
carly
cast
castiil
castillo
category
cause
causes
cavities
cavity
ce
cek
cenchurii
census
center
central
centurii
century
certain
cha
channel
charles
chatham
chayng
cheboksary
cheek
chekya
cherch
ches
chi
chief
childe
chilean
chili
chin
china
chinandega
chris
church
citii
citiis
city
co
coast
collection
colleen
colombia
colonii
columbia
com
come
common
concepcio
consonant
consonants
cook
corazo
cordoba
cordobas
corpo
cos
cosmopolitan
costa
count
countess
country
cranial
cup
curitiba
cusco
cyprus
d
da
daa
daarwin
daffy
daily
dakaa
dame
dan
danish
dapendincii
dapendinciis
dat
daughter
david
day
de
deaths
defe
definishun
defrent
deir
del
dem
demokratik
dems
den
denmark
dental
der
des
desend
desert
det
deth
detroiit
dey
deya
diakritiks
dialects
dictionary
dieh
difrent
dis
disemba
diskriminayshun
distinkt
distrikt
division
do
doich
doichland
dola
domestik
dominika
dominikan
don
donald
done
donetsk
dong
dor
dos
dream
du
dublin
duch
ducie
duet
duque
dur
durin
dutch
duu
e
ear
earl
earlii
economist
ed
edaptedi
edelaid
efe
efta
eften
eist
ejiipt
ekonomii
eksampel
eksampels
eksept
ekstirnal
ekwador
ekwatoryal
el
elbanya
elbanyan
elbow
element
elisabeth
elohim
elsa
em
emiraets
emma
empaaye
empaye
empire
emportan
en
encyclopedia
end
endapendint
endemic
endependent
endonesya
endora
endya
enetomii
enfluens
english
eni
enkluud
ensiiklopedya
entanashunal
enternashunal
equus
eraak
eraan
erab
erabek
erabia
erth
es
esa
eserbeyjan
eserbeyjani
esn
esrail
est
establish
establishment
estimatid
estonya
estonyan
estronoma
eswotiini
et
etem
ethiopia
ethique
etlantic
etlantida
etnik
ets
events
evrest
ewent
ewery
extinct
eye
f
faaro
faaroyean
fabia
face
facto
familii
family
fas
faso
faund
febyuweri
federal
fedrel
felapiins
feminism
feminist
fern
ferus
feshn
feshnabl
festewaal
few
fico
fifth
figur
figure
fiijii
fiil
fiimale
fijian
fijians
file
film
final
finland
first
fisiks
flag
flags
flat
fletcha
fliits
flindaas
floe
flor
flora
flore
flores
flowa
flowas
foeklor
follow
followin
folluu
fonemes
fonemic
fonetikl
fonseca
foor
foot
for
forearm
form
formelii
formerli
found
fram
frameless
franc
france
frans
french
frii
frip
from
frum
frunt
funafuti
futuna
g
galerii
galilei
galileo
gallerii
galore
gat
gave
gawanment
gawarment
geiim
geiims
genda
geographical
gerhard
get
getting
gidley
gidrografii
giiw
gini
girdle
girl
girls
gje
go
god
google
gospil
got
gov
government
gran
gray
graz
great
grenada
grenadines
griese
griik
griinland
group
gruup
guam
guatemala
gwiiana
h
haa
hachiko
hachikuu
haiti
hamburg
hand
hannover
harn
harstad
has
hassam
hauf
haufd
haufin
haufs
haus
have
hawaii
hawayii
hawayiian
he
head
heart
hek
held
hemisfiya
henderson
her
hersegowina
hi
hii
hiibruu
hiidrojen
hiis
hindi
hinson
his
hispanyola
historik
history
histrei
hitlar
hiv
hiva
hms
ho
hoa
hobart
hoi
holcolaetis
holidieh
holidiehs
holy
honduras
hong
hooked
hoss
house
how
howe
howeva
html
http
https
huffington
human
hungrii
huu
hyuuman
i
idda
ideal
idioma
ieprel
ii
iin
iist
iista
iistern
iiten
iki
il
ilha
imelda
img
in
inauguracion
indeesent
independens
independent
indien
indo
ingland
inglic
inglish
inishul
inkluud
institut
institute
interkors
international
ipa
iprage
is
isaac
isbn
iseland
isla
island
islands
islas
islem
issn
ista
it
italii
italiian
its
ivuaar
iwent
iya
iyas
j
jaenyuweri
jakarta
jamaeka
james
japan
japaniis
jean
jerusalem
jesus
jibrulta
jibuuti
jiiografii
jiografii
jirmanii
jo
johannesburg
john
jordan
jorja
jorjan
jose
josiif
joyn
jpg
jua
juan
juba
judaism
july
june
juulai
juun
juuno
k
kaa
kaas
kaledonya
kaliningrad
kam
kamboedya
kamerun
kamkii
kampala
kaneda
kantan
kapa
kapitel
kapitels
kaptaan
karibiyen
kasaan
kataa
kathmandu
kaul
kaus
kawed
kazakstaan
kekl
kemikill
kemistrii
ken
kergistaan
kermadec
ki
kiev
kiiling
kilometres
kim
kin
kind
king
kingdom
kingdum
kingston
kirch
kiribaati
kirk
kitts
kleenin
kloes
klorth
km
knee
known
ko
koekos
koest
kohman
kolombiya
kolor
kom
komar
kommon
kompenents
kompornd
komunitii
konflikt
kong
kongo
konrad
konsaaider
konsists
konskowola
konstantinopel
konstitusyuun
kontakt
kontenent
kontenents
konwikt
koontriis
koral
koriya
koriyan
kosawo
kot
koukeisiis
kreol
kreschen
kreschenitii
kresmes
kriiat
kriicha
kriichas
kristen
kroaysha
kua
kulchur
kulchural
kuntri
kuntrii
kuntriis
kuper
kurencii
kurentlii
kuro
kurow
kut
kuuk
kuwaa
kwiin
kwiinsland
kyuuba
kyuuwait
kəndi
l
la
laaef
laas
laek
laenghwii
laenghwij
laenghwijes
laenghwijs
laengwij
lagi
laik
lan
landi
langgwidc
language
langue
lanka
larj
larjes
larnaka
las
last
lata
latwya
latwyan
lavigne
lawyer
layos
le
league
least
leb
lebanon
led
left
leg
legal
lena
les
leten
letl
letles
li
lia
libiia
lieutenant
liew
life
liida
liidin
liik
liion
liiwd
lik
liktenstiin
limb
lines
lingerie
links
lisboa
lithyuanya
litritchar
liw
lo
loboda
locashun
located
loekaytid
logo
lojik
lon
london
lonseston
look
lord
lorng
lorngf
los
lou
lous
love
lower
lsbt
lublin
lucia
luciano
luis
luksemborg
lyst
lysts
m
ma
maach
maan
maaori
maashal
madagascar
made
madrid
maeked
maeken
magazine
maik
mais
major
majoritii
make
maldiwes
male
mamarii
managua
mani
manihiki
manii
manth
manths
maori
map
maps
march
marcos
maria
mariana
marino
marlen
marlta
marseii
martinique
mas
masedoenya
masedoenyan
massachusetts
massalia
matches
matthyu
maun
mauritius
may
mccullough
me
media
mediina
medikal
medisin
medl
mei
meien
meik
mein
meka
meksikoe
melban
melekeok
men
meni
merika
merikacategory
merikan
merits
methud
metro
metropolitan
mez
mi
michael
microsoft
midl
mied
mieh
miek
mieks
mien
mienli
miguel
mii
miinista
miit
mikronesya
miks
military
million
milyan
minecon
minecraft
minh
minista
ministas
minsk
misyun
mo
moa
model
mojang
mokra
moldoewa
monako
monarkii
monte
montiniegrow
moo
moor
moost
mor
more
moriori
mos
mosaik
moscow
moskou
most
motto
mouth
mozambique
mps
mu
much
musa
museum
muslim
must
mustang
muusiem
muuwment
my
myanmaa
myuusik
myuutenias
n
na
naem
naewi
naiim
naiyuu
name
namibia
nashunal
nassau
national
native
natiw
nauru
nauruan
nauruu
nauruuan
navarro
nayshun
nayshunal
nazi
nd
ndez
ne
neck
nei
nepal
ner
nethiland
nevis
new
news
newsmax
newton
neya
ng
ngela
ngerulmud
ngua
nh
nicaragua
niem
night
niid
niijiirya
niiw
nikosia
niue
niuean
no
noble
noe
non
nor
norf
norfolk
norfolkais
norfolkense
norfolquino
norfuk
nort
north
northan
northern
norwaii
nose
not
notre
nouun
november
now
nowemba
nt
nueva
nui
nuku
numea
nuuk
nyuu
nyuus
o
oblast
obserf
oce
oceania
october
oel
of
off
official
ofishil
ofishol
ofisholi
ofisialii
often
okhrid
okkur
okslii
oktoeba
omaan
on
one
onli
onlii
online
oo
opera
oposisyuun
or
org
organisayshun
orgas
ori
original
orl
orlsoe
orn
ortam
ortonamus
os
osasco
osheania
oshen
ostrielya
ostrielyan
ostriya
otha
other
outerwear
ouun
owaa
owasiis
ower
p
pa
paat
paats
pablik
paci
paijes
paijs
pain
painter
palau
palestiin
panama
panoramio
papeete
papua
par
paraguay
paris
parliament
part
parts
pastor
patio
pe
pectoral
pedra
pelvic
pelvis
peninsula
penrhyn
percent
perineal
personalitiis
peruu
pesifida
pesifik
peso
philip
philippe
pho
piinus
piiterburg
pijin
pimenta
pine
pinsk
piopel
pirth
pisin
pitcairn
pitcairnais
pitcairne
pitkern
pitkerna
pitkernas
pitt
plaanets
plaant
plaants
place
plaes
plaeses
plais
planes
plaza
plenti
plus
png
podolsk
poeland
poelish
point
poliinesya
polis
politician
politikl
politishun
polynesia
polynesian
pope
populashen
population
populayshun
popyular
popyulashun
popyulayshun
popyulous
popyuulos
porchugal
porchuguees
port
post
pp
praktis
premier
presan
president
priim
prince
principal
project
proklaaim
province
provins
prowins
prussia
pskov
puerto
pukapukan
pule
putin
px
q
quang
que
queen
r
ra
raait
raelian
raelians
rais
raits
rapa
rarotongan
re
red
referenses
referensiis
region
regions
relatid
relations
relijiious
reneimd
reo
repablik
report
republic
rese
results
retrieved
revolyuushanars
rhopalostylis
ri
ria
rica
rico
right
riigaa
riilated
riisent
riisons
rilii
rilijin
rio
rive
riveh
rivehs
roed
roemaansh
rok
romaan
romainya
romainyan
roman
rome
rostov
round
royal
ru
rue
rusha
rushacategory
rushan
ruuls
ryuurik
s
sa
saam
saf
sahara
said
saiens
saientifik
sail
saint
salan
salas
salome
salt
salvador
sam
sama
samantha
samoa
samoaan
samoan
san
sandoval
santa
santiago
sarajevo
saudi
sauth
sauthen
sauthern
say
scots
sdar
se
sebuaan
see
sekan
seks
sekshul
sekt
self
senegaal
sens
senta
sentaa
sentril
septemba
september
serbya
serbyan
seriously
served
serwises
set
setl
setld
setlment
settlement
seus
sewent
sex
she
sheet
shep
shii
shiina
shikotaan
shirt
show
shuwash
shuwashya
si
sicilii
sidni
sidnii
sierra
sii
siiland
siin
siipris
siisen
siit
silibriet
silva
simbil
simbol
simon
simone
simpli
since
singaa
singaas
singapur
singer
siriya
sirkil
sista
sistem
sister
site
sitii
sityuuaitid
sityuuaitiid
size
skopie
skotlund
skots
slovenia
slowarkya
slowarkyan
slowenya
slowenyan
smaal
smaales
so
social
soel
sofia
sol
solamon
somalia
somoto
soo
soom
soria
soshul
sosietii
sosietiis
south
sowth
sowthern
sowthiist
sp
spaait
spain
spanish
speak
species
speshul
spinal
spinosa
spoek
spoeken
spoekers
spoekn
spokan
spoken
spokn
sport
sportii
sports
spring
springs
sq
sri
st
staat
staiit
stait
staits
staitscategory
stalin
standarts
standid
star
state
states
stawps
steits
stetus
stey
stockholm
stoen
striit
stub
studeh
studehs
studiehs
studii
study
subgroup
such
sudan
sukhumi
sum
sung
support
supporting
sur
suriname
surprising
suva
svetlana
svg
swaalbard
swains
swaziland
swiiden
swiidish
switsaland
swoseland
swoses
symbol
symbols
t
ta
taaep
taatu
taedha
tahitian
tahitii
tahityan
tailan
tain
taip
taipei
tajikistaan
tal
talas
tals
tamara
tas
tasmainya
tat
taun
tawaiin
te
teda
teknoloji
telemundo
televisiien
television
teritrii
terkmenistaan
termin
th
tha
thanh
that
the
their
then
therd
there
therti
thigh
third
this
thoracic
thorax
thru
thumb
thumbnail
thur
ti
tiem
tiems
tiemsoen
tiimor
times
ting
tings
tis
to
tobago
today
toen
toens
tok
tokelau
tokelauan
tokyo
toledo
tonga
tongan
too
top
topfriidum
toples
topless
tops
tork
tradishn
transport
travel
tre
trend
trii
triis
trill
trinidad
tropikal
trung
trunk
tu
tuhi
tunis
tunisia
turkii
turkiish
tuu
tuwaluu
tv
tweet
twiin
twin
twinned
two
u
udmurtiya
ueno
uetersen
ulla
uma
un
unda
une
uni
uninhabited
union
united
until
unto
up
uplift
upper
uro
uruguay
urup
urupean
us
ushuaia
utc
uulii
uzbekistaan
v
valdez
valensyaa
valiente
van
venezuela
verde
vez
via
vichii
vida
vietnam
vietnamese
view
village
vilnius
vincent
violeta
virgin
vladimir
voivodeship
vojnogeografski
volgograd
von
w
waa
waals
waas
waayls
wadii
waenuwaatu
waijs
wallis
walsh
wan
wanwaatuu
war
warietiis
was
washington
wata
wataweih
watikan
way
wałe
we
wear
wearin
wearing
web
website
weit
welingtan
well
wen
wenezuela
wer
werbal
werd
werds
werk
werl
werld
west
westen
western
wetls
what
when
where
which
while
who
why
wi
wich
wieh
wiels
wielun
wien
wienna
wiik
wiila
wiit
wikipedia
wikkapedya
wiktoreya
will
willaj
william
windo
winta
wisibul
wit
with
wiyetnaam
woerld
woman
women
woodway
woos
wor
woral
work
world
worn
worsaaw
worta
wos
woshingtun
wowel
wowels
writin
wun
www
wyuu
wyuus
x
ximena
xxi
y
yaan
yala
yaren
ye
yemen
yerevan
yia
yias
yk
york
yossr
you
your
yukrayn
yukrayniian
yunaitid
yunitid
yurkshier
yuus
yuusaj
yuusd
yuusen
yuusin
z
zambia
zealand
ziilan
zimbabwe
{
|
}
«
°
²
´
»
¿
ð
đo
ʔ
ʲ
ʻ
ˁ
ˈ
ː
̀
́
̂
̃
̄
̆
̇
̈
̉
̊
̌
̓
̔
̛
̣
̧
̨
͂
͡
α
β
η
ν
ς
азов
бобров
в
г
зерноград
и
калининград
калуга
на
норфолкскии
области
памятник
подольск
ростовскои
с
собор
ул
уфа
церковь
шикотан
язык
і
־
و
ي
َ
ِ
ހ
ރ
އ
ވ
ދ
ޖ
ާ
ި
ެ
ް
ખ
ર
સ
ા
ો
્
‌
‎
–
—
’
†
′
″
€
₼
№
↔
↷
⊼
③
④
⑦
☉
⟨
⟩
⺀
⺄
⺆
⺈
⺊
⺌
⺕
⺝
⺸
⺼
⿰
⿱
⿲
⿳
⿴
⿵
⿶
⿷
⿸
⿹
⿺
⿻
〢
コ
チ
ハ
ユ
㇁
㇂
㇄
㇇
㇈
㇉
㇓
㐁
㐄
㐅
㐌
㐫
㐬
㐭
㐮
㐱
㑒
㒵
㒸
㒼
㓁
㓞
㔾
㕛
㕣
㖾
㘝
㚅
㚇
㚔
㚘
㝉
㝡
㝴
㝵
㞋
㞢
㞷
㠩
㠭
㠯
㡀
㡭
㡿
㢲
㢴
㣇
㣺
㥯
㪅
㫄
㫐
㫒
㫺
㬅
㬎
㬥
㬰
㲋
㳄
㷠
㸒
㸚
㸦
㼌
㼲
㽞
㿟
䀠
䂞
䍃
䏍
䒑
䖍
䖒
䖝
䖵
䙴
䚻
䜌
䝿
䡛
䧹
䪞
一
丁
丂
七
丄
丅
丆
万
丈
三
上
下
丌
不
与
丏
丐
丑
专
且
丕
世
丘
丙
业
东
丞
丢
丣
两
严
並
丨
丩
个
丫
丬
中
丮
丰
丱
串
丵
丶
丷
丸
丹
为
主
丽
丿
乀
乂
乃
久
乆
乇
么
义
之
乌
乍
乎
乏
乐
乑
乔
乖
乗
乘
乙
乚
乛
乜
九
乞
也
习
乡
乳
乾
亀
亅
了
亇
予
争
事
二
亍
于
亏
亐
云
互
亓
五
井
亘
亚
亜
亞
亟
亠
亡
亢
交
亥
亦
产
亨
亩
享
京
亭
亮
亯
亰
亲
亳
亶
亷
人
亻
亼
亾
仁
今
介
仌
从
仐
仑
仒
仓
仕
他
付
仝
代
令
以
任
企
伊
伏
伐
休
会
伯
但
位
何
佘
余
作
佥
使
來
侈
侌
侖
侯
侵
便
保
俞
信
修
倉
倍
候
倠
備
僉
僕
儿
兀
允
兂
元
兄
充
兆
兇
先
光
兊
克
兌
免
兑
兒
兓
兔
党
兜
兟
入
全
兩
兪
八
公
六
兮
兰
共
关
兵
其
具
典
兹
兼
冀
冂
冃
冄
内
冈
冉
冊
冋
册
再
冎
冏
冐
冒
冓
冖
冗
冘
军
农
冝
冡
冥
冫
冬
冷
几
凡
凢
凵
凶
凷
凸
凹
出
函
凾
刀
刁
刂
刃
刄
刅
分
切
刍
刑
刕
刖
列
刘
则
初
別
利
别
到
制
刺
則
削
剌
前
剡
剽
劉
力
功
加
劦
助
劫
劳
劵
勃
勇
勉
勒
動
務
勞
勤
勹
勺
勻
勾
勿
匀
匂
包
匆
匈
匊
匋
匍
匕
化
北
匚
匝
匡
匪
匱
匸
匹
区
医
匽
匿
區
十
卂
千
卄
卅
卆
升
午
卉
半
卌
华
卑
卒
卓
单
卖
南
卜
卝
卞
占
卡
卢
卣
卤
卦
卩
卪
卬
卯
印
危
即
却
卵
卷
卸
卻
厂
厃
厄
历
厈
厉
厌
厓
厘
厚
原
厤
厥
厨
厭
厲
厶
厷
厸
去
厼
厽
叀
参
參
叅
又
叉
及
友
双
反
叐
发
叒
叔
叕
取
受
叚
叜
叟
口
古
句
另
叩
只
召
可
台
叱
史
右
叵
号
司
叹
吂
各
吅
合
吉
吊
吋
同
名
后
吏
向
吕
君
吝
吞
否
含
启
吳
吴
吹
吾
呂
呆
呈
告
员
呙
周
命
咅
和
咎
咠
咢
咨
咸
咼
哀
品
哉
員
哥
哲
唐
商
啇
問
啚
啬
啻
善
喜
喬
單
喿
嗇
噩
嚴
囊
囗
囘
囙
囚
四
回
囟
因
囧
囬
困
囱
囷
固
国
圂
圅
國
圍
圓
土
圡
圣
圥
在
圭
地
圶
圼
坐
坒
坚
坴
垂
垔
垚
埀
埋
埶
執
基
堂
堅
堆
堇
堯
塞
墨
壘
士
壬
壯
声
壳
壴
壹
壺
壽
夂
处
夅
夆
备
夊
夋
夌
复
夏
夒
夕
外
夗
夘
多
夜
夢
大
夨
天
太
夫
夬
夭
央
失
夲
头
夷
夸
夹
夻
夾
奂
奄
奇
奈
奉
奎
奏
奐
契
奓
奔
奚
奞
奠
奢
奥
奭
女
奴
奻
好
如
妄
妙
妟
妥
妻
妾
姑
委
姜
威
娄
婁
婴
嬰
嬴
子
孑
孔
孕
孖
字
存
孚
孛
孝
孟
季
孤
学
孫
孱
學
宀
宁
宂
它
宅
宇
守
安
宋
完
宏
宓
宗
官
定
宛
宜
宝
客
宣
室
宮
宰
害
家
容
宾
宿
寄
寅
密
富
寒
察
寧
審
寫
寬
寮
寸
对
寺
寻
寽
対
寿
封
尃
射
将
將
專
尉
尊
尋
尌
對
小
少
尒
尓
尔
尖
尗
尚
尞
尢
尣
尤
尧
尨
尭
就
尸
尹
尺
尻
尼
尽
尾
尿
局
居
屈
屋
屎
屏
屑
展
屖
屚
属
屠
屡
屬
屮
屯
屰
山
屵
屾
岁
岂
岑
岡
岩
岳
岸
峯
島
崇
崑
崔
崖
崙
崩
嵬
嶲
巂
巛
川
州
巟
巠
巢
巤
工
左
巧
巨
巩
巫
差
己
已
巳
巴
巷
巸
巽
巾
巿
帀
市
布
希
帚
帛
帝
带
師
席
帶
常
干
平
年
幵
并
幷
幸
幺
幻
幼
幽
幾
广
広
庄
床
底
店
庚
府
度
庫
庭
庶
康
庸
廉
廌
廛
廣
廩
廴
延
廷
建
廾
廿
开
弁
弃
弄
弇
弋
式
弓
弔
引
弗
弘
弜
弟
弥
弦
弱
張
強
强
彊
彌
彎
彐
彑
当
彔
录
彖
彗
彡
形
彥
彦
彧
彭
彳
役
彼
往
待
律
徒
得
徙
從
復
微
徵
心
忄
必
忌
忍
志
忝
忠
忩
快
念
忽
忿
思
怠
急
性
怱
恆
恒
恩
恭
息
悉
患
悤
悲
悶
惠
惡
惢
愁
愈
意
愛
感
慈
慧
慮
憂
憲
應
戀
戈
戉
戊
戋
戌
戍
戎
成
我
戒
戔
或
戚
戠
戢
截
戲
戶
户
戹
戼
戾
房
所
扁
扇
手
扌
才
打
托
执
承
折
拉
拜
拿
掌
推
提
摩
支
攴
攵
收
攸
改
放
政
敄
敏
敕
敖
敗
敝
敞
敢
散
敦
敫
敬
数
敷
數
斂
文
斉
斊
斗
斤
斥
斩
斬
斯
新
方
於
施
斿
旁
旋
族
无
旡
既
旣
日
旦
旧
旨
早
旬
旱
旲
时
旾
昆
昇
昌
昍
明
昏
易
昔
昗
昜
星
春
昬
是
昱
昴
昷
時
晃
晋
晏
普
景
晶
智
暑
暴
曇
曩
曰
曲
曳
更
曷
書
曹
曼
曾
替
最
朁
會
月
有
朋
服
朔
朕
朗
望
朝
木
朩
未
末
本
札
朮
术
朱
朵
朶
朿
杀
杏
杜
束
条
来
東
杲
杳
松
析
林
枚
果
枝
枲
枼
某
柑
柔
查
柬
柰
柴
栗
桀
桑
桼
梁
條
梟
梨
棘
棠
棥
森
楚
業
楽
榮
樂
樊
欠
次
欣
欮
欲
欶
欽
款
歆
歇
歛
止
正
此
步
武
歨
歪
歮
歯
歰
歲
歴
歷
歸
歹
歺
死
殳
段
殷
殸
殹
殺
殻
殿
毋
毌
母
每
毒
比
毕
毚
毛
毳
氏
氐
民
气
氣
水
氵
氶
氷
永
氺
氾
求
汝
汞
江
沃
沓
沙
沝
泉
法
波
泣
泥
泰
洛
洪
活
派
流
浦
浪
浮
淡
淮
清
渚
渠
港
湯
滿
漸
火
灬
灭
灰
灵
灷
炅
炎
炏
炗
炙
炭
為
烈
烏
烝
焉
無
焦
焱
然
煞
熊
熏
燕
營
燮
爪
爫
爭
爯
爰
爱
爲
爵
父
爻
爽
爾
爿
片
牙
牚
牛
牜
牟
牢
牧
牪
特
牽
犀
犬
犭
犮
狂
狄
狊
独
狺
猋
猒
猪
献
獻
玄
率
玉
王
玟
玨
珎
班
琴
瑟
瑩
瓜
瓦
甘
甚
生
産
用
甫
甬
田
由
甲
申
电
甶
男
甸
甹
画
甾
畀
界
畏
畐
留
畜
畟
畢
畧
畨
番
畫
異
畱
當
畺
畾
疊
疋
疌
疑
疒
疾
癶
癸
癹
登
發
白
百
皀
皃
的
皆
皇
皋
皐
皕
皮
皷
皿
盃
盆
盇
盈
益
盍
盎
监
盒
盖
盛
盡
監
盤
盧
目
直
相
盾
省
眇
眉
看
眔
眞
真
眷
眼
眾
着
睘
睪
睿
瞏
瞢
瞿
矍
矛
矞
矢
矣
知
矦
短
石
破
碎
磊
磨
示
礻
礼
祟
票
祭
禀
禁
禸
禹
禺
离
禽
禾
禿
秀
秃
秉
秋
科
秝
秦
移
稟
穀
穌
穴
究
穹
空
穿
突
窄
窒
立
竒
竜
竝
竟
章
童
竹
笑
笠
筆
等
答
箕
算
箴
節
篤
篭
米
粉
粛
粟
粤
粦
粲
糞
糸
糹
系
約
納
素
索
紫
累
細
絜
絫
絲
維
綿
縣
繇
纍
纟
缶
网
罒
罔
罕
罗
罙
罡
罢
罪
署
罷
羅
羊
羌
羍
美
羔
羕
羗
羞
羡
羣
群
義
羲
羸
羽
翁
翏
習
翕
翟
翠
翼
老
耂
考
者
耆
而
耎
耑
耒
耳
耴
耶
耷
聂
聊
聖
聚
聶
聿
肀
肃
肅
肉
肖
肙
肥
肩
肯
育
肴
胃
背
胡
胥
能
脊
脩
膚
臣
臤
臧
自
臬
臭
臯
臱
至
致
臺
臼
臽
臾
臿
舀
舂
舄
與
興
舉
舌
舍
舛
舜
舞
舟
般
艮
良
色
艸
艹
艾
芒
芔
芬
芮
花
芳
芺
芻
苔
苗
苟
若
苦
英
茶
茸
荅
草
荒
荣
荼
莆
莧
莫
莽
菆
菊
菐
華
萬
落
葉
著
葛
董
葵
蒙
蒦
蒼
蓋
蓬
蓺
蔑
蔡
蕉
蕭
薄
薛
薦
薰
藍
藏
藥
蘭
虍
虎
虐
虒
虔
處
虖
虗
虘
虚
虛
虜
虞
虫
虽
蚤
蚩
蜀
蜜
蟲
蠡
血
行
衍
衛
衣
衤
表
衮
衰
袁
袞
褭
褱
襄
襾
西
覀
要
覃
見
規
覓
覧
親
覽
见
角
解
言
訁
訇
計
詹
誩
諸
讠
谷
豆
豈
豊
豐
豕
豖
豙
象
豦
豩
豪
豸
貇
貝
貞
貟
負
貢
貧
貪
貫
責
貳
貴
買
費
賁
資
賈
賏
賓
賔
賛
賞
賢
賣
質
賴
贊
贝
贡
责
贯
贲
贵
赖
赞
赤
赦
走
越
足
路
蹇
身
躬
車
軍
軎
軟
輦
车
辛
辜
辟
辥
辰
辱
農
辵
辶
边
达
过
近
连
迷
追
退
送
逆
逐
通
速
造
逢
連
逮
進
遀
遂
過
道
達
遣
適
遷
遺
邊
邑
邕
那
邦
邪
郎
部
郭
都
鄉
酉
酋
配
酓
釆
采
里
重
野
量
金
釒
錢
钅
長
镸
长
門
閃
閉
開
閏
閑
閒
間
閔
閵
閻
闌
门
间
闷
阑
阜
阝
阿
降
陳
隆
隊
隋
隡
隨
隱
隶
隹
隺
隻
隼
隽
难
雀
雁
集
雈
雋
雍
雐
雔
雙
雚
雜
雝
離
難
雨
雩
雪
雲
零
雷
需
霍
霜
霝
霞
霸
靈
靑
青
非
靡
面
靣
革
韋
韦
韭
韯
韱
音
頁
頃
項
須
頗
頡
頻
顛
页
風
风
飛
飞
食
飠
養
饣
首
香
馬
馮
駦
马
骨
高
髟
鬥
鬯
鬲
鬼
魚
魯
鮮
鱼
鲁
鳥
鳳
鸟
鹵
鹿
麃
麗
麥
麦
麻
黃
黄
黍
黎
黑
黒
黨
黹
黽
黾
鼎
鼓
鼠
鼻
齊
齋
齐
齒
齿
龍
龙
龜
龟
龠
龰
龱
龴
龵
龶
龷
龸
龹
ꞌ
者
艹
（
）
？
🜨
𠀁
𠀃
𠀆
𠀉
𠀎
𠀐
𠁁
𠁣
𠂆
𠂇
𠂈
𠂉
𠂊
𠂋
𠂎
𠂒
𠂔
𠂛
𠂡
𠂢
𠂤
𠂬
𠂭
𠂹
𠃊
𠃋
𠃌
𠃍
𠃎
𠃑
𠃓
𠃔
𠃜
𠄌
𠄎
𠄠
𠄢
𠆢
𠆥
𠇍
𠈌
𠌵
𠓜
𠔉
𠔥
𠔼
𠔽
𠔿
𠕀
𠕁
𠕋
𠘧
𠘨
𠙻
𠙼
𠚏
𠚒
𠚤
𠚪
𠣏
𠤎
𠤕
𠥓
𠦄
𠦑
𠦝
𠧒
𠧗
𠧪
𠩺
𠪚
𠫓
𠫔
𠫤
𠬛
𠬝
𠬞
𠬢
𠬤
𠬶
𠮛
𠮦
𠮷
𠯑
𠱠
𠳮
𠷎
𡈼
𡉀
𡉵
𡌥
𡍮
𡏳
𡕒
𡕩
𡕰
𡖅
𡗗
𡗜
𡘆
𡘤
𡧱
𡨄
𡩧
𡬠
𡭽
𡰣
𡰥
𡰪
𡰯
𡰱
𡷈
𡸁
𡿨
𡿩
𡿪
𡿺
𢀖
𢀛
𢀩
𢁙
𢆉
𢆰
𢆶
𢇁
𢇇
𢉖
𢌬
𢌿
𢏚
𢑑
𢑚
𢖻
𢙣
𢛳
𢦏
𢦒
𢧵
𢼄
𢾕
𣁋
𣄼
𣅀
𣅽
𣍘
𣎳
𣎵
𣏋
𣏼
𣗥
𣥂
𣥖
𣦵
𣦼
𣧄
𣪊
𣪠
𣬉
𣳾
𣶒
𤇾
𤊽
𤐫
𤓰
𤔔
𤕨
𤣩
𤰇
𤰔
𤰞
𤴓
𤴔
𤽄
𥁑
𥁕
𥃦
𥃩
𥃭
𥇡
𥑟
𥘅
𥘈
𥝢
𥫗
𥱡
𦈢
𦉪
𦉬
𦉼
𦍌
𦍒
𦎧
𦐇
𦓔
𦔮
𦘒
𦙃
𦚏
𦣝
𦣞
𦣻
𦥑
𦥔
𦥯
𦨉
𦭝
𦰩
𧆞
𧈧
𧘇
𧰨
𧴪
𧴮
𧵩
𧾷
𨸏
𨾴
𩙿
𩠐
𩫏
𩵋
𪉷
𪜀
𪟽
𪠲
𪩲
𫇦
𫔭
𫜸
𫝀
𫠣
𫠩
𫢉
𫥞
𫩏
𫩠
𫪡
𫲽
𫶧
𬀷
𬐘
𬗌
𬙙
𬛸
𬜯
𬟩
𬯁
𬴘
𬺻
𬼉
𬼖
𭀰
𭁈
𭁨
𭅰
𭑈
𭕄
𭗼
𭤨
𭥫
𭻾
𮅕
𮊿
𮍌
𮍏
𮓗
𮥼
𮧮
廾
𰀁
𰀄
𰀈
𰀉
𰀕
𰀠
𰀡
𰀢
𰀪
𰁜
𰃮
𰆊
𰆘
𰋙
𰕎
𰢴
𰧭
𰯲
0--
13--
16--
17--
18--
19--
3--
4--
5--
6--
7--
8--
9--
a--
aa--
ab--
ad--
administ--
adven--
ae--
ael--
af--
ag--
ai--
ak--
aksep--
al--
alex--
ama--
ame--
an--
ang--
ap--
apol--
ar--
aris--
arm--
aro--
as--
associ--
at--
au--
aust--
auth--
ay--
b--
ba--
bar--
be--
beg--
bel--
ber--
bi--
bil--
bis--
bo--
bor--
br--
bra--
bre--
bri--
bru--
bu--
bust--
c--
ca--
camer--
cap--
car--
cas--
cat--
ce--
cho--
clo--
co--
com--
con--
conso--
cor--
cri--
crii--
cuis--
curre--
d--
da--
dape--
de--
deg--
dek--
deko--
dev--
di--
dic--
dis--
disam--
do--
du--
e--
ed--
ei--
eko--
ekr--
eksp--
el--
elek--
eleksyu--
elpha--
em--
en--
eng--
enha--
enkri--
erne--
es--
esse--
et--
ev--
eve--
f--
fa--
faa--
fan--
fe--
fede--
fem--
fi--
fis--
fit--
fli--
fo--
fono--
fra--
fri--
fu--
fuut--
g--
ga--
gaa--
gai--
gal--
gam--
gar--
ge--
gene--
ger--
gi--
gil--
go--
gover--
gri--
gu--
h--
ha--
han--
he--
hi--
ho--
hu--
i--
ii--
ik--
in--
inclu--
indij--
ing--
inj--
inte--
inv--
is--
iso--
it--
iv--
j--
ja--
jak--
janu--
jen--
jer--
jil--
jir--
jo--
ju--
juli--
k--
ka--
kaa--
kar--
kat--
kaun--
ke--
ki--
kle--
ko--
kol--
kolum--
kom--
kon--
kond--
konst--
konstituen--
kont--
kor--
kov--
kri--
ku--
l--
la--
larg--
le--
len--
let--
li--
libe--
lii--
lis--
liv--
lok--
lu--
ly--
m--
ma--
maa--
mak--
mal--
man--
mand--
mang--
mar--
mark--
mat--
mau--
me--
medic--
mem--
mi--
mil--
mo--
mu--
munic--
musc--
n--
na--
naachu--
nam--
ne--
ni--
nico--
niko--
nov--
nu--
nyuu--
o--
ob--
of--
olog--
or--
orto--
os--
out--
over--
ow--
p--
pa--
pal--
pas--
pat--
pe--
penet--
per--
ph--
pi--
pie--
pik--
pla--
pli--
po--
poli--
popyuu--
pos--
pr--
prac--
pre--
pri--
prin--
prish--
pro--
prof--
prote--
protek--
prov--
prowi--
q--
qu--
r--
ra--
re--
reg--
rele--
repub--
resi--
revol--
ri--
rii--
ro--
ru--
s--
sa--
sak--
sara--
sc--
sch--
scot--
se--
sec--
sem--
ser--
serv--
sev--
sh--
si--
signifi--
sk--
sko--
sma--
so--
sosyuu--
sp--
st--
stat--
ste--
stimyuu--
sty--
su--
sub--
suu--
sy--
t--
ta--
tahi--
tam--
tan--
tar--
tay--
te--
ter--
th--
ti--
tii--
to--
tra--
trans--
tri--
tu--
tur--
u--
un--
unre--
up--
ur--
us--
v--
val--
ve--
vere--
vi--
victo--
vil--
vis--
vo--
voice--
w--
wal--
wi--
wikto--
wo--
x--
y--
ye--
yu--
z--
в--
д--
остро--
разговар--
с--
--0
--1
--2
--3
--4
--41
--43
--5
--53
--56
--57
--6
--63
--64
--68
--7
--70
--76
--77
--78
--79
--8
--85
--87
--89
--9
--90
--93
--98
--a
--aa
--aan
--ad
--ada
--ado
--aits
--al
--als
--am
--an
--ana
--ant
--ar
--ard
--arii
--as
--at
--ate
--ated
--ation
--au
--ay
--ayshun
--b
--ba
--ball
--bs
--burg
--c
--ca
--cal
--category
--ce
--ces
--ch
--ck
--d
--da
--de
--di
--did
--do
--dro
--ds
--dy
--e
--ea
--ebl
--ed
--ein
--ek
--ekt
--el
--em
--en
--ena
--ens
--ent
--ents
--er
--ern
--ers
--es
--ese
--et
--ew
--f
--fic
--fii
--fo
--g
--ga
--ge
--ger
--ges
--gs
--h
--ha
--hali
--han
--hd
--hen
--ht
--hun
--i
--ia
--ial
--ian
--iana
--ic
--ich
--id
--ida
--ie
--ien
--if
--ii
--iid
--iis
--iit
--ik
--il
--ila
--im
--in
--ina
--ing
--io
--ion
--ip
--ir
--is
--ish
--ism
--ist
--it
--itii
--iv
--ive
--iw
--j
--ja
--jii
--jist
--k
--ka
--kel
--ki
--kl
--ks
--kt
--kts
--l
--la
--ld
--le
--li
--lii
--lis
--litii
--liz
--ll
--ls
--lt
--ly
--m
--maa
--man
--ment
--mente
--mik
--mn
--ms
--n
--na
--nd
--ndi
--ne
--nes
--nese
--ness
--ng
--nger
--ni
--nii
--nik
--nk
--nn
--no
--ns
--nshun
--nt
--nta
--nts
--ny
--o
--ol
--ola
--on
--ons
--op
--or
--os
--ot
--ovich
--p
--platz
--ps
--pt
--pu
--r
--ra
--ral
--rd
--re
--rer
--ress
--rg
--rge
--rii
--riya
--riz
--rk
--rks
--rm
--rn
--ro
--rs
--rt
--rver
--ry
--s
--sa
--se
--sh
--ship
--shun
--sis
--sm
--so
--son
--sov
--ss
--st
--sts
--sun
--t
--ta
--te
--ted
--ten
--ter
--th
--ti
--tic
--tid
--tii
--tiid
--tik
--tiks
--tin
--tiv
--tive
--tl
--to
--ton
--tory
--troii
--ts
--tt
--u
--ud
--ul
--um
--un
--ur
--urs
--us
--ut
--uu
--v
--va
--ve
--ver
--vlii
--vo
--w
--west
--wn
--wps
--ws
--x
--y
--ya
--yan
--yem
--yn
--yshun
--yshuns
--yuu
--yuun
--z
--za
--zens
--ø
--а
--е
--и
--к
--кая
--н
--о
--я
--ја
