!
"
#
##0
##1
##10
##11
##12
##13
##14
##15
##16
##17
##18
##19
##2
##20
##21
##22
##23
##24
##25
##26
##27
##28
##29
##3
##30
##31
##32
##33
##34
##35
##36
##37
##38
##39
##4
##40
##41
##42
##43
##44
##45
##46
##47
##48
##49
##5
##50
##51
##52
##53
##54
##55
##56
##57
##58
##59
##6
##60
##61
##62
##63
##64
##65
##66
##67
##68
##69
##7
##70
##71
##72
##73
##74
##75
##76
##77
##78
##79
##8
##80
##81
##82
##83
##84
##85
##86
##87
##88
##89
##9
##90
##91
##92
##93
##94
##95
##96
##97
##98
##99
$
%
&
'
(
)
*
+
,
-
.
/
0
00
000
009
01
011
014
0155
0156
0157
02
0243
03
04
043
0435
049
05
06
07
071
0783
08
1
10
100
1000
1003
1010
1012
1020
1021
1024
103
104
105
1056
106
1075
108
109
11
110
1100
11000
1101
111
112
1120
1137
1140
115
1150
1157
116
1167
1171
1191
12
120
1200
1208
121
122
1225
125
1252
1259
127
128
1280
1288
129
1295
13
130
1300
1316
1327
133
1331
1334
1336
135
1350
1352
1354
136
1362
1363
1364
1366
137
1370
1382
1383
139
14
140
1400
141
1415
1420
143
1438
144
1440
1442
1451
1452
14540
146
1463
147
1470
1471
1472
1473
1475
1476
1477
1478
1479
1480
1481
1482
1483
1485
1486
149
1490
1491
1492
1493
1494
1495
1496
1498
1499
15
150
1500
1501
1502
1503
1504
1505
1506
1508
151
1511
1512
1518
1519
1520
1525
1527
1528
1530
1532
1534
154
1540
1542
1543
1547
155
1557
1558
156
1562
1567
1568
1570
1571
1575
1577
158
1582
1583
1585
1587
1588
1589
1591
16
160
1600
1604
1605
1606
1607
1609
161
1615
1617
1618
1622
1630
1636
1640
1642
1644
1645
1648
165
1650
1656
166
1660
1661
1662
1666
1679
168
1680
1683
1688
1689
1699
17
170
1700
1701
1708
171
1710
1712
1715
1717
1718
172
1724
1728
1729
173
1730
1731
1732
1733
1739
1740
1746
175
1750
1751
1752
1753
1754
1755
1756
1757
1760
1761
1762
1763
1767
1768
1769
1771
1775
1776
1777
178
1780
1782
1784
1785
1786
1787
1789
1790
1791
1792
1793
1794
1795
1796
1797
1798
1799
18
180
1800
1801
1802
1803
1804
1805
1806
1807
1808
1809
181
1810
1812
1813
1814
1815
1816
1817
1818
1819
182
1820
1821
1822
1823
1824
1825
1826
1828
1829
183
1830
1831
1832
1833
1834
1835
1836
1837
1839
1840
1841
1842
1844
1845
1846
1847
1848
1849
185
1850
1851
1852
1853
1854
1855
1856
1857
1858
1859
1860
1861
1862
1863
1864
1865
1866
1867
1868
1869
187
1870
1871
1872
1874
1875
1876
1877
1878
1879
188
1880
1881
1882
1883
1884
1885
1886
1887
1888
1889
1890
1891
1892
1893
1894
1895
1896
1897
1898
1899
19
190
1900
1901
1902
1903
1904
1905
1906
1907
1908
1909
191
1910
1911
1912
1913
1914
1915
1916
1917
1918
1919
1920
1921
1922
1923
1924
1925
1926
1927
1928
1929
193
1930
1931
1932
1933
1934
1935
1936
1937
1938
1939
1940
1941
1942
1943
1944
1945
1946
1947
1948
1949
1950
1951
1952
1953
1954
1955
1956
1957
1958
1959
1960
1961
1962
1963
1964
1965
1966
1967
1968
1969
197
1970
1971
1972
1973
1974
1975
1976
1977
1978
1979
1980
1981
1982
1983
1984
1985
1986
1987
1988
1989
1990
1991
1992
1993
1994
1995
1996
1997
1998
1999
2
20
200
2000
2001
2002
2003
2004
2005
2006
2007
2008
2009
201
2010
2011
2012
2013
2014
2015
2016
2017
2018
2019
202
2020
2021
2022
203
204
207
208
21
210
211
212
215
218
22
220
221
222
224
227
228
229
23
230
231
233
235
236
238
239
24
240
246
249
25
250
2500
252
253
255
256
257
258
259
26
260
2600
263
264
27
270
272
276
278
28
280
285
2866
29
293
294
3
30
300
3000
301
305
306
31
310
312
313
314
316
3166
318
319
32
320
321
322
324
326
33
330
332
335
338
339
34
340
343
347
348
35
350
351
353
36
360
363
365
367
368
36803
37
370
371
373
376
38
380
385
39
392
397
4
40
400
4000
403
406
41
410
412
416
42
420
421
4217
422
423
43
435
44
440
443
445
45
450
4500
46
461
462
47
475
48
480
483
49
490
492
496
499
5
50
500
5000
5022
506
50667
51
52
520
5262
53
54
540
542
55
550
555
56
562
565
57
575
579
58
59
590
596
599
6
60
600
6000
61
62
624
625
63
630
639
64
642
649
65
650
66
67
670
68
69
690
692
694
7
70
700
7000
71
711
715
717
72
723
73
7300
734
735
737
74
743
7448
745
748
75
750
752
753
76
7616
77
7743
776
78
79
7927
795
797
8
80
800
81
814
82
83
8322
84
840
841
842
843
8475
849
85
850
86
87
87314
87707
87710
88
8859
889
89
89124
89705
89771
9
90
900
9000
91
92
922
923140
924
926830
928877
93
932326
938486
94
942513
95
96
966
97
978
98
980
9803354
9803991
99
999
:
;
=
>
?
\
^
_
`
a
aa
aaba
aach
aachdunzvanzishßte
aachen
aachener
aachte
aachunzvanzishßte
aade
aaf
aafange
aahle
aahne
aajd
aajebouwd
aajebraad
aajekekke
aajeklachd
aajelaad
aajelaat
aajenomme
aajeseeh
aajevange
aajo
aakommende
aakoom
aal
aale
aalero
aaluure
aam
aan
aana
aande
aandere
aandonn
aanfa
aanfang
aanfange
aanfangk
aanfangs
aanfangß
aanfo
aanhu
aanjebodde
aanjebonge
aanjebout
aanjebrannt
aanjedonn
aanjefange
aanjehange
aanjehu
aanjejovve
aanjekumme
aanjela
aanjenomme
aanjenumme
aanjepass
aanjeroofe
aanjesinn
aanjevange
aanjevve
aanjeze
aanjitt
aanku
aankumme
aanlaach
aanle
aanliejer
aanluure
aanma
aanme
aanpakke
aansbersh
aanschloß
aanschwenke
aansehnliches
aanstiech
aanwa
aanwendunge
aanzahl
aanzal
aanzemaache
aap
aape
aapeinsel
aar
aarna
aart
aarte
aasije
aasta
aastrech
aat
aate
aav
aava
aavang
aavange
aavangs
aavbletze
aavha
aavhalde
aavheld
aavhouwe
aavja
aavjebeld
aavjehalde
aavjehouwe
aavjeku
aavjelehnd
aavjeleid
aavjelo
aavjenomme
aavjeordnete
aavjeresse
aavjesatze
aavjeschlooße
aavjevu
aavjo
aavkitt
aavkomme
aavla
aavleef
aavleev
aavloufe
aavna
aavong
aavschloss
aavsetze
aavsta
aavstammung
aavsturz
aavtra
aavzo
aaz
aazo
aaß
ab
abba
abbott
abbuehl
abdullah
abel
aber
abitur
about
abraham
abriß
abruf
absolutus
abt
abtei
abteilung
abteilunge
abu
abydos
academy
accusam
ace
ach
acht
achterhoek
achzehnte
acj
acken
acker
ackermann
act
ad
adam
adams
add
addra
addsjer
ade
adel
adelsfamelisch
adenau
adenauer
adidas
adler
adlije
administrator
admiral
ado
adolf
adolphe
adress
adriana
adsj
adsjer
advent
adventszick
ae
aegidius
aen
aeonium
af
aff
affa
affha
affjeko
affjeku
affjerissen
affjerohfe
affjeschaff
affjesinn
affko
affla
affle
affrika
affriß
affscheed
affschnedd
affschnedt
affschtand
afghanistan
afjanistan
afjeko
afjeschaff
afrika
ag
agger
agilolf
agnes
agrejaatzohshta
aha
ahl
ahla
ahle
ahleberjer
ahlem
ahlen
ahlhuhdu
ahlko
ahlnordsch
ahlnordsche
ahlt
ahmad
ahmets
ahn
ahnde
ahr
ahrenshoop
ahrweiler
ai
aids
aigner
aik
ainola
air
airbus
airline
airlines
airport
airways
ais
aischwiele
aise
aix
ajaccio
ajebouwd
ajejreffe
ajekekke
ajeklachd
ajelaad
ajenomme
ajesee
ajetrocke
ajevange
ajo
ajriife
ajuda
ajuja
akademie
akicke
akikkd
akikke
akikkt
akkademih
akkeraat
akko
akkordeon
aklang
akomme
akoom
akoome
akt
akta
akte
aktie
aktiejesellschaff
aktiengesellschaft
aktion
aktiun
aktiune
aktiv
aktive
aktivita
aktmodel
aktmolerei
aku
akzepteerd
akzepteere
akzepteert
al
ala
alaaf
alacant
alaska
alba
albanie
albanien
albarregas
albert
alberti
albrecht
album
alcy
ald
alde
aldenhoff
alder
aldi
aldr
aldste
aldsteenzitt
alefte
aleroth
alerott
ales
alessandra
alexander
alexandra
alexandre
alexei
alexejewitsch
alexis
alexius
alfons
alfred
alfter
algarrobo
ali
aliaa
alice
alindao
aliquyam
alja
alkalimetall
alkohol
alkoholfrei
alkuin
all
alla
alld
alldaach
alldach
allder
alldiweijl
alle
alledemm
alleen
allegorie
allegory
alleiirde
allein
allem
allemanne
allemolde
allen
aller
allerdingens
allerdings
allerhands
allerhellije
allerhillije
allerierschte
allersiele
alles
allet
alley
alleß
allfabeet
allgemeen
allgemeine
allgemeinen
alli
allianz
allied
alliierte
alling
allison
alljeme
alljemeen
alljemeene
alljemeenes
alljemein
alljemeine
allma
allpe
alls
allso
allsu
allt
allta
allu
allß
alois
alom
alonso
aloo
alpandeire
alpe
alpha
als
alsdo
alsdorf
also
alsu
alswie
alt
alta
altar
altarbeld
altarbelder
altbier
alte
alten
altenberger
alter
alternative
alternativtext
altes
altfra
altfuldisch
altko
alto
altreushera
altstadt
altstadtbahnhoff
aluminium
alveolare
alzoee
alß
am
ama
amadeus
amalia
amarna
amateur
amazone
ambibulus
amboise
ambrosio
ambundu
amby
ame
amel
amen
amenophis
america
american
amerika
amerikaner
amerikanisch
amerikanische
amerikas
amerikka
amet
amis
amk
amm
amma
ammi
amoedo
amoklouf
amor
amp
amplesch
amplich
amplisch
amplische
amptlich
amptliche
amsterdam
amt
amtsaatrett
amtssproch
amtssproche
amtsverzicht
amtszitt
amundsen
amy
an
ana
analfabet
analfabete
analfabetismus
anand
anastacia
anastassia
anc
anchiano
ancient
and
andalusie
ande
ander
andere
anderem
anderen
andernach
anderre
anders
andersch
anderson
anderswo
anderswoh
andes
andeß
andorra
andre
andrea
andreas
andrejewitsch
andrew
andy
anedjib
anee
aner
anfa
anfang
anfange
ang
ange
angeku
angel
angela
angeles
angelique
angelo
anger
angere
angerem
angers
angersch
angerschwoh
angesch
angesj
angesprochenen
angisch
anglikanische
angola
angs
angß
anhalt
anika
animals
anime
anine
anita
anjeblich
anjebout
anjefange
anjeho
anjekumme
anjesinn
anjola
anjreff
anjreffe
anjriff
ankara
anke
anku
anla
anlach
ann
anna
annalu
annder
anndere
annders
anndoß
anne
annemarie
annemie
annett
annie
annius
anno
annus
anpassen
anschla
anschlaach
anschlach
anschleeßend
anschließend
ansta
anstatt
ant
antalya
antarktis
anthem
anthon
anti
antibiotikum
antike
antiope
antoine
antoinette
antologia
anton
antonio
antonius
antoniuskapa
antonow
antredde
antva
antwerpe
antwood
anzahl
anzeiger
anzelika
aod
aodste
aorta
apartheed
apartheedrejiim
apo
apostel
apostele
appel
appo
apprell
appril
apprill
approximant
aprel
april
apsis
apt
aquarelle
ar
ara
arab
arabe
arabie
arabisch
arabische
arabischen
aragon
arajorn
arawak
arbeed
arbeede
arbeeder
arbeid
arbeide
arbeijde
arbeitskreis
arbigsjroppe
arbuckle
archa
architek
architekt
architektur
archiv
ard
ardenne
ardra
are
areal
arena
ariel
aristoteles
arjentinie
arles
arm
armee
armen
armenie
arms
arnheim
arnhem
arno
arnolandschaff
arnold
arnoldsweiler
arnoldswiele
arriate
arsch
art
arte
artes
arthur
article
artikel
artists
arts
as
asamkerch
asbach
aserbaidschan
aserbaidschanische
asiatische
asie
asien
asije
aso
aspahsija
aspx
ass
assaigs
assisi
assumption
asta
asten
astens
asteorideju
asterix
asteroid
asteroide
asteroideju
astronomie
astronomische
asu
asuncio
asuncion
at
atajate
atbara
atelie
atelier
athen
atheneum
atikel
atikkel
atikkelle
atlanta
atlanticus
atlantik
atlantikku
atlas
atlaß
atmospha
atoll
atom
atome
atomka
atomkeern
atomphysik
atomwaffe
aton
atra
atsch
atsjer
att
attehn
attentat
attikah
attoll
au
auch
auckland
audrey
aue
auermann
auf
auffassungen
aufgelo
aufl
auflach
auflage
auftrach
auftrag
august
auguste
augustin
augusto
augustus
auh
aujoß
aujus
aujuss
aujust
aujustin
aujustinus
aujustinuskeller
aujustus
aujuß
aujußß
aulinger
aunic
aus
auschwitz
ausfu
ausgabe
auslaut
ausstellung
australian
australie
australien
australije
australische
austria
aut
autem
auto
autobahn
autobahne
autoindustrie
automuseum
autonome
autonomi
autor
autorita
autos
auvers
außenmenestr
außtraalije
av
avang
avangs
avata
ave
aver
avery
avfaht
avha
avja
avjebout
avjehalde
avjeordnete
avjeresse
avjerisse
avjo
avong
avschloss
avstand
avv
avver
avvlehne
avwerr
aw
award
axel
axundov
azo
aß
aßteroiide
aßteroiit
b
ba
baach
baad
baade
baahn
baahnhoff
baahnwa
baal
baan
baanhoff
baas
baat
baaß
bab
baboo
baca
bacchus
bach
bachem
bachemer
back
backe
backsteejotik
bacon
bactus
bad
bade
badehuuß
baden
badende
badric
baedeker
baez
bagration
bahamas
bahia
bahkauv
bahl
bahn
bahne
bahnho
bahnhof
bahnhoff
bahnjleise
bahno
bahnsteich
bahr
bailey
bainter
baisjpiel
bajore
baker
bakke
bakteerije
bakterie
bakterium
baku
bal
bald
balduin
balkan
balkanveldzoch
ball
ballad
ballons
ballwa
baltikum
bancroft
band
bands
bang
bangladesch
bank
banke
bantu
bantuan
bap
bar
bara
barack
baracke
barbados
barbara
barbaradaach
barbarossaho
barcelona
barcino
bareschesser
barmen
baron
barron
barry
barschem
bart
barth
bartholoma
bartolomeo
basalt
baschtije
basel
basilica
basis
basiseinheite
bass
basse
bassenge
battle
bau
baue
bauer
baumann
baumschulte
bausenbersh
baut
baute
bay
bayer
bayere
bayern
bayernlb
bayersche
bayrische
bb
bbc
bbe
bbelsche
bbelschen
bber
bbisch
bbish
bbsigge
bd
be
bea
beach
beamte
bearb
bearbeed
bearbigge
beatrix
beatriz
beaux
bebe
bechen
beck
becke
becker
beckmann
becks
beda
bedburg
bedde
beddu
bede
bedecke
bedeene
bedenke
bedeutende
bedeutung
bedeutunge
bedingung
bedo
bedra
bedrevve
bedrief
bedriefsystem
bedriev
bedrievt
bedrivve
bedro
bedu
bee
beech
beecroft
beede
beeds
beedß
beej
been
beend
beene
beent
beere
bees
beese
beesfeil
beets
befa
befengk
befinge
befingen
befingk
befink
befo
befu
beginn
begraave
begro
begru
behalde
behallde
behandele
behandelt
behaupten
beherberjen
beherrschde
bei
beide
beids
beidste
beidzde
beiho
beij
beijdste
beijebraat
beijem
beijm
beijna
beijshpell
beijshpill
beijspill
beiker
beilstee
beim
beinah
beischpell
beishpell
beishpill
beishpille
beispeel
beispell
beispeller
beispiel
beispielkategorie
beispill
beitra
beitrett
beitrittes
beitste
beitzde
bej
beja
bejange
bejeistert
bejenn
bejinn
bejm
bejonne
bejraave
bejrave
bejreff
bejreffe
bejriff
bejro
bejspell
bejspelle
bejspill
beka
bekank
bekankde
bekannd
bekannde
bekanndste
bekanngk
bekannt
bekannte
bekannteste
bekanntste
bekans
bekekke
bekikke
bekleed
bekleede
bekloppte
bekom
bekomm
bekoom
bekruck
bekumme
bel
bela
belaad
beld
beldche
beldcher
belde
belder
beldhouwer
beldnis
beldscherm
beleevd
belfast
belgie
belgien
belgische
beliep
belje
beljie
beljische
beljrad
bell
bella
bellatrix
belld
bellder
belle
bellije
bellijer
bellji
belljie
belljische
bello
belo
beloore
belsch
belsj
belsje
beluure
belzec
bem
bemerk
bemm
bemo
bemold
bemolt
ben
bena
benamargosa
benamocarra
benannd
benannt
benannte
bend
bende
bendorf
benedikt
benediktiner
benguela
benjamin
benne
bennet
beno
benotzd
benotzt
benratha
benrather
benrother
bensberg
bensbersch
bentz
benutz
benutze
benz
beobachte
beobachter
beobachtet
ber
berarbeitete
berbuer
berch
berchem
berchemer
berches
berchop
berdolet
bere
bereich
bereit
bereits
berg
berge
berghausen
bergheim
bergisch
bergische
bergischen
bergischer
bergisches
bergman
bergmann
berj
berje
berjesch
berjesche
berjisch
berjische
berjischen
berjisches
berjrich
berleburg
berlin
berliner
bern
bernard
bernardini
bernburg
bernd
berners
bernhard
bernhardt
bernkastel
bernommenen
bernstein
bero
berof
berofe
beroff
berofsjoohre
berohf
beroofe
beroohnde
berounsky
bersch
berschbau
bersh
bert
berta
bertha
beru
berzau
bes
besa
besan
besatz
besatze
besatzung
bescha
beschaffe
bescheid
beschlo
beschlooße
beschloss
beschlosse
bescho
beschoff
beschofssetz
beschooße
beschoss
beschra
beschrevve
beschrief
beschrieve
beschriewe
beschriivd
beschriive
beschriivung
besetz
besetzde
besetze
besetzer
besetzong
besetzt
besetzung
beshta
beshtemmpte
besiedelt
besiedlung
besitz
besje
besjteet
besjtoa
beso
besoffe
besoffene
besondere
besonderheet
besonders
besondersch
besongich
besongije
besongisch
besooch
besood
besoot
besoote
besooße
besoss
bess
besse
besser
bessere
bessje
best
besta
bestald
bestallt
bestande
beste
besteehd
besteeht
bestehd
besteht
besteijt
bestellt
bestemmd
bestemme
bestemmp
bestemmpte
bestemmt
bestemmte
bestemmunge
bestimmte
bestimp
bestimpte
besto
bestoahn
bestond
bestonn
bestund
besu
besuch
beta
betancourt
beteijeuze
beteilich
betelgeuse
bethlehem
betra
betraachte
betreffd
betrieb
betriebe
betriib
betriip
betrocke
betrodde
betroffe
betroffene
betroone
betseesjent
bett
bettsecker
betty
beuel
beueler
beule
beusj
beutling
beva
bevalle
beveelsnutstand
bevingk
bevo
bevor
bevu
bewa
bewaffnede
beweis
bewejonge
bewejung
bewesse
bewiise
bewonner
bewonnt
bewunner
beyond
bezaahle
bezahle
bezahlt
beze
bezeechne
bezeechned
bezeechnet
bezeechnung
bezeichnet
bezeichnung
beziehunge
beziehungen
bezirk
bezirksgruppe
bezirksrejieronge
bezirrek
bezje
bezo
beß
beßje
beßß
beßßer
beßßje
bg
bhatt
bhel
bi
bibel
bibliographie
bibliothek
bich
biden
bie
biee
bielefeld
bielstee
bielsteener
bielstein
bier
bierfrangke
bierganz
biermann
big
biir
biit
biiß
bij
bikannd
bikannt
bikannte
bikini
bikinis
bild
bilde
bilden
bilder
bilderboochmuseum
bildnis
bildung
bill
billd
bille
billie
billije
billisch
billy
bin
binchy
bing
binge
bingen
binh
biobi
biografie
biographie
bioloji
biotop
biotope
birjel
birke
birkejang
birkenau
birlekowe
birre
birth
bis
bischhoff
bischje
bischo
bischof
bischoff
bischoffs
bislama
bismarck
bissche
bissje
bistum
bit
bitzje
bißje
bjo
bkannd
bkanndste
bkannt
bla
blaas
black
blagojevich
blameete
blankenberch
blankenberg
blankenbersch
blankenheim
blasius
blatt
blau
blaue
ble
blech
bleck
bleckvang
bleed
bleef
bleete
bleev
bleeve
bleff
bleis
bleu
blevv
blevve
blick
bliee
blieet
blief
bliev
blieve
bliid
bliiv
bliive
blind
blindtex
blivv
blo
blodwoosch
blog
blohß
blomm
blomme
blond
blood
bloohß
bloos
bloose
bloot
blootwoosch
blooß
blos
blot
blott
blotwoosch
blou
bloß
blu
blue
blues
bluuß
bluß
bm
bn
bo
boave
bob
boca
boch
bochshtave
bochstabe
bochum
bock
boddem
bodem
bodendenkma
bodendenkmalpflege
bodensee
boeing
boere
bogota
bohm
bohrluch
boleyn
boli
bologna
bomb
bombe
bombei
bonaparte
bond
bondesland
bonn
bonndesland
bonne
bonnem
bonner
bonte
booch
boochshtaaf
boochstaave
boohm
boohn
boohne
boohre
book
books
boom
boomhummer
boon
boone
boore
boot
boote
bora
borbeck
borbecksch
bordeaux
borgia
boris
bornheim
boromir
borussia
borussija
bos
bosch
bosna
bosnia
bosnie
boss
boston
botanische
botrange
botschafter
botschaftr
botswana
botte
botter
bottrop
botz
bou
boubuum
boude
boue
boufa
boujoahr
bouliche
boum
boumschiere
bounne
bounoahd
bouvier
bouw
bouwd
bouwde
bouwe
bouwha
bouwte
bouwva
bouwwerk
boven
bover
bovve
bovveja
bovven
bovver
bovverbejreff
bovverberjesche
bovvere
bovverfrangke
boyer
br
bra
braad
braade
braat
braate
brabant
bradley
brahma
braht
bram
brand
brandeborsch
brandenburg
brander
brandt
brannte
brasil
brasilie
brasilije
brassel
brassica
brauch
brauche
brauchtum
brauerei
braun
braunau
brauser
braut
bravo
brazil
brazzaville
bre
brecht
bree
breed
breede
breef
breefe
breenich
breenijer
breenijerberch
breenijerbersch
breenijerheed
breenisch
bref
breid
breide
breisgau
breitach
breitachklamm
breme
bremen
bremm
bremmer
breng
brengd
brenge
brengk
brengt
brenne
brenner
brennt
breslau
bretagne
bretesch
breuer
breweries
breyell
brezzel
brice
brigen
brijadejeneral
bringe
brings
bringt
brisbane
bristol
brite
britischen
british
bro
broa
broadway
broch
broche
brochstee
brockebersch
brode
broder
broest
brohl
brohlbaach
brongße
bronne
brooch
brood
broode
brooder
broohr
brooks
bross
brot
brothers
brouch
broue
brouera
brouere
brouerei
brouereije
brouhuus
brouwe
brouwere
brouwerei
brouwereie
browa
brown
bru
bruch
bruche
bruchhausen
bruchß
brud
brudd
brudde
brun
brunei
brung
brunge
brunne
brunnen
brunner
bruno
brut
brutt
bruud
bruudt
bs
bsigge
bsta
bt
btissin
bu
buch
buchenwald
bucher
bucht
bud
budapest
buddele
budismus
bukarest
bulgarie
bulgarije
bun
bund
bundesdaach
bundesdach
bundeskanzler
bundesla
bundesland
bundeslandt
bundesliga
bundeslija
bundespra
bundesrepublek
bundesrepublik
bundesstaat
bundesstaate
bundesstatt
bundeswehr
bundeßferdiinßkru
bung
bunker
bunn
bunne
bunt
buonaparte
buonarroti
burch
burchha
burchjraaven
bure
burehoff
burela
buren
burg
burgemeester
burgsmu
burje
burjemeester
burning
burrsh
bursch
burscheid
bursj
burt
bus
busch
buscheberch
buschebersch
bush
business
buslinie
buss
busse
buster
buud
buun
buune
buur
buure
buureho
buurehoff
buurekresch
buurenho
buurenhoff
buurtsjappe
buß
bußße
bvr
bw
by
bystritskaia
byzanz
bzw
c
ca
cabinda
cabinet
caesar
cafe
cairn
cale
california
calling
calmont
calobra
cam
camargo
cambridge
camp
campbell
camus
can
canada
canadian
canterbury
capella
capilla
capital
capitol
carara
carew
cargo
carl
carlo
carlos
carmen
carneval
carolina
caroline
carolinensiel
carpenter
carpenters
carte
carter
cartier
caru
casino
castrop
cat
catalana
catalans
catalunya
caterina
catharina
cathedral
cattanei
cave
ccaa
cd
cds
cdu
ce
cecilia
ceg
cent
center
centr
central
centre
centro
centrum
century
ceres
ceylon
ch
cha
chaat
chaite
champenois
champions
chance
chandrayaan
channel
chanson
chapelle
chaplin
chapman
character
charakter
charles
charlie
charlotte
charon
charts
chase
chd
chde
che
cheerleader
cheeseman
chef
chelche
chemie
chemiker
chemische
chende
cher
cherei
cherschaaf
ches
chezer
chi
chiang
chicago
chile
chili
china
chinese
chinesisch
chinesische
chlich
chlije
chlisch
chlo
chlodwig
chlodwisch
cho
chodorkowski
chor
chorus
chr
chris
chrisboom
christ
christa
christchurch
christe
christensen
christentum
christi
christian
christina
christine
christmas
christoph
christopher
christos
christus
christusmonogramm
chrysostom
chs
chsche
chsesch
chste
chstes
cht
chte
chter
chtichkeet
chtig
chtije
chtijes
chtlijje
chtlinge
chtlish
chtnissta
chtniswa
chung
chz
chzoch
chzoreroth
ci
cilia
cincinnati
circa
circle
citea
city
ciutat
civilis
ck
ckberg
ckche
ckcher
ckd
ckde
cke
ckelche
cken
cker
ckerath
ckerche
ckere
ckes
ckesdo
ckije
ckja
ckjelosse
ckjetrocke
ckkehr
cklesch
cklich
ckling
ckmann
ckner
cko
cksche
ckscher
ckschlachventill
ckse
cksher
ckspill
ckt
ckte
cktra
cktrett
cktrische
cktrock
ckung
ckunge
ckzedaach
ckzedaachs
ckzedach
ckzodaach
clan
claude
claudia
claus
cle
cleefs
clemens
cleve
cleveland
clinton
clita
clovis
club
clubs
cm
cn
co
coastal
cobar
cochem
cocl
code
codex
cogan
cole
colina
collage
college
collin
collins
colombia
colombo
colonia
color
columbia
columbus
com
comares
come
commons
commonwealth
completes
computer
computere
con
concepcio
condoleezza
conigli
consequat
consetetur
consolatrix
content
contents
contest
contra
coo
copernicium
coponius
corbin
corbusier
cornelia
cornelis
cornelissen
cornett
corporation
corr
correa
costa
costello
could
council
county
covington
cowboy
cox
craigieburn
cramer
cranach
creek
crefelder
criccieth
critical
cro
croce
cronin
crook
cs
csu
ct
cu
cuisine
cultura
cup
curial
curitiba
curran
cut
cuyahoga
cyrillic
cyrus
d
da
daa
daach
daachs
daag
daags
daahd
daal
daan
daare
daat
daate
dabei
dach
dachau
dachs
dad
dadd
dae
daee
daffrikka
dafo
dafrika
dag
dagmar
dahi
daily
dalai
dali
dallas
dalli
damalije
damals
dame
damerika
damerikanische
damet
damit
damm
damolije
damols
dampfbier
dampfmaschiin
dampfmaschin
dan
dana
danach
dandy
daneben
daniel
dank
dankde
danke
dann
dans
danz
danzde
danze
danzig
danzkorps
danß
dao
dar
daran
dare
darf
darjestellt
darmstadt
daro
darref
darstellung
darv
darwin
das
dash
dass
dat
date
datei
daten
dativ
datt
datte
dattele
dattum
datum
dauer
dauernde
daughters
daughton
daum
dausend
dausende
david
davis
davon
davun
day
days
dayton
dazo
db
dbevve
dbro
dche
dcher
dcherschull
dd
ddche
ddcher
dde
ddedom
ddeil
ddel
ddelche
ddelt
dder
ddes
ddin
ddisch
ddische
ddo
ddr
ddscher
de
dea
dean
death
decamp
dech
dechant
dechter
deck
decke
deckel
decker
deckko
deckkopp
decksteiner
decoder
dee
deed
deef
deefer
deehd
deeijl
deel
deeld
deelde
deele
deeler
deeljenomme
deelna
deels
deelwies
deelwiese
deelwiiß
deen
deend
deende
deene
deener
deenere
deenst
deenstleistunge
deent
deenß
deep
deepde
deepe
deeper
deepste
deer
deere
dees
deesch
deeschte
deeschter
deeshte
deeshter
deet
defa
defeniert
definitief
definitiun
degraa
dehmo
dehoga
deht
dei
deiht
deiit
deijl
deijle
deijsch
deijt
deil
deile
deils
deimos
deine
deisch
deische
deit
dejl
dejsch
dejt
deka
deken
dekke
del
delawa
dele
deler
delgado
della
delling
delta
dem
demand
deme
demjanjuk
demm
demokrat
demokrate
demokrati
demokratie
demokratische
demonstratiune
den
dene
deng
denge
denger
dengkmol
dengkmool
denis
denison
denisova
denk
denke
denkmalpflege
denkmol
denkmool
denkt
denn
denne
dens
denst
dentale
denver
departement
deportes
depressiune
der
derbei
dere
derek
derekt
derekte
deren
derich
dermiehts
dermiihtß
dernau
dernoh
ders
dersellve
des
desargues
desch
desdens
dese
desh
deshalb
deshalef
deshalev
deshalv
desheim
desktop
desmol
desmoll
dessau
destens
destino
deswa
det
details
detlef
detmold
detroit
deu
deue
deurne
deuropa
deut
deutlich
deutsch
deutsche
deutschen
deutscher
deutschland
deuvel
deza
dezember
dezemmber
dfb
dfk
dfrankreich
dhaalvkowel
dhl
di
dia
diala
dialek
dialekk
dialekt
dialekte
dialekts
diam
diamant
diamante
diana
diane
dich
dichte
dichter
dick
dicke
did
die
diech
dieckmann
diego
dieksiejoneer
dien
dier
dierche
diere
diese
dieser
dieter
diethylenglykol
dietrich
dih
dii
dijajramm
dijala
dijalekk
dijalla
dije
dijje
dikke
diksjona
diktator
diktatur
dim
din
ding
dinge
dingem
dinger
dinsel
diogenes
diplomat
dippeliinchen
dir
dira
direk
direkt
direkte
direktor
dirrekt
dis
disch
dische
diseux
dish
diskutiert
dismol
disney
diss
disse
distribution
distributoren
dit
diva
diverse
dizze
dj
djer
djers
dkorea
dkund
dlemborsh
dlesch
dlich
dliche
dlichen
dlijje
dlisch
dlische
dm
dmitri
dna
dns
do
doa
doaba
doadorch
doadurch
doafu
doamals
doamet
doamit
doamoalijen
doamoals
doanoa
doanoah
doavan
doavun
doazo
dobbelt
dobe
dobei
dobeij
dobeijehu
dobej
doch
dochmacherhoff
dochter
dodo
dodoorch
dodorch
dodren
dodro
dodrop
dodurch
doe
doee
doer
dofo
dofu
dofun
doh
doha
dohen
doher
dohfun
dohin
dohmet
dohmohlijje
dohmohls
dohmohlß
dohmols
dohter
dohuk
doi
doitsche
doja
dojestalld
dojestallt
dojtshlannt
dokementazjon
dokkema
dokkument
doktor
doktr
dokumentation
dokumente
dol
doll
dollar
dollartshammer
dollste
dolmen
dolni
dolor
dolore
dolores
dom
doma
domain
domals
domed
domenico
domet
domingo
dominik
domit
domohls
domols
domplaat
don
dona
donald
donar
donato
donatus
donau
donelli
dong
donisl
donn
donnejott
donnerbersch
donnersdach
dono
donoh
donoo
doo
doochter
dood
doof
dooh
doohter
doohtr
doorch
doorchmesser
doors
doorsch
doosch
doot
dooter
dootr
dor
dora
doraa
doran
dorch
dorchmesser
dore
doren
dorf
dorfe
dorin
dormaje
dormare
doro
doronger
dorop
doropha
dorophen
doropp
dorothea
dorp
dorper
dorr
dorref
dorresch
dorresh
dorrsch
dorrsh
dorsch
dorsh
dort
dortmund
doru
dorus
doruss
dorv
dos
doste
dostelle
dostellung
dosten
dot
doto
dott
dottedo
douard
douerte
douglas
dousend
dousende
dova
dovan
dovo
dovon
dovu
dovun
down
downs
dozo
dozoh
dozoo
dozu
dozwesche
dozweschen
dplaate
dpol
dpool
dpsg
dr
dra
draan
draare
drachefa
dracula
drahn
dran
drann
drare
dre
dream
dreams
dreck
drei
dreiborn
dreide
dreides
dreidjru
dreieck
dreiecke
dreij
dreijesteen
dreijesteern
dreiko
dreila
dreilengereck
dreimol
dreimoll
drej
dremmener
dren
drenk
drenke
drenn
drenne
drenthe
dresden
drette
drey
drickes
drie
drieht
driihboch
driihnd
driihnde
driihne
driihnt
driije
driind
driinde
driine
driint
driit
driivd
driive
drin
dringke
drink
drinke
drinn
drinne
driss
dritte
dritten
drißß
drißßish
drißßishßte
dro
droansdo
drob
droch
drock
droht
droje
drok
drom
dromeru
drommer
drong
dronge
dronger
dronke
dronsdo
drooch
droohd
droom
drop
dropp
droppe
droste
dru
druck
druckkno
druckknoof
drunge
drunger
drury
drus
druss
drusse
druuve
druß
druße
drußß
drußße
ds
dschabejewitsch
dsche
dschen
dscher
dspanische
dste
dsudan
dswarel
dt
dtche
dte
dtebuch
dten
dteregion
dteregiun
dtetages
dtevro
dtische
dtje
dtkondt
dtsche
du
dubai
dubbel
dubbeld
dubbelte
dublin
dud
dude
dueren
duet
duis
duisburch
duisburg
duisbursch
duisdo
duisdorf
dumm
dumme
dumont
dun
dunkel
dunkele
dunkle
dunn
dunnemols
dunnt
dunt
duo
dur
durch
durde
dure
durjeneen
dursch
dursh
dursj
dusche
dusende
dusseldorf
dut
dutch
dutert
dutzend
duud
duude
duur
duurd
duurde
duure
duurt
duut
duutsj
duvventr
duzende
dvd
dweste
dwight
dyk
dynastie
dz
e
ea
earth
ease
east
ebbe
ebene
eberhard
ebon
ecclesiae
ech
echnaton
echnatons
echo
echt
echte
eck
ecke
eckenhagen
eckersch
ecser
ecuador
ed
eda
edd
edda
eddie
ede
edelweißpirat
edelweißpirate
edicions
ediger
edison
edition
editore
edmund
edo
eduard
educac
edward
ee
eefach
eefel
eeh
eeijn
eeijne
eeijnmol
eeine
eeje
eejeart
eejedo
eejedom
eejene
eejenen
eejenkirche
eejensta
eejentlich
eejn
eejo
eemmer
eemol
eemoll
een
eene
eenem
eener
eenfach
eenha
eenheimische
eenich
eenije
eenijung
eent
eenwohner
eenwunner
eenzijer
eere
ees
eesch
eesche
eescht
eeschte
eeschter
eeste
eets
eetste
eetz
eetze
eetzte
eetß
eetßte
eez
eezde
eezte
ef
efel
efeler
effangjeelesh
effere
effzeh
eg
egidio
egmond
eh
ehe
ehem
ehemaligen
ehemaliger
ehemolige
ehemolije
eher
ehm
ehn
ehne
ehr
ehre
ehrem
ehreshoven
ehrhard
ehts
ei
eids
eie
eiekroon
eier
eifach
eifel
eiff
eigene
eij
eije
eijen
eijenarte
eijene
eijensta
eijentlesch
eijentlich
eijentliche
eijentlisch
eijentlische
eijentlish
eijeschaffte
eijfach
eijfel
eijmol
eijmool
eijn
eijne
eijner
eijnfach
eijnwohner
eijnzije
eijnzijje
eilfeld
eimer
eimol
ein
eine
einem
einer
eines
einfach
einfache
einhard
einheit
einheite
einheitezeiche
einiger
einije
einmal
eins
einsatz
einstein
eintracht
einwohner
einwohnerzahlen
einzel
einzelne
einzije
einzijje
eipbach
eirmod
eisch
eischem
eischwieleplatt
eischwiller
eisenbahn
eisenhower
eisenstein
eishockey
eitorf
eiwiss
eiße
ej
ejaal
ejal
eje
ejemoolijje
ejene
ejentlesch
ejentlich
ejfel
ejn
ejndhoave
ejne
ejner
ejnije
ek
ekersch
el
ela
elba
elbe
elberfeld
elche
eldere
eleeferoot
elefant
elefde
elektron
elektrone
element
elementardeelsche
elemente
eleonora
eleventh
elfert
elias
elisa
elisabeth
elisabethquell
elise
elitr
elizabeth
ella
ellchermo
elldere
elle
ellef
ellefte
eller
els
elsa
else
elsner
eltz
eltzer
em
embken
emden
emer
emi
emijrante
emil
emilian
emilio
emm
emma
emmanuel
emme
emmer
emmerich
emmo
emol
emons
empfa
empfange
en
enander
end
enda
endda
enddeck
ende
endeilung
endenesch
endenich
enderjebnis
endert
endingen
endlich
endt
ene
enee
enem
enen
ener
energie
enerjie
enfach
enflo
enfloß
eng
engagement
enge
engel
engelbert
engels
engelsch
engelskirchen
engen
engk
engklich
engl
engla
england
englesch
englisch
englische
english
engorna
enid
enjefu
enjesa
enjesatz
enjesaz
enjetrokke
enkel
enkele
enkelheete
enkelnoahwiesjere
enklave
enkoofe
enn
enna
enndra
enne
ennem
ennen
ennepolitik
enner
ennere
ennet
ennfloß
enno
enns
ennwunner
ennzoteere
ens
ensel
enselle
enstande
ensteht
enstehungsdatum
enstelle
ent
entda
entdeck
entdeckd
entdeckt
entdeckung
entdeckungen
enterta
entfa
entfeernt
entha
enthalde
entja
entlang
entlosse
ento
entscheed
entscheede
entscheide
entschloss
entsprich
entsproch
entsta
entstande
entstange
entsteehd
entstehd
entsto
entstoh
entstong
entstonge
entwa
entweckelt
entweder
entweggelde
entweggele
entweggelnde
entweggelt
entweggelung
entwickele
entwickelt
entwickler
entwicklung
entwikele
entwo
entworf
entworp
entworpe
entzu
enwohner
enwohnerzahl
enwonne
enwonner
enz
enzije
enzwesche
enzym
enß
eo
eos
ep
epizentrum
epstein
equatorian
equity
er
eraan
eraf
eraff
erat
erav
erbout
erbrenge
erd
erdbebe
erdbeben
erdjeschoß
erdo
erdrosseld
ere
ereichnisse
ereischnis
eren
erf
erfolch
erfolg
erfolje
erfolsch
erforschung
erft
erftstadt
erfu
erfunge
erfurt
erha
erhaale
erhahlen
erhalde
erhard
erheld
erhoffde
erholle
erich
eriesee
erik
erika
erin
erinn
erinnere
erinnert
erinnerung
erinnerunge
erja
erjebnis
erjebnisse
erjendwann
erjendwi
erjitt
erjoov
erjovve
erka
erkannd
erkannde
erkannt
erkelenz
erkenne
erkla
erkrankde
erkrath
erla
erlaubde
erle
erledije
erlees
erleuchteten
erlich
erlo
erlosse
erlu
erlus
erma
ermo
ernannd
ernannt
ernest
ernestine
ernst
ernte
erntefess
ero
erobere
eronger
erop
eros
erotische
err
erraf
erre
erreich
erreichd
erreichde
erreiche
errichtet
errichtung
errin
errinn
erro
errol
erruß
ersa
ersatz
ersatze
erscheen
erscheene
erscheint
erscheinungsjahr
erschienen
erschingd
erscho
erschooße
erschoss
erschosse
erschoße
ersetzt
erstalld
erstausgabe
erste
ert
ertra
ertrocke
eru
erung
erunger
erus
erusjeflog
eruss
eruß
erußja
erußjejovve
erveehrd
ervonge
ervoor
erw
erwa
erwaad
erwaade
erwaaßene
erwachsenenbildung
erweiterte
erwin
erzbischof
erzbischop
erzbisdom
erzbistum
erzbistums
erzengel
erzherzogin
erzquell
es
escamotage
esch
eschweiler
ese
esh
eso
esperanto
ess
esse
essen
essener
esser
esset
essisch
est
este
estera
esther
estland
esu
esuh
esujaa
esuvell
esuwie
esv
et
eta
etage
etappenhas
etc
ethical
etliche
etlijje
etnijesche
ett
ettlije
ettlijje
etwa
etymologie
etymolojie
eu
euge
eugen
eugenie
eujen
euklid
euklidische
euklids
eulenbroich
eulrichs
eum
eupen
euphrat
eur
eurasische
euregio
euregiobaahn
euro
eurode
eurodif
eurogiobaahn
eurolang
europa
europas
europe
europese
europpa
euros
eurotransplant
eurovision
euskirchen
ev
eva
evangelische
evangelium
evangjillische
evanjelische
events
ever
evers
everts
every
evve
evvel
evver
ewe
ewg
ewwer
ex
exchange
execution
exemplare
exil
existeere
existiert
exklave
expedition
experiment
explosion
explosiun
explosiune
express
expressionismus
extern
extra
extrem
eye
ez
eß
eßß
eßße
f
fa
faahte
faare
faas
faase
faasedijajramm
faasteleer
faastezick
faaß
fabrik
fabrike
fabrikke
fach
fache
fachhuhscholle
facilisis
fader
fahn
fahre
fairbanks
faithfull
fakte
fakten
falcon
falkeburch
fall
falle
falsche
fame
famelesch
famelie
famelisch
famellisch
familich
familie
familienkunde
familije
familisch
famillesch
familliee
famillije
famillisch
fammillisch
fande
fange
fanny
fans
faq
farandola
farao
faraoh
faraonezitt
faraos
farc
farsta
fas
faschiste
fass
fast
fasteleer
fastelovend
fastelovendszoch
fastelovenzjeck
fastelovenzjecke
fastelovvend
fastezick
fatte
fatter
fatty
fay
faß
faßhallde
faßjelaat
faßteleer
faßteloovend
faßß
faßßhallde
fbi
fc
fcn
fdl
fdp
fe
febrowaa
februar
fedder
federal
federation
federer
feehde
feel
feer
feete
feezeente
feinde
feingold
fekt
fel
felche
feld
felde
feldhendler
feldhoff
feldmann
felenbaum
felipa
felix
fell
femen
fenge
fengere
fengk
fenriswole
fente
fer
ferdinand
ferdisch
fere
feria
ferije
ferna
fernando
fernru
fernseen
fernseh
fernsehe
fernsehn
fernsehsendung
fernsehserien
fernuniversita
ferrma
fers
fes
fesch
fess
fessjelech
fessland
fesslich
fesszelt
fesszoch
fest
feste
festhahlen
festival
festland
festspielhaus
festung
fett
feudalziet
feuerzangenbowle
feugiat
ff
ffd
ffe
ffel
ffelshe
ffentlesch
ffentlich
ffentliche
ffentlichkeet
ffentlische
ffer
ffgen
ffje
ffjelengk
ffko
ffne
ffnet
ffnung
ffo
ffte
fftije
fi
fieere
fiehr
fielding
fier
fierda
fierdaach
fiere
fiert
fies
fiese
fiftyfifty
fighter
fiier
fiiß
fiju
fijur
fijure
file
filippine
filius
fill
fille
fillem
fillmore
fillosoff
film
filme
filmjesellschaff
filmjo
filmportal
filmrolle
films
filmsta
fils
fin
final
finale
finanzmaat
finanzmenester
finbot
finde
fing
finge
fingen
finger
fingk
fingt
finis
fink
finland
finne
finnisch
finnische
finnland
finnlandt
finnlannt
finnlant
finster
finsterau
firke
firma
firme
firrma
first
fisch
fischer
fisematente
fisik
fistereno
fisterno
fje
fk
fkk
fla
flaaßbach
flach
flache
flamme
flandere
flaneere
flanndere
flanze
flasch
flash
flavius
fle
flecke
fleeje
fleejerei
fleesch
fleeßt
fleisch
fletcher
fleute
fleuth
flevoland
fliejerhorst
flight
flip
flo
floch
flochhave
flochhaven
flochzeusch
flop
florence
florenz
florida
floss
flott
flotter
floß
floßß
flu
fluch
fluchhaafe
fluchhafe
flucht
fluchzeuch
fluchzeuje
fluchzeusch
fluchzeusche
flupp
fluppd
fluppde
fluppe
fluppte
fluss
flut
flyarystan
flynn
fmd
fnla
fo
foa
fobanndt
fochsche
fochscho
fochschung
fochschungk
fochshung
foda
foder
fodraach
foesballer
fofo
fogg
foha
fohiirohd
foht
fokeer
fokijerß
fokoufe
folaach
fole
folje
foljend
foljende
foll
follies
follje
folter
fom
fon
fonge
fongk
fontana
football
fooß
fooßball
fooßballverein
fooßballvoreijn
for
ford
form
forme
formel
formele
formelle
formelzeiche
forrem
forrest
forschung
forschungsgemeinschaft
forst
fort
fortuna
forum
forwaldt
foto
fotograf
fotojraf
fotojrafe
fotojrafiire
fotomodel
fotomodell
fotos
fotra
fott
fouad
foundation
fourniret
fox
foza
foß
foßball
foßballweltmeisterschaff
fr
fra
fragen
frambach
franc
france
frances
francesca
francesco
francis
francisco
frangke
frangkrich
frangkrisch
frangzo
frank
franke
franken
frankenhausen
frankfocht
frankfurt
frankfurter
franklin
franko
frankreich
frankreisch
frankrich
frankrisch
frankrish
frans
franz
franziskus
franzo
franzu
franzuse
franzusesche
franzuuse
frau
fraue
fraulu
frauminsch
frauminsche
fre
frechen
fred
frederich
frederick
frederik
free
freelingsdorf
freesdo
frei
freiborsch
freiburg
freibursch
freie
freiheit
freiherr
freiko
freilichtmuseum
freising
freistaate
freistaates
freiwillije
freje
frembde
frente
frenzel
fresch
fresche
freske
freud
freut
frida
friddach
frieda
friedens
friedhelm
friedhoff
friedrich
friedrichs
frieje
friesisch
friesische
friesisj
friesland
frije
frijet
frikative
frings
fringse
fritte
frittebuud
fritten
fritto
fritz
fro
froch
frodo
from
fromme
fromminsch
frongß
fronleichnam
front
frooch
frou
froue
froulu
frouminsch
fru
frutos
ft
fte
fter
ftp
ftsfu
ftsmann
ftsvu
fu
fuchs
fuffzeente
fuffzehnte
fukushima
full
fum
fumm
fun
funafuti
fundament
fundamental
fung
funge
fungk
funk
funke
funksproch
funktionelle
funktiun
funn
funz
further
fusch
fuss
fussig
fussko
fuußja
fuß
fy
g
ga
gabi
gabriel
gabriele
gachet
gacilly
gaffel
gagarin
gaius
gajewniki
galerie
galgeberch
gallery
gambia
game
gamma
gandallf
gangemi
gangnihessou
gans
ganymed
ganze
garbatschow
garden
garland
gaston
gauguin
gaulle
gaulstich
gaßprom
gde
ge
gea
geb
gebb
geben
gebildeten
gedaacht
gefa
gegr
geho
gehu
geiht
geij
gej
gel
gela
geld
gelderland
geldern
gelenkhu
gelong
gem
gemaat
gemeinde
gemeinden
gemeinnu
gen
genannt
genau
genauso
gend
genealogischer
general
generalitat
genf
gent
genua
geograph
geographie
geologie
georg
george
georges
georgia
gepa
ger
gera
gerais
gerald
gerd
geregelt
gereon
gerhard
gerhardt
german
germania
germanische
germanischen
germany
gernhardt
gerolsteiner
gerrekens
gerresheim
gerritsen
gerta
gertrud
gertrude
gesaat
gesacht
gescha
geschichte
geschichten
geschichtsverein
geschichtsvereins
gesellschaft
gesocks
gestallt
gestorve
get
gewa
geyser
geysere
geysir
gg
gge
ggel
ggelche
ggelde
ggele
ggelnde
ggels
ggelsche
ggelt
ggema
ggemann
ggsche
ggscher
ggschland
ggzedaach
ghannouchi
gi
giang
gibson
gibt
gica
gilani
gilden
gillard
gillessen
gin
gina
giocondo
giorgio
giovanni
girl
girls
gisele
gitt
gje
gk
gl
gla
gladbach
glas
glasgow
gleichzeitig
gleumes
glich
gliche
gliedert
glouve
glu
gmbh
gnu
go
goat
god
godesberg
gogh
goghs
goia
gold
goldsaft
golf
golias
gollum
goma
gomez
gone
gonn
gonza
good
google
gordon
gorgoroth
gorissen
gott
gottfried
gottschalk
gouda
goudeket
goulart
gouverneur
gov
goya
gpl
gra
graacher
graaf
graetschus
graf
grafschaft
grafschafter
graham
grammatik
grammy
grand
grandezka
gratus
graubu
grauens
gray
great
green
grenz
grenzgebiet
grenzland
gressenich
gression
greta
greven
grevenbroich
grey
griechisch
griffith
grim
grimme
gro
groening
grolsch
groningen
groot
groote
group
grove
groß
große
großen
großherzogtum
gru
grundgesetz
grundschull
gruuße
gste
gte
gu
guadeloupe
guanahani
guangxi
guantanamo
guard
guardian
gubergren
guide
guillaume
guinea
guinessboch
gulf
gumi
guraib
gusenbauer
gustav
gut
gute
guter
gutturale
gwynedd
gyatso
gymnasium
gypten
gyula
gɑ
h
ha
haa
haade
haafe
haafen
haafestadt
haag
haale
haan
haander
haanrade
haas
haasbach
haasbachs
haave
haaven
habe
haben
habilis
hachenberg
had
hadd
hadde
hafen
hagelslag
hagen
hahn
hahne
haht
hahten
haie
hair
hairspray
halbach
hald
halde
hale
halev
halevmoond
half
hall
hallde
halle
hallef
hallev
hallo
halloween
hallstein
hallv
hallve
hals
halt
haltbar
halv
halve
halver
halvfinale
halvinsel
halvmilita
ham
hamacher
hamburch
hamburg
hamilton
hamisch
hamm
hamme
hammel
hammer
han
hand
handbuch
handel
handele
handeln
handelnde
handelt
handkies
handlung
handt
handvoll
handwerk
handwerker
handy
hanfbach
hang
hange
hangeloor
hangk
haniyya
hankou
hann
hanna
hannah
hannd
hanndel
hannelore
hannes
hannover
hanns
hannt
hans
hanse
hansen
hansgerd
hansjo
hanswurstliche
hant
harald
harare
harding
hardt
hardtbersch
hardy
harmenie
harmonie
harnro
harold
harri
harriet
harris
harry
hart
harte
hartes
hartheim
hartmann
harvard
harvey
harz
hasch
hass
hast
hat
hatt
hatte
hatten
hau
haud
haupbahnhoff
haupjrupp
haupsa
haupsaach
haupschull
haupsetz
haupstadt
hauptamtlicher
hauptroll
hauptrolle
hauptsa
hauptstadt
hauptstormvu
hauptstr
hauptvrau
haus
hausen
hauser
hauset
haut
haute
hauw
have
havel
haven
havilland
havo
hawai
hawaii
hb
hd
hde
hder
hdo
he
hea
heart
heath
heavy
hebe
hebeij
hebra
hebrew
hee
heechd
heeche
heecht
heed
heedless
heeld
heelt
heelten
heem
heemo
heen
heer
heerlen
heerschaff
hees
heesch
heeschd
heesche
heescht
heesters
heeß
heeße
heeßen
hefe
heft
heh
hei
heide
heidelberg
heidewitzka
heidi
heij
heijm
heijmans
heijnz
heijs
heijß
heijße
heike
heil
heilich
heiliger
heiliges
heilmann
heim
heimat
heimatforscher
heimatforscherin
heimatforschung
heimatgeschichte
heimatleed
heimatmuseum
heimatpflege
heimatverein
heimbach
heimbacher
heime
heimisch
heimlich
hein
heinckel
heiner
heinrich
heinrichs
heinsberch
heinsberg
heinsbersch
heintz
heinz
heis
heische
heit
heiß
heiße
heißt
hej
hejm
hejmat
hejß
hektar
hela
helaba
helau
held
helde
helden
helena
helene
helf
helfe
helga
helije
helios
helium
hell
helle
hellef
hellenkemper
hellenthal
hellere
hellfe
hellich
hellije
hellisch
helmut
help
helpd
helpe
helpo
helsinki
helt
helte
helvetic
hem
hemmel
hemmelvahrtswa
hen
henckels
hendrerit
hendrik
heng
henge
hengebach
henger
hengerjrond
henkel
henkelma
henker
henn
hennef
henner
hennes
henning
hennot
henny
henri
henry
henscha
hepcidin
hepunk
her
herausgeber
herausgegeben
herbert
herbst
herchen
here
heribert
herkenrath
herku
herkunff
herkunft
herman
hermann
hermione
herne
hero
herodes
herr
herre
herren
herrensitz
herring
herrjott
herrlichkeit
herrschaff
herrschaffsjebiet
herrschaft
herrscher
herrwegen
hersel
hershey
hertseroa
hervo
herzegovina
herzejowina
herzo
herzog
herzogdom
herzogenrath
herzogtum
hes
hesche
hesse
hessen
het
hetepsechemui
heumaat
heuschra
heut
heute
heutije
heutijen
hewa
hex
hexe
hexejachd
hexenwahn
hexeprozesse
hey
heyn
hezo
heß
hf
hhonget
hi
hichkeet
hie
hier
hierbei
hierode
high
highway
hiirod
hiirode
hiiroode
hiiroot
hildegar
hildegard
hilden
hildesheim
hilfe
hill
hillary
hillije
hillijen
hills
hilson
hilton
himmel
himmelfaat
himmelsko
himmler
himp
hin
hindenbursch
hindi
hinge
hingen
hinger
hingerher
hinlegen
hinspill
hinterland
hinweisen
hinzoo
hir
hiroode
hirring
hirrings
hirringsschlot
hirte
his
hispaniola
histo
historie
historiker
historisch
historische
historischen
history
hit
hitchcock
hitler
hitlers
hits
hja
hje
hjelche
hjelp
hjen
hjer
hk
hkste
hl
hlau
hld
hlde
hldesten
hle
hlen
hlende
hlender
hler
hlere
hlich
hling
hlste
hlt
hlßte
hm
hmann
hmd
hme
hmen
hmesche
hmische
hmp
hmt
hmte
hmteste
hn
hnche
hnd
hndlish
hne
hner
hnesto
hnlejje
hnlesch
hnleschkeite
hnlesh
hnlich
hnliche
hnliches
hnlichkeet
hnlichkeete
hnlijje
hnlisch
hns
hnt
hnung
hnz
hnzwo
hnzwoh
ho
hoa
hobbit
hobbits
hoch
hochdeutsch
hochdeutsche
hochkant
hockey
hod
hodd
hodde
hoddis
hode
hoee
hoenzollonbro
hoesch
hoezer
hof
hofbra
hoff
hoffde
hoffe
hoffmann
hoffmo
hoffnung
hoffnungsthal
hoffschu
hogwarts
hohkeppel
hohlz
hoi
hokusai
hold
holde
holding
holl
holla
holland
hollander
holle
hollendsj
hollendsje
hollesch
hollesj
hollesje
hollt
hollte
hollywood
hollz
holocaus
holocaust
holp
holpe
holsj
holsteijn
holstein
holz
holzschnett
holzschnitt
homburg
home
homepage
homer
hommersch
homo
homos
hond
hondede
hondet
hondo
honduras
hong
honger
honk
honnef
honnen
honolulu
hood
hoof
hoofewiiß
hoofsjtad
hooke
hoor
hoore
hoot
hoote
hoots
hoov
hope
hoppe
hor
horio
horizonte
horn
hornig
horror
horrorfilm
horst
horster
horumersiel
horus
horusnaam
hosch
hosche
hosk
hot
hota
hotel
hotels
hott
hottel
houben
houdin
houfe
houm
houmpa
houp
houpbaanhoff
houpbahnhoff
houpsa
houpsaach
houpsach
houpschtadt
houpshtadt
houpshtroohß
houpsigk
houpstadt
houptsa
houptshtandort
house
houston
houw
houwe
hovve
how
howard
hozelt
hpopp
hr
hrd
hrde
hrdisch
hre
hren
hrend
hrer
hrersching
hrich
hrige
hrigen
hrije
hrisch
hrlesch
hrliche
hrsen
hrsg
hrsischen
hrst
hrt
hrte
hrten
hrung
hrunge
hrvensungerhaalt
hs
hscher
hse
hsel
hstens
ht
hte
hten
hter
htere
htich
htisch
htm
html
http
https
hu
huambo
huang
hubert
hubertus
hubschrauber
huch
huchdu
huchland
huchschu
huchzitt
hue
huet
huf
hughes
hugo
huh
huharabisch
huhdeutsch
huhdo
huhdu
huhe
huher
huhfess
huhhillijen
huhhu
huhkeppel
huhmiddelalter
huhrhing
huhschool
huhschull
huhwasser
huhzick
humboldt
hummele
hunan
hundernem
hundert
hundhausen
hundsangen
hunger
hungk
hunsru
hunter
hurrikan
hus
huse
huskowski
hussein
husum
hutt
hutton
huuch
huue
huuhrhing
huus
huuß
huußha
huß
hy
hyde
hyon
hypotheess
hß
hßelde
hßele
hßte
i
iana
iata
ibn
ibou
icann
icao
ice
ich
id
ida
idee
ideee
ideeje
ie
iee
ieh
iehr
iehrter
iehrung
ier
iere
ierem
iers
iersch
ierschte
ierschten
ierste
ierzte
iese
iesebaan
ieser
iestsied
ieß
if
igualeja
ih
ihd
ihm
ihn
ihr
ihre
ihrem
ihremol
iht
ihui
ii
iich
iier
iiere
iiesebahnstreck
iih
iihr
iihre
iihrunge
iii
iir
iire
iirz
iirzte
iirzten
iis
iisch
iise
iisebaahn
iisebahn
iisemaat
iiser
iivich
iiwich
iiß
ij
ijd
ijde
ijdong
ijdt
ijdung
ije
ijelshte
ijelste
ijem
ijen
ijene
ijer
ijeschaffte
ijf
ijfach
ijj
ijl
ijle
ijm
ijmol
ijmool
ijn
ijnde
ijndt
ijne
ijnem
ijnesch
ijnesche
ijnhe
ijnt
ijnzel
ijnßpooz
ijo
ijor
ijs
ijsch
ijsche
ijse
ijsh
ijshe
ijshesatz
ijshpell
ijshpo
ijshteffte
ijspell
ijt
ijte
ijve
ijz
ijß
ijße
ik
ikb
ike
il
iller
illineus
illinois
illum
ilse
im
image
imdb
imelda
imi
imis
imm
imma
imme
immer
immichroth
immis
impressionismus
in
ina
inberoofe
inc
increment
inda
indagacions
inde
independence
index
indian
indiana
indianer
indianerstamm
indie
indien
indije
indische
indojermanesche
indojermanische
indonesie
indonesien
industri
industrialisierung
industrie
industriekultur
industrii
indymac
ine
iner
inere
inf
inflatiun
info
informatik
information
informatione
informationen
informatiun
informatiune
infos
infrastruktur
ing
inge
ingenieur
ingernazional
ingernazjonaal
ingernazjonaale
ingernazjonale
ingernet
ingmar
ingrid
injebout
injefu
inkl
inn
inndije
inne
innem
innerhalb
innet
inquisition
ins
insekte
insel
insele
inseljrupp
inseln
insjesamp
inspiration
institut
institute
instrumente
interessant
interesse
interfet
international
internationale
internet
internetseite
interpret
into
intressant
invalidendom
invasiun
invidunt
inwohner
inyangani
inz
inßtruma
io
ion
iowa
ip
ippedo
ippendorf
iprage
ipsum
ipv
ir
irak
irakkresch
iran
ire
ireen
irena
irische
irish
iriure
irjends
irjendwann
irjendwi
irjendwo
irland
irrjent
irsche
irschte
irste
irving
is
isaac
isabel
isabeli
isabella
isbn
isc
isch
ischde
ische
ischt
ischte
ischter
ish
ishe
isi
isidore
isildur
isla
islam
islamische
island
isle
ismail
iso
isojlosse
isola
ispill
israel
iss
isset
ist
istanbul
it
ita
itaalije
italia
italie
italien
italienische
italije
italja
ite
item
iten
itil
itschland
ittner
iv
iwan
iwf
iwich
iwichkeet
iwisch
iwwer
ix
izabel
iß
iße
ißß
j
ja
jaa
jaachd
jaad
jaade
jaadebau
jaadens
jaahrhondo
jaahß
jaan
jaanit
jaanitt
jaar
jaare
jaas
jaaß
jaaßkammer
jaaßkammere
jabatan
jabukovac
jachd
jacht
jack
jackson
jacob
jacques
jadinge
jadinnge
jae
jaffel
jahrbuch
jahre
jahrhondo
jahrhundert
jahrhunderte
jahß
jaiajaad
jaipur
jakob
jakobiner
jal
jalaksie
jalaktesch
jalaxie
jall
jallerie
jallie
jallo
jalmei
jalmeiveilche
jalmeiveilcher
jalt
jamaika
james
jan
jandallf
jane
janeiro
janet
janett
jang
jange
jangk
janneke
janneken
janneketaal
jannings
jannowaa
janns
jannz
jannze
jannß
janosch
jans
janse
janu
januar
janus
janusz
janz
janze
janzen
janß
japan
japaner
japanesche
japanese
japanische
jar
jardinge
jarnet
jas
jasa
jason
jasthuus
jatropha
jattung
jaunere
java
javier
jay
jazz
jaß
jaßkammer
jaßkammere
jaßwarel
jaßwarels
jc
jdsch
je
jea
jeacht
jean
jeanjreff
jeanne
jearbeid
jeba
jebacke
jebau
jebaut
jebeed
jebeede
jebeet
jebehd
jebeld
jebess
jebied
jebiet
jebiete
jebietsreform
jebiid
jebiit
jebiite
jebild
jebildt
jebirje
jebirsches
jeblevve
jeblieve
jeblievve
jeblivve
jebliwwe
jebo
jebohre
jebonge
jeboohre
jeboore
jebootsdaach
jebore
jeboud
jebout
jeboute
jebouwd
jebouwde
jebra
jebraach
jebraad
jebraat
jebrannt
jebraut
jebro
jebroche
jebroen
jebroode
jebrout
jebrouwd
jebruch
jebruche
jebruchte
jebrud
jebrudd
jebrutt
jebu
jebuddelt
jebunge
jeburt
jeburtsnaam
jebuurt
jebuut
jechner
jechnere
jeck
jecke
jed
jeda
jedaach
jedaahd
jedanke
jedau
jedautal
jedd
jedde
jedder
jeddes
jede
jedeel
jedeeld
jedeelt
jedeent
jedeesh
jedehmo
jedem
jeden
jedenfalls
jedenk
jedenke
jedenksta
jeder
jedes
jedet
jedeuf
jedeut
jedicht
jedichte
jedo
jedoch
jedonn
jedoo
jedooh
jedraare
jedrieht
jedriihnd
jedriihnde
jedriihnt
jedro
jedronge
jedronke
jedru
jedrunke
jedu
jeduurd
jeduurt
jee
jeed
jeede
jeedem
jeedenfallß
jeeder
jeedes
jeedeß
jeehd
jeeht
jees
jeestinge
jeet
jeeße
jefa
jefaa
jefaahre
jefaare
jefahre
jefalle
jeff
jefferson
jefiert
jefloore
jeflupp
jefo
jefolje
jefoltert
jefonge
jeftije
jeftisch
jefu
jefunge
jegru
jeha
jehad
jehadd
jehalde
jehallde
jehange
jehat
jehatt
jehd
jehde
jeheim
jeheimdeenst
jeheiße
jehieroot
jehiirod
jehirn
jeho
jehoee
jehoffd
jehold
jehollt
jeholpe
jehood
jehoot
jehoote
jehot
jehouwe
jeht
jehu
jehuchter
jeiht
jeijd
jeijht
jeijt
jeil
jeisele
jeit
jeißbock
jeja
jejachd
jejange
jejch
jeje
jejen
jejend
jejenwa
jejesse
jejevve
jejlo
jejlood
jejosse
jejovve
jejovven
jejraave
jejrave
jejro
jejru
jeka
jekalld
jekallt
jekannt
jekla
jeklaud
jeklaude
jeko
jekoch
jekomme
jekooch
jekoovd
jekouf
jekra
jekroomt
jeku
jekumme
jekummen
jel
jela
jelaach
jelaad
jelaat
jelajert
jeland
jelange
jelche
jeld
jeldbu
jelde
jelderland
jeldja
jeldnut
jele
jeleje
jelev
jelich
jelichde
jeliche
jelicherwiiß
jelichkeed
jelichkeet
jelichkeete
jelichst
jeliehrt
jeliehrte
jeliert
jeliird
jelinge
jelisch
jelld
jelldere
jelle
jellt
jeloaßen
jelong
jelonge
jelosse
jeloufe
jelt
jelß
jem
jema
jemaad
jemaade
jemaaht
jemaat
jemaate
jemaht
jemarkung
jemat
jeme
jemeend
jemeende
jemeenden
jemeendens
jemeenschaf
jemeenschaff
jemeenschaft
jemeenschaftliche
jemeent
jemehn
jemeijnde
jemein
jemeind
jemeinde
jemeinsam
jemeinsame
jemeinsamme
jemeinschaff
jemeint
jemeiße
jemejnde
jemejnt
jemeld
jemeldt
jemend
jemengschaff
jemesch
jemesse
jemingde
jemo
jemoeld
jemoes
jemohld
jemold
jemolt
jemoohlt
jemoolt
jemu
jemutmaßt
jen
jena
jenangk
jenannd
jenannde
jenanndt
jenanndte
jenanngk
jenannt
jenannte
jenau
jenaue
jenauer
jenaues
jenauesu
jenausu
jend
jende
jendt
jene
jeneck
jenera
jeneral
jeneratiune
jenever
jeng
jenheit
jenna
jenne
jenner
jennetiv
jenniches
jennije
jeno
jenoch
jenomme
jenooch
jenotzd
jenotzt
jenou
jenoue
jenoujenumme
jens
jensatz
jent
jentlesch
jentlich
jenu
jenua
jenumme
jenutz
jenutzt
jeo
jeografie
jeografische
jeojrafie
jeometri
jeometrie
jeorgie
jeorjie
jeorjische
jepa
jepaach
jepackd
jeplaant
jepland
jeplande
jeplant
jepo
jepra
jepro
jer
jera
jeraad
jerad
jere
jerechnet
jereech
jereesch
jeresse
jerich
jericht
jerichtshoff
jermaane
jermaansch
jermaansche
jermane
jermanesch
jermanesche
jermanische
jern
jero
jeroffe
jeroofe
jeroonde
jeroone
jerreshem
jerry
jeru
jerusalem
jesa
jesaad
jesaaht
jesaat
jesaht
jesammeld
jesammelt
jesamte
jesamtheed
jesang
jesat
jesatz
jesatze
jesaz
jesch
jescha
jeschaff
jeschaffe
jeschafft
jeschech
jescheck
jescheckd
jescheckt
jescheech
jescheede
jescheesch
jescheesh
jeschenk
jeschenke
jeschich
jeschichde
jeschicht
jeschichte
jeschick
jeschie
jeschisch
jeschla
jeschlaare
jeschlare
jeschlecht
jeschlechtsorjane
jeschlooße
jeschlosse
jeschloße
jeschmack
jeschmak
jeschmiird
jeschmo
jeschmu
jeschnappd
jeschnappt
jeschner
jeschnibbelte
jescho
jeschooße
jeschosse
jeschra
jeschreve
jeschrevve
jeschrewwe
jeschrieve
jeschrivve
jeschriwe
jeschtallt
jeschtorrve
jeschtorve
jeschu
jeschwaadt
jeschwad
jeschwadt
jeschwindigkeijt
jeschwister
jeschwistere
jesech
jesechert
jesechter
jesee
jeseeh
jeseejelt
jeseesch
jeseesh
jesell
jesellschaf
jesellschaff
jesellschaffte
jesellschaft
jesellschafte
jesenn
jeses
jesesch
jesetz
jesetze
jesetzliche
jeshpellt
jeshpillt
jeshrevve
jeshrivve
jeshta
jeshtannde
jeshtorrve
jeshtorve
jeshtu
jeshwaadt
jesinn
jesjiechte
jeso
jesoffe
jesond
jesondheed
jesondheet
jesonge
jesood
jesoot
jesorchd
jesorcht
jespannd
jespelld
jespellt
jesperrd
jespillt
jespra
jesproche
jesse
jestald
jestalld
jestallt
jestalt
jestange
jestard
jesteen
jestein
jestellt
jesto
jestoche
jestoppd
jestorrve
jestorve
jestorwe
jestu
jesu
jesunge
jesus
jet
jetra
jetrennt
jetrocke
jetrodde
jetroffe
jetroke
jetrokke
jets
jett
jetto
jetz
jetzije
jetzt
jeva
jevaahr
jevaahre
jevaare
jevalle
jevange
jevangene
jevangeschaff
jeve
jeveel
jever
jeviert
jeviird
jevloore
jevo
jevonge
jevu
jevve
jewa
jewaaße
jewald
jewalt
jewann
jeweech
jeweese
jeweet
jeweihd
jeweiht
jeweils
jewennd
jewennt
jewerkd
jewerkt
jewerrek
jewese
jewess
jewesse
jeweße
jewinne
jewiss
jewisse
jewo
jewodene
jewonn
jewonne
jewonnt
jewoode
jeworde
jeworpe
jewoß
jewu
jewudde
jewunne
jez
jeza
jezalld
jezallt
jezapp
jezeech
jezeechd
jezeecht
jezets
jezoch
jezu
jezwonge
jh
ji
jia
jiang
jibbet
jid
jidd
jiddet
jiena
jiesekereke
jiesekerke
jih
jihscheland
jii
jild
jill
jilld
jillt
jilt
jimli
jimmy
jing
jinge
jingk
jingke
jip
jipfl
jipskopp
jipten
jirrelsteener
jit
jitarr
jitsch
jitt
jitta
jittere
jittet
jitz
jivv
jivvt
jje
jjel
jjelesch
jjeleschke
jjelich
jk
jl
jla
jlaas
jlaaß
jlabbach
jladbach
jladd
jlas
jlatt
jlaube
jleisch
jleise
jleuf
jleumes
jleumeß
jleuve
jleuven
jlich
jliche
jlichen
jlichheijt
jlichzittich
jlisch
jlische
jlish
jlo
jloote
jlu
jm
jn
jna
jnde
jndt
jne
jner
jnha
jnschaff
jo
joa
joachim
joahr
joahre
joahren
joahrhundert
joahv
joan
joana
joans
joar
joare
joarho
joarhondet
joav
jobootßdaachßpaati
joch
jod
jodbachsjtroas
jodd
joddes
joddeshuuß
jode
jodesberjer
jodesbersch
joe
joer
jof
joff
joh
johan
johann
johanna
johannes
johf
john
johnson
johondert
johondot
johr
johre
johresdaach
johrhondert
johrhonderte
johrhondet
johrhundert
johrhungert
joht
johv
jold
jolde
joldene
joldnaam
joldschmitz
joldt
jolf
jollde
jolson
jolt
jom
jommer
jon
jong
jonge
jongsteenzitt
jonn
joo
jooch
jood
joode
joodt
jooe
joof
jooh
joohe
joohr
joohrdusend
joohre
joohrelang
joohreszitt
joohreszitte
joohrhondo
joohrhonnert
joohundert
joohunndot
joor
joore
joorhonderd
joorhondert
joorhundert
joos
joot
joov
joove
jooße
jordan
jordanie
jorge
jose
josef
josefin
joseph
josephine
josephus
jot
jotik
jotische
jotisches
jott
jotteshuus
journalist
jov
jovv
jovve
joy
jpg
jr
jra
jraab
jraad
jraaf
jraafen
jraat
jraav
jraave
jraavens
jraavkammer
jraavmal
jraavplaate
jraaz
jrad
jraf
jrafe
jraff
jrahd
jramm
jrammatesche
jrammatik
jranada
jrat
jrau
jraven
jravens
jravitation
jraßhuuß
jre
jreff
jreffe
jregorijanische
jregorijanishe
jrejor
jrenada
jrens
jrenz
jrenzd
jrenze
jrenzfluss
jrenzt
jrenß
jressenich
jreven
jrevv
jrieche
jriecheland
jriff
jriffe
jriffith
jrihsche
jrihscheland
jrihschelannd
jrihschesch
jrihschesche
jriiche
jriicheland
jriichenland
jriichische
jriife
jringkopp
jro
jroee
jroff
jrond
jrondsa
jrondschu
jrondstee
jrondsto
jrooß
jrooße
jropp
jroppe
jrosche
jross
jrosse
jrou
jrovvo
jroß
jroße
jru
jruft
jruhße
jrund
jrundherren
jrundjesetz
jrundlaach
jrundsubstanz
jrunt
jrupp
jruppe
jruss
jrusse
jruup
jruuse
jruuß
jruußbank
jruußbrittannje
jruuße
jruußherzogin
jruußo
jruß
jrußbritannie
jruße
jrußstadt
js
jsaat
jsh
jstalt
jt
jtsch
ju
juan
juanes
juar
juba
jubila
juda
judikje
judy
jugendmeister
jugoslawe
jugoslawie
jukos
julai
julche
jules
juli
julia
julian
julie
julijanische
julijanishe
julius
jummersbach
jummi
jumminasium
junction
jung
jungche
junge
juni
juno
jupiler
jupiter
jupp
juppitter
jurend
jurendheim
juri
jurk
jussenhoven
justin
justizminester
justizpalast
justo
jutland
jutta
juuli
juuni
juuno
juurend
juuveno
juverneur
juverno
jux
jwo
jymnasium
jymnastik
jypte
jz
jß
k
ka
kaa
kaad
kaal
kaale
kaalhei
kaar
kaare
kaasch
kaaschter
kaat
kaate
kaaßel
kabarett
kabarettist
kabel
kafee
kaffe
kaffee
kahle
kahlo
kai
kaida
kaihui
kaiser
kaiserbrunne
kaiserbrunnen
kaiserstuhl
kaiserzitt
kala
kalcheim
kald
kalde
kalender
kalifornie
kalifornies
kalk
kalker
kalkstee
kall
kalla
kalle
kallek
kallender
kallendo
kallendresser
kallisto
kallt
kalt
kaltenborn
kaltenmeier
kam
kama
kamal
kambachsch
kambodscha
kame
kamelle
kamer
kamera
kamin
kamm
kamme
kammer
kammere
kammißß
kampf
kampmann
kan
kanada
kanadische
kanal
kanalinsele
kanarische
kandidaat
kandidat
kandidate
kandidatur
kandideerde
kandideere
kann
kannd
kannde
kanndste
kanns
kannste
kannt
kannte
kannz
kannze
kannß
kannßde
kannßte
kanon
kansas
kanste
kant
kanteball
kantj
kanton
kantstroß
kanzlei
kanzler
kap
kapa
kapell
kapellche
kapellchen
kapelle
kapita
kapitel
kapitulation
kapitulatiun
kapott
kapotte
kapottjemaat
kapp
kappa
kappazita
kappes
kappesbuur
kappesko
kappott
kapsel
karakaya
karavelle
karawane
kardashian
kardinal
karfriedaach
karibik
karibische
karius
karja
karl
karls
karlspriiß
karlsruhe
karneval
karnevals
karnevalssunndaach
karnevalsverein
karnevalszoch
karol
karoli
karolina
karolingjischer
karrel
karria
karsamsdaach
karte
kartusch
kas
kasbach
kascho
kaschott
kasd
kasern
kashmiire
kashmir
kashmiri
kass
kassel
kaste
katastrophe
kategorie
katejori
kath
katharina
kathedral
katholesche
katholike
katholisch
katholische
katholischen
katrin
katrina
katsushika
kattaloch
kattaßtrofe
kattaĳ
kattegat
katterbach
kattolesch
kattolikke
kattolische
kattoolesch
katz
kaufingerstrooß
kaufmann
kaukasus
kaum
kaußen
kaviar
kay
kayjass
kbc
kbe
kdun
ke
keaton
keb
keck
kee
keeijn
keeijne
keen
keene
keenem
keener
keern
kees
keesche
keg
kei
keie
keij
keijn
keijne
kein
keine
keiner
keiserin
kej
kejn
kejner
kekk
kekke
kelbermann
kell
keller
kellner
kelly
kelmis
kelte
keltische
kemper
ken
kendall
kenge
kenger
kengerwarel
kengk
kengkheed
kenk
kenn
kennd
kenne
kennedy
kennejeliert
kennt
kennzeiche
kent
kentucky
kepler
keplers
kerch
kerche
kerchejo
kerchhoff
kere
keri
kerkrade
kermes
kernel
kernfusion
kerpe
kerpen
kersch
kersche
kerschhoff
kes
kess
kesselflecker
kessenech
kessenesch
kessenich
kesternich
ketsch
ketschebursch
ketschenburg
kett
kette
ketteplo
kettwig
kettwijjer
keu
keue
kevelaer
keßß
kfc
kg
kgalema
khanh
khloe
khoisan
ki
kibala
kick
kicke
kie
kiek
kiel
kieler
kiepenheuer
kier
kierchspill
kiersche
kies
kiesinger
kiew
kiire
kija
kiki
kikkd
kikke
kikkt
killo
killomeeter
killometeere
killometer
kilo
kilojramm
kilometer
kilometere
kilometr
kilt
kim
kimchi
kin
kind
kinder
kinderjaade
king
kingche
kinger
kingsize
kinn
kinne
kinneete
kinner
kinno
kino
kinos
kinshasa
kinzwiller
kippe
kira
kirch
kirchbarkau
kirche
kirchejohr
kirchejoor
kirchenno
kirchhoff
kirchro
kirchroa
kiresch
kirmes
kirmesjonge
kirow
kirresch
kirresh
kirrshejoo
kirsch
kirshejoor
kirstie
kiss
kitsche
kitt
kk
kke
kker
kkere
kkerlenisch
kkt
kkte
kla
klaa
klaaf
klaar
klaare
klammere
klamotte
klang
klank
klapp
klappde
klar
klaren
klass
klasse
klassische
klatschkies
klaud
klaue
klaus
klavier
kle
klebba
klee
kleed
kleede
kleeder
kleeijder
kleeijne
kleen
kleene
kleener
kleenere
kleenes
kleenko
kleenste
kleenzde
kleer
kleersto
klefisch
kleij
kleijn
kleijne
kleijner
klein
kleine
kleiner
kleinere
kleines
kleinwalsertal
klejne
klemenz
kleng
klenge
klenger
klengere
klengk
klenkes
kleopatra
klerk
klerks
kleve
kleverla
klima
klimme
klimpere
kling
klinge
klingk
klink
klo
kloas
kloch
kloee
kloh
klomm
kloo
klooch
klooh
kloor
kloore
kloppd
klor
klore
kloster
klotten
klu
klub
klueste
klum
kluster
klusterbouw
klusterkerch
klusterrother
klusterruin
kluuster
km
kna
knall
knapp
knappe
knappen
knapper
knatschwiiße
knee
kneip
kneipe
knie
knies
knieß
kniiß
knipp
knippsche
kno
knoche
knopp
knouch
knouche
know
knox
knu
knubbel
knubbele
ko
koadjutor
koahm
koalitiun
koam
koame
koblenz
koch
koche
kode
kodeerung
kodeerunge
koe
koel
koeln
koelsch
koelschakademie
koffer
kofferoe
koh
kohl
kohlwing
kohm
kohme
kokoity
kokokko
kol
kolbe
kolde
koleve
kolevepump
koll
kollech
kollestoff
koloni
kolonia
kolonie
kolonisierong
kolping
kolumbie
kolumbien
kolumbus
kolumbusbro
kolwing
kom
kome
komeet
komeete
komet
komeßjoone
komisch
komische
komitee
komm
komma
kommandant
kommando
komme
kommen
kommende
kommiss
kommissar
kommission
kommissiun
kommo
kommt
kommunale
kommunalkreditbank
kommunen
kommunikation
kommunikatiun
kommunismus
kommuniste
kommunistische
kompanei
kompjuto
kompjutore
kompla
komplett
komplize
komponeerd
komponiss
komponiste
kon
kond
konde
kondolisa
kondom
kondome
konferenz
konflikte
kong
kongo
kongore
kongress
kongreß
kongruent
kongruenz
konnt
konnte
konnza
konrad
konrads
konserte
konsonante
konst
konstantin
konsthuchschu
konstjo
konsul
kontack
kontakt
kontinent
kontroll
kontrolleere
konvention
konza
konzentratiunslajer
konzentratiunslajere
konzern
konzerte
kooche
kood
koods
koofde
koofe
koofmann
koofte
koohlbu
koohle
koohm
koohme
kools
koom
koome
koomen
koomische
koomo
koon
koor
koorvelder
koot
koote
koovde
kooz
kooßd
kooßt
kopenhagen
kopf
kopie
kopp
koppjru
koraidelstee
korea
korean
koreanisch
koreatimes
korn
kornelimu
korsika
korsische
kosmonautin
kosovo
koss
koste
kostu
kott
kotte
kottem
kotzedo
koufe
koum
kounnt
kourtney
kowel
kowelenz
koxinga
koßte
koßtu
koßß
kra
kraach
kraade
kraat
krach
kraff
kraffwa
kraft
kraftwa
kraftwerk
krajobrazowy
krakau
krangk
krank
kranke
krankehu
krankehuus
krankehuuß
krankheed
krankheet
krankheete
krankheetsbeld
kranz
krapfe
krause
krauss
krautmacher
kre
krebs
krech
kredit
kreech
kreeg
krees
kreesch
kreesh
krefeld
krefelder
kreijs
kreijß
kreis
kreisangeho
kreise
kreisen
kreises
kreisfreie
kreisstadt
kreiß
kreje
kremer
kremers
kreml
kresch
krescha
kresche
kreschsvorbra
krestos
kreuder
kreuzung
krewinkel
krick
kridd
krie
krieech
krieevel
krieewelsch
kriege
krieger
kriegsbote
krieje
kriel
krieler
kries
kriesch
kriesche
krievel
krievelsch
kriewel
krig
kriiche
kriie
kriies
kriievel
kriievelsch
kriije
kriis
kriische
kriiß
krije
krijje
krijjen
krimi
krimis
kring
krippsche
krisch
kriste
kristen
kristi
krit
kritik
kritisieren
kritt
krißlishe
krißß
krißßlijje
krißßlish
kro
kroatesch
kroatie
krockhuse
kroger
krohm
kroiseti
krom
kroog
kroohm
kroom
kroomde
kroome
kroon
krouck
kru
kruffe
kruffer
kruschele
kruun
ks
ksche
kse
ksh
kshe
kste
kt
kte
ktresche
kts
ktur
ku
kuba
kubx
kuchar
kuddelei
kue
kues
kuiperjo
kuiperju
kulisse
kull
kulle
kulltuur
kulmbach
kult
kultur
kulture
kulturell
kulturelle
kulturfo
kulturgeschichte
kulturpflege
kulturrevolutiun
kultuur
kultuure
kumbe
kumede
kumme
kummede
kummen
kummt
kunijunde
kunnef
kunnt
kunnte
kunnß
kuns
kunst
kunstdenkma
kunt
kupfer
kupferho
kupferhoff
kupfermeester
kupfermeestere
kupfermeesterkerchhoff
kupfersteche
kur
kurdistan
kurfu
kurko
kurkova
kurow
kurt
kurtem
kurv
kusin
kutt
kutte
kuurt
kuurte
kuwait
kuweit
kvb
kw
kwa
kwaasi
kwadraat
kwan
kweer
kwitt
kws
kyffha
kyla
kyoto
kz
kß
kßd
kßde
kßte
kßtra
l
la
laach
laachduve
laache
laachs
laad
laade
laans
laanß
laare
laat
laate
laaß
labiale
labor
labore
labrador
lach
lachende
lachmann
lade
laden
ladenburg
ladi
laetare
laetitia
lafee
laga
lage
lager
lagun
lahnstein
laif
laje
lajer
lajerdeel
lajere
lake
lakinsk
lall
lama
lamas
lambert
lametta
lammert
lampe
lampedusa
lamprokles
lana
lancelot
land
landdaach
lande
landes
landesbank
landesgeschichte
landeshoupshtadt
landeshoupstadt
landeskunde
landesregierung
landesrejierung
landesverband
landesverbannd
landesverwaltung
landeswahlleiter
landeswappe
landfu
landkaat
landko
landkreis
landkreise
landrut
landsberg
landschaff
landschaffte
landschafsverba
landschafsverband
landschaft
landschaften
landschaftliche
landschaftsbelder
landschaftspflege
landschaftsverba
landschaftsverband
landschavv
landshut
landt
landtagswahl
landtagswahlergebnisse
landung
landweetschaf
landweetschaff
lang
lange
langefa
langen
langenberg
langenfeld
langensiepen
langerwehe
langhuus
langja
langk
langobarde
langs
langsam
language
langß
lank
lankjraaf
lanndt
lannschaffte
lanxess
lanz
lanß
laot
lappe
lare
larer
larissa
larry
las
lasierra
lat
latein
lateinisch
lateinische
latin
lating
latinische
latium
lattajn
latte
latting
lau
lauf
laufe
laup
laura
laurel
laurent
lausanne
laut
laute
lawa
lawrence
lb
lba
lbe
lche
ld
lde
ldener
lder
ldere
ldeste
ldich
ldo
ldste
ldstes
ldt
le
lea
lead
lease
leba
leben
lech
lecker
leda
ledd
leddche
leddcher
leddig
lee
leech
leechsta
leechte
leed
leedche
leedcher
leede
leeder
leef
leefe
leehnde
leem
leemjo
leer
leesch
leesh
leet
leete
leeter
leeuwarden
leev
leevde
leeve
leeven
leever
leevste
leeß
lef
left
lefte
leggere
lehmann
lehnsherren
lehrer
leichlingen
leid
leide
leider
leije
leipzich
leipzig
leistunge
leite
leiter
leitet
leitzde
leitzte
leizde
leja
lejend
lejende
lejolas
lejsch
lekker
lemgo
lemiee
lena
lende
lengeschdo
lengk
lengks
lengkß
lengsdorf
lenin
lenisch
lenke
lenkeln
lenks
lennad
lennart
leo
leon
leonardo
leonardos
leonhard
leoparde
leopold
leopoldine
leppe
lequeu
ler
lerinne
lerner
leroy
les
lesch
lesche
lese
lesj
lesotho
lesse
let
letsch
letsche
letste
lett
lettland
letz
letze
letzte
letzten
letzter
letße
leucher
leuf
leufd
leuft
leve
level
leverkusen
levve
levverkuse
levverkusse
lewe
lewinski
lewwe
lexikon
lez
leß
leßß
lf
lfde
lfte
lheim
li
libanon
libertac
liberty
libo
lich
liche
licher
lichkeet
lichnam
licht
lichterzoch
lichtgeschwindigkeit
lichtman
lick
lid
lidd
lidl
lie
liebe
liebfrauekerch
liecht
liechtenstein
lied
liedbuch
lieder
liederserver
liee
lief
liehr
liehre
liehrer
liehrt
lieje
liejen
lier
liere
lierlinge
liert
lies
liester
liet
lieteratoer
liev
life
ligg
ligge
light
ligk
ligke
lihre
liid
liie
liif
liihe
liihr
liihrde
liihrer
liije
liijend
liijende
liird
liirde
liire
liirer
liiv
liiß
lija
lije
lijj
lijje
lijjt
likt
lila
lili
lilili
lilli
lillian
lily
lima
limbo
limborjesche
limborsh
limburg
limburgs
limburgse
limburgsj
limburjer
limburjesch
limburjische
limburrsh
limbursch
limbursj
limo
lina
lincoln
lind
linde
linder
lindlar
lindt
line
linegrey
ling
lingwand
linh
linie
linisch
link
linke
links
linne
linnich
linnije
linnisch
lins
linus
linux
linz
lion
lippe
lippischen
liquida
lisa
lisbeth
lisch
lische
lischt
lish
liss
lissabon
list
liste
listen
lit
lita
litaue
litauen
liter
literat
literate
literatur
literatura
literatuur
lithium
litt
little
live
liverpool
living
livni
livver
livverte
lix
liza
lizenz
lizza
liß
lißß
lj
ljer
ljo
lke
lker
lkere
lkerong
lkerung
lkw
lkws
ll
lla
llche
llcher
lld
llde
llder
lldere
lldo
lldt
lle
llebend
lledejch
llef
llefte
llegenda
llekove
llem
llemer
llen
llep
ller
llere
llers
llersch
llesch
llevde
lleve
llevs
llfe
llibres
llich
llichkeeten
llig
lliin
llije
llin
lliner
llinge
llingen
llis
llisch
lljish
lljishe
llkengk
llner
llo
llong
lloyd
llschaff
llsche
llscher
llshe
llspeller
llt
llte
llung
llunge
llve
llver
llwa
lly
llzitt
lləfte
lm
lmsch
ln
lnarena
lner
lnische
lnischer
lns
lo
lobito
localhost
loch
locker
lodovico
lofe
loff
loffschlang
loftwaff
logo
lohmar
lohße
loiuse
lojistik
lokaale
lokale
lokalen
lokales
lokalgeschichte
lol
lomazy
lon
london
long
looch
looche
loofe
looft
loog
loohrt
looht
loohße
loop
loor
loore
loos
loosse
loossen
loot
looß
looße
lord
lordi
lore
lorem
lorenz
lorenzo
lorrbeerbla
los
loss
losse
lot
lott
lotuko
lou
louch
loud
louf
loufe
louis
louisan
louise
louisiana
louvre
loußba
love
loß
loße
loßß
lp
lpe
lra
lright
ls
lsch
lsche
lscher
lsches
lsdo
lsdorff
lsdorp
lse
lser
lste
lt
lte
ltesten
ltkrisch
ltnes
ltnis
lu
luanda
lubitsch
lublin
lubumbashi
luca
lucas
lucia
luciano
lucien
lucius
lucy
ludger
ludmilla
ludwich
ludwig
luff
lufflenisch
luffschlang
luffschlange
lufthansa
luftwaffe
lugano
lugo
luhme
luhmere
luhnd
lui
luik
luis
luise
luiza
luka
lukas
luken
lumie
lund
lung
luo
luther
lutheranische
luuer
luuhnt
luumer
luunt
luur
luure
luuren
luurt
luut
luute
luuter
luutschreff
luuvre
luvv
lux
luxemborsch
luxembuerch
luxembuerje
luxembuerjesch
luxemburch
luxemburg
luxemburjer
luxemburjesch
luxembursch
luxembursh
luzern
lv
lva
lvde
lve
lvr
lvs
lvsbeldnes
lwe
lya
lymphknubbele
lynen
lynens
lynn
lyo
lyon
lz
lze
lzer
lzerbersj
lzisch
lzje
lzjer
lßte
m
ma
maa
maach
maache
maachen
maacher
maachet
maad
maade
maaht
maake
maare
maas
maastrech
maastricht
maat
maatplatz
maatwiiv
maaß
maaßtresch
maaßtrish
mabel
mach
macharaviaya
machd
mache
machen
macht
machß
macintyre
mack
macke
madame
made
madeira
madonna
madrid
mae
maeve
magasin
magazin
magazine
magdalena
magdeburg
maggie
magic
magma
magna
magni
magnon
magnus
mahidevran
mahler
maht
mahte
mai
maiboom
maifess
maijlo
maiko
mail
mailand
main
maine
mainz
mainzer
maire
mairie
mais
maja
majdanek
make
maket
maketaton
makkaba
makroshprooch
makroshprooche
maktum
mal
maler
mallorca
malmedy
malo
malta
malz
mam
mameles
mamm
mammutbo
man
mana
management
manager
manavgat
manch
manche
manchmol
mandela
manes
manet
manfred
mangneet
mangneete
mangneetesch
mangs
mann
manneken
manneko
mannheim
mannschaff
mannslu
mansch
mansche
mansh
manshe
mantel
mantua
mao
maori
maos
map
maplandia
mar
mara
marburg
marc
marcel
march
marco
marcos
marcus
marge
margret
marguerite
mari
maria
mariana
marianne
marie
marieche
marienheide
marienthal
mariepleij
marike
marily
marilyn
marine
marinescheffe
mario
marita
maritime
marjaretha
mark
markante
marke
markeerd
markt
markus
marlene
marmara
marmor
maro
maroe
marokko
mars
marsch
marseillaise
marseille
marsh
marshall
martha
martin
martins
martinus
marx
mary
mascheerde
maschiin
maschiine
maschine
maschinepistole
maskotsche
mass
massachusetts
massaker
masse
masters
mat
matamba
material
materie
mathematik
mathematiker
mathematische
mathias
mathrm
matisse
matros
matrose
matsudaira
matsue
matt
mattematigk
mattematik
mattematikscheff
mattes
matthias
mattrijaal
mau
maue
maure
maurice
mausbach
mauthause
mauthausen
mauthjass
mauve
max
maxi
maximilian
may
mayer
mayhem
maynard
mazedonie
mb
mber
mbh
mbo
mbol
mborjesch
mborjesche
mbouw
mbox
mbra
mbraad
mbrenge
mbwo
mccain
mcdonald
mcher
md
mdc
me
mea
meazenich
mebazaa
mech
meckem
meckenheim
meckleborsch
mecklenborsch
mecklenburg
med
medallich
medallisch
medallje
medd
medde
meddel
meddela
meddelahle
meddelalder
meddelallder
meddelalldo
meddeldeutsch
meddeleuropa
meddelfeld
meddelmeer
meddelpunkt
meddelsteenzitt
medden
meddlere
meddsen
medelli
medewerking
media
medica
medici
medie
medije
medikamente
medizin
medmaacher
medwedew
mee
meedste
meen
meent
meer
meerbuse
meerbusen
meere
meeresspeiel
meeresspeijel
meest
meeste
meestens
meet
meeter
meetste
meetstens
meetzd
meetzde
meetzdens
meeßd
meeßde
meeßt
meeßtens
meh
mehl
mehr
mehrere
mehschtens
meier
meij
meijnt
mein
meine
meint
meinung
meisen
meisner
meistens
meister
meistermannschaff
meisterschaff
meiße
mej
mejchel
mejnt
melanie
melbourne
meld
melde
melech
melechstroaß
melejer
melekeok
melissa
melitta
mellion
mellione
melsch
mem
memorabilia
memorial
men
menatep
menes
menester
menestere
menesterpra
menestrposte
menexenos
meng
menge
menhire
mensch
mensche
menschen
menschliche
mentempel
menutt
menutte
menzel
mer
mercedes
mercedez
mere
meritaton
meritneit
merk
merke
merkel
merkin
merkle
merkt
mero
merode
merrem
merrkuur
merzick
mes
mesch
mesche
meschung
mesh
meso
mess
messe
messepukal
messias
messing
mestreech
mestreechs
mestreechse
met
meta
metal
metall
metalle
metbraad
meteorit
meteoroloji
meter
metere
metgled
methode
metjemaad
metjemaat
metjenomme
metjewerrek
metjled
metjledd
metjledder
metjleed
metjleeder
metjlett
metjo
metkra
metleed
metluute
metmaache
metmaacher
metnemme
metr
metsamp
metshpeller
metspelld
mette
mettmann
metz
metzde
metzger
metzjer
meuterei
mexico
mexiko
meyer
meyers
mez
mf
mfang
mfass
mfassd
mfasse
mfassende
mfasst
mfasste
mfe
mgv
mi
miami
miamikanal
mianmar
mich
michael
michaela
michail
michailowitsch
micheil
michel
michelangelo
michelangelos
michele
micheline
michels
michelsberg
michigan
mick
mickey
micro
microsoft
midde
middel
middelalter
middeliee
middelrhing
middlere
midland
mie
miee
mieh
miehste
miehtßtens
miehßte
mier
miesmuschel
miesmuschele
mieste
miestendeels
miestens
mietere
mietste
mieß
mießte
mießtenß
migration
mih
mihste
mii
miih
miihtß
miihßte
miir
miistens
miißte
mijj
mijo
milano
mildred
milesch
mileschstrooß
miley
miliarde
milita
military
millesch
millesh
milliard
milliarde
millieu
millingen
million
millione
millionen
milliun
milliune
milljarde
milljuhne
millowitsch
milo
milsch
milton
mim
min
minas
minden
minderhe
minderheijte
minderheit
ming
minge
minh
mini
miniatur
miniature
minibo
ministerpra
minix
minna
minniti
minnsche
minsch
minsche
minschheit
minsh
minshe
minsk
minster
minu
minute
minutte
mio
mir
misch
mischde
mische
misches
mischlinge
mischmasch
mischung
mish
miss
missionare
mississippi
mit
mitchell
mitjebraht
mitte
mittelalter
mittelalterliche
mittelfra
mittelinstanz
mittelmeer
mittelrheinmeister
mittelrheintal
mittlere
mittlerweile
mja
mjebout
mjebouwd
mjebraad
mjebraade
mjebraat
mjebung
mjedriiht
mjeed
mjenannt
mjesatze
mjetrokke
mjewandelt
mjo
mjovve
mkreise
mlaufbaan
mlich
mlij
mlisch
mlish
mloufe
mluut
mluute
mm
mmbe
mmber
mmbo
mmbou
mmche
mmd
mmde
mmdriiver
mme
mmel
mmele
mmende
mmer
mmerd
mmerde
mmere
mmerjo
mmernde
mmert
mmes
mmich
mmiche
mmjebung
mmland
mmlesch
mmlij
mmo
mmp
mmt
mmung
mnasium
mo
moa
moaht
moal
moand
mobil
moch
moda
modd
modder
modderjoddes
moddersproch
mode
model
modele
modelle
modena
moderatorin
modern
moderne
moderner
moderniseet
moe
moers
moeziek
moferts
moh
mohamed
mohammed
mohl
mohlde
mohle
mohler
moht
mohte
mol
mold
molde
mole
moler
molerei
molestie
moll
molleku
mollie
molt
momang
moment
mona
monarschii
mond
monde
mondiale
mondsond
mongk
monheim
monica
monika
monjole
monjolei
monndach
monnem
monroe
monschau
monstranz
mont
montana
monte
montenegro
montenejro
montpellier
montserrat
montzen
mood
moode
moohler
moohnd
moohnde
moohß
moohße
mool
moolde
moole
mooler
moond
moondach
moonde
moont
moor
moot
moote
mooten
mooß
mor
moralische
mord
morde
mordor
more
moresby
moresnet
moritz
morje
morjens
morkovkina
morning
morris
morrison
morton
mosambik
moschee
mosel
moselfra
moselsiij
moser
moses
moskau
moslems
moss
mosse
mosta
mostert
mot
mote
moths
motiv
motive
motlanthe
moto
motor
motorsport
mott
motte
motter
motto
moulin
mount
movie
mozart
moß
moßte
moßß
mp
mpd
mpde
mpf
mpfd
mpfde
mpfe
mpft
mpfte
mpla
mpratuur
mr
mrd
mro
ms
msatz
msche
mschlo
mscho
msetze
msetzung
msta
mstand
mstra
mstritte
mt
mter
mu
muara
much
mucuchi
mugabe
mugabes
muhre
mulartsho
mull
mullartsho
mulld
mulle
mullefluppet
multijripp
multiplikatore
mumisch
mundaat
mundart
mundartdichter
mundartdokumentation
mundarten
mundartfreunde
mundartpflege
mundartwo
mung
mungspompe
munitiun
munson
murat
muraß
murnau
muschele
muschenich
muse
musejum
museum
museums
museumsstiftung
music
musical
musick
musik
musiker
musikk
musikker
musiko
musikschull
musiksto
muskele
muss
mussik
mussiker
mussikk
mussolini
muster
mute
muuch
muucherveld
muuern
muul
muur
muure
muusbo
muuz
muuze
muuzema
muuzemandele
muuzich
muuß
muß
mußß
mva
mveld
mw
mwa
mwelt
my
myanmar
myra
mysora
mythologie
mytholojie
mzejonn
mzo
n
na
naaam
naach
naahd
naahl
naaht
naahtshemmel
naahß
naaks
naakß
naam
naame
naamensliiß
naas
naat
naaß
nach
nachdeel
nachfoljer
nachrichte
nachrichten
nacht
nachvoljer
nacional
nackde
nackt
nackte
nacktheed
nacktsee
nackße
nadja
naftalan
nag
nahe
nahm
nahme
nahtija
naked
nakß
nakße
nakßspocht
nam
name
namen
namens
namensdaach
namentlich
namibia
namibie
namm
namu
nancy
nang
nannd
nannde
nannt
nannte
nannten
nano
nao
naomi
napole
napoleon
napoleons
napoli
narren
nas
nasa
nasale
nasheed
nask
naslang
nass
nassau
nasti
natalia
nation
national
nationalbank
nationalbo
nationale
nationaljarde
nationalpark
nationalparks
nationalsozialismus
nationalvorsammlung
natiun
natiune
nato
natto
nattu
natu
natuhr
natur
natural
naturist
naturiste
naturists
naturkatastrofe
naturpark
naturschotzjebiet
naturschotzjebiit
naturschutz
naturschutzjebiet
natuur
natzjonaalpark
nau
nauch
navidad
nazaire
nazi
nazis
nazizick
nazjonaale
nbi
nch
nche
nchen
nchenbilder
nchener
nchengladbach
nchez
nchmol
ncia
nd
ndche
ndchen
nde
ndelche
nden
nder
nderbare
nderd
nderde
ndere
ndereie
nderfa
ndern
ndernde
nderonge
nderoot
nders
ndersch
ndersche
nderspeller
ndert
nderung
nderunge
nderungen
nderß
ndesch
ndesche
ndet
ndete
ndez
ndich
ndicht
ndig
ndigt
ndije
ndijen
ndijje
ndijung
ndin
ndisch
ndische
ndish
ndl
ndler
ndlesch
ndlich
ndliche
ndnes
ndnis
ndo
ndong
ndongo
ndorf
ndoß
ndr
nds
ndschaffte
ndschaft
ndschafte
ndschaftsvordrach
ndt
ndung
ne
neandertaler
neapel
nebe
nebeck
nebeld
nebre
nebst
nebti
ned
nedaahl
nedd
neddedu
neddela
nedderau
nedderfra
nedderla
neddersa
nederfra
nederla
nederland
nederlands
nederlandse
nedersa
nedersaksisch
nee
neederdu
neederfra
neederla
neederland
needersachse
needersaxe
neef
neer
neerjeschlaare
neet
nef
nefer
neferu
neffe
nefte
neftije
neglect
nehren
neil
nejapel
nelke
nelles
nelson
nem
nemark
nemarkstrooß
nemarrek
nemm
nemme
nemmieh
nemmp
nen
nende
nennd
nenne
nennen
nennt
nennung
neo
nepomuk
nepptuun
nepti
neptunbrunne
ner
nere
nerjens
neroberch
neroberchbahn
ners
nerve
nesch
net
netjer
nett
nette
netz
neu
neue
neuen
neuenahr
neuer
neuere
neues
neufundland
neuguinea
neuisjtroas
neuje
neujliederung
neujohr
neujoohr
neujoohrsjeba
neujuinea
neumond
neunkirchen
neuseela
neuseeland
neuss
neuste
neutral
neutrone
neutronesteern
neuwaahle
nevada
neven
never
nevve
nevvebei
nevven
nevvenaan
new
news
newton
nf
nfjo
nftich
nftig
nftije
nftisch
ng
nga
ngang
ngche
ngd
ngde
nge
ngebro
nged
ngejrad
ngel
ngelche
ngelnde
ngelsch
ngelt
ngen
ngende
nger
ngerbou
ngerd
ngere
ngerher
ngerin
ngerjebraht
ngerjrond
ngersdo
ngert
ngerung
ngerzoon
ngich
ngichde
ngichkeet
ngichkeetskresch
ngige
ngije
ngisch
ngische
ngischte
ngk
ngke
ngkesch
ngkesche
ngkirche
ngkmo
ngkscher
ngkte
ngkß
ngla
ngland
nglandt
ngle
nglesch
nglesche
nglesh
ngli
nglich
ngliche
nglisch
nglische
nglischke
nglischkeid
nglish
nglishe
ngnes
ngness
ngnis
ngo
ngs
ngsch
ngsche
ngste
ngt
ngte
ngunzvanzishßte
nguyen
ngzente
ngß
ngßde
nha
nhat
nhausen
ni
nia
niblo
nic
nich
nichsfors
nichspaar
nicht
nichts
nickelaus
nicola
nid
nidd
nidder
nidderfra
nidderjelaat
nidderrhing
nideggen
nie
niederaußem
niederfra
niederkassel
niederla
niederlande
niedero
niederoßem
niederrhein
niederrheinische
niederrheinisches
niederrhing
niedersachsen
niederschelderhu
niee
niek
niet
nieuwvliet
nieß
nig
nige
night
nigra
nigrich
nigshof
nigswinter
nih
nii
niihmaschine
niire
nije
nijin
nijmegen
nikela
nikolaus
nikuta
nim
nimmie
nimmp
nin
nina
ning
ningkrejch
ningkswinte
nippes
nir
nisch
nische
nit
nitt
nix
nixon
njeva
njo
nju
nk
nkche
nkd
nkdaach
nke
nkelche
nkesch
nkesche
nkisch
nkische
nklichkeet
nksche
nksta
nkt
nl
nland
nle
nlesch
nlesche
nlesh
nlich
nlijj
nlijje
nlisch
nlish
nm
nmaile
nmi
nn
nna
nnche
nncher
nnd
nnde
nnder
nndere
nnderonge
nnderre
nndert
nndesch
nndisch
nndlesch
nndo
nndon
nndong
nndoß
nndt
nne
nnebo
nnechrich
nnef
nnefte
nneje
nnen
nner
nnerschdorf
nnes
nnesch
nnesche
nneschlesch
nnesje
nngk
nnheed
nnheet
nnheetsko
nnich
nnig
nnigin
nnigrich
nnigrisch
nnigshoff
nnigshuuß
nnije
nnijin
nning
nninge
nningsdaach
nningshoff
nningsre
nningstu
nnkerrsche
nnlich
nnliche
nno
nnong
nnroother
nnsch
nnsche
nnsches
nnsel
nnshe
nnste
nnt
nnte
nnung
nnxish
nnz
nnß
nnßler
no
noa
noabersjaf
noadat
noah
noahem
noahfoljejeba
noahm
noahwiesjere
noam
noarde
noardziee
nobber
nobbere
nobberla
nobberschaff
nobberstaat
nobberstaate
nobel
nobelpriiß
noch
nocht
noda
nodem
noe
noeding
noeditsection
noet
nofretete
nog
noh
nohber
nohberschaff
nohda
nohdeel
nohdem
nohdemm
noher
nohfahre
nohfoljer
nohjeroofe
nohkaate
nohkiksel
nohkixel
nohkixele
nohkumme
nohla
nohm
nohzela
noja
nojemaad
nojewesse
nojo
nokixel
nolde
noll
nom
nomaal
nomaale
nome
nominativ
nominativus
nomineerd
nomm
nommaal
nommaale
nommal
nomme
nommedaachs
nommeddachs
nommer
nommere
nommo
non
nonn
nonne
nonumy
noo
nooch
noodeele
noodrhing
noodsee
noodwa
nooh
noohbere
noohm
noom
noome
noord
noorde
noordoostpolder
noordrhing
noppeney
nopper
noppere
nor
norbert
norberto
nord
nordafrika
nordamerika
norddeutschland
norddu
norde
norden
norderney
nordhaalvkowel
nordheim
nordirland
nordische
norditalie
nordkapellchen
nordkorea
nordlisch
nordo
nordoste
nordrand
nordrhein
nordrheng
nordrhing
nordsee
nordstar
nordwank
nordweste
norgay
norm
norma
normal
normale
normalerwies
normalerwiis
normalerwiiß
normandi
norme
norr
norrde
norre
norrem
norren
norrens
norris
north
northern
norwa
norwege
norweje
nosferatu
not
note
notoc
notzd
notzde
notze
notzt
nova
novak
nove
novelle
november
novemmber
novva
now
nowiise
noß
np
nr
nrw
ns
nsberch
nsberjer
nsch
nschd
nsche
nschenjladbach
nscho
nsdap
nse
nsler
nslername
nste
nster
nsterbaach
nsterbo
nsterland
nstler
nstlere
nstlerische
nstlernaam
nstliche
nt
ntda
nte
nten
nter
ntgen
nther
ntlich
ntrum
ntsche
ntsta
ntwa
ntweklong
nu
nubbel
nuddele
nude
nudes
nudiste
nuenen
nui
null
nulla
nulled
nullet
nummer
nun
nunnenkluhster
nur
nuru
nuss
nuthberch
nutt
nuur
nuut
nuuß
nvde
nver
nwa
nwald
ny
nymphe
nz
nzde
nze
nzer
nzerin
nzt
nß
nßler
nßte
o
oache
oane
ob
obama
obamas
obb
oberga
oberhausen
oberscharvu
oberstdorf
objekte
oblast
obres
obsah
obst
obwohl
oc
och
oche
ocher
ocht
ochte
ochtnung
ochtsdeel
oda
odda
odde
odder
oddo
oddor
ode
odenthal
oder
odessa
odin
odo
oe
oecher
oednungszahl
oee
oelp
oes
oet
of
off
offe
offebaach
offene
offermann
offermannsheed
offezja
offizia
offiziell
offizielle
offizier
offizja
offizzja
ofizja
oft
og
oh
ohio
ohm
ohne
oi
ois
oise
ojinaal
ok
oktober
oktoberfess
oktoober
ol
olaf
old
oldebursh
oldenbursch
oleracea
oliejarchie
oliejarchiesje
olive
oliveira
oliver
ologie
olpe
olper
olympische
om
oma
omegawiki
omm
omma
omo
omsk
on
onaavha
onafha
onavha
onbekannde
onbekleede
onder
ondersto
one
onge
onger
ongerbotz
ongerbra
ongerbroche
ongerdeeld
ongerdro
ongere
ongerha
ongerhalde
ongerhalv
ongerjang
ongerjrond
ongerjrondbaahn
ongerkoom
ongerlaare
ongerlare
ongerna
ongerneehme
ongernehme
ongernehmer
ongernomm
ongernomme
ongerscha
ongersche
ongerscheed
ongerscheede
ongerscheedlich
ongerscheedliche
ongerscheedlijje
ongerscheide
ongerscheidt
ongerschiidliche
ongerschra
ongerschreff
ongerschrevve
ongerschto
ongerso
ongersood
ongersta
ongersto
ongerstolbersch
ongerwa
ongerzeechnede
ongerzeechnet
ongerzeusch
ongescheede
ongescheedliche
ongeva
onjefa
onjeva
onjewo
onjlo
onjo
onkel
online
onmo
onn
onnoch
ono
onra
onrouhe
ons
onschold
onser
ontario
onva
onvall
onwascheinlesch
onß
oo
ooch
ooche
oocht
oochtnungszahl
oodler
oohne
oohr
oohre
oohße
oone
oore
oorkund
oortsche
oos
ooser
oot
oote
ootschafte
ootsdeijl
ootsverbannd
oovens
ooze
ooß
op
opa
opbou
opboude
opboue
opbouw
opbouwde
opbouwe
opbra
opbroch
opdouch
opdra
opdraach
opdrach
opee
opel
open
oper
opera
operation
opere
opfer
opfere
ophalde
ophood
ophu
opja
opjaav
opjaave
opjave
opjeboud
opjebout
opjebouwd
opjedeeld
opjedeelt
opjedeilt
opjefalle
opjehange
opjehovve
opjejovve
opjelo
opjemaad
opjemaat
opjemaht
opjenomme
opjenu
opjenumme
opjepaß
opjeschra
opjeschrevve
opjestald
opjestalld
opjestallt
opjesteje
opjevalle
opjevange
opjevu
opjewahße
opjewerkd
opjo
opjoov
opjrond
opkla
opkoom
oplach
oplo
oplu
opmaache
opmaade
opmerksam
opna
opnahm
opnahme
opo
opp
oppaaße
oppaaßer
oppbau
oppe
oppeln
oppen
oppervlaak
oppjelaat
opplaach
opposition
oppositiun
oppusitiun
opra
opschriive
opsichtsroot
opsta
opstand
opstelle
optauchde
optra
optre
optredde
optreent
optrett
optrette
optritt
optroon
optroone
opva
opvallend
opveel
opvu
opwa
opzeechnunge
opzo
opß
or
oral
oranje
orde
orden
ordnete
ordnung
org
organisiert
orient
original
orijiinalzeichnunge
orijinaal
orijinal
orion
orionis
orjan
orjane
orjanisatiun
orjanisatiune
orjaniseerd
orjaniseerde
orjaniseet
orjanisiere
orjanisiert
orleans
orr
orrejejch
orren
orrijinaal
orsay
orspro
orsprong
ort
orthodoxe
ortodoxe
ortsdeel
ortsgeschichte
ortsnamen
os
osama
oscar
oschi
oskar
oslo
osnabru
oss
ossdejl
osse
ossetie
ossheim
ossheimer
ossi
ossjrenz
osste
ost
oste
osten
ostere
osterhaas
ostermann
ostermanns
ostersonndaach
ostfriesland
ostpreuße
ostrogski
ostsee
osu
oswalda
ot
other
otto
ou
ouch
oud
ouldtaimer
oure
ous
oust
outobahn
ouw
ov
ova
oven
ovend
ovends
ovens
over
overath
overijssel
overja
overrhing
ovid
ovids
ovimbundu
ovve
ovvend
ovvends
ovver
ovverath
ovverhalv
ovverhouse
ovverja
ovverkerch
ovverlija
ovverod
ovverrhing
ovverstolbersch
ow
owaij
owambo
oxford
oz
ozean
oß
oßte
oßß
oßßflaandere
oßßfriißland
p
pa
paa
paar
paasde
paaßd
paaßde
paaße
paaßende
pablo
pack
packd
packde
packe
packung
padberg
paderborn
page
pai
paijass
paijaßß
paimpont
paka
pakistan
pala
palast
palau
pali
palin
pallidum
pallz
palm
palma
palos
palz
panama
panaro
panipuri
pann
panne
pannekoche
pano
panorama
panz
panzer
panzere
panzerkreuzer
paoli
paolo
papagayo
papier
papiercomputer
papiir
papp
paps
papst
papu
papua
papß
papßt
para
paraat
parade
paraguay
parana
parat
pardon
paris
pariser
park
parker
parks
parlament
parlamentarische
parlamentsjo
parlamentswaahle
parodie
partei
parteie
parteij
parteije
parteivo
parti
partisane
partner
party
pascal
paschtu
paschtue
pass
passe
passeed
passeerd
passeerde
passeere
passeert
passeet
passend
passende
passerd
passerde
pastu
pastur
pastuur
pat
patent
patentauto
patenteere
path
patikkelle
patriarch
patrick
patrik
patronatsherren
patroon
patte
paul
pauli
pauline
paulo
paulus
paus
pavarotti
paveier
pavement
pazifik
pazifische
paß
paße
paßeerd
paßeere
paßß
paßße
paßßeed
pcd
pdf
pe
peak
peck
pedro
peel
peffer
pegg
peitsch
peking
pel
pelagische
pelagius
pemberton
pen
penis
penn
pennsylvania
pentajon
people
per
perez
perikles
period
periodesu
perle
pernilla
persesch
perso
person
personal
personalpronome
persone
persun
persune
peru
perwis
peshawar
pest
peta
peter
peters
petersburch
petersdom
petong
petr
petri
petrowna
petrus
petscherski
pez
pfa
pfaffemo
pfalz
pfalzjraf
pfarr
pfarre
pfarrei
pfarrer
pfarrkirch
pfarrkirche
pfchen
pfeiffer
pflege
pforzheim
pg
phaedo
phage
pharao
phas
phil
philadelphia
phileas
philipp
philippe
philippine
philips
phillip
philomele
philosoph
philosophie
phobos
php
phu
physik
physikalische
pi
pia
picasso
pichilemu
pickford
pico
pie
pieces
pief
piefe
pier
pierce
piero
pierre
pieta
pijin
pikardesch
pikardesche
pil
pilatus
pilot
pilote
pilotin
pils
pilsen
pilsener
pilze
pimel
pin
pindakaas
pindakaaß
ping
pingste
pinta
pioneering
piper
piples
pippin
pirate
pis
pisin
pistols
pitte
pitter
pitterma
pittersbersh
pius
pißßrinn
pkk
pl
pla
plaat
plaate
plaatsch
plaatsche
plaatsj
plaaz
plahto
plains
plakat
plakate
plan
pland
plande
planeet
planeete
planet
planete
planneet
planneete
plannet
plante
planungen
planz
planzd
planzde
planze
plastik
plat
platdiets
platin
plato
platon
platsch
platsche
platt
plattdeutsch
plattdu
platte
platz
platzjru
playboy
plaz
plei
pleiku
plo
plosive
plotdata
ploum
plow
plu
plus
pluto
pluuto
pneumokokke
png
pnv
po
pochtojal
pochtu
podbielski
podolks
podolsk
poesia
pohl
points
pokal
pokalsiejer
pol
polak
polder
poldere
pole
polen
poli
police
poliss
polisse
polissestatiun
politieker
politik
politiker
politikerin
politisch
politische
politischen
polittische
polletek
pollitigk
pollitik
pollitiker
pollitikk
pollize
polnesch
polnesche
polnische
pommes
pomoc
pomp
pompe
pompeschwa
pompeschwengel
pona
pond
poniatowa
ponttor
ponzius
pool
poole
poor
poorze
pooschte
pooz
pooze
pop
popp
poppe
poppelsdo
poppert
poppespill
poppin
popula
port
porta
portal
porten
porto
portra
portrait
portu
portugal
portugiese
portugiesen
portugiesische
portujal
portujiese
portujiesische
porz
porze
positiun
positiune
poss
possesivpronome
post
poste
potemkin
potsdam
pott
potter
poulenc
poulie
poulnabrone
pour
povlova
powell
powiat
poßte
poßß
pp
ppche
ppcheba
ppcher
ppd
ppe
ppejj
ppekoche
ppel
ppelbo
ppele
ppelmina
ppelminna
ppelseißer
ppelt
pper
ppers
ppijje
ppisch
ppische
pps
ppsche
ppsu
ppt
pr
pra
pradesh
prado
prag
prager
praktesch
praktisch
prayer
pre
preem
preetz
preis
prelk
premiemenester
premiermenester
premiermenesterin
prenz
prenziip
press
presse
pressekonfarenz
preusse
preuße
preußen
preußische
preußischen
preußischer
preußße
prevat
prevate
prevatla
prevatlu
pries
priester
priestern
priis
priise
priiß
priißjeld
prima
primera
prin
prince
princess
printe
prinz
prinzen
prinzessin
prinzip
prinzipp
privatla
prix
pro
probe
probeerde
probeere
problem
probleme
produktiun
produzeerd
produzeerde
produzent
prof
profa
professor
profinß
programm
programme
proiße
proja
projamme
project
projekt
projekte
projramm
projramme
prosa
proserpina
prosit
prostituiirde
prostitutiun
protestantische
proteste
protokoll
protone
protti
provence
provenz
provins
provinz
provinze
provinzhauptstadt
provinß
prozent
prozess
prozesse
prozession
pru
prumme
prym
ps
psalme
psigge
pst
psv
pt
pta
pte
pten
pter
pu
puberta
pubic
public
publikum
publishing
pucu
puddelnakß
puderzucker
puerto
pugatschow
pukal
pukalseejerpukal
pulheim
pullem
pungk
pungkte
punk
punkt
punktationen
punkte
puri
purity
purt
putativnutstand
putin
putsch
puttes
puute
px
q
qaa
qaeda
qin
qing
qsl
qu
qua
quadflieg
quadraatkillemeter
quadratkilometer
qualita
quallmann
quang
quasi
quator
quatre
quatsch
que
queen
queensland
quell
quelle
quellen
querko
quetsch
quetsche
qui
quick
quincy
quintanilla
quirinus
quis
quodbachlaan
qwa
qwatsch
qwe
r
ra
raab
raad
raaf
raahme
raan
raav
rabbit
races
rach
rad
radar
radchenko
radikaler
radio
radioaktiv
radioaktive
radioaktivita
radiosender
radtuur
radtuure
raeren
rafael
raff
raffael
ragnaro
rahme
rahmen
raiffeisenbank
railway
rainer
rais
rale
ralf
ralph
ramid
ramm
rammedo
ramolino
rampling
ramsj
rand
randjruppe
rang
range
rangers
ranh
rantum
rapid
rappard
rard
rarita
rasse
rassetrennung
rat
rath
rathaus
rathuus
rats
ratte
rau
raue
rauh
raum
raumscheff
raumsond
raumvahrd
raumzick
rausch
rauxel
rav
ravnopolska
ray
raymond
rayons
raza
rb
rba
rbe
rbeed
rbeede
rbei
rbeid
rbeide
rbeit
rbejde
rbelche
rbeld
rbelsche
rbereite
rbus
rch
rchbroch
rchd
rchde
rche
rchen
rcher
rchfriid
rchjesatze
rchjo
rchkatz
rchkomme
rchla
rchop
rchpooz
rchsa
rchsetze
rchzo
rd
rdba
rdbebe
rddeel
rde
rdel
rden
rdener
rdere
rdert
rderung
rdlich
rdliche
rdlisch
rdra
rdraach
re
reagan
reagon
reaktiona
reaktionstra
reaktiun
reaktor
reaktore
real
reba
rebell
rebelle
rebum
rechne
rechner
rechts
recklinghausen
records
recovery
rect
red
redaktion
redd
rede
redirect
reduzieren
ree
reed
reef
reefe
reen
reesesta
ref
referendom
reformatiun
reformer
refra
regensburg
regie
regierungsbezirk
regierungsbezirke
regierungsbezirken
regierungsbezirks
regijon
regime
regina
reginfrid
regiolek
regiolekk
regiolekt
region
regional
regionale
regionalpra
regionalverband
regione
regisseur
regisseure
regiun
regiune
rei
reich
reichde
reiche
reichleitner
reichsbahn
reichsdaach
reichskanzler
reichsmark
reichssta
reih
reihe
rein
reinald
reinbek
reine
reinhard
reinhardt
reinold
reis
reisch
reisde
reise
reisende
reissdorf
reiste
reiter
reiß
rejale
rejatta
rejattes
rejel
rejele
rejelma
rejelt
rejentschaff
rejierong
rejiert
rejierung
rejierungsbezirk
rejii
rejiierung
rejiim
rejiirde
rejiirt
rejiirung
rejiirungszitt
rejiment
rejion
rejione
rejisseur
rejisso
rejiun
rejjohn
rejse
rek
reklame
rekord
rekorde
rektor
relativ
relativita
releer
religiun
relijiu
relijiun
rellativita
relu
rem
remagasin
remage
remare
rembrandt
remsched
remscheid
ren
renaissance
renate
rend
rende
rene
rener
renfro
reng
renn
renne
reno
rensing
rentschler
repra
republek
republik
republika
republikaner
republikanische
rer
rers
res
resch
reschtesch
reschtije
reshtesh
residenzstadt
residiert
ress
resse
rest
restaurierung
reste
ret
rethel
rette
reuisch
reusrath
reval
revenge
revolution
revolutiun
revvolutiurn
reyna
rez
reza
rezept
reß
reßß
rf
rfc
rfe
rfelfries
rfen
rfer
rfje
rfolch
rfolje
rfolsch
rft
rfu
rg
rgen
rger
rgermeister
rha
rhead
rhei
rheijnische
rhein
rheinbrohl
rheindorf
rheinenergiestadion
rheinesche
rheinisch
rheinische
rheinischen
rheinischer
rheinisches
rheinla
rheinland
rhen
rhenania
rhenbach
rher
rherije
rhin
rhing
rhingbach
rhingdelta
rhingdo
rhingla
rhingland
rhinglandt
rhingprovinz
rhingu
rhld
rho
ri
ria
riario
riccardi
rice
rich
richard
richd
riche
richkeet
richmodis
richroth
richterich
richterskala
richtich
richtig
richtige
richtije
richtisch
richtr
richtung
richtunge
rick
rico
rida
rie
riedewald
rien
ries
riesera
rieseradd
riesflam
rievkooche
rig
riga
rigen
rigge
right
rihanna
rije
rijel
rijje
rijn
rika
rin
ring
ringe
ringrichter
rinn
rio
rip
ripoare
ripoaresch
ripoaresche
ripoarisch
ripoarische
ripuaresch
ripuaresche
ripuarisch
ripuarische
riquelme
risch
rische
rischka
rischste
rischtije
rischtisch
rish
rishtisch
rishtish
rishtung
risse
rita
ritt
ritter
river
rivera
riverfront
rja
rje
rjebersch
rjeberschßplatt
rjebirsch
rjedraare
rjee
rjer
rjere
rjerkreesch
rjerkresch
rjerlich
rjerliche
rjermeester
rjermeestera
rjermeesterei
rjermeijster
rjermeister
rjermeisterei
rjerschaff
rjescheech
rjeseeh
rjestalld
rjestallt
rjetrocke
rjevalle
rjeworpe
rjische
rjitt
rjo
rjoov
rjott
rjuverneur
rk
rkd
rkde
rke
rkei
rkekresch
rker
rkisch
rkische
rkischer
rkla
rko
rkomme
rkonge
rkoom
rkopp
rkr
rkraftwerk
rkstatt
rkste
rku
rkumme
rl
rla
rlaach
rlaare
rlach
rland
rle
rlesch
rlesh
rlich
rliche
rlijj
rlisch
rm
rmaane
rmche
rmde
rme
rmelkanal
rmer
rmije
rmodderhals
rmodu
rmste
rmt
rn
rna
rnaam
rname
rnberch
rnberg
rnbirch
rne
rnseen
rnt
rnte
rntlich
rnung
ro
roa
road
roanald
roat
roath
roathuus
rob
robert
robespierre
robinson
roche
rochus
rock
rockas
rockmusick
roda
rode
rodesie
rodham
rodhuus
rodolfo
rodung
roebling
roee
roermond
roetgen
roff
roger
rohrmoos
roj
rokraat
rolduc
rolf
roll
rolld
rolle
rollen
rolly
rom
roma
roman
romane
romanik
romanisch
romanische
romanischem
romanischen
rome
romeo
romilian
romina
rommel
ron
ronald
roncalli
rond
rondell
rondo
rong
rood
roofe
roone
root
roothuus
roothuuß
rop
ropp
ros
rosa
roscoe
rosenheim
rosenthal
ross
rostow
roth
rothuus
rothuuß
rotinge
rotschla
rott
rotterdam
rotterdamm
rottleben
rotwelsche
roubaix
rouen
rouge
rouh
roum
roundhay
route
roxelane
roy
royal
rp
rpa
rpche
rpe
rpel
rper
rperdeel
rpere
rperkultur
rpommere
rppe
rpsche
rr
rrbe
rre
rref
rrejierung
rrem
rremajazihn
rrep
rres
rresch
rresh
rreskaar
rreskaare
rreskaarerenne
rresse
rrika
rrische
rrje
rrjer
rrjische
rrm
rrma
rrmanije
rrme
rro
rroriste
rrpe
rrper
rrse
rrve
rrək
rrəm
rs
rsch
rschaff
rsche
rscheed
rschte
rschten
rse
rsetz
rsetzende
rsetzer
rsez
rsezzende
rsh
rspetze
rspra
rst
rsta
rstand
rste
rstedom
rstelle
rstellung
rstellunge
rsten
rstentum
rt
rtche
rte
rtemberch
rten
rter
rterboch
rterbuch
rterhu
rtes
rtesdaach
rteszoch
rth
rtije
rtl
rtlich
rtn
rtrocke
rts
ru
rubbedidupp
rude
rudi
rudka
rudolf
rufus
ruh
ruhe
ruhr
ruhrgebiet
ruhrjebiet
ruhrpott
ruin
ruine
rum
ruma
run
rund
runde
rundfunk
rundschau
rung
runge
runk
runnder
rur
rurmond
rus
russ
russbraad
russe
russell
russesch
russia
russian
russisch
russische
russjejovve
russjo
russjoov
russkomme
russland
rust
rut
ruth
rutsch
ruud
ruude
ruuer
ruuerjebeet
ruuh
ruuse
ruusedahl
ruusemondachszoch
ruusemoondaach
ruusemoondaachszoch
ruusemoondaachßzoch
ruusemoondachszoch
ruut
ruß
rußland
rußße
rußßlandt
rv
rva
rvall
rvd
rvde
rve
rvenich
rver
rvjott
rvk
rvo
rvonge
rvte
rwaahle
rwe
rwerk
rwo
rwth
ryan
rz
rzbischoff
rzd
rzde
rze
rzebereide
rzenich
rzte
s
sa
saach
saache
saachjrupp
saad
saage
saahre
saahte
saakaschwili
saal
saare
saaren
saarland
saat
saate
saaten
sabine
sabrina
sach
sache
sachse
sachsen
sack
sadam
sadipscing
sage
sagen
sahir
sahne
sahre
saht
saigon
saint
sainte
saison
sajt
sakara
sakral
saldivar
sallz
salomone
salon
salt
salvador
salz
salzach
salzbro
salzjewennung
salzwasser
salzwaßer
sam
samba
sambia
samme
sammele
sammelt
sammeschloss
sammespell
sammestellung
sammewerke
sammlermo
sammlong
sammlung
sammt
samsdaach
samtkrage
samuel
samy
san
sancti
sanctus
sand
sang
sangkt
sank
sankt
sannita
sanskrit
sant
santa
santiago
santo
santur
sapiens
sar
sara
saragossa
sarah
sardinie
sare
saren
sark
sarr
sarre
saruman
sat
satellit
satt
satturrən
saturday
saturn
saturnin
saturnio
satz
satze
saubaach
sauber
saubr
saudi
sauerland
sauerstoff
sauna
sauron
sawizkaja
saxe
sayn
saz
saß
sbijer
sbisch
sc
scene
sch
scha
schaade
schaaf
schaal
schaale
schaat
schabau
schach
schade
schaff
schaffd
schaffde
schaffe
schaffrath
schaffte
schah
schalke
schaltjoohr
schamhaftichkeet
schamhoore
schamleppe
schang
schangß
schanker
schardinel
scharf
scharvu
schaschlik
schatte
schau
schaumburg
schauspelle
schauspeller
schauspellere
schauspellerei
schauspellerin
schauspellschu
schauspillerin
schavur
schavuur
schde
sche
schebee
scheck
scheckde
schecke
schee
scheebeene
scheed
scheede
scheedsreeschter
scheedung
scheeff
scheeffe
scheen
scheene
scheer
scheeve
scheevho
scheeße
scheff
scheffe
scheiterhoof
schelcher
schele
schelsche
schelvis
schemie
schemisch
schemische
schenk
schenkde
schenke
schepp
scher
scherei
schermettwoch
scherschaaf
schess
schevenhu
schho
schichte
schick
schicke
schief
schier
schiev
schiff
schiffe
schihßlesch
schiidsrichterin
schiina
schiißt
schild
schimie
schina
schinesisch
sching
schingd
schingde
schinge
schingk
schingt
schinke
schje
schjoohr
schkraff
schla
schlaach
schlaachfla
schlaachzeuch
schlaare
schlach
schlachd
schlacht
schlachte
schlachzeuch
schlackekejel
schlamm
schlang
schlange
schlangeberch
schlangebersch
schlau
schle
schleed
schleede
schleeße
schleeßlich
schleicher
schleichers
schlemm
schlemme
schlemmer
schlemmste
schlesch
schlesche
schlesie
schlesische
schleswij
schleverbrett
schlich
schliißlish
schlimmste
schlisch
schlo
schloch
schloemer
schloffe
schlonn
schlooch
schloot
schlooße
schloss
schlosse
schlot
schlowenien
schloß
schlu
schluff
schluss
schluß
schma
schmaal
schmale
schme
schmeck
schmecke
schmetterling
schmetterlinge
schmetterlingsjaade
schmidt
schmiere
schmieße
schmiier
schmitt
schmitz
schmitze
schmo
schmolz
schmore
schmu
schmuck
schna
schnapp
schnappde
schnappe
schne
schnedde
schnee
schnei
schneider
schneidermann
schneij
schnell
schneller
schnellstrooß
schner
schnett
schnidenwind
schnigg
schnigge
schnii
schniid
schniider
schno
schnu
scho
schofska
schoh
schohn
schokolad
schold
scholde
scholl
schollder
scholle
schologie
scholohre
scholten
schomet
schon
schonn
school
schoon
schopp
schorsch
schoss
schosse
schosste
schotte
schottische
schottland
schotz
schotzjebiite
schotzjo
schotzstaffel
schoß
schpa
schpresch
schpresh
schprohch
schprooch
schprooche
schra
schranke
schreber
schreckenskammer
schreev
schreeve
schreff
schreffshprooch
schreffte
schrefte
schreiner
schrett
schrief
schriev
schrieve
schrieven
schriever
schrievwies
schriewe
schriftenreihe
schriftliche
schriftsteller
schrihve
schriif
schriiv
schriivd
schriivdesch
schriive
schriiver
schriiverin
schritt
schro
schruuf
schruuve
scht
schta
schtadt
schtatt
schte
schtemmp
schten
schter
schto
schts
schu
schuh
schuhmacher
schuld
schule
schull
schullder
schulle
schulljohr
schulte
schulz
schumacher
schun
schunkele
schunn
schuss
schuster
schutzpatron
schvede
schwa
schwaad
schwaade
schwaadt
schwaaz
schwache
schwade
schwan
schwanger
schwartzenburch
schwarz
schwarzer
schwatz
schwatzbaart
schwatze
schwaz
schwazz
schwazze
schwe
schwede
schwedisch
schweede
schweer
schwefel
schweijz
schweiz
schweizer
schwemmba
schwemme
schwengel
schwer
schwere
schwerkraff
schwerkrafffeld
schwert
schwester
schwestere
schwierichkeete
schwiirichkeete
schwirichkeet
schwirichkeete
schwizzer
schwo
schwoch
schwomme
schwonemo
schwooch
schß
scribonius
sde
sderwa
sdi
se
sea
search
seattle
sebastian
sebus
sech
seche
secher
sechere
secherheed
secherheet
sechs
sechste
secke
sed
see
seee
seefeoper
seeg
seeh
seehausen
seehofer
seejele
seel
seeland
seelscheid
seelscheider
seelsorje
seelu
seen
seeru
seesch
seet
seewa
seewer
seff
segg
sehe
sehen
sehr
sei
seid
seifenschaum
seij
seijd
seijt
sein
seine
seiner
seit
seite
seiten
sej
sejj
sekonde
sekreta
seks
sekund
sekunda
sekunde
selbe
selbstverlag
selbstverwaltung
selbsverwaldung
selde
sele
selecta
selefs
selektiun
selena
seleve
selever
seleves
selevs
selewe
selfs
selfsluut
selfsluute
seligen
seligenstadt
sell
sellde
sellefsluute
sellessta
sellevs
sellich
sellije
sellisch
sellschaff
sellve
sellver
selten
selve
selver
selves
selvs
semerchet
sen
senat
senator
send
sendai
sender
sendler
sendung
sendunge
seng
sengd
senge
sengem
senger
sengk
senk
senke
senkra
senn
senndung
sennett
sensatiun
sentantehuus
sentantehuuß
senteere
seo
seok
seoul
sepp
seppta
sepptemmber
septa
september
sequoia
ser
serbe
serbie
serbien
serbisch
serge
sergei
serie
serije
serisch
server
service
serviceentworp
serviceleistunge
serviceo
serviceplanung
servicevorbesserunge
serviert
sesch
sesche
sescher
sescherheed
sesh
sesher
sesong
session
sester
set
sett
setz
setzd
setze
setzt
setzung
seujo
sev
sevilla
sevve
sewi
sex
sexeehnte
sey
sez
sezz
sezze
sforza
sg
sh
sha
shaker
shakira
shaltjoo
shanghai
shbare
shde
she
shek
sher
shi
shiffje
shift
shintoyone
shke
shla
shlesh
shliißlish
shlish
shmop
shnigk
sho
shof
short
show
shpa
shpaß
shpell
shpellbaa
shpelle
shpeller
shpellt
shpetz
shpezja
shpeznaame
shpill
shpille
shpillt
shpresh
shproch
shprooch
shprooche
shproochejroppe
shproocheroum
shproochweßßeschaff
shpur
shriive
shta
shtaad
shtaat
shtaate
shtadd
shtadt
shtadtpooz
shtadtra
shtamm
shtammp
shtand
shtang
shtanndat
shtatt
shte
shteiht
shteijt
shtejn
shtell
shtelle
shtemm
shtemmp
shtet
shtil
shtille
shtish
shto
shtonn
shtra
shtriife
shtrohß
shtrohße
shtroohß
shtrooß
shtrooße
shtu
shtudde
shtund
shtundt
shtundte
shunsho
shvede
shveden
shvedishe
shß
shßte
si
sibbe
sibbejebirje
sibbejebirsch
sibbenenzvanzishßte
sibbente
sibbenunzvanzishßte
sibbeschlo
sibbezeente
sibelius
sibirie
sibylla
sich
siche
sicher
sichere
sichuan
sick
sid
sida
side
sident
sidente
sidenteamt
sidenten
sidentin
sidentschaf
sidentschaft
sidialvorwaltung
sidien
sidney
sie
sieber
sieburch
sieburjer
siebursch
siech
siedler
siedlonge
siedlung
siedlunge
sieg
siegburg
sieger
siegfried
siegtal
siehr
sieht
sieje
siejen
siejerland
siel
siemons
sien
sierche
sierra
siesch
sieschtal
siesh
sieshloor
sieshloorer
siet
sig
sigck
sigg
sigge
sigk
signal
signy
sihr
sii
siich
siichde
siiel
siif
siih
siihe
siihr
siij
siije
siir
sij
sijj
sik
siker
sikkenß
sil
silberlinge
silezien
silke
silvester
simbabwe
simek
simon
simone
simoni
simons
simpson
simpsons
sin
sina
sind
sing
singe
singem
singen
singer
singge
singk
single
singles
singsang
sinn
sinnde
sinne
sinner
sint
sinte
sinti
sinus
sion
sippschaff
siprage
sir
sisch
sische
sischen
sischer
sish
sit
siteit
sitt
situation
situatiun
situatiune
sitz
sitze
sitzung
sixtinische
sizilie
sj
sje
sjevemet
sjoee
sjohne
sjpekhei
sjpiee
sjproach
sjproache
sjrieft
sjriever
sjtaatse
sjtad
sjte
sjtee
sjteet
sjtong
sjtroase
sjun
sk
ska
skandal
skandale
skandinavie
skerche
skezzeboch
ski
sklaavemaad
sklave
sklavehandel
sklavemaad
sklavin
skol
skulptur
sky
skyline
sl
slovaake
slowakei
slowenie
sloß
slut
small
smith
smolensk
snow
so
soa
sobibo
sobibor
sobiborski
soch
soche
socie
soen
sofia
soft
software
sogenannte
sohn
sojenannte
sokrates
sol
solche
sold
soldat
soldate
solinge
solingen
solinger
soll
solld
sollde
solle
sollen
sollt
sollte
solo
solomone
somit
somme
sommer
sommerspelle
sommerzeit
sommezick
son
sonam
sond
sonderabteilung
sondern
song
songisch
sonn
sonnal
sonndaach
sonndach
sons
sonst
sont
sonß
sooch
sood
soohl
soohm
soohn
soorbrode
soore
soot
sooß
sooße
sophie
sophroniskos
sorbesch
sorch
sorchd
sorchde
sorcht
sorchte
sorg
sorje
soskic
soule
soull
soullt
soun
soundtrack
south
sovjet
soweto
sowi
sowie
sowjet
sowjets
sowjetunion
sowjetuniun
sowohl
sozial
soziale
soß
spa
space
spanair
spanesche
spanie
spanien
spanier
spanijer
spanisch
spanische
spannung
spass
spazeere
spaß
spd
speck
speejel
speelt
speer
speijel
spekelatius
spektakel
speld
spell
spelld
spellde
spelle
speller
spellt
spellte
spellzu
spelte
spencer
spenn
spetz
spetze
spetznaam
spetznaame
spez
spezialiseerd
spezialita
spezielle
spezifikatiun
spezname
spich
spiegel
spiel
spieler
spier
spii
spiider
spiidere
spiidestens
spiidr
spiier
spiir
spill
spilldag
spille
spiller
spillt
spillte
spingxe
spiraala
spital
split
splitter
spo
spocht
spochtler
spohr
sport
spra
sprache
sprachgeschichte
sprachproben
sprachschatz
sprech
sprechd
spreche
sprechen
sprecht
sprenge
spresch
sprich
spricht
springer
springfield
sprisch
sprit
spro
sproach
sproch
sproche
sprong
sprongbrett
sprooch
sprooche
spru
sprudel
spu
spure
square
sr
srath
srod
sroder
sroth
ss
ssd
sse
ssel
sseldo
sseldorf
sseldorfer
sseldorp
sseldorver
sseldorwer
ssele
sseler
ssen
sser
ssere
sserei
ssesch
ssich
ssije
ssje
ssjer
sslich
ssner
ssp
ssr
sst
sste
ssv
sswa
st
sta
staad
staat
staate
staaten
staatliche
staatsbu
staatsmann
staatspra
staatsrechtliche
staatstheater
stabiliseere
stacheldroohtzung
stachus
stad
stadijon
stadijonmanager
stadion
stadium
stadt
stadtarchiv
stadtbezirk
stadtbezirke
stadtbezo
stadtbrand
stadtdeel
stadtdeele
stadtdeil
stadtdel
stadtfa
stadtfro
stadthall
stadtjebiet
stadtka
stadtkerch
stadtkreise
stadtmett
stadtmuur
stadtmuure
stadtra
stadtstaat
stadtwappe
staffel
stald
stalin
stalingrad
stalinjrad
stalld
stallman
stallt
stallte
stalt
stamm
stammd
stammde
stamme
stammen
stammende
stammenden
stammt
stan
stand
standard
standort
stang
stange
stangk
stangl
stanisław
star
starde
stark
starke
start
starzlach
state
states
station
statione
statistik
statiun
statt
stattva
stattvong
stattvonge
statue
status
stauffenberg
stbaach
ste
steatopygie
stech
stechd
steche
stecke
stee
steealt
steebro
steebroch
steech
steechde
steecht
steed
steehd
steehn
steeht
steeijt
steel
steem
steemich
steen
steenbru
steenen
steenernen
steenernes
steenzitt
steern
steerne
steet
stefan
stehd
stehen
steht
stehts
stehus
steiff
steiht
steijt
steil
stein
steinfurt
steinmeier
steinzeit
stelig
stell
stelld
stelle
stellt
stellung
stem
stemm
stemme
stemmp
stephan
stephanus
stephen
steppe
ster
stere
sterer
stern
sterreich
sterreischische
sterrich
stervd
sterve
stet
stettin
stez
stich
stichting
stickstoff
stift
stiftung
stiir
stije
stil
still
stillach
stille
stillla
stimmhafte
stimmlose
stimp
stippe
stirvd
stisch
stish
stlich
stliche
stlisch
sto
stoahn
stoch
stoche
stock
stockholm
stoff
stoffe
stoffmeng
stoh
stohl
stoker
stolberch
stolberg
stolberger
stolberjer
stolbersch
stolle
stolz
stommfilm
stommfilme
stommfilmzitt
ston
stond
stonice
stonn
stooh
stoohl
stoppe
storm
storv
storve
story
stoss
stout
stowasser
str
stra
straahle
straelen
straet
strahlung
straik
strait
strand
strange
stratmann
stratmanns
straver
straßburjer
straße
streck
strecke
street
streng
strich
striif
string
stripperin
striptease
stritt
stro
strof
strom
stromberg
stromsta
stroof
stroofe
stroohß
stroot
strooß
strooße
stroß
stroße
stru
struktur
strunze
struwwelpeter
stu
stuben
studeerde
studeere
studeert
studeet
studente
studie
studierde
studiierde
studiirde
studiire
studio
studios
studium
stuf
stuff
stummfilm
stund
stunde
stundt
stung
sturm
sturz
stuttgart
stuttjart
su
subald
suchen
sucht
sudan
sudat
sudeteland
sue
suffe
suh
suj
suja
sujaa
sujaar
sujar
sujenannde
sujenannte
sujet
sujett
sujo
sulang
suleyman
sull
sulle
sullt
sult
sultan
sumet
summer
sun
sundern
sung
sunge
sunn
sunndaach
sunndaachs
sunndach
sunne
sunnefinsternees
sunneflecke
sunnemasse
sunnesu
sunnesystem
suno
sunz
suo
superjeilezick
supermodel
supernova
suppemaat
suppermaat
suppernova
supßtannz
sur
surrealismus
susana
suu
suur
suurbroone
suure
suvell
suvo
suwi
suwie
suwisu
suwitt
sv
sven
svg
svp
swa
swadesch
swadesh
swatch
swb
swetlana
sydney
sylt
sylvester
symbol
symbolisieren
symphonie
syntax
syphilis
syrie
system
szaul
szeen
t
ta
taachde
taalunie
tabb
tabell
tablette
tabori
tadic
tafel
tag
tagebau
taiwan
takamatsu
takimata
takt
tal
talinn
tallinn
talsperr
tan
tann
tansania
tant
tante
tar
tareboch
taro
taschenausgabe
tastatur
tat
tata
taten
tatsa
tau
tauchd
tauchde
tauche
taucht
taunus
tawa
taylor
taßte
tche
te
teatr
tebersch
technik
technische
technology
tecnolo
tee
teema
teeme
teil
teile
teisch
teische
teiwaz
teje
tel
telefon
telefonbuch
telejramm
telekom
telekommunikation
tellefon
tellefoon
teller
tempel
tempele
temperatur
temperature
templ
tempo
tempor
temps
ten
tennessee
tennis
tennissii
teno
tenpo
tenzin
ter
terbooch
tere
terminal
terrae
territorium
terrorismus
terroriste
terwinsele
tes
tesch
teso
tess
testament
teste
teti
teufelsbraten
teutoburjer
tex
texas
text
texte
texter
th
thailand
that
the
theater
theatere
theatr
theatre
theben
thek
thema
theme
themen
then
theo
theodor
theophanu
theorie
thermalwasser
thermenmuseum
thiater
thiatersto
thielen
thijater
tholen
thomas
thor
thorsten
thu
thumb
thumbtime
thuy
ti
tianu
tiater
tiberius
tibet
tibetische
tic
tica
tich
ticht
ticket
tied
tief
tiefland
tietz
tiflis
tij
tijater
tije
tiling
till
tillmann
time
times
timor
timothy
tingelnde
tip
tira
tirana
tireck
tirek
tirektemang
tiresias
tisch
tischte
tisure
tit
titan
titania
titanic
titel
tittel
tiwaz
tjenburg
tl
tlich
tlijje
tlisch
tlische
tnam
tnameesesch
to
tochte
tod
today
toendra
tok
toki
tokio
tokyo
tolkien
tom
tomburch
tommy
ton
toni
tonnar
tonne
tool
toon
top
tor
tore
torf
toronto
torpedos
torre
torrem
toshiro
toskana
tossenstee
totaal
totala
totale
totpunkt
toulouse
tour
tourismus
touriste
tours
tous
tower
toyone
tr
tra
trachte
tracy
tradition
traditionell
traditionelle
tradizjuhn
trainer
trak
trang
transfommazju
transporteere
transportwa
transsibirische
trapp
traude
traugott
trawaniki
trawniki
tre
treatment
treblinka
treck
treckd
trecke
tredde
tree
treend
treent
treff
treffd
treffe
treffer
trefft
treid
trekke
trennd
trennde
trenne
trennt
trennung
treponema
tres
trester
trett
trettach
treu
treverer
trick
trier
triest
triff
triir
trik
triltsch
tring
trinidad
trinitatis
trio
tripper
triton
tritt
tro
trock
trocke
trof
trofe
troff
troffe
troisdorf
trojaner
trok
trokke
troon
troone
trooßdoorf
trooßdoorfer
trooßdorf
trooßdorfer
trope
tropische
trotz
trotzda
trotzdem
troz
trozda
truffel
trump
trupp
truppe
trutzeltz
ts
tsar
tsch
tscha
tschbu
tsche
tschechei
tschechoslowakei
tscher
tschewald
tschko
tschkopp
tschland
tschlands
tschsprochije
tschte
tse
tseruk
tsezame
tshe
tsied
tsiet
tsj
tsje
tsjland
tsna
tsname
tsoe
tste
tstheorie
tsunami
tsvangirai
tsvordriiner
tswai
tswing
tswoe
tt
tta
ttche
tte
ttemang
ttemann
tten
ttener
ttenstr
tter
ttere
ttered
ttesch
ttich
ttin
ttingen
ttisch
ttish
ttjers
ttlijje
tto
tts
ttsche
ttshe
ttwa
ttwish
ttß
tu
tucker
tun
tunesie
tunfilm
tunfilme
tung
tungning
tunick
tunis
tunnel
tupolew
turbine
turismus
turiste
turißte
turkana
turkish
turm
turnhall
turpin
tusje
tussje
tut
tutankhamen
tutenchamun
tuur
tuure
tuuriste
tuusche
tuvalu
tv
twa
two
ty
tyler
typ
type
typisch
tyr
tz
tzau
tzd
tzde
tze
tzefa
tzefeß
tzel
tzelo
tzen
tzende
tzer
tzipi
tzje
tzlich
tzliche
tzlisch
tzong
tzt
tzte
tzung
tß
u
ua
ub
uber
ubier
ubiermonument
ubije
uch
uche
ucher
uckerath
uckeroath
ud
udde
udder
ude
uden
uder
udo
udssr
ue
uefa
uel
uer
uerdinge
uerdinger
ues
uew
uf
ufa
ufd
ufer
uff
ufftrag
ufije
ufischste
uft
uhr
uhre
uhuus
uitgave
ujedeere
uk
ukraine
ulein
ulla
ulm
ulrich
um
umbenannt
umgebung
umliche
ummer
ums
umsetzung
umweltschutz
un
una
unaffha
unavha
unbedingk
unbekannt
unbewa
und
under
underground
une
unesco
ungarn
unge
ungejruppe
ungen
unger
ungerdeelt
ungere
ungereech
ungereneen
ungerjebraat
ungerm
ungerneeme
ungerscheed
ungerscheede
ungerscheedlijje
ungerscheide
ungerschiedlich
ungerschiedliche
ungerschrieve
ungerso
ungerstu
ungerwa
ungescheed
ungescheedlich
ungescheedlijje
ungeva
ungger
uni
unicode
union
unit
unita
united
uniun
univa
universe
universidad
universidade
universita
university
universum
unix
unjarm
unjarn
unjefa
unjeva
unjewo
unjon
unn
unne
unni
unniva
uno
unrast
uns
unscholdije
unse
unsem
unser
unsere
unserem
unserer
unsəm
unter
unteren
unternehmer
unternehmerin
unterschiedliche
unterstu
unvera
unverjesse
unß
up
upche
upp
uppfa
uppjelu
upright
ups
upu
ur
ural
urdeel
urdu
ure
urft
urjermanisch
urk
urkers
urkund
urkundliche
url
urlaub
uropjevu
urranuß
ursaache
urspro
urspru
ursprung
ursula
ursulakapell
urwald
us
usa
usbelde
usbeldung
usbroch
usch
uscher
usdro
usdrock
usem
user
userkreis
usha
usja
usjebeld
usjebreit
usjejraave
usjelo
usjerechnet
usjesood
usjesproche
usjestalld
usjestorve
usjetrocke
usjo
usla
uslo
usmaache
uss
ussaare
ussbeldung
ussbroch
ussdrock
usse
usseda
usseeh
ussem
ussemenester
ussemenestr
ussen
ussenander
ussenannder
ussend
ussepolitik
ussepolitisch
usser
usserda
usserdem
ussere
usseree
usserhalb
usserhalv
usserjewo
ussieht
ussjaav
ussjang
ussjebroche
ussjejange
ussjelo
ussjerechnet
ussjeroffe
ussjeschlooße
ussjesproche
ussjestalld
ussjestorve
ussjevalle
ussjezeechnet
ussjo
ussla
ussland
usslo
ussnahm
usso
ussooh
ussproch
ussprooch
usssitt
usssta
ussstellung
usstellung
usstellunge
usstrett
usswa
usswanderer
usszeechnet
usszeechnung
usszeechnunge
usterka
ustra
usu
usw
uszeechnede
uszo
ut
utc
utf
utrecht
uu
uuhr
uuhre
uur
uure
uurkund
uurkundliche
uus
uuse
uusem
uusjonn
uusschleeßen
uut
uuße
uußer
uußerdemm
uvd
uve
uvver
uwe
uß
ußbeldung
ußdro
ußdrock
ußer
ußerda
ußerhallef
ußerhallf
ußfo
ußjedaach
ußjedro
ußla
ußmaache
ußshtellung
ußwaal
ußzedro
ußß
ußße
ußßer
ußßerda
ußßoda
v
va
vaahn
vaahre
vaahrer
vaals
vaan
vaare
vadder
vah
vahn
vahrd
vahre
vahrer
vahrra
vahrrad
val
vale
valencia
valenciana
valencians
valeria
valerius
vall
valladolid
valle
valley
valloni
vallotton
valsch
valsche
value
vam
vamm
van
vanaaf
vanaan
vandaag
vande
vanee
vanessa
vang
vange
vangelische
vangene
vangjellische
vann
vanne
vannem
vannozza
vanuatu
var
varnenum
varpi
vashem
vass
vassha
vassjehalde
vassjenomme
vassjestalld
vassjestallt
vassjo
vassla
vassland
vassna
vassstelle
vasszo
vaste
vasteloavends
vasteloavesverein
vatikan
vatte
vatter
vaux
vd
vde
ve
vea
veedel
veedele
veedelfinale
veedelle
veedelszo
veehl
veehle
veel
veele
veenuß
veer
veerd
veet
veete
vejlich
vel
velarisierung
velau
velbert
veld
veldeke
veldzoch
veleet
velit
vell
velle
velleisch
velleman
vels
velseinsel
velssturz
ven
vend
vende
venedich
veneedisch
venera
venezuela
venge
venger
vengere
venlo
venloer
venn
vennhuse
venray
vens
vensjoohr
venslang
vensmeddele
vensraum
venster
venstere
venus
venusberg
venusbersch
venusho
venß
ver
vera
veraanstaltunge
verain
verall
veranstallte
veravschied
verba
verbe
verbeede
verbei
verbesserunge
verbindt
verbindung
verbingk
verblo
verbo
verbodde
verbonge
verboone
verbra
verbrannt
verbrenne
verbunge
verda
verdeehlt
verdeele
verdeelt
verdeene
verdeenen
verdeent
verdehne
verdeijlung
verdens
verdo
verdra
verdraach
verdrieve
vere
vereenichde
vereenichte
vereijn
verein
vereine
vereinigt
vereinigte
vereinigung
verejnisht
verfassung
verfu
vergeb
vergewwe
vergil
vergro
verha
verhandele
verhaupt
veriehrt
vering
verja
verjesse
verjleichsmessung
verjlich
verjliche
verjovve
verka
verkehr
verkehrsverbund
verker
verkiihr
verknack
verko
verkoof
verkooft
verkouf
verkoufe
verku
verla
verlaach
verlaat
verlag
verlagsgesellschaft
verleef
verlo
verloor
verloore
verlor
verlore
verlosse
verluere
verma
vermeer
vermutet
vermutlich
vernichtungslager
vernon
vero
verpaß
verro
verrocchio
versailles
verscheede
verschiddene
verschiedene
verschiedenen
verscho
vershta
vershtonn
version
versiun
versiune
verso
versoot
versoote
versorjung
versta
verstande
versteht
verstohn
verstonn
versuchung
vertell
vertreter
verwa
verwaltung
verwaltungen
verwaltungseinheiten
verwandt
verwandte
verwannt
verwendet
verwies
verza
verzallt
verzeichnis
ves
vesche
vescher
veschvang
vesiunne
vespucci
vettel
veuel
veul
veur
vewese
veza
vfb
vi
via
vicente
vicht
vichtbaach
vichtbach
victor
victoria
vidder
video
videos
viduka
vie
viee
viel
viele
viell
vier
vierdimensionale
viersen
vierte
vietjet
vietnam
vii
viii
viir
viird
viirde
viirdjru
viire
viirmol
viirtakter
vija
viktor
viktoria
vil
vill
villa
ville
vincent
vincents
vinci
vine
ving
vinge
vings
vingster
vinxbach
vinzenz
vire
virginia
vita
vith
viva
vivian
vizcai
vize
vizeko
vizemeister
vizepokalsiejer
vizepra
vla
vladka
vleech
vleeje
vleejende
vleesch
vleuel
vleuelaltar
vliidr
vloch
vlooch
vloore
vlu
vluch
vluchha
vluchhaafe
vluchhafe
vluchjesellschaff
vluchjesellschaffte
vluchzeuch
vluchzeuchaavsturz
vluchzeuje
vmbo
vo
voaschbich
voderkripp
voeres
vogue
vohre
voice
voices
vokale
vol
volchde
volek
volk
volksjruppe
volkskunde
volkssprache
volkstrauertag
volksziidung
voll
volld
volle
vollek
volley
volleyball
vollmond
vollmoond
voloor
vols
volsbroch
volt
voluptua
vom
von
vong
vonge
voohr
voor
voore
vor
vora
voranstaltung
vorantwortlich
vorba
vorband
vorbei
vorbeij
vorbenge
vorbessere
vorbesserung
vorbindung
vorbla
vorblevve
vorbone
vorbong
vorbonge
vorboohne
vorboon
vorboone
vorbra
vorbraad
vorbrannd
vorbrannde
vorbrannt
vorbreche
vorbreid
vorbrenne
vorbroche
vorda
vordeehnde
vordeehnt
vordeele
vordeelung
vordeend
vordeende
vordeene
vordeent
vordeente
vordra
vordrach
voreenijung
vorein
voreinbarte
voreine
vorfassung
vorha
vorhaft
vorhaftung
vorhalde
vorhandlung
vorhandlunge
vorhiirod
vorhindere
vorho
vorholp
vorholpe
vorhu
voriihrd
voriird
voriirde
vorja
vorjaaßd
vorjangeheed
vorjase
vorjaßd
vorjaßde
vorjeiße
vorjlesche
vorjlichd
vorjo
vorjoov
vorjoss
vorjru
vorkammesoole
vorkiihr
vorkleed
vorkloppe
vorkoofe
vorkooft
vorkoov
vorkoovd
vorkoovde
vorku
vorla
vorlaad
vorlaane
vorlaat
vorleef
vorleere
vorletzt
vorlinnd
vorlinnt
vorlobde
vorloohr
vorloor
vorloore
vorlosse
vorloufe
vorlu
vorluste
vormeddeld
vormeere
vormittele
vormut
vormuud
vormuude
vornichtungslajer
vornichtungslajere
vorno
vorpaaßd
vorroone
vorsa
vorsatze
vorschenkd
vorschidene
vorschiedene
vorschiidene
vorschla
vorschlooße
vorscholle
vorsenke
vorsitzender
vorso
vorsood
vorsooht
vorsoot
vorsoote
vorsorjung
vorspra
vorsproch
vorsproche
vorsta
vorstand
vorstange
vorsteehd
vorsteeht
vorstehd
vorsteht
vorsto
vorstoch
vorstoche
vorstooh
vorstorv
vorstosse
vorstu
vorsuch
vorsuche
vortra
vortrach
vortraue
vortreent
vortroon
vortroone
voru
vorurdeeld
vorurdeelde
vorurdeelt
vorursachde
vorvalle
vorwa
vorwaltung
vorwand
vorwandschaff
vorwandt
vorwandte
vorza
vorzalld
vorzallte
vos
voshta
voshtonn
voss
vossballspell
vossem
vott
vottbraad
vottloufe
votttrock
vouwelsang
vowelsa
voyage
vp
vra
vrassele
vrau
vraue
vreede
vreedensorjanisatiune
vrei
vreiheet
vreij
vreije
vreijesproche
vreijjelosse
vreijjesproche
vreischem
vreit
vreizitt
vremd
vremde
vresch
vresse
vreud
vreue
vreuer
vreuere
vreuje
vreund
vreunde
vreuo
vreut
vrietwassergeyser
vrige
vringsveedel
vro
vroa
vroch
vrommisch
vrood
vroode
vroore
vrooß
vrouw
vrouwe
vrr
vrs
vru
vruier
vruuh
vt
vte
vu
vue
vught
vulek
vulkahn
vulkahne
vulkan
vulkane
vull
vullt
vulputate
vulva
vum
vumm
vun
vung
vunn
vuur
vv
vva
vvd
vve
vveall
vvebeij
vvefloss
vvel
vven
vvend
vvenjeba
vvenomme
vvent
vver
vverall
vverd
vverdraare
vverdraarong
vverdrachbare
vverdrare
vvere
vverfu
vverhaup
vverhaupt
vverhoup
vverich
vverije
vverisch
vverish
vverja
vverjang
vverjoov
vverjovve
vverjru
vverla
vverlaad
vvermeddelt
vverna
vvernaam
vvernemme
vvernomm
vvernomme
vvernumme
vverolle
vverraschd
vversa
vversatze
vversaz
vverschte
vversee
vverstange
vverung
vvervall
vvervalle
vverveel
vvervu
vvesa
vvevrau
vvezijer
vvichde
vvichte
vvischde
vvischte
vvo
vvohoup
vvor
vvrijens
vvung
vvver
vvwahl
w
wa
waach
waade
waahl
waahle
waahr
waahrd
waahße
waal
waalsch
waar
waare
waarel
waath
waaßd
waaße
waaßt
wachholtz
wad
wadd
waddet
wade
wadji
waechter
waff
waffe
wagner
wahl
wahle
wahlergebnis
wahn
wahnbach
wahner
wahrscheenlich
wahrscheenlichkeet
wahrscheinlich
waimakariri
waiting
wakulintschuk
wal
wald
waldbro
waldburg
waldmann
waldorf
wales
walk
wall
walld
wallette
wallhegge
wallingford
wallone
wallonesch
wallonie
wallonish
walltlo
walter
walva
wam
wamm
wammer
wan
wand
wandel
wandere
wanderer
wandernde
wanderschaff
wanderwa
wann
wannseekonferenz
wappe
wappen
war
ward
ware
warel
waren
waro
warren
warschau
was
washington
wassa
wasse
wasser
wasserburch
wassermo
wasserscheed
wasserspeijel
wasserstoff
wasserva
wasservall
wasserwa
wat
water
watergeit
waterloo
waterstone
watt
watte
watts
wau
wayne
waßer
waßo
waßßer
waßßo
wdr
we
wea
weat
web
webbsigge
webcam
weber
weblink
weblinks
websait
websegge
websick
websigg
websigge
websigk
websiij
websiije
websije
websijje
website
webßait
wech
wechsel
wechsele
wechtije
weckelditz
weckmann
wed
wedde
wedder
weddero
wede
weder
wednesday
wee
weech
weed
weede
weeden
weedt
weeg
weehrmacht
weelen
weer
weerkde
weerstand
weerwaas
wees
weesch
weet
weete
weeth
weetschaf
weetschaff
weetschafflish
weetschaft
weetschafte
weetschaftlich
weetschaftliche
weetschavv
weetsdier
weetshaff
weetz
weeß
weeßeveld
weffer
weg
wegener
weh
wehrmacht
wei
weib
weibliche
weichsel
weih
weihhoff
weihnachte
weihnachtsmaat
weiht
weijeshtefan
weijl
weijß
weil
weiler
weimar
weimarer
weisch
weiss
weisweiler
weiterleitung
weiß
weje
wejen
wejl
weka
wel
wela
welch
welche
welcome
weld
welde
welkenraat
welkenraedt
well
welle
wellem
wells
wellt
wellß
welsbroade
welsch
welsche
welt
weltall
welter
welters
weltkreech
weltkreeg
weltkreesch
weltkresch
weltkrisch
weltkulturerbe
weltmeestr
weltongejang
weltwitt
wem
wemel
wemme
wemmer
wen
wenau
wengk
wengkter
wenijer
wenk
wenkel
wenkele
wenker
wenn
wennze
went
wenzahn
wepsigge
wer
werbe
werbung
werde
werden
werder
werja
werjang
werk
werkd
werkde
werke
werken
werkende
werklich
werkliche
werklichkeet
werkslu
werksta
werkstatt
werkte
werkzu
werm
wermelskirchen
werner
werpd
werpe
werreke
werrək
werth
weschtijje
wess
wesse
wesseling
wessenschaftliche
wesseschaff
wesseschaffler
wesseschaffte
wesseschafftler
wesseschaft
wesseschafte
wesseschaftler
wesseschavv
wesseshaff
wessfa
wessfale
wesskirch
wesslijje
wesste
wesswa
west
westdeutsche
westdeutscher
weste
westen
westerloo
westerwald
westeuropa
westfa
westfale
westfalen
westfront
westjordanland
westlb
westlich
westliche
westlisch
westlische
westphale
westwall
wet
wettbewerb
wetz
weß
weße
weßeschaav
weßeschaff
weßeschaffler
weßeschaffte
weßße
weßßenschaftler
weßßeschaff
weßßeschaftler
weßßfaale
wgl
white
whitley
wi
wibbel
wichtich
wichtichste
wichtig
wichtige
wichtigste
wichtije
wichtisch
wichtischste
wichtiste
wick
wicku
wid
widd
widde
widder
widderhollde
widderholle
widderhollt
widdero
widdo
widdor
wide
wider
widersta
wido
width
wie
wied
wiedenhoff
wieder
wiee
wieg
wieh
wiel
wiemken
wien
wiener
wienges
wierd
wiers
wiertschaftsjeba
wies
wiesbade
wiesbaden
wiescheed
wiesen
wiess
wiesu
wieverfastelovend
wieß
wieße
wife
wiffjer
wigg
wigga
wigge
wigger
wiggere
wiggerfaahre
wiggo
wigk
wih
wihjedon
wii
wiid
wiih
wiihr
wiir
wiis
wiise
wiiv
wiiß
wiißd
wiiße
wiißt
wij
wijet
wiki
wikimedia
wikipedia
wikipedija
wikki
wikkipedija
wikkita
wikkite
wiktionary
wil
wild
wilhelm
wilhelms
wilhelmus
will
wille
willem
willi
william
williams
willibert
willsch
willy
wilma
wim
wind
windeck
windows
wing
wingberch
wingbrand
wingpansche
winich
winiijer
winisch
wink
winnetou
winnich
winnichstens
winniger
winnije
winnijen
winnijer
winnisch
winnish
winnte
winnter
winte
winter
winters
winton
winzer
wipperfu
wipperveilen
wir
wird
wirke
wirklich
wirklisch
wischtije
wischtijje
wischtisch
wischtischste
wishtije
wishtijje
wiss
wissbade
wisse
wissem
wissen
wissrussland
wisswiller
wisu
with
witsch
witt
witte
witzcheverza
wivill
wivo
wiwa
wiz
wkooch
wladimir
wm
wmc
wo
woa
woabej
woamet
woar
woare
woaren
woat
wobei
wobeij
woch
woche
wochedaaach
wochedaach
wochedaare
wod
wodd
wodde
wode
wodka
wodo
wodrin
wodruss
wodurch
woe
woee
woensel
woer
wofu
woh
wohd
woher
wohl
wohlstandes
wohne
wohner
wohnt
wohr
wohre
wohrheid
wohrscheinlich
wohrzeeche
woht
woiwodschaff
woja
wola
wolf
wolff
wolfgang
wolfjang
wolfram
wolga
wolk
wolko
woll
wolle
wollersheim
wollstand
wollt
wollte
wollwa
woman
womet
womit
womo
won
wonder
wonn
wonnd
wonnde
wonne
wonneg
wonnege
wonner
wonnhu
wonnhuus
wonnhuuß
wonnig
wonno
wonnt
wonnung
wonnunge
wono
wonsch
woo
wooch
wood
woodard
woode
wooden
woodland
woodt
woodte
wooh
woohd
woohl
woohle
woohner
woohr
woohre
woohrzeeche
wool
woor
woord
woordenboek
woore
wooren
woosch
woot
woote
wooten
wopper
woppertal
wor
wora
word
worde
worden
wordt
wore
woren
worf
world
woro
woronger
worp
worpe
worre
worringe
wort
wortschatz
woru
worus
woss
wosse
wostoksee
wot
wova
wovan
wovo
wovon
wozo
wrede
wu
wuch
wuchang
wudd
wudde
wudden
wuerd
wuerdt
wuerdte
wuh
wuhan
wulfet
wulff
wull
wulle
wullek
wullt
wullte
wunder
wunderknabe
wunne
wunnsetz
wunnunge
wunsch
wupper
wuppertal
wurd
wurde
wurden
wure
wurm
wurmtaler
wurzel
wutt
wutte
wutten
wuurd
wuurden
wwa
wwe
wwel
wwer
www
x
xanthipp
xde
xe
xeente
xehnte
xena
xenophon
xer
xianfan
xic
xp
xte
xtra
xvi
xxiii
xyz
y
ya
yad
yale
yan
yang
yangtze
yanina
ye
year
yehuda
yerkish
yi
yigu
yo
yolanda
york
you
youku
young
your
yousaf
youtube
ypsilanti
yu
yua
yun
yv
yvelines
z
za
zaahl
zaahld
zaahlde
zaahle
zaale
zaat
zacha
zacharias
zachary
zack
zahl
zahle
zahlen
zahlreiche
zahnarzt
zaire
zalld
zander
zanders
zang
zantipp
zappe
zappes
zar
zarin
zaubere
zauberei
zauberer
zaus
zauß
zbe
zchinwali
zde
zdf
zdun
ze
zealand
zebras
zech
zeche
zeck
zedong
zeech
zeechd
zeechde
zeeche
zeechetrickserisch
zeechne
zeechned
zeechnede
zeechner
zeechnet
zeechno
zeechnunge
zeecht
zeechte
zeeje
zeeland
zeemlich
zeen
zeente
zeet
zeeuws
zeezt
zegg
zehn
zehnte
zehuus
zeich
zeiche
zeidung
zeije
zeijsch
zeijsche
zeirsch
zeit
zeiten
zeitung
zelda
zell
zelnik
zelo
zelt
zeltinger
zem
zemelesch
zemindest
zemlich
zemm
zemmer
zemmere
zemmlesch
zenger
zenk
zenkho
zensus
zentimeter
zentraal
zentraalbank
zentral
zentralafrikanische
zentralbank
zentralchina
zentrale
zentralistisch
zentrom
zentrum
zentrumspartei
zeppelin
zer
zera
zero
zerro
zersamme
zervall
zerveel
zesamme
zesammefassung
zesammehang
zesammejefass
zesammekumme
zesammen
zesche
zeschky
zeuch
zeuje
zeus
zeusch
zeush
zevill
zevu
zey
zezupp
zh
zheng
zich
zick
zickda
zie
ziech
ziee
ziegfeld
ziej
ziel
zielinski
ziemlich
zien
ziene
zieng
zienge
zier
ziesj
ziet
zig
zigg
zigge
zigk
ziidung
ziidunge
ziidungsschriiver
ziihl
ziil
ziile
ziin
ziine
zijeuner
zik
zill
zilver
zimmich
zimmlisch
zimmlish
zimp
zimper
zing
zink
zint
zinte
zinter
zippel
zirk
zirka
zitate
zitt
zitte
ziviliste
zizhen
zje
zlijj
zm
zo
zoademm
zoch
zochdom
zocker
zockerjehalt
zoe
zoee
zoflo
zoh
zohjelohße
zohschta
zohshta
zohshtand
zohtahte
zohu
zoja
zojang
zojelosse
zojemaad
zojeschlaare
zojesproche
zojeworpe
zojo
zoko
zokonft
zoku
zola
zoleed
zoleet
zoletz
zolez
zoll
zollstock
zom
zona
zone
zong
zonge
zoo
zooch
zood
zoojeschutt
zoon
zoosta
zoot
zoote
zopaß
zoppe
zor
zoreef
zoro
zosa
zosamme
zosammehang
zosammejelaat
zosatz
zoschauer
zoshta
zoshtand
zosta
zostand
zote
zouw
zovall
zr
zro
zsamme
zsammebroch
zte
zu
zucke
zucker
zuckerro
zude
zugeteilt
zuid
zuiderzee
zuje
zum
zumpelveld
zumpelvelds
zunft
zung
zunge
zunt
zupp
zur
zureck
zusagen
zusamme
zusammen
zusammengefasst
zusammenleben
zuud
zvanzishßte
zve
zvo
zwa
zwai
zwaij
zwangsarbeed
zwangsarbeeder
zwangsarbeederlajer
zwanzesch
zwar
zwasser
zwe
zweck
zwee
zweesche
zweete
zwei
zweich
zweid
zweide
zweides
zweidjru
zweidspra
zweierlei
zweifele
zweij
zweijte
zweimol
zweimoll
zweitakter
zweitaktmotor
zweite
zweiter
zweitjru
zwej
zwejde
zwejte
zwenge
zwerch
zwerchplaneet
zwerchplaneete
zwerchplanet
zwerje
zwesche
zweschen
zweschero
zwiivo
zwillinge
zwische
zwischen
zwivo
zwo
zwoar
zwong
zwonge
zwor
zwu
zyklon
zz
zze
zzenich
zzer
zzhu
zzkapellchen
zzschlach
zzuch
{
|
}
~

¡
¢
£
¤
¥
¦
§
¨
©
ª
«
¬
­
®
¯
°
±
²
³
´
µ
¶
·
¸
¹
º
»
¼
½
¾
¿
×
ß
ßbaa
ßbursh
ßd
ßde
ßdo
ße
ßejje
ßel
ßeld
ßelde
ßeldt
ßele
ßelle
ßelnde
ßelt
ßem
ßen
ßer
ßerd
ßere
ßert
ßesch
ßfa
ßfaale
ßich
ßichde
ßisch
ßje
ßjen
ßjer
ßlesch
ßlijje
ßlisch
ßmoß
ßo
ßoffwa
ßripoaresch
ßt
ßte
ßteem
ßteeme
ßtem
ßteme
ßten
ßter
ßterisch
ßto
ßtoß
ßtrisch
ßtrish
ßwaßer
ßß
ßße
ßßel
ßßeldorrəf
ßßeldorver
ßßelle
ßßer
ßßeschke
ßßfaale
ßßfale
ßßfalen
ßßflaandere
ßßo
ßßte
æ
ð
÷
ø
þ
đ
đo
đokovic
ħ
ı
ĳ
ĳd
ĳde
ĳdt
ĳe
ĳem
ĳen
ĳenzvanzishßte
ĳl
ĳle
ĳm
ĳn
ĳne
ĳnische
ĳnunzvanzishßte
ĳsch
ĳsche
ĳsh
ĳshe
ĳshpill
ĳsj
ĳt
ĳte
ĳunzvanzishßte
ĳß
ĸ
ŀ
ł
ło
łobez
łomazy
ŉ
ŋ
œ
ŧ
ſ
ƒ
ɕ
ə
ɛ
ʰ
ʲ
ʿ
ˆ
ˇ
ˈ
ˉ
ˌ
ː
˘
˙
˚
˛
˜
˝
ˠ
̀
́
̂
̃
̄
̆
̇
̈
̉
̊
̋
̌
̍
̓
̔
̚
̛
̣
̧
̨
̩
̪
̯
̱
̸
͜
͡
΄
α
β
γ
δ
ε
ζ
η
θ
ι
κ
λ
μ
ν
ξ
ο
π
ρ
ς
σ
τ
υ
φ
χ
ψ
ω
а
б
в
г
д
е
ж
з
и
к
л
м
н
о
п
р
с
т
у
ф
х
ц
ч
ш
щ
ъ
ы
ь
э
ю
я
ђ
є
ѕ
і
ј
љ
њ
ћ
џ
ґ
ַ
במערכת
הבינלאומית
היחידות
תחיליות
ر
ُ
क
ग
ड
प
म
य
र
ल
व
श
ह
ा
ि
ी
ु
ॉ
ौ
्
ி
ಡ
ಯ
ವ
ಾ
ಿ
ก
พ
ย
ว
อ
ิ
ี
ื
่
་
ན
ར
ི
ོ
ྒ
ྟ
ྱ
참세상
ᛏ
​
‎
–
—
―
‗
‘
’
‚
‛
“
”
„
†
‡
•
…
‰
′
″
‹
›
‼
‾
⁄
ⁿ
₣
₤
₧
€
℅
ℓ
№
™
℮
⅓
⅛
⅜
⅝
⅞
←
↑
→
↓
↔
↕
↨
↷
∂
∆
∏
∑
−
∕
∙
√
∞
∟
∩
∫
≈
≡
≤
≥
⌂
⌐
⌠
⌡
③
④
⑦
─
│
┌
┐
└
┘
├
┤
┬
┴
┼
═
║
╒
╓
╔
╕
╖
╗
╘
╙
╚
╛
╜
╝
╞
╟
╠
╡
╢
╣
╤
╥
╦
╧
╨
╩
╪
╫
╬
▀
▄
█
▌
▐
░
▒
▓
■
□
▪
▫
▬
▲
►
▼
◄
◊
○
●
◘
◙
◦
☉
☺
☻
☼
☾
☿
♀
♂
♃
♄
♆
♇
♠
♣
♥
♦
♪
♫
⛢
⯓
⺀
⺄
⺆
⺈
⺊
⺌
⺕
⺝
⺸
⺼
⿰
⿱
⿲
⿳
⿴
⿵
⿶
⿷
⿸
⿹
⿺
⿻
〢
け
ア
コ
ニ
メ
ユ
㇁
㇂
㇄
㇇
㇈
㇉
㇓
㐁
㐄
㐅
㐌
㐫
㐬
㐭
㐮
㐱
㑒
㒵
㒸
㒼
㓁
㓞
㔾
㕛
㕣
㖾
㘝
㚅
㚇
㚔
㚘
㝉
㝡
㝴
㝵
㞋
㞢
㞷
㠩
㠭
㠯
㡀
㡭
㡿
㢲
㢴
㣇
㣺
㥯
㪅
㫄
㫐
㫒
㫺
㬅
㬎
㬥
㬰
㲋
㳄
㷠
㸒
㸚
㸦
㼌
㼲
㽞
㿟
䀠
䂞
䍃
䏍
䒑
䖍
䖒
䖝
䖵
䙴
䚻
䜌
䝿
䡛
䧹
䪞
一
丁
丂
七
丄
丅
丆
万
丈
三
上
下
丌
不
与
丏
丐
丑
专
且
丕
世
丘
丙
业
东
丞
丢
丣
两
严
並
丨
丩
个
丫
丬
中
丮
丰
丱
串
丵
丶
丷
丸
丹
为
主
丽
丿
乀
乂
乃
久
乆
乇
么
义
之
乌
乍
乎
乏
乐
乑
乔
乖
乗
乘
乙
乚
乛
乜
九
乞
也
习
乡
乳
乾
亀
亅
了
亇
予
争
事
二
亍
于
亏
亐
云
互
亓
五
井
亘
亚
亜
亞
亟
亠
亡
亢
交
亥
亦
产
亨
亩
享
京
亭
亮
亯
亰
亲
亳
亶
亷
人
亻
亼
亾
仁
今
介
仌
从
仐
仑
仒
仓
仕
他
付
仝
代
令
以
任
企
伊
伏
伐
休
优
会
伯
但
位
佐
何
佘
余
作
佥
使
來
侈
侌
侖
侯
侵
便
保
俞
信
修
倉
倍
候
倠
備
僉
僕
儿
兀
允
兂
元
兄
充
兆
兇
先
光
兊
克
兌
免
兑
兒
兓
兔
党
兜
兟
入
全
兩
兪
八
公
六
兮
兰
共
关
兵
其
具
典
兹
兼
冀
冂
冃
冄
内
冈
冉
冊
冋
册
再
冎
冏
冐
冒
冓
冖
冗
冘
军
农
冝
冡
冥
冫
冬
冷
几
凡
凢
凵
凶
凷
凸
凹
出
函
凾
刀
刁
刂
刃
刄
刅
分
切
刍
刑
刕
刖
列
刘
则
初
別
利
别
到
制
刺
則
削
剌
前
剛
剡
剽
劉
力
功
加
劦
助
劫
劳
劵
勃
勇
勉
勒
動
務
勞
勤
勹
勺
勻
勾
勿
匀
匂
包
匆
匈
匊
匋
匍
匕
化
北
匚
匝
匡
匪
匱
匸
匹
区
医
匽
匿
區
十
卂
千
卄
卅
卆
升
午
卉
半
卌
华
卑
卒
卓
協
单
卖
南
卜
卝
卞
占
卡
卢
卣
卤
卦
卩
卪
卬
卯
印
危
即
却
卵
卷
卸
卻
厂
厃
厄
历
厈
厉
厌
厓
厘
厚
原
厤
厥
厨
厭
厲
厶
厷
厸
去
厼
厽
叀
参
參
叅
又
叉
及
友
双
反
叐
发
叒
叔
叕
取
受
叚
叜
叟
口
古
句
另
叩
只
召
可
台
叱
史
右
叵
号
司
叹
吂
各
吅
合
吉
吊
吋
同
名
后
吏
向
吕
君
吝
吞
否
含
启
吳
吴
吹
吾
呂
呆
呈
告
员
呙
周
命
咅
和
咎
咠
咢
咨
咸
咼
哀
品
哉
員
哥
哲
唐
商
啇
問
啚
啬
啻
善
喜
喬
單
喿
嗇
噩
嚴
囊
囗
囘
囙
囚
四
回
囟
因
囧
囬
困
囱
囷
固
国
圂
圅
圆
國
圍
圓
土
圡
圣
圥
在
圭
地
圶
圼
坐
坒
块
坚
坴
垂
垔
垚
埀
埋
埶
執
基
堂
堅
堆
堇
堯
塞
墨
壘
士
壬
壯
声
壳
壴
壹
壺
壽
夂
处
夅
夆
备
夊
夋
夌
复
夏
夒
夕
外
夗
夘
多
夜
夢
大
夨
天
太
夫
夬
夭
央
失
夲
头
夷
夸
夹
夻
夾
奂
奄
奇
奈
奉
奎
奏
奐
契
奓
奔
奚
奞
奠
奢
奥
奭
女
奴
奻
好
如
妄
妙
妟
妥
妻
妾
姑
委
姜
威
娄
婁
婴
嬰
嬴
子
孑
孔
孕
孖
字
存
孚
孛
孝
孟
季
孤
学
孫
孱
學
宀
宁
宂
它
宅
宇
守
安
宋
完
宏
宓
宗
官
定
宛
宜
宝
客
宣
室
宮
宰
害
家
容
宾
宿
寄
寅
密
富
寒
察
寧
審
寫
寬
寮
寸
对
寺
寻
寽
対
寿
封
尃
射
将
將
專
尉
尊
尋
尌
對
小
少
尒
尓
尔
尖
尗
尚
尞
尢
尣
尤
尧
尨
尭
就
尸
尹
尺
尻
尼
尽
尾
尿
局
居
屈
屋
屎
屏
屑
展
屖
屚
属
屠
屡
屬
屮
屯
屰
山
屵
屾
岁
岂
岑
岡
岩
岳
岸
峯
島
崇
崑
崔
崖
崙
崩
嵬
嶲
巂
巛
川
州
巟
巠
巢
巤
工
左
巧
巨
巩
巫
差
己
已
巳
巴
巷
巸
巽
巾
巿
帀
币
市
布
希
帚
帛
帝
带
師
席
帶
常
干
平
年
幵
并
幷
幸
幺
幻
幼
幽
幾
广
広
庄
床
底
店
庚
府
度
庫
庭
庶
康
庸
廉
廌
廛
廣
廩
廴
延
廷
建
廾
廿
开
弁
弃
弄
弇
弋
式
弓
弔
引
弗
弘
弜
弟
弥
弦
弱
張
強
强
弼
彊
彌
彎
彐
彑
当
彔
录
彖
彗
彡
形
彥
彦
彧
彭
彳
役
彼
往
待
律
徐
徒
得
徙
從
復
微
徵
心
忄
必
忌
忍
志
忝
忠
忩
快
念
忽
忿
思
怠
急
怱
恆
恒
恩
恭
息
悉
患
悤
悲
悶
惠
惡
惢
愁
愈
意
愛
感
慈
慧
慮
慶
憂
憲
應
戀
戈
戉
戊
戋
戌
戍
戎
成
我
戒
戔
或
戚
戠
戢
截
戲
戶
户
戹
戼
戾
房
所
扁
扇
手
扌
才
打
托
执
承
折
拉
拜
拿
掌
推
提
摩
支
攴
攵
收
攸
改
放
政
敄
敏
敕
敖
敗
敝
敞
敢
散
敦
敫
敬
数
敷
數
斂
文
斉
斊
斗
斤
斥
斩
斬
斯
新
方
於
施
斿
旁
旋
族
无
旡
既
旣
日
旦
旧
旨
早
旬
旱
旲
时
旾
昆
昇
昊
昌
昍
明
昏
易
昔
昗
昜
星
春
昬
是
昱
昴
昷
時
晃
晋
晏
普
景
晶
智
暑
暴
曇
曩
曰
曲
曳
更
曷
書
曹
曼
曾
替
最
朁
會
月
有
朋
服
朔
朕
朗
望
朝
木
朩
未
末
本
札
朮
术
朱
朵
朶
朿
杀
杏
村
杜
束
条
来
東
杲
杳
松
析
林
枚
果
枝
枲
枼
某
柔
查
柬
柰
柴
栗
株
根
桀
桑
桼
梁
條
梟
梨
棘
棠
棥
森
楚
業
楽
榮
樂
樊
欠
次
欣
欮
欲
欶
欽
款
歆
歇
歛
止
正
此
步
武
歨
歪
歮
歯
歰
歲
歴
歷
歸
歹
歺
死
殳
段
殷
殸
殹
殺
殻
殿
毋
毌
母
每
毒
比
毕
毚
毛
毳
氏
氐
民
气
氣
水
氵
氶
氷
永
氺
氾
求
汝
汞
江
沃
沓
沙
沝
泉
法
波
泣
泥
泰
洛
洪
活
派
流
浦
浪
浮
淡
淮
清
渚
渠
湯
滿
漸
火
灬
灭
灰
灵
灷
炅
炎
炏
炗
炙
炭
為
烈
烏
烝
焉
無
焦
焱
然
煞
熊
熏
燕
營
燮
爪
爫
爭
爯
爰
爱
爲
爵
父
爻
爽
爾
爿
片
牙
牚
牛
牜
牟
牢
牧
牪
牽
犀
犬
犭
犮
狂
狄
狊
独
狺
猋
猒
猪
献
獻
玄
率
玉
王
玟
玨
珎
班
琴
瑟
瑩
瓜
瓦
甘
甚
生
産
用
甫
甬
田
由
甲
申
电
甶
男
甸
甹
画
甾
畀
界
畏
畐
留
畜
畟
畢
畧
畨
番
畫
異
畱
當
畺
畾
疊
疋
疌
疑
疒
疾
癶
癸
癹
登
發
白
百
皀
皃
的
皆
皇
皋
皐
皕
皮
皷
皿
盃
盆
盇
盈
益
盍
盎
监
盒
盖
盛
盡
監
盤
盧
目
直
相
盾
省
眇
眉
看
眔
眞
真
眷
眼
眾
着
睘
睪
睿
瞏
瞢
瞿
矍
矛
矞
矢
矣
知
矦
短
石
破
碎
磊
磨
示
礻
礼
社
祟
票
祭
禀
禁
禸
禹
禺
离
禽
禾
禿
秀
秃
秉
秋
科
秝
秦
移
稟
穀
穌
穴
究
穹
空
穿
突
窄
窒
立
竒
竜
竝
竟
章
童
竹
笑
笠
筆
等
答
箕
算
箴
節
篤
篭
米
粉
粛
粟
粤
粦
粲
糞
糸
糹
系
約
納
素
索
紫
累
細
組
絜
絫
絲
維
綿
縣
繇
纍
纟
缶
网
罒
罔
罕
罗
罙
罡
罢
罪
署
罷
羅
羊
羌
羍
美
羔
羕
羗
羞
羡
羣
群
義
羲
羸
羽
翁
翏
習
翕
翟
翠
翼
老
耂
考
者
耆
而
耎
耑
耒
耳
耴
耶
耷
聂
聊
聖
聚
聶
聿
肀
肃
肅
肉
肖
肙
肥
肩
肯
育
肴
胃
背
胡
胥
能
脊
脩
膚
臣
臤
臧
自
臬
臭
臯
臱
至
致
臺
臼
臽
臾
臿
舀
舂
舄
與
興
舉
舌
舍
舛
舜
舞
舟
般
船
艮
良
色
艸
艹
艾
芒
芔
芬
芮
花
芳
芺
芻
苔
苗
苟
若
苦
英
茶
茸
荅
草
荒
荣
荼
莆
莧
莫
莽
菆
菊
菐
華
萬
落
葉
著
葛
董
葵
蒙
蒦
蒼
蓋
蓬
蓺
蔑
蔡
蕉
蕭
薄
薛
薦
薰
藍
藏
藥
蘭
虍
虎
虐
虒
虔
處
虖
虗
虘
虚
虛
虜
虞
虫
虽
蚤
蚩
蜀
蜜
蟲
蠡
血
行
衍
衛
衣
衤
表
衮
衰
袁
袞
褭
褱
襄
襾
西
覀
要
覃
見
規
覓
覧
親
覽
见
角
解
言
訁
訇
計
詹
誩
諸
讠
谷
豆
豈
豊
豐
豕
豖
豙
象
豦
豩
豪
豸
貇
貝
貞
貟
負
貢
貧
貪
貫
責
貳
貴
買
費
賁
資
賈
賏
賓
賔
賛
賞
賢
賣
質
賴
贊
贝
贡
责
贯
贲
贵
赖
赞
赤
赦
走
越
足
路
蹇
身
躬
車
軍
軎
軟
載
輦
车
辛
辜
辟
辥
辰
辱
農
辵
辶
边
达
过
近
连
迷
追
退
送
逆
逐
通
速
造
逢
連
逮
進
遀
遂
過
道
達
遣
適
遷
遺
邊
邑
邕
那
邦
邪
郎
郑
部
郭
都
鄉
鄭
酉
酋
配
酓
酷
釆
采
里
重
野
量
金
釒
錢
钅
長
镸
长
門
閃
閉
開
閏
閑
閒
間
閔
閵
閻
闌
门
间
闷
阑
阜
阝
阿
降
陳
隆
隊
隋
隡
隨
隱
隶
隹
隺
隻
隼
隽
难
雀
雁
集
雈
雋
雍
雐
雔
雙
雚
雜
雝
離
難
雨
雩
雪
雲
零
雷
需
霍
霜
霝
霞
霸
靈
靑
青
非
靡
面
靣
革
韋
韦
韭
韯
韱
音
頁
頃
項
須
頗
頡
頻
顛
页
風
风
飛
飞
食
飠
養
饣
首
香
馬
馮
駦
马
骨
高
髟
鬥
鬯
鬲
鬼
魚
魯
鮮
鱼
鲁
鳥
鳳
鸟
鹵
鹿
麃
麗
麥
麦
麻
黃
黄
黍
黎
黑
黒
黨
黹
黽
黾
鼎
鼓
鼠
鼻
齊
齋
齐
齒
齿
龍
龙
龜
龟
龠
龰
龱
龴
龵
龶
龷
龸
龹


者
艹
ﬁ
ﬂ
？
￼
🜨
𠀁
𠀃
𠀆
𠀉
𠀎
𠀐
𠁁
𠁣
𠂆
𠂇
𠂈
𠂉
𠂊
𠂋
𠂎
𠂒
𠂔
𠂛
𠂡
𠂢
𠂤
𠂬
𠂭
𠂹
𠃊
𠃋
𠃌
𠃍
𠃎
𠃑
𠃓
𠃔
𠃜
𠄌
𠄎
𠄠
𠄢
𠆢
𠆥
𠇍
𠈌
𠌵
𠓜
𠔉
𠔥
𠔼
𠔽
𠔿
𠕀
𠕁
𠕋
𠘧
𠘨
𠙻
𠙼
𠚏
𠚒
𠚤
𠚪
𠣏
𠤎
𠤕
𠥓
𠦄
𠦑
𠦝
𠧒
𠧗
𠧪
𠩺
𠪚
𠫓
𠫔
𠫤
𠬛
𠬝
𠬞
𠬢
𠬤
𠬶
𠮛
𠮦
𠮷
𠯑
𠱠
𠳮
𠷎
𡈼
𡉀
𡉵
𡌥
𡍮
𡏳
𡕒
𡕩
𡕰
𡖅
𡗗
𡗜
𡘆
𡘤
𡧱
𡨄
𡩧
𡬠
𡭽
𡰣
𡰥
𡰪
𡰯
𡰱
𡷈
𡸁
𡿨
𡿩
𡿪
𡿺
𢀖
𢀛
𢀩
𢁙
𢆉
𢆰
𢆶
𢇁
𢇇
𢉖
𢌬
𢌿
𢏚
𢑑
𢑚
𢖻
𢙣
𢛳
𢦏
𢦒
𢧵
𢼄
𢾕
𣁋
𣄼
𣅀
𣅽
𣍘
𣎳
𣎵
𣏋
𣏼
𣗥
𣥂
𣥖
𣦵
𣦼
𣧄
𣪊
𣪠
𣬉
𣳾
𣶒
𤇾
𤊽
𤐫
𤓰
𤔔
𤕨
𤣩
𤰇
𤰔
𤰞
𤴓
𤴔
𤽄
𥁑
𥁕
𥃦
𥃩
𥃭
𥇡
𥑟
𥘅
𥘈
𥝢
𥫗
𥱡
𦈢
𦉪
𦉬
𦉼
𦍌
𦍒
𦎧
𦐇
𦓔
𦔮
𦘒
𦙃
𦚏
𦣝
𦣞
𦣻
𦥑
𦥔
𦥯
𦨉
𦭝
𦰩
𧆞
𧈧
𧘇
𧰨
𧴪
𧴮
𧵩
𧾷
𨸏
𨾴
𩙿
𩠐
𩫏
𩵋
𪉷
𪜀
𪟽
𪠲
𪩲
𫇦
𫔭
𫜸
𫝀
𫠣
𫠩
𫢉
𫥞
𫩏
𫩠
𫪡
𫲽
𫶧
𬀷
𬐘
𬗌
𬙙
𬛸
𬜯
𬟩
𬯁
𬴘
𬺻
𬼉
𬼖
𭀰
𭁈
𭁨
𭅰
𭑈
𭕄
𭗼
𭤨
𭥫
𭻾
𮅕
𮊿
𮍌
𮍏
𮓗
𮥼
𮧮
廾
𰀁
𰀄
𰀈
𰀉
𰀕
𰀠
𰀡
𰀢
𰀪
𰁜
𰃮
𰆊
𰆘
𰋙
𰕎
𰢴
𰧭
𰯲
0--
00--
02--
03--
04--
05--
06--
07--
10--
11--
12--
13--
14--
15--
16--
17--
18--
20--
21--
24--
26--
28--
29--
36--
37--
39--
40--
41--
43--
47--
50--
51--
53--
54--
71--
73--
76--
77--
78--
79--
80--
82--
86--
87--
88--
89--
90--
92--
93--
980--
a--
aa--
aach--
aaf--
aal--
aan--
aanje--
aanze--
aape--
aar--
aat--
aav--
aavje--
ab--
abit--
aca--
ach--
acht--
activ--
ad--
adel--
admini--
adria--
advo--
ae--
af--
aff--
affsh--
afje--
ag--
ahl--
ahn--
ai--
air--
ake--
akk--
akt--
aktie--
aku--
akz--
al--
alba--
ald--
alek--
alem--
alexand--
ali--
all--
alle--
aller--
allor--
als--
alt--
alten--
altre--
am--
ame--
ammi--
amp--
ampß--
amt--
an--
ana--
and--
aner--
ang--
ange--
anje--
ann--
anne--
ant--
anze--
aod--
ap--
apa--
apo--
ar--
ara--
aristok--
art--
as--
asi--
ass--
associat--
aste--
at--
atlant--
atom--
att--
au--
aue--
auf--
aus--
auto--
außen--
av--
avv--
aw--
ay--
aze--
azvenz--
aßtro--
b--
ba--
baahn--
back--
bade--
bag--
bahn--
bal--
ban--
baouw--
bar--
basee--
basis--
bass--
bati--
bau--
bb--
bbe--
be--
bedr--
bee--
beein--
beg--
behau--
bei--
beij--
bej--
bejoo--
beke--
bel--
beld--
ben--
beno--
ber--
bere--
bes--
besch--
besee--
besie--
beso--
besu--
betei--
beu--
bev--
bewa--
bewu--
beyen--
bez--
beze--
bi--
bibli--
bie--
bier--
biil--
biir--
bild--
bildder--
bill--
binnen--
binsfeld--
bis--
bit--
biß--
bla--
blau--
ble--
bleck--
bli--
blo--
blu--
bn--
bo--
boch--
bohchs--
bombe--
bondes--
boni--
boom--
bord--
bos--
botan--
both--
bou--
boum--
bouw--
br--
bra--
brack--
braie--
bre--
breiniger--
bri--
brit--
bro--
brou--
bru--
bs--
bsi--
bu--
buch--
bud--
bun--
bundes--
burg--
buure--
by--
c--
ca--
cal--
cam--
can--
capi--
cat--
ce--
cele--
ch--
cha--
che--
cher--
chi--
cho--
chr--
chs--
cht--
chte--
ci--
cir--
ck--
cke--
cks--
cla--
co--
com--
con--
cong--
conta--
coo--
cra--
cri--
cu--
cult--
d--
da--
daa--
daach--
danz--
dappel--
dar--
dat--
db--
dche--
dd--
dde--
ddeut--
de--
dee--
deel--
deer--
defe--
deich--
deko--
del--
dem--
demons--
depa--
der--
ders--
des--
dese--
deutsch--
di--
dia--
dialekt--
die--
dig--
digi--
din--
dis--
diskuss--
dit--
divi--
divisi--
dj--
do--
doa--
doch--
doh--
doi--
dom--
dombau--
don--
donner--
doo--
doppel--
dor--
dorch--
dos--
dr--
dra--
dre--
drei--
dreij--
drie--
driih--
dro--
drop--
dru--
ds--
dt--
dte--
dtebau--
du--
dude--
dudes--
dun--
dur--
durch--
duud--
duus--
dwess--
dy--
e--
ea--
eck--
ed--
ee--
eeje--
een--
ef--
eg--
eh--
ehe--
ehr--
ei--
eich--
eifel--
eigel--
eij--
eije--
eijn--
ein--
einz--
ej--
eje--
ejn--
ek--
el--
elect--
elef--
elek--
elektr--
elektro--
elf--
em--
emi--
en--
end--
enerji--
eng--
engels--
enje--
enn--
enne--
enri--
ens--
ensht--
ent--
enter--
entere--
ents--
entwi--
entwick--
enz--
ep--
equa--
er--
erd--
ere--
eren--
erf--
erfor--
erin--
erlo--
ero--
erotikm--
err--
erre--
erus--
eruss--
eruß--
erw--
erz--
es--
esch--
ess--
est--
esu--
et--
eu--
eur--
europa--
ev--
eva--
ewi--
ex--
expe--
explo--
ey--
ez--
eß--
f--
fa--
fach--
fachhoch--
faci--
fahr--
fakt--
fami--
fammil--
fasci--
fass--
fasteloo--
faß--
faßtel--
faßteloo--
faßß--
fc--
fe--
feez--
fel--
feld--
fell--
fer--
ferns--
fernseh--
fess--
fest--
feuer--
ff--
ffent--
fi--
figu--
film--
fin--
fla--
fle--
flie--
flo--
floch--
flu--
fluch--
fo--
fobin--
foha--
fol--
for--
ford--
fott--
fr--
fra--
fracht--
fre--
free--
frei--
fremb--
freund--
fri--
frie--
fro--
fru--
frunle--
fry--
ft--
fte--
fu--
fuchs--
fuff--
fuffz--
fuffze--
fun--
funk--
funktions--
fußball--
g--
ga--
gall--
gar--
ge--
geb--
gegen--
geheim--
gel--
gem--
gen--
ger--
gesch--
gesj--
gg--
gge--
gi--
gk--
gl--
gla--
gna--
go--
gold--
gra--
graf--
gre--
grei--
gri--
gro--
groß--
gru--
gu--
gua--
gy--
h--
ha--
haa--
had--
halev--
halv--
ham--
hammer--
hand--
hard--
harm--
hau--
haup--
haupp--
haupt--
haus--
hb--
hd--
he--
hea--
hed--
hee--
heens--
heer--
heil--
heiligen--
heimat--
hell--
hem--
hen--
her--
herr--
herze--
hes--
hey--
hi--
hich--
hin--
hinden--
hir--
hje--
hl--
hle--
hm--
hn--
hnd--
hne--
hns--
hnt--
ho--
hoch--
hoff--
hohen--
holl--
holz--
hong--
hoof--
hor--
houp--
hr--
hrer--
hs--
ht--
hu--
huch--
huh--
humor--
humperd--
hus--
huu--
huus--
hy--
hß--
hßel--
i--
id--
ie--
ieh--
ier--
iese--
ihr--
ii--
iihre--
iir--
iise--
iiß--
ij--
ijd--
ije--
ijm--
ijn--
ijsh--
ijt--
ijß--
ik--
il--
illy--
im--
in--
indi--
indo--
indojer--
inf--
ing--
inge--
inn--
inne--
ins--
insel--
instal--
instrum--
inter--
intervi--
inti--
inz--
inzwi--
ip--
ir--
ire--
is--
ish--
iso--
it--
iv--
iß--
j--
ja--
jaa--
jaas--
jacht--
jahr--
jall--
jan--
jar--
jas--
jaß--
jaßß--
je--
jebi--
jed--
jede--
jedri--
jee--
jeff--
jefi--
jefo--
jeho--
jehu--
jeist--
jel--
jela--
jele--
jem--
jeme--
jemekke--
jemo--
jen--
jeo--
jeood--
jepla--
jer--
jere--
jero--
jes--
jesamt--
jesch--
jesh--
jesj--
jeso--
jesta--
jeste--
jestr--
jet--
jew--
jewe--
jewerk--
jez--
ji--
jip--
jjel--
jl--
jlas--
jlei--
jlo--
jn--
jne--
jnz--
jo--
jod--
joe--
joh--
johr--
jold--
jollf--
jon--
jong--
jott--
jr--
jra--
jraav--
jraf--
jre--
jrenz--
jrie--
jrihsch--
jro--
jrond--
jroß--
jru--
jrund--
jruuß--
jruß--
js--
jsh--
ju--
jugend--
juli--
jung--
jungge--
junzvanz--
jurend--
k--
ka--
kaa--
kabb--
kaffe--
kai--
kale--
kam--
kammer--
kan--
kap--
kapott--
kara--
karbonat--
kard--
karr--
kas--
kata--
katalan--
kater--
kathol--
kato--
katool--
katt--
katto--
ke--
kee--
ken--
keng--
kenger--
kenn--
kerch--
kerche--
keu--
key--
keybo--
ki--
kie--
kin--
kirch--
kirr--
kk--
kla--
klasse--
kle--
kleen--
klein--
klejn--
kli--
klo--
kloo--
klu--
kno--
ko--
koalitions--
koe--
kohl--
kol--
kolum--
kom--
komiß--
komm--
kommunal--
kompju--
kompo--
kon--
kond--
kongoles--
konst--
konzent--
kopi--
kopp--
kos--
kra--
kre--
kreijs--
kreis--
kresch--
kri--
krippe--
kro--
krom--
kru--
kryo--
ks--
kt--
ku--
kue--
kultur--
kuns--
kunst--
kur--
kw--
kwa--
kwadrat--
ky--
kß--
l--
la--
laa--
lade--
lamb--
land--
lande--
landes--
lang--
lannd--
las--
lat--
lau--
lauf--
laut--
lbe--
ld--
le--
lee--
leed--
leit--
ler--
les--
leus--
lf--
li--
lie--
lieb--
ligu--
liihr--
limb--
links--
lj--
lker--
ll--
lla--
lle--
llt--
ln--
lo--
log--
lon--
los--
love--
lp--
lpe--
ls--
lsch--
lt--
lte--
lu--
luc--
luff--
luft--
luu--
luxem--
luxembu--
lv--
lvs--
ly--
m--
ma--
maas--
maat--
mac--
mag--
mai--
maiaan--
makro--
mal--
man--
mang--
mann--
mar--
marga--
marie--
marke--
masse--
mat--
matri--
maßß--
mb--
mbo--
mcca--
md--
me--
med--
meddel--
mee--
meen--
meer--
meh--
mehr--
mej--
mel--
melane--
mell--
melo--
mem--
men--
mer--
mero--
mes--
mesjt--
mess--
met--
meta--
mettl--
meu--
mi--
middel--
mie--
mieh--
mih--
mikro--
mil--
mill--
min--
mini--
mir--
misch--
mit--
mißß--
mjangs--
mla--
mm--
mo--
mode--
mol--
mond--
mono--
mont--
moor--
mor--
motor--
motter--
mp--
mr--
ms--
mt--
mu--
mult--
mundart--
musik--
musikk--
mwa--
my--
mze--
n--
na--
naa--
naach--
nach--
nack--
nakß--
national--
natur--
naz--
nch--
nd--
nde--
nder--
ndi--
ndl--
nds--
ne--
ned--
nee--
neer--
neja--
neppe--
ner--
nerve--
net--
netz--
neu--
neuje--
nf--
ng--
nge--
nger--
ngi--
ngk--
ngke--
ngs--
ngß--
ni--
nic--
nich--
nidder--
niddez--
nie--
nieder--
niedr--
nig--
nigs--
nii--
nim--
nir--
niß--
nje--
nk--
nke--
nl--
nn--
nnd--
nne--
nner--
nnevun--
nnig--
nnt--
nnz--
nnə--
no--
noa--
noah--
noard--
nobel--
noch--
nocht--
noh--
nohze--
nom--
nomm--
noo--
nooh--
nooper--
noord--
nopper--
nord--
not--
ns--
nsch--
nsche--
nse--
nster--
nt--
nte--
nu--
null--
ny--
nz--
nze--
nß--
o--
oa--
ob--
ober--
oc--
octa--
oe--
oes--
oet--
of--
off--
offi--
offiz--
oh--
oji--
ok--
ol--
oli--
oliga--
oly--
om--
omel--
on--
onbe--
onder--
one--
onge--
onger--
ons--
oo--
op--
oper--
opje--
opjel--
opp--
opze--
or--
orjan--
orji--
orr--
ort--
ortho--
os--
osman--
oss--
ost--
ot--
ou--
ous--
outo--
ov--
over--
ovver--
ow--
oy--
oz--
oß--
oßß--
p--
pa--
paa--
palemsonn--
pann--
panne--
pant--
papier--
papp--
para--
parr--
partei--
pat--
pe--
pel--
pen--
per--
pest--
pfarr--
pfe--
phil--
pho--
pi--
pic--
pict--
pie--
pil--
pin--
pl--
pla--
plan--
platt--
plaz--
plo--
po--
pol--
poli--
pollit--
polyne--
pont--
pop--
poppe--
porn--
pornodo--
portuge--
posit--
post--
poß--
pp--
ppe--
pr--
pra--
praktize--
pre--
prevat--
priv--
pro--
produ--
produkz--
produze--
prop--
propa--
protes--
ps--
pt--
pu--
pub--
pukal--
py--
q--
qua--
que--
r--
ra--
raan--
raav--
rad--
radio--
rand--
rat--
raum--
rav--
raßß--
rb--
rbe--
rch--
rd--
rde--
re--
read--
reaji--
real--
rech--
reche--
rechts--
red--
redax--
ree--
ref--
refor--
rei--
rein--
reise--
rej--
reji--
rek--
reli--
ren--
renn--
reno--
repa--
res--
reu--
rf--
rg--
rgem--
rger--
rha--
rhein--
rhing--
rho--
ri--
rich--
rie--
ries--
riis--
riisen--
riisi--
riiß--
ring--
rje--
rjebi--
rjer--
rk--
rl--
rm--
rme--
rmoo--
rn--
rne--
ro--
rob--
rock--
rod--
rode--
romaan--
rond--
rop--
ros--
rosen--
rotation--
roth--
rott--
roum--
rp--
rr--
rre--
rri--
rro--
rrə--
rs--
rsh--
rst--
rt--
rter--
rtes--
rtte--
ru--
ruhe--
ruhr--
rum--
rur--
rus--
rusemon--
russ--
ruuh--
ruuse--
rußß--
rv--
rve--
rz--
rze--
s--
sa--
saar--
sac--
sach--
salz--
sam--
samme--
sams--
samt--
sand--
sar--
sauer--
saz--
sc--
sch--
scha--
schalld--
schallt--
schalt--
schau--
sche--
schii--
schil--
schine--
schließ--
schlitt--
scho--
schotz--
schpo--
schre--
schref--
schri--
schriff--
schrift--
scht--
schu--
schwie--
se--
sec--
see--
seel--
sei--
sejel--
selb--
selbst--
sell--
semit--
sen--
ser--
service--
sess--
set--
sev--
sex--
sh--
sha--
she--
shi--
show--
shpe--
shpez--
shpre--
shq--
shri--
shro--
sht--
shtu--
shwatz--
si--
sie--
siesch--
siesh--
sig--
siid--
sik--
sil--
sin--
sip--
sit--
sj--
sjpie--
sjpil--
sjpre--
sjta--
sk--
ska--
skandinav--
skat--
ski--
sl--
sna--
so--
sof--
sol--
son--
soz--
soze--
sozial--
spa--
spaan--
spe--
spekt--
spez--
spezial--
spi--
spii--
spill--
spira--
spo--
spocht--
sport--
spre--
sproch--
sprooch--
sprooche--
spu--
ss--
sse--
ssi--
sste--
st--
sta--
staat--
stadt--
stamm--
stand--
statt--
ste--
stee--
stell--
ster--
sti--
stil--
sto--
str--
straß--
stri--
strip--
strom--
stroße--
stu--
su--
sub--
sue--
sun--
sunne--
super--
sur--
suu--
suur--
sy--
sze--
t--
ta--
tal--
tan--
tanz--
tar--
tas--
tat--
tau--
te--
teil--
tel--
telle--
ten--
tennis--
ter--
tes--
test--
text--
th--
the--
theoret--
thom--
ti--
tij--
tl--
to--
tom--
ton--
top--
topo--
tor--
tou--
tourist--
tr--
tra--
tradiz--
trans--
transpo--
tre--
tri--
tro--
ts--
tsarist--
tsch--
tse--
tsouw--
tt--
tte--
tten--
tts--
tu--
tun--
turn--
tv--
twi--
ty--
typ--
tyr--
tz--
tze--
tzen--
tß--
u--
ub--
ude--
ue--
uer--
uf--
uff--
uhr--
um--
umfang--
un--
unbe--
une--
unge--
unger--
uni--
unje--
unn--
unni--
unre--
unter--
untsj--
unze--
up--
ur--
us--
usje--
uss--
ussch--
usse--
ussge--
ussje--
ussjra--
usswa--
ussze--
usze--
ut--
uu--
uur--
uus--
uß--
ußer--
ußje--
ußze--
ußß--
ußßer--
v--
va--
val--
van--
var--
vari--
vass--
ve--
veez--
vel--
ven--
venn--
vens--
ver--
vera--
veraan--
veranstal--
verbe--
verbin--
verbre--
vere--
verjl--
verkehrs--
verkie--
versj--
verste--
ves--
vesch--
vett--
vi--
video--
vie--
vier--
vin--
vize--
vla--
vluch--
vo--
vol--
volks--
voll--
von--
voor--
vor--
vorei--
vorpo--
vorste--
vortu--
vos--
vott--
voy--
vra--
vraue--
vre--
vredens--
vreedens--
vrei--
vro--
vru--
vse--
vu--
vuur--
vv--
vve--
vver--
vverra--
vverwa--
vvo--
w--
wa--
waa--
waahl--
waahr--
wach--
wachs--
wacht--
waffe--
wahl--
wahnbach--
wahr--
wal--
wald--
wan--
wand--
war--
was--
wasser--
we--
web--
wech--
wed--
wee--
weer--
weg--
weh--
wei--
weih--
weihnachts--
wein--
weinga--
weins--
weize--
wel--
welt--
wen--
wenk--
wenn--
wer--
werbe--
wess--
west--
weste--
wet--
wettbe--
weß--
wi--
widder--
wie--
wigger--
wiir--
wiki--
wil--
wilden--
wilts--
wing--
winn--
winne--
wir--
wirtschaft--
wish--
wiss--
wit--
witt--
wittgen--
wiz--
wo--
woa--
woh--
wohr--
wolf--
wood--
woof--
wort--
wou--
wu--
wunn--
wurr--
wwer--
wy--
x--
xi--
xp--
y--
ya--
ye--
yo--
yu--
z--
za--
ze--
zehn--
zeit--
zem--
zemm--
zent--
zentral--
zer--
zesamme--
zick--
zie--
zii--
zimm--
zit--
zitt--
ziv--
zo--
zoch--
zochtrans--
zoh--
zoje--
zoll--
zom--
zoo--
zor--
zosamme--
zr--
zsamme--
zu--
zuje--
zuud--
zwa--
zwanz--
zwe--
zwei--
zweid--
zwi--
zy--
zz--
ß--
ßbrit--
ße--
ßt--
ßß--
ßße--
ßßel--
þ--
ĳ--
ĳn--
по--
--0
--00
--1
--2
--3
--4
--49
--5
--6
--7
--8
--9
--90
--92
--97
--a
--aa
--aach
--aad
--aal
--aat
--aate
--ab
--ac
--ach
--achd
--ache
--acht
--ad
--ada
--ade
--adt
--ae
--af
--aff
--aft
--ag
--agari
--age
--ah
--ahl
--ahld
--aht
--ahße
--ai
--ain
--aire
--ak
--al
--ale
--alische
--all
--alt
--am
--ame
--amp
--amt
--an
--ance
--and
--ane
--ang
--ani
--ank
--ann
--ano
--ans
--ansje
--ant
--anz
--anze
--ao
--ap
--ar
--arbeit
--ard
--are
--ari
--aria
--ark
--art
--arte
--artieje
--ary
--as
--asch
--ase
--at
--ata
--ate
--atesch
--ath
--ati
--ation
--atiun
--atorium
--atz
--au
--auer
--ax
--ay
--az
--aß
--aßd
--aße
--b
--ba
--bach
--bad
--bahn
--ball
--band
--bank
--bar
--bare
--bau
--be
--bein
--beld
--belder
--ber
--berch
--berg
--bet
--bett
--bewa
--bh
--birne
--bisch
--bla
--ble
--bo
--boch
--booch
--borg
--bou
--boum
--bouw
--bow
--bra
--bro
--broch
--bt
--bu
--bund
--burg
--bursh
--busj
--by
--bß
--c
--ca
--ce
--ch
--chaff
--chaft
--chd
--che
--chen
--chie
--cho
--chor
--chs
--chse
--cht
--chte
--cio
--cis
--ck
--ckd
--ckt
--ckte
--club
--co
--cs
--cy
--d
--da
--daach
--daag
--dach
--dahl
--dare
--dat
--dd
--dde
--de
--deel
--deens
--del
--dem
--den
--der
--dert
--deßla
--di
--dig
--do
--dom
--dorf
--dot
--dr
--dra
--dren
--dro
--dru
--ds
--dt
--du
--dung
--dus
--dy
--e
--ea
--eas
--eau
--eb
--ech
--eche
--ed
--ede
--ee
--eech
--eejn
--eel
--eer
--eerd
--eerde
--eert
--eet
--eev
--ef
--efabrik
--eff
--eg
--ege
--egg
--ehnt
--ehuus
--ei
--eich
--eid
--eie
--eij
--eijn
--eijt
--eim
--ein
--eit
--ej
--eje
--ejoo
--ek
--eke
--ekt
--el
--eland
--eld
--elde
--ele
--elen
--eler
--elije
--ell
--elle
--elma
--elne
--elong
--elt
--elve
--em
--ema
--emang
--eme
--emich
--en
--ena
--enberg
--end
--ene
--enfels
--enich
--ens
--ent
--ente
--enz
--eo
--ep
--er
--era
--erd
--erde
--ere
--erei
--eri
--erie
--ern
--ers
--ert
--erte
--erwies
--erwiiß
--es
--esch
--esche
--ese
--esen
--eser
--esh
--eshe
--esj
--esstadt
--esu
--et
--ete
--eter
--eth
--ette
--etz
--eu
--eut
--ev
--eve
--ey
--eze
--eß
--eße
--f
--fa
--faaht
--faat
--fabricke
--fahrt
--fall
--falter
--fe
--fect
--fel
--feld
--fennik
--fer
--fess
--fest
--ff
--ffe
--ffte
--fijur
--film
--filter
--fla
--flo
--fo
--forme
--fra
--fried
--fs
--ft
--fte
--fu
--fß
--g
--ga
--gan
--gas
--gaß
--gd
--ge
--gebiet
--gen
--ger
--ges
--gg
--gh
--ght
--gi
--gie
--gio
--gk
--gke
--glied
--glitz
--go
--grupp
--gs
--gt
--gu
--gua
--gue
--gy
--h
--ha
--hafe
--hall
--halləf
--ham
--hang
--har
--hard
--haus
--hause
--hd
--hde
--he
--heed
--heer
--heet
--heit
--hen
--hende
--her
--hjt
--hl
--hld
--hle
--hlt
--hm
--hn
--hnd
--hnde
--hne
--hnt
--ho
--hoe
--hof
--hofen
--hoff
--hondert
--hop
--hovv
--hr
--hre
--hrt
--hs
--ht
--hte
--hu
--hung
--huus
--huuß
--huß
--hv
--hß
--hße
--i
--ia
--ial
--iam
--ian
--ibel
--ic
--ica
--ical
--ich
--ichkeet
--ichste
--icht
--ick
--ico
--id
--idd
--idde
--ide
--ides
--ie
--ieb
--iech
--ied
--ieg
--ieje
--iel
--ien
--iene
--ier
--ierd
--iere
--ieren
--iert
--ies
--iesj
--iet
--iete
--if
--iff
--ig
--ige
--iger
--igg
--igge
--ign
--igt
--igung
--ih
--iht
--ii
--iid
--iide
--iif
--iin
--iiv
--iive
--ij
--ija
--ijd
--ije
--ijje
--ijn
--ijo
--ijum
--ijung
--ik
--ika
--iker
--ikke
--ikkel
--il
--ila
--ile
--ille
--ilo
--im
--ima
--imeter
--immung
--in
--ina
--ine
--ing
--ings
--ini
--ino
--ins
--insele
--io
--ion
--ione
--ior
--ip
--ir
--irde
--ire
--is
--isch
--ische
--ischer
--isches
--ise
--iseet
--ish
--isje
--isme
--ismus
--iss
--isse
--ist
--iste
--istik
--istisch
--istische
--it
--ita
--ite
--iter
--itet
--ito
--itt
--ity
--itz
--ium
--iun
--iune
--iunismus
--ius
--iv
--ive
--ix
--iye
--iz
--iß
--iße
--ißß
--j
--ja
--jaade
--jade
--jalerie
--jang
--jch
--jd
--jde
--jdt
--je
--jeba
--jebiit
--jedonn
--jehalt
--jela
--jer
--jesa
--jewa
--jht
--ji
--jin
--jj
--jje
--jl
--jle
--jlied
--jn
--jnu
--jo
--jon
--jonn
--jra
--jraav
--jro
--jru
--jrupp
--jruppe
--jsch
--jt
--ju
--jun
--jß
--k
--ka
--kamp
--kann
--ke
--keed
--keede
--keet
--keete
--kehr
--keid
--keijt
--keijte
--keit
--keite
--keiten
--kel
--kele
--ker
--kerch
--ki
--kind
--kk
--kke
--ko
--kolle
--kopp
--kouf
--kresch
--kro
--kru
--ks
--kse
--kt
--ku
--kunde
--ky
--kß
--l
--la
--lain
--lajer
--lan
--land
--lang
--lar
--ld
--lde
--le
--leed
--leg
--lein
--leit
--leitung
--len
--ler
--les
--lesch
--ley
--lf
--lfra
--lg
--li
--lich
--liche
--lig
--liiv
--lije
--lijje
--lis
--lische
--lisj
--lja
--lk
--ll
--lld
--llde
--lldung
--lle
--llt
--lm
--ln
--lnde
--lne
--lo
--logie
--lojie
--lor
--los
--ls
--lshe
--lt
--ltar
--lte
--lter
--ltonge
--ltung
--lu
--lure
--lver
--ly
--lz
--m
--ma
--maat
--mal
--man
--mang
--mann
--maschin
--mba
--mde
--me
--mel
--mele
--mer
--mi
--mm
--mmd
--mme
--mmp
--mmt
--mo
--mohl
--mol
--mondaach
--mool
--moor
--mor
--mord
--mp
--mpe
--ms
--mse
--mste
--mt
--mu
--mum
--mund
--mus
--muure
--n
--na
--naam
--nal
--nam
--namije
--nberg
--nce
--nd
--nda
--nde
--ndele
--ndelnde
--ndelt
--ndes
--ndlunge
--ndo
--ndschaff
--ndt
--ndte
--ne
--nedde
--nee
--nel
--nen
--ner
--nes
--nesch
--nesche
--ness
--net
--nf
--nfels
--nft
--ng
--ngde
--nge
--ngk
--ngs
--ngt
--ni
--nik
--nis
--nish
--nisse
--nit
--niß
--njo
--nk
--nke
--nn
--nnd
--nndt
--nne
--nnt
--no
--nom
--nong
--ns
--nsa
--nschaff
--nse
--nsive
--nski
--nsky
--nsore
--nstadt
--nt
--nte
--nto
--ntz
--nu
--nung
--nunge
--nus
--nx
--ny
--nz
--nze
--nß
--o
--oa
--ob
--obe
--och
--oche
--ock
--od
--ode
--oe
--oee
--of
--ofe
--oft
--og
--oge
--oh
--ohd
--ohe
--ohl
--ohle
--ohm
--ohn
--ohr
--ohre
--oht
--oje
--ok
--ol
--old
--ole
--olf
--oli
--oll
--om
--ome
--on
--onal
--ond
--one
--ong
--onge
--ont
--ood
--oode
--oofe
--oot
--op
--or
--ore
--orium
--oro
--ors
--ort
--ory
--os
--osa
--ose
--ot
--ote
--oth
--oto
--ou
--ouf
--ov
--ove
--ow
--owa
--owitsch
--ox
--oz
--oß
--oße
--p
--pa
--pard
--park
--pe
--ph
--phe
--phie
--pill
--pla
--plan
--platz
--po
--pompe
--ponkt
--pooz
--pott
--pp
--ppa
--ppe
--pro
--proche
--ps
--pt
--punk
--pß
--r
--ra
--rad
--ram
--ran
--rand
--rare
--ras
--rat
--rath
--rbach
--rburch
--rch
--rd
--rde
--re
--reck
--reff
--rei
--reich
--ren
--rer
--res
--rf
--rg
--rgo
--rhing
--rhoff
--ri
--ria
--rich
--richt
--rie
--riife
--rin
--ris
--rium
--rje
--rk
--rke
--rlei
--rm
--rma
--rn
--ro
--rod
--rof
--roke
--rolle
--rooch
--rood
--room
--roon
--root
--rooße
--rop
--ror
--ros
--rp
--rr
--rre
--rs
--rsenn
--rt
--rta
--rte
--ru
--ruf
--rum
--rupp
--rwa
--ry
--rz
--rək
--rəm
--s
--sa
--saam
--saarte
--sal
--saz
--sbo
--sch
--scha
--schaf
--schaff
--schaft
--schaftliche
--schd
--sche
--scheid
--scher
--schied
--schlo
--scho
--schref
--schrift
--schte
--schu
--sdaach
--sdach
--sde
--sdo
--se
--see
--sel
--sem
--sen
--sfo
--sh
--shaff
--she
--sheed
--shire
--sht
--shtave
--shto
--shtresch
--shu
--shuus
--si
--sia
--sick
--sigk
--siij
--sj
--sja
--sjaf
--sjap
--sje
--sjo
--sjtroas
--sk
--ska
--ski
--sky
--sla
--slajer
--sland
--sleed
--slu
--sma
--smo
--smus
--snut
--so
--socht
--son
--sordnung
--spell
--spill
--spra
--sprooch
--sprozession
--sreform
--ss
--sscholl
--sse
--sser
--sstadt
--ssystem
--st
--sta
--stab
--stabe
--stadt
--stand
--statue
--ste
--stee
--stell
--ster
--stes
--sto
--stu
--su
--sum
--sveedel
--sverband
--sverein
--svo
--svrau
--swa
--swaahle
--swahle
--swies
--swiiß
--sy
--sz
--szen
--szentrum
--szick
--szitt
--t
--ta
--taat
--tad
--tadt
--tal
--talige
--tar
--te
--ted
--teere
--teil
--tein
--tem
--ten
--tene
--ter
--tes
--tet
--th
--thal
--ti
--tie
--tieje
--tiere
--tijje
--tik
--tin
--ting
--tion
--tish
--tiun
--tiune
--tius
--tiv
--tive
--tjru
--tle
--to
--tock
--ton
--tor
--tr
--tra
--trauensvotum
--tru
--try
--ts
--tt
--tte
--tu
--tum
--tung
--tur
--turm
--ty
--tz
--tze
--tß
--tßte
--u
--ua
--ual
--uch
--ud
--ude
--udt
--ue
--uf
--ufe
--ug
--uj
--ul
--ula
--ule
--um
--ume
--umm
--umme
--un
--und
--ung
--unge
--ungen
--ungk
--unt
--uo
--up
--ur
--ura
--urd
--ure
--urm
--uropa
--urs
--us
--use
--ut
--ute
--uuf
--uur
--uv
--uw
--uwt
--ux
--uze
--uß
--v
--va
--vd
--ve
--veld
--ver
--vere
--vet
--vin
--vio
--vju
--vo
--voreijn
--vs
--vu
--vv
--vve
--w
--wa
--wahl
--wald
--we
--weg
--weis
--weit
--welt
--wend
--werk
--werke
--wiiß
--wo
--woe
--wonde
--wooch
--wood
--ws
--wu
--x
--xx
--y
--ya
--ye
--yev
--yn
--ys
--z
--za
--zda
--zde
--ze
--zeehnte
--zele
--zen
--zeug
--zeuge
--zi
--zick
--ziggisch
--zishßte
--zitt
--zmeddel
--zo
--zoch
--zohte
--zon
--zt
--zu
--zupp
--zz
--zzo
--ß
--ßd
--ßde
--ßdenß
--ßdte
--ße
--ßt
--ßte
--ßß
--ßße
--əfß
--əv
--α
--η
--ς
--и
--ست
