!
"
#
##0
##1
##10
##11
##12
##13
##14
##15
##16
##17
##18
##19
##2
##20
##21
##22
##23
##24
##25
##26
##27
##28
##29
##3
##30
##31
##32
##33
##34
##35
##36
##37
##38
##39
##4
##40
##41
##42
##43
##44
##45
##46
##47
##48
##49
##5
##50
##51
##52
##53
##54
##55
##56
##57
##58
##59
##6
##60
##61
##62
##63
##64
##65
##66
##67
##68
##69
##7
##70
##71
##72
##73
##74
##75
##76
##77
##78
##79
##8
##80
##81
##82
##83
##84
##85
##86
##87
##88
##89
##9
##90
##91
##92
##93
##94
##95
##96
##97
##98
##99
$
%
&
'
(
)
*
+
,
-
.
/
0
00
000
001
002
003
007
009
01
02
03
04
05
06
07
08
09
1
10
100
1000
10000
1001
101
1010
102
103
104
105
106
107
108
109
11
110
1100
111
112
113
114
115
116
117
118
119
12
120
1200
121
122
123
124
125
126
127
128
129
13
130
1300
131
132
133
134
135
136
137
138
139
14
140
1400
141
142
143
144
145
146
147
148
149
15
150
1500
151
152
153
154
155
156
157
158
159
16
160
1600
161
162
163
164
165
166
167
168
169
17
170
1700
171
172
173
174
175
176
177
1776
178
1789
179
1790
1791
1792
1793
1795
18
180
1800
1801
1802
1803
1804
1805
1806
1807
1808
1809
181
1810
1811
1812
1813
1814
1815
1816
1817
1818
1819
182
1820
1821
1822
1823
1824
1825
1826
1827
1828
1829
183
1830
1831
1832
1833
1834
1835
1836
1837
1838
1839
184
1840
1841
1842
1843
1844
1845
1846
1847
1848
1849
185
1850
1851
1852
1853
1854
1855
1856
1857
1858
1859
186
1860
1861
1862
1863
1864
1865
1866
1867
1868
1869
187
1870
1871
1872
1873
1874
1875
1876
1877
1878
1879
188
1880
1881
1882
1883
1884
1885
1886
1887
1888
1889
189
1890
1891
1892
1893
1894
1895
1896
1897
1898
1899
19
190
1900
1901
1902
1903
1904
1905
1906
1907
1908
1909
191
1910
1911
1912
1913
1914
1915
1916
1917
1918
1919
192
1920
1921
1922
1923
1924
1925
1926
1927
1928
1929
193
1930
1931
1932
1933
1934
1935
1936
1937
1938
1939
194
1940
1941
1942
1943
1944
1945
1946
1947
1948
1949
195
1950
1951
1952
1953
1954
1955
1956
1957
1958
1959
196
1960
1961
1962
1963
1964
1965
1966
1967
1968
1969
197
1970
1971
1972
1973
1974
1975
1976
1977
1978
1979
198
1980
1981
1982
1983
1984
1985
1986
1987
1988
1989
199
1990
1991
1992
1993
1994
1995
1996
1997
1998
1999
2
20
200
2000
2001
2002
2003
2004
2005
2006
2007
2008
2009
201
2010
2011
2012
2013
2014
2015
2016
2017
2018
2019
202
2020
2021
2022
2023
2024
2025
203
204
205
206
207
208
209
21
210
2100
211
212
213
214
215
216
217
218
219
22
220
2200
221
222
223
224
225
226
227
228
229
23
230
231
232
233
234
235
236
237
238
239
24
240
2400
241
242
243
244
245
246
247
248
249
25
250
2500
251
252
253
254
255
256
257
258
259
26
260
261
262
263
264
265
266
267
268
269
27
270
271
272
273
274
275
276
277
278
279
28
280
281
282
283
284
285
286
287
288
289
29
290
291
292
293
294
295
296
297
298
299
3
30
300
3000
301
302
303
304
305
306
307
308
309
31
310
311
312
313
314
315
316
317
318
319
32
320
321
322
323
324
325
326
327
328
329
33
330
331
332
333
334
335
336
337
338
339
34
340
341
342
343
344
345
35
350
3500
351
352
353
354
355
356
357
36
360
365
37
370
371
373
375
38
380
381
39
390
4
40
400
4000
401
402
403
404
405
406
41
410
411
415
42
420
43
430
44
440
45
450
455
46
460
47
470
48
480
481
485
49
490
5
50
500
5000
501
502
505
51
510
512
52
520
53
530
54
540
55
550
56
560
57
575
58
59
6
60
600
6000
601
61
610
62
63
630
64
640
642
65
650
66
67
68
69
7
70
700
7000
701
71
72
720
73
737
74
747
75
750
76
77
777
78
79
8
80
800
8000
802
81
82
83
84
85
850
86
87
88
89
9
90
900
9000
91
911
92
93
94
95
950
96
97
978
98
99
999
:
;
<
=
>
?
@
\
^
_
`
a
aa
aaa
ab
abc
abema
abematv
about
abs
ac
academy
access
accessed
ace
acoustic
act
action
ad
advanced
ae
af
afc
africa
after
ag
again
against
age
ah
ai
air
airport
ak
akb
al
alan
album
alexander
align
alive
all
alpha
alt
am
amazon
amd
america
american
an
ana
analysis
anb
and
andrew
android
angel
animation
ann
annex
anniversary
another
ap
api
apple
april
ar
arc
archive
archives
are
area
arena
args
arms
army
around
art
article
artist
arts
as
asia
asian
association
at
atm
atp
ats
attack
au
audio
august
australia
autumn
av
avex
award
awards
away
ax
b
ba
baby
back
bad
ball
band
bang
bank
bar
base
baseball
based
basic
bass
battle
bay
bb
bbc
bc
bd
be
beach
beat
beautiful
beauty
before
begin
believe
bell
berlin
best
beta
between
beyond
bf
bg
bgm
big
bill
billboard
biography
bird
birthday
bis
bit
bj
bl
black
blitz
blog
blood
blu
blue
blues
bmw
bo
board
bob
body
boldsymbol
book
books
border
bottom
box
boxing
boy
boys
bp
br
brand
break
brian
bridge
british
brothers
brown
bs
bt
bu
building
bus
business
but
by
bye
c
ca
cafe
california
call
cam
cambridge
camp
can
canada
candy
car
card
case
cast
castle
cat
category
cb
cbc
cbs
cc
cd
cdot
cdots
ce
cell
census
center
central
centre
century
ceo
cf
cg
ch
cha
championship
change
channel
chapter
charles
chi
chicago
child
children
china
cho
chorus
chris
christian
christmas
chu
church
ci
cia
ciel
cinema
city
civil
cl
class
classic
clip
club
cm
cnn
co
coast
code
collection
college
color
colors
columbia
com
come
comic
comics
community
company
complete
complex
computer
con
concert
conference
control
cool
core
corporation
cos
council
count
countdown
country
county
court
covid
cp
cpu
cr
crazy
cross
cry
crystal
cs
csi
ct
culture
cup
cv
cx
d
da
daily
dance
daniel
dark
das
dash
data
database
date
david
day
days
db
dc
dd
ddt
de
dead
dear
death
december
deep
del
delta
den
dena
department
der
des
design
destiny
development
df
dfa
dg
di
diamond
dictionary
die
digital
disc
disney
district
division
dj
dl
dlc
dmm
dna
do
doc
dog
doi
dome
don
door
dos
double
down
dp
dr
dragon
drama
dream
dreams
drive
drums
ds
dt
du
duo
dvd
dx
e
early
earth
east
easy
ec
economic
ed
edge
edited
edition
eds
education
edward
ef
el
electric
else
em
emi
empire
en
encyclopedia
end
endless
energy
engine
engineering
england
english
entertainment
ep
epic
episode
er
es
espn
est
et
etc
eternal
eu
euro
europe
european
ev
event
every
evolution
ex
exile
exit
expo
express
extra
eye
eyes
ez
f
fa
face
facebook
factory
fall
family
fan
fantasy
far
fate
fbi
fc
fd
fe
feat
featuring
february
feel
fes
festival
ff
fi
fia
field
fifa
fight
fighter
fighting
file
film
final
fine
fire
first
fis
five
fk
flag
flash
flight
flower
fly
flying
fm
fnn
fns
fontsize
food
football
for
force
forest
forever
format
foundation
four
fox
fr
frac
frame
franc
france
frank
free
freedom
french
friday
friend
friends
from
front
fs
ft
fu
fuji
fukuoka
full
fun
function
future
fw
fx
g
ga
galaxy
gallery
game
games
gamma
garden
gate
gb
gc
gdp
ge
general
generation
george
german
get
ghost
ghq
ghz
gi
girl
girls
gk
glay
global
glory
gm
gmbh
gnu
go
goal
god
goes
going
gold
golden
goo
good
google
got
gov
government
gp
gps
gpu
gr
grand
gray
great
greatest
green
groove
ground
group
gs
gt
guide
guitar
gun
gx
gyao
h
ha
hall
hans
happy
hard
has
hat
have
hbc
hc
hd
hdd
he
head
health
heart
hearts
heat
heaven
hello
henry
her
here
hero
hey
hg
hi
high
hill
his
historical
history
hit
hits
hkt
hms
ho
home
honda
honey
hope
hot
hotel
house
how
hp
hr
hs
htm
html
http
https
human
hunter
hybrid
hz
i
ibf
ibm
ic
ice
icoca
id
idol
idolm
ieee
if
ii
iii
il
im
image
impact
in
inc
index
india
infinity
info
information
infty
inside
instagram
institute
instrumental
int
intel
international
internet
interview
into
introduction
ioc
ios
ip
iphone
iq
ir
is
isbn
island
iso
issue
it
its
itunes
iv
ix
j
ja
jack
jal
jam
james
jan
january
japan
japanese
java
jazz
jbc
jc
jct
jean
jet
jfa
jfl
jfn
jis
jk
jnn
jo
joe
john
johnny
johnson
jones
joseph
journal
journey
joy
jp
jpg
jr
jra
jrn
jst
jt
jtb
ju
juice
july
jump
june
junior
just
k
ka
kadokawa
kawaii
kb
kbc
kbs
kc
kddi
ken
key
keyboards
kg
khz
ki
kids
king
kingdom
kira
kiss
kk
km
know
ko
kobe
korea
kr
kt
ktv
ku
kv
kw
kyoto
l
la
lab
label
lady
lake
lambda
lan
land
language
last
law
lb
lc
ld
le
league
led
lee
left
legend
leo
les
let
letter
level
lf
lg
lgbt
li
library
life
light
like
limited
line
link
linux
list
little
live
living
ll
lo
local
log
london
long
look
lord
los
lost
louis
love
lover
lovers
low
lp
ltd
lv
m
ma
mac
machine
mad
made
magazine
magic
main
major
make
making
man
management
map
march
maria
mark
market
martin
mary
master
match
mathbb
mathbf
mathcal
mathrm
max
may
mb
mbc
mbs
mc
md
me
media
medical
mega
memorial
memories
memory
men
message
metal
metro
mf
mg
mh
mhz
mi
michael
microsoft
middle
midnight
mig
mike
military
million
min
mind
mini
miss
mission
mit
mix
mj
mk
ml
mlb
mm
mma
mmf
mms
mo
mobile
mod
mode
model
modern
money
monkey
monster
moodyz
moon
more
morning
most
mother
motion
motogp
movie
mp
mr
ms
msn
msx
mt
mtv
mu
muse
museum
music
musical
mv
mvp
mw
mx
my
n
na
nack
nagoya
name
naruto
nasa
nation
national
nato
natural
nature
naval
navy
nba
nbc
nc
nd
ne
nec
neo
net
netflix
netkeiba
network
never
new
news
next
nfc
nfl
ng
nh
nhk
night
nikkei
nine
nintendo
nk
nm
nmb
nnn
nns
no
non
north
northern
not
note
notes
november
now
npb
npc
npo
nr
nrn
ns
nt
ntt
ntv
nu
number
nwa
ny
o
ob
october
oem
of
off
office
official
og
oh
ok
ol
old
omega
on
one
online
only
op
open
opera
operatorname
or
orange
orchestra
order
org
oricon
original
os
osaka
other
our
out
ova
over
oxford
oz
p
pa
pacific
page
pages
parade
paradise
paris
park
part
partial
party
pass
paul
pc
pdf
pe
peace
people
per
perfect
performance
peter
pg
ph
phi
photo
php
pi
piano
pictures
piece
pierre
pink
pk
pl
place
planet
platform
play
player
playstation
plus
pm
pmid
png
point
political
politics
pop
population
port
portable
post
pour
power
pp
pr
pre
premium
presents
president
press
pride
prime
prince
princess
private
prix
pro
produce
production
profile
program
programming
project
ps
psi
psp
pt
pta
public
published
publishing
pure
pv
px
q
qb
qr
quad
que
queen
r
ra
race
racing
radio
railway
rain
rainbow
ram
rangle
raw
ray
rb
rc
rca
rcc
rd
re
ready
real
record
records
red
ref
reference
release
remix
report
republic
research
results
retrieved
return
review
revolution
rf
rfc
rgb
rho
rhythm
richard
right
ring
rise
rising
river
rkb
rm
rna
ro
road
robert
rock
rocket
roll
rom
roman
room
rose
rotten
round
royal
rpg
rpm
rs
rt
ru
rugby
run
rx
s
sa
saint
sam
san
santa
say
sb
sbs
sc
school
science
sciences
scott
sd
se
sea
search
season
second
secret
section
security
see
seed
selection
self
september
series
server
service
session
set
seven
sex
sexy
sf
sfc
sg
sh
she
shibuya
shift
shop
short
shot
show
si
side
sigma
sign
silver
sim
simon
sin
sing
single
singles
sir
site
six
sk
ske
sky
sl
sm
small
smap
smile
smith
snow
sns
so
social
society
sod
softbank
software
solo
some
son
song
songs
sonic
sony
sos
soul
sound
source
south
southern
sp
space
special
speed
sport
sports
spring
sqrt
square
sr
srcl
ss
st
sta
stadium
staff
stage
stand
standard
star
stars
start
state
states
station
status
stay
steam
step
ster
steve
still
stone
stop
store
stories
story
street
string
strings
studies
studio
study
stv
style
su
suica
sum
summer
sun
sunday
super
sur
sv
svg
sw
sweet
switch
system
systems
t
ta
table
tag
take
talk
tb
tbc
tbs
tc
td
te
team
technology
template
ten
test
texas
text
th
than
that
the
theater
theatre
their
then
theory
there
theta
they
thing
third
this
thomas
three
through
thumb
ti
till
time
times
title
tk
tko
tm
tma
to
today
together
tokio
tokyo
tom
tomorrow
too
top
touch
tour
tower
town
toyota
tp
tr
track
train
tree
tribe
true
ts
tsutaya
tt
tu
tv
tvcm
tvk
twitter
two
tx
type
u
uc
uci
ud
uefa
ufc
ufj
ufo
uhf
uk
ultimate
ultra
un
und
under
union
unit
united
universal
university
unix
up
upright
url
us
usa
usb
use
uss
utc
v
va
value
van
var
ve
venus
ver
verlag
version
very
vf
vfx
vhs
vi
victor
video
view
vii
viii
vip
vision
visual
vita
vo
vocal
vocals
voice
vol
volume
von
vp
vr
vs
vtr
w
wa
walk
walker
want
war
wars
was
washington
watch
water
wave
way
wba
wbc
wbo
wd
we
web
website
week
were
west
western
what
when
where
which
white
who
why
wi
width
wii
wiki
wikipedia
wild
will
william
williams
wilson
win
wind
windows
wing
winter
wish
with
without
woman
women
wonder
words
work
works
world
wowow
wrc
wwe
wwf
www
x
xbox
xi
xm
xp
xs
xx
y
ya
yahoo
year
years
yellow
yes
yokohama
york
you
young
your
youtube
youtuber
ytv
yu
z
zepp
zero
zip
zone
zoom
zu
zur
{
|
}
~
£
§
©
«
­
®
°
±
²
´
µ
·
º
»
×
÷
ˀ
ˈ
ː
̀
́
̂
̃
̄
̆
̇
̈
̉
̊
̋
̌
̛
̣
̦
̧
̨
̸
α
β
γ
δ
ε
ζ
η
θ
κ
λ
μ
ν
π
ρ
σ
τ
φ
χ
ψ
ω
а
в
и
м
с
т
я
ा
्
்
ั
ิ
ี
ุ
ู
่
้
์
་
‐
–
—
―
‘
’
“
”
„
†
•
‥
…
‰
′
″
※
‼
⁄
℃
№
™
ⅰ
ⅱ
ⅲ
ⅳ
ⅴ
←
↑
→
↓
↔
↷
⇒
⇔
∀
∈
−
√
∞
∶
≒
≤
≪
≫
①
②
③
④
⑤
⑥
⑦
─
━
│
┃
┏
┓
┗
┛
┣
┫
┳
■
□
▲
△
►
▼
▽
◆
◇
○
◎
●
◦
◯
★
☆
♀
♂
♡
♥
♪
♭
♯
⺀
⺄
⺆
⺈
⺊
⺌
⺕
⺝
⺸
⺼
⿰
⿱
⿲
⿳
⿴
⿵
⿶
⿷
⿸
⿹
⿺
⿻
、
。
〃
々
〆
〇
〈
〉
《
》
「
」
『
』
【
】
〒
〓
〔
〕
〜
〝
〟
〢
ぁ
あ
ぃ
い
ぅ
う
ぇ
え
ぉ
お
か
き
く
け
こ
さ
し
す
せ
そ
た
ち
っ
つ
て
と
な
に
ぬ
ね
の
は
ひ
ふ
へ
ほ
ま
み
む
め
も
ゃ
や
ゅ
ゆ
ょ
よ
ら
り
る
れ
ろ
わ
ゐ
ゑ
を
ん
゙
゚
゛
゜
ゝ
ァ
ア
ィ
イ
ゥ
ウ
ェ
エ
ォ
オ
カ
キ
ク
ケ
コ
サ
シ
ス
セ
ソ
タ
チ
ッ
ツ
テ
ト
ナ
ニ
ヌ
ネ
ノ
ハ
ヒ
フ
ヘ
ホ
マ
ミ
ム
メ
モ
ャ
ヤ
ュ
ユ
ョ
ヨ
ラ
リ
ル
レ
ロ
ヮ
ワ
ヰ
ヱ
ヲ
ン
ヵ
ヶ
・
ー
ヽ
㇁
㇂
㇄
㇇
㇈
㇉
㇓
㈱
㊙
㎏
㎜
㎝
㎞
㎡
㐁
㐄
㐅
㐌
㐫
㐬
㐭
㐮
㐱
㑒
㒵
㒸
㒼
㓁
㓞
㔾
㕛
㕣
㖾
㘝
㚅
㚇
㚔
㚘
㝉
㝡
㝴
㝵
㞋
㞢
㞷
㠩
㠭
㠯
㡀
㡭
㡿
㢲
㢴
㣇
㣺
㥯
㪅
㫄
㫐
㫒
㫺
㬅
㬎
㬥
㬰
㲋
㳄
㷠
㸒
㸚
㸦
㼌
㼲
㽞
㿟
䀠
䂞
䍃
䏍
䒑
䖍
䖒
䖝
䖵
䙴
䚻
䜌
䝿
䡛
䧹
䪞
一
丁
丂
七
丄
丅
丆
万
丈
三
上
下
丌
不
与
丏
丐
丑
专
且
丕
世
丘
丙
业
东
丞
両
丢
丣
两
严
並
丨
丩
个
丫
丬
中
丮
丰
丱
串
丵
丶
丷
丸
丹
为
主
丼
丽
丿
乀
乂
乃
久
乆
乇
么
义
之
乌
乍
乎
乏
乐
乑
乔
乖
乗
乘
乙
乚
乛
乜
九
乞
也
习
乡
乱
乳
乾
亀
亂
亅
了
亇
予
争
事
二
亍
于
亏
亐
云
互
亓
五
井
亘
亙
亚
些
亜
亞
亟
亠
亡
亢
交
亥
亦
产
亨
亩
享
京
亭
亮
亯
亰
亲
亳
亶
亷
人
亻
亼
亾
什
仁
仄
仇
今
介
仌
仍
从
仏
仐
仑
仒
仓
仔
仕
他
仗
付
仙
仝
代
令
以
仮
仰
仲
件
任
份
企
伊
伍
伎
伏
伐
休
会
伝
伯
伴
伶
伸
伺
似
伽
佃
但
佇
位
低
住
佐
佑
体
何
佘
余
佛
作
你
佥
佩
佳
併
佼
使
侃
來
侈
例
侌
侍
侑
侖
侘
供
依
侠
価
侮
侯
侵
侶
便
係
促
俄
俊
俗
俘
保
俞
俟
俠
信
俣
修
俯
俱
俳
俵
俸
俺
倉
個
倍
們
倒
倖
候
倚
借
倠
倣
値
倦
倫
倭
倶
倹
偃
假
偈
偉
偏
偕
做
停
健
偲
側
偵
偶
偽
傀
傅
傍
傑
傘
備
催
傭
傲
傳
債
傷
傾
僅
僉
働
像
僑
僕
僚
僧
僭
價
僻
儀
儁
億
儒
儘
儚
償
儡
優
儲
儿
兀
允
兂
元
兄
充
兆
兇
先
光
兊
克
兌
免
兎
児
兑
兒
兓
兔
兗
党
兜
兟
入
內
全
兩
兪
八
公
六
兮
兰
共
关
兵
其
具
典
兹
兼
冀
冂
冃
冄
内
円
冈
冉
冊
冋
册
再
冎
冏
冐
冑
冒
冓
冖
冗
冘
写
军
农
冝
冠
冡
冤
冥
冨
冪
冫
冬
冰
冲
冴
冶
冷
凄
准
凉
凋
凌
凍
凛
凜
凝
几
凡
凢
処
凧
凪
凰
凱
凵
凶
凷
凸
凹
出
函
凾
刀
刁
刂
刃
刄
刅
分
切
刈
刊
刍
刎
刑
划
刕
刖
列
刘
则
初
判
別
利
别
到
制
刷
券
刹
刺
刻
剃
則
削
剋
剌
前
剖
剛
剡
剣
剤
剥
剪
副
剰
剱
割
創
剽
劇
劉
劍
劔
力
功
加
劣
劦
助
努
劫
励
劳
労
劵
効
劾
勁
勃
勅
勇
勉
勒
動
勘
務
勝
勞
募
勢
勤
勧
勲
勳
勹
勺
勻
勾
勿
匀
匁
匂
包
匆
匈
匊
匋
匍
匐
匕
化
北
匙
匚
匝
匠
匡
匣
匪
匯
匱
匸
匹
区
医
匽
匿
區
十
卂
千
卄
卅
卆
升
午
卉
半
卌
卍
华
卑
卒
卓
協
单
卖
南
単
博
卜
卝
卞
占
卡
卢
卣
卤
卦
卩
卪
卬
卯
印
危
即
却
卵
卷
卸
卻
卽
卿
厂
厃
厄
历
厈
厉
厌
厓
厘
厚
原
厤
厥
厦
厨
厩
厭
厲
厳
厶
厷
厸
去
厼
厽
叀
参
參
叅
又
叉
及
友
双
反
収
叐
发
叒
叔
叕
取
受
叙
叚
叛
叜
叟
叡
叢
口
古
句
另
叩
只
叫
召
可
台
叱
史
右
叵
叶
号
司
叹
吂
吃
各
吅
合
吉
吊
吋
同
名
后
吏
吐
向
吕
君
吝
吞
吟
吠
否
含
启
吳
吴
吸
吹
吻
吼
吽
吾
吿
呂
呆
呈
呉
告
呑
员
呙
呟
周
呪
味
呵
呼
命
咀
咄
咅
咆
咋
和
咎
咒
咠
咢
咤
咥
咨
咩
咫
咬
咲
咳
咸
咼
咽
哀
品
哈
哉
員
哥
哨
哩
哭
哮
哲
哺
唄
唆
唇
唐
唖
唯
唱
唸
唾
啄
商
啇
問
啓
啖
啚
啬
啻
啼
喀
善
喇
喉
喋
喘
喚
喜
喝
喧
喩
喪
喫
喬
單
喰
営
喿
嗅
嗇
嗚
嗜
嗟
嗣
嘆
嘉
嘔
嘗
嘘
嘩
嘯
嘱
嘲
嘴
噂
噌
噛
器
噩
噴
噺
嚆
嚇
嚢
嚥
嚮
嚴
嚼
囁
囃
囊
囗
囘
囙
囚
四
回
囟
因
団
囧
囬
囮
困
囱
囲
図
囷
固
国
圀
圂
圃
圅
國
圍
圏
園
圓
圖
團
土
圡
圣
圥
圧
在
圭
地
圳
圶
圼
址
坂
均
坊
坏
坐
坑
坒
坚
坡
坤
坦
坪
坴
垂
型
垔
垚
垢
垣
埀
埃
埋
城
埒
埔
埜
域
埠
埴
埶
執
培
基
埼
堀
堂
堅
堆
堇
堕
堡
堤
堪
堯
堰
報
場
堵
堺
塀
塁
塊
塑
塔
塗
塘
塙
塚
塞
塩
填
塵
塹
塾
境
墓
増
墜
增
墟
墨
墳
墺
墾
壁
壇
壊
壌
壕
壘
士
壬
壮
壯
声
壱
売
壳
壴
壷
壹
壺
壽
夂
处
夅
夆
备
変
夊
夋
夌
复
夏
夒
夕
外
夗
夘
夙
多
夜
夢
大
夨
天
太
夫
夬
夭
央
失
夲
头
夷
夸
夹
夻
夾
奂
奄
奇
奈
奉
奎
奏
奐
契
奓
奔
奕
套
奘
奚
奞
奠
奢
奥
奧
奨
奪
奭
奮
女
奴
奸
奻
好
如
妃
妄
妊
妓
妖
妙
妟
妥
妨
妬
妹
妻
妾
姉
始
姐
姑
姓
委
姚
姜
姥
姦
姪
姫
姶
姻
姿
威
娃
娄
娑
娘
娠
娥
娩
娯
娶
娼
婁
婆
婉
婚
婢
婦
婴
婿
媒
媚
媛
嫁
嫉
嫌
嫡
嬉
嬌
嬢
嬪
嬬
嬰
嬲
嬴
子
孑
孔
孕
孖
字
存
孚
孛
孜
孝
孟
季
孤
学
孫
孱
孵
學
宀
宁
宂
它
宅
宇
守
安
宋
完
宍
宏
宓
宕
宗
官
宙
定
宛
宜
宝
実
客
宣
室
宥
宦
宮
宰
害
宴
宵
家
宸
容
宾
宿
寂
寄
寅
密
寇
富
寒
寓
寛
寝
察
寡
實
寧
寨
審
寫
寬
寮
寳
寵
寶
寸
对
寺
寻
寽
対
寿
封
専
尃
射
将
將
專
尉
尊
尋
尌
對
導
小
少
尒
尓
尔
尖
尗
尚
尞
尢
尣
尤
尧
尨
尭
就
尸
尹
尺
尻
尼
尽
尾
尿
局
屁
居
屈
届
屋
屍
屎
屏
屑
屓
展
屖
屚
属
屠
屡
層
履
屬
屮
屯
屰
山
屵
屾
岁
岂
岐
岑
岡
岩
岬
岱
岳
岸
峙
峠
峡
峨
峯
峰
峴
島
峻
崇
崋
崎
崑
崔
崖
崗
崙
崩
嵌
嵐
嵜
嵩
嵬
嵯
嶋
嶌
嶲
嶺
嶼
嶽
巂
巌
巖
巛
川
州
巟
巠
巡
巢
巣
巤
工
左
巧
巨
巩
巫
差
己
已
巳
巴
巷
巸
巻
巽
巾
巿
帀
市
布
帆
希
帖
帚
帛
帝
帥
带
師
席
帯
帰
帳
帶
帷
常
帽
幀
幅
幇
幌
幕
幟
幡
幣
干
平
年
幵
并
幷
幸
幹
幺
幻
幼
幽
幾
广
庁
広
庄
庇
床
序
底
店
庚
府
度
座
庫
庭
庵
庶
康
庸
庾
廃
廈
廉
廊
廌
廓
廖
廛
廟
廠
廢
廣
廩
廬
廳
廴
延
廷
建
廻
廼
廾
廿
开
弁
弃
弄
弇
弉
弊
弋
弌
式
弐
弓
弔
引
弖
弗
弘
弛
弜
弟
弥
弦
弧
弩
弱
張
強
强
弼
弾
彅
彊
彌
彎
彐
彑
当
彔
录
彖
彗
彙
彡
形
彥
彦
彧
彩
彪
彫
彬
彭
彰
影
彳
彷
役
彼
彿
往
征
徂
径
待
徊
律
後
徐
徒
従
得
徘
徙
從
徠
御
徨
復
循
微
徳
徴
徵
德
徹
徽
心
忄
必
忌
忍
志
忘
忙
応
忝
忠
忩
快
念
忽
忿
怒
怖
怜
思
怠
怡
急
性
怨
怪
怯
怱
恆
恋
恍
恐
恒
恕
恢
恣
恥
恨
恩
恪
恫
恭
息
恰
恵
悉
悌
悍
悔
悟
悠
患
悤
悦
悩
悪
悲
悶
悼
情
惇
惑
惚
惜
惟
惠
惡
惢
惣
惧
惨
惰
想
惹
愁
愈
愉
意
愕
愚
愛
感
愼
慄
慈
態
慌
慎
慕
慟
慢
慣
慧
慨
慮
慰
慶
慾
憂
憎
憐
憑
憚
憤
憧
憩
憫
憬
憲
憶
憾
懃
懇
應
懐
懲
懸
懺
懼
懿
戀
戈
戉
戊
戋
戌
戍
戎
成
我
戒
戔
或
戚
戟
戠
戢
戦
截
戮
戯
戰
戲
戴
戶
户
戸
戹
戻
戼
戾
房
所
扁
扇
扈
扉
手
扌
才
打
払
托
执
扮
扱
扶
批
承
技
抄
抉
把
抑
抒
投
抗
折
抜
択
披
抱
抵
抹
押
抽
担
拉
拌
拍
拐
拒
拓
拗
拘
拙
招
拜
拝
拠
拡
括
拭
拮
拳
拵
拶
拷
拼
拾
拿
持
指
按
挑
挙
挟
挨
挫
振
挺
挽
挾
挿
捉
捌
捏
捐
捕
捗
捜
捧
捨
捩
据
捲
捷
捺
捻
掃
授
掌
排
掖
掘
掛
掟
掠
採
探
接
控
推
掩
措
掬
掲
掴
掻
掾
揃
揄
揆
揉
描
提
揖
揚
換
握
揮
援
揶
揺
損
搗
搦
搬
搭
携
搾
摂
摘
摩
摯
摸
摺
撃
撒
撓
撚
撞
撤
撥
撫
播
撮
撰
撲
撹
撼
擁
擊
操
據
擢
擦
擧
擬
擲
擾
攀
攘
攝
攣
攪
攫
支
攴
攵
收
攸
改
攻
放
政
敄
故
效
敎
敏
救
敕
敖
敗
教
敝
敞
敢
散
敦
敫
敬
数
敲
整
敵
敷
數
斂
斃
文
斉
斊
斌
斎
斐
斑
斗
料
斜
斡
斤
斥
斧
斩
斬
断
斯
新
斷
方
於
施
斿
旁
旅
旋
族
旗
旛
无
旡
既
旣
日
旦
旧
旨
早
旬
旭
旱
旲
时
旺
旾
昂
昆
昇
昊
昌
昍
明
昏
易
昔
昗
昜
星
映
春
昧
昨
昬
昭
是
昱
昴
昶
昷
昼
晁
時
晃
晉
晋
晏
晒
晟
晦
晧
晨
晩
普
景
晰
晴
晶
智
暁
暇
暈
暉
暎
暑
暖
暗
暢
暦
暫
暮
暴
曇
曉
曖
曙
曜
曝
曠
曩
曰
曲
曳
更
曷
書
曹
曺
曼
曽
曾
替
最
朁
會
月
有
朋
服
朔
朕
朗
望
朝
期
朧
木
朩
未
末
本
札
朮
术
朱
朴
朵
朶
机
朽
朿
杀
杉
李
杏
材
村
杓
杖
杜
杞
束
条
杢
杣
来
杭
杯
杰
東
杲
杳
杵
杷
松
板
枇
析
枕
林
枚
果
枝
枠
枡
枢
枯
枲
枳
架
枷
枼
柄
柊
柏
某
柑
染
柔
柘
柚
查
柩
柬
柯
柰
柱
柳
柴
柵
査
柾
柿
栂
栃
栄
栓
栖
栗
栞
校
栢
株
核
根
格
栽
桀
桁
桂
桃
案
桐
桑
桓
桔
桜
桝
桟
桧
桶
桼
桿
梁
梅
梓
梗
條
梟
梢
梧
梨
梯
械
梱
梵
梶
棄
棋
棍
棒
棗
棘
棚
棟
棠
棥
森
棲
棹
棺
椀
椅
椋
植
椎
椒
椙
椛
検
椰
椿
楊
楓
楔
楕
楚
楠
楡
楢
楫
業
楯
楳
極
楷
楼
楽
概
榊
榎
榛
榜
榮
榴
槃
槇
構
槌
槍
槎
槐
槓
様
槙
槨
槻
槽
槿
樂
樅
樊
樋
樓
標
樟
模
樣
権
横
樫
樵
樹
樺
樽
橈
橋
橘
橙
機
橿
檀
檄
檎
檗
檜
檢
檣
檬
檸
檻
櫂
櫃
櫓
櫛
櫟
櫨
櫻
欄
欅
權
欒
欠
次
欣
欧
欮
欲
欶
欺
欽
款
歆
歇
歌
歎
歓
歛
止
正
此
步
武
歨
歩
歪
歮
歯
歰
歲
歳
歴
歷
歸
歹
歺
死
歿
殆
殉
殊
残
殖
殘
殲
殳
殴
段
殷
殸
殹
殺
殻
殿
毀
毅
毋
毌
母
毎
每
毒
比
毕
毘
毚
毛
毫
毬
毯
毳
氏
氐
民
气
気
氣
水
氵
氶
氷
永
氺
氾
汀
汁
求
汎
汐
汗
汚
汝
汞
江
池
汪
汰
汲
決
汽
汾
沁
沂
沃
沈
沌
沐
沓
沖
沙
沛
沝
没
沢
沫
沮
河
沸
油
治
沼
沿
況
泄
泉
泊
泌
法
泗
泡
波
泣
泥
注
泪
泰
泳
洋
洒
洗
洙
洛
洞
津
洩
洪
洲
洵
洸
活
派
流
浄
浅
浙
浚
浜
浣
浦
浩
浪
浬
浮
浴
海
浸
涅
消
涌
涙
涛
涜
涯
液
涵
涸
涼
淀
淋
淑
淘
淡
淨
淫
淮
深
淳
淵
混
淸
淹
淺
添
清
渇
済
渉
渋
渓
渕
渚
減
渠
渡
渤
渥
渦
温
渫
測
渭
港
游
渾
湊
湖
湘
湛
湧
湯
湾
湿
満
源
準
溜
溝
溢
溥
溪
溶
溺
滄
滅
滉
滋
滑
滓
滕
滝
滞
滬
滲
滴
滸
滿
漁
漂
漆
漉
漏
漑
演
漕
漠
漢
漣
漫
漬
漱
漳
漸
漿
潁
潔
潘
潜
潟
潤
潭
潮
潰
潴
潼
澁
澄
澎
澗
澤
澪
澱
澳
激
濁
濃
濟
濠
濡
濤
濫
濯
濱
濵
濾
瀉
瀋
瀑
瀕
瀞
瀧
瀬
瀾
灌
灘
灣
火
灬
灭
灯
灰
灵
灷
灸
灼
災
炅
炉
炊
炎
炏
炒
炗
炙
炬
炭
炮
炯
炳
炸
点
為
烈
烏
烙
烝
烹
焉
焔
焙
焚
無
焦
焱
然
焼
煉
煌
煎
煕
煙
煞
煤
煥
照
煩
煬
煮
煽
熈
熊
熏
熙
熟
熱
熹
熾
燁
燃
燈
燐
燕
營
燥
燦
燭
燮
燻
燿
爆
爛
爪
爫
爬
爭
爯
爰
爱
爲
爵
父
爺
爻
爽
爾
爿
片
版
牌
牒
牙
牚
牛
牜
牝
牟
牡
牢
牧
物
牪
牲
特
牽
犀
犠
犬
犭
犮
犯
状
狀
狂
狄
狊
狐
狗
狙
狛
狡
狩
独
狭
狸
狺
狼
狽
猋
猒
猛
猜
猟
猥
猩
猪
猫
献
猴
猶
猷
猾
猿
獄
獅
獏
獣
獨
獰
獲
獻
玄
率
玉
王
玖
玟
玨
玩
玲
珀
珂
珈
珉
珊
珍
珎
珠
珪
班
現
球
琅
理
琉
琢
琥
琦
琲
琳
琴
琵
琶
瑕
瑚
瑛
瑜
瑞
瑟
瑠
瑤
瑩
瑪
瑯
瑳
瑶
瑾
璃
璋
璐
璧
環
璽
瓊
瓚
瓜
瓢
瓦
瓶
甄
甑
甕
甘
甚
甜
生
產
産
甥
甦
用
甫
甬
田
由
甲
申
电
甶
男
甸
甹
町
画
甾
畀
界
畏
畐
畑
畔
留
畜
畝
畟
畠
畢
略
畦
畧
畨
番
畫
異
畱
畳
當
畷
畺
畾
畿
疆
疇
疊
疋
疌
疎
疏
疑
疒
疫
疱
疲
疵
疸
疹
疼
疽
疾
病
症
痍
痒
痔
痕
痘
痙
痛
痢
痣
痩
痰
痴
痺
瘍
瘡
瘤
瘴
療
癇
癌
癒
癖
癩
癪
癬
癶
癸
癹
発
登
發
白
百
皀
皃
的
皆
皇
皋
皐
皓
皕
皖
皝
皮
皷
皺
皿
盃
盆
盇
盈
益
盍
盎
监
盒
盖
盗
盛
盞
盟
盡
監
盤
盧
盪
目
盲
直
相
盾
省
眇
眉
看
県
眔
眞
真
眠
眩
眷
眺
眼
眾
着
睘
睡
督
睦
睨
睪
睾
睿
瞏
瞑
瞞
瞢
瞥
瞬
瞭
瞰
瞳
瞻
瞼
瞿
矍
矛
矜
矞
矢
矣
知
矦
矧
矩
短
矮
矯
石
砂
研
砕
砥
砦
砧
砲
破
砺
硝
硫
硬
硯
碁
碇
碍
碎
碑
碓
碕
碗
碧
碩
確
磁
磊
磋
磐
磔
磨
磯
礁
礎
礒
礦
礪
礫
礬
示
礻
礼
社
祀
祁
祇
祈
祉
祐
祓
祖
祗
祚
祝
神
祟
祠
祢
祥
票
祭
祷
祺
禀
禁
禄
禅
禊
禍
禎
福
禦
禧
禮
禰
禸
禹
禺
离
禽
禾
禿
秀
私
秃
秉
秋
科
秒
秘
秝
租
秤
秦
秩
称
移
稀
程
税
稔
稗
稙
稚
稜
稟
稠
種
稱
稲
稷
稼
稽
稿
穀
穂
穆
穌
積
穎
穏
穢
穣
穫
穴
究
穹
空
穿
突
窃
窄
窈
窒
窓
窘
窟
窩
窪
窮
窯
窺
竄
竇
竈
立
竒
站
竜
竝
竟
章
竣
童
竪
端
競
竹
竺
竿
笈
笏
笑
笙
笛
笠
笥
符
第
笹
筆
筈
等
筋
筏
筐
筑
筒
答
策
筧
筰
筵
箇
箋
箏
箒
箔
箕
算
箚
管
箪
箭
箱
箴
箸
節
篁
範
篆
篇
築
篋
篝
篠
篤
篩
篭
簒
簗
簡
簪
簾
簿
籃
籍
籐
籔
籟
籠
籤
米
籾
粁
粂
粉
粋
粍
粒
粕
粗
粘
粛
粟
粤
粥
粦
粧
粲
精
糀
糊
糎
糖
糞
糟
糠
糧
糸
糹
糺
系
糾
紀
約
紅
紆
紋
納
紐
純
紗
紘
紙
級
紛
素
紡
索
紫
紬
累
細
紳
紹
紺
終
絃
組
絆
経
結
絜
絞
絡
絢
給
絨
絫
統
絲
絵
絶
絹
綏
經
継
続
綜
綬
維
綱
網
綴
綸
綺
綻
綽
綾
綿
緊
緋
総
緑
緒
線
締
編
緩
緬
緯
練
緻
縁
縄
縛
縞
縣
縦
縫
縮
總
績
繁
繇
繊
繋
繍
織
繕
繚
繡
繪
繭
繰
繹
纂
續
纍
纏
纟
缶
缺
罐
网
罒
罔
罕
罗
罙
罠
罡
罢
罪
置
罰
署
罵
罷
罹
羅
羈
羊
羌
羍
美
羔
羕
羗
羞
羡
羣
群
羨
義
羯
羲
羸
羹
羽
翁
翅
翊
翌
翏
習
翔
翕
翟
翠
翡
翫
翰
翳
翻
翼
耀
老
耂
考
者
耆
而
耎
耐
耑
耒
耕
耗
耳
耴
耶
耷
耽
耿
聂
聊
聖
聘
聚
聞
聡
聯
聰
聲
聳
聴
聶
職
聽
聾
聿
肀
肃
肅
肆
肇
肉
肋
肌
肖
肘
肙
肛
肝
股
肢
肥
肩
肪
肯
肱
育
肴
肺
胃
胆
背
胎
胚
胞
胡
胤
胥
胱
胴
胸
能
脂
脅
脆
脇
脈
脊
脚
脛
脩
脱
脳
脹
脾
腋
腎
腐
腑
腓
腔
腕
腫
腰
腱
腸
腹
腺
腿
膀
膏
膚
膜
膝
膠
膣
膨
膳
膵
膿
臀
臂
臆
臍
臓
臘
臣
臤
臥
臧
臨
自
臬
臭
臯
臱
至
致
臺
臼
臽
臾
臿
舀
舂
舄
舅
與
興
舉
舊
舌
舍
舎
舐
舒
舗
舘
舛
舜
舞
舟
舩
航
舫
般
舵
舶
舷
船
艀
艇
艘
艤
艦
艮
良
色
艶
艸
艹
艾
芋
芒
芔
芙
芝
芥
芦
芬
芭
芮
芯
花
芳
芸
芹
芺
芻
芽
苅
苑
苓
苔
苗
苛
苞
苟
若
苦
苧
苫
英
苺
苻
茂
范
茄
茅
茉
茎
茗
茜
茨
茫
茲
茶
茸
茹
荀
荅
草
荊
荏
荒
荘
荣
荷
荻
荼
莆
莉
莊
莒
莞
莢
莧
莫
莱
莽
菁
菅
菆
菊
菌
菐
菓
菖
菜
菟
菩
菫
華
菰
菱
菲
萄
萇
萊
萌
萎
萠
萩
萬
萱
萼
落
葉
著
葛
葡
董
葦
葬
葭
葱
葵
葺
蒋
蒐
蒔
蒙
蒜
蒦
蒲
蒸
蒼
蓄
蓉
蓋
蓑
蓬
蓮
蓺
蓼
蔑
蔓
蔚
蔡
蔣
蔦
蔭
蔵
蔽
蕃
蕉
蕊
蕎
蕗
蕨
蕩
蕪
蕭
蕾
薄
薇
薊
薔
薗
薙
薛
薦
薨
薩
薪
薫
薬
薮
薯
薰
藁
藉
藍
藏
藝
藤
藥
藩
藪
藺
藻
蘂
蘆
蘇
蘊
蘭
虍
虎
虐
虒
虔
處
虖
虗
虘
虚
虛
虜
虞
號
虫
虹
虻
虽
蚊
蚕
蚤
蚩
蛇
蛉
蛋
蛍
蛙
蛛
蛟
蛤
蛭
蛮
蛯
蛸
蛹
蛾
蜀
蜂
蜃
蜘
蜜
蜥
蜴
蜷
蜻
蝉
蝋
蝕
蝗
蝙
蝠
蝦
蝮
蝶
蝸
蝿
螂
融
螢
螺
蟄
蟇
蟠
蟲
蟷
蟹
蟻
蠅
蠍
蠡
蠢
蠣
蠱
血
衆
行
衍
術
街
衙
衛
衝
衞
衡
衣
衤
表
衮
衰
衷
衾
衿
袁
袂
袈
袋
袍
袖
袞
被
袴
裁
裂
装
裏
裔
裕
補
裟
裡
裳
裴
裸
製
裾
複
褌
褐
褒
褚
褭
褱
褻
襄
襖
襟
襲
襷
襾
西
覀
要
覃
覆
覇
見
規
覓
視
覗
覚
覧
親
観
覺
覽
觀
见
角
解
触
言
訁
訂
訃
訇
計
訊
討
訓
託
記
訛
訝
訟
訣
訥
訪
設
許
訳
訴
訶
診
註
証
詐
詔
評
詛
詞
詠
詢
詣
試
詩
詫
詭
詮
詰
話
該
詳
詹
誅
誇
誉
誌
認
誓
誕
誘
語
誠
誡
誤
誦
誩
說
説
読
誰
課
誹
誼
調
談
請
諌
諍
諏
諒
論
諜
諡
諦
諧
諫
諭
諮
諱
諷
諸
諺
諾
謀
謁
謂
謄
謎
謐
謗
謙
講
謝
謡
謨
謬
謳
謹
證
識
譚
譜
警
譬
譯
議
譲
護
譽
讀
讃
變
讐
讒
讓
讠
谷
谿
豆
豈
豊
豐
豕
豖
豙
豚
象
豦
豩
豪
豫
豸
豹
貂
貇
貌
貝
貞
貟
負
財
貢
貧
貨
販
貪
貫
責
貯
貰
貳
貴
貶
買
貸
費
貼
貿
賀
賁
賂
賃
賄
資
賈
賊
賏
賑
賓
賔
賛
賜
賞
賠
賢
賣
賤
賦
質
賭
賴
購
賽
贄
贅
贈
贊
贋
贔
贖
贛
贝
贡
责
贯
贲
贵
赖
赞
赤
赦
赫
走
赳
赴
起
超
越
趙
趣
趨
足
趾
跋
距
跡
跨
跪
路
跳
践
踊
踏
踪
踵
蹂
蹄
蹇
蹊
蹟
蹴
躁
躇
躊
躍
躓
躙
身
躬
躯
躰
躾
車
軋
軌
軍
軎
軒
軟
転
軸
軻
軽
較
載
輌
輔
輕
輛
輜
輝
輦
輩
輪
輯
輸
輻
輿
轄
轉
轍
轟
轡
轢
车
辛
辜
辞
辟
辣
辥
辨
辭
辯
辰
辱
農
辵
辶
边
辺
辻
込
达
辿
迂
迄
迅
过
迎
近
返
连
迦
迪
迫
迭
述
迷
迹
追
退
送
逃
逅
逆
逍
透
逐
逓
途
逗
這
通
逝
逞
速
造
逢
連
逮
週
進
逵
逸
逼
遀
遁
遂
遅
遇
遊
運
遍
過
道
達
違
遙
遜
遠
遡
遣
遥
適
遭
遮
遵
遷
選
遺
遼
遽
避
邀
邁
邂
還
邇
邉
邊
邏
邑
邕
邢
那
邦
邨
邪
邯
邱
邵
邸
郁
郊
郎
郝
郞
郡
部
郭
郵
郷
都
鄂
鄉
鄒
鄙
鄧
鄭
鄰
鄲
鄴
酉
酊
酋
酌
配
酎
酒
酓
酔
酢
酩
酪
酬
酵
酷
酸
醇
醍
醐
醒
醜
醤
醫
醸
釆
采
釈
釉
釋
里
重
野
量
金
釒
釘
釜
針
釣
釧
鈍
鈎
鈑
鈔
鈞
鈴
鈷
鈿
鉄
鉈
鉉
鉛
鉢
鉤
鉦
鉱
鉾
銀
銃
銅
銑
銘
銚
銛
銜
銭
鋏
鋒
鋤
鋪
鋭
鋲
鋳
鋸
鋼
錄
錆
錐
錘
錠
錢
錦
錨
錫
錬
錮
錯
録
鍋
鍔
鍛
鍬
鍮
鍵
鍼
鍾
鎌
鎖
鎗
鎚
鎧
鎬
鎭
鎮
鏃
鏑
鏡
鐘
鐙
鐡
鐵
鐸
鑑
鑓
鑼
鑽
鑿
钅
長
镸
长
門
閃
閉
開
閏
閑
閒
間
閔
閘
関
閣
閤
閥
閨
閩
閭
閲
閵
閻
閾
闇
闊
闌
闍
闕
闘
關
闢
门
间
闷
阑
阜
阝
阪
阮
防
阻
阿
陀
附
降
限
陛
陝
陞
院
陣
除
陥
陪
陰
陳
陵
陶
陸
険
陽
隅
隆
隈
隊
隋
階
随
隔
隕
隘
隙
際
障
隠
隡
隣
隧
隨
隱
隴
隶
隷
隹
隺
隻
隼
隽
难
雀
雁
雄
雅
集
雇
雈
雉
雋
雌
雍
雐
雑
雔
雖
雙
雚
雛
雜
雝
離
難
雨
雩
雪
雫
雰
雲
零
雷
雹
電
需
霆
震
霊
霍
霖
霜
霝
霞
霧
霰
露
霸
靈
靑
青
靖
静
靜
非
靡
面
靣
革
靭
靱
靴
靺
鞄
鞆
鞋
鞍
鞘
鞠
鞨
鞭
鞮
韋
韓
韦
韭
韮
韯
韱
音
韶
韻
響
頁
頂
頃
項
順
須
頌
預
頑
頒
頓
頗
領
頚
頡
頬
頭
頴
頸
頻
頼
顆
題
額
顎
顏
顔
顕
願
顛
類
顧
顯
页
風
颯
飄
风
飛
飜
飞
食
飠
飢
飫
飯
飲
飴
飼
飽
飾
餃
餅
養
餌
餐
餓
餘
餞
餡
館
饅
饉
饌
饒
饗
饣
首
香
馨
馬
馮
馳
馴
駁
駄
駅
駆
駈
駐
駒
駕
駝
駦
駱
駿
騎
騒
験
騙
騨
騰
驃
驅
驍
驕
驗
驚
驤
驪
马
骨
骸
髄
髏
髑
體
高
髙
髟
髪
髭
髷
鬘
鬚
鬥
鬨
鬯
鬱
鬲
鬼
魁
魂
魃
魄
魅
魍
魎
魏
魔
魚
魯
鮎
鮑
鮒
鮨
鮫
鮭
鮮
鯉
鯖
鯛
鯨
鯰
鯱
鰍
鰐
鰓
鰭
鰯
鰹
鰺
鰻
鱒
鱗
鱼
鲁
鳥
鳩
鳳
鳴
鳶
鴇
鴈
鴉
鴎
鴛
鴨
鴫
鴻
鵄
鵜
鵠
鵡
鵬
鵺
鶉
鶏
鶯
鶴
鷗
鷲
鷹
鷺
鸚
鸞
鸟
鹵
鹸
鹽
鹿
麃
麒
麓
麗
麟
麥
麦
麹
麺
麻
麾
麿
黃
黄
黌
黍
黎
黑
黒
黔
黙
黛
點
黨
黹
黽
黾
鼎
鼓
鼠
鼻
齊
齋
齎
齐
齒
齟
齢
齧
齬
齿
龍
龐
龕
龙
龜
龟
龠
龰
龱
龴
龵
龶
龷
龸
龹
﨑
者
艹
︎
️
！
＃
％
＆
（
）
＊
＋
，
－
．
／
０
１
２
３
４
５
６
７
８
９
：
；
＜
＝
＞
？
＠
［
＼
］
＿
ａ
ｂ
ｃ
ｄ
ｅ
ｆ
ｇ
ｈ
ｉ
ｊ
ｋ
ｌ
ｍ
ｎ
ｏ
ｐ
ｑ
ｒ
ｓ
ｔ
ｕ
ｖ
ｗ
ｘ
ｙ
ｚ
｛
｜
｝
～
｡
｢
｣
､
･
ｰ
ｲ
ｼ
ｽ
ﾄ
ﾌ
ﾝ
ﾞ
ﾟ
￥
𠀁
𠀃
𠀆
𠀉
𠀎
𠀐
𠁁
𠁣
𠂆
𠂇
𠂈
𠂉
𠂊
𠂋
𠂎
𠂒
𠂔
𠂛
𠂡
𠂢
𠂤
𠂬
𠂭
𠂹
𠃊
𠃋
𠃌
𠃍
𠃎
𠃑
𠃓
𠃔
𠃜
𠄌
𠄎
𠄠
𠄢
𠆢
𠆥
𠇍
𠈌
𠌵
𠓜
𠔉
𠔥
𠔼
𠔽
𠔿
𠕀
𠕁
𠕋
𠘧
𠘨
𠙻
𠙼
𠚏
𠚒
𠚤
𠚪
𠣏
𠤎
𠤕
𠥓
𠦄
𠦑
𠦝
𠧒
𠧗
𠧪
𠩺
𠪚
𠫓
𠫔
𠫤
𠬛
𠬝
𠬞
𠬢
𠬤
𠬶
𠮛
𠮦
𠮷
𠯑
𠱠
𠳮
𠷎
𡈼
𡉀
𡉵
𡌥
𡍮
𡏳
𡕒
𡕩
𡕰
𡖅
𡗗
𡗜
𡘆
𡘤
𡧱
𡨄
𡩧
𡬠
𡭽
𡰣
𡰥
𡰪
𡰯
𡰱
𡷈
𡸁
𡿨
𡿩
𡿪
𡿺
𢀖
𢀛
𢀩
𢁙
𢆉
𢆰
𢆶
𢇁
𢇇
𢉖
𢌬
𢌿
𢏚
𢑑
𢑚
𢖻
𢙣
𢛳
𢦏
𢦒
𢧵
𢼄
𢾕
𣁋
𣄼
𣅀
𣅽
𣍘
𣎳
𣎵
𣏋
𣏼
𣗥
𣥂
𣥖
𣦵
𣦼
𣧄
𣪊
𣪠
𣬉
𣳾
𣶒
𤇾
𤊽
𤐫
𤓰
𤔔
𤕨
𤣩
𤰇
𤰔
𤰞
𤴓
𤴔
𤽄
𥁑
𥁕
𥃦
𥃩
𥃭
𥇡
𥑟
𥘅
𥘈
𥝢
𥫗
𥱡
𦈢
𦉪
𦉬
𦉼
𦍌
𦍒
𦎧
𦐇
𦓔
𦔮
𦘒
𦙃
𦚏
𦣝
𦣞
𦣻
𦥑
𦥔
𦥯
𦨉
𦭝
𦰩
𧆞
𧈧
𧘇
𧰨
𧴪
𧴮
𧵩
𧾷
𨸏
𨾴
𩙿
𩠐
𩫏
𩵋
𪉷
𪜀
𪟽
𪠲
𪩲
𫇦
𫔭
𫜸
𫝀
𫠣
𫠩
𫢉
𫥞
𫩏
𫩠
𫪡
𫲽
𫶧
𬀷
𬐘
𬗌
𬙙
𬛸
𬜯
𬟩
𬯁
𬴘
𬺻
𬼉
𬼖
𭀰
𭁈
𭁨
𭅰
𭑈
𭕄
𭗼
𭤨
𭥫
𭻾
𮅕
𮊿
𮍌
𮍏
𮓗
𮥼
𮧮
廾
𰀁
𰀄
𰀈
𰀉
𰀕
𰀠
𰀡
𰀢
𰀪
𰁜
𰃮
𰆊
𰆘
𰋙
𰕎
𰢴
𰧭
𰯲
󠄀
󠄁
󠄂
󠄃
󠄄
00--
01--
02--
03--
04--
05--
06--
07--
08--
09--
36--
37--
38--
39--
406--
41--
42--
43--
44--
45--
46--
47--
48--
49--
50--
51--
52--
53--
54--
55--
56--
57--
58--
59--
60--
61--
62--
63--
65--
66--
67--
68--
69--
70--
71--
72--
73--
74--
75--
76--
77--
78--
79--
80--
81--
82--
83--
84--
85--
86--
87--
88--
89--
90--
91--
92--
93--
94--
96--
978--
98--
99--
a--
aa--
ab--
ac--
ad--
addi--
adve--
ae--
af--
ag--
ai--
air--
ak--
aki--
al--
ali--
all--
am--
an--
ap--
appl--
aq--
ar--
arc--
arra--
as--
at--
ath--
au--
auto--
av--
ax--
b--
ba--
back--
bar--
be--
ben--
ber--
bi--
bir--
bl--
bo--
bou--
br--
bre--
bri--
bro--
broad--
bu--
bur--
c--
ca--
can--
car--
cc--
cd--
ce--
ch--
che--
ci--
cl--
cle--
clo--
cm--
co--
coll--
com--
con--
cor--
cou--
cr--
cre--
cro--
cru--
cs--
cu--
cus--
cy--
d--
da--
dai--
dar--
de--
demo--
di--
dire--
disc--
do--
docu--
dr--
du--
dyna--
e--
ec--
ed--
ef--
ei--
ein--
el--
elec--
elem--
em--
en--
ep--
er--
es--
et--
eu--
ev--
ex--
expl--
f--
fa--
fal--
fe--
fer--
ff--
fi--
fla--
flo--
fo--
fol--
for--
fr--
fre--
fri--
fu--
g--
ga--
gar--
ge--
gi--
gla--
glo--
go--
gr--
gre--
gro--
gu--
guar--
h--
ha--
hand--
har--
he--
her--
hi--
high--
hiro--
ho--
hor--
horiz--
hr--
hu--
hun--
hy--
i--
ic--
id--
ii--
il--
im--
in--
indu--
inno--
inter--
ip--
ir--
is--
it--
iv--
iw--
j--
ja--
je--
jer--
jes--
jin--
jo--
ju--
k--
ka--
ke--
ki--
km--
ko--
kr--
ku--
ky--
l--
la--
lar--
lau--
le--
li--
lo--
lu--
ly--
m--
ma--
mac--
mag--
man--
mar--
mb--
mc--
me--
medi--
meta--
mi--
mo--
mont--
mor--
moun--
mr--
mu--
mul--
my--
n--
na--
nc--
nd--
ne--
neu--
new--
nex--
ni--
nic--
nipp--
nis--
no--
ns--
nt--
nu--
ny--
o--
ob--
oce--
oh--
ok--
ol--
oly--
on--
op--
or--
ori--
os--
out--
over--
p--
pa--
para--
pay--
pe--
per--
perc--
ph--
phi--
phy--
pi--
pl--
play--
ple--
plo--
po--
pol--
pos--
pr--
pre--
pro--
psy--
pu--
q--
qu--
qual--
quat--
r--
ra--
re--
regi--
rela--
reli--
ri--
ric--
rid--
riz--
ro--
rou--
ru--
s--
sa--
sc--
sch--
scien--
sd--
se--
sei--
ser--
sh--
shi--
shin--
show--
shu--
si--
sk--
sky--
sl--
sle--
sm--
so--
some--
sound--
sp--
spe--
spec--
spir--
spo--
ss--
st--
star--
ste--
stra--
stru--
stu--
su--
sub--
sum--
sun--
supp--
sur--
sw--
sy--
symp--
t--
ta--
taka--
tar--
tay--
te--
techn--
tele--
ter--
th--
ti--
to--
tor--
tr--
tran--
tre--
tri--
tro--
tru--
ts--
tu--
tur--
twe--
twi--
u--
uc--
uk--
un--
under--
univ--
up--
urb--
us--
v--
va--
var--
ve--
vi--
vill--
vir--
vo--
w--
wa--
wal--
wan--
we--
whe--
wi--
wiki--
wo--
wol--
wor--
wrest--
writ--
x--
xi--
xx--
y--
ya--
yo--
yos--
yu--
z--
ze--
zu--
--0
--00
--01
--1
--2
--3
--4
--5
--6
--7
--8
--9
--a
--ac
--ad
--ade
--ae
--ai
--ain
--ak
--aki
--al
--ald
--als
--am
--ama
--ami
--an
--ano
--ans
--ant
--ao
--ar
--ard
--arrow
--ary
--as
--at
--ata
--ate
--ated
--atic
--ation
--ations
--ator
--au
--aw
--awa
--ax
--ay
--b
--ba
--be
--berg
--berry
--bi
--ble
--by
--c
--ca
--cal
--ce
--cer
--ch
--che
--cher
--chte
--ck
--cks
--cle
--co
--craft
--cs
--ct
--cts
--cy
--d
--da
--dam
--de
--ded
--do
--ds
--dt
--dy
--e
--ea
--ed
--ee
--eek
--ef
--eg
--ei
--eign
--ein
--ek
--el
--ell
--ella
--em
--ement
--en
--ence
--ens
--ent
--eo
--er
--era
--erg
--ern
--ers
--ert
--es
--ess
--et
--ew
--ex
--ey
--f
--ff
--fic
--ful
--g
--ga
--ge
--gen
--ger
--gi
--gle
--go
--gress
--gs
--gue
--h
--ha
--ham
--he
--hen
--hes
--hi
--hing
--hn
--ho
--ht
--hur
--i
--ia
--ial
--ian
--ic
--ica
--ical
--ice
--ick
--ics
--id
--ie
--ied
--ier
--ies
--ight
--ii
--ik
--il
--ile
--im
--ima
--in
--ina
--ine
--ing
--ings
--ini
--ino
--ins
--io
--ion
--ions
--ious
--ir
--ire
--irs
--is
--ise
--ish
--ism
--ist
--it
--ite
--ity
--ium
--ius
--ive
--ix
--ize
--j
--ji
--k
--ka
--ke
--ker
--ki
--ko
--ks
--ku
--ky
--l
--la
--land
--ld
--le
--ler
--ley
--li
--lia
--lin
--lk
--ll
--lla
--lle
--lm
--lo
--lon
--ls
--lt
--ly
--m
--ma
--man
--me
--ment
--mer
--mi
--mo
--mon
--ms
--my
--n
--na
--nce
--ncy
--nd
--ne
--ner
--ners
--nes
--ness
--ng
--nge
--ni
--nia
--ning
--nis
--nn
--no
--ns
--nse
--nt
--nts
--ny
--o
--ock
--od
--ode
--oe
--ogy
--oid
--ol
--om
--ome
--omo
--on
--ons
--ony
--op
--or
--ore
--ors
--ort
--ory
--os
--ot
--ou
--ous
--ow
--own
--ows
--ox
--p
--pa
--pe
--ple
--po
--ps
--q
--r
--ra
--ral
--rd
--re
--rg
--ri
--ria
--rial
--rich
--rie
--rio
--rl
--rn
--ro
--ron
--rp
--rry
--rs
--rt
--ru
--ry
--s
--sa
--se
--sen
--sent
--ses
--sh
--shi
--ship
--sion
--sis
--so
--son
--ss
--st
--stry
--su
--t
--ta
--tal
--tan
--tary
--te
--ted
--ter
--tes
--th
--ti
--tic
--ting
--tion
--tions
--tis
--to
--ton
--tor
--ts
--tsu
--ture
--tus
--ty
--tz
--u
--ual
--ub
--ue
--uel
--ug
--ugh
--ui
--uit
--ular
--ule
--ult
--um
--up
--ur
--ura
--ure
--ures
--uri
--us
--ut
--ux
--v
--va
--ve
--vi
--w
--wa
--way
--wn
--wood
--ws
--x
--y
--ya
--yo
--ys
--z
--za
--ze
--zer
--zo
--zz
--и
--я
