!
"
#
##0
##1
##10
##11
##12
##13
##14
##15
##16
##17
##18
##19
##2
##20
##21
##22
##23
##24
##25
##26
##27
##28
##29
##3
##30
##31
##32
##33
##34
##35
##36
##37
##38
##39
##4
##40
##41
##42
##43
##44
##45
##46
##47
##48
##49
##5
##50
##51
##52
##53
##54
##55
##56
##57
##58
##59
##6
##60
##61
##62
##63
##64
##65
##66
##67
##68
##69
##7
##70
##71
##72
##73
##74
##75
##76
##77
##78
##79
##8
##80
##81
##82
##83
##84
##85
##86
##87
##88
##89
##9
##90
##91
##92
##93
##94
##95
##96
##97
##98
##99
%
&
'
(
)
*
+
,
-
.
/
0
00
000
01
0103
02
03
04
05
06
07
08
09
1
10
100
1000
102
104
11
110
112
116
12
120
126
13
14
15
150
16
160
1684
17
1703
1750
18
180
1844
1864
1881
19
1913
1918
1920
1923
1931
1936
1938
1939
1947
1956
1958
1960
1967
1971
1973
1974
1976
1989
1990
1991
1992
1993
1994
1995
2
20
200
2000
2002
2003
2006
2007
2008
2009
2010
2011
2012
2013
2014
2015
2016
2017
2018
2019
2020
2021
2022
2023
21
22
220
23
24
245
25
250
27
28
29
296
3
30
300
31
32
33
340
35
36
37
38
4
40
400
4000
42
43
438
44
440
48
480
486
49
5
50
500
51
53
54
55
56
57
58
6
60
600
639
65
69
7
70
700
73
75
8
80
800
85
88
880
9
90
900
:
;
=
>
?
@
_
a
abkhaz
able
about
above
access
according
ace
achieved
across
action
active
activities
activity
add
added
adding
addition
admin
administrators
admins
advanced
ady
adygea
adyghe
affect
after
ahead
ahercog
alias
all
allows
alnashpiyash
along
already
also
alt
am
an
and
announcement
another
answer
any
anyone
apologize
appearance
arabic
aramaic
archive
are
area
aren
around
article
articles
as
asian
ask
asks
assigned
asu
at
audios
august
automatic
automatically
available
awareness
b
ba
back
backward
banner
based
basic
be
because
become
been
before
begin
begun
behalf
below
berlin
best
beta
better
between
bg
big
bigger
block
bosna
bosnia
bot
both
bots
bottom
bring
bugs
building
built
bulgaria
but
button
buttons
by
c
can
card
cards
case
categories
category
cee
center
central
centralnotice
challenge
change
changed
changes
changing
choose
citation
citations
cities
citoid
ckoerner
click
clicked
cn
collaboration
collapsed
colleagues
column
columns
com
combined
coming
command
comment
comments
commons
communicate
communication
communities
community
compact
concerns
connected
consultation
contact
content
contest
contributions
contributors
control
cot
could
create
created
creating
css
cultural
cup
current
currently
d
data
date
de
deadline
dear
december
default
delhi
delivery
deploy
deployed
described
design
designs
desktop
details
develop
developed
developers
development
device
devices
dialog
did
diff
different
diffs
direction
directly
discovery
discussion
display
displayed
do
documentation
does
doing
don
done
dropdown
du
due
during
dz
e
each
early
easier
easily
edit
editing
editor
editors
edits
education
elitre
email
en
enable
enabled
enabling
encourage
end
english
etc
even
event
every
everyone
examples
except
existing
experience
f
fa
far
fastest
feature
featured
features
feb
february
federation
feedback
feel
feels
feminism
few
fifa
file
find
finished
first
fixed
fixing
flag
flow
focus
focused
folk
folklore
follow
footnotes
for
form
formatting
forward
found
foundation
fountain
frameless
free
french
frhdkazan
friday
from
full
future
fuzzy
g
ga
galicia
gallery
general
georgian
get
getting
give
given
gje
global
globally
go
goal
golan
good
google
government
grfc
group
guide
guru
h
ha
had
happens
happy
has
have
hear
hebrew
hello
help
helped
helpful
here
heritage
herzegovina
hi
hidden
highlight
highlighted
highlighting
hindi
history
hospital
house
how
http
https
humbly
hungarian
i
icon
idea
ideas
if
ii
ilya
image
images
impact
implemented
important
imported
impression
improve
improved
improvements
improving
in
ina
includes
including
index
infobox
infoboxes
inform
information
informed
initial
input
insert
inside
instructions
interested
interlanguage
international
internet
into
invisible
invite
invited
involved
ip
iprage
is
isbn
isindebele
iso
israel
issue
issues
it
item
items
its
iv
j
jama
jan
january
jpeg
jpg
jukoff
june
k
ka
karlsbruecke
ke
kernewek
keyboard
kind
kk
know
ko
l
la
lacroix
landing
language
languages
last
late
later
lea
learn
learned
learning
leave
left
let
lets
li
like
likely
lingveno
link
links
lissabon
list
lists
ll
loading
local
located
long
longer
look
looking
loves
lu
m
ma
made
mailing
main
mainly
make
makes
making
many
map
mapframe
maplandia
maps
march
masjid
may
me
mediawiki
meetings
melayu
members
menu
message
meta
million
mobile
mode
modern
modes
modifying
monday
month
months
moon
more
most
move
moving
much
multi
multilingual
multiple
museum
must
mw
my
n
na
name
namespace
national
natural
navigation
ne
need
needs
new
newer
news
newsletter
next
ng
no
norway
not
notification
notify
november
now
o
objections
occitan
ochilov
october
of
off
offered
old
on
one
only
ooui
open
opened
opening
opt
option
options
or
org
organize
organized
organizing
other
others
our
out
overlay
own
oy
p
page
pages
paris
parliament
part
participate
participated
particularly
pencil
people
per
performance
phabricator
phase
photography
pinging
place
plans
please
policy
polski
popular
possible
post
posted
ppelberg
prag
preferences
preferred
prefsection
presentation
press
previously
priorities
prizes
proceed
process
product
program
project
projects
proposal
proposals
proposed
pt
public
publish
published
purpose
put
puzzle
px
q
question
questions
qunaitra
quneitra
r
re
read
readers
reading
ready
recent
recently
reference
references
refreshed
regards
region
regions
related
released
releases
remaining
remember
removal
remove
removed
reply
report
request
requests
research
rest
result
results
review
reviewing
right
rights
ring
ro
row
ru
runa
russia
russian
s
sa
same
sandbox
save
say
says
scientists
screens
screenshot
seamless
search
section
see
send
separate
september
service
session
set
settings
several
share
shift
shortcut
shortcuts
should
showing
shown
shows
sign
similar
simpler
since
single
siprage
site
small
smartphone
snc
so
some
someone
something
sometimes
soon
sorry
space
special
spread
spring
st
stage
standard
start
started
starting
state
status
stay
step
stewards
still
stories
story
structure
studied
study
su
submissions
submit
subscribe
subscription
successful
such
support
supported
supporting
sure
survey
svg
switch
switching
syntax
system
systems
t
tab
tables
tags
take
talk
tap
target
tarnovo
taskforce
teach
team
tech
technical
tell
template
templatedata
templates
templatestyles
test
tested
testing
text
th
thai
than
thank
thanks
that
the
their
them
then
there
these
they
things
think
thinking
this
those
thread
through
thumb
thumbnail
till
time
title
to
today
together
toggle
tool
toolbar
tools
top
tour
translate
translated
translating
translation
translations
translators
triage
try
tt
tu
turkish
turn
two
type
types
typing
u
under
understanding
university
up
upcoming
update
updated
updates
upright
urdu
url
us
use
used
useful
user
username
users
uses
using
utc
v
valuable
ve
veliko
version
versions
very
vi
via
videos
view
visem
visual
visualeditor
visualeditordid
vo
volunteer
volunteers
von
vote
w
want
wants
was
watch
watchlist
way
ways
we
web
website
week
weekly
welcome
well
were
west
what
whatamidoing
when
where
whether
which
who
why
wide
wien
wiki
wikidata
wikigap
wikimania
wikimedia
wikipedia
wikipedias
wikis
wikisource
wikitext
wikiversity
wikivoyages
will
willing
win
wishlist
with
wmde
wmf
women
word
work
workboard
worked
workflow
working
world
would
wp
wps
write
writing
written
www
x
xix
xv
xviii
xx
y
year
years
you
your
z
|
~
«
­
°
²
´
·
»
ø
ł
ŋ
ɕ
ɡ
ʃ
ʃa
ʒ
ʲ
ʷ
ʻ
ʼ
ː
̀
́
̂
̃
̄
̆
̇
̈
̊
̌
̓
̔
̣
̤
̧
̨
̭
͡
α
γ
ε
ς
а
абадзэ
абадзэбзэ
абадзэбзэхэр
абадзэхэр
абазэ
абазэбзэ
абазэхэр
абдзах
абдзахэ
абдзахэхэр
абдзэхабзэр
абдзэхэ
абдул
абдулла
абзах
абзэ
абзэхэр
абу
абы
абым
абыхэм
абэ
авторхэм
агу
агъ
агъак
агъуэ
агъэ
агъэк
агъэлъапӏэщтыгъэх
агъэм
агъэп
агъэпсыгъ
агъэр
агъэу
агъэфедэрэ
агъэфедэрэр
агъэх
агъэхэм
агъэхэп
агъэхэр
агъэхэу
адагъ
адамем
адамии
административ
администратора
администраторов
администраторы
адреи
адрэ
адрэхэр
адыг
адыга
адыгабзэ
адыгабзэк
адыгабзэм
адыгабзэхэр
адыгеем
адыгеи
адыгеим
адыгея
адыгъэ
адыгэ
адыгэбзэ
адыгэбзэк
адыгэбзэм
адыгэбзэр
адыгэбзэу
адыгэбзэхэмкӏэ
адыгэкъалэ
адыгэл
адыгэм
адыгэмэ
адыгэу
адыгэхэм
адыгэхэмрэ
адыгэхэр
адыгэхэри
адыгэш
адырэ
адэжь
ае
аеу
азербаи
азием
азиемрэ
азиз
азфагу
азыфагу
аи
ак
академием
акъыл
акъылрэ
акъылыр
албаниер
александр
алжир
али
алии
алъ
алъытэ
алъытэщтыгъэ
алъэ
алъэк
аль
алэжьы
алэжьыным
ам
амал
амалхэр
амалэу
америкэ
америкэм
амман
амур
ан
ана
анапэ
анахь
англие
англии
англыбзэ
англыбзэр
андреи
андырхъое
анкара
анэ
анэм
анэмык
ап
апхъаз
апхъазым
апшъэрэ
апэ
апэгъунэгъу
апэрэ
апэрэу
апэу
апэчыжьэп
ар
ара
араб
арабие
арабиер
арап
арапхэр
арапыбз
арапыбзэ
арапыбзэк
арапыбзэкӏэ
арапыбзэм
арапыбзэр
аращ
аргентинэ
аргентинэр
ари
армение
арти
архив
архитектурэр
ары
арыгъэ
арышъ
арэу
аскъэлаи
аскэр
аслъан
аслъэн
астана
ат
атет
атлант
атрашӏыхьэщтыгъэх
атхы
атӏыщти
ау
аублагъ
аустралие
аустрие
аустрием
аустриер
аущтэу
ауэ
афганистан
африкэ
африкэм
аффрикаты
афыпсып
афэдэу
ахахьэ
ахъщэ
ахъщэу
ахьмэд
ахьмэт
ахьэ
ахэлэжьэрэ
ахэм
ахэми
ахэмэ
ахэр
ахэри
ахэт
ахэтэу
ац
ачешбок
аш
ашз
аштагъ
ашхаруа
ашыш
ашэхэр
ащ
ащылэжьагъ
ащыпсэурэ
ащыпсэущтыгъэх
ащыщ
ащыщмэ
ащыщыгъ
ащыщых
ащыщэу
ащэпсэух
аэз
аӏо
б
багдад
баи
балканхэм
балтик
балъкъэр
балъкъэрыбзэ
бангладеш
баннерная
баннернои
бат
бахреи
бахъсэн
бгъанэ
бгы
бгыхэр
без
беи
беларуская
белгие
белиз
белоруссиер
бен
бенин
беслъэнеи
бжъэдыгъу
бжъэдыгъубзэ
бжъэдыгъубзэр
бжъэдыгъумэ
бжъэдыгъухэм
бжъэдыгъухэр
бжьымэхэр
бз
бзитӏу
бзылъфыгъэ
бзыу
бзэ
бзэкупым
бзэкъутамэм
бзэм
бзэми
бзэмкӏэ
бзэпс
бзэр
бзэунагъом
бзэхабзэ
бзэхэм
бзэхэр
бзэшъхьа
бзэшъхьаӏэр
бин
блокировок
блэгъожъ
блэк
богота
более
боливием
боливиер
болэтыкъопщым
босниерэ
боспор
боспорскэ
ботов
боу
бразилиа
бразилие
бразилием
бразилиер
братиславэ
британие
британием
британиешхо
британиешхом
британиешхомрэ
брунеи
брюссел
буквэу
буквэхэу
булгарие
булгариер
буркина
бутан
бухарест
бущнакъ
буэнос
была
былымхъуным
бырсэи
бырысырым
быслъымэн
быть
бэ
бэдзэогъу
бэк
бэлахьмэ
бэлахьэу
бэп
бэрэ
бэу
бюллетень
в
вам
вандализм
вандализмом
вас
ваш
ваша
венесуэлэ
венесуэлэр
венэ
весна
вики
викимарафоне
викимедиа
википедие
википедием
википедии
википедия
владимир
вопросах
время
все
всем
вы
выпуск
выпускники
выскажите
вьетнам
г
габон
газетым
газетыр
гаи
ганди
ганэ
гвинеи
географ
географие
географиер
германие
германиер
германыбзэ
герцеговинэрэ
гимн
года
году
голосование
голосую
гондурас
горы
горэ
горэм
горэхэри
готовым
грамматики
грек
грекхэм
грекхэр
греческэ
грузие
гу
гуадзэр
гуапэу
гуатемалэ
гуатемалэр
губзыгъэр
губзыгъэщ
гугъэ
гулъытыгъуэ
гум
гупсэхэу
гупчэу
гуры
гурыт
гухэлъэу
гущы
гущыӏэм
гуыщы
гъ
гъащ
гъащӏэ
гъогу
гъогурык
гъук
гъукӏэ
гъукӏэкӏапсэм
гъунэ
гъунэгъу
гъунэгъухэр
гъыры
гъэ
гъэбыдэнырщ
гъэжъо
гъэзет
гъэзетым
гъэзетэу
гъэм
гъэнэфагъэ
гъэнэфагъэхэр
гъэпсыгъэ
гъэпсык
гъэпщыл
гъэр
гъэсэныгъэм
гъэтхапэ
гъэш
гь
д
дагиров
далъагъу
далъхьэурэ
дамаск
дание
даниэль
данных
даурым
даутэ
дахэу
две
дд
де
деж
деи
делать
дер
дж
джаме
джамыер
джан
джарымэ
джащ
джибути
джии
джоуэ
джурд
джурт
джуртхэм
джуртхэр
джы
джыдэдэм
джын
джыри
джырыи
джырэ
джэгу
джэгуак
джэгуакӏо
джэгум
джэгур
джэудэт
дз
дзын
дзэ
дзэм
дзэн
дзэхэр
ди
диалектхэр
дин
динмэ
диным
диныр
дифтонг
дифтонгхэр
дифтонгэу
дифференциал
дло
для
дмитрии
дня
добавление
доктор
должен
должна
должны
драконов
дунаем
дунаемк
дунаемкӏэ
дунаи
дунаим
дунеи
дунэе
дыгъэ
дыдэ
дыдэт
дышъэ
дышъэхэр
дэ
дэгъоу
дэгъу
дэд
дэдэ
дэдэм
дэдэмэ
дэдэу
дэжь
дэжьым
дэк
дэс
дэсхэр
дэсыр
дэсых
дэт
дэтхэр
дэтых
дэтэу
дэхагъэ
дэхагъэхэр
дэхэк
е
его
егъаш
егъэпхыгъэ
егьап
еджагъэх
еджап
еджэх
еджэщтыгъэх
едзыгъор
едзыгъоу
ее
ежь
ежьхэм
ежьым
ез
езы
езыр
езырурэ
еи
ек
елъытыгъэу
емен
еменыр
емык
еокӏэ
еоным
еплъ
епхыгъ
епхыгъэу
ер
ермэлхэр
ермэлхэри
ермэлые
ескишехир
если
ет
етӏуанэ
еубыты
еуро
еуропэ
еуропэм
еуропэмрэ
ефэнды
ехъу
ехыжыху
ехьыл
ехьэ
ехьэл
ехьэх
еш
ешэным
ещхьу
ещхьщ
ж
жабзэм
жанеи
же
жираф
журналист
жъ
жъоныгъуакӏ
жъы
жъыдэдэмэ
жъь
жъэр
жыжьэ
жылэм
жып
жь
жьы
жьыр
жэбагъы
жэбзэ
з
за
загъорэ
зази
закъом
закъор
закъоу
закъу
закъуэкъым
замбие
замена
зао
заом
запрос
зау
заулэ
захуагъэм
захуагъэмрэ
захуэмрэ
заш
заявки
зве
згъэгумэк
здесь
зезыхьэ
зеикъуэ
зек
зи
зигугъу
зидунаи
зие
зихи
зиххэм
зиххэмрэ
зиххэр
зиӏэ
зраел
зраелым
зрения
зы
зыбжанэ
зыбжанэрэ
зыгорэ
зыгорэм
зыгъэуцугъэр
зызэхэзым
зык
зыми
зымэ
зырызхэр
зырызхэри
зыт
зытет
зыугъоищтыгъэ
зыфа
зыфи
зыхъожьыгъэ
зыхъугъэр
зыхъук
зыхэт
зыхэтыр
зыш
зыщ
зыщыпсэурэ
зыщыщ
зэ
зэгуры
зэгъунэгъу
зэгъусэу
зэгъусэхэу
зэдагъэцэк
зэдаштагъэхэр
зэджэ
зэдзэк
зэдэгущы
зэик
зэк
зэкъотыныгъэм
зэкӏэ
зэлъаш
зэман
зэманым
зэмл
зэп
зэпыщэхэр
зэра
зэрар
зэратхырэмрэ
зэрахуилэжьыныр
зэрахэтам
зэрзэфӏэтыр
зэрыжаӏэмкӏэ
зэрыщытам
зэрэгущаӏэхэрэр
зэрэк
зэрэщытым
зэрэщытэу
зэтек
зэу
зэфэдэу
зэфэшъхьафхэм
зэфэшъхьафхэр
зэхигъэуцогъэгъэ
зэхилъхьакъым
зэхуакум
зэхъок
зэхъум
зэхэлъхэм
зэхэт
зэхэтхэр
зэхэтыкӏэр
зэхэхьэхи
зэш
и
иапэрэшъхьэ
ивуар
игуадзэр
игугъу
игупчэ
игупчэу
игъо
игъунэгъу
игъунэгъух
игъунэгъухэр
игъусэу
игъэк
идежь
иджаме
иджы
иджыреи
иджыри
идэжь
ижъ
ижърэ
ижъыжь
ижъырэ
из
избранные
изменение
изменения
израел
израелым
ии
ик
икартым
икультурэ
икъалэхэм
икъежьап
икъо
икъоу
икъэлэ
икӏыхьагъэр
или
илъ
илъэпкъ
илъэс
илъэсхэм
илъэсхэр
илъэсым
илъэсымк
илъэсыр
илья
им
имени
иметь
империэм
ин
инал
инд
индие
индием
индиехэм
индо
индонезие
интериано
интернет
ину
информацию
информация
инхэм
инып
иныр
иных
инэк
инэпкъыхэм
инэу
инэшанэхэр
иордание
иорданием
иорданиер
ип
ипл
ипроектэу
ипшъэ
ипэ
ипэк
ипэм
ипэу
ирак
иракым
иран
ираныбзэ
ираным
ирилажьэ
ирландие
ирландием
ирэгущы
ис
ислъам
испание
испанием
испаниер
испаныбзэ
испаныбзэр
испун
исраил
исраилым
исраэл
исраэлым
истамбыл
истамбылым
истатьяу
источника
источников
исурэтхэр
исхьакъ
исхэр
исых
ит
италие
италиер
итальянскэ
итемыр
итмэ
итог
иту
итхьэу
итыгъэ
итымэ
итӏу
иуж
ифитыныгъэм
их
ихъишъэ
иц
ич
иш
ишъхърэ
ишъхъэрэ
ишъхъэрэмрэ
ищы
ищык
июным
ия
иӏ
иӏэ
иӏэр
к
кавказ
кавказа
кавказым
казахстан
казбек
каи
каир
как
кама
камам
камар
камбоджэ
камерун
кампании
кампания
камэм
канадэ
канадэм
кандидат
каракас
карл
карт
картым
катар
категории
категория
католик
кг
кеи
кение
кением
керченскэ
кечуабзэр
километрэ
китаи
китаимрэ
кито
класс
классым
км
кнопку
коблэ
когда
коллег
коллеги
коломбие
колониеу
коми
комиссием
компанием
конго
конкурсе
конкурсы
континент
коп
королыгъоу
королэу
костэ
кот
которые
коц
краи
краим
краимрэ
красногвардеи
краснодар
кронэ
кувеи
куеи
култур
културэ
културэм
културэмк
културэр
культурэм
культурэр
куп
купым
купыр
курджы
курдхэр
куэд
куэи
кфар
кчр
къ
къа
къабзэ
къагурымы
къагъэлъагъоу
къагъэлъагъуэрэ
къадогъуэгурыкӏуэ
къады
къак
къал
къалэ
къалэм
къалэмэ
къалэн
къалэныр
къалэр
къалэу
къалэхэм
къалэхэр
къалэхэу
къамбот
къамыл
къапсэлъ
къапсэлъыу
къапштэмэ
къарачаи
къари
къат
къатек
къаукъаз
къаукъазым
къаукъазышхуэм
къаукъас
къафэк
къахэк
къашъо
къбр
къегъэлъагъуэ
къегъэшъхьапэр
къедзыгъо
къедзыгъом
къедзыгъор
къедзыгъуиблмэ
къежьащ
къек
къелъытэ
къетхы
къехъу
къигупсысакъым
къик
къихьагъэр
къо
къоджэ
къои
къок
къокӏыпӏэ
къош
кърымымрэ
къу
къуадж
къуаджэ
къуаджэм
къуаджэр
къуаджэу
къуаджэхэм
къуаджэхэр
къуажэ
къуаншэмрэ
къудеи
къуекъо
къумбыл
къумбылым
къунетрэм
къунетрэр
къур
къутамэу
къутамэхэм
къушъхьэ
къушъхьэхэм
къуэджэ
къуэкӏыпӏэ
къуэкӏыпӏэмкӏэ
къуэхьэпӏэ
къчр
къы
къыблэ
къыд
къыдагъэк
къыдигъэк
къыдэ
къыдэк
къыз
къызбэч
къыздэсми
къыздэсым
къызеухым
къызтек
къызыдэк
къызэ
къызэра
къызэринэк
къык
къым
къырымыз
къытек
къытыгъ
къытырэ
къыухыгъ
къыхаутыгъэм
къыхахыгъагъ
къыхимынатэмэ
къыхиутынэу
къыхок
къыхэк
къыхэкӏыкӏау
къыщалъхуащ
къыщегъэлъагъуэ
къыщек
къыщыгъэлъэгъуагъ
къыщыдэк
къыщыппсэлък
къыщыфэфедэщтхэу
къыщыхъугъ
къэ
къэбэрдеи
къэбэрдеибзэм
къэбэртае
къэбэртаехэр
къэбэртаи
къэбэртэе
къэбэртэябзэ
къэбэртэябзэк
къэбэртэябзэр
къэгущы
къэзгъэлъэгъорэ
къэзэнокъуэ
къэзэнокъуэм
къэзэныкъуеи
къэк
къэлэ
къэлэшхомэ
къэлэшху
къэлэшъо
къэлэшъхьа
къэлэшъхьаӏ
къэплъан
къэпсэлъык
къэпсэлъын
къэрал
къэралмэ
къэралхэм
къэралыгъо
къэралыгъом
къэралыгъомэ
къэралыгъоу
къэралыгъу
къэралыгъуабзэхэр
къэралым
къэралыр
къэрмокъуэ
къэрэшеи
къэрэщае
къэрэщаи
къэрэщэе
къэс
къэсынтэкъым
къэтш
къэшъок
кыргызстан
кӏ
кӏалэр
кӏах
кӏахыбзэ
кӏахыбзэхэмкӏэ
кӏахэ
кӏыхь
кӏэ
кӏэи
кӏэмгуебзэ
кӏэмгуэи
кӏэмыгуи
кӏэмыгуябзэ
л
ла
лабэжъ
лагъэхэр
лаи
ланд
лаос
лапласым
латвие
латвиер
ли
либерие
ливан
ливие
ливием
лига
лима
линкхэр
линкыхэр
литератур
литературабзэм
литературэм
литературэр
литуание
литуаниер
лондон
лъ
лъабжьэр
лъагэу
лъапсэ
лъык
лъэ
лъэкъуац
лъэныкъо
лъэныкъок
лъэныкъом
лъэныкъомк
лъэпкъ
лъэпкъмэ
лъэпкъхэм
лъэпкъхэми
лъэпкъхэр
лъэпкъым
лъэпкъымрэ
лъэпкъыр
лъэпкъэу
лъэрыгъ
лъэс
лъэужьышхуэ
лъэхъан
лъэхъаным
лъэхъэнэм
лъэш
лъэшэу
лэ
лэжьак
лэжьыгъэ
любому
любым
лӏагъэм
лӏакъом
лӏышъхь
лӏышъхьэр
лӏэхэрэм
лӏэшӏэгъум
м
мазэ
маи
маим
мак
македониер
максим
макъ
макъщ
макъым
макъыр
макъэ
макъэхэр
малаи
малаибзэ
мали
малкъар
малых
мамыи
ман
марии
марокко
марта
мары
мастера
мауритание
мафэ
мафэм
махатма
маш
мая
медведев
мексикэ
менее
меот
меотхэм
меотхэмрэ
меотхэр
месяц
мета
метрэ
ми
мин
министр
минрэ
мир
мишел
мк
млн
мнение
могут
может
можно
мозамбик
молдавиер
монголие
москва
мохандас
мрэ
музеи
музэеи
мурат
мухьэмэд
мы
мыбы
мыдхьэт
мыекъуапэ
мыкъуаншэ
мымысэ
мыр
мырэущтэу
мысыр
мысырым
мыхьэнэ
мыхэр
мыш
мышъэ
мыщ
мьянмэ
мэ
мэгущаӏэ
мэгущы
мэз
мэзаи
мэзкуурэ
мэзкъатыхъу
мэзым
мэкъамэ
мэкъуогъу
мэкъэзещэ
мэкӏоды
мэлылъфэгъу
мэрэтыкъо
мэрэтыкъохэр
мэтэ
мэфэ
мэхъу
мэхъух
мэхъуы
мэхьанэ
мэхьанэшхо
мэщбэш
мэщыт
н
на
наго
нажмите
наи
налбыи
налмэс
налшык
нальчикы
народов
народым
нарт
нартхэр
наставники
натхъо
научнэ
нахь
нахьыбэ
нахьыбэмк
нахьыбэмкӏэ
нахьыбэр
нахьыбэу
нахьыжъэу
нахьыш
нахьь
наш
не
недели
неделю
неи
некоторые
непал
непэ
непэрэ
нет
нибудь
нигер
нигерие
никарагуа
них
нных
но
нобэ
нобэр
новичка
новичок
норвегие
норвегиер
носыр
ноября
нужно
нумерымк
нурии
ны
ныбжь
ныбжьык
ныгъэхэр
ныкъом
нып
ныпым
ныпыр
нэ
нэбгырэ
нэблэгъауэ
нэгумэ
нэгумэм
нэгумэр
нэгъои
нэгъуэщ
нэк
нэмы
нэмык
нэмыкӏ
нэмыкӏэу
нэмыщ
нэплъыс
нэпсэу
нэпэ
нэпэмык
нэрэ
нэс
нэсри
нэсы
нэсэ
нэужым
нэф
нэфыр
нэхъ
нэхъыбэм
нэхъышъхьэ
нэхь
нэхьыбэр
о
об
обнаружения
обсуждения
обществэм
объект
объявления
обычно
огъагъ
огъу
огъум
огъэшхо
оджэ
ожьы
оигъор
ок
океан
океанипл
океаным
океанымрэ
окончено
ол
ом
оман
омар
оми
омэ
он
она
они
онхэр
оным
онэрэ
онэрэу
оп
определе
опытныи
ор
оркъ
орфографием
орфографиер
орфографическэ
орэ
орэд
орэдус
орэды
орэдыӏу
орэм
орэмк
орэмрэ
орэр
осмэн
особенно
от
отношении
отыгъэмэ
оу
оф
официал
офхэр
офш
офым
офыр
офыш
офэу
охътэ
охьэ
охэм
охэр
охэри
охэрэм
охэу
оц
оч
очэпщыи
ош
ошъогу
ошъутен
ощтгъэ
ощтгъэхэр
ощтыгъэ
ощтыгъэх
п
па
пае
паи
пакистан
палестинэр
панамэ
пантикалеи
папщ
параграф
парагуаи
париж
парламент
пасэм
пачъыхьыгъом
пачъыхьыгъоу
пачъыхьэу
пе
пекин
перс
персыбзэ
перу
перум
песочницу
петербург
петербургы
писать
пишите
пкъым
пкъыр
пл
плъыжь
плъытэн
плъэк
плъэкӏыщт
по
поводу
под
подам
пожалуи
показ
полезныи
политика
политикэмк
политических
полностью
полшэ
полшэм
полшэр
португалием
португалиер
после
последнии
поэтому
права
правила
править
правки
правок
предмет
представителеи
президент
президентым
президентэу
при
примеры
присвоение
приставкэр
про
проект
проекта
проектах
проекте
проектит
проектмэ
проектым
проектыр
проектэу
просто
псалъэ
псалъэжьхэм
псалъэк
псалъэм
псалъэхэм
псеашхо
псори
пстэум
пстэумэ
пстэур
пстэури
псы
псыдахьэм
псыдахьэмрэ
псыдэк
псыжъ
псым
псымэхэм
псынкіэу
псыхъо
псыхъом
псыхъор
псыхъоу
псыхъу
псэугъэ
псэук
псэуп
псэушъхьэ
псэушъхьэхэмэ
псэушъхьэхэр
птхынри
путин
пхъэ
пхъэшъхьэ
пцэжъые
пчъагъэ
пчъагъэк
пчъагъэм
пчъагъэр
пчъагъэхэм
пчэжъые
пш
пшъашъэр
пшъэм
пшъэшъэ
пшызэ
пшыкъан
пщ
пщы
пщыгъуэхэм
пщыжъ
пщынэ
пщышхуэхэм
пщэ
пщэу
пыи
пыир
пыл
пылъ
пылъыгъэх
пылъых
пылым
пытап
пытэ
пытэу
пычыгъо
пычыгъуэхэм
пычыгъуэхэр
пэ
пэблагъэ
пэблагъэу
пэгъунэгъух
пэж
пэмыкӏ
пэмыкӏэу
пэпчъ
пэчыжьэп
пэштыхьеи
підліснюк
р
работу
рагъо
разделов
раи
ралъхьэщтыгъэх
рашид
раіо
регионыбзэ
регионыбзэхэр
регистрация
редакторым
результатам
рес
республик
республика
республикэ
республикэм
республикэр
республикэу
ри
рикэ
рио
рихь
рихьаныем
рихьаныер
ро
ромэ
россии
румание
руманиер
руслъан
русскии
рыгущы
рэ
рэгуща
рэгущы
рэм
рэр
рэу
с
сабах
сабыи
саи
саид
салвадор
сами
сан
санкт
сантьяго
сарматхэм
сарматхэр
саталаи
сатияграха
сауд
саха
светлан
свое
свою
сделать
сенегал
сентябрь
сербие
сербиер
си
сингапур
синдикэм
синдикэр
синдхэм
синдхэр
сиракхэр
сирие
сирием
сириер
скии
ских
скобкэмэ
ского
скои
ском
скэ
словакиер
словениер
сложности
служебные
см
соблюдения
совет
содержания
создать
сомали
социал
социалистическэ
союзым
спасибо
список
спорт
спутникымк
ста
ставропол
статеи
статус
статуса
статьи
статью
статья
страниц
странице
страницу
страницы
стіашъу
судан
сукре
сурэт
сурэтхэр
сурэтыш
сш
сыгу
сыд
сыда
сыдигъуи
сымэ
сыхэт
сэ
сэмэгурабгъум
сэнашъхьэ
сэр
сэри
сэрэу
сэтхэ
сюлеи
т
та
таджикистан
таи
так
также
такои
там
тамыгъэ
тан
танзание
тапанта
тарихъ
тарихъым
тарихъыр
татархэм
те
тегущы
тек
текст
текста
тексте
тем
тембот
темрез
темыр
теорие
теплъэ
тет
тетхэр
тетхэу
тетым
тетыху
тетэп
тетэу
теухуа
теухуауэ
теуцожь
тефэу
техьэпӏэхэр
теш
ти
тил
тилъэхъан
тинаучнэ
типы
тиэрэ
то
тов
тогда
того
токио
только
том
тохъуэ
точки
тральнои
требует
тся
тунис
туркменистан
тут
тхак
тхакӏо
тхакӏохэр
тхакӏэр
тхыбзэр
тхыгъэ
тхыгъэк
тхыгъэу
тхыгъэхэм
тхыдэ
тхыдэм
тхыдэр
тхылъ
тхылъхэм
тхылъхэр
тхылъыбзэ
тхылъыбзэм
тхылъыбзэр
тхылъым
тхылъэу
тхын
тхьак
тхьамат
тхьаматэр
тхьаматэу
тхьамык
тхьэ
тхьэлъэӏухэр
тхьэмадэ
тхьэматэр
тхьэухъо
тхэк
тхэн
тхэпкъ
тхэпкъхэм
тхэпкъым
ты
тыва
тыгъэкъок
тыгъэкъокӏыпӏэ
тыгъэкъохьап
тыгъэкъохьэп
тыгъэм
тыгъэр
тыгьэ
тыжьын
тыкъызтегущы
тым
тыр
тырамытэгъожьызэ
тырку
тыркубзэ
тыркубзэкӏэ
тыркубзэр
тыркуе
тыркуем
тыркуер
тыркум
тыркухэм
тыркухэр
тэ
тэрэзэп
тэрэзэу
тэхъутэмыкъое
тэхъутэмыкъуаи
тюрк
у
уа
уагъ
уагъэ
уагъэк
уагъэм
уагъэр
уагъэх
уак
уал
уанэ
уасэ
уатэ
уахътыншэ
уахътэ
уахътэм
уахътэу
уахыгъ
уащ
убгъом
убгъу
убыхыбзэ
убыхыбзэр
уважаемые
уважением
уведомления
удаление
удмурт
уе
уже
ужым
уз
узбекистан
узэдэгущы
узэк
уи
ук
украинэ
украинэр
улъ
ум
умар
уми
унагъо
унашъо
унашъок
унашъоу
университетым
унитар
унэ
унэгъо
унэхэр
ур
урым
урымхэр
урымые
урымыер
урыс
урысеи
урысмэ
урысхэр
урысыбзэ
урысыбзэк
урысыбзэкӏэ
урысыбзэм
урысыбзэми
урысыбзэмрэ
урысыбзэр
урысые
урысыем
урысыер
урэ
усак
условии
усэк
ут
утыкум
утӏыӏугъэу
ухэр
уц
уцым
участие
участник
участника
участники
участников
участником
уш
ушъо
ушъом
ушъомэ
ущ
ущрохьэл
ущрохьэлӏэ
ущынэ
уы
уынэ
уэ
уэк
уэлии
уэм
уэры
уэсмэн
уэу
уэху
уэхур
уэхущ
ф
фа
фабэ
фагъазэщтыгъэ
фае
фаер
фаеу
фаи
фальсификация
фасо
фаусыгъ
фаш
федерал
федерацием
физик
физикэм
финланд
финландыр
фиш
фонда
форум
франц
францие
францием
франциер
францыбзэ
фыщт
фэ
фэд
фэдз
фэдиз
фэдис
фэду
фэдэ
фэдэрэбзи
фэдэу
фэзыш
фэкъулаигъэх
фэш
фэшӏ
фӏыщӏэ
х
хабз
хабзэ
хабзэм
хабзэмрэ
хабзэхэм
хабзэхэр
хагъэк
хагъэунэфык
хадзыгъ
халифа
хамэбзэ
хасэ
хасэм
хасэхэм
хахьэ
хахьэу
хахьэщтыгъэ
хаш
хеи
хеящ
хеящӏэ
хи
хорватиер
хотя
хуан
хуащ
хуеи
хунгарие
хунгариер
хуэдз
хуэдэу
хъок
хъуауэ
хъуащ
хъугъэ
хъугъэу
хъугъэх
хъужьыгъэу
хъумэ
хъун
хъунтэкъым
хъунущ
хъуным
хъунэу
хъурэр
хъусен
хъут
хъухэу
хъущт
хъущтыгъ
хъущтыгъэх
хъуын
хъыбархэм
хъыбархэмрэ
хъыбархэр
хъыбархэри
хъымыщэи
хъырцые
хъэзэл
хы
хым
хымк
хымэ
хыплъыжь
хыплъыжьымрэ
хышхо
хьазрэт
хьак
хьакурынэхьабл
хьакъу
хьалыгъур
хьап
хьарыф
хьарыфмэ
хьатх
хьатыяк
хьисап
хьисапым
хьэ
хьэблэ
хьэгъур
хьэдищ
хьэмид
хьэрып
хьэрыф
хьэтыкъуаи
хьэхъу
хэ
хэбзэ
хэгъэгу
хэгъэгум
хэгъэгухэр
хэгэгум
хэзэрыхьыжауэ
хэк
хэку
хэкужъым
хэкум
хэкумрэ
хэкур
хэлъ
хэлъыр
хэм
хэми
хэмрэ
хэмэ
хэр
хэри
хэрэм
хэт
хэти
хэткъым
хэту
хэтхэм
хэтхэр
хэтым
хэтэу
хэу
хэхьанэу
хэхьэрэ
хэш
ц
царие
цу
цушъхьэ
цыф
цыфым
цэи
ціыф
цӏ
цӏыкӏу
цӏыф
цӏыфхэр
цӏыфыр
цӏыфыхэр
цӏыфэу
цӏыху
цӏэкӏэ
цӏэр
цӏэри
цӏэрыӏуэ
ч
чад
чанаккалэ
чемпион
черкес
черкесск
черногориер
чехиер
чили
что
чтобы
чъ
чъу
чъыг
чъэпыогъу
чыл
чылэ
чылэм
чылэмэ
чылэр
чылэу
чылэхэм
чыристан
чэмы
чэнджэщэгъуу
чэтыу
чэчэнаи
чіыгугъушъэм
чӏ
чӏалъхьэщтыгъэ
чӏыгулэжьыным
чӏыгур
чӏыпӏэм
чӏырэу
ш
шаблон
шаблоны
шаг
шам
шапсыгъ
шапсыгъабзэк
шапсыгъэ
шапсыгъэбзэ
шапсыгъэбзэмкӏэ
шапсыгъэмэ
шапсыгъэх
шапсыгъэхэм
шапсыгъэхэр
шапхъэ
шапхъэу
шапхъэхэм
шапхъэхэр
швеи
швецие
швецием
швециемрэ
швециер
шипящие
шорэ
шорэм
штат
шъабэм
шъаокъом
шъибгъурэ
шъолъыр
шъом
шъузышъхьэр
шъхьа
шъхьак
шъхьатетыр
шъхьафит
шъхьафитэу
шъхьафхэу
шъхьафэу
шъхьашъэ
шъхьаӏэр
шъхьэ
шъхьэкӏэ
шъхьэлэхъо
шъыпкъэу
шъэ
шъэджашъ
шъэумэн
шъэфымрэ
шы
шыкъухэр
шыкӏэпщынэ
шыкӏэпщынэм
шыкӏэпщынэр
шым
шыхэр
шышъхьэӏу
шэк
шэкӏогъу
шэн
шэпхъэ
шэрджэс
шэрджэсми
шэрджэсым
шэуджэн
шӏу
шӏуцӏэ
шӏуцӏэм
шӏыкӏэхэр
шӏыпӏэм
шӏыпӏэр
шӏыцӏэм
шӏэныгъэлэжь
щ
щаш
щегъэжьагъэу
щищым
щиӏэщ
щтыгъэ
щхьэк
щы
щыгъунэжщ
щыгъуэ
щыгъынхэр
щызэ
щызэлъаш
щык
щыкӏэдзауэ
щылэ
щылэжьагъ
щымы
щымыхъукӏэ
щынагъо
щып
щыпсэурэ
щыпсэух
щыпсэухэрэм
щыпсэухэрэр
щыпсэущтыгъэх
щысэхэр
щыт
щыта
щытащ
щытхэр
щытыгъ
щытыгъэ
щытыгъэп
щытыгъэх
щытык
щытых
щытэп
щытэу
щыхагъэунэфык
щыхьэт
щыщ
щыщу
щыщэу
щыӏэ
щэ
щэгуша
щэк
щэпсэу
щэпсэух
щэрджэс
щэрып
щӏ
щӏащымыгъупщэн
щӏэблэм
щӏэхъуар
ы
ыгоу
ыгу
ыгук
ыгулэжьыным
ыгум
ыгур
ыгухэм
ыгъ
ыгъагъ
ыгъэ
ыгъэмэ
ыгъэпсыгъ
ыгъэр
ыгъэу
ыгъэх
ыгъэхэр
ыгъэхэу
ыгь
ыджы
ыжьы
ызэ
ык
ыку
ыкум
ыкъор
ыкъутам
ыкъыблэ
ыкӏи
ыл
ылъапсэ
ылъэк
ым
ымакъэрэ
ымэ
ын
ыну
ынэу
ып
ыпкъ
ыпшъэк
ыпэк
ыпэкӏэ
ыр
ырэ
ырэм
ырэп
ырэр
ырэу
ысхьагъэх
ысыгъ
ысэгъ
ытхыгъ
ытыгъэкъок
ыу
ыуж
ыужрэ
ыф
ыфмэ
ыфхэм
ыфхэр
ыфым
ыфэу
ых
ыху
ыхъужъ
ыхь
ыхьэу
ыц
ыцӏэр
ыч
ыш
ышъо
ышъхь
ышъхьэ
ышъхьэр
ышъхьэу
ыщ
ыщт
ыщтыгъэ
ыщтыгъэр
ыщтыгъэх
ыщтэп
ь
э
эбзэ
эблэм
эбэжьмэ
эгъ
эгъон
эгъоныр
эгъу
эгъум
эгъухэм
эгъэ
эзагъэх
эзэн
эи
эк
экономикэ
экономикэмк
экономикэр
экуадор
экъуас
экъуац
элъык
элыфбеи
элэ
элэц
эм
эмал
эми
эмират
эмк
эмрэ
эмэ
эн
энапэ
энат
эныгъэ
эныгъэлэжь
эныгъэлэжьмэ
эныгъэм
эныгъэмк
эныгъэхэмк
эным
эныр
энэрэ
энэу
эп
эпэ
эр
эри
эритреи
эры
эрып
эрэ
эрэм
эрэмэ
эрэп
эрэр
эрэщэ
эс
эстоние
эстонием
эт
это
этого
этои
этом
эту
эу
эужьыгъэ
эуи
эух
эухым
эфиопие
эфиопием
эх
эхэ
эхэм
эхэр
эхэри
эхэрэм
эхэрэр
эхэу
эц
эш
эшхьэмэфэ
эщ
эщтыгъэ
эщтыгъэх
ю
юныс
юртэри
юрэ
юсыф
я
яавторхэм
ябз
являются
ягугъу
ягъунэгъу
ягъэт
яджэх
язык
языка
языках
языке
языки
языков
яи
як
яковлевымрэ
ял
ямакъэхэр
ямызакъоу
яныдэлъфыбз
янэхь
япл
японие
японием
япчъагъэ
япчъагъэк
япэ
япэм
япэреи
япэрэ
яс
ят
ятарихъ
ятӏонэрэ
ятӏэр
яуж
яужкӏэ
яунэхэр
яхьыл
ячӏыгужъ
ячӏыгужърэ
яш
яшапхъэхэр
ящыгъынхэр
ящыщ
ящыщщ
яӏахьыл
і
ӏ
ӏамэпсымэхэм
ӏашэхэр
ӏофыр
ӏушъом
ӏуэрыӏуатэ
ӏуэрыӏуатэм
ӏуэху
ӏэнатӏэ
ӏэнатӏэгъу
ӏэнатӏэм
ӏэнатӏэр
ӏэшэ
ִ
ا
اوزبیکچه
س
شاہ
مکھی
ه
و
ي
َ
ُ
ِ
ٓ
ٔ
ހ
ވ
ދ
ި
ެ
ँ
ं
अ
क
ग
ज
ट
ठ
ड
त
थ
द
ध
न
प
फ
ब
भ
म
र
ल
ळ
ष
स
ह
़
ा
ि
ी
ु
ृ
े
ै
ो
्
ং
ঠ
ণ
প
ব
য
র
ল
ষ
়
া
ি
ী
ু
্
ਖ
ਗ
ਜ
ਪ
ਬ
ਾ
ੀ
ੁ
ੰ
ગ
ત
ા
ી
ુ
ଆ
଼
ି
ழ
ி
்
గ
త
ల
ు
ె
ತ
ಳ
ು
್
ം
ള
ാ
ං
ස
ි
་
ཁ
ག
ང
ད
བ
ཡ
ར
ི
ོ
ྫ
က
င
တ
န
ဘ
မ
ယ
သ
ါ
ာ
ေ
း
္
်
ြ
ွ
ၢ
ၵ
ႂ
ႆ
ᜈ
ᜊᜌ
ᜒ
᜔
ខ
ភ
ម
រ
ស
ា
ែ
្
ᨁ
ᨕ
ᨗ
ᨙ
ᬶ
ᮓ
ᮔ
ᮞ
ᮥ
᮪
‍
‎
–
—
―
‘
’
“
”
„
•
…
″
‹
›
↓
↔
↘
↷
≤
③
④
⑦
☉
⟨
⟩
ⰲ
ⰽ
ⰾ
ⱀ
ⱁ
ⱄ
ⱏ
ⱐ
ⱑ
ⴰ
ⵉ
ⵎ
ⵖ
ⵜ
ⵣ
⺀
⺄
⺆
⺈
⺊
⺌
⺕
⺝
⺸
⺼
⿰
⿱
⿲
⿳
⿴
⿵
⿶
⿷
⿸
⿹
⿺
⿻
〢
か
ら
゙
カ
コ
シ
ユ
ョ
ン
ー
㇁
㇂
㇄
㇇
㇈
㇉
㇓
㐁
㐄
㐅
㐌
㐫
㐬
㐭
㐮
㐱
㑒
㒵
㒸
㒼
㓁
㓞
㔾
㕛
㕣
㖾
㘝
㚅
㚇
㚔
㚘
㝉
㝡
㝴
㝵
㞋
㞢
㞷
㠩
㠭
㠯
㡀
㡭
㡿
㢲
㢴
㣇
㣺
㥯
㪅
㫄
㫐
㫒
㫺
㬅
㬎
㬥
㬰
㲋
㳄
㷠
㸒
㸚
㸦
㼌
㼲
㽞
㿟
䀠
䂞
䍃
䏍
䒑
䖍
䖒
䖝
䖵
䙴
䚻
䜌
䝿
䡛
䧹
䪞
一
丁
丂
七
丄
丅
丆
万
丈
三
上
下
丌
不
与
丏
丐
丑
专
且
丕
世
丘
丙
业
东
丞
丢
丣
两
严
並
丨
丩
个
丫
丬
中
丮
丰
丱
串
丵
丶
丷
丸
丹
为
主
丽
丿
乀
乂
乃
久
乆
乇
么
义
之
乌
乍
乎
乏
乐
乑
乔
乖
乗
乘
乙
乚
乛
乜
九
乞
也
习
乡
乳
乾
亀
亅
了
亇
予
争
事
二
亍
于
亏
亐
云
互
亓
五
井
亘
亚
亜
亞
亟
亠
亡
亢
交
亥
亦
产
亨
亩
享
京
亭
亮
亯
亰
亲
亳
亶
亷
人
亻
亼
亾
仁
今
介
仌
从
仐
仑
仒
仓
仕
他
付
仝
代
令
以
任
企
伊
伏
伐
休
会
伯
但
位
何
佘
余
作
佥
使
來
侈
侌
侖
侯
侵
便
保
俞
信
修
倉
倍
候
倠
備
僉
僕
僮
儿
兀
允
兂
元
兄
充
兆
兇
先
光
兊
克
兌
免
兑
兒
兓
兔
党
兜
兟
入
全
兩
兪
八
公
六
兮
兰
共
关
兵
其
具
典
兹
兼
冀
冂
冃
冄
内
冈
冉
冊
冋
册
再
冎
冏
冐
冒
冓
冖
冗
冘
军
农
冝
冡
冥
冫
冬
冷
几
凡
凢
凵
凶
凷
凸
凹
出
函
凾
刀
刁
刂
刃
刄
刅
分
切
刍
刑
刕
刖
列
刘
则
初
別
利
别
到
制
刺
則
削
剌
前
剡
剽
劉
力
功
加
劦
助
劫
劳
劵
勃
勇
勉
勒
動
務
勞
勤
勹
勺
勻
勾
勿
匀
匂
包
匆
匈
匊
匋
匍
匕
化
北
匚
匝
匡
匪
匱
匸
匹
区
医
匽
匿
區
十
卂
千
卄
卅
卆
升
午
卉
半
卌
华
卑
卒
卓
单
卖
南
卜
卝
卞
占
卡
卢
卣
卤
卦
卩
卪
卬
卯
印
危
即
却
卵
卷
卸
卻
厂
厃
厄
历
厈
厉
厌
厓
厘
厚
原
厤
厥
厨
厭
厲
厶
厷
厸
去
厼
厽
叀
参
參
叅
又
叉
及
友
双
反
叐
发
叒
叔
叕
取
受
叚
叜
叟
口
古
句
另
叩
只
召
可
台
叱
史
右
叵
号
司
叹
吂
各
吅
合
吉
吊
吋
同
名
后
吏
向
吕
君
吝
吞
否
含
启
吳
吴
吹
吾
呂
呆
呈
告
员
呙
周
命
咅
和
咎
咠
咢
咨
咸
咼
哀
品
哉
員
哥
哲
唐
商
啇
問
啚
啬
啻
善
喜
喬
單
喿
嗇
噩
嚴
囊
囗
囘
囙
囚
四
回
囟
因
囧
囬
困
囱
囷
固
国
圂
圅
國
圍
圓
土
圡
圣
圥
在
圭
地
圶
圼
坐
坒
坚
坴
垂
垔
垚
埀
埋
埶
執
基
堂
堅
堆
堇
堯
塞
墨
壘
士
壬
壯
声
壳
壴
壹
壺
壽
夂
处
夅
夆
备
夊
夋
夌
复
夏
夒
夕
外
夗
夘
多
夜
夢
大
夨
天
太
夫
夬
夭
央
失
夲
头
夷
夸
夹
夻
夾
奂
奄
奇
奈
奉
奎
奏
奐
契
奓
奔
奚
奞
奠
奢
奥
奭
女
奴
奻
好
如
妄
妙
妟
妥
妻
妾
姑
委
姜
威
娄
婁
婴
嬰
嬴
子
孑
孔
孕
孖
字
存
孚
孛
孝
孟
季
孤
学
孫
孱
學
宀
宁
宂
它
宅
宇
守
安
宋
完
宏
宓
宗
官
定
宛
宜
宝
客
宣
室
宮
宰
害
家
容
宾
宿
寄
寅
密
富
寒
察
寧
審
寫
寬
寮
寸
对
寺
寻
寽
対
寿
封
尃
射
将
將
專
尉
尊
尋
尌
對
小
少
尒
尓
尔
尖
尗
尚
尞
尢
尣
尤
尧
尨
尭
就
尸
尹
尺
尻
尼
尽
尾
尿
局
居
屈
屋
屎
屏
屑
展
屖
屚
属
屠
屡
屬
屮
屯
屰
山
屵
屾
岁
岂
岑
岡
岩
岳
岸
峯
島
崇
崑
崔
崖
崙
崩
嵬
嶲
巂
巛
川
州
巟
巠
巢
巤
工
左
巧
巨
巩
巫
差
己
已
巳
巴
巷
巸
巽
巾
巿
帀
市
布
希
帚
帛
帝
带
師
席
帶
常
干
平
年
幵
并
幷
幸
幺
幻
幼
幽
幾
广
広
庄
床
底
店
庚
府
度
庫
庭
庶
康
庸
廉
廌
廛
廣
廩
廴
延
廷
建
廾
廿
开
弁
弃
弄
弇
弋
式
弓
弔
引
弗
弘
弜
弟
弥
弦
弱
張
強
强
彊
彌
彎
彐
彑
当
彔
录
彖
彗
彡
形
彥
彦
彧
彭
彳
役
彼
往
待
律
徒
得
徙
從
復
微
徵
心
忄
必
忌
忍
志
忝
忠
忩
快
念
忽
忿
思
怠
急
怱
恆
恒
恩
恭
息
悉
患
悤
悲
悶
惠
惡
惢
愁
愈
意
愛
感
慈
慧
慮
憂
憲
應
戀
戈
戉
戊
戋
戌
戍
戎
成
我
戒
戔
或
戚
戠
戢
截
戲
戶
户
戹
戼
戾
房
所
扁
扇
手
扌
才
打
托
执
承
折
拉
拜
拿
掌
推
提
摩
撒
支
攴
攵
收
攸
改
放
政
敄
敏
敕
敖
敗
敝
敞
敢
散
敦
敫
敬
数
敷
數
斂
文
斉
斊
斗
斤
斥
斩
斬
斯
新
方
於
施
斿
旁
旋
族
无
旡
既
旣
日
旦
旧
旨
早
旬
旱
旲
时
旾
昆
昇
昌
昍
明
昏
易
昔
昗
昜
星
春
昬
是
昱
昴
昷
時
晃
晋
晏
普
景
晶
智
暑
暴
曇
曩
曰
曲
曳
更
曷
書
曹
曼
曾
替
最
朁
會
月
有
朋
服
朔
朕
朗
望
朝
木
朩
未
末
本
札
朮
术
朱
朵
朶
朿
杀
杏
杜
束
条
来
東
杲
杳
松
析
林
枚
果
枝
枲
枼
某
柔
查
柬
柰
柴
栗
桀
桑
桼
梁
條
梟
梨
棘
棠
棥
森
楚
業
楽
榮
樂
樊
欠
次
欣
欮
欲
欶
欽
款
歆
歇
歛
止
正
此
步
武
歨
歪
歮
歯
歰
歲
歴
歷
歸
歹
歺
死
殳
段
殷
殸
殹
殺
殻
殿
毋
毌
母
每
毒
比
毕
毚
毛
毳
氏
氐
民
气
氣
水
氵
氶
氷
永
氺
氾
求
汝
汞
江
沃
沓
沙
沝
泉
法
波
泣
泥
泰
洛
洪
活
派
流
浦
浪
浮
淡
淮
清
渚
渠
湯
滿
漸
火
灬
灭
灰
灵
灷
炅
炎
炏
炗
炙
炭
為
烈
烏
烝
焉
無
焦
焱
然
煞
熊
熏
燕
營
燮
爪
爫
爭
爯
爰
爱
爲
爵
父
爻
爽
爾
爿
片
牙
牚
牛
牜
牟
牢
牧
牪
牽
犀
犬
犭
犮
狂
狄
狊
独
狺
猋
猒
猪
献
獻
玄
率
玉
王
玟
玨
珎
班
琴
瑟
瑩
瓜
瓦
甘
甚
生
産
用
甫
甬
田
由
甲
申
电
甶
男
甸
甹
画
甾
畀
界
畏
畐
留
畜
畟
畢
畧
畨
番
畫
異
畱
當
畺
畾
疊
疋
疌
疑
疒
疾
癶
癸
癹
登
發
白
百
皀
皃
的
皆
皇
皋
皐
皕
皮
皷
皿
盃
盆
盇
盈
益
盍
盎
监
盒
盖
盛
盡
監
盤
盧
目
直
相
盾
省
眇
眉
看
眔
眞
真
眷
眼
眾
着
睘
睪
睿
瞏
瞢
瞿
矍
矛
矞
矢
矣
知
矦
短
石
破
碎
磊
磨
示
礻
礼
祟
票
祭
禀
禁
禸
禹
禺
离
禽
禾
禿
秀
秃
秉
秋
科
秝
秦
移
稟
穀
穌
穴
究
穹
空
穿
突
窄
窒
立
竒
竜
竝
竟
章
童
竹
笑
笠
筆
等
答
箕
算
箴
節
篤
篭
米
粉
粛
粟
粤
粦
粲
粵
糞
糸
糹
系
約
納
素
索
紫
累
細
絜
絫
絲
維
綿
縣
繇
纍
纟
缶
网
罒
罔
罕
罗
罙
罡
罢
罪
署
罷
羅
羊
羌
羍
美
羔
羕
羗
羞
羡
羣
群
義
羲
羸
羽
翁
翏
習
翕
翟
翠
翼
老
耂
考
者
耆
而
耎
耑
耒
耳
耴
耶
耷
聂
聊
聖
聚
聶
聿
肀
肃
肅
肉
肖
肙
肥
肩
肯
育
肴
胃
背
胡
胥
能
脊
脩
膚
臣
臤
臧
自
臬
臭
臯
臱
至
致
臺
臼
臽
臾
臿
舀
舂
舄
與
興
舉
舌
舍
舛
舜
舞
舟
般
艮
良
色
艸
艹
艾
芒
芔
芬
芮
花
芳
芺
芻
苔
苗
苟
若
苦
英
茶
茸
荅
草
荒
荣
荼
莆
莧
莫
莱
莽
菆
菊
菐
華
萬
落
葉
著
葛
董
葵
蒙
蒦
蒼
蓋
蓬
蓺
蔑
蔡
蕉
蕭
薄
薛
薦
薰
藍
藏
藥
蘭
虍
虎
虐
虒
虔
處
虖
虗
虘
虚
虛
虜
虞
虫
虽
蚤
蚩
蜀
蜜
蟲
蠡
血
行
衍
衛
衣
衤
表
衮
衰
袁
袞
褭
褱
襄
襾
西
覀
要
覃
見
規
覓
覧
親
覽
见
角
解
言
訁
訇
計
話
詹
語
誩
諸
讠
语
谷
豆
豈
豊
豐
豕
豖
豙
象
豦
豩
豪
豸
貇
貝
貞
貟
負
貢
貧
貪
貫
責
貳
貴
買
費
賁
資
賈
賏
賓
賔
賛
賞
賢
賣
質
賴
贊
贛
贝
贡
责
贯
贲
贵
赖
赞
赤
赦
走
越
足
路
蹇
身
躬
車
軍
軎
軟
輦
车
辛
辜
辟
辥
辰
辱
農
辵
辶
边
达
过
近
连
迷
追
退
送
逆
逐
通
速
造
逢
連
逮
進
遀
遂
過
道
達
遣
適
遷
遺
邊
邑
邕
那
邦
邪
郎
部
郭
都
鄉
酉
酋
配
酓
釆
采
里
重
野
量
金
釒
錢
钅
長
镸
长
門
閃
閉
開
閏
閑
閒
間
閔
閩
閵
閻
闌
门
间
闷
闽
阑
阜
阝
阿
降
陳
隆
隊
隋
隡
隨
隱
隶
隹
隺
隻
隼
隽
难
雀
雁
雅
集
雈
雋
雍
雐
雔
雙
雚
雜
雝
離
難
雨
雩
雪
雲
零
雷
需
霍
霜
霝
霞
霸
靈
靑
青
非
靡
面
靣
革
韋
韦
韭
韯
韱
音
頁
頃
項
須
頗
頡
頻
顛
页
風
风
飛
飞
食
飠
養
饣
首
香
馬
馮
駦
马
骨
高
髟
鬥
鬯
鬲
鬼
魚
魯
鮮
鱼
鲁
鳥
鳳
鸟
鹵
鹿
麃
麗
麥
麦
麻
黃
黄
黍
黎
黑
黒
黨
黹
黽
黾
鼎
鼓
鼠
鼻
齊
齋
齐
齒
齿
龍
龙
龜
龟
龠
龰
龱
龴
龵
龶
龷
龸
龹
ꆇ
ꉙ
ꦗ
ꦧ
ꦮ
ꦱ
ꭹ
ꮃ
ꮳ
ꯂ
ꯃ
ꯇ
ꯟ
ꯣ
ꯩ








者
艹
？
𐌲
𐌹
𐌺
𐌿
𐍃
𐍄
𞤢
𞤤
𞤨
𞤪
𞤵
👩
📲
🚀
🜨
𠀁
𠀃
𠀆
𠀉
𠀎
𠀐
𠁁
𠁣
𠂆
𠂇
𠂈
𠂉
𠂊
𠂋
𠂎
𠂒
𠂔
𠂛
𠂡
𠂢
𠂤
𠂬
𠂭
𠂹
𠃊
𠃋
𠃌
𠃍
𠃎
𠃑
𠃓
𠃔
𠃜
𠄌
𠄎
𠄠
𠄢
𠆢
𠆥
𠇍
𠈌
𠌵
𠓜
𠔉
𠔥
𠔼
𠔽
𠔿
𠕀
𠕁
𠕋
𠘧
𠘨
𠙻
𠙼
𠚏
𠚒
𠚤
𠚪
𠣏
𠤎
𠤕
𠥓
𠦄
𠦑
𠦝
𠧒
𠧗
𠧪
𠩺
𠪚
𠫓
𠫔
𠫤
𠬛
𠬝
𠬞
𠬢
𠬤
𠬶
𠮛
𠮦
𠮷
𠯑
𠱠
𠳮
𠷎
𡈼
𡉀
𡉵
𡌥
𡍮
𡏳
𡕒
𡕩
𡕰
𡖅
𡗗
𡗜
𡘆
𡘤
𡧱
𡨄
𡩧
𡬠
𡭽
𡰣
𡰥
𡰪
𡰯
𡰱
𡷈
𡸁
𡿨
𡿩
𡿪
𡿺
𢀖
𢀛
𢀩
𢁙
𢆉
𢆰
𢆶
𢇁
𢇇
𢉖
𢌬
𢌿
𢏚
𢑑
𢑚
𢖻
𢙣
𢛳
𢦏
𢦒
𢧵
𢼄
𢾕
𣁋
𣄼
𣅀
𣅽
𣍘
𣎳
𣎵
𣏋
𣏼
𣗥
𣥂
𣥖
𣦵
𣦼
𣧄
𣪊
𣪠
𣬉
𣳾
𣶒
𤇾
𤊽
𤐫
𤓰
𤔔
𤕨
𤣩
𤰇
𤰔
𤰞
𤴓
𤴔
𤽄
𥁑
𥁕
𥃦
𥃩
𥃭
𥇡
𥑟
𥘅
𥘈
𥝢
𥫗
𥱡
𦈢
𦉪
𦉬
𦉼
𦍌
𦍒
𦎧
𦐇
𦓔
𦔮
𦘒
𦙃
𦚏
𦣝
𦣞
𦣻
𦥑
𦥔
𦥯
𦨉
𦭝
𦰩
𧆞
𧈧
𧘇
𧰨
𧴪
𧴮
𧵩
𧾷
𨸏
𨾴
𩙿
𩠐
𩫏
𩵋
𪉷
𪜀
𪟽
𪠲
𪩲
𫇦
𫔭
𫜸
𫝀
𫠣
𫠩
𫢉
𫥞
𫩏
𫩠
𫪡
𫲽
𫶧
𬀷
𬐘
𬗌
𬙙
𬛸
𬜯
𬟩
𬯁
𬴘
𬺻
𬼉
𬼖
𭀰
𭁈
𭁨
𭅰
𭑈
𭕄
𭗼
𭤨
𭥫
𭻾
𮅕
𮊿
𮍌
𮍏
𮓗
𮥼
𮧮
廾
𰀁
𰀄
𰀈
𰀉
𰀕
𰀠
𰀡
𰀢
𰀪
𰁜
𰃮
𰆊
𰆘
𰋙
𰕎
𰢴
𰧭
𰯲
01--
15--
16--
17--
18--
19--
2--
3--
4--
5--
6--
7--
8--
9--
a--
ah--
ap--
app--
ar--
as--
att--
ay--
b--
ba--
be--
bo--
bu--
c--
ca--
cata--
cauc--
cl--
co--
comp--
con--
conc--
conf--
confi--
cons--
consi--
coord--
cor--
cr--
cre--
d--
de--
dist--
do--
docu--
e--
elep--
em--
ema--
en--
es--
eu--
ex--
f--
fi--
fr--
g--
ga--
gad--
ge--
gr--
h--
ha--
hi--
ho--
i--
im--
implement--
in--
inc--
ind--
int--
integr--
inter--
j--
ja--
ju--
k--
ka--
kleinse--
ku--
l--
la--
lat--
le--
li--
lim--
lo--
lu--
m--
ma--
mar--
me--
mi--
mo--
n--
nati--
ne--
neces--
ni--
niko--
no--
nor--
num--
o--
oppor--
or--
p--
pa--
pan--
pi--
plat--
po--
pro--
proto--
qu--
r--
ra--
re--
rearr--
respect--
ri--
rk--
ro--
ru--
s--
sa--
sec--
sh--
si--
sim--
slo--
sp--
st--
sugge--
sum--
sy--
t--
ta--
tar--
te--
th--
to--
tra--
tri--
ts--
tw--
u--
un--
v--
vi--
vis--
w--
wiki--
x--
y--
z--
а--
аб--
абдзэ--
абдзэх--
абрэ--
абхаз--
ав--
автор--
аг--
ад--
адз--
адэс--
аз--
ак--
ака--
акъ--
ал--
алб--
албан--
алла--
алфав--
алфы--
алэ--
алэгъ--
ам--
амаз--
ан--
анд--
андор--
ап--
апс--
ар--
ари--
ас--
асм--
астро--
ат--
ате--
ау--
аубы--
ауж--
аужып--
аф--
афэгъэхь--
ах--
ахы--
ахьыл--
ац--
аш--
аштэгъ--
ашӏ--
ащ--
аҧс--
б--
ба--
бан--
бас--
баш--
бгъ--
бгъэ--
бел--
белорус--
бж--
бжъ--
бжьы--
бз--
бзэ--
би--
бла--
блэн--
бот--
бр--
бри--
брош--
бу--
букв--
булг--
бур--
былым--
бырс--
бэ--
бэлахь--
бэс--
в--
ва--
ве--
вер--
ви--
виз--
воз--
воп--
вы--
выска--
г--
газ--
глоб--
глобус--
голосов--
государствен--
гощы--
груз--
гу--
губ--
губз--
гулъы--
гъ--
гъу--
гъы--
гъэ--
д--
да--
дав--
дагъы--
дан--
даур--
дахэ--
де--
дж--
джа--
джор--
джу--
джэ--
джэн--
дз--
ди--
диал--
диалект--
до--
дос--
дру--
друг--
ду--
ды--
дэ--
дэс--
е--
ев--
евро--
егип--
егъ--
егъэ--
едж--
еж--
ежь--
елъы--
ер--
ет--
етӏ--
еу--
еш--
ж--
журнал--
жъ--
жъы--
жь--
жьыб--
з--
за--
зам--
заме--
зарегист--
зашӏ--
зе--
зеш--
зи--
зихы--
знак--
знач--
зул--
зы--
зыдэ--
зыр--
зыри--
зышъ--
зыщызэ--
зэ--
зэб--
зэгот--
зэд--
зэз--
зэпыт--
зэпэуцужьы--
зэр--
зэра--
зэре--
зэри--
зэры--
зэрэ--
зэте--
зэх--
зэха--
зэхи--
зэхигъэуц--
зэхэ--
зэхэзгъэуц--
зэхэзы--
и--
иака--
иб--
ив--
игу--
игъ--
игъэ--
ид--
из--
избр--
изме--
изобра--
изы--
икъ--
икӏ--
икӏыб--
илъэг--
им--
имыф--
ин--
инджылызы--
инсти--
информ--
ионтэгъу--
иорд--
ип--
ипчъ--
ир--
иро--
ис--
иср--
исурэт--
ит--
итхы--
иу--
ифэ--
их--
ихь--
ицӏ--
ичӏ--
иш--
ишапхъ--
ишъ--
ишъхь--
ищ--
ию--
иі--
иӏ--
иӏэ--
к--
ка--
каб--
кам--
кас--
кат--
ке--
ки--
кип--
киш--
ко--
кол--
кон--
кор--
кощ--
кр--
кра--
крас--
кри--
ку--
кур--
куэ--
къ--
къа--
къаж--
къар--
къат--
къахэ--
къащ--
къащэ--
къе--
къи--
къикӏ--
къинэжьы--
къихь--
къо--
къогъуэ--
кър--
къу--
къущ--
къуэ--
къы--
къыб--
къыз--
къыр--
къыри--
къыте--
къых--
къыхауты--
къыхиут--
къыхэхь--
къыщ--
къэ--
къэкӏ--
къэла--
къэна--
къэнэжь--
къэухъ--
кі--
кӏ--
кӏа--
кӏэ--
л--
ла--
ле--
лен--
ли--
лок--
лу--
лъ--
лъы--
лъэ--
лъэны--
лэ--
лэжь--
лю--
лӏ--
лӏэшӏ--
м--
ма--
мад--
макед--
мам--
мар--
мас--
мат--
мах--
махъ--
ме--
мест--
механ--
мил--
мо--
мон--
мох--
му--
мы--
мыхь--
мышъ--
мэ--
мэкъэ--
мяг--
н--
на--
наб--
назв--
нам--
нар--
нач--
не--
некорр--
нидер--
ник--
но--
нов--
ны--
нью--
нэ--
нэхь--
нэшъ--
о--
об--
обсуж--
объе--
од--
ожьы--
ок--
ол--
ом--
он--
оп--
ор--
орб--
орг--
орган--
орд--
ос--
от--
отв--
отвеч--
отк--
оф--
оч--
ощ--
п--
па--
пап--
пачъ--
пачъыхь--
пер--
переиме--
пес--
пи--
пиш--
пл--
по--
под--
позв--
получ--
пользов--
пор--
португалы--
пос--
посад--
пр--
пра--
пре--
пред--
преим--
пс--
псы--
псэ--
псэущты--
публик--
пхъаш--
пч--
пчъ--
пш--
пшъ--
пшъашъ--
пшъыкӏ--
пшын--
пщ--
пщы--
пщына--
пычыгъ--
пь--
пэ--
пӏ--
р--
ра--
раб--
ради--
раз--
разде--
ре--
реги--
редак--
редакти--
ри--
род--
роман--
рос--
ру--
руг--
рум--
рус--
рэ--
с--
са--
сал--
сат--
сау--
св--
се--
сел--
си--
сибир--
син--
сис--
систем--
ск--
сл--
следующ--
слов--
слож--
смо--
со--
соотв--
сор--
сп--
специ--
сс--
ств--
сте--
сто--
су--
суа--
сул--
счит--
сы--
сэ--
т--
та--
там--
тар--
те--
теж--
телъ--
тес--
тет--
теу--
техниче--
ти--
тим--
то--
тр--
требован--
ту--
тф--
тх--
тхы--
тхып--
тхыпкъы--
тхыпкъэ--
тхь--
тхэ--
ты--
тыгъ--
тыгъужъы--
тыгъэ--
тызыхэплъ--
тэ--
тӏ--
у--
уа--
уб--
убгъ--
убых--
уд--
удале--
удз--
уе--
уз--
узбекы--
уи--
ук--
украин--
ул--
ула--
ум--
уна--
универси--
ур--
уров--
урымы--
ус--
услов--
усэ--
ут--
уц--
уцу--
ущ--
уэ--
уэр--
уэшх--
ф--
фа--
фае--
факуль--
фе--
фр--
футб--
фэ--
фэб--
фэгъэхь--
фӏ--
х--
ха--
хадж--
хам--
хас--
хидз--
хо--
хор--
ху--
хух--
хуэ--
хъ--
хъуа--
хъугъ--
хъур--
хъыб--
хы--
хыгъэ--
хь--
хьа--
хьаб--
хьадэ--
хьанэ--
хьат--
хьэ--
хьэты--
хэ--
хэкӏод--
хэлэжь--
хэмыхь--
хэт--
хэхъон--
хэхь--
ц--
царств--
це--
цу--
цӏ--
ч--
час--
че--
челов--
чер--
чит--
чы--
чыжь--
чэщ--
чӏ--
ш--
шк--
шхын--
шъ--
шъуа--
шъуаш--
шы--
шыкӏэ--
шэп--
шӏ--
щ--
щы--
щыгъ--
щыкӏ--
щыр--
щыт--
щыщ--
щыӏ--
щэ--
щӏ--
ы--
ыг--
ыгу--
ыгъ--
ыжь--
ыкъ--
ылъ--
ым--
ын--
ынэ--
ып--
ыс--
ысхьэгъ--
ыу--
ыф--
ых--
ыхь--
ычӏ--
ышӏ--
ыщт--
э--
эгу--
эдэ--
экъ--
эл--
элэе--
элэегъадж--
эм--
эмыгу--
эн--
энцикл--
эп--
эпос--
эр--
эс--
эт--
эу--
эух--
эхъ--
эхь--
эшх--
эшъхьэ--
эщ--
эщт--
ю--
юс--
я--
яб--
ягъэлъ--
ядж--
язы--
якъ--
яр--
яс--
ят--
яу--
яхэ--
яш--
яӏ--
ӏ--
ӏап--
ӏат--
ӏу--
ӏуа--
ӏуащ--
ӏущ--
به--
မ--
--0
--1
--2
--3
--4
--41
--5
--6
--61
--7
--77
--8
--83
--86
--9
--93
--99
--a
--ad
--al
--an
--ar
--ased
--au
--aya
--b
--bly
--box
--c
--ca
--cal
--ce
--ces
--ch
--ck
--ct
--cts
--d
--de
--ded
--e
--ed
--ely
--er
--ern
--ers
--es
--est
--et
--ever
--f
--fel
--ft
--g
--ga
--ge
--ger
--h
--ht
--i
--ia
--ic
--ice
--ien
--il
--ing
--ion
--ions
--ive
--ized
--k
--ki
--l
--ld
--le
--line
--ly
--m
--ma
--ment
--ms
--n
--na
--nc
--nce
--nd
--nda
--ner
--ng
--ni
--nk
--nn
--ns
--nt
--nts
--o
--on
--ory
--p
--pe
--r
--ra
--rd
--re
--rge
--ri
--ria
--rk
--rry
--rs
--rsk
--ry
--s
--se
--sh
--sia
--sk
--ski
--t
--te
--ted
--ter
--th
--ting
--tion
--ty
--u
--uble
--ue
--und
--ur
--v
--va
--w
--wn
--x
--y
--ye
--z
--а
--абзэр
--агъ
--ад
--ае
--ажьэ
--аи
--ак
--ал
--ам
--ан
--ание
--ао
--ап
--ар
--ас
--ат
--атив
--аф
--ах
--ахь
--ацие
--ацием
--аш
--ащ
--ащэ
--б
--ба
--бар
--бгъу
--бз
--бзым
--бзэ
--бзэм
--би
--бие
--бо
--бэ
--в
--ва
--вание
--ви
--вич
--во
--г
--га
--ги
--го
--гот
--град
--гу
--гуащэ
--гъ
--гъо
--гъоты
--гъоу
--гъу
--гъуэ
--гъэ
--гъэх
--гьэ
--гэ
--д
--да
--дж
--джак
--джи
--джэ
--до
--ду
--ды
--дыр
--дэ
--е
--ев
--ед
--еи
--ек
--ель
--ем
--ен
--ение
--ению
--ент
--ер
--есы
--ет
--ец
--ж
--жить
--жъ
--жъу
--жы
--жь
--жьэ
--жьэу
--жэ
--з
--зыи
--зым
--зыр
--зэ
--зэм
--и
--ибл
--ид
--ие
--ием
--иер
--ии
--ик
--икэ
--ил
--им
--ин
--ир
--ит
--ить
--иф
--ищ
--ия
--к
--ка
--кая
--ке
--ки
--ко
--ков
--кои
--ку
--къ
--кэ
--кэм
--кіэ
--кӏэ
--л
--ла
--ле
--ли
--лл
--лу
--лъагъо
--лъап
--лы
--лым
--ль
--льно
--лэм
--м
--ма
--мед
--мен
--ми
--мик
--мк
--мкӏэ
--мо
--мрэ
--мы
--мык
--мымкӏэ
--мэ
--н
--ная
--нг
--ни
--ние
--нии
--нию
--нк
--но
--ного
--нрэ
--ну
--ную
--ные
--ныи
--ным
--ныр
--ных
--нышъ
--нья
--нэ
--нэу
--о
--ов
--ова
--ович
--огие
--ого
--од
--ое
--ои
--ом
--он
--ор
--орым
--орых
--ос
--оу
--п
--пч
--пщ
--пэ
--р
--ра
--ращ
--ре
--рем
--ри
--рие
--рии
--рия
--рт
--рча
--ры
--рык
--рым
--рэ
--рэк
--рэм
--рэп
--рэр
--с
--са
--се
--ск
--ская
--ски
--со
--сон
--ст
--сти
--сы
--сым
--сь
--сэ
--сэу
--ся
--т
--та
--те
--ти
--тмэ
--то
--тор
--тр
--ту
--тыгъ
--ть
--ться
--тэ
--тэу
--у
--уаер
--уи
--ум
--ун
--уп
--ур
--ус
--усы
--ух
--уцуп
--уч
--уэ
--уэщ
--ф
--фессор
--фык
--фэ
--фэу
--х
--ха
--хи
--хо
--ху
--хъ
--хъо
--хъу
--хъугъ
--хъэ
--хыгъ
--хь
--хэ
--хэзэ
--хэм
--хэми
--хэмк
--хэмрэ
--хэр
--хэри
--хэрэр
--хэу
--ц
--цак
--цэ
--ч
--чествэ
--ш
--ше
--шу
--шхо
--шъ
--шъо
--шэ
--щ
--ща
--щт
--щыт
--щь
--щэмэ
--щэу
--ъ
--ъо
--ъом
--ъоу
--ъу
--ъуаи
--ъур
--ъуэ
--ъхь
--ъым
--ъытэу
--ъэ
--ъэр
--ъэу
--ы
--ыбз
--ыбзэ
--ыбзэм
--ыбзэрэ
--ыбэ
--ыбэр
--ыбэхэр
--ыгъ
--ыд
--ые
--ыи
--ык
--ыкъо
--ылъэ
--ым
--ымк
--ымрэ
--ын
--ып
--ыр
--ыри
--ыт
--ытэ
--ытэу
--ыу
--ых
--ыхэу
--ыш
--ышъ
--ыщэ
--ыӏу
--ыӏэ
--ь
--ье
--ько
--ься
--ьы
--э
--эк
--экӏэ
--эм
--эми
--эмэ
--эн
--эп
--эр
--эт
--эу
--эх
--эхэр
--ю
--я
--яд
--ян
--і
--іи
--іэ
--іэм
--ѣ
--ӏ
--ӏи
--ӏо
--ӏокӏэ
--ӏу
--ӏуэ
--ӏы
--ӏыгъ
--ӏыгъэ
--ӏым
--ӏыр
--ӏэ
--ӏэм
--ӏэн
--ӏэр
--ӏэу
--ӏэх
--ӏэхэр
--ن
