!
"
#
##0
##1
##10
##11
##12
##13
##14
##15
##16
##17
##18
##19
##2
##20
##21
##22
##23
##24
##25
##26
##27
##28
##29
##3
##30
##31
##32
##33
##34
##35
##36
##37
##38
##39
##4
##40
##41
##42
##43
##44
##45
##46
##47
##48
##49
##5
##50
##51
##52
##53
##54
##55
##56
##57
##58
##59
##6
##60
##61
##62
##63
##64
##65
##66
##67
##68
##69
##7
##70
##71
##72
##73
##74
##75
##76
##77
##78
##79
##8
##80
##81
##82
##83
##84
##85
##86
##87
##88
##89
##9
##90
##91
##92
##93
##94
##95
##96
##97
##98
##99
$
%
&
'
(
)
*
+
,
-
.
/
0
00
000
01
02
03
04
05
06
07
08
09
1
10
100
101
102
103
104
105
106
107
108
109
11
110
111
112
113
114
115
116
117
118
119
12
120
121
122
123
124
125
126
127
128
129
13
130
131
132
133
134
135
136
137
138
139
14
140
141
142
143
144
145
146
147
148
149
15
150
151
152
153
154
155
156
157
158
159
16
160
161
162
163
164
165
166
167
168
169
17
170
171
172
173
174
175
176
177
178
179
18
180
181
182
183
184
185
186
187
188
189
19
190
191
192
193
194
195
196
197
198
199
2
20
200
201
202
2020
203
204
205
206
207
208
209
21
210
211
212
213
214
215
216
217
218
219
22
220
221
222
223
224
225
226
227
228
229
23
230
231
232
233
234
235
236
237
238
239
24
240
241
242
243
244
245
246
247
248
249
25
250
251
252
253
254
256
257
258
26
260
263
264
268
269
27
270
271
272
273
28
283
286
29
292
298
3
30
300
307
31
32
325
33
34
35
36
37
38
39
4
40
41
42
43
44
45
46
47
48
49
5
50
500
51
52
53
54
55
56
57
58
59
6
60
600
61
62
63
64
65
66
67
68
69
7
70
71
72
73
74
75
76
77
78
79
8
80
81
82
83
84
85
86
87
88
89
9
90
91
92
93
94
95
96
97
98
99
:
;
<
=
>
?
@
\
^
_
`
a
ab
able
about
above
ac
acc
accent
according
account
act
action
active
activity
ad
add
added
adding
addition
additional
adds
adj
affix
affixes
after
again
against
age
ah
al
all
alone
along
already
also
alt
although
always
am
among
an
ana
ancient
and
another
any
appear
appears
applied
appropriate
ar
are
area
args
arguments
art
article
articles
as
astronomy
at
author
av
available
away
b
ba
back
background
bar
base
based
basis
be
because
become
becomes
been
before
beginning
being
beings
below
best
better
between
bh
bha
bhagavad
bhe
bhu
bird
birds
birth
black
blank
blue
bo
body
book
books
border
born
both
bottom
box
brahma
brahmagupta
brahman
break
brought
bu
buddha
but
bv
by
bya
byed
byung
bzhin
c
ca
calendopedia
call
called
can
cannot
caption
case
cases
categories
category
cause
cd
center
centre
century
certain
cf
cfg
change
changed
changes
chapter
character
chd
check
chen
chos
circle
city
class
clear
clearly
close
co
code
cognition
collection
color
colour
column
com
combination
come
commentary
common
commons
community
complete
compound
con
config
conjunction
connection
consciousness
consonant
contact
contains
content
coordinates
copy
corr
correct
corresponding
could
country
course
create
creation
css
current
cv
d
da
dag
daily
dang
das
data
date
day
days
dbang
de
death
default
defined
derived
described
description
designation
desire
details
devanagari
development
dha
di
did
difference
different
difficult
digitized
direction
discussion
display
displayed
distance
district
div
divided
division
divisions
djvu
dmigs
do
doc
document
documentation
does
don
done
doubt
down
dr
du
due
during
dus
dv
dzin
e
each
earlier
early
earth
east
ecliptic
ed
edit
edited
editing
edition
editor
effect
eight
either
element
elements
else
elseif
em
emended
empty
en
enable
end
ending
english
enter
entity
equal
equation
error
es
established
et
etc
european
even
event
every
example
examples
except
exist
existence
existing
exists
explained
explanation
expression
eyes
f
fa
fact
false
family
far
father
fe
feet
few
ff
field
fields
figure
file
final
find
fire
first
five
flag
follow
followed
following
follows
font
food
foot
for
force
form
format
formation
formed
former
forms
forth
found
foundation
four
fourth
fr
frame
free
friend
from
ft
full
function
further
future
g
ga
gen
general
generally
get
gi
gita
give
given
gives
giving
gk
gloss
gnas
go
god
gods
going
gold
good
google
government
grammar
great
greater
greek
ground
group
grub
gyi
gyur
h
ha
had
half
hand
has
have
having
he
head
headed
header
heart
height
help
hence
her
here
hi
high
highest
him
himself
hindi
hindu
his
history
house
how
however
html
http
https
i
id
idea
ie
if
ii
iii
image
images
imperative
important
in
include
included
including
indeed
index
india
indian
individual
indo
info
infobox
information
ing
input
instance
instead
institute
interest
international
into
introduction
is
isbn
it
its
itself
iv
j
ja
jk
jn
jpg
just
k
ka
kas
key
kha
kind
kinds
king
km
know
knowledge
known
kr
ks
kun
kyi
l
la
label
lam
lang
language
languages
large
las
last
lat
later
latitude
latter
lch
ldan
le
left
length
less
let
letter
letters
level
li
library
life
light
like
line
lines
link
links
list
lit
literature
little
ll
local
location
logo
long
longitude
look
lord
love
lower
lta
m
ma
made
maha
main
make
makes
making
man
manner
manuscripts
many
map
mas
match
material
matha
matter
may
me
mean
meaning
means
measure
med
mediawiki
members
men
mental
mentioned
message
method
metre
mi
middle
might
min
mind
minutes
mo
mode
modern
module
moment
month
months
moon
more
morebits
most
motion
move
mr
ms
msa
mss
mtshan
much
multiple
multiplied
music
must
mv
mw
my
n
na
nam
name
named
names
namespace
nas
national
nature
nd
near
necessary
need
neuter
never
new
news
next
ni
night
nil
no
nom
non
none
nor
north
not
note
notes
nothing
notice
noun
nouns
now
number
numbers
nyid
o
object
objects
obtained
of
off
official
often
old
om
omits
omitted
on
once
one
only
open
optional
or
order
org
origin
original
other
others
otherwise
our
out
output
over
own
p
pa
page
pages
panini
paper
par
para
parameter
parameters
params
pari
part
particular
parts
pas
passage
passed
past
path
pdf
people
per
perhaps
period
person
ph
pi
place
placed
places
planet
planets
please
pm
po
poet
point
points
population
portal
portion
position
possible
power
pp
pr
pra
practice
prefix
present
press
previous
probably
process
produced
project
proper
protection
ps
published
pure
purpose
put
px
q
qualities
quantity
question
quite
quoted
r
ra
rab
rama
rang
range
rather
rd
re
read
reading
reads
real
reality
reason
red
refer
reference
references
referred
refers
related
relation
remainder
remove
request
require
required
research
respect
respectively
result
results
ret
return
returns
ri
right
rise
rnam
root
roots
rr
rs
rt
rtogs
ru
rule
rules
rya
s
sa
said
sam
sama
same
sandbox
sankara
sanskrit
sarasvati
sastri
say
says
scale
school
science
script
search
second
section
see
seems
seen
self
sems
sense
sentence
separate
series
set
seven
several
sg
shadow
shall
she
shes
short
should
show
shown
shows
si
siddhanta
side
sides
sign
similar
similarly
simple
simply
sin
since
sing
single
site
six
size
skt
sky
sl
small
snang
so
some
something
sometimes
son
song
sound
source
south
space
special
specific
specified
speech
spyod
square
sr
sri
ss
st
stanza
start
state
stated
statement
states
stem
stems
stenzler
still
story
str
string
study
style
su
sub
subject
such
suffix
sum
summary
sun
supplied
support
supreme
sutra
sutras
svg
symbol
system
t
ta
table
tad
tag
take
taken
takes
taking
tale
talk
target
te
team
technical
telugu
template
templates
temple
ten
tenses
term
terms
test
text
texts
tfrac
th
tha
than
that
the
their
them
then
theory
there
therefore
these
they
thing
things
think
third
this
thob
thoroughly
those
though
thought
three
through
thumb
thus
ti
time
times
tion
title
to
together
too
top
total
towards
tr
tra
translation
treatise
tree
true
truth
tt
tu
twinkle
two
type
types
u
under
unit
united
units
universe
university
unknown
up
upon
url
us
usage
use
used
user
uses
using
usually
utc
utype
v
va
valid
value
values
var
vara
various
veda
vedic
verb
verbal
verse
verses
version
very
vi
view
vii
viii
vis
viz
vol
volume
vowel
vya
w
want
was
watch
water
way
we
website
well
were
west
what
when
where
whether
which
while
white
who
whole
whom
whose
why
wi
width
wiki
wikidata
wikimedia
wikipedia
wikisource
wikitext
will
wisdom
with
within
without
word
words
work
works
world
would
written
www
x
y
ya
yang
year
years
yes
yet
yin
yoga
yongs
you
your
youtube
z
{
|
}
~




¢
£
¥
§
©
«
¬
®
°
±
²
³
µ
·
¹
º
»
×
ð
ø
ː
̀
́
̂
̃
̄
̆
̇
̈
̉
̊
̌
̐
̛
̣
̥
̦
̧
̨
α
ο
ا
و
َ
ِ
۔
۹
ँ
ं
ः
अ
अअ
अउ
अक
अकर
अकल
अकस
अख
अखण
अग
अगच
अगम
अगल
अगस
अघ
अङ
अच
अचल
अज
अजन
अजर
अजस
अझ
अञ
अट
अड
अण
अत
अतएव
अतन
अतश
अतस
अथ
अथर
अथव
अद
अदत
अदन
अदर
अध
अधम
अधर
अधस
अन
अनङ
अनड
अनत
अनध
अनन
अनप
अनभ
अनय
अनर
अनल
अनवस
अनस
अप
अपक
अपच
अपत
अपद
अपन
अपम
अपर
अपरम
अपरस
अपव
अपवर
अपश
अपस
अपह
अफ
अब
अभ
अभक
अभय
अभव
अभवत
अभवन
अम
अमन
अमर
अय
अयच
अयन
अयम
अयमप
अयमर
अयस
अर
अरण
अरत
अरब
अल
अलक
अलग
अलङ
अलम
अव
अवक
अवग
अवगम
अवच
अवज
अवत
अवद
अवदत
अवध
अवन
अवभ
अवम
अवयव
अवर
अवल
अवलम
अवश
अवस
अवसर
अवह
अश
अशक
अशन
अष
अस
असक
असङ
असत
असद
असन
असम
असमर
असर
असह
अह
अहङ
अहन
अहम
अहमद
अहमप
अहर
आ
आई
आक
आकर
आख
आग
आगच
आगत
आगन
आगम
आगमन
आगस
आघ
आङ
आच
आचक
आचम
आचर
आचरण
आचरन
आज
आजग
आट
आड
आढ
आण
आत
आथर
आद
आदत
आदद
आदध
आदर
आध
आन
आनन
आनय
आनर
आप
आपक
आपत
आपद
आपन
आपस
आफ
आब
आभ
आम
आमन
आय
आयत
आयतन
आयन
आयय
आयस
आर
आरक
आरण
आरब
आरभ
आरभत
आरम
आल
आलम
आलय
आलस
आव
आवन
आवय
आवर
आवरण
आवश
आश
आशय
आष
आस
आसक
आसत
आसन
आह
आहत
आहर
आहवन
इ
इइ
इक
इग
इङ
इच
इज
इञ
इट
इटल
इड
इण
इत
इतर
इतरत
इतरथ
इतरस
इतश
इतस
इथ
इद
इदन
इदम
इदमप
इध
इन
इनक
इप
इब
इभ
इम
इमम
इय
इयत
इयम
इर
इल
इव
इश
इष
इस
इसक
इसम
इसल
इसस
इह
ई
ईक
ईज
ईड
ईत
ईद
ईन
ईप
ईम
ईय
ईर
ईश
ईष
ईषत
ईषद
ईस
ईसव
ईह
उ
उक
उख
उग
उच
उज
उञ
उड
उण
उत
उद
उदक
उदग
उदङ
उदन
उदप
उदय
उदयन
उदर
उन
उनक
उनम
उप
उपक
उपग
उपच
उपज
उपत
उपद
उपदध
उपध
उपन
उपप
उपपत
उपपद
उपपन
उपभ
उपम
उपमण
उपय
उपयन
उपर
उपल
उपलक
उपलब
उपलभ
उपव
उपश
उपस
उपसद
उपसर
उपह
उभ
उभय
उभयत
उभयथ
उभयस
उम
उर
उरस
उल
उव
उश
उशन
उष
उषस
उस
उसक
उसम
उसस
उह
ऊ
ऊच
ऊत
ऊतय
ऊध
ऊन
ऊपर
ऊर
ऊष
ऊह
ऋ
ऋक
ऋग
ऋच
ऋज
ऋण
ऋत
ऋतम
ऋतव
ऋतस
ऋद
ऋध
ऋभ
ऋष
ऋषभ
ऋषय
ऋषयश
ऌ
ए
एक
एकक
एकत
एकद
एकध
एकप
एकभ
एकम
एकय
एकर
एकव
एकवचन
एकश
एकस
एच
एड
एण
एत
एतच
एतत
एतद
एतदन
एतदप
एतदर
एतन
एतम
एतय
एतर
एतस
एद
एध
एन
एनम
एप
एभ
एम
एर
एल
एव
एवक
एवञ
एवम
एवमग
एवमत
एवमन
एवमप
एवमभ
एवमस
एश
एष
एस
एह
ऐ
ऐक
ऐत
ऐन
ऐर
ऐश
ऐस
ऐह
ऑ
ऑफ
ओ
ओक
ओङ
ओज
ओजस
ओड
ओत
ओदन
ओम
ओर
ओल
ओष
ओषध
ओषधय
औ
औच
औत
औद
औन
औप
और
औश
औष
औषध
औह
क
कक
ककर
ककल
कख
कग
कगत
कङ
कच
कचक
कचत
कचन
कज
कजन
कजम
कञ
कट
कटक
कटम
कटस
कठ
कड
कण
कत
कतत
कतन
कतम
कतय
कतर
कथ
कथञ
कथन
कथनम
कथम
कथमन
कथमप
कथमस
कथय
कथयत
कथयन
कथयस
कद
कदत
कदन
कदम
कदर
कदल
कध
कधर
कन
कनक
कनम
कप
कपक
कपञ
कपट
कपत
कपद
कपर
कफ
कफप
कफल
कफव
कब
कबन
कभ
कम
कमण
कमत
कमध
कमन
कमप
कमभ
कमय
कमर
कमल
कमव
कमश
कमस
कमह
कय
कयज
कयत
कयन
कर
करक
करग
करज
करञ
करण
करणक
करणत
करणद
करणन
करणप
करणभ
करणम
करणय
करणव
करणश
करणस
करत
करतल
करद
करन
करप
करभ
करम
करय
करर
करव
करश
करस
कल
कलक
कलङ
कलत
कलन
कलम
कलय
कलयत
कलव
कलश
कलस
कलह
कव
कवच
कवचन
कवचनम
कवत
कवद
कवन
कवय
कवर
कवल
कवस
कश
कशक
कशत
कशततम
कशब
कशर
कष
कस
कसङ
कसत
कसद
कसन
कसप
कसभ
कसम
कसर
कह
कहत
कहन
ख
खक
खकर
खग
खङ
खच
खचक
खज
खञ
खट
खड
खण
खत
खद
खध
खन
खनगर
खनत
खनन
खनम
खप
खपर
खब
खभ
खम
खमध
खमन
खमस
खय
खयत
खर
खरम
खरस
खल
खलत
खलन
खलम
खव
खवर
खश
खस
खसम
खह
ग
गई
गक
गकम
गकर
गकल
गख
गग
गगत
गगन
गघ
गङ
गच
गज
गजन
गजप
गजम
गजव
गजस
गञ
गड
गढ
गण
गणक
गणत
गणन
गणप
गणपत
गणम
गणय
गणस
गत
गतक
गतज
गतत
गतद
गतन
गतप
गतभ
गतम
गतय
गतर
गतव
गतवत
गतश
गतस
गद
गदत
गदम
गदय
गदर
गदस
गध
गधर
गन
गप
गपक
गपत
गपद
गपर
गफल
गब
गबल
गभ
गभङ
गभस
गम
गमक
गमण
गमत
गमद
गमध
गमन
गमनक
गमनम
गमनस
गमप
गमभ
गमम
गमय
गमयत
गमर
गमव
गमश
गमस
गमह
गय
गयत
गयस
गर
गरक
गरण
गरत
गरम
गरव
गरस
गरह
गल
गलक
गलग
गलत
गलद
गलन
गलप
गलम
गलव
गलस
गळ
गव
गवचन
गवत
गवतम
गवद
गवन
गवम
गवय
गवर
गवल
गवश
गवस
गश
गशब
गष
गस
गसङ
गसन
गसम
गसहस
गह
गहन
गहर
घ
घक
घज
घञ
घट
घटक
घटत
घटन
घटम
घटस
घड
घण
घत
घद
घन
घनत
घनप
घनम
घनस
घप
घम
घय
घर
घव
घवम
घवस
घश
घस
ङ
ङक
ङन
ङस
च
चक
चकत
चकप
चकम
चकर
चकल
चकस
चख
चग
चगव
चङ
चच
चचत
चज
चजन
चञ
चट
चटक
चण
चत
चतन
चतम
चतस
चथ
चद
चदश
चध
चन
चनक
चनद
चनप
चनम
चनय
चनव
चनस
चप
चपञ
चपद
चपर
चपल
चब
चभ
चम
चमत
चमन
चमम
चमर
चमस
चमह
चय
चयत
चयन
चयम
चयस
चर
चरक
चरकस
चरज
चरण
चरणम
चरणय
चरणस
चरत
चरन
चरम
चरस
चल
चलक
चलच
चलत
चलद
चलन
चलप
चलम
चलस
चव
चवक
चवर
चश
चशत
चशब
चष
चस
चसक
चसप
चसम
चह
छ
छक
छङ
छच
छट
छत
छतम
छथ
छद
छन
छप
छब
छम
छय
छर
छल
छव
छश
छस
ज
जइ
जक
जकत
जकन
जकम
जकर
जकव
जकस
जग
जगच
जगज
जगण
जगत
जगद
जगन
जगर
जघ
जघन
जङ
जच
जज
जञ
जट
जठर
जड
जडत
जण
जत
जद
जध
जधर
जन
जनक
जनकत
जनकस
जनज
जनत
जनद
जनन
जनप
जनपद
जनपर
जनभ
जनम
जनमन
जनय
जनयत
जनयन
जनव
जनवर
जनश
जनस
जनसङ
जनसम
जप
जपत
जपन
जपर
जपह
जब
जभ
जम
जमदग
जमध
जमन
जय
जयक
जयत
जयद
जयन
जयप
जयम
जयव
जयश
जयशब
जयस
जर
जरत
जरम
जरय
जरस
जल
जलक
जलज
जलत
जलद
जलध
जलन
जलप
जलबन
जलम
जलय
जलव
जलस
जव
जवत
जवन
जवर
जश
जस
जसत
जसन
जसम
जह
जहत
झ
झट
झत
झन
झर
झल
ञ
ञक
ञकम
ञकर
ञत
ञद
ञदत
ञन
ञप
ञपत
ञभ
ञम
ञय
ञव
ञवल
ञश
ञस
ट
टक
टकम
टकय
टकर
टकव
टकस
टग
टगत
टङ
टच
टचत
टज
टजन
टत
टतम
टतय
टतर
टद
टध
टन
टनम
टप
टपत
टपम
टपर
टब
टभ
टम
टमत
टमध
टमन
टमप
टमभ
टमस
टय
टयत
टयन
टयम
टयस
टर
टरम
टल
टव
टवत
टवन
टवर
टवस
टश
टशत
टशब
टस
टसम
टसर
टह
ठ
ठक
ठग
ठज
ठञ
ठड
ठत
ठतम
ठद
ठन
ठप
ठपद
ठपर
ठभ
ठम
ठमध
ठमह
ठय
ठयन
ठर
ठल
ठव
ठश
ठस
ड
डक
डकम
डग
डङ
डच
डज
डड
डत
डद
डध
डन
डनम
डप
डपम
डपस
डब
डभ
डम
डमण
डमर
डमह
डय
डयत
डयन
डर
डल
डलक
डलद
डलम
डलमध
डलय
डलस
डव
डवत
डवस
डश
डशभ
डशस
डस
डसम
ढ
ढक
ढच
ढत
ढद
ढन
ढप
ढभ
ढम
ढय
ढर
ढव
ढश
ढस
ण
णक
णकम
णकर
णकल
णकलश
णग
णगण
णच
णचत
णचन
णज
णजन
णञ
णत
णतम
णतय
णतर
णद
णदर
णध
णधर
णन
णनप
णनम
णप
णपक
णपत
णपद
णपर
णब
णभ
णभक
णम
णमण
णमत
णमध
णमन
णमप
णमभ
णमय
णमर
णमस
णमह
णय
णयज
णयत
णयन
णयस
णर
णरत
णल
णलक
णव
णवक
णवचन
णवत
णवद
णवन
णवम
णवर
णवल
णवस
णश
णशक
णशब
णशर
णस
णसङ
णसन
णसम
णसर
णह
णहर
णहस
त
तइत
तक
तकक
तकण
तकत
तकथ
तकन
तकप
तकफ
तकम
तकय
तकर
तकरण
तकल
तकव
तकश
तकस
तख
तग
तगण
तगत
तगन
तगर
तघ
तङ
तच
तचक
तचत
तचन
तचर
तज
तजन
तजल
तञ
तट
तटम
तटस
तड
तण
तत
ततत
ततद
ततन
ततम
ततय
ततर
ततश
ततस
तथ
तथम
तद
तदक
तदग
तदङ
तदण
तदत
तदद
तदध
तदन
तदनन
तदप
तदभ
तदम
तदय
तदर
तदल
तदव
तदवच
तदवस
तदश
तदस
तदसत
तदह
तध
तधन
तधर
तन
तनक
तनत
तनद
तनन
तनप
तनभ
तनम
तनय
तनयन
तनयस
तनर
तनव
तनश
तनस
तप
तपक
तपङ
तपञ
तपत
तपद
तपन
तपर
तपरम
तपश
तपस
तफल
तब
तबक
तबन
तबल
तबह
तभ
तभक
तभय
तभव
तम
तमक
तमग
तमङ
तमच
तमज
तमण
तमत
तमथ
तमद
तमध
तमन
तमनन
तमनस
तमप
तमपर
तमब
तमभ
तमम
तमय
तमर
तमल
तमव
तमवर
तमश
तमष
तमस
तमह
तय
तयज
तयत
तयन
तयम
तयश
तयस
तर
तरक
तरकल
तरखण
तरग
तरगत
तरङ
तरच
तरज
तरण
तरत
तरतन
तरथ
तरद
तरध
तरन
तरप
तरपद
तरपदस
तरपर
तरब
तरभ
तरम
तरमन
तरमप
तरमस
तरय
तरर
तरल
तरव
तरवर
तरश
तरशत
तरशततम
तरस
तरसम
तरह
तल
तलक
तलग
तलत
तलम
तलव
तलस
तव
तवक
तवच
तवचन
तवत
तवद
तवन
तवप
तवम
तवर
तवल
तवश
तवस
तवह
तश
तशक
तशङ
तशत
तशब
तशर
तशस
तष
तषष
तस
तसङ
तसत
तसद
तसन
तसप
तसम
तसमय
तसमव
तसमस
तसर
तह
तहर
तहव
तहस
थ
थक
थकत
थकम
थकर
थग
थगत
थङ
थच
थज
थञ
थण
थत
थतत
थतय
थद
थदर
थध
थन
थनम
थनय
थप
थपत
थपद
थपर
थब
थभ
थम
थमत
थमध
थमन
थमप
थमभ
थमर
थमस
थमह
थय
थयत
थयन
थर
थल
थलक
थलम
थलस
थव
थवत
थवद
थवर
थश
थशब
थस
थसत
थसन
थसम
थह
द
दक
दकक
दकत
दकतय
दकन
दकप
दकम
दकर
दकल
दकव
दकस
दख
दग
दगत
दघ
दङ
दच
दज
दजन
दञ
दण
दत
दतन
दतल
दथ
दद
ददत
ददर
दध
दधत
दधद
दधन
दधर
दन
दनक
दनत
दनद
दनन
दनप
दनपर
दनम
दनय
दनर
दनव
दनश
दनस
दप
दपक
दपत
दपद
दपर
दफल
दब
दभ
दम
दमग
दमत
दमध
दमन
दमनक
दमप
दमब
दमभ
दमम
दमय
दमयन
दमर
दमव
दमस
दमह
दय
दयक
दयग
दयत
दयद
दयन
दयप
दयम
दयय
दयव
दयश
दयस
दयह
दर
दरक
दरण
दरत
दरद
दरप
दरम
दरव
दरश
दरस
दल
दलक
दलम
दलस
दव
दवत
दवद
दवन
दवम
दवर
दवश
दवस
दश
दशक
दशकप
दशकम
दशग
दशत
दशद
दशध
दशन
दशप
दशब
दशभ
दशम
दशय
दशर
दशरथ
दशरथस
दशलक
दशव
दशवर
दशश
दशशत
दशस
दशसहस
दष
दस
दसत
दसन
दसम
दह
दहत
दहन
दहम
दहर
ध
धक
धकत
धकप
धकभ
धकम
धकर
धकल
धकव
धकस
धग
धच
धचन
धज
धजन
धट
धठ
धत
धतम
धतय
धद
धदर
धध
धधर
धन
धनक
धनञ
धनत
धनद
धनध
धनन
धनप
धनपत
धनभ
धनम
धनय
धनर
धनव
धनश
धनस
धनह
धप
धपद
धपर
धफल
धब
धभ
धम
धमत
धमध
धमन
धमप
धमभ
धमम
धमर
धमस
धय
धयत
धयन
धयर
धयश
धयस
धर
धरक
धरण
धरणम
धरत
धरन
धरम
धरस
धल
धलक
धव
धवत
धवद
धवन
धवम
धवर
धवल
धवश
धवस
धश
धशब
धस
धसत
धसम
धह
न
नक
नकम
नकर
नकरण
नकल
नकस
नख
नग
नगण
नगत
नगम
नगर
नगरम
नगरस
नघ
नङ
नच
नचक
नचत
नचन
नज
नजन
नञ
नट
नड
नण
नत
नतक
नतत
नतन
नतप
नतम
नतय
नतर
नतस
नथ
नद
नदत
नदन
नदर
नध
नधन
नधर
नन
ननगर
ननन
ननम
ननर
ननस
नप
नपक
नपञ
नपत
नपद
नपन
नपय
नपर
नपश
नफल
नब
नबल
नभ
नभक
नभस
नम
नमक
नमग
नमण
नमत
नमथ
नमद
नमध
नमन
नमनन
नमप
नमभ
नमम
नमय
नमर
नमव
नमश
नमस
नमह
नय
नयज
नयत
नयन
नयनम
नयनय
नयनस
नयम
नयश
नयस
नर
नरक
नरत
नरद
नरन
नरप
नरपत
नरभ
नरम
नरय
नरर
नरव
नरश
नरस
नरह
नल
नलक
नलम
नलस
नव
नवक
नवग
नवच
नवज
नवत
नवद
नवदन
नवध
नवन
नवप
नवभ
नवम
नवय
नवर
नवल
नवव
नवश
नवस
नश
नशक
नशब
नष
नस
नसङ
नसत
नसद
नसन
नसप
नसभ
नसम
नसमय
नसर
नसस
नसह
नह
नहन
नहम
प
पक
पकण
पकत
पकन
पकप
पकम
पकर
पकरण
पकल
पकव
पकस
पग
पगच
पगत
पगन
पगम
पघ
पङ
पच
पचक
पचत
पचन
पचय
पचर
पज
पजन
पञ
पट
पटल
पटस
पठ
पठत
पठन
पड
पढ
पण
पणक
पणन
पणप
पणम
पणमस
पणव
पणस
पत
पतङ
पतञ
पतत
पतद
पतन
पतय
पतर
पतस
पथ
पथम
पद
पदक
पदच
पदत
पदद
पदध
पदन
पदप
पदम
पदमन
पदय
पदर
पदव
पदश
पदस
पध
पधर
पन
पनक
पनत
पनप
पनम
पनय
पनयन
पनव
पनस
पप
पपत
पपद
पपन
पपर
पफल
पब
पभ
पम
पमण
पमत
पमध
पमन
पमप
पमभ
पमम
पमय
पमर
पमव
पमस
पमह
पय
पयत
पयद
पयन
पयस
पर
परक
परग
परच
परज
परत
परतन
परतर
परद
परन
परप
परपक
परपर
परब
परभ
परम
परमक
परमत
परमद
परमन
परमप
परमम
परमय
परमर
परमव
परमश
परमस
परमह
परय
परर
परल
परव
परश
परस
परह
पल
पलक
पलत
पलब
पलभ
पलम
पलस
पव
पवत
पवद
पवन
पवनस
पवम
पवर
पवस
पश
पशब
पशम
पशमन
पशव
पष
पस
पसङ
पसत
पसद
पसन
पसम
पसर
पसव
पह
पहत
पहन
पहम
पहर
पहरण
पहल
फ
फक
फट
फण
फत
फन
फर
फल
फलक
फलत
फलद
फलन
फलप
फलभ
फलम
फलय
फलव
फलवत
फलश
फलस
फस
ब
बई
बक
बकम
बख
बग
बङ
बच
बज
बट
बड
बढ
बण
बत
बद
बदर
बध
बन
बनत
बनम
बप
बब
बबन
बभ
बम
बय
बर
बरधर
बरम
बरस
बल
बलक
बलत
बलद
बलप
बलपर
बलभद
बलम
बलय
बलव
बलवत
बलवद
बलवन
बलवर
बलश
बलस
बळ
बव
बवत
बश
बष
बस
बसय
बह
बहव
भ
भक
भकत
भकर
भग
भगण
भगत
भगन
भगम
भगव
भगवच
भगवत
भगवद
भगवन
भगस
भङ
भच
भचक
भज
भजत
भजन
भजस
भञ
भट
भण
भत
भद
भदन
भध
भन
भनम
भप
भपर
भभ
भम
भमन
भय
भयक
भयङ
भयत
भयथ
भयद
भयन
भयप
भयभ
भयम
भयमप
भयव
भयस
भर
भरण
भरणभ
भरणम
भरणस
भरत
भरतर
भरतश
भरतस
भरद
भरन
भरम
भल
भलक
भव
भवक
भवच
भवत
भवतस
भवद
भवन
भवनम
भवप
भवभ
भवम
भवर
भवव
भवश
भवस
भश
भष
भस
भसम
भह
म
मए
मक
मकत
मकथ
मकप
मकम
मकर
मकरण
मकरन
मकल
मकव
मकश
मकस
मख
मखण
मग
मगण
मगत
मगतम
मगध
मगर
मघ
मघव
मघवन
मङ
मच
मचक
मचन
मचर
मज
मजन
मजप
मजम
मजस
मञ
मट
मठ
मड
मण
मणक
मणग
मणत
मणप
मणभ
मणम
मणय
मणव
मणश
मणस
मत
मतङ
मतत
मतद
मतन
मतम
मतय
मतर
मतश
मतस
मथ
मथन
मद
मदक
मदग
मदण
मदत
मदन
मदनस
मदम
मदर
मदल
मदव
मदस
मध
मधर
मन
मनक
मनन
मनप
मनम
मनय
मनर
मनव
मनश
मनस
मनसस
मप
मपक
मपत
मपद
मपर
मपश
मफल
मफलप
मब
मबन
मबल
मभ
मभक
मभद
मम
ममण
ममत
ममध
ममन
ममप
ममभ
ममय
ममर
ममव
ममस
ममह
मय
मयक
मयज
मयत
मयन
मयम
मयश
मयस
मर
मरक
मरण
मरणम
मरणस
मरत
मरथ
मरन
मरम
मरव
मरश
मरस
मरह
मल
मलक
मलत
मलप
मलम
मलय
मलव
मलस
मव
मवक
मवत
मवद
मवध
मवन
मवर
मवल
मवश
मवस
मश
मशक
मशकटम
मशत
मशब
मशर
मष
मस
मसङ
मसत
मसद
मसन
मसम
मसर
मसहस
मह
महच
महत
महद
महन
महम
महर
महस
य
यक
यकक
यकत
यकतय
यकथ
यकन
यकप
यकपर
यकम
यकर
यकरण
यकल
यकव
यकश
यकस
यख
यखण
यग
यगच
यगण
यगत
यगन
यगम
यगर
यघ
यङ
यच
यचक
यचत
यचन
यचर
यज
यजत
यजन
यजम
यजय
यजस
यञ
यट
यटन
यड
यण
यणप
यणपर
यणम
यणश
यणस
यत
यतइत
यतक
यतत
यतद
यतन
यतनम
यतप
यतम
यतमम
यतमस
यतय
यतर
यतरत
यतरस
यतल
यतव
यतश
यतस
यथ
यथम
यथर
यथव
यद
यदक
यदग
यदत
यदद
यदध
यदन
यदप
यदभ
यदम
यदय
यदर
यदव
यदश
यदस
यदह
यध
यधत
यधन
यधर
यन
यनक
यनत
यनद
यनन
यनप
यनभ
यनम
यनय
यनर
यनव
यनश
यनस
यप
यपक
यपञ
यपत
यपद
यपन
यपर
यपरत
यपरम
यपव
यपश
यपस
यफल
यब
यबन
यबल
यभ
यभक
यभट
यभव
यभवत
यम
यमक
यमग
यमङ
यमच
यमज
यमण
यमत
यमथ
यमद
यमध
यमन
यमनन
यमप
यमपर
यमब
यमभ
यमम
यमय
यमर
यमल
यमव
यमश
यमष
यमस
यमह
यय
ययक
ययग
ययज
ययत
ययन
ययनम
ययनव
ययनस
ययप
ययभ
ययम
ययय
ययलक
ययव
ययश
ययस
यर
यरक
यरण
यरत
यरश
यरस
यरह
यल
यलक
यलङ
यलम
यव
यवक
यवग
यवगम
यवच
यवचन
यवज
यवत
यवद
यवध
यवन
यवप
यवभ
यवम
यवय
यवयव
यवर
यवल
यवश
यवस
यवसन
यवह
यवहर
यश
यशक
यशङ
यशत
यशब
यशर
यशश
यशस
यष
यस
यसक
यसख
यसङ
यसत
यसद
यसन
यसनम
यसप
यसभ
यसम
यसमन
यसमर
यसमव
यसर
यसवन
यसस
यसह
यह
यहन
यहम
यहर
यहस
र
रक
रकक
रकज
रकट
रकण
रकत
रकथ
रकथनम
रकद
रकन
रकप
रकभ
रकम
रकय
रकर
रकरण
रकरणम
रकरणस
रकल
रकव
रकश
रकस
रख
रखण
रखन
रग
रगण
रगत
रगद
रगन
रगम
रगमन
रगर
रगल
रगस
रघ
रघट
रङ
रच
रचक
रचण
रचत
रचन
रचय
रचयत
रचर
रचरण
रचरत
रचल
रचलत
रचलन
रज
रजक
रजत
रजतत
रजतम
रजतस
रजन
रजनन
रजप
रजम
रजय
रजल
रजस
रञ
रट
रड
रण
रणक
रणग
रणत
रणतय
रणद
रणधर
रणन
रणप
रणभ
रणम
रणमत
रणमन
रणय
रणयन
रणर
रणव
रणश
रणस
रत
रतक
रतत
रतद
रतन
रतप
रतपत
रतपर
रतम
रतय
रतर
रतल
रतव
रतवर
रतश
रतस
रथ
रथक
रथत
रथन
रथम
रथमखण
रथमज
रथमत
रथमद
रथमप
रथमम
रथमय
रथमव
रथमस
रथय
रथव
रथस
रद
रदक
रदण
रदत
रदद
रदन
रदप
रदम
रदर
रदश
रदस
रध
रधन
रधर
रन
रनन
रनर
रनष
रप
रपक
रपञ
रपट
रपण
रपत
रपद
रपन
रपय
रपर
रपरत
रपरम
रपल
रपव
रपश
रफ
रफल
रब
रबन
रबल
रभ
रभक
रभङ
रभट
रभत
रभद
रभन
रभम
रभय
रभव
रभवत
रभवन
रभस
रम
रमक
रमकर
रमग
रमङ
रमच
रमज
रमञ
रमण
रमणम
रमणस
रमत
रमथ
रमद
रमध
रमन
रमप
रमपद
रमपर
रमभ
रमम
रमय
रमयत
रमर
रमल
रमव
रमवत
रमवर
रमश
रमस
रमसम
रमह
रय
रयक
रयग
रयच
रयज
रयण
रयणम
रयत
रयद
रयन
रयप
रयभ
रयम
रयय
रयव
रयश
रयस
रर
ररक
ररत
ररथ
ररस
ररह
रल
रलक
रलङ
रलत
रलब
रलम
रलय
रव
रवक
रवग
रवच
रवचन
रवज
रवण
रवणम
रवणस
रवत
रवद
रवदन
रवध
रवन
रवप
रवम
रवय
रवयव
रवर
रवल
रवव
रवश
रवस
रवह
रवहत
रवहन
रश
रशक
रशङ
रशत
रशन
रशब
रशम
रशमन
रशर
रशश
रशस
रष
रस
रसक
रसग
रसगङ
रसङ
रसज
रसञ
रसट
रसत
रसद
रसन
रसप
रसब
रसभ
रसम
रसमन
रसय
रसर
रसरत
रसव
रसवत
रसश
रसस
रसह
रसहस
रह
रहक
रहग
रहगण
रहण
रहणप
रहणम
रहणस
रहत
रहद
रहन
रहप
रहभ
रहम
रहय
रहर
रहरण
रहरत
रहव
रहश
रहस
रहसन
ल
लक
लकण
लकत
लकन
लकप
लकम
लकर
लकल
लकव
लकस
लख
लग
लगणन
लगत
लघ
लङ
लच
लचक
लचर
लज
लजन
लञ
लट
लड
लडर
लण
लत
लतन
लतय
लतर
लथ
लद
लध
लधर
लन
लनक
लनम
लनस
लप
लपक
लपञ
लपत
लपद
लपन
लपर
लफल
लब
लबन
लभ
लभत
लभन
लभम
लभस
लम
लमण
लमत
लमध
लमन
लमप
लमर
लमस
लमह
लय
लयत
लयन
लयम
लयस
लर
लल
ललन
लव
लवक
लवङ
लवण
लवत
लवन
लवम
लवर
लवल
लवश
लवस
लश
लशब
लष
लस
लसक
लसत
लसद
लसन
लसम
लसर
लह
लहर
लहस
ळ
ळक
ळग
ळम
व
वक
वकत
वकथन
वकन
वकप
वकम
वकर
वकल
वकव
वकस
वख
वखण
वग
वगच
वगण
वगत
वगतत
वगतम
वगन
वगम
वगर
वघ
वङ
वच
वचक
वचत
वचन
वचनप
वचनम
वचनमब
वचनव
वचनस
वचम
वचर
वचस
वज
वजन
वजम
वजस
वञ
वट
वड
वडव
वण
वणत
वणम
वणस
वत
वतक
वतत
वतद
वतन
वतप
वतम
वतय
वतर
वतरण
वतव
वतश
वतस
वथ
वद
वदक
वदग
वदत
वदध
वदन
वदप
वदभ
वदम
वदय
वदर
वदव
वदश
वदस
वध
वधन
वधम
वधय
वधर
वधस
वन
वनक
वनग
वनगर
वनत
वनद
वनन
वनप
वनभ
वनम
वनय
वनर
वनव
वनश
वनस
वप
वपक
वपच
वपट
वपत
वपद
वपदस
वपन
वपर
वपरम
वपश
वफल
वब
वबन
वबल
वभ
वभक
वम
वमक
वमग
वमङ
वमज
वमण
वमत
वमथ
वमद
वमध
वमन
वमप
वमभ
वमम
वमय
वमर
वमव
वमश
वमस
वमह
वय
वयक
वयज
वयजन
वयत
वयथ
वयन
वयप
वयब
वयम
वयमन
वयमप
वयय
वयव
वयवत
वयवस
वयश
वयस
वर
वरक
वरग
वरच
वरज
वरजङ
वरण
वरणम
वरणस
वरत
वरथ
वरद
वरन
वरप
वरभ
वरम
वरमन
वरय
वरर
वरल
वरव
वरवर
वरश
वरस
वरसम
वरह
वल
वलक
वलग
वलङ
वलज
वलत
वलद
वलन
वलप
वलभ
वलम
वलय
वलव
वलस
वळ
वव
ववक
ववच
ववचन
ववत
ववद
ववध
ववन
ववर
ववल
ववश
ववस
वश
वशक
वशङ
वशत
वशब
वशम
वशर
वशस
वष
वषट
वस
वसक
वसङ
वसत
वसथ
वसद
वसन
वसम
वसमर
वसय
वसर
वसव
वसवर
वसस
वसह
वह
वहण
वहत
वहन
वहम
वहर
वहस
श
शक
शकट
शकत
शकम
शकर
शकल
शकस
शग
शङ
शच
शज
शट
शठ
शण
शत
शतक
शतग
शतत
शततम
शतद
शतध
शतन
शतप
शतपत
शतभ
शतम
शतय
शतर
शतव
शतवर
शतश
शतस
शतसहस
शद
शदक
शदध
शदर
शध
शधर
शन
शनक
शनत
शनन
शनप
शनम
शनय
शनव
शनश
शनस
शप
शपत
शपथ
शपर
शफ
शब
शबर
शबल
शभ
शम
शमध
शमन
शमप
शमभ
शमय
शमयत
शमस
शमह
शय
शयत
शयन
शयप
शयम
शयव
शयस
शर
शरज
शरण
शरणम
शरत
शरथ
शरद
शरभ
शरम
शरव
शरवर
शरस
शरह
शल
शलक
शलम
शव
शवत
शवद
शवम
शवर
शवश
शवस
शश
शशक
शशब
शष
शस
शसन
शसम
शह
शहस
ष
षक
षकत
षकम
षकर
षकल
षकस
षग
षगत
षगन
षघ
षङ
षच
षचर
षज
षजन
षजम
षञ
षट
षड
षडक
षडङ
षडश
षडह
षण
षणक
षणज
षणत
षणतय
षणद
षणन
षणप
षणपर
षणभ
षणम
षणमन
षणमप
षणय
षणर
षणलक
षणव
षणश
षणस
षणसम
षत
षतम
षतय
षतस
षथ
षद
षदन
षदम
षदर
षध
षधम
षधय
षधर
षधस
षन
षप
षपत
षपद
षपय
षपर
षब
षभ
षभक
षभध
षभस
षम
षमज
षमत
षमध
षमन
षमप
षमभ
षमम
षमय
षमव
षमस
षमह
षय
षयक
षयकत
षयकर
षयज
षयत
षयतय
षयद
षयन
षयप
षयभ
षयम
षयर
षयव
षयश
षयस
षर
षरक
षरत
षरन
षरम
षरव
षरस
षरह
षल
षलक
षव
षवचन
षवत
षवद
षवन
षवर
षवश
षश
षशत
षशब
षष
षस
षसत
षसम
षसस
षसहस
षह
स
सक
सकत
सकम
सकर
सकल
सकलम
सकलव
सकलस
सकस
सख
सखण
सग
सगण
सगत
सगन
सगर
सघ
सङ
सच
सचत
सचन
सचर
सज
सजन
सञ
सट
सण
सत
सतत
सततम
सतर
सथ
सद
सदक
सदन
सदम
सदर
सदस
सदसत
सदसद
सध
सधर
सधस
सन
सनक
सनत
सनन
सनप
सनपर
सनम
सनय
सनव
सनस
सप
सपक
सपत
सपद
सपर
सफ
सफल
सब
सबक
सबन
सबल
सभ
सभक
सम
समक
समग
समङ
समच
समज
समझ
समञ
समण
समत
समद
समध
समन
समनन
समप
समपद
समभ
समभवत
समम
सममण
समय
समयस
समर
समल
समव
समवर
समवस
समश
समष
समस
समह
सय
सयत
सयन
सर
सरक
सरण
सरत
सरद
सरन
सरम
सरय
सरल
सरव
सरस
सरसस
सल
सलक
सलम
सलय
सव
सवक
सवत
सवदत
सवन
सवनम
सवम
सवर
सवश
सवस
सश
सशब
सशर
सष
सस
ससम
ससर
सह
सहक
सहच
सहचर
सहज
सहत
सहद
सहन
सहप
सहभ
सहम
सहय
सहर
सहव
सहस
ह
हक
हकत
हकम
हकर
हकस
हग
हङ
हच
हचर
हज
हट
हठ
हण
हणम
हत
हतत
हतप
हतम
हतव
हतश
हतस
हथ
हद
हध
हन
हनदत
हनन
हनम
हनस
हप
हपत
हपर
हब
हभ
हम
हमध
हमन
हमप
हमय
हमस
हय
हयग
हयत
हयन
हयम
हर
हरक
हरण
हरणम
हरत
हरन
हरम
हरय
हरस
हल
हलन
हलम
हव
हवत
हवन
हवम
हवर
हश
हस
हसत
हसन
हसम
हह
़
ऽ
ऽइत
ऽक
ऽकर
ऽख
ऽग
ऽगस
ऽघ
ऽङ
ऽच
ऽज
ऽजन
ऽञ
ऽण
ऽत
ऽतस
ऽथ
ऽथव
ऽद
ऽध
ऽधम
ऽधर
ऽन
ऽनघ
ऽनन
ऽनय
ऽनर
ऽनल
ऽप
ऽपक
ऽपत
ऽपर
ऽपव
ऽपश
ऽपह
ऽब
ऽभ
ऽभव
ऽभवत
ऽभवद
ऽभवन
ऽम
ऽमन
ऽमर
ऽय
ऽयन
ऽयम
ऽयमन
ऽर
ऽरण
ऽल
ऽलङ
ऽव
ऽवक
ऽवग
ऽवगम
ऽवत
ऽवद
ऽवध
ऽवन
ऽवभ
ऽवयव
ऽवर
ऽवल
ऽवश
ऽवस
ऽश
ऽष
ऽस
ऽसत
ऽसम
ऽह
ऽहन
ऽहम
ऽहमस
ऽहर
ऽऽ
ऽऽक
ऽऽग
ऽऽगत
ऽऽच
ऽऽज
ऽऽत
ऽऽद
ऽऽध
ऽऽन
ऽऽनन
ऽऽप
ऽऽय
ऽऽर
ऽऽव
ऽऽश
ऽऽस
ऽऽह
ा
ि
ी
ु
ू
ृ
ॄ
ॅ
ॆ
े
ै
ॉ
ॊ
ो
ौ
्
ॎ
ॐ
॑
॒
ॠ
ॡ
ॢ
।
॥
०
००
०००
००१
००२
००३
००४
००५
००६
००७
००८
००९
०१
०१०
०११
०१२
०१३
०१४
०१५
०१६
०१७
०१८
०१९
०२
०२०
०२१
०२२
०२३
०२४
०२५
०२६
०२७
०२८
०२९
०३
०३०
०३१
०३२
०३५
०३६
०३७
०३८
०३९
०४
०४०
०५
०६
०६४
०६६
०६७
०७
०७०
०७२
०७६
०७७
०७९
०८
०८२
०९
०९४
१
१०
१००
१०००
१०१
१०२
१०३
१०४
१०५
१०६
१०७
१०८
१०९
११
११०
१११
११२
११३
११४
११५
११६
११७
११८
११९
१२
१२०
१२१
१२२
१२३
१२४
१२५
१२६
१२७
१२८
१२९
१३
१३०
१३१
१३२
१३३
१३४
१३५
१३६
१३७
१३८
१३९
१४
१४०
१४१
१४२
१४३
१४४
१४५
१४६
१४७
१४८
१४९
१५
१५०
१५१
१५२
१५३
१५४
१५५
१५६
१५७
१५८
१५९
१६
१६०
१६१
१६२
१६३
१६४
१६५
१६६
१६७
१६८
१६९
१७
१७०
१७१
१७२
१७३
१७४
१७५
१७६
१७७
१७८
१७९
१८
१८०
१८१
१८२
१८३
१८४
१८५
१८६
१८७
१८८
१८९
१९
१९०
१९१
१९२
१९३
१९४
१९५
१९६
१९७
१९८
१९९
२
२०
२००
२००१
२०१
२०११
२०२
२०३
२०४
२०५
२०६
२०७
२०८
२०९
२१
२१०
२११
२१२
२१३
२१४
२१५
२१६
२१७
२१८
२१९
२२
२२०
२२१
२२२
२२३
२२४
२२५
२२६
२२७
२२८
२२९
२३
२३०
२३१
२३२
२३३
२३४
२३४५
२३५
२३६
२३७
२३८
२३९
२४
२४०
२४१
२४२
२४३
२४४
२४५
२४६
२४७
२४८
२४९
२५
२५०
२५१
२५२
२५३
२५४
२५५
२५६
२५७
२५८
२५९
२६
२६०
२६१
२६२
२६३
२६४
२६५
२६६
२६७
२६८
२६९
२७
२७०
२७१
२७२
२७३
२७४
२७५
२७६
२७७
२७८
२७९
२८
२८०
२८१
२८२
२८३
२८४
२८५
२८६
२८७
२८८
२८९
२९
२९०
२९१
२९२
२९३
२९४
२९५
२९६
२९७
२९८
२९९
३
३०
३००
३०१
३०२
३०३
३०४
३०५
३०६
३०७
३०८
३०९
३१
३१०
३११
३१२
३१३
३१४
३१५
३१६
३१७
३१८
३१९
३२
३२०
३२१
३२२
३२३
३२४
३२५
३२६
३२७
३२८
३२९
३३
३३०
३३१
३३२
३३३
३३४
३३५
३३६
३३७
३३८
३३९
३४
३४०
३४१
३४२
३४३
३४४
३४५
३४६
३४७
३४८
३४९
३५
३५०
३५१
३५२
३५३
३५४
३५६
३६
३६०
३६१
३६२
३६३
३६४
३६५
३६६
३६८
३७
३७१
३८
३८०
३८१
३८२
३८३
३९
४
४०
४००
४१
४२
४३
४४
४५
४६
४७
४८
४९
५
५०
५००
५१
५२
५३
५४
५५
५६
५७
५८
५९
६
६०
६१
६२
६३
६४
६५
६६
६७
६८
६९
७
७०
७१
७२
७३
७४
७५
७६
७७
७८
७९
८
८०
८१
८२
८३
८४
८५
८६
८७
८८
८९
९
९०
९१
९२
९३
९४
९५
९६
९७
९८
९९
॰
ং
ঃ
ক
গ
জ
ট
ড
ত
থ
দ
ধ
ন
প
ব
ম
য
র
ল
শ
ষ
স
হ
়
া
ি
ী
ু
ৃ
ে
্
ৰ
ં
ક
ગ
જ
ત
દ
ન
પ
મ
ય
ર
લ
વ
શ
સ
ા
િ
ી
ુ
ૂ
ે
ો
્
க
கள
ச
ஜ
ட
ண
த
ந
ன
ப
ம
ய
ர
ற
ல
ள
ழ
வ
ஷ
ஸ
ா
ி
ீ
ு
ூ
ெ
ே
ை
்
ి
్
ಂ
ಕ
ಗ
ಚ
ಜ
ಟ
ಡ
ತ
ದ
ನ
ಪ
ಬ
ಮ
ಯ
ರ
ಲ
ವ
ಶ
ಸ
ಹ
ಾ
ಿ
ು
ೂ
ೆ
್
ೕ
೦
ം
ക
ച
ട
ത
ന
പ
യ
ര
ല
വ
ാ
ി
ു
െ
േ
്
་
།
༡
༢
༣
ཀ
ཁ
ག
གཅ
གཉ
གནས
གཞ
གཟ
གས
ང
ངས
ཅ
ཅན
ཆ
ཇ
ཉ
ཏ
ཐ
ད
དག
དང
དབ
དབང
དམ
ན
ནད
ནས
པ
པའ
པའམ
པར
ཕ
བ
བག
བད
བཞ
བཟ
བའ
བར
བས
མ
མང
མཆ
མཐ
མཚན
མས
ཚ
ཞ
ཟ
འ
འཁ
འག
འཇ
འཐ
འད
འཕ
འབ
འཛ
ཡ
ཡང
ར
རང
རབ
ལ
ལམ
ལས
ཤ
ས
ཨ
ཱ
ི
ུ
ེ
ོ
ྐ
ྒ
ྔ
ྗ
ྙ
ྟ
ྡ
ྣ
ྤ
ྦ
ྨ
ྩ
ྫ
ྭ
ྱ
ྲ
ླ
ྷ
ፃ
᳐
᳒
᳖
᳘
ᳪ
᳭
ᳲ
​
‌
‍
‎
–
—
―
‘
’
“
”
„
†
•
…
€
™
→
↔
↷
−
√
③
④
⑦
■
▪
▫
●
★
♚
♛
✉
✎
⺀
⺄
⺆
⺈
⺊
⺌
⺕
⺝
⺸
⺼
⿰
⿱
⿲
⿳
⿴
⿵
⿶
⿷
⿸
⿹
⿺
⿻
、
。
〢
く
と
の
゙
コ
マ
ユ
ー
㇁
㇂
㇄
㇇
㇈
㇉
㇓
㐁
㐄
㐅
㐌
㐫
㐬
㐭
㐮
㐱
㑒
㒵
㒸
㒼
㓁
㓞
㔾
㕛
㕣
㖾
㘝
㚅
㚇
㚔
㚘
㝉
㝡
㝴
㝵
㞋
㞢
㞷
㠩
㠭
㠯
㡀
㡭
㡿
㢲
㢴
㣇
㣺
㥯
㪅
㫄
㫐
㫒
㫺
㬅
㬎
㬥
㬰
㲋
㳄
㷠
㸒
㸚
㸦
㼌
㼲
㽞
㿟
䀠
䂞
䍃
䏍
䒑
䖍
䖒
䖝
䖵
䙴
䚻
䜌
䝿
䡛
䧹
䪞
一
丁
丂
七
丄
丅
丆
万
丈
三
上
下
丌
不
与
丏
丐
丑
专
且
丕
世
丘
丙
业
东
丞
丢
丣
两
严
並
丨
丩
个
丫
丬
中
丮
丰
丱
串
丵
丶
丷
丸
丹
为
主
丽
丿
乀
乂
乃
久
乆
乇
么
义
之
乌
乍
乎
乏
乐
乑
乔
乖
乗
乘
乙
乚
乛
乜
九
乞
也
习
乡
乳
乾
亀
亅
了
亇
予
争
事
二
亍
于
亏
亐
云
互
亓
五
井
亘
亚
亜
亞
亟
亠
亡
亢
交
亥
亦
产
亨
亩
享
京
亭
亮
亯
亰
亲
亳
亶
亷
人
亻
亼
亾
仁
今
介
仌
从
仐
仑
仒
仓
仕
他
付
仝
代
令
以
任
企
伊
伏
伐
休
会
伯
但
位
何
佘
余
作
佥
使
來
侈
侌
侖
侯
侵
便
保
俞
信
修
倉
倍
候
倠
備
僉
僕
儿
兀
允
兂
元
兄
充
兆
兇
先
光
兊
克
兌
免
兑
兒
兓
兔
党
兜
兟
入
全
兩
兪
八
公
六
兮
兰
共
关
兵
其
具
典
兹
兼
冀
冂
冃
冄
内
冈
冉
冊
冋
册
再
冎
冏
冐
冒
冓
冖
冗
冘
军
农
冝
冡
冥
冫
冬
冷
几
凡
凢
凵
凶
凷
凸
凹
出
函
凾
刀
刁
刂
刃
刄
刅
分
切
刍
刑
刕
刖
列
刘
则
初
別
利
别
到
制
刺
則
削
剌
前
剡
剽
劉
力
功
加
劦
助
劫
劳
劵
勃
勇
勉
勒
動
務
勞
勤
勹
勺
勻
勾
勿
匀
匂
包
匆
匈
匊
匋
匍
匕
化
北
匚
匝
匡
匪
匱
匸
匹
区
医
匽
匿
區
十
卂
千
卄
卅
卆
升
午
卉
半
卌
华
卑
卒
卓
单
卖
南
卜
卝
卞
占
卡
卢
卣
卤
卦
卩
卪
卬
卯
印
危
即
却
卵
卷
卸
卻
厂
厃
厄
历
厈
厉
厌
厓
厘
厚
原
厤
厥
厨
厭
厲
厶
厷
厸
去
厼
厽
叀
参
參
叅
又
叉
及
友
双
反
叐
发
叒
叔
叕
取
受
叚
叜
叟
口
古
句
另
叩
只
召
可
台
叱
史
右
叵
号
司
叹
吂
各
吅
合
吉
吊
吋
同
名
后
吏
向
吕
君
吝
吞
否
含
启
吳
吴
吹
吾
呂
呆
呈
告
员
呙
周
命
咅
和
咎
咠
咢
咨
咸
咼
哀
品
哉
員
哥
哲
唐
商
啇
問
啚
啬
啻
善
喜
喬
單
喿
嗇
噩
嚴
囊
囗
囘
囙
囚
四
回
囟
因
囧
囬
困
囱
囷
固
国
圂
圅
國
圍
圓
土
圡
圣
圥
在
圭
地
圶
圼
坐
坒
坚
坴
垂
垔
垚
埀
埋
埶
執
基
堂
堅
堆
堇
堯
塞
墨
壘
士
壬
壯
声
壳
壴
壹
壺
壽
夂
处
夅
夆
备
夊
夋
夌
复
夏
夒
夕
外
夗
夘
多
夜
夢
大
夨
天
太
夫
夬
夭
央
失
夲
头
夷
夸
夹
夻
夾
奂
奄
奇
奈
奉
奎
奏
奐
契
奓
奔
奚
奞
奠
奢
奥
奭
女
奴
奻
好
如
妄
妙
妟
妥
妻
妾
姑
委
姜
威
娄
婁
婴
嬰
嬴
子
孑
孔
孕
孖
字
存
孚
孛
孝
孟
季
孤
学
孫
孱
學
宀
宁
宂
它
宅
宇
守
安
宋
完
宏
宓
宗
官
定
宛
宜
宝
客
宣
室
宮
宰
害
家
容
宾
宿
寄
寅
密
富
寒
察
寧
審
寫
寬
寮
寸
对
寺
寻
寽
対
寿
封
尃
射
将
將
專
尉
尊
尋
尌
對
小
少
尒
尓
尔
尖
尗
尚
尞
尢
尣
尤
尧
尨
尭
就
尸
尹
尺
尻
尼
尽
尾
尿
局
居
屈
屋
屎
屏
屑
展
屖
屚
属
屠
屡
屬
屮
屯
屰
山
屵
屾
岁
岂
岑
岡
岩
岳
岸
峯
島
崇
崑
崔
崖
崙
崩
嵬
嶲
巂
巛
川
州
巟
巠
巢
巤
工
左
巧
巨
巩
巫
差
己
已
巳
巴
巷
巸
巽
巾
巿
帀
市
布
希
帚
帛
帝
带
師
席
帶
常
干
平
年
幵
并
幷
幸
幺
幻
幼
幽
幾
广
広
庄
床
底
店
庚
府
度
庫
庭
庶
康
庸
廉
廌
廛
廣
廩
廴
延
廷
建
廾
廿
开
弁
弃
弄
弇
弋
式
弓
弔
引
弗
弘
弜
弟
弥
弦
弱
張
強
强
彊
彌
彎
彐
彑
当
彔
录
彖
彗
彡
形
彥
彦
彧
彭
彳
役
彼
往
待
律
徒
得
徙
從
復
微
徵
心
忄
必
忌
忍
志
忝
忠
忩
快
念
忽
忿
思
怠
急
怱
恆
恒
恩
恭
息
悉
患
悤
悲
悶
惠
惡
惢
愁
愈
意
愛
感
慈
慧
慮
憂
憲
應
戀
戈
戉
戊
戋
戌
戍
戎
成
我
戒
戔
或
戚
戠
戢
截
戲
戶
户
戹
戼
戾
房
所
扁
扇
手
扌
才
打
托
执
承
折
拉
拜
拿
掌
推
提
摩
支
攴
攵
收
攸
改
放
政
敄
敏
敕
敖
敗
敝
敞
敢
散
敦
敫
敬
数
敷
數
斂
文
斉
斊
斗
斤
斥
斩
斬
斯
新
方
於
施
斿
旁
旋
族
无
旡
既
旣
日
旦
旧
旨
早
旬
旱
旲
时
旾
昆
昇
昌
昍
明
昏
易
昔
昗
昜
星
春
昬
是
昱
昴
昷
時
晃
晋
晏
普
景
晶
智
暑
暴
曇
曩
曰
曲
曳
更
曷
書
曹
曼
曾
替
最
朁
會
月
有
朋
服
朔
朕
朗
望
朝
木
朩
未
末
本
札
朮
术
朱
朵
朶
朿
杀
杏
杜
束
条
来
東
杲
杳
松
析
林
枚
果
枝
枲
枼
某
柔
查
柬
柰
柴
栗
桀
桑
桼
梁
條
梟
梨
棘
棠
棥
森
楚
業
楽
榮
樂
樊
欠
次
欣
欮
欲
欶
欽
款
歆
歇
歛
止
正
此
步
武
歨
歪
歮
歯
歰
歲
歴
歷
歸
歹
歺
死
殳
段
殷
殸
殹
殺
殻
殿
毋
毌
母
每
毒
比
毕
毚
毛
毳
氏
氐
民
气
氣
水
氵
氶
氷
永
氺
氾
求
汝
汞
江
沃
沓
沙
沝
泉
法
波
泣
泥
泰
洛
洪
活
派
流
浦
浪
浮
淡
淮
清
渚
渠
湯
滿
漸
火
灬
灭
灰
灵
灷
炅
炎
炏
炗
炙
炭
為
烈
烏
烝
焉
無
焦
焱
然
煞
熊
熏
燕
營
燮
爪
爫
爭
爯
爰
爱
爲
爵
父
爻
爽
爾
爿
片
牙
牚
牛
牜
牟
牢
牧
牪
牽
犀
犬
犭
犮
狂
狄
狊
独
狺
猋
猒
猪
献
獻
玄
率
玉
王
玟
玨
珎
班
琴
瑟
瑩
瓜
瓦
甘
甚
生
産
用
甫
甬
田
由
甲
申
电
甶
男
甸
甹
画
甾
畀
界
畏
畐
留
畜
畟
畢
畧
畨
番
畫
異
畱
當
畺
畾
疊
疋
疌
疑
疒
疾
癶
癸
癹
登
發
白
百
皀
皃
的
皆
皇
皋
皐
皕
皮
皷
皿
盃
盆
盇
盈
益
盍
盎
监
盒
盖
盛
盡
監
盤
盧
目
直
相
盾
省
眇
眉
看
眔
眞
真
眷
眼
眾
着
睘
睪
睿
瞏
瞢
瞿
矍
矛
矞
矢
矣
知
矦
短
石
破
碎
磊
磨
示
礻
礼
祟
票
祭
禀
禁
禸
禹
禺
离
禽
禾
禿
秀
秃
秉
秋
科
秝
秦
移
稟
穀
穌
穴
究
穹
空
穿
突
窄
窒
立
竒
竜
竝
竟
章
童
竹
笑
笠
筆
等
答
箕
算
箴
節
篤
篭
米
粉
粛
粟
粤
粦
粲
糞
糸
糹
系
約
納
素
索
紫
累
細
絜
絫
絲
維
綿
縣
繇
纍
纟
缶
网
罒
罔
罕
罗
罙
罡
罢
罪
署
罷
羅
羊
羌
羍
美
羔
羕
羗
羞
羡
羣
群
義
羲
羸
羽
翁
翏
習
翕
翟
翠
翼
老
耂
考
者
耆
而
耎
耑
耒
耳
耴
耶
耷
聂
聊
聖
聚
聶
聿
肀
肃
肅
肉
肖
肙
肥
肩
肯
育
肴
胃
背
胡
胥
能
脊
脩
膚
臣
臤
臧
自
臬
臭
臯
臱
至
致
臺
臼
臽
臾
臿
舀
舂
舄
與
興
舉
舌
舍
舛
舜
舞
舟
般
艮
良
色
艸
艹
艾
芒
芔
芬
芮
花
芳
芺
芻
苔
苗
苟
若
苦
英
茶
茸
荅
草
荒
荣
荼
莆
莧
莫
莽
菆
菊
菐
華
萬
落
葉
著
葛
董
葵
蒙
蒦
蒼
蓋
蓬
蓺
蔑
蔡
蕉
蕭
薄
薛
薦
薰
藍
藏
藥
蘭
虍
虎
虐
虒
虔
處
虖
虗
虘
虚
虛
虜
虞
虫
虽
蚤
蚩
蜀
蜜
蟲
蠡
血
行
衍
衛
衣
衤
表
衮
衰
袁
袞
褭
褱
襄
襾
西
覀
要
覃
見
規
覓
覧
親
覽
见
角
解
言
訁
訇
計
詹
誩
諸
讠
谷
豆
豈
豊
豐
豕
豖
豙
象
豦
豩
豪
豸
貇
貝
貞
貟
負
貢
貧
貪
貫
責
貳
貴
買
費
賁
資
賈
賏
賓
賔
賛
賞
賢
賣
質
賴
贊
贝
贡
责
贯
贲
贵
赖
赞
赤
赦
走
越
足
路
蹇
身
躬
車
軍
軎
軟
輦
车
辛
辜
辟
辥
辰
辱
農
辵
辶
边
达
过
近
连
迷
追
退
送
逆
逐
通
速
造
逢
連
逮
進
遀
遂
過
道
達
遣
適
遷
遺
邊
邑
邕
那
邦
邪
郎
部
郭
都
鄉
酉
酋
配
酓
釆
采
里
重
野
量
金
釒
錢
钅
長
镸
长
門
閃
閉
開
閏
閑
閒
間
閔
閵
閻
闌
门
间
闷
阑
阜
阝
阿
降
陳
隆
隊
隋
隡
隨
隱
隶
隹
隺
隻
隼
隽
难
雀
雁
集
雈
雋
雍
雐
雔
雙
雚
雜
雝
離
難
雨
雩
雪
雲
零
雷
需
霍
霜
霝
霞
霸
靈
靑
青
非
靡
面
靣
革
韋
韦
韭
韯
韱
音
頁
頃
項
須
頗
頡
頻
顛
页
風
风
飛
飞
食
飠
養
饣
首
香
馬
馮
駦
马
骨
高
髟
鬥
鬯
鬲
鬼
魚
魯
鮮
鱼
鲁
鳥
鳳
鸟
鹵
鹿
麃
麗
麥
麦
麻
黃
黄
黍
黎
黑
黒
黨
黹
黽
黾
鼎
鼓
鼠
鼻
齊
齋
齐
齒
齿
龍
龙
龜
龟
龠
龰
龱
龴
龵
龶
龷
龸
龹
꣡
꣢
꣣
꣤
꣥
꣫
꣬
꣯
ꣲ
ꣳ






者
艹
﻿
？
､
�
𠀁
𠀃
𠀆
𠀉
𠀎
𠀐
𠁁
𠁣
𠂆
𠂇
𠂈
𠂉
𠂊
𠂋
𠂎
𠂒
𠂔
𠂛
𠂡
𠂢
𠂤
𠂬
𠂭
𠂹
𠃊
𠃋
𠃌
𠃍
𠃎
𠃑
𠃓
𠃔
𠃜
𠄌
𠄎
𠄠
𠄢
𠆢
𠆥
𠇍
𠈌
𠌵
𠓜
𠔉
𠔥
𠔼
𠔽
𠔿
𠕀
𠕁
𠕋
𠘧
𠘨
𠙻
𠙼
𠚏
𠚒
𠚤
𠚪
𠣏
𠤎
𠤕
𠥓
𠦄
𠦑
𠦝
𠧒
𠧗
𠧪
𠩺
𠪚
𠫓
𠫔
𠫤
𠬛
𠬝
𠬞
𠬢
𠬤
𠬶
𠮛
𠮦
𠮷
𠯑
𠱠
𠳮
𠷎
𡈼
𡉀
𡉵
𡌥
𡍮
𡏳
𡕒
𡕩
𡕰
𡖅
𡗗
𡗜
𡘆
𡘤
𡧱
𡨄
𡩧
𡬠
𡭽
𡰣
𡰥
𡰪
𡰯
𡰱
𡷈
𡸁
𡿨
𡿩
𡿪
𡿺
𢀖
𢀛
𢀩
𢁙
𢆉
𢆰
𢆶
𢇁
𢇇
𢉖
𢌬
𢌿
𢏚
𢑑
𢑚
𢖻
𢙣
𢛳
𢦏
𢦒
𢧵
𢼄
𢾕
𣁋
𣄼
𣅀
𣅽
𣍘
𣎳
𣎵
𣏋
𣏼
𣗥
𣥂
𣥖
𣦵
𣦼
𣧄
𣪊
𣪠
𣬉
𣳾
𣶒
𤇾
𤊽
𤐫
𤓰
𤔔
𤕨
𤣩
𤰇
𤰔
𤰞
𤴓
𤴔
𤽄
𥁑
𥁕
𥃦
𥃩
𥃭
𥇡
𥑟
𥘅
𥘈
𥝢
𥫗
𥱡
𦈢
𦉪
𦉬
𦉼
𦍌
𦍒
𦎧
𦐇
𦓔
𦔮
𦘒
𦙃
𦚏
𦣝
𦣞
𦣻
𦥑
𦥔
𦥯
𦨉
𦭝
𦰩
𧆞
𧈧
𧘇
𧰨
𧴪
𧴮
𧵩
𧾷
𨸏
𨾴
𩙿
𩠐
𩫏
𩵋
𪉷
𪜀
𪟽
𪠲
𪩲
𫇦
𫔭
𫜸
𫝀
𫠣
𫠩
𫢉
𫥞
𫩏
𫩠
𫪡
𫲽
𫶧
𬀷
𬐘
𬗌
𬙙
𬛸
𬜯
𬟩
𬯁
𬴘
𬺻
𬼉
𬼖
𭀰
𭁈
𭁨
𭅰
𭑈
𭕄
𭗼
𭤨
𭥫
𭻾
𮅕
𮊿
𮍌
𮍏
𮓗
𮥼
𮧮
廾
𰀁
𰀄
𰀈
𰀉
𰀕
𰀠
𰀡
𰀢
𰀪
𰁜
𰃮
𰆊
𰆘
𰋙
𰕎
𰢴
𰧭
𰯲
00--
01--
02--
03--
04--
05--
06--
07--
08--
09--
28--
29--
30--
31--
32--
33--
34--
55--
a--
ab--
abs--
ac--
ad--
ag--
ai--
al--
ali--
alph--
am--
an--
ans--
any--
app--
ar--
arc--
arya--
as--
asc--
associ--
astr--
at--
attri--
au--
aug--
aus--
av--
aw--
b--
ba--
ban--
be--
beau--
ben--
bh--
bi--
bl--
bo--
br--
bre--
bri--
bs--
bsg--
bst--
bu--
budd--
by--
bz--
c--
ca--
calcu--
ce--
cen--
ch--
cha--
cit--
cl--
clo--
co--
com--
con--
condi--
contri--
cou--
coun--
cr--
cre--
cri--
cu--
d--
da--
data--
dd--
de--
dec--
def--
defin--
deg--
deli--
den--
dep--
desc--
devo--
di--
dic--
dis--
disc--
dist--
do--
dr--
du--
e--
eag--
ecli--
eff--
ele--
elec--
em--
en--
equiv--
es--
et--
evi--
ex--
excell--
expla--
f--
fa--
fe--
fi--
fix--
fl--
fo--
fr--
frequ--
fru--
g--
ga--
ge--
get--
gi--
glo--
go--
gr--
gra--
gran--
gre--
gu--
gz--
h--
ha--
he--
hi--
ho--
hu--
hund--
i--
id--
iden--
ig--
illus--
im--
in--
inc--
indi--
inse--
instru--
inter--
is--
it--
j--
ja--
jo--
ju--
k--
ka--
kali--
kan--
kar--
ke--
kh--
ki--
kr--
ku--
l--
la--
le--
li--
liv--
lo--
lu--
m--
ma--
man--
mar--
mark--
mc--
me--
men--
mi--
mn--
mo--
mon--
moun--
mu--
my--
n--
na--
nara--
nav--
ne--
nega--
news--
ni--
no--
nu--
nume--
o--
ob--
oc--
occu--
om--
on--
op--
or--
out--
p--
pa--
pad--
page--
pe--
per--
ph--
phen--
philo--
phy--
pi--
pla--
ple--
plu--
po--
poss--
pr--
pra--
pre--
prec--
pri--
pro--
prob--
produc--
prog--
pu--
pub--
q--
qu--
qual--
quo--
r--
ra--
re--
rec--
regard--
reli--
repe--
res--
reve--
revolu--
rg--
ri--
ro--
rou--
rt--
ru--
s--
sa--
sac--
sar--
sby--
schola--
se--
see--
selec--
sen--
ser--
sg--
sh--
sha--
shi--
si--
sid--
sk--
sl--
slo--
sn--
so--
soc--
sp--
spe--
spec--
sphe--
spi--
spo--
sr--
st--
stu--
su--
sub--
succ--
sugg--
sva--
sw--
sy--
syll--
t--
ta--
tan--
tax--
te--
th--
ti--
to--
tr--
tradi--
tre--
tri--
ts--
tsh--
tu--
u--
un--
uni--
up--
uplo--
utt--
v--
va--
ve--
vi--
vo--
w--
war--
we--
wel--
wi--
wiki--
wom--
wr--
wri--
x--
xx--
y--
ya--
yo--
z--
zh--
अ--
अक--
अज--
अथ--
अन--
अप--
अब--
अम--
अर--
अल--
अव--
अस--
आ--
आई--
आत--
आभ--
आम--
आल--
आव--
आह--
इ--
ई--
उ--
उद--
ऊ--
ऋ--
ऌ--
ए--
एक--
एव--
ऐ--
ऑ--
ओ--
औ--
औप--
क--
कच--
कज--
कट--
कण--
कत--
कन--
कम--
कर--
कल--
कस--
ख--
खम--
खर--
खल--
ग--
गग--
गज--
गण--
गत--
गद--
गन--
गभ--
गम--
गर--
गल--
घ--
घट--
घन--
ङ--
च--
चक--
चन--
चम--
चय--
चर--
चल--
छ--
ज--
जक--
जड--
जत--
जन--
जप--
जभ--
जम--
जय--
जर--
जल--
जव--
झ--
ञ--
ट--
टक--
टन--
टप--
टम--
टव--
ठ--
ड--
डन--
डल--
डव--
डश--
ढ--
ण--
णक--
णन--
णम--
णर--
णव--
त--
तक--
तग--
तज--
तत--
तन--
तप--
तभ--
तय--
तर--
तल--
तव--
तश--
तस--
थ--
थक--
थग--
थम--
थर--
थल--
द--
दक--
दग--
दन--
दप--
दभ--
दम--
दय--
दर--
दल--
दव--
दश--
दस--
ध--
धक--
धग--
धत--
धन--
धम--
धर--
धव--
धस--
न--
नक--
नख--
नग--
नज--
नत--
नद--
नन--
नप--
नभ--
नम--
नय--
नर--
नल--
नव--
नश--
नस--
प--
पक--
पट--
पण--
पत--
पद--
पन--
पम--
पय--
पर--
पल--
पव--
पश--
पस--
फ--
फल--
ब--
बक--
बन--
बर--
बल--
भ--
भग--
भन--
भम--
भय--
भर--
भव--
म--
मक--
मग--
मज--
मत--
मद--
मन--
मप--
मभ--
मम--
मय--
मर--
मल--
मव--
मस--
मह--
य--
यक--
यग--
यघ--
यच--
यज--
यण--
यत--
यन--
यप--
यभ--
यर--
यल--
यश--
यस--
र--
रक--
रग--
रज--
रण--
रत--
रथ--
रद--
रन--
रप--
रभ--
रम--
रय--
रर--
रल--
रस--
रह--
ल--
लक--
लग--
लज--
लन--
लम--
लय--
लल--
लव--
ळ--
व--
वक--
वज--
वट--
वण--
वत--
वद--
वध--
वन--
वप--
वभ--
वय--
वर--
वव--
वश--
श--
शक--
शग--
शत--
शद--
शन--
शम--
शय--
शर--
शल--
शव--
शश--
ष--
षक--
षण--
षत--
षप--
षभ--
षम--
षय--
षर--
षव--
षश--
षस--
स--
सक--
सकल--
सग--
सद--
सन--
सभ--
सर--
सल--
सव--
सह--
ह--
हत--
हन--
हम--
हर--
हल--
हस--
ऽ--
ऽग--
ऽन--
ऽप--
ऽव--
ऽऽ--
ॐ--
ॠ--
३९--
க--
த--
ப--
ர--
வ--
ག--
ཆ--
ཐ--
ད--
ན--
བ--
མ--
ཟ--
འ--
ར--
ལ--
--0
--1
--2
--3
--4
--5
--6
--7
--8
--9
--a
--adi
--ags
--ah
--ak
--al
--am
--an
--ance
--ant
--ar
--ard
--ary
--as
--ase
--ate
--ated
--ation
--ations
--ay
--b
--bed
--ble
--bs
--c
--ca
--cal
--ce
--ced
--ces
--ch
--ck
--cs
--ct
--cted
--ctly
--cts
--cy
--d
--da
--de
--ded
--der
--dom
--ds
--e
--ed
--ef
--el
--en
--ence
--ent
--ents
--ep
--er
--ering
--ern
--ers
--es
--ess
--est
--et
--ever
--f
--fect
--fied
--ful
--g
--ge
--ger
--gs
--h
--ha
--hed
--hi
--hing
--ht
--i
--ia
--ial
--ian
--ible
--ic
--ical
--ice
--ics
--id
--ied
--ies
--ign
--ika
--il
--ily
--im
--in
--ine
--ing
--ion
--ions
--ir
--is
--ism
--it
--ita
--itation
--ite
--ity
--ive
--j
--ja
--k
--ka
--ke
--ks
--l
--la
--ld
--le
--less
--li
--lly
--ls
--lt
--ly
--m
--ma
--me
--ment
--ms
--n
--na
--nal
--nce
--nces
--nd
--nda
--ne
--ned
--ness
--ng
--ngs
--ni
--ning
--nk
--ns
--nt
--nta
--ntal
--ntly
--nts
--nty
--o
--obj
--od
--of
--og
--ol
--omy
--on
--ong
--ons
--op
--or
--os
--ose
--ou
--ough
--ous
--ow
--ows
--p
--pa
--pe
--phy
--ply
--pura
--q
--r
--ra
--ral
--rch
--rd
--rds
--re
--res
--ri
--ring
--rk
--rma
--rn
--row
--rs
--rt
--ry
--s
--sa
--se
--sed
--selves
--ses
--sh
--sion
--sive
--sor
--st
--sya
--t
--ta
--tal
--tch
--te
--ted
--ter
--tes
--th
--ti
--tic
--ting
--tive
--tly
--to
--ton
--tor
--ts
--tta
--tti
--ty
--u
--ual
--ud
--ue
--ught
--ul
--um
--un
--unt
--ur
--ure
--ures
--us
--v
--va
--ve
--ved
--ver
--ves
--ving
--w
--ward
--x
--y
--ya
--ys
--z
--ऄ
--अ
--इ
--ई
--ए
--क
--कत
--कम
--कर
--कल
--कस
--ख
--खण
--ग
--गण
--गत
--गन
--गम
--गर
--घ
--ङ
--च
--चत
--चन
--चर
--छ
--ज
--जन
--झ
--ञ
--ट
--ठ
--ड
--ढ
--ण
--णम
--णस
--त
--तत
--तन
--तप
--तम
--तय
--तस
--थ
--थन
--द
--दत
--दन
--दम
--दर
--दस
--ध
--धर
--न
--नक
--नन
--नप
--नम
--नय
--नर
--नव
--नस
--प
--पक
--पत
--पद
--पर
--फ
--ब
--भ
--भक
--म
--मण
--मत
--मद
--मध
--मन
--मप
--मभ
--मम
--मय
--मर
--मल
--मव
--मस
--मह
--य
--यत
--यन
--यम
--यव
--यस
--र
--रक
--रण
--रत
--रन
--रम
--रस
--ल
--लक
--लम
--ळ
--व
--वत
--वद
--वध
--वन
--वर
--वल
--वश
--वस
--श
--शक
--शत
--शब
--ष
--स
--सङ
--सत
--सद
--सन
--सम
--सर
--ह
--हत
--हन
--हम
--हर
--हस
--ऽ
--०
--००
--१
--२
--३
--४
--५
--६
--७
--८
--९
--ག
--ང
--ད
--ན
--མ
--འ
--ར
--ལ
--ས
