!
"
#
##0
##1
##10
##11
##12
##13
##14
##15
##16
##17
##18
##19
##2
##20
##21
##22
##23
##24
##25
##26
##27
##28
##29
##3
##30
##31
##32
##33
##34
##35
##36
##37
##38
##39
##4
##40
##41
##42
##43
##44
##45
##46
##47
##48
##49
##5
##50
##51
##52
##53
##54
##55
##56
##57
##58
##59
##6
##60
##61
##62
##63
##64
##65
##66
##67
##68
##69
##7
##70
##71
##72
##73
##74
##75
##76
##77
##78
##79
##8
##80
##81
##82
##83
##84
##85
##86
##87
##88
##89
##9
##90
##91
##92
##93
##94
##95
##96
##97
##98
##99
$
%
&
'
(
)
*
+
,
-
.
/
0
00
000
001
005
01
012
013
017
02
03
04
05
06
07
08
09
1
10
100
1000
10000
1001
101
102
103
104
105
1050
106
107
108
109
11
110
1100
1101
111
112
113
114
115
1150
116
117
118
119
12
120
1200
1201
121
122
123
124
125
1250
126
127
128
129
13
130
1300
1301
131
132
133
134
135
1350
136
137
138
139
14
140
1400
1401
141
142
143
144
145
1450
146
147
148
149
1490
1495
15
150
1500
1501
151
1510
1517
152
1520
153
1530
154
1540
155
1550
1555
156
1560
1565
157
1570
1572
158
1580
1585
159
1590
1592
1595
16
160
1600
1601
1603
1605
161
1610
162
1620
1621
1623
1625
1626
163
1630
1631
1632
1635
1638
164
1640
1642
1644
1648
165
1650
1655
1656
166
1660
1661
1666
1667
1669
167
1670
1676
1679
168
1680
1683
1685
1689
169
1690
1695
1699
17
170
1700
1701
1702
1704
1707
1708
1709
171
1710
1712
1713
1714
1715
1716
1718
1719
172
1720
1721
1722
1723
1724
1725
1726
1727
1728
1729
173
1730
1731
1732
1733
1734
1735
1736
1737
1738
1739
174
1740
1741
1742
1743
1744
1745
1746
1747
1748
1749
175
1750
1751
1752
1753
1754
1755
1756
1757
1758
1759
176
1760
1761
1762
1763
1764
1765
1766
1767
1768
1769
177
1770
1771
1772
1773
1774
1775
1776
1777
1778
1779
178
1780
1781
1782
1783
1784
1785
1786
1787
1788
1789
179
1790
1791
1792
1793
1794
1795
1796
1797
1798
1799
18
180
1800
1801
1802
1803
1804
1805
1806
1807
1808
1809
181
1810
1811
1812
1813
1814
1815
1816
1817
1818
1819
182
1820
1821
1822
1823
1824
1825
1826
1827
1828
1829
183
1830
1831
1832
1833
1834
1835
1836
1837
1838
1839
184
1840
1841
1842
1843
1844
1845
1846
1847
1848
1849
185
1850
1851
1852
1853
1854
1855
1856
1857
1858
1859
186
1860
1861
1862
1863
1864
1865
1866
1867
1868
1869
187
1870
1871
1872
1873
1874
1875
1876
1877
1878
1879
188
1880
1881
1882
1883
1884
1885
1886
1887
1888
1889
189
1890
1891
1892
1893
1894
1895
1896
1897
1898
1899
19
190
1900
1901
1902
1903
1904
1905
1906
1907
1908
1909
191
1910
1911
1912
1913
1914
1915
1916
1917
1918
1919
192
1920
1921
1922
1923
1924
1925
1926
1927
1928
1929
193
1930
1931
1932
1933
1934
1935
1936
1937
1938
1939
194
1940
1941
1942
1943
1944
1945
1946
1947
1948
1949
195
1950
1951
1952
1953
1954
1955
1956
1957
1958
1959
196
1960
1961
1962
1963
1964
1965
1966
1967
1968
1969
197
1970
1971
1972
1973
1974
1975
1976
1977
1978
1979
198
1980
1981
1982
1983
1984
1985
1986
1987
1988
1989
199
1990
1991
1992
1993
1994
1995
1996
1997
1998
1999
2
20
200
2000
2001
2002
2003
2004
2005
2006
2007
2008
2009
201
2010
2011
2012
2013
2014
2015
2016
2017
2018
2019
202
2020
2021
2022
203
204
205
206
207
208
209
21
210
211
212
213
214
215
216
217
218
219
22
220
221
222
223
224
225
226
227
228
229
23
230
231
232
233
234
235
236
237
238
239
24
240
241
242
243
244
245
246
247
248
249
25
250
251
252
253
254
255
256
257
258
259
26
260
261
262
263
264
265
266
267
268
269
27
270
271
272
273
274
275
276
277
278
279
28
280
281
282
283
284
285
286
287
288
289
29
290
291
293
295
296
297
299
3
30
300
3000
301
302
303
304
305
306
307
308
309
31
310
311
312
313
314
315
316
317
318
319
32
320
321
322
323
324
325
326
327
328
329
33
330
331
332
333
334
335
336
337
338
339
34
340
341
342
343
344
345
346
347
348
349
35
350
351
352
353
354
355
356
357
358
359
36
360
361
365
37
370
375
378
379
38
380
39
390
4
40
400
41
410
42
420
43
430
44
440
45
450
46
460
462
47
470
48
480
49
5
50
500
5000
51
52
53
54
55
550
56
57
570
58
580
59
6
60
600
61
62
63
639
64
65
650
66
67
68
69
7
70
700
71
72
73
74
75
750
76
77
78
79
8
80
800
81
82
83
84
85
850
86
87
88
89
9
90
900
91
92
93
94
95
96
97
978
98
99
:
;
<
=
>
?
@
\
^
_
`
a
aa
aaomega
ab
abbr
abbrev
about
above
abu
ac
acade
academia
academy
access
achievement
aco
acre
acs
acting
action
activities
actor
actress
ad
add
addclass
added
additional
adelaide
administration
ae
af
afc
affairs
africa
african
after
ag
agc
age
agriculture
ah
aik
air
airdrieonians
airport
aise
ak
al
alabama
albanian
albans
albert
album
alexander
alfred
ali
alianza
alias
aliases
align
all
alliance
alpha
alps
also
alt
alternative
am
ambassador
ame
america
american
americans
americas
amur
an
ancient
and
andre
andrea
andrew
angel
angeles
anna
anne
anniversary
another
anthony
antoni
antonio
any
ap
apostolic
application
applied
april
aquatics
ar
arab
arabic
arc
archaeological
archbishop
architects
architecture
archive
archives
are
area
areas
arg
argentina
args
arguments
arizona
armed
armenian
arms
army
around
array
art
arti
article
articles
artist
artists
arts
arzwiki
as
ash
asia
asian
asked
assembly
associac
associated
association
asteroid
astrakhan
astronomical
astrophysical
at
ateneo
athletic
athletics
atlanta
atle
attempted
attorney
attr
au
auckland
august
austin
australia
australian
austria
austrian
author
auto
automatically
autonomous
av
available
aviation
award
awards
az
b
ba
background
bad
baden
badge
badgers
badminton
bahrain
bajnoksa
baltimore
bangkok
bani
bank
baptist
bar
barcelona
bars
base
baseball
basin
basket
basketball
bath
bavarian
bay
bbc
bc
be
beach
bears
beaux
bec
because
been
before
beginning
beijing
being
belarusian
belgian
belgium
belgrade
belles
below
ben
benfica
beograd
berenices
berg
berlin
best
beta
between
bg
bianco
big
bill
binding
birmingham
bishop
bishops
bk
black
blank
block
blu
blue
blues
bmm
bo
board
bob
body
bois
book
books
borac
border
borough
boston
bot
both
bottom
box
boys
br
bra
branch
brasil
bratislava
bravery
brazil
break
brian
bridge
brighton
brisbane
britain
britannica
british
brooklyn
brothers
brown
brunswick
brussels
bu
bucures
budapest
bulgarian
bulldogs
bundesliga
burgas
business
but
by
c
ca
cairns
cairo
calcio
california
cambridge
camerlengo
campeonato
can
canada
canadian
canal
cape
capibaribe
capitale
caption
cardinal
cardinals
carl
carlos
carolina
case
cases
cash
cat
catalan
catalonia
categories
categorized
category
cathedral
catholic
cato
cave
caxias
cb
cc
cd
cdfs
ce
cell
census
center
central
centre
centro
centrobasket
century
cerro
cerros
cf
cfg
cg
ch
cha
challenge
chamber
champions
championship
championships
change
changes
chapel
character
charles
charlotte
check
chelny
chelyabinsk
chemical
cherepovets
chernomorets
chernykh
chess
chicago
chief
child
children
chile
china
chinese
christ
christian
church
cincinnati
circle
citation
cite
cities
citizen
city
ciudad
civil
ck
cke
cl
claims
clara
class
classical
cleveland
climate
club
clube
cm
cn
cnoc
co
coach
coalition
coast
coat
code
codes
cole
colegio
colle
collection
college
color
colorado
coloradopast
columbia
column
com
coma
command
commander
commission
committee
common
commons
commonwealth
communist
communities
community
companion
company
complex
comprehensive
con
concat
concepcio
conference
config
congress
connecticut
conservative
conservatoire
conservatory
constituent
containing
contemporary
content
conus
convert
coordinates
copa
coping
cordillera
cornelis
cornell
corps
correctional
cosmos
council
councillor
count
country
county
court
coxed
coxless
cp
cr
create
creek
crescent
cricket
crimean
critics
croatian
cross
crown
cruz
cs
cska
css
cu
cultural
culture
cup
current
cwb
cy
cycling
cypriot
cz
czech
d
da
dac
dagenham
daille
dallas
dam
dame
dance
dancing
daniel
danish
dannebrog
data
database
datavalue
date
dates
david
davis
day
days
db
dc
dd
de
death
debehogne
decoration
deep
default
defaults
defence
defender
defensive
del
delta
democracy
democratic
democrats
demographics
denmark
department
deportes
deportiva
deportivo
deprecated
deputies
deputy
der
des
description
descriptions
desert
design
designation
details
detroit
deutsche
deutscher
development
devils
dfgrs
dfgs
dg
di
diamondbacks
dictionary
die
diego
different
dinamo
diocesan
dioceses
director
directory
discussion
display
displayed
distinguished
district
div
diving
divisio
division
dlr
do
doc
doctor
doctorate
documentation
does
domain
domains
don
done
donetsk
double
doubles
doxa
dr
dragons
drama
dramatic
du
duke
dukla
dutch
dynamo
dz
e
ea
each
eagle
eagles
early
east
eastern
eb
ec
eco
economic
economics
ed
edcs
edinburgh
edit
editing
edition
editor
editors
edu
education
edward
ee
ef
eg
egsirac
egypt
egyptian
eh
ehc
eight
eintracht
either
ej
ek
el
election
electric
elementary
elizabeth
else
elseif
em
emperor
empire
empty
en
encyclopædia
end
energiya
energy
engineering
england
english
entertainment
entity
entry
eo
ep
eq
er
era
eric
ernst
erosion
error
es
eso
espan
esporte
esportiva
esportivo
estonian
et
etc
ethnic
ethnikos
eu
eun
europe
european
ev
event
ew
ex
example
examples
exists
express
extensive
external
extra
ey
ez
f
fa
factor
faculty
fakel
false
fame
family
fb
fbc
fc
fd
fe
feature
february
federal
federation
fellow
female
fernando
festival
ff
fg
fh
fiba
fiction
field
fields
fifa
figure
file
film
final
finance
find
finds
fine
finland
finnish
fire
first
fis
five
fix
fj
fk
fl
flag
floor
florida
flying
fm
fn
fo
folk
following
font
foot
football
for
force
forces
foreign
forest
form
format
fort
fotball
found
foundation
fountain
four
fp
fq
fr
frame
frameless
franc
france
francis
francisco
frank
frankfurt
free
freedom
freestyle
french
friedrich
friendship
frl
fro
from
front
fs
fsc
fsv
ft
fu
full
function
futebol
future
fv
fw
fx
fy
fz
g
ga
gadgets
gainsborough
galaxies
galicia
gallery
gama
game
games
gan
gators
gazetteer
gb
gd
ge
gene
general
geonet
george
georgia
german
germany
get
getargs
ghaly
ghost
ghosttowns
ghosttownscanada
giants
gif
girls
given
gj
gje
gks
glasgow
glass
global
gloria
go
goethe
gold
golden
good
gov
government
governor
gp
graduate
grammar
grammy
grand
grande
gray
gre
great
greater
greece
greek
green
greenwood
gregory
group
groups
grs
gsub
gu
guide
gulf
gymnasium
gymnastics
h
ha
hall
hamburg
hamilton
handball
handbook
hans
hapoel
hard
harry
hartford
harvard
has
have
hb
hc
he
head
header
health
heart
help
henri
henry
her
here
heritage
hero
hiddencat
hierarchy
high
higher
hill
hills
his
historic
historical
history
hk
hnk
ho
hockey
holy
home
hong
honor
honorary
honored
honour
honoured
hospital
hotel
house
houston
houten
hoverla
how
hs
html
http
https
hu
hubble
human
humanities
hungarian
hungary
huntsville
hurling
i
iaaf
iana
iata
ic
ice
icon
id
if
ifk
ii
iii
ik
il
illinois
im
image
images
imdb
imperial
in
ina
include
includes
independence
independent
index
india
indian
indiana
individual
indonesia
indoor
industrial
industry
info
infobox
information
input
inscribed
insert
instead
institut
institute
institution
instituto
international
internetarchivebot
into
invalid
iowa
ipairs
iraklis
iran
ireland
irish
iron
ironi
is
isbn
island
islands
iso
israel
it
italian
italy
item
items
its
iucn
j
ja
jabal
jack
jacques
james
jan
january
japan
japanese
jb
jc
jd
je
jean
jefferson
jersey
jerusalem
jewish
ji
jim
jk
jm
jn
jo
joe
johannes
john
johnson
jokerit
jose
joseph
journalism
jp
jpg
jr
js
jt
ju
juan
jubilee
judo
july
jump
junior
just
justice
juventud
juventus
jw
jx
jz
k
ka
kanji
kansas
karl
katowice
kazan
kent
key
kf
kg
khabarovsk
kharkiv
khimki
khrebet
ki
kim
king
kingdom
kings
kiruna
kk
klet
km
knight
knights
know
ko
komets
kong
korea
kryvbas
kryvyi
ks
ku
kyiv
l
la
label
labor
labour
lada
ladies
lady
lake
land
lang
langcode
language
languages
las
last
lat
latin
latvian
lauderdale
law
lawrence
lazarus
lb
le
leader
league
leaves
leda
lee
left
lega
leipzig
len
length
leo
leopold
les
letter
letters
level
levinson
lewis
li
lia
liberal
liberation
liberty
library
lica
lieutenant
life
liga
light
lightweight
ligue
like
lincoln
line
linear
lineman
link
links
lion
lions
list
lists
literary
literature
lithuanian
little
ljubljana
ll
ln
lo
local
location
log
logo
lokomotiv
london
long
lord
los
louis
louisville
love
lower
loyola
lu
luis
lunda
luxembourg
lviv
lyce
lyon
lyudmila
m
ma
mac
macau
maccabi
macs
macsg
madonna
madrid
main
mainz
major
make
making
malaya
malaysia
man
management
manchester
manila
many
map
march
mare
margaret
margin
mari
maria
marie
mark
marlborough
marshall
marti
martin
marvelous
mary
maryland
mass
master
masters
masx
match
math
mathematics
maurice
mauritius
mausolea
mausoleums
max
may
mayor
mcg
me
medal
media
mediawiki
medical
medicine
melbourne
member
memorial
men
merit
merited
message
messages
met
meta
metal
metallurg
metre
metres
metro
metropolitan
mexico
mfc
mfgc
mfk
mg
mi
miami
michael
michel
michigan
middle
mie
mike
mil
militaire
military
milwaukee
min
mining
minister
ministry
minnesota
minsk
mio
missouri
mixed
mm
mo
mobile
mode
modern
mods
module
mogilev
monte
month
montreal
monuments
mordellistena
more
moscow
mosque
most
mount
mountain
mountains
movement
mr
mrk
ms
msg
msu
mt
mu
multiple
municipal
municipality
museum
music
must
mw
my
n
na
naberezhnye
nacional
name
named
names
namespace
national
nationale
nations
natural
nature
naval
navbox
navy
nc
nd
ne
need
neftekhimik
nelson
nes
net
netherlands
new
news
next
ng
ngc
ngp
nhk
ni
night
nikolai
nil
nizhnekamsk
nizhny
njan
nk
no
non
none
nord
nordic
normal
north
northern
norway
norwegian
not
note
notice
notre
nottingham
nova
november
novgorod
novi
novokuznetsk
novorossiysk
novosibirsk
now
ns
num
number
numbers
numeric
nuneaton
o
oak
oara
obj
object
oblast
observatory
oca
october
of
off
office
officer
official
ofk
og
oh
ohio
ok
oklahoma
ol
old
olimpija
olympiad
olympic
olympics
olympique
om
omsk
on
one
online
only
ope
open
opera
opt
optional
options
or
orange
order
orders
oregon
org
original
orlando
orleans
orthodox
os
osaka
oslo
other
ottawa
ou
our
out
output
outstanding
ov
over
oxford
p
pa
pacific
padding
padma
page
pagename
pages
pair
pairs
palace
pan
param
parameter
parameters
params
paris
park
parliament
parms
part
party
pasta
patrick
patriotic
patronage
pattern
paul
pc
pe
peace
peasants
pedagogical
pen
pennsylvania
people
per
performing
person
peru
petah
peter
petersburg
pfc
pg
philadelphia
phoenix
php
physical
physics
pictures
pierre
ping
pitcher
pittsburgh
pl
place
plain
play
player
please
png
po
podolsk
point
poland
police
polish
political
polonia
polytechnic
pontifical
pop
population
port
portal
portland
porto
portrait
ports
portugal
position
possible
post
potential
pour
power
poznan
pp
pr
prague
pre
precision
prefix
preis
premier
preparatory
pres
president
presidential
press
price
priest
priesthood
priests
primera
prince
principal
prison
prix
prize
pro
produces
professional
profile
program
progressive
project
prop
property
protected
protection
protein
province
ps
pt
pu
public
publisher
publishing
puerto
purple
put
px
q
qa
qb
qc
qd
qe
qeshlaq
qf
qg
qid
qj
qk
ql
qm
qn
qo
qp
qq
qr
qs
qt
qu
quadruple
qualification
que
queen
questions
qv
qw
qy
qz
r
ra
race
racing
radical
radio
radnic
railway
railways
ramat
range
rangers
ranges
rank
raw
rb
rc
rd
rdoba
re
reading
ready
real
record
records
recreativa
red
redbridge
redshifts
ref
reference
references
refuges
region
regional
related
relay
religious
remove
republic
republican
require
required
res
research
reservoir
restituta
result
results
ret
retrieved
return
returns
review
rey
rez
rf
rg
rh
ri
ria
rica
rich
richard
richmond
rico
rida
ridge
rieure
riga
right
rights
rih
ring
rio
river
rivers
rivie
rj
rjedalen
rk
rl
rm
rn
ro
road
robert
rochester
rock
rolabel
roma
roman
romania
romanian
rome
ron
root
rosa
rose
rosso
rostelecom
round
rovers
row
rowing
royal
rp
rq
rr
rs
rsfsr
rt
rtg
ru
rugby
run
rural
russia
russian
rv
rw
rx
ry
ryazan
rz
s
sa
sacred
sad
saeima
saint
saints
salzburg
same
san
sancutuary
sandbox
sangmu
sant
santa
santiago
santos
sar
saratov
saudi
sb
sc
scale
school
schools
sci
science
sciences
scientific
scientist
scotland
scott
scottish
screenplay
script
sculls
sd
sdss
sdsscgb
se
sea
search
season
sec
second
secondary
secretary
section
see
segunda
self
seminary
senate
senator
senior
sep
separator
september
serie
series
serra
serrat
server
service
services
set
sf
sg
sh
shanghai
she
shels
shooting
short
shortname
should
show
shri
si
side
sierra
sign
silver
since
singapore
single
singles
sir
site
size
sj
sk
ska
skate
skating
ski
skiing
sl
slaq
slovak
slovenia
slovenian
sm
small
smh
smith
sn
so
soccer
social
socialist
socialists
socie
sociedade
societies
society
socorro
software
sokol
solleftea
some
song
sort
source
south
southern
soviet
sp
space
spain
spanish
spartak
spartans
speaker
special
species
specific
specified
speed
spirit
sport
sporting
sportiva
sportivo
sports
sprint
spvgg
sq
square
squares
sr
ss
ssr
st
sta
staff
stal
standard
stanford
stanley
star
stars
start
starting
startyear
state
statement
states
station
statistics
statue
status
stephen
steve
still
storm
storuman
story
str
street
strikers
string
structurae
studies
studio
stuttgart
style
su
sub
subunit
success
such
suffix
sul
summer
sun
sundsvall
supe
super
superior
supporting
sur
surabaya
survey
sus
sutton
sv
svg
sw
swedish
swimming
swiss
switzerland
sword
sx
sy
sydney
symbol
symphony
synagogue
syracuse
system
sz
t
ta
table
tag
taipei
talk
tallinn
tampa
target
taro
taxonomy
tbilisi
tbol
tc
td
te
team
teams
tech
technical
technology
tel
television
template
templates
temple
temuco
tennessee
tennis
test
testcases
texas
text
tf
tg
tgn
tgs
th
thai
thailand
than
that
the
theater
theatre
their
them
then
theological
theory
there
these
they
third
this
thomas
those
three
through
thumb
thunder
ti
tica
tico
tigers
tikva
time
times
title
tj
tk
tkrs
tl
tm
tmf
tn
to
togliatti
tokyo
tom
tonumber
top
topics
toronto
torpedo
tostring
total
toulouse
tournament
tower
town
tp
tr
track
trains
translation
transport
trenton
trim
trinity
triomphe
trophy
true
trust
ts
tsutomu
tsv
tt
tu
tunisian
turkey
tv
tw
twenty
two
tx
ty
type
types
tyumen
tz
u
ua
ub
uc
uci
ud
uds
ue
uefa
uesac
uf
ufa
ugc
uj
uk
ukraine
ukrainian
ul
um
umea
un
und
under
unesco
unia
unio
union
unionist
unit
united
units
unity
universiade
universidad
universidade
university
up
upper
uq
ur
ural
url
us
usa
usage
usc
use
used
user
users
uses
using
ussr
ustring
ut
utc
utico
utype
uvistadr
uw
uz
uzhhorod
v
va
val
valea
valid
valley
valour
value
values
van
vancouver
var
vararepresentant
vc
vd
ve
version
vf
vfb
vfl
vg
vi
vice
victoria
victorian
victory
video
vienna
vietnam
view
viktoria
villa
village
violent
vipers
virgin
virginia
virtus
vis
vision
visual
vityaz
vj
vladimir
vm
vo
vocation
volgar
volleyball
volume
von
voronezh
vp
vs
vt
vu
vv
vvds
vy
w
wa
wales
walk
walter
wanderers
want
war
warriors
warsaw
was
washington
water
way
wayne
wc
wd
wdk
we
web
website
weiß
welsh
were
weser
west
western
whalers
what
when
where
which
white
who
whw
wide
width
wigglez
wiki
wikibase
wikidata
wikilink
wikimedia
wikipedia
wikitext
wildanimalsanctuary
wildcats
wildlife
wilhelm
will
william
wilson
wimbledon
wings
winter
wisconsin
with
within
without
wltv
wm
woman
women
wood
worcester
word
work
worker
workers
works
world
worldwide
would
wp
wr
wrestling
ws
wu
www
x
xavier
xbox
xf
xi
xinglong
xk
xl
xv
xx
xxl
y
ya
yale
ye
year
years
yes
york
you
young
your
youth
yu
z
za
zagreb
zealand
zenit
zfourge
zoo
zu
zvezda
{
|
}
~





¡
¢
£
¤
¥
¦
§
¨
©
ª
«
¬
­
®
¯
°
±
²
³
´
µ
¶
·
¸
¹
º
»
¼
½
¾
¿
×
æ
ð
ø
ı
œ
ƒ
ʹ
ʻ
ˆ
ˈ
ː
ˑ
˜
̀
́
̂
̃
̄
̆
̇
̈
̊
̋
̌
̓
̔
̛
̣
̦
̧
̨
͂
α
μ
ς
ω
и
с
ְ
ִ
ַ
ָ
ּ
ה
ש
،
؛
؟
ا
اب
اباد
ابتدا
ابتداي
ابتدت
ابتعادها
ابدول
ابراج
ابراهام
ابراهيم
ابردين
ابرشيه
ابريل
ابطال
ابن
ابناء
ابنه
ابو
ابوت
ابوظبى
ابولو
ابولون
ابون
ابوه
ابويل
ابى
ابيب
ابيتيبى
ابيدجان
ابيض
ابيل
ات
اتا
اتارى
اتاسس
اتاسست
اتالانتا
اتبنت
اتبنى
اتجاه
اتجوز
اتجوزت
اتحاد
اتخرج
اتسمت
اتسمى
اتش
اتعرض
اتعرضت
اتعرف
اتعرفت
اتعمل
اتعملت
اتعين
اتفتح
اتقتل
اتكينسون
اتلانتا
اتلانتى
اتلانتيك
اتلتيك
اتلتيكو
اتلعب
اتليتيكو
اتنين
اتوفى
اتوقفت
اتولد
اتولدت
اتولى
اتيان
اتيلا
اتين
اتينا
اثار
اثارة
اثاره
اثرى
اثلتكس
اثلتيك
اثليتيك
اثيل
اثينا
اثيوبيا
اجاكسيو
اجتماع
اجتماعى
اجتماعيه
اجرام
اجزاء
اجسام
اجسطس
اجل
اجلوميراتيون
اجناطيوس
اجنبى
اجنحه
اجنيس
اجوستين
اجوستينو
احتلال
احد
احداث
احداثيات
احزاب
احسن
احصاء
احصاي
احمد
احمدا
احمر
احنا
احياء
اخبار
اخت
اختيار
اخد
اخر
اخراج
اخصاي
اخو
اخوه
اد
ادا
اداء
ادارة
اداره
ادارى
اداريا
اداريه
ادب
ادبى
ادبيه
ادجار
ادريان
ادريانا
ادريانو
ادريس
ادلب
ادلر
ادم
ادمنتون
ادمون
ادمونتون
ادموند
ادميرا
ادميرال
ادنا
ادنبره
ادو
ادوات
ادوار
ادوارد
ادواردز
ادواردس
ادواردو
ادولف
ادولفو
ادوين
ادويه
ادى
اديان
اديب
اديث
ادير
اديس
اديسون
اديل
اديلايد
ادڤانتشر
ادڤانس
اذا
اذاعى
اذاعي
اذاعيه
اذربيجان
اذيربايجان
ار
اراجون
اراد
اراس
اربانا
اربع
اربعه
اربعين
اربيل
ارت
ارتفاع
ارتور
ارتورو
ارتويس
ارثر
ارجايل
ارجن
ارجنتين
ارجنتينوس
ارجونتس
ارخانجلسك
اردبيل
اردبیل
ارريڤا
ارستقراطى
ارستقراطيه
ارستقراطيين
ارسنال
ارسولا
ارشمندريت
ارشيبالد
ارشيف
ارض
ارفورت
ارفينج
اركان
اركنساس
اركنسو
اركى
ارلنجن
ارلينجتون
ارماند
ارماندو
ارمسترونج
ارمين
ارمينيا
ارن
ارنست
ارنو
ارنولد
ارنى
ارنيستو
ارهاب
ارهابيه
ارون
ارونديسيمينت
اروين
ارويو
ارى
ارياس
اريتريا
اريتسو
اريتش
اريزونا
اريس
اريك
اريكا
اريكسون
اريكيبا
ارين
ارييپلوج
ارڤيدساور
ازاى
ازرق
ازمير
ازياء
اس
اسا
اساس
اساسى
اساطير
اساقفه
اسامه
اسامى
اسباب
اسبان
اسبانيا
اسبانيه
اسبانيول
اسبانيولا
اسبرنتو
اسة
استاذ
استاذه
استان
استانبول
استحقاق
استخدام
استخدامها
استخدم
استر
استرا
استراتيجيه
استرادا
استراليا
استربتيز
استرو
استريد
استريلا
استطلاع
استعراضى
استعراضيه
استعراضيين
استعمال
استقلاب
استقلال
استمر
استمرت
استوديانتيس
استورياس
استولى
استون
استونيا
استيبان
استير
استين
استينيا
اسحاق
اسد
اسراي
اسره
اسس
اسسها
اسطنبول
اسطوانات
اسفل
اسقف
اسكتلندا
اسكس
اسكندر
اسكندرانيه
اسكندرية
اسكندريه
اسكواش
اسكوبيه
اسكولى
اسكيموس
اسلام
اسلاما
اسلاميه
اسلم
اسم
اسماء
اسماعيل
اسماك
اسمه
اسمها
اسن
اسه
اسواتينى
اسوان
اسود
اسونسيون
اسى
اسيا
اسير
اسيه
اسيوط
اسپانيا
اش
اشباح
اشتغل
اشتغلت
اشتهر
اشتهرت
اشتون
اشخاص
اشرف
اشكال
اشلى
اشهر
اشوابموشوان
اصتدامى
اصحاب
اصفهان
اصل
اصوات
اصول
اضنه
اطفال
اطلس
اطول
اظهره
اعداد
اعصاب
اعضاء
اعظم
اعلام
اعلان
اعلن
اعلنت
اعلى
اعمال
اعماله
اعمالها
اعمر
اعمق
اغانى
اغتيال
اغراء
اغسطس
اغلب
اغنية
اغنيه
اف
افاى
افتتح
افتتحت
افجانستان
افريقيا
افضل
افغانستان
افكار
افلا
افلام
افنيو
افى
افيسبا
افيلينو
افينيون
اقباط
اقتصاد
اقتصادى
اقتصاديه
اقتصاديين
اقدم
اقرا
اقل
اقليم
اقليمى
اك
اكادير
اكاديمى
اكاديميا
اكاديمية
اكاديميكا
اكاديميكال
اكاديميه
اكاديميين
اكبر
اكتر
اكتشاف
اكتشافات
اكتشف
اكتشفه
اكتشفها
اكتوبر
اكثر
اكرا
اكرينجتون
اكزتر
اكس
اكسبوز
اكستر
اكسفورد
اكسل
اكسلسيور
اكسيل
اكشن
اكل
اكوادور
اكود
اكوستا
اكى
اكيرا
اكيل
ال
الا
الاب
الاباطره
الاباما
الابتداي
الابطال
الابن
الابيض
الاتجاه
الاتحاد
الاتحادى
الاتحاديه
الاتراك
الاتصالات
الاتفاق
الاتناشر
الاتنين
الاثار
الاثريه
الاثقال
الاجبان
الاجتماعى
الاجتماعية
الاجتماعيه
الاجرام
الاجنبيه
الاجنحه
الاجنيه
الاحتفال
الاحتلال
الاحداث
الاحزاب
الاحصا
الاحمر
الاخر
الاخضر
الاخلاقيه
الاخوان
الاخير
الاداب
الاداره
الادارى
الاداريه
الادب
الادبيه
الادوار
الاراضى
الاربع
الاربعه
الارثوذكسيه
الارجن
الارجنتين
الارجنتينى
الارجوانى
الاردن
الاردنى
الاردين
الارشيف
الارصاد
الارض
الارضيه
الاركان
الارنب
الارهاب
الارهابيه
الازرق
الازهر
الاساتذه
الاساسيه
الاسبانى
الاسبانيه
الاستاد
الاستحقاق
الاسترالى
الاستراليه
الاستعراضيين
الاستعمال
الاستقلال
الاستواء
الاستواي
الاسد
الاسراي
الاسره
الاسفل
الاسقفيه
الاسكا
الاسكتلندى
الاسكتلنديه
الاسكندرية
الاسكندريه
الاسكواش
الاسلام
الاسلامى
الاسلامية
الاسلاميه
الاسم
الاسماعيلى
الاسماعيليه
الاسماك
الاسنان
الاسود
الاسيويه
الاشباح
الاشتراكى
الاشتراكيه
الاشكال
الاصطناعى
الاصغر
الاصل
الاصلاحى
الاصلى
الاصوات
الاضرحه
الاطباء
الاطفال
الاعتدال
الاعداديه
الاعضاء
الاعظم
الاعلام
الاعلى
الاعمال
الاغريقى
الاغنيه
الافتتاح
الافريقى
الافريقيه
الافلام
الافيس
الاقباط
الاقتصاد
الاقتصاديه
الاقصر
الاقليم
الاقليمى
الاقمار
الاكاديميه
الاكبر
الاكتشاف
الاكليل
الاكوادور
الاكوينى
الالب
الالبانى
الالحان
الالعاب
الالمانى
الالمانيه
الاله
الام
الامارات
الاماراتى
الامام
الامبراطور
الامبراطورية
الامبراطوريه
الامتداد
الامرا
الامريكانيه
الامريكتين
الامريكى
الامريكية
الامريكيه
الامم
الامن
الاميدا
الامير
الاميركيه
الاميره
الامين
الان
الانابيب
الانبا
الانتاج
الانتخابات
الانتداب
الانترنت
الانتصار
الانجليز
الانجليزى
الانجليزيه
الانديه
الانزياح
الانسان
الانسانيه
الانهار
الانواع
الاهرام
الاهلى
الاهليه
الاهميه
الاوبرا
الاوراق
الاوروبى
الاوروبيه
الاوروجواى
الاوروجوايانى
الاوسترالى
الاوسط
الاوسكار
الاوكرانى
الاوكرانيه
الاول
الاولانى
الاولانيه
الاولمبى
الاولمبيه
الاولى
الاي
الايام
الايرانى
الايرلندى
الايطالى
الايطاليه
الايمى
الاين
الب
البا
الباب
البابا
البابوى
البابويه
الباحه
البارالمبيه
الباروكى
البارون
الباسك
الباسيتى
البافارى
البافاريه
البانى
البانيا
البحار
البحث
البحر
البحرى
البحرية
البحرين
البحرينى
البحريه
البحيره
البداية
البدايه
البدنيه
البديل
البر
البرازيل
البرازيلى
البرامج
البرت
البرتا
البرتجال
البرتغال
البرتو
البرج
البرلمان
البرلمانيه
البرماي
البرنامج
البرنيه
البروج
البروسى
البروسيه
البرونزيه
البريد
البريطانى
البريطاني
البريطانية
البريطانيه
البريه
البشاره
البشر
البشريه
البطريرك
البطل
البطن
البطوله
البقاع
البقر
البلاد
البلجارى
البلجيكى
البلد
البنات
البنجاب
البنك
البنى
البو
البوب
البورتوجال
البورتوجالى
البورنوجرافية
البوسنه
البولندى
البولنديه
البوليتكنيك
البوليس
البوم
البوندستاج
البى
البياثلون
البيانات
البيت
البيرت
البيرتو
البيروفى
البيزنطيه
البيزنطيين
البيس
البيسبول
البيضاء
البيلاروسى
البين
البيولوجيا
البيون
البيي
الت
التا
التابعه
التاج
التاريخ
التاريخى
التاريخيه
التاسع
التالت
التالته
التامن
التانى
التاني
التانية
التانيه
التجارة
التجاره
التجديف
التجمع
التحالف
التحدى
التحرير
التحق
التذكارى
التذكاريه
التراث
التربية
الترجى
الترفيهيه
التركى
التركيه
الترينتشام
التزلج
التسجيل
التسجيلات
التسعتاشر
التسميه
التشريعيه
التشريفيه
التشغيل
التشى
التشيك
التشيكوسلوفاكى
التشيكيه
التشيلى
التصميم
التصنيف
التصوير
التطبيقيه
التطور
التعاون
التعذيب
التعليم
التفريغيه
التقارب
التقاوى
التقدم
التقدمى
التقسيم
التقسيمات
التقنيه
التقويم
التكنولوجيا
التكنولوجيه
التلاتاشر
التلاته
التلج
التلفزيون
التليفزيون
التماثيل
التمثال
التمثيل
التنس
التنفيدى
التو
التوامان
التوزيع
التوقف
التوليد
التون
التونسى
التونسيه
التويتر
التى
التي
الثالث
الثالثه
الثالوث
الثامن
الثانوية
الثانويه
الثانى
الثاني
الثانية
الثانيه
الثدييات
الثقافة
الثقافه
الثقافى
الثقافية
الثقافيه
الثلاثة
الثلاثه
الثلاثى
الثلج
الثلجيه
الثلوج
الثور
الثورة
الثوره
الثورى
الج
الجامع
الجامعات
الجامعة
الجامعه
الجامعى
الجامعيه
الجايزه
الجبار
الجبال
الجبل
الجبليه
الجبهه
الجديد
الجديدة
الجديده
الجراب
الجرم
الجرى
الجريجورى
الجريجوريه
الجزء
الجزاي
الجزاير
الجزر
الجزيرة
الجزيره
الجزيي
الجسر
الجسم
الجغرافيه
الجلد
الجليد
الجليل
الجليله
الجمال
الجمباز
الجمعه
الجمعية
الجمعيه
الجمهور
الجمهورى
الجمهوريات
الجمهورية
الجمهوريه
الجميل
الجميلة
الجميله
الجنرال
الجنس
الجنسية
الجنسيه
الجنوب
الجنوبى
الجنوبي
الجنوبية
الجنوبيه
الجهاز
الجو
الجوايز
الجودو
الجوى
الجويه
الجيزة
الجيزه
الجيش
الجيل
الجيم
الحاج
الحادى
الحاديه
الحاكم
الحاكمه
الحال
الحالى
الحالي
الحان
الحب
الحبريه
الحبيب
الحبيلين
الحجر
الحجم
الحد
الحداشر
الحدث
الحدود
الحديث
الحديثة
الحديثه
الحديد
الحديدى
الحديديه
الحر
الحرب
الحربى
الحربيه
الحرف
الحركة
الحركه
الحره
الحروب
الحروف
الحرية
الحريه
الحزب
الحسكه
الحسن
الحسين
الحشرات
الحصن
الحصون
الحضاره
الحضرى
الحق
الحقل
الحقوق
الحقيقى
الحكم
الحكومة
الحكومه
الحكومى
الحكوميه
الحكيم
الحلو
الحليم
الحمام
الحمراء
الحمل
الحمله
الحميد
الحوت
الحوسبه
الحى
الحياة
الحياه
الحيه
الحيوان
الحيوانات
الخارجى
الخارجية
الخارجيه
الخاص
الخاصة
الخاصه
الخامس
الخامسه
الخدمات
الخدمه
الخديوى
الخديويه
الخراي
الخرسانه
الخرفان
الخشب
الخضر
الخضراء
الخط
الخطوط
الخلافه
الخليج
الخليفه
الخمسه
الخمسون
الخمسين
الخميس
الخنافس
الخوف
الخيال
الخير
الداخلى
الداخلية
الداخليه
الدار
الدانماركى
الداي
الدايره
الدر
الدراجات
الدراسات
الدراسة
الدراسه
الدراما
الدراميه
الدرجه
الدرشوت
الدستور
الدفاع
الدفع
الدقهليه
الدكتور
الدكتوراه
الدلو
الدم
الدنمارك
الدنماركى
الدنماركيه
الدنيا
الدهب
الدو
الدوحه
الدور
الدوره
الدورى
الدوري
الدول
الدولة
الدوله
الدولى
الدولي
الدولية
الدوليه
الدوما
الدومينيكان
الديدان
الدير
الديمقراطى
الديمقراطيه
الديمقراطيون
الديمقراطيين
الديموقراطى
الديموقراطيه
الدين
الدينى
الدينية
الدينيه
الذكاء
الذكرى
الذهب
الذهبى
الذهبيه
الذى
الذي
الذيل
الرا
الرابطه
الرابع
الرابعه
الراج
الراجل
الراحل
الراديكالى
الرازق
الراس
الراصد
الراعى
الراى
الراي
الرايخ
الرايخستاج
الراين
الرايه
الرب
الرباط
الربع
الربيع
الربيعى
الرتبه
الرجاء
الرجال
الرجاله
الرجبى
الرجل
الرحمن
الرحيم
الرخويات
الرسام
الرستاق
الرسل
الرسمى
الرسمي
الرسمية
الرسميه
الرسول
الرغم
الرقص
الرقمى
الرقميه
الرقه
الرمح
الرمل
الرمى
الروح
الروس
الروسى
الروسيه
الروك
الروم
الرومان
الرومانسيه
الرومانى
الروماني
الرومانية
الرومانيه
الري
الرياض
الرياضه
الرياضى
الرياضيات
الرياضيه
الريان
الريتش
الريده
الريس
الريشه
الريف
الريفى
الريفيه
الریفى
الزاويه
الزراعه
الزرافه
الزعانف
الزعيم
الزمالك
الزمان
الزمن
الزهور
الزواج
الزواحف
الزور
الزيتون
الس
السا
السابع
السابعه
السابق
الساحل
الساحلى
الساحليه
السادات
السادس
السادسه
الساعيه
السالفادور
السامى
الساندريا
السباحة
السباحه
السبب
السبت
السبع
السبعتاشر
الست
الستات
الستاشر
السجن
السحره
السد
السرطان
السرعه
السريع
السعفات
السعودى
السعودية
السعوديه
السعيد
السفاره
السفر
السفلى
السكان
السكر
السكندرى
السلاح
السلام
السلسله
السلطات
السلطان
السلطة
السلطه
السلفادور
السله
السلوفينى
السلوك
السليمانيه
السماء
السماوى
السماويه
السن
السنة
السنجال
السنه
السنويه
السنين
السهم
السوبر
السوداء
السودان
السودانى
السوربون
السورى
السوريه
السوفياتى
السوفياتيه
السوفيت
السوفيتى
السوفيتيه
السوفييتى
السوق
السول
السويد
السويدى
السويديه
السويس
السويسرى
السى
السياحيه
السياسه
السياسى
السياسي
السياسية
السياسيه
السيد
السيدات
السيدة
السيده
السير
السيسى
السيف
السيمفونيات
السيمفونيه
السيناريو
السينما
السينماي
الشارع
الشاشه
الشاطي
الشاعر
الشام
الشباب
الشبكه
الشتويه
الشجاع
الشجاعه
الشجر
الشخص
الشخصيات
الشخصية
الشخصيه
الشرطة
الشرطه
الشرف
الشرق
الشرقى
الشرقية
الشرقيه
الشركات
الشركة
الشركه
الشريط
الشريف
الشطرنج
الشطوط
الشعاعيه
الشعب
الشعبى
الشعبية
الشعبيه
الشعر
الشعوب
الشغل
الشكل
الشمال
الشمالى
الشمالية
الشماليه
الشمس
الشمسى
الشهر
الشهره
الشهيد
الشهير
الشو
الشوارع
الشورى
الشوق
الشيال
الشيخ
الشيش
الشيطان
الشيوخ
الشيوعى
الصالات
الصالح
الصباح
الصحافه
الصحرا
الصحراء
الصحه
الصداقه
الصدر
الصربيه
الصعيد
الصغرى
الصغير
الصغيرة
الصغيره
الصفحات
الصفحة
الصفحه
الصليب
الصليبى
الصليبيه
الصليبيين
الصناعيه
الصوت
الصوديوم
الصور
الصورة
الصومال
الصيف
الصيفيه
الصين
الصينى
الصينيه
الضايعه
الضباط
الطاقه
الطالب
الطاهر
الطاوله
الطاى
الطاي
الطايره
الطب
الطبى
الطبيعه
الطبيعى
الطبيعيه
الطبيه
الطحالب
الطرق
الطريق
الطفل
الطلبه
الطويل
الطويله
الطيب
الطيران
الطيور
الظاهر
الظروف
الظلام
العاب
العابره
العاج
العاشر
العاصفه
العاصمة
العاصمه
العاقل
العالم
العالمى
العالمي
العالمية
العالميه
العالى
العالي
العام
العامة
العامل
العامه
العاي
العباسيه
العباسيين
العبريه
العثمانى
العثمانية
العثمانيه
العثمانيين
العداله
العدد
العدرا
العدل
العديد
العذراء
العراق
العراقى
العرب
العربان
العربى
العربي
العربيات
العربية
العربيه
العرش
العرض
العرقيه
العزيز
العسكر
العسكرى
العسكرية
العسكريه
العسل
العشر
العشرين
العصر
العصور
العضويه
العظمى
العظيم
العقاب
العقل
العلاج
العلاقات
العلم
العلماء
العلمى
العلمي
العلمية
العلميه
العلوم
العليا
العماره
العمال
العماله
العمالى
العمر
العمق
العمل
العمليه
العمود
العموم
العناصر
العنف
العنقاء
العنكبوت
العنكبوتيات
العنوان
العهد
العيانين
العيد
العيش
العيله
العين
العيون
الغار
الغالب
الغالية
الغبار
الغرام
الغرب
الغربى
الغربي
الغربية
الغربيه
الغلاف
الغنا
الغناء
الغناي
الغنى
الـ
الف
الفا
الفاتيكان
الفارس
الفارسى
الفارسيه
الفارو
الفاريز
الفتاح
الفتح
الفترة
الفتره
الفجر
الفخريه
الفدرالى
الفرد
الفرس
الفرق
الفرقة
الفرنساوى
الفرنساويه
الفرنسى
الفرنسي
الفرنسية
الفرنسيه
الفروسيه
الفريد
الفريدو
الفريق
الفصل
الفضا
الفضاء
الفضاي
الفضى
الفضيه
الفطريات
الفعل
الفقار
الفكر
الفلاحين
الفلبين
الفلسفه
الفلك
الفلكى
الفلكيه
الفن
الفنان
الفنانة
الفنانين
الفنزويلى
الفنلندى
الفنون
الفنى
الفني
الفنية
الفنيه
الفولجا
الفونس
الفونسو
الفي
الفيدرالى
الفيدراليه
الفيروسات
الفيزيا
الفيزياء
الفيزياي
الفيس
الفيكتورى
الفيل
الفيلم
الفيليبين
الفين
الفيوم
القادر
القادسيه
القارات
القاره
القاضى
القاعده
القاعه
القالب
القانون
القاهرة
القاهره
القاي
القباي
القبر
القبرصى
القبطى
القبطية
القبطيه
القدره
القدس
القدم
القديس
القديسان
القديسة
القديسه
القديسين
القديم
القديمة
القديمه
القذف
القرا
القراصات
القرص
القرن
القروسطيه
القرون
القرى
القريبه
القريه
القسطنطينيه
القسم
القشريات
القصة
القصر
القصه
القصيم
القضاء
القطب
القطبيه
القطرى
القطن
القفاز
القفز
القلاع
القلب
القلعه
القليوبيه
القمر
القمم
القناة
القناه
القنوات
القنيطره
القوات
القوانين
القوس
القوقاز
القولون
القومى
القومي
القومية
القوميه
القوه
القوى
القياسى
الك
الكاتالونى
الكاتب
الكاتدراي
الكاتوليك
الكاتوليكيه
الكاثوليك
الكاثوليكية
الكاثوليكيه
الكاس
الكامل
الكامله
الكاميرون
الكانوى
الكبار
الكبارى
الكبرى
الكبير
الكبيره
الكبيسة
الكتاب
الكتابه
الكتب
الكترونيه
الكثير
الكرك
الكركى
الكره
الكرواتى
الكريم
الكساندرا
الكسندر
الكسندرا
الكسيس
الكل
الكلاب
الكلاسيكى
الكلاسيكيه
الكلام
الكلمات
الكلمه
الكلية
الكليه
الكمار
الكناي
الكنايس
الكندى
الكنديه
الكنو
الكنيسة
الكنيست
الكنيسه
الكهرباء
الكهرومغناطيسى
الكهرومغناطيسيه
الكهوف
الكواكب
الكوره
الكورى
الكوكبه
الكومنولث
الكوميديين
الكون
الكونجرس
الكونجو
الكونكاكاف
الكونيه
الكويت
الكويتى
الكويكب
الكويكبات
الكيمياء
اللاتفى
اللاتينى
اللاتينيه
اللاذقيه
اللبنانى
اللبنانيه
اللجنه
اللجه
اللطيف
اللعبه
اللغات
اللغة
اللغه
اللندنيه
الله
اللواء
اللوردات
اللون
اللى
اللي
الليبرالى
الليبى
الليتوانى
الليل
اللينك
اللينيانيه
الم
الما
الماء
الماضى
الماضي
الماكسيميليانى
المال
المالطى
الماليه
المان
المانى
المانيا
الماي
المتحدة
المتحده
المتحف
المتعدده
المتقدمه
المتميز
المتميزه
المتوسط
المتوسطه
المثل
المثلث
المجال
المجالات
المجتمع
المجد
المجدليه
المجر
المجره
المجرى
المجريه
المجلس
المجمع
المجموعات
المجموعه
المجهر
المجيد
المحافظ
المحافظين
المحاكم
المحترفه
المحترفين
المحصوره
المحكيه
المحلى
المحليه
المحميات
المحيط
المخابرات
المختلفة
المخرج
المخضرم
المدارس
المدرب
المدرسة
المدرسه
المدن
المدنى
المدنيه
المدينة
المدينه
المذهب
المر
المرا
المراجع
المراصد
المراه
المرحلة
المرحله
المرصد
المرض
المرقب
المركز
المركزى
المركزيه
المريخ
المساحه
المسار
المسافات
المستشار
المستشفى
المستقبل
المستقل
المستقله
المستقيم
المستوى
المسرح
المسرحيات
المسرحية
المسرحيه
المسلحة
المسلحه
المسلسل
المسلسلات
المسلمين
المسو
المسيح
المسيحى
المسيحية
المسيحيه
المسيحيين
المشاركات
المشاهير
المشترى
المشرقه
المشروع
المشى
المصادر
المصارعه
المصدر
المصرى
المصري
المصرية
المصريه
المصريين
المضاربه
المضرب
المضمار
المضيبى
المضيفه
المطلع
المطور
المعارف
المعاصر
المعاصره
المعبد
المعتدل
المعدن
المعركه
المعروف
المعروفه
المعلم
المعلومات
المعمدان
المعهد
المغرب
المغربى
المغلق
المغناطيسيه
المغول
المفتوحه
المفوض
المقالات
المقاله
المقاومه
المقدس
المقدسة
المقدسه
المقدمه
المقريزى
المقوسه
المقيمين
المكافي
المكان
المكرم
المكسيك
المكسيكى
الملاح
الملاك
الملاي
الملعب
الملك
الملكة
الملكه
الملكى
الملكية
الملكيه
الملوك
المليجى
المماليك
الممتاز
الممتازه
الممثل
الممثلة
الممثلين
المملكة
المملكه
المملوكى
المملوكيه
المناصب
المناطق
المنافسه
المنتجات
المنتخب
المنحدرات
المنخفضه
المنصب
المنصه
المنصور
المنصوره
المنطقة
المنطقه
المنظمات
المنظمه
المنعم
المنقار
المنوره
المنوفيه
المنيا
المهندس
المو
المواد
المواقع
الموت
الموجه
الموجود
الموحد
الموحده
الموسم
الموسوعة
الموسيقا
الموسيقى
الموسيقية
الموسيقيه
الموصل
الموضوع
الموقع
المي
الميادين
المياه
الميتال
الميدا
الميداليه
الميدان
المير
الميريا
الميزان
الميكانيكا
الميكسيك
الميل
الميلاد
الميلو
الميه
الن
الناحيه
النادى
النار
الناريه
النازى
النازيه
الناس
الناشر
الناصر
الناي
النبات
النباتات
النباتيه
النبى
النبي
النجم
النجمه
النجوم
النحاس
النخبه
النرويج
النرويجى
النرويجيه
النساء
النساي
النسر
النشر
النشيد
النص
النصر
النط
النظام
النظر
النفاث
النفس
النقاش
النقد
النقل
النقوش
النمر
النمسا
النمساوى
النمساويه
النموذجيه
النهار
النهارده
النهاي
النهر
النهضه
النواب
النوبه
النور
النوردى
النوع
النوم
النوى
النيشان
النيل
النيوتريونات
اله
الهادى
الهادي
الهجوم
الهدف
الهرسك
الهرم
الهلال
الهنجاريه
الهند
الهندسة
الهندسه
الهندسيه
الهندى
الهنديه
الهوا
الهواة
الهواه
الهوكى
الهولندى
الهوى
الهياكل
الهيدروجين
الهيكل
الهيليوم
الهيي
الو
الوا
الواحد
الواد
الوادى
الواقع
الواقعيه
الوثاي
الوثب
الوجه
الوحدة
الوحده
الوحيد
الوداد
الورد
الوزرا
الوزراء
الوزير
الوسام
الوسط
الوسطى
الوسيط
الوشاح
الوصول
الوضع
الوطن
الوطنى
الوطني
الوطنية
الوطنيه
الوظيفه
الوفد
الوفيات
الوقت
الولايات
الوليد
الونسو
الوهاب
الويس
الى
الي
اليابان
اليابانى
اليابانيه
الياس
اليانزا
اليانور
اليجرى
اليجرينزى
اليخاندرو
اليد
اليزابيث
اليس
اليسا
اليسار
اليسارى
اليساندرو
اليسون
اليسيا
اليسيو
اليك
اليكانتى
اليكترونيك
اليكس
اليكساندار
اليكساندر
اليكساندرا
اليكساندرو
اليكسى
اليكسيس
اليمن
اليمين
الين
الينا
الينوى
اليهود
اليهودى
اليهودية
اليهوديه
اليوبيل
اليوت
اليوم
اليونان
اليونانى
اليونانيه
اليچاندرو
الڤاتيكان
الڤاريز
الڤدالين
الڤيس
ام
اما
اماره
امازوناس
اماكن
امام
امامزاده
امان
اماندا
امانويل
امباكت
امبراطور
امبراطوريه
امبروز
امبولى
امثال
امحمد
امر
امرا
امراض
امراه
امريكا
امريكان
امريكانى
امريكانيه
امريكى
امريكيات
امريكية
امريكيه
امستردام
امل
امم
امه
امهرست
امون
امى
اميت
امير
اميرال
اميره
اميل
اميلى
اميليا
اميليو
امين
امينه
اميين
ان
انا
اناتولى
اناستاسيا
اناهايم
انباء
انت
انتاج
انتاجى
انتج
انتجته
انتخابات
انتر
انتراكتيف
انتراكتيڤ
انترتنمنت
انترتينمنت
انترناسيونال
انترناشونال
انتشار
انتشر
انتشرت
انتشون
انتصار
انتقل
انتهت
انتهى
انتوفاجاستا
انتون
انتونى
انتونين
انتونيو
انتويرب
انتوين
انتى
انثروبولوجيا
انثونى
انج
انجا
انجاز
انجريد
انجل
انجلاند
انجلترا
انجلس
انجلوس
انجليز
انجليزى
انجليس
انجوس
انجولا
انجولشتات
انجى
انجيل
انجيلا
انجيلو
انجيليس
انجيه
انخيل
اند
اندر
اندرا
اندراوس
اندراى
اندرزيچ
اندرس
اندرسن
اندرسون
اندرلخت
اندرو
اندروز
اندروس
اندروميدا
اندرويد
اندرى
اندريا
اندرياس
اندريس
اندريه
اندو
اندورا
اندونيسيا
اندى
انديانا
انديانابوليس
انديانز
انديبندينتى
انديرس
انديرسون
انديز
انريكو
انريكى
انزو
انس
انسان
انسبروك
انسينت
انشاء
انشخيده
انضم
انطاكيه
انطاليا
انطوان
انطون
انطونى
انطونيو
انطونيوس
انظر
انغريد
انفرنيس
انفيلد
انقره
انقلاب
انك
انكونا
انه
انها
انهار
انهالت
انهم
انو
انواع
انور
انورثوسيس
انى
انيت
انيتا
انيرجى
انيس
انيو
انچى
اه
اهل
اهم
اهميد
اهيمه
او
اواخر
اوبرا
اوبرالى
اوبراين
اوبرلين
اوبرن
اوبرهاوزن
اوبرى
اوبريت
اوبسالا
اوبلاست
اوبى
اوت
اوتا
اوتاوا
اوتاوى
اوترخت
اوتريخت
اوتفيلدر
اوتو
اوتوماتيكى
اوتوموبيل
اوتوموبيلات
اوتيس
اوتڤوش
اوجاست
اوجاندا
اوجست
اوجستين
اوجسطين
اوجندا
اوجوستا
اوجوستو
اوجوستين
اوجين
اوجينيو
اود
اوداكس
اودرى
اودنسه
اودونيل
اوديسا
اودينيزى
اور
اوراتا
اوراديا
اورال
اورانج
اوراوا
اورايجا
اوربرو
اورتيجا
اورتيز
اورج
اورسا
اورسولا
اوركسترا
اورلاندو
اورليان
اورليانز
اورلينز
اورنسكولدسڤيك
اوروبا
اوروجواى
اورورا
اوروپا
اورى
اوريجون
اوريل
اورينت
اورينسى
اوريول
اوريولز
اوز
اوزبكستان
اوزبيكيستان
اوزوالد
اوزيرو
اوسا
اوساسونا
اوساكا
اوسبورن
اوسترا
اوسترافا
اوستراليا
اوستراليين
اوستريا
اوستن
اوستين
اوسكار
اوسلو
اوسنابروك
اوسييك
اوف
اوفا
اوفنباخ
اوفى
اوفيوكاس
اوفييدو
اوقيانوسيا
اوك
اوكاياما
اوكرانيا
اوكس
اوكسفورد
اوكسير
اوكلاند
اوكلاهوما
اوكونور
اوكى
اول
اولا
اولاد
اولاف
اولانى
اولجا
اولد
اولدنبورج
اولدهام
اولريش
اولسان
اولسن
اولسون
اولم
اولمبيا
اولمبياد
اولمبياكوس
اولمبيك
اولمبيكوس
اولمبيه
اولو
اولوموتس
اولى
اوليج
اوليفر
اوليفيا
اوليفيرا
اوليفييه
اوليكساندر
اوليمبيا
اوليمبياد
اوليمبيه
اوليه
اوليڤير
اوليڤيرا
اومار
اوماها
اومسك
اومونيا
اون
اونال
اونتاريو
اونتيرايلزاس
اونديجوف
اونرى
اونو
اونيفرسيداد
اونيل
اوه
اوهارا
اوهايو
اوى
اويبست
اويتا
اويدا
اويزومى
اويلرز
اوين
اوينز
اوڤر
اى
اي
اياكس
اياكوتشو
ايام
ايان
ايبار
ايباراكى
ايبسويتش
ايتو
ايتون
ايجل
ايجلز
ايجناسيو
ايجور
ايد
ايدا
ايداهو
ايدى
ايدين
اير
ايرا
ايران
ايرثكويكس
ايركوليس
ايرل
ايرلاندا
ايرلندا
ايرنست
ايرنى
ايرنيست
ايرى
ايريدانوس
ايريس
ايريش
ايريك
ايرين
ايرينا
ايرپورت
ايرڤين
ايزابيل
ايزابيلا
ايس
ايسابيل
ايساك
ايسانت
ايست
ايسترن
ايستڤان
ايسلاند
ايسلاندا
ايسمايل
ايسن
ايسو
ايسيكس
ايشيكاوا
ايطاليا
ايطاليه
ايف
ايفا
ايفان
ايفانز
ايفانستون
ايفانوف
ايفرت
ايفرتون
ايفلين
ايفواريين
ايفون
ايقاعى
ايك
ايكا
ايكستر
ايكو
ايل
ايلا
ايلان
ايلاند
ايلانور
ايلست
ايلى
ايليا
ايليتش
ايلين
ايلينا
ايلينوى
ايم
ايما
ايمان
ايمانويل
ايمن
ايمى
اين
اينا
اينار
اينجريد
ايند
اينداتى
ايندهوفن
ايندى
اينديانز
اينفيلدير
اينكس
اينو
اينيرجيا
اينيس
ايه
ايوا
ايواتا
ايوان
ايوب
ايون
ايڤا
ايڤان
ايڤانس
ايڤو
اپ
اپير
اڤجينى
اڤيلا
ب
با
باء
باب
بابا
باباوات
بابتيست
بابل
بابلو
بابوا
بات
باتجاه
باترسون
باتريشيا
باتريك
باتش
باتشوكا
باتل
باتلر
باتون
باتى
باتيستا
باث
باج
باحث
باحثة
باحثه
باحثين
باخ
باد
بادالونا
بادربورن
بادريس
بادما
بادن
بادوا
بادوفا
بادى
بار
بارا
باراجواى
بارانا
باراناينسى
باربارا
باربرا
باربودا
باربوسا
باربيدوس
بارت
بارتليت
بارتولوميو
بارتون
بارتيزان
بارتيزانى
بارتيك
بارده
باردوه
بارز
بارسلونا
بارسونز
بارك
باركر
باركلى
بارلو
بارما
بارنارد
بارنت
بارنز
بارنسلى
بارنى
بارنيت
بارو
باروس
باروكيه
بارون
بارى
باريت
باريس
باريسيين
باز
بازار
بازل
بازيليك
باس
باسادينا
باسامى
باستيا
باسكال
باسكت
باسكونيا
باسم
باسو
باسيل
باسين
باش
باشا
باشكورتوستان
باغ
بافاريا
بافالو
بافل
بافيا
باك
باكرز
باكس
باكستان
باكستر
باكو
باكينجهامشير
بال
بالا
بالاتينات
بالاسم
بالاكانسترو
بالانجليزى
بالانزياح
بالتصويت
بالتيكا
بالتيمور
بالحجم
بالدوين
بالذات
بالذكرى
بالرغم
بالزانه
بالسالب
بالسوق
بالسيف
بالفارسى
بالفرنساوى
بالقاهرة
بالقاهره
بالقضاء
بالكامل
باللغة
باللغه
بالله
بالم
بالماس
بالمثليين
بالمر
بالمملكه
بالموجب
بالموسيقى
بالميراس
بالنسبه
بالو
بالومار
بالى
باليرمو
باليه
باليول
بامريكا
باميلا
بان
باناثينايكوس
باناما
بانتيون
بانثرز
بانج
بانجلاديش
بانجو
بانجور
بانداى
باندل
باندونج
بانفيلد
بانك
بانكروفت
بانكس
بانكوك
بانه
بانيا
بانيك
بانيونيوس
باها
باهاماس
باهيا
باو
باوتيستا
باور
باوك
باول
باولو
باى
باي
بايام
باير
بايرتس
بايرن
بايرون
بايسرز
بايك
بايلور
بايلى
باين
بايولوچيست
بايون
باپتيسانت
بباريس
ببساطه
ببغاء
بتا
بتاريخ
بتاع
بتاعة
بتاعت
بتبعتها
بتبقا
بتتبع
بتتجمع
بتتشاف
بتتعرف
بتتعمل
بتتكون
بتتنظم
بترتفع
بترفده
بتستخدم
بتشتغل
بتصور
بتضم
بتعتبر
بتعرض
بتقدم
بتقول
بتكون
بتلر
بتلعب
بتمتد
بتنتهي
بتنقاس
بتهدف
بتوضح
بتوع
بجامعة
بجامعه
بحار
بحبك
بحث
بحر
بحرى
بحريه
بحسب
بحيث
بحيرات
بحيرة
بحيره
بخش
بخصوص
بد
بدا
بداي
بداية
بدايه
بدر
بدل
بدو
بدور
بدون
بديل
بر
برا
برات
براتيسلافا
براج
براجا
براجانتينو
براد
برادفورد
برادلى
برادى
برازيل
برازيليا
برازيليين
براس
براشوف
براكين
برامج
بران
براند
براندت
براندنبورج
براندون
برانديز
برانكو
برانى
برانيه
براهيم
براون
براونز
براونشفايج
برايا
برايان
برايتون
برايس
برايم
براين
براينت
برايى
برتبه
برتراند
برث
برج
برجن
بردسیر
بردو
برديش
برز
برسبوليس
برست
برستين
برشلونه
برضه
بركات
بركلى
برلمان
برلمانى
برلين
برمنجهام
برمودا
برمينجهام
برن
برنارد
برناردو
برنامج
برنس
برنستون
برنستين
برنو
برنيس
بره
برو
بروج
برود
برودى
بروس
بروسيا
بروفانس
بروفسور
بروفيدنس
بروفيسور
بروك
بروكس
بروكسل
بروكسيل
بروكلين
بروم
بروملى
بروميتش
برون
بروناى
بروندبى
برونزويك
برونكس
برونكوز
برونو
بروير
بروينز
برى
بريان
بريت
بريتا
بريتانكا
بريتانى
بريتو
بريتوريا
بريتون
بريتيش
بريجام
بريجز
بريجيت
بريدا
بريدج
بريرا
بريزبان
بريس
بريست
بريستول
بريستون
بريشا
بريشيا
بريطانيا
بريطانيين
بريفز
بريل
بريمن
برين
برينان
برينت
برينتفورد
بريندا
برينس
بريورز
بزحافه
بس
بساندهيرست
بسبب
بست
بسرعه
بسنة
بسيطه
بشكتاش
بشكل
بشير
بطال
بطبيعة
بطرس
بطرسبرج
بطرسبورج
بطريرك
بطريقه
بطل
بطلات
بطليموس
بطليوس
بطولات
بطولة
بطوله
بعت
بعثه
بعد
بعدما
بعده
بعدها
بعدين
بعض
بعلم
بعنوان
بعيد
بغداد
بـ
بفيروس
بقا
بقت
بقوس
بقى
بقيادة
بقية
بقيمة
بك
بكاس
بكالوريوس
بكده
بكر
بكل
بكين
بل
بلا
بلات
بلاتا
بلاد
بلازا
بلازما
بلاغ
بلاك
بلاكبول
بلاكبيرن
بلاكهوكس
بلال
بلانك
بلانكا
بلانكو
بلاى
بلايزرز
بلباو
بلبل
بلجاريا
بلجراد
بلجيكا
بلد
بلدات
بلده
بلديات
بلدية
بلديه
بلزن
بلغاريا
بلفاست
بلمار
بلنسيه
بلو
بلوز
بلوشستان
بلوفديف
بلوك
بلوم
بليت
بلير
بليز
بليس
بليك
بليموث
بم
بما
بمحافظة
بمركز
بمصر
بن
بنا
بناء
بنات
بنت
بنجال
بنجالز
بنجالور
بنجامين
بنجوينز
بند
بندر
بنسلفانيا
بنسون
بنسيلفانيا
بنفس
بنفسجيه
بنفيكا
بنك
بنما
بنه
بنى
بني
بنيارول
بنيامين
بنين
به
بها
بهار
بهمي
بو
بوا
بواب
بوابات
بوابة
بوافيشتا
بوب
بوبكر
بوبى
بوت
بوتافوجو
بوتان
بوتسدام
بوتسوانا
بوتوسى
بوتيف
بوث
بوجدان
بوجوتا
بوخارست
بوخوم
بود
بودابست
بودابيست
بودجوريتسا
بودو
بودى
بودين
بوذى
بوذيه
بور
بوربون
بورت
بورتبل
بورتر
بورتريه
بورتسموث
بورتلاند
بورتو
بورتوجيزا
بورتوريكو
بورتون
بورتينيو
بورج
بورجوس
بورجيس
بوردو
بورسعيد
بورصة
بورصه
بورك
بوركينا
بورن
بورنجين
بورنس
بورنموث
بورنوجرافى
بورنوجرافيات
بورنوجرافية
بورنوجرافيين
بورو
بوروج
بوروسيا
بوروندى
بوروه
بورى
بورياليس
بوريس
بوريل
بوزنان
بوس
بوسان
بوست
بوستش
بوسطن
بوسطون
بوسى
بوش
بوشان
بوصله
بوفيه
بوك
بوكا
بوكانان
بوكانيرز
بوكر
بوكس
بوكسينج
بول
بولا
بولاندا
بولانديين
بولاية
بولتافا
بولتن
بولتون
بولدر
بولز
بولس
بولشايا
بولشوى
بولك
بولندا
بولو
بولوك
بولون
بولونيا
بولى
بوليتزر
بوليس
بوليسلاف
بوليفار
بوليفيا
بولين
بولينج
بوم
بومان
بومرز
بومونت
بون
بونتى
بونتيفيدرا
بوند
بونس
بونه
بونى
بوه
بوهانج
بوهيميا
بوويل
بوى
بويبلا
بويد
بوير
بويرتو
بويز
بويس
بويل
بوين
بوينت
بوينس
بوينوس
بى
بي
بيا
بياتريس
بياتشينزا
بياثل
بيار
بيان
بيانات
بيانكى
بيانو
بيانيست
بياويستوك
بيب
بيبرس
بيبى
بيت
بيتا
بيتار
بيتبع
بيتر
بيتربورو
بيترز
بيترسن
بيترسون
بيترو
بيترى
بيتريوتس
بيتس
بيتسبرج
بيتسبورج
بيتسبيرج
بيتسمى
بيتش
بيتعمل
بيتقال
بيتقس
بيتكلمو
بيتكون
بيتم
بيتى
بيتيس
بيث
بيثون
بيج
بيجاسوس
بيجسد
بيحتوى
بيحصل
بيحط
بيد
بيدرس
بيدرو
بيدفورد
بير
بيرا
بيرت
بيرتفع
بيرتن
بيرث
بيرج
بيرجامو
بيرجر
بيرجع
بيرجمان
بيرجيت
بيرجير
بيرد
بيرز
بيرس
بيرسون
بيرسى
بيرفده
بيرك
بيركنز
بيركيلى
بيرلين
بيرم
بيرن
بيرنارد
بيرناردو
بيرناردينو
بيرند
بيرنلى
بيرنهارد
بيرنى
بيرو
بيروت
بيروجيا
بيرون
بيرويك
بيرى
بيريرا
بيريز
بيرين
بيز
بيزا
بيزارو
بيزنطيه
بيزنيس
بيس
بيساو
بيسبول
بيستخدم
بيستينز
بيسكارا
بيشتغل
بيشغلو
بيشفره
بيشوب
بيصب
بيض
بيضم
بيعتبر
بيعدى
بيعمل
بيغطى
بيفرلى
بيفيرين
بيقدم
بيقول
بيك
بيكر
بيكون
بيكين
بيل
بيلا
بيلاروسيا
بيلجرانو
بيلز
بيلعب
بيلو
بيلى
بيليز
بيليفيلد
بيلينينسش
بين
بينا
بينتو
بينتون
بينج
بينما
بينهم
بينو
بينويت
بينى
بينيا
بينيت
بينيتو
بينين
بينينى
بينچامين
بيه
بيها
بيهم
بيو
بيوت
بيوتر
بيوجراد
بيورن
بيي
بيير
بيچينج
بيڤيرلى
بچورن
ة
ت
تا
تابع
تابعه
تاتيانا
تاج
تاجر
تاجيكيستان
تاديوسز
تارانتو
تارتو
تارجو
تارن
تاريخ
تاريخى
تاريخيه
تارينتو
تاسيس
تافتس
تافريا
تاكاشى
تاكاهاشى
تاكاو
تاكر
تاكوما
تاكيشى
تالاهاسى
تالبوت
تالت
تاليريس
تاليف
تالين
تاماس
تامبا
تامبيرى
تامر
تاموورث
تاميل
تان
تاناكا
تانج
تانزانيا
تانى
تاني
تانيا
تانية
تانيه
تاون
تاونات
تاى
تايبيه
تايت
تايتانز
تايجر
تايجرز
تايد
تايدز
تايكوندو
تايلاند
تايلاندا
تايلر
تايلور
تايم
تاين
تايوان
تبريز
تبقى
تبليسى
تتابع
تتشاف
تجاريه
تجاهله
تجديف
تجمع
تجمعات
تحالف
تحت
تحتوي
تحديد
تحرير
تحف
تحقق
تحقيق
تحليل
تخت
تدريب
تراث
تراسى
ترافيس
ترامب
ترانمير
ترايل
تربوى
ترتيب
ترجمة
ترفيه
ترك
تركمانستان
تركيا
ترنافا
ترنانا
ترنتشين
ترنتون
تروا
تروجان
تروجانز
ترومبيت
ترومسو
تروندهايم
تروى
ترى
تريثلت
ترير
تريستينا
تريسى
تريفور
تريفيزو
ترينت
ترينيتى
ترينيداد
ترييستى
تريڤور
تزلج
تساعد
تسالونيكى
تستخدم
تسجيل
تسجيلات
تسجيلى
تسع
تسليه
تسمانيا
تسهيل
تشابل
تشابلن
تشابلين
تشاد
تشارجرز
تشارلتون
تشارلز
تشارلستون
تشارلستين
تشارلوت
تشارلى
تشاك
تشان
تشانج
تشاه
تشاو
تشتغل
تشريح
تشستر
تشغيلها
تشكيلى
تشن
تشو
تشورنومورتس
تشوك
تشول
تشون
تشونج
تشوى
تشى
تشياباس
تشيبا
تشيرنو
تشيزينا
تشيس
تشيستر
تشيسترفيلد
تشيشير
تشيفز
تشيفس
تشيكوسلوفاكيا
تشيكيا
تشيكيين
تشيلتنهام
تشيلسى
تشيلمسفورد
تشيلو
تشيلى
تشيليابنسك
تشين
تشيناى
تشينج
تصانيف
تصغير
تصفيات
تصميم
تصنيع
تصنيف
تصنيفات
تصويب
تصوير
تصويريه
تضاريس
تضم
تطور
تطوير
تعالى
تعاونية
تعتبر
تعداد
تعرف
تعريفيه
تعقب
تعليم
تعليميه
تعمل
تغيير
تفينتى
تقاطع
تقاوى
تقدر
تقدم
تقدير
تقديم
تقريبا
تقسيم
تقطيع
تقع
تقليديه
تقمص
تقول
تك
تكاثر
تكبرها
تكساس
تكسانز
تكون
تل
تلات
تلاف
تلال
تلت
تلسا
تلعب
تلفزيون
تلفزيونى
تلفزيونيه
تلك
تلمبة
تليفزيون
تم
تماما
تمبل
تمثال
تمثلها
تمثيل
تمر
تمنيه
تناوب
تنج
تنس
تنظيم
تنفيذى
ته
تها
تو
توب
توباجو
توبنجن
توبى
توبياس
توبينجين
توت
توتشيجى
توتنهام
توجو
تود
تودور
تور
توربيدو
توركمينيستان
توركو
توركى
توركيا
تورنا
تورنتو
تورنر
تورنير
تورو
تورونتو
تورى
توريس
تورينجن
تورينو
توزلا
توزيع
توسو
توضيحى
توضيحيه
توفى
توفي
توفيق
توك
توكانا
توكوشيما
توكومان
تول
تولا
تولوز
تولوكا
تولون
تولى
تولياتى
توليد
توليدو
تولين
توم
توما
توماس
توماسز
توماسو
تومسك
تومسون
تومى
تون
تونج
تونجا
تونس
تونسيين
تونشيپ
تونى
توين
توينس
تى
تي
تياجو
تيانجين
تيبور
تيبورونيس
تيت
تيتو
تيتى
تيجرى
تيد
تيدى
تير
تيرا
تيراسبول
تيرانا
تيرنر
تيرو
تيرول
تيرى
تيريزا
تيريسا
تيريل
تيرينس
تيزى
تيش
تيك
تيل
تيلبورج
تيلير
تيليڤزيون
تيليڤيزيون
تيم
تيمو
تيموثى
تيمور
تيميسكامينج
تيميشوارا
تين
تينا
تينيريفى
تينيسى
تيودور
ث
ثابت
ثار
ثالث
ثانويه
ثانى
ثانيه
ثر
ثرى
ثقافه
ثقافى
ثقال
ثلاث
ثلاثة
ثلاثى
ثم
ثناء
ثناي
ثور
ثورة
ثورن
ثورنتون
ثوره
ثورى
ثوم
ثومپسون
ثون
ثير
ثيرى
ثيسل
ثيو
ثيوداد
ثيودور
ج
جاب
جابر
جابريل
جابرييل
جابور
جابون
جابى
جاجوارز
جاد
جار
جارد
جاردن
جاردنر
جارسيا
جارلاند
جارى
جاريت
جاريث
جاز
جازى
جاسبر
جاستن
جاستين
جاسوس
جافين
جاك
جاكارتا
جاكتس
جاكرتا
جاكسون
جاكسونفيل
جاكلين
جاكوب
جاكوبس
جاكى
جال
جالن
جالو
جالواى
جالى
جالينا
جام
جاما
جامايكا
جامبا
جامبيا
جامد
جامع
جامعات
جامعة
جامعه
جامعى
جامعيه
جاميس
جاميكا
جان
جانا
جانب
جانج
جانجون
جانيت
جانيرو
جانيين
جاى
جاي
جايتانو
جايز
جايزة
جايزه
جايسون
جايل
جاين
جاينتس
جايه
جب
جبال
جبالبارز
جبر
جبريل
جبل
جبليه
جبنه
جت
جتس
جد
جدا
جداره
جدانسك
جده
جديد
جديدة
جديده
جدينيا
جراتس
جراح
جراس
جراسهوبر
جراف
جرافك
جرافيك
جرام
جرامبوس
جرامى
جران
جرانادا
جرانت
جراند
جراندى
جرانيت
جراهام
جراوبوندن
جراى
جرايز
جرايس
جرايفسفالت
جرايم
جرجس
جرذ
جروب
جروت
جرودنو
جروزنى
جروس
جروسير
جروف
جرونفيلد
جرونوبل
جرونينجن
جرويتر
جرى
جريت
جريج
جريجور
جريجورى
جريجوريو
جريدة
جرير
جريس
جريفيث
جريفين
جريمسبى
جريمه
جريميو
جرين
جرينادا
جرينفيل
جرينلاند
جرينوك
جرينوود
جرينى
جزء
جزاء
جزاي
جزايريين
جزر
جزيرة
جزيره
جزيي
جسد
جسر
جسم
جسور
جعفر
جغرافى
جغرافيا
جفرسون
جل
جلاس
جلاسجو
جلاسكو
جلاكسى
جلال
جلان
جلستان
جلطه
جلغه
جلوب
جلورى
جلوريا
جلوستر
جلوفر
جليسون
جليفيتسه
جلين
جم
جماعة
جماعه
جماعى
جماعيه
جمال
جمباز
جمع
جمعية
جمعيه
جمل
جمهورية
جمهوريه
جميع
جميل
جناح
جناين
جنب
جنت
جنتشلربيرليجى
جنج
جندى
جنرال
جنس
جنسن
جنفيل
جنكينز
جنوا
جنوب
جنوبی
جنوه
جنيف
جنينة
جنيه
جه
جهاز
جهرم
جهه
جهوى
جو
جوا
جواب
جواتيمالا
جوادالاخارا
جوارانى
جواز
جوامع
جوان
جوانا
جوانججو
جواو
جواي
جواياكويل
جوايز
جوتا
جوتفريد
جوتليب
جوتنبرج
جوته
جوتيريز
جوتينجن
جوج
جوجل
جوجنهايم
جود
جودارد
جودفرى
جودمان
جودو
جودوى
جودوين
جودى
جوديث
جودينو
جور
جورا
جوران
جورج
جورجتاون
جورجى
جورجيا
جورجيو
جوردان
جوردن
جوردون
جوردى
جورنال
جورنيك
جورى
جوز
جوزفين
جوزمان
جوزها
جوزيبى
جوزيف
جوزيه
جوس
جوستاف
جوستافو
جوستاڤ
جوستاڤو
جوستين
جوسيف
جوش
جوشوا
جوفنتودى
جوقه
جول
جولد
جولدسميث
جولدن
جولف
جولى
جوليا
جوليارد
جوليان
جوليو
جولييت
جوميز
جوميس
جوميل
جون
جوناثان
جونار
جوناس
جونتر
جونتير
جونثير
جونج
جونز
جونزالو
جونزاليز
جونزاليس
جونستين
جونسون
جونما
جونى
جونيور
جونيورز
جوه
جوهان
جوهانس
جوهانسبيرج
جوهانسون
جوهر
جوى
جويا
جوياس
جويدو
جويرا
جويس
جويل
جويلاوم
جويلرمو
جويليرمو
جوين
جوچو
جوڤيرنورات
جى
جي
جيا
جياكومو
جيان
جيانا
جيانكارلو
جيانى
جيبرالتار
جيبس
جيبسون
جيبوتى
جيت
جيتار
جيتزهد
جيجو
جيد
جير
جيرا
جيرار
جيرارد
جيراردو
جيراسيموف
جيرالد
جيرت
جيرترود
جيرد
جيرزى
جيرسون
جيرسى
جيرمان
جيرهارد
جيرولامو
جيروم
جيرونا
جيروندان
جيرى
جيريرو
جيريلز
جيريلزو
جيريمى
جيس
جيسن
جيسون
جيسى
جيسيكا
جيش
جيف
جيفرسون
جيفرى
جيفو
جيك
جيل
جيلان
جيلبرت
جيلبيرت
جيلدهول
جيلمور
جيليان
جيليس
جيلينا
جيلينجهام
جيم
جيماريش
جيمز
جيمس
جيمناسيا
جيمى
جين
جينا
جينادى
جينت
جينك
جينو
جينوا
جينى
جينيا
جينيرال
جينيفر
جينينجز
جيه
جيو
جيور
جيورجوس
جيورجى
جيورجيا
جيورجيو
جيورجيوس
جيوسيپ
جيوفانى
جيوفرى
جيولوجى
جيوم
جيوڤانى
جیرفت
ح
حا
حاج
حاجات
حاجة
حاجز
حاجه
حاجى
حاجی
حاخام
حاخامات
حارة
حارس
حاره
حافظ
حاكم
حال
حالات
حالة
حاله
حاليا
حامد
حاول
حاويه
حب
حبك
حبه
حبي
حبيب
حبيبى
حبيبي
حبيل
حتى
حجر
حجرى
حجم
حد
حداث
حداد
حداي
حدث
حدثت
حدود
حدى
حديبو
حديث
حديد
حديقة
حر
حراس
حرب
حربى
حرشفيات
حرف
حركة
حركه
حره
حروب
حروف
حرية
حزام
حزب
حساب
حسابات
حسام
حسان
حسب
حسن
حسنا
حسنى
حسين
حسین
حسینا
حشرات
حصار
حصل
حصلت
حصن
حصون
حضرموت
حط
حفل
حق
حقوق
حقوقى
حقيقى
حقيقيه
حكام
حكايات
حكاية
حكايه
حكم
حكمت
حكمه
حكومة
حكومه
حكوميه
حكيم
حل
حلام
حلب
حلزون
حلم
حلمى
حلو
حلوان
حلوة
حمام
حمامه
حماه
حمد
حمدى
حمر
حمزه
حمص
حملة
حمو
حميد
حنا
حنان
حنه
حواجز
حوار
حوالى
حوالي
حوالين
حوض
حول
حولين
حومه
حى
حي
حياء
حياة
حياته
حياتها
حياتي
حياه
حيث
حيدر
حيفا
حين
حيوانات
حيويه
خ
خارج
خارجية
خارجيه
خارق
خاركيف
خاص
خاصة
خاصه
خاصية
خافيير
خالد
خان
خانتى
خانه
خايمى
خاين
خب
خبار
خبر
خبير
خد
خدت
خدمات
خدمة
خدمه
خذ
خر
خراج
خراسان
خربة
خرج
خرونينجين
خرى
خريجين
خريطة
خريطه
خشب
خصوصا
خضر
خط
خطر
خطوط
خفيف
خلال
خلة
خلف
خلفى
خلى
خليج
خليفه
خليل
خماسى
خمس
خمسين
خميس
خن
خناق
خنفساء
خواجه
خواكيم
خواكين
خوان
خورخى
خوزستان
خوسيه
خوليو
خيال
خيتافى
خيخون
خير
خيسوس
خيمناستيك
خيمينيز
د
دا
داء
داب
داتا
داخل
داخلى
داخليه
دار
داراب
دارة
دارتموث
دارسين
دارك
داركو
دارلينجتون
دارمشتات
داروين
داريا
داريل
دارين
داريو
داريوس
داس
داعش
دافنبورت
دافى
دافيد
داكا
داكار
داكوتا
دال
دالاس
دالتون
دالى
داليان
دام
دامز
داميان
دان
دانا
دانوب
دانى
دانيال
دانيل
دانيلا
دانيلو
دانييل
دانييلا
داه
داود
داوسون
داون
داونز
داوود
داى
داي
دايتون
داير
دايرة
دايره
دايفيد
دايما
دايموندز
داين
داڤ
داڤى
داڤيس
دب
دبلغه
دبلن
دبلوم
دبلوماسى
دبلوماسيه
دبلوماسيين
دبليو
دبى
دة
دخل
دخلت
دخول
در
دراجات
دراجان
دراجون
دراسات
دراسة
دراسته
دراسه
دراكو
دراما
درامى
دراميه
درب
دربند
درجة
درجه
درس
درست
درسدن
درع
درم
دره
درو
درويش
دريست
دريسدن
دريك
دريم
دستور
دشت
دعم
دفاع
دفاعى
دفع
دقيقه
دكا
دكاتره
دكتور
دكتوراه
دكس
دل
دلتا
دلفت
دلهى
دلوقتى
دلوقتي
دليل
دم
دماء
دمبرتون
دمز
دمشق
دموع
دمياط
دميترو
دميترى
دن
دندى
دنفر
دنمارك
دنماركيين
دنيا
دنيبرو
دنيبروبتروفسك
دنيدن
دنيزلى
دنيس
ده
دهستان
دهنو
دو
دوا
دوار
دوالا
دوايت
دوبلين
دوت
دوج
دوجان
دوجلاس
دود
دودلى
دور
دورا
دوران
دورانجو
دورة
دورتموند
دوردريخت
دوره
دورهام
دوروثى
دورى
دوريس
دوس
دوسان
دوسلدورف
دوق
دوقه
دوقيه
دوك
دوكومنتا
دول
دولار
دولة
دولتا
دولفينز
دوله
دولى
دولية
دوليه
دوم
دومين
دومينجو
دومينيك
دومينيكا
دومينيون
دون
دونا
دونالد
دونج
دوندالك
دونز
دونفرملين
دونكاستر
دونكان
دونو
دونوفان
دونى
دونيتسك
دوى
دويتشه
دويسبورج
دويل
دى
دي
دياز
دياس
ديان
ديانا
ديب
ديبورا
ديبورتيس
ديبورتيفو
ديبى
ديبييون
دية
ديتر
ديترويت
ديتريش
ديتير
ديجو
ديجون
ديد
دير
ديربان
ديربورن
ديربى
ديربيشاير
ديرك
ديرى
ديريك
ديزنى
ديس
ديساو
ديستريكت
ديسمبر
ديف
ديفلز
ديفوار
ديفون
ديفى
ديفيد
ديفيدسون
ديفيز
ديفيس
ديفينسور
ديك
ديكا
ديكسون
ديكنسون
ديكى
ديل
ديلا
ديلان
ديلاوير
ديلجادو
ديلهى
ديلون
ديلى
ديمترى
ديميترى
ديميتريس
ديميتريوس
دين
دينا
دينامو
دينو
دينى
دينيس
دينيه
ديه
ديوان
ديوك
ديون
دييجو
ديين
ديڤيد
ديڤيسيونال
ذ
ذا
ذات
ذاتيه
ذاعة
ذراع
ذربایجان
ذكر
ذكرى
ذلك
ذو
ذى
ر
را
راب
رابر
رابطة
رابطه
رابيد
رابيدز
راتشيل
راجل
راح
راد
رادكليف
رادنيتشكى
راديو
راس
راسل
راسم
راسموس
راسيل
راسينج
راشد
راشيل
راضى
راعى
راف
رافاي
رافايل
رافاييل
رافينا
راقص
راقصه
راكبه
رالف
رالى
رام
رامز
رامزى
رامنسكوى
راموس
رامون
رامى
راميريز
ران
راندال
راندولف
راندى
رانس
رانينج
راهب
راهبه
راو
راول
راى
راي
رايان
رايت
رايس
رايلى
رايموند
راين
راينر
راينلاند
راينير
رايو
رايون
رب
رباط
رباعى
ربان
ربع
ربعة
ربيع
رة
رتبة
رتبه
رتس
رتيبه
رثر
رثوذكسية
رجال
رجاله
رجب
رجبى
رجع
رجل
رجنتين
رحلة
رحله
رخ
رخه
رخين
رد
ردن
رزق
رسالة
رسام
رسامه
رسامين
رستاق
رستم
رسل
رسم
رسمها
رسمى
رسميا
رسميه
رسول
رسولى
رسوليين
رسوم
رشاد
رشدى
رشيد
رصيف
رض
رضا
رضوى
رع
رعب
رغم
رفسنجان
رفض
رفع
رفعت
رفقاء
رفيق
رقاصات
رقص
رقصه
رقم
رقيب
رك
ركاب
ركوب
ركيد
رمايه
رمز
رمزى
رمسيس
رمضان
رموز
رمى
رمينيا
رنم
رنهم
ره
رهبانيه
رهوس
رو
روابط
رواد
روان
رواندا
رواي
روايات
رواية
روايه
روب
روبرت
روبرتس
روبرتسون
روبرتو
روبسون
روبن
روبنز
روبنسون
روبى
روبيرت
روبيرتس
روبيرتو
روبين
روبينس
روبينسون
روت
روتجرز
روتردام
روتش
روتشا
روتشديل
روتشستر
روتور
روث
روج
روجر
روجرز
روجير
روح
روحي
روخوس
رود
رودا
رودبار
رودبارجنوب
رودريجو
رودريجويز
رودريجيز
رودس
رودلف
رودنى
رودولف
رودولفو
رودى
روذرهام
رور
رورال
روز
روزا
روزاريو
روزفلت
روزمارى
روزنبرج
روس
روسا
روساريو
روستوف
روستوك
روسلان
روسنبورج
روسو
روسى
روسيا
روسيل
روش
روفرز
روفوس
روفيرز
روك
روكا
روكتس
روكو
روكى
روكيز
رول
رولاند
رولف
روم
روما
رومان
رومانسى
رومانسيه
رومانو
رومانى
رومانيا
رومانيه
رومى
روميرو
روميو
رون
رونالد
رونى
روى
رويال
رويالز
رويز
رويس
روچ
رى
ري
ريا
رياض
رياضات
رياضه
رياضى
رياضيات
رياضياتى
رياضياتيه
رياضيه
رياضيين
ريال
ريان
ريبيرو
ريبيكا
ريت
ريتا
ريتر
ريتش
ريتشارد
ريتشاردز
ريتشاردسون
ريتشموند
ريتشى
ريث
ريج
ريجا
ريجاتاس
ريجان
ريجنالد
ريجى
ريجيانا
ريجيس
ريجينا
ريجينالد
ريجينسبورج
ريجيونال
ريختر
ريد
ريدبيردز
ريدج
ريدجو
ريدرز
ريدز
ريدسكينس
ريدنج
ريدى
ريدير
ريدينج
ريذم
ريزا
ريس
ريستيتوتا
ريسول
ريسيفه
ريسيڤير
ريشه
ريف
ريفر
ريفرسايد
ريفنز
ريفولوشن
ريفيرا
ريفيير
ريك
ريكا
ريكاردو
ريكرياتيفو
ريكس
ريكسهام
ريكو
ريكوردز
ريكى
ريكياڤيك
ريل
ريلى
ريما
ريمس
ريمون
ريموند
ريمى
ريمينى
رين
رينا
رينات
ريناتو
رينالدو
رينجرز
رينهارد
رينهولد
رينو
رينولدز
رينى
رينيه
ريه
ريو
ريوس
رييس
رييكا
ريڤير
ريڤيير
ریجان
ز
زابجه
زاجريب
زاجورا
زاد
زاده
زار
زاربروكين
زاره
زاك
زالتسبورج
زامبيا
زامورا
زاوية
زاويه
زاي
زايد
زايس
زاپوريچيا
زاڤير
زبيجنيو
زة
زجرب
زحل
زد
زرند
زعيم
زغرب
زغلول
زفوله
زكريا
زكى
زماله
زمان
زمن
زميل
زه
زهانج
زهر
زهرة
زو
زواج
زواولچيست
زوج
زوجة
زوجه
زوجى
زوران
زوريا
زوريخ
زول
زولتان
زوى
زى
زي
زياء
زياد
زيادة
زياده
زيد
زيدان
زيمبابوى
زين
زينب
زينيت
زيورخ
زيوريخ
زیارت
س
سا
ساء
ساب
ساباديل
سابق
سابورو
سابين
سابينزا
ساتو
ساتورن
ساجا
ساجان
ساجيناو
ساجيناى
ساحر
ساحل
ساد
سادات
سارا
ساراجوسا
ساراندى
ساراه
ساراييفو
ساربروكن
سارة
ساردوي
سارسفيلد
سارلاند
ساره
سارى
ساس
ساسكاتشوان
ساسكس
ساشا
ساعات
ساعة
ساعه
سافانا
سافر
سافوى
سافيرن
ساقية
ساكاى
ساكرامنتو
ساكرمنتو
ساكس
ساكسفون
ساكسون
ساكسونيا
ساكن
سال
سالازار
سالاس
سالامانكا
سالت
سالزبورج
سالفورد
سالم
سالى
ساليرنو
ساليرنيتانا
ساليناس
سالڤادور
سام
سامارا
سامانثا
سامبدوريا
سامسون
سامسونج
ساموا
سامويل
سامى
سان
سانا
سانت
سانتا
سانتانا
سانتاندير
سانتشيز
سانتو
سانتوس
سانتياجو
سانج
سانجا
ساندرا
ساندرز
ساندرو
ساندور
ساندى
سانشيز
سانفريس
سانفورد
ساو
ساوث
ساوثبورت
ساوثرن
ساوثهامبتون
ساوثهامپتون
ساوثيند
ساوندرز
ساوندز
ساى
ساي
سايتاما
سايتو
سايد
سايدنج
سايمون
ساين
ساينت
سباح
سباحه
سبارتا
سبارتاك
سباستيان
سباق
سباقات
سبال
سبايس
سبب
سبتمبر
سبرز
سبرينج
سبرينجز
سبرينجفيلد
سبع
سبقه
سبقها
سبليت
سبنسر
سبور
سبورت
سبورتس
سبورتيفو
سبورتينج
سبيزيا
سبيل
ست
ستات
ستاد
ستاذ
ستار
ستارا
ستارز
ستارك
ستافروبول
ستافورد
ستاليبريدج
ستامبيدرز
ستان
ستانتون
ستاندر
ستانفورد
ستانلى
ستانيسلاس
ستانيسلاف
ستانيسلاو
ستانيسلاوس
ستانيسلاڤ
ستايت
ستايسى
ستراسبورج
ستروسموند
سترونج
ستريت
ستشول
ستوارت
ستوديو
ستوديوز
ستور
ستورا
ستورم
ستوك
ستوكبورت
ستوكتون
ستوكهولم
ستون
ستى
ستيت
ستيج
ستيرلينج
ستيرن
ستيشن
ستيف
ستيفان
ستيفانو
ستيفانى
ستيفن
ستيفنز
ستيفنسون
ستيفين
ستيفيناج
ستيل
ستيلا
ستيلرز
ستيم
ستين
ستينى
ستيوا
ستيوارت
ستيڤ
ستيڤين
سجل
سجلات
سجن
سجون
سحاب
سحاقيات
سحره
سد
سدود
سر
سرا
سراب
سرار
سراى
سراي
سراييفو
سرة
سرحدی
سردشت
سرطان
سرعه
سرقسطه
سرقه
سرى
سريع
سريعه
سريلانكا
سس
سسات
سساتى
سسة
سست
سسكا
سسه
سسين
سطح
سعاد
سعد
سعدان
سعود
سعودى
سعوديه
سعوديين
سعيد
سفارات
سفارة
سفاره
سفر
سفرا
سفلى
سفلي
سفلی
سفنتى
سفيان
سفير
سفين
سفید
سقف
سقوط
سك
سكاربورو
سكان
سكانها
سكاى
سكر
سكرامنتو
سكرتير
سكسونيا
سكك
سكندرية
سكنيه
سكه
سكوت
سكوتلاند
سكودا
سكوشا
سكول
سكونثورب
سكوير
سكيت
سكيليفتييا
سلاجور
سلاح
سلاسل
سلاطين
سلافيا
سلاله
سلام
سلامنكا
سلامه
سلامي
سلامية
سلانيك
سلسلة
سلسله
سلطان
سلطنة
سلطنه
سلفادور
سلم
سلمان
سلمى
سله
سلوان
سلوفاكيا
سلوفان
سلوفينيا
سلوك
سلون
سليم
سليمان
سم
سماء
سمارا
سماعيل
سماوى
سمعان
سمك
سميت
سميث
سمير
سن
سنان
سنة
سنت
سنتر
سنترال
سنتين
سنجافوره
سنجر
سنداى
سندرلاند
سنكلير
سنه
سنو
سنوات
سنوكر
سنين
سه
سهام
سهرة
سهل
سهم
سو
سوا
سواء
سوارثمور
سواريز
سواريس
سواق
سواقين
سوان
سوانزى
سوبتيتسا
سوبر
سوتو
سوتون
سوث
سود
سودرا
سور
سورسيلى
سوره
سورى
سوريا
سورين
سورينام
سوريين
سوزا
سوزان
سوزانا
سوزوكى
سوزى
سوس
سوسا
سوسان
سوسن
سوسيداد
سوشو
سوفت
سوفتوير
سوفوروف
سوفولك
سوفى
سوفيا
سوفيتوف
سوق
سوك
سوكس
سول
سولا
سولت
سولنا
سولومون
سولى
سوليفان
سومرست
سون
سونج
سونجنام
سوندرز
سونورا
سونى
سونيا
سونيك
سوهاج
سوون
سوى
سويت
سويتش
سويديين
سوير
سويسرا
سويف
سويفت
سويندون
سوينى
سى
سي
سيا
سياتل
سيارا
سياسة
سياسه
سياسى
سياسي
سياسيا
سياسيه
سياسيين
سيان
سيباستيان
سيباستين
سيبرز
سيبو
سيبير
سيبيل
سيبييا
سيت
سيتوبال
سيتون
سيتى
سيث
سيجا
سيجفريد
سيجموند
سيد
سيدات
سيدار
سيدان
سيدة
سيدريك
سيدنى
سيده
سيدى
سير
سيرا
سيرات
سيرافيم
سيراكيوز
سيرانو
سيرة
سيرج
سيرجى
سيرجيو
سيرفيت
سيرك
سيركل
سيرو
سيروس
سيرى
سيريزو
سيريل
سيرينا
سيزار
سيس
سيسار
سيستان
سيستم
سيسكا
سيسها
سيسيل
سيسيليا
سيف
سيفتى
سيك
سيكت
سيكستانس
سيكسرز
سيل
سيلا
سيلتا
سيلتكس
سيلتيك
سيلفا
سيلفر
سيلفستر
سيلفيا
سيلفيو
سيلى
سيلين
سيلڤا
سيلڤيا
سيم
سيما
سيمبسون
سيمز
سيمفروبول
سيمفونيات
سيمفونيه
سيمور
سيمون
سيمونز
سيميون
سين
سينا
سيناء
سيناريست
سيناريو
سينت
سينترال
سينتس
سينتوراس
سينثيا
سينج
سينجابوره
سيندى
سينس
سينسيناتى
سينما
سينماي
سينيجال
سينيما
سينيور
سيهوكس
سيو
سيوداد
سيوط
سيون
سيونج
سيوى
سيويه
سييرا
سييراليون
سيينا
سييچى
سپرينجفيلد
سپليت
سپيسووتش
سپينسير
سڤردلوڤسك
سڤين
سیاه
سید
ش
شابمان
شاتورو
شاختار
شاديه
شارب
شارة
شارترهاوس
شارع
شارك
شاركت
شاركس
شارل
شارلروا
شارلوت
شارما
شاره
شارون
شاطي
شاعر
شاعره
شاف
شاكر
شالكه
شامبين
شامروك
شان
شانجهاى
شانون
شاه
شاهين
شاو
شاون
شاى
شاي
شايتا
شاين
شباب
شبرا
شبقيات
شبقيين
شبكات
شبكة
شبه
شبيبه
شتا
شتاين
شتاينر
شتتين
شتوتجارت
شتورم
شجر
شجرة
شخاص
شخص
شخصيات
شخصية
شخصيه
شر
شرح
شرطه
شرف
شرق
شرقى
شرقی
شركات
شركة
شركه
شروزبرى
شرى
شريف
شريك
شط
شطرنج
شطوط
شعار
شعارات
شعاع
شعاعيات
شعب
شعبان
شعبه
شعبيه
شعر
شعرا
شعه
شعيب
شغل
شغلها
شفيرين
شفيق
شفيلد
شكال
شكرى
شكل
شلال
شليزفيج
شماس
شمال
شمالى
شمالی
شمس
شمعون
شميت
شميد
شميدت
شنايدر
شنتو
شه
شهاب
شهادة
شهاده
شهر
شهرستان
شهرك
شهور
شهيد
شو
شوارتز
شوارتزتشايلد
شوارع
شوب
شوت
شوتزشتافل
شور
شورتستوب
شوف
شوقى
شوقي
شولتز
شولز
شومان
شوميكر
شون
شونان
شوية
شويه
شى
شي
شيء
شيا
شيبرد
شيجا
شيخ
شير
شيراز
شيرلى
شيرمان
شيرى
شيريدان
شيرين
شيزوكا
شيفر
شيفيلد
شيكاجو
شيل
شيلا
شيلبى
شيلت
شيلتون
شيلدز
شيلدون
شيلى
شيميزو
شين
شينيك
شيواوا
شيوخ
شیخ
ص
صابر
صاحب
صاحبه
صادق
صالح
صالحون
صاله
صالون
صامته
صامويل
صانع
صاي
صباح
صبح
صبحت
صبر
صبرى
صحارى
صحافيه
صحرا
صحفى
صحفيه
صحفيين
صداقه
صدر
صدرت
صدقى
صديق
صراع
صربيا
صعب
صغير
صغيرة
صغيره
صفحات
صفحة
صفحه
صفر
صقر
صل
صلاح
صلاله
صلى
صليب
صموي
صن
صناعة
صناعى
صندوق
صنز
صنعاء
صنف
صوت
صوتى
صور
صورة
صوره
صوفى
صوفيا
صول
صيد
صيدلى
صيدليه
صيربيا
صيف
صيفيه
ض
ضابط
ضافة
ضايعه
ضخم
ضخمه
ضد
ضرب
ضريح
ضفادع
ضفدع
ضمن
ضهر
ضيف
ط
طار
طارق
طاقم
طاقه
طالب
طاهر
طاهى
طاي
طايره
طب
طباع
طبال
طبول
طبيب
طبيبه
طبيعه
طبيعيه
طرابزون
طرابلس
طراز
طرش
طرطوس
طرف
طرق
طركونه
طرواده
طريق
طريقة
طريقه
طشقند
طعام
طفال
طفل
طقم
طلاب
طلال
طلب
طلع
طلعت
طليان
طليانى
طنطا
طه
طهران
طواف
طور
طورها
طوق
طوكيو
طول
طوله
طولها
طولو
طويل
طويلة
طويله
طيار
طياره
طيارين
طيب
طيبه
طير
طيران
طيور
طیبی
ظ
ظابط
ظل
ظهر
ظهرة
ظهرت
ظهور
ظهير
ع
عابدين
عاد
عادة
عادل
عارضه
عارف
عازف
عازفه
عازفين
عاش
عاشو
عاصمة
عاصمتها
عاصمه
عاطف
عالم
عالمه
عالميه
عالى
عاليه
عام
عاما
عامة
عامر
عامل
عامله
عامه
عاي
عايده
عايز
عايزين
عايش
عايشين
عبادان
عباده
عبارة
عباره
عباس
عبد
عبدالله
عبده
عبر
عبرى
عبو
عبيد
عتمنيه
عثمان
عثمانيه
عجل
عدا
عداء
عداءه
عداد
عدة
عدد
عددهم
عدل
عدم
عدن
عدو
عدى
عرب
عربى
عربي
عربيات
عربية
عربيه
عرش
عرض
عرضها
عرف
عرقيه
عروس
عريانة
عز
عزت
عزله
عزيز
عسكر
عسكرى
عسكريه
عسكريين
عشان
عشر
عشره
عشرين
عشق
عصام
عصر
عصفور
عصور
عضاء
عضو
عضوه
عضويه
عطيه
عظم
عقد
عقيد
عقيده
عكا
عكس
علا
علاء
علاقة
علاقه
علام
علان
علشان
علم
علما
علماء
علمى
علميه
علن
علوم
على
علي
عليا
عليك
علينا
عليه
عليها
عليهم
علی
علیا
عم
عماد
عمار
عمارة
عماره
عمال
عماله
عمان
عمده
عمر
عمران
عمره
عمرو
عمق
عمقها
عمل
عملات
عملت
عمله
عملها
عمليات
عملية
عمليه
عموم
عميد
عن
عنا
عناصر
عناكب
عنتاب
عنتر
عند
عندما
عنده
عندها
عندهم
عنصر
عننا
عنه
عنها
عنوان
عنوانى
عه
عهد
عهده
عوض
عياد
عيال
عيد
عيسى
عيش
عيلة
عيله
عين
عيني
عيون
غ
غابات
غابة
غابه
غار
غالبا
غالى
غانم
غانى
غاني
غرام
غرب
غربی
غريب
غزو
غسطس
غطاس
غطاسه
غلب
غماقتها
غموض
غنا
غناء
غناي
غنى
غنية
غير
غيره
غيرها
غيرهم
ـ
ف
فا
فابيان
فابيو
فات
فاجنر
فار
فارجاس
فارس
فارسى
فارنا
فارو
فاروق
فاريزى
فاريسى
فاريل
فاز
فازوا
فاس
فاسار
فاساس
فاسكو
فاسو
فاسيلى
فاضل
فاضى
فاطمة
فاطمه
فاعل
فاعله
فاكر
فال
فالس
فالك
فالكونز
فالكيرك
فالنتين
فالنسيا
فالى
فاليرى
فاليز
فالينسيان
فاماجوستا
فان
فاندربيلت
فانكوفر
فانواتو
فانى
فانيسا
فاولر
فاى
فايتينج
فاير
فايزين
فايس
فايكانو
فايكنج
فايل
فايله
فايمار
فاينورد
فبراير
فت
فتح
فتحى
فترة
فتره
فجر
فخر
فخريه
فراح
فرازير
فراشه
فراعنة
فران
فرانتيسيك
فرانز
فرانس
فرانسوا
فرانسواز
فرانسيس
فرانسيسك
فرانسيسكو
فرانشيسكو
فرانك
فرانكفورت
فرانكلين
فرانكو
فرانكى
فراى
فرايبورج
فرايموت
فرج
فرجينيا
فرح
فرد
فردى
فردي
فرديناند
فرس
فرسان
فرساى
فرض
فرع
فرق
فرقة
فرقه
فرناندو
فرنانديز
فرنسا
فرنساوى
فرنساويين
فرنسيس
فرنسيسكو
فروتسواف
فروع
فروم
فرى
فريبورج
فريتز
فريد
فريدا
فريدرش
فريدريتش
فريدريش
فريدريك
فريدريكستاد
فريدمان
فريدى
فريديريك
فريزر
فريس
فريق
فريمان
فرينش
فصل
فصيله
فضاء
فضل
فضلت
فطريات
فعل
فعلا
فقد
فقط
فقيه
فكار
فكان
فكتوريا
فكرة
فلاح
فلاديكافكاز
فلاديمير
فلام
فلامنجو
فلايرز
فلسطين
فلسفه
فلك
فلكلوريه
فلكى
فلكيه
فلم
فلما
فلوت
فلورا
فلورنس
فلورنسا
فلوره
فلوريان
فلوريدا
فلوريس
فلوس
فلومينينسى
فلويد
فليبس
فليتشر
فليتشير
فليمز
فلين
فلينت
فن
فنادق
فنان
فنانه
فنانين
فنتازيا
فندق
فنربخشه
فنزويلا
فنسنت
فنلندا
فنون
فنى
فنيه
فه
فهد
فهمى
فهو
فو
فوازير
فوبرتال
فوتبول
فوجل
فوجيا
فور
فوربس
فوربومرن
فورت
فورتاليزا
فورتسبورج
فورتمبيرج
فورتونا
فورد
فوردهام
فورزا
فورس
فورست
فورستر
فورك
فورمان
فورمولا
فورناكس
فوريست
فوزى
فوس
فوستر
فوق
فوكس
فوكوشيما
فوكوكا
فول
فولاد
فولبرايت
فولتون
فولجا
فولجوجراد
فولر
فولز
فولف
فولفجانج
فولك
فولكتنج
فولهام
فولى
فولين
فون
فونتانا
فونسيكا
فويفودينا
فوينتيس
فى
في
فياريال
فيبورج
فيتالى
فيتزجيرالد
فيتشينزا
فيتنام
فيتنبرج
فيتوريا
فيتوريو
فيتيبسك
فيتيسه
فيجا
فيجاس
فيجو
فيجورينسى
فيجى
فيد
فيدس
فيديريكو
فيديو
فير
فيرا
فيرارا
فيرارى
فيراكروز
فيران
فيرتشيلى
فيرتوس
فيرجسون
فيرجينيا
فيردا
فيردر
فيردى
فيرديناند
فيرست
فيرمونت
فيرناند
فيرناندو
فيرنانديز
فيرنر
فيرنون
فيرو
فيروز
فيروس
فيروسات
فيرونا
فيرونيكا
فيرى
فيرير
فيريرا
فيرينتسفاروشى
فيرينك
فيزيا
فيزياء
فيزياويين
فيزياي
فيس
فيساياس
فيسبادن
فيستا
فيسنتى
فيسيل
فيش
فيشر
فيصل
فيف
فيفا
فيفيان
فيك
فيكتور
فيكتوريا
فيل
فيلا
فيلادلفيا
فيلبس
فيلد
فيلدر
فيلدز
فيلدمان
فيلسوف
فيلسوفه
فيلم
فيلموجرافيا
فيلنيوس
فيلهلم
فيلهو
فيلى
فيليب
فيليبس
فيليبو
فيليبى
فيليز
فيليس
فيليكس
فيليپ
فيليپس
فيما
فين
فينا
فينترتور
فينر
فينس
فينسينت
فينك
فينلاندا
فينى
فينيزيا
فينيسيا
فينيكس
فيه
فيها
فيهم
فيو
فيودور
فيورنتينا
فيونا
فييتنام
فييرا
فيينا
فيچى
ق
قاتل
قادش
قارة
قاره
قازان
قاسم
قاضى
قاضيه
قاعدة
قاعده
قاعدى
قاعه
قافز
قافزه
قال
قالب
قالت
قام
قامت
قانون
قانونى
قاي
قباط
قبر
قبرص
قبل
قبله
قبيله
قتال
قتاليه
قتل
قد
قدام
قدر
قدم
قدمت
قدمها
قديس
قديسه
قديسين
قديم
قديمه
قرار
قرب
قرر
قرش
قرضامه
قرطبه
قرن
قره
قرى
قريب
قريبه
قرية
قريه
قس
قسام
قسطنطين
قسم
قسيس
قشلاق
قصة
قصر
قصرش
قصص
قصه
قصور
قصير
قصيره
قضاء
قضية
قطاع
قطر
قطع
قعد
قفز
قل
قلاده
قلاع
قلاوون
قلب
قلبك
قلبى
قلبي
قلت
قلعة
قلعه
قلوب
قم
قمر
قمه
قنا
قناة
قناه
قنديل
قنوات
قوات
قوارب
قواعد
قوالب
قوانين
قوة
قوس
قول
قوى
قى
قيادة
قياسه
قيام
قيس
قيصر
قيمة
قيمه
ك
كا
كاب
كابا
كابريرا
كابز
كابل
كابو
كابوت
كابور
كابيتالز
كابيتول
كات
كاتارينا
كاتالونيا
كاتالينا
كاتانيا
كاتب
كاتبه
كاتدراي
كاتر
كاترين
كاترينا
كاتس
كاتسورا
كاتشار
كاتو
كاتوفيتسه
كاتوليك
كاتوليكا
كاتوليكى
كاتى
كاثرين
كاثلين
كاثوليك
كاثوليكى
كاثوليكيه
كاثى
كاثيرين
كاجوشيما
كاديمية
كار
كارا
كاراتشى
كاراتيه
كاراكاس
كارباتى
كاربنتر
كارتر
كارتون
كارتير
كاردوسو
كارديف
كاردينال
كاردينالز
كارسون
كارل
كارلا
كارلايل
كارلتون
كارلسروه
كارلسون
كارلو
كارلوس
كارلوڤا
كارمن
كارمين
كارناتاكا
كارنيجى
كارو
كارول
كارولاينا
كارولى
كارولين
كارولينا
كارون
كارى
كاريكاتيرى
كاريل
كاريليا
كارين
كارينا
كاريوكا
كازاخستان
كازان
كازورو
كازيميرز
كاس
كاسبر
كاسترو
كاستل
كاستيلو
كاستييا
كاسل
كاسى
كاشيوا
كافالييرز
كال
كالابريا
كالجارى
كالداس
كالدويل
كالديرون
كالفين
كالمار
كالوم
كالى
كاليارى
كاليفورنيا
كالينينجراد
كاليه
كام
كامارا
كامب
كامبريدج
كامبل
كامبو
كامبوديا
كامبوس
كامدن
كامشاتكا
كامل
كاميرون
كاميرونيين
كاميل
كاميلا
كاميلو
كامپ
كامپاجن
كامپبيل
كان
كاناجاوا
كاناكس
كانبرا
كانت
كانتابريا
كانتربيرى
كانترى
كانتو
كانتون
كانج
كاندى
كانزاس
كانساس
كانسر
كانش
كانو
كانوا
كانون
كانى
كانيدا
كانيديينز
كانيس
كاهن
كاواساكى
كاوبويز
كاودينبيث
كاوناس
كاونتى
كاى
كاي
كايا
كاياك
كايتانو
كايزر
كايزرسلاوترن
كايل
كاين
كايوتيز
كاپريكورناس
كاپكوم
كبار
كبر
كبير
كبيرة
كبيره
كت
كتاب
كتابة
كتابه
كتالونيا
كتب
كتبه
كتبها
كتر
كتوبر
كتيبه
كتير
كتيرة
كتيره
كثافه
كثر
كثير
كجم
كد
كدا
كده
كذا
كراسنودار
كراسنويارسك
كرافت
كراكوف
كرامر
كرانى
كراوس
كراوفورد
كراى
كرايج
كرايستشرش
كرايوفا
كرة
كردستان
كرزيسزتوف
كرلنج
كرم
كرمان
كرمانشاه
كره
كرو
كرواتيا
كروتونى
كروجر
كروز
كروزيرو
كروس
كروسبى
كروشيفاتس
كروفورد
كروكوم
كرول
كرولى
كرون
كرويدون
كريت
كريتر
كريتيل
كريج
كريس
كريستا
كريستال
كريستنسن
كريستوبال
كريستوف
كريستوفر
كريستى
كريستيان
كريستيانيه
كريستين
كريستينا
كريسيوما
كريشنا
كريك
كريكت
كريل
كريليا
كريم
كريمزون
كريمونيسى
كرين
كزافييه
كس
كسب
كسبت
كفر
كل
كلاب
كلاته
كلارا
كلارك
كلارنس
كلارينس
كلارينيت
كلاس
كلاسيك
كلاسيكى
كلاسيكيه
كلام
كلاود
كلاوديوس
كلاوس
كلاى
كلايتون
كلايد
كلاير
كلايف
كلاين
كلثوم
كلفلاند
كلكتا
كلمات
كلماتها
كلمة
كلمه
كله
كلها
كلوب
كلوج
كلود
كلوديا
كلوديو
كلوز
كليات
كليبرز
كلية
كلير
كليرمونت
كليف
كليفتون
كليفلاند
كليفورد
كليمنت
كليمنس
كليمينت
كلين
كلينت
كلينتون
كليه
كليوباترا
كليڤلاند
كم
كما
كمال
كمان
كمبريا
كمنجه
كميل
كناريا
كنايس
كنت
كنتاكى
كندا
كندى
كنديين
كنساس
كنوت
كنيس
كنيسة
كنيسه
كه
كهرباي
كهف
كهنوت
كهوف
كو
كوارترباك
كوان
كوانج
كواويلا
كوب
كوبا
كوبان
كوباياشى
كوبر
كوبرى
كوبلى
كوبنهاجن
كوبه
كوبينهاجين
كوت
كوتا
كوتبوس
كوتش
كوتشى
كودى
كور
كورادو
كورال
كوربيت
كورة
كورت
كورتريك
كورتنى
كورتيس
كوردوبا
كوردون
كورسك
كورك
كورليفيتش
كورنرباك
كورنوال
كورنيل
كورنيليا
كورنيليس
كورنيليوس
كوره
كورونا
كورونيا
كورى
كوريا
كوريتيبا
كورين
كورينثيانز
كورین
كوس
كوست
كوستا
كوستاريكا
كوستاس
كوستروما
كوسوفو
كوش
كوشك
كوشوت
كوشيتسه
كوشيرو
كوفمان
كوفنترى
كوفو
كوفى
كوك
كوكب
كوكبة
كوكبه
كوكس
كوكسواك
كوكو
كوكى
كول
كولا
كولتس
كولتشستر
كولدج
كولكاتا
كولمان
كولمبو
كولن
كولو
كولورادو
كولومب
كولومبوس
كولومبيا
كولون
كولونيا
كولى
كوليت
كوليج
كوليدج
كوليدچ
كولير
كولين
كولينز
كولينس
كوم
كوما
كومار
كوماركا
كوماموتو
كومبلوتنسا
كومبوستيلا
كومبيوتر
كومو
كوموناوت
كومونز
كومى
كوميدى
كوميديا
كوميديه
كوميديين
كون
كونامى
كونت
كونتراباس
كونتى
كونتيسه
كونج
كونجرس
كونجو
كونراد
كونسادول
كونستانتين
كونستانس
كونسرفاتوار
كونسيل
كونكا
كونكورد
كونكورديا
كونو
كونواى
كونور
كونوس
كونولى
كونى
كونيتيكت
كونيجسبرج
كونيجستوهل
كونينجهام
كونچيك
كوه
كوهدشت
كوهن
كوهين
كوى
كويس
كويكب
كويكبات
كويمبرا
كوين
كوينتين
كوينز
كوينزلاند
كوينسى
كوينكا
كوپير
كى
كي
كيان
كيب
كيبك
كيبيك
كيت
كيتا
كيتامى
كيترينج
كيتو
كيتى
كيث
كيد
كيدرمينستر
كير
كيرا
كيرالا
كيربى
كيرت
كيرجيزستان
كيرستين
كيرك
كيرلس
كيرن
كيرونا
كيروڤ
كيرى
كيريل
كيس
كيسى
كيشيناو
كيف
كيفن
كيفين
كيك
كيكرز
كيكو
كيل
كيلر
كيلسى
كيلمارنوك
كيلمس
كيلو
كيلومتر
كيلى
كيم
كيمبرلى
كيمنتس
كيمياء
كيمياي
كين
كينان
كينت
كينج
كينجز
كينجستون
كينجستين
كيندال
كينز
كينشاسا
كينى
كينيا
كينيث
كينيدى
كينيز
كيه
كيو
كيوب
كيوتو
كيون
كيونج
كيي
كييف
كييفو
كيڤين
ل
لا
لاء
لاا
لااطار
لابلاتا
لات
لاتاك
لاتحاد
لاتسيو
لاتفيا
لاجو
لاجوا
لاجوس
لاجون
لاجونا
لاداره
لادنبره
لادیز
لارا
لارده
لارس
لارسن
لارسون
لارناكا
لارى
لاريسا
لازار
لازم
لاس
لاسزلو
لاسك
لاسى
لاسيلا
لاشخاص
لاعب
لاعبات
لاعبة
لاعبه
لاعبين
لاف
لافال
لافاييت
لافضل
لافى
لاك
لاكتر
لاكورونيا
لالعاب
لام
لامار
لامب
لامبرت
لامبيث
لان
لانج
لانجاز
لاند
لانس
لانسنج
لانكستر
لانه
لانوديير
لانوس
لاهاى
لاهتى
لاهوت
لاهور
لاو
لاورا
لاورى
لاورينت
لاورينس
لاوس
لاول
لاولاد
لاى
لايبتزج
لايبزيج
لايتنينج
لايدن
لاين
لبادن
لبافاريا
لبريطانيا
لبعوس
لبنان
لبنانيه
لبنانيين
لبوم
لبيون
لة
لتصاميم
لتعزيز
لتقدم
لجرم
لجمعيات
لجمهوريه
لجنة
لجنه
لجوقه
لحان
لحد
لحسن
لحقوق
لحم
لحن
لخ
لخط
لدرجة
لدورى
لدوله
لدى
لرفع
لرهبانيه
لروسيا
لرولينجز
لري
لرياضه
لسا
لسباق
لستة
لستر
لسته
لسنة
لسنه
لسه
لشبونه
لشو
لطفى
لعاب
لعام
لعب
لعبة
لعبت
لعبه
لعلوم
لعيب
لعيبة
لعيبه
لغات
لغاية
لغة
لغتهم
لغه
لغوى
لـ
لف
لفات
لفاته
لفرسان
لفنون
لفه
لفيف
لفين
لقاء
لقب
لك
لكاس
لكرة
لكره
لكل
لكن
لكنه
لكورة
لكوره
للا
للاتحاد
للاحتفال
للاداره
للادب
للاستحقاق
للاطفال
للاعمال
للافلام
للاقتصاد
للالعاب
للامبراطوريه
للامم
للبحث
للبنات
للبياثلون
للتاريخ
للتدوير
للتربيه
للتزلج
للتسجيلات
للتصميم
للتعليم
للتقنيه
للتكنولوجيا
للثقافه
للجامعات
للجمباز
للجمهور
للجمهوريه
للجودو
للجيش
للحزب
للحصول
للحقوق
للحياه
للخدمات
للخدمه
للدراجات
للدراسات
للدراما
للدفاع
للرجال
للرساي
للرسم
للرياضيات
للريشه
للسدود
للسكك
للسلام
للسما
للسنه
للسيدات
للسينما
للشباب
للطب
للطيران
للعلاقات
للعلوم
للعمل
للغات
للفلسفه
للفن
للفنون
للفيزياء
للقانون
للقديس
للقذف
للقوات
للكتاب
للكره
للكريكت
للكورة
للكوره
للكويكبات
للمحترفين
للمحليين
للمخترعين
للمخرج
للمراجعه
للمراصد
للمراه
للمسرح
للمسلمين
للمسيحيين
للمشاهير
للمصارعه
للملك
للملكه
للمملكه
للمو
للمواقع
للموسيقى
للناشي
للنساء
للنشر
للنمسا
للنيشان
للهندسه
للى
لم
لما
لماني
لمانيا
لمانية
لمجلس
لمدار
لمدة
لمدينه
لمصر
لموسكو
لميلاد
لن
لنا
لندن
لنظام
لنقطة
لنكات
لنكولن
لنهاي
لنيشان
له
لها
لهم
لهوكى
لو
لواء
لوان
لواندا
لوب
لوبيز
لوبيك
لوبين
لوت
لوتز
لوتسك
لوتون
لوثار
لوثر
لوجان
لوجانو
لوجو
لوحات
لوحة
لوحه
لوخ
لودز
لودفيج
لودويج
لور
لورا
لوران
لوراند
لورانس
لورد
لورنس
لورى
لوريان
لورين
لورينتيد
لورينز
لورينزو
لوز
لوزان
لوزيرن
لوس
لوسون
لوسى
لوسيا
لوسيان
لوسيانو
لوسين
لوسيو
لوسيوس
لوف
لوفان
لوقا
لوك
لوكا
لوكاس
لوكسمبورج
لوكسيمبورج
لوكوموتيف
لوكيرين
لولا
لوماس
لومان
لومبارديا
لون
لونا
لونج
لوند
لوندون
لونش
لونى
لوهافر
لوهانسك
لوى
لويجى
لويد
لوير
لويز
لويزا
لويزيانا
لويس
لويفيل
لويل
لويولا
لوپيز
لى
لي
ليا
ليالى
ليالي
ليام
لياندرو
ليبرتاد
ليبرتى
ليبى
ليبيا
ليبيريا
ليبيريتس
ليتش
ليتشى
ليتل
ليتوانيا
ليتون
ليثوجراف
ليج
ليجا
ليجيا
ليختنشتاين
ليدز
ليديا
ليرس
ليروى
ليريا
ليز
ليزا
ليزبيان
ليزلى
ليس
ليسا
ليستة
ليستر
ليسته
ليستير
ليسلى
ليسوتو
ليسيه
ليشبوا
ليف
ليفانتى
ليفربول
ليفس
ليفسكى
ليفورنو
ليفى
ليفين
ليفينجستين
ليك
ليكرز
ليكس
ليكسيلا
ليكو
ليل
ليلا
ليلة
ليله
ليلى
ليليات
ليليان
ليم
ليما
ليماسول
ليمان
ليموج
ليمون
لين
لينا
لينتس
لينتشى
لينج
ليند
ليندا
ليندساى
ليندسى
لينس
لينك
لينكات
لينكس
لينكولن
لينكون
لينو
لينى
لينين
لينينجراد
ليه
ليها
ليهاى
ليهم
ليو
ليوبليانا
ليوبولد
ليوبولدينا
ليودميلا
ليون
ليونارد
ليوناردو
ليونز
ليونس
ليونيد
ليونيل
ليويس
ليوپولد
لييج
ليڤ
ليڤركوزن
ليڤى
ليڤين
لڤيديو
م
ما
مابين
مات
ماتا
ماتت
ماتثياس
ماتسوموتو
ماتش
ماتشادو
ماتكونش
ماتو
ماتوس
ماتى
ماتياس
ماتيو
ماتيوس
ماثياس
ماثيو
ماثيوز
ماثيوس
ماجد
ماجدالين
ماجدالينا
ماجدبورج
ماجنوس
ماجى
ماجيك
ماخاتشكالا
مادجاسكار
مادلين
ماده
مادونا
ماديرا
ماديسون
ماذرويل
مار
مارا
مارات
ماراثون
ماراثونى
ماربورج
مارت
مارتا
مارتن
مارتى
مارتين
مارتينا
مارتينز
مارتينس
مارتينيز
مارثا
مارجاريت
مارجاريتا
مارجرجس
مارجريت
مارجريتا
مارجريف
مارجيت
مارس
مارسيل
مارسيلو
مارسيليا
مارسين
مارش
مارشال
مارفن
مارك
ماركس
ماركو
ماركوس
ماركويس
ماركيت
ماركيز
مارلين
مارى
ماريا
ماريان
ماريانا
ماريانو
ماريبور
ماريتيمو
ماريس
ماريك
ماريلاند
مارين
مارينا
مارينرز
مارينو
مارينوس
ماريو
ماريوبول
ماريوس
ماريون
مازندران
ماس
ماساتشوستس
ماساكى
ماستر
ماستريخت
ماسح
ماسون
ماسونى
ماسونيه
ماسى
ماسيمو
مافيريكس
مافيش
ماك
ماكان
ماكانش
ماكاو
ماكاى
ماكجيل
ماكدونالد
ماكس
ماكسويل
ماكسيم
ماكسيميليان
ماكليسفيلد
ماكلين
ماكنزى
ماكنوت
ماكوتو
ماكون
ماكى
ماكيريرى
ماكينزى
مال
مالاجا
مالاوى
مالايا
مالديف
مالطا
مالقا
مالك
مالكولم
مالكوم
مالمو
مالو
مالون
مالى
ماليزيا
مام
ماما
مان
مانتوفا
مانسفيلد
مانسى
مانشستر
مانفريد
مانهاتن
مانهايم
مانويل
مانى
مانيتوبا
مانيلا
مانينج
ماهاراشترا
ماهر
ماور
ماورو
ماوريس
ماوريسيو
ماونت
ماونتن
ماى
ماي
مايا
ماير
مايرز
مايسترو
مايك
مايكروسوفت
مايكل
مايلز
ماين
ماينتس
مايو
مايور
مايوركا
ماچور
مبارز
مبارزه
مبارك
مباره
مبانى
مبرمج
مبشر
مبنى
مة
متا
متاحف
متجر
متحركه
متحف
متخصص
متر
مترجم
مترجمه
مترو
متروبوليتان
متز
متزامنه
متزحلق
متزحلقه
متزحلقين
متزلج
متزلجه
متسابق
متسابقه
متسلسل
متسلق
متعلق
متعلمين
متكونه
متنوع
متوسط
متوسطه
متوسيكل
متوفره
متى
متينه
مثال
مثل
مثلا
مثلت
مجارى
مجازف
مجال
مجتمع
مجدف
مجدفه
مجدفين
مجدى
مجرات
مجرد
مجرم
مجرمين
مجره
مجرهبتتبع
مجرى
مجلات
مجلة
مجلس
مجله
مجمع
مجموعات
مجموعة
مجموعه
محاضر
محافظات
محافظة
محافظه
محافظين
محاكمه
محام
محامى
محاميه
محاميين
محترف
محترفه
محترفى
محترفين
محرر
محرره
محرك
محرم
محسن
محطة
محطه
محفوظ
محكمة
محل
محلل
محله
محمد
محمدا
محمود
محميات
محمية
محميه
مختار
مختبر
مخترع
مختص
مختلط
مختلف
مختلفة
مختلفه
مخدرات
مخرج
مخرجات
مخرجه
مخرجين
مخروطى
مخضرم
مدارس
مدافع
مدة
مدرب
مدربه
مدربين
مدرس
مدرسة
مدرسه
مدريد
مدمج
مدن
مدنى
مدنيه
مدون
مدى
مدير
مديره
مديريات
مديريه
مدينة
مدينه
مذكرات
مذيع
مذيعه
مر
مرا
مرات
مراته
مراجع
مراد
مراصد
مراض
مرافق
مراكز
مراهقه
مربع
مرة
مرتفعات
مرتين
مرحلة
مرس
مرسى
مرسيدس
مرسيليا
مرسين
مرصد
مرض
مرفق
مرقس
مركز
مركزى
مركزی
مرمى
مره
مروان
مرور
مريشه
مريكا
مريكى
مريكي
مريكية
مريم
مرکزی
مزدوج
مزرعة
مزرعه
مزيكا
مس
مسابقه
مساجد
مساحة
مساحتها
مساحه
مسار
مسارح
مساعد
مساعدة
مساعده
مسافات
مستشار
مستشرق
مستشفى
مستشفيات
مستقل
مستقله
مستكشف
مستوى
مسح
مسدد
مسرح
مسرحى
مسرحيات
مسرحية
مسرحيه
مسرحيين
مسطح
مسطحات
مسعود
مسك
مسلسل
مسلسلات
مسلم
مسلمين
مسو
مسي
مسيحى
مسيحيه
مسيحيين
مسير
مسيره
مسيسيبى
مش
مشاكل
مشاهير
مشتريه
مشروع
مشهد
مشهور
مشهوره
مشى
مشير
مصادر
مصارع
مصارعه
مصارعين
مصالح
مصالحها
مصبو
مصدر
مصر
مصرفى
مصرى
مصري
مصريات
مصرية
مصريه
مصريين
مصصم
مصطدم
مصطفى
مصطلح
مصطلحات
مصلى
مصمم
مصممه
مصنع
مصور
مصوره
مصورين
مطار
مطارات
مطبوعات
مطثيه
مطر
مطران
مطعم
مطوره
مع
معابد
معادن
معارك
معاصر
معاك
معالج
معالم
معاه
معاها
معاهده
معاهم
معايير
معبد
معتزل
معجمى
معرض
معرف
معرقل
معركة
معركه
معروضه
معروف
معروفه
معسكر
معظم
معلق
معلقين
معلم
معلمه
معلومات
معمارى
معناه
معناها
معنى
معه
معهد
معين
معينه
مغاره
مغامره
مغتربين
مغنى
مغني
مغنيات
مغنية
مغنيه
مغنيين
مفاتيح
مفتوح
مفيش
مقابر
مقابل
مقاتل
مقاطعات
مقاطعة
مقاطعه
مقالات
مقاله
مقاوم
مقاومه
مقبره
مقتبس
مقدسه
مقدم
مقدمه
مقدونيا
مقر
مقرها
مكابى
مكارثى
مكان
مكانه
مكانها
مكاى
مكاي
مكتب
مكتبة
مكتبه
مكتوب
مكتوبه
مكجيل
مكدونالد
مكسيكو
مكعب
مكه
مكونات
مل
ملازم
ملاكم
ملاكمه
ملاهى
ملبورن
ملحدين
ملحن
ملحنه
ملحنين
ملحنيين
ملعب
ملف
ملك
ملكات
ملكة
ملكه
ملكيه
ملوك
مليار
مليون
مم
مما
مماليك
ممثل
ممثلات
ممثلة
ممثله
ممثلين
ممر
ممرضه
ممفيس
ممكن
مملكة
مملكه
من
مناجم
مناطق
مناعه
منافس
منافسه
مناقشه
منتج
منتجات
منتجع
منتجعات
منتجه
منتجين
منتخب
منتخبات
منتريال
منتصف
منجم
منحه
منخفضه
مندوب
مندوزا
منذ
منزل
منسق
منسوب
منصب
منصه
منصور
منطقة
منطقه
منظر
منظمات
منظمة
منظمه
منظور
منع
منفذ
منك
منه
منها
منهم
منى
منيابولس
منير
منيسوتا
منين
مه
مها
مهاجم
مهدى
مهرجان
مهم
مهما
مهمة
مهمه
مهندس
مهندسه
مهندسى
مهندسين
مو
مواد
مواصفات
مواطنينها
مواعيد
مواقع
مواليد
موانى
موبيل
موت
موتا
موتور
موتورز
موجه
موجود
موجوده
موجودين
موجى
مود
مودلينج
مودى
موديل
موديلات
مودينا
مور
مورا
موراليس
موران
موراى
مورايس
مورتون
مورجان
مورديليستينا
مورس
مورسيا
مورفى
مورلى
مورو
مورى
موريتانيا
موريتز
موريرا
موريس
موريسون
موريسى
موريشيوس
موريل
مورين
مورينو
موزامبيق
موزع
موس
موستار
موستافا
موسكو
موسم
موسوعة
موسى
موسيس
موسيقى
موسيقيه
موسيقيين
موش
موشن
موضوع
موضوعه
موطنه
موظف
موظفه
موقع
مول
مولاى
مولده
مولدوڤا
مولر
مولوديه
مولى
مولير
مولين
مولينا
مومباى
مون
موناكو
مونبلييه
مونت
مونتاج
مونتانا
مونتجومرى
مونتروز
مونتريال
مونتريويل
مونتفيدو
مونتى
مونتير
مونتيرات
مونتيرو
مونتيرى
مونتيس
مونتيفيديو
مونتينيجرو
مونتيڤيدييو
مونجوليا
مونديال
مونرو
مونزا
مونستر
مونشنجلادباخ
مونك
مونى
مونيسيپاليتى
مونيكا
موهد
موير
موين
مى
مي
ميا
ميادين
ميازاكى
ميامى
ميانمار
ميبل
ميت
ميتال
ميتالورج
ميتالوره
ميتاليست
ميتز
ميتس
ميتش
ميتشال
ميتشل
ميتشيل
ميتكالف
ميته
ميتو
ميث
ميثوديست
ميج
ميجان
ميجويل
ميجى
ميجيل
ميخاي
ميخايل
ميخيلين
ميدالى
ميداليه
ميدان
ميدلاند
ميدلزبره
ميدلوثيان
ميديا
ميديلين
ميدينا
مير
ميرا
ميراندا
ميرة
ميرتون
ميرزا
ميرسير
ميرفى
ميركو
ميركورى
ميرل
ميرو
ميروسلاڤ
ميرى
ميريام
ميريت
ميريل
ميريلاند
ميرين
ميزورى
ميس
ميسا
ميسورى
ميسيسيبى
ميشال
ميشيجان
ميشيل
ميك
ميكا
ميكايل
ميكسيكو
ميكلينبورج
ميكو
ميكولا
ميكى
ميكيل
ميل
ميلا
ميلاد
ميلان
ميلانو
ميلانى
ميلاووكى
ميلبورن
ميلتون
ميلر
ميلرز
ميلز
ميلس
ميلكى
ميلو
ميلواكى
ميلوز
ميلوس
ميلون
ميلوناريوس
ميلووكى
ميلوول
ميلى
ميليتارى
ميلير
ميليس
ميليسا
ميمون
ميمى
مين
مينا
ميناس
مينج
ميندوزا
مينديز
مينسك
مينو
مينور
مينيابوليس
مينيسوتا
مينييرو
ميه
ميوزيك
ميونخ
ميونيخ
ميچور
میان
ن
نا
نابليون
نابولى
نات
ناتاشا
ناتالى
ناتاليا
ناتسونالى
ناتشى
ناثان
ناثانيل
ناجاساكى
ناجانو
ناجتس
ناجويا
ناجى
ناحية
ناحيه
ناد
نادال
نادر
نادو
نادى
نادي
نادين
ناديه
نار
نارا
ناريه
ناس
ناساو
ناسكار
ناسو
ناسيونال
ناش
ناشر
ناشط
ناشطه
ناشفيل
ناشونالز
ناصر
ناطحات
ناطحة
نافورة
نافوره
ناقد
ناقده
ناك
ناكامورا
نالتشيك
نام
نامكو
ناميبيا
نان
نانا
نانت
نانسى
ناي
نايب
نايت
نايجل
نايجيريا
نبا
نبات
نباتات
نباتيه
نبراسكا
نبيل
نت
نتاج
نتانيا
نتس
نتيجة
نتيجه
نجاح
نجار
نجد
نجليزي
نجليزية
نجم
نجمه
نجوم
نجوين
نجيب
نحات
نحاته
نحاسيه
نحو
ند
ندى
نرويجيين
نزل
نزلت
نس
نساء
نسان
نسبة
نسبه
نسخة
نسخه
نسمه
نسويه
نشا
نشاء
نشر
نشرها
نشوء
نشيد
نص
نصر
نصف
نطاق
نطاقات
نطق
نظام
نظر
نظرى
نظرية
نظريه
نظم
نفس
نفسه
نفسها
نفسهم
نفسى
نفسيه
نفط
نقابة
نقابه
نقابى
نقاش
نقطة
نقطه
نقل
نقيب
نمره
نمط
نمو
نه
نها
نهاي
نهاية
نهايه
نهر
نهم
نو
نوا
نواب
نوادى
نوار
نواع
نواه
نوبل
نوتر
نوتردام
نوتس
نوتنجهام
نوتينجهام
نوح
نور
نورا
نوربرت
نوربيرت
نورتون
نورث
نورثامبتون
نورثويتش
نورثويسترن
نورد
نوردراين
نوردى
نورديك
نورفولك
نورمان
نورنبرج
نورنبيرج
نورويتش
نورى
نوريس
نوط
نوع
نوفا
نوفارا
نوفجورود
نوفمبر
نوفى
نوكس
نولان
نونو
نونيز
نووى
نوى
نويشتات
نويع
نويفا
نويل
نويى
نوڤا
نوڤجورود
نوڤوسيبيرسك
نى
ني
نيا
نياز
نيبال
نيت
نيترا
نيتشولاس
نيتو
نيجاتا
نيجر
نيجنى
نيجيريا
نيجيريين
نيد
نيدر
نيديرلاند
نيديرلانديين
نيروبى
نيزك
نيس
نيستور
نيش
نيشان
نيفا
نيفادا
نيفتشى
نيفسكى
نيفيس
نيفيسكى
نيفيل
نيقوسيا
نيك
نيكار
نيكاراجوا
نيكاكسا
نيكس
نيكسون
نيكلاس
نيكلسون
نيكو
نيكوس
نيكول
نيكولا
نيكولاس
نيكولاوس
نيكولاى
نيكولز
نيكولو
نيكى
نيكيتا
نيل
نيلز
نيلس
نيلسن
نيلسون
نيلسين
نيلى
نيم
نيمان
نيميخن
نينا
نينتندو
نينو
نينوى
نينيتس
نيهون
نيو
نيوا
نيوانجلاند
نيوبورت
نيوتن
نيوتون
نيوجيرسى
نيودلهى
نيور
نيوز
نيوزيلاندا
نيوزيلندا
نيوكاسل
نيولز
نيومان
نيومكسيكو
نيويورك
نييجاتا
نيڤيتسكى
ه
ها
هاج
هاجر
هاجن
هاجويناو
هادى
هارارى
هارالد
هاربر
هاربسكورد
هاربور
هارت
هارتفورد
هارتلبول
هارتمان
هارد
هاردى
هاردينج
هاررو
هارفارد
هارفى
هارلم
هارو
هارولد
هارون
هارى
هاريرز
هاريس
هاريسبرج
هاريسون
هارينجتون
هارڤارد
هارڤى
هاس
هاسان
هاستينجز
هاشم
هافانا
هافباك
هاك
هال
هاله
هالى
هاليفاكس
هاليكالا
هام
هامبتون
هامبشير
هامبل
هامبورج
هامرسميث
هاملتون
هاموند
هاميلتون
هان
هانا
هانتر
هانز
هانزا
هانس
هانسن
هانسون
هانسين
هانك
هانكوك
هانم
هانوفر
هانوڤر
هانى
هاو
هاواى
هاوس
هاى
هايتس
هايتى
هايد
هايدلبرج
هايدن
هايدوك
هايديلبيرج
هايز
هايلاند
هايلبرون
هاينريش
هاينز
هاييتى
هاڤانا
هبوعيل
هجوم
هدرسفيلد
هدسون
هدف
هدى
هذا
هذه
هرام
هرب
هربرت
هرتا
هرمان
هرنانديز
هسن
هشام
هـ
هكتار
هل
هلال
هلسينجبورج
هم
هما
همام
همدان
هن
هنا
هناك
هنت
هنتر
هند
هندرسون
هندريك
هندسه
هندوراس
هندوسى
هندوسيه
هنرى
هنريك
هنس
هو
هوا
هوارد
هوان
هوانج
هوب
هوبارت
هوبر
هوبكنز
هوبكينز
هوبير
هوبيرت
هوت
هوتسبير
هوتن
هوتون
هوتين
هوج
هوجو
هوجيس
هود
هودسون
هوراس
هوراكان
هورتون
هورست
هورن
هورنتس
هورولوجيوم
هوريزونتى
هوس
هوساين
هوسين
هوف
هوفمان
هوك
هوكايدو
هوكس
هوكى
هوكينز
هول
هولاكو
هولاند
هولت
هولشتاين
هولم
هولمز
هولندا
هولى
هوليوود
هوم
هومبولت
هون
هونج
هوندوراس
هونفيد
هونولولو
هوه
هوى
هويت
هويل
هوپ
هى
هي
هيا
هيب
هيبرنيان
هيت
هيج
هيجينز
هيد
هيدالجو
هيدى
هير
هيرب
هيربيرت
هيرش
هيرشيل
هيرفورد
هيركوليس
هيرمان
هيرنانديز
هيرنفين
هيروشى
هيروشيما
هيرويوكى
هيريرا
هيس
هيسين
هيك
هيكتور
هيكس
هيكل
هيكى
هيل
هيلارى
هيلاس
هيلتون
هيلدا
هيلز
هيلس
هيلسينكى
هيلموت
هيلى
هيلير
هيلين
هيلينا
هين
هينرى
هينريتش
هينريخ
هينريك
هينز
هينك
هينينج
هيه
هيو
هيوجو
هيوز
هيوستن
هيوستين
هيون
هيونج
هيونداى
هيويت
هيي
هيڤين
و
وا
وات
واتانابى
واترلو
واتس
واتسون
واتش
واتفورد
واحد
واحدة
واحده
واخد
واخده
واخدين
واخر
واد
وادى
وادي
وارتون
وارد
وارسو
وارن
وارنر
وارين
واسيدا
واشنطن
واشينجتون
واشينطون
واضع
واكر
وال
والا
والاس
والالكترونيات
والت
والتاريخ
والتر
والتصميم
والتعليم
والتكنولوجيا
والتلفزيون
والتون
والتي
والحب
والد
والدراما
والده
والذي
والرقص
والرياضه
والرياضيات
والسول
والش
والشعر
والطفل
والعسكرى
والعشرين
والعلوم
والفن
والفنون
والقانون
والقديس
والكر
والله
واللى
واللي
والنحت
والنساء
والنشر
والهرسك
والى
وان
وانا
وانت
وانج
واندررز
واى
واي
وايت
وايتكابس
وايد
وايرلندا
وايز
وايكام
وايلد
واين
وايومنج
وباء
وبدا
وبرا
وبرضه
وبعد
وبعدها
وبعدين
وبلوشستان
وبيشتغل
وبين
وتم
وتوباجو
وثاي
وجرجس
وجسبورج
وجماعى
وجه
وجود
وحتى
وحدات
وحدة
وحده
وحوار
وحيد
وخط
ود
ودا
وده
ودى
وذلك
ور
ورا
وراء
وراثه
وراق
ورد
ورسستر
ورق
ورقه
ورلد
وروبا
وري
وريجت
وزارة
وزاره
وزرا
وزراء
وزن
وزير
وس
وسام
وساي
وست
وسترن
وستفاليا
وستمنستر
وسط
وسطی
وسيناريو
وشحه
وصف
وصل
وصلات
وصلة
وصلت
وصول
وصى
وصيف
وضع
وطنى
وطنيه
وطنيين
وظاي
وعبد
وعلى
وعمل
وغيره
وغيرها
وف
وفاة
وفاته
وفاتها
وفاه
وفى
وفي
وفيات
وقال
وقام
وقت
وقتها
وقد
وقع
وقعت
وقف
وك
وكاتب
وكالات
وكالة
وكان
وكانت
وكل
وكمان
وكيل
وكينج
ول
ولا
ولاد
ولايات
ولاية
ولايه
ولایت
ولد
ولز
ولف
ولفجانج
ولكن
ولم
ولما
وله
ولو
ولى
وليام
وليامز
وليد
وليم
وما
ومارى
ومخرج
ومخرجة
ومكانها
ومن
ومنها
ومو
ومير
ون
ونايت
وندسور
ونشستر
وه
وهران
وهم
وهناك
وهو
وهى
وهي
وهيا
وو
وود
وودج
وودز
وورث
ووريورز
ووستر
ووكر
وول
وولف
وولفجانج
وولفرهامبتون
وولڤرهامبتون
وونج
وى
وي
ويا
ويب
ويبر
ويبسايت
ويبستير
ويت
ويتشيتا
ويتنى
ويتون
ويج
ويجان
ويد
وير
ويرنير
ويزاردز
ويس
ويسانت
ويست
ويسترن
ويستمينستر
ويستين
ويسدن
ويسكنسن
ويسكونسن
ويسكونسين
ويسلى
ويسليان
ويسيمبورج
ويك
ويكى
ويكي
ويكيبيديا
ويكيپيديا
ويل
ويلارد
ويلر
ويلز
ويلس
ويلسون
ويلفريد
ويلكينسون
ويلهلم
ويلهيلم
ويلى
ويليام
ويليامز
ويليامس
ويليامسون
ويليس
ويليسلى
ويليم
ويلينجتون
ويم
ويمبلدون
ويموث
وين
وينج
وينجز
ويندوز
ويندى
وينزداى
وينستين
وينيبيج
ويه
وپون
وچسيتش
ى
ي
يا
يابانى
يابانيه
يابانيين
يات
ياجيلونيا
ياروسلاف
ياروسلافل
ياس
ياسانت
ياست
ياسر
ياسمين
ياسين
يام
ياما
ياماجاتا
ياماجوتشى
ياماموتو
يان
يانج
يانكيز
يانيك
ياو
ياون
ياوندى
ياى
يايڤجينى
ياڤيس
يبقى
يبك
ية
يت
يتشى
يتقاس
يتم
يتيمه
يحيى
يخت
يد
ير
يرجع
يرس
يروح
يريفان
يز
يزيد
يس
يسار
يستخدم
يسلندا
يسوع
يسى
يسي
يسية
يسيه
يض
يضا
يظهر
يعتبر
يعرف
يعقوب
يعمل
يعنى
يعني
يعيش
يفجينى
يقدر
يقع
يقول
يقوم
يكاترينبورج
يكتب
يكن
يكون
يل
يلا
يلاند
يلاندرز
يلعب
يلى
يلي
يليه
يليين
يمكن
يمين
ين
ينا
يناير
ينتراخت
يندهوفن
ينس
يه
يهر
يهود
يهودا
يهودى
يهوديه
يهوذا
يو
يوا
يواكيم
يوان
يوب
يوبى
يوتا
يوتيوبر
يوجد
يوجوسلافيا
يوجين
يوحنا
يورجن
يورجوردينس
يورك
يوركشير
يورو
يورى
يوزر
يوزيف
يوساك
يوسدال
يوسف
يوشيسادا
يوفل
يوكموك
يوكو
يوكون
يوكوهاما
يوكى
يول
يوليا
يوليه
يوليو
يوليوس
يوم
يوميات
يوميورى
يون
يونايتد
يونج
يونس
يونيفرسال
يونيفرستى
يونيه
يونيو
يونيون
يونيڤيرسيتى
يونيڤيرسيداذ
يوهان
يوڤينتوس
يى
ييل
يين
يينا
ً
ٌ
ٍ
َ
ُ
ِ
ّ
ْ
ٓ
ٔ
ٕ
١
٢
٪
ٰ
پ
پا
پابلو
پات
پاتريسيا
پاتريك
پاتيرسون
پارسونز
پارك
پاركير
پاريس
پاريش
پاز
پازل
پاسكال
پالاس
پاليونتولوچيست
پانك
پاول
پاڤو
پاڤيل
پایین
پرات
پروڤينس
پريس
پرينس
پشت
پشتكوه
پلاتفروم
پلاى
پورت
پورتسموث
پورتوجال
پول
پولا
پولو
پولى
پوليستا
پولين
پونت
پوند
پويرتو
پوينت
پوپ
پى
پياك
پيت
پيتار
پيتر
پيترو
پيتسبرج
پيتيت
پيتير
پيدرو
پير
پيرسى
پيرسيوس
پيرو
پيرى
پيريرا
پيريز
پيز
پيك
پيكا
پيكتشارز
پيكو
پيكينيج
پيل
پيليكانز
پين
پينا
پيوتر
پيچينيج
چ
چابهار
چاروسلاڤ
چاسون
چاك
چاكسون
چاكوب
چاكى
چامايكا
چامى
چان
چانوس
چانيس
چاه
چاى
چايانتس
چايم
چاين
چاڤير
چر
چشمه
چم
چو
چواكوين
چواكيم
چوان
چواو
چودى
چورج
چورجين
چوردان
چوردى
چورچ
چوزسيف
چوزيف
چوس
چوستين
چوسى
چوسيپ
چوش
چولى
چوليا
چوليان
چوليس
چولين
چوليو
چوليوس
چون
چوناثان
چوناس
چونج
چونيس
چونيور
چوهان
چوهانس
چوهانيس
چوى
چويل
چى
چيان
چيرزى
چيرسى
چيروم
چيرى
چيريمى
چيس
چيسوس
چيسيكا
چيف
چيفرى
چيفيرسون
چيليڤارى
چيم
چيمس
چيمى
چيمينيز
چين
چينا
چينس
چينى
چينيفير
چينيڤ
چيونج
ڤ
ڤاديم
ڤاسترا
ڤاسيل
ڤاسيلى
ڤاكلاڤ
ڤال
ڤالى
ڤاليا
ڤاليرى
ڤالينتين
ڤالينسيا
ڤان
ڤايادوليذ
ڤلاديسلاڤ
ڤلاديمير
ڤلاديڤوستوك
ڤورپومميرن
ڤولفسبورج
ڤولوجدا
ڤولوديمير
ڤون
ڤويڤوديشيپ
ڤى
ڤياتشيسلاڤ
ڤيتا
ڤيتالى
ڤيتوريو
ڤيجا
ڤيديو
ڤيرا
ڤيرمونت
ڤيرن
ڤيريچينا
ڤيرچينيا
ڤيسفالين
ڤيسينت
ڤيكتور
ڤيكتوريا
ڤيل
ڤيلا
ڤيلهيلم
ڤيناتيساى
ڤينسينت
ڤينسينزو
ڤينيزويلا
ڤينيسيا
ڤيينا
ی
یك
ین
یه
ަ
ް
ा
ि
्
র
া
ি
ে
্
་
‌
‍
–
—
‘
’
‚
“
”
„
†
‡
•
…
‰
′
‹
›
€
№
™
→
↔
↷
−
∞
⋅
③
④
⑦
ⲉ
ⲏ
ⲓ
ⲙ
ⲛ
ⲣ
ⲧ
⺀
⺄
⺆
⺈
⺊
⺌
⺕
⺝
⺸
⺼
⿰
⿱
⿲
⿳
⿴
⿵
⿶
⿷
⿸
⿹
⿺
⿻
〢
の
゙
゚
ア
イ
ク
コ
シ
ス
タ
ッ
テ
ト
ハ
フ
ユ
ラ
リ
ル
ン
ー
㇁
㇂
㇄
㇇
㇈
㇉
㇓
㐁
㐄
㐅
㐌
㐫
㐬
㐭
㐮
㐱
㑒
㒵
㒸
㒼
㓁
㓞
㔾
㕛
㕣
㖾
㘝
㚅
㚇
㚔
㚘
㝉
㝡
㝴
㝵
㞋
㞢
㞷
㠩
㠭
㠯
㡀
㡭
㡿
㢲
㢴
㣇
㣺
㥯
㪅
㫄
㫐
㫒
㫺
㬅
㬎
㬥
㬰
㲋
㳄
㷠
㸒
㸚
㸦
㼌
㼲
㽞
㿟
䀠
䂞
䍃
䏍
䒑
䖍
䖒
䖝
䖵
䙴
䚻
䜌
䝿
䡛
䧹
䪞
一
丁
丂
七
丄
丅
丆
万
丈
三
上
下
丌
不
与
丏
丐
丑
专
且
丕
世
丘
丙
业
东
丞
丢
丣
两
严
並
丨
丩
个
丫
丬
中
丮
丰
丱
串
丵
丶
丷
丸
丹
为
主
丽
丿
乀
乂
乃
久
乆
乇
么
义
之
乌
乍
乎
乏
乐
乑
乔
乖
乗
乘
乙
乚
乛
乜
九
乞
也
习
乡
乳
乾
亀
亅
了
亇
予
争
事
二
亍
于
亏
亐
云
互
亓
五
井
亘
亚
亜
亞
亟
亠
亡
亢
交
亥
亦
产
亨
亩
享
京
亭
亮
亯
亰
亲
亳
亶
亷
人
亻
亼
亾
仁
今
介
仌
从
仐
仑
仒
仓
仕
他
付
仝
代
令
以
任
企
伊
伏
伐
休
会
伯
但
位
何
佘
余
作
佥
使
來
侈
侌
侖
侯
侵
便
保
俞
信
修
倉
倍
候
倠
備
僉
僕
儿
兀
允
兂
元
兄
充
兆
兇
先
光
兊
克
兌
免
兑
兒
兓
兔
党
兜
兟
入
全
兩
兪
八
公
六
兮
兰
共
关
兵
其
具
典
兹
兼
冀
冂
冃
冄
内
冈
冉
冊
冋
册
再
冎
冏
冐
冒
冓
冖
冗
冘
军
农
冝
冡
冥
冫
冬
冷
几
凡
凢
凵
凶
凷
凸
凹
出
函
凾
刀
刁
刂
刃
刄
刅
分
切
刍
刑
刕
刖
列
刘
则
初
別
利
别
到
制
刺
則
削
剌
前
剡
剽
劉
力
功
加
劦
助
劫
劳
劵
勃
勇
勉
勒
動
務
勞
勤
勹
勺
勻
勾
勿
匀
匂
包
匆
匈
匊
匋
匍
匕
化
北
匚
匝
匡
匪
匱
匸
匹
区
医
匽
匿
區
十
卂
千
卄
卅
卆
升
午
卉
半
卌
华
卑
卒
卓
单
卖
南
卜
卝
卞
占
卡
卢
卣
卤
卦
卩
卪
卬
卯
印
危
即
却
卵
卷
卸
卻
厂
厃
厄
历
厈
厉
厌
厓
厘
厚
原
厤
厥
厨
厭
厲
厶
厷
厸
去
厼
厽
叀
参
參
叅
又
叉
及
友
双
反
叐
发
叒
叔
叕
取
受
叚
叜
叟
口
古
句
另
叩
只
召
可
台
叱
史
右
叵
号
司
叹
吂
各
吅
合
吉
吊
吋
同
名
后
吏
向
吕
君
吝
吞
否
含
启
吳
吴
吹
吾
呂
呆
呈
告
员
呙
周
命
咅
和
咎
咠
咢
咨
咸
咼
哀
品
哉
員
哥
哲
唐
商
啇
問
啚
啬
啻
善
喜
喬
單
喿
嗇
噩
嚴
囊
囗
囘
囙
囚
四
回
囟
因
囧
囬
困
囱
囷
固
国
圂
圅
國
圍
圓
土
圡
圣
圥
在
圭
地
圶
圼
坐
坒
坚
坴
垂
垔
垚
埀
埋
埶
執
基
堂
堅
堆
堇
堯
塞
墨
壘
士
壬
壯
声
壳
壴
壹
壺
壽
夂
处
夅
夆
备
夊
夋
夌
复
夏
夒
夕
外
夗
夘
多
夜
夢
大
夨
天
太
夫
夬
夭
央
失
夲
头
夷
夸
夹
夻
夾
奂
奄
奇
奈
奉
奎
奏
奐
契
奓
奔
奚
奞
奠
奢
奥
奭
女
奴
奻
好
如
妄
妙
妟
妥
妻
妾
姑
委
姜
威
娄
婁
婴
嬰
嬴
子
孑
孔
孕
孖
字
存
孚
孛
孝
孟
季
孤
学
孫
孱
學
宀
宁
宂
它
宅
宇
守
安
宋
完
宏
宓
宗
官
定
宛
宜
宝
客
宣
室
宮
宰
害
家
容
宾
宿
寄
寅
密
富
寒
察
寧
審
寫
寬
寮
寸
对
寺
寻
寽
対
寿
封
尃
射
将
將
專
尉
尊
尋
尌
對
小
少
尒
尓
尔
尖
尗
尚
尞
尢
尣
尤
尧
尨
尭
就
尸
尹
尺
尻
尼
尽
尾
尿
局
居
屈
屋
屎
屏
屑
展
屖
屚
属
屠
屡
屬
屮
屯
屰
山
屵
屾
岁
岂
岑
岡
岩
岳
岸
峯
島
崇
崑
崔
崖
崙
崩
嵬
嶲
巂
巛
川
州
巟
巠
巢
巤
工
左
巧
巨
巩
巫
差
己
已
巳
巴
巷
巸
巽
巾
巿
帀
市
布
希
帚
帛
帝
带
師
席
帶
常
干
平
年
幵
并
幷
幸
幺
幻
幼
幽
幾
广
広
庄
床
底
店
庚
府
度
庫
庭
庶
康
庸
廉
廌
廛
廣
廩
廴
延
廷
建
廾
廿
开
弁
弃
弄
弇
弋
式
弓
弔
引
弗
弘
弜
弟
弥
弦
弱
張
強
强
彊
彌
彎
彐
彑
当
彔
录
彖
彗
彡
形
彥
彦
彧
彭
彳
役
彼
往
待
律
徒
得
徙
從
復
微
徵
心
忄
必
忌
忍
志
忝
忠
忩
快
念
忽
忿
思
怠
急
怱
恆
恒
恩
恭
息
悉
患
悤
悲
悶
惠
惡
惢
愁
愈
意
愛
感
慈
慧
慮
憂
憲
應
戀
戈
戉
戊
戋
戌
戍
戎
成
我
戒
戔
或
戚
戠
戢
截
戲
戶
户
戹
戼
戾
房
所
扁
扇
手
扌
才
打
托
执
承
折
拉
拜
拿
掌
推
提
摩
支
攴
攵
收
攸
改
放
政
敄
敏
敕
敖
敗
敝
敞
敢
散
敦
敫
敬
数
敷
數
斂
文
斉
斊
斗
斤
斥
斩
斬
斯
新
方
於
施
斿
旁
旋
族
无
旡
既
旣
日
旦
旧
旨
早
旬
旱
旲
时
旾
昆
昇
昌
昍
明
昏
易
昔
昗
昜
星
春
昬
是
昱
昴
昷
時
晃
晋
晏
普
景
晶
智
暑
暴
曇
曩
曰
曲
曳
更
曷
書
曹
曼
曾
替
最
朁
會
月
有
朋
服
朔
朕
朗
望
朝
木
朩
未
末
本
札
朮
术
朱
朵
朶
朿
杀
杏
杜
束
条
来
東
杲
杳
松
析
林
枚
果
枝
枲
枼
某
柔
查
柬
柰
柴
栗
桀
桑
桼
梁
條
梟
梨
棘
棠
棥
森
楚
業
楽
榮
樂
樊
欠
次
欣
欮
欲
欶
欽
款
歆
歇
歛
止
正
此
步
武
歨
歪
歮
歯
歰
歲
歴
歷
歸
歹
歺
死
殳
段
殷
殸
殹
殺
殻
殿
毋
毌
母
每
毒
比
毕
毚
毛
毳
氏
氐
民
气
氣
水
氵
氶
氷
永
氺
氾
求
汝
汞
江
沃
沓
沙
沝
泉
法
波
泣
泥
泰
洛
洪
活
派
流
浦
浪
浮
淡
淮
清
渚
渠
湯
滿
漸
火
灬
灭
灰
灵
灷
炅
炎
炏
炗
炙
炭
為
烈
烏
烝
焉
無
焦
焱
然
煞
熊
熏
燕
營
燮
爪
爫
爭
爯
爰
爱
爲
爵
父
爻
爽
爾
爿
片
牙
牚
牛
牜
牟
牢
牧
牪
牽
犀
犬
犭
犮
狂
狄
狊
独
狺
猋
猒
猪
献
獻
玄
率
玉
王
玟
玨
珎
班
琴
瑟
瑩
瓜
瓦
甘
甚
生
産
用
甫
甬
田
由
甲
申
电
甶
男
甸
甹
画
甾
畀
界
畏
畐
留
畜
畟
畢
畧
畨
番
畫
異
畱
當
畺
畾
疊
疋
疌
疑
疒
疾
癶
癸
癹
登
發
白
百
皀
皃
的
皆
皇
皋
皐
皕
皮
皷
皿
盃
盆
盇
盈
益
盍
盎
监
盒
盖
盛
盡
監
盤
盧
目
直
相
盾
省
眇
眉
看
眔
眞
真
眷
眼
眾
着
睘
睪
睿
瞏
瞢
瞿
矍
矛
矞
矢
矣
知
矦
短
石
破
碎
磊
磨
示
礻
礼
祟
票
祭
禀
禁
禸
禹
禺
离
禽
禾
禿
秀
秃
秉
秋
科
秝
秦
移
稟
穀
穌
穴
究
穹
空
穿
突
窄
窒
立
竒
竜
竝
竟
章
童
竹
笑
笠
筆
等
答
箕
算
箴
節
篤
篭
米
粉
粛
粟
粤
粦
粲
糞
糸
糹
系
約
納
素
索
紫
累
細
絜
絫
絲
維
綿
縣
繇
纍
纟
缶
网
罒
罔
罕
罗
罙
罡
罢
罪
署
罷
羅
羊
羌
羍
美
羔
羕
羗
羞
羡
羣
群
義
羲
羸
羽
翁
翏
習
翕
翟
翠
翼
老
耂
考
者
耆
而
耎
耑
耒
耳
耴
耶
耷
聂
聊
聖
聚
聶
聿
肀
肃
肅
肉
肖
肙
肥
肩
肯
育
肴
胃
背
胡
胥
能
脊
脩
膚
臣
臤
臧
自
臬
臭
臯
臱
至
致
臺
臼
臽
臾
臿
舀
舂
舄
與
興
舉
舌
舍
舛
舜
舞
舟
般
艮
良
色
艸
艹
艾
芒
芔
芬
芮
花
芳
芺
芻
苔
苗
苟
若
苦
英
茶
茸
荅
草
荒
荣
荼
莆
莧
莫
莽
菆
菊
菐
華
萬
落
葉
著
葛
董
葵
蒙
蒦
蒼
蓋
蓬
蓺
蔑
蔡
蕉
蕭
薄
薛
薦
薰
藍
藏
藥
蘭
虍
虎
虐
虒
虔
處
虖
虗
虘
虚
虛
虜
虞
虫
虽
蚤
蚩
蜀
蜜
蟲
蠡
血
行
衍
衛
衣
衤
表
衮
衰
袁
袞
褭
褱
襄
襾
西
覀
要
覃
見
規
覓
覧
親
覽
见
角
解
言
訁
訇
計
詹
誩
諸
讠
谷
豆
豈
豊
豐
豕
豖
豙
象
豦
豩
豪
豸
貇
貝
貞
貟
負
貢
貧
貪
貫
責
貳
貴
買
費
賁
資
賈
賏
賓
賔
賛
賞
賢
賣
質
賴
贊
贝
贡
责
贯
贲
贵
赖
赞
赤
赦
走
越
足
路
蹇
身
躬
車
軍
軎
軟
輦
车
辛
辜
辟
辥
辰
辱
農
辵
辶
边
达
过
近
连
迷
追
退
送
逆
逐
通
速
造
逢
連
逮
進
遀
遂
過
道
達
遣
適
遷
遺
邊
邑
邕
那
邦
邪
郎
部
郭
都
鄉
酉
酋
配
酓
釆
采
里
重
野
量
金
釒
錢
钅
長
镸
长
門
閃
閉
開
閏
閑
閒
間
閔
閵
閻
闌
门
间
闷
阑
阜
阝
阿
降
陳
隆
隊
隋
隡
隨
隱
隶
隹
隺
隻
隼
隽
难
雀
雁
集
雈
雋
雍
雐
雔
雙
雚
雜
雝
離
難
雨
雩
雪
雲
零
雷
需
霍
霜
霝
霞
霸
靈
靑
青
非
靡
面
靣
革
韋
韦
韭
韯
韱
音
頁
頃
項
須
頗
頡
頻
顛
页
風
风
飛
飞
食
飠
養
饣
首
香
馬
馮
駦
马
骨
高
髟
鬥
鬯
鬲
鬼
魚
魯
鮮
鱼
鲁
鳥
鳳
鸟
鹵
鹿
麃
麗
麥
麦
麻
黃
黄
黍
黎
黑
黒
黨
黹
黽
黾
鼎
鼓
鼠
鼻
齊
齋
齐
齒
齿
龍
龙
龜
龟
龠
龰
龱
龴
龵
龶
龷
龸
龹
者
艹
︠
︡
？
💬
𠀁
𠀃
𠀆
𠀉
𠀎
𠀐
𠁁
𠁣
𠂆
𠂇
𠂈
𠂉
𠂊
𠂋
𠂎
𠂒
𠂔
𠂛
𠂡
𠂢
𠂤
𠂬
𠂭
𠂹
𠃊
𠃋
𠃌
𠃍
𠃎
𠃑
𠃓
𠃔
𠃜
𠄌
𠄎
𠄠
𠄢
𠆢
𠆥
𠇍
𠈌
𠌵
𠓜
𠔉
𠔥
𠔼
𠔽
𠔿
𠕀
𠕁
𠕋
𠘧
𠘨
𠙻
𠙼
𠚏
𠚒
𠚤
𠚪
𠣏
𠤎
𠤕
𠥓
𠦄
𠦑
𠦝
𠧒
𠧗
𠧪
𠩺
𠪚
𠫓
𠫔
𠫤
𠬛
𠬝
𠬞
𠬢
𠬤
𠬶
𠮛
𠮦
𠮷
𠯑
𠱠
𠳮
𠷎
𡈼
𡉀
𡉵
𡌥
𡍮
𡏳
𡕒
𡕩
𡕰
𡖅
𡗗
𡗜
𡘆
𡘤
𡧱
𡨄
𡩧
𡬠
𡭽
𡰣
𡰥
𡰪
𡰯
𡰱
𡷈
𡸁
𡿨
𡿩
𡿪
𡿺
𢀖
𢀛
𢀩
𢁙
𢆉
𢆰
𢆶
𢇁
𢇇
𢉖
𢌬
𢌿
𢏚
𢑑
𢑚
𢖻
𢙣
𢛳
𢦏
𢦒
𢧵
𢼄
𢾕
𣁋
𣄼
𣅀
𣅽
𣍘
𣎳
𣎵
𣏋
𣏼
𣗥
𣥂
𣥖
𣦵
𣦼
𣧄
𣪊
𣪠
𣬉
𣳾
𣶒
𤇾
𤊽
𤐫
𤓰
𤔔
𤕨
𤣩
𤰇
𤰔
𤰞
𤴓
𤴔
𤽄
𥁑
𥁕
𥃦
𥃩
𥃭
𥇡
𥑟
𥘅
𥘈
𥝢
𥫗
𥱡
𦈢
𦉪
𦉬
𦉼
𦍌
𦍒
𦎧
𦐇
𦓔
𦔮
𦘒
𦙃
𦚏
𦣝
𦣞
𦣻
𦥑
𦥔
𦥯
𦨉
𦭝
𦰩
𧆞
𧈧
𧘇
𧰨
𧴪
𧴮
𧵩
𧾷
𨸏
𨾴
𩙿
𩠐
𩫏
𩵋
𪉷
𪜀
𪟽
𪠲
𪩲
𫇦
𫔭
𫜸
𫝀
𫠣
𫠩
𫢉
𫥞
𫩏
𫩠
𫪡
𫲽
𫶧
𬀷
𬐘
𬗌
𬙙
𬛸
𬜯
𬟩
𬯁
𬴘
𬺻
𬼉
𬼖
𭀰
𭁈
𭁨
𭅰
𭑈
𭕄
𭗼
𭤨
𭥫
𭻾
𮅕
𮊿
𮍌
𮍏
𮓗
𮥼
𮧮
廾
𰀁
𰀄
𰀈
𰀉
𰀕
𰀠
𰀡
𰀢
𰀪
𰁜
𰃮
𰆊
𰆘
𰋙
𰕎
𰢴
𰧭
𰯲
00--
000--
001--
005--
01--
012--
013--
017--
02--
03--
04--
05--
06--
07--
08--
09--
100--
101--
102--
103--
104--
105--
106--
107--
108--
109--
110--
111--
112--
113--
114--
115--
116--
117--
118--
119--
120--
121--
122--
123--
124--
125--
126--
127--
128--
129--
130--
131--
132--
133--
134--
135--
136--
137--
138--
139--
140--
141--
142--
143--
144--
145--
146--
147--
148--
150--
151--
152--
153--
154--
155--
157--
158--
159--
160--
161--
162--
164--
165--
169--
203--
204--
205--
210--
211--
212--
213--
214--
215--
220--
221--
222--
223--
224--
225--
230--
231--
232--
233--
234--
235--
245--
260--
273--
29--
295--
310--
320--
330--
36--
37--
38--
39--
40--
4040--
4041--
4050--
4051--
4060--
4061--
4070--
4080--
4090--
41--
410--
42--
420--
43--
430--
44--
45--
46--
47--
48--
49--
50--
51--
52--
53--
54--
55--
56--
57--
58--
59--
60--
61--
62--
63--
64--
65--
66--
67--
68--
69--
70--
71--
72--
73--
74--
75--
76--
77--
78--
79--
80--
81--
82--
83--
84--
85--
86--
87--
88--
89--
90--
91--
92--
93--
94--
95--
96--
97--
98--
99--
a--
aa--
ab--
aber--
ac--
ad--
add--
ae--
af--
ag--
aga--
agri--
ah--
air--
ak--
al--
alex--
alge--
all--
alp--
alt--
am--
ami--
amster--
an--
and--
ang--
anti--
ap--
aqu--
ar--
arc--
ari--
as--
asoci--
astr--
at--
ath--
au--
av--
ay--
az--
azerbai--
b--
ba--
back--
bal--
balo--
ban--
bar--
basi--
be--
bed--
bel--
bern--
bi--
bin--
bis--
bla--
blo--
bo--
bol--
bom--
bon--
br--
bra--
bri--
bro--
bry--
bu--
buil--
by--
c--
ca--
cal--
cam--
came--
can--
cap--
carr--
cart--
cast--
cat--
cc--
ce--
cel--
ch--
cha--
cher--
chi--
cho--
ci--
cin--
cit--
cl--
cn--
co--
col--
coll--
colo--
com--
communi--
con--
contri--
corp--
corr--
cr--
crea--
cro--
cry--
cu--
cy--
d--
da--
data--
dc--
de--
dec--
den--
des--
di--
diab--
dig--
disc--
dni--
do--
dow--
dr--
dri--
du--
dub--
dyna--
e--
ea--
eb--
ec--
ed--
ef--
eg--
ek--
el--
elec--
elem--
em--
en--
encycl--
end--
environ--
ep--
er--
es--
estu--
et--
eu--
euro--
ev--
ex--
expe--
expl--
f--
fa--
fai--
fal--
fan--
fe--
fi--
fil--
fin--
fis--
fl--
flo--
fo--
foot--
for--
fr--
fred--
frei--
fri--
fu--
g--
ga--
gaz--
ge--
gen--
get--
gha--
gi--
gil--
gim--
giov--
gla--
glo--
go--
gon--
gra--
gran--
gri--
gro--
gru--
gu--
h--
ha--
hal--
ham--
han--
harr--
he--
hel--
her--
hi--
hid--
high--
hil--
hin--
hiro--
ho--
hol--
hu--
hun--
hy--
i--
ic--
ice--
id--
iden--
if--
ik--
il--
im--
in--
incl--
indi--
inte--
intern--
intro--
is--
iso--
it--
j--
ja--
je--
ji--
jo--
ju--
k--
ka--
kala--
kan--
ke--
kel--
ken--
ker--
kha--
ki--
kilo--
kle--
ko--
kra--
kre--
kri--
ku--
kuz--
ky--
l--
la--
lam--
lanc--
laur--
le--
legis--
leks--
li--
libe--
lin--
litera--
live--
ll--
lo--
lom--
lu--
ly--
m--
ma--
maas--
mac--
mag--
magd--
magni--
mah--
make--
mal--
mala--
man--
mara--
maz--
mcc--
me--
med--
mexi--
mi--
micr--
mid--
mik--
mil--
mira--
mla--
mo--
mol--
mon--
mona--
mu--
mul--
my--
n--
na--
nan--
nav--
nc--
nd--
ne--
net--
new--
ng--
ni--
nico--
nige--
no--
norm--
north--
ns--
nuc--
num--
ny--
o--
oce--
ok--
ol--
oli--
om--
on--
or--
ori--
os--
ou--
out--
ov--
p--
pa--
page--
pain--
pal--
pan--
pap--
para--
pay--
pe--
per--
perse--
petr--
ph--
pha--
phil--
phili--
philipp--
pho--
pi--
pic--
pil--
pin--
pira--
pis--
pit--
pl--
plan--
plat--
po--
pol--
poli--
poly--
pon--
pr--
pre--
pri--
prim--
pro--
ps--
pu--
publi--
pun--
q--
qa--
qu--
que--
quo--
ra--
rad--
rai--
ram--
rap--
ray--
rd--
re--
reg--
rein--
res--
rh--
rho--
ri--
rn--
ro--
rob--
roos--
rou--
row--
ru--
ry--
sa--
sal--
sam--
sc--
sch--
scho--
sco--
se--
sei--
sen--
seve--
sh--
shi--
sho--
si--
sim--
sk--
sl--
sm--
smol--
sn--
so--
sol--
soli--
south--
sp--
spec--
spelle--
spring--
sq--
sr--
ss--
st--
ster--
sto--
su--
sub--
supp--
sur--
sv--
sw--
sy--
syl--
syn--
sz--
t--
ta--
tai--
tak--
taka--
tam--
tay--
te--
tel--
tem--
terr--
th--
thi--
ti--
tim--
to--
ton--
tr--
tra--
tran--
trea--
tri--
tro--
trop--
ts--
tt--
tu--
tw--
ty--
u--
ub--
uc--
ul--
um--
un--
uni--
unive--
up--
ur--
uru--
us--
ut--
v--
va--
val--
ve--
ven--
vene--
vert--
vi--
vic--
vo--
vol--
vy--
w--
wa--
wal--
war--
we--
wel--
well--
west--
wh--
whe--
whit--
wi--
wich--
wien--
wiki--
wil--
win--
wind--
wol--
wor--
wr--
wu--
x--
xi--
y--
ya--
ye--
yok--
yu--
yugo--
z--
za--
zem--
zhu--
zi--
zu--
œ--
ƒ--
ا--
اب--
ابت--
ابر--
ابو--
ابي--
ابير--
ابين--
ات--
اتا--
اتر--
اتش--
اتص--
اتي--
اث--
اثر--
اج--
اجب--
اجو--
اح--
احت--
احي--
اخ--
اخت--
اد--
ادا--
ادو--
ادي--
ادين--
ادڤ--
اذ--
ار--
ارت--
ارن--
ارو--
اري--
ارڤ--
از--
ازد--
ازو--
ازي--
اس--
اسا--
است--
اسو--
اسي--
اش--
اشت--
اص--
اض--
اط--
اع--
اعت--
اغ--
اف--
افت--
افر--
افي--
اق--
اقت--
اك--
اكر--
اكس--
اكو--
اكي--
ال--
الا--
الاح--
الاخ--
الاخت--
الار--
الاس--
الاست--
الاعت--
الاف--
الالكت--
الام--
الان--
الاو--
الب--
البا--
البت--
البل--
البو--
البورنو--
الت--
التا--
التر--
التش--
التع--
التف--
التن--
الث--
الثق--
الج--
الجغ--
الح--
الحا--
الحص--
الحض--
الحن--
الخ--
الخر--
الخز--
الخي--
الد--
الدع--
الدي--
الذ--
الر--
الرح--
الرغ--
الرق--
الره--
الز--
الس--
الش--
الشر--
الشع--
الشه--
الص--
الصع--
الض--
الط--
الظ--
الع--
العص--
العق--
الغ--
الغز--
الف--
الق--
القص--
القض--
القل--
الك--
الكار--
الكت--
الكم--
الكو--
الكوم--
الكي--
الل--
الم--
الما--
المت--
المحر--
المخ--
المذ--
المست--
المش--
المط--
المع--
المغ--
المق--
المن--
المهر--
المو--
الن--
اله--
الو--
الي--
الڤ--
ام--
اما--
امر--
امي--
ان--
انا--
انت--
انتي--
انتير--
انج--
انجلي--
اند--
اندي--
انر--
انز--
انس--
انص--
انط--
انظ--
انف--
انك--
انو--
اني--
اه--
اهل--
او--
اوت--
اوج--
اود--
اور--
اورو--
اوري--
اورين--
اوز--
اوس--
اوست--
اوستر--
اوش--
اوف--
اوك--
اول--
اولي--
اوم--
اون--
اوه--
اوهي--
اوي--
اوپ--
اوڤ--
اي--
ايت--
ايتا--
ايث--
ايج--
ايد--
اير--
ايز--
ايس--
ايست--
ايش--
ايشي--
ايط--
ايف--
ايك--
ايل--
ايم--
اين--
ايو--
ايڤ--
اپ--
اڤ--
اڤير--
ای--
ب--
با--
باب--
بات--
باج--
باد--
بار--
بارث--
باس--
باسي--
باش--
باط--
باق--
باك--
بال--
بالا--
بالت--
باليا--
بام--
بان--
باه--
باو--
باي--
بت--
بتت--
بتست--
بتش--
بتع--
بتك--
بتم--
بته--
بتو--
بج--
بح--
بخ--
بد--
بدر--
بر--
برا--
برت--
برج--
برد--
برن--
برو--
بري--
بريط--
بز--
بس--
بست--
بش--
بص--
بط--
بع--
بغ--
بق--
بك--
بل--
بلا--
بلاك--
بلو--
بلوم--
بلي--
بم--
بن--
به--
بها--
بو--
بوا--
بوب--
بوت--
بوج--
بوخ--
بود--
بور--
بوز--
بوس--
بوش--
بوك--
بول--
بولي--
بوم--
بون--
بوني--
بوه--
بوي--
بي--
بيا--
بيب--
بيت--
بيج--
بيح--
بيخ--
بيد--
بير--
بيرن--
بيري--
بيز--
بيس--
بيست--
بيش--
بيع--
بيعت--
بيق--
بيك--
بيل--
بيلي--
بيم--
بين--
بيني--
بيو--
بچ--
بی--
ت--
تا--
تات--
تاج--
تار--
تاف--
تاكا--
تال--
تام--
تان--
تاو--
تاي--
تت--
تج--
تح--
تخ--
تد--
تدر--
تذ--
تر--
ترا--
تراڤ--
ترب--
ترو--
تري--
تريس--
تريم--
تز--
تس--
تست--
تسم--
تسو--
تسي--
تش--
تشاب--
تشات--
تشار--
تشام--
تشاي--
تشاپ--
تشر--
تشو--
تشي--
تشير--
تص--
تض--
تط--
تع--
تغ--
تف--
تق--
تقل--
تك--
تل--
تم--
تن--
تنت--
تنصي--
ته--
تو--
توب--
توت--
تور--
توك--
تول--
توم--
تون--
تي--
تيت--
تير--
تيك--
تيل--
تيم--
تين--
تيو--
تی--
ث--
ثر--
ثع--
ثق--
ثقاف--
ثم--
ثور--
ثوم--
ثي--
ثير--
ثيس--
ثيو--
ج--
جا--
جاب--
جات--
جار--
جاز--
جاس--
جاف--
جال--
جالي--
جام--
جان--
جاو--
جاي--
جاڤ--
جب--
جت--
جد--
جر--
جرا--
جراڤ--
جرزي--
جرو--
جرون--
جري--
جرين--
جز--
جش--
جع--
جغ--
جل--
جلي--
جلی--
جم--
جن--
جند--
جه--
جو--
جوا--
جوت--
جود--
جور--
جوس--
جول--
جولد--
جوم--
جون--
جوي--
جي--
جيا--
جيان--
جيت--
جيد--
جير--
جيس--
جيف--
جيل--
جين--
جيو--
جی--
ح--
حا--
حب--
حت--
حج--
حد--
حر--
حز--
حص--
حض--
حط--
حق--
حل--
حم--
حما--
حمل--
حن--
حو--
حي--
حی--
خ--
خا--
خات--
خار--
خد--
خر--
خز--
خص--
خض--
خط--
خل--
خن--
خو--
خوا--
خور--
خون--
خي--
خير--
خی--
د--
دا--
داج--
داد--
دار--
داس--
دال--
دام--
دان--
داي--
دب--
در--
درا--
درو--
دري--
دز--
دع--
دق--
دل--
دم--
دن--
ده--
دو--
دوت--
دود--
دور--
دوس--
دوك--
دول--
دوم--
دون--
دي--
ديب--
ديد--
دير--
ديز--
ديس--
ديف--
ديك--
ديل--
ديم--
دين--
ديو--
ديوس--
ديپار--
ديڤ--
دی--
ذ--
ذه--
ذو--
ر--
را--
راب--
رات--
راج--
راد--
راز--
راس--
راف--
رام--
ران--
راو--
راي--
راين--
راچ--
راڤ--
رب--
رثوذ--
رح--
رحل--
رخ--
رد--
رش--
رض--
رع--
رغ--
رف--
رق--
رك--
رما--
ره--
رو--
روب--
روت--
روث--
روج--
رود--
روز--
روس--
روسي--
روسين--
روش--
روك--
رول--
روم--
رون--
روي--
ري--
ريا--
ريت--
ريتش--
ريج--
ريد--
ريس--
ريش--
ريف--
ريك--
ريم--
رين--
ريو--
ريپ--
ريڤ--
ری--
ز--
زا--
زاب--
زاد--
زار--
زاف--
زاك--
زام--
زاه--
زد--
زر--
زع--
زم--
زن--
زه--
زو--
زوم--
زي--
زين--
زی--
س--
سا--
ساب--
سات--
سار--
ساس--
ساع--
سال--
سالز--
سام--
سان--
سانتا--
ساند--
سانده--
ساو--
ساي--
ساڤ--
سب--
ست--
ستاف--
ستام--
سترا--
ستراس--
ستش--
ستشر--
ستشو--
ستشي--
ستو--
ستور--
ستي--
ستين--
سد--
سر--
سز--
سزي--
سط--
سع--
سق--
سك--
سكار--
سكر--
سكند--
سكو--
سكور--
سكي--
سل--
سلا--
سلوب--
سم--
سمول--
سن--
سنو--
سه--
سو--
سوا--
سوبر--
سوث--
سوج--
سوخ--
سود--
سور--
سوس--
سوك--
سول--
سولي--
سوم--
سومير--
سون--
سوي--
سي--
سيا--
سيت--
سيج--
سيد--
سير--
سيرا--
سيس--
سيط--
سيف--
سيفاس--
سيك--
سيل--
سيم--
سيمپ--
سين--
سيو--
سيپ--
سيڤ--
سپ--
سپا--
سڤ--
سڤيت--
سی--
سید--
ش--
شا--
شاب--
شات--
شار--
شاف--
شاك--
شام--
شان--
شاه--
شت--
شتي--
شر--
شرق--
شع--
شغ--
شق--
شك--
شكو--
شل--
شلو--
شن--
شنو--
شه--
شهر--
شو--
شور--
شون--
شوي--
شي--
شير--
شيل--
شين--
شی--
ص--
صح--
صحا--
صد--
صع--
صقل--
صل--
صن--
صين--
صی--
ض--
ضا--
ط--
طا--
طب--
طو--
ظ--
ظل--
ع--
عا--
عبد--
عت--
عر--
عراق--
عز--
عش--
عص--
عض--
عط--
عظ--
عف--
عق--
عل--
عم--
عن--
غ--
غا--
غر--
غز--
غل--
ـ--
ف--
فا--
فات--
فار--
فارن--
فاري--
فاس--
فال--
فالدي--
فان--
فاي--
فت--
فر--
فرا--
فراي--
فرب--
فرنس--
فرو--
فرون--
فري--
فش--
فض--
فط--
فق--
فك--
فل--
فلا--
فلن--
فلو--
فلي--
فن--
فنت--
فه--
فهر--
فو--
فوت--
فور--
فوس--
فول--
فون--
فوي--
في--
فيت--
فيتز--
فيتس--
فيد--
فير--
فيس--
فيش--
فيك--
فيل--
فيلا--
فيلو--
فيلي--
فين--
فيني--
فيو--
فی--
ق--
قا--
قاب--
قاد--
قاه--
قب--
قبط--
قد--
قر--
قرا--
قره--
قزو--
قص--
قض--
قط--
قل--
قم--
قن--
قو--
قون--
قي--
قی--
ك--
كا--
كاب--
كات--
كاج--
كار--
كارا--
كارل--
كاري--
كاز--
كازو--
كازي--
كاس--
كاش--
كال--
كالي--
كام--
كان--
كاو--
كاوا--
كاي--
كاپ--
كاڤ--
كت--
كد--
كر--
كرا--
كراس--
كران--
كرب--
كرد--
كرك--
كرو--
كري--
كس--
كش--
كفا--
كل--
كلو--
كلي--
كم--
كن--
كند--
كني--
كه--
كو--
كوب--
كوت--
كور--
كوري--
كوز--
كوس--
كوش--
كوك--
كول--
كولي--
كوم--
كون--
كوه--
كوو--
كوي--
كوين--
كوپ--
كوڤ--
كي--
كيب--
كيت--
كيد--
كير--
كيرك--
كيري--
كيس--
كيل--
كيم--
كين--
كيو--
كيپ--
كچ--
كی--
ل--
لا--
لات--
لار--
لاز--
لاس--
لاف--
لاك--
لال--
لالف--
لام--
لان--
لانج--
لاند--
لاو--
لاي--
لاڤ--
لت--
لتو--
لح--
لخ--
لط--
لع--
لغ--
لف--
لفت--
لق--
لك--
لكتا--
لل--
للا--
للان--
للت--
للخ--
للع--
للف--
للك--
للم--
للن--
لله--
للو--
لم--
لن--
له--
لو--
لوب--
لوت--
لوج--
لود--
لودو--
لور--
لوز--
لوس--
لوف--
لوك--
لوم--
لون--
لونج--
لوي--
لوپ--
لوڤ--
لي--
ليا--
ليت--
ليث--
ليج--
ليخ--
ليس--
ليش--
ليف--
ليك--
ليل--
ليم--
لين--
ليند--
ليني--
ليو--
ليپ--
ليڤ--
لی--
م--
ما--
مات--
ماتسو--
ماث--
ماج--
ماد--
مار--
ماري--
ماز--
ماس--
ماك--
ماكور--
مال--
مام--
مان--
ماي--
ماچ--
مبرا--
مت--
متدم--
متم--
مث--
مج--
مجه--
مح--
محا--
مخ--
مد--
مدر--
مذ--
مر--
مز--
مس--
مست--
مش--
مص--
مصر--
مض--
مط--
مظ--
مظاه--
مع--
معت--
مغ--
مف--
مق--
مك--
مكا--
مكج--
مكد--
مكس--
مكسي--
مكل--
مكم--
مل--
مم--
من--
منت--
مه--
مها--
مو--
موا--
موت--
مود--
مور--
موس--
مول--
موم--
مون--
مونت--
مونتي--
مي--
ميا--
ميت--
ميترو--
ميث--
ميج--
ميخ--
ميد--
ميدل--
مير--
ميري--
ميز--
ميزو--
ميس--
ميش--
ميك--
ميل--
ميلي--
ميم--
مين--
ميه--
ميچ--
می--
ن--
نا--
نات--
ناج--
نار--
ناز--
ناس--
ناك--
نام--
نان--
ناو--
ناي--
ناڤ--
نب--
نت--
نتر--
نج--
نجل--
نخ--
ند--
نر--
نس--
نص--
نط--
نظ--
نع--
نغ--
نف--
نق--
نقاب--
نه--
نو--
نور--
نورث--
نورد--
نوش--
نوفو--
نوفوسي--
نوي--
ني--
نيا--
نيت--
نيد--
نير--
نيس--
نيك--
نيل--
نيم--
نيو--
نيڤ--
نی--
ه--
ها--
هات--
هاج--
هاد--
هار--
هارت--
هاس--
هاك--
هال--
هام--
هان--
هاني--
هاو--
هاي--
هت--
هج--
هر--
هض--
هل--
هم--
هن--
هند--
هو--
هوا--
هوب--
هوت--
هوج--
هود--
هور--
هوس--
هوف--
هوك--
هول--
هوم--
هون--
هوي--
هي--
هيا--
هيب--
هيت--
هيج--
هيد--
هير--
هيس--
هيك--
هيل--
هيلي--
هيم--
هين--
هيو--
و--
وا--
وات--
واتير--
واج--
واخ--
واد--
وار--
واست--
واش--
وال--
والا--
والر--
والم--
وان--
واي--
وايت--
وب--
وبت--
وبي--
وت--
وث--
وج--
وح--
وخ--
ود--
ور--
ورو--
وري--
وز--
وس--
وش--
وص--
وض--
وط--
وع--
وغ--
وف--
وق--
وك--
ول--
ولا--
ولف--
ولين--
وم--
ون--
وه--
وو--
ووتر--
وود--
وي--
ويت--
ويج--
ويد--
وير--
ويز--
ويس--
ويست--
ويعت--
ويك--
ويكي--
ويل--
وين--
ويند--
ي--
يا--
يار--
ياس--
يال--
يان--
ياو--
ياي--
يت--
يح--
يخ--
يد--
ير--
يز--
يس--
يست--
يش--
يص--
يط--
يع--
يغ--
يف--
يق--
يل--
ين--
يه--
يو--
يوب--
يور--
يوشي--
يول--
يون--
يوني--
يي--
يڤ--
پ--
پا--
پات--
پار--
پاسك--
پاڤ--
پرا--
پرو--
پري--
پو--
پوت--
پود--
پور--
پوس--
پوك--
پول--
پوليت--
پون--
پي--
پيت--
پيد--
پير--
پيس--
پيك--
پيل--
پين--
پی--
چ--
چا--
چار--
چاس--
چاك--
چام--
چان--
چر--
چو--
چوس--
چون--
چي--
چير--
چين--
ڤ--
ڤار--
ڤاس--
ڤال--
ڤان--
ڤلا--
ڤو--
ڤور--
ڤول--
ڤي--
ڤيت--
ڤيد--
ڤير--
ڤيس--
ڤيل--
ڤين--
ڤيڤ--
ک--
کو--
گ--
گر--
گل--
ی--
--0
--00
--004
--007
--01
--02
--021
--022
--024
--025
--028
--03
--036
--037
--039
--04
--042
--043
--05
--051
--054
--056
--06
--069
--07
--08
--083
--09
--1
--10
--11
--12
--13
--14
--15
--16
--17
--18
--19
--2
--20
--21
--22
--23
--24
--25
--26
--27
--28
--29
--292
--3
--30
--31
--32
--33
--34
--35
--36
--362
--368
--37
--371
--372
--374
--38
--381
--387
--389
--39
--391
--392
--397
--399
--4
--40
--401
--402
--404
--405
--406
--407
--408
--409
--41
--412
--413
--414
--415
--416
--417
--419
--42
--421
--422
--423
--424
--425
--426
--427
--428
--429
--43
--431
--432
--433
--434
--436
--437
--438
--439
--44
--441
--442
--443
--444
--445
--446
--447
--448
--449
--45
--451
--452
--454
--455
--456
--457
--458
--459
--46
--461
--466
--468
--47
--472
--475
--477
--48
--487
--489
--49
--492
--496
--5
--50
--502
--503
--504
--506
--507
--508
--509
--51
--511
--513
--517
--518
--519
--52
--521
--522
--523
--524
--525
--526
--527
--528
--53
--531
--532
--533
--534
--535
--536
--537
--538
--54
--542
--543
--544
--545
--547
--548
--549
--55
--552
--554
--555
--556
--557
--558
--559
--56
--57
--573
--574
--575
--58
--583
--588
--59
--592
--597
--6
--60
--602
--604
--605
--606
--607
--609
--61
--611
--612
--613
--614
--616
--617
--619
--62
--621
--622
--623
--625
--626
--627
--628
--629
--63
--632
--633
--634
--636
--637
--638
--64
--641
--642
--643
--644
--645
--646
--647
--648
--649
--65
--653
--654
--656
--657
--658
--659
--66
--661
--667
--67
--671
--678
--68
--686
--69
--693
--694
--7
--70
--701
--702
--703
--704
--705
--706
--708
--709
--71
--711
--712
--715
--716
--717
--718
--719
--72
--721
--722
--724
--725
--728
--729
--73
--731
--732
--733
--734
--735
--736
--737
--738
--739
--74
--740
--741
--742
--743
--744
--745
--746
--747
--748
--75
--751
--752
--753
--754
--755
--756
--757
--759
--76
--77
--778
--779
--78
--79
--792
--793
--794
--8
--80
--801
--802
--803
--804
--805
--806
--808
--809
--81
--811
--812
--814
--817
--818
--819
--82
--821
--822
--823
--824
--825
--826
--827
--829
--83
--832
--833
--836
--837
--838
--839
--84
--841
--844
--845
--846
--847
--848
--849
--85
--851
--852
--853
--854
--857
--858
--859
--86
--861
--866
--87
--875
--88
--887
--889
--89
--893
--9
--90
--901
--902
--904
--907
--908
--91
--913
--914
--915
--916
--917
--918
--919
--92
--920
--922
--924
--925
--927
--928
--929
--93
--930
--931
--932
--934
--935
--936
--937
--938
--94
--941
--942
--943
--944
--945
--946
--947
--948
--949
--95
--953
--954
--955
--956
--957
--958
--959
--96
--97
--972
--979
--98
--984
--99
--991
--996
--998
--a
--able
--ac
--aca
--ace
--ach
--ad
--ado
--ae
--ah
--ai
--ain
--ak
--al
--ala
--ald
--ale
--alo
--als
--am
--ama
--an
--ana
--ance
--ane
--ang
--ani
--ania
--ann
--ano
--ans
--ant
--ao
--ar
--ara
--ard
--ari
--aria
--ary
--as
--asa
--ase
--at
--ata
--ate
--ated
--ation
--ato
--au
--av
--awa
--ay
--aya
--b
--ba
--bach
--be
--bi
--bia
--bir
--ble
--bo
--bs
--burg
--bury
--bus
--by
--c
--ca
--ce
--ced
--ces
--cess
--ch
--che
--cher
--chi
--cht
--ci
--cia
--cio
--ck
--co
--cott
--cs
--ct
--cted
--ction
--ctive
--cus
--cy
--d
--da
--dale
--dar
--data
--date
--de
--ded
--den
--di
--dia
--dium
--do
--dor
--dos
--ds
--dt
--du
--dy
--e
--ea
--east
--ec
--ect
--ed
--eda
--ee
--ees
--eh
--ei
--ein
--eiro
--ek
--el
--ela
--ell
--em
--en
--ena
--ence
--eni
--ens
--ense
--ensis
--ent
--eo
--eon
--er
--erg
--eri
--eria
--ero
--ers
--erson
--ert
--ery
--es
--ese
--est
--et
--eto
--ets
--eum
--eur
--eus
--ev
--ever
--evo
--ey
--ez
--f
--ff
--fi
--fia
--fiers
--ford
--ful
--g
--ga
--ge
--gen
--ger
--gh
--ght
--gi
--gju
--go
--grad
--gs
--gton
--gua
--h
--ha
--ham
--han
--he
--hen
--hi
--hing
--hire
--hiro
--ho
--holm
--hur
--i
--ia
--ial
--ian
--iano
--ians
--ic
--ica
--ical
--ich
--ichi
--id
--ida
--idae
--ide
--ie
--ied
--ield
--ier
--iers
--ies
--if
--ify
--ig
--igh
--ight
--ii
--ija
--ik
--iki
--ikos
--il
--ile
--ill
--ille
--im
--ima
--in
--ine
--ing
--ings
--ini
--ino
--ins
--io
--ion
--ional
--ions
--ip
--ir
--ira
--ire
--is
--ish
--ism
--ist
--ista
--it
--ita
--ite
--ities
--ito
--itude
--ity
--iu
--ium
--ius
--iv
--iva
--ive
--ix
--iya
--iz
--ized
--j
--ja
--je
--ji
--k
--ka
--ke
--ker
--kh
--ki
--ko
--kov
--ks
--ku
--ky
--l
--la
--lar
--ld
--le
--ler
--ley
--lf
--li
--lia
--liga
--lin
--lis
--ll
--lla
--lle
--lly
--lm
--lo
--lon
--ls
--lt
--lus
--ly
--m
--ma
--man
--mar
--mas
--mber
--mbia
--me
--mi
--mia
--mic
--mo
--mont
--mp
--ms
--my
--mys
--n
--na
--nal
--nbul
--nce
--ncy
--nd
--nda
--ndo
--ne
--ner
--ney
--ng
--nga
--ngen
--nham
--ni
--nia
--nic
--nik
--ning
--nis
--nka
--nki
--nn
--nna
--nne
--nny
--no
--ns
--nse
--nsis
--nsk
--nt
--nte
--nton
--nus
--ny
--nza
--nzo
--o
--oa
--obj
--ock
--od
--oe
--oes
--ogy
--oix
--oka
--oke
--ol
--ola
--olk
--om
--oma
--ome
--on
--ona
--ong
--onia
--ons
--ont
--op
--ophy
--or
--ord
--ore
--ori
--ors
--ort
--ory
--os
--osa
--ot
--ou
--ov
--ova
--ovo
--ow
--ows
--oy
--p
--pa
--pe
--pi
--pia
--por
--ps
--py
--q
--r
--ra
--ral
--ran
--ras
--rd
--re
--ren
--rf
--rg
--ri
--ric
--rie
--ries
--rin
--ris
--rity
--rn
--ro
--ros
--rs
--rsk
--rt
--ru
--rus
--ry
--s
--sa
--se
--sed
--sen
--ses
--sey
--sh
--shi
--ship
--shire
--si
--sia
--sian
--sis
--sk
--sky
--so
--son
--ss
--st
--ster
--su
--sy
--t
--ta
--tad
--tal
--tan
--tas
--te
--ted
--ten
--ter
--tes
--th
--tha
--ti
--tia
--tic
--tin
--ting
--tion
--title
--tle
--to
--ton
--tor
--tos
--town
--tra
--ts
--tsa
--tsk
--tsu
--tt
--tta
--tte
--tus
--ty
--tz
--u
--ua
--ual
--ucky
--uction
--ue
--uel
--ui
--uk
--ul
--ula
--ular
--um
--ument
--un
--una
--ung
--up
--ur
--ura
--ure
--urg
--ury
--us
--ut
--uth
--uti
--ux
--v
--va
--ve
--ver
--vi
--via
--vik
--ville
--vka
--vo
--w
--wa
--wise
--wn
--x
--y
--ya
--ye
--yk
--yn
--yo
--ys
--z
--za
--ze
--zh
--zi
--zia
--zo
--zz
--ء
--ءة
--ءه
--ا
--اء
--اب
--ابا
--ابه
--اة
--ات
--اتا
--اتس
--اتسو
--اتش
--اته
--اتها
--اتهم
--اتو
--اتى
--اتچ
--اث
--اج
--اجا
--اجو
--اجى
--اح
--احية
--اخ
--اد
--ادا
--اده
--ار
--ارا
--ارة
--ارت
--ارد
--اردو
--ارك
--ارنا
--اره
--ارو
--ارى
--اريا
--اريتا
--از
--ازى
--اس
--اسو
--اش
--اشى
--اض
--اضى
--اضيع
--اط
--اطن
--اطي
--اع
--اعة
--اغ
--اف
--افن
--اق
--اك
--اكا
--اكن
--اكو
--اكى
--اكير
--ال
--الا
--الد
--الى
--ام
--امو
--امى
--ان
--انا
--انت
--اند
--انز
--انس
--انو
--انى
--اني
--انيا
--انية
--انين
--انيه
--اه
--اهان
--او
--اوا
--اوات
--اوس
--اوى
--اوي
--اويه
--اى
--اي
--ايا
--ايب
--ايت
--ايل
--ايم
--اين
--ايو
--اچ
--ب
--با
--باخ
--بة
--بت
--بحاث
--بر
--براليه
--برت
--برج
--بس
--بسون
--بط
--بع
--بعة
--بق
--بك
--بل
--بلى
--بن
--به
--بو
--بور
--بورت
--بورج
--بوس
--بوك
--بول
--بى
--بي
--بية
--بيرج
--بيك
--بين
--بيه
--بيين
--ة
--ت
--تا
--تات
--تاد
--تار
--تارو
--تاس
--تاشر
--تال
--تالى
--تان
--تاو
--تاون
--تب
--تبة
--تة
--تت
--تج
--تح
--تخدام
--تد
--تر
--ترا
--ترز
--ترو
--تز
--تزر
--تس
--تسا
--تسك
--تسو
--تسى
--تش
--تشا
--تشر
--تشى
--تك
--تل
--تلى
--تمان
--تن
--تنا
--تنر
--ته
--تها
--تهم
--تو
--تور
--تورز
--توس
--توف
--تون
--توڤ
--تى
--تي
--تيا
--تير
--تيس
--تيل
--تين
--تيه
--تيو
--تيون
--تييه
--تچارنين
--ث
--ثا
--ثال
--ثام
--ثر
--ثل
--ثى
--ثيا
--ج
--جا
--جات
--جاح
--جان
--جاه
--جاو
--جاوا
--جة
--جتون
--جد
--جدون
--جر
--جرز
--جره
--جز
--جس
--جع
--جل
--جلو
--جلى
--جم
--جن
--جه
--جو
--جوت
--جى
--جي
--جيا
--جية
--جيت
--جير
--جيز
--جيس
--جيل
--جين
--ح
--حات
--حب
--حة
--حت
--حد
--حرار
--حظ
--حل
--حله
--حم
--حن
--حه
--حو
--حى
--حي
--حية
--حيه
--خ
--خا
--خام
--خان
--خت
--خد
--خر
--خص
--خل
--خلص
--خه
--خو
--خوت
--خى
--د
--دا
--دات
--داد
--دال
--داو
--دب
--دة
--دت
--دج
--دد
--در
--درا
--درو
--درى
--دريد
--دريس
--دريه
--دز
--دس
--دف
--دق
--دل
--دلر
--دلى
--دلير
--دمان
--دن
--ده
--دو
--دور
--دورف
--دوفا
--دوم
--دون
--دويه
--دى
--دي
--ديا
--ديت
--دير
--ديز
--ديس
--ديش
--ديل
--دين
--ديه
--ديو
--ذ
--ذا
--ذب
--ذج
--ذر
--ذرز
--ذه
--ر
--را
--رات
--راج
--رال
--رام
--ران
--راند
--رب
--ربرى
--ربيه
--رة
--رت
--رتش
--رث
--رج
--رح
--رخ
--رد
--رده
--ردو
--ردى
--رديا
--رز
--رس
--رش
--رصاص
--رع
--رف
--رق
--رقة
--رك
--ركا
--رل
--رلى
--رم
--رن
--ره
--رها
--رو
--رود
--روس
--روف
--رون
--روڤ
--رى
--ري
--ريا
--رير
--ريز
--ريس
--ريش
--ريك
--ريكيين
--رين
--ريه
--ريو
--ری
--ز
--زا
--زان
--زاوا
--زر
--زع
--زل
--زلى
--زم
--زن
--زه
--زو
--زون
--زى
--زير
--زيك
--زيل
--زيم
--زين
--زيه
--زيو
--زی
--س
--سا
--سات
--سار
--سب
--سبرج
--سبورج
--سبى
--سة
--ست
--ستا
--ستثمار
--ستخدم
--ستر
--ستروم
--ستش
--ستن
--ستو
--ستيد
--ستيدت
--ستير
--ستين
--ستچارنين
--سدورف
--سر
--سط
--سطة
--سع
--سفيل
--سك
--سكا
--سكايا
--سكو
--سكى
--سل
--سلسل
--سلو
--سلى
--سم
--سمان
--سن
--سه
--سهافن
--سو
--سوف
--سوم
--سون
--سى
--سي
--سيا
--سية
--سيج
--سيس
--سيقي
--سيك
--سيل
--سين
--سيه
--سيو
--سچون
--ش
--شا
--شار
--شارد
--شال
--شام
--شاير
--شة
--شت
--شتى
--شح
--شد
--شر
--شف
--شق
--شك
--شل
--شن
--شنر
--شه
--شو
--شى
--شي
--شيتا
--شيتش
--شير
--شيس
--شيك
--شيم
--شين
--شيه
--شيو
--شیر
--ص
--صا
--صات
--صار
--صة
--صحف
--صر
--صرى
--صف
--صل
--صم
--صه
--صى
--ض
--ضا
--ضة
--ضح
--ضر
--ضع
--ضل
--ضم
--ضه
--ضو
--ضى
--ضي
--ط
--طا
--طة
--طر
--طق
--طلق
--طن
--طه
--طى
--طين
--ظ
--ظر
--ظم
--ع
--عا
--عات
--عب
--عة
--عت
--عد
--عر
--عض
--عف
--عل
--عه
--عها
--عو
--عى
--عي
--عية
--عيه
--غ
--غا
--غان
--غة
--غضب
--غل
--غم
--غه
--غو
--غوص
--غى
--ف
--فا
--فاء
--فاق
--فاكس
--فة
--فت
--فتش
--فر
--فس
--فسكى
--فط
--فع
--فق
--فك
--فكا
--فل
--فلد
--فن
--فه
--فو
--فوت
--فى
--في
--فيا
--فيتش
--فيج
--فير
--فيس
--فيل
--فيو
--ق
--قا
--قاء
--قات
--قاع
--قب
--قبة
--قبض
--قة
--قت
--قدس
--قر
--قش
--قص
--قط
--قع
--قف
--قل
--قنى
--قه
--قو
--قوم
--قى
--قي
--قية
--قيع
--قيم
--قين
--قيه
--ك
--كا
--كار
--كان
--كب
--كة
--كت
--كر
--كز
--كس
--كسى
--كش
--كشن
--كل
--كلا
--كلى
--كم
--كن
--كه
--كهه
--كو
--كوا
--كوت
--كور
--كوس
--كوف
--كوفا
--كوفسكى
--كوفيتش
--كوه
--كوپف
--كوڤ
--كوڤا
--كوڤيك
--كى
--كي
--كيا
--كيت
--كيز
--كيس
--كين
--كڤيست
--كی
--ل
--لا
--لار
--لال
--لان
--لاڤ
--لة
--لت
--لتا
--لح
--لحه
--لد
--لدى
--لر
--لز
--لس
--لف
--لق
--لك
--لم
--لن
--لنج
--لند
--لندا
--له
--لو
--لوا
--لود
--لوڤ
--لى
--لي
--ليا
--لية
--ليت
--لير
--ليس
--لين
--ليه
--ليين
--لی
--م
--ما
--مار
--ماس
--مان
--مب
--مبى
--مة
--مت
--مح
--مر
--مز
--مس
--مستاد
--مع
--مك
--مل
--من
--مه
--مو
--موا
--موت
--موث
--مور
--موس
--مون
--مى
--مي
--ميد
--مير
--ميز
--ميس
--مين
--ميه
--ميو
--مپ
--ن
--نا
--ناء
--ناخ
--نال
--ناو
--ناى
--نبرج
--نة
--نت
--نتال
--نتى
--نتين
--نج
--نجا
--نجتون
--نجر
--نجى
--نح
--ند
--ندا
--ندر
--ندرا
--ندو
--ندى
--ندير
--نديه
--نر
--نز
--نزا
--نزو
--نزى
--نس
--نسك
--نسكى
--نسون
--نسى
--نش
--نع
--نق
--نك
--نكا
--نكو
--نه
--نو
--نوت
--نود
--نوس
--نوف
--نوك
--نون
--نوڤ
--نى
--ني
--نيا
--نير
--نيس
--نيك
--نيكا
--نين
--نيه
--نيين
--ه
--ها
--هات
--هار
--هاش
--هام
--هان
--هايم
--هب
--هة
--هد
--هر
--هل
--هم
--همه
--هن
--هه
--هو
--هى
--هيد
--هيل
--هيم
--و
--وا
--وات
--وار
--وان
--واى
--وب
--وبا
--وبو
--وبى
--وة
--وت
--وتا
--وتس
--وتش
--وتو
--وتى
--وث
--وج
--وجا
--وجو
--وجى
--وح
--وحه
--وخ
--ود
--ور
--ورا
--ورت
--ورث
--ورج
--ورس
--ورف
--ورن
--وره
--ورو
--ورى
--وز
--وزا
--وزو
--وزى
--وس
--وسا
--وسكا
--وسكى
--وسو
--وسى
--وسيكلات
--وش
--وشا
--وشى
--وص
--وط
--وع
--وعه
--وعيه
--وف
--وفا
--وفت
--وفسكى
--وفيتش
--وق
--وك
--وكا
--وكس
--وكو
--وكى
--ول
--ولا
--ولت
--ولد
--ولى
--وليس
--ولين
--وم
--ومب
--ومى
--ون
--ونا
--ونت
--ونج
--وند
--وندو
--ونز
--ونزى
--ونس
--ونه
--ونو
--ونى
--ونيا
--ونيس
--ونيل
--ونين
--وه
--وها
--وود
--وى
--وي
--ويا
--وية
--ويت
--ويديا
--وير
--ويس
--ويك
--ويل
--وين
--ويه
--وپ
--وڤ
--وڤا
--وڤسكى
--وڤو
--وڤيتش
--وڤيك
--وی
--ى
--ي
--يا
--يات
--ياد
--يار
--يارد
--ياس
--ياك
--يال
--يان
--يانا
--يانو
--يانى
--ياه
--ياو
--يب
--يبا
--يبو
--يبى
--ية
--يت
--يتا
--يتان
--يتز
--يتس
--يتسا
--يتش
--يتشت
--يته
--يتو
--يتوس
--يتون
--يتى
--يتير
--يتيس
--يتين
--يث
--يج
--يجا
--يجاس
--يجر
--يجس
--يجن
--يجنى
--يجو
--يجى
--يح
--يخ
--يخا
--يد
--يدا
--يداى
--يدج
--يده
--يدو
--يدور
--يدون
--يدونيا
--يدى
--يديا
--يديس
--يديو
--ير
--يرا
--يراس
--يرام
--يران
--يرت
--يرج
--يرز
--يرس
--يرك
--يرن
--يره
--يرو
--يروس
--يرى
--يريا
--يرير
--يريس
--يريك
--يرين
--يريو
--يز
--يزا
--يزو
--يزى
--يزيا
--يزيو
--يس
--يسا
--يساو
--يسة
--يست
--يستا
--يستر
--يستو
--يسك
--يسكا
--يسكو
--يسكى
--يسلاڤ
--يسو
--يسون
--يسوند
--يسى
--يش
--يشا
--يشت
--يشتى
--يشن
--يشى
--يص
--يض
--يط
--يع
--يعة
--يعه
--يعى
--يف
--يفا
--يفر
--يفو
--يفى
--يفيتش
--يق
--يقة
--يقه
--يقي
--يقية
--يك
--يكا
--يكت
--يكز
--يكس
--يكو
--يكوڤ
--يكى
--يل
--يلا
--يلت
--يلد
--يلدا
--يلس
--يلك
--يلمو
--يله
--يلو
--يلوس
--يلون
--يلى
--يلين
--يم
--يما
--يمان
--يمبو
--يمو
--يمى
--ين
--ينا
--ينات
--يناو
--يناى
--ينت
--ينتى
--ينج
--ينجا
--ينجتون
--ينجر
--ينجز
--ينجس
--ينجن
--ينجهام
--يند
--يندا
--يندو
--ينر
--ينز
--ينزا
--ينزو
--ينس
--ينسى
--ينك
--ينكا
--ينكو
--ينه
--ينهو
--ينو
--ينوس
--ينى
--يني
--ينيا
--ينيات
--ينية
--ينير
--ينيس
--ينين
--ينينج
--ينيه
--ينيو
--يه
--يها
--يو
--يوت
--يوث
--يور
--يوس
--يوف
--يوك
--يوكس
--يوم
--يون
--يويل
--يى
--يي
--يير
--ييرو
--ييف
--ييم
--يين
--ييه
--يپ
--يچ
--يچا
--يچارڤى
--يڤ
--يڤا
--يڤو
--يڤيا
--يڤيتش
--يڤيك
--پ
--پا
--پس
--پل
--پو
--پى
--پی
--چ
--چا
--چارنين
--چارڤى
--چاور
--چك
--چو
--چون
--چى
--چيك
--ڤ
--ڤا
--ڤسكى
--ڤو
--ڤى
--ڤيا
--ڤيت
--ڤيتش
--ڤير
--ڤيس
--ڤيك
--ڤيل
--ڤين
--ڤيو
--ک
--گ
--ی
--یا
--یان
--ید
--یر
--یری
--یز
--ین
--یه
--یی
