!
"
#
##0
##1
##10
##11
##12
##13
##14
##15
##16
##17
##18
##19
##2
##20
##21
##22
##23
##24
##25
##26
##27
##28
##29
##3
##30
##31
##32
##33
##34
##35
##36
##37
##38
##39
##4
##40
##41
##42
##43
##44
##45
##46
##47
##48
##49
##5
##50
##51
##52
##53
##54
##55
##56
##57
##58
##59
##6
##60
##61
##62
##63
##64
##65
##66
##67
##68
##69
##7
##70
##71
##72
##73
##74
##75
##76
##77
##78
##79
##8
##80
##81
##82
##83
##84
##85
##86
##87
##88
##89
##9
##90
##91
##92
##93
##94
##95
##96
##97
##98
##99
$
%
&
'
(
)
*
+
,
-
.
/
0
00
000
0000
001
003
01
02
03
04
05
06
07
08
09
090
1
10
100
1000
1016
105
1080
11
1100
1111
12
120
123
124
125
127
13
130
135
136
14
140
144
148
15
150
16
17
173
18
180
1851
1898
19
1947
1972
1976
1989
1992
1993
1993160
1995
1996
1997
1999
2
20
200
2000
2001
2002
2003
2004
2005
2006
2007
2008
2009
2010
2011
2012
2013
2014
2015
2016
20160915135020
2017
2018
2019
2020
2021
2022
2023
208
21
22
220
221
222
23
238
24
25
250
255
26
264901065
27
28
28500
29
3
30
300
31
32
320
32424
33
330
34
35
350
36
360
37
38
39
4
40
400
41
42
43
44
45
46
460207
465325
47
48
49
5
50
500
51
52
54
55
550
55862
57
59
6
60
600
63
639
64
65
66
667
69
7
70
73
75
750
76
78
8
80
800
81
82
83
85
86
88
89
9
90
93
94
95
96
978
98
99
9932
:
;
<
=
>
?
@
\
^
_
`
a
aa
aaaamaaj
aashiqui
ab
abbreviation
abf
abkai
able
about
above
abovebelow
abs
absence
absolute
abuse
abusefilter
ac
academic
academy
accept
acceptable
accepted
accepts
access
accessdate
accessed
accessible
according
account
accounts
achilles
acid
acquire
acronyms
across
act
action
actions
active
activity
actors
acts
actual
actually
ad
add
added
adding
addition
additional
additionally
addlinkchild
addportletlink
address
addresses
adds
aditya
administrators
advanced
adventure
advertisement
advice
ae
aewa
aewahoecaaqag
aewahoecaaqaghttps
aewaxoecaeqag
aewb
af
affect
affects
afghanistan
africa
african
after
afterlife
again
against
agamemnon
age
agency
ages
agreement
agriculture
ahmedabad
ahref
ahukewi
ahukewia
ahukewiapqabnpvxahusztgghtxlc
ahukewihzubh
ahukewim
ahukewin
ahukewj
ahukewja
ahukewjbgl
ahukewjc
ahukewjdilyp
ahukewjf
ahukewjgs
ahukewjh
ahukewjhou
ahukewjokkbb
ahukewjso
ahukewjz
aid
aids
air
aires
airport
ajax
akademi
akbar
akongj
akongjamba
al
alaska
albert
alexander
algebra
algeria
algorithm
ali
alias
aliases
alice
align
aligned
all
allow
allowed
allows
almost
alone
along
alpha
alphabet
alphabetical
alps
already
also
alt
alternate
alternative
alternatively
although
alto
always
am
ama
amadi
amailon
amazon
amazonian
amazons
ambox
america
american
amnesty
among
amp
ampersand
amsterdam
amun
amur
an
analysis
anatomy
anchor
ancient
and
andrew
andriy
android
andromeda
anganghal
angeles
angkor
angle
anglo
angola
angom
ani
animal
animated
animation
announced
another
answer
ant
antarctica
anthem
anti
antiope
any
anyone
anything
ap
apakpa
apart
api
apollo
apostrophe
app
appear
appearance
appears
append
appendchild
apple
apples
applicable
application
applies
apply
approach
approaches
appropriate
apps
apr
april
ar
arab
arabia
arabic
arcadia
archaeological
archaeology
architecture
archive
archived
archivedate
archives
are
area
areas
arena
ares
argentina
argonauts
argos
argument
arguments
arizona
arm
armenian
army
arnab
around
arrow
arrows
art
artemis
article
articleinfo
articles
artificial
artist
arts
arxiv
as
asia
asian
asin
ask
asp
aspx
ass
assam
assembly
assess
assesses
assessment
assessments
assets
assigned
assist
assistance
associated
association
assume
assumed
astronomy
at
athena
athens
atlanta
atlantic
atom
atreus
attack
attempt
attempts
attention
attica
attr
attracting
attribute
atuq
au
audio
august
aur
australia
australian
austria
author
authorlink
authormask
authorn
authors
auto
autofillid
autofillprop
automated
automatic
automatically
autonomous
autowikibrowser
available
avn
avoid
awangba
award
awarded
awards
azerbaijan
azores
b
ba
baaaamaaj
babel
baby
back
background
bacteria
bad
badge
baghdad
bahadur
bahasa
bahrain
baja
baku
baltic
bamboo
banana
bananas
bangkok
bangladesh
bank
banner
banners
bar
barnstar
barnstars
base
based
basel
bash
basho
basic
basket
bat
battle
bay
bb
bbc
bc
be
bear
beauty
became
because
become
becomes
becoming
been
before
began
beginning
begins
behaviour
beijing
being
beings
belief
believe
bells
belong
below
bengal
bengalensis
bengali
berlin
best
beta
better
between
beyond
bg
bh
bha
bhutan
bibcode
bidyarani
big
bill
bin
biographies
biography
biological
biology
biorxiv
bird
birds
birth
bit
bite
black
blank
blend
blended
blind
block
blocked
blockquote
blocks
blood
blp
blue
bmp
bn
bnwahuu
boar
board
boat
bodies
body
bodystyle
boeotia
bogota
bold
bond
book
books
boolean
border
bordered
borderless
borders
born
borough
boston
bot
both
bots
bottom
box
boxes
boy
br
braces
brackets
branch
brazil
brazilian
break
breaks
bridge
brief
bring
britain
britannica
british
broken
brother
brown
browse
browser
browsers
browsing
btuahxf
buddha
buenos
bug
build
building
buildings
built
bulgaria
bunch
business
but
buteur
button
bx
by
c
ca
cache
calculate
calendar
california
call
callback
called
calls
calydonian
cambridge
camelcase
can
canada
canadian
canal
canberra
cancel
cancer
cannot
canton
cape
capital
capitalized
caption
card
care
carl
carolina
case
cases
caspian
cassandra
castle
cat
catch
categories
categorised
category
cattle
cause
caused
causes
cave
cbbutton
cbd
cc
ccc
cd
ce
cell
cells
census
censusindia
center
central
centre
century
certain
cfm
ch
cha
chai
change
changed
changes
changing
chanu
chapter
character
characters
charles
chavannes
check
checked
checking
checkuser
chef
cheion
cheitharol
chemical
chemistry
chess
chicago
chicken
child
children
chile
china
chinese
choice
choose
christ
christian
christmas
chronicles
cid
cidr
cidri
cinema
circumcised
circumstances
citation
citations
cite
cited
cites
citeseerx
citetb
citetemplate
citetoolbar
cities
citing
citoid
city
civil
civilization
cjk
cl
clan
class
classes
classical
classification
clear
click
clicking
client
climate
clip
clock
close
closely
closing
cloth
clothing
club
clytemnestra
cm
cmbox
cn
co
coast
coat
coauthor
coauthors
cobra
cock
code
codes
coding
coins
cold
collaboration
collaborative
collapse
collapsed
collapsible
collection
college
colombia
colon
color
colorado
colosseum
colour
colours
columbia
column
columns
com
combined
combining
come
comes
coming
comma
commander
comment
comments
commercial
committee
common
commonly
commons
commonwealth
communication
communities
community
compact
company
comparative
comparison
compatibility
compatible
compiled
completed
completely
complex
complicated
components
comprehensive
computer
computers
computing
concept
concepts
concert
conditional
conditions
condom
conference
config
configuration
configured
conflict
congo
congress
connect
connected
connection
conservation
consider
consort
constellation
constitution
construct
construction
consult
consumer
contain
container
containing
contains
contemporary
content
contents
contenttranslation
contest
context
continent
continue
contribute
contribution
contributions
contributor
contributors
control
controls
convenient
convention
conventions
coordinate
coordinates
copy
core
corinth
corner
cornwall
corporate
correct
corresponding
could
council
count
counter
countries
country
county
course
court
coventry
coverage
covered
covering
covers
cow
cr
crab
create
created
createelement
createtextnode
creating
creation
creative
creator
crete
criteria
crmax
croatia
cropped
cross
crow
crown
cs
css
ctype
cu
cuba
cult
cultural
culture
cultures
curated
curie
curly
current
currently
curry
custom
customize
cut
cycle
cyprus
cyrillic
czech
czechia
czsqkvmveuc
d
da
daaaamaaj
dailypioneer
dakota
dali
damascus
danaus
dance
dang
daniel
dardania
dark
darkmode
dash
dashboard
dashes
data
database
date
dates
datestr
daughter
daughters
david
day
days
db
dbpedia
dc
dd
ddd
ddosq
de
dead
death
debug
december
declaration
decline
default
defaults
defenders
define
defined
defines
definition
definitions
deg
deity
del
delete
deletion
delhi
delivery
dell
deltora
democratic
den
denmark
department
depending
deployed
deprecated
depth
der
derived
des
desc
describe
description
descriptions
desert
design
designed
designer
desirable
desired
desk
desktop
destination
detail
details
develop
developed
developer
developers
developing
development
devi
device
devices
df
dhaka
diacritical
diagram
dialect
dialects
dialog
dictionary
did
die
died
diego
diff
different
digestion
digit
digital
digits
ding
diomedes
dionysus
direct
direction
directly
disable
disambiguation
discipline
discontinued
discouraged
discovery
discuss
discussion
discussions
discussiontools
disease
disk
display
displayed
displaying
displays
disputes
distributed
district
districts
div
diversity
dl
dli
dmy
do
doc
doctor
document
documentation
documents
does
doesn
dog
doi
doing
domain
don
done
dong
dormez
dot
double
doves
down
downtown
dq
dr
draft
dragon
dragons
drew
drive
drop
dropdown
dsc
dt
du
dubai
due
durga
durham
during
dutch
dutta
dwaaqbaj
dx
dynasty
e
ea
eaba
each
eagle
early
earth
earthjustice
easier
easily
east
eastern
ebaaaamaaj
ebuthou
echeveria
ecological
economics
economist
economy
ed
edge
edinburgh
edirne
edit
edited
editing
edition
editions
editor
editorlink
editormask
editorn
editors
edits
edittools
edu
education
educational
edward
ee
eee
eelai
eepung
effect
effectively
effects
effort
eg
egypt
egyptian
eight
eighth
einstein
eissn
either
ejaculate
el
elected
electronic
electronics
element
elements
elephant
eleusis
elis
elizabeth
else
em
email
emblem
emergence
emoinu
emperor
empire
empty
en
enable
enabled
enables
enclose
enclosed
encoded
encodeuricomponent
encoding
encouraged
encyc
encyclopaedia
encyclopedia
encyclopedias
encyclopedic
encyclopædia
end
endonym
energy
engine
engineering
england
english
enhanced
ennead
enough
ensemble
ensure
enter
entire
entirely
entities
entity
entrance
entries
entry
environment
environmental
epic
epirus
epithelium
epsubpageextractor
epsubpageselector
equal
equatorial
equivalent
erang
erect
erection
erichthonius
ernet
err
error
errorcheck
errors
es
esc
escape
escobar
especially
esperanto
est
establish
established
este
estonia
et
etal
etc
eteocles
ethiopia
ethnic
etoconsortium
etuahvqfx
eu
europa
europe
european
evaluation
evangelista
even
event
events
eventually
ever
every
everyone
evolution
exact
example
examples
except
exception
excerpt
excerpts
excerptslideshow
exclude
executive
exist
existing
exists
expand
expanded
expandtemplates
expected
experience
experiment
explanation
explicitly
exploits
explorer
ext
extended
extension
extensions
external
extra
eye
f
fa
fable
face
facebook
fact
factors
facts
fail
failed
fair
faith
fall
false
falsehttp
falsehttps
family
fan
fantasy
far
farmer
fashion
faster
father
fb
fc
fdc
fdfdfd
fdx
fe
feature
featured
features
featuring
feb
february
federal
fee
feedback
feel
felipe
female
feminism
femme
ferrara
festival
fetus
few
ff
ffdbdb
fff
field
fields
fifth
fig
fight
figure
figures
file
filename
files
fill
film
films
filter
filters
final
find
finding
finds
finland
fire
first
firstn
firstname
fish
fit
five
fix
fixed
flaccid
flag
flagged
flex
flickr
flipped
float
floating
floatleft
floatright
flood
floriade
florida
floridiae
flow
flower
fly
fmbox
focus
folk
folklore
folks
folktale
folktales
follow
followed
following
follows
font
food
football
footer
footnote
footnotes
for
forbes
force
forces
forehead
foreign
foreskin
forest
forever
form
formal
format
formats
formatting
former
formerly
forming
forms
formula
formulae
fort
forward
fossil
fought
found
foundation
foundations
founded
founder
four
fourth
fox
fr
frame
frameless
frameworks
franc
france
francisco
franz
fre
free
freely
french
frenulum
frequently
friday
friedrich
friend
friendly
friends
frog
from
front
fruit
fs
full
fully
func
function
functional
functions
further
future
g
ga
gadget
gadgets
gallery
gallerybox
gallerycarousel
gallerypreview
gallimard
game
games
gap
garden
gardens
garlic
gas
gateway
gaurl
gc
gender
general
generally
generate
generated
generates
genitalia
geographic
geographical
geography
geometry
george
georgia
georgian
german
germany
get
getcontents
getelementbyid
getelementsbyclassname
getelementsbytagname
getmsg
getoption
gets
getting
geturl
ghosh
giant
gif
gimp
girl
girls
giroud
give
given
gives
giving
giza
gje
gjnfbuahvlahikhyhaaicq
glans
glass
global
globe
glorious
gmzuaaaamaaj
gnome
gnu
go
god
goddess
goddesses
gods
goes
going
gold
golden
good
google
gopi
gourd
gov
government
govt
gp
grade
grammar
grammars
grammatical
grand
graphics
gray
great
greater
greatest
greece
greek
greeks
green
greenland
greenpeace
gritsenko
ground
group
groups
growth
gu
guatemala
guide
guidelines
guinea
gxjoaaaayaaj
gxqedwaaqbaj
h
ha
hackathon
had
hair
half
hampshire
hand
handbook
handle
hangul
haoba
haoreima
happen
happy
hard
hare
harvard
harvest
has
hathor
hatnote
have
having
hawaii
hdl
he
head
header
headers
heading
headings
health
heart
hebrew
heelel
heidelberg
height
heinemann
held
helen
helios
hello
help
helped
helps
henjunaha
henry
her
hera
heracles
here
heritage
hero
heroes
hi
hidden
hide
hiding
hierarchy
hieroglyphs
high
highlight
highlighting
highly
hijam
hill
him
hindi
hinduism
hingchabi
hippolyta
hirao
his
historic
historical
histories
history
hl
hlist
hmbhcoyba
hoax
hold
holding
holy
home
homer
hong
hook
hooks
horizon
horizontal
horse
horus
host
hosted
hotcat
hour
hourhand
hours
house
houston
how
however
hq
hr
hrdeg
href
htm
html
htmlhttp
htmlhttps
http
https
human
humans
hungary
hunt
husband
hydrogen
hyperlink
hyphen
hyphens
i
ia
ibcahxngbloq
ibn
ice
icon
icons
id
idea
ideas
identifier
identifiers
identity
idol
ids
ie
if
ignore
ignored
ii
iii
il
iliad
illinois
ilon
ils
im
image
imageright
images
imbox
img
immediate
impact
imphal
imphaltimes
implement
implementation
implementations
implemented
importance
important
improve
improvement
improvements
improving
imsakeisa
in
inactive
inappropriate
inarray
inc
inclined
include
included
includes
including
inclusion
incr
increase
increment
indent
indented
independent
index
indexof
india
indian
indiana
indicate
indicated
indigenous
individual
indonesia
indus
industrial
industry
influence
influenced
info
infobox
infoboxes
information
inherit
init
initial
initials
inline
inner
innerhtml
innovation
input
inputs
insect
insert
inserted
inserting
inside
inspired
installer
instance
instances
instead
institute
institution
institutional
instructions
int
intended
intentionally
interact
interaction
interest
interested
interface
interlanguage
internal
internally
international
internet
interview
interwiki
intestine
into
introduction
introto
introtosingle
invalid
invent
inventor
inventorlink
invert
invisible
invitation
involved
iolcus
ip
ipa
iran
iraq
irc
ireland
iron
is
isbn
isis
islam
islamic
island
islands
isle
ismn
isn
iso
israel
issn
issue
issues
ist
istanbul
it
italian
italic
italics
italy
item
items
itgo
ithaca
its
itself
iv
iyintk
j
ja
jack
jacob
jacques
jakarta
james
jammu
jan
janeiro
january
japan
japanese
jar
jason
javascript
jean
jersey
jerusalem
jewish
jfm
jimmy
jkuc
johannes
john
join
jones
jorge
joseph
journal
jpeg
jpg
jquery
jr
js
json
jsp
jstor
judaism
juice
july
june
jupiter
just
justice
justify
jzxahxjxzgghd
k
ka
kabui
kakching
kami
kangba
kangbas
kangla
kanglei
kangleipak
kangleirol
kansas
kao
kapoor
kapur
karachi
kartographer
kashmir
keep
keioiba
keithelmanbi
kenya
kgalagadi
khamba
khambana
khamlangba
khan
khao
kharkiv
khb
khdbqb
khoirentak
khomdan
khuman
khutsangbi
khutshangbi
khuyoi
khuyol
khuyon
kia
kill
killed
kind
king
kingdom
kings
kiwix
klmdb
km
kn
knagla
know
knowledge
known
ko
koi
kom
kong
korea
korean
korouhanba
koubru
krai
kuini
kuki
kumbaba
kunst
kunsthistorisches
kuranganayani
kyiv
kyoto
l
la
lab
label
labelmsg
ladakh
lagos
lai
laid
laihui
laipak
lairen
lais
lake
lakes
land
lang
langmaiching
langmeidong
language
languages
lanka
laos
lapiths
large
larger
larry
las
last
lastn
late
later
latest
latin
latter
latvia
law
lawrence
laws
lay
layout
laysummary
lccn
le
lead
leader
learn
learning
least
leave
lebanon
lee
leela
left
legal
legendary
leh
leikai
leikharol
leima
leipak
leipakpokpa
leithak
lemita
length
leo
leopard
les
less
lesser
let
lets
letter
letters
level
levels
levy
li
liberation
liberty
library
license
life
light
like
likely
liliaceae
limit
limited
lincoln
line
linear
lines
linguistic
linguistics
linguists
link
linked
linking
links
linux
lion
lioness
liquid
lisam
list
listas
listed
listing
lists
literature
lithuania
little
live
liver
living
ll
llc
lnk
lo
load
loadclock
loaded
loader
loading
local
locally
location
locations
log
logged
logic
logo
loinapa
london
lone
long
longer
lonsum
loo
look
looking
looks
lord
lore
loris
los
lost
lot
lotus
louis
louisiana
lourembam
love
lover
loves
low
lower
lsts
ltd
ltuahvw
lua
lukhrabi
luwang
luwanglinux
lvpuaaaamaaj
m
ma
mac
macha
machi
machine
made
madrid
magazine
magic
mahabharata
mahal
mahao
mai
maiba
mail
main
mainly
maintain
maintained
maintenance
major
make
makes
making
malawi
malaysia
maldives
male
mali
mammal
man
manchester
mandatory
mangang
manhattan
manila
manipur
manipuri
manual
manually
manuel
manufacturing
manuscript
many
map
mapframe
maps
maptable
mapu
maqaamaaj
mar
march
margin
marie
marine
mark
marked
marks
markup
martin
mary
maryland
mask
mass
massachusetts
masturbation
match
matches
matching
material
materials
math
mathematical
mathematics
matines
matter
max
maximum
may
mayek
mb
mbhrfeczuq
mbox
md
me
mean
meaning
means
meant
mecca
medal
medea
media
mediaquery
mediawiki
medical
medicine
mediterranean
medium
medusa
meet
meetei
meeteis
meeting
meetings
meitei
melon
member
members
memorial
memphis
men
menelaus
menk
mentor
menu
mercury
merged
mergedbottomrow
mergedrow
mergedtoprow
meristem
merit
merriam
merry
message
messagebox
messages
meta
metadata
meteor
method
methods
metro
metropolitan
mexico
mi
mice
michael
michigan
microsoft
mid
middle
midlands
might
mike
milan
military
million
min
mind
mindeg
minerva
mini
minister
minos
minotaur
minute
minutehand
minutes
miscellaneous
missing
mississippi
mistake
mistakes
mjruaaaamaaj
ml
mm
mni
mo
mobile
modal
mode
model
models
modern
module
modules
moirang
moldova
molecule
mollusca
momus
monday
mong
mongol
mongolia
mongolian
monkey
monobook
monster
month
months
moon
more
moriri
morning
mortal
mos
moscow
mosdates
most
mother
mount
mountain
mountains
mouse
move
moved
movement
moz
mp
mr
mrs
ms
msg
mt
mu
much
mughal
muhammad
multi
multilingual
multiple
mumbai
munich
municipality
murder
muscle
museum
music
musical
musician
musicians
must
mut
mutua
mw
mwe
my
myanmar
mycenae
mylanguage
mysteries
myth
mythological
mythology
myths
n
na
nabeel
naga
nagaland
nairobi
name
named
namedref
namedrefs
names
namespace
namespaces
naming
nancy
napachik
narrow
nation
national
nations
nationsonline
native
nato
natural
nature
navbar
navbox
navboxes
navframe
navigate
navigation
navigational
ncbi
nd
ne
near
necessary
need
needed
needing
needs
nenow
neolithic
nepal
nested
net
netherlands
network
neutral
never
new
newcomer
newcomers
newer
newlines
news
newspaper
newstate
next
ng
ngabong
nganthoi
ni
nic
niger
nigeria
night
nih
nile
nine
ningthou
ningthoukapa
ninth
nkmwaqaaiaaj
nl
nlm
nm
nmbhrt
no
noah
nobel
noble
node
noeditsection
noflip
nom
non
none
nongda
nongpok
nongsaba
nongshaba
nongthang
nopp
nor
nord
normal
normally
north
northeast
northern
norway
norwegian
not
notable
note
notes
notice
notices
notification
notifications
notify
notoc
noun
nov
novel
november
now
nowrap
ns
nt
nth
ntknr
nuclear
null
num
number
numbered
numbers
numeral
numeric
nupedia
nut
nuvola
nycticebus
o
oba
obj
object
oblast
obtain
occurred
ocean
oclc
october
odd
odysseus
odyssey
oecaiqag
oecasqaw
oedipus
of
off
offered
offerings
office
official
offline
often
og
ohchr
oinam
ol
old
olivier
olympic
ombox
omit
on
onba
once
one
onepage
ones
oneworld
online
only
onoroff
opacity
open
opera
operating
operation
operators
opt
option
optional
options
opts
oq
or
orange
orchomenus
order
ordinary
oregon
orestes
org
organisation
organization
organizations
origin
original
originally
os
osiris
osnova
osti
other
others
otherwise
ottoman
ou
our
out
output
outside
over
overflow
override
overrides
own
oxford
oyun
p
pa
paakhangba
pacific
package
padding
padlock
page
pagename
pages
paid
painting
pakhangba
pakistan
palaeolithic
paleolithic
palo
panama
pandion
pandora
panel
pao
paper
papers
papua
paradigm
paragraph
paragraphs
param
parameter
parameters
paramorder
params
parent
parentheses
parentnode
paris
park
parodies
parody
parse
parsed
parser
parseroutput
part
parthenon
partial
participants
participate
participated
particular
particularly
parts
party
pass
passed
passion
past
pasted
patent
patron
paul
paulo
pay
pdf
pdfhttp
pdfhttps
pdiqplxahxlzjgghrh
pe
peace
peasants
pebble
pebet
peel
pelias
penang
pending
penile
peninsula
penis
pennsylvania
people
peoples
per
percent
performance
performed
period
periodical
periodicals
periods
permanent
permanently
permitted
perseus
person
personal
personification
peru
peter
petersburg
petrovich
pg
ph
phab
phaba
phabricator
phase
philadelphia
philippines
philosophy
photo
photograph
photographs
photography
photos
php
phrase
phrases
physics
pi
picture
pictures
piece
piercing
pierre
pig
pigeons
pink
pipe
piped
pixel
pizza
pl
place
placed
placeholder
places
placing
plain
plainnavboxes
plan
plane
planet
planned
planning
plant
plastic
plate
platform
play
player
please
pleased
plus
pm
pmc
pmid
png
poems
point
points
pokpa
poland
policies
policy
polish
political
politicians
politics
pollution
polo
polybus
pomeranian
populated
populates
population
popups
pork
portal
portals
portland
portlet
portrait
portugal
portuguese
poseidon
position
positional
possible
possibly
post
posted
posts
postscript
pot
pothashang
pottery
poubi
poverty
power
powered
pp
practice
practices
pradesh
prague
pre
precede
preceded
prefecture
preference
preferences
preferred
prefers
prefix
prefixcontribs
prefixcontribstogglediv
prefixed
prehistory
prepared
presence
present
presentation
president
press
pressing
prevent
preventdefault
preview
previewing
previews
previously
priam
price
primarily
primary
primate
prince
princess
principles
print
printed
printer
prior
priority
privacy
private
prize
probably
problem
problems
procedures
process
processes
processing
produce
produces
product
products
profile
profit
prog
program
programme
programming
programs
progress
project
projects
prominent
promote
promotions
prop
proper
proposal
proposals
propose
proprietary
prose
prosehtmlvalue
prosesize
prosevalue
protect
protected
protection
proto
proud
proveit
provide
provided
provides
providing
province
proxy
psf
psychology
pt
ptah
ptyas
pu
pua
pub
pubic
public
publication
publications
published
publisher
publishing
pubmed
pukok
punctuation
punshiba
purge
purple
purpose
purposes
push
put
putin
putting
puvis
puwarimeitei
puya
puzzle
px
pyramid
python
q
qatar
qid
qomolangma
qqa
qrpedia
qu
quality
quebec
queen
queries
query
querystring
quest
question
questions
quetzalcoatl
quick
quickly
quote
quotebox
quoted
quotes
r
ra
race
radio
radius
railway
raja
rajasthan
random
randomly
range
ranges
rape
rapporteur
rather
ratio
raw
rd
re
reached
read
readable
reader
readers
reading
ready
real
reality
really
reason
reasons
rebecca
receive
recent
recognized
recommended
record
rection
recurrent
red
redir
redirect
redirects
reduce
reed
ref
refer
reference
referenced
references
referencetooltip
referencing
referred
reflist
reflisti
refname
refobj
refs
reftoolbar
reftoolbarbase
reftoolbardialogs
regard
regardless
regency
region
regional
regions
registered
registration
regular
reign
reine
related
relative
relaxed
release
released
releases
relevant
reliability
religion
religions
religious
rely
remember
remove
removed
removespinner
renaissance
rename
renamed
render
rendered
renders
repeat
repeated
replace
replaced
replacement
replaces
replacing
reply
report
reports
repository
represented
represents
republic
reputation
request
requested
requests
require
required
requires
res
rescued
research
researchgate
reset
resides
resolution
resources
respectively
response
result
results
ret
retain
retained
retracted
retrieved
return
returns
revenge
revert
review
reviews
revision
revisions
revolution
revolutionary
rfc
rgba
rhine
rice
rich
richard
right
rights
ringing
rio
river
ro
robert
rock
role
rolling
roman
romania
romanized
rome
root
rose
rotate
round
routledge
row
rows
roy
royal
royalblue
rtm
rttemberg
ru
rubens
rul
rule
rules
run
runs
rural
russia
russian
s
sa
safari
safe
sahara
sahitya
said
saif
sailed
saint
sakonsen
salai
salamis
salt
salvador
sam
same
sameer
samman
samoa
sample
san
sanajaoba
sanamahi
sanamahism
sandbox
sanger
sanghasri
sans
sanskrit
santa
sarah
sas
satirical
saturn
saudi
save
saved
saxony
say
says
scale
scheme
schlafly
school
schools
science
sciences
scientific
scientists
scope
score
scotland
scots
screen
screenshot
scribunto
script
scripting
scripts
se
sea
sealfon
search
searching
searchwithinvolume
season
seated
seattle
sec
secdeg
second
secondhand
section
sections
security
see
seer
seers
select
selected
selection
selector
self
semi
sen
send
sense
sensitive
sentences
seoul
separate
separated
separating
separator
september
serbia
serial
series
serif
serpent
served
server
servers
service
services
serving
session
set
setattribute
sets
setting
settings
seven
seventh
several
sex
sform
sha
shadow
shah
shanghai
share
shared
shaved
she
sheep
ship
shire
shiva
shoots
short
shorttag
should
show
showing
shown
shows
shraddha
shri
si
sicyon
side
sidebar
sign
significant
signpost
silesian
silver
similar
similarly
simple
simply
since
singapore
singh
singju
single
sir
sister
sisterproject
site
sites
six
sixth
size
sizeelement
sizing
skin
sky
sleeping
slideshow
slight
sljaaaamaaj
slovakia
slow
small
smaller
smith
snake
snippet
snow
so
social
socialist
society
sock
sockpuppetry
software
solar
solid
solomon
some
someone
something
sometimes
son
songbu
sonnez
sons
soon
sorted
sorts
sound
source
sources
south
southampton
southeast
southern
southwest
soviet
space
spaces
spacing
spain
span
spandeg
spanish
spans
sparta
speaker
speakers
special
specialized
species
specific
specified
specifies
specify
specifying
speech
speedy
spelling
spider
spin
spinner
spinnerspan
spirit
split
sports
spread
sq
square
sr
src
srhuahv
sri
ssrn
st
stable
stacked
stadium
staff
stage
standard
standards
standing
star
stars
start
started
starting
starts
state
statehood
states
station
statistics
stats
statue
status
stay
steam
still
stockholm
stone
stop
storage
stories
story
strategy
street
string
strokes
structure
stub
stubs
studies
studios
study
style
styled
styles
styling
su
suaveolens
sub
subcategories
subcategory
subgroup
subject
subjectlink
subjects
submit
subpage
subpages
subscribe
subscription
subscripts
subsections
subsequent
substituted
subtopics
success
successful
such
suchi
sudan
suffix
sugar
suggested
suitable
summary
summer
sun
supplement
supplemental
supply
support
supported
supporting
supports
suppress
suppressed
suppresses
sure
surface
surname
surrogate
survey
sussex
sustainable
svg
sw
sweden
swedish
switch
switzerland
sydney
symbol
symbols
syntax
syria
system
systems
t
ta
taangja
tab
table
tables
tabs
tag
tagetes
tagged
tags
tai
taille
taiwan
taj
take
taken
takes
taking
tales
talk
tamil
tandfonline
tang
tangja
tanzania
taoroinai
taothingmang
target
targeted
taro
tartarus
task
taskinfo
tasks
taxobox
taxonomy
tbody
td
te
tea
teacher
team
tech
technical
technique
techniques
technology
television
tell
tem
template
templatedata
templates
temple
tengnoupal
term
terminal
terms
terrestrial
territories
territory
test
testing
tex
texas
texhtml
text
textbook
texts
textselection
tf
tfa
th
tha
thailand
thalassa
than
thang
thangcha
thangjing
thank
tharon
that
the
theatre
thebes
theguardian
thehindu
their
them
themanipurpage
thematic
then
theory
there
therefore
thesangaiexpress
these
theseus
thessaloniki
thessaly
they
thilel
thing
things
thingujam
think
thinking
third
this
thoibi
thomas
those
thou
though
thought
thouwaimichak
thrace
three
threshold
throne
through
throughout
thum
thumb
thumbimage
thumbinner
thumbnail
thus
tibetan
tig
tiger
tilt
tim
time
timeless
timeline
times
timestamp
tiryns
tissue
title
titleparts
titles
titres
tl
tld
tleft
tmbox
to
toc
today
todo
tofixed
together
toggle
tokyo
tom
tomb
tome
tompok
too
took
tool
toolbar
toolbox
tools
tooltip
top
topbanner
topic
topics
tortoise
total
tourism
tournament
towards
tower
town
toxics
tr
track
tracking
tract
trade
tradition
traditional
trailing
trans
transclude
transcluded
transform
transformed
transfrontier
transition
translate
translated
translation
translations
translator
translators
transliteration
transparent
transport
travel
travels
treated
treaties
tree
trees
trick
tried
trigger
triggered
tright
trilogy
tripod
trojan
troy
true
truth
try
trying
trøndelag
ts
tso
tuesday
tulipa
tulips
turkey
turkish
turn
tv
twin
two
type
types
typically
typing
u
ua
ucend
ucfrm
uchek
uchen
ucstart
uf
uganda
ui
uk
ukraine
ukrainian
ul
um
un
unabridged
unbulleted
uncircumcised
uncircumsized
uncle
uncut
uncyclopedia
und
undefined
under
underworld
unenvironment
unep
unesco
uni
unicode
unified
union
unique
unit
united
units
universal
universe
university
unix
unknown
unless
unlike
unregistered
unsubscribe
unsure
until
up
update
updated
updates
upload
uploaded
uploads
upon
upper
upright
upward
ur
urban
uri
url
urls
uruguay
us
usa
usability
usage
usd
use
used
useful
user
usercontribs
username
users
uses
using
usual
usually
ut
utc
utf
util
utuahvmyysbhyzubi
v
va
vague
val
valid
valley
value
values
van
vancouver
vandalism
var
variable
variables
variation
variety
various
vast
vatican
vauthors
ve
vector
ved
vegetables
venezuela
venice
venus
ver
verb
verify
version
versions
vertical
very
vest
vi
via
victoria
video
videos
vie
vienna
vietnam
view
viewed
village
vinicius
virgin
virginia
virtual
virus
vishnu
visible
visit
visited
visual
visualeditor
vladimir
vo
voivodeship
vol
volume
volumes
volunteer
volunteering
volunteers
von
vote
vous
vowel
vs
vuitton
vultures
vzzxahvuex
w
wa
wakoklon
wales
wall
wankhede
want
war
wari
warning
warrior
was
washington
wat
watch
watchlist
water
way
ways
we
weapon
wearing
web
webkit
webkittransform
website
websites
webster
week
weeks
weight
weightlifters
welcome
well
were
west
western
wgaction
wgpagename
what
when
where
whereas
whether
which
while
white
who
whole
whose
why
wide
widely
widow
width
wien
wife
wiki
wikibooks
wikidata
wikidatacon
wikieditor
wikilink
wikilinked
wikilinks
wikilove
wikimania
wikimedia
wikimeet
wikinews
wikipage
wikipedia
wikipedias
wikiproject
wikiprojects
wikiquote
wikis
wikiscript
wikisource
wikispecies
wikitable
wikitext
wikitrust
wikiversity
wikivoyage
wiktionary
wilhelm
will
william
wind
window
windows
wine
wisconsin
wish
wishing
wishlist
witch
with
within
without
wmf
wmuk
wo
wolf
wolfgang
woman
women
womens
wood
word
words
work
working
works
world
worldometers
worse
worshipped
would
wp
wpb
wpbannermeta
wptextbox
wrap
wrapper
write
writers
writing
written
wrong
wt
wu
www
x
xahwxydgghqqdatk
xanyan
xdtbhuahuvydgghywybkoq
xls
xml
xmli
xp
xtools
xx
y
ya
yahxeqksfhv
yandex
year
years
yellow
yemen
yes
yet
yi
yibkaaaamaaj
york
yorkshire
you
young
your
yourself
ytvahwpbyskhvntbb
yugoslavia
yyyy
z
zbl
zealand
zeus
zh
zkp
zomi
zone
zones
{
|
}
~
§
«
°
±
²
·
º
»
×
æ
ð
ı
ɑ
ɒ
ə
ɛ
ɪ
ɬ
ʊ
ʰ
ʻ
ʼ
ʾ
ʿ
ˈ
ˌ
ː
̀
́
̂
̃
̄
̆
̇
̈
̉
̊
̋
̌
̓
̔
̛
̞
̣
̤
̦
̧
̨
̩
̪
̯
̱
̸
͂
ͅ
͡
α
αι
ας
ε
η
θ
ι
ν
ξ
ο
ς
τ
υ
χ
ων
ϯ
а
в
к
лори
н
на
о
р
т
у
украі
эдирне
ю
я
і
ִ
ا
الك
اللهجة
ب
ت
س
ع
ل
ن
و
وسيم
ي
ً
َ
ُ
ّ
ٓ
ٔ
ٕ
ی
ܐ
ܗ
ܠ
ܲ
ܵ
߬
ँ
ं
ः
क
कर
ख
ग
घ
ङ
च
ज
झ
ञ
ठ
ड
ण
त
थ
द
ध
न
नम
प
ब
भ
म
मर
मह
य
र
रह
ल
व
वत
वन
वर
श
ष
स
सर
सरस
ह
़
ा
ि
ी
ु
ू
ृ
ॄ
े
ै
ो
ौ
्
ॐ
।
॥
१
२
३
४
५
६
७
८
९
ং
ঃ
অদ
অন
অম
অমদ
অর
অস
অহ
অৱ
ই
ইগ
ইচ
ইন
ইব
ইম
ইর
উ
এ
ও
ওইব
ওবগ
ক
কপ
খ
গ
ঙ
ঙথ
চ
ছ
জ
ঞ
ট
ড
ঢ
ত
তম
থ
দ
দগ
দন
ধ
ন
নখ
নদ
নব
নবগ
নবন
নর
প
ফ
ব
বগ
বদ
বন
ভ
ম
মক
মঙ
মত
মদ
মন
মপ
মব
ময
মর
মশ
মস
য
র
রম
ল
লগ
লম
শ
স
হ
হর
়
া
ি
ী
ু
ূ
ে
ৈ
্
ৎ
ৎপ
ৗ
১
৭
ৰ
ৱ
ਜ
ਧ
ਪ
ਬ
ਰ
ਸ
਼
ਾ
ਿ
ੀ
ੁ
ੇ
ੋ
ੰ
ଜ
ନ
ପ
ର
ଲ
ା
ି
ୁ
େ
୍
க
ங
ட
த
ப
ய
ர
ழ
வ
ா
ி
ு
ெ
ே
்
గ
త
ల
ి
ు
ె
ಕ
ಡ
ಾ
ು
್
ം
ക
ങ
ത
ള
വ
ാ
േ
ൈ
്
ൻ
ං
න
ස
්
ා
ි
น
ป
ร
ล
อ
ั
า
ิ
ี
ื
่
้
์
ປ
ີ
່
້
་
ག
མ
ོ
က
င
တ
ဒ
န
ဘ
မ
ရ
သ
အ
ဢ
ါ
ာ
ိ
ီ
ု
ေ
့
း
်
ျ
ြ
ၼ
ႃ
ႅ
ႇ
자지
ឌ
ណ
រ
អ
ី
េ
​
‌
‍
‎
‑
–
—
‘
’
“
”
†
•
…
′
″
⁄
₿
℅
№
→
↔
↷
−
③
④
⑦
►
☉
☒
☾
♀
♂
♃
♄
♆
♔
⚡
⛢
ⲉ
ⲏ
ⲓ
ⲕ
ⲙ
ⲛ
ⲣ
ⲧ
ⲭ
⺀
⺄
⺆
⺈
⺊
⺌
⺕
⺝
⺸
⺼
⿰
⿱
⿲
⿳
⿴
⿵
⿶
⿷
⿸
⿹
⿺
⿻
〢
え
お
か
き
け
し
す
た
て
と
な
に
の
は
ひ
む
も
よ
を
ん
゙
゚
イ
カ
コ
ス
タ
ト
ノ
ハ
ヘ
ミ
ユ
ラ
リ
ル
ロ
ワ
ン
ー
㇁
㇂
㇄
㇇
㇈
㇉
㇓
㐁
㐄
㐅
㐌
㐫
㐬
㐭
㐮
㐱
㑒
㒵
㒸
㒼
㓁
㓞
㔾
㕛
㕣
㖾
㘝
㚅
㚇
㚔
㚘
㝉
㝡
㝴
㝵
㞋
㞢
㞷
㠩
㠭
㠯
㡀
㡭
㡿
㢲
㢴
㣇
㣺
㥯
㪅
㫄
㫐
㫒
㫺
㬅
㬎
㬥
㬰
㲋
㳄
㷠
㸒
㸚
㸦
㼌
㼲
㽞
㿟
䀠
䂞
䍃
䏍
䒑
䖍
䖒
䖝
䖵
䙴
䚻
䜌
䝿
䡛
䧹
䪞
一
丁
丂
七
丄
丅
丆
万
丈
三
上
下
丌
不
与
丏
丐
丑
专
且
丕
世
丘
丙
业
东
丞
丢
丣
两
严
並
丨
丩
个
丫
丬
中
丮
丰
丱
串
丵
丶
丷
丸
丹
为
主
丽
丿
乀
乂
乃
久
乆
乇
么
义
之
乌
乍
乎
乏
乐
乑
乔
乖
乗
乘
乙
乚
乛
乜
九
乞
也
习
乡
乳
乾
亀
亅
了
亇
予
争
事
二
亍
于
亏
亐
云
互
亓
五
井
亘
亚
亜
亞
亟
亠
亡
亢
交
亥
亦
产
亨
亩
享
京
亭
亮
亯
亰
亲
亳
亶
亷
人
亻
亼
亾
仁
今
介
仌
从
仐
仑
仒
仓
仕
他
付
仝
代
令
以
任
企
伊
伏
伐
休
会
伯
但
位
何
佘
余
作
佥
使
來
侈
侌
侖
侯
侵
便
保
俞
信
修
俺
倉
倍
候
倠
備
僉
僕
儿
兀
允
兂
元
兄
充
兆
兇
先
光
兊
克
兌
免
兑
兒
兓
兔
党
兜
兟
入
內
全
兩
兪
八
公
六
兮
兰
共
关
兵
其
具
典
兹
兼
冀
冂
冃
冄
内
冈
冉
冊
冋
册
再
冎
冏
冐
冒
冓
冖
冗
冘
军
农
冝
冡
冥
冫
冬
冷
几
凡
凢
凵
凶
凷
凸
凹
出
函
凾
刀
刁
刂
刃
刄
刅
分
切
刍
刑
刕
刖
列
刘
则
创
初
別
利
别
到
制
刺
則
削
剌
前
剡
剽
劉
力
功
加
劦
动
助
劫
劳
劵
勃
勇
勉
勒
動
務
勝
勞
勤
勹
勺
勻
勾
勿
匀
匂
包
匆
匈
匊
匋
匍
匕
化
北
匚
匝
匡
匪
匱
匸
匹
区
医
匽
匿
區
十
卂
千
卄
卅
卆
升
午
卉
半
卌
华
卑
卒
卓
单
卖
南
卜
卝
卞
占
卡
卢
卣
卤
卦
卩
卪
卬
卯
印
危
即
却
卵
卷
卸
卻
厂
厃
厄
历
厈
厉
厌
厓
厘
厚
原
厤
厥
厨
厭
厲
厶
厷
厸
去
厼
厽
叀
参
參
叅
又
叉
及
友
双
反
叐
发
叒
叔
叕
取
受
叚
叜
叟
口
古
句
另
叩
只
召
可
台
叱
史
右
叵
号
司
叹
吂
各
吅
合
吉
吊
吋
同
名
后
吏
向
吕
君
吝
吞
否
含
启
吳
吴
吹
吾
呂
呆
呈
告
员
呙
周
命
咅
和
咎
咠
咢
咨
咸
咼
哀
品
哈
哉
員
哥
哲
唐
商
啇
問
啚
啬
啻
善
喜
喬
單
喿
嗇
噩
嚴
囊
囗
囘
囙
囚
四
回
囟
因
囧
囬
困
囱
囷
固
国
圂
圅
國
圍
圓
土
圡
圣
圥
在
圭
地
圶
圼
坐
坒
坚
坴
垂
垔
垚
埀
埃
埋
埶
執
基
堂
堅
堆
堇
堡
堯
塞
墨
壘
士
壬
壯
声
壳
壴
壹
壺
壽
夂
处
夅
夆
备
夊
夋
夌
复
夏
夒
夕
外
夗
夘
多
夜
夢
大
夨
天
太
夫
夬
夭
央
失
夲
头
夷
夸
夹
夻
夾
奂
奄
奇
奈
奉
奎
奏
奐
契
奓
奔
奚
奞
奠
奢
奥
奭
女
奴
奻
好
如
妄
妙
妟
妥
妻
妾
姑
委
姜
威
娄
娥
婁
婴
媧
嫦
嬰
嬴
子
孑
孔
孕
孖
字
存
孙
孚
孛
孝
孟
季
孤
学
孫
孱
學
宀
宁
宂
它
宅
宇
守
安
宋
完
宏
宓
宗
官
宙
定
宛
宜
宝
客
宣
室
宮
宰
害
家
容
宾
宿
寄
寅
密
富
寒
察
寧
審
寫
寬
寮
寸
对
寺
寻
寽
対
寿
封
尃
射
将
將
專
尉
尊
尋
尌
對
導
小
少
尒
尓
尔
尖
尗
尚
尞
尢
尣
尤
尧
尨
尭
就
尸
尹
尺
尻
尼
尽
尾
尿
局
居
屈
屋
屎
屏
屑
展
屖
屚
属
屠
屡
屬
屮
屯
屰
山
屵
屾
岁
岂
岑
岡
岩
岳
岸
峯
島
崇
崑
崔
崖
崙
崩
嵬
嶲
巂
巛
川
州
巟
巠
巢
巤
工
左
巧
巨
巩
巫
差
己
已
巳
巴
巷
巸
巽
巾
巿
帀
市
布
希
帚
帛
帝
带
師
席
帶
常
干
平
年
幵
并
幷
幸
幹
幺
幻
幼
幽
幾
广
広
庄
床
序
底
店
庚
府
度
庫
庭
庶
康
庸
廉
廌
廛
廣
廩
廴
延
廷
建
廾
廿
开
弁
弃
弄
弇
弋
式
弓
弔
引
弗
弘
弜
弟
弥
弦
弱
張
強
强
彊
彌
彎
彐
彑
当
彔
录
彖
彗
彡
形
彥
彦
彧
彭
彳
役
彼
往
待
律
徒
得
徙
從
復
微
徵
德
心
忄
必
忌
忍
志
忝
忠
忩
快
念
忽
忿
思
怠
急
怱
恆
恒
恩
恭
息
悉
悟
患
悤
悲
悶
惠
惡
惢
愁
愈
意
愛
感
慈
慧
慮
憂
憲
應
懶
戀
戈
戉
戊
戋
戌
戍
戎
成
我
戒
戔
或
戚
戠
戢
戦
截
戲
戶
户
戹
戼
戾
房
所
扁
扇
手
扌
才
打
托
执
承
折
拉
拜
拿
掌
推
提
搜
摩
支
攴
攵
收
攸
改
放
政
敄
敏
敕
敖
敗
敝
敞
敢
散
敦
敫
敬
数
敷
數
斂
文
斉
斊
斗
料
斤
斥
斩
斬
斯
新
方
於
施
斿
旁
旋
族
无
旡
既
旣
日
旦
旧
旨
早
旬
旱
旲
时
旾
昆
昇
昌
昍
明
昏
易
昔
昗
昜
星
春
昬
昭
是
昱
昴
昷
時
晃
晋
晏
普
景
晶
智
暑
暴
曇
曩
曰
曲
曳
更
曷
書
曹
曼
曾
替
最
朁
會
月
有
朋
服
朔
朕
朗
望
朝
木
朩
未
末
本
札
朮
术
朱
朵
朶
朿
杀
杉
杏
杜
束
条
来
東
杲
杳
松
析
林
枚
果
枝
枲
枼
某
柔
查
柬
柰
柴
栗
桀
桑
桼
梁
條
梟
梦
梨
棘
棠
棥
森
楚
業
楽
榮
構
樂
樊
欠
次
欣
欮
欲
欶
欽
款
歆
歇
歛
止
正
此
步
武
歨
歪
歮
歯
歰
歲
歴
歷
歸
歹
歺
死
殳
段
殷
殸
殹
殺
殻
殿
毋
毌
母
每
毒
比
毕
毚
毛
毳
氏
氐
民
气
氣
水
氵
氶
氷
永
氺
氾
求
汉
汝
汞
江
沃
沓
沙
沝
河
泉
法
波
泣
泥
泰
洛
洪
活
派
流
浦
浪
浮
海
淡
淮
清
渚
渠
游
湯
滿
漢
漸
灣
火
灬
灭
灰
灵
灷
炅
炎
炏
炒
炗
炙
炭
為
烈
烏
烝
焉
無
焦
焱
然
煞
熊
熏
燕
營
燮
爪
爫
爭
爯
爰
爱
爲
爵
父
爻
爽
爾
爿
片
牙
牚
牛
牜
牟
牢
牧
牪
牽
犀
犬
犭
犮
狂
狄
狊
独
狺
猋
猒
猪
献
猴
獻
玄
率
玉
王
玟
玨
珎
班
琴
瑟
瑩
瓜
瓦
甘
甚
生
産
用
甫
甬
田
由
甲
申
电
甶
男
甸
甹
画
甾
畀
界
畏
畐
留
畜
畟
畢
畧
畨
番
畫
異
畱
當
畺
畾
疊
疋
疌
疑
疒
疾
瘟
癶
癸
癹
登
發
白
百
皀
皃
的
皆
皇
皋
皐
皕
皮
皷
皿
盃
盆
盇
盈
益
盍
盎
监
盒
盖
盘
盛
盡
監
盤
盧
目
直
相
盾
省
眇
眉
看
眔
眞
真
眷
眼
眾
着
睘
睪
睿
瞏
瞢
瞿
矍
矛
矞
矢
矣
知
矦
短
石
研
破
碎
磊
磨
示
礻
礼
祖
祝
神
祟
票
祭
禀
禁
禸
禹
禺
离
禽
禾
禿
秀
秃
秉
秋
科
秝
秦
称
移
稟
穀
穌
穴
究
穹
空
穿
突
窄
窒
立
竒
站
竜
竝
竟
章
童
竹
笑
笠
第
筆
等
答
箕
算
箴
節
篤
篭
米
粉
粛
粟
粤
粦
粲
粵
糞
糸
糹
系
約
納
素
索
紫
累
細
絜
絫
絲
維
綿
編
縣
繁
繇
纍
纟
维
缶
网
罒
罔
罕
罗
罙
罡
罢
罪
署
罷
羅
羊
羌
羍
美
羔
羕
羗
羞
羡
羣
群
義
羲
羸
羽
翁
翏
習
翕
翟
翠
翼
老
耂
考
者
耆
而
耎
耑
耒
耳
耴
耶
耷
聂
聊
聖
聚
聶
聿
肀
肃
肅
肉
肖
肙
肥
肩
肯
育
肴
胃
背
胡
胥
能
脊
脩
膚
臣
臤
臧
自
臬
臭
臯
臱
至
致
臺
臼
臽
臾
臿
舀
舂
舄
與
興
舉
舌
舍
舛
舜
舞
舟
般
艮
良
色
艸
艹
艾
节
芒
芔
芬
芮
花
芳
芺
芻
苔
苗
苟
若
苦
英
茶
茸
荅
草
荒
荣
荼
莆
莧
莫
莽
菆
菊
菐
華
萬
落
葉
著
葛
董
葵
蒙
蒦
蒼
蓋
蓬
蓺
蔑
蔡
蕉
蕭
薄
薛
薦
薰
藍
藏
藤
藥
蘭
虍
虎
虐
虒
虔
處
虖
虗
虘
虚
虛
虜
虞
虫
虽
蚤
蚩
蜀
蜜
融
蟬
蟲
蠡
血
行
衍
衛
衣
衤
表
衮
衰
袁
袞
褭
褱
襄
襾
西
覀
要
覃
見
規
覓
覧
親
覽
见
角
解
言
訁
訇
計
記
詹
語
誩
諸
讠
记
语
谷
豆
豈
豊
豐
豕
豖
豙
象
豦
豩
豪
豸
貂
貇
貝
貞
貟
負
貢
貧
貪
貫
責
貳
貴
買
費
賁
資
賈
賏
賓
賔
賛
賞
賢
賣
質
賴
贊
贛
贝
贡
责
贯
贲
贵
赖
赞
赤
赦
走
越
足
路
蹇
身
躬
車
軍
軎
軟
輦
车
辛
辜
辟
辥
辰
辱
農
辵
辶
边
达
过
近
连
迪
迷
追
退
送
逆
逐
通
速
造
逢
連
逮
進
遀
遂
遊
過
道
達
遣
適
遷
遺
邊
邑
邕
那
邦
邪
郎
部
郭
都
鄉
酉
酋
配
酓
釆
采
里
重
野
量
金
釒
錢
钅
長
镸
长
門
閃
閉
開
閏
閑
閒
間
閔
閵
閻
闌
门
间
闷
阑
阜
阝
阳
阴
阿
降
陳
隆
隊
隋
隠
隡
隨
隱
隶
隹
隺
隻
隼
隽
难
雀
雁
集
雈
雋
雍
雐
雔
雙
雚
雜
雝
離
難
雨
雩
雪
雲
零
雷
需
霍
霜
霝
霞
霸
靈
靑
青
非
靡
面
靣
革
韋
韦
韭
韯
韱
音
頁
頃
項
須
頗
頡
頻
顛
页
顼
颛
風
风
飛
飞
食
飠
養
館
饣
首
香
馬
馮
駦
马
骨
體
高
髟
鬥
鬯
鬲
鬼
魚
魯
鮮
鱼
鲁
鳥
鳳
鸟
鹵
鹿
麃
麗
麥
麦
麵
麻
黃
黄
黍
黎
黑
黒
黨
黹
黽
黾
鼎
鼓
鼠
鼻
齊
齋
齐
齒
齿
龍
龙
龜
龟
龠
龰
龱
龴
龵
龶
龷
龸
龹
ꞓ
ꫠ
ꫡ
ꫢ
ꫣ
ꫤ
ꫥ
ꫦ
ꫧ
ꫨ
ꫩ
ꫪ
ꫫ
ꫬ
꫰
꫱
ꫲ
ꭰ
ꭱ
ꭲ
ꭸ
ꭹ
ꭿ
ꮃ
ꮎ
ꮑ
ꮧ
ꮩ
ꮳ
ꯀ
ꯁ
ꯂ
ꯃ
ꯄ
ꯅ
ꯆ
ꯇ
ꯈ
ꯉ
ꯊ
ꯋ
ꯌ
ꯍ
ꯎ
ꯏ
ꯐ
ꯑ
ꯒ
ꯓ
ꯔ
ꯕ
ꯖ
ꯗ
ꯘ
ꯙ
ꯚ
ꯛ
ꯜ
ꯝ
ꯞ
ꯟ
ꯠ
ꯡ
ꯢ
ꯣ
ꯤ
ꯥ
ꯦ
ꯧ
ꯨ
ꯩ
ꯪ
꯫
꯬
꯭
꯰
꯱
꯲
꯳
꯴
꯵
꯶
꯷
꯸
꯹
者
艹
（
）
：
？
𐌰
𐌳
𐌹
𐌽
𐍂
🇦
🇧
🇨
🇪
🇬
🇮
🇰
🇳
🇷
🇸
🇺
🌂
🎉
🐆
🐘
🐯
👇
🙏
🜨
🦁
🦉
🦒
🦓
𠀁
𠀃
𠀆
𠀉
𠀎
𠀐
𠁁
𠁣
𠂆
𠂇
𠂈
𠂉
𠂊
𠂋
𠂎
𠂒
𠂔
𠂛
𠂡
𠂢
𠂤
𠂬
𠂭
𠂹
𠃊
𠃋
𠃌
𠃍
𠃎
𠃑
𠃓
𠃔
𠃜
𠄌
𠄎
𠄠
𠄢
𠆢
𠆥
𠇍
𠈌
𠌵
𠓜
𠔉
𠔥
𠔼
𠔽
𠔿
𠕀
𠕁
𠕋
𠘧
𠘨
𠙻
𠙼
𠚏
𠚒
𠚤
𠚪
𠣏
𠤎
𠤕
𠥓
𠦄
𠦑
𠦝
𠧒
𠧗
𠧪
𠩺
𠪚
𠫓
𠫔
𠫤
𠬛
𠬝
𠬞
𠬢
𠬤
𠬶
𠮛
𠮦
𠮷
𠯑
𠱠
𠳮
𠷎
𡈼
𡉀
𡉵
𡌥
𡍮
𡏳
𡕒
𡕩
𡕰
𡖅
𡗗
𡗜
𡘆
𡘤
𡧱
𡨄
𡩧
𡬠
𡭽
𡰣
𡰥
𡰪
𡰯
𡰱
𡷈
𡸁
𡿨
𡿩
𡿪
𡿺
𢀖
𢀛
𢀩
𢁙
𢆉
𢆰
𢆶
𢇁
𢇇
𢉖
𢌬
𢌿
𢏚
𢑑
𢑚
𢖻
𢙣
𢛳
𢦏
𢦒
𢧵
𢼄
𢾕
𣁋
𣄼
𣅀
𣅽
𣍘
𣎳
𣎵
𣏋
𣏼
𣗥
𣥂
𣥖
𣦵
𣦼
𣧄
𣪊
𣪠
𣬉
𣳾
𣶒
𤇾
𤊽
𤐫
𤓰
𤔔
𤕨
𤣩
𤰇
𤰔
𤰞
𤴓
𤴔
𤽄
𥁑
𥁕
𥃦
𥃩
𥃭
𥇡
𥑟
𥘅
𥘈
𥝢
𥫗
𥱡
𦈢
𦉪
𦉬
𦉼
𦍌
𦍒
𦎧
𦐇
𦓔
𦔮
𦘒
𦙃
𦚏
𦣝
𦣞
𦣻
𦥑
𦥔
𦥯
𦨉
𦭝
𦰩
𧆞
𧈧
𧘇
𧰨
𧴪
𧴮
𧵩
𧾷
𨸏
𨾴
𩙿
𩠐
𩫏
𩵋
𪉷
𪜀
𪟽
𪠲
𪩲
𫇦
𫔭
𫜸
𫝀
𫠣
𫠩
𫢉
𫥞
𫩏
𫩠
𫪡
𫲽
𫶧
𬀷
𬐘
𬗌
𬙙
𬛸
𬜯
𬟩
𬯁
𬴘
𬺻
𬼉
𬼖
𭀰
𭁈
𭁨
𭅰
𭑈
𭕄
𭗼
𭤨
𭥫
𭻾
𮅕
𮊿
𮍌
𮍏
𮓗
𮥼
𮧮
廾
𰀁
𰀄
𰀈
𰀉
𰀕
𰀠
𰀡
𰀢
𰀪
𰁜
𰃮
𰆊
𰆘
𰋙
𰕎
𰢴
𰧭
𰯲
00--
01--
03--
05--
07--
08--
10--
11--
12--
13--
14--
15--
16--
17--
18--
1886--
19--
20--
21--
23--
24--
25--
26--
29--
31--
37--
42--
46--
5--
54--
57--
6--
7--
70--
8--
80--
85--
86--
88--
9--
90--
93--
a--
aa--
ab--
abs--
ac--
ad--
add--
ae--
aeg--
af--
ag--
ak--
al--
allo--
am--
an--
ance--
ang--
any--
ap--
appo--
appro--
aqu--
ar--
arch--
art--
as--
asce--
astr--
at--
au--
auto--
az--
b--
ba--
bag--
bal--
bar--
be--
bel--
bene--
ber--
berk--
bi--
bib--
bibliog--
bio--
bis--
bla--
bo--
bor--
bos--
br--
bra--
brah--
bro--
broad--
budd--
bul--
bur--
butter--
by--
c--
ca--
cah--
cai--
cal--
camp--
can--
car--
carr--
ce--
cer--
ch--
chdoat--
chdoata--
che--
chi--
ching--
cho--
chro--
ci--
citiz--
cl--
clit--
co--
col--
coll--
com--
commu--
con--
conclu--
cons--
conser--
cont--
cook--
coord--
copy--
cor--
cr--
cre--
cu--
cur--
cy--
d--
da--
dal--
de--
dec--
decl--
demo--
demons--
depe--
des--
di--
dia--
dinos--
dis--
disam--
discog--
distri--
do--
dor--
down--
dr--
du--
dyna--
e--
ea--
eco--
ed--
edit--
ee--
ejacu--
el--
elec--
electi--
em--
emerg--
en--
epi--
equ--
er--
es--
esc--
et--
eu--
eug--
every--
evi--
ex--
exe--
exp--
ext--
f--
fa--
fac--
fal--
fe--
feat--
film--
fin--
fl--
fla--
fo--
for--
fou--
fr--
frag--
fre--
fu--
ful--
full--
fun--
fut--
g--
ga--
gastro--
ge--
gen--
gene--
get--
gha--
gi--
glor--
go--
gr--
gra--
gre--
grim--
gu--
h--
ha--
he--
head--
hes--
hi--
hil--
hmb--
ho--
hol--
home--
hon--
hor--
hr--
htm--
hu--
hum--
hym--
i--
ia--
id--
ident--
il--
illus--
im--
imp--
in--
indi--
india--
inf--
influ--
infr--
inst--
instru--
inter--
invo--
ip--
ir--
is--
it--
iv--
j--
ja--
jawa--
jia--
jil--
jo--
jor--
js--
ju--
k--
ka--
kal--
kan--
ke--
key--
kh--
kha--
ki--
kin--
kn--
ko--
kra--
kum--
kur--
l--
la--
lab--
lai--
lan--
lay--
le--
lea--
leg--
leis--
li--
list--
lo--
load--
lt--
lu--
lub--
m--
ma--
mag--
maha--
main--
mal--
man--
mar--
mat--
mb--
mbh--
me--
meas--
mega--
mela--
men--
mer--
mes--
meso--
mi--
mich--
micr--
mid--
mig--
mo--
mod--
mono--
mont--
mu--
munic--
mur--
mus--
my--
n--
na--
nap--
nav--
navi--
nd--
ne--
ner--
new--
news--
ng--
ni--
no--
nong--
nor--
note--
ny--
o--
obli--
occ--
oe--
og--
ok--
on--
oo--
opp--
or--
org--
ori--
orie--
os--
ot--
out--
over--
oy--
p--
pa--
page--
pal--
par--
para--
pat--
pay--
pe--
per--
ph--
pham--
phil--
pho--
phy--
pi--
pit--
pl--
po--
pol--
poly--
popu--
por--
pr--
pra--
pre--
prev--
pro--
profes--
pu--
pun--
pur--
py--
q--
qa--
qing--
qu--
que--
quo--
r--
ra--
rac--
rad--
radi--
re--
rece--
recog--
red--
ref--
reg--
relation--
remo--
res--
rhe--
ri--
rid--
ris--
ro--
ru--
s--
sa--
sacrif--
sak--
sar--
sard--
sce--
sch--
scor--
scr--
se--
sea--
sec--
sequ--
ser--
set--
sh--
shi--
si--
sig--
sit--
site--
sk--
sli--
sna--
so--
sol--
some--
sort--
sp--
spe--
spi--
spr--
st--
ste--
sto--
str--
stra--
su--
sub--
subst--
sugg--
sun--
super--
supp--
sur--
sw--
sy--
syll--
t--
ta--
tant--
tao--
tas--
task--
te--
teg--
tem--
ter--
test--
th--
the--
tho--
thumb--
ti--
time--
tingp--
to--
tok--
tor--
tou--
tr--
tra--
tri--
tro--
ts--
tu--
tur--
tut--
tw--
ty--
u--
uahw--
ul--
um--
umang--
un--
under--
uni--
up--
ur--
us--
use--
user--
ut--
uz--
v--
va--
van--
ve--
vi--
vic--
vo--
vol--
w--
wa--
wal--
war--
we--
wer--
wg--
wha--
whe--
wi--
wiki--
wil--
wo--
wor--
wp--
x--
xah--
y--
ya--
yama--
z--
ze--
zo--
ð--
ː--
θ--
κ--
μ--
ν--
τ--
χ--
в--
ка--
р--
ا--
ادر--
ال--
ب--
م--
ए--
क--
च--
ज--
त--
द--
ध--
प--
म--
य--
र--
ल--
व--
स--
१--
অ--
ই--
ঈ--
উ--
ও--
ক--
খ--
গ--
ঙ--
চ--
ত--
থ--
দ--
ন--
প--
ফ--
ব--
ম--
র--
ল--
শ--
স--
হ--
ৎ--
--0
--04
--1
--13
--2
--22
--3
--4
--5
--56
--58
--6
--61
--63
--67
--7
--74
--77
--79
--8
--809
--9
--91
--a
--aa
--able
--ad
--ae
--agi
--ah
--aho
--ai
--ain
--aine
--aj
--ak
--al
--ala
--ald
--all
--ally
--als
--am
--ame
--an
--ana
--ance
--ang
--ans
--aqbaj
--ar
--ard
--ary
--as
--ash
--astic
--at
--ata
--ate
--ated
--ates
--ath
--ati
--ating
--ation
--ations
--ator
--ators
--ats
--ature
--au
--aw
--ay
--ayaaj
--b
--ba
--bal
--ball
--bam
--berg
--bi
--ble
--bo
--box
--bu
--burg
--burn
--by
--c
--ca
--cal
--case
--cc
--cco
--ce
--ces
--ch
--chi
--ci
--cit
--ck
--co
--confirmed
--ct
--cted
--ction
--cy
--d
--da
--date
--de
--di
--dia
--do
--ds
--dy
--e
--ea
--ean
--eb
--ec
--ect
--ection
--ects
--ed
--ee
--ef
--ei
--ein
--ek
--el
--ely
--em
--en
--ence
--end
--eng
--ens
--ent
--ents
--ep
--er
--era
--eric
--erman
--ern
--erous
--ers
--ert
--ery
--es
--ese
--est
--et
--ets
--eus
--ev
--ew
--ey
--ez
--f
--fer
--ford
--forge
--form
--ft
--ful
--g
--ga
--gba
--ge
--ger
--gh
--ght
--gi
--ging
--go
--gs
--h
--ha
--ham
--han
--he
--hes
--hi
--hing
--hip
--ho
--hoo
--hs
--http
--https
--hu
--hub
--hv
--hw
--i
--ia
--iaaj
--ial
--ian
--ias
--ibi
--ic
--ica
--ical
--icht
--icia
--ician
--ick
--ics
--id
--ie
--ied
--ier
--ies
--iff
--ify
--ig
--ik
--ile
--in
--ina
--inate
--ine
--ing
--ings
--ini
--ino
--ins
--io
--ion
--ions
--ior
--ir
--is
--isation
--ise
--ised
--ish
--ism
--it
--ite
--ities
--itis
--itors
--ity
--ium
--ius
--ive
--ization
--ize
--ized
--j
--jam
--ji
--jing
--k
--ka
--ke
--ker
--ki
--kq
--ks
--l
--la
--label
--land
--lar
--ld
--le
--led
--ler
--lers
--ley
--lf
--li
--lin
--ling
--link
--list
--lk
--ll
--lle
--llenged
--lm
--lo
--lon
--ls
--lt
--lu
--lus
--ly
--m
--ma
--maaj
--man
--mas
--me
--mei
--ment
--mes
--mi
--mission
--missions
--mode
--ms
--n
--na
--name
--nburg
--nce
--nd
--ndra
--nds
--ne
--ned
--ner
--ness
--ney
--ng
--ni
--nia
--ning
--nis
--nk
--nn
--nna
--no
--ns
--nt
--ntly
--nu
--nue
--number
--nus
--ny
--o
--obj
--od
--oe
--ography
--ogy
--oi
--ok
--ol
--om
--on
--onal
--oni
--only
--ons
--op
--opher
--ops
--opt
--or
--ore
--ors
--ory
--os
--osa
--ot
--ou
--ous
--out
--ov
--p
--pa
--page
--path
--pe
--ped
--pedia
--ph
--phic
--phies
--phy
--ping
--plete
--pool
--port
--ps
--q
--qbaj
--que
--r
--ra
--racy
--ral
--ram
--ras
--rd
--re
--ref
--ren
--rey
--ri
--ria
--rian
--ric
--ring
--rius
--rk
--rl
--rn
--ro
--rry
--rs
--rt
--rum
--ry
--s
--sa
--sboro
--sch
--se
--sed
--ses
--sh
--shire
--si
--sia
--sian
--side
--sion
--sis
--sk
--ski
--so
--son
--ss
--st
--ster
--stic
--ston
--str
--stream
--sus
--sy
--t
--ta
--tal
--te
--ted
--ten
--ter
--tes
--tet
--text
--th
--ti
--tia
--tial
--tic
--tine
--ting
--tion
--tions
--tism
--title
--tive
--to
--ton
--tor
--tra
--tree
--ts
--tt
--tur
--tus
--ty
--tyles
--tyr
--u
--ua
--ual
--uality
--ud
--ue
--ug
--uk
--ul
--ular
--um
--une
--ung
--up
--ur
--ura
--ure
--uricomponent
--url
--us
--ux
--v
--va
--ve
--vo
--vy
--w
--wa
--ware
--way
--ws
--x
--xa
--xoecamqag
--y
--ya
--ym
--yma
--yo
--yu
--z
--za
--ze
--zi
--zia
--zio
--ɪ
--η
--ι
--ς
--υ
--и
--р
--ا
--ل
--ن
--ه
--ي
--ی
--न
--प
--म
--स
--ক
--খ
--গ
--দ
--ন
--ব
--ম
--শ
--স
