!
"
#
##0
##1
##10
##11
##12
##13
##14
##15
##16
##17
##18
##19
##2
##20
##21
##22
##23
##24
##25
##26
##27
##28
##29
##3
##30
##31
##32
##33
##34
##35
##36
##37
##38
##39
##4
##40
##41
##42
##43
##44
##45
##46
##47
##48
##49
##5
##50
##51
##52
##53
##54
##55
##56
##57
##58
##59
##6
##60
##61
##62
##63
##64
##65
##66
##67
##68
##69
##7
##70
##71
##72
##73
##74
##75
##76
##77
##78
##79
##8
##80
##81
##82
##83
##84
##85
##86
##87
##88
##89
##9
##90
##91
##92
##93
##94
##95
##96
##97
##98
##99
$
%
&
'
(
)
*
+
,
-
.
/
0
000
01
02
03
030
04
05
053
06
08
09
1
10
100
1000
1011
1012
1014
1015
1016
1018
1022
1023
1025
1026
1029
1030
1031
1032
1033
1034
1035
1036
1037
1038
1039
1040
1041
1042
1043
1044
1046
1047
1048
105
1052
1053
1054
1055
1056
1057
1058
1059
106
1060
1063
1064
1065
1066
1067
1069
1072
1073
1074
1075
1076
1077
108
1080
1081
1082
1084
1085
1088
1089
1090
1092
1093
1094
1095
1097
1098
1099
11
110
1100
1101
1102
1104
1105
1107
1108
1111
1112
1113
1114
1115
1118
112
1120
1121
1122
1123
1124
1125
1126
1127
1129
113
1130
1131
1132
1138
1139
1140
1141
1142
1143
1144
1145
1146
1147
1152
1153
1154
1155
1156
1157
1159
116
1161
1162
1166
1167
1168
1170
1174
1175
1176
1178
1179
1180
1181
1182
1184
1185
1186
1187
1189
119
1190
1192
1196
1197
1198
12
120
1200
1201
1202
1203
1204
1205
1206
1210
1212
1213
1214
1215
1216
1217
1218
1220
1221
1222
1223
1224
1225
1226
1227
1229
1230
1231
1232
1233
1235
1236
1237
1238
1239
1240
1241
1242
1244
1245
1246
1248
1249
1251
1252
1253
1254
1255
1256
1258
1259
126
1260
1261
1262
1263
1264
1265
1266
1267
1268
127
1270
1271
1272
1273
1274
1275
1276
1277
1279
1280
1282
1283
1284
1285
1286
1287
1288
1289
1290
1291
1292
1293
1294
1295
1297
1299
13
130
1300
1302
1303
1304
1305
1306
1307
1308
1309
1310
1311
1312
1313
1314
1316
1317
1318
1319
1320
1321
1322
1323
1324
1325
1326
1327
1328
1329
133
1330
1331
1332
1333
1334
1336
1337
1338
1339
1341
1342
1343
1344
1345
1346
1347
1348
1349
1350
1351
1353
1354
1356
1357
1358
1359
1360
1361
1362
1363
1364
1365
1367
1368
1369
137
1370
1372
1373
1374
1375
1376
1377
1378
138
1380
1382
1383
1384
1385
1387
1388
1389
1390
1391
1392
1393
1394
1395
1396
1398
1399
14
140
1400
1401
1402
1403
1404
1405
1406
1407
1408
141
1410
1411
1412
1413
1414
1415
1416
1417
1418
1419
1420
1422
1423
1424
1425
1426
1427
1428
1429
143
1433
1434
1435
1436
1437
1438
1439
1440
1441
1442
1443
1445
1446
1447
1448
1449
1450
1451
1452
1453
1456
1457
1458
146
1460
1461
1462
1463
1464
1465
1466
1467
1468
1469
1470
1472
1473
1474
1475
1476
1477
1478
1479
1480
1481
1482
1483
1486
1487
1488
1489
1490
1491
1492
1493
1494
1495
1496
1497
1498
1499
15
150
1500
1502
1503
1504
1505
1506
1507
1508
1509
151
1510
1511
1512
1515
1516
1517
1518
1519
1520
1521
1523
1524
1525
1526
1527
1528
1529
1530
1531
1532
1533
1534
1535
1536
1537
1538
1539
1540
1541
1542
1543
1544
1545
1546
1547
1548
1549
1550
1551
1552
1553
1554
1555
1556
1557
1559
1560
1561
1562
1563
1564
1565
1566
1567
1568
1569
1570
1571
1572
1573
1574
1575
1576
1577
1578
1580
1581
1582
1583
1584
1587
1588
1589
1592
1594
1595
1596
1597
1598
1599
16
160
1600
1601
1602
1603
1604
1605
1606
1607
1608
1609
1610
1611
1613
1614
1615
1616
1618
1620
1621
1622
1623
1624
1625
1627
1628
1629
1630
1631
1632
1634
1635
1636
1639
164
1640
1641
1642
1643
1644
1645
1646
1648
1649
1651
1652
1653
1654
1655
1656
1657
1658
1659
1660
1661
1662
1663
1664
1665
1666
1667
1668
1669
167
1670
1672
1673
1674
1675
1678
1679
1680
1681
1682
1683
1685
1686
1687
1688
1689
1690
1691
1693
1694
1695
1696
1697
1698
1699
17
170
1700
1702
1703
1705
1706
1707
1708
1709
1710
1711
1712
1713
1714
1715
1717
1718
1719
172
1720
1721
1722
1723
1724
1725
1726
1727
1728
1729
1730
1731
1732
1733
1735
1736
1737
1738
1739
1740
1741
1743
1745
1746
1747
1748
1749
175
1750
1752
1754
1755
1756
1757
1758
1759
1760
1761
1762
1763
1764
1765
1766
1767
1768
1769
1770
1771
1772
1773
1774
1775
1776
1777
1778
1779
178
1780
1781
1782
1783
1784
1785
1786
1787
1788
1789
1790
1791
1792
1793
1794
1795
1796
1797
1798
1799
18
180
1800
1801
1802
1803
1804
1805
1806
1807
1808
1809
1810
1811
1812
1813
1814
1815
1816
1817
1818
1819
1820
1821
1822
1823
1824
1825
1826
1827
1828
1829
1830
1831
1832
1833
1834
1835
1836
1837
1838
1839
1840
1841
1842
1843
1844
1845
1846
1847
1848
1849
1850
1851
1852
1853
1854
1855
1856
1857
1858
1859
1860
1861
1862
1863
1864
1865
1866
1867
1868
1869
1870
1871
1872
1873
1874
1875
1876
1877
1878
1879
1880
1881
1882
1883
1884
1885
1886
1887
1888
1889
189
1890
1891
1892
1893
1894
1895
1896
1897
1898
1899
19
190
1900
1901
1902
1903
1904
1905
1906
1907
1908
1909
1910
1911
1912
1913
1914
1915
1916
1917
1918
1919
1920
1921
1922
1923
1924
1925
1926
1927
1928
1929
1930
1931
1932
1933
1934
1935
1936
1937
1938
1939
1940
1941
1942
1943
1944
1945
1946
1947
1948
1949
1950
1951
1952
1953
1954
1955
1956
1957
1958
1959
1960
1961
1962
1963
1964
1965
1966
1967
1968
1969
197
1970
1971
1972
1973
1974
1975
1976
1977
1978
1979
1980
1981
1982
1983
1984
1985
1986
1987
1988
1989
1990
1991
1992
1993
1994
1995
1996
1997
1998
1999
2
20
200
2000
2001
2002
2003
2004
2005
2006
2007
2008
2009
2010
2011
2012
2013
2014
2015
2016
2017
2018
2019
2021
2022
2023
207
209
21
212
217
22
220
221
224
225
23
230
234
236
24
240
247
25
250
252
253
26
260
268
27
276
28
2800
29
3
30
300
308
31
313
3166
32
322
323
324
328
33
338
34
342
346
35
350
354
355
36
360
37
370
38
380
381
39
4
40
400
4000
406
409
41
410
417
42
420
4217
422
427
43
44
440
444
45
450
46
462
464
47
476
477
48
49
495
496
499
5
50
500
5000
507
51
510
514
52
520
53
530
54
55
550
56
57
577
579
58
582
583
6
60
600
602
61
62
63
636
64
640
648
65
66
660
670
68
680
684
690
7
70
700
71
72
73
730
74
743
75
750
756
76
768
77
777
78
780
79
799
8
80
800
81
810
82
83
830
832
84
842
843
845
848
85
850
851
854
86
8601
861
868
87
88
880
9
90
900
91
916
918
919
92
924
93
934
936
95
96
960
962
97
973
977
98
980
985
989
99
:
;
=
>
?
@
\
_
`
a
aar
aaron
ab
aba
abandon
abandone
abandonne
abandonnen
abaq
abaqa
abat
abba
abbas
abbasid
abbassid
abbasyal
abbay
abbaye
abbe
abd
abdali
abdalla
abdallah
abdalwadid
abdikasyon
abdike
abdullah
abe
abel
abi
abidin
abitchwe
abite
abitid
abiye
ablon
ablono
abo
aboli
abolisyon
abolisyonnis
abomey
abondan
abondant
aborijenn
abou
about
abouti
abraham
abrahamik
abre
abrite
absan
absans
abso
absoli
absolitism
abstraksyon
abstre
abu
abul
ac
academia
acapulco
acceptable
access
accessdate
aceh
ach
acha
ache
achiv
achte
achve
aconcagua
acoustic
acre
act
ad
adal
adalbert
adam
adams
adan
adana
adaptasyon
adapte
ade
adel
aden
adham
adi
adid
adiksyon
adil
adilt
adisyon
adisyone
adjasan
adje
adjwen
adjwenn
adme
administrasyon
administratif
administrativ
administrativman
administrato
administre
adn
ado
adole
adolf
adolphe
adopsyon
adopte
adorasyon
adorno
adre
adryatik
adve
ae
af
afar
afchar
afdhal
afe
afen
afgan
afganistan
afghan
afghanistan
afichaj
afiche
afirmasyon
afirme
afirmen
afliyan
afonso
afranchi
afre
afrik
afrikans
afriken
afrikenn
afro
afronte
afrontman
ag
agadir
agatha
agha
aglome
agne
agouda
agra
agrandi
agre
agrikilito
agrikiltir
agrikilto
agriko
agro
agroe
agronomi
agse
agsidante
agsyon
agsyonne
agtif
agtivite
agto
aguado
ahmad
ahmadnagar
ahmed
ahmet
ai
aibak
aigue
aime
ainsi
air
aires
aitegin
aix
aj
ajami
ajan
ajans
ajansman
aje
aji
ajitasyon
ajmer
ajou
ajoute
ak
akaba
akade
akadjen
akan
akbar
ake
aki
akil
akimilasyon
akimile
akiz
akize
akizisyon
ako
akole
akonpagne
akonpangen
akonpli
akoz
akronim
akrwat
aks
akse
aksidan
aksidante
aksoum
aksyomatik
aksyon
aktif
aktiv
aktivite
akto
akwatik
al
ala
alain
alam
alamut
alan
alantou
alaouit
alaska
alaungpaya
alaungsithu
albane
albani
albannen
albe
albert
alberto
albina
albora
albrecht
album
albuquerque
alcala
alcaude
ale
aledo
aleksann
alep
alessandro
alex
alexander
alexandre
alexandri
alexandrie
alexis
alfa
alfonso
alfred
alg
alge
alger
alghu
algoritm
alhambra
alhucemas
ali
alighieri
alignman
alimaj
aliman
alimantasyon
alimante
alinisaj
alitigin
alivyal
alix
alize
alje
alkoolize
alla
allah
allan
allemand
alliance
allmusic
allows
almagn
almagro
almaligh
alman
almann
almeida
almohad
almohade
almoravid
almugavar
alo
aloa
alonje
alonso
alonzo
aloukou
alp
alpen
alpha
alphonse
alsace
alt
altan
altans
alte
alternans
altiplano
altitid
altuniya
aluminium
alvarado
alve
alves
alyaj
alyans
alye
alzasyen
alzheimer
am
amadeus
amand
amar
amari
amaru
amato
amaury
amazonas
amba
amber
amboine
amda
ame
america
amerigo
amiens
amiral
amlak
ammad
amo
amou
amour
amoursana
amphibia
ampir
amplwa
amsterdam
amundsen
an
ana
anaclet
anagni
analitik
analiz
analize
analoji
analojik
analytik
ananda
anarchi
anarchism
anathe
anatoli
anatomi
anba
anbarke
anbasad
anbasado
anbiskad
anbisyon
anble
anbranchman
anbriyon
anche
ancien
anco
and
andalou
andalouz
andalouzi
andan
ande
anden
andidan
andikape
andjwi
andkhoui
andre
andrea
andriamandisoarivo
andronic
andrwa
ane
anfe
anfen
anfibyen
anfonse
anfwi
ang
angaje
angajman
ange
angela
angeles
angelovic
angers
angile
angkor
anglais
angle
anglo
anglobe
anglofonn
angola
angoule
angoulenm
anguilla
anh
ani
anime
animis
anisogam
anj
anjandre
anje
anjen
anjou
ankadre
ankara
anke
anklav
anklave
anko
ankouraje
ankre
anlman
anlve
anmanpa
anmanzonnyen
anmato
anme
anmikal
anmo
anmon
anmoure
ann
annam
annan
annankonda
annanmit
annapolis
anne
anng
anngle
annglo
annile
annimen
anniye
anno
annonse
annyen
anomali
anons
anonse
anparan
anpare
anpe
anpir
anplasman
anplitid
anplo
anplwa
anplwaye
anplwayo
anpo
anprann
anprantisaj
anpre
anpren
anprente
anprizonnen
anpro
anpwazonnen
anre
anrichi
anrout
ans
ansanm
anse
anselme
ansent
anshi
anski
anso
ansole
answe
answit
ansyen
ansyenn
ansyennman
ant
anta
antalya
antan
antanmen
antann
antargtik
antarktik
antche
ante
anthony
anti
antibiotik
antibyotik
antigua
antigwa
antijenn
antik
antikite
antiko
antilatlas
antioch
antioche
antipap
antisiklonn
antisipe
antite
antiye
anto
antoine
antoku
antoni
antonio
antoure
antr
antrave
antre
antrenn
antrennen
antropoloji
antropolojik
antrot
antrouprann
antroupriz
antwe
antye
anv
anvan
anvayi
anvayiso
anve
anven
anvers
anvi
anviron
anvironnman
anvironnmantal
anvizaje
anvlop
any
anyen
anyon
ao
aou
ap
apa
apalach
apanaj
aparaman
aparanman
aparans
aparant
aparante
apare
aparisyon
aparte
apartman
apartnans
apartni
apatou
ape
api
apiye
aple
aplikasyon
aplike
apo
apoje
apollo
apostolik
appele
apple
apr
aprantisaj
apre
apro
aprobasyon
aproche
aprogsimativman
aproksimasyon
apropo
aprosikmativman
aprouve
aprovizyonnen
apt
aptitid
apulie
aq
aquin
aquitaine
ar
arab
arabe
arabi
arabik
arabo
arad
aragon
aragone
araj
aral
araucans
arauco
arawak
arawakyen
arbale
arbit
arbitral
arbitre
arc
archaea
arche
archime
archipe
archipel
archite
archived
arcot
are
arengnen
ares
arg
argentina
argentine
arghoun
arghun
argimante
argovi
argtik
arguin
argyre
argyros
ariane
arianespace
aribert
arid
aridite
ariq
arish
aristokrasi
aristote
aritme
arizona
arjan
arjantin
ark
arkansas
arkayzan
arke
arkiko
arktik
arles
arm
armada
armagnac
armato
arme
armstrong
arn
arnaud
aron
arondisman
arouba
arouktai
arouktay
arran
arras
arse
arslan
art
artah
arte
arthur
article
articles
artifisye
artik
artikile
artiri
artis
artistik
artizan
artois
aruba
arudj
arye
as
asanblaj
asanble
asandan
asandans
asansyon
asantehene
asasen
asasina
asasine
asasinen
ascalon
ascension
ase
ashanti
asheton
ashikaga
ashraf
asid
asigne
asilah
asimilasyon
asimile
asire
asiri
asiste
asiz
askia
asm
aso
asosyasyon
asosye
asou
association
assouan
aste
astrakhan
astrofizik
astrono
astronom
astronomi
astronomik
asuncio
asuncion
asv
asye
at
atabeg
atabek
atabey
atacama
atache
atahualpa
atak
atake
atann
atansyon
atanta
atchwalite
atchwe
ate
atenn
atent
athanase
athe
atirans
atire
atitid
atlantik
atlas
atle
atmo
atmosfe
ato
atoll
atom
atomik
atomm
atraksyon
atrave
atribiye
atribwe
atrice
atrisyon
atsiz
attertag
attila
au
audiencia
auf
augsbourg
august
augusta
auguste
augustin
augustine
aunis
aurangzeb
aurum
aus
austin
australis
aux
auxerre
av
ava
avan
avant
avantaj
avantirye
ave
avec
avennman
aversa
aveugle
avicenne
avignon
aviz
avo
avril
avwar
avwe
avyon
awala
away
awayen
ayas
ayavilu
aydın
ayiti
aymara
aymerich
aynou
ayo
ayodhya
ayourchiridhara
aysyen
ayti
ayutthaya
ayyarun
ayyoub
ayyoubid
ayyub
ayyubid
az
azam
azamor
azaz
azcapotzalco
azerbai
azerbaydjan
azhar
azi
azo
azte
azuchi
azyatik
aɪ
aɪə
aʊ
aʊə
b
ba
baalbek
baba
babe
babors
babylone
babylonyen
bac
bacaffa
bach
bad
bade
badis
badr
bag
bagaj
bagdad
bagrat
baguirmi
baha
bahadur
bahamas
bahayism
bahia
bahlul
bahmani
bahra
bahrit
bai
bairam
baji
bak
baker
bakhtiyar
bakr
baksh
bakte
bakufu
bal
balaji
balak
balasagun
balata
balba
balboa
baldwin
bale
balenn
bali
balkan
balkanik
balkans
balkh
balon
baltik
bamberg
bambouk
ban
bananeraie
banat
banda
bandan
bande
bang
bangladesh
bangn
bangna
banke
banks
bankye
bann
bannann
banngko
banni
bannisman
bannye
bano
banten
bantou
banu
baptiste
bar
barack
baraj
barak
barase
barbad
barbadin
barbar
barbare
barbari
barbe
barberousse
barbouda
barbuda
barcelone
bare
barents
barfleur
bari
barke
barkman
barkyaruq
barnabe
baro
baroa
baron
barrameda
barre
barreto
barsbay
barte
barthe
bartolome
bartolomeo
bartolomeu
barye
bas
basa
basen
basile
basileus
bask
baske
baskilman
basse
bassein
bassorah
basti
bastien
bastille
bat
bata
batavia
batay
batayon
batenm
bati
batiman
batini
batize
bato
baton
batri
battu
battuta
batu
baudouin
bautista
baux
bavarwe
bavie
bavye
bay
bayan
bayazid
baybars
bayeux
bayezid
bayinnaung
baz
baze
bazilik
bcde
bce
be
bear
beatles
beauclerc
beaufort
beaugency
beaujeu
beaulieu
beauvais
bec
beck
bedford
beer
beethoven
beg
beijing
beki
bel
belalca
bele
belgie
belgique
belgrade
bell
bellevue
belski
ben
bena
benedetto
bengal
bengali
bengalo
bengnen
benjamin
benoi
benyen
benzwen
ber
berar
berbice
berghouata
berhan
berke
berkeley
berlin
bermudes
bermudez
bernard
bernardo
berne
bernhard
berry
bertrand
bey
beylerbey
beyrouth
bha
bhagavad
bhonsla
bi
bibliyografi
bibliyote
bicci
bidim
bidje
big
bihar
bikaeff
bikame
bil
bilate
bilbe
bilbeis
bile
bilenng
bilgar
bilgari
bill
billah
billie
bilyon
bin
binckes
bine
bio
bios
bir
bird
birkina
birman
birmani
birmanni
biro
bis
bise
bisekstil
bisikle
biske
biso
bit
bitasyon
bite
biten
biye
bizans
bizanten
bizantin
bizon
bizonn
bje
blake
blan
blanch
blanng
blasco
blazon
ble
bli
blica
blije
blisman
bliye
blo
blocus
blois
blokaj
bloke
bloody
blues
bman
bn
bo
bob
bobilna
bodawpaya
bodin
boer
bogdan
bogota
bohe
bohr
boina
bojador
bokou
bol
boleslas
boli
bolivar
bolivaryen
bolivi
bolivyen
bombay
bon
bonaire
bonaparte
bonbarde
bonbardman
bondje
boniface
bonjou
bonm
bonmanten
bonn
bonne
bonni
bonno
bono
bonte
boqa
bora
bord
borde
bordeaux
boris
borne
bornou
boromtrailokanat
borsoki
bosni
boson
bosse
boston
bostonn
boswash
bot
botaniate
botanik
botannik
botannis
botany
both
bots
botswana
bou
bouch
bouche
bouchinennge
bouchou
boucicaut
bouddha
bouddhik
bouddhis
bouddhism
bouddism
boudism
boue
bougainville
bougie
bouillon
bouji
bouk
boukannye
boukhara
boukle
boukliye
boul
boule
boulogn
boulour
boulva
boulve
boulye
boum
bounty
bouqa
bour
bourbon
bourdonnais
bourg
bourges
bourgignon
bourgo
bourgogn
bouri
bourjwa
bourjwazi
bours
bous
bouskile
boute
boutik
boutoumite
bouvet
boven
bowenm
boy
boyard
bra
brabant
brachamios
bral
branch
brankovic
branle
bras
brasil
brasri
brava
brayik
bre
bren
brescia
brest
bretagne
bretislav
breu
bri
brienne
briga
brigan
brigra
brigse
brik
brindisi
bristol
brit
britain
brital
britangn
britanik
britannik
british
briyan
briye
brize
bronch
bronz
brous
brouye
brown
browning
bruce
bruges
bruno
brunswick
bruxelles
bryenne
bse
bstak
bte
bu
buda
buenos
buir
bukka
bundela
bur
burgos
burhanpur
burjit
bursuqi
bus
but
buyid
buzurg
bwa
bwason
bwaze
bwazman
bwe
by
bye
byen
byene
byento
byo
byochimi
byochimik
byodive
byofizik
byografi
byografik
byoje
byoloji
byolojik
byosfe
byote
byzanten
c
ca
cabeza
cabildo
cabo
cabot
cabral
cadix
caen
caesar
cahors
cai
caishi
calc
calcutta
caledonia
calicut
calixte
callao
calles
cambrai
campo
can
canada
candombe
canossa
cantacuze
canton
cantorbe
canut
canyon
cap
capoue
cappadoce
car
caracas
carbets
carcassonne
carl
carlos
carnatic
carnaval
caroline
carolus
caron
carondelet
carr
cartagena
carthage
cartier
casa
casai
casas
casco
casimir
cassin
castillans
castillo
castro
castu
cat
catane
category
cathare
cathares
catherine
catholique
cauchy
cavelier
cavendish
cayenne
cc
cd
cdu
ce
cebu
ceca
ceceo
cee
centeno
center
central
cerda
cerro
cervantes
ceuta
ceylan
cf
cfc
ch
cha
chacarera
chaco
chah
chaje
chak
chaken
chakin
chal
chalo
chaloup
chamanism
chambe
chambellan
chamorro
champa
champagn
champagne
champlain
chan
chande
chandernagor
chandos
changamire
chanj
chanje
chanjman
chanm
chanmben
chanmon
chanpignon
chans
chanse
chantche
chante
chantilly
chantiyon
chanto
chanv
chao
chape
chapelle
chapit
char
charbon
charj
charje
charlemagne
charles
charleston
charlie
charru
chart
chartres
chas
chase
chaso
chat
chato
chaton
chauvet
chaybanid
chayzar
che
chef
cheik
cheikh
chen
chenn
cher
cherchell
chez
chhatrapati
chi
chiang
chicago
chien
chif
chiism
chiit
chiite
chikago
chikye
chile
chili
chilyen
chimalpopoca
chimen
chimi
chimik
chimikman
chimis
chin
china
chine
chinon
chinwa
chinwaz
chinwe
chios
chip
chipitts
chipriyo
chips
chiraz
chire
chirin
chism
chit
chitor
chive
chman
chn
cho
choa
chod
choda
chofaj
chofe
chofman
chokola
chola
chopin
chorde
chose
choso
chouart
chouval
chouvalri
chouvalye
chre
christian
christie
christmas
christophe
chu
chucai
chupan
chwa
chwe
chyen
ci
cientifica
cilicie
cio
city
cl
clairvaux
claude
cle
cleveland
cliff
clive
club
cluny
cm
cn
cnes
co
coaque
cochin
cocos
cocuy
cod
code
coelho
cogneau
coi
coimbra
col
college
colo
colocolo
colomb
colonia
colonna
columbia
com
comme
commons
commonwealth
community
comne
compagnie
company
compie
compostelle
comte
con
conan
concorde
conde
confucius
connecticut
conque
conquistador
conquistadores
conrad
consensus
constance
constantin
constantinople
constructeur
consulte
coo
cook
cool
copenhague
copernic
copiapo
corbeil
cordoue
cornaro
cornelis
cornelius
cornouailles
cornwallis
corpus
corso
corte
cortes
corvin
cosme
costa
coumans
count
country
court
courteheuse
courtenay
cow
cracovie
cranganore
cre
create
creeks
crispin
croix
cruel
cruz
cs
cu
cuba
cue
culhuacan
culiaca
cultes
culture
cunha
curac
curie
cuzco
cy
cyclades
cyrus
cœur
d
da
dabo
dadu
dahomey
dahra
dai
daigo
daijo
daimbert
daimyo
daka
daksyon
dal
dalai
dalay
dale
dali
dallas
dalton
daman
damas
damasce
dame
damiette
damo
dampier
dan
danakil
danbwa
danegeld
danichmend
daniel
danje
danm
dannakil
dannmark
dannwa
dannye
dans
danse
dansinng
dansite
danso
dant
dantarizasyon
dante
danube
danwa
daouaro
daoud
dapre
darajat
dard
dardanelles
daria
darie
daritai
dark
darwin
das
dashan
dashi
dat
data
datan
date
daud
daulat
daulatabad
dauphin
davantaj
dave
david
davis
dawit
dawla
dawlat
day
dayan
dayo
de
debra
debre
dec
deccan
default
dei
dekkan
dekoupe
del
delaware
delhi
della
delta
demerara
demere
deming
dengel
denis
deportivo
der
derbent
deryck
des
desanm
descartes
description
despot
desse
deus
deutsch
deux
deva
devagiri
devana
devanagari
dey
dh
dhava
di
dia
diamant
diarmait
dias
diata
dible
dibout
dicis
dickens
die
diego
diemen
dieppe
dieppois
dife
difikilte
difis
difisil
difisilman
difize
difizyon
diftong
difye
dig
dignite
digsyonne
digtatir
dije
dik
dikal
dikaman
dikas
dikase
dikasyon
dikatif
dikato
dike
diksyon
diktatir
dikte
dila
dile
dilo
dilwil
dimanch
dimanche
dimansyon
dimante
dimbourg
dimi
diminisyon
diminiye
diminwe
diminye
dimitri
din
dinamik
dinanmik
dinar
dinasti
dinastik
dinozo
dinyite
diogo
dipen
dipi
diplis
diplom
diplomat
diplomatik
diplonm
diplonmasi
diplonmatik
dir
dire
dirijan
dirijant
dirije
dirnt
dis
disan
disansyon
dise
disette
disgras
disip
disiplin
disipline
disk
diskisyon
diskite
diskontinwite
diskou
diskour
diskre
diskriminasyon
diskriminatwar
dislokasyon
disman
disnati
disney
disou
dispare
disparisyon
dispe
dispite
dispoze
dispozisyon
dispozitif
distans
distenge
distengsyon
distenk
distenksyon
distiri
distribisyon
distribiye
district
distrik
disyon
disyonne
dit
ditasyon
dite
ditions
dito
diu
divan
dive
diven
diver
divin
divini
divinite
divize
divizo
divizyon
dizangn
dize
dizenn
dizwit
dizyenm
dj
dja
djab
djabe
djafragm
djaghatai
djagnostik
djagranm
djahal
djakritik
djala
djale
djaloge
djamali
djame
djamuka
djan
djanman
djaspora
djasyon
djat
djate
djatman
djato
dje
djebe
djebel
djen
djenne
djeper
djerba
djibouti
djidjelli
djigsyon
djihan
djo
djoddala
djojenn
djopopo
djose
djouder
djouka
dju
djunayd
djurdjura
djwi
djwit
dk
dla
dm
dmitri
do
dobroudja
doc
dofen
dofinen
dog
doine
doj
dokiman
dokimante
dolar
dolgorouki
dollar
doloji
dom
domain
domaj
dombo
dome
domenico
domenn
domenng
domestikasyon
dominant
dominasyon
domine
domingo
dominik
dominikenn
dominion
dominique
don
donald
donasyon
done
dongola
donk
donmenn
donmenng
donminan
donminant
donminasyon
donminen
donminiken
donnate
donni
donnyen
dorado
dore
dorgon
doria
dos
dostoi
dosye
dote
dou
douard
doub
double
douche
doue
douin
douk
doukkala
doulo
douloure
doumande
doumann
doume
doumo
dounama
dourab
douran
doure
douri
dourte
dous
dout
doute
douv
douvini
douwa
douz
douzyenm
down
doyle
doz
dracul
dragon
drake
dral
dram
dramatirj
dranm
dranmatik
dranmatirj
drapo
dre
drennen
dreyfus
dro
drogon
drom
drunk
drwa
drwe
dsen
dsin
dt
du
duarte
dublin
duc
ducasse
ducats
dun
dupleix
duquesne
dur
duras
durazzo
durrani
duzong
dvd
dvg
dwa
dwann
dwe
dya
dye
dyoksid
dz
dza
dzoungar
dzoungari
dzoungarie
e
eanes
east
easton
eau
ec
eccle
ech
echantiyon
ed
edesse
edgar
edison
edjell
edmond
edo
edough
edward
efeo
efo
egmont
egy
ehir
eiffel
einstein
ek
ekstern
ekstre
el
elbe
eldorado
ele
electric
elektwonik
eli
elias
eliot
elizabeth
elmina
elvis
em
emmanuel
emperesse
en
encomienda
end
ende
endenmnite
endife
endijenn
endikasyon
endikatif
endike
endiljans
endire
endistri
endistriyalize
endistriye
endividi
endividjwe
endjen
endjenn
endjwi
endo
endochinwe
endone
endonne
endou
endouism
endoustani
endoustanni
endyen
endyenn
enfan
enfantil
enfe
enfini
enfinite
enfirmye
enflamasyon
enflamatwe
enflasyon
enflije
enfliyan
enfliyans
enfliyanse
enfliye
enfo
enformasyon
enformatik
enfrarouj
enfrastriktir
enfriktche
eng
england
engre
enje
enka
enkande
enkapab
enkarnasyon
enkarse
enkirsyon
enkli
enkline
enko
enkonne
enkonple
enkye
enn
ennmi
enpe
enpilsyon
enplantasyon
enplante
enplike
enplisit
enpo
enposib
enpozan
enpoze
enprannab
enpre
enprime
enprimen
enprimri
enpwisan
ens
ensadje
ensandi
ensandje
ense
ensi
ensidan
ensifizans
ensifizant
ensile
ensire
ensirje
ensite
enskri
enskripsyon
enspirasyon
enspire
enstab
enstabilite
enstalasyon
enstale
enstans
enstigasyon
enstitchwe
enstitisyon
enstitisyone
enstitisyonne
enstorasyon
enstore
enstriksyon
enstriman
enstrimantal
enstrouman
enstrwi
entans
entansite
entansiv
entansyon
entchwitiv
ente
entern
enternasyonal
enteryo
entitile
entrense
entrig
entrodiksyon
entrodjwi
entronizasyon
entronize
entronnize
envansyon
envante
envanto
envantorye
envaryab
envazyon
enve
envite
envizib
eo
ep
epi
er
erectus
erevan
eric
erik
eriksson
ernest
ernst
erta
erzincan
erzurum
es
esa
escobar
esen
esequiba
eskender
esp
espagn
espagnol
espan
espe
esprit
essequibo
essex
est
este
estime
estre
et
etap
etc
ete
eu
eube
euclide
eudes
euge
euler
eunuque
euratom
europa
eustache
eustatius
ev
eva
everest
evski
ex
ez
eɪ
eɪə
f
fa
fabrikasyon
fabrike
face
facto
fak
fakilte
faksyon
fakto
faktori
fal
fale
falls
falmouth
famagouste
fame
famin
fan
fancheng
fanm
fanme
fanmi
fanmilyal
fanmilye
fann
fans
fanso
fantastik
farad
faraday
faradj
farin
faris
farmasyen
farrukhsiya
fars
fas
fasad
fasil
fasilite
fasilman
faso
fason
fasonnen
fatajar
fath
fatig
fatih
fatimid
favard
favo
favorab
favori
favorize
fayette
faz
fdg
fdrpe
fe
feb
february
federmann
fei
felipe
felix
feminism
fen
fenlann
fer
ferdinand
ferghana
ferna
fernand
fernandes
fernandez
fernando
ferrare
ferry
fert
festivals
fi
fib
fiche
fide
fidji
field
fifteen
fig
figi
figir
figire
figs
figse
figurait
fij
fiji
fijitif
fijye
fika
fikas
fikasite
fiks
fikse
fiksyon
fil
filaman
filangieri
file
filipin
filipinas
film
filmine
filoje
filozo
filozofi
filozofik
filyal
fime
fimen
fin
final
finalman
finans
finanse
finansman
finansye
fine
fini
finiman
finisman
finisyon
finitif
finitiv
finitivman
fiodor
fire
first
firuz
firye
fis
fish
fisit
fiskal
fiskalite
fisyan
fisyans
fisye
fisyon
fitir
five
fiyansay
fize
fizik
fizisyen
fizo
fizyoloji
fizyolojik
fizyon
fizyonnen
flacourt
flag
flagrasyon
flaman
flandre
flandres
flanm
flanman
flann
fle
flibistche
fligs
flitchwe
flivyal
flo
floral
florans
floranten
flore
florence
florid
flour
flower
flux
flwid
fmi
fo
fobour
foche
fodre
foix
folk
folklore
fon
fondamantal
fondanmantal
fondasyon
fondato
fondatsyon
fonde
fondre
fonenm
fongsyon
fongsyonne
fongsyonnman
fonik
fonksyon
fonksyone
fonksyonman
fonksyonne
fonksyonnen
fonksyonnman
fonn
fonne
fonnik
fonnman
font
fontaine
football
for
fore
forestie
form
forme
formis
formosa
fort
fortifye
fos
foscari
fosil
fot
foto
fotograf
fotografi
fotografik
fotografye
foton
fotosente
fou
foul
foule
foulque
foulques
foundj
four
fourier
fourir
fourne
fourni
fournitir
fouta
foutbo
fouy
fouye
fox
fr
fra
fragman
fragmantasyon
fragmante
fragte
frajil
fraksyon
fraktir
fran
franc
france
francesco
francfort
franchi
franchisman
francie
francis
francisco
franco
frangfo
frank
franklin
franko
frankofonn
frans
franse
fransi
fransik
fransisken
franz
frap
frape
frat
frate
fraternite
fratrisid
fray
fraz
fre
free
fregoso
freiheit
freud
friday
friedrich
frije
frison
frobisher
from
fromaj
fron
fronmaj
fronmen
fronmitir
frontalye
frontche
frontenac
frontye
fructus
frwi
fu
fujian
fujiwara
fuku
fungi
futuna
fwa
fwar
fwaye
fwe
fwi
fwit
fye
fyzik
fœtus
g
ga
gabe
gabon
gabriel
gabriele
gade
gadyen
gae
gaje
gajman
gal
gala
galaksi
galant
galayko
galdan
gale
gales
galibi
galile
galion
galis
galisyen
galitch
galite
galize
gallipoli
galman
galo
galopo
galyon
gam
gama
gambia
game
gamma
gan
gana
ganbi
gand
gandhi
gandja
gangan
gange
gangnen
ganm
gansu
ganyen
gao
gaozong
gar
gara
garanti
garci
garcia
gard
garde
gari
garnizon
garote
garoule
gasca
gasko
gaspar
gaspard
gaston
gastro
gastronnonmi
gasyon
gat
gatif
gato
gaulle
gauss
gautier
gaz
gaza
gaze
ge
gele
gempei
gen
gengis
gengiskhanid
genpei
gens
geoffroy
george
georges
gerais
germain
germanische
gertrude
ges
gf
gh
gha
ghalughara
ghana
ghaniya
gharb
ghazan
ghazi
ghazne
ghazni
ghiya
ghiyath
gho
ghori
ghu
ghurid
gi
gibelet
gibelin
gibelins
gid
gide
gil
gilasyon
gilbert
gile
gilgamesh
gilles
gilye
gim
gina
gine
giordano
giovanni
gisanbour
gisors
gita
gitaris
giuseppe
give
gize
gizeh
gje
gl
glann
glas
glasasyon
glasyal
glasye
gle
gleb
glencoe
glijab
glije
glisman
gliz
glo
global
globalman
globil
gloucester
glwar
glycosurie
gman
gmantasyon
gmante
gmaron
gn
gne
gnik
gnman
gno
gnon
go
goa
gobi
gobind
goch
godefroy
godounov
goens
goethe
gogh
goire
golconde
golf
golkonda
golwa
gomera
gomes
gon
gonc
gondar
gonde
gonfalonye
gong
gonn
gonza
gonzalo
goods
gordon
gore
gori
goryen
goryeo
gos
gosyan
gosyasyon
gosye
gotik
gotland
gottfried
gou
goulette
gour
goutle
gouve
gouvernman
govin
govinda
gra
grace
gradasyon
grade
gradjan
gradjwe
graf
grafi
grafik
grafit
gragne
graham
gral
grame
gramine
gran
grand
grande
grando
granmantikal
granme
granmoun
grann
grannman
gransanti
granth
gras
grasyon
grat
grav
grave
gravir
gravitasyon
gravitasyone
gravite
gre
great
greco
green
grek
gren
grenn
grenville
grepont
grey
grimaldi
grite
grito
griye
gro
groenland
gronde
gros
grose
groseilliers
grosye
group
groupe
groupman
growennlann
gs
gse
gsid
gsidan
gsidantal
gsijenn
gsik
gsikal
gsiken
gsiko
gsimite
gsitan
gsite
gspansyon
gspe
gspre
gstansyon
gste
gstil
gstre
gstrenm
gstrenmite
gsyon
gsyonnen
gta
gtak
gtal
gtchwe
gte
gtif
gtir
gtiral
gtiv
gtivite
gtivman
gto
gtonnik
gtora
gtoral
gtrin
gtrwaye
gtwe
gu
gua
guadalajara
guaimar
guajira
guam
guangdong
guangxi
guano
guanta
guararapes
guatemala
guayana
guayaquil
gue
gueldre
guelf
guelfes
guerra
guesclin
gui
guide
guillaume
guine
guisanbourg
guiscard
guise
guizhou
gujarat
gujerat
gun
guo
guru
gus
gustave
guy
guyanais
guyane
guyodo
guzma
gwadloup
gwadloupe
gwaranni
gwate
gwiyane
gwiyann
gwiyannan
gwiyannen
gwiyannyen
gwiyenn
gwo
gyatso
gypte
gzagonn
gzaje
gzak
gzakman
gzaksyon
gzalte
gzanmen
gzanp
gzanpte
gzas
gzase
gze
gzijans
gzije
gzike
gzil
gzile
gzistan
gzistans
gziste
gzo
gzoske
gzostif
gzostiv
h
ha
haakon
hab
habana
habsbourg
habsbourgen
hadley
hafsid
hai
haidar
hair
hakim
hakka
halley
ham
hamadan
hambourg
hammad
hammadid
hammouda
hammurabi
hampshire
han
hanazono
hangzhou
hanja
hanoi
hans
hanse
hanthawaddy
haoussa
haqq
harald
harar
hardi
hareng
harihara
harim
haripunchai
harold
harran
harry
hasan
hashashin
hassan
hassoun
hastings
hattes
haute
hauteville
havane
hay
hayam
haydar
haye
he
hebei
hector
heian
helle
henan
henri
henry
herat
herbert
hermann
herna
hernando
hessois
heures
hi
hicham
hidalgo
hideyoshi
higgins
high
hilbert
hill
himalaya
hindi
hindou
hindouism
hip
hira
hirado
hiroshima
hispaniola
hitler
ho
hohenstaufen
hokkaido
hokusai
holocauste
holstein
home
homo
homs
honduras
honfleur
hong
hongwu
hop
horde
horikawa
horn
hot
hottentots
houlagid
houlagou
housecat
houtmann
hoysala
http
https
hu
huai
huang
huarina
huascar
huaxte
hubble
hubei
hudson
hugo
huguenots
hugues
hui
huizong
humbert
hun
hunan
hunyadi
hurons
hus
husayn
huseyin
hussain
hussein
hussit
hutin
huygens
hydera
hyderabad
hydrochaeridae
hydroje
i
ia
iaroslav
iast
ib
ibe
ibelin
iberville
ibn
ibrahim
ice
iceberg
icebergs
iconium
id
ida
idantifye
idantite
ide
ideas
idjonm
idris
idroe
idrografik
idroje
idrojenn
idrokarbir
idrolik
ie
ier
ieyasu
if
ifat
ifriqiya
iggy
ignorans
ignore
igor
ii
iie
iii
iiie
ij
ikbal
ikki
ikko
ikonn
il
ila
ilbari
ile
ili
ilia
iliade
ilias
ilistrasyon
ilistre
ilkhan
ilkhans
ille
illinois
ilte
iltim
iltrape
iltravyole
iltutmish
ilya
ilyas
im
ima
imaj
imajine
imajri
imans
imc
ime
imen
imid
imidite
imigran
imigre
imil
iminite
imjin
immans
imo
in
inabite
inan
inca
independencia
india
indonesia
indravarman
indus
industria
ine
influenzavirus
ini
inifikasyon
inifo
inifye
inik
inikman
inini
inise
inisyal
inisyalman
inisyativ
inisye
inite
inive
iniversite
inn
innocent
ino
inogirasyon
inogire
inonbrab
inondab
inondasyon
inonde
inorganik
inovasyon
inse
insee
insulinde
inte
international
internet
interre
interwiki
intra
inyon
ion
ionyenn
iouri
ipe
ipertansyon
ipote
iqta
ir
irak
irakoubo
irala
iran
iranis
iranyen
irbanism
irben
irbenn
ire
irigasyon
irige
irjans
irlande
irlann
irm
iroquois
irrasyone
irrawaddy
irss
irtych
is
isaac
isabelle
ise
isfahan
ishak
isi
iskandar
isla
islam
islamik
islamism
island
islande
islands
islanmik
islann
islas
isle
ism
isma
ismae
ismai
ismail
ismayilyen
iso
isou
ispahan
ispannik
ispanno
israe
israye
ist
istanboul
istanbul
isthme
istoloji
istorik
istorikman
istoryen
istwe
it
itali
italik
italyen
italyenn
ite
itil
itilizab
itilizan
itilizasyon
itilizato
itilize
itine
itou
itzcoatl
iv
ivan
ivanovitch
ive
ivwar
ix
ixe
iyasou
iz
izaj
izaje
iziaslav
izin
izir
izite
izole
izoto
izwe
izz
j
ja
jackson
jacob
jacquemin
jacques
jaffa
jagellon
jagwar
jaha
jahan
jahandar
jahangir
jai
jakarta
jakri
jalal
jalayirid
jam
jamayik
james
jamestown
jamhuri
jamhuuriyadda
jan
jandanbri
jande
janeiro
janmayk
janmayken
janme
janmen
jann
jannise
janr
jans
jant
jantile
january
janvannen
janvier
janvye
japon
japone
japonnen
jarden
jari
jartche
jasimha
jason
jat
java
javane
javouhey
jawali
jayakatwang
jayavarman
jayinism
jazz
je
jean
jeanne
jen
jenjanm
jenkins
jenn
jens
jermanik
jero
jersey
jesus
jeune
ji
jia
jiang
jiangxi
jibralta
jid
jidisye
jigante
jije
jijman
jik
jim
jiman
jime
jimmy
jin
jina
jingtai
jip
jipsyen
jipsyenn
jir
jiraf
jirasik
jire
jiridik
jiridikman
jirosko
jiroskopik
jis
jislasyon
jislativ
jisman
jiste
jistifye
jistis
jistre
jit
jite
jitim
jitimite
jiziya
jizman
jk
jman
jo
joa
joachim
jobst
jocelin
jocz
jodhpur
jodla
joe
jogaila
johann
johannes
john
jolliet
jones
jonk
jonksyon
jonn
jorativ
jorativman
jordani
jorge
jose
joseon
joseph
josselin
jou
joudayism
jouj
jouje
joujman
jouk
joul
jounen
jour
jourdain
joure
jouridik
jouridikman
jouridiksyon
journal
journalis
journalism
jours
jouwe
jouwo
joyce
jpg
jpn
jput
ju
juan
judai
judith
juin
jules
julia
julyen
jumhu
jumie
junte
jupiter
jurchen
justin
jwaye
jwe
jwenn
jwi
jwif
jwisans
jwiv
jwiye
jye
jyen
jyon
jyonal
jyonnal
jyp
jyutping
k
ka
kab
kaba
kabasou
kabe
kabine
kaboul
kabyay
kache
kachgar
kachgari
kachiri
kachmir
kad
kade
kadi
kadjar
kado
kadran
kafe
kafka
kafur
kagyu
kai
kaieteur
kaifeng
kairouan
kaj
kaje
kakao
kakitsu
kal
kalaj
kalandriye
kalbas
kale
kalgan
kali
kalif
kalifat
kalifo
kaliforni
kalifye
kaliningrad
kalinya
kaliptis
kalite
kalke
kalkil
kalkilatris
kalkile
kalm
kalmouk
kalte
kalvi
kamakura
kaman
kame
kamel
kami
kamtchatka
kan
kanada
kanari
kanauj
kanawa
kanbo
kandahar
kandida
kandidatir
kandy
kanem
kangxi
kanik
kanism
kanme
kanmiyon
kanmopi
kanmroun
kann
kanna
kannal
kannanda
kannandjen
kannanri
kannanval
kannaryen
kannaval
kanne
kannibalism
kannon
kannsouk
kannyonn
kano
kanon
kanonik
kanpagn
kanpaku
kanpangn
kanpman
kans
kanse
kant
kante
kantik
kantite
kanto
kanton
kantonne
kantonnen
kanyonn
kao
kaouar
kaoutchou
kap
kapab
kapasite
kapisen
kapital
kapitalism
kapitchoulasyon
kapitchoule
kapite
kapitenn
kapitennri
kapitilasyon
kapte
kaptenn
kaptennri
kaptif
kaptir
kaptire
kaptivite
kapto
kapyay
kar
kara
karagte
karakorum
karakte
karamanli
karanga
karant
karantenn
karapa
karavann
karave
karayb
karayib
karayibe
karbe
karbiran
karbonn
kardinal
kardjak
kardjovaskile
kare
karenm
karge
kari
karib
karibe
karim
karisti
karl
karlouk
karnataka
karnatik
karnaval
karolenjyen
karolin
kart
kartajenn
kartche
karte
kartograf
kartografi
kartografye
karye
karyops
karyot
karyota
kasav
kaskad
kaspyenn
kasti
kastiyan
kasyon
kat
katalan
kataliz
katalizo
katalo
katapan
katastro
kate
kathiawar
kathmandu
katib
katibaj
kato
katolik
katolisism
katriye
katriyenm
kaufmann
kavalri
kavalye
kavite
kawanakajima
kay
kayenn
kayennen
kayiman
kayman
kayode
kayou
kaz
kazablanka
kazakh
kazakhstan
kazakstan
kazgan
kazi
kaziman
ke
kebek
kech
kedah
kediri
kee
kei
keita
ken
kenbe
kent
kenya
kenz
kenzenn
kereit
kerguelen
kerman
kertanagara
kertanegara
kerulen
keti
ketouvim
kfwe
kg
kha
khachab
khadi
khaldji
khaldoun
khalil
khalji
khalkha
khan
khanat
khanbaliq
khandesh
kharpout
khayr
khe
khilafa
khitai
khitan
khitans
khiva
khizir
khmelnitski
khmer
khoi
khoja
khorasan
khorassan
khurram
khusrav
khusraw
khwa
khwarezm
khwarezmien
ki
kib
kiba
kichoz
kidonk
kikonk
kil
kilasyon
kile
kilib
kilibre
kiline
kilitch
kilminan
kilminen
kiloa
kilogranm
kilome
kilonme
kilt
kiltir
kiltire
kiltive
kilye
king
kingdom
kinkaku
kino
kip
kipaj
kipe
kipman
kiptchak
kira
kirans
kirchner
kird
kirghiz
kiribati
kirite
kirize
kirst
kisa
kistan
kisyon
kit
kitan
kitasyon
kite
kitif
kitiv
kito
kivalan
kivalant
kiyomori
kk
kl
kla
klame
klan
klanche
klande
klanmasyon
klanmen
klarasyon
klare
klarifikasyon
klas
klase
klasifikasyon
klasifye
klasik
klasikman
klasman
klate
klavye
kle
klen
klid
klidjen
klidjenn
klima
klimatik
klimatoloji
kline
klinen
kliyan
kliyante
klo
klou
klovis
km
kman
knik
knolles
knoloji
knox
knud
knut
ko
koalisyon
koalize
kobdo
kod
kode
kodifye
koe
kognitiv
kokaz
kokonor
kolaborasyon
kolaj
kole
kolektivite
kolen
kolin
kolize
kolizyon
kolo
koloji
kolojik
kolojis
kolojism
kolon
kolonbi
kolonbo
kolonbyen
koloni
kolonizasyon
kolonize
kolonn
kolonni
kolonnizasyon
kolonnize
kolonnyal
kolonyal
kolonyalism
kolorado
kolore
kome
komen
komers
komin
komine
kominikasyon
kominike
kominis
kominism
kominote
komisyon
komple
kompoze
kon
konba
konbat
konbatan
konbi
konbinatwa
konbine
konbinen
konbistchon
konbistib
konbistyon
konbisyon
kondanasyon
kondane
kondannasyon
kondannen
konde
kondiksyon
kondikto
kondisyon
kondite
kondjwi
kondjwit
kone
koneks
konfann
konfe
konfen
konfigirasyon
konfinen
konfirmasyon
konfirme
konfirmen
konfiskasyon
konfiske
konfisyanism
konfizyon
konfli
konfliyan
konfliyans
konfo
konfondou
konfonn
konfronte
konfye
kong
kongo
kongre
konik
konje
konjige
konjirasyon
konjoure
konjwentman
konjwit
konke
konki
konkirans
konkiranse
konkistado
konkli
konklizyon
konko
konkorda
konkour
konkre
konme
konmen
konmin
konminikasyon
konminis
konminyon
konmitato
konmo
konn
konne
konnen
konngo
konnik
konnomi
konnomik
konnon
konnonmi
konnonmik
konnonmikman
konomi
konomik
konomis
konpa
konpagni
konpagnon
konpangni
konpans
konpansasyon
konparab
konpare
konpatriyo
konpe
konple
konplike
konplo
konplote
konpo
konporte
konpozan
konpozant
konpoze
konpozisyon
konpozit
konpozito
konprann
konpre
konpri
konpriz
konran
konsakre
konsanswe
konsanti
konsantrasyon
konsantre
konse
konserne
konside
konsil
konsila
konsiltasyon
konsilte
konsilyasyon
konsilye
konsiste
konsolide
konsomasyon
konsome
konsonmasyon
konsonmen
konsonn
konsonnantik
konsou
konsouvwe
konspirasyon
konspirato
konspire
konstan
konstanman
konstans
konstant
konstanten
konstantino
konstate
konstitchwan
konstitchwe
konstitisyon
konstitisyone
konstitisyonne
konstititif
konstititiv
konstri
konstrigsyon
konstriksyon
konstrwi
konstrwit
konsyan
konsyans
konsyant
kont
kontak
kontan
kontanporen
kontanporenn
kontante
konte
kontenjan
kontinan
kontinantal
kontini
kontinwe
kontinwite
kontni
konto
kontounen
kontour
kontparti
kontra
kontraksyon
kontras
kontre
kontren
kontrenn
kontrent
kontribisyon
kontribiye
kontro
kontrol
kontrole
kontrove
kontwar
kontwe
konvansyon
konvansyone
konve
konvenk
konvokasyon
konvoke
konvwa
konvwe
konya
koo
koope
kopaya
kopi
kopo
koppen
kopt
kopye
koralyen
koran
koray
kordiye
kore
koresponn
korido
korije
koripsyon
koronpi
korosonni
korporasyon
koryo
kos
kose
kosiste
kosistenm
kosmoloji
kosovo
koswin
kosyan
kosyon
kosyste
kot
kotche
kote
kotidjen
kotidjenn
kotidjennman
kotika
koton
kou
koubilai
kouch
kouche
koudle
koukou
koule
koulman
koulo
koum
kouman
koumandan
koumande
koumandman
koumando
koumannman
koumanse
koumansman
koumante
koumbi
koume
koumen
koumin
kouminal
koumine
kouminikasyon
kouminike
kouminis
kouminote
koumise
koumisyon
koumite
kounanmanman
koup
koupab
koupaj
koupe
koupl
koupo
kour
koura
kouraje
kouraman
kouran
kouranman
kourant
kourb
kouri
kouril
kouronn
kouronnen
kouronnman
kourou
kours
kourt
kourye
kous
kout
koutchala
koutchar
koute
koutim
koutimye
kouto
kouvan
kouve
kouvri
kouzen
kouzko
kovalant
kowalisyon
kowe
koxinga
koyunlu
koz
koze
kr
kra
krab
krach
krak
kran
krasyon
kraze
kre
kredi
krenn
kri
krik
krike
krill
krim
krimine
kriptografi
kris
krishna
krisifye
kristal
kristchanism
kristchannism
kristo
kristyanism
krisyal
krit
krite
kritik
kritir
krivan
kriven
kriyo
kriyote
kriz
kro
kroasi
kronik
kroniko
kronnik
kronnolojik
kronoloji
kronolojik
krout
krowasi
krowat
krwa
krwasan
krwasans
krwasant
krwayan
krwayans
krwazad
krwaze
krwe
ks
kse
ksid
ksidantal
ksijenn
ksik
ksikoloji
ksism
ksite
kskominikasyon
kskominye
kskouminye
ksour
ksplikasyon
ksplike
ksponansasyon
ksponansye
kste
kstil
kswalite
kswe
ksyon
ksyone
kt
ktak
ktan
ktche
ktchwe
kte
ktif
ktil
ktir
ktiv
ktivite
ktivman
kto
ktonik
ktonnik
ktora
ktorye
ktral
ktrik
ktrikman
ktrin
ktris
ktrisite
ktro
ktrochimi
ktrolitik
ktroliz
ktromagne
ktron
ktronik
ktronnik
ktrwaye
ku
kubilai
kumbha
kuo
kuomintang
kurdistan
kusunoki
kutulmuch
kwa
kwaki
kwasyon
kwato
kwatoryal
kwiv
ky
kyanzittha
kyawswa
kye
kyo
kyoto
kyu
kyushu
kz
l
la
laba
labandon
labank
labankiz
labarbad
labib
labita
labolisyon
laborasyon
laboratwe
labore
labou
labrador
labre
labri
labsans
labye
lacha
lachas
lache
lachin
lachonmye
ladans
ladeng
ladislas
ladje
ladministrasyon
ladonminik
ladro
lae
lafe
lafimen
lafine
lafize
laflit
lafo
lafont
lafoud
lafrans
lafrik
lafrontman
lafwa
lafye
lage
lagerfeld
lagine
laglas
laglome
laglonme
lagol
lagon
lagos
lagre
lagri
lagrikiltir
lagrip
lagro
lags
lagsan
lagse
lagt
lagtivite
lagwadloup
lagwiya
lagwiyann
lahore
lai
laj
lajan
lajans
lajantin
laje
lajistis
lajo
lajounen
lajwa
lak
lakade
lakadi
lake
lakiltir
laklas
lakle
lako
lakolonbi
lakonte
lakot
lakou
lakour
lakrik
laksan
lakse
lakte
lalaska
lale
lalfabe
lalig
lalimantasyon
lalin
lalit
lalje
lalko
lalla
lally
lalmagn
laltitid
lalwa
lalwe
lalwizyann
lalyans
lalzas
lam
lama
lamas
lame
lamenm
lamizik
lamotche
lan
lanatir
lanbasad
lancaster
lancastre
land
lande
landimen
lando
lane
lanfans
lang
langaj
langle
langola
languedoc
lanj
lanje
lank
lanka
lanlmangn
lanm
lanmanch
lanmannan
lanmanpa
lanmantinik
lanmanzonn
lanmanzonni
lanmas
lanmatinik
lanmazonn
lanme
lanmen
lanmenm
lanmiral
lanmizik
lanmo
lanmonnen
lanmotche
lanmou
lann
lanna
lannarchi
lannatoli
lanne
lannen
lanng
lannibi
lannwit
lanp
lanpir
lanplasman
lanplwa
lanpo
lanpren
lanpro
lanre
lans
lansanm
lanse
lansiklope
lansman
lanso
lantargtik
lanti
lantikite
lantman
lantre
lantropoloji
lanvironnman
lao
laodice
laos
laosyen
laparisyon
lapas
lapat
lape
lapenn
lapentir
lapis
laplace
laplaj
laplas
lapli
laplikasyon
laplipa
lapo
lapoje
lapolis
lapoud
lapousye
lapre
lapriye
laprouag
laprouwag
laproz
lar
larabi
larache
laranjal
larbitraj
larche
larchidouche
larchipe
larchite
lare
larenn
largtik
lari
larisi
lariv
larivot
larivye
lariye
larj
larjantin
larji
larjil
larjman
larjo
lark
larke
larme
laro
larondisman
larousse
larout
larsen
lartiri
lartizannan
las
lasal
lasanble
lasante
lase
lasenn
lasime
lasiri
lasko
laso
lasos
lasosyasyon
laspe
lastik
lastronnonmi
laswa
laswe
laswis
laswit
lasyon
late
laten
latif
latin
latinize
latino
latirki
latitid
latium
lativ
lativis
lativite
lativman
latlantik
latlas
latmo
lato
latran
latribisyon
lattaquie
laurent
lautverschiebung
lauzon
laval
lave
lavennman
lavi
lavil
lavoisier
lavyon
law
lawa
lawiyann
lay
layer
layik
lazarevic
laze
lazi
lbe
lboun
ld
lda
lde
le
lee
leeuwenhoek
left
legal
legu
lei
leibniz
leinster
leipzig
leksyon
lektrik
lektrisite
lektromagne
lemy
len
lenche
lend
lende
lendi
lendigo
lendis
lendochin
lendonne
lenfantri
lenfinitif
lenflasyon
lenfliyans
lenfo
lenfrastigtir
lenfrastriktir
lengwis
lengwistik
lengwistikman
lenje
lenkan
lenkizisyon
lenklizyon
lenn
lenoir
lenpilsyon
lenplantasyon
lenpo
lenpre
lensandi
lensire
lenskripsyon
lenstalasyon
lenstigasyon
lenstiti
lenstitisyon
lenstriman
lente
lentrodigsyon
lenvansyon
lenvante
lenvazyon
lenve
leo
leone
leonhard
les
lesotho
lespri
leste
let
levantin
level
lewis
lexique
leyde
leyman
lez
lf
lhassa
lholt
lhotse
li
lian
liao
liaoyang
liar
lib
liban
libannen
libanos
libe
liberte
liberty
libi
libik
libman
lidantifikasyon
lidantikasyon
lidantite
lide
lidrografi
lie
liechtenstein
lig
lige
lign
ligne
lignen
ligs
ligsanbou
ligwann
lij
lijans
lijye
lijyon
lik
lika
likid
liko
likonn
liksanbour
lil
lile
lilistrasyon
lim
lima
limatrikilasyon
lime
limen
limenm
limidite
limigrasyon
limine
liminen
limit
limitasyon
limite
limitro
limn
limo
limobilye
limon
limouzen
limye
lincoln
line
lingua
linifikasyon
linifo
linik
linini
linisyativ
linite
linive
link
linne
linondasyon
linovasyon
linyon
lion
liong
liou
lipap
lipe
lipote
lips
lipsoyid
lirak
liran
lirbannism
lirbannizasyon
lire
lirik
lirin
lirlann
lirwe
lis
lisa
lisabeth
lisans
lisansye
lisbonn
lise
lisende
lislam
lislanm
lislann
lism
lisou
lispanni
lisse
listorik
listwe
lit
litali
litchwani
lite
litilizasyon
litirjik
litoral
litosfe
little
lium
liv
live
liverpool
livoni
livre
livwe
lix
liz
lizaj
lizasyon
lize
lizo
lizofonn
lizyen
lj
ljik
lk
lkan
lkannik
lklo
lkonk
llah
llar
ller
lman
lmantal
lmantasyon
lnans
lne
lnen
lno
lo
loaf
loazis
lob
lobe
lobligasyon
local
locke
lodi
lodisyon
lodjans
lofansiv
lofis
lofisye
logaritm
logmantasyon
logo
logos
loire
loje
lojik
lojisye
lojman
loka
lokal
lokalizasyon
lokalize
lokazyon
lokipasyon
lokito
lolann
lombard
lombardie
lombards
lombok
lon
lonbalji
londiras
londjo
london
londres
long
longjumeau
longo
lonjan
lonje
lonjitid
lonjitidinal
lonm
lonmaj
lonn
lonng
lonni
lonnizasyon
lonnize
lonno
lonnyal
lonnyalis
lono
lontan
lonvilliers
lope
lopital
lopozisyon
lor
loran
loransyen
lorapou
lorazi
lord
lore
lorenn
lorenzo
lorijin
loris
lorisi
lorraine
lorri
loryan
loryantasyon
los
lose
lospis
lospitalye
lostitilite
lostrali
lostre
lot
lotaj
lote
loto
lotodafe
lotomobil
lotonm
lotonnonmi
lotorite
lotorizasyon
lotrich
lotus
lou
louis
louisbourg
loukrenn
loul
loule
loulou
louragan
lourougwe
lours
lout
louv
louve
louvraj
louvri
louvriti
love
lowazis
loyak
loyapo
loyola
lren
lri
lrinaj
lsa
lt
lta
lte
ltik
lu
luanda
luang
luba
lubeck
lucie
lucius
ludwig
lugo
luis
lukya
lulu
lune
lusignan
luther
luva
lvaj
lvan
lvares
lvaro
lve
lwa
lwagne
lwagnman
lwangnen
lwayalis
lwayalte
lwe
lwen
lwenten
lwes
lwil
lwit
lwitchenm
ly
lyannaj
lyannen
lye
lyen
lyon
lyorasyon
lyore
lyosenkronn
lys
m
ma
maa
maarat
maarten
maastricht
mac
macao
macbeth
macdonald
mach
mache
machin
machu
macina
macri
madagascar
madagaskar
madanm
made
madeleine
madras
madrid
maduro
magazen
magazin
magdalena
mage
magellan
maghan
maghreb
magma
magna
magnanime
magne
magnifique
magnus
mago
magsimal
magsimonm
maha
mahabharata
mahal
maharana
mahaut
mahdia
mahe
mahmoud
mahmu
mahmud
mahomet
mai
mail
main
maine
mainland
maire
maisonneuve
majapahit
maje
majiskil
majo
major
majorite
majorque
majus
mak
makao
makapa
makassar
make
makna
makourya
makouya
makro
maksimal
mal
mala
malabar
malacca
malad
maladi
malatya
malawi
malcolm
maldiv
male
malgach
malgre
mali
malik
malindi
mall
malla
mallu
malmannouri
malo
maloya
malt
malta
malte
malwinn
mamelouk
mamelouks
mamistra
man
manajman
manbij
manbre
manch
manchester
mancho
manda
mandaren
mandchou
mandchouri
mande
mandela
manden
mandeng
mangalore
mangane
mangro
mangu
manhattan
maniake
manifaktirye
manife
manikongo
manille
manipilasyon
manipile
maniskri
manje
mank
manke
manm
manman
manmife
mannan
mannaos
mannik
manniye
manno
mannye
mannyo
manot
mans
mansa
manse
mansipasyon
mansipe
mansourah
mansur
manswe
mansyon
mansyonnen
mantal
mante
mantes
mantik
manto
mantoue
manuel
manyen
manzikert
mao
mapouch
mar
marabout
maracaibo
maran
maranha
marann
marat
marathe
marathes
marb
marbois
marcel
march
marchan
marchandiz
marche
marciac
marco
marcos
mardi
mardin
mare
maren
margaret
margrav
margrethe
marguerite
mari
maria
marianne
marie
marignol
marin
marinid
marino
marion
maripa
maripasoula
maritim
marj
marjinal
mark
markaj
markan
marke
marki
marko
marley
maro
marok
maroken
maron
maroni
maronnaj
maronni
marquette
marrakech
mars
marse
marshall
marsyal
marta
marten
marti
martin
martinez
martinik
martir
marx
maryaj
maryam
maryann
marye
mas
masak
masakre
mase
masi
masif
masiv
masivman
mask
maskare
maskarengn
maskilen
masonnri
massachusetts
massaoua
massoud
masu
masulipatam
matamba
mataram
matche
mate
mathematica
mathias
mathieu
mathilde
mathura
matik
matikman
matinik
matirite
matisyen
matope
matouri
matris
matrisye
matteo
matthew
matye
maudoud
mauger
maures
maurice
mauricio
mauvais
mawdu
max
maximilien
may
maya
mayaj
mayans
mayapan
mayence
mayflower
mayo
mayoten
mayouri
mays
mazaga
mazdaghani
mbra
mccaslin
mdes
me
mecklembourg
mecque
mehmed
mehmet
mekne
melanj
melchor
melfi
melilla
mem
memphis
men
mendelei
mendiya
mendo
mendoza
mengrai
menm
mennan
mennen
menno
ment
mentchen
mentni
mer
mercator
mercie
mercure
merje
merkel
merkit
mersebourg
merv
merwart
messine
met
meta
metakrit
metakritik
mewar
mex
mexico
mg
mgr
mi
miami
miao
michael
michel
michelangelo
michele
michigan
michinaga
mie
mieszko
migran
migrasyon
migratwe
migre
miguel
mik
mike
mikel
mikro
mikrobyoloji
mikrone
mikrosko
mikroskopi
mikroskopik
mil
milan
mile
milis
milisyen
milite
mille
millions
miltip
miltiplikasyon
miltiplisite
miltipliye
miltise
miltitid
milwaukee
milyar
milye
milyon
mimisouk
mimouna
min
mina
minamoto
minas
mindo
mine
minen
ming
mini
minimal
minimonm
minin
minis
minisipal
minisipalite
miniskil
minism
ministe
minisyon
mino
minorite
minout
minre
minye
miquelon
mir
miran
mirat
miray
mircea
mirsyen
mirza
mis
mise
misfe
misisipi
miskile
mismi
missionary
mississippi
missouri
miste
mistik
misyon
misyonne
misyonnen
mit
mitan
mitasyon
mite
mitik
mitinri
mitochondriyal
mitoloji
mixte
miyo
miz
mize
mizik
mizikal
mizisyen
mizou
mizour
mizoure
mizushima
ml
mm
mo
mobil
mobile
mobilize
moc
mochihito
moctezuma
modalite
mode
modern
modifikasyon
modifye
modlaj
modle
moghol
mogholistan
mografi
mografik
mohamed
mohammad
mohammed
mohandas
moi
moille
moke
mokrasi
mokratik
moldavi
moldova
mole
molie
moloji
moluques
moman
mombasa
momozono
mon
mona
monako
monarchi
monark
monaste
mond
monday
monde
mondjal
mondjalizasyon
mondyal
mone
monet
mongo
mongol
mongoli
mongols
moni
monie
moniman
monjoli
monman
monn
monnako
monnanko
monnarchi
monnarchik
monnark
monnaste
monnastik
monne
monnerville
monng
monniman
monno
monnonpo
monnouman
monnsine
monomaque
monomotapa
monopo
monote
monstrasyon
mont
montagne
montan
montangn
montangne
monte
montecorvino
monterrey
montevideo
montferrat
montfort
montgomery
montpellier
montran
montre
montserrat
moon
mora
moraji
moral
morasyon
moravi
more
morgan
moris
morisk
morisques
morisyen
moritani
mort
mortalite
mortimer
moshe
moske
moskou
moskovit
moso
mossi
mossoul
mostaganem
mosto
mosyon
motche
motif
motivasyon
moto
motor
motris
mots
mottouakil
mou
mouche
moukhali
moulay
moulen
moun
mounite
mounqidh
mountains
mourad
mouri
mousine
mousk
mouske
mouson
moussa
moutapa
mouton
moutota
mouvans
mouvman
mouye
mouzoulman
move
moyne
mozanbik
mozart
mrod
ms
mstislav
mu
muba
mubarak
muh
muhammad
muhammed
muizz
mujahid
mujir
mulay
mulhouse
mulk
multa
multan
muluk
mumbai
mumin
mungo
munich
mur
murad
murat
murcie
muromachi
muros
mus
musa
museum
music
musta
mustafa
mustang
mustansir
mustarchid
mustazhir
musulman
muzaffar
muzaffarid
mw
mwa
mwagnaj
mwagne
mwann
mwar
mwayen
mwayenn
mwe
mwen
mwengnen
mwenn
mx
my
myanmar
mye
myinsaing
myokard
mysore
mytoloji
n
na
nab
nabab
nad
nadin
nadir
nagarakertagama
nagasaki
nagashino
nagn
nai
naj
naje
najera
najman
nak
nal
nam
name
namibia
namo
nan
nanak
nancy
nankin
nanmibi
nanome
nans
nant
nantes
nap
naples
naplouse
napole
napoliten
nara
narai
narasa
narasimha
narayan
nare
naresuan
narragansett
nas
nasa
nase
nasir
nasrid
nassau
nasse
nasyon
nasyonal
nasyonalism
nasyonalite
nasyonnal
nasyonnalis
nasyonnalite
nasyonnalize
nasyonzini
nat
natal
nathaniel
natif
national
nations
natir
natiralis
natiralize
natire
nativ
nato
nau
nauru
naval
navar
navarre
navarro
nave
navigasyon
navigateur
navigato
navige
navir
nayaka
nayman
nazal
nazareth
nazca
nazi
nba
ncipe
ndez
ndjouka
ndongo
ne
nederlands
negest
negro
negusse
nelson
nen
nenjit
nenn
nenpo
nensil
neptune
ner
nerji
nerve
nes
nestoryen
neumann
nevada
nevado
never
nevers
nevi
new
newcastle
newton
newtonyenn
nez
ng
ngel
ngke
ngola
ngum
nguye
nh
nha
ni
nia
niani
niccolo
nice
nich
nichapur
nichiren
nicola
nicolas
nicome
nid
nie
niels
nien
nienne
nietzsche
niger
nigsberg
nihon
nije
nik
nikaragwa
nikita
nikle
nikola
nikolaus
nikotin
nil
nime
nimo
nin
ningxia
nio
niri
nis
nisker
nisman
nistan
nistik
nisyen
nisyenn
nit
nital
nitans
nitansye
nite
nitif
nitrat
niue
nive
nivo
niyaj
niye
niz
niza
nizam
njimi
nl
nm
nman
nn
nnauj
no
nobel
nobili
noble
nobunaga
nocera
nofraj
nofraje
nogai
noi
nois
nom
nomad
nomanklatir
nombre
nome
nomenm
nomenn
nominasyon
nominato
nomm
non
nonbre
nonm
nonmad
nonmanklatir
nonmen
nonminal
nonminasyon
nonse
nor
norfolk
normal
norman
normand
normandi
noronha
north
northumbrie
norve
nos
nosid
nosyon
not
notab
notaman
notanman
note
notip
notre
nou
noubi
noubyen
nourag
nouri
nouritir
nous
noutriman
noutrisyon
nouve
nouy
novanm
novembre
novgorod
noyo
nozoyk
ns
nst
nsu
ntouab
nu
nueva
nuno
nur
nuremberg
nurhachi
nus
nuur
nwaye
nwayo
nwaze
nwe
nya
nyahuma
nyatsimba
nye
nyen
nyenn
nyo
nyon
nzinga
o
oaci
oaxaca
obama
obe
obeb
oben
objektif
obligasyon
obligatwar
obligatwe
obse
obte
od
oda
ode
odelle
odjans
odon
odontose
odora
odore
odoric
odoros
oene
of
ofansiv
office
ofis
ofisye
ofon
ofri
ogame
oghuz
ogmantan
ogmantasyon
ogmante
ogodei
ografi
ogsidantal
ohi
ohio
oi
oiapoque
oil
ois
oise
ojeda
oke
oki
okinawa
okipan
okipasyon
okipe
oklahoma
oksid
oksidan
oksidantal
oksije
oktan
okto
ol
olade
olande
olav
old
oldjai
oldjeite
ole
olenpik
olenpyad
oligarchik
olinda
olitik
oliver
olivier
oliviers
olyenn
oman
omar
ome
omer
omk
omose
oms
omwen
on
onard
ondilatwe
ondiras
onf
ong
ongri
ongrwa
ongu
oni
onmnispo
onmwen
onn
onore
ontario
ontoloji
onu
onyenn
onz
oopa
oparanvan
ope
opokou
opold
opozan
opoze
opozisyon
opre
ops
optik
optimum
or
oraj
oral
oran
orange
oranj
orda
ordinato
ordos
ore
ores
org
organik
organizasyon
organize
orghana
orgie
orhan
ori
orient
oriental
orife
original
orijin
orijinal
orijine
orissa
orlando
orle
ormuz
oro
oromo
oronte
orozco
orseolo
ortoqid
orwell
oryan
oryantal
oryantasyon
oryante
oryza
os
osaka
ose
osei
osen
osi
osito
osman
ost
ostral
ostrali
ostralyen
ostronne
oswa
oswego
osye
otaj
otan
otantifye
otantik
otantisite
otchigin
other
othon
otism
oto
otogtonn
otoktonn
otoman
otomatik
otombil
otomobil
otonm
otonman
otonmobil
otonnonm
otonnonmis
otonom
otonomi
otononm
otorite
otorizasyon
otorize
otour
otrar
otri
otrich
otrichyen
ottokar
ottoman
ou
ouahid
oualata
oue
oued
ouganda
oui
oukre
oul
ouled
oume
oun
ounlo
our
ouragan
ourcq
ourdou
ourguentch
ouriyang
out
outaouais
outre
ouve
ouvraj
ouvri
ouvriye
ouzbe
ouzbek
ov
ovando
ovil
owen
oxford
oyl
oyrat
ozonn
oʊ
p
pa
pablo
pac
pacha
padoue
padra
pafwe
pagan
paganen
page
pagos
pai
paita
paj
pak
pakistan
pakont
pakt
pal
palaos
pale
palembang
palerme
palestin
pali
palidism
palikou
palisad
palman
palmante
palmis
palmye
palo
palsman
palye
pampa
pan
panama
panchen
pandaman
pandan
pandans
pandant
pandantis
pandantism
pandou
pandoul
pandulf
pandya
pane
panje
panmaka
pann
pannan
pannanman
pannwi
pans
panse
panso
pante
pantkot
panyas
paolo
pap
papa
papal
papaychton
pape
papiamento
papote
papouazi
papye
par
para
parache
parad
parado
paraguay
paragwe
parale
paralize
paramaribo
parame
params
paran
parana
paranmanka
parante
parasyon
paratis
parazit
pardo
pardon
pare
parente
parfe
parfwa
pargne
pari
paris
parisios
parisis
parizyen
park
parkinson
parkouri
parle
parliament
parlman
parlmante
parm
parme
parmi
paros
pars
parse
parsye
part
partaj
partaje
partan
parte
parthe
parti
partie
partikil
partikilarite
partikilye
partir
partisip
partisipasyon
partisipe
partisyon
partizan
partizann
partman
partmantal
partmantalizasyon
party
parvini
parwas
paryakabo
pas
pasai
pasaj
pasaje
pasan
pascal
pase
pasha
pasifik
pasifye
pasto
pastos
pasyan
pasyon
pasyone
pat
pata
patagonni
pataj
pataje
patan
patant
patat
patche
pate
pati
patisipe
patizan
patoloji
patolojik
patrimwann
patrimwenn
patriyarch
patriyarka
patriyarkal
patriyo
patronnaj
patronnim
patrono
patrouye
paul
paulo
pav
pave
pavi
paviyon
payen
payenn
pays
paz
pdf
pe
pedro
pegu
peirce
pen
pendans
pendjab
penh
penn
pennsilvannyen
pennsylvanie
pent
pentagonn
penthie
per
percy
pereira
perme
pernambouc
pero
perry
pers
persan
persann
persik
persil
personalite
persone
perth
perthois
peru
peshwa
petchene
pete
peter
petit
petridis
peyi
pez
phags
phale
phase
phe
philadelphie
philare
philip
philippe
philippines
phips
phnom
phore
phraya
pi
pib
piblik
piblikasyon
pibliken
piblikman
piblisite
pibliye
piblliken
picasso
picchu
pide
pidje
pidjinng
pie
pierce
pierre
pieter
pietro
pieux
pifanni
pigman
pik
piktiral
pil
pilgrim
pilipinas
pilote
pilye
ping
pini
pinik
pinitiv
pins
pinya
pinye
pinyin
pinzo
pinzon
pip
pir
piramid
piranmid
pirannya
piraroukou
pirasyon
pirat
piratri
pire
pirennen
piriten
pirman
piro
pirogye
piruw
pis
pisan
pisano
pisans
pise
piskil
piskopal
pisri
piste
pit
pitasyon
pitcairn
pitchfork
pite
piti
pitit
piton
piyaj
piye
pizanpi
pizarro
pizo
pla
place
plad
plaisance
plak
plan
planche
plane
planifikasyon
plann
planne
plannisfe
plant
plantagene
plantasyon
plante
plantilla
planto
plas
plasan
plase
plasma
plasman
plastik
plastisite
plat
plata
plato
platon
player
ple
plen
plenn
pli
plike
plirise
plirye
plis
plita
plito
plivyonme
plizanpli
plizoumwen
plizyo
plomb
plon
plonje
plus
plymouth
pman
pne
po
poace
poe
pogrom
poi
poincy
point
poitiers
poitou
pok
pol
pole
policy
poligonn
polimat
polime
poline
polinom
polis
polise
poliswe
polisye
polisyon
polite
politik
politikman
politique
poliye
poll
polo
pologn
polone
polonna
polye
pome
pomestie
pompidou
pon
ponce
poncet
ponde
pondiche
ponktchwe
ponm
ponme
ponn
ponnim
ponnimi
ponp
ponpye
pons
pont
ponte
ponthieu
pontiac
pontifika
pontifikal
pontifikat
poor
pop
popaya
pope
popilarize
popilasyon
popile
populations
pore
port
portab
porte
portigal
portige
portland
porto
portobelo
portre
pose
posib
posibilite
positioning
poson
posthume
potab
potaje
potansye
potassium
pote
potidjal
potidje
potosi
potre
potri
pou
poul
poule
poulmone
poumon
pour
pourpale
poursantaj
pourswiv
pourtan
pourvi
pourvu
pourvwe
pous
pouse
pouvanaa
pouve
pouvwar
pouvwe
pouye
pouz
pouzan
pouze
pov
povte
powe
powenm
poz
poze
pozisyon
pozitif
pozitiv
ppen
pr
prabang
pradesh
prag
pragmatik
pragmatism
prague
pran
prann
prata
pratigman
pratihara
pratik
pratikan
pratike
pratikman
pratrimwenn
pre
predefinic
premier
prend
prens
prense
prensip
prensipal
prensipalman
prensipalte
prensipote
prensye
prentan
presley
preta
preux
prezante
prg
pri
primat
prime
primen
primer
primitif
primo
princeton
principia
pripri
pris
prisyen
prisz
prithivi
prive
privile
privilegium
priye
priz
prizon
prizonnen
prizonnye
pro
probab
probabilite
probabman
proble
problenm
processus
proche
prodigsyon
prodigto
prodiksyon
prodikto
prodjwi
prodjwit
prodwi
profe
profi
profitan
profite
profon
profonde
profondo
profonn
program
progranm
progre
progt
proje
project
projects
prokaryot
prokire
proklame
proklanmasyon
proklanmen
proksimite
prolonje
prome
promilgasyon
promilge
promouvwe
pronis
pronme
pronmennen
pronmilge
pronmosyon
pronmye
pronnen
propagasyon
propaje
propilse
propis
propo
proposals
propoze
propozisyon
propriye
proprye
prose
proskri
prospe
prote
protestant
protestantism
proto
protolistwe
proton
protozoe
prounon
prounonse
prounonsyasyon
prouve
provence
provens
provensal
provensyal
providans
providence
provini
provizwarman
provnans
provni
provoke
prowibisyon
pru
prusse
prwa
ps
pse
psg
psichik
psikoloji
psikolojik
pskov
psyon
psyone
psyonne
pt
ptanm
ptantriyonnal
ptasyon
pte
ptib
ptif
ptik
ptil
ptimal
ptin
pto
pu
publicains
pueblos
puerto
puget
pugetopolis
puis
puiset
puka
pulicat
pur
put
pwa
pwagnarde
pwav
pwe
pwen
pwent
pwisan
pwisans
pwisant
pwize
pwo
px
pxx
pyanis
pyas
pye
pythagore
pz
q
qa
qadir
qai
qala
qan
qara
qarakhanid
qasi
qasr
qatun
qazan
qazvin
qi
qianlong
qid
qide
qides
qin
qing
qinzong
qiu
qoyunlu
qu
quakers
quark
quarks
quartier
quartz
que
quechua
quena
ques
quesada
qui
quichotte
quint
quinto
quito
quo
quriltay
qurultay
qutub
r
ra
rab
rabman
racha
rache
rachid
rad
rada
radar
raden
radikal
radio
radisson
radjasyon
radje
radjo
radmare
rafael
rafi
raguse
rai
raid
raids
raigarh
raimond
raire
raison
raja
rajaram
rajasthan
rajendra
raji
rajput
rak
rakaba
rakonte
raksyon
ral
raldik
raleigh
ralis
ralism
ralite
ralize
ralman
raloji
ralojik
ralye
ram
rama
raman
ramla
rams
ramse
ran
ranbarke
ranboursman
rance
rande
randonm
rane
ranfe
ranfo
rang
rani
ranie
ranje
ranjman
rankontre
ranmak
ranmik
ranmne
ranmnen
rann
ranne
rannen
rannism
rannyen
ranpa
ranpar
ranplase
ranplasman
ranpli
ranpo
rans
ranse
ranson
ransye
rant
rantre
ranve
rao
raoul
rapa
rapatriye
rape
raphael
rapi
rapid
rapidman
raple
rapo
rapro
raproche
rapsomate
rar
rarchik
rard
rarman
rarte
ras
rasanble
rasin
rasism
rastatt
rasyon
rasyone
rat
rata
ratache
ratif
ratifikasyon
ratifye
ration
ratir
ratisbonne
rativ
rato
ratris
rats
ravaje
ravardie
ravenne
ravitayman
ray
raya
raymond
razadarit
raze
razi
raziyya
razyatik
razyen
razzia
razzie
rb
rbal
rban
rbe
rbi
rbit
rbital
rbitan
rbite
rbito
rche
rchen
rchet
rd
rde
rdi
rdiksyon
rdinasyon
rdinato
rdine
rdiye
rdjal
rdo
rdoba
rdonans
rdone
rdonnans
rdonnen
re
read
ready
real
recife
reconquista
redirect
referans
regene
reggio
reich
reims
reis
rekipere
rembrandt
ren
renards
renaud
rendjen
rene
renger
renk
renn
renner
reptil
repu
repubblica
republic
republik
republika
requests
res
respektivman
respire
respublika
ressources
retrieved
revi
revival
revizyon
rey
reyisi
rezm
rf
rfe
rfi
rfisi
rfo
rfoloji
rfolojik
rfolojikman
rfre
rfwaze
rfwe
rg
rganik
rganism
rganizasyon
rganize
rgann
rgannik
rgannizasyon
rgannize
rgle
rhe
rhin
rho
rhode
rhuddlan
ri
riad
riayat
rib
ribat
ribe
ribonikle
ric
rica
ricardo
ricci
rich
richard
riche
richelieu
richemont
riches
richmond
ricle
rico
rida
ridjen
ridjonal
ridjonnal
ridwan
ridyonal
rie
riebeeck
rif
rife
rifouze
rifting
rifyab
rifye
rifyen
rigbi
right
rights
rigoure
rije
rijenn
rijid
rik
riken
rikenn
rikonne
ril
rilla
rim
rimantal
rimante
rime
ring
ringie
ringmann
rinid
rinose
rintchenpal
rio
rip
ripe
ripo
ripsyon
riptir
riral
ris
risaj
risi
risk
risouvwe
ristik
rit
ritab
ritaj
ritche
ritchwe
rite
ritm
ritmik
ritoryal
ritre
ritwar
ritwe
riv
rivaj
rival
rivalite
rivalize
rive
river
rivie
rivren
riye
riyon
rizasyon
rize
rizon
rizyon
rj
rjans
rje
rjenn
rji
rjron
rjuna
rjyen
rjyenn
rk
rke
rkil
rkiloz
rkir
rkisyon
rkle
rkonpre
rkontinan
rkre
rl
rlande
rlann
rle
rlen
rlo
rm
rma
rmal
rmalizasyon
rmalize
rmalman
rman
rmanan
rmanant
rmandi
rmanik
rmannan
rmannik
rmannofonn
rmantasyon
rmante
rmasyon
rmatik
rmativ
rmato
rmatozoyid
rme
rmen
rmi
rmik
rmil
rmilasyon
rmile
rminal
rminasyon
rmine
rminen
rminoloji
rmo
rmochimi
rmodinamik
rmome
rmoud
rn
rnad
rnakile
rnal
rnan
rnasyonal
rnasyonnal
rne
rnen
rni
rnism
rnite
rnman
rnova
rnye
rnyen
ro
road
roald
roanoke
robe
robert
robo
rochambeau
roche
rochelle
rock
rode
rodney
rodolphe
rodrig
rodrige
rodronm
roe
rogar
rogasyon
roger
roggeveen
rohan
roi
rois
roje
rol
roland
rom
roma
romagne
roman
romanizasyon
romann
romanov
romansye
romantik
romantism
rome
romen
romenn
ron
ronal
roncaglia
rone
ronique
ronjo
ronm
ronman
ronmantik
ronmen
ronn
ronne
ronotik
ronp
ronpi
rope
ropo
roque
roquefort
roraima
roris
rorism
ros
rose
rostislavitch
rot
rotasyon
roto
rou
rouan
roub
roubatize
roubrouse
roude
roudivini
rouen
roufe
roufi
roufize
roufle
roufre
rouganyen
rougroupe
rougroupman
rouj
rouje
roujwenn
rouke
roukone
roukonke
roukonne
roukonstitchwe
roukonstitisyon
roukonstrigsyon
roukopye
roukou
roukoumandasyon
roukoumande
roukour
roukouvri
roulache
roulanse
roulasyon
roulate
roulativman
roule
roulman
roulyannen
roum
roumani
roumante
roumarkab
roumarke
roume
roumen
roumi
roumontan
roumonte
roun
roune
rounlo
rouno
rounonmen
rounonse
rounouvab
rounouve
rounouvlab
rounouvle
rounso
roupase
roupati
roupe
roupliye
roupouse
roupoze
roupran
rouprann
roupre
roupriz
rouprodiksyon
rouprodiktif
rouprodjwi
roura
rousanble
rousanse
rousansman
rousanti
rouse
rousours
rousouve
rousouvri
rousouvwe
rout
routantisman
routche
routire
routonbe
routou
routounen
routour
routranche
routrouve
rouvande
rouvandikasyon
rouvandike
rouvini
rouvoye
rouvray
rouvri
rouvyen
roux
rove
rovye
royal
royid
royin
roz
rozyon
rpa
rpayo
rpe
rpolasyon
rporasyon
rpore
rpre
rpsyon
rpwisans
rre
rs
rsa
rsal
rsan
rse
rsi
rsib
rsifye
rsik
rsika
rsis
rsiste
rsite
rsman
rso
rsonalite
rsone
rsonnaj
rsonnalite
rsonne
rsouvwe
rspe
rsyal
rsye
rsyon
rt
rtalite
rtan
rtans
rtant
rtasyon
rtato
rtay
rte
rten
rtenn
rtennman
rti
rtibasyon
rtif
rtifikasyon
rtifye
rtige
rtik
rtikal
rtil
rtir
rtire
rtisman
rtitid
rtiv
rtman
rto
rtodo
rtograf
rtografik
rtografye
rtorye
rtre
rtriye
rtropikal
ru
ruel
ruhr
rukh
rum
run
rupert
rusalem
ruva
ruy
rv
rvab
rval
rvansyon
rvasyon
rvatism
rvato
rvatris
rvatwe
rve
rvi
rvil
rvini
rvis
rvitid
rvito
rvo
rvwe
rwa
rwanda
rwayal
rwayalte
rwayom
rwayonm
rwe
rwin
rwine
rwinen
rwiso
ry
rya
ryal
ryalis
ryalism
ryalize
ryans
rye
ryen
ryenn
ryo
ryod
ryodik
ryodisite
ryorite
ryu
rz
rze
s
sa
saaaryen
saadjen
saara
sab
saba
sabbah
sac
sacramento
sado
safavieh
safi
sagaing
sage
sagson
sahara
sahib
sai
saint
sainte
saintonge
saj
saje
sajri
sak
sakaje
sakalave
sakoura
sakre
sakrifis
sakrifye
sakson
saksonn
sakuramachi
sakya
sakyapa
sala
saladin
salah
salarye
sale
saleh
salem
salerne
sali
salih
salik
salim
salisbury
salju
salle
salomon
salon
salou
salpe
salsette
salta
salto
salvador
salzbourg
sam
saman
samarcande
samarkand
samarqand
samoa
samudra
samuel
san
sanblab
sanblabman
sanble
sanche
sandan
sandans
sandwich
sangama
sangen
sangha
sangin
sanglant
sangtiye
sangui
sangye
sanhadja
sanite
sanjar
sanjo
sankin
sanksyon
sanksyone
sanlu
sanm
sanmaka
sanmdi
sann
sans
sansasyon
sanse
sansib
sansibilite
sansibman
sanskrit
sansye
sansyelman
sant
santa
santans
santare
sante
santenn
santi
santiago
santim
santiman
santo
santos
santral
santralizasyon
santralize
santre
santrisite
sanvann
sao
saoudit
sapiens
sar
saragosse
sarai
saranmanka
sardaigne
sardengn
sare
sarmiento
sarrasin
sarzana
sase
saso
sate
satirn
satisfaksyon
satisfe
saturne
sault
savan
savann
savant
save
savo
savoie
savwar
savwe
saxe
saxons
sayil
sayyid
schism
schleswig
scholes
schouten
schœlcher
scott
scutari
se
sea
seattle
sebastia
sebastian
sebou
seg
segonde
seguro
seine
sekswalite
sekswe
sel
seldjouk
seldjoukid
selim
seljoukid
semaine
semplifye
sen
sena
senalfa
senbo
senbolik
senbolize
sende
sendika
sendrom
sengapou
sengilarite
sengilye
sengoku
senjo
senk
senkant
senkre
senkye
senkyenm
senloran
senn
sennar
sennmari
senp
senple
senplifye
senplisite
senpman
senptom
sent
sentags
sente
sentir
sentlisi
sentlisyen
sentou
seppuku
serb
sertenn
servi
service
servis
ses
sesel
seseo
severn
sevre
seyid
seyon
sfax
sfe
sh
sha
shaanxi
shah
shahi
shahs
shahu
shakespeare
shakti
shambhuji
shams
shan
shandong
shankara
shanxi
shaq
shaqhab
shawar
shen
shenzong
sher
sheykh
shi
shigatse
shikken
shin
shingen
shinto
shintoyism
shirakawa
shirkuh
shiva
shivaji
sho
shoah
shogun
shrewsbury
shu
shunzhi
si
siam
siastik
sib
sibatomik
sibdivize
sibdivizyon
sibe
sibi
sibiu
sibje
sibkontinan
sibmaren
sibme
sibsid
sibstans
sibstantif
sibstitisyon
sibtropikal
sibvarye
sibve
sibziste
sichuan
sicile
sid
sida
sidafriken
sidanme
side
sidjilma
sidne
sidon
sidwe
sie
siegen
sierra
sif
sifi
sifik
sifikman
sifisite
sifizaman
sifizan
sifizant
sifraj
sigare
sigismond
sigje
sigmund
sign
signal
signale
signan
signatir
signe
signen
signifikasyon
signifikativ
signifyan
signifye
sigre
sigse
sije
sijilma
sik
sikh
sikhism
siklis
siklism
siklonn
sikse
silab
sile
silicium
silis
silisi
siltan
silva
sim
simal
sime
simen
simenn
simi
simile
similtane
similtanne
simo
simon
simoni
simye
sin
sinato
sinay
sind
sine
sinen
singapour
singh
singosari
sino
sinon
sinonim
sinop
sint
sipe
siperfisi
sipitasyon
sipite
siplante
siple
sipo
sipoze
sipra
sipre
siprenm
siprimen
siprokman
siprosite
sir
sirad
sire
sirfas
sirhind
siri
sirilik
sirinanm
sirinanmen
sirkilasyon
sirkile
sirkonskripsyon
sirkonstans
sirkwi
sirnon
sirnonmen
sirprann
sirpriz
sirtou
sirve
sirvi
sirvini
sirviv
sirvivan
siryen
siryenn
sis
sise
sisil
sisili
sisilyen
sisiv
sismoloji
sispann
sispansyon
siste
sistenm
sister
sit
sitade
sitasyon
sitchwasyon
sitchwe
site
sitwayen
sitwe
siultan
siv
sivas
sivik
sivil
sivilizasyon
sivilizasyonne
sivite
sivman
siyen
siyonnen
siz
size
sizif
siziv
sizren
sizrennte
sizye
sizyenm
sizyon
sk
ska
skabelon
skad
skal
skale
skandinav
skandinavi
skann
skarmouch
skarpe
ske
ski
skilte
skiltir
skilto
skizofre
sklav
sklavaj
sklavajis
skli
sklizif
skliziv
sklizivman
sko
skolarize
skole
skou
skri
skrib
skrim
skripsyon
skriptiv
skull
skłodowska
sl
slav
slesvig
slimane
slovaki
slove
sm
sman
smartphone
sme
smith
smode
smolensk
smyrne
sn
snake
so
soccer
society
socrate
soda
sof
sofo
soissons
soja
soko
solane
solanki
solanne
sole
soleil
soli
solid
solidarite
solidman
soliman
solisite
solisyon
solon
somali
some
someshvara
son
sonbre
sondaj
sone
song
songhai
soninke
sonje
sonm
sonmali
sonme
sonn
sonnaj
sonnalite
sonne
sonnen
sonni
sonno
sont
sopa
sophie
sophis
sopotamie
sorel
soso
sosso
sosyal
sosyalis
sosyalism
sosye
sosyo
sosyolengwistik
sosyolo
sosyoloji
sosyolojik
soti
soto
sotre
sou
souabe
soubi
souch
soudan
soudannen
souddhipa
soudenn
souf
soufi
soufraj
soufrans
soufri
souk
soukou
soukour
soukousite
soukri
soukriye
soul
soula
soule
souleiman
souligne
soulon
soulta
soultan
soultanat
soultannat
soulve
soumake
soumaren
soumatra
soume
soumisyon
soumiz
sound
soundiata
soupann
soupannan
soupre
souprenm
soupriman
souprime
souprimen
soupsonnen
sourdite
sourinanm
sourinanmen
sours
sousi
sousid
souside
sousite
sousne
souspann
soustraksyon
sousye
soutchen
soute
south
soutni
soutou
souvan
souvni
souvren
souvrennte
souvrente
souzdal
sovaj
sove
sovo
sovye
soyouz
sozoyk
sp
space
spagn
spagno
spangn
spangno
spansyon
spas
spasyal
spd
spe
spektak
spilke
spilse
spilsyon
spinola
spirasyon
spiratwar
spire
spiritchwalite
spiritchwe
spitalye
splikasyon
splike
splisit
splisitman
splorasyon
splorato
splore
splozif
splozyon
splwatasyon
splwate
spo
spoliasyon
spondan
spondans
sponn
sponsab
sponsabilite
spontane
spot
spozan
spoze
spozisyon
spre
spri
sprime
sprimen
spropriye
spwa
spyon
square
sr
srannann
sre
sri
sriwijaya
ss
ssa
st
stab
stabilite
stabilizasyon
stabilize
stad
stal
staline
staman
stan
standar
standardizasyon
stanislas
stansyon
star
stasyon
states
stati
statik
statistik
statu
statute
stche
stchwe
ste
stefan
stel
sten
stenksyon
steppe
steve
stfe
sti
stib
stidjo
stif
stigasyon
stij
stijye
stik
stikasyon
stike
stil
stilite
stim
stimasyon
stime
stimen
stimile
stin
stinasyon
stinate
stine
stinen
stir
stiri
stisman
stitchwe
stitir
stitisyon
stival
stivite
sto
stockholm
stoke
stonehenge
stonn
stooges
stor
storan
storasyon
store
stoupan
stra
stragsyon
stral
strao
strapolasyon
strasbourg
strate
stravinsky
stre
stren
strenm
strenmite
strenmman
strent
strigtir
strigtire
strik
strikman
striksyon
striktir
striktire
strikto
stuart
sture
styrie
su
subo
sucre
suez
suffren
suie
sukhothai
sulawesi
suleiman
suleyman
sully
sulta
sultan
sumatra
sume
sumer
sumra
sun
sundara
sundjata
sunnism
sunnit
sunqur
superbe
supernova
support
sur
surat
surate
suriname
survey
suryavarman
sus
suzerennte
suzren
sv
sverre
sviatopolk
swa
swagne
swahili
swari
swarman
swasant
swazilann
swe
swen
swis
swit
swiv
swivan
swivant
swivi
syal
syalis
syalite
syalize
syalman
syamwa
syanmwa
syans
syantifik
syastik
sydney
sye
syenn
syme
syo
syon
syone
syonism
syr
syracuse
syste
system
t
ta
tab
tabak
tabarsaran
table
tabli
tablie
tablisan
tablisman
tablit
tablo
tabolism
tabriz
tach
tache
tachfin
tachman
tadjikistan
tadoussac
tafilalet
tafizik
tagn
tags
tagsi
tahmasp
tai
taiji
taira
taj
takakura
takarli
takauji
takeda
takla
taks
takson
tal
talas
tale
talik
talikou
talirji
talmud
talon
tamales
tamerlan
tamil
tamin
tamoul
tan
tana
tanakh
tanbou
tancre
tandan
tandans
tande
tandi
tandou
tang
tanger
tangn
tangout
tangut
tanjib
tanjore
tankou
tanmanwe
tanmiz
tann
tanp
tanpe
tanpliye
tanpore
tans
tansyon
tant
tantan
tantativ
tante
tanzani
tanzania
taoyism
tap
tara
tarbagatai
tard
tarde
tardif
tardiv
tardivman
tarente
tarim
tarmachirin
tarnovo
tars
tarse
tarsina
tart
tarya
tas
tase
tashfin
tashfine
tashilhunpo
tasman
tasmanni
tasyon
tat
tatar
tatif
tatik
tatikios
taungu
taurus
tax
tay
taye
tayfa
taylande
taylann
taysyen
tayti
taywan
taywann
tazini
tb
tbol
tch
tchad
tchagri
tchalabi
tche
tcheke
tchen
tchenban
tchenbe
tchenbo
tchenm
tchenn
tchi
tchipe
tchlu
tcho
tchopi
tchopyen
tchormaghan
tchoule
tchwe
tchwit
tchwizin
td
te
tea
team
teanspo
teau
tegbessou
tehuantepec
tek
teknik
tekrour
tel
teles
tell
tellyen
template
templatedata
temu
ten
tendai
tenerife
tenm
tenn
tennessee
tenno
tenochtitlan
tenryu
terek
term
termine
ternate
terra
terre
tersbourg
tesla
tessala
tete
tfwe
th
tha
thabor
thai
thaler
thanesar
that
the
their
thencourt
theos
therava
thermes
thessalonique
thibaud
thibaut
thierry
thihathu
this
thiudisk
thomas
thorkell
thoros
thoum
thrace
thu
thumb
ti
tian
tianzuo
tibe
tibesti
tibet
tiboug
tid
tidjal
tidjan
tidje
tidore
tidye
tie
tien
tienne
tierra
tifi
tiflis
tifon
tig
tigny
tigre
tij
tik
tikaz
tikman
tikrit
til
tillon
times
timo
timoloji
timolojikman
timor
timoun
timour
timourid
timur
timurtach
tine
tinis
tinizi
tinizyen
tinmel
tip
tipik
tipikman
tippoo
tipye
tir
tiraj
tiran
tirannik
tirban
tire
tirk
tirke
tirki
tirkme
tirko
tis
tise
tism
tisou
tisyon
tit
tite
titile
tito
titre
titteri
tiwanaku
tizasyon
tize
tizile
tizo
tlatoani
tlaxcala
tld
tlemcen
tman
tnan
tnanmyen
tni
tnik
tnisite
tno
to
tobago
tobolsk
tocantins
tofit
togate
togatemur
toghan
toghon
toghril
toghrul
togustemur
tokugawa
tokyo
tole
tolita
tollendal
toloji
toloui
tolstoi
tolui
toma
tombouctou
tome
ton
tonat
tonbe
tonbo
tonbouktou
tone
tong
tonga
tongo
toni
tonik
tonimi
tonkin
tonn
tonne
tonnik
tonton
toots
top
topografi
topografik
topoloji
topolojik
toponnimi
torah
tordesillas
toro
torre
torse
tortose
torun
toscan
toscane
total
totalite
totalman
toti
tou
touareg
toubkal
toubonnman
touch
touche
touilet
toujou
toula
toule
toulonng
touloulou
toulouz
toum
touman
tounen
touni
toupannan
toupatou
toupi
tour
touraine
toure
touris
tourism
touristik
tournai
tourne
tournman
tournwa
tours
tourville
tousa
tout
toute
toutfwe
toutou
town
toyotomi
tr
tra
track
tracks
trade
tradisyon
tradisyone
tradisyonne
tradjwi
trafik
trafike
traje
trajik
trake
tralite
tralize
tranbman
tranch
tranche
trangle
tranje
tranmman
tranngle
trannsis
tranpo
transandan
transandans
transfe
transfo
transformasyon
transforme
transilvanni
transisto
transkontinantal
transkri
transkripsyon
translite
transme
transmisib
transmisyon
transoxian
transoxiane
transpare
transpo
transve
trant
trantenn
tranzisyon
tranzit
traras
tras
trase
trastamare
trasyon
trav
travay
travaye
travayis
travayo
trave
traver
trayi
trayizon
tre
tren
tres
tri
tribal
tribi
tribinal
tribit
tribite
trichinopoly
triftong
trigonome
trik
trikontinantal
triman
trinidad
trinite
trino
trip
triple
tripoli
tripoliten
trista
tristan
triyang
triyangile
triyanng
triye
triyonfalman
triyonfe
triz
trize
tro
troina
trois
trol
troloji
trolye
tromatism
tron
trone
tronn
tronnen
tronpe
tropik
tropikal
tropo
tropolit
tropoliten
trose
trota
trotwe
trou
troub
troup
troupo
trouve
troyes
trujillo
trump
trwa
trwat
trwatman
trwazye
trwazyenm
trwe
trwi
trwit
tsangyang
tsar
tse
tseu
tsewang
tsounanmi
tsuchimikado
tsunayoshi
tsushima
tswana
ttingen
tu
tude
tudor
tughlu
tughluk
tughluq
tughtekin
tumbes
tunis
turanshah
turing
turkestan
turkme
turques
tuscarora
tutuch
tuvalu
tver
twe
tye
tyen
tyenn
tyne
type
tyr
tyrien
tyrol
tyrrhe
tzu
u
ua
ud
uganda
ugetchi
ugolino
uhan
uji
ul
ulrich
ultimatum
uludj
ulugh
uma
ump
un
und
une
unesco
united
unur
up
upanishad
upon
uppsala
upright
uranus
urbain
uros
uruguay
us
usa
usd
use
used
uso
utg
uthman
utrecht
uv
uzun
v
va
vab
vaca
vach
vacher
vade
vag
vajraya
vakan
vakans
vakiyasyon
vakiye
vaksen
vaksinasyon
val
valab
valachi
valak
valans
valdemar
valdemarsdotter
valdivia
vale
valence
valiyasyon
valiye
valladolid
valle
valledupar
valo
valois
valparai
van
vanch
vande
vandino
vandre
vang
vanjans
vanje
vann
vans
vanse
vansyon
vantay
vantchwe
vanuatu
vape
vaping
vapo
var
varie
varyab
varyan
varyant
varyasyon
varye
varyo
vas
vasa
vasal
vasalite
vasalize
vasco
vaskile
vassili
vaste
vasyon
vat
vatikan
vaval
vaz
vazul
ve
veda
vega
vela
velasco
velho
veliko
ven
venceslas
venk
venki
venko
venman
venn
vennkat
vennman
vennsis
vense
vent
ventenn
ver
vera
veracruz
verceil
verde
verderosa
verdi
vermandois
vernon
vers
versailles
vespucci
vi
via
vibrasyon
vicaire
vicente
vicomte
victor
victoria
vid
vidal
vidans
vide
vie
vieira
vienne
vientiane
vif
vign
vignette
vigo
vigoure
vigtim
vigtorye
vigtwe
vigueur
vii
viie
viii
viiie
vijayana
vijayanagar
viking
vikinng
vikramaditya
viktim
viktorye
viktwar
viktwe
vil
vila
vilaj
vilge
villajuana
ville
villette
villiers
vilne
vincent
vinci
vini
vinifikasyon
violasyon
vir
viral
vire
virjil
virjini
virtchwe
virus
vis
visby
visconti
vise
vishnou
vishwanath
vit
vital
vitan
vite
viterbe
vitry
vitus
viv
vivaldi
vivan
vivant
viz
vizaj
vizavi
vize
vizib
vizibilite
vizir
vizit
vizite
vizito
vizo
vizwe
vizyon
vlad
vladimir
vladimirski
vlope
vlopman
vman
vo
voc
vokabile
vokal
vokasyon
voke
volga
voli
volim
volisyon
volisyone
volisyonne
volitif
voliye
volkan
volkannik
volonte
voloum
volousyon
volt
volta
voltaire
volte
volwe
vomisman
von
vonnyen
vosges
vosyon
vote
voyan
voye
vre
vrier
vriye
vsevolod
vwa
vwal
vwar
vwayaj
vwayaje
vwayajo
vwaye
vwe
vya
vyab
vyann
vyasyon
vye
vyen
vyenm
vyenn
vyennwa
vyolan
vyolans
vyolant
vyole
w
wa
wade
wadi
wagner
wake
wako
waldseemu
walis
wall
wallis
walt
walter
walwari
wang
wannari
war
warangal
ware
warren
warwick
washington
wat
watson
watt
wattasid
wattassid
wayanmpi
wayannan
wayna
wazir
we
web
weber
welser
wessex
west
westminster
whibley
whitey
wi
wide
wijaya
wiki
wikimedia
wikipe
wikipedia
wikipedialang
wikipediasister
wilhelm
will
willem
william
wilson
winchester
winston
with
wittelsbach
wo
wolfgang
women
wonm
woodstock
world
worms
wright
writing
wu
wurtemberg
wuruk
wwf
www
x
xandros
xang
xavier
xe
xhosas
xi
xia
xiangyang
xie
xii
xiie
xiii
xiiie
xiv
xive
xixe
xixia
xuande
xv
xve
xvi
xvie
xviie
xviiie
xxe
xxie
xxii
y
ya
yab
yacine
yacoub
yagsyon
yahia
yahya
yaj
yaji
yakoubo
yaksyon
yaksyone
yaktif
yal
yale
yalimapo
yalism
yalite
yalizasyon
yalizato
yalize
yamashiro
yan
yande
yang
yangzi
yani
yanik
yanjing
yanmwen
yannaj
yannen
yanni
yannik
yanografi
yans
yansib
yansyon
yant
yanti
yanyen
yaparisyon
yaqob
yaqub
yasin
yasyon
yat
yatenga
yatik
yato
yatral
yatwar
yawm
ye
year
yekouno
yelu
yen
yenm
yenn
yenstale
yente
yeshaq
yi
yiddish
yik
yikil
yikile
yildiz
yin
yinal
yini
yinifikasyon
yinifye
yinyon
yis
yisans
yisi
yism
yisman
yispannik
yistorik
yisunte
yite
yiyi
yizaj
yizan
ykiltir
yman
yni
ynifikasyon
ynyon
yo
yochimi
yodal
yofizik
yograf
yografi
yografik
yografikman
yogranm
yokipe
yokrasi
yolande
yolitik
yolo
yolog
yoloji
yolojik
yolojikman
yolojism
yolojyen
yome
yomo
yon
yongle
yongli
yonik
yonm
yonn
yonnman
yontoloji
yontolojis
yopolitik
yorenm
yori
yorik
yorimasa
yorimichi
yorisyen
yoritomo
york
yorkshire
yoroloji
yorolojik
yos
yoshiaki
yoshihisa
yoshimasa
yoshimitsu
yoshimochi
yoshinaka
yostasyonne
yote
you
your
youssef
youssouf
yozoyk
ypres
ys
yssel
yt
yte
yu
yuan
yuanzhang
yucata
yue
yukiie
yunnan
yupanqui
yussuf
yusuf
yves
yzaj
yzan
z
za
zab
zabel
zabitan
zachas
zadar
zafar
zafarin
zafe
zag
zags
zahir
zaj
zak
zakariya
zaks
zalg
zalp
zamorin
zan
zanbe
zanbi
zand
zandrwe
zanje
zanki
zanklavle
zanmi
zanmitche
zanmo
zann
zannimo
zans
zanse
zant
zantan
zantasyon
zante
zanti
zantiy
zapo
zar
zara
zarm
zas
zay
ze
zedong
zeelandia
zen
zenfragsyon
zengid
zenpo
zense
zente
zh
zhejiang
zheng
zhengtong
zhezong
zho
zhu
zi
zicheng
zidan
zidans
zidansye
zide
zignan
zignasyon
zigne
zignen
zijn
zil
zile
zilta
zilte
zilyen
zimaj
zimbabwe
zime
zimen
zin
zine
zir
zire
zirid
zistans
ziste
zite
ziyen
zman
zo
zoe
zolisyon
zoliv
zomorrod
zon
zongnon
zonn
zonnen
zonng
zonnman
zooloji
zoolojik
zopotami
zopotanmi
zoranj
zore
zoroastre
zoroastrism
zot
zoud
zours
zouti
zoutiyaj
zozo
zquez
ztrwe
zu
zwe
zwen
zwit
zyastik
zye
zyen
zyenm
zyenn
zyon
{
|
}
~
£
«
°
±
²
³
·
¹
º
»
½
×
ß
æ
æthelred
ð
÷
ø
þ
đa
đai
ɐ
ɑ
ɒ
ɔ
ɔɪ
ə
əʊ
ɛ
ɛə
ɜ
ɪ
ɪtɕ
ɪə
ɾ
ʃ
ʊ
ʊə
ʌ
ʔ
ʱ
ʲ
ʻ
ʼ
ʾ
ʿ
ˈ
ˌ
ː
ːˈ
ˑ
ˤ
˥
˧
˩
̀
́
̂
̃
̄
̆
̇
̈
̉
̊
̋
̌
̍
̓
̔
̛
̣
̥
̦
̧
̨
̩
̪
̯
̱
͂
ͅ
͡
α
αι
β
γ
γος
δα
δημοκρατι
ε
ζ
η
θεο
ι
λε
λο
μ
με
ν
ξανδρος
ο
π
πολυ
ς
ω
ϑ
и
косово
н
на
република
республика
с
у
х
шаблон
үлгі
ְ
ִ
ֵ
ֶ
ַ
ָ
ֹ
ּ
ׁ
ׂ
א
ב
ג
ד
ה
ו
י
ך
ל
ם
מ
נ
ע
ר
ש
ת
״
ا
ابن
اسلامی
الا
الجمهورية
الصومال
العربي
العربية
الله
الگو
بن
ة
ت
جمهورية
د
دولة
ر
س
قالب
م
ن
و
ي
َ
ُ
ِ
ّ
ْ
ٓ
ٔ
ٕ
ހ
ރ
އ
ވ
މ
ދ
ގ
ޔ
ޖ
ާ
ި
ު
ޫ
ެ
ޭ
ް
ं
ः
आ
क
ग
घ
च
ज
ठ
ण
त
थ
द
ध
न
प
फ
ब
भ
म
य
र
रत
ल
लय
व
श
ष
स
ह
़
ा
ि
ी
ु
ू
ृ
े
ै
ो
्
ঁ
ং
ক
চ
ট
ড
ত
দ
ন
প
ব
ভ
য
র
ল
শ
ষ
স
হ
়
া
ি
ী
ূ
ে
্
ৰ
ৱ
ਖ
ਗ
ਦ
ਨ
ਰ
ਵ
ਸ
ਾ
ਿ
ੁ
ੂ
ੇ
ੱ
ં
ગ
દ
ધ
મ
સ
ા
ી
ો
க
ங
ச
ட
த
ப
ர
ழ
ி
ு
ூ
்
ം
ഭ
ാ
ി
ൽ
ก
ข
น
พ
ล
ว
ั
ำ
ิ
ี
ื
ุ
แม
่
้
์
ດ
ັ
ິ
ົ
່
་
ག
ང
ཇ
མ
ཡ
ལ
ུ
ོ
ྲ
ླ
န
မ
ာ
်
ြ
ជ
ណ
ត
ប
ព
ម
រ
ស
ា
ុ
ែ
ះ
្
‌
‎
‐
‑
–
—
‘
’
“
”
†
•
…
′
‿
⁴
₁
€
ℂ
ℚ
ℝ
⅓
←
→
↔
↦
↷
⇒
−
√
∞
∼
⋅
③
④
⑦
☉
☾
☿
♀
♂
♃
♄
♆
⛢
ⴰ
ⴱ
ⴳ
ⴷ
ⴻ
ⴼ
ⵉ
ⵍ
ⵎ
ⵏ
ⵓ
ⵔ
ⵖ
ⵙ
ⵜ
ⵟ
ⵡ
ⵢ
ⵣ
⺀
⺄
⺆
⺈
⺊
⺌
⺕
⺝
⺸
⺼
⿰
⿱
⿲
⿳
⿴
⿵
⿶
⿷
⿸
⿹
⿺
⿻
〢
の
コ
ユ
㇁
㇂
㇄
㇇
㇈
㇉
㇓
㐁
㐄
㐅
㐌
㐫
㐬
㐭
㐮
㐱
㑒
㒵
㒸
㒼
㓁
㓞
㔾
㕛
㕣
㖾
㘝
㚅
㚇
㚔
㚘
㝉
㝡
㝴
㝵
㞋
㞢
㞷
㠩
㠭
㠯
㡀
㡭
㡿
㢲
㢴
㣇
㣺
㥯
㪅
㫄
㫐
㫒
㫺
㬅
㬎
㬥
㬰
㲋
㳄
㷠
㸒
㸚
㸦
㼌
㼲
㽞
㿟
䀠
䂞
䍃
䏍
䒑
䖍
䖒
䖝
䖵
䙴
䚻
䜌
䝿
䡛
䧹
䪞
一
丁
丂
七
丄
丅
丆
万
丈
三
上
下
丌
不
与
丏
丐
丑
专
且
丕
世
丘
丙
业
东
丞
丢
丣
两
严
並
丨
丩
个
丫
丬
中
丮
丰
丱
串
丵
丶
丷
丸
丹
为
主
丽
丿
乀
乂
乃
久
乆
乇
么
义
之
乌
乍
乎
乏
乐
乑
乔
乖
乗
乘
乙
乚
乛
乜
九
乞
也
习
乡
乱
乳
乾
亀
亅
了
亇
予
争
事
二
亍
于
亏
亐
云
互
亓
五
井
亘
亚
亜
亞
亟
亠
亡
亢
交
亥
亦
产
亨
亩
享
京
亭
亮
亯
亰
亲
亳
亶
亷
人
亻
亼
亾
仁
今
介
仌
从
仐
仑
仒
仓
仕
他
付
仝
代
令
以
任
企
伊
伏
伐
休
会
伯
但
位
何
佘
余
作
佥
使
來
侈
侌
侖
侯
侵
便
保
俞
信
修
倉
倍
候
倠
備
僉
僕
儒
儿
兀
允
兂
元
兄
充
兆
兇
先
光
兊
克
兌
免
兑
兒
兓
兔
党
兜
兟
入
全
兩
兪
八
公
六
兮
兰
共
关
兵
其
具
典
兹
兼
冀
冂
冃
冄
内
冈
冉
冊
冋
册
再
冎
冏
冐
冒
冓
冖
冗
冘
军
农
冝
冡
冥
冫
冬
冷
几
凡
凢
凵
凶
凷
凸
凹
出
函
凾
刀
刁
刂
刃
刄
刅
分
切
刍
刑
刕
刖
列
刘
则
初
別
利
别
到
制
刺
則
削
剌
前
剡
剽
劉
力
功
加
劦
助
劫
劳
劵
勃
勇
勉
勒
動
務
勞
勤
勹
勺
勻
勾
勿
匀
匂
包
匆
匈
匊
匋
匍
匕
化
北
匚
匝
匡
匪
匱
匸
匹
区
医
匽
匿
區
十
卂
千
卄
卅
卆
升
午
卉
半
卌
华
卑
卒
卓
单
卖
南
卜
卝
卞
占
卡
卢
卣
卤
卦
卩
卪
卬
卯
印
危
即
却
卵
卷
卸
卻
厂
厃
厄
历
厈
厉
厌
厓
厘
厚
原
厤
厥
厨
厭
厲
厶
厷
厸
去
厼
厽
叀
参
參
叅
又
叉
及
友
双
反
叐
发
叒
叔
叕
取
受
叚
叜
叟
口
古
句
另
叩
只
召
可
台
叱
史
右
叵
号
司
叹
吂
各
吅
合
吉
吊
吋
同
名
后
吏
向
吕
君
吝
吞
否
含
启
吳
吴
吹
吾
呂
呆
呈
告
员
呙
周
命
咅
和
咎
咠
咢
咨
咸
咼
哀
品
哉
員
哥
哲
唐
商
啇
問
啚
啬
啻
善
喜
喬
單
喿
嗇
噩
嚴
囊
囗
囘
囙
囚
四
回
囟
因
囧
囬
困
囱
囷
固
国
圂
圅
國
圍
圓
土
圡
圣
圥
在
圭
地
圶
圼
坐
坒
坚
坡
坴
垂
垔
垚
埀
埋
城
埶
執
基
堂
堅
堆
堇
堯
塞
墨
壘
士
壬
壯
声
壳
壴
壹
壺
壽
夂
处
夅
夆
备
夊
夋
夌
复
夏
夒
夕
外
夗
夘
多
夜
夢
大
夨
天
太
夫
夬
夭
央
失
夲
头
夷
夸
夹
夻
夾
奂
奄
奇
奈
奉
奎
奏
奐
契
奓
奔
奚
奞
奠
奢
奥
奭
女
奴
奻
好
如
妄
妙
妟
妥
妻
妾
始
姑
委
姜
威
娄
婁
婴
嬰
嬴
子
孑
孔
孕
孖
字
存
孚
孛
孝
孟
季
孤
学
孫
孱
學
宀
宁
宂
它
宅
宇
守
安
宋
完
宏
宓
宗
官
定
宛
宜
宝
客
宣
室
宮
宰
害
家
容
宾
宿
寄
寅
密
富
寒
察
寧
審
寫
寬
寮
寶
寸
对
寺
寻
寽
対
寿
封
尃
射
将
將
專
尉
尊
尋
尌
對
小
少
尒
尓
尔
尖
尗
尚
尞
尢
尣
尤
尧
尨
尭
就
尸
尹
尺
尻
尼
尽
尾
尿
局
居
屈
屋
屎
屏
屑
展
屖
屚
属
屠
屡
屬
屮
屯
屰
山
屵
屾
岁
岂
岑
岡
岩
岳
岸
峯
島
崇
崑
崔
崖
崙
崩
嵬
嶲
巂
巛
川
州
巟
巠
巢
巤
工
左
巧
巨
巩
巫
差
己
已
巳
巴
巷
巸
巽
巾
巿
帀
市
布
希
帚
帛
帝
带
師
席
帶
常
干
平
年
幵
并
幷
幸
幺
幻
幼
幽
幾
广
広
庄
床
底
店
庚
府
度
庫
庭
庶
康
庸
廉
廌
廛
廣
廩
廴
延
廷
建
廾
廿
开
弁
弃
弄
弇
弋
式
弓
弔
引
弗
弘
弜
弟
弥
弦
弱
張
強
强
彊
彌
彎
彐
彑
当
彔
录
彖
彗
彡
形
彥
彦
彧
彭
彳
役
彼
往
待
律
徒
得
徙
從
復
微
徵
德
心
忄
必
忌
忍
志
忝
忠
忩
快
念
忽
忿
思
怠
急
怱
恆
恒
恩
恭
息
悉
患
悤
悲
悶
惠
惡
惢
愁
愈
意
愛
感
慈
慧
慮
憂
憲
應
戀
戈
戉
戊
戋
戌
戍
戎
成
我
戒
戔
或
戚
戠
戢
截
戲
戶
户
戸
戹
戼
戾
房
所
扁
扇
手
扌
才
打
托
执
扬
承
折
拉
拜
括
拿
掌
推
提
揚
摩
支
攴
攵
收
攸
改
放
政
敄
敏
敕
敖
敗
教
敝
敞
敢
散
敦
敫
敬
数
敷
數
斂
文
斉
斊
斎
斗
斤
斥
斩
斬
斯
新
方
於
施
斿
旁
旋
族
无
旡
既
旣
日
旦
旧
旨
早
旬
旱
旲
时
旾
昆
昇
昌
昍
明
昏
易
昔
昗
昜
星
春
昬
是
昱
昴
昷
時
晃
晋
晏
普
景
晶
智
暑
暴
曆
曇
曩
曰
曲
曳
更
曷
書
曹
曼
曾
替
最
朁
會
月
有
朋
服
朔
朕
朗
望
朝
木
朩
未
末
本
札
朮
术
朱
朵
朶
朿
杀
李
杏
杜
束
条
来
東
杲
杳
松
析
林
枚
果
枝
枲
枼
某
柔
查
柬
柰
柴
栗
桀
桑
桼
梁
條
梟
梨
棘
棠
棥
森
楚
業
楽
榮
樂
樊
欠
次
欣
欮
欲
欶
欽
款
歆
歇
歛
止
正
此
步
武
歨
歪
歮
歯
歰
歲
歴
歷
歸
歹
歺
死
殳
段
殷
殸
殹
殺
殻
殿
毋
毌
母
每
毒
比
毕
毚
毛
毳
氏
氐
民
气
氣
水
氵
氶
氷
永
氺
氾
求
汉
汝
汞
江
沃
沈
沓
沙
沝
河
泉
法
波
泣
泥
泰
泽
洛
洪
活
派
流
浦
浪
浮
淡
淮
清
渚
渠
港
湯
滿
漢
漸
澤
澳
火
灬
灭
灰
灵
灷
炅
炎
炏
炗
炙
炭
為
烈
烏
烝
焉
無
焦
焱
然
煞
熊
熏
燕
營
燮
爪
爫
爭
爯
爰
爱
爲
爵
父
爻
爽
爾
爿
片
牙
牚
牛
牜
牟
牢
牧
牪
牽
犀
犬
犭
犮
狂
狄
狊
独
狺
猋
猒
猪
献
獻
玄
率
玉
王
玟
玨
珎
班
琴
瑟
瑩
瓜
瓦
甘
甚
生
産
用
甫
甬
田
由
甲
申
电
甶
男
甸
甹
画
甾
畀
界
畏
畐
留
畜
畟
畢
畧
畨
番
畫
異
畱
當
畺
畾
疊
疋
疌
疑
疒
疾
癶
癸
癹
登
發
白
百
皀
皃
的
皆
皇
皋
皐
皕
皮
皷
皿
盃
盆
盇
盈
益
盍
盎
监
盒
盖
盛
盡
監
盤
盧
目
直
相
盾
省
眇
眉
看
眔
眞
真
眷
眼
眾
着
睘
睪
睿
瞏
瞢
瞿
矍
矛
矞
矢
矣
知
矦
短
石
破
碎
磊
磨
示
礻
礼
神
祟
票
祭
禀
禁
禸
禹
禺
离
禽
禾
禿
秀
秃
秉
秋
科
秝
秦
移
稟
穀
穌
穴
究
穹
空
穿
突
窄
窒
立
竒
竜
竝
竟
章
童
竹
笑
笠
筆
等
答
箕
算
箴
節
篤
篭
米
粉
粛
粟
粤
粦
粲
糞
糸
糹
系
約
納
素
索
紫
累
細
絜
絫
絲
維
綿
縣
繇
纍
纟
级
缶
网
罒
罔
罕
罗
罙
罡
罢
罪
署
罷
羅
羊
羌
羍
美
羔
羕
羗
羞
羡
羣
群
義
羲
羸
羽
翁
翏
習
翕
翟
翠
翼
老
耂
考
者
耆
而
耎
耑
耒
耳
耴
耶
耷
聂
聊
聖
聚
聶
聿
肀
肃
肅
肉
肖
肙
肥
肩
肯
育
肴
胃
背
胡
胥
能
脊
脩
膚
臣
臤
臧
自
臬
臭
臯
臱
至
致
臺
臼
臽
臾
臿
舀
舂
舄
與
興
舉
舌
舍
舛
舜
舞
舟
般
艮
良
色
艸
艹
艾
芒
芔
芬
芮
花
芳
芺
芻
苔
苗
苟
若
苦
英
茶
茸
荅
草
荒
荣
荼
莆
莧
莫
莽
菆
菊
菐
華
萬
落
葉
著
葛
董
葵
蒙
蒦
蒼
蓋
蓬
蓺
蔑
蔡
蕉
蕭
薄
薛
薦
薰
藍
藏
藥
蘭
虍
虎
虐
虒
虔
處
虖
虗
虘
虚
虛
虜
虞
虫
虽
蚤
蚩
蜀
蜜
蟲
蠡
血
行
衍
衛
衣
衤
表
衮
衰
袁
袞
褭
褱
襄
襾
西
覀
要
覃
見
規
覓
覧
親
覽
见
角
解
言
訁
訇
計
詹
語
誩
諸
讠
语
谷
豆
豈
豊
豐
豕
豖
豙
象
豦
豩
豪
豸
貇
貝
貞
貟
負
貢
貧
貪
貫
責
貳
貴
買
費
賁
資
賈
賏
賓
賔
賛
賞
賢
賣
質
賴
贊
贝
贡
责
贯
贲
贵
赖
赞
赤
赦
走
越
足
路
蹇
身
躬
車
軍
軎
軟
輦
车
辛
辜
辟
辥
辰
辱
農
辵
辶
边
达
过
近
连
迷
追
退
送
逆
逐
通
速
造
逢
連
逮
進
遀
遂
過
道
達
遣
適
遷
遺
邊
邑
邕
那
邦
邪
郎
郑
部
郭
都
鄉
鄭
酉
酋
配
酓
釆
采
里
重
野
量
金
釒
錢
钅
長
镸
长
門
閃
閉
開
閏
閑
閒
間
閔
閵
閻
闌
门
闰
间
闷
阑
阜
阝
阳
阴
阶
阿
降
院
陬
陰
陳
陽
隆
隊
隋
隡
隨
隱
隶
隹
隺
隻
隼
隽
难
雀
雁
集
雈
雋
雍
雐
雔
雙
雚
雜
雝
離
難
雨
雩
雪
雲
零
雷
需
霍
霜
霝
霞
霸
靈
靑
青
非
靡
面
靣
革
韋
韓
韦
韭
韯
韱
音
頁
頃
項
須
頗
頡
頻
顛
页
風
风
飛
飞
食
飠
飾
養
饣
首
香
馬
馮
駦
马
骨
高
髟
鬥
鬯
鬲
鬼
魚
魯
鮮
鱼
鲁
鳥
鳳
鸟
鹵
鹿
麃
麗
麥
麦
麻
黃
黄
黍
黎
黑
黒
黨
黹
黽
黾
鼎
鼓
鼠
鼻
齊
齋
齐
齒
齿
龍
龙
龜
龟
龠
龰
龱
龴
龵
龶
龷
龸
龹
者
艹
ﯾ
ﺍ
ﺔ
ﺠ
ﺭ
ﻟ
ﻤ
ﻥ
ﻬ
ﻮ
？
🜨
𠀁
𠀃
𠀆
𠀉
𠀎
𠀐
𠁁
𠁣
𠂆
𠂇
𠂈
𠂉
𠂊
𠂋
𠂎
𠂒
𠂔
𠂛
𠂡
𠂢
𠂤
𠂬
𠂭
𠂹
𠃊
𠃋
𠃌
𠃍
𠃎
𠃑
𠃓
𠃔
𠃜
𠄌
𠄎
𠄠
𠄢
𠆢
𠆥
𠇍
𠈌
𠌵
𠓜
𠔉
𠔥
𠔼
𠔽
𠔿
𠕀
𠕁
𠕋
𠘧
𠘨
𠙻
𠙼
𠚏
𠚒
𠚤
𠚪
𠣏
𠤎
𠤕
𠥓
𠦄
𠦑
𠦝
𠧒
𠧗
𠧪
𠩺
𠪚
𠫓
𠫔
𠫤
𠬛
𠬝
𠬞
𠬢
𠬤
𠬶
𠮛
𠮦
𠮷
𠯑
𠱠
𠳮
𠷎
𡈼
𡉀
𡉵
𡌥
𡍮
𡏳
𡕒
𡕩
𡕰
𡖅
𡗗
𡗜
𡘆
𡘤
𡧱
𡨄
𡩧
𡬠
𡭽
𡰣
𡰥
𡰪
𡰯
𡰱
𡷈
𡸁
𡿨
𡿩
𡿪
𡿺
𢀖
𢀛
𢀩
𢁙
𢆉
𢆰
𢆶
𢇁
𢇇
𢉖
𢌬
𢌿
𢏚
𢑑
𢑚
𢖻
𢙣
𢛳
𢦏
𢦒
𢧵
𢼄
𢾕
𣁋
𣄼
𣅀
𣅽
𣍘
𣎳
𣎵
𣏋
𣏼
𣗥
𣥂
𣥖
𣦵
𣦼
𣧄
𣪊
𣪠
𣬉
𣳾
𣶒
𤇾
𤊽
𤐫
𤓰
𤔔
𤕨
𤣩
𤰇
𤰔
𤰞
𤴓
𤴔
𤽄
𥁑
𥁕
𥃦
𥃩
𥃭
𥇡
𥑟
𥘅
𥘈
𥝢
𥫗
𥱡
𦈢
𦉪
𦉬
𦉼
𦍌
𦍒
𦎧
𦐇
𦓔
𦔮
𦘒
𦙃
𦚏
𦣝
𦣞
𦣻
𦥑
𦥔
𦥯
𦨉
𦭝
𦰩
𧆞
𧈧
𧘇
𧰨
𧴪
𧴮
𧵩
𧾷
𨸏
𨾴
𩙿
𩠐
𩫏
𩵋
𪉷
𪜀
𪟽
𪠲
𪩲
𫇦
𫔭
𫜸
𫝀
𫠣
𫠩
𫢉
𫥞
𫩏
𫩠
𫪡
𫲽
𫶧
𬀷
𬐘
𬗌
𬙙
𬛸
𬜯
𬟩
𬯁
𬴘
𬺻
𬼉
𬼖
𭀰
𭁈
𭁨
𭅰
𭑈
𭕄
𭗼
𭤨
𭥫
𭻾
𮅕
𮊿
𮍌
𮍏
𮓗
𮥼
𮧮
廾
𰀁
𰀄
𰀈
𰀉
𰀕
𰀠
𰀡
𰀢
𰀪
𰁜
𰃮
𰆊
𰆘
𰋙
𰕎
𰢴
𰧭
𰯲
0--
10--
11--
12--
13--
14--
15--
16--
17--
20--
21--
5--
6--
8--
9--
a--
ab--
aba--
abdo--
abi--
aby--
ac--
ad--
ae--
af--
afe--
ag--
agnos--
agu--
ah--
ai--
air--
aj--
ak--
akou--
akro--
aksyoma--
al--
ala--
ale--
ali--
am--
amb--
ame--
an--
ana--
and--
ang--
ani--
ann--
ant--
anti--
ao--
ap--
apo--
apro--
apu--
aq--
ar--
arag--
arau--
arg--
arm--
arn--
aro--
art--
as--
asa--
astro--
at--
ath--
au--
aus--
av--
ave--
ay--
ayu--
az--
b--
ba--
bag--
bal--
bam--
ban--
bar--
barthol--
bat--
bay--
be--
beau--
bel--
ben--
ber--
bhi--
bi--
bien--
bin--
bio--
bir--
bo--
bob--
bois--
bol--
bon--
bou--
bra--
brah--
brande--
bri--
bro--
bru--
bruge--
bu--
bud--
bul--
buondel--
bur--
by--
byo--
c--
ca--
cal--
cam--
can--
cap--
car--
cast--
castil--
cat--
cau--
ce--
cel--
ch--
cha--
cham--
char--
che--
chi--
chiri--
cho--
chy--
ci--
cl--
clau--
cle--
cn--
co--
col--
com--
con--
concep--
coo--
corpo--
cosa--
cou--
cristo--
cs--
cu--
cumanag--
cy--
d--
da--
dai--
dan--
de--
dec--
del--
dempt--
den--
des--
dev--
dh--
dham--
di--
dia--
dic--
dictionn--
dif--
dig--
dik--
din--
dio--
dis--
dja--
djo--
do--
dom--
domin--
don--
dou--
dra--
du--
dul--
dun--
dur--
dy--
dyrra--
dz--
e--
ec--
ed--
edło--
ef--
eg--
eis--
ek--
el--
ele--
elep--
em--
en--
endi--
enfe--
enfi--
enfra--
eng--
engel--
enkon--
ens--
er--
erem--
es--
est--
et--
eu--
euph--
ev--
ex--
f--
fa--
fac--
fak--
fal--
fan--
farma--
fas--
fe--
fer--
fi--
fil--
fin--
fle--
flo--
fo--
fol--
fon--
for--
fos--
foto--
fou--
foun--
fr--
fra--
fre--
fri--
fruc--
fu--
fʁ--
g--
ga--
gahada--
gal--
gan--
gar--
gau--
ge--
gen--
ger--
gh--
gho--
gi--
giyo--
gl--
glu--
gno--
go--
god--
gos--
gou--
gra--
gran--
gri--
gs--
gu--
gua--
gue--
gui--
guil--
gul--
gza--
h--
ha--
hai--
hal--
ham--
han--
hay--
he--
heb--
hed--
hel--
here--
hi--
hila--
hin--
ho--
hol--
holly--
hoo--
hu--
hy--
hydro--
i--
ia--
ib--
id--
idro--
ie--
iet--
ign--
ij--
ijs--
il--
ili--
im--
ima--
imple--
in--
ind--
inge--
ini--
inis--
ino--
inu--
ir--
irm--
irsi--
is--
ishi--
it--
iz--
izolas--
j--
ja--
jacque--
jai--
jan--
jau--
je--
ji--
jia--
jin--
jo--
jong--
jou--
ju--
k--
ka--
kab--
kad--
kal--
kam--
kan--
kap--
kar--
kara--
kat--
ke--
kh--
kha--
khi--
kho--
khu--
ki--
kil--
kl--
kla--
kli--
klo--
ko--
kola--
kom--
kon--
konse--
kos--
kou--
koun--
kowa--
koy--
kr--
kra--
kri--
kris--
ks--
kt--
ktrokardjo--
ku--
kwi--
ky--
kyrgyz--
l--
la--
lab--
lak--
lam--
lan--
lar--
larchi--
las--
lat--
lau--
le--
len--
les--
li--
lib--
lidro--
lig--
lin--
lis--
lit--
lk--
lo--
lob--
lon--
lor--
los--
lotha--
loto--
lt--
lu--
lun--
m--
ma--
mac--
mag--
mah--
mak--
mal--
mamm--
man--
manas--
mandi--
mani--
manifak--
mar--
mas--
mat--
matri--
mau--
maurit--
max--
may--
md--
mdcc--
mdccc--
mdcccl--
mdccclx--
mdccclxx--
mdcccx--
mdcccxc--
mdcccxl--
mdcccxx--
me--
meh--
mel--
men--
mer--
mess--
mi--
mic--
mil--
min--
mir--
mis--
mit--
miz--
mo--
moc--
mogadis--
mon--
mono--
morg--
mou--
mu--
mun--
muni--
mus--
mut--
my--
n--
na--
nan--
nara--
nas--
nat--
natu--
ne--
neder--
ng--
ni--
nico--
nik--
nip--
nn--
no--
non--
nos--
nou--
novo--
nu--
nwa--
o--
obre--
octa--
od--
oda--
of--
ofis--
oi--
ok--
oks--
ol--
oli--
olym--
om--
omo--
on--
ope--
or--
org--
ori--
oro--
orto--
os--
osi--
ost--
oto--
otoma--
ou--
our--
out--
ov--
p--
pa--
pal--
pan--
par--
para--
pars--
pas--
pat--
pe--
pen--
pennsy--
per--
pes--
ph--
pha--
phi--
pho--
pi--
pik--
pil--
pir--
pla--
pli--
plu--
po--
poi--
pol--
poly--
pom--
ponm--
pont--
pou--
pour--
pr--
pre--
pri--
princi--
pro--
prviz--
psi--
psikan--
pt--
pu--
pwa--
py--
q--
qa--
qat--
qos--
qu--
qui--
r--
ra--
rab--
rad--
radjo--
ral--
ram--
ran--
rap--
rar--
ras--
rat--
rb--
rd--
rdi--
re--
regu--
ren--
res--
rey--
rg--
ri--
rijc--
rik--
rim--
riy--
riz--
rj--
rk--
rm--
rmi--
rmo--
rn--
rni--
ro--
rob--
ros--
rou--
rout--
row--
rpa--
rs--
rso--
rt--
rti--
ru--
rv--
ryo--
s--
sa--
sab--
saha--
sak--
sal--
sala--
sam--
san--
sar--
sau--
saw--
sax--
say--
sc--
sca--
sch--
sche--
sci--
scil--
sco--
se--
sem--
sen--
ser--
serg--
ses--
sh--
shi--
si--
sib--
sik--
sim--
sin--
singa--
sir--
sis--
sk--
sko--
sl--
sm--
so--
sof--
som--
sou--
soub--
soups--
sov--
sp--
splwa--
spon--
sr--
st--
ste--
sti--
sto--
stra--
stu--
su--
sun--
super--
sv--
svet--
syon--
szi--
t--
ta--
tab--
tae--
tag--
tai--
tal--
tam--
tan--
taor--
tar--
tas--
tau--
tay--
tch--
te--
tek--
tem--
ten--
ter--
tex--
th--
tha--
that--
the--
thu--
ti--
tir--
tis--
tno--
to--
ton--
tou--
tra--
tran--
trans--
tri--
tro--
tse--
tu--
tung--
twi--
tʃ--
u--
ul--
un--
unive--
up--
urg--
us--
v--
va--
vag--
vaj--
val--
van--
vapo--
var--
vas--
vati--
ve--
vel--
ven--
venn--
ver--
vi--
viet--
vil--
villa--
vinl--
vir--
vis--
viv--
vo--
volu--
vwa--
w--
wa--
wad--
war--
we--
wel--
wen--
whi--
wi--
win--
wo--
wu--
x--
xi--
y--
ya--
yala--
ye--
yi--
yo--
yon--
yos--
yoshi--
you--
yu--
z--
za--
zab--
zam--
zan--
zar--
ze--
zen--
zhong--
zi--
zim--
zo--
zon--
zu--
zum--
œ--
ɡ--
ɪ--
ɾ--
ʁ--
γ--
γρ--
ελλη--
κ--
λι--
μ--
ν--
ο--
π--
σοφ--
φι--
кир--
н--
ال--
الم--
ب--
ر--
ما--
مح--
ग--
म--
--0
--00
--1
--2
--3
--4
--5
--6
--7
--8
--9
--a
--aan
--ab
--abad
--ac
--ace
--ad
--ada
--ade
--age
--agua
--ah
--ai
--ail
--ain
--ais
--aj
--aje
--ak
--aka
--al
--alite
--alizasyon
--am
--ami
--amit
--an
--ana
--and
--ane
--ano
--ans
--ant
--ar
--ara
--ard
--ari
--ark
--aro
--as
--ashi
--asyon
--at
--ata
--ati
--atif
--atik
--ation
--atir
--atis
--ativ
--ato
--au
--aux
--ay
--ayk
--ayon
--b
--ba
--ban
--bao
--be
--bi
--bo
--bu
--by
--c
--ca
--cas
--ce
--cento
--ces
--ch
--cha
--che
--chi
--cia
--cien
--ck
--cks
--co
--cope
--cos
--cs
--ct
--ction
--cy
--d
--da
--dad
--dan
--dans
--dar
--das
--de
--den
--des
--dez
--dge
--di
--dide
--dj
--dji
--do
--dor
--dra
--ds
--dt
--du
--dy
--e
--ea
--ed
--edi
--ee
--ei
--ek
--el
--em
--en
--enm
--enn
--enng
--ent
--eois
--er
--era
--ere
--ers
--es
--et
--ete
--ette
--eur
--ev
--ey
--ez
--f
--fa
--fe
--fi
--fik
--fo
--fonn
--fort
--ft
--g
--ga
--gai
--gawa
--gdi
--ge
--gen
--ger
--gge
--ggy
--gh
--gi
--gin
--gn
--gnan
--go
--gs
--gu
--gua
--gzu
--h
--ha
--hai
--ham
--hara
--he
--hea
--hi
--hir
--hit
--hn
--ho
--hor
--hos
--hr
--ht
--http
--hu
--huen
--i
--ia
--ian
--ib
--ic
--ical
--ich
--id
--ide
--ie
--iel
--ien
--iens
--ier
--ies
--ieu
--if
--ifye
--ig
--ige
--ign
--ii
--ijenn
--ik
--ika
--ike
--iko
--il
--ile
--illa
--im
--in
--ine
--ing
--io
--ion
--ip
--ique
--ir
--ira
--ire
--iros
--is
--ism
--it
--ita
--ital
--itan
--itch
--ite
--itik
--ito
--ium
--ius
--iv
--iya
--iye
--iyo
--izan
--izasyon
--ize
--j
--ja
--jab
--jar
--je
--jen
--ji
--jk
--jo
--jon
--jwe
--k
--ka
--kal
--ke
--ker
--ki
--kia
--kir
--kirk
--ko
--koku
--kop
--kri
--ks
--kt
--ktik
--ku
--l
--la
--land
--lav
--ld
--le
--ley
--li
--life
--lik
--lin
--ling
--lis
--litid
--ll
--lla
--llac
--lle
--lles
--lli
--llo
--lo
--loji
--lon
--ls
--lt
--lus
--ly
--lyn
--m
--ma
--mais
--maj
--man
--me
--mi
--mid
--mik
--mm
--mo
--mp
--mps
--mu
--mum
--n
--na
--nal
--nalism
--nan
--nas
--nc
--nca
--nce
--nd
--nde
--ndi
--ndo
--ne
--nel
--nen
--nes
--net
--nett
--ng
--nga
--ngen
--ngn
--ni
--nia
--nim
--nis
--nism
--nj
--nk
--nke
--nks
--nm
--nman
--nmi
--nmik
--nn
--nne
--nnen
--nni
--nnman
--no
--noloji
--ns
--nse
--nsis
--nsk
--nson
--nt
--ntal
--nte
--nto
--nu
--ny
--nyal
--nye
--nz
--nza
--nzo
--o
--oc
--od
--oe
--oi
--oji
--ok
--ol
--ole
--olik
--olo
--oloji
--om
--on
--one
--oni
--onm
--ons
--oon
--or
--os
--ose
--ot
--ota
--ote
--ou
--our
--ous
--out
--ov
--ovirus
--oyid
--p
--pa
--pan
--par
--pe
--peace
--phia
--pi
--po
--pp
--ppe
--ppy
--pu
--puis
--q
--qi
--qui
--quin
--r
--ra
--rab
--raj
--ran
--raz
--rc
--rco
--rd
--re
--red
--res
--rg
--ri
--ria
--rial
--rie
--rik
--rin
--ris
--risyon
--rit
--riz
--rn
--rne
--rnel
--ro
--rp
--rra
--rs
--rse
--rt
--rte
--rth
--rvan
--ry
--rye
--s
--sa
--sal
--san
--sas
--sat
--sau
--schaft
--se
--seca
--sen
--ser
--sey
--sfe
--sh
--si
--sin
--sion
--sism
--site
--sk
--sm
--sman
--so
--son
--ss
--ssa
--sse
--ssel
--sson
--st
--sta
--stan
--ster
--ston
--su
--sy
--syon
--sz
--sı
--t
--ta
--taj
--tal
--tan
--tar
--tasyon
--tche
--te
--ted
--ter
--tes
--th
--ti
--tib
--tic
--tif
--tik
--tin
--ting
--tion
--tip
--tir
--tis
--tiv
--to
--tol
--ton
--tor
--tos
--tou
--town
--tri
--ts
--tt
--tta
--tte
--tu
--tz
--u
--ua
--ub
--uba
--uc
--ud
--ue
--ues
--uf
--ui
--uil
--uin
--uk
--ul
--ult
--um
--un
--ung
--ur
--ura
--ure
--uri
--us
--use
--ut
--uti
--utin
--ux
--uz
--v
--va
--van
--ve
--ves
--vi
--vich
--vo
--voir
--vy
--w
--wa
--wan
--war
--way
--we
--well
--wi
--wich
--wick
--wini
--wit
--wn
--ws
--x
--xi
--xt
--y
--ya
--yah
--yak
--yal
--yan
--yar
--yas
--ye
--yen
--yi
--yid
--yk
--yl
--yn
--yo
--yon
--ys
--yson
--yyah
--z
--za
--zan
--zasyon
--ze
--zet
--zi
--zo
--zyon
--æ
--ŋ
--ɐ
--ɑ
--ə
--ʁ
--ʃ
--α
--ι
--ικη
--κο
--ν
--ο
--ς
--τε
--υ
--ω
--и
--ия
--кая
--кии
--тан
--тон
--ч
--я
--ја
--ים
--ا
--ان
--ة
--ت
--د
--ل
--لكة
--م
--ن
--ي
--म
--र
