!
"
#
##0
##1
##10
##11
##12
##13
##14
##15
##16
##17
##18
##19
##2
##20
##21
##22
##23
##24
##25
##26
##27
##28
##29
##3
##30
##31
##32
##33
##34
##35
##36
##37
##38
##39
##4
##40
##41
##42
##43
##44
##45
##46
##47
##48
##49
##5
##50
##51
##52
##53
##54
##55
##56
##57
##58
##59
##6
##60
##61
##62
##63
##64
##65
##66
##67
##68
##69
##7
##70
##71
##72
##73
##74
##75
##76
##77
##78
##79
##8
##80
##81
##82
##83
##84
##85
##86
##87
##88
##89
##9
##90
##91
##92
##93
##94
##95
##96
##97
##98
##99
$
%
&
'
(
)
*
+
,
-
.
/
0
00
000
001
007
01
012
018
02
021
022
024
03
035
04
041
05
058
06
07
072
08
09
093
098
1
10
100
1000
1001
101
102
104
105
106
108
109
11
110
111
112
113
114
115
116
117
118
119
12
120
123
125
126
1269
127
128
129
13
130
131
132
133
134
135
136
14
140
143
144
146
147
148
15
150
1500
151
158
159
16
160
1600
161
162
1624
164
1648
165
166
167
168
17
175
176
18
180
181
1811
1821
1825
1830
1838
185
187
1873
1874
1875
1878
1880
1893
1898
19
190
1902
1904
1905
1908
191
1910
1913
1916
1917
1918
192
1920
1921
1922
1923
1924
1925
1926
1927
1928
1929
193
1930
1931
1932
1933
1934
1935
1936
1937
1938
1939
1940
1941
1942
1943
1944
1945
1946
1947
1948
1949
1950
1951
1952
1953
1954
1955
1956
1957
1958
1959
1960
1961
1962
1963
1964
1965
1966
1967
1968
1969
1970
1971
1972
1973
1974
1975
1976
1977
1978
1979
1980
1981
1982
1983
1984
1985
1986
1987
1988
1989
199
1990
1991
1992
1993
1994
1995
1996
1997
1998
1999
2
20
200
2000
2001
2002
2003
2004
2005
2006
2007
2008
2009
2010
2011
2012
2013
2014
2015
2016
2017
2018
2019
2020
2021
2022
2023
2024
2030
2039
207
21
210
212
214
215
216
218
22
220
223
224
225
226
227
23
232
234
237
238
239
24
242
243
245
246
25
250
26
261
263
265
269
27
270
273
275
28
283
285
287
29
295
296
3
30
300
3000
301
303
31
311
314
316
317
32
321
328
329
33
332
34
342
348
35
356
36
361
362
366
37
375
376
379
38
380
383
385
389
39
392
396
4
40
400
404
406
407
41
418
419
42
420
43
438
439
44
440
45
46
460
47
476
48
482
486
49
492
498
5
50
500
505
51
516
52
520
522
53
54
541
543
544
55
550
56
561
564
57
575
578
58
580
581
589
59
591
595
599
6
60
600
602
605
61
617
62
626
627
628
63
633
64
640
65
66
67
670
674
676
68
680
69
693
698
7
70
700
709
71
711
72
724
73
74
748
75
750
76
763
765
767
769
77
78
79
796
8
80
800
806
8083
81
810
812
82
820
83
830
833
84
840
845
85
86
869
876
878
88
881
883
89
9
90
900
9001
9012
904
91
913
915
92
93
935
94
946
95
951
96
962
97
972
973
976
977
978
979
98
981
984
994
:
;
<
=
>
?
@
^
_
`
a
aa
aan
aangsel
aasal
aasbi
ab
aba
ababa
abad
abadi
abahas
abal
abana
abang
abangun
abasis
abatessan
abd
abdhi
abdhina
abdillah
abdul
abdullah
abdurrahman
abe
abek
abekke
abeli
abelih
abentuk
aberri
aberrik
abes
abest
abha
abhasa
abhe
abhek
abhidha
abi
abiddha
abidea
abidin
abighi
abilities
ability
abisnis
abit
abitta
able
about
abrar
absolute
abu
abubut
abuja
abujud
abulu
abunter
abuwa
ac
aca
acaca
academy
acallon
acallonnaghi
acan
acanthaceae
acara
acare
accem
acceptable
accepted
access
acconan
according
account
accountable
accounts
ace
aceh
acem
acep
achmad
act
acted
acting
action
actions
active
activities
activity
ad
ada
adab
adaftar
adalah
adam
adat
addakhil
addhek
addhuan
addis
address
addresses
ade
adebu
adha
adhe
adhebbha
adheg
adhere
adhiggha
adhil
adi
adia
adidik
adik
adikarya
adil
adipati
adipura
adistia
adiwiyata
admin
administrasi
administratif
administration
administrative
administrator
administrators
admins
adminship
admonishments
adnan
adobe
adorong
adriatik
adu
adua
aduh
adukung
advice
ae
aeng
aenggha
aengghun
aerial
aeruginosa
affairs
afganistan
afghanistan
afiqah
afokus
afrika
afrizal
aftar
after
aftpdfs
afungsi
ag
aga
agabung
again
against
agam
agama
agar
agaya
agelar
ageng
agghuy
agguy
agha
aghebey
aghella
aghellha
aghendhuk
aghi
aghik
aghumantong
aghuna
aghunaa
aghunaaghi
aghung
agi
agih
agilap
agin
agrarian
agri
agribisnis
agrikompleks
agroindustri
agrokompleks
agunaa
agunaaghi
agung
agus
agustus
aguustus
ah
ahda
ahe
ahli
ahmad
ahok
ahubungan
ahwal
aid
aidit
aiesec
aikido
ain
aini
ainun
air
aires
airlangga
ais
aisha
aisya
aisyah
aja
ajabat
ajang
ajellasaghi
ajem
ajha
ajham
ajhe
ajhuwa
aji
ajih
ajip
ajjhi
ajukan
ajumlah
ajunan
ak
aka
akabin
akabina
akademi
akademik
akademika
akademisi
akadeng
akadhi
akadhiya
akaju
akampanye
akan
akanca
akanta
akantha
akar
akasab
akbar
ake
akemba
akembang
akembha
akemme
akentong
akhe
akhir
akhirnya
akhlaq
aki
akira
aklaim
ako
akocamba
akomitmen
akomodasi
akompol
akor
akrab
akre
akreditasi
akreditasina
akritik
aksara
akse
akses
aksi
akta
aktif
aktivis
aktivitas
aktor
aktris
aku
akulah
akuliah
akun
akuntansi
akurat
al
ala
alaba
aladhin
alako
alakoh
alaksanaaghi
alam
alambha
alami
alan
alang
alanggar
alanjut
alaporraghi
alar
alas
alasa
alasan
alat
alata
alatih
alayanaghi
albania
albar
albert
albora
album
ale
alebbhu
alebbi
aletta
alexander
alfamart
alfiyah
ali
alias
alib
alien
align
alih
alim
aliran
alit
aliyah
aliyas
aljazair
alkaloid
all
allah
alle
alliance
allow
allows
almamater
aloe
alofon
alos
already
also
alt
alumni
alwi
am
amae
amaga
amakna
amaksod
aman
amanah
amanpa
amanpaat
amara
amaranthaceae
amargha
amaryllidaceae
amassa
amat
amazon
ambang
ambil
ambon
ambu
ambunten
ame
american
amerika
amin
aminah
amir
amman
ammil
amolae
amoljea
among
ampe
ampel
ampon
amr
amrin
amrullah
amsterdam
an
ana
anacardiaceae
anak
anakku
analisis
ananda
ananta
anatomi
and
anda
andai
andhi
andi
andik
andorra
andre
andrei
android
andy
ane
anentang
ang
anga
angaghi
angd
ange
angel
angen
angga
anggaran
anggep
anggha
angghep
angghuta
angghuy
anggota
anggraini
anggrek
anggriawan
angguy
angham
anghuy
angin
angka
angkasa
angkatan
angkutan
angkuy
angsa
angsana
angsoka
ani
anies
anilai
animasi
anin
anjing
anm
anna
annida
anno
annona
annonaceae
anom
anomma
anonim
anonymous
another
anph
antara
antarana
antaranah
antaranews
antariksa
antep
anthologie
anthology
anthony
anthropology
anti
antigua
antologi
anton
antonius
anugerah
anunjuaghi
anwar
any
anya
anyama
anyang
anyar
anyataaghi
anyebaraghi
aoba
aon
apa
apabila
apakah
apangan
apangaro
apanya
apare
apasangan
ape
apec
aperannaghi
aperghi
aperrang
api
apiaceae
apin
aplikasi
apocynaceae
apotek
apoy
appeal
appealed
applied
apply
approach
appropriate
apps
apresiasi
aprestasi
april
aptasi
aqidah
ar
ara
arab
arah
arapa
arassa
arauxo
arbcom
arbi
arbitration
arbitrator
arbitrators
ardan
ardijanto
ardisia
are
area
areas
arebbhu
arecaceae
areng
areya
argentea
argentina
argha
argyratus
ari
arie
arief
arif
arifin
ario
aris
arjuna
arloji
armageddon
armand
armenia
arnas
arnold
aromasa
aropa
aropaa
aropaaghi
around
arowa
arredor
arrisalah
ars
arsip
arsitektur
art
arta
arte
artena
arteri
article
articles
artikel
artis
aruba
arupako
arus
arya
as
asa
asabhung
asakola
asal
asala
asalla
asallah
asam
asambhung
asangle
asap
asar
asare
asareng
asasi
ase
asean
asembagus
ashgabat
asia
asian
asing
ask
asli
aslina
asma
asmana
asmara
asmaradana
asmarani
asompa
aspek
aspx
asrama
asri
asrul
assam
assegaf
association
assurance
astana
astandar
asteraceae
astronomi
asuncio
asuransi
asy
asyik
at
ata
ataghi
atamba
atand
atanggung
atanya
atap
atas
atau
atawa
ate
atekka
atemmo
atentangan
ater
aternak
athar
athfal
ati
atingkat
atlantik
atlas
atletik
atm
atmosfe
atojjhuwa
atom
ator
atoran
atoro
atos
atosan
atraksi
atribut
atsiri
attacks
attas
attasa
attention
atugas
aturan
au
auf
august
aula
aulia
aun
aura
auricula
aus
australia
australian
austria
autobiografi
automatically
available
aveling
avian
awa
awal
awalnya
awan
award
awards
awas
awikifisasi
awwa
ayah
ayam
ayat
ayo
ayu
ayunda
az
azerbaijan
azeri
azhar
aziz
azmatkhan
b
ba
bab
babad
babak
baca
bacaan
bacharuddin
bachtiar
back
bad
bada
badai
badan
badha
badhan
badminton
bagaimana
bagan
bagdad
baghi
bagi
bagia
bagian
bagikan
bagiya
bagus
bah
bahagia
bahama
bahamas
bahan
bahana
bahar
bahari
bahas
bahasa
bahasan
bahkan
bahrain
bahtera
bahwa
baik
bait
baja
bajang
baji
bakar
bakat
bakri
bakto
baku
bal
bala
balada
balai
balairung
bale
bali
balik
balla
balna
balongpanggang
baltik
bam
bambang
bambu
bams
ban
banana
band
banda
bandar
bandara
bandeng
bandung
bang
bangau
bangga
bangka
bangkalan
bangkalani
bangkok
banglad
bangladesh
bangsa
bangun
bangunan
bangunanna
banjar
banjarmasin
banjhir
bank
bannyak
bantal
banten
bantu
bantuan
banyak
banyuangi
banyuwangi
bapa
bapak
baqir
bara
barat
barbados
barbuda
bartje
barton
baru
basa
basabasi
based
basement
basha
basic
basis
baske
basket
basri
bass
bassaghi
basseterre
basshunter
basuki
baswedan
bat
batak
batam
batang
batas
batavia
batu
batuhampar
batuhmpar
bawah
bawang
bay
bayang
bayangan
bayi
bba
bbha
bbhut
bbi
bbm
bca
be
beach
beasiswa
beasiswana
bebas
bebe
beberapa
beby
becak
because
becce
become
bed
bedeh
bedil
bedroom
been
before
begi
begien
begini
begitu
beh
behalf
behavior
beijing
being
beirut
bek
bekasi
bekerja
bekisar
bekkas
bekke
bekto
bel
bela
belajar
belakang
belanda
belandha
belarus
belas
belgia
belgica
belgium
beli
beliau
belitung
belize
bella
belli
bellu
bellun
belom
below
belta
beluk
belum
ben
bencana
benci
benda
bendahara
bender
bendi
bendira
bengawan
bengkel
bengko
bengkulu
bening
benne
benni
benny
bennya
bennyak
bentang
benteng
bentuk
benua
benyamin
beograd
ber
berakhir
beraksinya
beranggotakan
berarti
beras
berasal
berasap
beraspirasi
berat
berbagai
berbagi
berbahasa
berbasis
berbatasan
berbeda
berdarah
berdasarkan
berdaulat
berdawai
berdaya
berdua
berduri
berdusta
bere
berempan
berfokus
bergabung
berganti
bergolak
berguguran
berhak
berharap
berhasil
berikan
berikut
berikutnya
berita
berjalan
berjha
berjudul
berkat
berkelana
berkembang
berkhasiat
berkomentar
berkonstitusi
berkontribusi
berkualitas
berkuda
berlaku
berlangganan
berlangsung
berlari
berlin
bermata
bermusuhan
bern
bernama
bernard
bernyanyi
berpartisipasi
berpisah
berpotensi
berra
berri
berry
bersalin
bersama
bersamamu
berse
bersedia
bersetzt
bersifat
berta
bertambah
bertemu
berterima
berthold
bertugas
bertujuan
berupaya
berwarna
bes
besar
besarnya
besi
bessar
besse
best
betawi
beternak
betina
betrand
better
between
bey
bg
bh
bha
bhangkalan
bhasa
bhe
bheddha
bhekal
bhend
bhender
bhengkek
bher
bherkat
bherra
bherras
bherse
bhesa
bhibha
bhidha
bhindhara
bhira
bhiru
bhisa
bhla
bhlimbhing
bhu
bhuco
bhud
bhuda
bhuddha
bhudha
bhughet
bhujha
bhukte
bhul
bhuleddha
bhume
bhumi
bhun
bhuna
bhunga
bhungka
bhungkana
bhungke
bhunyo
bhuru
bhurun
bhut
bhutan
bhuthok
bhuto
bhutoh
bhuwa
bi
bianglala
biarkan
biasa
biasah
biasana
biasanah
biasanya
biaya
bibir
bicara
bid
bida
bidadari
bidang
bidangga
bidara
biddha
bidha
bidikmisi
big
bigghi
bighi
bighina
bijjha
bik
bila
bilaja
bilang
bilangan
bilingual
billy
bilu
bima
bimbingan
bin
binatang
bine
bing
bingkai
bini
binih
binomio
bintang
binti
binuwa
biografi
biola
biologi
biological
bioskop
biosystem
birokrat
biru
bis
bisa
bisah
bisat
bishkek
bisikan
biskun
bisnis
bisri
bissa
bista
bit
bitongan
bitread
biya
biyasa
biyasah
biyasana
bj
bla
black
blandha
blatant
bless
blessat
blica
blijjha
blitar
bll
block
blocked
blocking
blocks
blog
blok
blora
blp
blue
blues
bluntas
blusukan
bni
boalemo
bob
bobby
boesenbergia
boga
bogor
bogota
bohemian
bojonegoro
bola
bolango
bolivia
bon
bonang
bond
bondan
bondowoso
bonduc
bone
bonsai
bonwickii
book
books
bor
boris
born
bosnia
bot
botani
botanic
botanica
bots
bowo
box
bppt
bps
bptri
bpupki
bra
braile
bram
brasil
brata
bratislava
brawijaya
brazil
breach
brempan
bri
bridge
bridgetown
bring
britania
bromeliaceae
bruari
brune
brunei
brussels
bruware
bruwari
bs
bt
btn
bu
bua
buaghi
buah
buahan
buat
buatan
bud
budak
budapest
budaya
budayawan
buddha
buddhis
budhi
budhina
budhun
budi
budiman
buenos
bugha
bugis
buh
build
building
buja
buje
bujhel
buju
bujud
bujur
buk
buka
bukan
bukanlah
bukares
bukit
bukittinggi
bukka
buku
bul
bula
bulan
bulen
bulgaria
bulu
buluna
bumi
bumn
bun
buna
bunda
bundaran
bung
bunga
bungah
bungkanah
bunglon
bungo
bunter
bunto
bupati
bur
bureau
bureaucrat
bureaucrats
burin
burma
burne
buronan
buru
buruk
burung
bus
busana
bush
business
bustami
bustomi
busway
but
buta
butah
bute
buto
buwa
buwe
buwenah
buya
bwf
bwfbadminton
by
c
ca
cabang
cabbhi
cabi
cabisen
cabut
caca
cace
cadangan
cagar
cahaya
cak
cakobha
cakra
cakraningrat
cakrawala
calligraphy
calling
callon
callonnaghi
calm
calon
calophyllum
camat
cambridge
cameroon
campar
campor
camporan
camporanna
campowan
campur
campuran
can
canal
cananga
canberra
cancer
cand
candha
candidate
candidates
candra
cang
cannot
cantik
cap
capacity
capital
capo
capres
cara
caracas
carah
carakan
carana
caranya
care
careful
carefully
cari
carpan
cas
case
cases
cassia
castle
castries
catalog
catatan
cateddha
category
cathedral
catherine
cathet
catur
causa
cause
cc
cca
cce
ccrc
cd
ce
ceds
ceiba
ceko
celleng
celo
cem
cemara
cemburu
cempaka
cempore
cendrawasih
cengke
census
center
centhini
central
centre
centrum
century
cepat
ceppet
cerah
cerdas
cere
cerita
cermin
cerpen
certain
cet
cetakan
ch
cha
chad
chaguanas
chairil
challange
challenge
chambert
champa
championship
championships
change
changes
chant
chapter
charles
che
check
checkup
checkuser
chekhov
chelsea
chen
chene
cherry
chile
chili
china
chis
chomsky
christian
christmas
chudori
ci
cia
ciamis
cikini
cilik
cina
cincin
cindy
cinta
cintaku
cipta
ciptakan
cipto
ciputra
circumstances
cire
cirebon
ciri
cis
cita
citra
citratus
citrus
citta
city
civil
civility
clear
cleopatra
clover
club
cm
co
coba
coccinia
cochran
cocok
cocos
code
coe
coffea
coklat
cokop
cola
cole
colijn
colleagues
collectie
collection
colo
com
coma
comah
come
comment
comments
committee
common
commons
commonwealth
communication
community
commuter
company
compassion
competition
compo
compromised
computer
computing
con
concerned
concerning
concerns
conduct
conference
confidence
confidential
conflict
cong
connected
consensus
consent
consider
considered
consistent
constitution
contact
content
contessa
contest
continue
conto
contoh
contona
contonah
convolvulaceae
corak
cordata
corel
coret
coriander
coriandrum
coromandelica
coronel
costa
could
country
crater
crc
create
created
creation
creative
cresindo
cricket
criteria
crop
cropped
crops
cross
croton
cruz
cry
cuaca
cuba
cucuk
cucumis
cucurbitaceae
cukup
cultural
culture
cup
curah
curcuma
cut
cv
cyber
cymbopogon
d
da
dadang
dadap
daddi
dadi
dae
daerah
daftar
daftarkan
dag
daging
dahlan
dahulu
daja
dakwah
dalam
dalang
dalbergia
dalem
dali
dam
damage
damai
damar
damaskus
damono
dampak
damsha
dan
dana
danau
dance
dances
dancesport
dangdut
daniel
danur
dapat
daptar
dar
dara
darah
darat
dari
daring
darliah
darmadi
darodji
darul
darurat
darussalam
dasar
data
database
datang
datanglah
dataran
datasheet
datuk
dau
daun
david
davis
dawlat
dawn
day
daya
days
dd
ddha
ddhi
ddhia
ddhiaghi
ddhiya
ddhiyaghi
ddi
ddiaghi
ddih
de
dea
debat
debu
december
decision
decisions
decline
deddi
dee
defamatory
default
definisi
defri
degeneratif
dekan
dekat
del
delegan
delem
delete
deleted
deletion
delhi
deli
deliar
deliberately
delima
delivery
dem
demak
demam
demands
demi
demit
demography
demokrasi
den
dena
dendam
dengan
denmark
denpasar
depa
depan
departemen
department
depdiknas
depo
depok
der
derai
derder
deri
derih
derris
des
desa
desain
desainer
desaku
desara
desember
design
designated
desktop
desmodium
desysopped
desysopping
detailed
detik
detiknews
detuk
development
devi
dewa
dewan
dewi
deyana
dha
dhaddhi
dhag
dhalem
dhara
dhari
dharma
dhe
dheg
dhelem
dhere
dherejet
dherejeteh
dhi
dhibi
dhibie
dhie
dhien
dhih
dhika
dhike
dhikke
dhime
dhimor
dhina
dhine
dhineng
dhing
dhinto
dhisa
dhisah
dhisana
dhluba
dhrigu
dhui
dhukungan
dhuli
dhung
dhunnya
dhupa
dhura
dhurin
dhuwa
di
dia
diab
diabetes
diadakan
diadaptasi
diajukan
diakses
dialium
dialog
diamond
dian
diangkat
dianjurkan
dibagikan
dibakar
dibayar
diberikan
dibi
dibuka
didik
die
dien
dieng
difabel
diff
difficult
difodeaf
dig
digital
digul
digunakan
dih
diharapkan
dijadwalkan
dijawab
dikejar
diketahui
dikirimkan
dikti
dikumpulkan
dilakukan
dilarang
dilihat
dimakan
dimensi
dimma
dimmah
dimman
dimulai
din
dinamika
dinamis
dinar
dinas
dinding
dine
dines
ding
dini
diniyah
dinto
dintoh
dioscorea
dioscoreaceae
diperkirakan
diperlukan
dipilih
diplomasi
diponegoro
dipublikasikan
dir
direkam
direktorat
direktur
direvisi
diri
disa
disabilitas
disagree
disah
disampaikan
disclosure
discretion
discuss
discussed
discussion
discussions
disediakan
diselenggarakan
disi
diskografi
diskusi
display
dispute
disputes
dissa
distortion
diterbitkan
diterima
diterjemahkan
ditetapkan
ditor
ditulis
ditutup
diumumkan
diundang
diungkapkan
div
division
diwani
diyeh
dj
djalan
djambatan
djarot
djati
djibouti
djinak
djiwa
djojohadikusumo
djoko
dk
dkb
dki
dkj
dll
do
doa
doctor
doctoral
does
doi
dokter
doktor
dokumen
dokumentasi
dolar
domingo
dominica
dominika
don
donald
dong
dongeng
donny
dor
dos
dosa
dosen
down
download
downtown
dpr
dr
drainase
drajat
drama
drs
du
dua
dublin
duda
dudung
due
duen
duet
dug
duk
duka
dukuh
dukun
dukung
dukungan
dul
dulu
dume
dunia
dunnya
dunnyah
dunynya
duo
dur
durbar
duri
during
dushanbe
dusta
dusun
duta
dutch
duwa
duwet
dwi
dwibahasa
dwibha
e
each
ealihbha
ear
early
earth
easier
east
eau
ebagi
ebbal
ec
econit
economic
economics
economy
ecuador
ed
eddhi
edicions
edinburgh
edirne
edisi
edit
edited
editing
edition
editor
editors
edits
eds
edu
education
een
eesti
effect
effendy
egregious
eh
einstein
eka
eko
ekoca
ekonomi
eksekutif
eksklusif
ekstensi
ekstrakurikuler
ekuador
el
elang
elektro
elektron
elektronik
elektronika
elementer
elexmedia
elizabeth
ella
elliptica
elmo
elrashidy
els
em
email
emak
emas
emba
embana
ember
embi
emblica
embriologi
embu
emergency
emha
emilia
emillia
emirat
emma
emmas
empa
empat
empe
emphasize
en
enam
endang
ende
endha
energi
energy
enforcement
eng
enggha
engghi
engghun
enggi
engkau
england
english
engnge
enja
enjek
enna
ennem
enneng
enough
ensiklopedi
ensiklopedia
enterpreneurial
enterprise
entertainment
entirely
entities
entrepreneur
entrepreneurial
entrevistas
environment
environmental
eo
ep
epe
episode
epon
eppa
equasterian
er
era
erasmus
eri
eric
eritrea
erkelens
ernest
eropa
erra
ery
es
esai
eseap
esei
esensial
eska
esok
espan
espe
especially
essa
esse
essena
established
estimates
estimation
estonia
et
etc
ethiopia
etik
eu
euis
euphorbiaceae
europa
european
eurostat
evaluasi
even
ever
every
example
excellence
exceptional
exceptions
expectations
expected
experience
explain
explanations
exupery
eyantarana
eyd
ez
f
fabaceae
facebook
factbook
faculty
fahri
fail
failure
faisal
faith
fakta
fakultas
fakultassa
fakulteit
falak
falls
falsafah
famili
family
fana
fansuri
fapet
faq
faqih
far
farid
fariz
farmasi
fasciculata
fase
fasilitas
fasilitasi
fasilitassa
fasilitator
fat
fatah
fathimah
fatima
fatimah
fauna
fauzi
fba
fc
fe
feature
featuring
feb
februari
february
federal
federico
fedi
feeder
feel
felm
feminism
festival
feui
few
ffi
fh
fi
fia
fib
ficus
field
figures
fik
fikkih
fiksi
file
filem
filipina
filipinahttps
filkom
film
filosofi
filsafat
filter
final
finalis
financial
find
findings
finisi
finlandia
fip
firdaus
firma
first
fis
fish
fisik
fisika
fisip
fitnah
fitriani
fk
fkg
fkh
flag
flame
flavonoid
flora
florafaunaweb
flores
florida
floridata
flowersofindia
flu
fmipa
fmub
foetida
foke
folk
folklore
follow
following
fonem
font
food
football
for
ford
forda
foreign
formal
formasi
format
former
fortress
forum
fosfor
foto
fotografi
found
foundation
founder
fourth
fp
fpik
fppsi
fr
frameless
franc
france
free
friday
friends
frieska
from
front
fruit
fruticosa
fs
ft
ftp
fu
full
functions
fund
fungsi
funkadelic
funky
further
future
g
ga
gabriel
gabungan
gad
gadhuan
gading
gadis
gadjah
gadua
gaduan
gaduen
gagah
gagas
gagasan
gaharu
gain
gajah
gaksa
gal
galeri
galigo
gambang
gambir
game
gamelan
games
ganda
gandaki
gandeng
gandum
gangeticum
gani
ganteng
gaplek
gapura
gara
garam
garci
garcia
garden
garis
garonne
gas
gawat
gaya
gayatri
gayo
gaza
gazebo
gbif
ge
gedung
geger
gelak
gelap
gelar
gelarah
gellar
gelombang
gelora
gema
gembolo
gemini
gend
gender
general
generally
generasi
genetik
genggong
genus
geografi
geografis
george
georgetown
georgia
geoscience
gerakan
gerbang
gerbatama
gereja
gerhana
gerindra
german
gersang
gerse
get
getting
gfdl
ggha
gghi
gghih
gha
ghana
ghed
gheddhung
gheddung
ghel
ghella
ghend
ghenika
ghenna
ghente
gher
gherring
gherrungan
ghettana
ghi
ghiba
ghibha
ghid
ghighi
ghilo
ghimpo
ghing
ghira
ghita
ghla
ghresghes
ghu
ghula
ghuleh
ghumo
ghun
ghuna
ghunaa
ghunaaghi
ghunana
ghund
ghung
ghungghung
ghunong
ghunung
ghuring
ghuru
ghuruh
ghuruna
ghus
ghusa
ghuse
ghuste
ghuwa
gi
gia
gie
gien
gik
gila
gili
gin
giri
gita
given
giving
giya
giyeh
giyen
gizi
gje
gle
global
globalisasi
globally
gnu
go
goa
gobel
god
goenawan
gold
golkar
golongan
golongannah
golongnah
golput
gone
gong
good
google
gooseberry
gor
gorky
gorontalo
gourd
gov
gpts
gr
graffiti
grafis
gram
gramatika
gramedia
granada
grand
grandis
granted
grasindo
gratis
gratitude
great
green
greetings
grenada
grenadines
gres
gresik
grey
grfc
grona
grooming
gross
grounds
group
grup
gs
guadeloupe
guarani
guatemala
gubernur
gubugpenceng
gud
gugat
gugur
guiana
guide
guinea
gun
guna
gunaa
gunakan
gunarto
gunawan
gung
gunung
guru
gus
guste
guyana
gwangju
gymnasium
h
ha
habib
habibie
habiburrahman
habis
habitat
habsyi
had
hadi
hadiah
hadinata
hadir
hadiri
hadis
hadits
hafiz
haghi
hai
haiku
hainan
haiti
haji
hajji
hak
hakim
hal
halal
halalan
halaman
halim
hall
halo
halte
hamid
hamka
hamzah
han
hanadia
hanafi
hanafiyah
handayani
hangat
hanna
hanoi
hans
hantu
hanya
happy
hara
harada
haram
harap
harapan
harbor
hardja
hardjosoediro
harfiah
harga
hari
harian
harimau
haris
hariyanto
hariyono
harm
harris
harrisonia
harry
harta
hartono
harus
haryanto
haryono
has
hasan
hasanah
hasanuddin
hasbullah
hase
hasil
hassan
hassoun
hasyim
hat
hata
hatan
hati
hatiku
hatimu
hatta
haute
havana
have
hawa
hawai
hawaii
hayati
hb
he
health
hebat
height
hektar
helai
held
hello
help
helsinki
hemat
hemingway
hendra
hendrik
heng
henri
henti
hep
her
herausgegeben
herbarium
herbs
here
heri
heritage
herlina
hermatologi
herzegovina
hewan
hi
hian
hibah
hibiscus
hibrida
hid
hidayah
hidayat
hidayatullah
hidden
hidroponik
hidup
high
hijau
hik
hikayat
hikke
hikmah
hikmat
hila
hill
himalaya
himne
hind
hindia
hindu
hing
hingga
hingngaghi
his
hisbuma
historia
historically
history
hitam
hiya
hki
hlm
hm
hna
ho
hogeschool
hok
hoki
hokom
hokoman
home
honduras
hong
hongaria
honoris
horison
horop
horor
hosny
hotel
house
houten
how
however
hp
hr
hra
hs
htm
html
http
https
hu
hub
hubungan
hubunganna
hubungi
hujan
hukum
hukumiyah
hum
human
humaniora
humas
humbly
hundreds
hung
hungan
hunge
husain
husaini
hutan
hutang
huwa
i
ia
iain
iatul
ibadah
iblis
ibnu
ibrahim
ibrani
ibu
ibukot
ibukotana
ibukotta
ibukottana
ibuku
ibunda
id
ida
ide
idea
ideas
identify
identitas
ideologi
ie
if
ifc
ift
igd
ih
ii
iii
ijazah
ijen
ika
ikan
ikapi
ikar
ikatan
ikhtisar
ikip
iklan
iklim
ikon
ikut
ikuti
ilalang
ilmiah
ilmu
ilusi
ilyas
im
images
imaji
imajinasi
imam
iman
img
imma
immediately
impact
impian
important
imposed
improperly
imran
in
ina
inactive
inactivity
inap
inappropriate
inauguration
incidents
include
including
incompatible
ind
indah
indak
index
india
indian
indica
indicum
indie
indische
individu
individual
indocina
indone
indonesia
indonesiahttps
indonesian
indonesiana
indonesiatera
indonesie
indonesien
indonesische
indonesischen
indonesischer
indoor
indra
indramayu
indum
industri
industrial
ine
influenza
info
infobox
informasi
informatika
information
infrastruktur
ing
ingatan
inggit
inggris
ingin
ini
inkubator
inline
inna
inneke
inophyllum
inovasi
insan
insani
insiden
inspirasi
instalasi
instan
instansi
instead
institusi
institut
institute
institution
institutional
instrument
intangible
inte
integral
integrasi
integrated
intel
intelektual
interaksi
interested
interkoneksi
interlude
intermasa
internal
internasional
international
interne
internet
internetta
interpretasi
intervene
intervenes
intervention
inti
into
inve
invited
involuntary
involved
involvement
involving
ion
ionia
ip
ipa
ipate
ipb
ipni
ipomoea
ips
ir
ira
irak
irama
iran
iraq
irawati
irc
ireland
irfan
iri
irlandia
irsyad
is
isa
isbn
isc
ise
ishaq
isi
iskandar
isla
islam
islamabad
islami
islamic
islamiyah
islan
island
islandia
ismail
iso
israel
issa
issn
issue
issued
issues
istana
istilah
istimewa
istri
isu
isyana
isyarat
it
italia
itas
itasi
itb
its
itsbat
itu
iv
ivan
ivanlanin
iwan
ix
iya
iyah
iye
iyeth
j
ja
jaap
jaba
jabatan
jabatnah
jabbar
jack
jadda
jadi
jadikan
jadwal
jagat
jahanam
jajak
jakarta
jaket
jaksa
jalaluddin
jalan
jalang
jalur
jam
jama
jamaica
jamaika
jamal
jamaluddin
jaman
jamanna
jambi
jambu
james
jami
jaminan
jampang
jan
jana
jang
jangan
janji
jantan
jantung
januare
januari
january
januware
japan
jara
jarak
jare
jari
jarina
jaringan
jas
jasa
jasana
jasiman
jasmew
jason
jassin
jati
jatim
jatuh
jauh
java
jawa
jawab
jawaban
jawara
jawi
jaya
jayakarta
jazz
jb
je
jean
jegung
jeh
jejak
jelas
jellas
jellasa
jelly
jemanah
jembatan
jember
jenar
jendela
jenderal
jendral
jenis
jentera
jeopardize
jepang
jeppang
jeren
jerman
jeruk
jessica
jgha
jha
jhe
jhejjer
jhejjher
jhekjhek
jhemba
jhembha
jheng
jhengghi
jherrugha
jherruk
jherruka
jhi
jhinten
jhuba
jhuga
jhugha
jhuko
jhuluga
jhulughi
jhuluk
jhung
jhungad
jhuru
jhuwa
ji
jib
jibril
jika
jil
jilbab
jilid
jilit
jimbo
jina
jingga
jiwa
jiya
jk
jkt
jl
jmpl
jo
joan
jodohku
joe
jogja
jogjakarta
johan
john
join
joko
jokowi
jomba
jombang
jong
jordan
jose
journal
jpeg
jpg
jpnn
jrebeng
jrowa
js
jstor
ju
juara
juba
judae
judgment
judicial
judo
judul
juga
jugan
jugha
jughen
jula
jule
juli
juliet
julugha
july
jum
jumadil
jumhu
jumla
jumlah
jumpa
jun
june
juni
junior
jurnal
jurnalistik
jurus
jurusan
jurusanna
jusuf
juta
jutah
k
ka
kaa
kaaghuy
kaagungan
kaahlian
kaajhuan
kaandi
kaanggghuy
kaangghuy
kaangguy
kaanghhuy
kaanghuy
kaangkuy
kab
kaba
kabar
kabbhi
kabbi
kabbih
kabedeen
kabennya
kabha
kabhe
kabhudha
kabhupate
kabhupaten
kabhuto
kabhutoan
kabhutowan
kabi
kabia
kabiasaan
kabijakha
kabila
kabin
kabinan
kabinet
kabista
kabu
kabudha
kabula
kabupate
kabupaten
kabut
kabutoan
kaca
kacamadha
kacamata
kacamatan
kacang
kacangan
kacare
kacatet
kacator
kace
kacobhung
kad
kada
kadar
kade
kademangan
kadha
kadhelli
kadhi
kadhibi
kadhieh
kadieh
kadim
kadir
kado
kadokteran
kadua
kadue
kaduena
kaduwa
kae
kaempa
kagha
kaghuna
kaghunaan
kaghungan
kaghuruan
kagiatan
kagiatha
kah
kahar
kahfi
kahormatha
kaida
kaidah
kairo
kaitaki
kaja
kajha
kajhuh
kajia
kajian
kaju
kajuh
kajuna
kajune
kak
kakan
kakanan
kakawin
kakd
kakdinto
kakdintoh
kake
kakek
kakerreppan
kaki
kakilangit
kakoasaan
kakoasanna
kakoba
kakorangan
kakos
kakuatan
kal
kala
kalaba
kalaban
kalaben
kalabha
kalagghu
kalagghuna
kalaghungan
kalahe
kalako
kalakoan
kalakowan
kalakowanna
kalam
kalambhi
kalamon
kalamondhin
kalampok
kalangan
kalatidha
kale
kali
kalianget
kaligrafi
kalijaga
kalimantan
kalimat
kalium
kalkal
kalkulus
kalla
kaloar
kaloargha
kalobhur
kalompo
kalompok
kalonge
kalonta
kalowar
kalowarra
kalpavriskha
kalsium
kaluarga
kalung
kamae
kamal
kamampoan
kamar
kamardhika
kamardhikaan
kamardikaan
kambing
kamboja
kame
kamennangan
kamerun
kami
kamma
kamoddhian
kamone
kamp
kampanye
kampanyena
kampong
kampung
kampus
kamu
kamulan
kamulje
kamus
kan
kana
kanada
kanah
kanak
kanal
kanan
kanca
kancae
kancana
kand
kandha
kandungan
kange
kangghuy
kangkong
kangse
kanigaran
kanjeng
kanker
kantor
kantos
kanvas
kaod
kaodi
kaodien
kaom
kaoncara
kapadatan
kapak
kapal
kapala
kapalae
kapame
kapangra
kaparcaja
kaparenne
kaparloan
kapasan
kapasitas
kape
kapente
kapentingan
kapo
kapoloan
kapolowan
kapor
kapotosanna
kappra
kapprana
kapre
kapten
kara
karachi
karaja
karajha
karakter
karana
karanjhi
karate
karaten
karaton
karawang
karbohidrat
kare
kareb
karena
karep
karibia
karibik
karier
karim
karja
karmila
karmina
karna
karno
karo
karocok
karotong
kars
kartini
kartu
karya
kasa
kasakte
kasapolo
kasar
kase
kasebbhut
kasebbut
kasebut
kasemmaan
kasennenge
kasettong
kasih
kasokan
kasoltanan
kasorang
kasorangan
kasoson
kastore
kasultanan
kasus
kat
kata
katalog
kataowe
kate
kateggu
kateglo
kategori
katello
katerrangan
kathmandu
katoa
katoanah
katolik
katombha
katompa
katongghing
katoronan
katoronannah
katoronna
kattegat
katua
kau
kaula
kaule
kaum
kauman
kawa
kawabata
kawan
kawat
kawindra
kaya
kayu
kazakhstan
kcm
kcp
ke
keadaan
keadilan
keagamaan
keahlian
keamanan
kebangkitan
kebbha
kebbhun
keberagaman
keberlanjutan
kebhupate
kebijakan
kebomas
kebudayaan
kebumian
kebutuhan
kec
kecamadha
kecamatan
kecamate
keccap
kecerdasan
kecil
kecuali
ked
kedaton
kedaulatan
kediaman
kediri
kedokteran
kedopok
kedua
kegelisahan
kegiatan
keguruan
kehadiran
kehakiman
kehidupan
kehilangan
kehutanan
keilmuan
keindahan
kejar
kejepit
kejuaraan
kejuruan
kekacauan
kekasih
kekasihku
kekayaan
kekuasaan
kelabu
kelahiran
kelakuan
kelam
kelamon
kelana
kelapa
kelas
kelautan
kelemahan
kella
kellas
kelola
kelompok
kelopak
keluarga
keluhan
kelurahan
kemahasiswaan
kemajuan
kemampuan
kemanusiaan
kemarau
kematian
kemba
kembali
kembang
kembangaghi
kembangan
kembha
kemelut
kemenangan
kemenristekdikti
kemerdekaan
kempo
kemudian
kemuning
kenaikan
kenal
kenang
kenangan
kencana
kencor
kencrengan
kenda
kendhi
kenduri
kenengan
kenika
kenikah
kennal
kennallaghi
kenne
kennel
kennengan
kennenganna
kennenge
kennengna
kennengngan
kennengnganna
kennengngenna
kenngengan
kenning
kennong
kenya
keolahragaan
kep
kepada
kepadatan
kepala
kepalamu
kepanduan
kepel
kepemimpinan
kepentingan
keperawatan
kepingan
kepompong
keppres
keppro
kepribadian
kepuasan
kepulauan
kepustakaan
keputusan
kera
keragaman
kerajaan
keranda
keranji
kerapan
kereta
kerja
kerjasama
kerlip
keroncong
kerras
kerre
kerrep
kertabumi
kertanegara
kertas
kertase
kertosono
kesadaran
kesan
kesatuan
kesehatan
kesehetan
kesejahteraan
kesempatan
kesenian
kesepian
keshya
kesusasteraan
kesusastraan
ketahui
ketawanggede
kete
ketemu
keterampilan
keterwakilan
ketiga
ketika
ketjil
ketua
ketul
ketumbar
keuangan
kew
kewarganegaraan
kewirausahaan
kg
kh
khali
khas
khasiat
khatib
khatulistiwa
kholil
khoso
khosossa
khot
khusus
ki
kiai
kibaran
kicir
kidul
kidung
kiev
kilometer
kimia
kinal
kind
king
kingston
kingstown
kini
kiprahnya
kirgiz
kirgizstan
kirim
kisah
kisaran
kita
kitab
kitak
kitts
kiya
kk
kka
kke
kkel
kkele
kla
klaba
klaban
klabhet
klambhi
klasik
kle
klik
klinik
klompo
klop
km
knip
knologi
know
knowledge
known
ko
koalisi
koat
koba
kobete
kobhung
koca
kocak
koce
kod
kode
kodhu
kodhuh
koen
koenigii
kohler
koki
kokon
kol
kolaborasi
kolaboratif
kolam
kolat
kole
kolej
kolek
kolom
kolombia
kolonial
kolop
kom
komandan
komange
kome
komedi
komentar
komik
komisi
komite
komitmen
komod
komoro
kompas
kompenne
kompetensi
kompetisi
komplek
kompleks
kompolan
kompolanna
kompollan
kompolnah
komposisi
komputer
komputindo
komun
komunikasi
komunis
komunisme
komunitas
kona
konah
konang
konce
konco
kondisi
kondur
kone
koneng
konfe
kong
kongre
kongres
kongse
konomi
konon
konse
konseling
konsentrasi
konsep
konstitusi
konsultasi
konteks
kontekstual
kontemporer
kontrak
kontribusi
kontrove
kontroversi
konye
koordinat
kopala
kopenhagen
koperasi
kopi
kopral
kor
koran
korang
korban
kore
korea
korong
koros
korse
korup
korupsi
kosa
kosakata
kosakatakita
kosambhi
kosong
kosot
kosovo
kosta
kot
kota
kotapraja
kotara
kotta
kottah
kottana
kottha
kotuh
kowa
kowat
kpg
kpu
kranji
krapyak
krato
kraton
kre
kreasi
kreatif
kreavi
kretek
krettek
krida
kring
kristen
kriteria
kritik
kritikus
kritis
krl
kroasia
kronologi
krt
ksa
ksaan
ksani
ksi
kspor
kstrak
kta
ktar
kte
ktm
kto
ktoh
ktona
ktor
ku
kuala
kualitas
kualitatif
kuarsa
kuba
kuburan
kucing
kuda
kudadu
kudus
kue
kuil
kuku
kukusan
kuliah
kuliner
kulit
kulliyyah
kulon
kultivar
kumcer
kumpulan
kunci
kundang
kuning
kuningan
kunjungi
kuno
kupang
kupu
kurang
kurator
kurdi
kurikulum
kurniawan
kursi
kursus
kusir
kusumawati
kutunggu
kuwait
kwandang
kwanyar
kwon
kyae
kyai
l
la
lab
laba
labang
labay
labha
labirin
laboratorium
laboratory
labu
lack
lada
ladang
laddhing
ladhinan
lado
lady
lae
laen
laenna
laga
lagghu
laghi
laghoh
laghu
lagi
lagoon
lagu
laguna
lah
lahan
lahanna
lahe
lahir
laila
lain
lainnya
laja
lajang
lajhu
laju
lakar
lake
laki
lakka
lako
lakoh
lakon
lakona
lakone
lakoni
laksamana
laksanaa
laksanaaghi
lalake
lalakon
lalampa
lalang
lalonge
lalu
lam
lama
laman
lamb
lamba
lambang
lambangaghi
lambha
lame
lamiaceae
lamnga
lamong
lamongan
lampa
lampennang
lampenne
lampetta
lampoja
lampu
lampung
lan
lana
lanang
lance
land
landha
landhu
landscape
lang
langan
langger
langgha
langit
langitan
langkah
langke
langsep
langsung
language
lanin
lanjeng
lanjha
lanjhang
lanjut
lanjutaghi
lanjutkan
lanka
lannea
lantik
lao
laok
laora
laos
laot
lap
lapangan
lapanganna
lape
lapena
laporan
lappaceum
lapses
lar
larang
larangan
lasem
laskar
lasso
last
lasta
lastare
lat
latar
late
lathif
latif
latifa
latin
latinname
latuconsina
latvia
lauraceae
laurier
laut
lautmu
law
lawan
lawu
layanan
layanannna
layani
layar
lazuardi
le
leaf
learn
least
leba
lebak
lebanon
lebar
lebaran
lebat
lebbhi
lebbhu
lebbi
lebih
left
legenda
leiden
leila
lekkas
leksikon
lelaki
lem
lemah
lemak
lemba
lembaga
lembah
lembu
lemma
lemmanna
len
lengkap
lengthy
leni
lenovo
lentera
leo
leone
lepas
leppas
les
lesbian
lestari
let
letta
level
lewat
lha
li
lia
liar
libraries
library
libya
lidya
lie
liechtenstein
liem
life
lifted
liga
liggha
light
lih
lihat
lik
like
likely
liku
lil
lily
lim
lima
limbhing
limboto
limit
limited
lin
lindungan
line
ling
lingkar
lingkaran
lingkungan
linguae
linguistik
link
lintang
lintasan
linux
lipi
lirik
liris
lisan
lisbon
lisensi
list
listrik
lists
literasi
literature
lithuania
litsea
live
lix
ljubljana
lkis
ll
lla
llaghi
lle
lli
llien
llo
llu
lluna
lm
lmo
lmu
ln
lo
loak
loar
loas
loassa
local
locmap
logam
logo
logs
logung
loir
loka
lokal
lokasi
lokasina
lokomotif
lolong
lolos
lomare
lomba
lomban
lombhung
lombok
lomra
lomrana
lonca
loncong
london
long
longgha
longkang
longlist
lontar
look
lor
lorca
lorong
loros
los
love
loves
lowar
lowas
lowassa
lowokwaru
lp
lpa
lpdp
lpon
lpph
lppm
lsid
lsih
lu
luar
luas
luasnya
luassa
luba
lubis
lucia
luddru
luffa
lugha
luhur
luis
luka
lukis
lukisan
lulus
lulusan
lumpur
lunarejo
lurah
lux
luxemburg
lv
lyrik
m
ma
maaf
maah
maan
maatschappij
maba
mabe
mabecce
mabhend
maca
macan
macem
macemma
macet
machbub
machine
machmud
mad
mada
madagaskar
madah
maddhek
made
madha
madhura
madhure
madiun
madoera
madrasah
madrid
madu
madura
madzhab
mae
magelang
magetan
magha
magister
mah
maha
mahaduka
mahasiswa
mahasiswana
mahasiswi
mahawaditra
mahfud
mahieu
mahkamah
mahkota
mahmud
mahone
mahoni
main
maizena
maja
majalah
majapahit
majelis
majha
majhu
majid
maju
mak
maka
makah
makaloar
makam
makan
makara
makassar
make
makedonia
makes
makhdum
makin
making
makka
makke
makle
makna
maknana
makoat
makon
makrifat
maksod
maksodda
maksudnya
mala
malah
malaikat
malaju
malaka
malam
malambha
malancar
malang
malangtimes
malas
malathe
malay
malaya
malaysia
malem
malesia
mali
malik
malin
mall
malna
malolo
malta
malu
maluku
malvaceae
mama
maman
mamare
mamaso
mampo
mampu
mamuli
man
mana
manabi
management
managua
manajemen
manakah
manama
mance
mand
mandailing
mandara
mandarin
mandat
mandate
mandi
mandiri
mane
manengnga
manfaat
manfaataghi
mang
mangas
mangemba
manggarai
mangghu
mangifera
mangka
mangkana
mangkat
mangke
mangrove
mangunkusumo
mangunwijaya
manila
manis
manjha
manna
manner
manossa
manossah
manpa
manpaat
mansur
mantan
mantiq
manto
mantra
manual
manuhutu
manusia
many
manyar
manye
maolle
maos
map
mapala
mapas
marah
maramis
march
marching
mard
mardani
mardhika
mare
maret
marga
margonda
mari
maria
marina
marino
mark
market
maroko
marongghi
marquez
marsaid
marshall
mary
maryanto
mas
masa
masalah
masanah
masduqi
mase
masih
masing
masjid
maske
maskot
maso
masok
massa
massardi
master
masterpiece
masuk
masukan
masyarak
masyarakat
masyumi
mat
mata
mataare
matadha
matah
matahari
mataku
matan
mataram
mate
matematika
mateppak
materi
material
materials
mathematics
mati
matinya
mator
matoron
matta
matter
mau
maudy
maulana
mauritania
mauritius
maut
mawar
max
maxim
may
maya
mayang
mayangan
mayjen
mayor
mba
mbah
mbana
mbar
mbe
mber
mbha
mbhir
mbhu
mbhuk
mbo
mbuwa
mc
mcdc
mcglynn
md
mdrsm
me
med
medali
medan
media
mediaipnu
mediawiki
medical
medicinal
medicine
medis
mega
megah
megawati
mei
meise
meja
mekka
mekkasa
meksiko
melaba
melaju
melaka
melakukan
melalui
melangkah
melati
melawan
melayu
melbourne
mele
meliaceae
melicope
melihat
melipat
meliputi
melle
melodi
melody
memajukan
memanah
memandang
memastikan
membaca
membagikan
membangun
membantu
membawa
membentuk
member
memberi
memberikan
members
membuat
membuka
memenangkan
memenuhi
memeriksa
memfasilitasi
memilih
memiliki
meminta
memo
memoar
memohon
mempelajari
mempertimbangkan
mempunyai
memuat
memulai
memungkinkan
memutuskan
menagerie
menang
menangis
menanti
menara
menari
menarik
mencakup
mencapai
mencari
mencintaimu
menciptakan
mendaftar
mendapatkan
mendatang
mendes
mendiskusikan
mendorong
mendukung
mendut
menembak
menemukan
menemukanmu
menentang
menentukan
menerapkan
menerima
menerjemahkan
mengabarkan
mengadakan
mengajukan
mengambil
mengandung
mengangkat
mengapa
mengarang
mengatasi
mengawasi
mengejar
mengenai
mengenang
mengetahui
menggali
menggunakan
menghadapi
menghasilkan
menghubungi
menghubungkan
mengidentifikasi
mengikuti
mengingat
mengisi
menguak
mengundang
mengusulkan
menikah
meninggalkan
meningkatkan
meninjau
meniran
menjabat
menjadi
menjawab
menjelang
mennang
mennangaghi
menolak
menorot
mental
menteri
mentri
menuai
menuju
menulis
menunggu
menunjukkan
menurut
menyambut
menyampaikan
menyanyi
menyediakan
menyelenggarakan
menyelesaikan
menyerah
merah
meraih
merancang
meratifikasi
merdeka
mere
mereka
merjan
merkurius
merpati
meru
merupakan
mesin
mesir
mesra
message
messir
met
meta
metamorphose
meter
metode
metropolitan
meutia
mewakili
mexico
mg
mi
michigan
miftahul
mike
mikrobiologi
mila
miliar
milik
milikku
milite
militer
milyad
mimbar
mimpi
mimpin
min
minahasa
minang
minangkabau
minaret
minarni
minat
mineral
minggu
minnya
minor
minsk
minta
mintah
minum
mipa
mira
mirbath
misal
misalla
misi
miss
misteri
misterius
misuse
mit
mitigasi
mitos
mitra
mitrana
mizan
mm
mma
mmo
mo
mobil
mobile
mochtar
moda
modal
mode
model
modern
moderner
modernitas
modung
moh
mohamad
mohammad
mohon
mojokerto
mokrasi
mola
molae
molana
molang
moldavia
moldova
mole
molecules
molekul
moments
mon
monaco
monako
monarki
monday
mondhi
mondhuk
monetary
mongghu
mongol
mongolia
monolog
monopoli
monoterpene
monte
montenegro
montevideo
month
months
monye
monyet
mor
moraceae
moral
morava
more
moreno
moresby
morfologi
morning
morra
mose
mosle
moso
mosque
most
mosul
mota
motinggo
moto
motto
mount
mountain
mountains
move
movement
movie
mpan
mpang
mpe
mpen
mpo
mpok
mpona
mpr
mpu
mr
mrt
ms
msg
mt
mu
mua
muammar
muara
much
muda
mudah
muhajir
muhammad
muhammadiyah
muhtarom
mui
mukim
mukka
mukkak
mulae
mulai
muliawan
mulo
multatuli
multibhesa
multidisciplinary
multidisplin
multidispliner
multimedia
multinasional
mumbai
mun
muncul
mundo
mundur
mungkin
mur
murda
muria
murraya
muse
museum
musi
music
musica
musician
musik
musim
muslim
must
mustafa
mustofa
musyawarah
mutakallimin
mutakhir
mutiara
mutta
mutu
muwa
mw
my
myanmar
mylanguage
myristica
myristicaceae
myrtaceae
myself
n
na
naba
nabati
nabi
nabilah
nach
nacional
nada
nadhom
nadila
nadjib
nae
naff
naga
nagabonar
nagabumi
nagari
nagha
naghi
nagka
nah
nahwu
naik
nairobi
najah
najib
nak
nakak
nalar
nale
nama
namaku
namba
nambha
namen
names
namespace
namon
namong
namun
nan
nana
nang
nangale
nange
nanggher
nangka
nanti
nantoa
naomi
napa
napah
naqsyabandiyah
nara
nare
nasab
nase
nasib
nasional
naskah
nassau
nasution
natal
natalia
national
nations
natsir
natural
nature
nawala
nawawi
nba
nd
nda
nder
ndez
ndha
ndhingan
ndhu
ndhukung
ndi
ndral
ne
necessary
nederlandsch
need
needed
negara
negeri
negghu
neghara
negri
neira
neka
nekad
nelayan
nemmo
nemoe
nenek
neng
nengale
nentang
nepal
nephelium
neptep
neraka
nerapaghi
nerrangaghi
nerros
nerrosaghi
net
netapaghi
netral
nettep
network
neutral
never
nevis
new
news
newsletter
ng
nga
ngaba
ngabdhi
ngabdi
ngabi
ngabin
ngad
ngadegga
ngadeppi
ngadha
ngadhep
ngaghi
ngaghungi
ngah
ngaja
ngajer
ngajera
ngajha
ngaji
ngajih
ngajuaghi
ngak
ngakan
ngal
ngala
ngalak
ngalakone
ngalakoni
ngalampa
ngale
ngalle
ngambha
ngan
ngand
nganggha
ngangghep
ngangghuy
ngangguy
nganghungi
ngangka
ngangkuy
ngangoda
nganjuk
ngaolle
ngare
ngarep
ngarte
ngase
ngatase
ngate
ngator
ngatur
ngawi
nge
ngecam
ngemba
ngembangaghi
ngembha
ngenjher
ngennallaghi
ngenne
ngennengnge
ngerra
ngetop
ngga
nggale
nggenah
nggha
ngghi
ngghien
ngghih
ngghina
ngghir
ngghiya
ngghu
ngghun
ngghuy
nggih
nggris
ngha
nghi
nghon
nghttps
ngi
ngibeh
ngibha
ngibing
ngire
ngka
ngkalan
ngkang
ngkat
ngke
ngkenah
ngkep
ngkes
ngko
ngkok
nglan
ngle
nglompokaghi
nglor
ngnga
ngo
ngoasae
ngoba
ngobasane
ngobe
ngobha
ngobu
ngoca
ngod
ngoda
ngodha
ngola
ngolati
ngolo
ngolok
ngomommaghi
ngompolaghi
ngon
ngonan
ngongse
ngonna
ngontongagi
ngormat
ngosot
ngsa
ngsahan
ngse
ngua
ngudeh
ngudung
ngunduraghi
ngundurraghi
nh
ni
niaga
niat
nicaragua
nigeria
night
nigrum
nijhoff
nika
nikaragua
nikolai
nilai
ning
ningkat
ningkataghi
nippon
nir
nis
nitrogen
niyap
nja
njha
njir
nkri
nl
nlae
nna
nnah
nnahttp
nnahttps
nne
nnya
nnyak
no
nodhuwaghi
noella
noer
noerhasan
noerkhatim
nojjhu
nola
nolak
nole
nom
noman
nomer
nominasi
nomination
nomor
nompa
nompak
non
nona
none
nonfiksi
nonjha
nonjul
nonton
noor
noorca
nope
nopember
nor
nora
normal
noro
norok
noron
norot
north
northern
norwegia
nostalgia
not
notaris
note
notice
noticeboard
noticeboards
notify
noting
notoc
notope
notowidagdo
noura
nove
novel
novelet
novella
november
now
nparks
npasar
nsi
nsiklope
nsiklopedia
nt
nta
ntaan
ntal
ntana
ntang
ntar
ntara
nte
nter
ntime
nto
ntoan
ntong
ntos
ntri
ntuk
nu
nuansa
nubuat
nugini
nugroho
nuh
number
nunjuk
nupedia
nur
nurani
nurhaliza
nuril
nurjati
nurul
nurvita
nusa
nusantara
nutrisi
nuwari
ny
nya
nyaba
nyabe
nyabis
nyae
nyai
nyak
nyalamber
nyalambher
nyama
nyamae
nyamaeh
nyamah
nyaman
nyamana
nyamanah
nyambhung
nyambi
nyambut
nyamma
nyamplong
nyangka
nyantre
nyanyi
nyanyian
nyare
nyata
nyataaghi
nyawa
nyctaginaceae
nye
nyebabaghi
nyebbaraghi
nyebbut
nyebrang
nyegghe
nyerrat
nyerrep
nyi
nyiapaghi
nyiptaaghi
nynya
nyo
nyoba
nyombha
nyonteng
nyonya
nyoro
nyoson
o
oang
oangeuro
oangkrona
oarjo
oba
obat
obbha
obeng
obha
obi
objek
obsesi
obu
obuwa
obyek
oca
occasional
oclc
octi
october
od
ode
odhi
odi
odik
of
office
official
often
ografis
ohio
oikumene
oil
ojen
ojha
ojhung
ok
okara
oke
okezone
okom
okoran
okoranna
oktober
ola
olahraga
olama
olang
olay
old
oleh
oleosa
olimpiade
olle
ollos
olo
ologi
olok
om
omah
omahsore
oman
omba
ombak
ombhul
ombhut
ombi
ombina
ommat
omomma
omong
omor
omorra
omorrah
ompamana
omurah
on
once
ond
ondha
ondhaggha
one
onesia
onesiahttp
onesiahttps
ong
ongan
onggha
ongghu
ongkos
ongroddha
oning
onjha
online
only
onsu
open
opera
operasi
oppo
or
oran
orang
orange
orangutan
oratmangun
orba
orchestra
orde
ore
oreng
org
organ
organisasi
ori
oriental
original
orkes
oro
oseania
oslo
osmond
osol
osom
osoman
osp
ost
ota
otaba
otabah
otabeh
otabha
otama
otamana
otek
other
others
otherwise
oto
otobiografi
otok
otomotif
otonom
otonomi
otot
ottawa
our
out
outdoorlapangan
over
overview
ovj
owap
own
oxford
oyedeji
p
pa
paada
paba
pabbrik
pabecce
pabha
pablo
pabrik
pabukka
pacarku
pace
pad
pada
padahal
padang
paddhu
padding
padeh
padha
padhaddhi
padi
pado
paduan
padusan
pae
paederia
paederieae
pagar
page
pagelaran
pages
pagghun
pagha
paghi
paghuna
pagi
paham
pahlawan
paint
painter
pajajaran
pajha
pajuang
pajung
pak
pakakas
pakaloar
pakan
pakarangan
pakebeynah
pakem
pakennal
pakerre
paket
pakis
pakistan
pako
pakon
pakonan
paksa
palabbhuwa
palace
palakoh
palappa
palasare
pale
palembang
paleng
palestin
palestina
paling
palma
palsu
pamaca
pamae
pamahaman
pamain
pamajengan
pamare
pamaso
pamba
pambangonan
pambe
pame
pamecce
pamekasan
pamekkasa
pamennang
pamerdhi
pamimpin
pamokka
pamolangan
pamong
pan
panale
panama
panamennan
panand
panandha
panare
panarogha
panas
panase
panata
panbrempan
panca
pancaran
pancasila
pancawarna
panceng
pand
panda
pandangan
pandha
pandheng
pandhidhika
pandhuman
pandidigan
pandji
panduan
pane
panegghes
paneka
panengnga
panerrosah
panga
pangajha
pangajhia
pangalaman
pangalle
pangamoka
pangan
pangandeng
pangangghuy
pangangghuya
pangangguran
pangaro
pangase
pangatao
pangataoan
pangataowan
pangaterro
pangaterrona
pangatoran
pangdam
pange
pangembangan
pangeran
pangesto
pangetahuan
pangetaoan
panggha
pangghi
pangghung
panggil
panggung
pangharga
pangkal
pangkatah
pangke
pangkopkamtib
panglako
panglima
pangoasa
pangodha
pangomoman
pangore
pangosaha
panguasa
paniculata
panitia
panjang
panjer
panjha
panjhenengan
panji
panjimas
panjua
panjurit
panole
panorama
panoramio
panote
panotop
pantai
pantang
pantene
pantes
pantun
pantura
panyake
panyalambherra
panyanyi
panyembha
pao
paoba
paonggha
papa
papan
papaya
papostakahan
papua
par
para
paraba
parabhut
parade
paradigma
paragita
paragraph
paraguay
paramaribo
parang
paranta
parao
pararaton
parasit
parasitologi
parbha
parcaja
parcajha
parduli
pare
pareppaan
parfum
paripurna
paris
pariwisata
parjaji
parjha
parjhurit
parjuwa
park
parkara
parke
parlambha
parlemen
parliament
parlo
parloaghi
parmita
paroba
parsoalan
part
partai
partama
partane
participate
particular
particularly
partikel
partisipasi
parviflora
pas
pasaman
pasang
pasangan
pasanganna
pasantre
pasar
pasare
pasca
pascasarjana
pase
pasi
pasifik
pasir
pasokanna
password
passwords
past
paste
pasti
pasukan
pasundan
pasurua
pasuruan
pat
patah
patane
pate
paterbi
patologi
patta
patung
paul
paz
pbb
pbsi
pc
pd
pdf
pdi
pe
pearl
peccot
pecinta
pedang
pedas
pedoman
pedro
peel
pegangsaan
pegawai
peih
pejabat
pejuang
pekalongan
pekan
pekanbaru
pekarangan
pekerjaan
pekerjaannya
pelabbhuwa
pelabuhan
pelacur
pelajar
pelajaran
pelajari
pelaksana
pelaksanaan
pelangi
pelatihan
pelawak
pelayanan
pele
pelestarian
pelle
pelopor
pemain
pemakaian
pemalang
pemandangan
pemaoran
pemasaran
pembaca
pembahasan
pembangunan
pembantu
pembaruan
pembebasan
pembelajaran
pemberdayaan
pemberhentian
pemberitahuan
pemberontakan
pembicaraan
pembinaan
pembukaan
pemburu
pemeran
pemerentaan
pemerhati
pemeriksaan
pemeringkatan
pemerintahan
pemikiran
pemilih
pemilihan
pemilu
pemimpi
pemimpin
pemkab
pemkot
pemprov
pemuda
pemungutan
pen
pena
penanggulangan
penari
penase
penasehat
pencak
pencalonan
pencapaian
pencegahan
pendaftaran
pendapat
pendek
pendekatan
pendhapa
pendiam
pendidikan
pendiri
pendirian
penduduk
pendudukan
pendudukna
penegak
penegakan
peneliti
penelitian
penembak
penerapan
penerbit
penerimaan
penerjemah
penerjemahan
pengabdian
pengadilan
pengajaran
pengakuan
pengalaman
pengalamannya
pengambilan
pengantar
pengantin
pengarang
pengasingan
pengasuh
pengawas
pengelolaan
pengembangan
pengendaliannya
pengertian
pengesahan
pengetahuan
pengguna
pengharapan
penghargaan
penghijauan
pengkajian
pengkok
pengolahan
pengumuman
pengusaha
penh
peningkatan
peninjauan
penjajahan
penjaminan
penjara
penjelasan
penjhejheh
penjuru
pentandra
pente
penting
pentingnga
penuh
penulis
penumbra
penundaan
penutupan
penyair
penyakit
penyamun
penyandang
penyanyi
penyelidik
penyiaran
people
per
peradaban
peradilan
perahu
perak
peran
peranan
perancangan
perancis
perang
perangkat
peranna
perasaan
peraturan
perawan
perawatan
perayaan
perbandingan
perbankan
perbatasan
perbincangan
perbuatan
percakapan
percikan
percontoan
perdana
perdebatan
perempat
perempatfinalis
perempuan
perencanaan
perform
performed
pergerakan
perghi
pergi
pergolakan
pergulatan
perguruan
perhatian
perhiasan
perhimpunan
perikanan
perilaku
peringatan
peringkat
perintis
period
periode
peristiwa
perjalanan
perjuangan
perjuanganna
perkembangan
perkenalan
perkiraaghi
perkuliahan
perkutut
perlombaan
perlu
permai
permana
permata
permintaan
permission
permohonan
permukaan
permusyawaratan
perna
pernah
pernata
pernikahan
pernyataan
perpus
perpustakaan
perrang
perre
pers
persada
persatuan
persekutuan
persetubuhan
persetujuan
persia
persiapan
persimpangan
persoalan
person
personal
perspektif
pertahanan
pertal
pertalan
pertama
pertamaku
pertamana
pertamina
pertanian
pertanyaan
pertempuran
pertemuan
pertentangan
pertimbangan
pertobatan
pertumbuhan
pertunjukan
peru
perubahan
perumus
perumusan
perunggu
perusahaan
perwakilan
perwira
pesan
pesantre
pesantren
pesat
peserta
pesisir
peso
pesona
pesse
pessen
pesta
pet
peta
petane
petani
petelur
peter
peternakan
peto
petro
petrokimia
pettal
pette
petthe
pfaf
ph
pha
pharmaceutical
pharmacological
phase
phi
philippines
phk
phnom
photo
php
phyllanthaceae
phyllanthus
physical
pi
piagam
piala
piblam
pictures
pidana
pidato
pidatona
piek
pierre
pihak
pii
pikiran
pilgub
pilih
pilihan
pilkada
pilpre
pimpin
pimpinan
pin
pinang
pineapple
pinerineks
pinggir
pintar
pintu
piper
piperaceae
pisau
pjka
pjs
pkb
pki
pks
pl
place
plant
plantnet
plants
plantsoftheworldonline
plastik
play
plaza
ple
please
pledge
pledges
plerok
plessir
plk
pm
png
pni
pnj
po
poaceae
poci
podgorica
poesia
poetas
poeticas
poetry
poets
poh
pohon
pohuwato
pojhur
pok
poko
pokok
pokol
pol
pola
polan
polana
polanah
poland
polandia
polay
pole
polemik
poli
policies
policy
poliklinik
poliknik
polime
polinesia
polisi
politeknik
political
politik
politikus
politisi
polo
poloh
polybag
pon
ponapa
ponca
pond
pondhuk
pondhut
pondok
pongghaba
ponorogo
ponsel
pontianak
ponya
poor
pop
popayato
popular
popularitas
population
populer
por
porang
porba
porot
porsmouth
port
portal
portugal
portugis
pos
posat
posisi
posisinah
positif
position
possible
post
posted
poster
pot
potaran
pote
potential
potong
potosan
potra
potrae
potrana
potre
potret
pottra
pottre
power
powo
pp
ppa
ppaghi
ppe
ppikid
ppki
pponah
pps
pr
pra
prabowo
prabu
practice
practices
pradnya
pragmatis
praha
prahara
prajhurit
prakoso
pramoedya
pramuka
pranala
prancis
prangkat
prapen
prasad
prasasti
prasetya
pratanu
prawirohardjo
pre
predikat
presenter
presid
presiden
president
presidium
press
previously
pribadi
prilly
primata
primer
prince
pringgodigdo
prinsip
prior
privacy
privasi
privat
privilege
privileges
prix
priyai
priyayi
pro
problematic
problems
probolinggo
procedural
procedures
proceedings
process
processes
prod
prodi
production
produk
produksi
produsen
prof
profauna
profe
profesi
profesional
profesor
professional
profil
program
project
projects
proklamasi
proklamator
promptly
properties
propinsi
propinsina
proposal
proposals
propose
prosa
prose
prosea
proses
prospects
protection
protestan
proton
prove
provinsi
provision
proye
proyek
ps
psg
psikologi
psjb
psld
pslh
pspk
psychological
pt
ptaaghi
ptain
pte
ptem
ptember
pterocarpus
pthpm
ptpg
pu
public
publication
publik
publikasi
publique
publisher
publishing
puerto
puisi
puisina
puitisasi
pujangga
puji
pukul
pula
pulang
pulau
puncak
puntung
punya
pura
purbakala
pureaa
purely
purnama
purwokerto
pusaka
pusat
pusgiwa
puspa
pustaka
putaran
pute
puteri
puti
putih
putra
putre
putri
putu
putus
px
q
qa
qasam
qatar
qiyas
quality
qubro
queen
queensland
question
questions
quito
qur
r
ra
raaghi
raba
rabet
rabhu
rabindranath
rachel
rachmat
racon
radar
rade
raden
radhin
radin
radio
radja
rae
rafiah
raga
raghi
ragu
rah
rahadi
rahardjo
rahasia
rahim
rahman
rahmat
raihana
rain
raisa
raising
raja
rajah
rajha
rajhina
rajina
rakyat
ram
ramadan
ramadhan
ramah
ramana
ramayana
rambutan
ramme
ramo
rampai
rampe
ramy
ramzy
ramzym
ran
rana
ranah
ranca
rancang
rancangan
rang
rangka
rangkep
rangrang
ranking
ranna
rantau
rao
rapat
rara
rarely
ras
rasa
rassa
rassana
rassanah
rasul
rasulullah
rasyid
rat
rata
rather
ratifikasi
ratmana
ratna
rato
ratoe
ratoh
ratona
ratosan
ratu
rawa
rawat
raya
razia
rb
rba
rcti
rd
re
read
reading
realisme
reason
reasonable
reasons
rebah
rebai
rebbha
recall
record
records
red
redaksi
reference
referensi
reformasi
refrain
regardless
regards
regency
region
regional
register
reinstated
rejang
rejoso
rekaman
rekan
rekomendasi
rekor
rektor
rektorat
relation
relations
relawan
relevan
relevansi
relevant
religi
relying
remaco
remaja
rembang
rembha
rembulan
remedies
remember
reminded
reminder
remix
remma
removal
remove
removed
ren
rena
renang
rencana
rendezvous
rendra
reng
rengan
rengas
rengasdengklok
rengnge
renungan
renville
reog
repeated
repertoar
report
reproduksi
repu
republic
republik
republika
reputasi
request
requested
requesting
requests
requiem
required
requirements
requires
reruntuhan
res
research
resep
resepsionis
resimen
resmi
resmiaghi
resmikan
resmina
resolution
resolve
resolved
resonansi
resources
respect
responsibilities
responsibility
respublika
restoration
restore
restored
restrictions
result
results
retains
reticulata
retno
retrieved
reveal
reverse
reversed
reversing
reverted
review
revised
revisi
revolusi
revolusioner
reykjavi
rfa
rfas
rfc
rgb
rgha
rgi
rhamnaceae
rhetsa
rhoma
rhythm
ri
riau
ribu
rica
richard
richi
rico
riga
right
rights
rih
rik
rika
riko
rilis
rilya
rimba
rina
rincian
rindu
ring
ringan
ringkas
ringkasan
rini
rintisan
rio
ris
risa
risalah
rise
riset
rita
ritual
rivai
river
riya
riyyat
rjha
rjuangan
rkat
rm
rma
rman
rna
rnana
rnasional
ro
road
roangan
roba
robert
robotik
rock
rocker
roda
rohani
roka
role
rollback
roma
roman
romana
romania
romansa
romawi
romi
romo
rona
ronggeng
rongkang
ronte
ronto
root
ropa
ropana
roponik
ros
rosa
roseau
rosidi
rossa
rossy
rote
rotterdam
rowa
roy
royani
rp
rra
rraghi
rrah
rrc
rre
rri
rro
rropa
rs
rsaa
rsana
rsare
rse
rsh
rshp
rsi
rsitas
rssa
rtama
rtc
ru
ruang
ruben
rubiaceae
rubrik
rudi
rudolf
ruf
ruins
rujukan
ruk
ruling
rumah
rumahku
rumahpenyair
rumpun
rumput
runa
rung
runner
runtuh
rupa
rupee
rusa
rusia
russia
rutaceae
rute
rutena
s
sa
saa
saabiddha
saaghi
saampon
saampona
saamponah
saan
saangghuna
saare
saat
saba
sabah
sabba
sabbha
sabbhra
sabda
sabe
sabegien
sabegiyen
sabeligheh
sabellum
sabellumma
sabellummah
sabellun
sabelluna
sabellunah
sabellunna
sabelunna
sabennya
saber
sabha
sabhend
sabigghi
sabry
sabu
sabuh
sacara
sad
sadajana
sadar
sadha
sadhunnya
sae
saellana
safety
safiyah
sagha
sah
sahabat
sai
said
saiful
saini
sains
saint
saintek
saja
sajadah
sajak
sajen
sajenis
sajha
sajja
sajjek
sajjha
sajjhek
saka
sakabbhienna
sakabbhina
sakabbhinna
sakale
sake
sakitar
sakola
sakolah
sakolana
sakone
sakoni
sakonik
sakonne
saksi
sakte
sala
salae
salaen
salah
salaja
salak
salam
salama
salamadani
salamet
salang
salanjha
salase
salastare
sale
saleh
salemba
salim
salinan
salju
salla
salman
saloran
saluran
salvador
sam
sama
samacem
samake
samalem
samane
samangke
samantara
samantha
samar
samara
samare
samarena
samarenah
samarenna
samaun
sambha
sambhi
sambhung
sambi
sambih
same
samentara
sami
samoa
samodra
sampai
sampaikan
sampang
sampe
sampek
samporna
samsons
samudra
san
sana
sanajjen
sanctions
sandhur
sandiaga
sandiwara
sandjak
sands
sane
sang
sanga
sanget
sanggar
sangghu
sangghup
sangkar
sangkolan
sangngar
sango
sangring
sani
sanna
sans
sanskerta
santa
santang
santiago
santo
santoso
santre
sanyatana
saongghuna
saongguna
saorang
saos
sapa
sapane
sapardi
sape
sapi
sapindaceae
sapolo
sapotaceae
sappar
sar
sara
sarah
sarajevo
saran
sarana
sarang
sarap
sarasvati
saraswati
sarawak
sare
sareng
sari
sarjana
sarkaja
sarone
sarraghi
sarta
sartono
sartre
sarung
sasak
sasaran
sasoghuk
sasorang
sastera
sastra
sastrawan
sastrawi
sastro
sastroamidjojo
sastrowardoyo
sataon
sate
satelit
satempat
saterrosah
saterrossa
sati
sativum
sato
satria
satrona
satto
sattong
satu
satuan
saturday
satya
saud
saudi
sawit
say
saya
sayang
sayap
sayyid
sayyidah
sby
sc
schleichera
scholarship
school
schools
science
sciencedirect
sciences
scott
sctv
sd
se
sea
sebab
sebagai
sebanyak
sebbhut
sebbhuta
sebbut
sebbutaki
sebeb
sebelah
sebellun
sebelum
sebelumnya
sebesar
sebra
sebuah
secara
secodiningrat
second
secret
securepoll
security
sed
sedang
seddhi
sederhana
sedih
sedimen
see
seek
seekor
seen
seferis
segalanya
segera
seggher
segghut
segi
sehat
sehingga
seiring
sejahtera
sejak
sejalan
sejarah
sejati
sejumlah
sejuta
sekali
sekar
sekarang
seketaris
sekitar
sekolah
sekretariat
sekretaris
seksual
sektor
sekumpulan
sekunder
sekuntum
sel
selain
selalu
selama
selamanya
selamat
selanjutnya
selaras
selat
selatan
selawe
selayar
selection
seleksi
selembut
selengkapnya
selesai
sellat
seller
sello
selma
seluas
seluruh
semangat
semar
semarang
semaun
sembilan
sembilu
semenanjung
sementara
semesta
semestinya
semi
semifinal
seminar
semma
semme
semmo
sempat
semua
semuanya
semusim
semut
sen
senandoeng
senandung
senang
senat
senayan
sendi
sendiri
sendy
senggugu
seni
seniman
senin
senior
senja
senjata
senna
senneng
senni
sensitive
sentasi
sentol
sentra
sentral
senyawa
senyuman
seorang
sepak
sepanjang
separate
separuh
sepasang
seperte
seperti
sepilihan
sepotong
seppet
seppo
seppona
sepponah
seppur
sepsep
september
septica
septictank
sepuh
sepuluh
seputar
serambi
serang
serangan
serangkai
serat
serbia
seri
serial
seribu
series
serigala
serikat
sering
serious
seriously
serradha
serrat
serre
serrebbha
serta
sertifikasi
sertifikat
server
seseorang
sesi
sesuai
sesuaia
set
setaman
setan
setangkai
setara
setelah
setempat
setengah
setia
setiap
setiawan
setidaknya
settong
setuju
setyo
seven
several
sg
sh
sha
shades
shadiq
shah
shahib
shakespeare
shania
share
sharing
sharma
shatha
shella
sherina
shiddiq
shirazy
sholat
shop
shorof
short
shortcuts
should
show
shqipe
shum
si
sia
siap
siapa
sid
sidang
sidayu
side
siden
sidenan
sidenna
sidik
sidoarjo
sidogiri
sierra
sifat
sigar
sign
sihir
sikap
sila
silakan
silam
silat
siliwangi
silver
simanjuntak
simatupang
simbol
simfoni
similar
simple
simply
simpson
sin
sinar
since
sinematografi
sinetron
singa
singapore
singapura
singaraja
singel
singgel
singhasari
singkat
singkatan
single
singo
singosari
sini
sinka
sipil
sipitasi
siregar
sirih
siring
sirkus
sisi
sistem
site
siti
sitor
sitti
sittong
situation
situations
situba
situbondo
situmorang
situs
sivitas
size
sjamaun
sjid
sk
skala
skb
ske
skenario
ski
skin
skopje
skotlandia
skripsi
skyline
slamet
sle
slides
slovakia
slovenia
sm
sma
smiling
smp
sna
so
soal
soara
sobbhu
sobron
sobung
socce
social
society
sociology
soe
soebardjo
soedewo
soeharto
soejitno
soejoeti
soekarno
soekarnoputri
soekarwo
soemitro
soenarto
soepomo
soeprijadi
sofia
softball
software
sofyan
sokkla
sokklana
sokklat
sokkor
soko
sokon
sol
sola
solanaceae
solat
solidarity
solo
solomon
soltan
somalia
somattra
somber
sombha
sombher
sombina
some
sometimes
somor
sompa
sonar
sonarra
sond
sondha
song
songai
songay
songennep
sonia
sonte
sonya
sopaja
sopajha
sor
sora
sorambhi
sorang
sorat
sorba
sorbha
sore
sorga
soro
soroca
sorotan
sorre
sose
soshum
sosial
sosialis
sosiawan
sosiologi
sosok
sosonan
sosonanna
sosonnah
soto
soul
soundtrack
south
souvenir
sowara
spain
spandhuk
spanyol
spe
special
specie
species
specific
specified
speedy
spesialis
spesials
spesies
spfp
spices
spkpd
sport
spotify
spp
sq
squamosa
square
sr
sragen
sri
sriwibawa
ssa
ssah
ssb
sse
st
sta
stad
stadion
staf
stain
stainpress
standar
standard
standards
standing
start
stasi
stasina
stasiun
state
statement
states
statistical
statistics
statistik
statistika
status
statuseh
ste
steenis
steinbeck
stella
step
steps
sterculia
steward
stewards
sti
stilistik
still
stinky
stival
stkm
sto
stockholm
stonah
stoomtram
stor
store
stories
story
stovia
strata
strategi
strategy
street
streifen
stres
strong
struktur
studi
studies
studina
studio
study
styling
su
suara
suaranya
suatu
sub
subagio
subang
subartikel
subianto
subje
subject
submit
subsisten
subur
subye
succotrina
such
suci
sucre
sudah
sudan
sudjojono
sue
suggested
sugiarta
sugih
suharto
suhu
suitability
suite
sujonopuro
sujudku
suka
sukab
sukabumi
sukardi
sukarelawan
sukarno
sukirno
sukoharjo
sukse
sukses
suku
sulaeman
sulaiman
sulawesi
sule
sultan
sum
sumalata
sumarah
sumardjo
sumatera
sumatra
sumatrana
sumba
sumbangan
sumber
sumbing
sumedhang
sumenep
summary
summit
sumpah
sumur
sunan
sunario
sunarjo
sunda
sundari
sungai
sunnah
sunrise
sunting
sunyi
super
superior
supermi
supernova
support
surabaya
surakarta
suramadu
surat
surau
surel
surga
suriah
suriname
surve
survei
survey
surya
suryamalang
susan
susastra
susilo
sustainable
susu
sutan
sutrad
sutradara
suyono
sv
swara
swasembada
swasta
swe
swed
swedia
swiss
switzerland
swt
sy
syaamil
syafi
syafii
syah
syahrir
syaikh
syaikhona
syair
syakhsiyyah
syamsul
syarat
syari
syariah
syarif
syarifah
sydney
sye
syeikh
syekh
symplocos
sysop
system
systems
syuting
syzygium
t
ta
taaghi
taat
tab
taba
tabbhu
tabbhuwa
tabha
tabing
tabrani
tabu
tabukka
tabung
tad
tada
tade
tadha
tadris
tae
taekwondo
tafse
tafsir
tag
tagalog
tagghuri
tagha
tagore
tahan
tahanan
tahap
tahsin
tahu
tahun
tahunan
taiwan
tajhem
tajhin
tajik
tajikistan
tak
takdir
takdzim
take
takes
taking
tako
talam
talangke
tale
tales
talk
tallinn
talpa
taman
tamaso
tamasok
tamat
tamba
tambah
tambahan
tambak
tambang
tambha
tamen
tamenan
tamenggung
tamenin
tamenna
tamennan
tamenne
tamer
tamim
tammat
tamoy
tampa
tampe
tamu
tan
tana
tanah
tanam
tanaman
tanan
tanana
tanang
tand
tanda
tandeh
tandha
tandus
tane
tanem
taneman
taneyan
tang
tangan
tangerang
tangga
tanggal
tanggha
tangghulun
tangghung
tanggung
tangkas
tangke
tangkebha
tangkep
tangkis
tanih
tanjhung
tanjung
tanpa
tantang
tantangan
tantona
tanya
tanzania
tao
taoh
taon
taonan
taonna
tapak
tapal
tapanuli
tape
tappa
tapsiyun
tar
tara
tarbiyah
tare
tarekat
tari
tarikh
tarnyata
tarom
tarong
tartanto
tarte
tarum
tas
tasawuf
tase
tasek
tashkent
tasikmalaya
tata
tatabahasa
tatang
tatanggha
tatape
tate
tatemmo
tatotop
taufik
taun
tawaran
taxi
taxon
tayangaghi
tbilisi
te
team
teater
tebuireng
tech
technical
technologists
technology
teen
teeuw
tegal
tegalan
teggha
tegghu
tegucigalpa
teguli
teh
teja
tek
teka
teki
teknik
teknis
teknologi
teks
teladan
telah
telang
telanjang
telegram
telekomunikasi
telepon
televisi
television
telle
tello
tellon
tellor
telok
teluk
tema
teman
tembang
tembi
tembok
temmo
temmoaghi
temmoe
temmoh
temmohaghi
temmowe
temor
tempat
templat
template
templates
temple
tempo
tempor
temporarily
temporary
temu
tenaga
teng
tenga
tengah
tengale
tenggara
tenggelamnya
tenggha
tengka
tengkorak
tengnga
tengnget
tenis
tennang
tentang
tentara
teori
tep
tepat
tepi
teppa
teppong
teptep
tepteppaghi
ter
tera
terakhir
terakreditasi
terang
terbaik
terbalik
terbang
terbanyak
terbaru
terbi
terbit
terbitaghi
terbitan
terbitlah
terbuka
terdapat
terdegradasi
terdiri
terendah
terfavorit
terhadap
terhormat
terhubung
teriakan
terima
teriring
terjema
terjemaaghi
terjemahaghi
terjemahan
terjun
terkad
terkait
terkas
terkembang
terkenal
terlahir
terlambat
terlampir
terlarang
terlepas
terlibat
terluka
term
termasok
termasuk
terminal
ternak
ternate
ternyata
teror
teros
terpadu
terpilih
terpopuler
terrang
terro
terros
terrosaghi
terrosan
terrosanna
tersebut
tersedia
tersenyum
tertarik
tertentu
terus
tes
tesse
test
tetap
tetapi
tetep
tetralogi
teuku
text
textildruck
th
tha
thai
thailand
thalia
than
thank
that
thawalib
the
theferns
their
them
themselves
then
there
therefore
these
they
things
this
tholabah
thomas
those
thought
thoyib
through
thumb
ti
tiada
tiap
tiara
tiba
ticket
tidak
tidur
tien
tifa
tiga
tild
tim
time
times
timnas
timor
timur
ting
tinggi
tingkat
tingkatna
tinjauan
tintamas
tionghoa
tiongkok
tipe
tipografi
tipografia
tipografija
tips
tirani
tirto
titano
titian
titik
title
tjahaja
tjerita
tk
tlogopojok
tmnr
tnam
tnis
to
toah
toan
toba
tobago
tobbha
todhu
toer
toha
tojjhuwa
tojjuna
toju
tok
tokang
toko
tokoh
tokyo
tol
tola
tolak
tolang
tole
toleransi
tolos
toman
tombol
tombu
tombui
tombuna
tombuwa
tomorrow
ton
tong
tonga
tonggak
tonggha
tongghu
tongket
tonjha
tono
too
tool
tools
top
tope
topeng
topic
topik
topote
tor
tora
toro
toron
toronan
toronto
torot
total
toto
totombuwa
totop
totope
tournamentsoftware
towa
towah
towana
toward
tower
town
tpi
tr
tra
trad
trade
tradisi
tradisional
tragedi
tragis
trans
transjakarta
transmigrasi
transportasi
travel
traveler
tre
tree
treedb
tri
tribunnews
tridharma
tried
triflora
triliun
trilogi
trinidad
trinity
trisakti
trisno
tropenmuseum
tropical
tropicaltimber
tropika
tropis
trotoar
trowulan
truedee
trust
try
tte
ttiaghi
tto
ttong
ttonga
ttongah
ttongan
ttongga
ttongnga
tu
tua
tuan
tuba
tubagus
tuban
tubuh
tudingan
tudjuh
tuesday
tugas
tugu
tuh
tuhan
tujuan
tujuh
tukang
tulis
tulisan
tumbuh
tumbuhan
tunarungu
tunas
tunggal
tunggu
tunisia
turki
turkmenistan
turun
turut
tutupoly
tuyul
tv
tvri
twitter
two
type
typografi
typografia
typografie
u
uang
ub
ubaidillah
uber
ubi
ubian
ubun
ucapkan
ucoc
ucocproject
udara
uganda
ugm
ui
uii
uin
uinjkt
uinsa
uji
ujung
uk
ukhuwah
ukm
ukraina
uksi
ukt
ulaanbaatar
ulama
ulang
ular
ully
ulum
ulung
um
umang
umar
umat
umbu
ummat
umpan
umri
umum
umumah
umumna
umumnya
un
una
unauthorized
unblock
unbra
und
undang
undangan
under
underlying
ung
unggas
unggul
ungkapan
ungu
uni
unik
uninvolved
union
unit
united
unive
universal
universidad
universitas
universiteit
university
unjustified
unless
unna
unprotect
unsur
until
untuk
untukku
untukmu
up
upacara
upaya
update
upon
upright
upt
ur
uraian
uraidhi
uri
urip
urn
uruguay
urus
urusan
us
usa
usaha
usahana
usai
usd
use
used
user
userbox
users
userspace
uses
usg
ushul
ushuluddin
usia
using
usman
usmar
ustri
usual
usually
usullaghi
ut
utama
utami
utara
utc
utm
utsman
uu
uud
uwa
uwi
uzbek
uzbekistan
v
vaduz
vallenato
valletta
valley
van
vandalism
vanuatu
var
varitas
vascular
vatican
vatikan
vchang
ve
vella
venezuela
verbenaceae
vereeniging
veronica
versi
version
vertikal
very
veteran
veteriner
vi
via
victor
video
vie
vietnam
view
viewtropical
vii
village
vilnius
vincent
virgin
virgo
virtual
visual
visualeditor
vitamin
vivo
voc
voice
vokasi
vol
voli
volksraad
volume
voluntarily
voluntary
von
voor
vote
w
wa
wacana
wafa
wafat
wafatnya
wah
wahab
wahana
wahib
wahid
wajada
wajah
wajar
wakaf
wakapolri
wakil
wakto
waktona
waktu
walaupun
wales
wali
walisongo
walk
walter
wan
wanita
war
ward
warga
warisan
warnings
warring
warsawa
wartawan
warung
was
washington
wat
water
wawan
wawancara
way
wayang
we
web
website
welang
welfare
well
weni
were
west
wetan
wewenang
what
wheel
when
where
whereby
whether
which
while
who
whose
wib
wide
widodo
width
widya
widyaloka
wife
wijaya
wijck
wiki
wikifisasi
wikimania
wikimedia
wikimedian
wikimediawan
wikipe
wikipedia
wikis
wiktionary
wilayah
wilayahna
wilayana
wild
will
willem
william
wilopo
wina
wira
wiraraja
wirausaha
wisanggeni
wisata
wisma
wismarini
wit
wita
with
without
wmf
wmid
wolters
women
wong
wonoasih
wonosari
wood
wordperfect
work
world
worldagroforestry
worse
would
wp
writing
written
wushu
www
x
xcd
xii
xinjiang
xiv
xx
xxi
y
ya
yaba
yae
yaghi
yah
yahoo
yaitu
yakin
yakni
yaknipusat
yalaman
yalle
yam
yaman
yamin
yan
yang
yangghep
yangghuy
yanna
yaounde
yap
yas
yase
yasunari
yat
yatore
yayasan
ye
year
years
yellow
yerusalem
yesus
ylang
yoba
yoca
yogya
yogyakarta
yola
yonathan
yonex
yongky
yor
yordania
york
yormate
you
your
yourself
yousef
youtube
yudhistira
yudhoyono
yull
yunani
yunusy
yusra
z
zagreb
zahara
zahra
zainab
zainal
zaini
zainuddin
zainul
zam
zaman
zamzam
zanthoxylum
zarkowi
zat
zh
zi
ziarah
zikrul
zingiber
zingiberaceae
ziziphus
zona
zoom
zoran
zu
zubair
zurich
{
|
}
~
«
®
°
±
²
¶
·
º
»
×
ß
ɔ
ə
ɛ
ɤ
ʻ
ʾ
ʿ
ˈ
ː
̀
́
̂
̃
̄
̆
̇
̈
̉
̊
̋
̌
̓
̛
̣
̦
̧
̨
̯
α
ι
ς
а
е
н
с
х
эдирне
і
ҫ
ְ
ִ
ֵ
ָ
ׂ
א
י
ל
ר
ש
ا
ادرنہ
الا
الجمهورية
العربية
المملكة
ایران
ب
ة
ج
جمهورية
دولة
ر
س
سلامية
ع
عبد
م
محمد
ن
ه
ور
ي
َ
ُ
ِ
ّ
ْ
ٔ
ٕ
ٱل
߬
ं
एड
क
घ
च
त
द
न
प
म
य
र
ल
श
स
ह
ा
ि
ी
ृ
े
ो
्
ং
ত
দ
ব
র
ল
শ
া
ী
ে
্
ਿ
ੇ
ନ
ର
ା
ି
େ
୍
க
ச
ழ
ி
ு
ை
்
ದ
ಮ
ು
ೆ
್
ക
ത
േ
ൈ
്
ൻ
්
ි
ร
ว
ั
ี
ุ
์
ດ
ັ
ິ
ີ
ົ
င
စ
ည
တ
ထ
ဒ
န
ပ
မ
ရ
အ
ဢ
ါ
ာ
ိ
ီ
ု
ေ
ံ
့
း
္
်
ြ
ၼ
ႃ
ႅ
ႇ
ជ
ឌ
ណ
ព
រ
អ
ា
ី
ុ
េ
ះ
្
ᬶ
ᮀ
ᮒ
ᮓ
ᮔ
ᮞ
ᮥ
ᮨ
᮪
‌
‎
‑
–
—
‘
’
“
”
‟
•
…
′
←
→
↔
↷
③
④
⑦
☉
☾
☿
⺀
⺄
⺆
⺈
⺊
⺌
⺕
⺝
⺸
⺼
⿰
⿱
⿲
⿳
⿴
⿵
⿶
⿷
⿸
⿹
⿺
⿻
〢
゙
゚
ィ
イ
カ
ク
コ
ス
タ
フ
ホ
ユ
ラ
リ
ル
・
ー
㇁
㇂
㇄
㇇
㇈
㇉
㇓
㐁
㐄
㐅
㐌
㐫
㐬
㐭
㐮
㐱
㑒
㒵
㒸
㒼
㓁
㓞
㔾
㕛
㕣
㖾
㘝
㚅
㚇
㚔
㚘
㝉
㝡
㝴
㝵
㞋
㞢
㞷
㠩
㠭
㠯
㡀
㡭
㡿
㢲
㢴
㣇
㣺
㥯
㪅
㫄
㫐
㫒
㫺
㬅
㬎
㬥
㬰
㲋
㳄
㷠
㸒
㸚
㸦
㼌
㼲
㽞
㿟
䀠
䂞
䍃
䏍
䒑
䖍
䖒
䖝
䖵
䙴
䚻
䜌
䝿
䡛
䧹
䪞
一
丁
丂
七
丄
丅
丆
万
丈
三
上
下
丌
不
与
丏
丐
丑
专
且
丕
世
丘
丙
业
东
丞
丢
丣
两
严
並
丨
丩
个
丫
丬
中
丮
丰
丱
串
丵
丶
丷
丸
丹
为
主
丽
丿
乀
乂
乃
久
乆
乇
么
义
之
乌
乍
乎
乏
乐
乑
乔
乖
乗
乘
乙
乚
乛
乜
九
乞
也
习
乡
乳
乾
亀
亅
了
亇
予
争
事
二
亍
于
亏
亐
云
互
亓
五
井
亘
亚
亜
亞
亟
亠
亡
亢
交
亥
亦
产
亨
亩
享
京
亭
亮
亯
亰
亲
亳
亶
亷
人
亻
亼
亾
仁
今
介
仌
从
仐
仑
仒
仓
仕
他
付
仝
代
令
以
任
企
伊
伏
伐
休
会
伯
但
位
体
何
佘
余
作
佥
使
來
侈
侌
侖
侯
侵
便
保
俞
信
修
倉
倍
候
倠
備
僉
僕
儿
兀
允
兂
元
兄
充
兆
兇
先
光
兊
克
兌
免
兑
兒
兓
兔
党
兜
兟
入
內
全
兩
兪
八
公
六
兮
兰
共
关
兵
其
具
典
兹
兼
冀
冂
冃
冄
内
冈
冉
冊
冋
册
再
冎
冏
冐
冒
冓
冖
冗
冘
军
农
冝
冡
冥
冫
冬
冷
几
凡
凢
凵
凶
凷
凸
凹
出
函
凾
刀
刁
刂
刃
刄
刅
分
切
刍
刑
刕
刖
列
刘
则
初
別
利
别
到
制
刺
則
削
剌
前
剡
創
剽
劉
力
功
加
劦
动
助
劫
劳
劵
勃
勇
勉
勒
動
務
勞
勤
勹
勺
勻
勾
勿
匀
匂
包
匆
匈
匊
匋
匍
匕
化
北
匚
匝
匡
匪
匱
匸
匹
区
医
匽
匿
區
十
卂
千
卄
卅
卆
升
午
卉
半
卌
华
卑
卒
卓
单
卖
南
卜
卝
卞
占
卡
卢
卣
卤
卦
卩
卪
卬
卯
印
危
即
却
卵
卷
卸
卻
厂
厃
厄
历
厈
厉
厌
厓
厘
厚
原
厤
厥
厨
厭
厲
厶
厷
厸
去
厼
厽
叀
参
參
叅
又
叉
及
友
双
反
叐
发
叒
叔
叕
取
受
叚
叜
叟
口
古
句
另
叩
只
召
可
台
叱
史
右
叵
号
司
叹
吂
各
吅
合
吉
吊
吋
同
名
后
吏
向
吕
君
吝
吞
否
含
启
吳
吴
吹
吾
呂
呆
呈
告
员
呙
周
命
咅
和
咎
咠
咢
咨
咸
咼
哀
品
哈
哉
員
哥
哲
唐
商
啇
問
啚
啬
啻
善
喜
喬
單
喿
嗇
噩
嚴
囊
囗
囘
囙
囚
四
回
囟
因
囧
囬
困
囱
囷
固
国
圂
圅
國
圍
圓
土
圡
圣
圥
在
圭
地
圶
圼
坐
坒
坚
坴
垂
垔
垚
埀
埃
埋
埶
執
基
堂
堅
堆
堇
堡
堯
塞
墨
壘
士
壬
壯
声
壳
壴
壹
壺
壽
夂
处
夅
夆
备
夊
夋
夌
复
夏
夒
夕
外
夗
夘
多
夜
夢
大
夨
天
太
夫
夬
夭
央
失
夲
头
夷
夸
夹
夻
夾
奂
奄
奇
奈
奉
奎
奏
奐
契
奓
奔
奚
奞
奠
奢
奥
奭
女
奴
奻
好
如
妄
妙
妟
妥
妻
妾
姑
委
姜
威
娄
婁
婴
嬰
嬴
子
孑
孔
孕
孖
字
存
孚
孛
孝
孟
季
孤
学
孫
孱
學
宀
宁
宂
它
宅
宇
守
安
宋
完
宏
宓
宗
官
定
宛
宜
宝
客
宣
室
宮
宰
害
家
容
宾
宿
寄
寅
密
富
寒
察
寧
審
寫
寬
寮
寸
对
寺
寻
寽
対
寿
封
尃
射
将
將
專
尉
尊
尋
尌
對
小
少
尒
尓
尔
尖
尗
尚
尞
尢
尣
尤
尧
尨
尭
就
尸
尹
尺
尻
尼
尽
尾
尿
局
居
屈
屋
屎
屏
屑
展
屖
屚
属
屠
屡
屬
屮
屯
屰
山
屵
屾
岁
岂
岑
岡
岩
岳
岸
峯
島
崇
崑
崔
崖
崙
崩
嵬
嶲
巂
巛
川
州
巟
巠
巢
巤
工
左
巧
巨
巩
巫
差
己
已
巳
巴
巷
巸
巽
巾
巿
帀
市
布
希
帚
帛
帝
带
師
席
帶
常
干
平
年
幵
并
幷
幸
幺
幻
幼
幽
幾
广
広
庄
床
底
店
庚
府
度
庫
庭
庶
康
庸
廉
廌
廛
廣
廩
廴
延
廷
建
廾
廿
开
弁
弃
弄
弇
弋
式
弓
弔
引
弗
弘
弜
弟
弥
弦
弱
張
強
强
彊
彌
彎
彐
彑
当
彔
录
彖
彗
彡
形
彥
彦
彧
彭
彳
役
彼
往
待
律
徒
得
徙
從
復
微
徵
德
心
忄
必
忌
忍
志
忝
忠
忩
快
念
忽
忿
思
怠
急
怱
恆
恒
恩
恭
息
悉
患
悤
悲
悶
惠
惡
惢
愁
愈
意
愛
感
慈
慧
慮
憂
憲
應
戀
戈
戉
戊
戋
戌
戍
戎
成
我
戒
戔
或
戚
戠
戢
截
戲
戶
户
戹
戼
戾
房
所
扁
扇
手
扌
才
打
托
执
承
折
拉
拜
拿
掌
排
推
提
摩
支
攴
攵
收
攸
改
放
政
敄
敏
敕
敖
敗
敝
敞
敢
散
敦
敫
敬
数
敷
數
斂
文
斉
斊
斗
斤
斥
斩
斬
斯
新
方
於
施
斿
旁
旋
族
无
旡
既
旣
日
旦
旧
旨
早
旬
旱
旲
时
旾
昆
昇
昌
昍
明
昏
易
昔
昗
昜
星
春
昬
是
昱
昴
昷
時
晃
晋
晏
普
景
晶
智
暑
暴
曇
曩
曰
曲
曳
更
曷
書
曹
曼
曾
替
最
朁
會
月
有
朋
服
朔
朕
朗
望
朝
木
朩
未
末
本
札
朮
术
朱
朵
朶
朿
杀
杏
杜
束
条
来
東
杲
杳
松
析
林
枚
果
枝
枲
枼
某
柔
查
柬
柰
柴
栗
桀
桑
桼
梁
條
梟
梨
棘
棠
棥
森
楚
業
楽
榮
樂
樊
欠
次
欣
欧
欮
欲
欶
欽
款
歆
歇
歛
止
正
此
步
武
歨
歪
歮
歯
歰
歲
歴
歷
歸
歹
歺
死
殳
段
殷
殸
殹
殺
殻
殿
毋
毌
母
每
毒
比
毕
毚
毛
毳
氏
氐
民
气
氣
水
氵
氶
氷
永
氺
氾
求
汝
汞
江
沃
沓
沙
沝
泉
法
波
泣
泥
泰
洛
洪
活
派
流
浦
浪
浮
淡
淮
清
渚
渠
湯
滿
漸
澤
火
灬
灭
灰
灵
灷
炅
炎
炏
炗
炙
炭
為
烈
烏
烝
焉
無
焦
焱
然
煞
熊
熏
燕
營
燮
爪
爫
爭
爯
爰
爱
爲
爵
父
爻
爽
爾
爿
片
牙
牚
牛
牜
牟
牢
牧
牪
牽
犀
犬
犭
犮
狂
狄
狊
独
狺
猋
猒
猪
献
獻
玄
率
玉
王
玟
玨
玲
珀
珎
班
琴
瑟
瑩
瓜
瓦
甘
甚
生
産
用
甫
甬
田
由
甲
申
电
甶
男
甸
甹
画
甾
畀
界
畏
畐
留
畜
畟
畢
畧
畨
番
畫
異
畱
當
畺
畾
疊
疋
疌
疑
疒
疾
癶
癸
癹
登
發
白
百
皀
皃
的
皆
皇
皋
皐
皕
皮
皷
皿
盃
盆
盇
盈
益
盍
盎
监
盒
盖
盛
盡
監
盤
盧
目
直
相
盾
省
眇
眉
看
眔
眞
真
眷
眼
眾
着
睘
睪
睿
瞏
瞢
瞿
矍
矛
矞
矢
矣
知
矦
短
石
破
碎
磊
磨
示
礻
礼
祟
票
祭
禀
禁
禸
禹
禺
离
禽
禾
禿
秀
秃
秉
秋
科
秝
秦
移
稟
穀
穌
穴
究
穹
空
穿
突
窄
窒
立
竒
竜
竝
竟
章
童
竹
笑
笠
第
筆
等
答
简
箕
算
箴
節
篤
篭
米
粉
粛
粟
粤
粦
粲
糞
糸
糹
系
約
納
素
索
紫
累
細
絜
絫
絲
維
綿
縣
繁
繇
纍
纟
缶
网
罒
罔
罕
罗
罙
罡
罢
罪
署
罷
羅
羊
羌
羍
美
羔
羕
羗
羞
羡
羣
群
義
羲
羸
羽
翁
翏
習
翕
翟
翠
翼
老
耂
考
者
耆
而
耎
耑
耒
耳
耴
耶
耷
聂
聊
聖
聚
聶
聿
肀
肃
肅
肉
肖
肙
肥
肩
肯
育
肴
胃
背
胡
胥
能
脊
脩
膚
臣
臤
臧
自
臬
臭
臯
臱
至
致
臺
臼
臽
臾
臿
舀
舂
舄
與
興
舉
舌
舍
舛
舜
舞
舟
般
船
艮
良
色
艸
艹
艾
芒
芔
芬
芮
花
芳
芺
芻
苔
苗
苟
若
苦
英
茶
茸
荅
草
荒
荣
荼
莆
莧
莫
莽
菆
菊
菐
華
萬
落
葉
著
葛
董
葵
蒙
蒦
蒼
蓋
蓬
蓺
蔑
蔡
蕉
蕭
薄
薛
薦
薰
藍
藏
藥
蘭
虍
虎
虐
虒
虔
處
虖
虗
虘
虚
虛
虜
虞
虫
虽
蚤
蚩
蜀
蜜
蟲
蠡
血
行
衍
衛
衣
衤
表
衮
衰
袁
袞
褭
褱
襄
襾
西
覀
要
覃
見
規
覓
覧
親
覽
见
角
解
言
訁
訇
計
詹
語
誩
諸
讠
谷
豆
豈
豊
豐
豕
豖
豙
象
豦
豩
豪
豸
貇
貝
貞
貟
負
貢
貧
貪
貫
責
貳
貴
買
費
賁
資
賈
賏
賓
賔
賛
賞
賢
賣
質
賴
贊
贝
贡
责
贯
贲
贵
赖
赞
赤
赦
走
越
足
路
蹇
身
躬
車
軍
軎
軟
輦
车
辛
辜
辟
辥
辰
辱
農
辵
辶
边
达
过
近
连
迪
迷
追
退
送
逆
逐
通
速
造
逢
連
逮
進
遀
遂
過
道
達
遣
適
遷
遺
邊
邑
邕
那
邦
邪
郎
部
郭
都
鄉
酉
酋
配
酓
釆
采
里
重
野
量
金
釒
錢
钅
長
镸
长
門
閃
閉
開
閏
閑
閒
間
閔
閵
閻
闌
门
间
闷
阑
阜
阝
阿
降
限
陳
隆
隊
隋
隡
隨
隱
隶
隹
隺
隻
隼
隽
难
雀
雁
集
雈
雋
雍
雐
雔
雙
雚
雜
雝
離
難
雨
雩
雪
雲
零
雷
需
霍
霜
霝
霞
霸
靈
靑
青
非
靡
面
靣
革
韋
韓
韦
韭
韯
韱
音
頁
頃
項
順
須
頗
頡
頻
顛
页
風
风
飛
飞
食
飠
養
饣
首
香
馬
馮
駦
马
骨
體
高
髟
鬥
鬯
鬲
鬼
魚
魯
鮮
鱼
鲁
鳥
鳳
鸟
鹵
鹿
麃
麗
麥
麦
麻
黃
黄
黍
黎
黑
黒
黨
黹
黽
黾
鼎
鼓
鼠
鼻
齊
齋
齐
齒
齿
龍
龙
龜
龟
龠
龰
龱
龴
龵
龶
龷
龸
龹
ꤰ
ꤲ
ꤷ
ꤾ
ꥈ
ꥍ
꥓
ꦁ
ꦂ
ꦉ
ꦏ
ꦒ
ꦔ
ꦕ
ꦗ
ꦚ
ꦠ
ꦡ
ꦢ
ꦤ
ꦥ
ꦧ
ꦨ
ꦩ
ꦪ
ꦫ
ꦭ
ꦮ
ꦯ
ꦱ
ꦲ
꦳
ꦴ
ꦶ
ꦸ
ꦺ
ꦼ
ꦿ
꧀
ꭰ
ꭱ
ꮑ
ꮧ
者
艹
ﻋ
ﻟ
ﻠ
ﻢ
ﻦ
﻿
？
𐌰
𐌳
𐌹
𐌽
𐍂
🜨
𠀁
𠀃
𠀆
𠀉
𠀎
𠀐
𠁁
𠁣
𠂆
𠂇
𠂈
𠂉
𠂊
𠂋
𠂎
𠂒
𠂔
𠂛
𠂡
𠂢
𠂤
𠂬
𠂭
𠂹
𠃊
𠃋
𠃌
𠃍
𠃎
𠃑
𠃓
𠃔
𠃜
𠄌
𠄎
𠄠
𠄢
𠆢
𠆥
𠇍
𠈌
𠌵
𠓜
𠔉
𠔥
𠔼
𠔽
𠔿
𠕀
𠕁
𠕋
𠘧
𠘨
𠙻
𠙼
𠚏
𠚒
𠚤
𠚪
𠣏
𠤎
𠤕
𠥓
𠦄
𠦑
𠦝
𠧒
𠧗
𠧪
𠩺
𠪚
𠫓
𠫔
𠫤
𠬛
𠬝
𠬞
𠬢
𠬤
𠬶
𠮛
𠮦
𠮷
𠯑
𠱠
𠳮
𠷎
𡈼
𡉀
𡉵
𡌥
𡍮
𡏳
𡕒
𡕩
𡕰
𡖅
𡗗
𡗜
𡘆
𡘤
𡧱
𡨄
𡩧
𡬠
𡭽
𡰣
𡰥
𡰪
𡰯
𡰱
𡷈
𡸁
𡿨
𡿩
𡿪
𡿺
𢀖
𢀛
𢀩
𢁙
𢆉
𢆰
𢆶
𢇁
𢇇
𢉖
𢌬
𢌿
𢏚
𢑑
𢑚
𢖻
𢙣
𢛳
𢦏
𢦒
𢧵
𢼄
𢾕
𣁋
𣄼
𣅀
𣅽
𣍘
𣎳
𣎵
𣏋
𣏼
𣗥
𣥂
𣥖
𣦵
𣦼
𣧄
𣪊
𣪠
𣬉
𣳾
𣶒
𤇾
𤊽
𤐫
𤓰
𤔔
𤕨
𤣩
𤰇
𤰔
𤰞
𤴓
𤴔
𤽄
𥁑
𥁕
𥃦
𥃩
𥃭
𥇡
𥑟
𥘅
𥘈
𥝢
𥫗
𥱡
𦈢
𦉪
𦉬
𦉼
𦍌
𦍒
𦎧
𦐇
𦓔
𦔮
𦘒
𦙃
𦚏
𦣝
𦣞
𦣻
𦥑
𦥔
𦥯
𦨉
𦭝
𦰩
𧆞
𧈧
𧘇
𧰨
𧴪
𧴮
𧵩
𧾷
𨸏
𨾴
𩙿
𩠐
𩫏
𩵋
𪉷
𪜀
𪟽
𪠲
𪩲
𫇦
𫔭
𫜸
𫝀
𫠣
𫠩
𫢉
𫥞
𫩏
𫩠
𫪡
𫲽
𫶧
𬀷
𬐘
𬗌
𬙙
𬛸
𬜯
𬟩
𬯁
𬴘
𬺻
𬼉
𬼖
𭀰
𭁈
𭁨
𭅰
𭑈
𭕄
𭗼
𭤨
𭥫
𭻾
𮅕
𮊿
𮍌
𮍏
𮓗
𮥼
𮧮
廾
𰀁
𰀄
𰀈
𰀉
𰀕
𰀠
𰀡
𰀢
𰀪
𰁜
𰃮
𰆊
𰆘
𰋙
𰕎
𰢴
𰧭
𰯲
03--
12--
14--
15--
17--
18--
22--
29--
30--
33--
70--
74--
8--
81--
86--
9--
a--
ab--
aba--
abdur--
abe--
abi--
abu--
ac--
aca--
acerm--
ad--
ade--
adi--
advi--
ae--
af--
afi--
afri--
ag--
aga--
ah--
aja--
aje--
aju--
ajum--
ak--
aka--
aku--
al--
ala--
alam--
ale--
alex--
ali--
am--
amb--
ame--
an--
ana--
ang--
ani--
anti--
anu--
ao--
apa--
ape--
app--
appli--
apr--
aq--
ar--
ara--
are--
aro--
arom--
art--
as--
ase--
aso--
at--
ata--
ate--
ati--
au--
az--
b--
ba--
bab--
bad--
bah--
bali--
ban--
bar--
bat--
be--
bed--
bel--
ben--
beng--
ber--
berke--
bet--
bh--
bha--
bhe--
bhu--
bhub--
bi--
bin--
bio--
biodi--
biogra--
bit--
bla--
blo--
bo--
bor--
bra--
bre--
bri--
bro--
brow--
bru--
bu--
bud--
buk--
buku--
bur--
bus--
buy--
by--
c--
ca--
cah--
cak--
cam--
can--
cang--
car--
cas--
cate--
cc--
ce--
ceur--
ch--
cha--
chi--
ci--
ciu--
cla--
co--
com--
compl--
con--
contr--
coordin--
copy--
cor--
coun--
cre--
cri--
cru--
cu--
cum--
cun--
cur--
cus--
cy--
d--
da--
dd--
de--
dedi--
del--
demok--
demonst--
den--
descript--
dha--
dhe--
dhi--
dhu--
di--
dia--
die--
dih--
diper--
dir--
disc--
dj--
djo--
djojo--
dju--
do--
don--
dou--
dr--
dre--
du--
dur--
e--
ec--
ed--
efe--
eh--
eka--
eko--
eks--
el--
ele--
elec--
em--
en--
enco--
eng--
eo--
ep--
epi--
er--
es--
et--
etno--
eu--
ex--
exte--
f--
facul--
fal--
far--
fas--
fav--
fe--
fi--
figh--
fik--
fk--
flo--
foc--
for--
foto--
fr--
frag--
fran--
fre--
ft--
fu--
g--
ga--
gad--
gal--
ge--
ged--
gem--
gene--
geo--
geogra--
ger--
geri--
gha--
ghe--
ghi--
ghu--
gi--
gia--
giga--
gis--
go--
gond--
gover--
gr--
gra--
gro--
gu--
gum--
gun--
h--
ha--
hal--
ham--
han--
hand--
har--
has--
he--
her--
hi--
his--
ho--
hof--
hono--
hr--
hu--
i--
id--
ih--
ij--
ilust--
im--
in--
inci--
ind--
indo--
ini--
ink--
inst--
inter--
inv--
inve--
ir--
is--
it--
j--
ja--
jak--
jam--
jan--
jas--
jaya--
je--
jen--
jhe--
jhu--
ji--
jj--
jo--
jog--
jom--
ju--
jum--
k--
ka--
kaa--
kaba--
kabhu--
kabi--
kae--
kah--
kahor--
kait--
kak--
kako--
kal--
kala--
kamo--
kan--
kar--
kara--
karto--
kas--
kasa--
kase--
kat--
kata--
kaw--
kaz--
ke--
keber--
kec--
kelu--
keme--
kemi--
kep--
ker--
kesa--
ket--
ketata--
kh--
kho--
ki--
kla--
ko--
kobhu--
koet--
kol--
kom--
kon--
konsi--
konste--
kot--
kra--
kre--
kri--
kris--
kro--
ktr--
ku--
kun--
l--
la--
lak--
lam--
lan--
lap--
lar--
lat--
le--
lem--
leng--
let--
li--
lig--
lim--
lit--
lle--
lo--
loe--
logi--
lp--
ls--
lu--
lum--
luncur--
lv--
ly--
m--
ma--
mac--
mag--
mah--
maha--
mak--
man--
map--
mar--
mas--
mat--
mata--
mc--
md--
me--
meas--
mela--
mem--
membe--
mempe--
memper--
men--
mend--
menda--
mene--
meng--
menga--
mengi--
mengun--
menja--
menting--
menu--
menya--
menye--
menyempu--
menyum--
mer--
meu--
mi--
micro--
mikro--
minis--
mir--
mis--
mit--
mo--
moel--
mojo--
mok--
mon--
mor--
mosc--
mu--
mua--
mul--
multi--
mun--
mur--
mut--
muz--
my--
n--
na--
nan--
nang--
nasi--
nay--
naypy--
ne--
nerbit--
ng--
nga--
ngan--
nge--
ngi--
ngo--
ni--
nir--
nna--
no--
nob--
non--
nor--
nt--
nta--
nu--
nuj--
nur--
ny--
nya--
nyaji--
nyam--
nye--
nyo--
nyong--
o--
oang--
obj--
obvio--
od--
ok--
olo--
om--
on--
one--
or--
oro--
osc--
oto--
out--
ox--
oy--
p--
pa--
pacar--
pad--
pagu--
paja--
pak--
pame--
pan--
pang--
panga--
pango--
pangr--
par--
para--
pare--
part--
pas--
pase--
pat--
pe--
pel--
pela--
pelu--
pem--
pen--
pena--
penga--
penge--
pengha--
pengo--
penun--
per--
peri--
pesu--
pet--
petu--
pg--
ph--
pha--
phi--
phy--
pi--
pl--
plur--
po--
pop--
por--
pos--
pp--
pr--
pra--
pre--
prefe--
pri--
prim--
princi--
priz--
pro--
prod--
pt--
pu--
publi--
q--
qa--
qu--
qui--
r--
ra--
rach--
radi--
raff--
rah--
ram--
ran--
rau--
rd--
re--
reb--
ref--
refe--
reg--
rein--
res--
reve--
rho--
ri--
rki--
ro--
rotu--
rout--
rti--
ru--
ruk--
rus--
s--
sa--
saa--
sadun--
sah--
sakobhe--
sal--
salan--
salo--
sam--
san--
sapa--
sari--
sat--
sate--
sc--
schi--
se--
sea--
seb--
sec--
sed--
sedia--
sel--
seme--
sen--
seram--
serba--
ses--
set--
sh--
sha--
she--
si--
sid--
sil--
sim--
simu--
sin--
sja--
sk--
slo--
smi--
so--
soci--
soe--
sol--
sou--
spe--
spi--
spon--
sr--
sri--
st--
sta--
stati--
su--
sub--
suher--
sum--
sun--
sv--
swie--
sy--
sya--
t--
ta--
tab--
tam--
tan--
tand--
tar--
tau--
te--
teb--
tele--
tep--
ter--
terri--
tes--
tet--
th--
the--
ti--
tim--
tji--
tjok--
to--
toj--
tol--
tom--
ton--
tr--
tra--
tre--
tri--
tro--
tu--
tunt--
tur--
twe--
typo--
typogra--
u--
ui--
uji--
um--
un--
uni--
ur--
us--
ut--
v--
valu--
ve--
ver--
vi--
vie--
visi--
vol--
w--
wa--
wali--
we--
wee--
wi--
wid--
wiki--
win--
wis--
wol--
wor--
wri--
x--
y--
ya--
yam--
ye--
yo--
yu--
z--
za--
ze--
zedo--
zh--
zi--
zu--
н--
ال--
الع--
ب--
تا--
حس--
عل--
م--
क--
--0
--1
--2
--3
--4
--5
--6
--7
--8
--9
--a
--aan
--aceae
--ad
--ae
--af
--afi
--ag
--aghi
--agi
--agih
--ah
--ai
--ak
--akse
--al
--am
--an
--ana
--ance
--and
--ang
--ani
--anku
--anna
--ans
--ant
--ap
--aphy
--ar
--ara
--aran
--arjo
--as
--asan
--asi
--at
--ata
--atan
--atha
--ati
--ation
--au
--aw
--awi
--ay
--b
--ba
--bah
--bar
--be
--bha
--bhi
--bi
--bia
--bisto
--bl
--ble
--bo
--bu
--buana
--c
--ca
--cal
--cam
--ce
--ceae
--ch
--cht
--cio
--ck
--cle
--co
--cs
--ct
--cted
--ction
--cts
--cu
--cum
--cy
--d
--da
--dad
--dah
--data
--ddha
--de
--del
--dewan
--dha
--dhu
--di
--din
--dji
--dled
--do
--dom
--dra
--ds
--du
--dung
--dy
--e
--ea
--east
--ed
--ee
--ef
--eh
--ehan
--ei
--ek
--el
--elan
--em
--en
--ena
--ene
--eng
--ent
--er
--eren
--ern
--ers
--erva
--es
--ese
--est
--et
--etta
--ey
--f
--fa
--fer
--ff
--ful
--fy
--g
--ga
--gah
--gal
--galkan
--gan
--gang
--gat
--ge
--gen
--ger
--ggu
--gha
--ghe
--ghi
--gi
--gih
--gio
--gis
--go
--gon
--grafer
--gu
--guan
--gul
--gy
--h
--ha
--han
--hap
--hasa
--he
--hek
--hi
--hin
--hkan
--hoff
--http
--https
--hu
--huk
--hung
--i
--ia
--iah
--ial
--ian
--iana
--iang
--ib
--ic
--ica
--ich
--ick
--id
--idha
--ie
--ied
--ier
--ies
--if
--igo
--ih
--ihan
--ij
--ik
--iko
--il
--im
--ima
--in
--ina
--ing
--ingan
--io
--ion
--ip
--ir
--ira
--is
--isasi
--ish
--isme
--istik
--it
--ita
--itas
--ite
--ito
--ity
--ium
--ius
--ive
--iyanti
--iz
--ized
--j
--ja
--jaitan
--jar
--jau
--je
--jha
--jhu
--ji
--jo
--jol
--jono
--ju
--k
--ka
--kaan
--kab
--kah
--kai
--kala
--kan
--kanna
--kannya
--kap
--kar
--kat
--ke
--ker
--kha
--ki
--kir
--kit
--kna
--knah
--ko
--kog
--kol
--kop
--ks
--ku
--kus
--kusumah
--l
--la
--laceae
--lah
--lan
--las
--lasi
--ld
--le
--li
--lijke
--likan
--lin
--lio
--lis
--lisa
--ll
--lla
--lo
--logi
--ls
--lt
--lu
--luh
--lung
--lus
--ly
--m
--ma
--mah
--man
--mba
--mbia
--mbola
--me
--men
--ment
--mi
--ming
--mistry
--mme
--mn
--mo
--mp
--ms
--mu
--muka
--n
--na
--naan
--nah
--nan
--nas
--nata
--nc
--nca
--nce
--nd
--nda
--nde
--ndo
--ndra
--ne
--ner
--nes
--net
--ng
--nga
--ngan
--nggu
--ngi
--ni
--nia
--njuk
--nk
--nn
--nna
--nnah
--no
--ns
--nsi
--nt
--nta
--ntahan
--nti
--nto
--ntu
--num
--nus
--ny
--nya
--o
--oa
--oe
--ografi
--oh
--oi
--ok
--okan
--oko
--ol
--om
--omo
--on
--ona
--onal
--one
--ong
--oni
--onia
--onic
--onis
--ono
--ons
--op
--or
--os
--ot
--ov
--ow
--oyo
--p
--pa
--pal
--pan
--pat
--pe
--pek
--pi
--pinang
--pkan
--po
--ps
--pul
--pun
--q
--r
--ra
--rai
--rak
--ral
--ran
--rat
--rbi
--rd
--re
--reh
--rejo
--ri
--ria
--rie
--rja
--rlah
--rn
--ro
--rok
--rol
--ron
--rpa
--rpum
--rpus
--rr
--rra
--rre
--rry
--rs
--rso
--rt
--rta
--rte
--rto
--ruh
--rum
--rus
--ry
--ryo
--s
--sa
--saghi
--sak
--san
--sar
--sari
--sasi
--sat
--sch
--sco
--scribe
--se
--seh
--ses
--sh
--shi
--si
--sia
--sible
--sif
--sih
--sis
--sium
--sk
--ska
--sok
--son
--ss
--ssa
--st
--ster
--su
--sud
--t
--ta
--taan
--taceae
--taghi
--tah
--tal
--tama
--tan
--tas
--tat
--te
--teau
--ted
--teh
--ten
--th
--tha
--thi
--ti
--tif
--tik
--tin
--tion
--tions
--tis
--tly
--tno
--to
--tor
--tors
--trol
--ts
--tta
--ttps
--tu
--tul
--tum
--tur
--ture
--tus
--ty
--tya
--u
--ua
--ud
--ue
--uf
--uga
--ught
--uh
--uk
--ul
--ule
--ullah
--um
--un
--ung
--ur
--ura
--uran
--us
--usi
--ussa
--usuma
--ut
--uw
--uy
--v
--va
--ve
--vity
--vo
--vu
--w
--wa
--waghi
--wale
--wan
--wati
--wi
--wirjo
--wn
--wo
--ws
--wu
--x
--xa
--y
--ya
--yak
--yar
--ye
--yen
--yi
--yo
--yri
--ys
--ysop
--yu
--yum
--z
--za
--ze
--zo
--е
--тан
--ة
--ت
--د
--ر
--ف
--ن
--ه
--ي
--ية
--ين
