!
"
#
##0
##1
##10
##11
##12
##13
##14
##15
##16
##17
##18
##19
##2
##20
##21
##22
##23
##24
##25
##26
##27
##28
##29
##3
##30
##31
##32
##33
##34
##35
##36
##37
##38
##39
##4
##40
##41
##42
##43
##44
##45
##46
##47
##48
##49
##5
##50
##51
##52
##53
##54
##55
##56
##57
##58
##59
##6
##60
##61
##62
##63
##64
##65
##66
##67
##68
##69
##7
##70
##71
##72
##73
##74
##75
##76
##77
##78
##79
##8
##80
##81
##82
##83
##84
##85
##86
##87
##88
##89
##9
##90
##91
##92
##93
##94
##95
##96
##97
##98
##99
$
%
&
'
(
)
*
+
,
-
.
/
0
00
000
0000
01
02
03
04
05
06
07
08
09
1
10
100
1000
101
102
103
104
105
106
107
108
109
11
110
111
112
114
115
116
117
118
119
12
120
121
122
123
125
126
127
128
13
130
131
132
133
135
139
14
140
141
144
1445
146
15
150
153
154
155
16
160
161
165
17
170
174
175
18
180
1870
189
1890
19
190
1900
1904
1905
1910
1911
1918
192
1920
1921
1924
1925
1930
1934
1937
1939
1940
1941
1945
1946
1947
1948
1949
195
1950
1951
1953
1954
1955
1956
1957
1958
1959
1960
1962
1963
1964
1965
1966
1967
1968
1969
1970
1971
1972
1973
1974
1975
1976
1977
1978
1979
1980
1981
1982
1983
1984
1985
1986
1987
1988
1989
1990
1991
1992
1993
1994
1995
1996
1997
1998
1999
2
20
200
2000
2001
2002
2003
2004
2005
2006
2007
2008
2009
201
2010
2011
2012
2013
2014
2015
2016
2017
2018
2019
202
2020
2021
2022
2023
21
210
22
220
23
230
232
24
240
25
250
26
260
27
270
28
280
29
3
30
300
31
3166
32
33
34
35
350
36
360
37
38
39
4
40
400
41
42
43
44
45
450
46
47
48
49
5
50
500
51
52
53
54
55
56
57
58
59
6
60
600
61
62
63
639
64
65
66
67
68
69
7
70
700
71
72
73
74
75
76
77
78
79
8
80
800
81
82
83
84
85
86
87
88
89
9
90
91
92
93
94
95
96
97
978
98
99
:
;
<
=
>
?
@
\
^
_
`
a
ab
abbreviated
abbreviation
abbreviations
abc
ability
able
ablon
about
above
absolute
abstaining
ac
academic
academy
accept
acceptable
accepted
accepts
access
accessed
accessibility
according
account
accounts
across
act
acting
action
actions
active
activities
activity
acts
actual
actually
ad
add
added
adding
addition
additional
address
adds
adj
admin
administration
administrative
administrator
administrators
adopted
advanced
advice
af
afd
affairs
affect
affected
afghanistan
africa
african
after
again
against
age
agency
ages
ago
agreed
agreement
agricultural
agriculture
ah
ai
aid
air
aircraft
airport
aise
al
alan
albert
album
alex
alexander
alias
aliases
align
all
allow
allowed
allowing
allows
almost
alone
along
alongside
alpha
already
also
alt
alternate
alternative
alternatively
although
always
am
ambassador
ambiguous
america
american
among
amount
an
analysis
analytic
ananda
anchor
ancient
and
andrew
ang
angeles
angkor
angle
animal
animals
annual
another
answer
anthem
anti
any
anyone
anything
anywhere
appear
appearance
appears
apple
applicable
application
applications
applied
applies
apply
approach
appropriate
approximately
april
ar
ara
arabic
arbitration
architect
architecture
archive
archived
archives
arcsin
arctan
are
area
areaname
areas
argument
arguments
aristotle
arithmetic
armed
armenia
arms
army
around
arrows
art
arthur
article
articles
artist
artists
arts
as
asean
ash
asia
asian
asiatique
ask
asked
aspect
aspects
assembly
assessment
assigned
assimilates
assistance
associated
association
assume
at
attack
attacks
attempt
attention
attribute
attribution
au
audio
august
aung
australia
australian
author
authority
authorlink
authors
auto
automated
automatic
automatically
aux
available
avatar
average
aviation
avoid
award
awarded
awards
aware
awareness
away
ax
b
ba
back
background
bad
balance
ban
bang
bangkok
bank
banner
banners
bar
barnstar
barnstars
base
based
basic
basis
bat
battle
bay
bb
bbc
bc
bce
bd
be
beautiful
became
because
become
becomes
becoming
been
beetle
before
began
begin
beginning
begins
behalf
behavior
behind
being
beings
believe
believed
bell
below
ben
berkeley
berlin
best
beta
better
between
beyond
bg
bi
bibcode
bible
bielenstein
bien
big
bill
billboard
billion
bin
binomial
biographical
biographies
biography
biology
birth
birthday
bit
black
blank
blankname
block
blocked
blocks
blog
blood
blue
bmatrix
bn
bo
board
body
boeng
bold
bolded
book
books
border
borders
born
boston
bot
both
bots
bottom
bound
boundary
box
boxes
brackets
branch
brand
break
breaking
breaks
bricks
bridge
brief
bring
britain
britannica
british
broad
broken
brother
brought
brown
browser
browsers
buddha
buddhism
buddhist
buddhists
budget
bug
build
building
buildings
built
bulletin
burma
burmese
bush
business
but
button
buttons
bx
by
c
ca
cable
calendar
california
call
called
calls
cambodge
cambodia
cambodian
cambridge
came
camera
cameron
camp
campaign
can
canada
canadian
candidates
cannot
cao
capital
capitalized
caption
captions
car
care
career
carhonda
carmazda
carmitsubishi
carnissan
cartoyota
case
cases
cat
categories
categorization
categorize
category
categorytoc
catholic
cause
caused
causes
cc
cd
cdot
cdots
ce
cell
cells
census
center
centered
central
centre
centuries
century
ceremony
certain
cf
ch
cha
chain
cham
champa
chan
chandler
chang
change
changed
changes
changing
channel
chapter
character
characters
charles
chart
charter
check
checked
chess
chi
chiang
chicago
chief
child
children
china
chinese
choice
choose
chosen
christian
christianity
christopher
chu
church
cia
circ
circle
circumstances
citation
citations
cite
cited
cities
citing
city
civil
civilization
clade
cladograms
claims
class
classes
classical
classification
clean
cleanup
clear
clearly
click
clicking
climate
clinging
close
closed
closely
closing
club
cm
co
code
codes
coins
col
cole
collaboration
collapse
collapsed
collapsible
collected
collection
collections
college
colon
colonial
color
colors
colour
columbia
columbus
column
columns
com
combination
combined
come
comes
comic
comics
coming
comma
command
commander
commas
comment
comments
commercial
commission
committee
common
commonly
commons
communication
communist
communities
community
como
compact
companies
company
compare
compared
comparison
compatible
competition
complete
completed
completely
complex
composed
computer
computers
computing
con
concentration
concept
concepts
concerns
concise
concrete
condition
conditions
conduct
conference
confirmed
conflict
confusion
congress
conjunction
consciousness
consensus
conservation
consider
considered
consistent
consisting
consists
consonant
consonants
constitution
constructed
construction
consultation
consumer
contact
contain
contained
containing
contains
contemplation
contemporary
content
contents
context
continue
continued
contrast
contribute
contributing
contribution
contributions
contributor
contributors
control
controlled
convention
conventions
conversation
conversion
convert
converted
coord
coordinate
coordinates
copied
copy
copying
copyright
copyrighted
core
corporation
corpse
correct
correctly
corresponding
cos
cosh
cost
cot
could
council
count
countries
country
county
course
court
cover
covered
covers
covid
crab
craving
create
created
creates
creating
creation
creative
creator
creators
crespigny
criminal
crisis
criteria
criterion
critical
cross
crown
crystal
cs
css
cu
cuba
cultural
culture
cup
currency
current
currently
cursor
custom
cut
cx
cy
d
da
daily
dame
dance
dark
dash
dashes
data
database
date
dated
dates
david
day
days
db
dc
dd
de
dead
deal
death
dec
december
decide
decimal
decision
declaration
dedicated
deep
default
defaults
defense
define
defined
definition
definitions
degree
degrees
del
delete
deleted
deleting
deletion
delisted
delivery
delta
democracy
democratic
demolished
density
department
dependent
depending
deprecated
depth
der
derived
des
describe
described
describes
describing
description
descriptions
design
designated
designation
designations
designed
desire
desired
desk
despite
detail
detailed
details
determine
determined
deuteronomy
develop
developed
developing
development
device
devices
df
dha
dhamma
dharma
dhi
di
dia
diagram
dialect
dialects
dictionary
did
didn
die
died
diff
differ
difference
differences
different
difficult
digit
digital
direct
direction
directly
director
directory
disabled
disambiguation
disambiguous
discipline
discourse
discovered
discovery
discuss
discussed
discussion
discussions
disease
display
displayed
displaying
displays
dispute
disputed
disputes
distinct
distinguish
distribution
district
districts
div
diversity
divided
divine
division
divisions
dms
dn
do
doc
doctrine
document
documentation
documents
does
doesn
dog
doi
doing
domain
don
done
dot
double
down
download
dr
draft
drafting
dragon
dt
du
due
dukkha
during
dx
dy
dynamic
dynasty
e
each
earlier
earliest
early
earth
easier
easily
east
eastern
easy
eat
ebrey
economic
economics
economy
ed
edit
edited
editing
edition
editor
editors
edits
eds
edu
education
edward
effect
effective
effects
effort
efforts
eg
eight
einstein
either
el
election
elections
electric
electronic
element
elemental
elements
elevation
elizabeth
else
elsewhere
em
email
embedded
embedding
emperor
emphasis
empire
emptiness
empty
en
enable
enabled
enclosed
encourage
encouraged
encyclopedia
encyclopedic
end
ending
ends
energy
enforcement
eng
engine
engineering
england
english
enlightenment
enough
ensure
enter
entered
entering
entertainment
entire
entirely
entitled
entity
entries
entry
environment
eo
epsilon
equal
equality
equals
equivalent
era
error
errors
es
eset
espan
especially
essay
essential
est
established
establishment
et
etc
ethics
ethnic
eu
europa
europe
european
even
event
events
eventually
ever
every
everyone
everything
evidence
evil
evilelite
evillegendary
evolution
exact
exactly
example
examples
except
exception
exceptions
exchange
exclude
exist
existence
existing
exists
exodus
expand
expanded
expansion
expected
experience
experienced
explain
explaining
explanation
explicitly
explorer
export
express
expressed
expression
expressions
extended
extension
external
extinct
extra
eye
f
fa
face
facebook
fact
factor
factors
facts
failed
fair
faith
fall
false
families
family
famous
faq
far
father
fc
fe
feature
featured
features
february
federal
federation
feedback
feel
feeling
feet
female
festival
few
ff
fictional
field
fields
fifa
fifth
fighter
figure
figures
file
filename
files
fill
film
films
filter
final
finally
finance
financial
find
fine
fire
firefox
first
fish
five
fix
fixed
flag
flags
float
floating
floor
flow
flowering
flown
fly
fm
focus
focused
folk
folklore
follow
followed
following
follows
font
fonts
foo
food
football
footer
footnote
footnotes
for
forall
force
forced
forces
foreign
forest
form
formal
format
formation
formats
formatted
formatting
formed
former
formerly
forms
formula
forum
forward
found
foundation
founded
founder
four
fourth
fox
fr
frac
frame
framework
franc
france
francis
frank
free
freedom
french
frequently
friedrich
friendship
from
front
frost
ft
fu
full
fully
function
functional
functionality
functions
fundamental
further
future
g
ga
galileo
gallery
game
games
gamma
ganymede
gave
gdp
ge
gender
general
generally
generate
generated
generates
generation
generic
genocide
genre
genus
geo
geographic
geographical
geography
geometric
george
geq
german
germany
get
getelementbyid
getting
getvalueof
gi
gia
giant
gif
girl
give
given
gives
giving
gl
global
globe
gm
gnu
go
goal
goals
god
goes
going
gold
golden
good
google
got
gov
governance
government
governor
grade
grammar
grand
grant
graphic
gray
great
greater
greatest
greek
green
gregorian
grey
grid
ground
group
groups
growth
gt
guardian
guidance
guide
guideline
guidelines
h
ha
had
half
hall
han
hanako
hand
handle
hanoi
hansen
happen
happens
hard
harvard
harvey
has
hatnote
have
having
he
head
header
headers
heading
headings
health
hear
heart
hebrew
height
heinrich
heir
held
helicopter
hello
help
helped
helpful
helps
hence
henri
henry
her
here
heritage
hertz
hi
hidden
hide
hierarchy
high
higher
highest
highly
hill
him
himself
hindi
hindu
his
histoire
historic
historical
history
hlist
ho
hoa
hold
holder
holds
holy
home
homo
hong
hook
hope
horizontal
hospital
host
hot
hour
hours
house
houses
how
however
hr
htm
html
http
https
hu
huatl
hue
human
hun
hussein
hyphen
hypothesis
i
ian
ib
ice
icon
icons
id
idea
ideas
identical
identification
identified
identifier
identify
identifying
identity
ie
if
ignored
ii
iii
il
illinois
illustrated
im
image
images
immediately
imperial
implementation
implemented
importance
important
improve
improving
in
inactive
inappropriate
inc
include
included
includes
including
inclusion
income
incorporates
incorrect
increase
increased
indent
independence
independent
index
indexof
india
indian
indic
indicate
indicated
indicates
individual
individually
individuals
indochina
indonesia
induction
industry
inequality
infection
influence
influenced
influential
info
infobox
infoboxes
information
infty
initial
initials
inline
inner
input
inscriptions
insert
inserted
inside
install
instance
instances
instead
institute
institution
institutions
instructions
int
integer
integrated
intended
interactive
interest
interested
interface
interlanguage
internal
international
internet
interpretation
intervention
interview
interwiki
into
introduced
introduction
invalid
inventor
involved
io
ip
ipa
irak
iran
irc
ireland
iron
is
isbn
islam
island
islands
isn
iso
israe
israel
issn
issue
issues
it
italic
italicized
italics
italy
item
items
its
itself
iv
ix
j
ja
jack
jackie
jacques
james
jan
january
japan
japanese
java
javascript
jean
jewish
jha
ji
jin
job
john
join
jones
joomla
joseph
journal
jpg
jr
js
jstor
judaism
julian
julianday
juliet
july
june
juno
jupiter
just
justice
k
ka
kagyu
kamma
kampong
kampuchea
kannada
karl
kde
keep
kennedy
keo
kept
key
keyboard
keymanweb
kg
kh
kha
khan
khme
khmer
khmers
khmum
kiernan
kill
killed
killing
kim
kimigayo
kind
kinds
king
kingdom
kingdoms
kings
kit
km
knight
know
knowledge
known
ko
koh
kong
korea
korean
krom
kz
l
la
label
labels
lack
lake
lama
land
landmark
lang
language
languages
lao
laos
large
largely
larger
largest
las
last
lat
late
later
latest
latin
latitude
latter
launched
law
laws
lay
layout
lcd
le
lead
leader
leading
league
learn
learning
least
leave
leaves
leaving
led
lee
left
legal
legend
length
lengua
leq
les
less
let
letter
letters
level
levels
leviticus
lewis
li
libraries
library
license
lie
lieberman
life
light
like
likely
lim
limit
limitations
limited
limits
line
lines
linguistic
link
linked
linking
links
linux
list
listed
listing
lists
literary
literature
little
liu
live
lives
living
ll
lloyd
ln
lo
local
located
location
locations
loewe
log
logged
logic
logical
logo
london
long
longer
longitude
look
looking
looks
loop
lord
lords
los
loss
lost
lot
louis
love
low
lower
ltd
lu
luang
lv
m
ma
mac
machine
made
magazine
magic
magnolia
maha
mahayana
mai
mail
main
mainly
maintain
maintained
maintenance
major
majority
make
makes
making
mal
malaysia
male
mall
man
management
manchester
mandarin
manner
manual
manually
many
map
maps
march
margin
marie
mark
marked
marker
market
marks
markup
mars
martin
mary
mask
mass
master
match
matches
material
materials
mathbb
mathbf
mathcal
mathematical
mathematics
mathrm
matrix
matter
max
maximum
maxwell
may
mbox
me
mean
meaning
meanings
means
meant
meat
medal
media
mediawiki
medical
medicine
medieval
meditation
meet
meeting
mehta
mekong
member
members
memory
men
mental
mentioned
menu
mercury
message
messages
met
meta
metal
method
methods
metres
metric
metropolitan
mexicana
mexico
mf
mi
michael
michigan
microformat
microformats
microsoft
mid
middle
might
miles
military
million
min
mind
mindfulness
minh
minimum
minister
ministry
minor
minutes
miss
missing
mission
mk
ml
mm
mn
mo
mobile
mode
model
modern
modified
module
moment
mon
money
monks
month
months
monument
moon
moral
more
mos
most
mostly
mother
motto
mountain
mountains
move
moved
movement
movie
moving
mozilla
mr
ms
mu
much
multi
multilingual
multiple
multiverse
muse
museum
music
must
mw
my
myanmar
n
na
nai
nam
name
named
namedata
names
namespace
namespaces
naming
nan
napoleon
nasa
nation
national
nations
native
natural
nature
nautiloid
navbox
navboxes
navigation
navigational
navpop
navy
nd
ne
near
nearly
necessary
need
needed
needham
needing
needs
negative
neither
neq
nested
net
netherlands
network
neutral
never
new
newly
newoption
news
newsletter
newspaper
next
nfc
ng
ngo
nguye
nguyen
nh
ni
nicholas
nickname
night
nikaya
nine
nirvana
nis
nishijima
nl
no
nobel
noble
node
nominated
non
none
nor
normal
normally
norodom
north
northern
norway
not
notability
notable
notation
note
noted
notes
nothing
notice
notices
notify
notoc
november
now
nrhp
nu
null
num
number
numbered
numbers
numeral
numeric
numerical
numerous
o
obj
object
objects
oblast
occasionally
occupation
occur
occurred
occurs
ocean
oclc
october
odd
of
off
offer
offering
offerings
office
official
officials
offset
often
ogre
oil
ok
ol
old
older
oldid
olympic
ombox
omega
omit
omitted
on
once
one
ones
online
only
onto
open
opened
opening
openstreetmap
opera
operating
operation
operations
operator
operatorname
opposed
opt
option
optional
optionally
options
or
orc
order
ordinary
org
organisation
organization
organizations
orient
origin
original
originally
origins
os
osm
other
others
otherwise
ou
our
out
outer
output
outside
outstanding
over
overall
overcomes
overline
override
overrightarrow
oversight
overview
own
owner
oxford
p
pa
pacific
padding
page
pagename
pages
pair
palace
palestine
pali
pan
paper
papers
para
paragraph
parallel
parameter
parameters
params
parent
parentheses
paris
park
parliament
parser
part
partial
participants
participate
particular
particularly
parties
partner
partof
parts
party
pass
passed
password
past
paste
patent
path
pattern
patterns
paul
pdf
pe
peace
peer
pen
penh
pennsylvania
people
pepper
per
percent
perception
perfect
perform
performance
performed
perhaps
period
periods
perl
permanent
permission
persian
person
personal
persons
peter
pg
ph
phase
phil
philosophers
philosophical
philosophy
phnom
photo
photograph
photographs
photography
php
phra
phrase
phrases
phu
physical
physiology
pi
picture
pictures
pierre
pipe
piped
pitch
pixel
pixels
pl
place
placed
placement
places
placing
plain
plan
planet
planets
planned
planning
plant
plantilla
plants
platform
plato
play
played
player
please
plural
plus
pm
pmid
png
po
poet
point
points
pol
police
policies
policy
political
politics
poly
pop
popular
population
por
portal
portals
portion
position
positive
possible
possibly
post
posted
pot
potential
potentially
power
powers
pp
pr
prabang
practical
practice
practices
prasat
pre
preah
preceded
preceding
precision
predecessor
predefinic
predloga
prefer
preferable
preferably
preferences
preferred
prefix
premier
presence
present
presented
president
press
prevent
preview
previous
previously
prey
price
primarily
primary
prime
prince
principal
principle
principles
print
printed
prior
private
prize
pro
probably
problem
problems
procedure
process
processes
produce
produced
producer
produces
producing
product
production
products
professional
professor
profile
program
programming
programs
progress
project
projects
prominent
pronunciation
proof
proper
properly
properties
property
proposal
proposals
propose
proposed
protect
protected
protection
provide
provided
provides
providing
province
provinces
provincial
ps
pt
public
publication
publications
published
publisher
publishers
publishing
punctuation
pure
purpose
purposes
push
pushpin
put
px
q
qquad
qr
quad
quality
que
queen
query
question
questions
quick
quickly
quite
quotation
quotations
quote
quoted
quotes
r
ra
race
radio
random
range
ranges
rank
ranks
rare
rarely
rate
rather
raw
ray
rd
re
reach
reached
read
reader
readers
reading
ready
real
reality
really
realm
reason
reasons
rebellion
receive
received
recent
recently
recognition
recognized
recommended
record
recorded
records
rect
red
redirect
redirects
reduce
reduced
redundant
ref
refer
reference
references
referencing
referred
refers
regard
regarding
regardless
regent
regexp
regexpmatch
regime
region
regional
regions
register
registered
registers
registration
regular
reign
related
relations
relationship
relative
relatively
release
released
relevant
reliable
relief
religion
religious
remain
remaining
remains
remember
removal
remove
removed
removing
renaissance
render
rendered
rendering
renders
repeat
repeatedly
replace
replaced
replacement
replaces
report
reports
represent
representation
represented
republic
request
requested
requesting
requests
require
required
requirements
requires
research
resistance
resolution
resolve
resource
resources
respect
respective
respectively
respiratory
response
responsible
rest
restored
result
resulting
results
retrieved
return
returned
returns
reuters
revenue
revert
review
reviews
revised
revision
revisions
revolution
rfi
rgb
ri
rice
richard
right
rightarrow
rights
rise
risk
river
rm
ro
road
roak
robert
rock
roger
role
roman
rome
romeo
ron
root
ross
rouge
round
routledge
row
rows
royal
rs
ru
rule
rules
run
running
rural
russell
russia
russian
s
sa
sacrifices
saddam
said
saigon
saint
salt
sam
sama
same
samma
sample
san
sanctuary
sandbox
sanskrit
sat
satellite
save
saving
saw
say
saying
says
scale
scheme
scholars
school
schools
science
sciences
scientific
scim
scope
scotland
screen
screenshot
script
scripts
sculpture
se
sea
seal
search
searches
searching
season
sec
second
secondary
seconds
section
sections
secure
security
see
seems
seen
select
selected
selection
self
semantics
semi
sen
send
sense
sensitive
sent
sentence
sentences
separate
separated
separator
september
sequence
series
serif
serv
serve
served
server
service
services
session
set
sets
setting
settings
settlement
seven
several
severe
shape
share
shared
she
shift
ship
ships
short
shortcut
shortcuts
shorter
should
show
showing
shown
shows
shu
si
siam
siamese
sibilant
side
sidebar
sigma
sign
signature
significant
signs
sihanouk
similar
similarly
simple
simply
sin
since
singapore
single
singleness
sinh
sister
site
sites
situation
six
sixth
size
sk
skin
skyline
sl
slash
slightly
sm
small
smaller
smart
smith
so
social
socie
society
soft
software
soil
solar
solid
some
someone
something
sometimes
son
song
soon
sort
sorted
sorting
sound
sounds
source
sources
south
southeast
southern
soviet
space
spaces
spain
span
spanish
speak
speakers
speaking
special
species
specific
specifically
specification
specified
specifies
specify
specifying
speech
speed
speedy
spelling
spirit
spiritual
split
spoken
sport
sports
spread
sq
sqrt
square
sr
sri
st
stadium
staff
stage
stalker
stand
standard
standards
stanford
star
start
started
starting
starts
state
stated
statement
statements
states
static
station
statistics
stats
status
stay
step
stephen
steps
steve
still
stone
stop
stored
stories
story
str
strategy
street
string
strings
strong
strongly
structure
structures
stub
stubs
students
studies
studio
study
style
styles
styling
su
sub
subcategories
subcategory
subdivision
subject
subjects
submit
subpage
subpages
subscription
subsequent
subst
substitute
substituted
substitution
subtemplates
success
successful
succession
successor
such
suffering
suffix
suggested
suitable
sum
summary
summer
sun
sunday
super
supplied
supply
support
supported
supporting
supports
sur
sure
surface
surname
surrounding
survey
sutra
sutta
sv
svg
swift
switch
symbol
symbols
symptoms
syntax
syphilis
system
systems
t
ta
tab
table
tables
tag
tagged
tags
tai
taiwan
take
taken
takes
taking
taliban
talk
tambie
tamil
tan
tanh
tanjiro
target
task
tasks
tax
taxa
taxobox
taxon
taxonomy
taylor
tboung
td
te
teacher
teaching
team
teams
technical
techniques
technology
television
tell
templat
template
templatedata
templates
temple
temples
ten
term
terminal
terms
terrant
territories
territory
test
testament
testing
tests
texas
text
texts
tf
th
tha
thai
thailand
than
thank
thanks
that
the
their
them
theme
themselves
then
theories
theory
theravada
there
therefore
these
theta
they
thing
things
think
thinking
third
this
tho
thomas
those
though
thought
thoughts
thousands
three
through
throughout
thu
thumb
thumbnail
thus
ti
tibetan
tie
till
time
times
timezone
tips
title
titles
tl
to
toc
today
together
tokyo
tom
tonal
tone
tones
too
took
tool
toolbar
tools
top
topic
topics
total
touch
tourism
towards
tower
town
tr
tra
track
tracking
trade
tradition
traditional
traditions
trailing
training
trans
transcluded
translate
translated
translation
translations
translator
transmission
transparent
transport
trapeang
travel
treated
treatment
treaty
tree
trees
tried
troops
true
trustees
truth
try
ttl
tu
tulips
turn
turned
tutorial
tv
twentieth
twenty
two
type
typed
typeof
types
typical
typically
typing
u
ucoc
uefa
uk
ukraine
ul
ultimate
un
una
undefined
under
understand
understanding
unesco
unicode
union
unique
unit
united
units
universal
universe
universities
university
unknown
unless
unlike
unnamed
unnecessary
unranked
until
up
update
updated
updates
upload
uploaded
upon
upper
upright
uranus
urban
url
urls
us
usa
usage
use
used
useful
user
userbox
userboxes
username
users
userspace
uses
using
usual
usually
utc
v
va
valid
value
values
van
vandalism
var
varepsilon
variable
variant
variations
variety
various
varphi
vb
ve
vec
vector
venus
version
versions
vertical
very
vi
via
vice
vickery
victoria
victory
video
vie
vientiane
viet
vietnam
vietnamese
view
viewing
views
vill
village
violation
violations
virus
visible
vision
visit
visual
visualeditor
visually
voice
void
vol
volume
volumes
volunteers
von
vote
voting
voyager
vs
vtv
vu
w
wa
wales
wall
walls
walrus
walter
wang
want
wanted
war
warning
wars
was
washington
wat
watch
watchlist
water
way
ways
we
weather
web
website
websites
week
weeks
weight
welcome
well
went
were
west
western
what
whatever
when
where
whereas
whether
which
while
white
whitespace
who
whole
whom
whose
why
wide
widehat
widely
width
widyono
wife
wiki
wikidata
wikilink
wikilinked
wikilinks
wikimedia
wikipe
wikipedia
wikipedians
wikipedias
wikiproject
wikiprojects
wikis
wikitext
wiktionary
wildlife
will
william
williams
win
window
windows
winter
wisconsin
wisdom
wish
wishes
wishlist
with
within
without
wizard
wmf
wocka
wolf
woman
women
won
word
words
work
worked
working
works
world
worldwide
would
wp
wrap
wright
write
writer
writers
writing
written
wrong
wrote
wto
wu
www
wyvern
x
xi
xico
xiongnu
xx
y
ya
yale
yang
year
years
yellow
yes
yet
yi
yo
york
you
young
your
yourself
youth
youtube
yu
yuan
yyyy
z
zealand
zen
zero
zh
zhang
zone
{
|
}
~


¢
£
§
©
«
¬
­
°
±
²
³
´
µ
·
¹
º
»
½
×
æ
÷
ø
đa
đi
đo
ŋ
œ
ɑ
ə
ɻ
ʰ
ʻ
ʼ
ˈ
ː
̀
́
̂
̃
̄
̆
̇
̈
̉
̊
̋
̌
̓
̛
̣
̦
̧
̨
̪
̯
̸
α
β
γ
δ
ε
ζ
η
θ
ι
κ
μ
ν
ξ
ο
π
ρ
ς
σ
τ
υ
φ
χ
ψ
ω
в
и
м
н
с
шаблон
ּ
ا
الگو
قالب
و
ي
َ
ٓ
ٔ
ँ
ं
क
ग
च
ज
ट
ड
ढ
त
द
न
प
ब
भ
म
य
र
ल
व
श
ष
स
़
ा
ि
ी
ु
े
ै
ो
्
।
ঁ
ং
ও
ক
গ
চ
জ
ট
ড
ত
দ
ন
প
ব
ভ
ম
মপ
য
র
ল
শ
ষ
স
়
া
ি
ী
ু
ে
্
ં
ચ
ઢ
ા
િ
ો
ଚ
ଛ
ଞ
ଟ
ା
େ
୍
க
ட
த
ப
ம
ய
ர
ற
வ
ா
ி
ு
ெ
ே
ை
்
క
ప
ా
ి
ీ
ు
్
ಟ
ು
ೆ
್
ം
ക
ത
പ
യ
വ
ാ
ി
ീ
്
ක
ල
ස
්
ා
ැ
ි
ก
ข
ค
ง
จ
ช
ฎก
ด
ต
ตต
ท
ธ
น
บ
ป
ผ
พ
ม
มท
ย
ร
ล
ว
ศ
ส
ห
อ
ั
า
ิ
ี
ึ
ื
ุ
ู
เล
็
่
้
๊
์
๓
ກ
ຈ
ດ
ນ
ວ
ສ
ັ
ິ
ີ
ື
ຸ
ູ
ົ
ຼ
່
້
ໍ
་
ད
က
င
တ
န
ပ
ဘ
မ
လ
သ
ာ
ိ
ီ
ု
ေ
ံ
း
္
်
ျ
ြ
ှ
ក
កក
កកក
កកង
កកងទ
កកងម
កកញ
កកណ
កកន
កកប
កកម
កកស
កខ
កគ
កគគ
កគង
កគណ
កឃ
កង
កងក
កងកម
កងខ
កងចក
កងដ
កងទ
កងន
កងពល
កងពលធ
កងយ
កងរ
កងវរស
កច
កចក
កចង
កចន
កចម
កឆ
កជ
កជញ
កជន
កជនជ
កជនដ
កជនន
កជប
កឈ
កញ
កញយ
កដ
កដក
កដងទង
កដជ
កដដ
កដណ
កដថ
កដទ
កដន
កដប
កដម
កដល
កឋ
កឌ
កណ
កត
កតញ
កតទ
កតន
កតម
កថ
កទ
កទង
កទទ
កទន
កទម
កធ
កធម
កន
កនយ
កប
កបក
កបង
កបច
កបញ
កបដ
កបណ
កបន
កបម
កបរ
កបរដ
កបរត
កបរម
កបរយ
កផ
កផង
កផងដ
កព
កពញ
កពណ
កពន
កភ
កភណ
កម
កមក
កមកព
កមកល
កមគ
កមង
កមន
កមហ
កយ
កយក
កយល
ករ
ករក
ករខ
ករគ
ករង
ករច
ករជ
ករដ
ករណ
ករត
ករទ
ករន
ករប
ករបស
ករម
កររ
ករល
ករវ
ករស
ករហ
ករអ
កល
កលក
កលន
កលល
កលវ
កវ
កវណ
កវត
កវប
កវរ
កស
កសក
កសង
កសញ
កសណ
កសត
កសន
កសប
កសព
កសភ
កសម
កសមណ
កសរ
កហ
កឡ
កអ
កអក
កអគ
កអង
កអណ
កអត
កអន
កអប
កអភ
កអម
កអរ
កអរក
កអរដ
កអរណ
កអរទ
កអរន
កអស
កឣ
កឣរ
កឥទ
កឥស
កឧកញ
កឧត
កឧទ
កឧប
កឧបក
កឪព
កឯ
កឯក
កឯប
កឯព
កឯអ
កឱ
កឲ
កៗ
ខ
ខក
ខខ
ខខណ
ខគ
ខង
ខច
ខជ
ខជន
ខជនន
ខដ
ខដល
ខឌ
ខណ
ខត
ខទ
ខធ
ខន
ខប
ខបន
ខផ
ខផង
ខព
ខភ
ខម
ខមកឲ
ខមគ
ខមន
ខយ
ខរ
ខរក
ខរកម
ខរដ
ខរណ
ខរបរ
ខរបស
ខរស
ខល
ខវ
ខស
ខសន
ខសប
ខសម
ខហ
ខឡ
ខអ
ខអង
ខឲ
គ
គក
គកណ
គកម
គខ
គគ
គគង
គង
គច
គចក
គចន
គចលន
គជ
គឈ
គញ
គដ
គដល
គឌ
គណ
គណកម
គណន
គណបក
គត
គតក
គតដ
គតទ
គតន
គតប
គតព
គតម
គតរបស
គតស
គតហ
គថ
គទ
គធ
គន
គនន
គប
គបន
គផ
គផង
គផល
គព
គភ
គម
គមក
គមខ
គមគ
គមច
គមជ
គមដ
គមត
គមថ
គមទ
គមន
គមប
គមព
គមម
គមមន
គមយ
គមរ
គមរបស
គមល
គមវ
គមស
គមហ
គមអ
គយ
គយគន
គយល
គរ
គរក
គរជ
គរដ
គរត
គរទ
គរធ
គរន
គរប
គរបស
គរម
គរយ
គរយន
គរល
គរវត
គរហ
គល
គលក
គលខ
គលគ
គលគប
គលច
គលជ
គលដ
គលដទ
គលណ
គលត
គលទ
គលធ
គលន
គលប
គលព
គលម
គលល
គលស
គលអ
គលឣ
គវ
គវត
គស
គសញ
គសម
គហ
គហបត
គឡ
គអ
គឥស
គឦស
គឯង
គឱ
គឲ
ឃ
ឃក
ឃខ
ឃច
ឃជ
ឃដ
ឃត
ឃទ
ឃធ
ឃន
ឃប
ឃព
ឃភ
ឃម
ឃរ
ឃរដ
ឃស
ង
ងក
ងកក
ងកង
ងកងកម
ងកងទ
ងកញ
ងកណ
ងកត
ងកន
ងកប
ងកម
ងករណ
ងកស
ងខ
ងខណ
ងខន
ងគ
ងគង
ងគជ
ងគណ
ងគណបក
ងគន
ងគម
ងឃ
ងង
ងច
ងចក
ងចង
ងចត
ងចន
ងចម
ងចលន
ងឆ
ងឆន
ងជ
ងជញ
ងជន
ងជនជ
ងជប
ងជម
ងឈ
ងឈប
ងញ
ងដ
ងដង
ងដដ
ងដណ
ងដទ
ងដប
ងដល
ងឋ
ងឌ
ងណ
ងត
ងតក
ងតង
ងតទ
ងតន
ងតម
ងតវ
ងតស
ងថ
ងថយ
ងថវ
ងទ
ងទង
ងទទ
ងទន
ងទប
ងទម
ងទល
ងទស
ងទសវត
ងធ
ងធនធ
ងធម
ងធរណ
ងន
ងនគរប
ងនន
ងនយ
ងនរក
ងប
ងបក
ងបង
ងបងប
ងបច
ងបញ
ងបដ
ងបណ
ងបទ
ងបទចម
ងបទបញ
ងបន
ងបម
ងបរ
ងបរទ
ងបរល
ងផ
ងផង
ងផងដ
ងផល
ងផលប
ងព
ងពង
ងពញ
ងពណ
ងពន
ងពព
ងពល
ងពលកម
ងពលរដ
ងភ
ងភព
ងភរ
ងម
ងមក
ងមកក
ងមកដល
ងមកព
ងមកល
ងមគ
ងមជ
ងមណ
ងមទ
ងមធ
ងមន
ងមរណ
ងមហ
ងយ
ងយក
ងយកច
ងយកជ
ងយកទ
ងយន
ងយប
ងយល
ងរ
ងរក
ងរកក
ងរកគ
ងរកដ
ងរកទ
ងរកន
ងរកប
ងរកផ
ងរកព
ងរកម
ងរកស
ងរកអ
ងរង
ងរចន
ងរជ
ងរដ
ងរណ
ងរត
ងរថយន
ងរន
ងរប
ងរបបខ
ងរបស
ងរព
ងរម
ងរយ
ងរយព
ងរល
ងរលត
ងរវ
ងរស
ងរហ
ងល
ងលក
ងលង
ងលទ
ងវ
ងវគ
ងវង
ងវណ
ងវត
ងវប
ងឝ
ងស
ងសក
ងសកម
ងសង
ងសងខ
ងសច
ងសញ
ងសណ
ងសត
ងសតវត
ងសទ
ងសន
ងសប
ងសព
ងសភ
ងសម
ងសមត
ងសមរភ
ងសរ
ងសរស
ងសស
ងសហគមន
ងសហព
ងសហភ
ងសហរដ
ងហ
ងឡ
ងឡង
ងអ
ងអក
ងអគ
ងអង
ងអច
ងអញ
ងអដ
ងអឌ
ងអណ
ងអត
ងអធ
ងអន
ងអប
ងអភ
ងអម
ងអយ
ងអរ
ងអលង
ងអវយវ
ងអស
ងឣ
ងឣស
ងឥណ
ងឥទ
ងឥន
ងឥស
ងឧត
ងឧទ
ងឧប
ងឧបករណ
ងឧស
ងឪព
ងឫទ
ងឫស
ងឬស
ងឯក
ងឯករ
ងឯកស
ងឯង
ងឱ
ងឱក
ងឲ
ងៗ
ងៗក
ងៗខ
ងៗគ
ងៗច
ងៗជ
ងៗដ
ងៗត
ងៗទ
ងៗន
ងៗប
ងៗព
ងៗម
ងៗរបស
ច
ចក
ចកណ
ចកទ
ចកន
ចកម
ចខ
ចគ
ចគង
ចឃ
ចង
ចងក
ចងច
ចច
ចចក
ចចង
ចចម
ចចរច
ចឆ
ចឆក
ចជ
ចឈ
ចញ
ចដ
ចដទ
ចដល
ចណ
ចត
ចតទ
ចតន
ចថ
ចទ
ចទទ
ចទន
ចធ
ចធម
ចន
ចនយ
ចនរ
ចប
ចបង
ចបញ
ចបដ
ចបណ
ចបន
ចបរ
ចផ
ចផងដ
ចផល
ចព
ចពង
ចពញ
ចពន
ចភ
ចម
ចមក
ចមកហ
ចមគ
ចមន
ចយ
ចយកទ
ចយល
ចរ
ចរក
ចរកប
ចរច
ចរដ
ចរណ
ចរត
ចរន
ចរបស
ចរស
ចរហ
ចល
ចលក
ចលង
ចលន
ចវ
ចវគ
ចវង
ចវត
ចស
ចសក
ចសង
ចសត
ចសន
ចសព
ចសម
ចសរស
ចសហប
ចហ
ចឡ
ចអ
ចអង
ចអន
ចអស
ចឱ
ចឲ
ចៗ
ចៗគ
ចៗជ
ចៗដ
ចៗន
ឆ
ឆក
ឆត
ឆន
ឆប
ឆព
ឆរ
ឆវ
ឆស
ជ
ជក
ជកន
ជកម
ជករ
ជខ
ជគ
ជគណ
ជឃ
ជង
ជច
ជជ
ជញ
ជដ
ជណ
ជត
ជថ
ជទ
ជធ
ជធម
ជន
ជនក
ជនកម
ជនខ
ជនគ
ជនច
ជនជ
ជនដ
ជនដទ
ជនណ
ជនត
ជនថ
ជនទ
ជនន
ជនប
ជនបទ
ជនបរទ
ជនព
ជនភ
ជនម
ជនយ
ជនរ
ជនរងគ
ជនរបស
ជនរស
ជនល
ជនវ
ជនស
ជនសរ
ជនឡ
ជនអ
ជនអន
ជប
ជបញ
ជបណ
ជបន
ជបរ
ជបល
ជព
ជពង
ជភ
ជម
ជមន
ជយ
ជយវម
ជរ
ជរដ
ជរថ
ជរបស
ជល
ជលស
ជវ
ជវង
ជវន
ជវរ
ជស
ជសត
ជសម
ជហ
ជហឫទ
ជអ
ជអង
ជឥស
ជឱង
ឈ
ឈក
ឈឃ
ឈង
ឈដ
ឈត
ឈន
ឈប
ឈមណ
ឈរ
ឈរឈ
ឈរន
ញ
ញក
ញកងទ
ញកម
ញខ
ញគ
ញង
ញច
ញឆ
ញជ
ញជនជ
ញឈ
ញញ
ញដ
ញដល
ញណ
ញត
ញថ
ញទ
ញធ
ញធម
ញន
ញប
ញបង
ញបញ
ញបណ
ញបន
ញបរ
ញផ
ញផងដ
ញព
ញពន
ញភ
ញម
ញមក
ញមកក
ញមកព
ញមត
ញមន
ញយ
ញរ
ញរទ
ញរបស
ញល
ញលក
ញវ
ញវត
ញវន
ញវស
ញស
ញសង
ញសញ
ញសត
ញសម
ញសមណធម
ញហ
ញឡ
ញអ
ញអង
ញអន
ញអស
ញឱ
ញឲ
ដ
ដក
ដកខ
ដកច
ដកដង
ដកម
ដកស
ដកហ
ដខ
ដគ
ដង
ដងក
ដងទ
ដងទន
ដងន
ដងម
ដងរ
ដងវ
ដងស
ដងហ
ដងៗ
ដច
ដជ
ដដ
ដណ
ដត
ដថ
ដទ
ដទន
ដន
ដប
ដបន
ដព
ដភ
ដម
ដមស
ដយ
ដរ
ដរជ
ដរបស
ដល
ដវ
ដស
ដសករ
ដហ
ដអ
ឋ
ឋក
ឋកថ
ឋកម
ឋខ
ឋគ
ឋង
ឋច
ឋជ
ឋដ
ឋត
ឋថ
ឋទ
ឋធ
ឋធម
ឋន
ឋប
ឋបន
ឋផ
ឋព
ឋភ
ឋម
ឋមន
ឋយ
ឋរ
ឋរបស
ឋល
ឋវ
ឋឝ
ឋស
ឋសង
ឋសភ
ឋសម
ឋសហព
ឋហ
ឋអ
ឋអធ
ឋឯករ
ឌ
ឌក
ឌកងទ
ឌកម
ឌខ
ឌគ
ឌគម
ឌច
ឌជ
ឌញ
ឌដ
ឌត
ឌទ
ឌធ
ឌន
ឌប
ឌផ
ឌព
ឌភ
ឌម
ឌរ
ឌរបស
ឌល
ឌលក
ឌលគ
ឌលទ
ឌលន
ឌលប
ឌលព
ឌលវប
ឌលស
ឌវ
ឌវប
ឌស
ឌអ
ឍ
ឍក
ឍគ
ឍត
ឍទ
ឍន
ឍនក
ឍនភ
ឍប
ឍមណ
ឍស
ណ
ណក
ណកម
ណខ
ណគ
ណង
ណងក
ណងច
ណងចង
ណងជ
ណងដ
ណងទ
ណងន
ណងប
ណងម
ណងរបស
ណច
ណជ
ណញ
ណដ
ណដល
ណណ
ណត
ណថ
ណទ
ណទណ
ណទស
ណធ
ណធម
ណន
ណប
ណផ
ណព
ណពន
ណភ
ណម
ណយ
ណរ
ណរណ
ណរបស
ណល
ណវ
ណវត
ណស
ណសម
ណហ
ណអ
ត
តក
តកណ
តកន
តកប
តកម
តករ
តករណ
តកស
តខ
តគ
តគង
តគណ
តគណបក
តឃ
តង
តងទ
តងន
តងម
តងហ
តងៗ
តច
តចក
តចង
តចន
តចម
តចរ
តចលន
តឆ
តជ
តជង
តជនជ
តឈ
តញ
តដ
តដទ
តដល
តឌ
តណ
តត
តតទ
តថ
តទ
តទង
តទទ
តទន
តទល
តទស
តធ
តធម
តន
តនគររ
តនយ
តប
តបក
តបង
តបច
តបញ
តបដ
តបណ
តបថ
តបទ
តបទដ
តបទល
តបន
តបរ
តបស
តផ
តផង
តផងដ
តផល
តផលក
តផលន
តព
តពន
តពល
តពលកម
តភ
តភក
តភវង
តម
តមក
តមកក
តមកជ
តមកដល
តមកទ
តមកទល
តមកព
តមកហ
តមគត
តមជ
តមដ
តមណ
តមធ
តមន
តមប
តមស
តមហ
តយ
តយល
តរ
តរក
តរកម
តរង
តរច
តរជ
តរដ
តរត
តរតនគ
តរធ
តរន
តរប
តរបស
តរភ
តរម
តរយ
តរលត
តរវ
តរស
តរសក
តរហ
តល
តលក
តលង
តវ
តវគ
តវត
តវន
តវសវត
តស
តសករ
តសង
តសញ
តសត
តសន
តសប
តសព
តសភ
តសម
តសរស
តហ
តឡ
តអ
តអគ
តអង
តអណ
តអត
តអន
តអភ
តអស
តឣ
តឥណ
តឧណ
តឧត
តឧប
តឱ
តឱក
តឲ
តៗ
តៗគ
ថ
ថក
ថកម
ថង
ថជ
ថត
ថតរ
ថទ
ថន
ថប
ថបទ
ថបទក
ថបទជ
ថបទដ
ថបទន
ថបទផ
ថបទព
ថបទម
ថបទស
ថព
ថភ
ថម
ថយ
ថយក
ថយច
ថយទ
ថយន
ថយអ
ថល
ថវ
ថស
ទ
ទក
ទកន
ទកប
ទកម
ទខ
ទគ
ទគត
ទឃ
ទង
ទងគ
ទងជ
ទងទ
ទងន
ទច
ទចន
ទឆ
ទជ
ទជយវម
ទឈ
ទដ
ទណ
ទត
ទតឃ
ទតព
ទថ
ទទ
ទធ
ទធម
ទធរណ
ទន
ទនភ
ទនរ
ទប
ទបញ
ទបន
ទបរ
ទបស
ទផ
ទផង
ទព
ទពញ
ទភ
ទភវវម
ទម
ទមន
ទមហ
ទយ
ទយស
ទរ
ទរកថ
ទរខ
ទរង
ទរដ
ទរបស
ទល
ទវ
ទវគ
ទវត
ទវរ
ទឝ
ទស
ទសក
ទសត
ទសព
ទសម
ទសវត
ទហ
ទឡ
ទអ
ទអង
ទអជ
ទអស
ទឥន
ធ
ធក
ធកម
ធខ
ធគ
ធឃ
ធច
ធចក
ធជ
ធជន
ធឈ
ធញ
ធដ
ធណ
ធត
ធថ
ធទ
ធធ
ធធម
ធន
ធនកម
ធនញ
ធនធ
ធនយ
ធប
ធបញ
ធបដ
ធបទ
ធបន
ធបរ
ធផ
ធផល
ធផលក
ធផលជ
ធផលដ
ធផលន
ធផលប
ធព
ធពលខ
ធភ
ធភណ
ធម
ធយ
ធរ
ធរកណ
ធរជ
ធរដ
ធរណ
ធរប
ធរបស
ធរម
ធរវ
ធល
ធវ
ធវង
ធវចន
ធស
ធសករ
ធសង
ធសភ
ធសម
ធសរស
ធហ
ធឡ
ធអ
ធអង
ន
នក
នកក
នកខ
នកគ
នកឃ
នកង
នកងកម
នកងទ
នកច
នកចង
នកចម
នកឆ
នកជ
នកឈ
នកញ
នកដ
នកដទ
នកដល
នកណ
នកត
នកថ
នកថតរ
នកទ
នកទទ
នកទស
នកធ
នកន
នកនយ
នកប
នកបកប
នកបង
នកបញ
នកបដ
នកបម
នកបរ
នកផ
នកផង
នកផល
នកព
នកភ
នកម
នកយ
នករ
នករក
នករណ
នករប
នករស
នកល
នកលក
នកលន
នកវ
នកស
នកសង
នកសម
នកសរស
នកហ
នកអ
នកអង
នកអន
នកអភ
នកឧកញ
នកឯកទ
នកឯង
នកឯងត
នកឯងម
នកឯណ
នកឲ
នខ
នខណ
នគ
នគង
នគណ
នគណន
នគណបក
នគត
នគប
នគភ
នគម
នគរ
នគរក
នគរខ
នគរគ
នគរច
នគរជ
នគរឈ
នគរដ
នគរត
នគរទ
នគរន
នគរប
នគរព
នគរភ
នគរម
នគររ
នគរល
នគរវ
នគរវត
នគរស
នគរហ
នគរអ
នឃ
នង
នងក
នងខ
នងគ
នងជ
នងដ
នងត
នងទ
នងន
នងប
នងផ
នងព
នងភ
នងម
នងយ
នងរ
នងរបស
នងរវ
នងល
នងស
នងសង
នងអ
នងអន
នច
នចក
នចង
នចងក
នចងសម
នចន
នចប
នចម
នចរ
នចលន
នឆ
នជ
នជញ
នជនជ
នជប
នជម
នឈ
នឈប
នញ
នដ
នដកច
នដង
នដដ
នដណ
នដទ
នដប
នដម
នដល
នឋ
នឌ
នណ
នត
នតទ
នតម
នថ
នថត
នទ
នទទ
នទន
នទម
នទស
នទសវត
នធ
នធម
នន
ននយ
ននរក
ននរណ
នប
នបក
នបកប
នបកស
នបង
នបងប
នបច
នបញ
នបដ
នបណ
នបទ
នបទន
នបទព
នបន
នបម
នបរ
នផ
នផង
នផងដ
នផល
នផលច
នផលជ
នផលប
នព
នពង
នពញ
នពណ
នពន
នពល
នភ
នភក
នភស
នម
នមក
នមកក
នមកជ
នមកដ
នមកដល
នមកត
នមកន
នមកប
នមកព
នមកល
នមកវ
នមកហ
នមត
នមន
នមស
នមហ
នយ
នយក
នយកក
នយកច
នយកឈ
នយកទ
នយកព
នយកម
នយន
នយប
នយល
នយសសក
នរ
នរក
នរកឃ
នរង
នរចន
នរដ
នរណ
នរត
នរន
នរប
នរបស
នរម
នរយ
នរល
នរវ
នរស
នរសជ
នរហ
នល
នលក
នលទ
នលម
នវ
នវគ
នវង
នវត
នវប
នវម
នវរ
នវស
នឝ
នស
នសក
នសកម
នសង
នសញ
នសណ
នសត
នសតវត
នសទ
នសន
នសប
នសព
នសភ
នសម
នសមគ
នសមត
នសមរម
នសមស
នសរ
នសរស
នសល
នសស
នសហគមន
នហ
នឡ
នអ
នអក
នអគ
នអង
នអញ
នអណ
នអត
នអធ
នអន
នអប
នអភ
នអរ
នអវក
នអស
នឣ
នឥទ
នឥន
នឧត
នឧទ
នឧប
នឧបករណ
នឧបម
នឧបសម
នឪព
នឫក
នឫទ
នឬ
នឬទ
នឮ
នឮដ
នឮថ
នឮព
នឮស
នឯក
នឯកភ
នឯករ
នឯកស
នឯង
នឯងក
នឯងជ
នឯងដ
នឯងថ
នឯងទ
នឯងន
នឯងប
នឯងម
នឱ
នឱក
នឲ
នៗ
នៗរបស
ប
បក
បកក
បកណ
បកប
បកម
បករ
បករណ
បកស
បខ
បគ
បឃ
បង
បងក
បងគ
បងជ
បងដ
បងទ
បងន
បងប
បងព
បងម
បងរបស
បងស
បច
បចម
បឆ
បជ
បជញ
បឈ
បញ
បដ
បដល
បឋម
បឋមជ
បឋមស
បឋវ
បណ
បត
បថ
បថត
បថតដ
បថតន
បថន
បថប
បទ
បទក
បទច
បទចម
បទជ
បទដ
បទត
បទទ
បទន
បទប
បទបញ
បទព
បទភ
បទម
បទល
បទស
បទឧក
បធ
បធម
បន
បនប
បប
បបង
បបញ
បបដ
បបទ
បបទន
បបន
បបរ
បបរម
បផ
បព
បពណ
បភ
បភព
បម
បមន
បយ
បរ
បរដ
បរទ
បរន
បរប
បរបង
បរបស
បរពល
បរម
បរមខត
បរមគ
បរមត
បរមន
បរមបព
បរមព
បរមរ
បរមស
បរយ
បរល
បរស
បល
បលក
បលវណ
បវ
បវត
បវន
បវរ
បវរកញ
បស
បសង
បសត
បសន
បសព
បសម
បហ
បឡ
បអ
បអង
បអន
បអភ
បអស
បឥណ
បឱ
បឲ
បៗ
ផ
ផង
ផងគ
ផងច
ផងដ
ផងទ
ផងន
ផន
ផរណ
ផល
ផលក
ផលគ
ផលច
ផលញ
ផលដ
ផលទ
ផលន
ផលប
ផលរបស
ផលវ
ផលស
ផស
ព
ពក
ពកម
ពខ
ពគ
ពគប
ពឃ
ពង
ពងង
ពងទ
ពច
ពចម
ពចល
ពឆ
ពជ
ពជប
ពឈ
ពញ
ពដ
ពដល
ពណ
ពត
ពតន
ពតប
ពថ
ពទ
ពទន
ពធ
ពធម
ពន
ពនយ
ពប
ពបង
ពបដ
ពបន
ពបរ
ពផ
ពព
ពពក
ពពញ
ពភ
ពម
ពមធ
ពមន
ពមហ
ពយ
ពយន
ពរ
ពរដ
ពរត
ពរបស
ពរយ
ពរវ
ពរស
ពរហ
ពល
ពលក
ពលកម
ពលករ
ពលខ
ពលគ
ពលច
ពលជ
ពលដ
ពលទ
ពលន
ពលប
ពលព
ពលភ
ពលម
ពលយ
ពលរ
ពលរដ
ពលរបស
ពលល
ពលស
ពលអ
ពលឱ
ពវ
ពស
ពសង
ពសត
ពសម
ពហ
ពឡ
ពអ
ពអក
ពអង
ពអត
ពអន
ពអប
ពអស
ពឥណ
ពឱ
ពឲ
ភ
ភក
ភគ
ភគវ
ភគវត
ភង
ភច
ភជ
ភដ
ភណ
ភណច
ភណន
ភត
ភទ
ភន
ភប
ភផ
ភព
ភពថ
ភពទ
ភពន
ភពផ
ភពព
ភពល
ភពស
ភពអង
ភម
ភមង
ភយ
ភរ
ភរណ
ភរបស
ភល
ភលន
ភវ
ភវង
ភវត
ភវតណ
ភវវម
ភស
ភសក
ភអ
ម
មក
មកក
មកខ
មកគ
មកងទ
មកច
មកឆ
មកជ
មកដ
មកដល
មកណ
មកត
មកថ
មកទ
មកទល
មកធ
មកន
មកប
មកផ
មកព
មកភ
មកម
មកយ
មករ
មករន
មករស
មកល
មកវ
មកស
មកសម
មកហ
មកអ
មកឱ
មកឲ
មខ
មគ
មគគ
មគធ
មគន
មគម
មឃ
មង
មច
មចក
មចង
មចន
មចម
មចរ
មឆ
មជ
មជនជ
មជម
មឈ
មញ
មញញ
មដ
មដកដង
មដងទន
មដងផ
មដទ
មដល
មឋ
មណ
មត
មតណ
មតថ
មតន
មតម
មតស
មថ
មទ
មទណ
មទត
មទទ
មទន
មទម
មទស
មទសវត
មធ
មធម
មន
មនទ
មនន
មនស
មប
មបក
មបង
មបងប
មបច
មបញ
មបដ
មបណ
មបទ
មបទប
មបទបញ
មបន
មបរ
មផ
មផង
មផងដ
មផល
មព
មពង
មពណ
មពរ
មពល
មពលន
មភ
មភក
មម
មមក
មមកល
មមត
មមន
មមហ
មយ
មយកទ
មយកប
មរ
មរក
មរជ
មរដ
មរណ
មរណក
មរណន
មរណភ
មរត
មរតក
មរប
មរបស
មរភ
មរយ
មរវ
មរស
មរហ
មរអ
មល
មលក
មលទ
មវ
មវគ
មវត
មវន
មស
មសកម
មសង
មសញ
មសត
មសតវត
មសន
មសព
មសភ
មសម
មសមគ
មហ
មហគ
មហន
មឡ
មអ
មអក
មអង
មអញ
មអត
មអធ
មអន
មអភ
មអរគ
មអស
មឥណ
មឥទ
មឧទ
មឯកស
មឱ
មឲ
មៗ
មៗន
យ
យក
យកក
យកខ
យកគ
យកង
យកងកម
យកងទ
យកច
យកជ
យកឈ
យកដ
យកណ
យកត
យកថ
យកទ
យកន
យកប
យកផ
យកព
យកភ
យកម
យកមកប
យករ
យករង
យករដ
យកល
យកវ
យកស
យកសម
យកអ
យកឲ
យខ
យខណ
យគ
យគង
យគជ
យគណ
យគណបក
យគត
យគន
យគប
យគយ
យឃ
យង
យច
យចក
យចង
យចត
យចន
យចប
យចម
យចលន
យឆ
យឆន
យជ
យជន
យជនជ
យជប
យជម
យឈ
យឈប
យញ
យដ
យដង
យដណ
យដទ
យដល
យឋ
យឌ
យណ
យត
យតក
យតទ
យតន
យតនសញ
យតប
យតបថ
យតបទ
យតបន
យតម
យថ
យថវ
យទ
យទង
យទទ
យទន
យទម
យទស
យទសវត
យធ
យធន
យធម
យធរ
យន
យនគរប
យនយ
យប
យបក
យបង
យបងប
យបច
យបញ
យបដ
យបណ
យបទ
យបន
យបម
យបរ
យបរទ
យបល
យផ
យផង
យផងដ
យផល
យផលន
យព
យពង
យពញ
យពណ
យពន
យពព
យភ
យម
យមក
យមកក
យមកគ
យមកច
យមកជ
យមកដ
យមកដល
យមកត
យមកទ
យមកន
យមកប
យមកព
យមកម
យមកល
យមកវ
យមកស
យមខ
យមគ
យមង
យមច
យមជ
យមដ
យមត
យមទ
យមធ
យមន
យមប
យមព
យមភ
យមម
យមរ
យមរបស
យមល
យមវ
យមស
យមហ
យមអ
យយ
យយក
យយកក
យយកខ
យយកច
យយកទ
យយកប
យយកស
យយន
យយប
យយល
យយស
យយសល
យរ
យរក
យរង
យរជ
យរដ
យរណប
យរត
យរន
យរប
យរបស
យរម
យរយ
យរល
យរវ
យរស
យរហ
យល
យលក
យលង
យលទ
យវ
យវគ
យវង
យវត
យវប
យវម
យវរ
យឝ
យស
យសក
យសកម
យសង
យសច
យសញ
យសត
យសតវត
យសទ
យសន
យសប
យសព
យសភ
យសម
យសមគ
យសមថ
យសរ
យសរស
យសស
យសសក
យសហគមន
យសហព
យសហភ
យសហរដ
យហ
យហត
យឡ
យអ
យអក
យអគ
យអង
យអញ
យអដ
យអណ
យអត
យអធ
យអន
យអប
យអភ
យអម
យអយ
យអរ
យអស
យឣ
យឥណ
យឥតគ
យឥទ
យឥឡ
យឧកញ
យឧត
យឧទ
យឧប
យឧបត
យឧបសម
យឧស
យឪព
យឬ
យឬន
យឯកជន
យឯករ
យឯកស
យឱ
យឲ
យៗ
យៗក
យៗគ
យៗដ
យៗត
យៗទ
យៗន
យៗប
យៗម
យៗហ
រ
រក
រកក
រកខ
រកគ
រកឃ
រកង
រកងទ
រកច
រកជ
រកដ
រកណ
រកត
រកថ
រកទ
រកន
រកប
រកបក
រកបដ
រកបទ
រកបន
រកបព
រកបម
រកបរ
រកបរបរកស
រកបរបរជ
រកផ
រកព
រកភ
រកម
រករ
រកល
រកវ
រកស
រកសម
រកអ
រខ
រគ
រគណ
រគណន
រគប
រគម
រគមន
រគរ
រគល
រឃ
រង
រងក
រងខ
រងគ
រងង
រងច
រងជ
រងដ
រងត
រងថ
រងទ
រងន
រងប
រងផ
រងព
រងភ
រងម
រងរ
រងរដ
រងរបស
រងល
រងវ
រងស
រងអ
រច
រចក
រចង
រចងក
រចងច
រចត
រចន
រចម
រចរច
រឆ
រជ
រជជ
រជប
រជម
រជល
រឈ
រឈប
រឈម
រឈមន
រឈមម
រញ
រដ
រដកទ
រដកហ
រដង
រដណ
រដទ
រដល
រឌ
រណ
រណក
រណជន
រណន
រណប
រណភ
រណម
រណរដ
រណស
រណឫទ
រត
រតទ
រតន
រតនត
រតម
រតវ
រតស
រថ
រថក
រថតរ
រថព
រថភ
រថយច
រថយន
រទ
រទក
រទទ
រទន
រទប
រទម
រទល
រទស
រទសម
រធ
រធម
រន
រនយ
រប
របក
របកប
របកស
របខ
របខណ
របគ
របង
របច
របជ
របញ
របដ
របដណ
របណ
របត
របទ
របន
របប
របបក
របបកម
របបខ
របបន
របបប
របបផ
របបរ
របបស
របព
របម
របរ
របរទ
របល
របស
របសង
របសម
រផ
រផង
រផងដ
រផល
រព
រពក
រពង
រពច
រពដ
រពណ
រពត
រពទ
រពន
រពប
រពព
រពភ
រពរ
រពស
រពហ
រភ
រភព
រភពក
រភពខ
រភពច
រភពដ
រភពទ
រភពន
រភពប
រភពផ
រភពព
រភពម
រភពមកព
រភពរ
រភពស
រភពអ
រភពអង
រភរ
រម
រមក
រមកក
រមកជ
រមកដល
រមកព
រមកល
រមកហ
រមខ
រមគ
រមង
រមច
រមជ
រមដ
រមណ
រមត
រមថ
រមទ
រមទទ
រមធ
រមន
រមប
រមព
រមម
រមរណ
រមល
រមស
រមហ
រមអ
រយ
រយក
រយកច
រយកទ
រយឆ
រយន
រយព
រយល
ររ
ររក
ររកឃ
ររកប
ររកស
ររង
ររចន
ររដ
ររត
ររន
ររប
ររបស
ររម
ររយ
ររល
ររលត
ររវ
ររស
ររហ
រល
រលក
រលង
រលងភ
រលត
រលប
រវ
រវកម
រវគ
រវង
រវច
រវដ
រវត
រវន
រវប
រវម
រវរ
រវល
រស
រសក
រសកម
រសខ
រសង
រសច
រសជ
រសញ
រសដ
រសណ
រសត
រសតវត
រសទ
រសធម
រសន
រសប
រសព
រសម
រសរ
រសរបស
រសរស
រសល
រសស
រសហក
រសហប
រសអ
រហ
រហបត
រហម
រហមក
រហមគ
រហមច
រហមជ
រហមដ
រហមត
រហមន
រហមប
រហមម
រហល
រហស
រឡ
រឡង
រឡងជ
រឡប
រអ
រអក
រអង
រអច
រអញ
រអត
រអធ
រអន
រអប
រអភ
រអម
រអយ
រអស
រឣ
រឥណ
រឥស
រឧទ
រឧប
រឧបត
រឬ
រឬទ
រឭក
រឯករ
រឰ
រឰន
រឱ
រឲ
រៗ
រៗទ
ល
លក
លកងទ
លកឋ
លកណ
លកន
លកម
លកស
លខ
លគ
លគង
លឃ
លង
លងក
លងគ
លងច
លងជ
លងដ
លងត
លងទ
លងទន
លងន
លងប
លងបង
លងផ
លងព
លងម
លងមក
លងរ
លងរបស
លងស
លងហ
លច
លចង
លចប
លចម
លចរ
លឆ
លជ
លជនជ
លជប
លជម
លឈ
លញ
លដ
លដប
លដល
លឋ
លឌ
លណ
លត
លតង
លតថ
លតម
លថ
លទ
លទទ
លទន
លទស
លទសវត
លធ
លធន
លធនន
លធម
លន
លនយ
លប
លបក
លបង
លបច
លបញ
លបដ
លបណ
លបត
លបន
លបម
លបរ
លផ
លផង
លផងដ
លផល
លផលប
លព
លពណ
លពត
លពន
លពស
លភ
លភត
លម
លមក
លមកក
លមកគ
លមកជ
លមកដល
លមកត
លមកន
លមកប
លមកព
លមកម
លមករ
លមកល
លមកវ
លមកស
លមន
លមរណភ
លមហ
លយ
លយក
លយកក
លយកច
លយកទ
លយកន
លយកប
លយកស
លយប
លយល
លរ
លរក
លរង
លរងក
លរងន
លរដ
លរត
លរបស
លរម
លរយ
លរល
លរវ
លរស
លរហ
លល
លលក
លលទ
លវ
លវគ
លវង
លវត
លវល
លស
លសករ
លសង
លសញ
លសត
លសតវត
លសន
លសព
លសម
លសរស
លសល
លហ
លឡ
លអ
លអង
លអត
លអធ
លអន
លអប
លអភ
លអស
លឣ
លឥទ
លឥឡ
លឧទ
លឧប
លឪព
លឯករ
លឱ
លឲ
លៗ
វ
វក
វកណ
វកថ
វកទ
វកន
វកម
វករ
វករលក
វខ
វគ
វឃ
វង
វច
វចក
វចង
វចន
វចម
វចរ
វចរក
វចរច
វឆ
វជ
វជន
វជនក
វជនន
វឈ
វឈប
វញ
វដ
វដង
វដទ
វដល
វឋ
វឌ
វណ
វត
វតត
វតម
វថ
វទ
វទត
វទទ
វទន
វទម
វធ
វធម
វន
វប
វបង
វបច
វបញ
វបដ
វបណ
វបទន
វបន
វបរ
វផ
វផង
វផល
វព
វពង
វពន
វពស
វភ
វម
វមគ
វមណ
វមន
វមរកត
វមហ
វយ
វរ
វរក
វរង
វរដ
វរណ
វរណធម
វរត
វរថភ
វរទ
វរន
វរប
វរបស
វរម
វររ
វរល
វរវ
វរស
វល
វលក
វលទ
វវ
វវចន
វវត
វវស
វស
វសង
វសញ
វសត
វសន
វសព
វសភ
វសម
វហ
វឡ
វអ
វអង
វអត
វអន
វអរ
វអស
វឥទ
វឱ
វឲ
វៗ
ឝ
ឝច
ឞ
ស
សក
សកក
សកកម
សកដ
សកទ
សកន
សកម
សករ
សកល
សកលល
សកលវ
សកស
សខ
សគ
សឃ
សង
សងខ
សងទ
សងព
សងស
សច
សចក
សចម
សចរ
សចរកម
សចរជ
សចរណ
សឆ
សជ
សជប
សជរ
សឈ
សឈរ
សញ
សដ
សដទ
សដល
សណ
សត
សតទ
សតវត
សថ
សថស
សទ
សទទ
សធ
សធម
សន
សនក
សនកម
សនទ
សនប
សនបណ
សនយ
សនរ
សនវ
សប
សបង
សបញ
សបដ
សបត
សបន
សបរ
សផ
សផង
សផងដ
សផល
សព
សពន
សភ
សម
សមក
សមកវ
សមគ
សមជ
សមណ
សមណគ
សមណប
សមណព
សមត
សមថ
សមន
សមភ
សមម
សមយ
សមរភ
សមរម
សមស
សមហ
សយ
សយក
សយដ
សយន
សរ
សរក
សរខ
សរច
សរជ
សរដ
សរណ
សរត
សរទ
សរទត
សរន
សរប
សរបស
សរព
សរភ
សរម
សរវ
សរស
សរហ
សរឡ
សល
សលក
សលកម
សលច
សលជ
សលទ
សលធម
សលន
សលប
សលវ
សវ
សវក
សវត
សវន
សស
សសង
សសញ
សសត
សសម
សសរ
សសរស
សសល
សសសស
សសហគត
សសហរដ
សហ
សហក
សហកម
សហគ
សហគត
សហគមន
សហជ
សហប
សហព
សហភ
សហរ
សហរដ
សហស
សឡ
សអ
សអង
សអន
សអស
សឥណ
សឦស
សឧត
សឯករ
សឱ
សឲ
សៗ
សៗគ
ហ
ហក
ហកដ
ហកម
ហករ
ហង
ហដ
ហត
ហទ
ហធ
ហន
ហប
ហភ
ហម
ហយ
ហរ
ហរណ
ហរណកម
ហល
ហវ
ហស
ហសម
ហឫទ
ឡ
ឡក
ឡង
ឡដ
ឡស
ឡសក
អ
អក
អគ
អឃ
អង
អងធ
អច
អចលនវត
អជ
អញ
អញក
អញខ
អញគ
អញត
អញទ
អញន
អញប
អញម
អញស
អដ
អឌ
អណ
អត
អថ
អទ
អធ
អធម
អន
អនក
អនត
អនន
អប
អបរ
អផ
អព
អភ
អម
អមដ
អមត
អមន
អមរ
អយ
អយល
អរ
អរគ
អរជ
អរដ
អរបស
អរហត
អរហន
អល
អលង
អវ
អវក
អវត
អវយវ
អវស
អឝ
អស
អសង
អសន
អសប
អសម
អហ
អៗ
ឣ
ឣគ
ឣង
ឣញ
ឣត
ឣន
ឣប
ឣរ
ឣរហត
ឣរហន
ឣស
ឥ
ឥដ
ឥណ
ឥត
ឥតគ
ឥតប
ឥតម
ឥទ
ឥធ
ឥន
ឥម
ឥរ
ឥល
ឥវ
ឥស
ឥឡ
ឦ
ឦស
ឧ
ឧក
ឧកញ
ឧកហ
ឧច
ឧដ
ឧណ
ឧត
ឧទ
ឧប
ឧបក
ឧបករណ
ឧបច
ឧបជ
ឧបដ
ឧបត
ឧបទ
ឧបន
ឧបម
ឧបរ
ឧបស
ឧបសគ
ឧបសម
ឧម
ឧរ
ឧស
ឧសភ
ឩ
ឪ
ឪព
ឪម
ឫ
ឫក
ឫកព
ឫទ
ឫស
ឫសគល
ឬ
ឬក
ឬខ
ឬគ
ឬច
ឬជ
ឬឈ
ឬដ
ឬត
ឬថ
ឬទ
ឬទង
ឬធ
ឬន
ឬប
ឬផ
ឬព
ឬភ
ឬម
ឬយ
ឬរ
ឬរបស
ឬល
ឬវ
ឬស
ឬសម
ឬហ
ឬអ
ឬអង
ឬអន
ឭ
ឭក
ឮ
ឮថ
ឮព
ឮស
ឯ
ឯក
ឯកច
ឯកជន
ឯកត
ឯកទ
ឯកន
ឯកភ
ឯករ
ឯកស
ឯកអគ
ឯកឧត
ឯខ
ឯង
ឯងក
ឯងច
ឯងជ
ឯងដ
ឯងទ
ឯងន
ឯងប
ឯងព
ឯងម
ឯងហ
ឯច
ឯជ
ឯដ
ឯណ
ឯត
ឯទ
ឯន
ឯប
ឯផ
ឯព
ឯភ
ឯម
ឯមន
ឯរ
ឯល
ឯវ
ឯស
ឯសម
ឯហ
ឯអ
ឯអស
ឰ
ឰដ
ឱ
ឱក
ឱង
ឱន
ឱនភ
ឱរ
ឱរស
ឱវ
ឱស
ឱសថ
ឱសថស
ឱហ
ឱឡ
ឲ
ឳ
ឳព
ា
ិ
ី
ឹ
ឺ
ុ
ូ
ួ
ើ
ឿ
ៀ
េ
ែ
ៃ
ោ
ៅ
ំ
ះ
ៈ
៉
៊
់
៌
៍
៎
៏
័
៑
្
។
៕
៖
ៗ
ៗក
ៗខ
ៗគ
ៗច
ៗជ
ៗដ
ៗត
ៗថ
ៗទ
ៗន
ៗប
ៗផ
ៗព
ៗម
ៗរ
ៗរបស
ៗស
ៗអ
៘
៙
៚
៛
៝
០
០០
០០០
០១
០២
០៣
០៤
០៥
០៦
០៧
០៨
០៩
១
១០
១០០
១០០០
១០០០០
១០០១
១០០២
១០១
១០២
១០៣
១០៤
១០៥
១០៥០
១០៦
១០៧
១០៨
១០៩
១១
១១០
១១១
១១១៣
១១២
១១៣
១១៥
១១៥០
១១៨១
១១៩
១២
១២០
១២០០០០
១២១
១២៣
១២៤
១២៥
១៣
១៣០
១៣៧
១៣៨
១៤
១៤០
១៤៨
១៥
១៥០
១៥០០
១៥០០០
១៥១៦
១៥២៥
១៥៤
១៦
១៦០
១៦០០
១៧
១៨
១៨០
១៨០២
១៨៤៨
១៨៥៩
១៨៦០
១៨៦២
១៨៦៣
១៨៦៦
១៨៦៧
១៨៨៤
១៨៨៥
១៨៩០
១៨៩៣
១៨៩៥
១៩
១៩០
១៩០០
១៩០៤
១៩០៥
១៩០៧
១៩០៨
១៩១០
១៩១១
១៩១២
១៩១៣
១៩១៤
១៩១៥
១៩១៦
១៩១៧
១៩១៨
១៩១៩
១៩២០
១៩២១
១៩២២
១៩២៣
១៩២៤
១៩២៥
១៩២៦
១៩២៧
១៩២៨
១៩២៩
១៩៣០
១៩៣១
១៩៣២
១៩៣៣
១៩៣៥
១៩៣៦
១៩៣៧
១៩៣៩
១៩៤០
១៩៤១
១៩៤២
១៩៤៣
១៩៤៤
១៩៤៥
១៩៤៦
១៩៤៧
១៩៤៨
១៩៤៩
១៩៥០
១៩៥១
១៩៥២
១៩៥៣
១៩៥៤
១៩៥៥
១៩៥៦
១៩៥៧
១៩៥៨
១៩៥៩
១៩៦០
១៩៦១
១៩៦២
១៩៦៣
១៩៦៤
១៩៦៥
១៩៦៦
១៩៦៧
១៩៦៨
១៩៦៩
១៩៧០
១៩៧១
១៩៧២
១៩៧៣
១៩៧៤
១៩៧៥
១៩៧៦
១៩៧៧
១៩៧៨
១៩៧៩
១៩៨០
១៩៨១
១៩៨២
១៩៨៣
១៩៨៤
១៩៨៥
១៩៨៦
១៩៨៧
១៩៨៨
១៩៨៩
១៩៩០
១៩៩១
១៩៩២
១៩៩៣
១៩៩៤
១៩៩៥
១៩៩៦
១៩៩៧
១៩៩៨
១៩៩៩
២
២០
២០០
២០០០
២០០០០
២០០១
២០០២
២០០៣
២០០៤
២០០៥
២០០៦
២០០៧
២០០៨
២០០៩
២០១០
២០១១
២០១២
២០១៣
២០១៤
២០១៥
២០១៦
២០១៧
២០១៨
២០១៩
២០២
២០២០
២០២១
២០២២
២១
២២
២២០
២៣
២៤
២៤០
២៥
២៥០
២៥០០
២៦
២៧
២៨
២៩
៣
៣០
៣០០
៣០០០
៣០០០០
៣១
៣២
៣៣
៣៤
៣៥
៣៥០
៣៦
៣៧
៣៨
៣៩
៤
៤០
៤០០
៤០០០
៤០០០០
៤១
៤២
៤៣
៤៤
៤៥
៤៥០
៤៦
៤៧
៤៨
៤៩
៤៩៣
៥
៥០
៥០០
៥០០០
៥០០០០
៥១
៥២
៥៣
៥៤
៥៥
៥៥០
៥៦
៥៧
៥៨
៥៩
៦
៦០
៦០០
៦០០០
៦១
៦២
៦៣
៦៤
៦៥
៦៦
៦៧
៦៨
៦៩
៧
៧០
៧០០
៧១
៧២
៧៣
៧៤
៧៥
៧៦
៧៧
៧៨
៧៩
៨
៨០
៨០០
៨០២
៨១
៨២
៨៣
៨៤
៨៥
៨៥០
៨៦
៨៧
៨៧៧
៨៨
៨៨៩
៨៩
៩
៩០
៩០០
៩១
៩២
៩៣
៩៤
៩៤៤
៩៥
៩៦
៩៦៨
៩៧
៩៨
៩៩
​
‌
‍
‎
‐
‑
–
—
‘
’
“
”
†
•
…
′
″
‹
›
⁄
€
←
↑
→
↓
↔
↷
∈
−
≡
≤
≥
③
④
⑦
─
└
├
┬
●
❒
❤
⟨
⟩
ⴰ
ⵜ
⺀
⺄
⺆
⺈
⺊
⺌
⺕
⺝
⺸
⺼
⿰
⿱
⿲
⿳
⿴
⿵
⿶
⿷
⿸
⿹
⿺
⿻
、
。
《
》
「
」
〢
あ
い
う
お
か
き
く
こ
さ
し
す
そ
た
ち
っ
つ
て
と
な
に
の
は
ふ
へ
ま
め
よ
ら
り
る
れ
ろ
わ
を
ん
゙
゚
ア
イ
カ
キ
ク
コ
シ
ス
タ
テ
ト
ハ
フ
ヘ
メ
ユ
ラ
リ
ル
レ
ワ
ン
・
ー
㇁
㇂
㇄
㇇
㇈
㇉
㇓
㐁
㐄
㐅
㐌
㐫
㐬
㐭
㐮
㐱
㑒
㒵
㒸
㒼
㓁
㓞
㔾
㕛
㕣
㖾
㘝
㚅
㚇
㚔
㚘
㝉
㝡
㝴
㝵
㞋
㞢
㞷
㠩
㠭
㠯
㡀
㡭
㡿
㢲
㢴
㣇
㣺
㥯
㪅
㫄
㫐
㫒
㫺
㬅
㬎
㬥
㬰
㲋
㳄
㷠
㸒
㸚
㸦
㼌
㼲
㽞
㿟
䀠
䂞
䍃
䏍
䒑
䖍
䖒
䖝
䖵
䙴
䚻
䜌
䝿
䡛
䧹
䪞
一
丁
丂
七
丄
丅
丆
万
丈
三
上
下
丌
不
与
丏
丐
丑
专
且
丕
世
丘
丙
业
东
丞
丢
丣
两
严
並
丨
丩
个
丫
丬
中
丮
丰
丱
串
丵
丶
丷
丸
丹
为
主
丽
丿
乀
乂
乃
久
乆
乇
么
义
之
乌
乍
乎
乏
乐
乑
乔
乖
乗
乘
乙
乚
乛
乜
九
乞
也
习
乡
乳
乾
亀
亅
了
亇
予
争
事
二
亍
于
亏
亐
云
互
亓
五
井
亘
亚
亜
亞
亟
亠
亡
亢
交
亥
亦
产
亨
亩
享
京
亭
亮
亯
亰
亲
亳
亶
亷
人
亻
亼
亾
仁
今
介
仌
从
仐
仑
仒
仓
仕
他
付
仙
仝
代
令
以
任
企
伊
伏
伐
休
会
伯
但
位
何
佘
余
作
佥
使
來
侈
例
侌
侍
侖
侯
侵
便
保
俞
信
修
倉
倍
候
倠
備
傳
僉
像
僕
儀
儿
兀
允
兂
元
兄
充
兆
兇
先
光
兊
克
兌
免
兑
兒
兓
兔
党
兜
兟
入
內
全
兩
兪
八
公
六
兮
兰
共
关
兵
其
具
典
兹
兼
冀
冂
冃
冄
内
冈
冉
冊
冋
册
再
冎
冏
冐
冒
冓
冖
冗
冘
军
农
冝
冡
冥
冫
冬
冷
几
凡
凢
凵
凶
凷
凸
凹
出
函
凾
刀
刁
刂
刃
刄
刅
分
切
刍
刑
刕
刖
列
刘
则
初
別
利
别
到
制
刺
則
削
剌
前
剡
剽
劉
力
功
加
劦
助
劫
劳
劵
勃
勇
勉
勒
動
務
勞
勤
勹
勺
勻
勾
勿
匀
匂
包
匆
匈
匊
匋
匍
匕
化
北
匚
匝
匡
匪
匱
匸
匹
区
医
匽
匿
區
十
卂
千
卄
卅
卆
升
午
卉
半
卌
华
卑
卒
卓
单
卖
南
卜
卝
卞
占
卡
卢
卣
卤
卦
卩
卪
卬
卯
印
危
即
却
卵
卷
卸
卻
厂
厃
厄
历
厈
厉
厌
厓
厘
厚
原
厤
厥
厨
厭
厲
厶
厷
厸
去
厼
厽
叀
参
參
叅
又
叉
及
友
双
反
叐
发
叒
叔
叕
取
受
叚
叜
叟
口
古
句
另
叩
只
召
可
台
叱
史
右
叵
号
司
叹
吂
各
吅
合
吉
吊
吋
同
名
后
吏
向
吕
君
吝
吞
否
含
启
吳
吴
吹
吾
呂
呆
呈
告
员
呙
周
命
咅
和
咎
咠
咢
咨
咸
咼
哀
品
哉
員
哥
哲
唐
商
啇
問
啚
啬
啻
善
喜
喬
單
喿
嗇
嘉
噩
嚴
囊
囗
囘
囙
囚
四
回
囟
因
囧
囬
困
囱
囷
固
国
圂
圅
國
圍
圓
土
圡
圣
圥
在
圭
地
圶
圼
坐
坒
坚
坴
垂
垔
垚
埀
埋
城
埔
埶
執
基
堂
堅
堆
堇
堯
報
場
塞
墨
壘
士
壬
壯
声
壳
壴
壹
壺
壽
夂
处
夅
夆
备
夊
夋
夌
复
夏
夒
夕
外
夗
夘
多
夜
夢
大
夨
天
太
夫
夬
夭
央
失
夲
头
夷
夸
夹
夻
夾
奂
奄
奇
奈
奉
奎
奏
奐
契
奓
奔
奚
奞
奠
奢
奥
奭
女
奴
奻
好
如
妄
妙
妟
妥
妻
妾
姑
委
姜
威
娄
婁
婆
婴
嬰
嬴
子
孑
孔
孕
孖
字
存
孚
孛
孝
孟
季
孤
学
孫
孱
學
宀
宁
宂
它
宅
宇
守
安
宋
完
宏
宓
宗
官
定
宛
宜
宝
客
宣
室
宮
宰
害
家
容
宾
宿
寄
寅
密
富
寒
察
寧
寨
審
寫
寬
寮
寸
对
寺
寻
寽
対
寿
封
尃
射
将
將
專
尉
尊
尋
尌
對
小
少
尒
尓
尔
尖
尗
尚
尞
尢
尣
尤
尧
尨
尭
就
尸
尹
尺
尻
尼
尽
尾
尿
局
居
屈
屋
屎
屏
屑
展
屖
屚
属
屠
屡
屬
屮
屯
屰
山
屵
屾
岁
岂
岑
岡
岩
岳
岸
峯
島
崇
崑
崔
崖
崙
崩
嵬
嶲
巂
巛
川
州
巟
巠
巢
巤
工
左
巧
巨
巩
巫
差
己
已
巳
巴
巷
巸
巽
巾
巿
帀
市
布
希
帚
帛
帝
带
師
席
帶
常
干
平
年
幵
并
幷
幸
幺
幻
幼
幽
幾
广
広
庄
床
底
店
庚
府
度
庫
庭
庶
康
庸
廉
廌
廙
廛
廣
廩
廴
延
廷
建
廾
廿
开
弁
弃
弄
弇
弋
式
弓
弔
引
弗
弘
弜
弟
弥
弦
弱
張
強
强
彊
彌
彎
彐
彑
当
彔
录
彖
彗
彡
形
彥
彦
彧
彭
彳
役
彼
往
待
律
後
徒
得
徙
從
復
微
徵
心
忄
必
忌
忍
志
忝
忠
忩
快
念
忽
忿
思
怠
急
怱
恆
恒
恩
恭
息
悉
患
悤
悲
悶
惠
惡
惢
愁
愈
意
愛
感
慈
慧
慮
憂
憲
應
戀
戈
戉
戊
戋
戌
戍
戎
成
我
戒
戔
或
戚
戠
戢
截
戲
戶
户
戹
戼
戾
房
所
扁
扇
手
扌
才
打
托
执
承
折
拉
拜
拿
指
掌
推
提
摩
據
支
攴
攵
收
攸
改
放
政
敄
故
敏
敕
敖
敗
教
敝
敞
敢
散
敦
敫
敬
数
敷
數
斂
文
斉
斊
斗
斤
斥
斩
斬
斯
新
方
於
施
斿
旁
旋
族
无
旡
既
旣
日
旦
旧
旨
早
旬
旱
旲
时
旾
昆
昇
昌
昍
明
昏
易
昔
昗
昜
星
春
昬
是
昱
昴
昷
時
晃
晉
晋
晏
普
景
晶
智
暑
暴
暹
曇
曩
曰
曲
曳
更
曷
書
曹
曼
曾
替
最
朁
會
月
有
朋
服
朔
朕
朗
望
朝
期
木
朩
未
末
本
札
朮
术
朱
朵
朶
朿
杀
李
杏
杜
束
条
来
東
杲
杳
松
析
林
枚
果
枝
枲
枼
某
柔
查
柬
柰
柴
栗
桀
桑
桼
梁
條
梟
梨
棘
棠
棥
森
楚
業
楽
榮
樂
樊
欠
次
欣
欮
欲
欶
欽
款
歆
歇
歛
止
正
此
步
武
歨
歪
歮
歯
歰
歲
歴
歷
歸
歹
歺
死
殳
段
殷
殸
殹
殺
殻
殿
毋
毌
母
每
毒
比
毕
毚
毛
毳
氏
氐
民
气
氣
水
氵
氶
氷
永
氺
氾
求
汝
汞
江
沃
沓
沙
沝
河
治
泉
法
波
泣
泥
泰
洛
洪
活
派
流
浦
浪
浮
海
淡
淮
清
渚
渠
湯
滿
漢
漸
火
灬
灭
灰
灵
灷
炅
炎
炏
炗
炙
炭
為
烈
烏
烝
焉
無
焦
焱
然
煞
熊
熏
燕
營
燮
爪
爫
爭
爯
爰
爱
爲
爵
父
爻
爽
爾
爿
片
牙
牚
牛
牜
牟
牢
牧
牪
牽
犀
犬
犭
犮
狂
狄
狊
独
狺
猋
猒
猪
献
獻
玄
率
玉
王
玖
玟
玨
珎
班
琴
瑟
瑩
瓜
瓦
甘
甚
生
産
用
甫
甬
田
由
甲
申
电
甶
男
甸
甹
画
甾
畀
界
畏
畐
留
畜
畟
畢
畧
畨
番
畫
異
畱
當
畺
畾
疊
疋
疌
疑
疒
疾
癶
癸
癹
登
發
白
百
皀
皃
的
皆
皇
皋
皐
皕
皮
皷
皿
盃
盆
盇
盈
益
盍
盎
监
盒
盖
盛
盡
監
盤
盧
目
直
相
盾
省
眇
眉
看
眔
眞
真
眷
眼
眾
着
睘
睪
睿
瞏
瞢
瞿
矍
矛
矞
矢
矣
知
矦
短
石
研
破
碎
磊
磨
示
礻
礼
祟
票
祭
禀
禁
福
禸
禹
禺
离
禽
禾
禿
秀
秃
秉
秋
科
秝
秦
移
稟
穀
穌
穴
究
穹
空
穿
突
窄
窒
立
竒
竜
竝
竟
章
童
端
竹
笑
笠
筆
等
答
箕
算
箴
節
篤
篭
米
粉
粛
粟
粤
粦
粲
糞
糸
糹
系
約
納
素
索
紫
累
細
絜
絫
絲
經
維
綿
縣
繇
纍
纟
缶
网
罒
罔
罕
罗
罙
罡
罢
罪
署
罷
羅
羊
羌
羍
美
羔
羕
羗
羞
羡
羣
群
義
羲
羸
羽
翁
翏
習
翕
翟
翠
翼
老
耂
考
者
耆
而
耎
耑
耒
耳
耴
耶
耷
聂
聊
聖
聚
聶
聿
肀
肃
肅
肉
肖
肙
肥
肩
肯
育
肴
胃
背
胡
胥
能
脊
脩
膚
臣
臤
臧
自
臬
臭
臯
臱
至
致
臺
臼
臽
臾
臿
舀
舂
舄
與
興
舉
舊
舌
舍
舛
舜
舞
舟
般
艮
良
色
艸
艹
艾
芒
芔
芬
芮
花
芳
芺
芻
苔
苗
苟
若
苦
英
范
茶
茸
荅
草
荒
荣
荼
莆
莧
莫
莽
菆
菊
菐
華
萬
落
葉
著
葛
董
葵
蒙
蒦
蒼
蓋
蓬
蓺
蔑
蔡
蕉
蕭
薄
薛
薦
薰
藍
藏
藥
蘭
虍
虎
虐
虒
虔
處
虖
虗
虘
虚
虛
虜
虞
虫
虽
蚤
蚩
蜀
蜜
蟲
蠡
血
行
衍
衛
衣
衤
表
衮
衰
袁
袞
被
褭
褱
襄
襾
西
覀
要
覃
見
規
覓
覧
親
覽
觀
见
角
解
言
訁
訇
計
記
設
詹
語
誩
諸
謂
謖
讠
语
谷
豆
豈
豊
豐
豕
豖
豙
象
豦
豩
豪
豸
貇
貝
貞
貟
負
貢
貧
貪
貫
責
貳
貴
買
費
賁
資
賈
賏
賓
賔
賛
賞
賢
賣
質
賴
贊
贝
贡
责
贯
贲
贵
赖
赞
赤
赦
走
越
足
路
蹇
身
躬
車
軍
軎
軟
輦
车
辛
辜
辟
辥
辰
辱
農
辵
辶
边
达
过
近
连
述
迷
追
退
送
逆
逐
通
速
造
逢
連
逮
進
遀
遂
過
道
達
遣
適
遷
遺
邊
邑
邕
那
邦
邪
郎
郡
部
郭
都
鄉
鄚
酉
酋
配
酓
釆
采
里
重
野
量
金
釒
錢
鎮
钅
長
镸
长
門
閃
閉
開
閏
閑
閒
間
閔
閵
閻
闌
门
间
闷
阑
阜
阝
阮
阿
降
陳
陽
隆
隊
隋
際
隡
隨
隱
隶
隹
隺
隻
隼
隽
难
雀
雁
集
雈
雋
雍
雐
雔
雙
雚
雜
雝
離
難
雨
雩
雪
雲
零
雷
需
霍
霜
霝
霞
霸
靈
靑
青
非
靡
面
靣
革
韋
韦
韭
韯
韱
音
頁
頃
項
須
頗
頡
頻
顛
页
風
风
飛
飞
食
飠
養
饣
首
香
馬
馮
駦
马
骨
高
髟
鬥
鬯
鬲
鬼
魏
魚
魯
鮮
鱼
鲁
鳥
鳳
鸟
鹵
鹿
麃
麗
麥
麦
麻
黃
黄
黍
黎
黑
黒
黨
黹
黽
黾
鼎
鼓
鼠
鼻
齊
齋
齐
齒
齿
龍
龙
龜
龟
龠
龰
龱
龴
龵
龶
龷
龸
龹




者
艹
﻿
（
）
，
：
＝
？
￼
�
𠀁
𠀃
𠀆
𠀉
𠀎
𠀐
𠁁
𠁣
𠂆
𠂇
𠂈
𠂉
𠂊
𠂋
𠂎
𠂒
𠂔
𠂛
𠂡
𠂢
𠂤
𠂬
𠂭
𠂹
𠃊
𠃋
𠃌
𠃍
𠃎
𠃑
𠃓
𠃔
𠃜
𠄌
𠄎
𠄠
𠄢
𠆢
𠆥
𠇍
𠈌
𠌵
𠓜
𠔉
𠔥
𠔼
𠔽
𠔿
𠕀
𠕁
𠕋
𠘧
𠘨
𠙻
𠙼
𠚏
𠚒
𠚤
𠚪
𠣏
𠤎
𠤕
𠥓
𠦄
𠦑
𠦝
𠧒
𠧗
𠧪
𠩺
𠪚
𠫓
𠫔
𠫤
𠬛
𠬝
𠬞
𠬢
𠬤
𠬶
𠮛
𠮦
𠮷
𠯑
𠱠
𠳮
𠷎
𡈼
𡉀
𡉵
𡌥
𡍮
𡏳
𡕒
𡕩
𡕰
𡖅
𡗗
𡗜
𡘆
𡘤
𡧱
𡨄
𡩧
𡬠
𡭽
𡰣
𡰥
𡰪
𡰯
𡰱
𡷈
𡸁
𡿨
𡿩
𡿪
𡿺
𢀖
𢀛
𢀩
𢁙
𢆉
𢆰
𢆶
𢇁
𢇇
𢉖
𢌬
𢌿
𢏚
𢑑
𢑚
𢖻
𢙣
𢛳
𢦏
𢦒
𢧵
𢼄
𢾕
𣁋
𣄼
𣅀
𣅽
𣍘
𣎳
𣎵
𣏋
𣏼
𣗥
𣥂
𣥖
𣦵
𣦼
𣧄
𣪊
𣪠
𣬉
𣳾
𣶒
𤇾
𤊽
𤐫
𤓰
𤔔
𤕨
𤣩
𤰇
𤰔
𤰞
𤴓
𤴔
𤽄
𥁑
𥁕
𥃦
𥃩
𥃭
𥇡
𥑟
𥘅
𥘈
𥝢
𥫗
𥱡
𦈢
𦉪
𦉬
𦉼
𦍌
𦍒
𦎧
𦐇
𦓔
𦔮
𦘒
𦙃
𦚏
𦣝
𦣞
𦣻
𦥑
𦥔
𦥯
𦨉
𦭝
𦰩
𧆞
𧈧
𧘇
𧰨
𧴪
𧴮
𧵩
𧾷
𨸏
𨾴
𩙿
𩠐
𩫏
𩵋
𪉷
𪜀
𪟽
𪠲
𪩲
𫇦
𫔭
𫜸
𫝀
𫠣
𫠩
𫢉
𫥞
𫩏
𫩠
𫪡
𫲽
𫶧
𬀷
𬐘
𬗌
𬙙
𬛸
𬜯
𬟩
𬯁
𬴘
𬺻
𬼉
𬼖
𭀰
𭁈
𭁨
𭅰
𭑈
𭕄
𭗼
𭤨
𭥫
𭻾
𮅕
𮊿
𮍌
𮍏
𮓗
𮥼
𮧮
廾
𰀁
𰀄
𰀈
𰀉
𰀕
𰀠
𰀡
𰀢
𰀪
𰁜
𰃮
𰆊
𰆘
𰋙
𰕎
𰢴
𰧭
𰯲
00--
01--
02--
04--
0601--
0602--
0608--
13--
14--
15--
16--
17--
170--
18--
19--
20--
22--
220--
24--
25--
33--
50--
a--
ab--
abo--
abstr--
ac--
accu--
achieve--
ad--
advan--
af--
affili--
ag--
ah--
ai--
air--
al--
all--
am--
an--
ance--
anim--
anno--
announce--
anony--
anti--
app--
appo--
appre--
ar--
archaeo--
argu--
as--
ash--
assi--
assimi--
aste--
astr--
at--
ath--
au--
auto--
b--
ba--
bac--
bar--
be--
behavi--
bei--
ben--
ber--
bha--
bhik--
bhu--
bi--
biblio--
bio--
bis--
bli--
bo--
bodhi--
body--
bos--
bra--
brack--
brah--
bre--
bri--
bro--
bru--
bu--
bul--
bun--
bur--
bure--
buri--
by--
c--
ca--
cal--
calcu--
call--
can--
capa--
car--
cas--
cat--
cau--
cc--
ce--
celeb--
cen--
cere--
ch--
chall--
che--
chlo--
cho--
chri--
cin--
cit--
citi--
cla--
clau--
cli--
co--
coc--
col--
com--
compli--
con--
confu--
contr--
cor--
corres--
cou--
cre--
cri--
cro--
cru--
cu--
cul--
cur--
cy--
cyc--
d--
da--
dar--
de--
dec--
def--
defe--
demo--
demon--
den--
deno--
des--
di--
dia--
dis--
disam--
disc--
discou--
disr--
dist--
do--
dou--
doy--
dr--
dra--
dre--
dro--
du--
dupli--
dy--
e--
ed--
edit--
el--
ele--
elec--
elim--
em--
emb--
emer--
en--
end--
eng--
epi--
equ--
equat--
equip--
es--
et--
eu--
evalu--
evil--
ex--
exam--
exclu--
exe--
exem--
extr--
f--
fa--
facil--
fan--
fav--
fe--
fer--
ff--
fi--
ficti--
fie--
fin--
fis--
flo--
for--
fos--
fr--
fra--
fre--
fru--
fu--
g--
ga--
gad--
gar--
gau--
gaz--
ge--
gen--
gene--
geo--
get--
gi--
gl--
gno--
go--
gra--
gre--
gu--
h--
ha--
hab--
har--
he--
hea--
her--
hi--
high--
ho--
home--
hor--
hot--
hu--
hug--
hy--
hyper--
i--
id--
ig--
il--
illu--
im--
impl--
in--
incor--
indu--
inf--
infe--
initi--
inspi--
instru--
int--
inter--
inv--
inva--
investi--
ip--
is--
isa--
iso--
it--
ital--
j--
ja--
je--
jes--
ji--
jo--
ju--
jul--
k--
ka--
kam--
kan--
kar--
ke--
ken--
key--
kh--
ki--
kilo--
ko--
kra--
ku--
l--
la--
lam--
lan--
lau--
lay--
le--
lec--
legi--
li--
libe--
lin--
link--
liqu--
lite--
lo--
lu--
ly--
m--
ma--
mac--
mag--
main--
mal--
man--
manu--
map--
mar--
mat--
me--
measure--
memo--
mer--
meta--
mexi--
mi--
micro--
mid--
mir--
mis--
mit--
mix--
mo--
modifi--
mon--
mono--
mor--
mu--
munic--
my--
n--
na--
nar--
nav--
navi--
ne--
new--
ng--
ni--
nin--
no--
non--
notifi--
nu--
o--
ob--
obe--
obvi--
occ--
off--
ol--
old--
on--
open--
opi--
opp--
or--
os--
out--
over--
p--
pa--
pac--
pakis--
pal--
par--
para--
pas--
pay--
pe--
pen--
per--
ph--
pheno--
phy--
physi--
pi--
pie--
pin--
pl--
ple--
plu--
po--
popup--
por--
pos--
posses--
post--
pr--
pre--
pro--
proto--
psy--
pu--
pub--
pun--
pur--
py--
q--
qu--
qual--
quan--
r--
ra--
rat--
rati--
re--
read--
recog--
recom--
ref--
reg--
rejec--
res--
retr--
reve--
ri--
ro--
rou--
ru--
run--
s--
sa--
sab--
sac--
sacrif--
salv--
sam--
san--
sar--
sce--
sch--
scien--
scro--
se--
see--
semi--
ser--
sexu--
sha--
shi--
sho--
show--
si--
sign--
simpl--
siri--
sjab--
sk--
sl--
sla--
slo--
sm--
so--
soda--
sol--
solu--
some--
sor--
sove--
spa--
spac--
sphe--
spi--
spo--
spr--
squ--
st--
ste--
str--
stu--
su--
sub--
subsi--
succe--
sug--
sugge--
sum--
super--
supp--
sur--
sus--
swe--
sy--
syll--
t--
ta--
tal--
te--
techni--
tem--
ter--
test--
text--
th--
the--
ti--
time--
to--
tor--
tou--
tr--
trans--
tre--
tri--
tro--
tu--
tur--
twit--
ty--
u--
ul--
un--
under--
up--
us--
user--
uti--
v--
va--
ve--
ver--
verifi--
vi--
vic--
viol--
vir--
vo--
w--
wa--
wal--
war--
we--
wea--
web--
wel--
whe--
wi--
wiked--
wikedget--
wiki--
wil--
wo--
wor--
word--
work--
x--
xi--
y--
ya--
yi--
yo--
yu--
z--
zh--
вик--
ก--
ง--
ต--
น--
บ--
พ--
ม--
ย--
ว--
ส--
ห--
อ--
า--
เ--
แ--
ក--
កង--
កឈ--
កដ--
កត--
កន--
កប--
កព--
កយក--
ករ--
កល--
កស--
កអ--
កឯ--
ខ--
ខណ--
ខម--
ខរ--
គ--
គង--
គត--
គប--
គម--
គរ--
គល--
ឃ--
ឃម--
ង--
ងច--
ងជ--
ងជន--
ងឈ--
ងដ--
ងត--
ងថ--
ងន--
ងប--
ងយ--
ងយក--
ងរ--
ងរប--
ងវ--
ងស--
ងហ--
ងៗ--
ច--
ចក--
ចង--
ចដ--
ចន--
ចប--
ចម--
ចយ--
ចរ--
ចស--
ចអ--
ចៗ--
ឆ--
ជ--
ជន--
ជយ--
ឈ--
ឈរ--
ញ--
ញត--
ញប--
ញផ--
ញព--
ញយ--
ញរ--
ញស--
ដ--
ដក--
ដង--
ដម--
ដរ--
ឋ--
ឌ--
ឌព--
ឌល--
ឍ--
ណ--
ណក--
ណង--
ណរ--
ត--
តក--
តង--
តដ--
តត--
តន--
តប--
តម--
តយ--
តរ--
តស--
តអ--
ថ--
ថយ--
ទ--
ទង--
ទន--
ទម--
ទរ--
ធ--
ធព--
ធម--
ធរ--
ធស--
ន--
នក--
នង--
នជ--
នឈ--
នដ--
នត--
នថ--
នធ--
នន--
នប--
នព--
នម--
នយ--
នរ--
នល--
នវ--
នស--
នអ--
នឬ--
នៗ--
ប--
បក--
បង--
បថ--
បទ--
បន--
បផ--
បម--
បយ--
បរ--
បស--
ផ--
ផល--
ព--
ពថ--
ពម--
ពរ--
ពល--
ភ--
ភព--
ម--
មក--
មជ--
មដ--
មន--
មម--
មយ--
មរ--
មវ--
មស--
មៗ--
យ--
យក--
យកម--
យជ--
យឈ--
យដ--
យថ--
យន--
យព--
យភ--
យយក--
យរ--
យស--
យឬ--
យៗ--
រ--
រក--
រង--
រច--
រជ--
រឈ--
រដ--
រត--
រថ--
រន--
រប--
រព--
រម--
រយ--
ររ--
រវ--
រស--
រឬ--
ល--
លក--
លគ--
លង--
លច--
លជ--
លឈ--
លដ--
លត--
លថ--
លន--
លប--
លព--
លម--
លយក--
លរ--
លស--
លអ--
វ--
វក--
វគ--
វច--
វដ--
វត--
វថ--
វន--
វប--
វម--
វយ--
វរ--
វស--
វអ--
ឝ--
ស--
សក--
សង--
សជ--
សត--
សន--
សប--
សព--
សម--
សរ--
សល--
សស--
សហ--
សអ--
ហ--
ហរ--
ឡ--
អ--
អច--
អញ--
អប--
អភ--
អម--
ឣ--
ឥត--
ឦ--
ឧ--
ឧទ--
ឪ--
ឫ--
ឬ--
ឬស--
ឮ--
ឯ--
ឯក--
ឯង--
ឯត--
ឱ--
ឲ--
ឳ--
ៗ--
១១--
១២--
១៣--
១៤--
១៥--
១៦--
១៧--
១៨--
១៩--
២០--
២១--
២៣--
២៤--
២៥--
--0
--00
--1
--2
--3
--4
--5
--6
--7
--8
--9
--a
--able
--ably
--acy
--ad
--ade
--ado
--ae
--age
--ah
--ai
--ain
--ak
--aka
--ake
--al
--ala
--ald
--ale
--ally
--als
--am
--ama
--an
--ana
--ance
--ans
--ant
--ants
--ao
--ap
--ar
--ard
--aries
--ars
--ary
--as
--at
--ate
--ated
--ates
--atic
--ating
--ation
--ations
--ative
--atives
--ator
--ators
--ature
--au
--aw
--ay
--b
--ball
--be
--berg
--bility
--ble
--box
--bs
--by
--c
--ca
--cal
--case
--cast
--ce
--ced
--cer
--ces
--ch
--cing
--cism
--ck
--cker
--cks
--cle
--clusion
--co
--cs
--ct
--cted
--ction
--cts
--cy
--d
--da
--date
--day
--de
--ded
--di
--ding
--do
--dox
--dp
--ds
--dy
--e
--ea
--ean
--ec
--ection
--ed
--ee
--ef
--ei
--ein
--ek
--el
--ell
--ely
--en
--ence
--ened
--ens
--ent
--ents
--ep
--er
--ere
--erick
--erior
--ers
--ert
--ery
--es
--ess
--est
--et
--ets
--ew
--ey
--ez
--f
--ff
--fied
--fies
--fit
--fs
--ful
--fy
--g
--ga
--ge
--ged
--ger
--gh
--ght
--ging
--go
--gs
--gu
--gue
--h
--ha
--ham
--hed
--hes
--hetical
--hi
--hip
--ht
--i
--ia
--ial
--ian
--ians
--iation
--ible
--ic
--ica
--ical
--icient
--icism
--ick
--icle
--ics
--ict
--id
--ides
--ie
--ied
--ier
--ies
--ified
--ify
--ig
--ii
--ike
--il
--ile
--im
--imate
--in
--ina
--ination
--ine
--ing
--ings
--io
--ion
--ions
--ior
--ip
--ir
--is
--isation
--ise
--ised
--ish
--ism
--ist
--istic
--ists
--it
--ite
--ited
--ities
--ition
--ity
--ium
--ive
--ives
--ix
--iya
--ization
--ize
--ized
--izing
--j
--ja
--k
--ka
--ke
--ker
--key
--ki
--ks
--ku
--l
--la
--lar
--ld
--le
--lect
--ler
--less
--ley
--li
--lin
--line
--ling
--link
--list
--lity
--lk
--ll
--lle
--lly
--lm
--lo
--ls
--lt
--lty
--ly
--m
--ma
--man
--mate
--me
--ment
--ments
--mer
--mers
--mic
--mit
--mitted
--mo
--mp
--ms
--my
--n
--na
--nal
--name
--nce
--ncies
--ncy
--nd
--nda
--nder
--nds
--ne
--ned
--ner
--ners
--nes
--ness
--ng
--ngs
--ni
--nia
--ning
--nity
--nn
--nne
--no
--ns
--nt
--nta
--nte
--nted
--ntes
--ntly
--nts
--ny
--o
--ock
--od
--ogical
--ography
--ogy
--ol
--ological
--ology
--om
--omy
--on
--ong
--ons
--op
--or
--orm
--ors
--os
--ot
--ous
--ov
--ow
--p
--pa
--pad
--page
--pe
--ped
--phy
--ping
--ponent
--ponents
--ption
--q
--r
--ra
--ral
--ram
--ran
--rb
--rc
--rd
--re
--reasing
--rence
--res
--ress
--ret
--rg
--rge
--ri
--ria
--rial
--ric
--ries
--ring
--rio
--rk
--rm
--rn
--ro
--ros
--rr
--rry
--rs
--rse
--rt
--rty
--rus
--ry
--s
--sa
--sc
--se
--sed
--ses
--sh
--ship
--si
--sia
--sion
--sis
--sive
--sk
--sm
--son
--ss
--st
--ster
--stic
--sts
--sy
--t
--ta
--tal
--te
--ted
--teenth
--ter
--tes
--text
--th
--ti
--tic
--tinent
--ting
--tion
--tions
--tive
--tle
--to
--ton
--top
--tor
--tory
--ts
--tt
--tty
--tus
--tva
--ty
--tyle
--u
--ua
--ual
--uction
--ud
--ue
--uel
--ues
--ugh
--ught
--ular
--ulose
--um
--up
--ups
--ur
--ure
--ures
--urs
--us
--user
--ust
--ut
--ute
--ux
--v
--va
--val
--ve
--ved
--ves
--ving
--vn
--vo
--w
--wa
--ward
--ware
--way
--wiki
--wing
--word
--wrapper
--x
--y
--ya
--ye
--ym
--yms
--ys
--z
--za
--ze
--zi
--zy
--ο
--а
--ก
--ต
--น
--ม
--ย
--ร
--ล
--ว
--ក
--កក
--កគ
--កច
--កដ
--កថ
--កទ
--កធ
--កន
--កប
--កព
--កម
--កល
--កស
--ខ
--គ
--គរ
--ឃ
--ង
--ងទ
--ច
--ចន
--ចម
--ឆ
--ជ
--ជន
--ឈ
--ឈប
--ញ
--ដ
--ដល
--ឋ
--ឌ
--ណ
--ត
--ថ
--ទ
--ទទ
--ទន
--ទស
--ធ
--ធម
--ន
--នក
--នជ
--ប
--បក
--បខ
--បង
--បញ
--បទ
--បន
--បប
--បម
--បរ
--បស
--ផ
--ផង
--ព
--ពន
--ភ
--ម
--មត
--មន
--មបព
--មរ
--មស
--មហ
--យ
--រ
--រដ
--រណ
--រទ
--រប
--របស
--រភ
--រម
--រស
--ល
--វ
--វគ
--វត
--ឝ
--ស
--សគ
--សង
--សម
--ហ
--ហជ
--ហព
--ឡ
--អ
--អង
--អន
--ឣ
--ឥទ
--ឱ
--ឲ
--ៗ
--០
--០០
--១
--២
--៣
--៤
--៥
--៦
--៧
--៨
--៩
