!
"
#
##0
##1
##10
##11
##12
##13
##14
##15
##16
##17
##18
##19
##2
##20
##21
##22
##23
##24
##25
##26
##27
##28
##29
##3
##30
##31
##32
##33
##34
##35
##36
##37
##38
##39
##4
##40
##41
##42
##43
##44
##45
##46
##47
##48
##49
##5
##50
##51
##52
##53
##54
##55
##56
##57
##58
##59
##6
##60
##61
##62
##63
##64
##65
##66
##67
##68
##69
##7
##70
##71
##72
##73
##74
##75
##76
##77
##78
##79
##8
##80
##81
##82
##83
##84
##85
##86
##87
##88
##89
##9
##90
##91
##92
##93
##94
##95
##96
##97
##98
##99
$
%
&
'
(
)
*
+
,
-
.
/
0
00
000
01
0140
02
03
04
06
067
07
08
09
1
10
100
1000
100000
1002
101
1016
1028
103
104
108
109
10953
11
110
111
112
113
1139189
116
117
118
12
120
1200
1236
124
125
126
127
1282
1289000
13
131
132
139
14
140
144
145
146
14651858
147
1487
15
150
1500
153
154
16
160
1610471
1616
1620
164
1670
1688
1693
1697
17
171
172
173
176
177
1776
178
179
1795
1796
18
180
1800
1801
1806
1814
1815
1818
182
1820
1821
1822
1829
1830
1833
184
1846
185
1860
1861
1866
1868
1870
1872
1876
1877
1885
189
1890
1895
1896
1897
19
190
1900
1902
1903
1906
1907
191
1910
1911
1912
1915
1917
1918
192
1920
1921
1922
1924
1925
1927
1928
1929
193
1930
1931
1932
1933
1935
1936
1937
1938
1939
1940
1941
1942
1944
1945
1946
1947
1948
1949
195
1950
1951
1952
1953
1954
1955
1956
1957
1958
1959
1960
1961
1962
1963
1964
1965
1966
1967
1968
1969
1970
1971
1972
1973
1974
1975
1976
1977
1978
1979
1980
1981
1982
1983
1984
1985
1986
1987
1988
1989
1990
1991
1992
1993
1994
1995
1996
1997
1998
1999
2
20
200
2000
2001
2002
2003
2004
2005
2006
2007
2008
2009
201
2010
2011
2012
2013
2014
2015
2016
2017
2018
2019
2020
2021
2022
204
207
208
209
21
210
212
213
215
216
217
219
22
220
221
222
2244
225
2271
22905367
23
230
231
232
2321
233
2338
234
235
23591
24
240
241
242
245
2478
249
25
250
251
252
253
254
255
258
259
26
260
261
262
267
268
2685
27
270
2760
278
279
28
280
281
283
285
286
2861
287
289
29
293
294
295
2973
298
3
30
300
301
303
307
308
31
310
3100
311
313
314
315
316
317
32
320
3210
3237
3245
329
33
330
337
34
340
348
349
35
350
3528
3534
3581
36
360
3606
3666
3672
3673
3681
3699
37
370
3723
38
380
3801
3836
385
39
394
4
40
400
41
4160
42
420
422000
428
43
44
45
450
451
46
463
47
470
471
48
48000
487
49
5
50
500
51
52
53
54
55
553
56
57
58
59
6
60
600
600000
61
62
628
63
63400
640
65
650
6500
66
67
6736
68
69
7
70
700
702
707
709
71
718
72
727
73
737
74
744987
747
75
750
76
767
77
770
777
78
783
784
79
8
80
800
81
82
83
84
846
85
86
864
87
88
89
9
90
900
91
912
92
93
94
95
96
97
970
978
9789241580496
98
982
99
:
;
=
>
?
\
^
_
`
a
aa
aachen
aba
abc
abeloa
aberdeen
abkhazia
abo
about
abrahams
abv
ac
access
accessed
according
accountability
accumulator
acellular
acid
act
acute
ad
addo
adelaide
aden
administered
administering
administration
administrative
adopted
adriaan
advice
advisory
ae
afe
afghanistan
afidafiti
aforika
africa
african
africanist
afrika
afrikaans
afrikaner
after
against
aganang
age
agency
ago
aguila
aha
ahloleloa
ahloletsoe
ahmed
ai
aids
air
airbus
airlines
airplanes
airport
airways
aix
ak
aka
akangwa
akarelletsa
akarets
akaretsa
akaretsang
akmene
al
alafa
albamo
albania
albert
album
ald
alex
alexander
alexandria
alfred
algeria
alice
alicedale
align
alignbars
alisie
aliwal
all
alliance
allied
alonso
alpha
also
alt
alumni
am
ama
amahanngoa
amahlathi
amana
amanang
amang
amapiano
amathole
amazonia
ameha
amehang
amehileng
america
american
amerika
amiens
amme
amohela
amohelang
amohelehang
amoheleheng
amoheloa
amoheloang
amohelwa
amohetse
amohetsoe
amohetsoeng
amp
amsterdam
an
ana
analysis
anc
ancient
ancyl
and
andresen
android
ang
angeja
angeles
angers
anglo
angola
anh
aniden
ankole
annecy
anngoe
anngweng
announces
anonymous
ans
antananarivo
antarctica
anthem
anthropology
anti
antibiotic
antigen
antonio
anyesang
ao
apara
aparetsoe
apartheid
apere
apereng
apollo
apple
april
arab
araba
arabela
arabia
archive
archived
arctic
are
area
areas
arena
argentina
argoncilhe
armenia
arms
arohana
arohane
arohaneng
arola
arolang
arolelana
aroloa
arotsoe
around
art
arthur
article
articles
arts
as
asia
assad
associated
association
aston
at
ata
athe
atile
atileng
atisa
atiswa
atlantic
atlantiki
atleha
atlehang
atlehe
atlehileng
atoloha
atolosa
atolositsoe
au
aubrey
audio
augsburg
august
aureus
australia
austria
automobiles
autonomous
available
avengers
avenue
avro
award
awards
azerbaijan
b
ba
baa
baahi
baahloli
baartman
baba
babedi
babeli
baboledi
babuelli
bach
bacha
bachelor
bacillus
back
backgroundcolors
baden
badudi
baegepeta
baeletsi
baeloji
baemeli
baeta
baetapele
baeti
baetsi
bafaladi
bafalli
bafta
bafuputsi
baghdad
bahahlauli
bahanyetsi
bahatelli
bahlabani
bahlahisi
bahlahlobisisi
bahlalosi
bahlano
bahlaseluoa
bahlodisane
baholo
baipelaetsi
baithuti
baitseki
bajaki
baka
bakang
bake
bakeng
baketheria
bakhethi
bakhethoa
bakile
bakileng
bakiloe
bakoa
bakoang
baktheria
baku
bakuli
bakwa
bakwang
bala
balaoli
bale
balearic
balebeli
balefalekhetho
baleha
baleka
balekane
balemi
balfour
balkan
balloa
baloa
bana
banab
banana
band
bandeira
bandeirasja
bandera
bane
baneng
bang
bangata
bangladesh
banja
bank
banka
banna
banner
bantu
bantustan
bantustans
banyalani
bao
bapala
bapalami
bapaloa
baphatlalatsi
bapisa
bapisoa
bapresidente
baqolotsi
baqosi
bar
bara
barack
barali
bararo
baratuoa
barbara
bardata
bareki
bark
barkly
baroma
barra
barroselas
bartlett
barutoana
bas
basadi
basading
basali
base
basebeletsi
basebetsi
bashanyana
bashebelli
basketball
baskin
baso
basotho
basson
basutoland
basweu
bataletseng
batang
batho
bathong
bathurst
bathusi
batjha
batla
batlang
batlile
batlisisa
bats
batsamaisi
batsho
batsoali
bavaria
bay
bb
bbc
bc
bcg
bd
be
bea
beach
beast
beau
beaufort
became
beck
become
bedford
before
beha
behang
behella
behiloe
behiloeng
behoa
beke
bekeng
bela
belaela
belarus
beleha
belehwa
belgium
belgrade
bell
ben
bendery
benedito
beng
benin
benjamin
beograd
berea
bereng
bergisch
berlin
besanc
beta
bethesda
betri
better
between
beyers
bhisho
bi
bid
biden
bidens
bielefeld
big
bile
bileng
bili
bilione
bill
billboard
billion
bin
bina
binang
bing
binwa
biography
biology
birz
bissau
bitcoin
bitcoins
bits
bitsa
bitsang
bitsitse
bitsitsoeng
bitsoa
bitsoang
bitswa
bitswang
bitswe
bizana
biznews
bja
bjale
bjalo
black
blason
bloemfontein
blogspot
bloomberg
blouberg
blue
bn
bo
boahelani
boahloli
board
bob
bobebe
bobedi
bobeli
bobodu
bobolu
boca
bocha
bochaba
bochabela
bochochisi
bochum
bodikela
bodumedi
boeena
boeing
boela
boeletsi
boema
boemeli
boemo
boemong
boeona
boer
boerewors
boeta
boetapele
boetse
bofe
bofelo
bofelong
bofetoheli
bofofu
bofuma
bogare
bogareng
boggs
bogolo
bogota
bohahlauli
bohanyetsi
bohare
bohareng
bohata
bohato
bohlabela
bohlale
bohlano
bohle
bohloeki
bohloko
bohlokoa
bohlokoahali
bohlokwa
boholo
boholong
boikarabello
boikemelo
boikemisetso
boiketlo
boikutlo
boima
boimana
boinots
boipelaetso
boipheliso
boiphihlelo
boipiletso
boipuso
boislamo
boitaolo
boiteko
boitekong
boitemoho
boithabiso
boitlamo
boits
boitsebiso
boitshwaro
boitsibi
bojaki
bokae
bokamoso
bokana
bokane
bokella
bokelloa
bokgoni
bokhabane
bokhoba
bokhoni
bokhukhuni
boknes
boko
bokolone
bokomonisi
bokreste
bokuli
bolaea
bolaeang
bolaile
bolailoeng
bolaji
bolaoa
bolaoli
bolaya
bolayang
bolebeli
bolela
bolelang
bolele
bolelele
boleletse
bolella
bolelloa
boleloa
boleloang
bolelwa
bolelwago
boleng
boletse
boletseng
boletsoe
boletsoeng
bolo
boloetse
boloka
bolokehileng
bolokile
bolokiloe
bolokolohi
bolulo
bolumeli
bolwetse
bolwetseng
bomalimabe
bomankgane
bomasepala
bomenemene
bomo
bomong
bomoseleme
bona
bonahala
bonahalang
bonahaleng
bonang
bone
boneng
bong
bongaka
bongata
bongoana
bongoaneng
bonkgetheng
bonn
bonna
bonnete
bonngoe
bonoa
bonoang
bonolo
bonono
bontrug
bonts
bontsha
bontshang
bontshitse
bonyane
bonyaneng
boo
book
books
bopa
bopaki
bophahamo
bophara
bophelo
bophelong
bophirima
bophirimela
bophuthatswana
bopresidente
bopresidenteng
boqapi
boqhekanyetsi
boralitaba
boraro
borashe
bordeaux
border
borena
borithane
bork
born
boroa
borobeli
borokho
boroso
borwa
bosading
bosholu
bosiu
bosna
bosnia
bosodoma
boston
bosupa
botebo
boteng
botha
bothata
botho
botjha
botjhaba
botjhabela
botjhotjhisi
botlaaseng
botlalo
botlamuoeng
botle
botlokotsebe
boto
botona
bots
botsa
botsitso
botsoa
botswana
bottom
bottrop
botumo
box
boyena
br
braai
brandhoek
brasao
brasiliensis
braslovce
braunschweig
brazil
breaking
breisgau
bremen
bremerhaven
brenda
brest
brett
briceni
brics
bridge
briefing
brisbane
britain
brithani
british
brits
brno
brown
bruce
brussels
bua
buang
bucharest
budapest
buddha
bue
buella
buffalo
buildings
buile
buileng
buisana
buisanoa
buka
bukana
bula
bulawayo
bulehileng
bulelani
bulgaria
buloa
buoa
burger
burgersdorp
burisma
burke
burundi
busa
busang
bush
bushman
businesslive
busoa
busoang
but
buterin
butha
buthe
butle
butterworth
buuoa
buuoang
by
c
ca
cabinet
caesarean
caf
california
calmette
cambridge
camenca
cameron
cameroon
camptown
camtho
can
canada
canal
canaria
canarias
canaries
canary
cannabis
cantons
canvas
cao
cape
capital
capricorn
capture
care
caribbean
carolus
carter
cases
caspian
cast
castilla
castle
category
cathcart
cause
causes
cd
cdc
celebration
celje
cell
cemetery
census
center
centers
central
centre
centro
century
cerknica
chaena
chai
chain
chaka
change
chankaneng
channel
chapel
charles
chart
chartered
charts
chate
che
chechisoa
chechnya
check
chefo
chelete
chemical
chemnitz
cheney
cheryl
chesa
chesang
chesoa
chi
chicago
chief
children
chile
china
chinese
chintsa
chis
chris
christian
church
cia
cinemascope
cinematic
circle
ciskei
cities
citizen
city
civil
ck
cken
claimed
clarence
clermont
climate
clinical
clinton
clive
club
cluster
cm
cnn
cnttc
co
coa
coagula
coast
coastal
coat
cobar
cochrane
cold
coldstream
collection
college
colombia
colony
color
colors
coloured
coloureds
columbia
columbus
com
commercial
commission
common
commonwealth
communes
communities
community
comoros
company
compulsory
computer
comrade
concepcio
conco
concourt
confederate
confederation
conference
congo
congress
connecting
constitution
constitutional
control
convention
cookhouse
cope
copy
copyright
coronavirus
coronaviruses
corregimiento
corruption
cosafa
cosatu
costalago
cough
could
council
councils
counties
countries
country
county
cov
covid
covilha
craig
crane
cream
created
crime
croatia
crosby
cross
crown
cruz
ct
cuba
culture
cup
curitiba
current
cusa
cutaneous
cyprus
cyril
czech
czechia
d
da
dabi
dai
daily
dailymaverick
dailysun
dar
darkgrey
darmstadt
data
database
date
dateformat
david
day
dc
de
dead
deal
death
debe
debut
dec
december
declares
deezer
defense
degree
del
delaware
democrat
democratic
democrats
demokerasi
demokrasi
den
denis
denmark
department
departments
dependencies
deputy
der
des
design
development
df
di
dialogue
diaparo
dibaka
dibakeng
dibeke
dibetsa
dibilione
dibini
diboko
dibopeho
dibuka
dick
dictionary
didolara
die
diente
dieta
difaqane
difonofono
dihlopha
dihlopheng
dihoreng
dijithale
dijo
dijon
dikai
dikamano
dikarolo
dikarolong
diketsahalo
diketso
dikgau
dikgetho
dikgoka
dikgwedi
dikgweding
dikhothane
dikobo
dikokwanahloko
dikontinente
dikopo
dilemo
dilemong
dimela
dimilione
dinaga
dinaha
dinaheng
dinako
dinakong
ding
dingwe
dinoka
dinomoro
dintho
dintja
dintlha
dintsintsi
dintwa
dinwamadi
dipakeng
dipalo
dipapadi
dipatlisiso
diphesente
diphihisano
diphitlhelelo
diphoofolo
diphoofolong
diploma
dipolotiki
dipolotiking
diporofense
dipuisano
dipuo
dipuong
diqoso
dire
dis
discography
disease
diseases
disebediswa
disele
disney
diso
disosa
distancing
distinctive
district
districts
ditaba
ditekanyetso
diteko
dithepa
dithibelatshwaetso
ditho
ditiro
ditjeho
ditjhaba
ditjhelete
ditlaleho
ditlamorao
ditlhong
ditokelo
ditokis
ditoropong
dits
ditsela
ditshebeletso
ditshenyehelo
ditshupu
ditshwaetso
division
divisions
dj
djibouti
dlamini
dna
dnestrovsc
do
doctor
documents
doesn
doi
donald
dong
dorothy
dortmund
dr
drama
drapeau
drapelul
drc
dresden
drug
drum
dstv
du
duarte
dubai
dube
dublin
dubossary
dudu
duisburg
dula
dulang
dumas
dumela
dumelwa
durban
during
dutch
dutywa
dvd
dwala
dwo
dz
e
ea
eaba
eang
eanong
early
earth
east
eastern
eba
ebang
ebbug
ebe
ebeletso
ebeletsong
ebelisano
ebeliso
ebetso
ebetsong
ebile
ebola
economic
economist
ecuador
ed
edirne
edition
edu
edward
eena
efe
eff
effect
efforts
egepeta
ego
egypt
ehali
ehelitse
ehelitsoe
ehelitsoeng
ehetsa
ehetsang
ehetsi
ehetso
ehetsoa
ehla
ehlile
eiffel
eka
ekaba
eketsa
eketseha
eketsehe
eketsehileng
eketsoa
el
ela
ele
elected
electricity
elektroniki
elela
elella
eleng
eletsa
eletseng
elizabeth
ellenberger
elliotdale
elliott
elsevier
elundini
elvis
em
ema
emblem
emblems
eme
emela
emelang
emeng
emetse
emhlabeni
emirates
emisa
emisoa
emma
empa
emva
en
ena
enca
encrypted
ene
eng
engelane
engels
engineering
england
english
enjene
enkulu
enolo
enta
entang
ente
entertainment
entilwe
entities
entjur
entoa
entse
entseng
entsoe
entsoeng
entswe
entsweng
entwa
entwe
enyehelo
enyo
eo
eohle
eona
ep
epa
epahala
epahalang
epe
epehi
epidemiol
epidemiology
epo
eptjoang
equatorial
er
era
erfurt
eric
eritrea
erlangen
ermesinde
erythrina
es
esale
eseng
esita
eskom
essen
essentialmedicines
established
estandarte
estcourt
estonia
eswatini
et
etela
etella
etelletseng
etelletsoeng
ethiopia
etleha
etlehile
ets
etsa
etsahala
etsahalang
etsahale
etsahetse
etsahetseng
etsang
etsapele
etse
etselitsoe
etselitsoeng
etsisa
etso
etsoa
etsoang
etsoe
etsolloa
etsopele
etswa
etswang
etswe
eups
europa
europe
european
evangeli
evic
ewn
ex
executive
exist
exivulweni
experience
eya
eze
f
fa
face
facebook
fact
factbook
facto
facts
factsheets
fair
fall
falla
fallela
family
fana
fanang
fane
fanoa
fanoe
fanoeng
fanwa
fapa
fapafapana
fapana
fapane
fapaneng
fapanyetsana
farm
fast
fatima
fats
fax
fe
featuring
feberu
february
federal
federalization
federation
fedisa
fedtraw
feela
fela
feleng
feletseng
felisa
feliseng
felisitsoeng
felisoa
fella
felletseng
felloa
fellwa
female
feme
ferekaneng
ferrand
ferro
feta
fetang
fetela
feteletseng
fetelletseng
fetesisa
fetileng
fetisa
fetisisa
fetisitsoe
fetisoa
fetiswa
fetoha
fetohang
fetohe
fetohile
fetola
fetolela
fetoleloa
fetoloa
fetotse
fetotsoeng
fever
fezile
fgm
fia
fifa
fight
fighters
fihla
fihlela
fihlella
fihlile
file
filimi
filiming
film
filosofi
fin
financial
fine
finland
fire
first
fish
fitisisa
five
flag
flagga
flagge
flags
flemish
fletcher
florence
flu
fm
fo
fofa
fofane
fokoditse
fokola
fokolang
fokotsa
fokotseha
fokotsehile
fokotseng
fola
folaga
folakha
foleng
following
fontsize
football
footprint
for
fora
forbes
fordham
foreisetata
foreistata
forest
former
formoso
formula
fort
fosahetse
fosahetseng
foto
foundation
fountain
four
fr
frameless
franc
france
franchise
francis
frank
frankfort
frankfurt
frederick
free
freedom
freguesia
freiburg
freistata
french
frene
frere
friedrich
friends
frigates
from
fromea
front
fs
ft
fu
fumana
fumanang
fumane
fumaneha
fumanehang
fumanehe
fumaneng
fumanoa
fumanoang
fumanoeng
fumanwa
fumanwe
fuoa
fuoe
fuoeng
fuputsa
furalla
fuselage
futa
futhi
futhumatsang
futsanehileng
fuwa
fuwe
g
ga
gabon
gaborone
gabriel
gaffes
gallery
gambia
gape
gardens
gare
gauteng
gazankulu
gazette
gdp
ge
gedleyihlekisa
gelb
gelsenkirchen
general
genital
geography
george
georgia
gera
germany
gertrude
ghana
gibraltar
gif
giles
ginwala
girls
given
giyani
gje
gladbach
glencore
global
gloria
gmrbt
gmrct
gmrmg
go
goba
godimo
golden
golo
gomme
good
google
gordhan
gordin
gore
gornji
gospel
gov
govan
governadorat
government
governments
governorate
gqabi
graaff
grahamstown
gran
grand
graph
gray
great
greater
greek
grenoble
grense
grey
gridcolor
griffith
grinnell
group
growing
guardian
guatemala
guayaquil
gue
guerra
guide
guinea
gulf
gupta
guptas
gurira
gwa
gwede
h
ha
haba
habeli
habo
habobebe
habonolo
had
hae
haeba
haesale
hafeela
haga
hagen
haggard
hague
haha
hahiloe
hahiloeng
hahoa
haholo
haholoanyane
haholoholo
hajoale
hajwale
hakaalo
hakae
hakangwa
hakanngoa
hakanya
hakanyetsoa
hakanyetsoang
hale
halefile
hall
halofo
halofong
hamburg
hamburger
hamilton
hamm
hammoho
hamorao
hampe
hamphani
hamphaning
hana
hanana
hanang
hanekom
hanela
haneloa
hang
hangata
hanghang
hankey
hanne
hanoa
hanover
hanse
hanseatic
hansestadt
hantle
hantlentle
hanyane
hanyetsa
hanyetsanang
hanyetsoe
hao
haola
hapa
hape
hapile
hapileng
har
hara
harding
hare
hareng
harms
harris
harry
has
hasana
hasaneng
hasanngwa
hase
hatella
hatelletse
hatholike
hatisa
hatisitse
hatisitsoeng
hau
haufi
haufinyane
have
havre
he
head
healdtown
health
heath
hector
heidelberg
height
heilbronn
hektare
helen
helena
help
helsinki
hema
hemik
hemorrhagic
henry
hepatitis
herne
herring
herschel
herzegovina
herzegowina
hesse
hevea
hi
high
hildesheim
hill
hillary
hilomithara
hina
hindi
hip
hira
hiriloeng
his
hissflagge
histori
historical
historing
history
hit
hitler
hits
hiv
hlaba
hlabilweng
hlaha
hlahang
hlahe
hlaheletseng
hlahella
hlahellang
hlahelletseng
hlahetse
hlahetseng
hlahile
hlahileng
hlahisa
hlahisang
hlahisitse
hlahisitsoe
hlahisitsoeng
hlahisoa
hlahisoang
hlahiswa
hlahlama
hlahlamang
hlahloba
hlahlojoa
hlahlojwa
hlaka
hlakanego
hlake
hlakile
hlakileng
hlakisa
hlakola
hlakoloa
hlakotsoe
hlakubele
hlalosa
hlalosang
hlalositse
hlalositsoe
hlalositsoeng
hlalosoa
hlalosoang
hlama
hlano
hlapa
hlapanngoa
hlapanya
hlaphohelwa
hlaseloa
hlatsa
hlatswa
hle
hleng
hlephileng
hlile
hlileng
hlo
hloahloa
hloahloeng
hloekileng
hlohlelets
hloho
hloka
hlokahala
hlokahalang
hlokahale
hlokahetse
hlokang
hloke
hlokehang
hlokeng
hloko
hlokoa
hlokofatsoa
hlokolosi
hlokomela
hlokomele
hlokomelehang
hlokomelwa
hlokometse
hlokomoloha
hlola
hloleha
hloloa
hlomamisoa
hlometseng
hlompha
hlomphehang
hlomphuoa
hlooho
hlophisa
hlophisitsoeng
hlotse
hlotseng
ho
hoa
hoang
hoba
hobane
hobaneng
hodima
hodimo
hoek
hoffmann
hofihlela
hogsback
hohela
hohle
hoholo
hoisa
hoja
hokahana
hokahane
hokahanya
hola
holdings
hole
holela
holeseileng
holetse
holim
holimo
holisa
holo
holstein
holy
home
homeland
homelands
hona
hong
honorary
honthinente
hoo
hop
hopkins
hopola
hore
hoseng
hotloha
house
how
hoya
hp
html
http
https
hub
hubei
hula
hulang
humansdorp
humphrey
hungarian
hungary
hunter
hut
i
iafrica
iai
ialoveni
iberia
ice
iceland
id
iea
iewi
if
ifp
ifpi
ihr
ii
iii
ikamahanya
ikarabella
ikarabellang
ikarola
ikemela
ikemetse
ikemetseng
ikemiselitse
ikemiselitseng
ikemisetsa
ikgethang
ikgethileng
ikhethang
ikhethileng
ikhetholla
ikhula
ikoahlaela
ikopanya
ikutloa
ila
ilafalo
ile
ileng
ilia
im
ima
image
imagesize
imax
imo
imoloho
imong
in
ina
inactivated
inanda
inauguracion
including
increment
indasteri
independent
index
india
indian
indicator
indigenous
indo
indonesia
industrial
ine
inehela
infection
infectious
infibulation
infinity
influenza
ing
ingolisa
ingolstadt
initiative
inkatha
inside
instagram
instead
institut
institute
int
intercontinental
international
internet
inthaneteng
into
iol
ios
iowa
ipa
ipakile
ipapisitse
ipatileng
ipelaetsa
ipha
ipiletsa
ipitsang
ipl
iponahatsa
iprage
ipsos
ipusang
iqapetsoeng
iran
iraq
ireland
ireletsa
ireletso
irvin
is
isa
isbn
isi
isiraele
island
islands
iso
isoa
israel
issn
issues
it
italy
itekanetseng
ithali
ithuta
ithutile
itiso
itlama
itlamme
itlhalosa
itoe
itokisetsa
itokolla
itokolle
its
itse
itseng
itshetlehile
itshetlehileng
itsoe
itsoeng
itunes
iu
iwa
izikhothane
izikothane
izola
j
ja
jack
jackson
jacob
jala
james
jamestown
jan
janeiro
jansenville
january
japane
japanese
jarollotsoeng
jarri
jarve
jason
jazeera
jazz
je
jean
jeff
jeffreys
jeleng
jena
jenner
jeokrafi
jeremane
jesenice
jesu
jesus
jete
jimmie
jimmy
jj
jk
joa
joala
joale
joalo
joaloka
joalokaha
joang
joe
johann
johanne
johannesburg
john
johns
johnson
joins
jonas
jonathan
jones
jordan
jose
joseph
joubertina
journal
joyous
jpg
jr
jt
jul
julius
july
june
jungle
juniors
junk
justice
justify
justnje
jwala
jwale
jwalo
jwaloka
jwang
jz
k
ka
kabelo
kabinete
kabo
kabza
kae
kaha
kahare
kahisano
kahlolo
kahlolong
kaho
kaholimo
kahoo
kajeno
kakaretso
kakhulu
kala
kalafo
kalimbwe
kalmar
kamano
kamehla
kamma
kamnika
kamo
kamohelo
kamoo
kamora
kampo
kanale
kananelo
kang
kangwane
kankere
kanna
kannang
kantle
kantoro
kanye
kaofela
kapa
kapele
kappa
karabelo
karabo
kareedouw
karl
karlsruhe
karogs
karohano
karolelano
karolo
karolong
kassel
kasumba
kate
kathrada
katleho
katoloso
katse
kau
kazakhstan
ke
kei
keila
keiskammahoek
keke
keketseho
kelello
kelellong
keletso
kemiso
kena
kenana
kenang
kene
kenela
kenele
kenella
keng
kennedy
kenngoa
kentani
kenton
kentse
kentsoeng
kenya
kenyeleditse
kenyelelitsoe
kenyelets
kenyeletsa
kenyeletsang
kenyeletsoa
kenyeletswa
kenyellelitsoeng
kenyelletsa
kenyelletsang
kenyelletsoa
kerala
kereke
kerekeng
keresemese
ketane
kete
keteka
ketelo
ketsahalo
ketsahalong
ketso
ketsong
kg
kgafetsa
kgahlano
kgahlanong
kgale
kgalekgale
kgalema
kganyetsano
kganyetso
kgatello
kgatiso
kgau
kgetha
kgethang
kgethe
kgethilweng
kgetho
kgethollo
kgethwa
kgohlela
kgolo
kgona
kgone
kgopolo
kgothalets
kgothaletsa
kgothaletswa
kgothaletswe
kgothatsa
kgutla
kgutleng
kgutshwane
kgwebo
kgwedi
kgweding
kgweditharo
khabinete
khabone
khaello
khafetsa
khahlano
khahlanong
khahliloe
khahlisa
khaitseli
khakoloa
khale
khalemela
khampani
khamphani
khang
khanna
khanya
khanyetso
khaola
khase
khatello
khatiso
khatisong
khato
khau
khauta
khaya
khelobedu
khetha
khetheha
khethehileng
khetheloa
khethile
khethiloe
khethiloeng
khetho
khethoa
khetholla
khethollang
khethollo
khetholloang
kho
khoebo
khoebong
khoekhoe
khoeli
khoeling
khohlano
khohlela
khoisan
khokahano
kholehong
kholisong
kholo
khomarela
khomarelang
khomishene
khomphutha
khona
khonang
khoneha
khonehe
khopi
khopolo
khosatsana
khothalelitse
khothaletsa
khothaletso
khothaletsoa
khothalletsang
khothatso
khotla
khotso
khotsofale
khotsofetse
khoutu
khoza
khubelu
khulubuse
khumalo
khusela
khutla
khutlela
khutlisa
khutliselitsoe
khutlisetsa
khutlisetsoa
khutlisetsoe
khutlisitsoe
khuts
khutsitse
khutsitseng
kibaki
kiel
kile
kileng
killer
kils
king
kingdom
kingdoms
kings
kirkwood
kis
klipplaat
km
know
known
ko
koa
koahela
koahelang
koala
koalang
koalloa
koaloa
koblenz
kobo
koetlisa
koetliso
koetsoe
kofi
kohtla
kokoana
kokwanahloko
koleche
kolecheng
koloi
kolone
koloti
koluoa
komga
komisi
komiti
komiting
kommun
kong
kongo
konjice
konteraka
kontinente
kontinenteng
kopa
kopana
kopanang
kopane
kopanela
kopanelo
kopaneng
kopanetsoeng
kopanetsweng
kopanngoa
kopano
kopanong
kopantseng
kopantsoe
kopantsoeng
kopanya
kopanyang
kopanyo
koper
kopile
kopo
koporasi
korea
koro
kosovo
kotana
kotara
kotlo
kotloloho
kotsi
kotsing
kou
kouga
koung
kragujevac
kraj
krakeel
krako
kraljevo
kranja
krefeld
kreisfreien
kreste
kro
kroatia
kroonstad
kruger
kruisfontein
ku
kudu
kula
kulang
kurdistan
kurow
kutlo
kutloelo
kutloisiso
kw
kwa
kwaai
kwaito
kwandebele
kwazulu
kwis
kyiv
l
la
labels
labo
labobeli
labohlano
labone
laboraro
lady
laeborari
laela
laetse
lahla
lahleheloa
lahlehelwa
lahlehetsoe
lakatsa
lakes
lancet
land
lands
lane
langa
languages
lanka
laola
laolang
laoloa
laoloang
lapeng
las
late
latela
latelang
lateloa
latelwa
latex
latin
latola
latswa
latvia
law
le
lea
league
leano
learning
leba
lebaka
lebala
lebaleng
lebatooa
lebatowa
lebeletsoeng
lebelletsoeng
lebelo
lebenkele
lebisa
lebisang
lebisitse
lebisitseng
lebisoa
lebitso
lebitsong
leboa
leboea
lebokose
lebopo
lebopong
lebotho
lebowa
lebowakgomo
leboya
lecha
lechato
leeme
leeto
leetong
leetsi
lefa
lefapha
lefapheng
lefase
lefats
lefatshe
lefatsheng
lefe
lefelloeng
lefelo
lefifi
lefile
lefisa
left
lefu
lefuba
lefubelu
lefung
lefutso
legal
lego
leha
lehae
lehile
lehileng
lehlabathe
lehlakore
lehlakoreng
lehlatsipa
lehlokoa
lehloyo
lehoatata
leholimo
leholo
leishmania
leka
lekala
lekana
lekanang
lekane
lekaneng
lekang
lekantsoeng
lekanya
lekanyetsoang
lekgetlo
lekgolo
lekgotla
lekhetho
lekhetlo
lekhetlong
lekholo
lekholong
lekhotla
lekhotleng
lekile
lekoa
lekola
lekolulo
lekunutu
lelapa
lelapeng
leleka
lelekoa
lelekoe
lelekwa
leleme
leloko
lema
lemele
lemoha
lemositse
lena
lenane
lenaneng
lenaneo
lenaneong
leng
lengolo
lenngoeng
lentsoe
lentsoeng
lentswe
lenyalo
lenyalong
lenyenyane
leo
leoatle
leoatleng
leonard
leone
leoto
lepatong
lepelle
lepera
lepheo
leq
leqe
leqephe
leqepheng
leqhubu
leralla
lerato
lereo
leribe
lero
lerotholi
lerumo
leruo
les
lesea
lesela
leseli
leseling
leshome
leso
lesole
lesotho
letaba
letamo
lethathamo
lethathamong
letheka
letho
lethu
letlalo
letlalong
letlapa
leto
letona
letoto
letotong
lets
letsatsi
letsatsing
letse
letshehadi
letshollo
letshwao
letshwele
letsie
letsoai
letsoalo
letsoang
letsoho
letsohong
level
leverkusen
lewski
lexi
lgbt
lheim
li
lia
liakhente
lialbamo
liaparo
liatlana
libaka
libakeng
libaktheria
libanka
libeke
liberia
libese
libeteri
libetsa
libilione
libini
liboka
libolo
libomo
libopeho
libui
libuka
libya
lichaba
lichate
lichelete
liechtenstein
lieha
liehisa
liemahale
liente
lieta
lifaqane
lifate
life
lifilimi
lifiliming
lifofane
lifolakha
liforeimi
lightgrey
lihlahisoa
lihlekehleke
lihlekehlekeng
lihloela
lihlomo
lihlong
lihlooho
lihlopha
lihlopheng
lihokela
lihokelo
lihora
liithuti
lijalo
lijana
lijo
lik
likamano
likarabo
likarete
likarohano
likarolo
likaroloana
likarolong
likatleho
likepe
liketane
likete
liketsahalo
liketsahalong
liketso
likhaba
likhakanyo
likhang
likhase
likhato
likhau
likheo
likhetho
likhethong
likhoebo
likhoele
likhoeli
likhohlano
likhokahano
likhomo
likhopolo
liki
likobo
likokoana
likolo
likolobe
likoloi
likolone
likoloto
likoluoa
likomiti
likopano
likopanong
likopi
likotlo
likotsi
lilekane
lilemo
lilemong
liletsa
lille
limaske
limela
limilione
liminerale
limited
limithara
limo
limpopo
linaha
linaheng
linakeng
linako
linaleli
lincoln
line
linegrey
linepe
lines
ling
lingaka
lingoliloeng
lingoloa
link
linoka
linomoro
lintho
linthong
lintlafatso
lintlha
lintoa
linyeoe
lion
lipakeng
lipaki
lipalangoang
lipale
lipalesa
lipalo
lipampiri
lipapali
lipapatso
lipatlisiso
lipehelo
lipelaelo
lipeo
liperesente
liphallelo
liphate
liphatlalatso
liphello
liphepheng
liphephetso
liphetho
liphetoho
liphio
liphoofolo
liphoso
liphuputso
lipina
lipolotiki
lipolotiking
lipopae
lipotso
lippu
liprofinse
liprofinseng
lipuisano
lipuisanong
lipuo
lipuong
liqeto
liqoso
liranta
lirekoto
lisano
lisebelisoa
lisekoere
lisele
lisenthimithara
list
listiska
litaba
litabeng
litaelo
litaki
litebello
litefiso
litefo
liteishene
litekanyetso
litekanyo
liteko
litemana
literature
litereke
lithaba
lithahasello
lithane
litharollo
litheipi
lithekiso
litheko
lithethefatsi
lithibela
lithibelo
litho
litholoana
lithuania
lithunya
lithuto
lithutong
litla
litlaleho
litlamong
litlamorao
litlatse
litlhahiso
litlhaku
litlhaloso
litlhapi
litlhare
litlhaselo
litlhoko
litloaelo
litloholo
litlolo
litlotla
litokelo
litokisetso
litokomane
litoropo
litoropong
lits
litsamaiso
litsebi
litsebo
litsela
litselana
litsi
litsing
litso
lituania
litumelo
livaerase
live
liyuniti
ljubljana
lla
lo
loa
loana
loanela
loants
lobola
local
location
lockdown
locke
loetse
lohle
lokela
lokelang
loketse
loketseng
lokisa
lokisoa
lokisoe
lokolla
lokolloa
lokolloe
lokollotsoe
lokollotsoeng
lokolohile
lokolohileng
loksa
loma
lona
london
long
longwa
lonmin
los
louis
louterwater
love
lovedale
lower
lozengy
lrsbc
lrscm
lrscv
lt
lu
luanda
ludwigshafen
lufthansa
lui
luka
lula
lulang
lule
lumela
lumella
lumellana
lumellane
lumelle
lumelloa
lusaka
luthuli
lutse
luxembourg
lva
lyon
lysistemon
m
ma
maaforika
maafrika
maano
maarabia
maardu
maaztec
mabaka
mabapi
mabatoweng
mabedi
mabeli
mabena
mabenkele
mabhija
mabifi
mabitso
mabopo
mabotho
mabothobotho
maburu
macha
machaba
machabeng
machine
maclear
madagascar
made
madeira
mademokrate
madi
madiba
madikizela
mading
madrid
madulo
maduna
maekerofounu
maemo
maemong
maeto
maeurope
mafahla
mafapha
mafatsheng
mafelong
mafeteng
mafokate
mafolofolo
mafora
mafu
mafung
mafura
magashule
magazine
maghreb
mahaeng
mahala
mahareng
mahe
mahlaba
mahlabisa
mahlakore
mahlale
mahlano
mahlo
mahlobo
mahlong
mahlonoko
mahokahanyi
maholo
maikemisetso
maiketsetso
maikutlo
mail
main
maina
maindia
maisy
maiteko
majoe
major
mak
makae
makala
makaleng
makana
makasine
makasineng
makatsang
make
makeisheneng
makes
makgetlo
makgoba
makgolo
makhaleng
makhapetla
makhetlo
makholo
makhopho
makhotla
makhubu
makomonisi
mala
malagasy
malahleni
malapa
malapeng
malaria
malawi
malaya
malaysia
malema
maleme
malephane
mali
malibamats
maloa
maloetse
maloti
malta
malwetse
mamela
mamella
mamello
mameloa
mamina
mamohato
mamoseleme
manageable
management
mananeo
mandatory
mandela
mane
mang
mangata
mangaung
mangolo
mangwe
mannheim
mantaha
mantashe
mantlha
mants
mantsiboeeng
mantsoe
manuel
manyalo
manyesemane
manzana
maoatle
maore
maoto
map
mapa
maparamente
mapeng
maphorisa
maplandia
mapolesa
maqeba
maqhama
maqhubu
maqhutsu
marabi
maraka
marang
mararo
march
marena
mareo
maria
maribor
mariha
marikana
maritime
maro
maroma
marotholi
marseille
martin
maruleng
marvel
marx
mary
masea
masekela
masela
maselese
masepala
maseru
mashala
mashome
masilela
masimong
mask
maske
masks
masole
master
mastertone
maswao
matamela
materiki
matha
mathata
matheba
mathela
mathoasong
mathomo
matichere
matjhaba
matla
matlafala
matlafatsa
matlo
matlotlo
matona
matric
mats
matsapa
matsatsi
matsatsing
matsete
matshwafo
matshwafong
matshwao
matshwele
matsoalloa
matsoele
matsoho
matuma
mau
mauritania
mauritius
maverick
mawala
max
maxwele
may
mayotte
mazeppa
mazulu
mbeki
mbete
mbhashe
mbombela
mbuyisa
mccain
mccarthy
mcconnell
mcdonald
mcebisi
mckune
mdr
me
meaho
measles
mebala
mebuso
mecha
mechini
media
mediacentre
medical
mediterranean
meea
meeli
meepo
mefokolo
mefuta
mehala
mehato
mehla
mehlala
mehlano
mehleng
mehloling
meholo
mehopolo
meipiletso
mekete
meketeng
mekga
mekgatlo
mekgwa
mekha
mekhahlelo
mekhatlo
mekhoa
mela
melaetsa
melao
melaoana
melapo
melata
melato
mele
melemo
meleng
meli
melumo
mema
mena
menahano
mene
menehelo
meng
mengata
menwana
menwang
menyenyane
menyenyetsi
menyetla
mepheo
merabe
merafo
merafong
meraro
merero
meriana
mers
meru
merusu
mesebetsi
mesebetsing
mesifa
meta
metal
metantsho
meteo
methapo
metlae
metro
metropolitan
metse
metseng
metsi
metsimaholo
metsing
metso
metsoako
metsoalle
metsotso
metsotsoana
metz
mexico
meya
mg
mhlaba
mhlongo
mi
michael
michelle
michigan
microorganism
mid
middle
middledrift
mie
miguel
mike
milan
miles
milione
military
million
milos
mine
mineworkers
mining
minisi
minister
mino
minsk
mitch
mlambo
mm
mmala
mmalwa
mmasepala
mme
mmedi
mmele
mmeleng
mmesa
mmino
mmogo
mmoho
mmole
mmopi
mmuelli
mmus
mmusi
mmuso
mnquma
mo
moafrika
moahi
moahlodi
moahloli
moamoheli
moaparo
mobishopo
mobu
mocha
mocheso
mochine
mochini
mochochisi
model
modi
modulasetulo
modumo
moe
moea
moeeng
moelelo
moeletsi
moeli
moeling
moemedi
moemeli
moen
moena
moers
moeta
moetapele
moeti
moetlo
moetlong
moetsi
mofani
moferefere
mofets
mofolo
mofumahadi
mofumahali
mofuputsi
mofuta
mogwadi
mohaho
mohala
mohale
mohanyetsi
mohatelli
mohato
mohau
mohla
mohlabani
mohlahisi
mohlahlami
mohlahlobi
mohlahlobisisi
mohlala
mohlankana
mohlodi
mohlohlelletsi
mohlokomedi
mohlokomeli
mohloli
mohlomong
mohlophisi
moho
mohoebi
mohokare
moholo
mohoo
mohope
mohopolo
moifo
moithuti
moitseki
moka
mokaba
mokatong
mokena
mokete
moketeng
mokga
mokgahlelo
mokgatlo
mokgethwa
mokgwa
mokha
mokhatlo
mokhatlong
mokhehle
mokhethoa
mokhoa
mokhotlong
moko
mokokotlo
mokoloko
mokoloto
mokopi
mokotla
mokuli
molaetsa
molao
molaodi
molaoli
molaong
molaotheo
molato
molatong
moldova
molekane
molemo
molemole
molemong
moleto
molimo
molodi
moloko
molomo
molula
molulasetulo
molumo
momori
mona
monaco
monate
mong
monghadi
monghali
mongobo
mongodi
mongoli
mongolo
monna
monte
montenegro
montpellier
monumente
monyane
monyenyane
monyetla
moo
mookameli
mopalamente
mopani
mopapa
moporesidente
mopresidente
moprofesa
moputso
moqapi
moqebelo
moqhaka
moqolotsi
moqosi
moqotetsane
mor
mora
morabe
morago
morali
moralo
morao
morekisi
morena
morero
morethetho
morgans
moriana
morija
morobe
morocco
moroko
moroto
mortality
moruo
moruong
moruti
mosadi
mosali
moscow
mose
mosebeletsi
mosebetsi
mosebetsing
moshanyana
moshoelella
moshoeshoe
mosifeng
mosireletsi
most
mosuoe
motha
mothapokutlo
mothating
mothehi
motheo
motheong
mother
motho
mothong
motjeko
motjha
motlakase
motlanthe
motlatsi
motle
motona
motor
mots
motsamaisi
motsamao
motsana
motse
motsekgolo
motsemoholo
motseng
motsepe
motsheanong
motsho
motso
motsoako
motsoalle
motswako
motto
mount
mouth
movement
moya
mozambiki
mozambique
mp
mpa
mpe
mpefala
mpeng
mphalane
mphela
mpho
mpshe
mpumalanga
ms
msaki
mshini
msholozi
mthembu
mthethwa
mtintso
mtn
mtskheta
mu
muelli
mugabe
multi
multidrug
mumps
munich
municipal
municipalities
municipality
munusamy
murray
murumba
museum
museveni
musiamo
music
musicinafrica
musisi
muso
musong
must
mutilation
mutual
my
myanmar
mycobacterium
myeni
mzansi
n
na
nacional
naga
nageng
naha
nahana
nahanang
nahane
nahanoa
nahanoang
naheng
nai
nakamoto
nako
nakoana
nakong
nakwana
nalane
nalaneng
nale
nam
nama
name
namela
namibia
namibiahttps
namibian
nang
nantes
naphtha
narendra
narva
nasa
nascar
nasrec
natal
natala
nation
national
nations
native
nato
natswe
naude
ncbi
ncha
nchafatsa
nchengladbach
ncipe
ncov
ndebele
ndlambe
ndpp
ne
near
nec
neilia
nek
nelson
nelspruit
nene
neng
nepahala
nepahetse
nepahetseng
nepal
nephron
nepo
neringa
net
netanyahu
nete
netefalitse
netefalitsoeng
netefatsa
netefatswa
netherlands
network
neuss
never
new
news
newspaper
ng
nga
ngaka
ngangisano
ngata
ngcobo
ngcuka
ngema
ngo
ngoana
ngoanana
ngoe
ngola
ngolisoa
ngolla
ngongoreho
ngotse
ngotsoe
ngotsoeng
ngotsweng
ngqushwa
nguni
ngwana
ngwathe
nh
nha
nhlanhla
nhlokomhaka
ni
nicholson
nieu
nigeria
nih
nile
nine
nis
nka
nkandla
nkang
nke
nkeloa
nkile
nkileng
nkiloeng
nko
nkoa
nkoang
nkoe
nkong
nkosazana
nkumpi
nkuoa
nkuwa
nlm
nlscs
nna
nne
nnete
nngwe
nnyane
no
nogueira
noha
noka
nokwe
nomathamsanqa
nomoro
nompumelelo
nomzamo
nonkanyiso
norge
north
northern
northwest
norway
noshir
not
note
novel
november
novi
now
nowy
npa
nqamakwe
nr
nster
ntantala
ntaramane
ntat
ntate
ntha
ntho
ntja
ntjha
ntlafala
ntlafalitsoe
ntlafalitsoeng
ntlafatsa
ntlafatso
ntlafatsoa
ntle
ntlha
ntlo
ntlong
ntlu
ntoa
ntoeng
ntombela
nts
ntse
ntsebeza
ntseng
ntsha
ntshetsa
ntshetsopele
ntshwa
ntuli
ntwa
nueva
num
number
nyala
nyalana
nyalane
nyaloa
nyaloang
nyane
nyatsa
nyatsang
nyatso
nyatsoa
nyatsuoa
nyelisa
nyeliso
nyenyane
nyenyefatsa
nyeoe
nyeoeng
nyetse
nyetseng
nyewe
nyn
nyokgoloha
nyoloha
nyolohela
nyolohile
nyutlelie
nz
nzo
o
oa
oaea
oaelitsoe
oaelitsoeng
oaetsa
oaetsanoang
oaetso
oaetsoa
oafo
oana
oanang
oane
oaneleha
oaneng
oants
oanyane
oao
oara
oarellang
oarelo
oareloa
oaro
oaroa
oaroe
oarong
oaruoa
oasoa
oazcg
obama
obc
oberhausen
obotsi
observatory
obsolete
obverse
occupied
ocean
oceania
october
odvfm
odvpt
oela
oele
oenyang
oenyeho
oereng
oeroe
oeu
of
ofe
offenbach
official
ofisi
ohanyetso
ohle
ois
okamela
okametse
okametseng
okelo
okets
old
oldenburg
ole
olhfu
olhmc
oli
oliver
olo
olong
omella
omis
ommeng
omo
omoseye
on
ona
onale
one
ong
online
only
oo
oohle
oona
op
opang
opelwa
open
opereishene
opinion
or
orange
order
org
organisation
organization
orientation
origin
original
orle
orozco
orthodox
os
oskarshamns
oslo
osnabru
other
others
otla
otlego
otloa
otlolla
ottoman
ou
oulu
out
outbreak
over
oviston
own
oxford
oyster
ozone
p
pa
paatulan
pac
pacific
padomju
page
paka
pakang
pakeng
pakistan
palamente
palamenteng
palatinate
pale
palin
pallo
palmas
palmer
palo
palong
pampiri
pampiring
pan
panama
pandemic
pandemics
panther
papali
papaling
paper
papua
par
paradise
paramente
paramenteng
paris
parishes
park
parnu
parole
part
party
parys
pasteur
patensie
paterson
pathogen
patiloeng
patlisiso
patricia
paul
pcr
pdf
pearce
pearston
peddie
pedi
pefo
peipi
peiso
peisong
pejana
pel
pela
pele
pelehi
peleka
peli
penarol
pennsylvania
penta
peo
people
pepa
pepeneneng
pepesetsoa
pepesetswa
pepeso
pepesoa
pepesong
pepeswa
peresente
period
persia
pertussis
peru
peter
peto
petrus
pforzheim
pg
phaella
phaello
phahama
phahame
phahameng
phahamisa
phahamisitse
phakathi
phalaborwa
phallela
phallelang
phallo
phapang
phapanyetsano
pharaletseng
pharalla
pharalletseng
phases
phatlaladitse
phatlalalitse
phatlalalitsoe
phatlalalitsoeng
phatlalatsa
phatlalatsang
phatlalatse
phatlalatso
phatlalatsoa
phatlalatsong
phatlalla
phatloha
phato
phefumoloho
pheha
phehisana
phehisano
phekola
phekolo
phekoloa
phela
phelang
pheletso
pheletsong
phello
phepelo
phephetsa
phepo
pherekano
pherekgong
pherekhong
pheta
phetha
phethahala
phethahatsa
phethahatso
phethela
phethile
phetisetso
phetiso
phetoang
phetohelo
phetoho
phetolelo
phetseng
phetwaphethwang
phetwaphetwang
phihlello
philadelphia
philippines
philosophy
pho
phokotso
pholletsa
pholoha
pholohile
phomola
phoofolo
phoso
phuc
phumants
phumantsho
phumzile
phupjane
phuptjane
phupu
phuputso
phyllis
piano
piet
pietermaritzburg
pieterson
pillay
pina
ping
pings
pitch
pitika
pitso
pizza
pl
place
places
planning
platinum
plaza
plotarea
plotdata
plus
pmc
pmid
pmr
pneumonia
png
po
pokello
poland
polanete
polao
polasetiki
polatinamo
polelo
poleloana
polelong
police
polio
polisario
politics
polokeho
polokelo
polokwane
polymerase
polysaccharide
pompo
ponahatso
pono
ponts
poone
pop
popelo
popelong
poperinge
popo
populated
population
populism
poraefete
porofense
porofenseng
port
porto
portuemanie
portugal
portuguese
position
poso
post
postpartum
pota
potileng
potiloe
potlakileng
potlako
potoloha
potolohileng
potoloho
potso
potsong
pp
pr
practice
prague
pratap
pratt
pravin
preez
premier
present
president
presidential
presley
press
pressreader
pretoria
prevention
pri
price
priscilla
production
professional
profinse
profinseng
programs
project
projeke
promises
protection
protective
protheine
protocol
provence
provense
province
provinces
psychology
pt
ptslvap
ptuja
pub
public
publications
published
pudungwana
puisano
puisanong
pula
pule
pulungoana
puo
puong
puonneng
pus
puso
pusong
putlama
pw
px
pyha
q
qacha
qadile
qaka
qala
qalang
qale
qaleho
qalile
qalileng
qalo
qalong
qalwa
qantas
qapiloeng
qaptjoa
qaqileng
qenehelo
qeta
qetela
qetella
qetellong
qetile
qetileng
qeto
qhala
qhaloa
qhekella
qhelela
qhibiliha
qhoma
qoba
qobella
qobello
qobelloa
qojoa
qolora
qosa
qosang
qositsoeng
qoso
qosoa
qosoang
qosoe
qoswa
qothisana
qotsa
qotsitsoeng
quo
quthing
qwaqwa
r
ra
rabara
race
racontas
radebe
radio
radiographs
rafael
rafilosofi
rahistori
railway
rakvere
rala
ralipolotiki
ralitaba
ramaphosa
ramatsete
ramotse
rand
randburg
rang
ranjeni
ranta
rao
rapper
rarahaneng
rarolla
ras
rasaense
rashea
rata
ratang
rateheng
ratoa
ratoang
ray
raymond
rd
re
rea
reaction
reagan
real
reboda
rec
recklinghausen
recognition
record
red
referense
reformed
regedoura
regensburg
region
regional
regions
reha
rehoa
reincorporated
reinet
reka
reke
rekiloe
rekisa
rekisitse
rekisoa
rekisoang
rekoa
rekota
rekoto
relations
release
releases
renal
renault
reng
rennes
repaboliki
rephabliki
rephaboliki
report
republic
republican
republika
republikas
rera
reretsoe
reretsoeng
reretswe
rerile
reriloeng
reroang
reschorente
reschorenteng
research
researchers
resistance
respiratory
retrieved
return
reuters
reutlingen
reverse
review
reviews
revolutionary
rezamqds
rgb
rhein
rhine
rhineland
rhodes
rhodesia
ri
richard
rift
riga
right
rijeka
rin
ringback
rio
riphaboliki
risa
rise
ritter
river
rkiye
rna
ro
road
roala
robala
robben
robbins
robeli
robert
robinette
robong
rock
roelf
roger
roma
romance
romania
rome
romela
romella
romelloa
romeloa
rona
ronnie
rooyen
ropoha
roque
rorisa
rorisoa
rostock
roth
rotterdam
rouen
route
rouxville
roy
rth
rttemberg
ru
rua
rubber
rubella
rubeola
ruile
ruileng
rumble
ruruha
russia
ruta
ruth
rutoa
rwanda
ryan
rybnitsa
rzburg
s
sa
saa
saarbru
sabc
sachs
sacp
sad
sadc
sadr
saena
saenetse
saennweng
saense
sahara
sahel
sahistory
sahrawi
saigon
saint
sale
salt
salzburg
salzgitter
sam
samt
samuel
san
sandile
santa
santiago
santos
sarah
sarajevo
saratov
sars
sasha
sasm
sasolburg
satului
saxonwold
saxony
sayense
sca
scalemajor
scaleminor
scandal
schabir
schistosomiasis
schleswig
school
science
sciences
scorpion
scott
scranton
scrolla
se
sea
seabo
seafrikanse
searaba
searabia
seat
sebaka
sebakeng
sebapadi
sebapali
sebastian
sebedisa
sebedise
sebediseng
sebedisetswang
sebediswa
sebediswang
sebeemhaltata
sebele
sebeletsa
sebeletsang
sebelisa
sebelisana
sebelisang
sebelise
sebelisetsoa
sebelisitse
sebelisitsoe
sebelisitsoeng
sebelisoa
sebelisoang
sebelitse
sebelitseng
sebete
sebetsa
sebetsana
sebetsanang
sebetsang
sebetse
sebetseng
sebini
seboka
sebokeng
seboko
sebopeho
sebui
seburu
sechaba
sechabeng
section
sedache
see
seea
seeiso
seemahale
sefa
sefahleho
sefate
sefe
sefofane
sefora
sefuba
segerike
sego
segujarati
sehla
sehlahisoa
sehlekehleke
sehlekehlekeng
sehlohlolong
sehlooho
sehloohong
sehlopha
sehlopheng
seholo
sehopotso
seinterlingue
seisimane
seithuti
sejana
sejeremane
sejoale
sejwalojwalo
sekepe
sekete
sekgahla
sekhahla
sekholopane
sekhothane
sekhukhu
sekoaelo
sekoahelo
sekolo
sekolong
sekoloto
sekorea
sekotwana
selatine
sele
selekane
selelele
selemo
selemong
seletsoa
self
seliba
seme
semelo
semmus
semmuso
semolao
sena
senang
senate
senator
senegal
seng
sengoli
sengoloa
sengolwa
senngoa
senoelo
senola
senotlolo
senqu
senqunyane
senwabarwana
senwamadi
senya
senyane
senyang
senyeha
senyehelwa
senyehile
senyenyane
senyesemane
seo
seoa
sepanishe
sepetlele
sepetleleng
sephara
sepheo
sephetho
sephutheloana
sepolesa
sepoleseng
sepotoketsi
sepotokisi
september
sepuo
serame
serapeng
serbia
seretse
series
seriti
seroki
serum
services
ses
sesebelisoa
sesepa
sesole
sesoleng
sesosa
sesotho
sesupo
setagalog
setaki
setaliana
sete
seteishene
setempe
seterateng
setereke
seterekeng
sethala
sethaleng
sethepu
setho
sethunya
setifikeiti
setjhaba
setjhabeng
setle
setlhopha
setlogo
setloholo
sets
setsebi
setseng
setshwantsho
setsi
setsing
setso
setsoalle
setsonga
setswana
setulo
setulong
sevastopol
seven
severe
sewa
sexhosa
seymour
sezulu
sfondo
sg
shackleton
shaik
shaka
shanduka
shaun
she
sheba
shebane
shebella
shebile
shebisisa
sheet
sheikh
sheridan
shift
shimaore
ships
shiraz
shoa
shoba
shoele
shoeleng
shoes
shokin
shongwe
short
shwa
sibini
sic
side
sidwell
siea
siegen
sieo
sierra
sig
signs
silafetseng
siling
sillama
simolohileng
simon
sinai
singapore
singer
single
singles
sinrebele
siphuthi
siprage
sireleditse
sireletsa
sireletsang
sireletsehang
sireletsehe
sireletsehile
sireletsehileng
sisinyeha
sistimi
sisulu
sithabetsang
sitisa
sitoa
six
sizwe
sk
skrineng
skrini
skukuza
slobozia
slovakia
slovenia
slovenske
small
smith
sntac
so
sobukwe
soccer
socia
social
socialist
society
software
sohle
sol
solingen
somalia
some
somerset
son
sona
sonder
song
songs
sontaha
soon
soria
sotho
sound
source
south
southafrica
southern
soviet
soweto
space
spain
spanish
special
specific
spiegel
split
spoleiros
spotify
spread
sq
square
sr
sri
srpska
st
stacie
stad
stadium
stadt
standard
stanford
staphylococcus
star
start
state
states
station
statistical
statistics
status
stephen
stereo
sterkspruit
stevenson
steynsburg
steytlerville
stockholm
stop
story
straight
strasbourg
strategic
street
striped
student
students
studies
studio
study
stutterheim
stuttgart
su
subdivisions
subunit
sudan
suez
sunday
supa
super
supile
supileng
surveys
susumetsa
svg
swab
swanets
swati
swazi
swaziland
sweden
swedish
swi
switwananisi
switzerland
symbiosis
symbols
symptoms
syndrome
syracuse
syria
system
systematic
systems
t
ta
taba
tabeng
taelo
tahlehelo
taka
takatso
tala
tallinn
tambo
tamil
tampere
tanka
tants
tanzania
taolo
taolong
tapele
tappers
tarnovo
tartu
tata
tataiso
tatellano
tau
tb
tbilisi
te
teba
tebello
tebile
tebileng
tebogo
technical
technology
tee
tefo
tehnssto
teide
tekano
tekanyetso
tekanyo
teko
telegram
telegraph
telele
telugu
temana
temo
tempele
ten
tenerife
teng
tepic
terata
terene
term
teronko
teronkong
teropo
terre
territories
territory
tesla
text
textcolor
teyateyaneng
th
thaba
thabazimbi
thabela
thabeng
thabo
thahasella
thahasello
thailand
thajana
thakholoa
thales
tharo
tharollo
that
thata
thatafalloa
the
theatre
theguardian
theha
thehile
thehileng
thehiloe
thehiloeng
thehilwe
thehilweng
thehoa
thehoe
thehoeng
thehwa
theiloe
theipi
their
thekenoloji
thekiso
theknoloji
theko
thekoang
thelevishene
thelevisheneng
theoa
theoha
theohe
theohile
theola
theosa
theotsoe
thepa
therapy
there
these
thespinoff
they
thi
thibela
thibelang
thibelo
thibeloa
thibelwa
thibetsoeng
thibetswe
thimerosal
thimola
things
thint
this
tho
thobalano
thobeka
thoe
thoeng
thoholetsa
thoko
thomas
thomo
thonngwa
thoriso
thornham
thornhill
thothomela
three
through
thumb
thumbnail
thunngoa
thunya
thupelo
thuringia
thusa
thusana
thusang
thusitse
thuso
thuto
thweng
ti
tichere
tieho
tienne
tieo
tiisa
tiisitse
tiiso
tiisoa
tijuana
tikoloho
tikolohong
till
tim
timanga
time
timeaxis
times
timeslive
timesphela
tiraspol
tiyani
tjantjello
tjena
tjhankane
tjhelete
tjhese
tjotjo
tla
tlaase
tlaba
tlala
tlaleha
tlalehile
tlalehiloe
tlalehiloeng
tlaleho
tlalehoa
tlali
tlama
tlameha
tlamehang
tlamehile
tlamo
tlang
tlas
tlasa
tlase
tlatsa
tlatsetso
tlelaemete
tlerefala
tletlebo
tletse
tlhabisang
tlhabollo
tlhahiso
tlhahisoleseding
tlhahisoleseling
tlhahlamano
tlhahlobo
tlhaho
tlhaiso
tlhaloso
tlhapi
tlhaselo
tlhekefetso
tlho
tlhodisano
tlhokahalo
tlhokeho
tlhoko
tlhokomeliso
tlhokomelo
tlholisano
tlholisanong
tlholo
tlhompho
tlisa
tlisitsoe
tlisoa
tlo
tloaelehang
tloaelehileng
tloaelo
tloha
tlohaea
tlohela
tlokotsing
tlole
tlolo
tlosa
tlose
tlosoa
tloswa
tlotla
tlotse
tluoa
tlwaelehang
tlwaelehile
tlwaelehileng
tlwaelo
to
toba
tobana
tobanang
tobane
tobang
tobileng
today
toka
tokelo
tokollo
tokoloho
tokomane
tokyo
toloka
tom
tome
tomile
tonakgolo
tonakholo
tony
top
toronto
toropo
toropokgolo
toropong
tosac
totobatsa
toulon
tour
tours
town
towns
township
toxoid
tr
track
trade
traditional
training
trang
transkei
transmission
transnistria
transvaal
tre
tree
tresor
trevor
trier
tropike
true
trump
trung
trust
trying
ts
tsa
tsamaea
tsamaeang
tsamaee
tsamaisa
tsamaisang
tsamaiso
tsamaisoa
tsamaisoang
tsamaisong
tsamaya
tse
tseba
tsebahala
tsebahalang
tsebahatsoa
tsebang
tsebe
tsebeng
tsebisa
tsebisoa
tsebo
tsejoa
tsejoang
tsejoe
tsejoeng
tsejwa
tsejwang
tseka
tsela
tseleng
tsena
tseo
tsepamisa
tsepamisitse
tsetela
tshebediso
tshebeletso
tshebetso
tshebetsong
tshehetsang
tshehetso
tsheletseng
tshepo
tshetlela
tshireletso
tshisinyo
tshitwe
tshwaeditswe
tshwaeditsweng
tshwaetsa
tshwaetsanwang
tshwaetse
tshwaetso
tshwaetswa
tshwaetswang
tshwana
tshwanang
tshwanetse
tshwara
tshwarwa
tsitlallela
tsitsipano
tsitsitse
tsitsitseng
tsoa
tsoakane
tsoala
tsoaletsoeng
tsoalo
tsoang
tsoela
tsoelang
tsoelo
tsoelopele
tsoetseng
tsoetsoeng
tsohle
tsoile
tsoileng
tsona
tsosa
tsosang
tsositsoe
tsosolosa
tsosolositse
tsotelehe
tsotellehe
tsotelleng
tsotsitaal
tsp
tswa
tswana
tswang
tswela
tswelang
tswetseng
tu
tuberculosis
tulo
tuma
tumellano
tumello
tumelo
tumileng
tumme
tummeng
tunisia
turkey
turku
turpentine
turu
tv
two
tzaneen
u
ua
ubuntu
uct
ufi
uganda
ugie
uk
ukraine
ulm
umgungundlovu
umkhonto
umlazi
umuzi
un
unam
under
understanding
undp
unicef
union
unions
unisa
unit
united
units
universal
universe
university
univesithi
univesithing
unofficial
until
unya
unza
up
upiso
upright
ur
urban
urdu
uropa
us
usa
usd
use
used
using
usumetso
utloa
utloahalang
utloahale
utloahaleng
utloisisa
utloisisoa
utrecht
v
va
vaccine
vacciner
vaccines
vaerase
valley
value
values
van
vapenflagga
variant
vatican
vavi
vegas
velenja
velika
veliko
venda
venterstad
venturi
verashni
verde
vertical
vfrpb
vfx
vi
vialonga
vicente
victoria
video
vienna
vietjet
vietnam
view
vil
vila
vilar
viljandi
village
vilnius
viral
virus
visceral
vission
visual
vlamertinge
vlinge
vo
voc
voda
voivodeships
vol
volkswagen
volleyball
vouta
voutela
voutu
vr
vredefort
vrsmg
vs
vuc
vusi
vuswa
w
wa
waba
wago
wales
walter
wang
war
warsaw
was
washington
watch
water
watson
wayback
we
wearing
web
webosaete
website
weekly
wego
wei
wela
wena
were
west
western
westphalia
weu
what
when
which
whilst
white
whitney
who
whooping
width
wien
wiki
wikipedia
will
willem
william
williams
willowmore
willowvale
wilmington
windhoek
winners
winnie
wisa
witbank
with
within
witten
witwatersrand
wkly
wolfsburg
women
woodard
wooldridge
world
worldometer
would
wright
wu
wuhan
wuppertal
www
x
xa
xdr
xhosa
xi
xiendliwa
xii
xitwananisi
xivulwa
y
ya
yaba
ye
year
years
yela
yemen
yena
yeo
ykoe
yo
yona
york
you
young
your
youth
youtube
yoweri
ypres
yr
yugoslavia
yunivesiti
yuranese
yuropa
yusuf
yyyy
z
za
zadar
zagreb
zambia
zanu
zapiro
zastava
zastron
zemun
zero
zi
zika
zille
zimbabwe
zondeni
zondo
zones
zoonotic
zugdidi
zulu
zululand
zuma
zupta
{
|
}
~
£
«
°
²
´
·
»
×
đa
đo
ło
łobez
ʰ
ʱ
ˈ
ˌ
ː
̀
́
̂
̃
̄
̆
̇
̈
̉
̊
̌
̛
̣
̦
̧
̨
̭
̱
͂
͡
ν
застава
србија
х
і
ं
क
ड
द
न
भ
य
स
ह
ा
ि
ी
ृ
्
ং
দ
ব
ল
শ
া
ে
ગ
ત
ા
ી
ુ
ழ
ி
்
గ
త
ల
ు
ె
ั
ღ
​
‑
–
—
‘
’
“
”
†
•
…
‬
‮
″
⁄
€
₿
↔
↷
③
④
⑦
⛢
⺀
⺄
⺆
⺈
⺊
⺌
⺕
⺝
⺸
⺼
⿰
⿱
⿲
⿳
⿴
⿵
⿶
⿷
⿸
⿹
⿺
⿻
〢
コ
ユ
㇁
㇂
㇄
㇇
㇈
㇉
㇓
㐁
㐄
㐅
㐌
㐫
㐬
㐭
㐮
㐱
㑒
㒵
㒸
㒼
㓁
㓞
㔾
㕛
㕣
㖾
㘝
㚅
㚇
㚔
㚘
㝉
㝡
㝴
㝵
㞋
㞢
㞷
㠩
㠭
㠯
㡀
㡭
㡿
㢲
㢴
㣇
㣺
㥯
㪅
㫄
㫐
㫒
㫺
㬅
㬎
㬥
㬰
㲋
㳄
㷠
㸒
㸚
㸦
㼌
㼲
㽞
㿟
䀠
䂞
䍃
䏍
䒑
䖍
䖒
䖝
䖵
䙴
䚻
䜌
䝿
䡛
䧹
䪞
一
丁
丂
七
丄
丅
丆
万
丈
三
上
下
丌
不
与
丏
丐
丑
专
且
丕
世
丘
丙
业
东
丞
丢
丣
两
严
並
丨
丩
个
丫
丬
中
丮
丰
丱
串
丵
丶
丷
丸
丹
为
主
丽
丿
乀
乂
乃
久
乆
乇
么
义
之
乌
乍
乎
乏
乐
乑
乔
乖
乗
乘
乙
乚
乛
乜
九
乞
也
习
乡
乳
乾
亀
亅
了
亇
予
争
事
二
亍
于
亏
亐
云
互
亓
五
井
亘
亚
亜
亞
亟
亠
亡
亢
交
亥
亦
产
亨
亩
享
京
亭
亮
亯
亰
亲
亳
亶
亷
人
亻
亼
亾
仁
今
介
仌
从
仐
仑
仒
仓
仕
他
付
仝
代
令
以
任
企
伊
伏
伐
休
会
伯
但
位
何
佘
余
作
佥
使
來
侈
侌
侖
侯
侵
便
保
俞
信
修
倉
倍
候
倠
備
僉
僕
儿
兀
允
兂
元
兄
充
兆
兇
先
光
兊
克
兌
免
兑
兒
兓
兔
党
兜
兟
入
全
兩
兪
八
公
六
兮
兰
共
关
兵
其
具
典
兹
兼
冀
冂
冃
冄
内
冈
冉
冊
冋
册
再
冎
冏
冐
冒
冓
冖
冗
冘
军
农
冝
冡
冥
冫
冬
冷
几
凡
凢
凵
凶
凷
凸
凹
出
函
凾
刀
刁
刂
刃
刄
刅
分
切
刍
刑
刕
刖
列
刘
则
初
別
利
别
到
制
刺
則
削
剌
前
剡
剽
劉
力
功
加
劦
助
劫
劳
劵
勃
勇
勉
勒
動
務
勞
勤
勹
勺
勻
勾
勿
匀
匂
包
匆
匈
匊
匋
匍
匕
化
北
匚
匝
匡
匪
匱
匸
匹
区
医
匽
匿
區
十
卂
千
卄
卅
卆
升
午
卉
半
卌
华
卑
卒
卓
单
卖
南
卜
卝
卞
占
卡
卢
卣
卤
卦
卩
卪
卬
卯
印
危
即
却
卵
卷
卸
卻
厂
厃
厄
历
厈
厉
厌
厓
厘
厚
原
厤
厥
厨
厭
厲
厶
厷
厸
去
厼
厽
叀
参
參
叅
又
叉
及
友
双
反
叐
发
叒
叔
叕
取
受
叚
叜
叟
口
古
句
另
叩
只
召
可
台
叱
史
右
叵
号
司
叹
吂
各
吅
合
吉
吊
吋
同
名
后
吏
向
吕
君
吝
吞
否
含
启
吳
吴
吹
吾
呂
呆
呈
告
员
呙
周
命
咅
和
咎
咠
咢
咨
咸
咼
哀
品
哉
員
哥
哲
唐
商
啇
問
啚
啬
啻
善
喜
喬
單
喿
嗇
噩
嚴
囊
囗
囘
囙
囚
四
回
囟
因
囧
囬
困
囱
囷
固
国
圂
圅
國
圍
圓
土
圡
圣
圥
在
圭
地
圶
圻
圼
坐
坒
坚
坴
垂
垔
垚
埀
埋
埶
執
基
堂
堅
堆
堇
堯
塞
墨
壘
士
壬
壯
声
壳
壴
壹
壺
壽
夂
处
夅
夆
备
夊
夋
夌
复
夏
夒
夕
外
夗
夘
多
夜
夢
大
夨
天
太
夫
夬
夭
央
失
夲
头
夷
夸
夹
夻
夾
奂
奄
奇
奈
奉
奎
奏
奐
契
奓
奔
奚
奞
奠
奢
奥
奭
女
奴
奻
好
如
妄
妙
妟
妥
妻
妾
姑
委
姜
威
娄
婁
婴
嬰
嬴
子
孑
孔
孕
孖
字
存
孚
孛
孝
孟
季
孤
学
孫
孱
學
宀
宁
宂
它
宅
宇
守
安
宋
完
宏
宓
宗
官
定
宛
宜
宝
客
宣
室
宮
宰
害
家
容
宾
宿
寄
寅
密
富
寒
察
寧
審
寫
寬
寮
寸
对
寺
寻
寽
対
寿
封
尃
射
将
將
專
尉
尊
尋
尌
對
小
少
尒
尓
尔
尖
尗
尚
尞
尢
尣
尤
尧
尨
尭
就
尸
尹
尺
尻
尼
尽
尾
尿
局
居
屈
屋
屎
屏
屑
展
屖
屚
属
屠
屡
屬
屮
屯
屰
山
屵
屾
岁
岂
岑
岡
岩
岳
岸
峯
島
崇
崑
崔
崖
崙
崩
嵬
嶲
巂
巛
川
州
巟
巠
巢
巤
工
左
巧
巨
巩
巫
差
己
已
巳
巴
巷
巸
巽
巾
巿
帀
市
布
希
帚
帛
帝
带
師
席
帶
常
干
平
年
幵
并
幷
幸
幺
幻
幼
幽
幾
广
広
庄
床
底
店
庚
府
度
庫
庭
庶
康
庸
廉
廌
廛
廣
廩
廴
延
廷
建
廾
廿
开
弁
弃
弄
弇
弋
式
弓
弔
引
弗
弘
弜
弟
弥
弦
弱
張
強
强
彊
彌
彎
彐
彑
当
彔
录
彖
彗
彡
形
彥
彦
彧
彭
彳
役
彼
往
待
律
徒
得
徙
從
復
微
徵
心
忄
必
忌
忍
志
忝
忠
忩
快
念
忽
忿
思
怠
急
怱
恆
恒
恩
恭
息
悉
患
悤
悲
悶
惠
惡
惢
愁
愈
意
愛
感
慈
慧
慮
憂
憲
應
戀
戈
戉
戊
戋
戌
戍
戎
成
我
戒
戔
或
戚
戠
戢
截
戲
戶
户
戹
戼
戾
房
所
扁
扇
手
扌
才
打
托
执
承
折
拉
拜
拿
掌
推
提
摩
支
攴
攵
收
攸
改
放
政
敄
敏
敕
敖
敗
敝
敞
敢
散
敦
敫
敬
数
敷
數
斂
文
斉
斊
斗
斤
斥
斩
斬
斯
新
方
於
施
斿
旁
旋
族
无
旡
既
旣
日
旦
旧
旨
早
旬
旱
旲
时
旾
昆
昇
昌
昍
明
昏
易
昔
昗
昜
星
春
昬
是
昱
昴
昷
時
晃
晋
晏
普
景
晶
智
暑
暴
曇
曩
曰
曲
曳
更
曷
書
曹
曼
曾
替
最
朁
會
月
有
朋
服
朔
朕
朗
望
朝
木
朩
未
末
本
札
朮
术
朱
朵
朶
朿
杀
李
杏
杜
束
条
来
東
杲
杳
松
析
林
枚
果
枝
枲
枼
某
柔
查
柬
柰
柴
栗
桀
桑
桼
梁
條
梟
梨
棘
棠
棥
森
楚
業
楽
榮
樂
樊
欠
次
欣
欮
欲
欶
欽
款
歆
歇
歛
止
正
此
步
武
歨
歪
歮
歯
歰
歲
歴
歷
歸
歹
歺
死
殳
段
殷
殸
殹
殺
殻
殿
毋
毌
母
每
毒
比
毕
毚
毛
毳
氏
氐
民
气
氣
水
氵
氶
氷
永
氺
氾
求
汝
汞
江
沃
沓
沙
沝
泉
法
波
泣
泥
泰
洛
洪
活
派
流
浦
浪
浮
淡
淮
清
渚
渠
港
湯
滿
漸
火
灬
灭
灰
灵
灷
炅
炎
炏
炗
炙
炭
為
烈
烏
烝
焉
無
焦
焱
然
煞
熊
熏
燕
營
燮
爪
爫
爭
爯
爰
爱
爲
爵
父
爻
爽
爾
爿
片
牙
牚
牛
牜
牟
牢
牧
牪
牽
犀
犬
犭
犮
狂
狄
狊
独
狺
猋
猒
猪
献
獻
玄
率
玉
王
玟
玨
珎
班
琴
瑟
瑩
瓜
瓦
甘
甚
生
産
用
甫
甬
田
由
甲
申
电
甶
男
甸
甹
画
甾
畀
界
畏
畐
留
畜
畟
畢
畧
畨
番
畫
異
畱
當
畺
畾
疊
疋
疌
疑
疒
疾
癶
癸
癹
登
發
白
百
皀
皃
的
皆
皇
皋
皐
皕
皮
皷
皿
盃
盆
盇
盈
益
盍
盎
监
盒
盖
盛
盡
監
盤
盧
目
直
相
盾
省
眇
眉
看
眔
眞
真
眷
眼
眾
着
睘
睪
睿
瞏
瞢
瞿
矍
矛
矞
矢
矣
知
矦
短
石
破
碎
磊
磨
示
礻
礼
祟
票
祭
禀
禁
禸
禹
禺
离
禽
禾
禿
秀
秃
秉
秋
科
秝
秦
移
稟
穀
穌
穴
究
穹
空
穿
突
窄
窒
立
竒
竜
竝
竟
章
童
竹
笑
笠
筆
等
答
箕
算
箴
節
篤
篭
米
粉
粛
粟
粤
粦
粲
糞
糸
糹
系
約
納
素
索
紫
累
細
絜
絫
絲
維
綿
縣
繇
纍
纟
缶
网
罒
罔
罕
罗
罙
罡
罢
罪
署
罷
羅
羊
羌
羍
美
羔
羕
羗
羞
羡
羣
群
義
羲
羸
羽
翁
翏
習
翕
翟
翠
翼
老
耂
考
者
耆
而
耎
耑
耒
耳
耴
耶
耷
聂
聊
聖
聚
聶
聿
肀
肃
肅
肉
肖
肙
肥
肩
肯
育
肴
胃
背
胡
胥
能
脊
脩
膚
臣
臤
臧
自
臬
臭
臯
臱
至
致
臺
臼
臽
臾
臿
舀
舂
舄
與
興
舉
舌
舍
舛
舜
舞
舟
般
艮
良
色
艸
艹
艾
芒
芔
芬
芮
花
芳
芺
芻
苔
苗
苟
若
苦
英
茶
茸
荅
草
荒
荣
荼
莆
莧
莫
莽
菆
菊
菐
華
萬
落
葉
著
葛
董
葵
蒙
蒦
蒼
蓋
蓬
蓺
蔑
蔡
蕉
蕭
薄
薛
薦
薰
藍
藏
藥
蘭
虍
虎
虐
虒
虔
處
虖
虗
虘
虚
虛
虜
虞
虫
虽
蚤
蚩
蜀
蜜
蟲
蠡
血
行
衍
衛
衣
衤
表
衮
衰
袁
袞
褭
褱
襄
襾
西
覀
要
覃
見
規
覓
覧
親
覽
见
角
解
言
訁
訇
計
詹
誩
諸
讠
谷
豆
豈
豊
豐
豕
豖
豙
象
豦
豩
豪
豸
貇
貝
貞
貟
負
貢
貧
貪
貫
責
貳
貴
買
費
賁
資
賈
賏
賓
賔
賛
賞
賢
賣
質
賴
贊
贝
贡
责
贯
贲
贵
赖
赞
赤
赦
走
越
足
路
蹇
身
躬
車
軍
軎
軟
輦
车
辛
辜
辟
辥
辰
辱
農
辵
辶
边
达
过
近
连
迷
追
退
送
逆
透
逐
通
速
造
逢
連
逮
進
遀
遂
過
道
達
遣
適
遷
遺
邊
邑
邕
那
邦
邪
郎
部
郭
都
鄉
酉
酋
配
酓
釆
采
里
重
野
量
金
釒
錢
钅
長
镸
长
門
閃
閉
開
閏
閑
閒
間
閔
閵
閻
闌
门
间
闷
阑
阜
阝
阿
降
陳
隆
隊
隋
隡
隨
隱
隶
隹
隺
隻
隼
隽
难
雀
雁
集
雈
雋
雍
雐
雔
雙
雚
雜
雝
離
難
雨
雩
雪
雲
零
雷
需
霍
霜
霝
霞
霸
靈
靑
青
非
靡
面
靣
革
韋
韦
韭
韯
韱
音
頁
頃
項
須
頗
頡
頻
顛
页
風
风
飛
飞
食
飠
養
饣
首
香
馬
馮
駦
马
骨
高
髟
鬥
鬯
鬲
鬼
魚
魯
鮮
鱼
鲁
鳥
鳳
鸟
鹵
鹿
麃
麗
麥
麦
麻
黃
黄
黍
黎
黑
黒
黨
黹
黽
黾
鼎
鼓
鼠
鼻
齊
齋
齐
齒
齿
龍
龙
龜
龟
龠
龰
龱
龴
龵
龶
龷
龸
龹
者
艹
？
🜨
🥰
𠀁
𠀃
𠀆
𠀉
𠀎
𠀐
𠁁
𠁣
𠂆
𠂇
𠂈
𠂉
𠂊
𠂋
𠂎
𠂒
𠂔
𠂛
𠂡
𠂢
𠂤
𠂬
𠂭
𠂹
𠃊
𠃋
𠃌
𠃍
𠃎
𠃑
𠃓
𠃔
𠃜
𠄌
𠄎
𠄠
𠄢
𠆢
𠆥
𠇍
𠈌
𠌵
𠓜
𠔉
𠔥
𠔼
𠔽
𠔿
𠕀
𠕁
𠕋
𠘧
𠘨
𠙻
𠙼
𠚏
𠚒
𠚤
𠚪
𠣏
𠤎
𠤕
𠥓
𠦄
𠦑
𠦝
𠧒
𠧗
𠧪
𠩺
𠪚
𠫓
𠫔
𠫤
𠬛
𠬝
𠬞
𠬢
𠬤
𠬶
𠮛
𠮦
𠮷
𠯑
𠱠
𠳮
𠷎
𡈼
𡉀
𡉵
𡌥
𡍮
𡏳
𡕒
𡕩
𡕰
𡖅
𡗗
𡗜
𡘆
𡘤
𡧱
𡨄
𡩧
𡬠
𡭽
𡰣
𡰥
𡰪
𡰯
𡰱
𡷈
𡸁
𡿨
𡿩
𡿪
𡿺
𢀖
𢀛
𢀩
𢁙
𢆉
𢆰
𢆶
𢇁
𢇇
𢉖
𢌬
𢌿
𢏚
𢑑
𢑚
𢖻
𢙣
𢛳
𢦏
𢦒
𢧵
𢼄
𢾕
𣁋
𣄼
𣅀
𣅽
𣍘
𣎳
𣎵
𣏋
𣏼
𣗥
𣥂
𣥖
𣦵
𣦼
𣧄
𣪊
𣪠
𣬉
𣳾
𣶒
𤇾
𤊽
𤐫
𤓰
𤔔
𤕨
𤣩
𤰇
𤰔
𤰞
𤴓
𤴔
𤽄
𥁑
𥁕
𥃦
𥃩
𥃭
𥇡
𥑟
𥘅
𥘈
𥝢
𥫗
𥱡
𦈢
𦉪
𦉬
𦉼
𦍌
𦍒
𦎧
𦐇
𦓔
𦔮
𦘒
𦙃
𦚏
𦣝
𦣞
𦣻
𦥑
𦥔
𦥯
𦨉
𦭝
𦰩
𧆞
𧈧
𧘇
𧰨
𧴪
𧴮
𧵩
𧾷
𨸏
𨾴
𩙿
𩠐
𩫏
𩵋
𪉷
𪜀
𪟽
𪠲
𪩲
𫇦
𫔭
𫜸
𫝀
𫠣
𫠩
𫢉
𫥞
𫩏
𫩠
𫪡
𫲽
𫶧
𬀷
𬐘
𬗌
𬙙
𬛸
𬜯
𬟩
𬯁
𬴘
𬺻
𬼉
𬼖
𭀰
𭁈
𭁨
𭅰
𭑈
𭕄
𭗼
𭤨
𭥫
𭻾
𮅕
𮊿
𮍌
𮍏
𮓗
𮥼
𮧮
廾
𰀁
𰀄
𰀈
𰀉
𰀕
𰀠
𰀡
𰀢
𰀪
𰁜
𰃮
𰆊
𰆘
𰋙
𰕎
𰢴
𰧭
𰯲
0--
00--
01--
02--
10--
11--
12--
13--
14--
15--
16--
17--
18--
20--
22--
23--
2362--
24--
26--
27--
41--
43--
45--
46--
47--
49--
51--
53--
6--
60--
61--
67--
69--
73--
74--
76--
79--
82--
85--
86--
87--
90--
978--
a--
aa--
aba--
abst--
ac--
acc--
acco--
ad--
ae--
aga--
ai--
air--
al--
am--
ama--
amaha--
amo--
amohe--
an--
ana--
anane--
anc--
and--
anta--
anti--
ants--
app--
ar--
ari--
aro--
as--
at--
ata--
au--
auto--
b--
ba--
bah--
bak--
bal--
bam--
bas--
bat--
bau--
be--
ben--
ber--
bi--
bio--
block--
bo--
bob--
bofo--
bofu--
boh--
boi--
boit--
bokg--
bol--
bon--
boo--
bora--
bos--
br--
bri--
bu--
bur--
bus--
buse--
by--
c--
ca--
cal--
car--
caro--
cauc--
cec--
cha--
cham--
chan--
che--
chechis--
chi--
cho--
chro--
ci--
cit--
city--
cla--
cli--
co--
com--
con--
conc--
confir--
conser--
const--
cor--
cra--
cre--
cri--
cro--
cus--
cym--
d--
da--
dan--
dau--
daugh--
de--
dec--
di--
die--
difa--
dihlo--
dika--
dikg--
diko--
dio--
dip--
dipo--
dis--
do--
dr--
dra--
du--
dur--
dz--
e--
ed--
eg--
ei--
eke--
el--
eli--
em--
en--
end--
eng--
ep--
er--
es--
et--
etel--
ex--
f--
fa--
fan--
fe--
fel--
fer--
fete--
feti--
feto--
fi--
fihle--
fil--
finye--
fla--
flo--
fo--
foko--
fr--
fri--
fu--
futhu--
g--
ga--
gag--
ge--
gen--
geo--
ger--
gi--
giga--
glo--
go--
gre--
green--
grig--
gro--
gu--
gua--
h--
ha--
hae--
han--
he--
her--
hi--
hire--
hla--
hlahle--
hlaj--
hlakis--
hlas--
hle--
hlekefe--
hlo--
hloe--
hlop--
hlwe--
ho--
homp--
hop--
hu--
hule--
hus--
i--
ibe--
id--
ike--
ikemise--
iketse--
im--
in--
ina--
inc--
indepen--
inter--
inv--
ipap--
iphe--
ipo--
ire--
is--
isi--
it--
ithut--
itlha--
j--
ja--
je--
jel--
jes--
ji--
jo--
ju--
jur--
k--
ka--
kan--
kar--
ke--
ken--
kenyelle--
kg--
kgao--
kgo--
kgothall--
kha--
khah--
khao--
khe--
khelos--
kho--
khomare--
khothall--
ki--
kilo--
kim--
kit--
ko--
kopi--
kri--
ku--
kw--
kwa--
ky--
l--
la--
lar--
le--
lea--
lebo--
lek--
lekanye--
lele--
len--
lep--
lera--
les--
li--
lifa--
lifor--
lik--
likha--
lil--
lip--
lipha--
lito--
lo--
loko--
lu--
ly--
m--
ma--
mac--
maca--
mafi--
mag--
maho--
mak--
man--
maq--
mar--
mara--
marc--
marri--
mas--
mase--
mast--
mat--
me--
medic--
mega--
mel--
mem--
men--
mer--
merc--
meso--
mi--
mic--
mil--
mis--
missi--
mm--
mma--
mo--
mofu--
mogo--
moke--
mokgwa--
mole--
mon--
mono--
monya--
moq--
mor--
mora--
moroc--
mos--
motj--
mp--
mu--
mul--
n--
na--
nam--
nar--
ne--
ned--
neph--
nete--
netefa--
new--
ng--
ngo--
ngu--
ni--
no--
nor--
nq--
ntli--
nu--
nya--
nye--
nyo--
o--
oa--
obr--
oc--
oo--
op--
opore--
or--
os--
ot--
out--
p--
pa--
pal--
pap--
pav--
pe--
pen--
pepes--
per--
pet--
ph--
pha--
phad--
phe--
pheko--
phephe--
phi--
pho--
pi--
pil--
pl--
pla--
po--
polas--
poli--
pot--
potla--
pr--
pres--
prev--
pri--
pro--
pu--
q--
qet--
qhe--
qi--
qo--
qos--
qu--
qua--
quar--
r--
ra--
rad--
rag--
rara--
re--
reco--
refe--
reg--
res--
respi--
reyk--
ri--
riet--
ro--
roha--
ros--
ru--
s--
sa--
sal--
sc--
scri--
se--
sea--
sebe--
sebo--
sec--
sefi--
sehlo--
seka--
sen--
sep--
sepaka--
ser--
seto--
sh--
sha--
shi--
sho--
shu--
si--
sibol--
silafa--
sili--
silver--
sire--
sis--
sit--
sk--
sky--
sme--
so--
sp--
st--
sto--
stra--
stre--
su--
sun--
susu--
sutu--
syn--
sø--
t--
ta--
tar--
te--
tech--
th--
tha--
thak--
thao--
the--
tho--
thu--
ti--
tiis--
tjhe--
tla--
tlep--
tlis--
tlo--
tloae--
to--
tokis--
toko--
tou--
tr--
trans--
trav--
tri--
tro--
ts--
tse--
tsh--
tshe--
tshehe--
tshi--
tsho--
tshwa--
tsi--
tso--
tsos--
tswe--
tu--
tur--
tw--
ty--
u--
uk--
um--
un--
unc--
up--
ur--
urug--
utlo--
v--
va--
vacc--
val--
ven--
ver--
vi--
vil--
vo--
vou--
vr--
w--
wa--
wal--
we--
wes--
wi--
wor--
wri--
x--
xi--
xir--
y--
ya--
yo--
z--
za--
zi--
zvez--
đ--
--0
--00
--000
--1
--15
--2
--24
--29
--3
--39
--4
--5
--51
--6
--62
--63
--7
--72
--75
--8
--86
--9
--a
--ad
--ae
--age
--ai
--ain
--aka
--al
--ala
--ale
--ali
--am
--an
--ana
--ane
--aneng
--ang
--ani
--ano
--ant
--ape
--ar
--ard
--ary
--as
--ate
--atic
--ation
--ations
--atse
--ay
--b
--ba
--be
--belisi
--berg
--betso
--bi
--ble
--bo
--bs
--bu
--burg
--by
--c
--ca
--cal
--ce
--ced
--cer
--ces
--ch
--cht
--ci
--ck
--co
--con
--ct
--ctions
--ctive
--cts
--cu
--cy
--d
--da
--das
--de
--ded
--di
--dikokonyana
--dio
--do
--dor
--dorp
--ds
--du
--dy
--e
--east
--ebo
--ech
--ed
--ee
--ef
--ehile
--ek
--el
--eli
--ell
--elloa
--elo
--en
--ena
--ence
--eng
--eni
--eno
--ens
--er
--ere
--ers
--ert
--ery
--es
--et
--eu
--ew
--f
--fala
--fatsi
--fatso
--ff
--fi
--field
--fo
--g
--ga
--gae
--ge
--ger
--ghan
--ght
--gi
--gical
--go
--gos
--gy
--h
--ha
--hala
--hale
--hali
--han
--he
--hehetsi
--heid
--hela
--hele
--helo
--heng
--hetse
--hetseng
--hi
--hile
--hing
--hl
--hlelo
--ho
--hoho
--ht
--https
--hu
--hwa
--i
--ia
--ian
--ic
--ica
--ical
--ick
--id
--ie
--ies
--ika
--il
--ile
--ils
--im
--in
--ine
--ing
--io
--ion
--ional
--ions
--ir
--ira
--is
--ishene
--ism
--ist
--it
--iti
--ition
--ive
--ives
--ization
--j
--ja
--je
--ji
--jo
--jwa
--k
--ka
--ke
--ken
--kes
--khungo
--ki
--kiloe
--ko
--koe
--ks
--ku
--kwe
--ky
--l
--la
--lang
--lano
--lar
--ld
--le
--lehe
--lela
--lele
--leli
--lent
--ley
--li
--lisa
--liso
--ll
--lla
--lle
--lli
--llo
--lloe
--lls
--llwa
--lm
--lo
--loa
--loe
--logy
--lohali
--ls
--lu
--lwa
--lwe
--ly
--m
--ma
--mabe
--man
--mba
--me
--med
--melo
--ment
--mi
--ming
--mir
--mistry
--mme
--mo
--mone
--mphehi
--ms
--mson
--mu
--mus
--my
--mycin
--n
--na
--nang
--nburg
--nc
--nce
--nd
--nda
--ndamo
--ndomo
--nds
--ndu
--ne
--nel
--nes
--nesia
--ney
--ng
--ngen
--ngs
--ni
--nia
--ning
--nium
--nj
--nji
--nn
--nni
--no
--noa
--non
--nong
--ns
--nse
--nt
--nta
--nte
--ntein
--nto
--ntsoe
--ntswe
--nty
--nu
--nwa
--ny
--nya
--nyana
--nyi
--nyo
--nza
--nzi
--o
--oa
--oang
--oc
--odi
--oe
--oeng
--ogical
--oha
--ok
--oko
--ol
--ola
--ole
--oli
--ols
--olwa
--on
--onia
--ons
--opo
--or
--ort
--os
--ot
--ou
--ovac
--p
--pa
--palo
--pe
--pha
--pi
--pino
--plane
--po
--pole
--pu
--q
--qoqo
--que
--r
--ra
--rak
--ral
--rd
--re
--rence
--rf
--ri
--ria
--rian
--rija
--rk
--rks
--rl
--rmann
--rn
--ro
--ron
--rry
--rs
--rt
--rty
--ry
--s
--sa
--sang
--se
--sh
--sha
--si
--sia
--sin
--sion
--sis
--sisi
--so
--soa
--soe
--son
--ss
--ssie
--st
--ster
--stic
--style
--swa
--swe
--sy
--t
--ta
--tan
--tch
--te
--ted
--tedi
--ter
--tes
--th
--tha
--thala
--thane
--ti
--tia
--tic
--ting
--tion
--tis
--tive
--tla
--to
--ton
--tor
--ts
--tsa
--tsana
--tse
--tseng
--tsi
--tso
--tsoe
--tsoeng
--tswe
--tsweng
--tt
--tta
--tu
--twa
--ty
--u
--udi
--ue
--ui
--ul
--uli
--um
--un
--ung
--us
--usi
--ut
--uto
--uva
--v
--va
--vac
--vci
--ve
--ver
--vi
--vik
--vo
--w
--wa
--wadi
--wana
--wati
--we
--weng
--wn
--wo
--wy
--x
--y
--ya
--yd
--yi
--yo
--ys
--z
--za
--ze
--zi
--zo
--zu
--ə
