!
"
#
##0
##1
##10
##11
##12
##13
##14
##15
##16
##17
##18
##19
##2
##20
##21
##22
##23
##24
##25
##26
##27
##28
##29
##3
##30
##31
##32
##33
##34
##35
##36
##37
##38
##39
##4
##40
##41
##42
##43
##44
##45
##46
##47
##48
##49
##5
##50
##51
##52
##53
##54
##55
##56
##57
##58
##59
##6
##60
##61
##62
##63
##64
##65
##66
##67
##68
##69
##7
##70
##71
##72
##73
##74
##75
##76
##77
##78
##79
##8
##80
##81
##82
##83
##84
##85
##86
##87
##88
##89
##9
##90
##91
##92
##93
##94
##95
##96
##97
##98
##99
$
%
&
'
(
)
*
+
,
-
.
/
0
00
000
000000
001
002
003
005
007
008
009
01
010
012
01745329252
02
03
04
05
06
0630
07
08
09
1
10
100
1000
108
11
110
12
123
127
13
14
15
150
1582
15919
16
17
18
180
184
19
195
2
20
200
2006
2008
2009
2013
2015
2016
2019
2020
2023
21
22
23
24
25
250
27
28
29
3
30
300
31
316846592
33
35
36
3600
39
4
40
400
47
48
5
50
500
59
6
60
63
639
7
70
700
8
80
800
80665
828
8316846592
85
88
9
90
92
95
99
9999
:
;
<
=
>
?
@
\
^
_
`
a
aa
aaa
ab
abbr
abbreviated
about
above
abovebelow
abovestyle
abs
absolute
ac
accept
accepted
access
accessdate
according
account
acre
action
active
actual
ad
add
addclass
added
additional
addon
address
adds
adj
ae
af
africa
african
after
age
agency
ago
aka
al
alias
aliases
align
all
allow
allowed
allows
along
alpha
already
also
alt
altnames
always
am
ambox
america
american
amount
an
analyze
anchor
ancient
and
angle
another
any
anything
apostrophe
appear
appears
append
applies
apply
appropriate
april
ar
arab
arabic
aramaic
arch
archive
archived
archivedate
archives
archiveurl
are
area
aren
arg
argkeys
args
argscfg
argsi
argsk
argsv
argument
arguments
armenian
array
article
articles
arxiv
as
asia
asin
ask
assembleoutput
assert
assesment
assigned
associated
assume
at
atm
atmosphere
attempt
attr
attribute
attributes
au
august
australia
author
authority
authors
auto
autoconfirmed
automatically
autoreview
av
available
avoid
az
b
ba
back
background
bad
bagan
banda
banner
bannertemplate
bar
bare
barrel
barrels
base
based
basetaxon
basic
bc
bce
be
because
becomes
been
before
begin
beginning
begins
being
below
beng
best
better
between
bg
billion
binomen
biorxiv
blacklist
blank
blk
block
blocks
blue
blurb
bn
bo
body
bold
book
boolean
border
bot
both
bottom
box
br
bracket
bracketclose
bracketopen
brackets
break
british
broken
btu
buffer
bug
build
builder
builtin
bum
burma
burmese
bushel
but
button
by
byte
c
ca
cal
calendar
call
called
calling
callparserfunction
cameroon
can
cannot
canonical
canonicalize
cap
caption
capture
captures
cardinal
case
cases
cat
categories
categorization
category
categoryhandler
categorylink
cats
cause
cc
cd
cdata
ce
cell
center
centimeter
centimetre
central
century
cf
cfg
ch
change
changes
chapter
char
character
characters
charge
charinsert
check
checked
checking
checks
checktype
child
chin
china
chinantec
chinese
chosen
cid
circa
citation
citationclass
cite
citeref
citeseerx
city
cjk
claim
claims
claimspropertyid
class
classes
classical
clean
clear
close
cm
cmbox
co
code
codepoint
codes
coins
col
collaboration
collapse
collapsed
collapsible
collection
colon
color
colour
cols
colspan
colstyle
column
columns
com
combatants
combination
comma
commas
comment
common
commons
commonssitelink
community
compare
compatibility
complex
composite
concat
concatenate
concatenation
conference
config
configuration
confirmed
congo
conj
conjunction
consistent
contain
container
containing
contains
content
contribution
contributions
contributor
control
conversion
convert
converted
converting
cookbook
coord
coordinate
coordinates
coordinatespec
copy
core
cornish
corporate
correct
corresponding
cost
could
count
counter
country
cp
create
created
creole
cs
css
csstext
cu
cubic
cuft
cuin
current
currentitem
currently
currenttitle
currtaxon
customary
cuyd
cvt
cyrillic
cyrl
d
da
dab
dash
data
database
datacode
datatype
datavalue
date
datecode
dateformat
datenum
dates
datestr
datestuff
datetime
datevec
day
days
db
dd
de
deal
debug
dec
decade
december
decimal
decimalprecision
decimals
decode
decyear
default
defaults
define
defined
definition
definitions
deg
degree
degrees
del
delete
delim
demo
democratic
demospace
denominator
density
dep
depend
dependencies
depending
deprecated
depth
description
descriptions
details
detect
detected
determine
determines
df
dformat
dialect
diff
different
digit
digits
din
dir
direct
direction
directly
disambiguator
discussion
disp
display
displayed
district
div
divisions
dl
dlen
dm
dms
dmy
do
doc
doctitle
document
documentation
does
doesn
dogon
doi
domain
don
done
dot
double
down
dry
dst
dt
du
due
dummy
duplicate
duration
dv
e
ea
each
early
earth
east
eastern
ec
ed
edit
editing
edition
editor
editors
edits
edittools
ee
eg
either
el
electronvolt
element
elements
else
elseif
em
embargo
emit
empty
en
enabled
encode
encoding
encyclopedia
end
endash
ends
energy
eng
english
engvar
ensure
entity
entityid
entry
enumerated
env
environment
eo
episode
equivalent
era
erg
err
errend
errns
error
errors
es
escape
et
etal
etc
ethi
eu
ev
even
event
every
example
except
exception
exceptions
exclude
exhaust
exist
exists
expandtemplate
expected
expensive
experiment
expiry
explanation
exponent
expression
ext
extended
extendedconfirmed
extension
extensiontag
external
extinct
extra
extract
extraneous
f
fa
fail
fails
failure
fallback
false
family
fb
fd
fdate
fe
february
federal
feet
fetch
ff
fi
field
fields
figure
file
filename
fill
final
find
findlang
first
firstn
five
fix
fl
flag
flags
flex
flip
float
floor
flow
fmbox
fmt
followed
following
follows
font
fonts
foo
foot
footer
footnote
for
force
foreign
form
format
formatdate
formatnum
formats
formatted
formatting
forms
formula
forward
found
foundation
four
fr
fra
frac
fraction
fragment
frame
frameonly
free
french
from
fromtitlecount
ft
full
fullargs
fulltext
fullurl
func
function
functions
future
g
ga
gal
gallery
gallerylink
gallon
gallons
gap
gas
gb
gbe
ge
gen
general
generate
generated
generic
geor
german
get
getargnums
getargs
getbeststatements
getcontentlanguage
getcurrentframe
getcurrenttitle
getentity
getentityidforcurrentpage
getentityobject
getenvironment
getexpandedmessage
getmetatable
getparent
gets
getsitelink
gettaxoninfoitem
gettitle
getvalue
getvaluebyqual
give
given
gives
gj
gje
gl
glargs
global
globals
gmatch
gn
go
good
google
got
gov
government
gradient
gram
grams
gran
gray
grc
greek
green
gregorian
grek
group
groups
gsub
guinea
gujr
guru
h
ha
half
hand
handle
handled
handler
handlers
hang
hangul
hani
hans
hant
has
hatnote
have
haystack
hdl
he
head
header
heading
hebr
hebrew
hectare
height
help
helper
hemisphere
here
hh
hidden
hide
hierarchy
high
highest
highland
history
hlist
hm
hmong
hold
holding
holds
horizontal
horsepower
host
hotcat
hour
hours
how
however
hp
hr
hsb
html
http
https
hu
hundredweight
hyphen
hyphenated
hyphens
hz
i
iana
icon
id
identifier
identifiers
ideograph
ids
idx
ie
ietf
if
ignore
ignored
ii
image
imagediv
imageleft
imageright
images
imbox
imp
imperial
impgal
implements
important
in
inactive
inc
incertae
inch
inches
include
included
includes
including
incorrect
indef
indent
index
india
indic
indicator
individual
indonesia
info
infobox
information
inherit
init
initial
initials
inline
inlinered
inout
input
ins
insert
inset
inside
instance
instead
int
integer
intended
internal
international
internetarchivebot
interviewer
interwiki
into
intro
introto
introtosingle
invalid
invert
invoke
ip
ipa
ipairs
iron
is
isbn
island
islands
islong
ismn
isn
isnegative
isnotblank
isnotempty
iso
isodate
isoname
issn
issue
isxn
it
italian
italic
italicize
italicized
italics
italictitle
item
itemid
items
its
iucn
j
ja
january
japanese
join
joins
journal
jpg
js
julian
june
just
k
ka
karen
kayah
kcal
keep
kern
kev
key
keys
keyword
keywords
kg
kgf
khao
kilogram
kilograms
kilometer
kilometre
kingdom
kj
km
kn
knda
know
known
knu
ko
kpa
kt
kv
kw
kwh
l
la
label
labelorid
labels
lang
langcode
langobj
language
languages
laoo
large
last
lat
later
latin
latitude
latn
lax
lay
lazily
lb
lbf
lbmol
lccn
le
leading
leap
least
leave
left
len
length
less
letter
letters
level
levels
lhs
li
library
libraryutil
light
like
limit
limited
line
linear
linenum
lines
link
linked
linkprefix
links
linktarget
linktext
list
listed
lists
listtype
liter
litre
live
lk
ll
load
loaddata
loaded
loader
loc
local
locally
location
lock
locmap
log
logo
loi
lon
long
longitude
look
looking
lookup
loop
low
lower
lowercase
lowerk
lowers
lt
ltf
lu
lua
lum
m
ma
made
madin
mag
magazine
magnitude
main
mainsnak
maint
maintenance
make
makeordinal
makes
makeurllink
makewikilink
malagasy
malay
male
malformed
management
mandalay
mandatory
manual
many
map
mappings
maps
mar
march
margin
marguments
mari
mark
marker
marks
marksize
markup
mask
mass
match
matches
matching
math
max
maximum
may
mb
mbi
mbox
mcal
md
mdy
me
mean
means
media
mediawiki
message
messagebox
messages
meta
metadata
metatable
meter
metre
metric
mev
mg
mi
miao
mid
middle
might
mil
mile
miles
military
millennium
million
mimu
min
mini
minus
minute
minutes
mirror
mismatch
missing
misspelling
mixtec
mj
mk
ml
mm
mmr
mn
mod
mode
modified
module
modules
mol
molar
mole
moles
mon
mong
mono
monotypic
month
months
more
most
move
mph
mr
ms
msg
msgs
mshared
mt
mtabletools
multiple
multiplier
must
mw
my
myanmar
n
na
naga
nahuatl
name
named
names
namespace
namespaces
national
nav
navbar
navbox
navboxparams
nb
nd
ndates
nds
ne
necessary
need
needed
needle
needs
negative
nepal
net
never
new
newline
news
next
ng
nigeria
nil
nl
nm
nmi
nn
no
nocat
node
nodes
noflip
noi
non
none
nopp
normal
north
northern
not
notation
note
nothing
notice
noto
noun
november
now
nowiki
nowrap
ns
num
number
numbered
numbers
numdot
numerator
numeric
numerical
nums
numsep
numstr
o
obj
object
objects
occurs
ocinsoutput
october
of
off
office
offset
oil
ok
ol
old
ombox
omitted
on
once
one
only
onlysourced
oo
op
operation
ops
opt
option
optional
options
or
order
ordered
ordinal
ordsuffix
org
orig
origargs
origin
original
orthography
orya
os
other
others
otherwise
our
out
outinfo
output
outputs
outside
over
overflow
overlay
override
overview
oz
p
pa
padauk
padding
padlock
page
pagename
pages
pagetype
pagoda
pair
pairs
papua
para
param
parameter
parameterfuncs
parameters
params
parent
parentargs
parentfirst
parentheses
parentonly
pargs
parm
parms
parmsi
parseinput
parseparam
parser
part
partial
parts
pass
passed
path
pattern
patterns
patternspattern
pc
pcall
pd
pdf
peak
people
per
percent
period
periodical
pframe
phonemes
php
phrase
phrases
pi
pid
pidgin
pinyin
pipe
pl
place
placeholder
places
plain
plainlinks
please
plural
plus
pm
pmc
pn
png
pno
po
point
points
policy
polish
population
portal
portion
pos
position
positional
positive
possible
possibly
postcondition
postfix
postscript
pound
pounds
power
pp
prange
pre
prec
precision
precondition
preferences
preferred
prefix
prefixed
prefixedtext
prefixes
preload
preprocess
preprocesssinglearg
present
presentation
pressure
preunit
prevent
preview
previous
private
probably
problem
process
processing
project
pronunciation
prop
proper
properties
property
propertyid
propertyvalueandquals
props
protected
protection
protectiondate
protectionlevels
protectionobj
proto
provided
provides
ps
pt
ptr
public
publication
publisher
punctuation
purge
put
px
pyidaungsu
pyu
q
qid
qu
qual
qualid
qualifier
qualifierid
qualifiers
quals
quart
quarter
quechua
query
quote
quotes
r
ra
radius
range
ranges
rank
ranks
rate
rather
raw
rawget
rawset
razi
rd
re
read
reason
recognized
red
redirect
redundant
ref
reference
references
reflist
reformat
reformatting
refparts
refs
regexp
region
regular
relative
remove
removed
ren
render
rendered
rendering
rep
repeat
replace
replaced
replacement
republic
request
requested
require
required
requires
res
rest
result
results
ret
retrieved
return
returned
returns
retval
reuse
reverse
rft
rhs
right
ro
road
roman
root
round
rounded
roundto
row
rowargs
rowcount
rows
rowstyle
rtl
ru
rule
run
rupees
s
sa
safe
saint
same
sami
san
sand
sandbox
sandboxtitle
sans
save
say
sbn
sc
scale
scaled
scan
scheme
school
scientific
scribunto
script
scripts
se
sea
search
searchengvar
searching
season
sec
second
seconds
sect
section
sections
sedis
see
seen
seg
sel
select
selected
self
selfref
semi
sep
separate
separated
separator
separators
sepc
september
seq
sequence
series
server
service
set
setmetatable
setranks
sets
setting
settings
several
shackle
shan
sheet
sheets
short
shortcut
shortcuts
should
show
showing
shown
si
side
sigfig
sign
significant
similar
simple
since
single
singular
sinh
sister
sisterlist
site
sitelink
size
sizing
sk
skip
sl
slash
small
snak
snaktype
snapdate
so
solar
solid
some
something
sort
sortable
sortkey
source
sourced
south
southeast
southern
southwestern
sp
space
spaces
spacing
span
spanish
spec
special
species
specific
specified
specify
speed
speedy
spell
spelling
splat
split
spring
sq
sqft
sqmi
square
squared
sr
src
ss
ssrn
st
standard
standards
start
starting
state
statement
statements
states
statistics
status
stf
still
store
stored
str
strange
strict
string
strings
stringsi
strip
stripmarker
stripped
strout
stub
stubcats
student
style
styles
su
sub
subdivs
subgenus
subject
subjectspace
subpage
subpages
subsp
substitute
substring
subtables
subtags
subtype
subunit
success
such
sudan
suffix
suggestions
summary
summer
sunday
sup
supl
supplied
support
supported
suppressed
sure
surname
sv
svg
switch
sym
symbol
sysop
system
t
ta
tab
table
tablecell
tablecode
tables
tabletools
tabs
tag
tags
tai
tail
take
takes
talk
talkpage
taml
tang
tanzania
tarask
target
taung
taxobox
taxon
taxonomic
taxonomy
tbl
tcommon
td
te
telu
temp
temperature
template
templateeditor
templatepar
templates
templatestyles
templatetitle
temporary
terminal
terminate
test
testcases
testcasestitle
tested
testfunc
testing
tests
text
textpart
textstyle
tfrac
th
thai
than
tharlon
that
the
their
them
then
there
these
they
thing
things
third
this
those
thousand
three
through
thumb
time
times
timestamp
timezone
title
titleobj
titlepart
titles
tj
tld
tmbox
tmp
tnt
to
todo
together
token
ton
tonne
tonumber
too
tools
tooltip
top
torque
tostring
total
township
townships
tr
track
tracking
trackingcats
trailing
trans
transcluded
transcript
transl
translate
translation
translator
translators
translit
transliteration
transparent
transtitle
trim
trimarg
trimmed
true
try
ts
tt
turn
tw
two
txt
txtlang
type
types
tz
tzargs
u
ucode
ug
ui
uk
ul
ultra
ulx
un
uncertainty
undefined
under
unicode
union
unique
unit
unitcode
united
units
university
unknown
unless
unnamed
unpack
unrecognized
unset
until
up
update
updjc
upload
upper
uppercase
upright
ur
uri
url
urls
us
usage
use
used
useful
uselang
usename
user
username
users
uses
usgal
using
usoz
ustring
utable
utc
util
utilities
utype
uwsa
uwsp
v
va
val
valid
validate
validation
valinfo
value
valuefunc
values
valuesi
vanc
vancouver
vandalism
var
variable
variables
variant
various
vauthors
ve
vec
veditors
verb
version
vertical
vi
via
vietnam
view
virus
vol
volume
vum
w
wa
want
wanted
war
warning
was
water
way
wayback
wd
we
web
webarchive
website
weight
well
were
west
western
what
when
where
whether
which
while
white
whitelist
whitespace
who
whole
wholestr
whose
why
wide
width
wiki
wikibase
wikidata
wikilink
wikilinks
wikimedia
wikipedia
wikisource
wikitext
will
window
winter
with
within
without
wl
word
words
work
working
works
world
would
wp
wrap
wrapped
wrapper
wrappers
write
written
wrong
ws
www
x
xg
xx
y
ya
yangon
yd
year
years
yearstr
yes
yesno
yet
ym
ymd
ymdhm
ymdhms
you
your
yyyy
z
za
zapotec
zawgyi
zero
zeros
zh
zhuang
zinh
zone
zones
zyyy
{
|
}
~

¢
£
§
«
°
±
²
´
µ
¶
·
»
¼
½
×
æ
ð
÷
ø
þ
ŋ
ɏ
ɑ
ɒ
ɔ
ə
ɛ
ɜ
ɡ
ɪ
ʃ
ʊ
ʌ
ʒ
ʔ
ʲ
ʼ
ˈ
ˌ
ː
̀
́
̂
̃
̄
̆
̇
̈
̉
̊
̋
̌
̍
̓
̔
̛
̣
̦
̧
̨
̩
̪
̯
̱
̸
͂
ͅ
α
ε
η
θ
ι
μ
ο
ρ
ς
υ
ω
а
е
ж
з
и
к
у
і
ا
ر
ع
و
ي
َ
ِ
ْ
ٔ
ٕ
ं
इ
ई
स
ং
এর
ক
ঝ
ত
থ
দ
প
ব
ম
য
র
ল
শ
ষ
স
়
া
ি
ী
ু
ে
ৈ
্
்
ം
ക
ത
ന
മ
ല
ാ
ി
ു
്
พ
ศ
က
ကက
ကကင
ကခ
ကခမ
ကဂ
ကင
ကငမ
ကစ
ကစင
ကစဒ
ကဆ
ကဇ
ကဉ
ကည
ကဋ
ကဏ
ကတ
ကတက
ကတခ
ကတင
ကတစ
ကတဉ
ကတည
ကတတ
ကတန
ကတပ
ကတဗ
ကတမ
ကတယ
ကတရ
ကတလ
ကတသ
ကတအ
ကထ
ကထင
ကထန
ကဒ
ကဒင
ကဓ
ကဓမ
ကန
ကနစ
ကနန
ကနဝ
ကပ
ကပင
ကပညတ
ကပယ
ကပသ
ကဖ
ကဖတ
ကဖန
ကဗ
ကမ
ကမဉ
ကမတ
ကယ
ကယန
ကယပ
ကရ
ကရက
ကရင
ကရစ
ကရစရ
ကရဇ
ကရဏ
ကရပ
ကလ
ကလက
ကလင
ကလစ
ကလယ
ကလဝ
ကဝ
ကဝဂ
ကဝင
ကဝတ
ကသ
ကသက
ကသင
ကသန
ကသမ
ကဟ
ကဟဝ
ကအ
ကအက
ကအဝ
ကဿ
ကဿပ
ခ
ခက
ခခ
ခင
ခစ
ခဆင
ခဉ
ခဏ
ခဏသ
ခတ
ခတန
ခတရ
ခတဝ
ခထင
ခဒ
ခန
ခနမ
ခနဝ
ခပ
ခပထ
ခဖ
ခဗ
ခမ
ခယ
ခရ
ခရစ
ခလ
ခဝ
ခဝင
ခသ
ခသစ
ခအ
ခအက
ခအမ
ဂ
ဂင
ဂစ
ဂဇ
ဂဇင
ဂဋ
ဂဏ
ဂဏန
ဂတ
ဂဒ
ဂန
ဂနမ
ဂနဝ
ဂပ
ဂဗ
ဂမ
ဂမဟ
ဂယ
ဂရ
ဂရမ
ဂလ
ဂလန
ဂဝ
ဂဝတ
ဂသ
ဂသစ
ဂဟ
ဂဠ
ဂအစ
ဃ
ဃဋ
ဃန
ဃပဇ
ဃသ
ဃဿ
င
ငခ
ငင
ငဉ
ငတ
ငထ
ငထဝ
ငန
ငပ
ငပယ
ငဖ
ငမ
ငယ
ငရ
ငဝ
စ
စက
စကန
စခ
စခန
စင
စငတ
စစ
စစနဝ
စစရ
စဉ
စည
စတ
စတန
စတဗ
စထ
စဒ
စန
စနစ
စနဝ
စပ
စပရ
စဖ
စဗ
စမ
စမဂ
စယ
စရ
စရင
စရဏသမ
စလ
စဝ
စဝဂ
စသ
စသည
စဟန
စအ
စအမ
စအရ
ဆ
ဆက
ဆခ
ဆင
ဆစ
ဆဉ
ဆည
ဆဋ
ဆတ
ဆထင
ဆဒ
ဆန
ဆနဝ
ဆပ
ဆမ
ဆယ
ဆရ
ဆလ
ဆလယ
ဆဝ
ဇ
ဇက
ဇဂ
ဇင
ဇဉ
ဇတ
ဇန
ဇပ
ဇပမ
ဇမ
ဇယ
ဇရ
ဇလ
ဇဝက
ဇဝင
ဇဝန
ဇသ
ဇဿ
ဈ
ဈင
ဈတ
ဉ
ည
ညက
ညင
ညစ
ညဆ
ညဉ
ညည
ညညတ
ညညတလ
ညညနဝ
ညညမ
ညတ
ညတဝ
ညထ
ညဒ
ညန
ညနဝ
ညဗ
ညမ
ညလ
ညဝ
ညသ
ဋ
ဋကတ
ဋပ
ဌ
ဌကထ
ဌကန
ဌဂ
ဌဆရ
ဌတ
ဌတန
ဌထ
ဌန
ဌနဝ
ဌပ
ဌမ
ဌလ
ဌသ
ဍ
ဍက
ဍည
ဍန
ဍနဝ
ဍပ
ဍဖ
ဍမ
ဍယ
ဍလ
ဍသ
ဍဟ
ဎ
ဏ
ဏက
ဏခမ
ဏဒဏ
ဏဘ
ဏမ
ဏလ
ဏဝ
ဏသ
တ
တက
တကင
တကန
တကမ
တကယ
တကသ
တခ
တခစ
တခန
တခမ
တခဝ
တဂ
တင
တငမ
တစ
တစက
တစင
တဆ
တဆင
တဇ
တဉ
တည
တညင
တညတ
တညတဝ
တဏ
တတ
တတန
တတရ
တထ
တထင
တထန
တဒ
တဒင
တန
တနင
တနတ
တနန
တနမ
တနယ
တနရ
တနဝ
တပ
တပင
တပည
တပဏ
တပတ
တပန
တပယ
တပရ
တပလ
တပဿ
တဖ
တဖင
တဖန
တဗ
တဗင
တဗန
တဘ
တမ
တမက
တမဂ
တမဉ
တမတ
တမန
တမနဝ
တမဗ
တမယ
တမသ
တယ
တယင
တယပ
တယဝ
တရ
တရက
တရကပ
တရဃရ
တရင
တရတ
တရန
တရပ
တရဝ
တရသ
တလ
တလက
တလင
တလန
တလမ
တဝ
တဝင
တဝတ
တဝန
တသ
တသက
တသင
တသဉ
တသည
တသတ
တသန
တသမ
တဟ
တဟဝ
တအ
တအင
တအစ
တအန
တအမ
တအဝ
တဿ
ထ
ထက
ထဂ
ထင
ထစရ
ထဉ
ထတ
ထထ
ထန
ထပ
ထမ
ထရ
ထရစ
ထဝ
ထသ
ဒ
ဒက
ဒခ
ဒဂ
ဒင
ဒစ
ဒဉ
ဒဋ
ဒဏ
ဒတ
ဒထ
ဒဒ
ဒန
ဒနယ
ဒနဝ
ဒပ
ဒပည
ဒဖ
ဒဗ
ဒမ
ဒမန
ဒယ
ဒယသစ
ဒရ
ဒရယ
ဒလ
ဒလစ
ဒဝ
ဒသ
ဒသကန
ဒသမ
ဒအတ
ဒအန
ဒအလ
ဒအဝ
ဒဿန
ဓ
ဓက
ဓကဝတ
ဓဂ
ဓဂယ
ဓစ
ဓဇဂ
ဓတ
ဓန
ဓနဉ
ဓနသဌ
ဓပ
ဓဗ
ဓဘ
ဓမ
ဓရ
ဓလ
ဓဝ
ဓဝင
ဓသ
ဓသစ
ဓဟ
ဓဿ
န
နက
နခ
နဂ
နင
နစ
နဆ
နဉ
နည
နတ
နတန
နတရ
နထ
နဒ
နန
နနဝ
နပ
နဖ
နဗ
နမ
နယ
နရ
နလ
နဝ
နဝဂ
နဝင
နသ
နအ
နဿ
နဿတ
ပ
ပက
ပကတ
ပခ
ပခမ
ပခရ
ပဂ
ပင
ပစ
ပဆ
ပဇ
ပဉ
ပည
ပညတ
ပဋ
ပဌ
ပဌမ
ပဏ
ပတ
ပထ
ပထမ
ပထမက
ပထမဂ
ပထမဆ
ပထမတ
ပထမတန
ပထမန
ပထမပ
ပထမရန
ပထမလ
ပထမသ
ပထမအက
ပထမအရ
ပထမအလ
ပထမဥက
ပထဝ
ပဒ
ပဓ
ပန
ပပ
ပပည
ပဗ
ပဘ
ပဘဝ
ပမ
ပမည
ပယ
ပရ
ပရတသ
ပရန
ပရမတ
ပရဟ
ပလ
ပဝ
ပသ
ပဟ
ပအ
ပအမဖ
ပအမဖပ
ပအလဖ
ပဿ
ပဿတ
ပဿန
ဖ
ဖက
ဖခ
ဖင
ဖစ
ဖဉ
ဖတ
ဖထ
ဖထန
ဖဒ
ဖန
ဖပ
ဖဖ
ဖဗ
ဖမ
ဖယ
ဖရ
ဖလ
ဖလန
ဖဝ
ဖဝင
ဖဝယ
ဖသ
ဖအ
ဖဿ
ဗ
ဗက
ဗကပ
ဗင
ဗစ
ဗစက
ဗဇ
ဗဉ
ဗည
ဗတ
ဗဒ
ဗန
ဗပ
ဗမ
ဗယ
ဗရ
ဗလ
ဗဝ
ဗသ
ဗဟ
ဗအ
ဘ
ဘက
ဘဂ
ဘဂဝ
ဘဂဝတ
ဘင
ဘစ
ဘဏ
ဘတ
ဘတဏ
ဘတန
ဘဒ
ဘန
ဘမ
ဘယ
ဘယတသ
ဘရ
ဘလ
ဘဝ
ဘဝက
ဘဝကရ
ဘဝခ
ဘဝင
ဘဝဇ
ဘဝတ
ဘဝတသ
ဘဝထ
ဘဝန
ဘဝနဝ
ဘဝပ
ဘဝဖ
ဘဝမ
ဘဝယ
ဘဝရ
ဘဝလ
ဘဝသ
ဘဝဟ
ဘဝအ
ဘသ
ဘအ
ဘဥ
မ
မက
မကထ
မခ
မဂ
မဃဒ
မင
မစ
မစက
မစရ
မဆ
မဇ
မဉ
မည
မညမမ
မဋ
မဏ
မတ
မတန
မတမ
မတဝ
မတဥ
မထ
မဒ
မဒတ
မဓ
မန
မနက
မနဝ
မနသ
မပ
မပဏ
မပဒ
မပဒအမ
မဖ
မဗ
မဘ
မမ
မမင
မယ
မရ
မရဏ
မရမ
မလ
မဝ
မဝန
မသ
မသတ
မဟ
မအ
မဿဝန
ယ
ယက
ယကမ
ယခ
ယခမ
ယဂ
ယင
ယစ
ယစန
ယဆ
ယဇ
ယဉ
ယတ
ယတန
ယတနစ
ယတဖ
ယတရ
ယထ
ယဒ
ယန
ယနဝ
ယပ
ယပယ
ယဖ
ယဗ
ယဘ
ယမ
ယယ
ယရ
ယရန
ယရပ
ယလ
ယဝ
ယသ
ယသမ
ယဟ
ယဟန
ယအ
ယအက
ယအတန
ယအရ
ယအလ
ယဥက
ယဿ
ရ
ရက
ရခ
ရဂ
ရင
ရစ
ရဆ
ရဇ
ရဉ
ရည
ရဋ
ရဌ
ရဏ
ရတ
ရတန
ရတရ
ရတသ
ရထ
ရဒ
ရဓ
ရန
ရနဝ
ရပ
ရပလ
ရဖ
ရဗ
ရမ
ရမည
ရမဏ
ရယ
ရရ
ရလ
ရလက
ရလလဖ
ရဝ
ရဝတ
ရသ
ရဟ
ရဟန
ရဟဝ
ရအ
ရအစ
ရအပ
ရအမတ
ရအဝ
ရဿ
ရဿသရ
လ
လက
လခ
လင
လငတ
လစ
လဆ
လဉ
လည
လတ
လတန
လထ
လဒ
လန
လနဝ
လပ
လဖ
လဗ
လဘ
လမ
လမင
လယ
လရ
လရန
လလ
လလင
လဝ
လဝတ
လသ
လသည
လသမဂ
လအ
လအက
လအတ
လအမ
လအဝ
ဝ
ဝက
ဝကသ
ဝခ
ဝခမ
ဝဂ
ဝင
ဝစ
ဝစဿတ
ဝဇ
ဝဋ
ဝဍ
ဝဏ
ဝတ
ဝတရ
ဝထ
ဝဒ
ဝဒတ
ဝန
ဝနမ
ဝနဝ
ဝပ
ဝဖ
ဝဗ
ဝဘ
ဝမ
ဝမန
ဝယ
ဝရ
ဝရဏ
ဝရဏတရ
ဝရပ
ဝရသ
ဝလ
ဝဝ
ဝဝတ
ဝသ
ဝဟ
ဝဠ
ဝအထ
ဝအသ
သ
သက
သကဒ
သခ
သခင
သဂ
သင
သစ
သဆ
သဇ
သဉ
သည
သညင
သဌ
သဏ
သတ
သတင
သတန
သတဗ
သထ
သထသ
သဒ
သဒမ
သဓ
သန
သနပ
သနယ
သနဝ
သပ
သပတ
သဖ
သဗ
သဘ
သဘင
သမ
သမဂ
သမဏ
သမဏဗ
သမတ
သမထ
သမန
သယ
သယတ
သယန
သရ
သရက
သရငဝ
သရစ
သရဏ
သရဏဂ
သရဏဂမ
သရတ
သရတဖ
သရဒ
သရန
သရနဝ
သရပ
သရဖ
သရမ
သရယ
သရလ
သရသ
သရအဝ
သလ
သလခမ
သလမ
သဝ
သဝတရ
သသ
သဟ
သအ
သအက
သအလ
ဟ
ဟက
ဟင
ဟတ
ဟထ
ဟန
ဟမ
ဟယ
ဟရ
ဟဝ
ဟသ
ဠ
ဠန
အ
အက
အကင
အကတ
အကမ
အကယ
အကဝ
အခ
အခင
အခန
အခမ
အခရ
အခဝ
အဂ
အဂတ
အင
အငင
အငဝ
အစ
အစက
အစစအရ
အစည
အစနဝ
အစဝ
အဆ
အဆက
အဆင
အဆန
အဆရ
အဇ
အဉ
အည
အညတ
အညမ
အဋ
အဏ
အတ
အတက
အတခ
အတတ
အတန
အတပ
အတဗ
အတမ
အတရ
အတလ
အတသ
အတအ
အထ
အထက
အထင
အထန
အဒ
အဒဝ
အဓ
အဓမ
အန
အနက
အနစ
အနတ
အနန
အနဘ
အနမ
အနယ
အနဝဇ
အပ
အပင
အပန
အပရ
အဖ
အဗ
အဘ
အမ
အမင
အမဉ
အမတ
အမန
အမရပ
အယ
အယပ
အယမ
အရ
အရက
အရင
အရည
အရန
အရပ
အရမ
အရသ
အရဟ
အရဟတ
အရဟန
အလ
အလက
အလင
အလမ
အလယ
အဝ
အဝက
အဝင
အသ
အသက
အသင
အသန
အသပ
အသမ
အဟ
အဟမ
အဟဝ
အအ
အအဝ
အဿ
အဿဇ
အဿဒ
ဣ
ဣစ
ဣတ
ဣဒ
ဣဒမ
ဣဓ
ဣန
ဣမ
ဣသရ
ဤ
ဤသ
ဥ
ဥက
ဥစ
ဥဇ
ဥဉ
ဥတ
ဥဒ
ဥဒက
ဥပ
ဥပက
ဥပဇ
ဥပဋ
ဥပဒ
ဥပဓ
ဥပပ
ဥပမ
ဥပရ
ဥပသမ
ဥယ
ဥရ
ဥလ
ဥဿ
ဧ
ဧက
ဧကစ
ဧကတ
ဧကန
ဧကရ
ဧတ
ဧပ
ဧရ
ဧဝ
ဧသ
ဧဟ
ဩ
ဩက
ဩဂ
ဩဇ
ဩတ
ဩပန
ဩဗ
ဩဝ
ဩသတ
ဪ
ါ
ာ
ိ
ီ
ု
ူ
ေ
ဲ
ဵ
ံ
့
း
္
်
ျ
ြ
ွ
ှ
ဿ
ဿစ
ဿတ
ဿန
ဿဗ
ဿယ
ဿရ
၀
၀၀
၀၀၀
၁
၁၀
၁၀၀
၁၀၀၀
၁၀၀၀၀
၁၀၃
၁၁
၁၂
၁၂၀
၁၂၈
၁၃
၁၃၀
၁၃၀၀
၁၃၀၇
၁၃၀၈
၁၃၀၉
၁၃၁၀
၁၃၁၂
၁၃၁၃
၁၃၁၇
၁၃၁၉
၁၃၂၂
၁၃၂၄
၁၃၃၇
၁၃၃၉
၁၃၄
၁၃၄၀
၁၃၄၄
၁၃၄၈
၁၃၅
၁၃၅၀
၁၃၆၁
၁၄
၁၄၈
၁၅
၁၅၀
၁၆
၁၇
၁၈
၁၈၀
၁၈၈၇
၁၈၉၇
၁၉
၁၉၃၀
၁၉၃၁
၁၉၄၂
၁၉၄၅
၁၉၄၆
၁၉၄၇
၁၉၄၈
၁၉၄၉
၁၉၅၀
၁၉၅၁
၁၉၅၂
၁၉၅၃
၁၉၅၄
၁၉၅၆
၁၉၅၈
၁၉၅၉
၁၉၆၀
၁၉၆၁
၁၉၆၂
၁၉၆၃
၁၉၆၄
၁၉၆၆
၁၉၆၇
၁၉၆၈
၁၉၇၁
၁၉၇၂
၁၉၇၃
၁၉၇၄
၁၉၇၅
၁၉၇၆
၁၉၇၈
၁၉၈၀
၁၉၈၃
၁၉၈၈
၁၉၈၉
၁၉၉၀
၁၉၉၁
၁၉၉၂
၁၉၉၃
၁၉၉၇
၁၉၉၉
၂
၂၀
၂၀၀
၂၀၀၀
၂၀၀၅
၂၀၀၆
၂၀၀၇
၂၀၀၈
၂၀၀၉
၂၀၁၀
၂၀၁၁
၂၀၁၂
၂၀၁၃
၂၀၁၄
၂၀၁၅
၂၀၁၆
၂၀၁၇
၂၀၁၈
၂၀၁၉
၂၀၂၀
၂၀၂၁
၂၀၂၂
၂၁
၂၂
၂၃
၂၄
၂၅
၂၅၀၀
၂၆
၂၇
၂၈
၂၉
၃
၃၀
၃၀၀
၃၀၀၀
၃၁
၃၂
၃၃
၃၄
၃၅
၃၆
၃၇
၃၈
၃၉
၄
၄၀
၄၀၀
၄၁
၄၁၉
၄၂
၄၃
၄၄
၄၅
၄၆
၄၇
၄၈
၄၉
၅
၅၀
၅၀၀
၅၀၀၀
၅၁
၅၂
၅၃
၅၄
၅၅
၅၅၀
၅၆
၅၇
၅၈
၅၉
၆
၆၀
၆၀၀
၆၀၁၈
၆၁
၆၂
၆၃
၆၄
၆၅
၆၆
၆၇
၆၈
၆၉
၇
၇၀
၇၀၀
၇၁
၇၂
၇၃
၇၄
၇၅
၇၆
၇၇
၇၈
၇၉
၈
၈၀
၈၀၀
၈၁
၈၂
၈၃
၈၄
၈၅
၈၆
၈၈
၈၉
၉
၉၀
၉၀၇
၉၁
၉၂
၉၄
၉၅
၉၆
၉၇
၉၈
၉၉
၊
။
၌
၍
၎
၏
ၐ
ၢ
ၵ
ၶ
ၸ
ၼ
ၽ
ႃ
ႄ
ႅ
ႆ
ႇ
ႈ
ႉ
ႏ
႐
្
ᵊ
​
‌
‍
‎
‑
–
—
‘
’
“
”
†
•
…
‰
′
″
⁠
€
←
→
↔
↷
−
∴
≈
≤
≥
⋅
␥
③
④
⑦
☉
☎
♠
✮
⺀
⺄
⺆
⺈
⺊
⺌
⺕
⺝
⺸
⺼
⿰
⿱
⿲
⿳
⿴
⿵
⿶
⿷
⿸
⿹
⿺
⿻
、
。
〢
い
か
た
て
と
に
の
は
ま
よ
ら
り
る
を
゙
コ
ユ
㇁
㇂
㇄
㇇
㇈
㇉
㇓
㐁
㐄
㐅
㐌
㐫
㐬
㐭
㐮
㐱
㑒
㒵
㒸
㒼
㓁
㓞
㔾
㕛
㕣
㖾
㘝
㚅
㚇
㚔
㚘
㝉
㝡
㝴
㝵
㞋
㞢
㞷
㠩
㠭
㠯
㡀
㡭
㡿
㢲
㢴
㣇
㣺
㥯
㪅
㫄
㫐
㫒
㫺
㬅
㬎
㬥
㬰
㲋
㳄
㷠
㸒
㸚
㸦
㼌
㼲
㽞
㿟
䀠
䂞
䍃
䏍
䒑
䖍
䖒
䖝
䖵
䙴
䚻
䜌
䝿
䡛
䧹
䪞
一
丁
丂
七
丄
丅
丆
万
丈
三
上
下
丌
不
与
丏
丐
丑
专
且
丕
世
丘
丙
业
东
丞
丢
丣
两
严
並
丨
丩
个
丫
丬
中
丮
丰
丱
串
丵
丶
丷
丸
丹
为
主
丽
丿
乀
乂
乃
久
乆
乇
么
义
之
乌
乍
乎
乏
乐
乑
乔
乖
乗
乘
乙
乚
乛
乜
九
乞
也
习
乡
乳
乾
亀
亅
了
亇
予
争
事
二
亍
于
亏
亐
云
互
亓
五
井
亘
亚
亜
亞
亟
亠
亡
亢
交
亥
亦
产
亨
亩
享
京
亭
亮
亯
亰
亲
亳
亶
亷
人
亻
亼
亾
仁
今
介
仌
从
仐
仑
仒
仓
仕
他
付
仝
代
令
以
任
企
伊
伏
伐
休
会
伯
但
位
何
佘
余
作
佥
使
來
侈
侌
侖
侯
侵
便
保
俞
信
修
倉
倍
候
倠
備
僉
僕
儿
兀
允
兂
元
兄
充
兆
兇
先
光
兊
克
兌
免
兑
兒
兓
兔
党
兜
兟
入
全
兩
兪
八
公
六
兮
兰
共
关
兵
其
具
典
兹
兼
冀
冂
冃
冄
内
冈
冉
冊
冋
册
再
冎
冏
冐
冒
冓
冖
冗
冘
军
农
冝
冡
冥
冫
冬
冷
几
凡
凢
凵
凶
凷
凸
凹
出
函
凾
刀
刁
刂
刃
刄
刅
分
切
刍
刑
刕
刖
列
刘
则
初
別
利
别
到
制
刺
則
削
剌
前
剡
剽
劉
力
功
加
劦
助
劫
劳
劵
勃
勇
勉
勒
動
務
勞
勤
勹
勺
勻
勾
勿
匀
匂
包
匆
匈
匊
匋
匍
匕
化
北
匚
匝
匡
匪
匱
匸
匹
区
医
匽
匿
區
十
卂
千
卄
卅
卆
升
午
卉
半
卌
华
卑
卒
卓
单
卖
南
卜
卝
卞
占
卡
卢
卣
卤
卦
卩
卪
卬
卯
印
危
即
却
卵
卷
卸
卻
厂
厃
厄
历
厈
厉
厌
厓
厘
厚
原
厤
厥
厨
厭
厲
厶
厷
厸
去
厼
厽
叀
参
參
叅
又
叉
及
友
双
反
叐
发
叒
叔
叕
取
受
叚
叜
叟
口
古
句
另
叩
只
召
可
台
叱
史
右
叵
号
司
叹
吂
各
吅
合
吉
吊
吋
同
名
后
吏
向
吕
君
吝
吞
否
含
启
吳
吴
吹
吾
呂
呆
呈
告
员
呙
周
命
咅
和
咎
咠
咢
咨
咸
咼
哀
品
哉
員
哥
哲
唐
商
啇
問
啚
啬
啻
善
喜
喬
單
喿
嗇
噩
嚴
囊
囗
囘
囙
囚
四
回
囟
因
囧
囬
困
囱
囷
固
国
圂
圅
國
圍
圓
土
圡
圣
圥
在
圭
地
圶
圼
坐
坒
坚
坴
垂
垔
垚
埀
埋
埶
執
基
堂
堅
堆
堇
堯
塞
墨
壘
士
壬
壯
声
壳
壴
壹
壺
壽
夂
处
夅
夆
备
夊
夋
夌
复
夏
夒
夕
外
夗
夘
多
夜
夢
大
夨
天
太
夫
夬
夭
央
失
夲
头
夷
夸
夹
夻
夾
奂
奄
奇
奈
奉
奎
奏
奐
契
奓
奔
奚
奞
奠
奢
奥
奭
女
奴
奻
好
如
妄
妙
妟
妥
妻
妾
姑
委
姜
威
娄
婁
婴
嬰
嬴
子
孑
孔
孕
孖
字
存
孚
孛
孝
孟
季
孤
学
孫
孱
學
宀
宁
宂
它
宅
宇
守
安
宋
完
宏
宓
宗
官
定
宛
宜
宝
客
宣
室
宮
宰
害
家
容
宾
宿
寄
寅
密
富
寒
察
寧
審
寫
寬
寮
寸
对
寺
寻
寽
対
寿
封
尃
射
将
將
專
尉
尊
尋
尌
對
小
少
尒
尓
尔
尖
尗
尚
尞
尢
尣
尤
尧
尨
尭
就
尸
尹
尺
尻
尼
尽
尾
尿
局
居
屈
屋
屎
屏
屑
展
屖
屚
属
屠
屡
屬
屮
屯
屰
山
屵
屾
岁
岂
岑
岡
岩
岳
岸
峯
島
崇
崑
崔
崖
崙
崩
嵬
嶲
巂
巛
川
州
巟
巠
巢
巤
工
左
巧
巨
巩
巫
差
己
已
巳
巴
巷
巸
巽
巾
巿
帀
市
布
希
帚
帛
帝
带
師
席
帶
常
干
平
年
幵
并
幷
幸
幺
幻
幼
幽
幾
广
広
庄
床
底
店
庚
府
度
庫
庭
庶
康
庸
廉
廌
廛
廣
廩
廴
延
廷
建
廾
廿
开
弁
弃
弄
弇
弋
式
弓
弔
引
弗
弘
弜
弟
弥
弦
弱
張
強
强
彊
彌
彎
彐
彑
当
彔
录
彖
彗
彡
形
彥
彦
彧
彭
彳
役
彼
往
待
律
徒
得
徙
從
復
微
徵
心
忄
必
忌
忍
志
忝
忠
忩
快
念
忽
忿
思
怠
急
怱
恆
恒
恩
恭
息
悉
患
悤
悲
悶
惠
惡
惢
愁
愈
意
愛
感
慈
慧
慮
憂
憲
應
戀
戈
戉
戊
戋
戌
戍
戎
成
我
戒
戔
或
戚
戠
戢
截
戲
戶
户
戹
戼
戾
房
所
扁
扇
手
扌
才
打
托
执
承
折
拉
拜
拿
掌
推
提
摩
支
攴
攵
收
攸
改
放
政
敄
敏
敕
敖
敗
敝
敞
敢
散
敦
敫
敬
数
敷
數
斂
文
斉
斊
斗
斤
斥
斩
斬
斯
新
方
於
施
斿
旁
旋
族
无
旡
既
旣
日
旦
旧
旨
早
旬
旱
旲
时
旾
昆
昇
昌
昍
明
昏
易
昔
昗
昜
星
春
昬
是
昱
昴
昷
時
晃
晋
晏
普
景
晶
智
暑
暴
曇
曩
曰
曲
曳
更
曷
書
曹
曼
曾
替
最
朁
會
月
有
朋
服
朔
朕
朗
望
朝
期
木
朩
未
末
本
札
朮
术
朱
朵
朶
朿
杀
杏
杜
束
条
来
東
杲
杳
松
析
林
枚
果
枝
枲
枼
某
柔
查
柬
柰
柴
栗
桀
桑
桼
梁
條
梟
梨
棘
棠
棥
森
楚
業
楽
榮
樂
樊
欠
次
欣
欮
欲
欶
欽
款
歆
歇
歛
止
正
此
步
武
歨
歪
歮
歯
歰
歲
歴
歷
歸
歹
歺
死
殳
段
殷
殸
殹
殺
殻
殿
毋
毌
母
每
毒
比
毕
毚
毛
毳
氏
氐
民
气
氣
水
氵
氶
氷
永
氺
氾
求
汝
汞
江
沃
沓
沙
沝
治
泉
法
波
泣
泥
泰
洛
洪
活
派
流
浦
浪
浮
海
淡
淮
清
渚
渠
湯
滿
漸
火
灬
灭
灰
灵
灷
炅
炎
炏
炗
炙
炭
為
烈
烏
烝
焉
無
焦
焱
然
煞
熊
熏
燕
營
燮
爪
爫
爭
爯
爰
爱
爲
爵
父
爻
爽
爾
爿
片
牙
牚
牛
牜
牟
牢
牧
牪
特
牽
犀
犬
犭
犮
狂
狄
狊
独
狺
猋
猒
猪
献
獻
玄
率
玉
王
玟
玨
珎
班
琴
瑟
瑩
瓜
瓦
甘
甚
生
産
用
甫
甬
田
由
甲
申
电
甶
男
甸
甹
画
甾
畀
界
畏
畐
留
畜
畟
畢
畧
畨
番
畫
異
畱
當
畺
畾
疊
疋
疌
疑
疒
疾
癶
癸
癹
登
發
白
百
皀
皃
的
皆
皇
皋
皐
皕
皮
皷
皿
盃
盆
盇
盈
益
盍
盎
监
盒
盖
盛
盡
監
盤
盧
目
直
相
盾
省
眇
眉
看
眔
眞
真
眷
眼
眾
着
睘
睪
睿
瞏
瞢
瞿
矍
矛
矞
矢
矣
知
矦
短
石
破
碎
磊
磨
示
礻
礼
祟
票
祭
禀
禁
禸
禹
禺
离
禽
禾
禿
秀
秃
秉
秋
科
秝
秦
移
稟
穀
穌
穴
究
穹
空
穿
突
窄
窒
立
竒
竜
竝
竟
章
童
竹
笑
笠
第
筆
等
答
箕
算
箴
節
篤
篭
米
粉
粛
粟
粤
粦
粲
糞
糸
糹
系
紀
約
納
素
索
紫
累
細
絜
絫
絲
維
綿
縣
繇
纍
纟
纪
缶
网
罒
罔
罕
罗
罙
罡
罢
罪
署
罷
羅
羊
羌
羍
美
羔
羕
羗
羞
羡
羣
群
義
羲
羸
羽
翁
翏
習
翕
翟
翠
翼
老
耂
考
者
耆
而
耎
耑
耒
耳
耴
耶
耷
聂
聊
聖
聚
聶
聿
肀
肃
肅
肉
肖
肙
肥
肩
肯
育
肴
胃
背
胡
胥
能
脊
脩
膚
臣
臤
臧
自
臬
臭
臯
臱
至
致
臺
臼
臽
臾
臿
舀
舂
舄
與
興
舉
舌
舍
舛
舜
舞
舟
般
艮
良
色
艸
艹
艾
芒
芔
芬
芮
花
芳
芺
芻
苔
苗
苟
若
苦
英
茶
茸
荅
草
荒
荣
荼
莆
莧
莫
莽
菆
菊
菐
華
萬
落
葉
著
葛
董
葵
蒙
蒦
蒼
蓋
蓬
蓺
蔑
蔡
蕉
蕭
薄
薛
薦
薰
藍
藏
藥
蘭
虍
虎
虐
虒
虔
處
虖
虗
虘
虚
虛
虜
虞
虫
虽
蚤
蚩
蜀
蜜
蟲
蠡
血
行
衍
衛
衣
衤
表
衮
衰
袁
袞
褭
褱
襄
襾
西
覀
要
覃
見
規
覓
覧
親
覽
见
角
解
言
訁
訇
計
詹
語
誩
諸
讠
谷
豆
豈
豊
豐
豕
豖
豙
象
豦
豩
豪
豸
貇
貝
貞
貟
負
貢
貧
貪
貫
責
貳
貴
買
費
賁
資
賈
賏
賓
賔
賛
賞
賢
賣
質
賴
贊
贝
贡
责
贯
贲
贵
赖
赞
赤
赦
走
越
足
路
蹇
身
躬
車
軍
軎
軟
輦
车
辛
辜
辟
辥
辰
辱
農
辵
辶
边
达
过
近
连
迷
追
退
送
逆
逐
通
速
造
逢
連
逮
進
遀
遂
過
道
達
遣
適
遷
遺
邊
邑
邕
那
邦
邪
郎
部
郭
都
鄉
酉
酋
配
酓
釆
采
里
重
野
量
金
釒
錢
钅
長
镸
长
門
閃
閉
開
閏
閑
閒
間
閔
閵
閻
闌
门
间
闷
阑
阜
阝
阿
降
陳
隆
隊
隋
隡
隨
隱
隶
隹
隺
隻
隼
隽
难
雀
雁
集
雈
雋
雍
雐
雔
雙
雚
雜
雝
離
難
雨
雩
雪
雲
零
雷
需
霍
霜
霝
霞
霸
靈
靑
青
非
靡
面
靣
革
韋
韦
韭
韯
韱
音
頁
頃
項
須
頗
頡
頻
顛
页
風
风
飛
飞
食
飠
養
饣
首
香
馬
馮
駦
马
骨
高
髟
鬥
鬯
鬲
鬼
魚
魯
鮮
鱼
鲁
鳥
鳳
鸟
鹵
鹿
麃
麗
麥
麦
麻
黃
黄
黍
黎
黑
黒
黨
黹
黽
黾
鼎
鼓
鼠
鼻
齊
齋
齐
齒
齿
龍
龙
龜
龟
龠
龰
龱
龴
龵
龶
龷
龸
龹
ꩻ
者
艹
（
）
？
👉
📖
🜨
𠀁
𠀃
𠀆
𠀉
𠀎
𠀐
𠁁
𠁣
𠂆
𠂇
𠂈
𠂉
𠂊
𠂋
𠂎
𠂒
𠂔
𠂛
𠂡
𠂢
𠂤
𠂬
𠂭
𠂹
𠃊
𠃋
𠃌
𠃍
𠃎
𠃑
𠃓
𠃔
𠃜
𠄌
𠄎
𠄠
𠄢
𠆢
𠆥
𠇍
𠈌
𠌵
𠓜
𠔉
𠔥
𠔼
𠔽
𠔿
𠕀
𠕁
𠕋
𠘧
𠘨
𠙻
𠙼
𠚏
𠚒
𠚤
𠚪
𠣏
𠤎
𠤕
𠥓
𠦄
𠦑
𠦝
𠧒
𠧗
𠧪
𠩺
𠪚
𠫓
𠫔
𠫤
𠬛
𠬝
𠬞
𠬢
𠬤
𠬶
𠮛
𠮦
𠮷
𠯑
𠱠
𠳮
𠷎
𡈼
𡉀
𡉵
𡌥
𡍮
𡏳
𡕒
𡕩
𡕰
𡖅
𡗗
𡗜
𡘆
𡘤
𡧱
𡨄
𡩧
𡬠
𡭽
𡰣
𡰥
𡰪
𡰯
𡰱
𡷈
𡸁
𡿨
𡿩
𡿪
𡿺
𢀖
𢀛
𢀩
𢁙
𢆉
𢆰
𢆶
𢇁
𢇇
𢉖
𢌬
𢌿
𢏚
𢑑
𢑚
𢖻
𢙣
𢛳
𢦏
𢦒
𢧵
𢼄
𢾕
𣁋
𣄼
𣅀
𣅽
𣍘
𣎳
𣎵
𣏋
𣏼
𣗥
𣥂
𣥖
𣦵
𣦼
𣧄
𣪊
𣪠
𣬉
𣳾
𣶒
𤇾
𤊽
𤐫
𤓰
𤔔
𤕨
𤣩
𤰇
𤰔
𤰞
𤴓
𤴔
𤽄
𥁑
𥁕
𥃦
𥃩
𥃭
𥇡
𥑟
𥘅
𥘈
𥝢
𥫗
𥱡
𦈢
𦉪
𦉬
𦉼
𦍌
𦍒
𦎧
𦐇
𦓔
𦔮
𦘒
𦙃
𦚏
𦣝
𦣞
𦣻
𦥑
𦥔
𦥯
𦨉
𦭝
𦰩
𧆞
𧈧
𧘇
𧰨
𧴪
𧴮
𧵩
𧾷
𨸏
𨾴
𩙿
𩠐
𩫏
𩵋
𪉷
𪜀
𪟽
𪠲
𪩲
𫇦
𫔭
𫜸
𫝀
𫠣
𫠩
𫢉
𫥞
𫩏
𫩠
𫪡
𫲽
𫶧
𬀷
𬐘
𬗌
𬙙
𬛸
𬜯
𬟩
𬯁
𬴘
𬺻
𬼉
𬼖
𭀰
𭁈
𭁨
𭅰
𭑈
𭕄
𭗼
𭤨
𭥫
𭻾
𮅕
𮊿
𮍌
𮍏
𮓗
𮥼
𮧮
廾
𰀁
𰀄
𰀈
𰀉
𰀕
𰀠
𰀡
𰀢
𰀪
𰁜
𰃮
𰆊
𰆘
𰋙
𰕎
𰢴
𰧭
𰯲
00--
01--
02--
03--
10--
11--
12--
13--
14--
15--
16--
17--
18--
19--
2--
20--
23--
3--
31--
3155760--
4--
43--
5--
6--
60--
7--
8--
9--
a--
ab--
ac--
ad--
add--
ae--
af--
ag--
aga--
al--
all--
alt--
am--
an--
app--
ar--
arg--
args--
aro--
as--
asse--
at--
au--
auto--
av--
b--
ba--
base--
be--
below--
bh--
bi--
bo--
body--
box--
br--
bro--
bu--
budd--
buddh--
bul--
bur--
c--
ca--
calcu--
call--
cat--
cell--
cfg--
ch--
cha--
check--
chi--
clean--
co--
code--
col--
com--
con--
cond--
conn--
cons--
cre--
create--
cro--
cu--
cur--
current--
d--
da--
data--
date--
day--
de--
dec--
di--
dis--
do--
doc--
down--
dra--
du--
e--
ed--
edit--
edu--
egy--
el--
em--
en--
err--
es--
eu--
ex--
expa--
expor--
ext--
f--
fa--
fac--
fe--
fetch--
ff--
fi--
fl--
for--
format--
fr--
ft--
fu--
g--
ga--
gad--
ge--
gen--
get--
gha--
gi--
giga--
go--
gra--
gre--
gu--
gui--
h--
ha--
has--
he--
hi--
hie--
ho--
hu--
i--
ich--
id--
if--
image--
img--
in--
intelli--
inter--
intro--
ir--
is--
iso--
it--
j--
ja--
java--
ji--
jo--
ju--
k--
ka--
kan--
kaw--
ke--
ken--
kh--
kha--
ki--
kilo--
ko--
ku--
kv--
kw--
kya--
l--
la--
lang--
last--
lay--
le--
li--
link--
list--
lo--
lookup--
lu--
lua--
m--
ma--
mag--
mai--
mak--
make--
mal--
man--
map--
mark--
max--
mb--
me--
mega--
mer--
meta--
mi--
micro--
milli--
mix--
ml--
mm--
mo--
moun--
mu--
mun--
mw--
my--
n--
na--
name--
nd--
ne--
new--
news--
ng--
ni--
nin--
no--
nor--
north--
ns--
num--
nya--
o--
occ--
oce--
octilli--
ok--
on--
op--
or--
orp--
os--
oun--
out--
over--
ox--
p--
pa--
par--
per--
ph--
pi--
pin--
pl--
pm--
po--
port--
pr--
pre--
prevalence--
pri--
pro--
prop--
pur--
q--
qu--
quadri--
qui--
r--
ra--
raw--
re--
regis--
render--
rep--
resolve--
ri--
ro--
row--
ru--
s--
sa--
sc--
sco--
se--
ser--
sh--
sha--
show--
si--
sk--
sl--
slo--
so--
sort--
sp--
sq--
ss--
st--
str--
sty--
su--
sub--
sugge--
sup--
super--
sur--
sy--
t--
ta--
table--
talk--
tas--
taxon--
te--
temp--
ter--
text--
th--
ti--
tibe--
time--
title--
to--
tr--
trans--
tri--
ts--
tu--
tur--
tw--
type--
typi--
tz--
u--
ug--
ul--
un--
ur--
us--
use--
usu--
v--
va--
val--
ve--
ver--
vi--
virg--
w--
wa--
want--
wd--
we--
web--
wi--
wiki--
wp--
x--
y--
ya--
ym--
z--
za--
ɔ--
ə--
က--
ကရ--
ကအ--
ခ--
ခရ--
ဂ--
ဂဏ--
ဃ--
ဃသ--
င--
စ--
စက--
စမ--
စယ--
ဆ--
ဆလ--
ဇ--
ဇန--
ဈ--
ဉ--
ည--
ဋ--
ဌ--
ဌမ--
ဍ--
ဍလ--
ဎ--
ဏ--
ဏက--
တ--
တက--
တဘ--
တမ--
တရ--
ထ--
ဒ--
ဒသ--
ဓ--
န--
နဝ--
ပ--
ပရ--
ပအ--
ဖ--
ဖဝ--
ဗ--
ဘ--
မ--
မည--
မတ--
မပ--
ယ--
ယက--
ယအ--
ရ--
ရသ--
ရအ--
ရဿ--
လ--
လသ--
လအ--
ဝ--
ဝက--
သ--
သက--
သန--
သမ--
သရ--
သလ--
သအ--
ဟ--
ဠ--
အ--
အစ--
အထ--
အသ--
ဣ--
ဥ--
ဥပ--
ဧ--
ဧက--
ဧတ--
ဩ--
ဿ--
၀--
၁၀--
၁၁--
၁၂--
၁၃--
၁၄--
၁၅--
၁၆--
၁၇--
၁၈--
၁၉--
၂၀--
၂၂--
၂၄--
၂၅--
၂၆--
၃၅--
၃၆--
၄၅--
၅၆--
၈--
၉--
--0
--00
--1
--2
--26
--3
--37
--4
--5
--54
--55
--6
--66
--7
--784
--8
--9
--96
--97
--98
--a
--able
--ada
--ah
--ai
--ait
--ak
--al
--ala
--am
--ama
--ame
--an
--ang
--ani
--ano
--ant
--ao
--apu
--ar
--arg
--args
--ari
--ary
--as
--at
--ata
--ate
--ated
--ation
--att
--aw
--ay
--b
--ba
--bar
--bbl
--be
--bi
--ble
--blurb
--bo
--box
--bu
--c
--ca
--cat
--ce
--ced
--cell
--ces
--ch
--cil
--ck
--count
--ct
--cy
--d
--da
--data
--date
--de
--di
--dio
--div
--do
--ds
--e
--ed
--ef
--ei
--ek
--el
--elf
--en
--ent
--ep
--epec
--er
--error
--ers
--es
--ese
--est
--et
--ey
--f
--ff
--flag
--form
--format
--g
--ga
--gan
--ge
--gi
--gian
--go
--gs
--gu
--gua
--h
--ha
--her
--hi
--ho
--i
--ia
--ial
--ian
--ic
--id
--ied
--ies
--ify
--ik
--il
--im
--in
--index
--ine
--ing
--io
--ion
--ional
--ions
--is
--ise
--ish
--ision
--ism
--it
--item
--ity
--ium
--ive
--ization
--ize
--ized
--j
--ji
--k
--ka
--ke
--key
--ki
--ko
--ks
--ku
--l
--la
--land
--lang
--le
--led
--les
--level
--li
--link
--links
--list
--lm
--lo
--ls
--ly
--m
--ma
--me
--ment
--mi
--mit
--mo
--model
--mu
--n
--na
--name
--names
--nce
--nces
--nd
--ne
--ng
--nga
--ni
--nian
--ning
--nk
--no
--ns
--nt
--num
--o
--oa
--od
--of
--om
--on
--ong
--onic
--or
--ors
--ort
--orted
--ory
--ot
--ow
--oz
--p
--pa
--page
--pan
--pe
--pec
--ped
--plement
--ponents
--q
--qid
--qt
--r
--ra
--rd
--re
--rgs
--ri
--ria
--rian
--rk
--rm
--rn
--ro
--row
--rs
--rt
--ry
--s
--sa
--se
--sh
--shi
--si
--sia
--sian
--sk
--so
--src
--ss
--st
--str
--style
--t
--ta
--table
--tal
--tan
--te
--ted
--ter
--text
--th
--tha
--ths
--ti
--tic
--ting
--tion
--tions
--title
--tly
--to
--tor
--tr
--ts
--tu
--ty
--tyle
--type
--u
--ua
--ue
--ufo
--uk
--um
--un
--ung
--up
--ure
--url
--us
--ut
--ute
--v
--val
--value
--ve
--w
--wa
--we
--wi
--wiki
--word
--x
--xa
--y
--ya
--ye
--ym
--yo
--yu
--z
--ɹ
--က
--ကမ
--ခ
--ဂ
--င
--စ
--ဆ
--ဇ
--ဈ
--ဉ
--ည
--ဋ
--ဌ
--ဏ
--တ
--ထ
--ဒ
--ဓ
--န
--နဝ
--ပ
--ဖ
--ဗ
--ဘ
--မ
--ယ
--ရ
--လ
--ဝ
--သ
--ဟ
--အ
--ဿ
--ဿတ
--၀
--၀၀
--၀၁
--၀၄
--၁
--၂
--၃
--၄
--၅
--၆
--၇
--၈
--၈၇
--၉
--၉၃
