!
"
#
##0
##1
##10
##11
##12
##13
##14
##15
##16
##17
##18
##19
##2
##20
##21
##22
##23
##24
##25
##26
##27
##28
##29
##3
##30
##31
##32
##33
##34
##35
##36
##37
##38
##39
##4
##40
##41
##42
##43
##44
##45
##46
##47
##48
##49
##5
##50
##51
##52
##53
##54
##55
##56
##57
##58
##59
##6
##60
##61
##62
##63
##64
##65
##66
##67
##68
##69
##7
##70
##71
##72
##73
##74
##75
##76
##77
##78
##79
##8
##80
##81
##82
##83
##84
##85
##86
##87
##88
##89
##9
##90
##91
##92
##93
##94
##95
##96
##97
##98
##99
%
&
'
(
)
*
+
,
-
.
/
0
00
000
01
02
03
04
041
0529
06
07
08
098
1
10
100
1000
103
105
107
108
11
110
11008351
112
1139189
115
118
1180
12
120
1237
125
126
1260
128
1289000
13
130
131
132
1339
134
135
1361
1369
14
140
141
143
1430
144
1440848564
15
150
1500
151
1533
1561
1569
1583
1590
16
160
1610471
1618
162
1620
1623
163
164
1648
1650
1656
1667
1670
1682
1697
1699
17
170
1710
172
1721
1725
1728
1733
1740
1749
1750
1758
1763
1768
1771
1772
1775
1776
1777
1779
1780
1782
1784
1791
1792
1793
1794
1795
1799
18
180
1800
1803
1805
1806
1809
1812
1813
1814
1815
1816
1817
1820
1821
1822
1823
1824
1825
1827
183
1830
1831
1832
1833
1840
1841
1842
1844
1845
1846
1847
1848
1850
1855
1856
1857
1858
1859
1860
1861
1862
1863
1864
1865
1866
1867
1870
1871
1874
1875
1879
1880
1881
1883
1885
1886
1887
1888
1889
1890
1891
1892
1893
1894
1895
1896
1897
1898
1899
19
190
1900
1901
1902
1903
1904
1905
1906
1907
1908
1909
1910
1911
1912
1913
1914
1915
1916
1917
1918
1919
1920
1921
1922
1923
1924
1925
1926
1927
1928
1929
1930
1931
1932
1933
1934
1935
1936
1937
1938
1939
1940
1941
1942
1943
1944
1945
1946
1947
1948
1949
1950
1951
1952
1953
1954
1955
1956
1957
1958
1959
1960
1961
1962
1963
1964
1965
1966
1967
1968
1969
1970
1971
1972
1973
1974
1975
1976
1977
1978
1979
1980
1981
1982
1983
1984
1985
1986
1987
1988
1989
1990
1991
1992
1993
1994
1995
1996
1997
1998
1999
2
20
200
2000
2001
2002
2003
2004
2005
2006
2007
2008
2009
2010
2011
2012
2013
2014
2015
2016
2017
2018
2019
2020
2021
2022
21
210
211
214
216
219
22
220
221
222
225
226
228
229
23
230
232
237
24
240
244
248
25
250
259
26
260
263
27
270
271
272
273
28
280
284
285
286
289
29
295
3
30
300
3000
306
31
310
312
32
320
33
338
34
340
343
345
35
350
36
360
37
38
385
386
39
390
4
40
400
4000
406
409
41
412
418
42
420
422000
424
43
44
45
450
46
47
48
48000
49
5
50
500
507
51
515
52
521
53
533333
538
54
548
55
555
56
57
5745
5756
5789
58
580
581
59
590
595
6
60
600
61
618
62
63
63400
639
64
65
650
6500
66
67
68
69
7
70
700
71
72
74
748
75
752
757
76
77
77999
78
782
788
79
8
80
800
801
8018
8070
81
82
821
825
83
830
84
845
846
85
850
86
87
88
883333
89
9
90
900
91
911
92
9256
930
94
95
96
962
978
98
99
9984
:
;
<
=
>
?
\
_
`
a
aba
abba
abe
abrinis
absolutais
absolutajam
abstandsprache
ac
acaroda
acaru
access
acel
aci
acim
acinonyx
acs
acta
address
administraceja
administrativa
administrativai
administrativais
administrativi
administrativu
admiralty
adobe
adol
adress
adresu
ads
adven
adz
adzvinskys
affinis
africa
afrika
afrikaans
afrikandu
afrikys
agaren
agareni
agentura
agilolfingu
aglomeraceja
aglyuna
aglyunys
agra
agrai
agreimi
agruok
agruokuos
aguila
agvani
ahmatni
ahno
ai
aicynuots
aidom
aidys
ail
ailineica
ailini
ailis
aimara
ais
aits
aivi
aiz
aizajim
aizastuojs
aizasuoc
aizasuoce
aizdareita
aizdareja
aizjam
aizjim
aizjimtuos
aizkraukl
aizli
aizprasejums
aizpu
aizraksteits
aizsuoce
aizsuociejs
aizsuoka
aizvard
aizvi
aja
ajim
aju
aka
akac
akademeja
akademejis
akas
akmin
akmini
akminim
akneis
aks
akste
akters
akti
aktivi
aktivists
aktu
akvinu
akys
al
alaiku
alans
alban
albaneja
albanejis
albert
album
albumi
aleja
aleksandra
aleksandrejis
aleksandris
aleksandrova
aleksandrs
aleksandrys
aleksejs
alexander
alfabeta
alfabetam
alfabeti
alfabets
align
alignbars
all
allen
alles
allmusic
alpu
als
also
alsvik
alsvikis
alt
altaji
alu
aluco
aluojis
alz
am
amateru
american
amerika
amerikani
amerikys
ami
amolu
amoluos
amu
an
ana
anai
analize
anas
anatolejs
anatomeja
anca
and
andora
andorra
andorys
andreja
andrejs
andrivs
andryva
andryvam
andryvs
andz
angl
anglejis
angli
angliskai
angliski
angola
angolys
ani
anna
annu
annys
ans
ansambl
ansamblis
anta
antolog
antologeja
antons
antuans
antuz
anu
anys
ap
apaks
apavis
apcap
apci
apduovan
apduovana
apdzeivuota
apdzeivuotuo
apgabal
apgabali
apglobuots
aphelocoma
api
apjam
apjamu
apjimtu
apkalpoj
apklausys
apkluoj
apkolpoj
apku
apl
apleice
apleiceju
apleici
apleicin
apleicini
apleicinim
apleicis
apleiczineiba
apleik
apleikma
aplej
apli
aplikaceja
aplikacejis
apma
apmekl
apmekle
apmetne
apmi
apolinarejs
apostolu
apraksteitys
aprakstejums
aprel
apreli
aprin
aproksta
aproksts
apru
aps
apsaprecej
apsardzeiba
apsave
apspi
apstuokl
apstuoklini
apstyprynoj
apstyprynuots
apteikamys
aptuomen
apu
apvi
apvydi
apvydu
apzeimi
apzeimoj
apzeimuos
apzeimuot
apzin
ar
arabu
archive
arciveiskupa
arciveiskups
areala
arena
argen
argentini
args
arheolingvistika
arheologiski
arheologs
arhitektu
arhitektura
arhitekturys
arhivu
ari
armeja
armejis
armeju
armen
armeneja
armeni
arovys
arrots
ars
article
articles
arturs
aruo
as
asa
asari
asnis
asociaceja
ass
association
aste
astes
asti
astis
asu
asus
asv
at
atas
atbil
atbolsta
atbolstu
atcel
atdal
atdale
atdalis
atdareita
atdareits
atdareituos
atdareja
atdu
atdzims
ateju
atguojuse
ati
atja
atjaunynoj
atjaunynuos
atjaunynuot
atjaunynuota
atl
atlan
atlasynuojumi
atmeja
atmejis
atmeju
atmosferys
atmu
atness
ato
atostuma
atostumi
atpakal
atpyutys
atradi
atradnis
atrassi
atrassim
atrast
atrastovys
atributi
atributu
atrod
atros
atrostais
atrosti
atru
ats
atsagri
atsagul
atsal
atsalda
atsarads
atsarass
atsaroda
atsarodus
atsaroduse
atsarosus
atsaru
atsas
atsaskaiti
atsateiku
atsaucis
atsevis
atskaitu
atspaida
atspaids
atspeidi
atstotuma
atta
atteisteibas
atti
atticora
atva
atvaiga
atvaigu
atzare
atzaris
audeibys
auderu
audim
audio
audiskais
audren
auds
audu
audyskais
audyskaja
audysku
audyskuos
audze
audzies
audzis
aug
augl
augs
augsburg
augsta
augstain
augstaine
augstainis
augstais
augsti
augstim
augstman
augsts
augstskola
augstsku
augstu
augstuma
augstumam
augstums
augstuo
augstuokais
augstuokus
augstuos
augu
auguma
augums
auguoji
auguojs
auguoju
auguojus
augus
augusta
auguste
augustovys
augusts
augzemis
aulejis
aun
aurata
auri
auris
aurs
auru
auruoka
aus
ausbausprache
auss
australeja
australejis
australia
austreja
austrejis
austreju
austri
austrumu
auteiba
auten
autocel
autoceli
autore
autori
autoris
autors
autoru
auts
auz
auzu
auzys
aven
aves
aviacejis
avydi
avydu
azara
azaram
azari
azarmale
azarmalis
azarmola
azars
azarsola
azarsolu
azarsolys
azaru
azarus
azeja
azejis
azerbaidz
b
ba
babru
badia
baird
baku
bal
bali
balkanu
baltejis
baltie
baltu
bamuma
banglades
bantu
baptistu
bar
baroka
baru
bas
baseina
basys
batvin
batvini
baum
baustelle
bava
bavari
bayern
baza
bazilika
bazn
bazneica
bazneickungu
bazneicni
bazneicu
bazneicys
bazni
be
beatles
bebrinis
beidz
beidze
beidzs
beigom
beigs
beigu
beiguos
beiguse
beja
bejis
bejs
bejus
bejuse
bel
bele
bels
beludz
bem
ben
bengal
bengalensis
bengali
bengtska
bengtskar
bennett
ber
berg
beringa
berl
berlin
berlins
bermuda
berts
bes
bet
betons
beverinys
bez
bezdeleiga
bezdeleigys
bezdorba
bezvaineiguos
bi
biblejis
bibliogra
bibliografeja
bibliote
biblioteka
biblioteku
bibliotekys
bierz
bierzen
bierzpil
bieti
bill
bine
binis
binomio
biografeja
biolib
biologisku
biroja
birzgal
bis
biti
bitu
bitus
biznesa
bl
bla
black
bleivums
bli
bloks
blontu
blu
bluc
bo
bods
boge
boguota
boguoteibys
boguots
bohe
bol
boliveja
bolivi
bolsa
bolsoj
bolss
bolsu
bolsuoja
bolsuos
bolsuots
bolta
boltais
bolti
boltkri
bolts
boltu
boltuo
boltuos
boltys
bolva
bolvi
bolvu
bon
bonaparta
bondarovys
borda
border
borisa
borkovas
borkovys
borneo
bosneja
bosni
botsvana
bottom
branco
braslovys
brazil
brazileja
breidaks
breineigu
breinumdora
breivaja
breiveibys
breivuo
breivuos
breivzemni
brengul
bri
brienna
brigadi
brigu
britannica
britu
brodaiz
broka
browser
bru
brun
bruno
bruoca
bruol
bruoli
bryuna
bryuni
bryunys
bs
bu
bubo
budapes
budisti
bukmuiz
buks
bul
bulduru
bulgareja
bulgarejis
bulgaru
bumbuleis
buoren
buozovys
burchell
burti
burtim
burtini
burtu
burundi
burundu
bus
butans
by
bykakmin
bykovys
bynu
byron
byronbaylighthouse
byudams
byun
byunu
byus
byut
byutu
c
ca
cabo
cabrera
cai
california
calling
calocitta
calta
canada
canadensis
canidae
canis
cap
cape
car
cara
caracal
carnikovys
carolina
carpenters
carpinus
cars
cas
casna
cat
catholic
catopuma
cats
catu
caturtais
caturtuo
caun
caur
ce
cecropis
ceiba
ceibas
ceibu
ceibys
ceiksti
cein
ceinis
ceirul
ceis
ceja
cejai
cejis
ceju
cel
celi
celim
celseja
cen
census
center
centi
centra
central
centralais
centralaja
centralajuo
centraluo
centraluos
centram
centri
centris
centrs
centru
centrys
cepli
ceps
cest
cet
chaus
chicago
christmas
church
ci
ciel
cieli
ciems
cierkva
cierkvu
cierkvys
cierpi
cies
cik
cikloni
ciklopedeja
ciklopedejis
cikom
cil
cin
cini
cis
ciski
cissa
citi
citim
citom
citrona
city
class
close
cm
cmsunquist
coast
cobar
colocolo
color
colors
com
commons
completed
computer
con
concepcio
concolor
conservation
corax
cornwall
corvus
crypsirina
cs
ct
cu
cucullata
cukra
cukru
cukrys
curitiba
cus
cusano
cuvier
cyanocitta
cyanocorax
cyanolyca
cybla
cyblys
cybul
cybuli
cybulim
cylv
cylva
cylys
cynoj
cys
cyskuodu
cyta
cytaida
cytaiz
cytam
cyti
cytim
cytom
cyts
cytu
cytuos
cytur
cytus
cytys
cyuka
cyuku
cyukys
d
da
dabasu
dabeidze
dabeigs
daber
daboj
dabova
dabuoja
dabuojs
dabuojuse
dabuot
dabuotu
dabuotuos
dadurekrans
dadzynoj
dag
dagda
dagdys
dagul
daguoja
daguojumi
daguojumu
dai
dail
daile
dailis
daku
dal
dale
dalei
dalej
dalejuma
dalejums
dalenis
dali
dalikt
dalineica
dalini
dalis
dam
dama
damat
dami
dams
dan
daneja
danejis
daneju
dani
dar
dara
darbeiba
darbeibai
darbeibu
darbeibys
darbini
dare
dareibys
dareigs
dareis
dareit
dareiti
dareitova
dareitovys
dareituoja
dareituoji
dareituojs
dareituoju
dareja
darejs
darejus
darejuse
dars
daru
darynuos
das
dasaglauz
dasai
dasalykuse
dasaruna
dasarunuot
dasas
dasasle
dasi
daskri
dasla
dasle
dasna
dasne
dasni
dasys
data
database
datakys
dateformat
dati
datiks
datim
dative
datora
datorkaitys
dators
datoru
datorzineiba
datorzineibys
datu
datubaza
datus
daudz
daudzatmejeiba
daudzatmejeigajim
daudzeji
daudzejis
daudzeju
daudzi
daudziskaits
daudzskaits
daudzu
daudzuma
daudzums
daudzuok
daugava
daugavpils
daugova
daugovpil
daugovpilei
daugovpili
daugovu
daugovys
daugpil
daugpili
daukstu
dave
davi
davoj
davom
davuos
day
days
daz
dazinis
dazynuos
de
decembra
decembri
degl
deiba
deibu
deibys
deiga
deigi
deigu
deigys
deis
deit
deituojval
dej
deja
dejais
dejis
deju
dejums
dejumu
dejuos
dekabra
deklinaceja
deks
deksam
deksu
dekteri
dekters
dekteru
del
delichon
demografeja
demoina
demokrateja
demokratejis
demokratiskaja
demokratisku
demokratiskuo
demokratiskuos
demokratu
den
denavydpustum
dendrocitta
deputati
deputats
deputatu
der
dera
deram
deri
derim
derlandeja
derlandi
derlands
ders
desetni
desmarest
desmis
deutsche
deutscher
deutschland
deve
devona
devs
di
dialekta
dialekti
dialekts
dialektu
diardi
dictionary
diecezis
dieglis
diel
diena
dieni
dies
dignuojis
dija
dim
dimensiju
dinaburg
dinavejis
dinavu
dini
direktora
direktors
dirigents
dis
disappointment
disertaceju
diskografeja
div
divdesmit
diveji
divejim
divejis
diveju
divi
dividu
divim
divizejis
diviziona
divu
divys
diz
dizel
dluz
dni
dns
do
doba
dobu
dobys
dobysgazys
dobyska
doca
docents
doktora
doktore
doktors
dokumentu
dol
dolomiti
dolomitmegeli
dolomitmergel
dom
domain
dominika
don
donats
doors
dora
dorba
dorbi
dorbim
dorboja
dorbs
dorbu
dorbuoji
dorbuojuos
dorbuotnuma
dorbus
doru
dostojevska
dpli
dr
dra
dramaturgs
dramys
draudzis
draugs
draugu
dre
dream
dreiba
dreibu
dreibys
dreidz
dreidzs
dreiz
dreizums
dri
drik
dris
dru
druh
drujis
druka
drukys
drupeit
drupeite
drusai
druvi
dryca
drypata
drys
ds
du
dubl
dubna
dubul
dukuri
dumu
dumus
dunovys
duorzku
duorzs
duorzuoju
duos
duotuoja
duotuojs
duovoja
dus
dustreja
dve
dvein
dvi
dvinsk
dvorc
dybyns
dybynuos
dybynuota
dynaburga
dynaburgam
dynaburgs
dynaburgu
dynavid
dynuos
dys
dyun
dyz
dz
dze
dzeida
dzeislom
dzeiv
dzeive
dzeiveibai
dzeivi
dzeivini
dzeivis
dzeivisvi
dzeivni
dzeivo
dzeivoj
dzeivojama
dzeivoju
dzeivova
dzeivu
dzeivul
dzeivuli
dzeivuoja
dzeivuojs
dzeivuojus
dzeivuojuse
dzeivuot
dzeivuotuoji
dzeivuotuojim
dzeivuotuoju
dzej
dzeja
dzejas
dzejis
dzejni
dzeju
dzel
dzen
dzeni
dzi
dzieri
dzierkal
dzil
dzili
dzima
dzimis
dzims
dzimtenes
dzineiba
dzineibys
dzinini
dzis
dzni
dzs
dzu
dzyma
dzyms
dzymta
dzymtai
dzymtaja
dzymtu
dzymtuo
dzymtys
dzymus
dzymuse
dzyra
e
east
eastham
ec
ed
edamaruku
eddystone
eddystonelighthouse
edu
ee
eest
eesti
eet
egendys
egipti
egipts
egl
eglainis
eiba
eibu
eibys
eica
eidz
eidzieja
eiga
eigims
eimen
einigkeit
eipas
eira
eireja
eirejis
eiropys
eis
eisa
eisprozys
eiss
eistyn
eistynu
eistynuma
eistynuo
eistynuos
eisu
eisul
eits
ej
eja
ekeja
ekejis
ekeju
eki
ekonomika
ekonomiku
ekonomikys
ekonomiskais
ekonomisku
ekonomiskuos
eksemplari
eksistenci
ekspertu
ektorata
ektorats
ektoratu
ektorim
ektors
ekvadori
ekvadors
ekvatora
ekzistej
el
ela
elais
elami
elefanta
elementi
elements
elementu
elementus
elgercogiste
elgercogistis
eli
eliezers
els
elu
eluo
eluokais
eluoku
eluokuo
elzasi
em
emais
emaitejis
emigracejis
empions
empionu
empire
emre
en
enciklope
encyclopedia
enerejis
energeja
energejai
energejis
eners
england
english
eni
eona
eonovs
eons
eonu
erel
ers
eru
es
esejis
esis
eskimosu
espan
estonia
ethnologue
etimologeja
etiopeja
etiopi
etniskais
etnisku
etnografisku
etnokulturys
etri
etrim
etru
etrys
ets
eugen
eugeneja
eur
eura
eurazeja
eurazejis
europa
europe
european
europu
europys
euru
eurys
eva
evan
eversmuiz
evic
evskais
ez
ezeri
ezs
f
facto
faili
fails
failu
failus
fakti
faktu
fakul
fal
fareri
fareru
farol
fasads
febral
februara
federaceja
federacejis
federaluo
federativuo
feiman
fel
felc
feldman
felidae
felis
ferdinands
festival
festivala
fi
fidz
fil
file
filials
filips
filma
filmuos
filmys
filologejis
filosofeja
filosofs
finansu
finiki
fiona
fire
fischer
fiste
fizikalisku
fiziks
fizikys
fjodors
flash
fol
folklora
folklors
folklorys
follow
fon
fona
fonda
fondi
fondu
fonetikys
fontsize
for
forma
formata
formatim
formom
formu
formys
fox
fr
frameless
fran
franc
francis
franku
freiheit
fri
from
fs
fu
functions
funkcejis
funkceju
futbola
futbolists
futbols
g
ga
gabalen
gabalenim
gabsburgim
gabsburgu
gabuli
gada
gadejuma
gadi
gai
gaida
gail
gais
gaisa
gaisalaiks
gaisma
gaismys
gaiss
gaisu
gaitys
gajana
gajanys
gal
gale
galeibys
galereja
galgovskys
gali
galis
galisi
gara
garais
garajuo
gareigais
gari
garibal
garkal
garrulus
gars
garu
garuma
garums
garumu
garuokuos
garz
gatava
gatave
gatavej
gatavis
gauji
gaveiki
gaveiku
gavien
gaza
gazeta
gazetu
gedimina
gegemonejis
geja
gel
general
generala
generaldireceja
generals
genitiva
genovefa
geoffroy
geoffroyi
geografeja
geografiskai
geografiskuo
geografiskuos
geologeja
geologiskais
geologiskaju
george
gepards
gerba
gerbs
gercoga
gercogi
gercogim
gercogiste
gercogisti
gercogistis
gercogs
gercogu
gerhard
germani
germanu
germany
gersika
gersikys
gi
gibbs
gim
gimnazeja
gimnazejis
gin
giut
givs
gje
gjodollo
gl
gla
glabin
glagolica
glazna
gleba
gleivinis
gli
globoja
globuots
gluozis
glupu
gne
go
gobolim
god
goda
godam
godi
godim
gods
godu
goduos
godus
godusymta
godusymtam
godusymtu
gola
golam
golapunkts
golasna
golda
goldam
goldman
golds
golos
golu
golva
golvani
golvmi
golvonais
golvonajim
golvoni
golvonu
golvonuo
golvonuos
golvu
golvys
golvysmi
gon
gona
gondreiz
gone
google
gora
goram
gorbunovs
goreigais
goreigos
gors
goru
gothards
gotovs
gotu
gov
gr
gra
grada
gradi
gradu
graiz
gramatika
graudu
grauzac
gray
graz
gregora
greis
greiva
greivu
greivys
grekeja
greki
grekoidu
greku
grey
gri
grib
gribi
gridcolor
griffith
grifs
gro
group
groves
gru
gruomaten
gruomota
gruomoten
gruomotom
gruomotu
gruomotuos
gruomotys
gruoveru
gruovs
gruovu
grupa
grupai
grupom
grupys
gruzeja
gruzinu
gryb
grybuli
gryudi
gryudus
gryus
gryuslis
gryuts
gryutu
gs
gt
gtin
gtini
gts
gu
gubain
guberneju
guide
guigna
gul
guliejuma
guma
gumi
gums
gun
guodojams
guoja
guojs
guojuma
guons
gus
gusa
guse
gvatemala
gvia
gvineja
gvinejis
gys
h
ha
hamburg
has
hatteras
hau
he
head
height
heraldikys
hercegovina
hercogs
herenkimzi
high
hilaire
hill
himna
himnu
himnys
hindu
hiperteksta
hirundo
historical
history
hmel
ho
hodgson
hokeja
hokejists
holandi
holy
home
homo
hondurass
hopkins
horsfield
horvateja
horvatu
hotel
house
hronikuos
htm
html
http
https
hu
humanitaru
hush
i
ia
ianam
ians
ibvis
ic
icins
id
idejis
iden
ideografiskais
ie
iedi
ieds
ies
ievilis
ifra
igaun
igauneja
igaunejis
igauneju
igauni
ii
iii
ija
ika
iks
il
ildu
ile
ilgai
ilgus
ili
im
ima
image
imagesize
imdb
img
impe
imperatora
imperators
imperatoru
impereja
imperejis
ims
in
ina
inactive
inauguracion
increment
index
indoeuropi
indra
indreica
indreicys
industreja
industrejis
indys
ine
infaustus
inflantejis
informaceja
informacejis
informaceju
information
informativais
ingars
ingus
ini
inis
inska
inskis
institu
instituta
instituts
interes
interface
international
internatpamats
internats
internet
into
intruzivi
inu
invalidu
inys
iona
ip
ipa
ipovys
iprage
ips
ir
ira
iraid
irbi
ireja
irejis
iriomotensis
irokezu
ironeja
irs
iru
is
isbn
isiku
isindebelu
iskais
islama
island
isli
iso
isors
iste
isti
istis
istrys
istu
istys
it
itai
itaida
itaidys
ital
italeja
italejis
itali
itama
ite
itei
iti
itim
itu
ituo
ituos
ityma
itys
iucn
iudin
iudini
iudrupe
iv
ivanovs
ivans
ivars
ix
iz
izabetis
izaca
izace
izacel
izadeve
izagloboj
izaglobuojs
izaglobuojus
izagoda
izalikaliejs
izalikaliejus
izalikaliejuse
izapla
izas
izastuoja
izavieri
izavuiceit
izcalta
izcel
izdavums
izdavumu
izdeve
izdevni
izdevnieci
izdrukavuota
izdrukavuotys
izdu
izgleiteibas
izgleiteibys
izgleitojamaji
izglobuos
izglobuot
izguoduos
izguoja
izi
izjam
izkal
izkapts
izkreit
izlaids
izlaiss
izli
izlu
izmontoj
iznycynoj
izpil
izrael
izs
izsaceiba
izsaceibys
izsliva
izsliviejs
izslivs
izslyvus
izsoka
izspri
izsvi
iztak
iztreit
izvard
izvil
izvolta
j
ja
jackson
jacobita
jaguars
jai
jakobs
jam
jama
james
jamts
jana
janina
janopolis
jans
janvara
janvari
jao
japan
japani
japoneja
japonejis
jas
jau
jaun
jauna
jaunagoda
jaunagods
jaunais
jaungvineja
jauni
jaunim
jaunivis
jaunlatgolys
jaunmeitovys
jaunnorvegu
jauno
jaunom
jaunovys
jauns
jaunu
jaunuli
jaunuo
jaunuokais
jaunuoku
jaunuos
jaunys
jaunzelan
jaunzelandi
java
javys
jays
je
jeb
jefa
jefs
jehuda
jei
jekabpils
jelgava
jersika
jersikys
jes
jevg
jezuitu
jezupa
jezups
jezus
ji
jim
jima
jims
jimt
jimta
jimts
jis
jiura
jiurai
jiureiba
jiurmale
jiurmalis
jiurmola
jiurom
jiursola
jiursolu
jiursolys
jiuru
jiurys
jo
joao
johns
jom
jona
jonas
jonavys
joni
jonim
joninu
jons
jonu
jorke
jos
josku
jpg
js
ju
jubatus
jugendstil
jul
juleja
juli
jumi
jums
jumta
jumu
jun
juo
juon
juopal
juos
juosmuiz
jurists
jusi
jutu
jys
k
ka
kab
kabineta
kac
kad
kai
kaida
kaidam
kaids
kaidu
kaidys
kaine
kairai
kairaja
kais
kaita
kaitauni
kaitu
kaituos
kaitys
kal
kale
kalen
kalendars
kalimahs
kalta
kam
kaman
kambodz
kameru
kameruna
kan
kanada
kanadi
kanadys
kanala
kanalim
kanals
kanalu
kanepi
kanepu
kapca
kapleicys
kara
karal
karali
karapulki
karbonatpli
kareiba
karini
karogs
karolingu
kars
karten
karu
kas
kasdi
kastulinys
katalan
katedrale
kategata
kategoreja
kategorejis
kato
katol
katris
katu
katuol
katuoli
katvaigs
katvaru
kauguru
kauja
kaula
kaulen
kauna
kaunatys
kaune
kaunis
kaunota
kaunotys
kaunys
kaupraine
kaupraini
kauprainis
kaupre
kaupri
kauprim
kaupris
kaupru
kausa
kausu
kaviekl
kaviekli
kavieklis
kaz
kazaheja
kazaku
kazeicu
kazimirs
ke
kec
keguma
keidynoj
keiptauna
keira
keire
keis
keisiel
keista
keistais
keistu
keistums
keistumu
kel
kemps
kenberga
keneja
kenejis
kepovys
kerr
ketlers
kevic
kg
ki
kieneju
kienen
kieneni
kieneste
kienestis
kiera
kiers
kiersta
kiersts
kierstu
kierstuos
kiert
kierta
kierti
kierts
kiertu
kiertuos
kiertys
kikaui
kilba
kilometri
kilometru
kilometrus
kim
kima
kimeja
kimejis
kimiska
kimzi
kina
kind
kineja
kini
kino
kinopoisk
kins
kinys
kipri
kiprys
kir
kira
kiras
kireiba
kireibu
kireibys
kireiga
kireigi
kireigim
kireigs
kireigu
kiru
kirubiolib
kirys
kituba
kiudolova
kl
kla
klaipieda
klaipiedas
klase
klasei
klasicizma
klasis
klaus
kle
klein
kles
kli
klimata
klimats
klimatu
klis
kliva
klu
kluba
klubs
kluos
kluot
klusa
klys
km
kn
kne
knem
kni
knis
knuoja
knys
ko
koc
kod
koda
kodi
kods
kodu
kodus
kol
kola
kolai
kolas
koledz
kolekceja
kolekceju
kolhoza
kolka
kolkas
kolkoza
kolkys
kolna
kolni
kolnim
kolns
kolnu
kolom
kolpoj
kolu
kolumbeja
kolumbi
koluos
koluotuoja
koluotuojim
koluotuojs
koluotuoju
kolys
kom
komanda
komandu
komandys
komi
komisejis
komitejis
komiteta
komoru
kompaneja
kompleksa
kompona
komponists
komuna
komunists
komys
kon
konfederaceja
konfederacejis
konga
kongeriket
kongo
kongresa
kongys
konigzi
konkretys
konsepsjons
konsonan
konstan
konstitucionala
konstitucionaluo
konstrue
konstrukcejis
kontrolis
koordinatys
kopi
kopu
kopukolns
kopyune
kopyunys
kora
koraspa
kordirigen
korea
koreja
koreji
korejis
koreju
korpusa
kors
korsika
korstys
koru
kos
kosmosa
kosta
kotl
kotru
kova
koval
koza
kozu
kpelis
kr
kra
krakovys
krauklis
kraval
kreic
kreit
kri
kriejuma
kriejums
kriejumu
krimc
kriss
kristi
kritiki
kritiks
kritiku
kriumuoji
kro
kroksta
krona
krosta
kru
kruojumi
kruojums
kruosa
kruoslova
kruoslovys
kruosu
kruosuos
kruosys
krupni
krus
krys
krysta
krystakmin
krystapil
krystapili
krysti
krysts
krystu
krystus
krytul
krytuli
kryumu
kryumuoju
kryutez
kryuts
kryvandys
ks
ksla
kslas
ksne
ksnis
ksta
kste
kstec
kstis
ksts
kstu
ktdi
kti
kts
ktuo
ku
kuba
kubi
kubmi
kubys
kul
kuldi
kule
kultu
kultura
kulturu
kulturviesturis
kulturviesturiski
kulturviesturiskuo
kulturviesturni
kulturys
kulturysku
kuma
kumbul
kunigaiks
kuo
kuojis
kuojom
kuoju
kuok
kuoni
kuopusti
kuorl
kuormi
kuorms
kuormu
kuorsova
kuorsovys
kuorta
kuortejs
kuortu
kuortys
kuos
kuota
kuove
kuozynda
kupra
kuprovys
kur
kura
kurai
kuram
kurama
kuramuos
kurei
kuri
kurim
kurjers
kurjis
kurortsa
kurs
kursi
kursu
kuru
kuruo
kuruos
kurus
kuryma
kurymu
kurys
kurzemis
kus
kusteiba
kusteibys
kustu
kuzminu
kvadra
kval
kvalifikacija
kvarca
kvatara
kvi
kys
l
la
labeibys
labi
labtik
labviel
labvin
lads
ladshale
ladslaiku
laduoja
laduoji
laduojs
laduoju
lai
laic
laiceigi
laidi
laidiejs
laik
laika
laikagruomota
laikavyds
laikavydu
laiki
laikim
laikmeta
laikroksta
laikroksti
laikrokstu
laiks
laiku
laikvuordam
laikvuordi
laikvuords
laikvuordu
laima
laistuve
laiz
laiza
lajis
laki
lakuga
lams
lang
language
languages
lanka
laosa
laosi
lapen
las
laseit
laseituojs
lasejuma
lasejumi
lasejums
lasejumu
lasi
last
late
latgal
latgale
latgales
latgalesdati
latgali
latgalian
latgalica
latgalies
latgalim
latgaliska
latgaliskai
latgaliski
latgalisku
latgaliskuo
latgaliskuos
latgalys
latgola
latgolai
latgolas
latgolu
latgolys
latin
latu
latv
latveja
latvejis
latveju
latvejys
latvi
latvia
latvian
latvies
latvija
latvijas
latviskai
latvyskai
laukazars
lauksaimesteibys
laukumen
laukums
laupeitu
laureati
laureats
laurinovic
lauru
lauskys
lauzi
le
lebedinca
left
legiona
lego
leic
leici
leics
leidaka
leidakys
leidumni
leidz
leidza
leidzaskan
leidzeiga
leidzeigai
leidzeigi
leidzeigs
leidzeigys
leidzi
leidziekl
leidziekli
leidzonaine
leidzonainis
leigu
leiksna
leiksnys
leikuma
leikums
leikumu
lein
leita
leitu
leivuona
leivuons
lej
lejis
lejislatvi
leju
lel
lela
lelais
lelaja
lelajai
lelajim
lelaju
lelakmin
lelakmini
lelam
lelbritaneja
lelbrytaneja
leldi
leldu
leli
lelku
lellaivu
lelolys
lels
lelu
leluma
lelumam
lelums
lelumu
leluo
leluoka
leluokais
leluoki
leluoks
leluoku
leluokuo
leluokuos
leluos
lelys
lem
len
leo
leopards
leopardus
leptailurus
lesteibu
let
lg
lgekc
li
libana
libereja
lici
lideja
lies
life
liga
light
lighthouse
lightkeeper
ligys
likt
liktens
likvida
likvide
likvidieja
lim
lima
limbaz
lin
linderhofys
line
linegrey
lineja
linejis
lineju
link
linnaeus
linum
linux
lipus
liriku
lirikys
lis
lisine
lisinis
list
litera
literarais
literaru
literaruo
literaruos
literats
literatu
literatura
literaturu
literaturviesturni
literaturys
literaturzinini
literi
literim
liters
literu
litinis
litri
litris
littoralis
livoneja
livonejis
livs
lizeiku
lizeikys
lni
lo
loba
lobaja
lobi
lobs
lobu
lobuok
lobuoku
lobuos
locator
loche
log
loginu
logotips
lojolys
lomys
londona
long
lopa
lopom
lopsa
lopsys
lopu
lopys
los
lozdukolna
lozdulejis
lp
lpp
lr
lrra
ls
lsdsp
lsm
lt
ltg
ltv
lu
lubuona
lubuons
ludumka
ludza
ludzys
lugys
lukas
luksemburga
luksemburgi
lule
lums
luoc
luok
luos
luoseica
luots
luotu
luotuoja
luotuoju
lupus
lus
luse
lv
lvp
lyka
lyktais
lykts
lykumam
lykumlaideibys
lykums
lykumu
lyni
lyns
lynsa
lynu
lynx
lys
lyugs
lyukstys
lyuzini
lyzuma
m
ma
madagaskara
madagaskars
mads
magazeinis
magdeburga
magistra
magistri
magistris
magistrys
magmatiski
mail
main
maina
maisa
maisi
maisu
maize
maizi
maizis
maja
makedoneja
makla
maksimil
mal
malaizeja
malaveja
malavejis
malcev
maldivu
male
malgas
malis
malna
malnais
malni
malnkalneja
malnkalni
malnovys
malns
malnu
malnuo
malnuos
malta
maltas
maltys
malu
mammals
man
mana
mandeni
mandombis
manora
manul
map
mara
mareja
marejis
margarita
marguc
marija
marijai
marin
marins
marmorata
mars
marta
martina
marts
mas
masa
masculi
masivu
maskavys
maslu
massachusetts
masu
masys
mateis
matematikys
materiali
materials
materialu
matschie
mauri
max
may
mcclain
mcclainlighthouse
me
mearns
medicina
medicinys
medn
medni
meiceknis
meikle
meikli
meiklis
meiksta
meiksts
meikstu
meikstys
meikuls
meikultu
meiluma
meira
meit
meitova
meitovys
meitu
mejis
mekle
meksika
meksikys
mel
men
merriam
mes
metamorfiski
metatoneja
metatonejis
metods
metodu
metri
metropolejis
metru
mez
mi
michael
michigan
microsoft
mienes
mienesi
mieness
miers
mies
miglini
mihails
mihal
mik
mikel
mil
milijoni
milijonim
milijonus
military
milito
min
mina
mine
minekl
mineralu
minhene
minheni
minhenis
mini
miniekl
miniekli
minieklis
minis
ministrija
ministrs
ministru
mirs
mis
misionaru
miti
mitologeja
mitologejai
mitologejis
mizen
mjanmars
mjao
mln
mm
mo
mobilais
mobilu
mobiluo
model
modelies
modyune
modyunis
moj
moksa
mola
molai
moldaveja
molina
molu
molusku
molys
mom
monaks
monarheja
monarhs
mongol
mongoli
monte
morenu
morning
morrison
mos
moskova
moskovys
moskvys
mostas
moti
mots
moz
moza
mozais
mozajim
mozal
mozam
mozambika
mozambikys
mozgoj
mozi
mozo
mozu
mozumtautu
mozuo
mozuok
mozuoka
mozuokais
mozuoki
mozuokys
mozys
mpls
ms
mu
mucovys
mudovys
mudruok
mugora
muiz
muks
mula
muma
mumi
mums
mumu
muna
mundys
munich
muns
munys
muoce
muoja
muoksla
muoksleigu
muoksleiguos
muokslini
muokslu
muokslys
muokslyskuo
muokul
muola
muoren
muorkal
muos
muosu
muot
muota
muotaine
muotainem
muotainis
muote
muoti
muotis
mura
museum
mustela
musulmoni
musulmonu
muzeja
muzejs
muzeju
muziks
muzikys
muzyka
muzykai
muzykaliskuo
muzykanti
muzykys
mycovys
mylti
myltu
myltus
myna
myra
myrs
myrus
myruse
mys
myssva
myuds
myudu
myura
myurini
myusdi
myuslaiceigu
myuslaikim
myuslaiku
myusu
myuz
n
na
naatkareiba
naatkareigs
naats
naatsasadz
nabeja
naburg
nabyus
nabyutu
naceju
nacik
nacionalais
nacionalu
nacionaluo
nacionaluos
nadabeigta
nadaudzi
nadora
nadu
nahuj
nai
naidni
naids
naiduos
nairobis
nakai
nakod
nakti
nakts
nakur
nakuri
nakuru
nakuruos
nakurys
nal
nalel
nalela
nalels
nalelys
nali
nalobs
nam
nama
name
nami
namibeja
namibejis
namoz
nams
nanu
napalela
napalelom
napalels
napalelys
napareizs
napasen
napatuol
napaval
napel
napi
napol
napoleona
napys
narata
naratys
narcise
narcisis
narcissus
nartis
nas
nasaveru
naskaita
nasu
nasvi
natic
nato
natuol
natuoli
natur
natyka
naudys
naul
nauru
nause
nauset
nautra
nav
nava
naval
navar
navassalighthouse
navi
navin
navydafrikys
navydamerika
navydim
navydreitu
navydu
navydvokoru
nazcik
nazkod
nazkodejais
nazkodejuo
nazkodejuos
nazkur
nazyna
ne
nebulosa
nei
neiba
neibu
neibys
neica
neicgal
neicys
neigais
neigi
neiguo
neiguos
neiks
neits
neituojs
nelson
nem
nen
neofelis
neogotikys
neri
nes
nest
net
neuwerk
nevska
nevys
new
news
ni
niccolo
niem
nierza
nierzys
nigereja
nigerejis
night
nigripes
nija
nijs
nikaida
nikaragva
nikod
nikodems
nikolaja
nikolajs
nikuo
nikur
nim
nimfenburgys
nini
nis
niu
niule
niuleja
niuleju
niulejuo
niulejuos
nivi
nko
nkuors
nma
nmas
no
nojabra
nokia
nom
noma
nome
nometne
nominaceja
noms
nomu
noravank
nord
noreg
norge
north
northern
norvegeja
norvegejis
norvegeju
norvegi
norvegu
norway
notiochelidon
nova
novads
novembra
novembri
now
nr
ns
nsa
nsf
nskaita
nu
nucifraga
nueva
nulaik
num
nuoce
nuoja
nuojis
nuos
nuotu
nuovei
nuovis
nus
nvo
nyctereutes
nys
o
obadivejis
obadiveju
obeju
objekta
objekti
objektim
objekts
objektu
obrazen
obruozi
ocelot
ocu
oda
odumovys
odz
of
off
office
oficiala
oficialai
oficialais
oficiali
oficialo
oficialu
oficialuo
ogota
ogotys
ogruok
ogu
oj
ojis
oju
ojums
ojuots
oka
okea
okeana
okeaneja
okeanu
oknu
oktebra
oktobra
okupa
okupaceja
okupacejis
ol
ola
olan
old
oleja
oleji
olejs
oleju
olimpiskajuos
olimpisku
olimpiskuo
olka
olu
olyuksna
olyuksnys
om
omans
ombumuiz
omotu
omotys
on
ona
onai
onas
onca
oncel
ondrupinis
one
oneta
online
only
onom
ontona
ontons
onu
onuos
onys
open
openview
opera
operaceju
operys
opinku
opolys
opori
opskovys
optiski
opys
orden
ordin
ordini
ordyna
ordynam
org
organiza
organizaceja
organizacejis
organizaceju
organize
organizej
organiziejs
organizies
orhona
ori
orien
orientation
orkestri
ornitofaunistika
oro
ortografeja
ortografejis
orts
oru
os
osina
oskara
oskars
oskaru
osman
osmanis
osoris
osotys
oston
ostrovys
osu
osyuna
osyuns
other
otkon
oto
otocolobus
otto
otuori
ova
over
ovs
ovu
ovuos
ovys
owl
ozbora
ozbors
ozboru
p
pa
paaugstynuos
pabeigts
pacel
paceli
pacels
paci
pacyluma
padaleita
padaleitys
padali
padalu
padola
padora
padreizi
padu
pagaiss
pagaisynuot
pagasti
pagasts
page
paglobuota
paglobuots
pagrauda
pagri
pagul
pahau
pajeros
pajiemi
pajimts
pakal
paketu
pakistan
pakl
pakuopi
pal
pala
palau
paleidz
paleigs
paleigu
pali
pallas
palm
palmu
palnim
palyka
palykus
pamat
pamata
pamati
pamatizgleiteibas
pamatpli
pamats
pamatsku
pamatu
pamozom
panami
paneju
panorama
panoramio
panthera
papeira
papil
paplateiba
paplateibys
paplateiti
paplateits
papylda
par
para
paradza
paragvajs
paraiba
paraksteis
parana
parapeja
parapejai
parapejis
parapeju
pardalis
pardinus
pardofelis
pardus
parec
pareizraksteiba
pareizraksteibys
pareizus
pariz
park
parka
parks
parku
parlamentariska
parlamentarisku
parlaments
parostai
parostais
parosti
parostu
parostuo
parteja
partejis
parteju
partnermi
partu
paru
paruoda
paruode
paruodis
pas
pasaca
pasacel
pasadarejs
pasadarejuse
pasadora
pasadrejuse
pasaja
pasalelynuoja
pasaruoda
pasaruodi
pasataisa
pasauce
pasauka
pasaukai
pasaukom
pasaukts
pasauku
pasaukys
pasaul
pasaules
pasauli
pasaulis
pasaver
pasaz
paslu
pasludynova
passeriformes
pastateita
pastateits
pastateitys
pastateja
pastini
pastuove
pastuovies
pasu
pasuoci
pasvieteita
pat
patautys
pateiceiba
pati
patiesi
patmalis
patrimps
pats
pature
paturies
paulinu
pauls
pavadeja
paval
pavalis
pavard
pavasara
paviestej
pavil
pavuorde
pazeistama
pazeistami
pazeistams
pazeit
pazi
pda
pdf
pe
pebral
pebrel
pedagogejis
pedagogisku
pedagogs
peiba
peibys
peiga
peigais
peigi
peigu
peiguo
peira
peisi
peisu
pekkol
pel
peliec
pelis
pen
peninsula
per
perej
perekl
perekli
pereklis
period
perioda
periodika
periods
perisoreus
persi
persona
personu
personys
peru
perui
peso
pessoa
petanks
petel
petrochelidon
petru
phedina
php
pi
pica
pie
piec
piectec
piedejais
piergrubs
pierka
pietni
pil
pildys
pili
pilis
piliskolna
piliskolns
pilse
pim
pipss
pirmais
pirmeigs
pirmini
pirms
pirmu
pirmuo
pitalovys
piza
pizys
pjesys
pkolns
pl
placu
plan
planaveibys
planavi
planavuos
planetys
planiceps
planu
plas
plasi
plateiba
plateibys
platpi
plauds
plaukstini
plaza
please
plebanejis
ples
pli
plieseigais
plieseigo
plieseigu
pliesieji
plok
plota
plotarea
plotdata
plotu
plotuma
plotums
plotuo
plotuoka
plotys
pluocin
pluocineis
pluok
pluokuos
pluota
pluots
pluotu
plysu
po
pocock
podoces
poe
poeticus
poetika
poets
poezeja
poezejis
pog
pogosta
pogostam
pogosti
pogostim
pogosts
pogostslatgolys
pogostu
point
pointarena
pokrova
pol
polacka
polardys
politika
politiki
politiks
politiku
politikys
politiska
politiskuo
polo
polu
poproka
populara
popularitati
popularizies
populars
population
por
portals
portland
portuga
portugal
portugaleja
portugalejis
portugali
pos
posta
posyunis
pour
povosora
pozi
poziceju
pozicejuos
pp
pposta
pposts
pr
praga
praktiska
pran
pranc
pravests
pravoslavi
pravoslavu
pre
preil
preili
premeja
premejis
presburgys
prese
preses
presis
press
pret
preteima
prezidente
prezidenti
prezidents
prezidentu
pri
primaruo
principalitets
prionailurus
problemu
problemys
procents
procesa
process
procesu
producents
produkti
profani
profelis
profeseja
profesors
profil
progne
programa
programies
programu
programys
projekta
projekts
projektu
prospekta
protestan
protocol
protokols
protokolu
provin
proza
prozys
pru
pruota
pruotini
pruots
pruottelefonim
pruottelefons
pruottelefonu
pryus
pryusejis
ps
psalidoprocne
pseid
pseudochelidon
pseudonarcissus
psl
psrs
ptyonoprogne
pu
public
publica
publice
publiciejs
publiciejuse
publiciste
publicists
publikaceja
publikacejis
puc
pujats
pukolns
pul
puma
pums
punkts
puol
puoleja
puolejis
puoleju
puoli
puor
puordaris
puordru
puordu
puorguoja
puorguojus
puori
puorja
puorje
puorkri
puorlaida
puorlaide
puorlaidis
puorlaidys
puorlaiz
puorlej
puorman
puormeis
puormej
puormeja
puormejis
puormeju
puors
puorsauc
puorsauce
puorsaukta
puorsaukts
puorspi
puorstaipteikla
puorstuovs
puorsyuteit
puorteciejums
puortraukt
puortykys
puorva
puorval
puorve
puorvierss
puorzvoli
puorzvols
puos
puosma
puosmu
puotarni
puovula
puovuls
pupenis
pupu
pupys
purval
purynu
pus
puse
pusei
pusem
pusi
pusis
puslopa
pusrutul
pussola
pussolys
puta
putni
putnu
putnys
putra
putruomi
putruomu
putruomus
putyni
putyns
putynu
putys
px
pylda
pyldys
pypyri
pypyru
pypyrus
pyrma
pyrmaguojiejs
pyrmais
pyrmaja
pyrmaju
pyrmas
pyrmasku
pyrmaviesture
pyrmaviesturi
pyrmaviesturis
pyrmi
pyrmo
pyrms
pyrmu
pyrmuo
pyrmuok
pyrmuos
pyrrhocorax
pys
pyus
q
r
ra
rac
radeis
radeit
radeits
radeitu
radeja
radejis
radejizotopu
radeju
radneiga
radnesteiga
raimonds
rain
raipole
raisteiba
raisteibu
raisteibys
raistejuos
rajona
rajonim
rajonu
raksteiba
raksteibys
raksteis
raksteit
raksteita
raksteiti
raksteits
raksteitu
raksteja
rakstejs
raksti
rakstineica
rakstini
rakstni
rakstniece
rakstnieci
raksts
ram
ran
ranca
rankys
ras
ratai
rati
ratu
rauda
raudive
raudona
raudys
raudzeit
rauga
raugen
raz
rc
rd
rdi
rds
rdz
rdzinis
re
recht
red
redakceja
redaktori
redaktors
redaktoru
redz
redze
redzi
reforma
reg
regina
regiona
regionalais
regionali
regionalu
regionaluos
regions
regionu
registra
registre
regularai
regularu
reiga
reigai
reigis
reigys
reiha
reiku
reindeer
reinga
reinys
reita
reitim
reits
reitu
reitulatvejis
reiz
reizi
reizis
reizys
reja
rejai
rejis
reju
rekovys
rel
religeja
religeju
religion
religiskajom
religiski
reljefs
reorganizej
republ
republic
republika
republikas
republikys
res
restricttocategory
rests
resursa
resursi
resursu
resursus
retoromani
retrieved
revol
rez
rezekne
rezervats
rezultata
rezultats
rgb
ri
ribinis
riedeit
riedeitu
riedejumam
riga
right
rihards
rika
rim
ring
riparia
ris
risti
rkiun
rkste
rkstis
rkuoni
rkuonu
rkuonus
rlis
rmastine
rmastinis
rn
rni
rnim
rns
rnu
rnus
ro
road
roberts
rod
roda
roduos
roga
rogoukys
rogovkys
roju
roka
rokmuzykants
rokoko
roksta
roksti
rokstoms
roksts
rokstu
rokstus
role
roma
roman
romana
romani
romans
romanu
romi
romys
rongo
ronuos
rositten
roskos
roz
rozens
rozentovys
rraide
rs
rseite
rsinis
rsna
rsoj
rsteikla
rsteiklys
rsteis
rsteitiva
rsteitivi
rsteitivim
rsteitivs
rsteitivu
rstys
rsumu
rsuojs
rt
rtais
rtdi
rte
rtine
rtini
rtivi
rts
rtu
rtuo
rtuz
ru
rubiginosus
rubyns
rubynu
rudin
rudini
rudza
rudzu
rufus
ruga
ruguoju
rul
rumuneja
rumuni
runa
runda
runoj
runoju
runu
runuot
runuotuojs
runys
ruoda
ruode
ruodis
ruoju
ruos
ruota
ruoti
rupain
rupu
rus
rusifikacejis
ruta
rutuleis
rys
ryuc
ryucs
ryugul
rzeme
rzemis
rzgales
rzovys
rzu
s
sa
saaugus
saber
sabi
sac
sacap
sacapums
saceiba
saceis
saceisim
saceja
sacejumi
sacejumu
sacel
saci
sadaleja
sadalejs
sadalejums
sadalejuse
sadareiba
sadora
sadordal
sadors
sadraudzebys
sadraudzeiba
sadraudzeibys
sadura
sadurs
saeima
saeimalivs
sagatava
sagatave
saglobova
saglobuojus
saglobuot
sagri
sagvuordi
sagvuords
sai
saime
saimei
saimesteibys
saimi
saimini
saimis
saimisteiba
saimisteibu
saimisteibys
saimni
saint
saisteits
saiteibys
saitom
saitys
saje
sak
sakn
sakne
saknem
saknis
saksteiba
saksteis
saksteit
saksteja
sakstygola
sal
salaspil
saldus
saldynuotu
salen
sali
salini
salvadors
sama
samaisa
samaituoti
samal
sami
samiereigais
samiereigajam
samoa
samolta
samsung
samu
san
sanatoreju
sanktpeterburga
santjago
sanu
sanuos
sapara
sapiens
saprati
sapru
sara
sardzeibys
sariedi
saroksta
saroksti
saroksts
sarokstu
sas
sasadola
sasadora
sasadoru
sasaglobuojus
sasas
sasatiks
sasauksme
sasavalk
sasaveici
sasi
saska
saski
sasku
saskys
sasni
saspri
sast
sastatejs
sastdi
sastota
sastuoj
sastuoja
sastuova
sataisa
sataiseis
sataiseit
sataiseita
sataiseits
sataiseja
sataisu
sateikama
sateikams
sateikamys
sative
satversmis
sauc
sauce
saukt
saukts
saukums
saukumu
saul
saule
sauleite
saules
saulis
sausajuos
sausi
sausu
sausys
sava
save
savi
sbahu
scalemajor
scaleminor
schinz
schloss
schreber
science
scotia
se
search
seibom
seibu
seibys
seiksta
seiksts
seikstu
seil
seima
seiman
seimys
seis
sejis
sekundaruos
seles
seliska
seliskai
semanova
seminara
seminareja
seminars
seminaru
semitoidu
sen
sena
seneja
seneji
senejs
seneju
senejuo
senejuos
seppuku
septeituo
septeituos
septembra
septembri
septen
septenim
serbeja
serbu
sergejs
serval
servera
serveri
ses
sestuo
seula
sevi
sevim
sevis
sevkura
sevkuram
sevkurs
sevkuru
sezona
sgra
sheet
shift
show
si
sia
sibira
sici
sidneja
siedeibys
siejamais
siejumu
sieklineicys
sieleja
sielejis
sieleju
siempre
sien
sierinis
signalu
sil
silvestris
simbols
simon
simons
simten
simteni
sin
sinagoga
singli
sirds
sistema
sistemu
sistemys
situated
sivers
siz
sjera
sjeraleone
sk
ska
skaidra
skais
skaista
skaists
skaistu
skaistumu
skaistuo
skaistvabalis
skaita
skaitam
skaiteis
skaiteit
skaiteits
skaiteja
skaitejs
skaitl
skaitlis
skaits
skaitu
skaloj
skan
skeletona
skeletons
skis
skolai
skolna
skolns
skoloj
skolota
skons
skonu
skri
skrobla
skroblys
skrubynoj
skrynda
skryndu
skryndys
skrytys
sku
skujuku
skulptura
skuobul
sl
sla
slandeja
slavi
slavu
slavvi
sleinovys
sleiz
sli
slovakeja
sloveneja
slu
slys
sma
sme
smel
smi
smil
smis
smogim
smolkai
sna
snalaime
sni
sno
so
social
socialistiskuo
socialu
socialuo
socialuos
softa
soka
sokolku
sol
sola
solai
soldona
soldons
soldonu
solnys
solom
solon
solsaimesteibai
solsaimisteibys
soltu
soltuokys
solu
solujuon
solujuoni
soluos
solys
solyspil
soma
somali
somu
song
sony
sorgoj
sorgojama
sorgojamais
sorgojami
sorgojamu
sorgojamuos
sorgoju
sorkona
sorkonaja
sorkoni
sorkons
sorkonu
sorkonuo
sorkonuos
sorma
sostuova
south
southern
sova
sovai
sovam
soveibni
soveibu
soveibys
soveiga
soveigs
soveigys
sovetu
sovim
sovini
sovom
sovpateigajim
sovpateigu
sovru
sovs
sovu
sovuma
sovuos
sovus
sovval
sovys
spa
spaiti
spaneja
spanejis
spani
spe
specialist
specialiteta
specialo
specialos
specialu
specialuo
species
speid
speidyni
speidyns
speidynu
spi
spiel
spolvys
sporta
sports
spraudi
spri
spu
spuornu
spurn
ss
ssc
ssrs
st
sta
staben
stabl
stabul
staburoga
staceja
stacejis
staceju
stadal
stadalis
stafecka
stal
stalina
stam
stan
standarta
standartiza
standartizacejis
standartu
stanislava
stanislavs
staroveri
staroveru
starp
start
state
stateiba
stateibmaterialu
stateibys
stateis
stateit
stateita
stateits
stateitu
stateituojs
stateja
stati
statis
statistical
statistics
statistika
statne
status
statusa
statuss
statusu
statusus
ste
steiba
steibai
steibom
steibu
steibuos
steibys
steita
stelenbos
stelgidopteryx
stellenbosch
stepu
sti
stil
stila
still
stim
stine
stinis
stiprinuot
stirni
stiskaja
stisku
stiskuo
stiskuos
stnesis
stokholmys
stoks
stolerovys
storp
storpa
storptautysku
storys
stota
stoti
stots
stotu
stra
straume
straumei
streic
streideibys
strix
strods
strodu
strukturu
strukturys
strumble
struodoj
struodova
struoduoja
struoduot
sts
stsveirs
stu
studeja
studejis
studeju
studentim
studentu
studiejs
studiejuse
studies
studin
studini
stul
stum
stuma
stumal
stumim
stumreitu
stumu
stumvokoru
stun
stuomerinis
stuos
stuosta
stuosti
stuosts
stuostu
stuov
stuove
stuovi
stuovonys
stuovu
stupelis
sture
sturni
stus
styga
stykla
style
styngri
stypri
stypru
styprynuotu
styprys
stys
styuri
styurs
su
subjekts
sudovu
sulu
sulys
suma
sun
suna
sunquist
sunsat
suoc
suoca
suoce
suocu
suoda
suods
suodu
suok
suoka
suokta
suoku
suokuma
suokumam
suokuos
suokus
suokuse
suol
suomeja
suomejis
suomeju
suomi
suomu
suomugru
suonkauleis
suonu
suope
suopu
suova
surinama
surinams
susa
sutri
sutru
sv
sva
svacainis
svahili
svareiga
svareigi
svareigs
svareigu
svareiguoki
svareiguokys
svaren
svec
sver
sves
svi
svieteibu
svieteibys
svietn
svietneica
svietneicys
sviklis
svin
svitys
svors
swallow
sweden
sweet
sylajuon
sylmolys
syltu
syltuma
syltuokys
syltys
symta
symten
symti
symts
symtu
synuot
sys
system
syt
syuta
syuteis
syuteit
syuteits
t
ta
tachycineta
tadz
tagore
tai
taida
taidi
taids
taidu
taidus
taidys
taigys
taipat
taipos
tais
taisa
taise
taisei
taiseis
taiseit
taiseiti
taiseitivs
taiseitova
taiseitovu
taiseits
taisis
taisna
taisneiba
taisneibys
taizeme
taizemi
taju
tajuos
tak
taka
taku
takys
tal
talants
taleju
talina
talins
talis
tall
tallest
tallinn
tam
tamdiel
tameiba
tamlaiceiguo
tana
tanys
tanzaneja
tanzanejis
tapa
tarbata
tarbatys
tarnovo
tas
tata
tats
taukskuobu
tauni
tauryni
tauta
tautai
tautas
tauteibu
tauteibys
tauts
tautu
tautys
tautysdzi
taxonu
tcel
tdi
te
teatra
teatri
teatris
tebra
technology
teci
teciejuma
teciejums
tehnologeja
tehnologejis
tehnologeju
tei
teiba
teibu
teic
teiceja
teik
teikla
teiklavi
teiklu
teikluos
teiku
teina
teins
teira
teireis
teiruma
teis
teitai
teits
tej
teja
teji
tejis
teju
tejuo
tejuos
tekmi
teksta
tekstim
teksts
tekstu
tekstus
tel
telefona
telefons
telefonu
telekomunikacejis
telpa
tem
temminck
temminckii
temnurus
temom
temperatura
ten
tenevilis
teodors
teologejis
teoreju
tepiejs
tepiejumu
tera
terburga
terehova
terezeja
teri
teris
teritoreja
teritorejai
teritorejis
teritorejom
teritoreju
teritorejuos
teritoriskais
teritoriskuo
termina
termini
termins
terminu
terminus
terneta
terpil
terpili
ters
tes
teta
tetu
tev
text
textcolor
teze
th
the
there
this
thomas
thomasi
thumb
thumbnail
ti
tibeti
tic
tice
ticeiba
ticeibu
ticeibys
ticeigi
ticeigu
tici
ticiejumi
tics
tiemej
tiemies
tierdzeibys
tierga
tiervete
ties
tigrinus
tik
tika
tikai
tiks
tikt
til
till
tim
time
timeaxis
tina
tinentalais
tinentaluoks
tinents
tinentu
tini
tinova
tinovys
tins
tinu
tinys
tipa
tipi
tips
tipu
tirana
tiranys
tis
tiskai
tistu
titania
titulus
tiulen
tivs
tjurku
tki
tkim
tku
tkus
tmal
tn
tne
tni
tnieji
tnis
to
tod
toj
tojama
tojami
tojams
tojamu
tojamuo
toju
tok
tom
tomas
tomass
tome
tonga
tongi
top
topa
tora
tors
toru
tova
tovu
tovys
tpara
tr
tra
tradiceigai
tradicejis
tradicejom
tradiceju
tradicionalai
tradicionalais
tradicionals
trai
trainis
trais
traiz
traja
tram
translators
transmission
transporta
transports
trasu
trasuns
trauciejumim
trauka
trauku
traukus
travel
treis
treisdesmitgodu
trejadeibys
trejim
trejmiereiga
trejmiereigs
treju
trepe
tres
tresta
tri
trilogeja
trim
trojany
tropu
trs
tru
trunu
truo
truos
trykuotys
trys
ts
tshiluba
tt
tu
tukis
tuks
tukums
tuma
tuniseja
tuo
tuoja
tuoji
tuojs
tuoju
tuojuma
tuojums
tuokuos
tuol
tuoleimim
tuoli
tuos
tuot
tuota
tuoti
tuots
tuotuoja
tuotuoji
tuotuojim
tur
tura
turceja
turcejis
turdidae
ture
turi
turies
turis
turisma
turistu
turizma
turki
turku
turm
turpinova
turu
turys
tus
tuve
tuvi
tuvis
tv
tveiksna
tvere
tvereiguo
tveris
tvi
tvuordu
tygrs
tygrys
tyka
tyktu
tykus
tylts
tyltu
tyma
tymsai
tymsi
tymsu
tys
tyslopa
tysvuordu
tyukstu
tyvai
tyvuma
tyvuok
tyvuoku
tyvuokuo
u
uan
ublina
uboga
uc
uceja
ucejom
uci
udi
udin
udineji
udviga
udvigs
uefa
uganda
ugru
ugure
uguris
uiguri
ujorka
uka
ukc
ukolna
ukolns
ukrain
ukraina
ukraini
ukrainu
ukrainys
uks
ul
ulman
uma
ume
umeru
ums
umus
un
uncia
und
unda
unesco
unit
universitatis
universiteta
universiteti
universitets
universitetu
universities
university
uns
uo
uobel
uodu
uodys
uojs
uojuma
uojumi
uojumu
uojuos
uok
uokais
uoks
uonu
uorais
uore
uoreju
uorejuos
uoris
uorli
uors
uorsts
uoru
uorzemis
uos
uota
uotivs
uots
uotu
uotuos
uotys
uove
uovis
up
upe
upei
upeite
upeitis
uperim
upi
upini
upis
upleja
uplinska
upmale
upmalis
upper
upu
uralensis
uralu
urbanska
urbanskis
url
urna
urnala
urnali
urnals
urnalu
urocissa
urocyon
urugvaji
urugvajs
us
use
usitatissimum
ustobu
ustobuos
ustobys
utari
utaru
utc
uva
uve
uz
uzcalta
uzcaltys
uzduovinova
uzjiemiejdarbeibys
uzjims
uzjimta
uzskateits
uzskota
uzticeibu
uzvare
uzvora
uzvorys
v
va
vabal
vabalis
vaca
vacais
vacmi
vacs
vacu
vacuma
vacums
vacumu
vacuoku
vacuokuo
vacuos
vacupe
vad
vadeiba
vadeito
vadeituoja
vadeituojs
vadeituoju
vadeja
vadejs
vadumam
vadumi
vadynuoja
vadynuojs
vadynuotuojs
vai
vaicuojumi
vaicuojumim
vaicuojumu
vaidi
vaidim
vaidu
vain
vaine
vaini
vainim
vaira
vairo
vairuok
vairuoki
vairuokim
vairuokys
vaivadeja
vajadze
vajadzeibom
vajadzeibys
vajadzeiga
vajadzeigi
vajag
vak
vakolpuos
val
valdni
valeimaja
valeimu
valein
valen
valentins
valerjana
vallenato
valna
valnam
valoda
valodnieci
valparaiz
valu
value
valuta
valutys
vam
vamuotis
van
vanagi
vandal
vanoma
vanomi
vanoms
vanuatu
vapnakmini
var
vara
varakl
varama
varams
varang
varbyut
vard
vardivis
vardpu
vardus
vare
vareiba
vareibu
vareibys
vargan
vari
varia
variantam
varieja
varkys
vars
varu
vasal
vasals
vasalu
vasalus
vasarneicys
vasil
vatikana
vatikans
vato
ve
vecs
vede
vedeja
vedejis
vedeju
vedu
vef
veic
veicareja
veicarejis
veice
veicis
veida
veidoj
veidus
veiksnys
veinu
veipa
veips
veiram
veireits
veiri
veiris
veirs
veiskupa
veiskupeja
veiskups
veits
veja
vejai
vejis
veju
vekro
vel
veliko
velox
velti
venecuela
venecueli
vengreja
vengrejis
vengri
vengru
ventspil
vera
veremu
verhn
veri
veronika
versal
verseja
versejis
vertical
veru
ves
vesel
veseleibu
veseleibys
vests
vi
vicebskys
video
vides
videvuta
viecis
vieja
vieji
viejs
vienka
vieri
viern
viers
viersa
viersdaugovys
viersejuo
viersineica
viersini
viersliga
viersni
vierss
viersu
viersyune
viersyunis
vierteibu
vierteibys
viesteitivi
viesteitivu
viestej
viestule
viesture
viesturi
viesturis
viesturiska
viesturiskai
viesturiskais
viesturiski
viesturisku
viesturiskuo
viesturiskuos
viesturiskys
viesturneica
viesturni
view
vigors
vii
vikipedeja
vikipedejai
vikipedejis
vikipedeju
viktora
viktorejis
viktors
vil
vileki
vileks
vim
vin
viri
virs
vis
viski
vitebska
vitel
vitolds
viverrinus
vjetnama
vjetnami
vjetnams
vjl
vladimirs
vo
voda
vodam
vodi
vodim
vodomi
vods
vodslatgolys
vodte
vodtiemeibys
vodu
voguli
vogulu
vogys
voi
voicul
vokora
vokorim
vokoru
vol
volda
volds
voldu
volgona
volmi
volu
vom
von
vonogi
voru
vorys
vosor
vosora
vosoruos
vosorys
vota
votu
voucejis
vs
vu
vucyns
vuica
vuiceiba
vuiceibu
vuiceibys
vuiceis
vuiceiti
vuiceji
vuicejuos
vuicejus
vuicejuse
vuicu
vuicuos
vulkaniski
vulpes
vuoceja
vuocejis
vuoceju
vuoci
vuociejs
vuocu
vuocyskai
vuorda
vuordam
vuordi
vuordim
vuordineica
vuordineicu
vuordineicys
vuords
vuordu
vuordus
vuorkovys
vuorna
vuornin
vuornu
vuornys
vuos
vuovere
vurcburgys
vus
vvolu
vyda
vydkluos
vydryz
vyds
vydsamerika
vydsdal
vydsgul
vydsjiuru
vydsku
vydslaiku
vydsmuiz
vydss
vydssku
vydtautisku
vydtautiskuos
vydtautyskai
vydtautysku
vydtautyskuo
vydu
vyduc
vydums
vydyskai
vydyskais
vydyskuo
vydzeme
vydzemi
vydzemis
vylki
vylks
vylku
vyra
vyres
vyrovi
vyrti
vyrtu
vyrtuve
vyrtys
vys
vysa
vysaida
vysaideiba
vysaidom
vysaidu
vysaiduos
vysaidus
vysaidys
vysaiz
vyscaureigais
vyscaureigajam
vysi
vysim
vyskai
vysleidza
vysnova
vysnovys
vysod
vysom
vyss
vysu
vysuaugstais
vysuaugstuokuo
vysuci
vysucies
vysudzil
vysulelais
vysuleluokais
vysuleluoku
vysuleluokuo
vysuma
vysums
vysumu
vysuos
vysur
vysus
vysusva
vysuvaira
vysuvairuok
vysuzamuokuo
vysys
vytru
w
wales
warsaw
warszawa
washington
water
we
web
websasaiste
welt
when
whidbey
wi
width
wiedii
wikimedia
wild
wildlife
wilson
windows
with
wolf
woman
word
world
write
wroughton
www
władysław
x
xii
xiii
xiv
xix
xv
xvi
xviii
xx
y
ya
yagouaroundi
yah
ydi
ydu
year
yesterday
yguons
ynoj
york
yorkshire
you
youtube
ys
yun
yuna
yuska
yyyy
z
za
zal
zala
zalta
zam
zama
zamai
zamain
zamaine
zamaini
zamainis
zamatzaru
zambeja
zambejis
zamklase
zamos
zams
zamsaime
zamyn
zamys
zamzemis
zapi
zaude
zaudieja
zdams
ze
zealand
zeiba
zeile
zeime
zeimebys
zeimeiba
zeimeibu
zeimeibys
zeimeiga
zeimeigi
zeimeigs
zeimeigu
zeimeiguoku
zeimeigys
zeimej
zeimem
zeimi
zeimies
zeimis
zeimoj
zeimu
zeimuot
zeita
zeits
zeja
zekne
zeknes
zeknis
zel
zeme
zemei
zemem
zemes
zemgal
zemgali
zemgalis
zemgolu
zemgolys
zemi
zemis
zemislopa
zemisvieri
zemisviersa
zemkopi
zemku
zemni
zemu
zen
zenis
zi
ziberga
ziern
zimbabve
zimbabvis
zin
zina
zine
zineiba
zineibu
zineibys
zinini
zinis
zinisku
ziniskuo
zinoms
zinovjeva
zinuoma
zinuoms
zipf
zipfa
zis
zivs
zma
zmin
zna
zne
znis
znu
znys
zona
zonta
zonys
zoology
zoru
zs
zt
zti
ztu
ztys
zu
zujoka
zuls
zuluojs
zuma
zuoka
zuol
zuole
zurzu
zus
zuts
zvaigz
zvaigzne
zvaneis
zve
zvi
zvierbulini
zviergzdin
zviers
zvieru
zvonu
zyla
zylspuornu
zylu
zyluo
zyluos
zyna
zynoma
zynomais
zynoms
zynomuo
zynomys
zynuos
zynuot
zys
zyvu
{
|
}
~
¡
«
°
²
³
»
½
łobez
łobzie
ˈ
̀
́
̂
̃
̄
̆
̇
̈
̊
̋
̌
̣
̦
̧
̨
͡
α
θ
а
библиотека
в
вера
г
двинск
дело
дзвіна
е
евгении
зеркалам
и
леонов
лучи
м
михаил
н
на
наша
о
п
передача
петербург
по
погулянка
россии
с
санкт
ская
т
у
урбанскии
ф
я
ְ
ֱ
ִ
ֶ
ָ
ּ
־
א
אברהם
ב
ד
ה
הכהן
ז
י
יצחק
ל
ן
קוק
ר
ٔ
ज
भ
य
ा
्
​
–
—
‘
’
“
”
„
†
•
…
′
″
€
←
→
↔
↷
−
③
④
⑦
☉
⺀
⺄
⺆
⺈
⺊
⺌
⺕
⺝
⺸
⺼
⿰
⿱
⿲
⿳
⿴
⿵
⿶
⿷
⿸
⿹
⿺
⿻
〢
コ
ユ
㇁
㇂
㇄
㇇
㇈
㇉
㇓
㐁
㐄
㐅
㐌
㐫
㐬
㐭
㐮
㐱
㑒
㒵
㒸
㒼
㓁
㓞
㔾
㕛
㕣
㖾
㘝
㚅
㚇
㚔
㚘
㝉
㝡
㝴
㝵
㞋
㞢
㞷
㠩
㠭
㠯
㡀
㡭
㡿
㢲
㢴
㣇
㣺
㥯
㪅
㫄
㫐
㫒
㫺
㬅
㬎
㬥
㬰
㲋
㳄
㷠
㸒
㸚
㸦
㼌
㼲
㽞
㿟
䀠
䂞
䍃
䏍
䒑
䖍
䖒
䖝
䖵
䙴
䚻
䜌
䝿
䡛
䧹
䪞
一
丁
丂
七
丄
丅
丆
万
丈
三
上
下
丌
不
与
丏
丐
丑
专
且
丕
世
丘
丙
业
东
丞
丢
丣
两
严
並
丨
丩
个
丫
丬
中
丮
丰
丱
串
丵
丶
丷
丸
丹
为
主
丽
丿
乀
乂
乃
久
乆
乇
么
义
之
乌
乍
乎
乏
乐
乑
乔
乖
乗
乘
乙
乚
乛
乜
九
乞
也
习
乡
乳
乾
亀
亅
了
亇
予
争
事
二
亍
于
亏
亐
云
互
亓
五
井
亘
亚
亜
亞
亟
亠
亡
亢
交
亥
亦
产
亨
亩
享
京
亭
亮
亯
亰
亲
亳
亶
亷
人
亻
亼
亾
仁
今
介
仌
从
仐
仑
仒
仓
仕
他
付
仝
代
令
以
任
企
伊
伏
伐
休
会
伯
但
位
何
佘
余
作
佥
使
來
侈
侌
侖
侯
侵
便
保
俞
信
修
倉
倍
候
倠
備
僉
僕
儿
兀
允
兂
元
兄
充
兆
兇
先
光
兊
克
兌
免
兑
兒
兓
兔
党
兜
兟
入
全
兩
兪
八
公
六
兮
兰
共
关
兵
其
具
典
兹
兼
冀
冂
冃
冄
内
冈
冉
冊
冋
册
再
冎
冏
冐
冒
冓
冖
冗
冘
军
农
冝
冡
冥
冫
冬
冷
几
凡
凢
凵
凶
凷
凸
凹
出
函
凾
刀
刁
刂
刃
刄
刅
分
切
刍
刑
刕
刖
列
刘
则
初
別
利
别
到
制
刺
則
削
剌
前
剡
剽
劉
力
功
加
劦
助
劫
劳
劵
勃
勇
勉
勒
動
務
勞
勤
勹
勺
勻
勾
勿
匀
匂
包
匆
匈
匊
匋
匍
匕
化
北
匚
匝
匡
匪
匱
匸
匹
区
医
匽
匿
區
十
卂
千
卄
卅
卆
升
午
卉
半
卌
华
卑
卒
卓
单
卖
南
卜
卝
卞
占
卡
卢
卣
卤
卦
卩
卪
卬
卯
印
危
即
却
卵
卷
卸
卻
厂
厃
厄
历
厈
厉
厌
厓
厘
厚
原
厤
厥
厨
厭
厲
厶
厷
厸
去
厼
厽
叀
参
參
叅
又
叉
及
友
双
反
叐
发
叒
叔
叕
取
受
叚
叜
叟
口
古
句
另
叩
只
召
可
台
叱
史
右
叵
号
司
叹
吂
各
吅
合
吉
吊
吋
同
名
后
吏
向
吕
君
吝
吞
否
含
启
吳
吴
吹
吾
呂
呆
呈
告
员
呙
周
命
咅
和
咎
咠
咢
咨
咸
咼
哀
品
哉
員
哥
哲
唐
商
啇
問
啚
啬
啻
善
喜
喬
單
喿
嗇
噩
嚴
囊
囗
囘
囙
囚
四
回
囟
因
囧
囬
困
囱
囷
固
国
圂
圅
國
圍
圓
土
圡
圣
圥
在
圭
地
圶
圼
坐
坒
坚
坴
垂
垔
垚
埀
埋
埶
執
基
堂
堅
堆
堇
堯
塞
墨
壘
士
壬
壯
声
壳
壴
壹
壺
壽
夂
处
夅
夆
备
夊
夋
夌
复
夏
夒
夕
外
夗
夘
多
夜
夢
大
夨
天
太
夫
夬
夭
央
失
夲
头
夷
夸
夹
夻
夾
奂
奄
奇
奈
奉
奎
奏
奐
契
奓
奔
奚
奞
奠
奢
奥
奭
女
奴
奻
好
如
妄
妙
妟
妥
妻
妾
姑
委
姜
威
娄
婁
婴
嬰
嬴
子
孑
孔
孕
孖
字
存
孚
孛
孝
孟
季
孤
学
孫
孱
學
宀
宁
宂
它
宅
宇
守
安
宋
完
宏
宓
宗
官
定
宛
宜
宝
客
宣
室
宮
宰
害
家
容
宾
宿
寄
寅
密
富
寒
察
寧
審
寫
寬
寮
寸
对
寺
寻
寽
対
寿
封
尃
射
将
將
專
尉
尊
尋
尌
對
小
少
尒
尓
尔
尖
尗
尚
尞
尢
尣
尤
尧
尨
尭
就
尸
尹
尺
尻
尼
尽
尾
尿
局
居
屈
屋
屎
屏
屑
展
屖
屚
属
屠
屡
屬
屮
屯
屰
山
屵
屾
岁
岂
岑
岡
岩
岳
岸
峯
島
崇
崑
崔
崖
崙
崩
嵬
嶲
巂
巛
川
州
巟
巠
巢
巤
工
左
巧
巨
巩
巫
差
己
已
巳
巴
巷
巸
巽
巾
巿
帀
市
布
希
帚
帛
帝
带
師
席
帶
常
干
平
年
幵
并
幷
幸
幺
幻
幼
幽
幾
广
広
庄
床
底
店
庚
府
度
庫
庭
庶
康
庸
廉
廌
廛
廣
廩
廴
延
廷
建
廾
廿
开
弁
弃
弄
弇
弋
式
弓
弔
引
弗
弘
弜
弟
弥
弦
弱
張
強
强
彊
彌
彎
彐
彑
当
彔
录
彖
彗
彡
形
彥
彦
彧
彭
彳
役
彼
往
待
律
徒
得
徙
從
復
微
徵
心
忄
必
忌
忍
志
忝
忠
忩
快
念
忽
忿
思
怠
急
怱
恆
恒
恩
恭
息
悉
患
悤
悲
悶
惠
惡
惢
愁
愈
意
愛
感
慈
慧
慮
憂
憲
應
戀
戈
戉
戊
戋
戌
戍
戎
成
我
戒
戔
或
戚
戠
戢
截
戲
戶
户
戹
戼
戾
房
所
扁
扇
手
扌
才
打
托
执
承
折
拉
拜
拿
掌
推
提
摩
支
攴
攵
收
攸
改
放
政
敄
敏
敕
敖
敗
敝
敞
敢
散
敦
敫
敬
数
敷
數
斂
文
斉
斊
斗
斤
斥
斩
斬
斯
新
方
於
施
斿
旁
旋
族
无
旡
既
旣
日
旦
旧
旨
早
旬
旱
旲
时
旾
昆
昇
昌
昍
明
昏
易
昔
昗
昜
星
春
昬
是
昱
昴
昷
時
晃
晋
晏
普
景
晶
智
暑
暴
曇
曩
曰
曲
曳
更
曷
書
曹
曼
曾
替
最
朁
會
月
有
朋
服
朔
朕
朗
望
朝
木
朩
未
末
本
札
朮
术
朱
朵
朶
朿
杀
杏
杜
束
条
来
東
杲
杳
松
析
林
枚
果
枝
枲
枼
某
柔
查
柬
柰
柴
栗
桀
桑
桼
梁
條
梟
梨
棘
棠
棥
森
楚
業
楽
榮
樂
樊
欠
次
欣
欮
欲
欶
欽
款
歆
歇
歛
止
正
此
步
武
歨
歪
歮
歯
歰
歲
歴
歷
歸
歹
歺
死
殳
段
殷
殸
殹
殺
殻
殿
毋
毌
母
每
毒
比
毕
毚
毛
毳
氏
氐
民
气
氣
水
氵
氶
氷
永
氺
氾
求
汉
汝
汞
江
沃
沓
沙
沝
泉
法
波
泣
泥
泰
洛
洪
活
派
流
浦
浪
浮
淡
淮
清
渚
渠
湯
滿
漸
火
灬
灭
灰
灵
灷
炅
炎
炏
炗
炙
炭
為
烈
烏
烝
焉
無
焦
焱
然
煞
熊
熏
燕
營
燮
爪
爫
爭
爯
爰
爱
爲
爵
父
爻
爽
爾
爿
片
牙
牚
牛
牜
牟
牢
牧
牪
牽
犀
犬
犭
犮
狂
狄
狊
独
狺
猋
猒
猪
献
獻
玄
率
玉
王
玟
玨
珎
班
琴
瑟
瑩
瓜
瓦
甘
甚
生
産
用
甫
甬
田
由
甲
申
电
甶
男
甸
甹
画
甾
畀
界
畏
畐
留
畜
畟
畢
畧
畨
番
畫
異
畱
當
畺
畾
疊
疋
疌
疑
疒
疾
癶
癸
癹
登
發
白
百
皀
皃
的
皆
皇
皋
皐
皕
皮
皷
皿
盃
盆
盇
盈
益
盍
盎
监
盒
盖
盛
盡
監
盤
盧
目
直
相
盾
省
眇
眉
看
眔
眞
真
眷
眼
眾
着
睘
睪
睿
瞏
瞢
瞿
矍
矛
矞
矢
矣
知
矦
短
石
破
碎
磊
磨
示
礻
礼
祟
票
祭
禀
禁
禸
禹
禺
离
禽
禾
禿
秀
秃
秉
秋
科
秝
秦
移
稟
穀
穌
穴
究
穹
空
穿
突
窄
窒
立
竒
竜
竝
竟
章
童
竹
笑
笠
筆
等
答
箕
算
箴
節
篤
篭
米
粉
粛
粟
粤
粦
粲
糞
糸
糹
系
約
納
素
索
紫
累
細
絜
絫
絲
維
綿
縣
繇
纍
纟
缶
网
罒
罔
罕
罗
罙
罡
罢
罪
署
罷
羅
羊
羌
羍
美
羔
羕
羗
羞
羡
羣
群
義
羲
羸
羽
翁
翏
習
翕
翟
翠
翼
老
耂
考
者
耆
而
耎
耑
耒
耳
耴
耶
耷
聂
聊
聖
聚
聶
聿
肀
肃
肅
肉
肖
肙
肥
肩
肯
育
肴
胃
背
胡
胥
能
脊
脩
膚
臣
臤
臧
自
臬
臭
臯
臱
至
致
臺
臼
臽
臾
臿
舀
舂
舄
與
興
舉
舌
舍
舛
舜
舞
舟
般
艮
良
色
艸
艹
艾
芒
芔
芬
芮
花
芳
芺
芻
苔
苗
苟
若
苦
英
茶
茸
荅
草
荒
荣
荼
莆
莧
莫
莽
菆
菊
菐
華
萬
落
葉
著
葛
董
葵
蒙
蒦
蒼
蓋
蓬
蓺
蔑
蔡
蕉
蕭
薄
薛
薦
薰
藍
藏
藥
蘭
虍
虎
虐
虒
虔
處
虖
虗
虘
虚
虛
虜
虞
虫
虽
蚤
蚩
蜀
蜜
蟲
蠡
血
行
衍
衛
衣
衤
表
衮
衰
袁
袞
褭
褱
襄
襾
西
覀
要
覃
見
規
覓
覧
親
覽
见
角
解
言
訁
訇
計
詹
誩
諸
讠
语
谷
豆
豈
豊
豐
豕
豖
豙
象
豦
豩
豪
豸
貇
貝
貞
貟
負
貢
貧
貪
貫
責
貳
貴
買
費
賁
資
賈
賏
賓
賔
賛
賞
賢
賣
質
賴
贊
贝
贡
责
贯
贲
贵
赖
赞
赤
赦
走
越
足
路
蹇
身
躬
車
軍
軎
軟
輦
车
辛
辜
辟
辥
辰
辱
農
辵
辶
边
达
过
近
连
迷
追
退
送
逆
逐
通
速
造
逢
連
逮
進
遀
遂
過
道
達
遣
適
遷
遺
邊
邑
邕
那
邦
邪
郎
部
郭
都
鄉
酉
酋
配
酓
釆
采
里
重
野
量
金
釒
錢
钅
長
镸
长
門
閃
閉
開
閏
閑
閒
間
閔
閵
閻
闌
门
间
闷
阑
阜
阝
阿
降
陳
隆
隊
隋
隡
隨
隱
隶
隹
隺
隻
隼
隽
难
雀
雁
集
雈
雋
雍
雐
雔
雙
雚
雜
雝
離
難
雨
雩
雪
雲
零
雷
需
霍
霜
霝
霞
霸
靈
靑
青
非
靡
面
靣
革
韋
韓
韦
韭
韯
韱
音
頁
頃
項
須
頗
頡
頻
顛
页
風
风
飛
飞
食
飠
養
饣
首
香
馬
馮
駦
马
骨
高
髟
鬥
鬯
鬲
鬼
魚
魯
鮮
鱼
鲁
鳥
鳳
鸟
鹵
鹿
麃
麗
麥
麦
麻
黃
黄
黍
黎
黑
黒
黨
黹
黽
黾
鼎
鼓
鼠
鼻
齊
齋
齐
齒
齿
龍
龙
龜
龟
龠
龰
龱
龴
龵
龶
龷
龸
龹
者
艹
？
￼
𐌱
𐌹
𐍁
𐍊
🜨
𠀁
𠀃
𠀆
𠀉
𠀎
𠀐
𠁁
𠁣
𠂆
𠂇
𠂈
𠂉
𠂊
𠂋
𠂎
𠂒
𠂔
𠂛
𠂡
𠂢
𠂤
𠂬
𠂭
𠂹
𠃊
𠃋
𠃌
𠃍
𠃎
𠃑
𠃓
𠃔
𠃜
𠄌
𠄎
𠄠
𠄢
𠆢
𠆥
𠇍
𠈌
𠌵
𠓜
𠔉
𠔥
𠔼
𠔽
𠔿
𠕀
𠕁
𠕋
𠘧
𠘨
𠙻
𠙼
𠚏
𠚒
𠚤
𠚪
𠣏
𠤎
𠤕
𠥓
𠦄
𠦑
𠦝
𠧒
𠧗
𠧪
𠩺
𠪚
𠫓
𠫔
𠫤
𠬛
𠬝
𠬞
𠬢
𠬤
𠬶
𠮛
𠮦
𠮷
𠯑
𠱠
𠳮
𠷎
𡈼
𡉀
𡉵
𡌥
𡍮
𡏳
𡕒
𡕩
𡕰
𡖅
𡗗
𡗜
𡘆
𡘤
𡧱
𡨄
𡩧
𡬠
𡭽
𡰣
𡰥
𡰪
𡰯
𡰱
𡷈
𡸁
𡿨
𡿩
𡿪
𡿺
𢀖
𢀛
𢀩
𢁙
𢆉
𢆰
𢆶
𢇁
𢇇
𢉖
𢌬
𢌿
𢏚
𢑑
𢑚
𢖻
𢙣
𢛳
𢦏
𢦒
𢧵
𢼄
𢾕
𣁋
𣄼
𣅀
𣅽
𣍘
𣎳
𣎵
𣏋
𣏼
𣗥
𣥂
𣥖
𣦵
𣦼
𣧄
𣪊
𣪠
𣬉
𣳾
𣶒
𤇾
𤊽
𤐫
𤓰
𤔔
𤕨
𤣩
𤰇
𤰔
𤰞
𤴓
𤴔
𤽄
𥁑
𥁕
𥃦
𥃩
𥃭
𥇡
𥑟
𥘅
𥘈
𥝢
𥫗
𥱡
𦈢
𦉪
𦉬
𦉼
𦍌
𦍒
𦎧
𦐇
𦓔
𦔮
𦘒
𦙃
𦚏
𦣝
𦣞
𦣻
𦥑
𦥔
𦥯
𦨉
𦭝
𦰩
𧆞
𧈧
𧘇
𧰨
𧴪
𧴮
𧵩
𧾷
𨸏
𨾴
𩙿
𩠐
𩫏
𩵋
𪉷
𪜀
𪟽
𪠲
𪩲
𫇦
𫔭
𫜸
𫝀
𫠣
𫠩
𫢉
𫥞
𫩏
𫩠
𫪡
𫲽
𫶧
𬀷
𬐘
𬗌
𬙙
𬛸
𬜯
𬟩
𬯁
𬴘
𬺻
𬼉
𬼖
𭀰
𭁈
𭁨
𭅰
𭑈
𭕄
𭗼
𭤨
𭥫
𭻾
𮅕
𮊿
𮍌
𮍏
𮓗
𮥼
𮧮
廾
𰀁
𰀄
𰀈
𰀉
𰀕
𰀠
𰀡
𰀢
𰀪
𰁜
𰃮
𰆊
𰆘
𰋙
𰕎
𰢴
𰧭
𰯲
0--
0101--
10--
11--
12--
13--
15--
16--
17--
18--
29--
36--
42--
43--
45--
47--
48--
51--
52--
53--
56--
57--
59--
7--
74--
9--
a--
ab--
abha--
abra--
abs--
abu--
ac--
ad--
adi--
af--
afga--
agl--
agro--
ai--
aiz--
aizas--
ak--
akade--
akuza--
al--
albi--
ale--
aleks--
algo--
alo--
am--
amater--
ame--
amu--
an--
anali--
antro--
ap--
apry--
aps--
apsas--
apstypry--
ar--
ara--
arh--
arheologi--
as--
astr--
at--
atb--
atbolste--
atjauny--
atl--
ats--
atsa--
atsac--
atspaid--
atsta--
au--
auda--
audzy--
aug--
aup--
aus--
auto--
autom--
aza--
azar--
b--
ba--
bal--
ban--
bangpyu--
bar--
bau--
be--
bei--
bel--
ben--
benedi--
bez--
bi--
biern--
bio--
bir--
blo--
bo--
boguo--
bol--
bom--
bon--
bor--
br--
bra--
bran--
bre--
breiv--
bro--
brow--
bryun--
bu--
bukm--
bul--
bum--
bun--
buo--
buor--
buord--
bur--
by--
c--
ca--
cap--
car--
cas--
ce--
cei--
cel--
ch--
ci--
cier--
ciklope--
cis--
cm--
co--
communi--
con--
coo--
coun--
cu--
cy--
cyano--
cyr--
cys--
d--
da--
dabu--
dabuojie--
dadzy--
dag--
dam--
dar--
das--
dasa--
dato--
dator--
dau--
daudzi--
daz--
de--
debi--
defi--
dekora--
demo--
demokra--
der--
derlan--
desmi--
deve--
di--
dialekto--
dig--
diplom--
dis--
div--
dka--
do--
doku--
dokumen--
dom--
down--
drama--
drau--
driez--
dru--
dry--
du--
dub--
dun--
duo--
duor--
dur--
dvas--
dy--
dyby--
dz--
dzalt--
dze--
dzeivy--
dzim--
e--
ed--
ede--
egl--
ei--
eic--
eidz--
eipa--
ej--
ek--
ekonom--
ekonomis--
eks--
ekspedi--
el--
ele--
elektr--
elektronis--
elemen--
eliza--
em--
emi--
empi--
en--
ene--
entu--
eon--
epi--
er--
eritr--
erke--
ern--
es--
etno--
eve--
even--
evi--
ex--
eze--
f--
fa--
fal--
fe--
fede--
fi--
fil--
fir--
fizis--
fla--
flo--
fo--
folkl--
fone--
for--
foto--
fr--
frag--
fri--
fu--
fuli--
g--
ga--
gai--
gam--
gan--
gar--
garei--
garo--
gata--
gaze--
ge--
gen--
gene--
geo--
geografi--
geologi--
ger--
get--
gi--
gita--
gl--
gla--
glat--
glo--
gluo--
go--
gods--
gol--
golv--
good--
gr--
grafi--
grama--
gravita--
gre--
gru--
gry--
gryu--
gt--
gu--
guberne--
gul--
gun--
guo--
h--
ha--
han--
har--
he--
hel--
hels--
hen--
her--
hid--
hit--
ho--
hol--
hor--
hori--
horva--
hro--
hu--
i--
ibu--
ic--
id--
ie--
ier--
ig--
igna--
ik--
iki--
il--
im--
imi--
in--
inc--
indus--
infrastruk--
inici--
inspek--
instru--
instrumen--
inter--
ip--
ir--
is--
it--
iu--
iv--
iz--
iza--
izal--
izalika--
izarais--
izcy--
izda--
izgle--
izla--
izlai--
izman--
izmon--
izra--
izro--
izs--
izva--
izve--
izvy--
j--
ja--
jaun--
je--
ji--
jo--
ju--
jubi--
jum--
juo--
k--
ka--
kab--
kai--
kal--
kali--
kan--
kapitula--
kar--
kara--
kardi--
kas--
kate--
kau--
kazim--
ke--
kel--
kem--
ken--
keno--
kerbe--
ki--
kilog--
kir--
km--
ko--
kol--
kole--
kolekci--
kom--
komi--
kompo--
komun--
komunika--
kon--
konf--
kongrega--
konkre--
konservato--
konstitu--
kor--
korporac--
kos--
kr--
kra--
kre--
kri--
krist--
kro--
kru--
kry--
krys--
ks--
kser--
ku--
kultur--
kum--
kun--
kuo--
kur--
kus--
kys--
l--
la--
lab--
lads--
lai--
laik--
lands--
las--
latkovs--
lau--
laul--
le--
leg--
lei--
leiku--
lek--
lel--
lely--
lenin--
leo--
lez--
li--
lie--
lin--
ling--
lingu--
lingvis--
liris--
lo--
lu--
lun--
lus--
ly--
lyu--
m--
ma--
mag--
make--
maksim--
mal--
maln--
man--
manus--
mar--
mari--
matem--
maz--
me--
meiksty--
meis--
melo--
mero--
meta--
metamorfi--
mi--
mie--
miha--
mik--
mil--
mili--
milit--
mis--
mito--
mja--
mo--
mol--
mon--
mono--
mor--
mora--
morfologi--
moz--
mu--
mugor--
muo--
muoks--
muokslei--
muol--
muor--
mur--
murca--
my--
myno--
myus--
n--
na--
naaiz--
naat--
naci--
nai--
napal--
napr--
nar--
nas--
nati--
nau--
navy--
navyd--
naz--
ne--
nei--
nga--
ni--
nic--
nig--
no--
nom--
nor--
novosi--
nu--
num--
nuo--
o--
oba--
oc--
oho--
oj--
oku--
ol--
omo--
on--
or--
orbi--
org--
ori--
ort--
os--
ose--
oso--
otso--
ovi--
oze--
p--
pa--
pagu--
pal--
pala--
pales--
pamat--
pan--
pane--
pape--
papl--
paplaty--
papyl--
par--
para--
pareiz--
parla--
pas--
pasa--
pasapl--
pasaruo--
pasauk--
pasiu--
pasta--
pat--
patrio--
pavies--
pazamyn--
pazeis--
pe--
pedagogi--
pede--
pel--
per--
perso--
petro--
pho--
pi--
pie--
piec--
pil--
pilis--
pir--
pl--
pla--
plat--
ple--
plei--
plem--
pli--
plos--
ploskon--
pluo--
po--
poe--
pol--
poli--
popul--
por--
porst--
pos--
post--
pota--
pour--
pr--
prase--
pre--
pretiv--
pri--
princi--
privat--
pro--
produk--
prof--
profes--
progr--
prome--
propa--
proto--
pruottele--
ps--
psiho--
pu--
publi--
pun--
punk--
puo--
puor--
puorsa--
puova--
pur--
pus--
pute--
pyl--
q--
r--
ra--
rabin--
rad--
radej--
radz--
rai--
ram--
ran--
ratsen--
rau--
raz--
rd--
re--
reag--
referen--
rei--
reit--
rej--
rekonstruk--
rel--
religi--
rez--
ri--
rie--
rn--
ro--
roks--
rom--
rs--
rt--
ru--
run--
ruo--
ruoj--
rus--
ryu--
ryup--
s--
sa--
sabrau--
sac--
sacej--
sagu--
saha--
sai--
saiste--
sak--
sakry--
sal--
salas--
samo--
san--
sapr--
sar--
sara--
sas--
sasa--
sastate--
sati--
sau--
saus--
sc--
sco--
se--
sei--
sekre--
sekun--
sel--
selis--
sene--
ser--
sere--
sev--
si--
sie--
sied--
sig--
siks--
sim--
sin--
sinhroniza--
siver--
sk--
ska--
skait--
skatei--
sko--
skry--
skulp--
sl--
sla--
slo--
slove--
slovon--
smi--
smol--
smu--
smuo--
so--
sol--
solsaime--
soma--
sor--
sorg--
sorkon--
special--
spi--
spr--
spro--
spru--
spuo--
st--
sta--
ste--
stef--
sti--
sto--
stol--
stre--
streid--
streip--
stri--
struk--
struo--
stu--
stum--
stuo--
sty--
stygl--
styn--
stypr--
stypry--
styu--
su--
sub--
subs--
suo--
sur--
sv--
sva--
svazi--
sve--
svie--
svo--
sy--
sylo--
syu--
t--
ta--
tabasar--
tai--
tan--
tas--
tau--
te--
tehni--
tehnis--
tei--
tele--
tem--
teo--
teore--
ter--
tern--
teu--
th--
ti--
tiem--
tiemie--
tier--
tik--
tir--
tis--
tn--
to--
tol--
ton--
tr--
tra--
tradici--
tragi--
trans--
transport--
tre--
trej--
tro--
tryu--
tsa--
tu--
tul--
turkmeni--
tv--
tvuo--
ty--
tyca--
tyku--
tys--
u--
uc--
udmu--
ugan--
ugu--
ul--
umur--
un--
uni--
univ--
uo--
uok--
uor--
up--
ura--
urba--
us--
uz--
uzas--
uzbeki--
uzska--
v--
va--
vac--
vad--
vade--
vady--
vadynu--
vai--
vaido--
val--
vale--
ve--
vei--
veid--
ven--
vene--
vers--
vi--
vice--
vie--
vier--
viers--
viert--
vies--
viki--
vil--
vin--
vis--
vize--
vla--
vo--
vod--
vokal--
vol--
vu--
vucy--
vuic--
vuice--
vul--
vuo--
vuoc--
vuord--
vy--
vyd--
vyds--
vyl--
vyrs--
vys--
vysu--
w--
wa--
we--
wi--
wiki--
win--
wo--
x--
y--
yus--
z--
za--
zam--
zau--
ze--
zei--
zel--
zem--
zi--
zin--
zo--
zoolo--
zu--
zve--
zvi--
zvier--
zy--
zyr--
в--
г--
ги--
д--
да--
к--
красл--
латгаль--
мих--
нацио--
от--
п--
пе--
пи--
с--
сове--
т--
ф--
--0
--09
--1
--2
--21
--3
--4
--5
--6
--7
--73
--8
--9
--93
--97
--a
--ace
--aceit
--acejis
--ad
--ada
--adu
--ae
--ai
--ain
--ais
--ajai
--aji
--aki
--aku
--al
--ala
--ali
--alu
--aluo
--am
--ama
--ami
--ams
--amu
--amuo
--amuos
--an
--ano
--ar
--ara
--ard
--aru
--as
--ata
--ateik
--ateit
--ateja
--atu
--aturys
--auc
--aulis
--ava
--ave
--b
--ba
--be
--bi
--bom
--bs
--bt
--bu
--bys
--c
--ca
--cal
--ce
--ceja
--ceju
--cel
--ces
--ch
--che
--ci
--ciju
--ck
--ckis
--co
--cs
--ctory
--cu
--cys
--d
--da
--daba
--dae
--dauni
--de
--di
--dia
--din
--ding
--do
--dors
--dova
--ds
--du
--dy
--dys
--dz
--dza
--e
--ea
--eci
--ect
--ed
--eda
--egeju
--ei
--eibom
--eibys
--eicu
--eigi
--eigs
--eigu
--eiguo
--eiguos
--eigys
--eis
--eit
--eita
--eiti
--eitu
--ej
--eja
--eji
--ejis
--ejom
--ejs
--eju
--ejums
--ejumu
--ejuo
--ejuos
--eki
--ekl
--eks
--el
--em
--ema
--en
--ena
--ene
--ensis
--enta
--entu
--er
--eri
--eru
--es
--esa
--est
--et
--eta
--ete
--etu
--ez
--f
--fa
--fejis
--feju
--fi
--fika
--fox
--fs
--ft
--fu
--g
--ga
--gai
--gani
--ge
--ger
--gi
--gs
--gu
--h
--ha
--hs
--hu
--i
--ia
--ian
--iba
--ibai
--ibom
--ibu
--ibys
--ic
--ica
--icu
--icus
--ida
--idae
--ide
--idi
--ids
--idu
--ieja
--iejim
--iejs
--ieju
--ies
--iga
--igi
--igs
--igta
--igu
--iguo
--iguos
--igys
--ija
--ika
--iku
--ikys
--il
--im
--imi
--in
--ine
--ing
--ini
--inim
--inis
--ins
--ion
--ions
--ir
--is
--isku
--isms
--iss
--ist
--ists
--it
--ita
--itate
--iti
--itis
--itoj
--its
--itu
--ivs
--iz
--izma
--j
--ja
--jai
--jam
--ji
--jim
--jis
--jom
--jot
--js
--ju
--jumu
--juo
--juos
--jus
--juse
--k
--ka
--kai
--kaja
--kajim
--ke
--ket
--ki
--kis
--kl
--ko
--ks
--ksti
--kt
--kta
--ktu
--ku
--kumim
--kuo
--kuos
--kys
--l
--la
--laja
--lar
--latvi
--lavs
--ld
--lds
--le
--leja
--li
--lidae
--lity
--ll
--lo
--ls
--lu
--luo
--ly
--m
--ma
--mam
--me
--mei
--mes
--mi
--mim
--mit
--mota
--mp
--mpin
--ms
--mt
--mu
--muo
--mus
--mys
--n
--na
--nc
--nce
--nd
--nda
--ndi
--ne
--nej
--neja
--ng
--nga
--nge
--ngs
--ni
--niae
--niece
--nis
--nka
--nku
--no
--ns
--nsis
--nt
--nta
--nti
--nts
--ntu
--nu
--nys
--nzita
--o
--oba
--ocs
--ods
--odu
--oga
--ogs
--oj
--oja
--oji
--ojim
--ojs
--oju
--ojums
--ojumu
--ok
--oka
--okais
--okajuo
--oki
--oks
--oku
--okus
--okys
--ol
--ola
--oli
--ologejis
--olor
--ols
--om
--oma
--omi
--omu
--on
--ona
--oni
--ons
--onu
--op
--opi
--or
--ora
--ore
--ors
--ory
--orz
--os
--osa
--ot
--ota
--oti
--ots
--otu
--ova
--ovic
--ovys
--ow
--oz
--ozi
--p
--pa
--pe
--phic
--phical
--pi
--pis
--pl
--ps
--pta
--pti
--pu
--que
--r
--ra
--re
--reibu
--reit
--rg
--ri
--ries
--rija
--rk
--rka
--rku
--rland
--ro
--roga
--rs
--rsta
--rt
--ru
--ruo
--ry
--rz
--s
--sa
--sage
--se
--sfera
--si
--sim
--sina
--sis
--ska
--skai
--ski
--sku
--skuo
--skuos
--skys
--ss
--st
--ste
--sti
--stis
--sts
--stu
--su
--t
--ta
--tadt
--tans
--tara
--te
--tery
--tets
--tetu
--ti
--tidae
--tim
--tin
--tina
--tion
--tions
--tis
--tivu
--tn
--to
--tons
--tra
--tri
--tris
--tru
--ts
--tu
--tums
--tuo
--tus
--ty
--tys
--tz
--u
--uc
--uca
--uda
--udza
--uel
--ukt
--ul
--uli
--uls
--ulu
--uma
--umi
--ums
--umu
--umus
--un
--une
--uni
--uo
--uoja
--uojs
--uoju
--uos
--uot
--ur
--us
--usa
--usku
--ut
--uz
--v
--va
--vais
--vas
--ve
--veiru
--vi
--vic
--vim
--voj
--volu
--vs
--vska
--vskis
--vu
--vuok
--vuoti
--vuots
--vus
--vys
--w
--wa
--wn
--x
--y
--ye
--yi
--yn
--ynoj
--ynuot
--ynuota
--ynuoti
--ynuots
--yo
--ys
--yuz
--z
--za
--zara
--ze
--zejis
--zeju
--zi
--zmu
--zs
--zu
--а
--в
--ва
--вич
--д
--е
--и
--ие
--ии
--ич
--ия
--к
--кии
--м
--н
--ндр
--ние
--о
--ов
--ои
--р
--ра
--рия
--ские
--скии
--т
--ыи
--я
--яя
