!
"
#
##0
##1
##10
##11
##12
##13
##14
##15
##16
##17
##18
##19
##2
##20
##21
##22
##23
##24
##25
##26
##27
##28
##29
##3
##30
##31
##32
##33
##34
##35
##36
##37
##38
##39
##4
##40
##41
##42
##43
##44
##45
##46
##47
##48
##49
##5
##50
##51
##52
##53
##54
##55
##56
##57
##58
##59
##6
##60
##61
##62
##63
##64
##65
##66
##67
##68
##69
##7
##70
##71
##72
##73
##74
##75
##76
##77
##78
##79
##8
##80
##81
##82
##83
##84
##85
##86
##87
##88
##89
##9
##90
##91
##92
##93
##94
##95
##96
##97
##98
##99
%
&
'
(
)
*
+
,
-
.
/
0
00
000
002
004
005
01
02
024
033
04
05
06
073
079
080
1
10
100
1000
101
103
106
109
11
110
111
113
114
115
118
119
12
120
121
123
124
125
128
13
131
132
135
137
138
1380
139
14
140
144
146
148
15
150
1500
1560
1565
157
159
16
160
161
164
1642
1643
166
1660
167
168
1696
17
170
1726
1727
1740
1749
175
176
1778
1794
1797
18
180
1803
181
182
1820
1827
1829
183
1830
1847
1848
1852
1853
1857
1860
1861
1864
1867
1870
1873
1877
1879
1880
1888
1889
1890
1891
1892
1894
1895
1896
1897
19
1901
1902
1903
1904
1905
1906
1907
1908
1909
1910
1911
1912
1913
1914
1915
1916
1917
1918
1919
1920
1921
1922
1923
1924
1925
1926
1927
1928
1929
1930
1931
1932
1933
1934
1935
1936
1937
1938
1939
1940
1941
1942
1943
1944
1945
1946
1947
1948
1949
1950
1951
1952
1953
1954
1955
1956
1957
1958
1959
196
1960
1961
1962
1963
1964
1965
1966
1967
1968
1969
197
1970
1971
1972
1973
1974
1975
1976
1977
1978
1979
198
1980
1981
1982
1983
1984
1985
1986
1987
1988
1989
1990
1991
1992
1993
1994
1995
1996
1997
1998
1999
2
20
200
2000
2001
2002
2003
2004
2005
2006
2007
2008
2009
201
2010
2011
2012
2013
2014
2015
2016
2017
2018
2019
2020
2021
2022
203
206
208
21
210
213
218
22
220
221
222
225
226
23
230
239
24
240
244
245
249
25
250
252
254
257
259
26
260
264
27
270
274
28
280
281
282
286
289
29
292
293
296
298
3
30
300
301
305
31
313
317
319
32
320
324
325
33
330
333
34
344
345
346
349
35
350
359
36
360
37
370
375
38
386
387
39
394
396
399
4
40
400
403
406
407
41
410
417
418
42
425
43
435
44
446
45
450
46
460
465
468
469
47
473
476
479
48
49
492
495
496
497
499
5
50
500
51
516
52
525
53
530
54
543
55
56
560
57
58
584
585
589
59
590
6
60
600
61
616
62
623
629
63
630
6326
64
643
645
649
65
656
667
68
692
695
7
70
700
704
71
72
728
73
730
731
74
741
7448
749
75
750
751
762
765
77
778
78
781
790
798
8
80
800
81
811
82
826
83
832
839
84
846
849
85
851
86
87
874
88
886
888
89
890
893
895
898
9
90
900
91
911
917
92
928
93
933
937
938
94
95
950
953
969
978
98
980
982
985
999
:
;
<
=
>
?
@
\
^
_
a
abakulusi
abandona
abderhalden
abel
abelan
abkasia
able
about
abraham
abreviatione
abrocomidae
absorbo
abstrakti
ac
acade
academy
acrobatidae
action
ad
ada
adam
adand
adant
adapted
add
aderad
adi
aditione
adjektivali
adjektives
adjuvilo
administratione
administrativi
admise
adolf
adoptar
adoptione
adverbial
adverbies
adversarie
aere
aeroplane
aeroporto
afares
afer
afere
aferes
aferisto
afganistan
afluente
afrika
afrikal
afrikani
afrikansum
after
aftru
again
aganang
age
agoutidae
agre
agres
agrikulture
aguila
agulhas
ahlberg
ahlstedt
ai
aichi
aikido
air
aise
aix
aje
ak
akademial
akademie
akita
akitania
akorda
akorde
akselera
akseleratione
aksepta
akseptat
akte
aktes
aktione
aktiveso
aktivesos
aktivi
aktivista
aktiviste
aktivitate
akto
aktora
aktore
aktores
aktoro
aktos
aktual
aktualim
akumulat
al
alacant
alain
alan
alaska
albania
albert
album
albumes
albums
ale
ales
alexander
alfabete
alfabeti
alfred
algebra
algebral
algeria
ali
alianse
alice
alienor
alighieri
alkali
alkemiisto
all
allen
allos
alma
alme
almost
alois
along
alpes
alsasianos
also
alternativ
alternative
alternativi
alternativim
alteso
alti
altre
altres
altri
altrilok
altrim
altris
alva
alvernia
alverniate
am
ama
amabantur
amahlati
amati
amatole
amayuba
amb
ambi
ambite
american
amerika
amerikan
amerikanes
amerikani
amerikano
amerikas
amerindiani
amiko
aminim
amino
amo
amos
amour
amphora
an
analise
analiso
analiti
anarkistes
anatomia
anatomim
anc
and
andaluci
andora
andorra
andre
andrea
andreu
andrew
angel
angela
angeles
angels
anggun
anglani
anglesi
angli
anglia
anglim
anglo
anglofones
anglum
angule
angusti
anic
animal
animale
animales
animalia
anjouan
ankara
anke
ankor
ankore
anna
anode
anomaluridae
anonyme
ans
ansestre
ansestres
ansieni
ansip
answer
antarktika
ante
antei
anteim
antene
anteu
anthony
anti
antikeso
antiles
antilocapridae
antipartikle
antiqui
antiquitate
antoine
antologia
antologie
anton
antropologia
anunsia
aomori
apaches
aparate
apari
aparid
aparitione
apartena
apartenad
aperio
aplika
aplikad
aplikat
aplikati
aplikatione
aplikationes
aplodontiidae
apollo
apre
april
aprile
aproximativim
apti
apud
aque
aquitaine
ar
ara
arabes
arabi
arabum
arago
arbaud
arbre
archive
are
area
areas
arena
ares
argentina
argile
argumente
ariel
aristote
aritmetike
ariva
arizona
arkansas
arkipelage
arkitekte
arkitekture
arkti
arme
armee
armes
arne
arrhenius
arse
art
arte
artes
arthur
article
artifisial
artikle
artikles
artiodactyla
artiste
artisti
arts
aruba
arverni
arvernia
arverniatum
arvernium
arvernum
as
asemblee
aserbaijan
aserte
asia
asian
asiates
aside
asides
asile
asosiat
asosiati
asosiatione
asosiativ
aspektes
aspx
assaigs
association
astres
astrid
astrobiologia
astrofisike
astrologia
astronome
astronomes
astronomia
astronomial
astronomo
asturias
at
ataka
atake
atakes
atena
atentate
athe
atitude
atitudes
atlanta
atlanti
atmosfere
atole
atome
atomes
atomi
atraktione
atrie
atries
attitude
au
audi
auerbach
august
auguste
augustin
augusto
auli
aurillac
aurora
aus
auschwitz
australasia
australia
australiani
australis
austria
austrian
austriani
autonomi
autonomous
autora
autore
autores
autoritates
autres
autumne
auvergne
auvernia
auverniana
auverniati
aux
auxiliari
auxiliary
avan
avansamente
ave
avec
aves
awards
awd
axiomes
ayn
b
ba
baard
baartman
back
bacon
baeyer
baiji
bala
balaenidae
balaenopteridae
bald
baleares
balenes
balete
balonpede
balti
bamako
ban
band
baneres
bang
bangladesh
bangui
banksia
bantual
baptiso
bar
barandovska
barbados
barcelona
barcino
barker
barnard
barnechea
baroncelli
barselona
basa
basad
basal
basat
base
bases
basi
basikim
baski
baskum
bastid
batalie
bathyergidae
baton
baumeister
baur
bavaria
baviaans
bay
baye
bbc
be
beaufort
beaufront
beauvoir
because
been
beethoven
before
beginning
behind
beijing
being
bela
belarus
beleso
belfort
belgia
beli
beliz
belo
ben
bende
benedicta
benezet
beograd
berger
bergrivier
berlin
bernard
bernhardt
bernie
bernoulli
berry
besona
besonat
besonie
best
bestie
besties
beta
better
betty
between
bhutan
bi
bible
bibliografia
bibliografie
biden
bin
binari
binh
binomial
binomialim
biobi
biofisike
bioinformatike
biokemie
biologes
biologia
biologial
biomolekules
bioteknologia
birmania
bis
bismarck
bitou
blanchet
blanki
bli
blica
blid
bloc
blog
blogspot
bloke
blood
blouberg
blu
blui
board
bobby
boccoli
bojanala
bokassa
bolesław
bologna
bolte
bombarda
bombardos
bombe
bon
boni
bonim
book
books
boole
bopirima
borde
borders
boris
bosna
bosnia
botanike
both
botle
bottom
bovidae
bowks
boxe
boxer
boxere
boxeres
boxero
boxes
boxing
boxo
boxrec
boyle
br
bradypodidae
brahe
branche
brandenburg
brando
branko
brase
brasilia
brasiliani
breede
bremen
bretonia
bretonum
brewer
bricker
brighton
brikes
brilianti
britani
briti
broc
brown
broz
bruce
bruxelles
bu
budapest
budisme
buffalo
bujumbura
bukuresht
bulbasaur
bulbizarre
bulgari
bulgaria
burramyidae
burundi
bush
bushbuckridge
busolal
but
butler
by
c
ca
caenolestidae
california
calling
callitrichidae
calvin
camelidae
campo
can
cananga
canidae
cantal
cantor
cao
capromyidae
carl
carlo
carlos
carly
carnivora
carre
carson
cartes
caselle
castel
castelle
casteyre
castilla
castoridae
catala
catalana
catalans
catalunya
category
caviidae
cdots
ce
cebidae
cederberg
ceinture
census
center
central
centre
ceqli
cercopithecidae
cervantes
cervidae
cetacea
ch
cha
chad
chadwick
chafee
chaken
chaki
chakifoy
chambre
chambres
championship
chandler
change
chanja
chanjad
chanjo
chanjos
chanse
chaplin
chapter
character
charjat
charjo
charles
charlotte
chaskun
chat
che
chef
chefe
chefi
chefim
chefo
chefurbe
cheirogaleidae
chekia
chekoslovakia
chevalier
cheyenne
chi
chiba
chicago
chien
chifra
chifres
chile
china
chinani
chinchillidae
chini
chinum
chiron
chiroptera
choose
chris
christian
christie
chrysochloridae
chu
chweu
ci
cia
cibber
cirgue
cirgues
city
ciutat
civil
civilisations
cken
clara
clark
clayton
cle
clermont
clooney
clovis
club
cnt
co
cobar
code
cogan
cognitive
colette
collection
collegium
colley
com
combat
combatique
come
comment
commission
commons
como
comparative
completes
computational
computer
con
concepcio
condes
conditional
conneau
connecticut
contes
continuous
contra
coolus
coronel
corre
coses
cosmoglotta
costa
costalago
countries
county
couturat
craseonycteridae
croisset
cruz
cs
ctenodactylidae
ctenomyidae
cuckoo
cuddy
cultura
cultures
cum
cun
curial
curitiba
cusano
cut
cynocephalidae
cœur
d
da
dacko
dad
daily
dakes
dakota
dal
dalfi
dalindyebo
dallas
damanhur
danelaw
dani
dania
daniani
danjere
dannhauser
dans
danso
dante
danum
daoyen
dar
darfa
das
dasypodidae
dasyproctidae
dasyuridae
dasyuromorphia
dat
dati
datumes
daubentoniidae
daunou
davan
david
davis
davy
day
de
dea
debuto
debye
december
decisions
dee
dees
defense
defenser
defini
definid
definit
definitione
definitiones
dei
dek
dekade
deklinatione
deklinationes
dekrete
dekyare
del
delaware
delegatione
delfine
delfines
delmas
delphinidae
dels
dem
demanda
demarcation
demografie
demokrati
demokratia
demonstra
demonstrad
dempsey
den
denola
denove
denseso
denver
denwatu
deo
departa
departamente
departed
departement
departemente
dependa
dependant
dependanti
depos
deputate
deputates
der
deriva
derivad
derivat
derivatione
dermoptera
des
desapari
desaparid
description
desembre
desense
desfasil
desida
desimal
desino
desise
desised
desisione
desisiones
deskovra
deskovrad
deskovrat
deskovro
deskripte
deskriptet
deskriptione
deskriptiv
destinat
destino
destrukte
destrukted
destruktet
detailed
detekte
detentione
determina
detra
deutschen
deux
devan
deve
developa
developad
developal
developat
developo
developos
deveni
devenid
deviatione
devil
devud
dewahl
dex
dextri
dez
dezember
di
diakriti
diakritikes
dialektali
dialekte
dialektes
dicaprio
diccionari
dictionary
did
didelphidae
didelphimorphia
die
dien
dies
diferant
diferanti
diferent
diferenti
difero
diferos
difuse
digites
digrames
dihlabeng
dikgatlong
diktatore
diktatoro
diktature
dikte
dikted
diktend
diktet
diletanti
dinah
dinamike
dinamite
dinastie
dinomyidae
dipaleseng
dipodidae
diprotodontia
directiv
direktere
direkti
direktim
direktione
direktiones
dis
disdi
dise
dises
disfasili
disi
disiplines
disis
diskes
diskreti
diskurse
diskuse
diskused
diskusione
diskutet
dislok
disperse
disperset
distinkte
distinktet
distinktiv
distribut
distributi
distributione
distributiones
district
distrikte
distriktes
disu
disum
disus
ditions
ditsobotla
diverseso
diversi
divina
divini
diviset
divisione
divisiones
dna
do
dobra
document
documents
dodoma
doktoro
doktrine
dolore
dolsi
domat
don
dona
donad
donald
doppler
doris
dosed
douard
dr
drake
drakenstein
drama
dramatiste
dreams
drinka
druides
du
duantesmi
duanti
ducation
dudek
due
duesma
duesmi
duete
dugongidae
duime
duke
duko
dukte
dukted
duktere
dumil
dunia
dunke
duopli
dupli
dura
duran
durant
durante
duri
dutos
duvivier
dvd
dynamics
e
easy
echimyidae
ed
eden
edgar
edicions
edison
editione
editore
edu
eduka
edukatione
edumbe
edward
edwin
efekte
efektes
egal
egala
egali
egalim
egalitate
egarda
egiptanes
egipte
egipti
egiptia
ehlanzeni
ein
einen
einer
einstein
ek
ekarta
eklesie
ekologia
ekonomi
ekonomia
ekonomie
ekonomike
eks
eku
ekuruleni
ekvada
ekvadad
el
elbove
election
electoral
elekta
elekte
elekted
elektione
elektiones
elektionure
elekto
elektri
elektrode
elektrolise
elektromagneti
elektrone
elektrones
elementari
elemente
elementes
elephantidae
elfes
elodie
els
elundini
em
emalahleni
emballonuridae
embleme
embriologia
eme
emerjad
emfasa
emfase
emigra
emil
emirates
emise
emnambiti
emperere
emperie
empire
emthanjeni
en
encyclopaedia
encyclope
end
endings
endondakusuka
endumeni
enemikes
energie
energy
engelbert
engineering
engkobo
english
enkonduko
enmigrational
enormi
ensemble
ensembles
ensiklopedie
ensime
ensimes
enter
entomologia
entrai
entratas
envada
environmental
environmente
epidemiologia
episkopo
episodes
epistle
epoke
epokes
equador
equatione
equidae
equivala
equivalenti
erethizontidae
ergo
erik
erinaceidae
ermita
ernest
ernst
erore
es
esad
esaye
eschrichtiidae
escrime
ese
esed
esent
esential
esentialim
eser
eses
eset
esmi
espan
esperando
esperantiste
esperanto
est
establi
establid
establit
este
esti
estiano
estima
estis
estonia
estu
esud
et
etc
ete
etekwini
eterni
etike
etimologi
etimologia
etnikeso
etnikiso
eufonie
euklidan
eur
eurial
euro
europa
europan
europanes
europani
europe
european
eutheria
evalua
evangelie
evariste
even
eventa
eventad
eventes
every
evita
evitar
evitatione
evolu
evolutional
evolutionari
evolutione
ex
exakti
examina
exemple
exemples
exemplim
exept
exeptione
exeptiones
exista
existad
existed
existeskad
existo
expansiones
expektati
experientia
experienties
experimentes
expertes
explika
explikatione
expliro
explora
explosione
exponente
export
exprese
expresione
extense
extensione
exter
exteri
externi
extre
extrem
extremi
extremum
extri
ezingoleni
f
fa
fabre
fabriciano
fabules
face
facebook
fad
faire
fake
fakes
fakta
fakte
fakted
faktes
faktim
fala
falios
falsi
familiari
familie
families
famosi
fan
fanny
faraono
farbenspiel
fase
fasie
fasil
fasile
fat
father
favorosi
fayard
fe
febli
februare
federal
federali
federation
federatione
felde
felidae
feliseso
felisitate
felix
fema
femas
femina
feminin
feminini
feminisme
femme
fenomenes
ferdinand
ferme
fernand
ferni
festa
feste
fetakgomo
ff
fi
fighting
figures
fiji
fiktionali
fiktione
file
filia
filies
filio
filios
filipines
film
filmal
filmaro
filme
filmegrafia
filmes
filmografie
filmportal
filosofa
filosofe
filosofes
filosofia
filosofial
filosofie
filosofo
fin
fina
final
finale
finales
finali
finansial
fine
fingre
fini
finiti
finland
finlande
finni
fino
fiorina
firenze
firmin
first
fischer
fisher
fisikal
fisike
fisikiste
fisikistes
fisikisto
fisiologia
fisiologial
fisiologisto
five
fixi
flag
flage
flages
flags
flagstaff
flandrum
flanke
flegera
flexione
florence
flores
florida
flower
flume
fluve
fluvie
fn
fogles
foix
fokusa
fonda
fondad
fondat
fondatione
fondationes
foneme
fonemes
fonetikal
fonetikalim
fonetike
fonologia
fonte
fontes
for
foreste
forma
formad
formal
formalim
format
formation
formatione
formations
forme
formes
forms
formula
formule
forsan
forsat
forse
forses
forti
fortim
fortrese
fortune
forume
foto
fouche
foundatione
four
foy
foye
foyes
fr
frac
frameless
franc
franca
france
frances
francis
francisco
franco
frank
fransanes
fransani
fransi
fransia
fransianes
fransiani
fransiano
fransim
fransum
franz
fras
frase
frases
fratra
fratro
fratros
fre
fred
frederic
frederick
frege
frenck
frequenteso
frequenti
frequentim
freshi
friedrich
fro
from
fronte
frontiere
frui
fruim
fruktes
fu
fukuoka
fukushima
full
fulmine
function
fundamental
fundamente
fundamentes
funde
fundi
funktiona
funktione
funktiones
furipteridae
fushigibana
fushigidane
fushigiso
fusione
futbale
future
futuri
g
ga
gabrielle
gaetsewe
galagidae
galaxie
galaxies
gale
galerie
gali
galia
galianes
galiani
galilei
galileo
gallery
galo
galois
gamagara
gambe
gambes
gamma
gamow
gana
ganad
gance
gangemi
gansu
gante
garbi
garda
garde
garib
gariep
gase
gases
gaston
gaulle
gauteng
gaza
ge
gelbi
genal
gene
general
generale
generali
generalim
generalitat
generalo
generatione
genes
geneti
genetike
genitive
genomike
genre
genres
gentlemen
genu
genus
geografia
geografial
geografie
geologes
geologia
geometri
geometria
geometriki
geometrikim
geomyidae
georg
george
georges
georgia
german
germanes
germani
germania
germaniani
germaniano
germanidi
germanim
germano
germanum
germany
gert
gerunde
gestapo
geun
gibraltar
gifu
gilbert
gilmore
gimnastike
gini
gion
giraffidae
give
giyani
gje
globasa
glorie
gloriosi
glosa
go
godal
gode
godel
godwin
goffredo
golda
golder
gomz
goncourt
gone
gorsse
gottlob
gotum
gourgaud
gov
govan
governe
government
governo
gqabi
gradu
gradualim
gradus
graham
gramatike
gramatikes
grammar
grand
grande
grandeso
grandi
granta
gravi
gravitational
gravitatione
gre
grekes
greki
grekia
grekim
grekum
grenadines
grey
grifone
grinlande
groblersdal
ground
group
grue
grupe
grupes
gruppe
gu
guangxi
guere
gueres
guernsey
guisepe
guizhou
gustav
guverna
guvernere
guy
guyana
gwala
h
ha
habersetzer
habita
habitad
habitantes
hachette
had
haiti
hall
halonen
hamburg
hani
hanns
hans
hantam
hare
harlow
harmattan
harold
harry
has
hasardal
hatti
hause
hauses
haut
havad
have
haved
havent
hawaii
haß
he
heart
heine
heinrich
heinz
helena
helene
helium
helpa
helpo
helsinki
heme
hemisfere
henri
henricus
henrik
henry
heptaxodontidae
heredo
hermann
heroes
herpestidae
hertsegovina
herzegovina
hessequa
heteromyidae
hi
hibiscus
hidrogene
high
highlands
hill
hills
hinter
hipotese
hippolyte
hippopotamidae
hir
his
hispan
histo
histoire
histologia
histori
historia
historial
historie
histories
history
hititi
hitler
hlabisa
ho
hobite
hofburg
hoff
hoffman
hokkaido
hoku
holandani
hollande
holmes
holstein
homal
homaro
home
homes
hominidae
homme
homo
honneur
honolulu
honore
honshu
hoogland
hor
horace
hores
hospital
hospitale
hotel
house
houston
how
howard
htm
html
http
https
hu
huang
hubble
huckabee
hugo
hui
humphry
hunan
hunde
hunes
hungares
hungari
hungaria
hungary
huwa
hyaenidae
hydrochaeridae
hylobatidae
hyracoidea
hystricidae
i
iala
ials
ich
id
idealisat
idee
idees
identi
identim
identitate
idiom
ido
ie
if
ii
iii
ikwezi
il
ilembe
illinois
ilmari
ilsien
im
image
images
imaje
imbabazane
imdb
imi
imisu
impendle
imperative
imperie
implementes
implika
important
importanti
importantie
imunologia
in
ina
inauguracion
indagacions
indaka
independent
independenti
index
india
indiana
indianapolis
indiani
indika
indikativ
indikative
individus
indo
indochina
indochinoise
indonesi
indonesia
indriidae
industrial
industrie
industriisto
inertia
infinit
infiniteso
infiniti
infinitim
infinitive
infinitives
inflektiones
influa
influat
influense
influo
influos
informatike
information
informational
informatione
infraklase
infty
ingle
ingwe
injenieria
inkluse
inklused
inklusent
inkluset
inklusione
inkwanka
inquesto
insectivora
insendie
insted
instedu
institut
institute
institutione
instruktere
instruktione
instrumental
instrumentes
integere
integre
integres
inteligentia
intentet
inter
interaktos
interdikte
interdiktet
interesat
intereso
interete
intereti
interfasie
interglossa
interim
interlingua
interlingual
interlingue
interlinguistic
interlingvistiko
international
internationale
internationali
internationalim
internet
interni
interpretatione
interrete
interslavi
interslavum
interslavun
introdukte
introdukted
intsika
inu
invada
invadad
invente
inventere
inventero
inverse
inxuba
ione
iones
iowa
ipa
iprage
irak
iran
irani
iranianes
ire
irgi
irgitem
irlandani
irlande
iroule
is
isaac
isabella
isbn
islame
islami
island
islande
isle
isles
iso
isotopes
israe
israel
israeli
ist
istanbul
istme
it
itali
italia
italian
italiani
italianum
italium
italum
itate
ithkuil
its
iv
ivan
j
ja
jack
jackson
jacob
jacobus
jacques
james
jan
jane
janeiro
januare
januarie
japan
japanani
japani
japanim
japanum
japon
japonani
jaroslav
jasset
jay
je
jean
jeb
jens
jersey
jes
jespersen
jesu
jesus
jeta
jeu
ji
jiangxi
jilin
jill
jim
jindal
jira
joan
joe
johann
johannes
johannesburg
john
johns
jolie
jonathan
joni
jonsson
jordan
jordania
jordi
jorne
jornes
jose
joseph
josephine
josephus
josip
jouse
jozini
jpeg
jpg
jr
js
judeo
judika
judikere
judiko
judith
judo
jugoslavi
jugoslavia
jules
julia
julie
julien
june
junie
junktad
junkte
jupitere
jure
jures
jurie
jurisprudentia
jurnale
jurnales
jurnalisto
k
ka
kabe
kable
kad
kafe
kagisano
kagoshima
kai
kaj
kajs
kakadu
kalagadi
kalendare
kalifornia
kalkulus
kam
kambio
kamdebo
kamiesberg
kamma
kampe
kampionate
kampione
kanada
kanadani
kanagawa
kanale
kanali
kand
kande
kandidate
kandidates
kandidato
kandite
kannaland
kansai
kanta
kantera
kantere
kanteres
kantero
kantes
kanto
kantone
kantos
kapa
kape
kapele
kapitalisme
kaprikorn
karaktere
karakteres
karakterisat
karakterisiv
karate
karbo
kardinal
kareeberg
karibeani
kariere
karl
karle
karne
karnevori
karolina
karte
karu
kas
kase
kases
kasich
kastele
kasu
katalani
katalanum
katalise
katalonia
katalunia
katalunie
kateb
kategorie
katie
katod
katode
katolikes
katoliki
kaude
kaukasus
kaunda
kausa
kausad
kause
kavu
kazakhstan
ke
kei
kel
kelen
keles
kelk
kelke
kelkes
kelki
kelkifoy
kelkitem
kelti
kemial
kemie
kemiiste
kemiistes
kemiisto
ken
kenneth
kentucky
kepler
kessel
kesselhaus
kg
kgatelopele
kgetlengrivier
khai
kheis
khoi
ki
kick
kickboxing
kif
kilometres
kim
king
kingdom
kiprus
kiribati
kirke
kirkeslavum
kiyev
kladistike
klari
klarim
klase
klasifika
klasifikatione
klasiki
klaus
klein
klimate
klore
klosat
klube
klubes
km
know
knysna
ko
kobe
kognates
kokstad
kolaborad
koldi
kolektaje
kolektione
kolombia
kolonial
kolonie
kolorado
kolore
kolores
kolpa
kolpe
kolpes
kom
kombata
kombatad
kombatant
kombate
kombates
kombina
kombinatione
komedie
komensa
komensad
komensant
komensat
komense
komensim
komenso
komersantes
komerse
komete
kometes
komisione
komite
komoros
kompara
komparativ
komparo
komparos
kompetitione
kompleti
komplexi
komposi
komposientes
komposit
kompositione
komprena
komprenad
komprenda
komprendo
komputal
komputatione
komtad
komto
komtos
komun
komuna
komuneso
komuni
komunie
komunies
komunika
komunikatione
komunim
komunisme
komunistes
komunisti
komunitate
komutativ
kon
konarski
kondemna
konditional
konditionale
konditiones
konduite
konektet
konektione
konfirma
konfliktes
konforma
kongrese
konjuga
konjugatione
konjugationes
konkurse
konosa
konosad
konosat
konosata
konosati
konsentra
konsepto
konseptos
konsepture
konserna
konserte
konservativi
konsidera
konsiderad
konsiderat
konsiderati
konsideratione
konsista
konsonantes
konstante
konstato
konstitu
konstitutione
konstrukte
konstrukted
konstruktet
konstrukteti
konstruktione
konta
kontaktos
kontena
konter
konteratake
kontine
kontinente
kontinentes
kontinua
kontinuad
kontinui
konto
kontra
kontribu
kontro
kontrola
kontrole
kontru
konvalescentia
konverga
konverte
konzert
kopanong
kopernikus
korali
koralie
kordie
korea
korean
koreani
koreanim
korekti
korelatives
koresponda
korpore
korpores
korte
korzybski
koses
kosmal
kosmoglott
kosmologia
kosovo
koste
kosum
kotane
kou
kouga
kovra
kovre
krabe
krea
kread
kreat
kreati
kreatione
kreatore
kreda
kredad
kredat
krede
kredo
kredos
kreere
krematorie
kreska
kreskant
kresko
kria
krise
kristanes
kristani
kristanisme
kristiani
kristianisme
kristo
kriz
kroates
kroati
kroatia
kroatum
krone
kronikes
krose
ku
kube
kulmine
kulta
kultural
kulturali
kulture
kultures
kum
kun
kungwini
kunu
kurdes
kurdi
kurdum
kurente
kurmanji
kurt
kurti
kusino
kwa
kwadukuza
kwazulu
københavn
l
la
labora
laborad
labore
laboreres
laboro
lacte
ladysmith
laffont
lage
lagomorpha
lagune
laibach
laikeso
laingsburg
lake
lambda
lan
land
lande
landes
landi
lando
language
languages
languedoc
laos
lapin
larji
larjim
lars
las
lasa
lasad
last
lasti
latere
latin
latine
latini
latinidi
latinim
latino
latinum
latvia
laurent
lavoisier
law
lawrence
lazitch
le
lector
lee
left
lefte
lefti
legal
legali
lege
legendes
leges
legione
leibniz
leipzig
lejweleputswa
lekte
lektebleso
lekter
lekwa
lemuridae
len
lenin
leningrad
lenn
lenti
lentim
leo
leon
leonardo
leone
lepalale
lepele
lepilemuridae
leporidae
lerda
lerna
lerno
leroy
les
lesedi
lesen
lessig
let
letaba
lethwei
leti
letre
letres
letsemeng
lev
lewis
lexike
lexikes
lexique
li
lia
liber
liberal
liberali
libereso
liberi
liberim
libia
libor
library
libre
libres
librete
liechtenstein
life
lige
liges
light
liguri
ligurium
lim
lima
limitat
limite
limpopo
lin
lincoln
lindsey
linegrey
lingua
lingual
lingue
lingues
linguist
linguiste
linguistes
linguistike
linguisto
linguum
linie
linies
link
linkes
links
linus
linzbach
liour
lipotes
liquide
lis
lisboa
liseanes
liste
listes
literalim
literari
literatura
literatural
literature
literatures
litere
literes
litore
litres
little
lituani
lituania
liva
livad
live
ljubljana
lk
llegenda
llibres
llivia
lloyd
ln
lo
local
located
logikal
logike
logikiste
logikisto
loglan
logos
lohitzun
lojban
lojia
lokal
lokali
lokalitates
loke
lokes
lon
london
long
longi
longitate
longitates
longitem
lopez
lorisidae
los
lou
louis
louisiana
love
low
loyal
lu
lua
lublin
luca
luda
lude
ludere
luderes
ludes
ludwig
luis
luka
lukanji
lukteres
lukto
lum
lume
lumes
lumine
lumositate
lun
luna
lune
lunes
lunges
lus
lusen
lustre
luthuli
luxembourg
luxemburg
luxemburgia
luxemburgum
lydnevi
m
ma
maa
mac
macropodidae
macroscelidea
macroscelididae
madame
made
madeira
madibeng
madrid
maestre
mafikeng
mafube
magareng
magasine
mai
mail
main
major
majori
majoritate
majuskle
makado
makana
make
makedonia
makudutamaga
mal
maladi
malaysia
malbert
maletswai
malgre
mali
malley
mallorca
malta
malti
maltum
maluti
mamiferal
mamiferes
mammalia
mamusa
man
manat
mancha
mandela
mandible
mane
manere
maneres
manes
mangaung
manidae
manja
manjaje
manko
mans
mantena
mantenad
mantikore
mantsopa
manu
map
mape
maplandia
mapumulo
maquassi
mar
maral
marble
marcel
marchand
marco
marcos
mare
mares
margaret
mari
maria
marid
marie
marilyn
marine
marino
marit
marita
maritad
marites
marito
marjorie
mark
marka
marke
market
marlene
marlon
mars
marseille
marshale
marsilia
marte
martial
martiaux
martie
martin
maruleng
marx
mary
mas
mase
mashines
masilonyana
maskulin
maskulines
massachusetts
massiac
matatiele
matematikal
matematike
matematiki
matematikiste
matematikistes
matematikisto
material
materiale
materiales
materie
materies
mathe
mathematica
mathrm
mathurins
matjhabeng
matlosana
matra
matti
matzikama
mau
mauriac
maurice
maurizio
max
maxilal
maxile
maxim
maximi
maximilien
maxmo
may
maye
mayore
mayotte
mbashe
mbeki
mbizana
mbombela
mbox
mc
me
medalie
medi
medicine
medie
medieval
medievali
medieve
medike
medisine
mediterani
medium
medivaloral
medivalore
megadermatidae
megalonychidae
mehi
meir
mekanike
mekanismes
melbourne
mem
membre
membres
memora
memories
men
menaje
mende
mensu
mensues
mensus
mentionat
mentione
merafong
merkurie
meros
mesopotamia
mesura
mesuro
metabolisme
metales
metane
metatheria
metode
metodes
metres
metropoli
metropolitan
metsimaholo
metsweding
mexiko
mey
mgcawu
mgeladze
mhlontlo
mi
michael
michel
micheli
michelle
mickiewicz
microbiotheria
microbiotheriidae
midvaal
mie
mier
migratione
miguel
mike
mikhai
mikri
mikrobal
mikrobes
mikrobiologia
mikroni
mil
milan
milano
mile
miles
milion
milione
miliones
milital
militari
military
milite
milke
mill
min
mines
minh
mini
minim
ministera
ministere
ministerie
ministraro
ministre
ministro
minnesota
minoritate
miques
mirbeau
mirovsky
mise
miss
mistral
mit
mites
mitologia
mitologial
mixat
mixed
mixure
mkambatini
mkondo
mnquma
mo
mobius
mode
model
modela
modele
modeles
modern
moderni
modernizat
modes
modiari
modiarum
modifika
modifikat
modifikationes
modimole
mofutsanyane
mogalakwena
mogale
mohe
mohokare
moi
moiloa
moissan
mokaka
mol
moldova
molekulal
molekular
molekulari
molekule
molekules
molemole
moli
moll
molopo
molossidae
mompati
mon
monako
mondal
monde
mondemilite
mondial
mondiali
mondo
monegaskum
moneie
monete
moneye
mongier
mongoli
mongolia
monodontidae
monos
monotremata
monroe
monsieur
montana
monte
montenegro
montes
montferrand
montra
montrad
montrat
mooi
mookgopong
moon
moore
mopani
more
moretele
morfeme
morfologia
morfologie
morge
mori
morid
morie
morio
morios
mormoopidae
moroka
moroko
moroni
morris
mort
morti
mortimer
mos
moschidae
moses
moskva
mosovce
mossel
moteo
mova
movad
movant
movement
movie
movo
movos
moyen
mpofana
mpumalanga
msinga
msukaligwa
msunduzi
mtonjaneni
mtubatuba
mu
muay
mulliken
mult
multe
multempe
multes
multi
multim
multiplikatione
multiselular
multu
multum
munde
munegu
municipal
municipality
murat
mures
muridae
mus
mused
musee
musikal
musike
musina
musique
muskloseso
muss
must
mustang
mustelidae
mut
mutale
mute
muti
mutu
muzike
my
myanmar
myocastoridae
myoxidae
myrmecobiidae
myrmecophagidae
mystacinidae
myzopodidae
n
na
nacional
nadene
nagano
nah
nala
naledi
nama
namakwa
name
names
namibia
nane
napole
napoli
naser
naska
naskad
naskat
naskit
naskita
nasko
naskos
natal
natalidae
national
nationali
natione
nationes
nato
natur
natural
naturali
naturalisti
nature
navarra
nazi
nc
nchen
ncia
nd
ndebelum
ndlambe
ndwedwe
ne
nebula
nebulas
nederlandani
nederlande
nederlandi
nederlandum
nega
negativ
negativi
negbin
negosia
negri
nek
nelson
nement
nemeton
neo
neobalaenidae
neptune
nesesari
nesophontidae
net
netboxe
netisa
neur
neuroscience
neutral
neutri
neutrone
neutrones
neutrum
new
newcastle
news
newton
ng
ngqushwa
ngquza
ngwate
nh
nha
ni
nia
niccolo
nicholson
nicolas
niels
nielsen
night
nightingale
nigri
niigata
nin
nina
ninesmi
ningxia
niro
nivele
nkandla
nkangala
nketoana
nkomazi
nkonkobe
nkumpi
nkutu
nm
no
nobel
noctilionidae
noe
noemi
noire
nokeng
nokte
noktes
nom
noma
nomad
nomat
nomati
nombrali
nombre
nombres
nombro
nome
nomes
nominative
nomine
nomisa
nomisat
nomos
noms
non
nondefinid
nondefinit
nondependanti
none
nongoma
nonorgani
nonpovo
nonrekognit
nonrekusat
nor
nord
norda
norde
nordi
nordu
nordwest
normal
normalim
normandia
normandum
north
norvegi
norvegia
norway
nos
not
nota
note
notes
notoryctemorphia
notoryctidae
nous
nouvelle
nov
nova
novajes
novas
nove
novembre
novi
novial
noviala
noviali
novialide
novialides
novialiste
novialistes
novialnovial
novialplubonisat
novlingue
now
nozie
nr
nsk
ntabankulu
ntambanana
ntia
nu
nudi
nueva
nuit
nukleus
nukleusal
nul
nule
nuli
nulitem
nulu
nulum
nume
nun
nuni
nunim
nur
nus
nusen
nussbaum
nxuba
nyandeni
nycteridae
nzo
o
ob
obama
objekte
objektes
obrer
obres
observa
observat
observational
observationes
observere
obtena
oc
occidental
occidentalist
occidentalistes
occitan
ochotonidae
octave
octobre
octodontidae
od
odd
odobenidae
of
ofensive
official
officier
ofisial
ofisiali
ofisialim
ofisie
ofisiere
ofte
often
oh
ohio
ois
ok
okahlamba
oklahoma
oksitanum
oktobre
okule
okupa
okupat
okupati
okupatione
ol
old
oldi
olie
olimpik
olympia
omega
omna
omne
omnes
omni
omnidial
omnilok
omnitem
omnitempe
omnum
on
once
ond
onde
one
onglet
online
only
onsager
ontogenia
ope
opera
operatione
operationes
opinione
oposit
opositione
optional
opus
or
oradour
orca
orcinus
order
ordinari
ordinarim
ordine
ordines
ordre
ore
oregon
orele
oreste
org
organe
organes
organi
organisa
organisatione
organisationes
organisme
organismes
organization
orient
oriente
origin
origina
original
originali
originalim
origine
origines
orion
ornithorhynchidae
ortodoxi
ortografia
ortografial
orycteropodidae
os
osaka
osasco
oscar
ose
oseane
oseania
oses
osetia
oskar
oslo
ostwald
ot
otariidae
otesmi
other
ottawa
otto
ou
oudtshoorn
outside
ovce
over
overberg
overstrand
oves
own
oxford
oxigene
p
pa
paga
pagani
page
pagine
pagines
pagnol
pagos
pai
pakistan
palaborwa
palace
palau
palme
palmes
pan
panama
papere
papo
par
parameters
parametre
parametres
parametrisatione
pare
parenti
paris
parke
parla
parlad
parlament
parlamente
parland
parlant
parlantes
parlanti
parlat
parlati
parle
parleres
parliament
parlo
part
parta
parte
partes
partido
partie
parties
partikle
partikles
partikular
partikulari
partikularim
partisanes
partise
partises
partisipa
partisipad
partisipe
partisipes
partiso
pasa
pasad
pasajer
pascal
pase
pasifiki
pasinte
pasione
pasive
pasivi
passive
past
pataki
patre
patres
patria
patrick
patro
patti
paucituberculata
paul
pauling
paulo
pavore
pdf
pe
peano
pede
pedes
pedetidae
pele
pennsylvania
penos
pensa
pensad
pense
pensera
pensilvania
penso
people
per
peramelemorphia
peramelidae
percy
perda
perdo
perfect
perfekte
peri
period
periode
perissodactyla
permananti
permise
permiseble
permised
permisent
permiser
permiset
permitet
peroryctidae
perry
persanum
persepte
perseptione
persona
personal
personalim
persone
persones
peru
peruani
pesa
pese
peso
pesosi
petauridae
peter
petits
petrolie
petromuridae
petrus
ph
phalangeridae
phan
phascolarctidae
philippe
phillip
philology
phocidae
phocoenidae
phofung
pholidota
phong
photo
phyllostomidae
physeteridae
physical
physics
physique
pieds
pierre
pigal
piktere
pikture
pilgrim
pilgrimiro
pinyin
pixley
plaatjie
place
plakes
planad
planat
planck
planetal
planete
planetes
planlingvoj
plantagenest
plante
plantes
plase
plasma
platanistidae
plate
plates
platforme
platone
plaza
plea
please
pleni
pleo
plesire
pli
plon
plu
plubonisa
plubonisad
plubonisat
plug
plural
plurale
pluri
plus
plusi
plusquamperfekte
pluto
png
po
podobsky
poeme
poemes
poesia
poesie
poete
poetes
poeto
poetos
poggio
poings
poisson
poitiers
poke
pokes
poki
pokim
pokwane
poles
poli
polimeres
polise
polisie
politi
politikal
politike
politikista
politikiste
politikistes
politikisto
polokwane
poloni
polonia
polve
pop
pople
populal
populareso
populari
populational
populatione
populationes
popule
populen
popules
populosi
por
port
porta
portad
porte
portretad
portreto
portugal
portugalum
pos
posiblesos
posibli
positione
positiones
positiv
positivi
positrone
post
postal
poste
posteriori
postes
postula
postulad
posture
posturo
potchefstroom
pote
potoroidae
potsdam
poum
pound
pourquoi
pova
povad
pove
poved
poves
povo
povri
povud
poza
pozati
pr
praha
praktika
praktikal
praktikat
praktiso
pre
prefecture
prefekture
prefektures
prefera
prefero
prefixes
prega
pregad
prehistorie
premie
premies
premises
prenda
prendad
prendati
preparatione
prepositiones
pres
present
presenta
presente
presenti
presentia
presidantali
presidante
presidental
presidente
presidento
presione
presisi
presisim
preske
press
presses
preterite
prevente
pri
primates
primera
primi
primim
prince
prinse
prinses
prinsipali
prinsipate
prinsipe
prinsipes
prinsos
prisenta
prisone
prisoniere
prisonieres
prisoniero
privat
prix
pro
proba
probableso
probablim
probleme
problemes
probo
probos
proboscidea
procaviidae
proce
procyonidae
produkte
produktet
produktione
profesional
profesione
profesiones
profesore
profesoro
profile
profundi
programe
progreso
progress
projekte
projektes
projete
proklama
promote
pronomes
pronomines
pronti
pronunsati
pronuntia
pronuntiat
pronuntiatione
propagatione
proportiones
proposi
proposid
propositione
propositiones
propri
prosedo
prosedos
protected
proteine
proteines
protekta
protekter
protektione
protekto
protestantes
protestanti
proto
protone
protones
prototheria
prova
provad
provence
provensala
provensale
provensali
provensalum
provensi
providence
provinces
provinse
provinses
provise
provisione
proxim
proximeska
proximi
proximim
proyo
prus
pruva
pruvad
pseudo
pseudocheiridae
psikiatri
psikologia
psychology
pt
pteropodidae
publika
publikad
publikat
publikatione
publikationes
publiki
publikis
publisa
publisad
publisat
puera
puere
pueres
puerto
pugne
pugnes
pumelela
pumpa
punkta
punktu
puri
putin
puva
puvad
px
q
qu
qua
quad
quadrati
quadrivium
qualim
quam
quand
quang
quankam
quanteso
quanti
quantitatal
quantitate
quantitates
quantum
quantus
quar
quaranti
quaresmi
quarimes
quartere
quatre
que
question
questione
questiones
questions
qui
quo
quu
quum
r
ra
racontas
radiatione
radicarium
radie
radies
radikali
radike
radikes
radio
rafael
rakonte
rakontes
ral
ramon
ramotshere
ramsay
ramses
rancagua
rand
randfontein
range
rapide
rapideso
rapidi
rapidim
rapiditate
rapiditates
rari
rat
rational
ratione
ratlou
raymond
rbia
rbiger
rd
re
reached
reagan
reaktione
reaktiones
real
reali
realim
realisa
recherche
records
red
redaktere
redesko
redi
ref
refera
referos
reflekte
reforma
reformad
reformat
refusa
refusad
refusati
rega
regal
regali
regardat
rege
reges
regia
regime
region
regione
regiones
regiro
regisoro
reglat
regle
regles
regno
rego
regos
regulari
reihe
rejime
rekogni
rekonosa
relapse
relat
relate
relatet
relatione
relationes
relativ
relativim
relativitate
religie
religione
religiosi
renaissance
rene
renkontra
renkontrad
renkontro
renkontros
renosterberg
reposo
representa
representad
representatione
repu
repubblika
republika
republikani
republike
res
resenti
resentim
resepte
resepted
resista
resisto
resiva
resivad
resmi
resone
resones
resono
responda
respondat
resta
restad
restant
restat
restaurational
restauratione
reste
resulta
resulte
resultes
results
resume
retena
retenad
retorike
retrakte
retro
rette
reveni
revenu
review
revista
reviste
revolte
revolucio
revolutione
revue
revues
rhinocerotidae
rhinolophidae
rhinopomatidae
rhode
ri
ria
ric
richard
richi
richmond
richtersveld
rick
riefenstahl
rife
rifes
rifoy
riga
right
rigore
riko
rimemora
ring
ringe
ringes
rio
riom
rituales
rive
river
rivere
rivivatione
rna
ro
robert
roberts
robespierre
rock
rode
rodentia
roderes
roi
roland
role
roma
romain
roman
romance
romanchum
romane
romanes
romani
romanica
romanikal
romanisatione
rome
ronald
rondes
rosa
rose
rosemary
rosenberger
rostand
rouche
rouge
royal
rto
rubio
rubrike
rumanes
rumani
rumania
rumanum
ruranes
rusa
rusi
rusia
russi
russia
rustenburg
rusum
rute
ruth
s
sa
saarbru
saarlande
sabata
sabatella
sachons
sadat
sahara
sai
saigon
saint
saitama
sakisizwe
sal
sala
saldanha
salt
salute
salvador
sam
sami
samim
samiman
sample
samtem
samuel
san
sanders
sanderson
saneso
sang
sangal
sange
sani
sankte
sankti
sant
santa
santiago
santorum
sapiens
sar
sarah
sarati
sark
sarkozy
sat
satelital
satelite
satelites
sati
satse
satses
saturdie
saturne
sava
savad
savat
savo
savoir
savos
saxoni
saxonia
sc
scandentia
sce
schleswig
schmidt
schneider
scho
schopenhauer
science
sciences
sciencon
sciuridae
scott
screen
scripter
scriptura
scrir
se
sedibeng
see
segomotsi
segonyana
segun
sekle
sekles
sekretario
seku
sekuent
sekuenti
sekueres
sekukune
sekun
selande
selecta
selene
self
selulal
selular
selule
selules
semane
semanes
semantike
sembla
semblanti
seme
semi
sempre
sen
senatane
senate
sendad
sendat
senku
sense
sent
sentence
senteyare
sentral
sentrali
sentre
sentres
sentria
separa
separat
sepesmi
septembre
sepulte
sequense
sequenti
serbi
serbia
sercha
serchad
serebre
seremonie
seremonies
serena
serie
series
sero
serteni
serti
sertim
serva
servikal
servise
servo
sesad
sesone
sesu
set
setembre
setesmi
setsoto
seu
several
sexu
sexual
sh
shablone
shablones
shake
shakespeare
shanghai
shelley
sherlock
shift
shinto
shirt
shizuoka
shore
short
should
show
shultre
si
sibande
siberia
sibiu
sidney
sie
sielal
siele
siential
sientie
sienties
sientiiste
sientiistes
signale
signales
signe
signes
signifika
signifikad
signifikant
signifikatione
signifikationes
signifiko
silabe
silogisme
silva
sim
simbole
simboles
simili
simone
simple
simpli
simplifikat
simplim
sin
sine
singulare
siniore
sinioro
sink
sinkanti
sinkesmi
sinseritate
sinstatal
sintaxe
sintesatore
sintese
siprage
sir
sirenia
siria
sirili
sirk
sirke
sirku
sirkum
sirkumdat
sirkumstanties
sisonke
sistemati
sistematike
sisteme
sistemes
sister
sitadane
site
situat
situatione
situesos
sivili
sivilisationes
six
sixanti
sixesmi
siyanda
siyankuma
siyatemba
sk
skale
skandinavi
skeletes
skirt
skole
skoles
skoti
skotia
skribere
skribiste
skriptad
skriptat
skripte
skripted
skriptera
skriptere
skripteres
skriptero
skriptet
skripture
skriptures
sky
slaves
slavi
slovakia
sloveni
slovenia
sm
smaug
smi
so
social
socialista
society
soddy
soil
sokrate
sol
sola
soldates
solenodontidae
soli
solide
solim
solu
soluebli
solutione
solutiones
somalia
somalies
some
somre
son
sona
sont
soologia
sorani
sorbonne
soria
soricidae
sos
sosial
sosiali
sosialisme
sosialisti
sosie
sosiete
sosiologia
south
southampton
souvarine
soviet
sovieti
sovietikes
spani
spania
spanianes
spanie
spanium
spanum
spasie
spatie
special
spektakle
spektre
spektroskopia
spesial
spesiali
spesialim
spesialisatione
spesie
spesies
spesifikat
spesifikatim
spiral
spirite
spirites
sporte
sportes
sportiv
sports
ss
st
sta
stabili
stacio
stadion
stalin
standard
standardi
stando
standos
stanislas
star
start
starta
state
states
statistike
statistikes
stats
stein
steinmeier
stelaro
stele
steles
stellenbosch
steve
stile
stilistikat
stoa
stockholm
stoikistes
stopselclub
storm
story
strade
stranjeri
strategie
street
strese
striktim
strofe
strukture
struktures
stuart
studantes
studente
studentes
studia
studiad
studiant
studiat
studie
studies
studio
studios
study
su
sub
subatomi
subfake
subfakes
subfilum
subi
subklase
subkontinente
subskriptiones
substantie
substanties
substantivali
substantive
substantives
subtraktione
subu
sud
suda
sude
sudi
sudu
suedi
suedia
suez
sufase
sufixe
sufixes
sufrid
sugeste
sugested
suidae
suisi
suisia
suisian
suksese
sukseso
suksesos
sulfre
sum
sume
sumo
sumotori
sunal
sundi
sundie
sundien
sune
suno
suon
suone
suones
super
supera
superi
supernova
superstrates
suporta
suportat
suposa
suposi
supra
supru
sur
surfase
suriname
sutum
svante
svastike
svg
swartland
swatum
swazilande
swellendam
switzerland
sydney
sylvie
symphonie
systems
sz
sztemon
t
ta
tabazimbi
table
tabo
tabu
tachyglossidae
taekwondo
taemane
tag
tailandani
tailande
tailandia
tain
tajikistan
take
tal
talca
tali
talim
tallahassee
tallinn
talpidae
tam
tambe
tambo
tamen
tampone
tan
tand
tangsudo
tant
tantim
tanzania
taolo
tapiridae
tard
tardi
tardim
tarja
tarnovo
tarsiidae
tarsipedidae
tatia
taung
taxonomie
tayassuidae
te
teatral
teatre
ted
teemane
teewaterskloof
teknike
teknikes
teknologia
tekte
tektoni
tel
television
televisional
televisione
tem
teme
temes
temp
tempal
tempe
temperature
temperatures
tempes
temple
temples
tempo
temps
tempus
temuco
tena
tenid
tennessee
tenrecidae
tentatione
teologia
teoreme
teorial
teorie
teories
tera
teral
tere
teres
teresa
teritorie
teritories
termina
terminad
termine
termines
termodinamike
terra
tes
test
testamente
testes
texas
text
texte
textes
th
thaba
thai
that
thatcher
the
theater
their
thembelihle
thembisile
therapy
there
theria
these
they
thie
this
thomas
those
through
thryonomyidae
thumb
thumbnail
thylacinidae
thyropteridae
ti
tica
tikas
til
till
tilnun
time
times
timor
tipe
tipes
tirana
title
tito
to
tobago
together
tokologo
tokyo
tolkien
tome
topologia
torre
torsten
tot
total
toti
totim
toulouse
tour
tournee
tourneur
towards
tra
traditionalim
traditione
traditiones
tradukte
traduktet
traduktione
traduktiones
tragulidae
trakta
traktad
traktate
trakto
trang
trans
transcendent
transdonis
transilvania
transkriptione
translation
transmise
trapero
tre
tree
tremblo
tres
trete
tretes
tri
trianti
tribues
trichechidae
trie
triesmi
triesmim
trigonometria
trinidad
tristan
trivium
tro
tropikal
trotski
trova
trovad
trovant
trovat
trovos
trublar
true
trump
ts
tsa
tsantsabane
tshwane
tshwete
tsolwana
tsongum
tswaing
tswanum
tswelopele
tu
tua
tuad
tuat
tubatse
tubulidentata
tulamela
tum
tupaiidae
turisme
turkes
turkia
tv
two
tzaneen
u
ubuhlebezwe
ubuntu
ugu
uk
ukahlamba
ukraina
uli
ulm
ultim
ultimi
ultra
ulundi
um
umdoni
umgungundlovu
umhlabuyalingana
umhlatuze
umjindi
umkanyakude
umlalazi
umngeni
umshwati
umsobomvu
umtshezi
umuziwabantu
umvoti
umzimkulu
umzimvubu
umzinyati
umzumbe
un
und
under
une
unesma
unesmi
unesmifoy
unesmim
uneso
unfoy
uni
unifikat
uniformi
uniki
unio
union
unionati
unione
unioni
uniselular
unitate
universal
universe
universes
universitate
universitates
universite
university
unque
unwin
up
upon
upongolo
upright
ur
ural
urane
urbal
urbe
urbes
urbete
urey
urgell
urquidez
ursidae
urss
us
usa
usabli
usad
usani
usania
usant
usat
usati
use
used
useres
uso
usoniani
ut
utah
utaravento
utilisa
utilisat
utrecht
utukela
utungulu
uzbekistan
v
va
vada
vadad
vakui
valahia
valdivia
vale
valencia
valenciana
valencians
valensia
valensium
valensum
vales
vallejo
valls
valore
valores
valorosi
valter
value
van
vanbrugh
vanhanen
var
varia
variable
variables
variabli
variantia
varie
varietate
varmi
varsovio
varta
vasti
vatikan
ve
veber
vektor
veliko
velositate
vembe
vena
venda
vendum
venerad
venezuela
veni
venid
venio
venka
venko
vent
vente
ventersdorp
vento
ventrikle
ventrikles
venus
verb
verbal
verbali
verbe
verbes
verbo
verbs
verdi
vereso
veri
verim
veritate
verke
verkes
vermenouze
vermont
verne
verneuil
vers
versione
versiones
vertebres
vertebroses
vespero
vespertilies
vespertilionidae
vespre
veste
vesti
veturilo
vexillifer
vi
via
viatge
vicente
victor
victoria
victorin
vida
vidabli
vidad
vidal
vidat
videos
vido
vidocq
vie
vies
vietminh
vietnam
vietnami
view
vigot
vii
vikinges
viktorie
vilaje
vilajes
ville
vine
vinsent
virginia
viro
viros
visigotes
visines
vision
visita
visitad
visito
vita
vitacura
viva
vivad
vivant
vivanti
vivar
vive
viverne
viverridae
vivo
vizini
vladimir
voce
voie
voise
voises
vokablaro
vokal
vokales
vol
vola
volapu
volga
voli
volid
volontari
volumine
vombatidae
von
vor
vorde
vordes
vorlin
vota
votes
voto
voyager
voyaja
voyajad
vrier
vu
vud
vulad
vulamehlo
vun
vus
w
wahl
waldemar
wales
walker
wall
walter
want
wanted
war
warszawa
was
washington
watch
waterberg
way
wayne
wałe
we
web
webb
website
weihnachten
west
weste
westi
westonaria
westu
what
when
which
whitaker
white
who
wie
wien
wife
wiki
wikipedia
wikipedie
wilhelm
wilhelmus
will
william
winning
wisconsin
with
witzenberg
wka
wolf
wollstonecraft
woman
woodard
word
words
work
world
would
wright
wulf
www
wyoming
x
xenarthra
xianfan
xic
xinjiang
xr
y
ya
yahoo
yamagata
yangon
yangtze
yare
yares
yarsente
yarsento
ye
years
yer
yes
yetemba
yetu
york
you
young
youtube
yugoslavia
yugoslavie
yule
yuna
yunas
yunes
yuneso
yuni
yuno
yure
yusu
yves
yvonne
z
za
zagreb
zaubermond
ze
zeit
zelensky
zeus
zf
zhejiang
ziphiidae
zo
zone
zu
zulu
zulum
zum
zun
zy
{
|
}
~
«
°
²
´
·
»
¿
đ
đo
ħ
ł
œ
œuvre
ɲ
ˈ
ː
̀
́
̂
̃
̄
̆
̇
̈
̉
̊
̌
̓
̔
̛
̣
̦
̧
̨
͂
͡
α
γ
γος
η
κ
λ
λο
μ
ν
ο
π
ς
χ
ω
а
б
в
г
д
е
ж
з
и
к
л
м
н
никола
о
п
р
с
т
у
ф
х
ц
ч
ш
ъ
ы
ь
ю
я
є
ј
ѣ
ѧ
ѫ
ק
ا
ع
غ
ق
ٕ
क
त
भ
स
ा
ि
्
ক
জ
ট
য
ষ
হ
া
ি
ু
ূ
ে
্
ৰ
க
ப
ர
ல
ா
ூ
ே
்
–
—
‘
’
“
”
„
•
…
‪
‬
′
″
₂
↑
↔
↷
−
③
④
⑦
☉
☾
☿
♀
♁
♂
♃
♄
♅
♆
♇
⛢
⯓
⺀
⺄
⺆
⺈
⺊
⺌
⺕
⺝
⺸
⺼
⿰
⿱
⿲
⿳
⿴
⿵
⿶
⿷
⿸
⿹
⿺
⿻
〢
え
か
な
の
ひ
も
わ
ん
゙
ア
ウ
キ
ク
コ
シ
ス
ソ
タ
ッ
ト
ナ
ネ
ハ
フ
ミ
ユ
ラ
㇁
㇂
㇄
㇇
㇈
㇉
㇓
㐁
㐄
㐅
㐌
㐫
㐬
㐭
㐮
㐱
㑒
㒵
㒸
㒼
㓁
㓞
㔾
㕛
㕣
㖾
㘝
㚅
㚇
㚔
㚘
㝉
㝡
㝴
㝵
㞋
㞢
㞷
㠩
㠭
㠯
㡀
㡭
㡿
㢲
㢴
㣇
㣺
㥯
㪅
㫄
㫐
㫒
㫺
㬅
㬎
㬥
㬰
㲋
㳄
㷠
㸒
㸚
㸦
㼌
㼲
㽞
㿟
䀠
䂞
䍃
䏍
䒑
䖍
䖒
䖝
䖵
䙴
䚻
䜌
䝿
䡛
䧹
䪞
一
丁
丂
七
丄
丅
丆
万
丈
三
上
下
丌
不
与
丏
丐
丑
专
且
丕
世
丘
丙
业
东
丞
丢
丣
两
严
並
丨
丩
个
丫
丬
中
丮
丰
丱
串
丵
丶
丷
丸
丹
为
主
丽
丿
乀
乂
乃
久
乆
乇
么
义
之
乌
乍
乎
乏
乐
乑
乔
乖
乗
乘
乙
乚
乛
乜
九
乞
也
习
乡
乳
乾
亀
亅
了
亇
予
争
事
二
亍
于
亏
亐
云
互
亓
五
井
亘
亚
亜
亞
亟
亠
亡
亢
交
亥
亦
产
亨
亩
享
京
亭
亮
亯
亰
亲
亳
亶
亷
人
亻
亼
亾
仁
今
介
仌
从
仐
仑
仒
仓
仕
他
付
仝
代
令
以
任
企
伊
伏
伐
休
会
伯
但
位
何
佘
余
作
佥
佳
使
來
侈
侌
侖
依
侯
侵
便
保
俞
信
修
倉
倍
候
倠
偉
備
僉
僕
儿
兀
允
兂
元
兄
充
兆
兇
先
光
兊
克
兌
免
兑
兒
兓
兔
党
兜
兟
入
全
兩
兪
八
公
六
兮
兰
共
关
兵
其
具
典
兹
兼
冀
冂
冃
冄
内
冈
冉
冊
冋
册
再
冎
冏
冐
冒
冓
冖
冗
冘
军
农
冝
冡
冥
冫
冬
冷
几
凡
凢
凵
凶
凷
凸
凹
出
函
凾
刀
刁
刂
刃
刄
刅
分
切
刍
刑
刕
刖
列
刘
则
初
別
利
别
到
制
刺
則
削
剌
前
剛
剡
剣
剽
劉
力
功
加
劦
助
劫
劳
劵
勃
勇
勉
勒
動
務
勞
勤
勹
勺
勻
勾
勿
匀
匂
包
匆
匈
匊
匋
匍
匕
化
北
匚
匝
匡
匪
匱
匸
匹
区
医
匽
匿
區
十
卂
千
卄
卅
卆
升
午
卉
半
卌
华
卑
卒
卓
单
卖
南
卜
卝
卞
占
卡
卢
卣
卤
卦
卩
卪
卬
卯
印
危
即
却
卵
卷
卸
卻
厂
厃
厄
历
厈
厉
厌
厓
厘
厚
原
厤
厥
厨
厭
厲
厶
厷
厸
去
厼
厽
叀
参
參
叅
又
叉
及
友
双
反
叐
发
叒
叔
叕
取
受
叚
叜
叟
口
古
句
另
叩
只
召
可
台
叱
史
右
叵
号
司
叹
吂
各
吅
合
吉
吊
吋
同
名
后
吏
向
吕
君
吝
吞
否
含
启
吳
吴
吹
吾
呂
呆
呈
告
员
呙
周
命
咅
和
咎
咠
咢
咨
咸
咼
哀
品
哉
員
哥
哲
唐
商
啇
問
啚
啬
啻
善
喜
喬
單
喿
嗇
噩
嚴
囊
囗
囘
囙
囚
四
回
囟
因
囧
囬
困
囱
囷
固
国
圂
圅
國
圍
圓
土
圡
圣
圥
在
圭
地
圶
圼
坐
坒
坚
坡
坴
垂
垔
垚
埀
埋
埶
執
基
堂
堅
堆
堇
堯
塞
墨
壘
士
壬
壯
声
壳
壴
壹
壺
壽
夂
处
夅
夆
备
夊
夋
夌
复
夏
夒
夕
外
夗
夘
多
夜
夢
大
夨
天
太
夫
夬
夭
央
失
夲
头
夷
夸
夹
夻
夾
奂
奄
奇
奈
奉
奎
奏
奐
契
奓
奔
奚
奞
奠
奢
奥
奭
女
奴
奻
好
如
妄
妙
妟
妥
妻
妾
姑
委
姜
威
娄
婁
婴
嬰
嬴
子
孑
孔
孕
孖
字
存
孚
孛
孝
孟
季
孤
学
孫
孱
學
宀
宁
宂
它
宅
宇
守
安
宋
完
宏
宓
宗
官
定
宛
宜
宝
客
宣
室
宮
宰
害
家
容
宾
宿
寄
寅
密
富
寒
察
寧
審
寫
寬
寮
寸
对
寺
寻
寽
対
寿
封
尃
射
将
將
專
尉
尊
尋
尌
對
小
少
尒
尓
尔
尖
尗
尚
尞
尢
尣
尤
尧
尨
尭
就
尸
尹
尺
尻
尼
尽
尾
尿
局
居
屈
屋
屎
屏
屑
展
屖
屚
属
屠
屡
屬
屮
屯
屰
山
屵
屾
岁
岂
岑
岡
岩
岳
岸
峯
島
崇
崑
崔
崖
崙
崩
嵬
嶲
巂
巛
川
州
巟
巠
巢
巤
工
左
巧
巨
巩
巫
差
己
已
巳
巴
巷
巸
巽
巾
巿
帀
市
布
希
帚
帛
帝
带
師
席
帶
常
干
平
年
幵
并
幷
幸
幺
幻
幼
幽
幾
广
広
庄
床
底
店
庚
府
度
庫
庭
庶
康
庸
廉
廌
廛
廣
廩
廴
延
廷
建
廾
廿
开
弁
弃
弄
弇
弋
式
弓
弔
引
弗
弘
弜
弟
弥
弦
弱
張
強
强
彊
彌
彎
彐
彑
当
彔
录
彖
彗
彡
形
彥
彦
彧
彭
彳
役
彼
往
待
律
徒
得
徙
從
復
微
徵
心
忄
必
忌
忍
志
忝
忠
忩
快
念
忽
忿
思
怠
急
怱
恆
恒
恩
恭
息
悉
患
悤
悲
悶
惠
惡
惢
愁
愈
意
愛
感
慈
慧
慮
憂
憲
應
戀
戈
戉
戊
戋
戌
戍
戎
成
我
戒
戔
或
戚
戠
戢
截
戲
戶
户
戹
戼
戾
房
所
扁
扇
手
扌
才
打
托
执
承
折
拉
拜
拳
拿
掌
推
提
摩
撲
支
攴
攵
收
攸
改
放
政
敄
敏
敕
敖
敗
敝
敞
敢
散
敦
敫
敬
数
敷
數
斂
文
斉
斊
斗
斤
斥
斩
斬
斯
新
方
於
施
斿
旁
旋
族
无
旡
既
旣
日
旦
旧
旨
早
旬
旱
旲
时
旾
昆
昇
昌
昍
明
昏
易
昔
昗
昜
星
春
昬
是
昱
昴
昷
時
晃
晋
晏
普
景
晶
智
暑
暴
曇
曩
曰
曲
曳
更
曷
書
曹
曼
曾
替
最
朁
會
月
有
朋
服
朔
朕
朗
望
朝
木
朩
未
末
本
札
朮
术
朱
朵
朶
朿
杀
李
杏
村
杜
束
条
来
東
杲
杳
松
析
林
枚
果
枝
枲
枼
某
柔
查
柬
柰
柴
栗
桀
桑
桼
梁
條
梟
梨
棘
棠
棥
森
楚
業
楽
榮
樂
樊
樹
欠
次
欣
欮
欲
欶
欽
款
歆
歇
歛
止
正
此
步
武
歨
歩
歪
歮
歯
歰
歲
歴
歷
歸
歹
歺
死
殳
段
殷
殸
殹
殺
殻
殿
毋
毌
母
每
毒
比
毕
毚
毛
毳
氏
氐
民
气
氣
水
氵
氶
氷
永
氺
氾
求
汝
汞
江
沃
沓
沙
沝
治
泉
法
波
泣
泥
泰
洛
洪
活
派
流
浙
浦
浪
浮
淡
淮
清
渚
渠
湘
湯
源
滿
漸
瀬
火
灬
灭
灰
灵
灷
炅
炎
炏
炗
炙
炭
為
烈
烏
烝
焉
無
焦
焱
然
煞
熊
熏
燕
營
燮
爪
爫
爭
爯
爰
爱
爲
爵
父
爻
爽
爾
爿
片
牙
牚
牛
牜
牟
牢
牧
牪
牽
犀
犬
犭
犮
狂
狄
狊
独
狺
猋
猒
猪
献
獻
玄
率
玉
王
玟
玨
珎
班
琴
瑟
瑩
瓜
瓦
甘
甚
生
産
用
甫
甬
田
由
甲
申
电
甶
男
甸
甹
画
甾
畀
界
畏
畐
留
畜
畟
畢
畧
畨
番
畫
異
畱
當
畺
畾
疊
疋
疌
疑
疒
疾
癶
癸
癹
登
發
白
百
皀
皃
的
皆
皇
皋
皐
皕
皮
皷
皿
盃
盆
盇
盈
益
盍
盎
监
盒
盖
盛
盡
監
盤
盧
目
直
相
盾
省
眇
眉
看
眔
眞
真
眷
眼
眾
着
睘
睪
睿
瞏
瞢
瞿
矍
矛
矞
矢
矣
知
矦
短
石
破
碎
磊
磨
示
礻
礼
祟
票
祭
禀
禁
福
禸
禹
禺
离
禽
禾
禿
秀
秃
秉
秋
科
秝
秦
移
稟
穀
穌
穴
究
穹
空
穿
突
窄
窒
立
竒
竜
竝
竟
章
童
竹
笑
笠
筆
等
答
箕
算
箴
節
篤
篭
米
粉
粛
粟
粤
粦
粲
糞
糸
糹
系
紀
約
納
素
索
紫
累
細
絜
絫
絲
維
綿
縣
繇
纍
纟
缶
网
罒
罔
罕
罗
罙
罡
罢
罪
署
罷
羅
羊
羌
羍
美
羔
羕
羗
羞
羡
羣
群
義
羲
羸
羽
翁
翏
習
翕
翟
翠
翼
老
耂
考
者
耆
而
耎
耑
耒
耕
耳
耴
耶
耷
聂
聊
联
聖
聚
聶
聿
肀
肃
肅
肉
肖
肙
肥
肩
肯
育
肴
胃
背
胡
胥
能
脊
脩
膚
臣
臤
臧
自
臬
臭
臯
臱
至
致
臺
臼
臽
臾
臿
舀
舂
舄
與
興
舉
舌
舍
舛
舜
舞
舟
般
艮
良
色
艸
艹
艾
芒
芔
芬
芮
花
芳
芺
芻
苔
苗
苟
若
苦
英
茶
茸
荅
草
荒
荣
荼
莆
莧
莫
莽
菅
菆
菊
菐
華
萬
落
葉
著
葛
董
葵
蒙
蒦
蒼
蓋
蓬
蓺
蔑
蔡
蕉
蕭
薄
薛
薦
薰
藍
藏
藥
蘭
虍
虎
虐
虒
虔
處
虖
虗
虘
虚
虛
虜
虞
虫
虽
蚤
蚩
蜀
蜜
蟲
蠡
血
行
衍
術
衛
衣
衤
表
衮
衰
袁
袞
褭
褱
襄
襾
西
覀
要
覃
見
規
覓
覧
親
覽
见
角
解
言
訁
訇
計
詹
誩
諸
謙
讠
谷
豆
豈
豊
豐
豕
豖
豙
象
豦
豩
豪
豸
貇
貝
貞
貟
負
貢
貧
貪
貫
責
貳
貴
買
費
賁
資
賈
賏
賓
賔
賛
賞
賢
賣
質
賴
贊
贝
贡
责
贯
贲
贵
赖
赞
赤
赦
走
越
足
跆
路
蹇
身
躬
車
軍
軎
軟
輦
车
辖
辛
辜
辟
辥
辰
辱
農
辵
辶
边
达
过
近
连
迷
追
退
送
逆
逐
通
速
造
逢
連
逮
進
遀
遂
過
道
達
遠
遣
適
遷
遺
邊
邑
邕
那
邦
邪
郎
部
郭
都
鄉
酉
酋
配
酓
釆
采
里
重
野
量
金
釒
錢
钅
長
镸
长
門
閃
閉
開
閏
閑
閒
間
閔
閵
閻
闌
门
间
闷
阑
阜
阝
阿
降
陳
隆
隊
隋
隡
隨
隱
隶
隹
隺
隻
隼
隽
难
雀
雁
集
雈
雋
雍
雐
雔
雙
雚
雜
雝
離
難
雨
雩
雪
雲
零
雷
需
霍
霜
霝
霞
霸
靈
靑
青
静
非
靡
面
靣
革
韋
韦
韭
韯
韱
音
頁
頃
項
須
頗
頡
頻
顛
页
風
风
飛
飞
食
飠
養
館
饣
首
香
馬
馮
駦
马
骨
高
髟
鬥
鬯
鬲
鬼
魚
魯
鮮
鱼
鲁
鳥
鳳
鸟
鹵
鹿
麃
麗
麥
麦
麻
黃
黄
黍
黎
黑
黒
黨
黹
黽
黾
鼎
鼓
鼠
鼻
齊
齋
齐
齒
齿
龍
龙
龜
龟
龠
龰
龱
龴
龵
龶
龷
龸
龹
者
艹
？
🜨
𠀁
𠀃
𠀆
𠀉
𠀎
𠀐
𠁁
𠁣
𠂆
𠂇
𠂈
𠂉
𠂊
𠂋
𠂎
𠂒
𠂔
𠂛
𠂡
𠂢
𠂤
𠂬
𠂭
𠂹
𠃊
𠃋
𠃌
𠃍
𠃎
𠃑
𠃓
𠃔
𠃜
𠄌
𠄎
𠄠
𠄢
𠆢
𠆥
𠇍
𠈌
𠌵
𠓜
𠔉
𠔥
𠔼
𠔽
𠔿
𠕀
𠕁
𠕋
𠘧
𠘨
𠙻
𠙼
𠚏
𠚒
𠚤
𠚪
𠣏
𠤎
𠤕
𠥓
𠦄
𠦑
𠦝
𠧒
𠧗
𠧪
𠩺
𠪚
𠫓
𠫔
𠫤
𠬛
𠬝
𠬞
𠬢
𠬤
𠬶
𠮛
𠮦
𠮷
𠯑
𠱠
𠳮
𠷎
𡈼
𡉀
𡉵
𡌥
𡍮
𡏳
𡕒
𡕩
𡕰
𡖅
𡗗
𡗜
𡘆
𡘤
𡧱
𡨄
𡩧
𡬠
𡭽
𡰣
𡰥
𡰪
𡰯
𡰱
𡷈
𡸁
𡿨
𡿩
𡿪
𡿺
𢀖
𢀛
𢀩
𢁙
𢆉
𢆰
𢆶
𢇁
𢇇
𢉖
𢌬
𢌿
𢏚
𢑑
𢑚
𢖻
𢙣
𢛳
𢦏
𢦒
𢧵
𢼄
𢾕
𣁋
𣄼
𣅀
𣅽
𣍘
𣎳
𣎵
𣏋
𣏼
𣗥
𣥂
𣥖
𣦵
𣦼
𣧄
𣪊
𣪠
𣬉
𣳾
𣶒
𤇾
𤊽
𤐫
𤓰
𤔔
𤕨
𤣩
𤰇
𤰔
𤰞
𤴓
𤴔
𤽄
𥁑
𥁕
𥃦
𥃩
𥃭
𥇡
𥑟
𥘅
𥘈
𥝢
𥫗
𥱡
𦈢
𦉪
𦉬
𦉼
𦍌
𦍒
𦎧
𦐇
𦓔
𦔮
𦘒
𦙃
𦚏
𦣝
𦣞
𦣻
𦥑
𦥔
𦥯
𦨉
𦭝
𦰩
𧆞
𧈧
𧘇
𧰨
𧴪
𧴮
𧵩
𧾷
𨸏
𨾴
𩙿
𩠐
𩫏
𩵋
𪉷
𪜀
𪟽
𪠲
𪩲
𫇦
𫔭
𫜸
𫝀
𫠣
𫠩
𫢉
𫥞
𫩏
𫩠
𫪡
𫲽
𫶧
𬀷
𬐘
𬗌
𬙙
𬛸
𬜯
𬟩
𬯁
𬴘
𬺻
𬼉
𬼖
𭀰
𭁈
𭁨
𭅰
𭑈
𭕄
𭗼
𭤨
𭥫
𭻾
𮅕
𮊿
𮍌
𮍏
𮓗
𮥼
𮧮
廾
𰀁
𰀄
𰀈
𰀉
𰀕
𰀠
𰀡
𰀢
𰀪
𰁜
𰃮
𰆊
𰆘
𰋙
𰕎
𰢴
𰧭
𰯲
0--
10--
12--
13--
14--
15--
16--
17--
18--
39--
59--
6--
7--
9--
a--
ab--
aba--
abor--
abr--
absor--
abu--
ac--
ad--
ade--
ado--
afri--
ag--
ah--
ai--
ak--
al--
alek--
alex--
alf--
ali--
alsa--
am--
ame--
ami--
an--
anar--
ang--
ans--
ap--
apa--
ape--
apo--
apt--
aquavi--
ar--
ara--
argu--
arki--
arrondis--
as--
ase--
astro--
at--
au--
aug--
aus--
auto--
av--
axio--
ay--
aza--
b--
ba--
bakte--
bal--
banjar--
bapt--
bar--
bass--
bat--
be--
bel--
ber--
bi--
bio--
biod--
biog--
biogra--
bir--
bizan--
blan--
bo--
boe--
bol--
bom--
bona--
bor--
bos--
bot--
bou--
br--
braz--
bre--
bri--
brit--
bu--
buc--
bur--
by--
c--
ca--
cal--
cam--
can--
capel--
car--
ce--
cen--
ch--
cha--
chan--
chi--
ci--
cir--
clare--
clau--
co--
col--
com--
con--
cool--
cor--
coun--
cre--
cri--
cu--
cur--
cy--
d--
da--
dama--
dan--
de--
dek--
dekla--
dem--
democ--
den--
dep--
des--
dex--
di--
dicti--
dife--
dig--
dip--
diplo--
dis--
divi--
do--
dokumen--
dol--
dor--
dr--
dre--
drey--
du--
dub--
dur--
e--
ed--
edit--
efek--
eg--
ek--
el--
elab--
elec--
elek--
elip--
em--
empi--
en--
er--
eri--
es--
esper--
et--
eu--
eus--
evi--
ex--
exer--
exp--
f--
fa--
fak--
fal--
far--
fara--
fe--
fer--
fi--
fil--
filo--
fir--
fisi--
flekti--
flo--
flu--
fol--
fon--
for--
fos--
fou--
fr--
fra--
frag--
fre--
fu--
fur--
g--
ga--
gam--
garan--
gask--
ge--
geogra--
ger--
gha--
gi--
gid--
gide--
gil--
gin--
glo--
go--
gott--
gr--
gra--
grama--
gramma--
gri--
gro--
gru--
gu--
guer--
gui--
guil--
h--
ha--
habs--
hal--
ham--
har--
hart--
haw--
he--
hel--
her--
hi--
ho--
hol--
homo--
hu--
hy--
i--
il--
im--
impresion--
in--
inc--
indi--
inf--
infan--
influ--
ink--
inspi--
inst--
instr--
instruk--
inten--
intenti--
inter--
ioh--
ir--
is--
isang--
it--
iz--
j--
ja--
jam--
je--
ji--
jo--
jorna--
ju--
jun--
jur--
jurna--
jus--
k--
ka--
kam--
kan--
kana--
kap--
kapt--
kar--
kas--
kath--
kati--
kava--
ke--
kha--
ki--
ko--
kol--
kom--
komple--
kon--
kor--
kra--
kri--
kriti--
kro--
ku--
kul--
kun--
kup--
kur--
kusto--
l--
la--
lab--
lan--
le--
let--
li--
libr--
lig--
limou--
llo--
lo--
lu--
luk--
ly--
m--
ma--
mag--
mai--
mal--
man--
mar--
mas--
mat--
mc--
me--
medi--
mer--
mest--
meta--
mete--
mi--
midd--
mig--
mik--
mikro--
min--
mine--
mit--
mix--
mo--
mor--
mos--
mu--
mun--
muni--
mur--
mus--
musk--
muzi--
my--
n--
na--
nar--
nasion--
nat--
nath--
ne--
nece--
neme--
ng--
ni--
nk--
no--
nom--
non--
nonkom--
nor--
nos--
nu--
nuk--
nul--
num--
o--
ob--
oc--
occ--
od--
of--
ofis--
ok--
oksi--
ol--
om--
op--
opo--
opti--
or--
orbi--
orni--
ortog--
os--
ou--
ov--
p--
pa--
pal--
pan--
par--
pasi--
pe--
pen--
per--
ph--
phil--
pi--
pie--
pil--
pla--
plan--
ple--
plu--
po--
pop--
pr--
prac--
prak--
pre--
predikti--
pri--
princ--
pro--
prome--
pros--
pu--
pul--
pun--
punk--
q--
qing--
qua--
r--
ra--
ran--
re--
reac--
red--
ref--
reg--
reji--
rek--
reli--
remp--
ren--
repe--
res--
ri--
rig--
ro--
ru--
rug--
rup--
rur--
rus--
rw--
s--
sa--
sag--
sak--
sakri--
sar--
sau--
sc--
sch--
scri--
se--
sec--
sek--
sekre--
sekti--
selekti--
sem--
sen--
ser--
sey--
sfe--
sh--
shi--
si--
sig--
sik--
silve--
sin--
sita--
sk--
skol--
skul--
sla--
slo--
so--
sol--
sor--
sp--
spa--
spe--
spi--
st--
sta--
stati--
ste--
stoi--
struktu--
stu--
su--
sub--
sud--
suf--
suk--
sukse--
super--
sur--
sus--
suve--
swe--
syn--
sz--
t--
ta--
tax--
te--
ten--
teor--
ter--
th--
ti--
tipi--
to--
tor--
tra--
trans--
tri--
ts--
tu--
tuni--
tur--
u--
ug--
uh--
uk--
ul--
un--
une--
uni--
up--
ur--
usu--
ut--
v--
va--
val--
valla--
ve--
ver--
verte--
vi--
vil--
vin--
vir--
viz--
vocabu--
vok--
vor--
vou--
w--
wak--
wal--
wat--
we--
wel--
wid--
wil--
win--
x--
y--
ya--
ye--
yu--
z--
za--
ze--
μ--
μαθη--
ν--
--0
--1
--2
--3
--4
--5
--6
--66
--7
--8
--9
--99
--a
--ad
--ah
--ake
--al
--ali
--am
--an
--ana
--ane
--anes
--ani
--ano
--ant
--ar
--ard
--ari
--arie
--aro
--ary
--as
--ase
--at
--ata
--ate
--ati
--ation
--atione
--ato
--au
--b
--ba
--be
--ber
--berg
--bia
--ble
--bli
--bo
--bow
--bral
--bre
--bri
--bro
--brog
--bu
--burg
--bus
--c
--ca
--cal
--ce
--ces
--ch
--ci
--cio
--ck
--cs
--ct
--ctiv
--d
--da
--dant
--de
--des
--di
--dia
--die
--diktione
--dn
--do
--dre
--ds
--dt
--du
--duction
--dy
--e
--ea
--ech
--ed
--ee
--el
--en
--ens
--ense
--ent
--ente
--enti
--entie
--ep
--er
--era
--ere
--ern
--ero
--eros
--ers
--es
--ese
--eska
--eso
--et
--eto
--ette
--eum
--evich
--ex
--ey
--ez
--f
--fi
--fia
--fic
--fie
--fika
--fikatione
--fo
--ft
--g
--ga
--ge
--gen
--ger
--ges
--ght
--gi
--gia
--gie
--gli
--glot
--gne
--go
--gon
--gs
--gton
--gua
--gui
--gy
--h
--ha
--he
--hes
--hi
--hn
--i
--ia
--ial
--ian
--ianes
--iani
--iant
--ias
--ic
--ical
--icio
--ics
--ide
--ie
--ied
--ien
--ier
--ies
--ifiko
--ig
--ight
--ik
--ika
--ikal
--ike
--iki
--il
--ille
--im
--in
--ina
--ine
--ing
--ings
--ini
--int
--io
--ion
--ional
--ionalim
--ione
--ions
--ipe
--ir
--iro
--is
--isa
--isatione
--ise
--isme
--istes
--isti
--it
--ita
--ite
--ites
--itional
--ium
--iv
--ive
--ives
--ivi
--ix
--j
--ja
--je
--jo
--justi
--k
--ka
--kal
--kat
--ke
--kere
--kes
--ki
--kiste
--ko
--ks
--kt
--kta
--ktat
--kte
--ktet
--kti
--ktiv
--kto
--kum
--l
--la
--lal
--landal
--lar
--lat
--ld
--le
--ler
--les
--ley
--li
--lite
--ll
--lla
--ller
--lls
--lly
--lo
--logi
--logia
--logy
--lor
--ls
--lu
--ly
--m
--ma
--man
--me
--ment
--mente
--mes
--mi
--mia
--mo
--morphi
--n
--na
--nal
--nari
--nce
--nces
--nd
--nda
--nde
--nder
--ndi
--ndum
--ne
--ned
--ner
--nes
--ng
--ni
--nie
--nik
--nis
--nje
--nne
--no
--nos
--ns
--nsa
--nse
--nsiv
--nso
--nt
--ntal
--nte
--nter
--ntes
--ntese
--nteso
--nti
--ntie
--ntim
--nto
--nton
--nts
--num
--ny
--nze
--o
--oge
--oges
--ogie
--ogue
--ogy
--oi
--oides
--ol
--ologia
--ologie
--ology
--om
--ome
--omes
--on
--ona
--onal
--one
--ones
--oni
--ons
--op
--or
--ori
--os
--osi
--ot
--ou
--p
--pa
--pe
--pes
--petenti
--pi
--pic
--pie
--pondo
--pra
--pu
--pul
--pur
--q
--r
--ra
--rad
--ral
--rant
--ras
--rate
--rc
--rd
--re
--ren
--res
--rez
--rg
--rgi
--ri
--ria
--rie
--ries
--rim
--risa
--rium
--rn
--rno
--ro
--ron
--ros
--rosi
--rr
--rre
--rry
--rs
--rt
--ru
--rum
--rus
--ry
--s
--sa
--sad
--sat
--sati
--satione
--sburg
--se
--sed
--sell
--ses
--sh
--shi
--si
--sia
--siat
--siste
--sitate
--siv
--sk
--sme
--smi
--smo
--so
--sos
--ss
--st
--sta
--ste
--ster
--stes
--sti
--sto
--t
--ta
--tact
--tad
--tari
--taro
--tat
--tate
--tati
--tationes
--te
--tem
--ten
--tenti
--ter
--tes
--tet
--th
--thy
--ti
--tia
--tic
--tics
--tie
--tier
--tika
--tike
--tim
--tina
--tine
--tio
--tion
--tional
--tione
--tiones
--tiv
--tivi
--to
--ton
--topher
--tor
--torie
--toro
--tory
--tos
--ts
--tt
--tte
--tu
--tude
--tus
--ty
--tz
--u
--ua
--ud
--ue
--ues
--ult
--um
--ume
--un
--uno
--ur
--ura
--ure
--uri
--us
--ut
--ute
--ux
--v
--va
--ve
--veni
--ves
--vestu
--vi
--vo
--vski
--w
--wn
--ws
--x
--xa
--xe
--xi
--xis
--y
--ya
--ye
--yi
--ys
--yu
--z
--za
--ze
--zi
--zo
--α
--ι
--ς
